{
  "metadata": {
    "vocab_size": 26616,
    "algorithm": "BPE",
    "created_at": "2026-08-29 08:36:09",
    "special_tokens": [
      "<PAD>",
      "<SOS>",
      "<EOS>",
      "<UNK>",
      "<MASK>"
    ]
  },
  "vocab": {
    "exactly": 10639,
    "lect": 1222,
    "Ġassures": 14469,
    "Ġpractice": 2628,
    "Ġunflinching": 26514,
    "devouring": 24953,
    "antically": 22100,
    "Ġwhitish": 24867,
    "latter": 15386,
    "Ġenriched": 26501,
    "Ġexpans": 18624,
    "Ġhappiest": 11886,
    "Ġseventeen": 26212,
    "forster": 16169,
    "worth": 8630,
    "Ġfocuses": 8653,
    "Ġthem": 640,
    "Ġrose": 3442,
    "Ġrepaid": 19084,
    "namely": 23667,
    "Ġfamine": 16332,
    "damp": 15347,
    "Ġrights": 10399,
    "fluttering": 23976,
    "Ġinject": 2710,
    "ches": 2146,
    "achines": 1724,
    "flight": 15356,
    "Ġwooing": 19437,
    "Ġleg": 2335,
    "Ġparting": 9786,
    "Ġsalesman": 13672,
    "hatches": 19930,
    "Ġbun": 6008,
    "Ġvehem": 22892,
    "Ġgreedily": 18967,
    "Ġdespised": 14669,
    "Ġpropontis": 17468,
    "isons": 17851,
    "Ġarisen": 11750,
    "maintained": 25023,
    "Q": 53,
    "Ġmonosy": 18853,
    "Ġmaketh": 15191,
    "slide": 24556,
    "pe": 1438,
    "Ġslight": 3120,
    "Ġendangered": 16306,
    "Ġreciproc": 20625,
    "Ġpresent": 1641,
    "Ġproject": 5546,
    "ruct": 693,
    "Ġwhile": 607,
    "Ġcheapside": 23291,
    "Ġagric": 22519,
    "Ġexterior": 19991,
    "Ġfascinating": 17331,
    "Ġautonomous": 10678,
    "Ġcrony": 23440,
    "estruct": 22227,
    "oh": 1576,
    "Ġjagged": 18408,
    "Ġgesture": 11401,
    "Ġsteered": 11095,
    "Ġword": 1051,
    "ench": 21282,
    "Ġbroke": 5323,
    "customary": 25896,
    "wers": 12524,
    "Ġsovereign": 10065,
    "Ġfishy": 16525,
    "ī": 236,
    "Ġdependence": 18634,
    "headed": 4318,
    "Ġcorpse": 6641,
    "astonished": 15035,
    "Ġsudden": 2000,
    "Ġfanny": 23394,
    "dried": 20829,
    "uments": 5552,
    "scuttle": 11914,
    "constant": 11326,
    "cleanliness": 25872,
    "Ġgroves": 16742,
    "Ġpaw": 12625,
    "Ġremembering": 14612,
    "iliar": 15718,
    "Ġlibrary": 6424,
    "Ġbod": 4581,
    "batt": 20780,
    "Ġkeenly": 9488,
    "Ġforgiveness": 16659,
    "Ġpick": 4257,
    "rely": 6125,
    "Ġwatched": 6299,
    "Ġaz": 9632,
    "unearthly": 19275,
    "pshaw": 21030,
    "smart": 23910,
    "unusual": 21883,
    "Ġsolved": 8934,
    "thousands": 16874,
    "ouder": 17902,
    "Ġlawy": 9457,
    "Ġearnestly": 5980,
    "Ġbodings": 21394,
    "ization": 480,
    "Ġpistols": 17332,
    "Ġpyth": 21464,
    "Ġascertaining": 17206,
    "Ġ132": 19898,
    "surpr": 5998,
    "Ġconsequences": 11337,
    "Ġimm": 3967,
    "Ġutmost": 5496,
    "Ġhumility": 12990,
    "Ġconciliating": 19053,
    "hob": 20902,
    "Ġhol": 1183,
    "Ġberg": 24536,
    "Ġquoted": 22419,
    "Ġresp": 2492,
    "Ġclimbing": 20073,
    "Ġpau": 17910,
    "Ġadjac": 18293,
    "Ġlost": 2637,
    "Ġsigns": 2440,
    "Ġflea": 23776,
    "Ġwherever": 8526,
    "inal": 15483,
    "Ġundec": 22019,
    "Ġruin": 6057,
    "Ġbowditch": 19325,
    "======================================================================": 10071,
    "hideous": 25408,
    "Ġfills": 12599,
    "Ġelements": 2667,
    "meryton": 10114,
    "Ġnames": 4533,
    "Ġsaturation": 2063,
    "Ġbalanced": 12996,
    "Ġinquir": 4241,
    "haw": 6363,
    "Ġhails": 21954,
    "Ġcherub": 23290,
    "Ġengrossed": 13002,
    "Ġfugitive": 17330,
    "cial": 2649,
    "Ġpopular": 6218,
    "Ġblackest": 19100,
    "ĠĠĠĠĠĠĠĠĠĠĠĠĠĠĠĠ": 1220,
    "varieties": 23190,
    "bene": 6114,
    "Ġvariants": 1793,
    "Ġovercame": 9749,
    "Ġtolerably": 8068,
    "asse": 15649,
    "urean": 18125,
    "wished": 13808,
    "Ġfulf": 6773,
    "Ġprovinc": 16744,
    "Ġtrif": 6271,
    "Ġhonest": 7287,
    "Ġiter": 2951,
    "important": 7114,
    "Ġenjoyments": 24021,
    "Ġkindest": 23297,
    "Ġinfirmity": 26299,
    "Ġgeorgiana": 8629,
    "Ġow": 8409,
    "Ġdisgusted": 14993,
    "beating": 22493,
    "Ġimpud": 18452,
    "rem": 1523,
    "Ġunsatisfied": 22044,
    "Ġthirteen": 15278,
    "artificial": 977,
    "Ġbench": 7238,
    "ortion": 11763,
    "allowed": 5728,
    "inspector": 13650,
    "produced": 25415,
    "Ġeffective": 1248,
    "Ġgossip": 18472,
    "Ġturn": 1299,
    "Ġcondescended": 19959,
    "Ġimminent": 11247,
    "orrah": 17877,
    "Ġtimely": 19597,
    "Ġcells": 13888,
    "Ġperpet": 7645,
    "Ġforwards": 12708,
    "tarpaulins": 26407,
    "stayed": 25291,
    "backward": 2683,
    "Ġrag": 18643,
    "Ġstops": 3169,
    "Ġtimidity": 24688,
    "Ġ127": 24472,
    "dem": 10695,
    "Ġegot": 18010,
    "Ġsleeps": 10448,
    "Ġnoblest": 13246,
    "Ġunallied": 22032,
    "Ġremem": 4313,
    "Ġsquint": 22845,
    "Ġcooking": 16649,
    "Ġdevotion": 22723,
    "supplied": 10522,
    "Ġdescrying": 18617,
    "warmest": 25030,
    "Ġfamiliar": 5511,
    "Ġwatchman": 23668,
    "Ġape": 21199,
    "Ġexhib": 6351,
    "aco": 12911,
    "commander": 16989,
    "ulus": 21868,
    "arter": 17895,
    "Ġaccordingly": 6622,
    "Ñ": 146,
    "Ġreverence": 12063,
    "apprec": 22851,
    "halloa": 17091,
    "Ġanyone": 4460,
    "================": 3724,
    "Ġsponge": 26004,
    "impress": 18054,
    "cst": 10087,
    "Ġdignity": 5704,
    "ouraged": 22862,
    "ged": 1515,
    "Ġobjecting": 18898,
    "Ġmonument": 16243,
    "Ġmutilated": 23962,
    "worm": 15456,
    "iring": 1708,
    "izings": 14047,
    "Ġauto": 23302,
    "Ġret": 1380,
    "sails": 7497,
    "Ġflirt": 14426,
    "Ġvertically": 19383,
    "Ġdissol": 18552,
    "Ġconcerns": 11972,
    "Ġwhirlpool": 20657,
    "Ġapproached": 5844,
    "Ġpeeping": 16131,
    "Ġadmon": 15872,
    "Ġdismally": 20217,
    "Ġessence": 13409,
    "Ġvoracity": 25987,
    "Ġremot": 8546,
    "justified": 19004,
    "Ġknot": 7013,
    "Ġbefell": 14013,
    "movable": 14327,
    "Ġgrin": 5482,
    "Ġetext": 23953,
    "Ġro": 600,
    "âĢĿ]": 21816,
    "arers": 12134,
    "poss": 4777,
    "ó": 180,
    "rock": 15645,
    "Ġprobabilities": 4966,
    "Ġexploded": 15913,
    "Ġuneasily": 24233,
    "jug": 17582,
    "Ġblood": 3171,
    "Ġsensitive": 13203,
    "Ġloc": 10916,
    "meetings": 20381,
    "rid": 5137,
    "Ġrespectable": 6738,
    "Ġpeering": 8537,
    "city": 15330,
    "Ġguessed": 11284,
    "Ġtrusting": 24108,
    "Ġaffectionate": 5585,
    "Ġrabbit": 4289,
    "Ġschol": 17380,
    "Ġachieved": 13170,
    "sixteen": 24854,
    "Ġunrecord": 16623,
    "tern": 4223,
    "Ġdiscol": 12958,
    "assure": 9272,
    "odd": 21818,
    "Ġvirtual": 11242,
    "reckoning": 25271,
    "Ġinflamed": 13477,
    "tone": 8766,
    "Ġhardware": 4905,
    "Ġevid": 3501,
    "Ġplied": 22600,
    "ouri": 21450,
    "usations": 15951,
    "Ġelephant": 8256,
    "Ġbarren": 11208,
    "Ġeating": 8136,
    "weep": 22687,
    "Ġhummed": 18778,
    "Ġtortured": 14927,
    "Ġsurviving": 24637,
    "imprisonment": 23764,
    "Ġsocially": 22091,
    "Ġ93": 24592,
    "Ġundiscovered": 18250,
    "Ġfluctuating": 24417,
    "Ġwearer": 21926,
    "Ġprendergast": 26539,
    "Ġunrestingly": 20364,
    "Ġrome": 12160,
    "Ġginger": 9213,
    "troubled": 17113,
    "Ġeng": 1164,
    "warnings": 20354,
    "Ġimpertinence": 11368,
    "etite": 21582,
    "Ġwoke": 21292,
    "Ġsolely": 9913,
    "ushes": 22295,
    "colnett": 19332,
    "omeness": 18018,
    "spe": 3562,
    "Ġendowed": 18925,
    "disputed": 23503,
    "Ġbildad": 3781,
    "Ġgrunted": 16172,
    "harbor": 13568,
    "Ġopenness": 18959,
    "Ġanchored": 17443,
    "torture": 26152,
    "ortment": 22266,
    "output": 4403,
    "Ġprevent": 756,
    "terogene": 21829,
    "Ġincurable": 22556,
    "Ġredress": 23754,
    "Ġgalvan": 21620,
    "uming": 8494,
    "Ġasse": 8160,
    "sive": 4144,
    "aways": 15314,
    "Ġpovelson": 26554,
    "neighb": 16027,
    "Ġrouted": 24908,
    "ulgent": 18152,
    "iards": 17576,
    "rimshander": 20659,
    "Ġroots": 11187,
    "cating": 20804,
    "excitement": 19672,
    "âĢĶ.": 11759,
    "Ġsherlock": 3895,
    "Ġflashing": 13033,
    "invisible": 17742,
    "foreseen": 14256,
    "Ġsleepy": 8268,
    "Ġapplies": 11960,
    "Ġforbade": 15218,
    "eline": 2499,
    "iogn": 20923,
    "settled": 10509,
    "Ġtou": 15469,
    "present": 1138,
    "reg": 2182,
    "burgh": 6774,
    "ronted": 14880,
    "noo": 9793,
    "Ġda": 5150,
    "Ġconfederate": 17356,
    "Ġcognitive": 13638,
    "Ġfoolscap": 24161,
    "quet": 6835,
    "Ġmisconduct": 22766,
    "Ġtru": 4106,
    "Ġhailing": 11697,
    "sit": 13783,
    "Ġhesitating": 16949,
    "Ġsize": 1218,
    "Ġvineyards": 25109,
    "Ġvulture": 17342,
    "Ġthreatening": 16830,
    "Ġgradual": 20604,
    "icked": 10335,
    "Ġthroats": 24576,
    "linen": 25258,
    "Ġappl": 1702,
    "Ġglen": 18854,
    "erably": 7573,
    "following": 10575,
    "Ġconquest": 15752,
    "Ġhemp": 9218,
    "isis": 12584,
    "Ġsplash": 16551,
    "umber": 5241,
    "Ġsaucer": 20608,
    "quadrille": 20598,
    "Ġflower": 16236,
    "Ġpres": 9735,
    "Ġauger": 21206,
    "Ġcredit": 4818,
    "Ġsurplus": 26304,
    "Ġflukes": 5267,
    "Ġswamp": 14439,
    "Ġaccounted": 10297,
    "Ġcharted": 22254,
    "approbation": 11460,
    "Ġdrowned": 9555,
    "robber": 21540,
    "Ġconstrued": 26302,
    "Ġdramat": 23221,
    "Ġthames": 13941,
    "Ġomit": 17817,
    "Ġmin": 1027,
    "hangs": 15372,
    "Ġoccurs": 1859,
    "Ġwoman": 2386,
    "sax": 21059,
    "rose": 6015,
    "Ġplug": 17150,
    "hol": 3840,
    "Ġbored": 16109,
    "Ġinboard": 17935,
    "slanting": 24558,
    "arest": 4006,
    "Ġfulfilment": 20190,
    "tfordshire": 4810,
    "Ġof": 298,
    "ert": 2634,
    "oforte": 14290,
    "inside": 23069,
    "Ġmanufact": 22332,
    "Ġbennett": 16328,
    "Ġcoroner": 7510,
    "Ġmount": 7362,
    "riage": 2123,
    "Ġregiment": 6433,
    "desire": 14664,
    "Ġcand": 3279,
    "Ġimmense": 4952,
    "Ġasking": 5651,
    "barrel": 17061,
    "pointing": 12229,
    "Ġsloop": 25931,
    "Ġhooks": 14971,
    "Ġconcuss": 19052,
    "Ġflann": 23015,
    "shipmates": 11932,
    "thodox": 21992,
    "Ġreward": 6146,
    "Ġsnatch": 14641,
    "Ġapologizing": 25198,
    "masts": 19428,
    "opportunity": 12279,
    "Ġregarded": 5762,
    "Ġhighway": 14349,
    "Ġused": 2061,
    "horizon": 23617,
    "Ġcanes": 22167,
    "muring": 17603,
    "Ġlightly": 13088,
    "Ġwed": 7575,
    "bast": 10080,
    "Ġemblem": 20501,
    "exasper": 22433,
    "Ġnervous": 2403,
    "social": 11025,
    "ĠĠĠĠĠĠĠĠĠĠĠĠĠĠĠĠĠĠĠĠĠĠĠĠĠĠĠĠ": 9978,
    "astic": 1869,
    "ab": 345,
    "Ġtrains": 10949,
    "Ġfiddle": 25445,
    "Ġimprecate": 20521,
    "barbar": 20241,
    "Ġremembr": 24173,
    "Ġyarn": 10870,
    "pal": 9619,
    "more": 1033,
    "Ġexplanatory": 22206,
    "Ġmurdering": 14814,
    "Ġsuspicious": 9483,
    "Ġcompanion": 3645,
    "ual": 944,
    "probability": 17024,
    "urged": 18050,
    "Ġconcluding": 9860,
    "fortune": 4975,
    "Ġfranc": 16355,
    "ose": 718,
    "irium": 8162,
    "Ġblessings": 24179,
    "Ġcircumn": 11988,
    "Ġreproachfully": 25252,
    "geneva": 13733,
    "umul": 1290,
    "ables": 7890,
    "Ġdesperate": 7777,
    "Ġdeterminate": 23007,
    "Ġefficient": 1015,
    "Ġgid": 13965,
    "looking": 4034,
    "Ġclasp": 9747,
    "Ġpout": 17908,
    "Ġmorris": 18846,
    "Ġwhelm": 25999,
    "Ġoffering": 3005,
    "nlp": 8754,
    "consternation": 16914,
    "Ġinstead": 2790,
    "priv": 9622,
    "daylight": 19059,
    "wholly": 10943,
    "Ġpalm": 10516,
    "sooner": 14781,
    "Ġcorruption": 15229,
    "Ġperfection": 19220,
    "idol": 21770,
    "Ġminiatures": 20324,
    "Ġxi": 16432,
    "buttons": 22406,
    "Ġconven": 6153,
    "deserving": 17248,
    "Ġchuck": 8504,
    "Ġfuriously": 9805,
    "azine": 19132,
    "Ġbent": 5149,
    "Ġegotistical": 26193,
    "Ġporch": 19683,
    "Ġcongratulated": 19769,
    "Ġunmo": 12777,
    "estation": 15924,
    "icates": 11620,
    "Ġsteal": 16287,
    "Ġthinker": 22812,
    "Ġaccumulation": 2692,
    "Ġsurprised": 3831,
    "Ġsteward": 6586,
    "Ġpine": 8801,
    "Ġmovements": 24359,
    "arp": 2028,
    "Ġmagnitudes": 3823,
    "¥": 103,
    "Ġsunshine": 14496,
    "heads": 4095,
    "ffy": 18317,
    "cousin": 10655,
    "Ġoarsman": 8641,
    "Ġmole": 11795,
    "Ġroods": 22408,
    "purse": 20028,
    "Ġglimmered": 20174,
    "Ġwarehouse": 20420,
    "invest": 11562,
    "dinner": 11408,
    "sol": 1792,
    "Ġlaws": 8003,
    "Ġbal": 1131,
    "ids": 21767,
    "permission": 15900,
    "fates": 20860,
    "ariously": 18531,
    "Ġfisherman": 12080,
    "Ġpaltry": 16693,
    "Ġdetestation": 17130,
    "Ġsmut": 22560,
    "Ġmil": 4255,
    "Ġstillness": 13000,
    "Ġcorp": 5574,
    "Ġdisobey": 18560,
    "Ġvenerable": 9097,
    "Ġgenerator": 3383,
    "reed": 6374,
    "Ġvoluntary": 14802,
    ".âĢĶâĢľ": 20749,
    "ence": 394,
    "surgeon": 24217,
    "Ġprophes": 16352,
    "Ġnever": 1020,
    "Ġinferred": 14502,
    "Ġtrunk": 7205,
    "Ġbuttoned": 25369,
    "Ġcoast": 4655,
    "Ġsailed": 4890,
    "Ġpreparing": 8651,
    "Ġscoundrel": 13674,
    "Ġglobular": 19013,
    "contempt": 13194,
    "Ġhappiness": 2943,
    "asons": 6016,
    "Ġferoc": 14900,
    "jep": 20928,
    "Ġdevilish": 11230,
    "bad": 12440,
    "Ġstoried": 18075,
    "strate": 12679,
    "Ġbreathe": 9015,
    "Ġknife": 7309,
    "Ġconducting": 16652,
    "mild": 15395,
    "joined": 13279,
    "Ġthis": 382,
    "Ġchapters": 10475,
    "Ġinconceivable": 17940,
    "foolish": 12351,
    "riors": 18186,
    "Ġindicate": 23725,
    "Ġinsight": 16533,
    "Ġpropri": 6740,
    "Ġtears": 4230,
    "unders": 13315,
    "Ġenormity": 19698,
    "Ġtrusted": 10520,
    "inity": 5693,
    "Ġfacet": 15589,
    "iah": 14420,
    "Ġaccording": 5508,
    "bows": 10084,
    "gazed": 15365,
    "Ġperpetual": 12307,
    "Ġprogeny": 17391,
    "Ġimpending": 22399,
    "Ġjo": 2609,
    "Ġcommodore": 12399,
    "breast": 11248,
    "Ġendeavours": 8621,
    "misery": 13348,
    "soft": 12514,
    "Ġrowing": 10303,
    "Ġdairy": 20689,
    "Ġoutcast": 18415,
    "instinct": 19546,
    "uneasy": 23689,
    "Ġcrawford": 24894,
    "Ġseveral": 2673,
    "Ġsweeter": 23921,
    "Ġparaph": 22124,
    "Ġimpenet": 14228,
    "Ġpromoting": 3163,
    "Ġoffice": 4965,
    "Ġdot": 4820,
    "memory": 13621,
    "%": 9,
    "mody": 16189,
    "Ġcaul": 10789,
    "aviour": 11006,
    "ulum": 21867,
    "Ġsincerity": 13682,
    "Ġcasket": 19727,
    "inkles": 7426,
    "Ġprofound": 5497,
    "Ġasser": 6259,
    "Ġpoorly": 9858,
    "Ġchatting": 24746,
    "Ġreplacing": 3448,
    "Ġcomm": 838,
    "ath": 862,
    "ult": 723,
    "ret": 1477,
    "Ġunwaning": 24830,
    "Ġdew": 14048,
    "Ġbeneath": 3241,
    "Ġhomeless": 23390,
    "Ġlordly": 23746,
    "Ġcontingency": 26246,
    "Ġunlab": 3788,
    "experienced": 15125,
    "Ġoily": 13867,
    "agged": 9240,
    "oug": 432,
    "Ġam": 660,
    "Ġperem": 12937,
    "Ġsurmount": 20004,
    "strang": 11185,
    "Ġpapa": 10659,
    "guarded": 13299,
    "Ġjourney": 3881,
    "numbers": 17618,
    "Ġstrain": 6025,
    "Ġinwards": 15625,
    "Ġdoings": 18376,
    "whispering": 26104,
    "Ġpromising": 10402,
    "Ġskills": 1842,
    "Ġhedgehogs": 25395,
    "Ġnone": 3227,
    "Ġattempt": 3486,
    "vings": 9754,
    "Ġrand": 1583,
    "ork": 416,
    "Ġepaulets": 24906,
    "Ġcombining": 22840,
    "Ġsoap": 14135,
    "Ġcott": 3710,
    "Ġfidelity": 15245,
    "Ġwil": 4580,
    "Ġcorpore": 13405,
    "Ġsupply": 6068,
    "Ġbrix": 12588,
    "ho": 2856,
    "Ġstepped": 7053,
    "aged": 2607,
    "Ġwalrus": 14976,
    "Ġtalker": 23374,
    "sight": 5996,
    "Ġderiv": 1739,
    "Ġgamming": 25543,
    "enary": 12556,
    "Ġperform": 1036,
    "Ġmississippi": 20727,
    "Ġbespeaking": 26311,
    "Ġcompliments": 8636,
    "Ġlanterns": 24578,
    "card": 11477,
    "severe": 21823,
    "ĠĠĠ": 2115,
    "Ġthreats": 13381,
    "separation": 25227,
    "Ġmarched": 18873,
    "Ġloft": 5642,
    "Ġportly": 14680,
    "Ġtahiti": 13623,
    "Ġsuperlative": 26075,
    "vul": 15451,
    "Ġ112": 24437,
    "hies": 17562,
    "Ġgazing": 5877,
    "perform": 15898,
    "sprit": 11384,
    "infliction": 25925,
    "distinguish": 19575,
    "Ġsog": 22088,
    "Ġfowl": 11332,
    "Ġjuncture": 17132,
    "Ġear": 1423,
    "Ġvaliant": 9803,
    "cous": 8725,
    "Ġsober": 10913,
    "aste": 4601,
    "Ġsons": 10768,
    "brary": 5755,
    "tum": 11534,
    "seen": 2878,
    "Ġpressing": 9264,
    "Ġsurging": 19135,
    "trowsers": 17693,
    "Ġgeneral": 1863,
    "ę": 218,
    "nurs": 21001,
    "cordiality": 25140,
    "Ġoften": 1957,
    "Ġcheerful": 6624,
    "near": 5843,
    "sp": 894,
    "hs": 8378,
    "Ġfowls": 8694,
    "Ġum": 10214,
    "Ġdisplay": 6429,
    "iarity": 8747,
    "moil": 22706,
    "Ġident": 2238,
    "armed": 7251,
    "Ġconf": 1822,
    "grasping": 20642,
    "Ġdirections": 1973,
    "unwillingly": 21888,
    "Ġnatural": 1136,
    "procure": 23400,
    "Ġconditions": 8307,
    "Ġintegr": 7969,
    "Ġgrappling": 25813,
    "advise": 24220,
    "complet": 11385,
    "Ġexc": 1835,
    "ained": 3064,
    "Ġelegant": 7532,
    "Ġhark": 8429,
    "stocks": 23824,
    "Ġpestilent": 25778,
    "Ġpaints": 23526,
    "Ġconsum": 9802,
    "Ġtailed": 21171,
    "volutions": 16326,
    "Ġnumberless": 16419,
    "clouds": 25497,
    "received": 9641,
    "Ġlies": 5297,
    "Ġfeebly": 24878,
    "Ġpoliceman": 15262,
    "aks": 8509,
    "Ġag": 683,
    "Ġconvulsive": 19309,
    "Ġparents": 6754,
    "pleas": 3853,
    "Ġgodson": 23361,
    "ational": 5716,
    "kept": 11722,
    "ty": 1002,
    "emic": 18187,
    "Ġpant": 10819,
    "Ġoutlast": 22317,
    "Ġpreferment": 19855,
    "Ġprimitive": 25064,
    "Ġshipping": 14107,
    "worthy": 7733,
    "Ġequ": 1737,
    "Ġfollies": 16257,
    "Ġcrash": 12006,
    "Ġcomposure": 7217,
    "smeer": 26148,
    "Ġacceptance": 14830,
    "Ġmightiest": 12966,
    "Ġintermediate": 18593,
    "undant": 14795,
    "lan": 15381,
    "when": 1588,
    "Ġamusement": 8056,
    "Ġger": 21594,
    "tout": 21068,
    "attached": 11939,
    "Ġdis": 695,
    "Ġhead": 1123,
    "Ġfire": 2333,
    "Ġas": 374,
    "Ġanxiety": 5408,
    "Ġcompan": 2172,
    "ultaneously": 4193,
    "heard": 5009,
    "Ġrevolutions": 23845,
    "quer": 11681,
    "Ġsuccessfully": 19432,
    "Ġmantel": 11441,
    "projecting": 26074,
    "anely": 17838,
    "Ġanomalous": 25638,
    "Ġchanged": 5243,
    "Ġdarkly": 19116,
    "strangers": 20339,
    "Ġhave": 445,
    "Ġopen": 1550,
    "Ġeaster": 15679,
    "Ġfug": 12600,
    "Ġpebbles": 16133,
    "cask": 12451,
    "tering": 3808,
    "Ġsimilarity": 3170,
    "Ġwhether": 2001,
    "balls": 12309,
    "ł": 259,
    "unnatural": 15777,
    "Ġsav": 3357,
    "designated": 26320,
    "ured": 1653,
    "Ġvaried": 11852,
    "abases": 3004,
    "Ġvalid": 1717,
    "Ġconfeder": 25708,
    "Ġunkindness": 22042,
    "reject": 21239,
    "Ġdeduction": 14904,
    "refusal": 24735,
    "Ġel": 800,
    "ensils": 22552,
    "Ġparad": 2841,
    "lamp": 9611,
    "Ġadversarial": 5607,
    "rendering": 22344,
    "Ġdreams": 7496,
    "Ġ135": 24784,
    "Ġswings": 11088,
    "ateral": 19380,
    "Ġgar": 10840,
    "nt": 922,
    "Ġreduced": 11928,
    "Ġnav": 5819,
    "Ġlic": 8437,
    "pening": 2831,
    "Ġgenerative": 5644,
    "Ġvernal": 23891,
    "Ġcrib": 21351,
    "presented": 12997,
    "remorse": 14470,
    "Ġevaluate": 3272,
    "searching": 25106,
    "anybody": 12087,
    "Ġtasselled": 25922,
    "claps": 23154,
    "Ġinjunctions": 24272,
    "urities": 18051,
    "Ġmanoir": 22335,
    "Ġbecome": 3160,
    "buff": 15322,
    "Ġbenefactor": 14700,
    "due": 22414,
    "ation": 320,
    "Ġsummers": 23876,
    "ravity": 21638,
    "Ġexcavating": 23320,
    "Ġvi": 1954,
    "Ġdarcy": 1342,
    "Ġhuzza": 12638,
    "endering": 21287,
    "tland": 21076,
    "starbuck": 6020,
    "contriv": 19295,
    "Ġstash": 18070,
    "complaisance": 24808,
    "vocation": 25087,
    "Ġdodging": 19889,
    "Ġus": 495,
    "Ġlife": 1351,
    "Ġmaster": 3683,
    "Ġsincerely": 7963,
    "Ġgest": 8134,
    "airs": 2219,
    "Ġvint": 18195,
    "its": 1151,
    "shone": 22457,
    "semicirc": 26493,
    "ips": 2592,
    "mat": 2196,
    "calling": 12454,
    "Ġsl": 1496,
    "Ġray": 18644,
    "Ġfaulty": 14910,
    "shirt": 22462,
    "Ġattending": 3287,
    "ĠĠĠĠĠĠĠĠĠĠĠĠĠĠ": 22567,
    "tallied": 21092,
    "Ġfertile": 20586,
    "Ġarid": 22202,
    "ory": 1078,
    "Ġpartaking": 22700,
    "abbering": 21800,
    "likelihood": 4992,
    "Ġfumbled": 17883,
    "ruff": 15903,
    "Ġoat": 21326,
    "Ġentities": 11867,
    "Ġpenetrate": 12274,
    "erc": 5906,
    "Ġdisgu": 8206,
    "Ġcadiz": 17328,
    "mency": 18928,
    "scrape": 25699,
    "idirection": 2411,
    "Ġterm": 2266,
    "Ġlowermost": 23244,
    "Ġteaches": 18804,
    "Ġrevolved": 9987,
    "Ġcovering": 13260,
    "Ġamerican": 5061,
    "recol": 10153,
    "urs": 6990,
    "doubted": 17528,
    "was": 1421,
    "Ġthirt": 13942,
    "Ġleaped": 8830,
    "lances": 15387,
    "Ġcomprehensive": 15091,
    "offended": 16398,
    "rested": 13079,
    "possibility": 13366,
    "Ġstroke": 6936,
    "everything": 6326,
    "Ġbrigs": 20325,
    "Ġworkflow": 2507,
    "Ġtip": 15474,
    "Ġastir": 14642,
    "Ġcorners": 18876,
    "enjoy": 10776,
    "Ġbridge": 8349,
    "Ġfavourite": 5271,
    "Ġrebellion": 26477,
    "ike": 5000,
    "Ġcountenances": 11969,
    "Ġpoising": 22594,
    "Ġwildly": 9417,
    "third": 8168,
    "Ġprudent": 9188,
    "Ġproves": 14041,
    "Ġprophets": 20453,
    "Ġargued": 13633,
    "ancy": 4395,
    "Ġheap": 12683,
    "othic": 16219,
    "Ġanoint": 25538,
    "Ġshepherd": 14155,
    "Ġvarious": 3510,
    "Ġoverbearing": 12848,
    "mid": 5617,
    "Ġscandinav": 19964,
    "Ġopening": 5045,
    "Ġdissect": 16057,
    "Ġfull": 2176,
    "--âĢľ": 12977,
    "Ġaffect": 1385,
    "Ġunman": 12778,
    "Ġcounter": 6482,
    "landed": 18958,
    "solut": 3364,
    "Ġtenderness": 12220,
    "peculiarity": 23113,
    "Ġclang": 15966,
    "Ġrational": 8482,
    "Ġcreeping": 18685,
    "Ġsail": 1671,
    "Ġthorough": 6247,
    "Ġidolator": 20001,
    "Ġconcoct": 19051,
    "figured": 20126,
    "Ġextra": 4057,
    "Ġcommit": 18656,
    "forgot": 11035,
    "Ġencourages": 2062,
    "load": 12886,
    "Ġboisterously": 25683,
    "carried": 16713,
    "lesson": 22775,
    "Ġmister": 22763,
    "dock": 16422,
    "apothecary": 26547,
    "Ġsubmerged": 11876,
    "Ġcountenance": 3973,
    "Ġallude": 12785,
    "Ġelixir": 26557,
    "Ġmodesty": 12823,
    "Ġunappalled": 22065,
    "Ġassociations": 14966,
    "frank": 7758,
    "gether": 1592,
    "Ġforeseeing": 23451,
    "Ġphaeton": 17467,
    "Ġskull": 6290,
    "Ġfinanc": 23130,
    "therly": 18342,
    "Ġbut": 424,
    "Ġjulia": 22306,
    "Ġidentify": 12018,
    "rised": 10126,
    "Ġx": 2074,
    "theirs": 23604,
    "Ġ30": 10514,
    "Ġfill": 5701,
    "having": 5211,
    "Ġharbour": 19983,
    "<UNK>": 3,
    "unable": 14062,
    "Ġhunter": 5401,
    "examine": 25478,
    "Ġhur": 2100,
    "Ġgeneva": 5450,
    "crucible": 24843,
    "Ġgravesend": 15220,
    "Ġsystemat": 18443,
    "Ġpoignant": 22596,
    "accomplishment": 20226,
    "Ġsurrounding": 12167,
    "Ġpassers": 18759,
    "paid": 15417,
    "pay": 10720,
    "Ġstrides": 22621,
    "nevertheless": 8286,
    "Ġpiteous": 17920,
    "Ġrocks": 6863,
    "Ġnew": 1195,
    "Ġgloss": 11963,
    "ghan": 19458,
    "Ġhar": 5815,
    "Ġcherry": 16937,
    "baden": 25616,
    "complain": 14361,
    "igating": 21702,
    "Ġalle": 11669,
    "erde": 21271,
    "naturedly": 24841,
    "tisement": 6768,
    "Ġconsulting": 13433,
    "gement": 13731,
    "Ġoxford": 11373,
    "Ġphysiognomically": 25613,
    "Ġglasses": 9478,
    "intimate": 22940,
    "Ġcoach": 6867,
    "asant": 17961,
    "Ġbond": 21387,
    "aurs": 20771,
    "allied": 7409,
    "similar": 13457,
    "atious": 10154,
    "enes": 5218,
    "Ġskulls": 12964,
    "reproach": 15190,
    "Ġfielding": 16234,
    "Ġlegend": 14576,
    "Ġcopestone": 24939,
    "angle": 22108,
    "ubines": 22964,
    "Ġdisadvantage": 12895,
    "kish": 20936,
    "ending": 1991,
    "ics": 3259,
    "Ġshri": 5375,
    "Ġperished": 11784,
    "Ġmended": 21316,
    "Ġclimes": 12845,
    "Ġaforethought": 25429,
    "baron": 24926,
    "entary": 21570,
    "persons": 24177,
    "ges": 2871,
    "Ġpiling": 17913,
    "recklessly": 25270,
    "Ġunrival": 22047,
    "Ġhands": 1663,
    "Ġwre": 5077,
    "Ġsheepfold": 25467,
    "Ġnodding": 23339,
    "Ġpalpitated": 26086,
    "Ġhatch": 7848,
    "Ġrender": 8305,
    "derment": 22164,
    "Ġstabbing": 20306,
    "ford": 2822,
    "Ġflaw": 23013,
    "Ġtaste": 5524,
    "Ġwounded": 8661,
    "securer": 25603,
    "Ġsuperfluous": 17417,
    "black": 6769,
    "vine": 10736,
    "rices": 4559,
    "Ġpolice": 4674,
    "hereditary": 26421,
    "Ġhandles": 22698,
    "things": 6034,
    "wheels": 14384,
    "Ġclock": 9536,
    "Ġhospitable": 17060,
    "thrust": 10264,
    "Ġfin": 1460,
    "commencement": 26350,
    "ropol": 10955,
    "Ġasc": 4764,
    "Ġmusky": 19385,
    "oquent": 12504,
    "Ġturban": 23615,
    "Ġpunct": 8664,
    "Ġsoften": 23126,
    "than": 4089,
    "Ġassertions": 19950,
    "Ġpal": 4043,
    "Ġgord": 21603,
    "inative": 15487,
    "Ġproblem": 1273,
    "Ġbehaviors": 13259,
    "Ġbaffled": 12407,
    "Ġmightier": 18731,
    "transition": 24513,
    "neighbouring": 19967,
    "Ġalone": 2566,
    "favouring": 24761,
    "anter": 9169,
    "Ġvess": 3297,
    "ensity": 11817,
    "chan": 1163,
    "encoun": 12302,
    "Ġquito": 24408,
    "Ġmontan": 22986,
    "Ġsuitable": 18280,
    "ished": 1428,
    "Ġsweeping": 8988,
    "Ġunwell": 22017,
    "Ġcandles": 9911,
    "Ġmed": 4177,
    "moment": 3581,
    "Ġstout": 6026,
    "explanations": 25235,
    "thirds": 25049,
    "Ġbefall": 8833,
    "untarily": 6314,
    "Ġsalvation": 14760,
    "Ġbargain": 23795,
    "Ġawaiting": 11392,
    "Ġaccused": 8510,
    "Ġcrow": 3806,
    "Ġexperiments": 23024,
    "usoid": 4766,
    "deepest": 22828,
    "Ġcham": 4893,
    "trop": 15439,
    "Ġsource": 6806,
    "Ġimper": 4502,
    "real": 10152,
    "naturalist": 23541,
    "â": 163,
    "Ġknots": 15011,
    "getting": 12972,
    "Ġtweed": 22680,
    "ip": 556,
    "Ġcottagers": 6762,
    "Ġunconscious": 9550,
    "Ġbefore": 812,
    "Ġfatally": 19397,
    "Ġmoody": 8201,
    "Ġslow": 2379,
    "Ġcivilised": 24247,
    "Ġcommonplaces": 16292,
    "dz": 4738,
    "determination": 19948,
    "Ġlamb": 8817,
    "binnacle": 20789,
    "ĠĠĠĠĠĠĠĠĠĠĠĠĠĠĠĠĠĠĠĠĠĠĠĠĠĠĠĠĠĠĠĠĠĠĠĠĠĠĠĠĠĠĠĠĠĠĠ": 16757,
    "Ġacknowledges": 24689,
    "Ġmacy": 19358,
    "towing": 17691,
    "Ġjurors": 17347,
    "Ġconsecrate": 26491,
    "Ġexciting": 23317,
    "Ġcrowds": 14742,
    "Ġfailure": 13319,
    "angible": 22109,
    "Ġcharged": 9857,
    "clump": 23156,
    "Ġpractical": 3166,
    "Ġevenly": 4130,
    "Ġpuffs": 14979,
    "figures": 20125,
    "Ġbuilded": 24718,
    "anchor": 13892,
    "Ġdenial": 13218,
    "Ġjunks": 25116,
    "ological": 1886,
    "qual": 8157,
    "Ġspleen": 26423,
    "anim": 6523,
    "Ġuprising": 12807,
    "Ġrelevant": 1865,
    "Ġdexterously": 25296,
    "Ġindispensable": 11905,
    "Ġphysiogn": 12392,
    "Ġcomprehended": 11296,
    "advancing": 14839,
    "pervised": 1530,
    "bound": 6222,
    "answers": 22144,
    "Ġdisconcerted": 18563,
    "neck": 14237,
    "Ġvaults": 17156,
    "incing": 15488,
    "Ġcommitting": 22676,
    "Ġshifted": 14110,
    "udding": 11869,
    "Ġsharkish": 24506,
    "Ġpleated": 16300,
    "Ġtended": 21169,
    "Ġlazily": 11382,
    "Ġ85": 24460,
    "infor": 3073,
    "hyme": 19612,
    "Ġwhel": 15870,
    "Ġdepart": 4656,
    "Ġelig": 9781,
    "Ġparcel": 15203,
    "removing": 17766,
    "Ġsedentary": 25431,
    "Ġsticking": 13431,
    "Ġdiscomposure": 20382,
    "Ġgifted": 17999,
    "forth": 9325,
    "host": 5868,
    "Ġbelie": 14409,
    "unreasonable": 18165,
    "Ġcelest": 9904,
    "Ġsheaves": 22162,
    "Ġplead": 14458,
    "Ġplow": 21462,
    "Ġdestro": 3723,
    "9": 29,
    "Ġgenerations": 10966,
    "Ġasp": 15785,
    "Ġabstracted": 17185,
    "closing": 23157,
    "Ġtrial": 6637,
    "ondon": 2705,
    "trial": 20353,
    "cad": 17507,
    "tahit": 17694,
    "mature": 20969,
    "print": 23815,
    "ave": 981,
    "Ġdiction": 8799,
    "solitary": 14508,
    "Ġhall": 4184,
    "Ġmem": 2163,
    "Ġposterity": 17405,
    "ishes": 6524,
    "Ġclouds": 5775,
    "clopÃ¦": 13061,
    "Ġvisible": 4776,
    "iancy": 13014,
    "sake": 13786,
    "Ġcrater": 16438,
    "Ġreveal": 11202,
    "accompanied": 12426,
    "Ġidentifies": 12019,
    "Ġcurrents": 13020,
    "Ġpods": 17917,
    "cular": 15331,
    "prophecy": 22843,
    "lined": 12488,
    "Ġdem": 11677,
    "expressive": 24307,
    "Ġseaport": 20602,
    "Ġchall": 10946,
    "windward": 24163,
    "Ġdesp": 3217,
    "Ġbandaged": 16844,
    "Ġcaw": 13886,
    "Ġinfancy": 10411,
    "Ġblankets": 24612,
    "bloom": 24690,
    "Ġdiscl": 9800,
    "Ġimpressive": 15001,
    "Ġlanded": 7469,
    "compl": 6873,
    "Ġstair": 8457,
    "son": 2329,
    "aved": 5475,
    "lowering": 16036,
    "Ġcot": 13880,
    "gan": 2195,
    "Ġleaking": 21749,
    "hue": 20901,
    "rages": 15685,
    "Ġsmallest": 6431,
    "cross": 3578,
    "satisfy": 16894,
    "aspect": 10196,
    "narrative": 17322,
    "Ġhad": 444,
    "verb": 10219,
    "Ġeconomically": 25289,
    "Ġhastily": 5763,
    "ort": 524,
    "expose": 23663,
    "Ġprovoking": 16745,
    "Ġjeopard": 9946,
    "Ġwa": 1754,
    "Ġawait": 17074,
    "thesize": 24907,
    "Ġinscribed": 24941,
    "Ġincludes": 2013,
    "it": 276,
    "irement": 18356,
    "staking": 21651,
    "Ġmanipulation": 10661,
    "Ġdistantly": 18535,
    "Ġhogshe": 20495,
    "iating": 3209,
    "Ġparacelsus": 15270,
    "bed": 3491,
    "gments": 12474,
    "vicinity": 20483,
    "Ġreproached": 24892,
    "spikes": 10344,
    "Ġexceeding": 1580,
    "riv": 3110,
    "inarticulate": 21198,
    "Ġmari": 6814,
    "Ġbelshazzar": 16229,
    "Ġimperson": 14227,
    "osition": 1371,
    "Ġfant": 9176,
    "related": 24015,
    "Ġtwos": 18658,
    "Ġlicence": 25099,
    "Ġspan": 11732,
    "Ġfluid": 11214,
    "body": 2308,
    "ĠĠĠĠĠĠĠĠĠĠĠĠĠĠĠĠĠĠĠĠĠĠĠĠĠ": 24442,
    "Ġteacher": 22913,
    "ifers": 15786,
    "Ġguardians": 14946,
    "lighted": 23756,
    "Ġcrockery": 24303,
    "ailing": 7023,
    "ck": 436,
    "Ġdefend": 9343,
    "imprudence": 16559,
    "stalls": 26475,
    "Ġde": 365,
    "Ġtenderest": 23553,
    "Ġcruel": 5121,
    "helm": 12176,
    "Ġmelting": 24290,
    "wrote": 11549,
    "ernsey": 8905,
    "Ġstand": 1738,
    "Ġawful": 6201,
    "Ġpy": 21454,
    "oundered": 14164,
    "Ġcoff": 3508,
    "Ġard": 5164,
    "pious": 17635,
    "Ġbaker": 4695,
    "Ġembark": 8559,
    "ople": 2320,
    "Ġposit": 1306,
    "except": 5383,
    "Ġexpatiate": 18627,
    "Ġcholera": 22257,
    "Ġelectric": 15198,
    "Ġwasted": 9707,
    "batim": 25019,
    "band": 3058,
    "goose": 19103,
    "Ġhopeless": 7463,
    "sounded": 12271,
    "breakfast": 8691,
    "Ġincant": 18569,
    "Ġopposing": 12044,
    "ò": 179,
    "Ġhorizont": 6937,
    "Ġturtle": 4203,
    "Ġbur": 2697,
    "hurst": 19881,
    "hypothe": 25906,
    "Ġabiding": 22274,
    "indef": 17737,
    "Ġscraped": 16905,
    "Ġdeigned": 18144,
    "·": 120,
    "Ġdemeanour": 17340,
    "Ġpersian": 11094,
    "morning": 4860,
    "Ġeulogy": 26472,
    "Ġquee": 1982,
    "Ġlascar": 9202,
    "nearer": 22454,
    "stoke": 18025,
    "mouthful": 25209,
    "Ġanswered": 2850,
    "Ġforeb": 12008,
    "sembled": 7263,
    "Ġunreasoning": 15849,
    "Ġgoverning": 2795,
    "months": 9074,
    "Ġjustine": 4970,
    "Ġequal": 4136,
    "Ġwol": 15533,
    "ky": 4520,
    "Ġmanx": 7905,
    "Ġheadsmen": 14735,
    "Ġacts": 2294,
    "Ġimpropri": 14224,
    "ĠĠĠĠĠĠĠ": 7633,
    "Ġslopes": 18943,
    "helping": 23144,
    "Ġexe": 3996,
    "Ġfurs": 18740,
    "irth": 5634,
    "ĥ": 230,
    "Ġjustification": 22971,
    "hibited": 17430,
    "Ġcabaco": 13171,
    "hooked": 23718,
    "Ġphilips": 5410,
    "oding": 1462,
    "Ġcastors": 23979,
    "Ġsparsity": 4207,
    "Ġperman": 10967,
    "soc": 5175,
    "ber": 905,
    "Ġkentuckian": 26344,
    "Ġloitering": 22120,
    "Ġnathan": 21529,
    "Ġsuav": 22085,
    "fordshire": 4676,
    "carte": 25401,
    "roof": 17956,
    "shout": 22456,
    "Ġesc": 2253,
    "iar": 2378,
    "Ġencl": 16171,
    "engthen": 14460,
    "ishly": 14202,
    "Ġdefilements": 26286,
    "Ġwaif": 9378,
    "Ġsullenly": 17175,
    "Ġclerval": 4653,
    "Ġcaptivating": 26050,
    "Ġlength": 2498,
    "light": 3014,
    "+": 15,
    "isted": 3300,
    "quis": 7870,
    "appointment": 24063,
    "sa": 8760,
    "revenge": 13845,
    "Ġnetherfield": 3933,
    "Ġquaker": 10973,
    "ums": 10275,
    "speech": 10669,
    "Ġconsol": 3816,
    "dreadful": 11423,
    "Ġyoungster": 23183,
    "misfortunes": 16758,
    "tier": 12519,
    "Ġcompromised": 22577,
    "changing": 10856,
    "beauty": 20107,
    "lance": 12486,
    "explaining": 23145,
    "Ġimmersed": 19488,
    "Ġdespond": 14670,
    "Ġcompacted": 23511,
    "Ġangles": 23590,
    "Ġpretty": 3862,
    "Ġdearly": 10404,
    "shake": 22459,
    "Ġunceasing": 20361,
    "Ġglorious": 11077,
    "Ġwhisper": 6207,
    "Ġsignification": 19205,
    "mmet": 10990,
    "urpr": 2285,
    "ompl": 4536,
    "jackets": 24896,
    "fic": 20854,
    "Ġapproving": 18510,
    "itary": 4750,
    "Ġstructure": 853,
    "Ġbase": 5013,
    "tumultuous": 20402,
    "request": 21244,
    "Ġdestination": 19152,
    "gratification": 24348,
    "Ġdied": 4111,
    "iminished": 19028,
    "Ġtelegra": 11895,
    "Ġappend": 18358,
    "Ġdivers": 9668,
    "summit": 23419,
    "Ġbi": 920,
    "Ġtangle": 25761,
    "heat": 15500,
    "Ġtipt": 21176,
    "Ġwherefore": 8527,
    "Ġsurmises": 17056,
    "ounts": 4650,
    "Ġamel": 18511,
    "Ġcontention": 22430,
    "Ġmarried": 3409,
    "Ġencoura": 1364,
    "kily": 20939,
    "Ġcondescend": 19958,
    "Ġleather": 7607,
    "_": 67,
    "rees": 5436,
    "Ġinc": 702,
    "iom": 20917,
    "Ġangrily": 9410,
    "Ġreal": 1633,
    "hour": 7340,
    "Ġsoothed": 10032,
    "Ġabide": 14190,
    "Ġimmeasurable": 26232,
    "Ġprovincial": 20652,
    "Ġswayed": 15050,
    "Ġinvention": 19956,
    "Ġxv": 23409,
    "ushed": 2969,
    "Ġscenery": 11458,
    "blot": 20785,
    "dient": 439,
    "sinking": 17670,
    "bowsprit": 16855,
    "Ġdepose": 22611,
    "ments": 1401,
    "Ġscreamed": 9527,
    "Ġ70": 11278,
    "Ġminor": 12973,
    "Ġolive": 12570,
    "Ġdilatory": 24704,
    "Ġhercules": 14130,
    "Ġuniversally": 12004,
    "Ġbroods": 23106,
    "Ġshipmates": 6722,
    "rarely": 21637,
    "Ġcontemptuously": 19836,
    "Ġaright": 11747,
    "mosp": 8089,
    "conspicuous": 26249,
    "Ġcentaurs": 23836,
    "Ġgreen": 3051,
    "inating": 9156,
    "belief": 13286,
    "race": 11634,
    "ratulations": 20129,
    "Ġimitated": 18332,
    "taining": 7206,
    "Ġfearfully": 23514,
    "Ġassign": 11112,
    "Ġunpleasing": 22055,
    "Ġcry": 3497,
    "arcy": 1276,
    "valued": 2851,
    "Ġproceed": 3246,
    "sequ": 2400,
    "Ġpledge": 11604,
    "pushed": 21025,
    "cowardly": 25750,
    "Ġshows": 8485,
    "Ġjupiter": 17459,
    "Ġfound": 1247,
    "swept": 19789,
    "Ġconvolutions": 21811,
    "discern": 14854,
    "_.âĢĿ": 5887,
    "close": 9989,
    "eric": 3470,
    "Ġnonsense": 6983,
    "Ġstubbornness": 25380,
    "Ġcompasses": 11269,
    "Ġarmies": 16495,
    "aggo": 5097,
    "attendants": 25496,
    "irection": 2387,
    "Ġansw": 2203,
    "Ġado": 7627,
    "Ġfir": 17879,
    "Ġmantle": 25275,
    "Ġinjustice": 9193,
    "Ġruined": 12959,
    "fifth": 20149,
    "vitiated": 25755,
    "ington": 21304,
    "Ġseason": 5238,
    "Ġblemish": 19682,
    "helmsman": 24289,
    "Ġshape": 5639,
    "antucket": 2645,
    "Ġfert": 15586,
    "ique": 8746,
    "Ġcoefficient": 2882,
    "Ġswain": 18881,
    "fireside": 24693,
    "bb": 2800,
    "Ġamiable": 4270,
    "Ġcompliment": 5673,
    "Ġport": 3311,
    "Ġque": 4159,
    "Ă": 195,
    "ensical": 18568,
    "Â·": 21152,
    "fatigue": 20660,
    "Ġnatur": 17337,
    "prehensible": 12364,
    "never": 3154,
    "endeavoured": 12285,
    "Ġworldly": 16334,
    "Ġinsignificant": 20459,
    "na": 13763,
    "oology": 21008,
    "pend": 6368,
    "Ġcus": 21346,
    "rect": 1594,
    "Ġmcc": 21309,
    "Ġshook": 4469,
    ".âĢĻ": 1720,
    "Ġbradstreet": 9579,
    "ceased": 21629,
    "Ġmajestic": 8643,
    "transferred": 24514,
    "Ġjokes": 18409,
    "user": 5105,
    "scattered": 22998,
    "Ġjournal": 15222,
    "Ġcomprehending": 24445,
    "Ġexerting": 21836,
    "Ġargu": 10937,
    "wishing": 21131,
    "Ġenter": 4031,
    "icuous": 10837,
    "borrowed": 20794,
    "Ġcollectively": 19971,
    "Ġhierarchical": 1928,
    "Ġfitting": 21411,
    "Ġboasted": 16110,
    "Ġabased": 22272,
    "Ġdistension": 22509,
    "Ġottoman": 17381,
    "Ġsympathies": 14864,
    "Ġstudies": 7956,
    "Ġdescription": 7429,
    "tese": 21086,
    "illating": 22111,
    "proof": 16427,
    "necessity": 13372,
    "Ġmonogram": 26576,
    "hos": 15367,
    "Ġsupreme": 13611,
    "Ġineffable": 17335,
    "queer": 10365,
    "Ġshrimp": 24160,
    "Ġsignific": 3829,
    "Ġofficial": 7083,
    "grew": 17557,
    "Ġscolding": 15204,
    "Ġscrewing": 20211,
    "perplex": 18339,
    "sea": 4762,
    "believed": 9936,
    "ansion": 10927,
    "Ġtempted": 9059,
    "friends": 8306,
    "Ġstationary": 19697,
    "winding": 16722,
    "expect": 4768,
    "guard": 12133,
    "Ġloose": 4648,
    "laborers": 23919,
    "igger": 21703,
    "Ġlydia": 2374,
    "footman": 17165,
    "izure": 21838,
    "Ġgirdled": 19162,
    "sleeves": 26110,
    "Ġmuscles": 12093,
    "Ġshipped": 9718,
    "Ġwrench": 12562,
    "Ġbenevolent": 7773,
    "Ġstature": 10865,
    "Ġhooked": 19081,
    "Ġvicinity": 7315,
    "Ġdevelopment": 7060,
    "Ġshe": 466,
    "Ġavail": 11228,
    "Ġscowl": 22289,
    "Ġshoal": 12020,
    "Ġmanaging": 22329,
    "Ġimaginary": 11188,
    "Ġresearch": 3221,
    "wolf": 26411,
    "succeed": 10331,
    "Ġproof": 6155,
    "Ġundulates": 24121,
    "Ġdiscipline": 26563,
    "Ġpresided": 20210,
    "crimes": 16686,
    "Ġteased": 18803,
    "Ġcrimes": 8591,
    "Ġmockery": 12112,
    "Ġlucas": 3833,
    "Ġpopulous": 16828,
    "Ġsnatches": 16546,
    "Ġtouches": 20573,
    "Ġcrush": 9425,
    "Ġgamb": 18000,
    "Ġimprisonment": 22402,
    "Ġclothing": 18424,
    "Ġarranged": 9880,
    "Ġconsummation": 17428,
    "imens": 1748,
    "Ġadaptive": 1426,
    "Ġsubstances": 24168,
    "horse": 8609,
    "Ġheaven": 3365,
    "Ġsundering": 23277,
    "Ġdetection": 3487,
    "Ġcheerfulness": 10519,
    "Ġitaly": 10869,
    "Ġpooh": 18604,
    "kine": 15379,
    "Ġuproar": 22159,
    "Ġbeeches": 9229,
    "Ġsucceeding": 16763,
    "thing": 1481,
    "Ġfrighted": 24032,
    "Ġsigned": 11179,
    "ipl": 20920,
    "Ġnatures": 16508,
    "Ġbewitched": 25976,
    "Ġecon": 9680,
    "Ġeclipsed": 26378,
    "Ġmounts": 17808,
    "Ġplaces": 5390,
    "ody": 1480,
    "Ġunsupp": 22021,
    "piled": 21017,
    "tallow": 21088,
    "Ġdam": 2213,
    "ock": 15405,
    "bud": 10686,
    "Ġhastening": 19338,
    "sent": 758,
    "Ġimpregn": 26023,
    "Ġtornado": 24622,
    "Ġgrec": 18963,
    "Ġways": 5396,
    "Ġbravest": 23844,
    "revol": 12545,
    "Ġconcrete": 20639,
    "Ġunreasonable": 12781,
    "Ġdevice": 1929,
    "Ġxavier": 2853,
    "Ġpane": 21466,
    "Ġsmiling": 5474,
    "Ġpremises": 10490,
    "Ġamphitheat": 26254,
    "Ġabsorbing": 17131,
    "'(": 2976,
    "Ġpotency": 14648,
    "Ġmedicine": 15210,
    "Ġsang": 12540,
    "ond": 1162,
    "Ġtiles": 17728,
    "Ġinfinity": 23284,
    "abs": 11670,
    "tide": 11535,
    "Ġchisel": 20371,
    "sacred": 17030,
    "Ġinvestigations": 17249,
    ",âĢĶ": 3173,
    "Ġpantaloons": 20299,
    "Ġbelfry": 26440,
    "'d": 12431,
    "Ġmethodically": 23179,
    "Ġembarks": 22962,
    "unken": 10239,
    "Ġmaimed": 21319,
    "concluding": 19484,
    "Ġfund": 2842,
    "ksome": 10107,
    "pondicherry": 26402,
    "ullen": 8235,
    "tin": 6118,
    "cery": 20810,
    "Ġsometimes": 2166,
    "Ġsubstitute": 16728,
    "Ġjumping": 13346,
    "Ġherein": 16194,
    "Ġbree": 5012,
    "Ġillustrious": 17110,
    "Ġtermination": 16463,
    "on": 267,
    "locks": 14459,
    "Ġeluded": 12927,
    "ulating": 10889,
    "Ġsemicircular": 26070,
    "Ġtolerable": 6949,
    "iour": 4039,
    "mr": 1904,
    "Ġremo": 3785,
    "delirium": 14788,
    "Ġoccasional": 7289,
    "iver": 2049,
    "Ġconsid": 1816,
    "actorily": 25577,
    "Ġdangerously": 23940,
    "Ġmarvelled": 18875,
    "scruple": 26046,
    "Ġtwee": 22678,
    "Ġcamp": 9167,
    "Ġnamely": 20692,
    "Ġsant": 21217,
    "Ġpersever": 10006,
    "splinter": 25211,
    "Ġstyle": 6946,
    "Ġexposes": 22627,
    "Ġverge": 23890,
    "Ġairs": 14514,
    "says": 13304,
    "Ġhelper": 24029,
    "Ġadmir": 12026,
    "isson": 23463,
    "Ġexeget": 24088,
    "Ġproducts": 5198,
    "Ġdecipher": 22445,
    "Ġax": 7822,
    "reading": 12084,
    "Ġsuperl": 16445,
    "Ġdejected": 20307,
    "Ġfervour": 19729,
    "llable": 6879,
    "tipt": 25086,
    "Ġrecklessness": 24744,
    "Ġsepar": 4001,
    "Ġfog": 9664,
    "scorched": 25698,
    "asters": 8435,
    "Ġextinction": 14330,
    "Ġall": 422,
    "lux": 14229,
    "ļ": 253,
    "Ġg": 310,
    "unsuitable": 21897,
    "Ġsubord": 22791,
    "Ġcompress": 21860,
    "indirectly": 18438,
    "honour": 13471,
    "âĢĿ;": 11672,
    "Ġkidn": 20208,
    "Ġorganisation": 23585,
    "Ġecstasy": 11633,
    "anct": 21361,
    "Ġsuspecting": 14913,
    "Ġavocation": 23956,
    "Ġhist": 2442,
    "Ġ(âĢľ": 15999,
    "andam": 10890,
    "Ġtigris": 25760,
    "amuse": 14055,
    "mansion": 20985,
    "Ġhereby": 10361,
    "Ġcharacteristics": 8613,
    "escape": 16010,
    "Ġidol": 7467,
    "Ġknew": 2055,
    "Ġtuileries": 24824,
    "Ġful": 4297,
    "Ġburg": 23653,
    "Ġtook": 1857,
    "Ġenderby": 13655,
    "Ġbias": 1191,
    "Ġchurned": 18386,
    "Ġstruggling": 12079,
    "sey": 5543,
    "Ġinterm": 14271,
    "Ġagonies": 14254,
    "sulphur": 25910,
    "isl": 21378,
    "Ġprovidence": 18747,
    "ming": 3603,
    "Ġweld": 8112,
    "Ġthackeray": 26457,
    "dist": 4481,
    "Ġnewcomers": 26042,
    "Ġunreliable": 3931,
    "Ġordinarily": 20651,
    "ulgences": 21869,
    "toed": 18579,
    "cely": 3577,
    "Ġwe": 387,
    "zor": 15461,
    "serious": 14451,
    "Ġberry": 19749,
    "enchant": 21286,
    "Ġblundering": 26285,
    "Ġhomely": 25220,
    "Ġtrivial": 10145,
    "Ġpacific": 5153,
    "Ġcreative": 9832,
    "Ġmidst": 7986,
    "Ġhumor": 11053,
    "amb": 5723,
    "deceiving": 22148,
    ">": 34,
    "cture": 15669,
    "itations": 17819,
    "Ġtroops": 24899,
    "Ġcrate": 19121,
    "Ġhen": 3503,
    "Ġcatherine": 2813,
    "gely": 10702,
    "Ġaghast": 16051,
    "faced": 8080,
    "Ġmock": 3693,
    "Ġsou": 1890,
    "Ġedd": 8398,
    "Ġcomplicated": 14738,
    "description": 11096,
    "if": 376,
    "ippers": 17578,
    "Ġanatomical": 15080,
    "Ġsimple": 1620,
    "Ġrubbing": 9323,
    "Ġer": 8105,
    "Ġinstruments": 12228,
    "Ġguinea": 8950,
    "returned": 7766,
    "Ġarrow": 10934,
    "Ġdecapitated": 20619,
    "requ": 7149,
    "square": 15062,
    "Ġsaddest": 16665,
    "Ġren": 3847,
    "Ġexempl": 21834,
    "northern": 23666,
    "receive": 12547,
    "treacle": 25151,
    "Ġplaced": 3443,
    "bohemia": 20733,
    "Ġassent": 12738,
    "Ġarch": 947,
    "ribution": 14310,
    "thanking": 24326,
    "attentive": 17192,
    "Ġsymb": 2591,
    "spark": 18689,
    "breckinridge": 24079,
    "Ġgale": 5823,
    "Ġinsens": 8277,
    "Ġmaintains": 2142,
    "Ġavert": 14428,
    "Ġchuckled": 10650,
    "mccarthy": 15398,
    "âĢĿ)": 21815,
    "Ġcomposed": 8895,
    "Ġlabyrin": 13109,
    "Ġmassachusetts": 24025,
    "Ġprocedures": 9415,
    "Ġbows": 4084,
    "Ġrenew": 6147,
    "Ġpraise": 6487,
    "Ġmortal": 4681,
    "Ġempt": 5051,
    "Ġsche": 1706,
    "eg": 17531,
    "icide": 11621,
    "Ġrock": 5311,
    "achel": 7034,
    "Ġstrasburgh": 18616,
    "tail": 8765,
    "Ġstandards": 19018,
    "Ġconjecture": 9535,
    "blades": 24133,
    "rannical": 26403,
    "Ġcluster": 13575,
    "Ġwant": 1117,
    "Ġunsupervised": 2366,
    "Ġmouthful": 16576,
    "Ġdetached": 10282,
    "Ġkeeled": 18809,
    "Ġunaccountable": 7886,
    "av": 738,
    "Ġdisplays": 19859,
    "Ġfit": 3686,
    "Ġwhit": 7178,
    "income": 15489,
    "inridge": 11563,
    "Ġislanders": 19505,
    "Ġexploding": 2109,
    "fain": 13718,
    "Ġconcil": 23326,
    "Ġdeclares": 16994,
    "ront": 15421,
    "pips": 21022,
    "Ġ>": 21154,
    "remed": 18956,
    "Ġpenny": 16317,
    "Ġfe": 491,
    "lower": 8884,
    "Ġprominence": 18957,
    "Ġribs": 7103,
    "lant": 20949,
    "Ġswimming": 5507,
    "Ġmeryton": 4439,
    "Ġsolving": 2480,
    "Ġtickled": 20060,
    "Ġvol": 4189,
    "exped": 16526,
    "motion": 17608,
    "comed": 8547,
    "Ġwounding": 19589,
    "Ġvicissitudes": 12423,
    "Ġworthless": 19568,
    "Ġcount": 1818,
    "Ġhumped": 19772,
    "Ġpaste": 23421,
    "Ġtruck": 19514,
    "Ġunfinished": 19512,
    "Ġvener": 8164,
    "Ġimagined": 8610,
    "Ġdue": 3846,
    "irst": 880,
    "covery": 11173,
    "Ġomnipotent": 13552,
    "Ġundertaken": 18988,
    "rents": 5310,
    "Ġparticulars": 5754,
    "countryman": 24640,
    "Ġappellation": 22221,
    "disagreeable": 11165,
    "Ġfabulous": 25949,
    "Ġpigs": 19750,
    "ov": 15403,
    "Ġwayward": 22875,
    "Ġextraction": 11254,
    "resc": 21241,
    "ying": 1365,
    "begins": 18529,
    "Ġplatform": 17134,
    "Ġcigar": 9548,
    "Ġadhes": 22107,
    "Ġglaring": 11912,
    "Ġmeth": 1473,
    "Ġtroublesome": 24005,
    "despairing": 25077,
    "cou": 13699,
    "Ġadjusted": 23459,
    "Ġcounted": 12144,
    "Ġconcealment": 16916,
    "Ġseventh": 18207,
    "Ġpieces": 7369,
    "cules": 12395,
    "Ġenraged": 10247,
    "Ġprofits": 16491,
    "removed": 15519,
    "acting": 22634,
    "Ġdefiance": 11070,
    "Ġdesirous": 8945,
    "Ġaffidavit": 20726,
    "hetic": 12208,
    "Ġtried": 3649,
    "Ġashore": 5352,
    "Ġlar": 764,
    "Ġfedallah": 6110,
    "amouch": 21849,
    "desp": 6094,
    "Ġdescried": 7919,
    "Ġdaresay": 14707,
    "Ġwished": 3730,
    "Ġsteadily": 8052,
    "ulpt": 10887,
    "izens": 18138,
    "Ġforbidding": 17080,
    "Ġjust": 1241,
    "revealed": 20419,
    "libra": 22928,
    "Ġplaything": 19240,
    "gazing": 12476,
    "Ġitself": 2521,
    "finished": 10557,
    "Ġopened": 3513,
    "dimly": 15350,
    "£": 101,
    "consequential": 26251,
    "Ġcolumbus": 26566,
    "broad": 8646,
    "Ġextravagant": 17281,
    "reduc": 5459,
    "Ġlinen": 12411,
    "Ġtwit": 12934,
    "Ġcrows": 24034,
    "Ġhath": 12633,
    "Ġrecords": 12200,
    "fitting": 1511,
    "decan": 22145,
    "Ġchamounix": 14867,
    "Ġviolation": 23408,
    "delight": 5345,
    "miniature": 16767,
    "Ġdrought": 19280,
    "Ġfeedforward": 2327,
    "Ġsnarl": 25714,
    "Ġturks": 14600,
    "copyright": 5278,
    "Ġcontest": 18474,
    "safety": 20352,
    "week": 12936,
    "Ġshabby": 14114,
    "Ġwasting": 12733,
    "artic": 14218,
    "supper": 12924,
    "Ġbour": 4877,
    "icirc": 15660,
    "hope": 5991,
    "effect": 8607,
    "Ġbutter": 6842,
    "Ġmurder": 4281,
    "Ġhumorously": 18779,
    "Ġmoustache": 20487,
    "Ġsobbing": 14138,
    "Ġit": 339,
    "rivial": 9437,
    "Ġcarry": 4778,
    "Ġimplies": 24874,
    "Ġtwentieth": 18660,
    "á": 162,
    "ones": 2742,
    "Ġarrested": 9563,
    "Ġinviting": 19146,
    "Ġloveliness": 13612,
    "aciously": 12912,
    "Ġcetacea": 20556,
    "Ġinhale": 20303,
    "Ġsiam": 13841,
    "Ġfeat": 10939,
    "Ġyellow": 5302,
    ":âĢĶâĢĺ": 24196,
    "Ġvigilant": 20187,
    "Ġnarrating": 24351,
    "Ġshores": 8852,
    "buncle": 13696,
    "Ġlaughed": 5059,
    "Ġvirtue": 4923,
    "Ġbeckoning": 20505,
    "Ġenv": 2880,
    "commotion": 24914,
    "Ġinsp": 2101,
    "mush": 20979,
    "Ġinland": 11611,
    "Ġcomprises": 22578,
    "Ġabuse": 18393,
    "Ġvigil": 9510,
    "Ġthigh": 10189,
    "Ġreceived": 2950,
    "accompan": 11454,
    "Ġenticements": 26035,
    "Ġseizing": 7879,
    "Ġconstruction": 9389,
    "Ġawake": 8272,
    "Ġwife": 2587,
    "bru": 12443,
    "hound": 20897,
    "amplified": 26496,
    "Ġchristians": 13313,
    "Ġrejoinder": 24598,
    "Ġwindow": 2995,
    "nature": 5360,
    "Ġcapsizing": 20092,
    "Ġimmovable": 15896,
    "Ġvictory": 16656,
    "imagination": 13484,
    "clopÃ¦dia": 15260,
    "acquired": 24298,
    "ĳ": 244,
    "Ġben": 1107,
    "links": 20960,
    "Ġleaky": 2346,
    "disinterested": 23504,
    "wretch": 17710,
    "Ġcharges": 23271,
    "Ġsilver": 7464,
    "Ġchick": 22251,
    "archbishop": 22896,
    "summer": 11998,
    "sighted": 19788,
    "Ġvoc": 4452,
    "nez": 22451,
    "adler": 21766,
    "Ġsincere": 11138,
    "Ġfearful": 6199,
    "henomen": 10497,
    "Ġharsh": 9524,
    "Ġweariness": 19797,
    "Ġdocuments": 10026,
    "Ġaside": 5234,
    "whiskers": 12315,
    "lins": 2027,
    "Ġvest": 8163,
    "continually": 11304,
    "Ġlearning": 386,
    "Ġtooth": 9195,
    "Ġweal": 21923,
    "Ġlovel": 10274,
    "Ġjoys": 13225,
    "urer": 18124,
    "exercise": 17462,
    "Ġdistributed": 18662,
    "uits": 21107,
    "bonnet": 25743,
    "Ġdiverse": 19211,
    "vation": 4743,
    "plunging": 25988,
    "Ġork": 18285,
    "Ġposted": 16726,
    "sister": 5139,
    "Ġtar": 2563,
    "Ġrich": 2991,
    "Ġdeclaration": 16639,
    "Ġsciences": 15948,
    "Ġguards": 16270,
    "antage": 3880,
    "rival": 12748,
    "Ġformerly": 7493,
    "Ġqualities": 7533,
    "fits": 13721,
    "Ġano": 11599,
    "Ġunrel": 14698,
    "throt": 25660,
    "conclusions": 25673,
    "usage": 12838,
    "worshipping": 16612,
    "Ġunluckily": 20105,
    "Ġfool": 4234,
    "Ġrevolutionized": 3367,
    "ca": 20795,
    "Ġfatigued": 13469,
    "Ġzoology": 22824,
    "Ġwinter": 5220,
    "Ġcyn": 13889,
    "Ġnewly": 9341,
    "Ġoil": 3373,
    "Ġoccupations": 9460,
    "Ġrussian": 14351,
    "Ġcautious": 12258,
    "Ġscand": 7203,
    "Ġfrowning": 13627,
    "savor": 25027,
    "ĠĠ": 351,
    "distinct": 13340,
    "atered": 22076,
    "Ġinduced": 8674,
    "Ġstrained": 10221,
    "Ġsank": 5076,
    "Ġjanuary": 13657,
    "meadow": 18676,
    "Ġhues": 21492,
    "sorrows": 17323,
    "ediction": 17947,
    "inuating": 16207,
    "Ġplough": 18609,
    "Ġsystems": 806,
    "Ġbritain": 16958,
    "iality": 8848,
    "Ġgrounds": 6751,
    "humanity": 24840,
    "Ġanalysis": 1871,
    "itu": 1227,
    "rises": 17657,
    "rael": 21632,
    "Ġconsistence": 23359,
    "Û": 156,
    "Ġadvoc": 12993,
    "Ġor": 437,
    "cherries": 19759,
    "Ġnecessity": 7296,
    "Ġplaint": 10328,
    "deeply": 16181,
    "Ġeasy": 3451,
    "tremble": 17144,
    "Ġproceeded": 5336,
    "W": 59,
    "Ġjav": 7902,
    "rec": 6005,
    "Ġconstructed": 9390,
    "Ġpleasurable": 23343,
    "bearded": 18526,
    "Ġmoods": 14954,
    "Ġone": 568,
    "Ġnegro": 6448,
    "ela": 21572,
    "Ġentertained": 10001,
    "Ġthanking": 18603,
    "Ġfishery": 4175,
    "Ġaccurately": 4386,
    "Ġcollecting": 12290,
    "Ġmention": 2983,
    "arians": 18530,
    "narrow": 11510,
    "Ġissuing": 16950,
    "Ġrequiring": 2920,
    "Ġgathers": 24742,
    "Ġmeeting": 5193,
    "vent": 682,
    "Ġhate": 5445,
    "Ġbitterly": 8315,
    "Ġclosing": 11776,
    "er": 269,
    "Ġfortun": 4982,
    "Ġconvul": 13207,
    "ensities": 22550,
    "Ġrecording": 24434,
    "distance": 12157,
    "jumping": 20248,
    "ognit": 19221,
    "Ġroasted": 18461,
    "muttered": 13762,
    "Ġabroad": 8869,
    "Ġruns": 8599,
    "Ġanticipatingly": 26103,
    "Ġunlock": 18241,
    "Ö": 151,
    "Ġattend": 5036,
    "also": 7851,
    "Ġrescue": 13347,
    "relatively": 24017,
    "Ġcutting": 4983,
    "Ġlaud": 17970,
    "Ġmidships": 23635,
    "Ġgood": 1001,
    "Ġground": 2845,
    "pursued": 17284,
    "knowing": 10439,
    "etts": 12665,
    "Ġimproves": 22752,
    "owed": 2269,
    "cannibals": 25585,
    "Ġting": 8399,
    "Ġundisturbed": 19522,
    "chased": 18044,
    "yours": 7695,
    "several": 5544,
    "ugging": 23294,
    "Ġexcellence": 11453,
    "agony": 14072,
    "Ġheaths": 25973,
    "Ġdireful": 11019,
    "Ġliberated": 19669,
    "exception": 9979,
    "Ġnick": 21526,
    "con": 653,
    "yond": 2330,
    "ire": 492,
    "Ġaccuse": 14214,
    "Ġapprehending": 26092,
    "humored": 19456,
    "belongs": 25597,
    "Ġmotionless": 8324,
    "Ġalb": 14019,
    "trem": 17683,
    "usion": 3302,
    "Ġthan": 736,
    "Ġimage": 3404,
    "Ġneskye": 21534,
    "Ġboisterous": 20446,
    "Ġjoists": 19235,
    "Ġpope": 11605,
    "Ġspecies": 5112,
    "Ġsternly": 16717,
    "hement": 13835,
    "ription": 5676,
    "Ġpronouncing": 16971,
    "build": 12192,
    "Ġbelong": 3887,
    "contr": 12061,
    "Ġrealise": 16340,
    "Ġflor": 8565,
    "Ġgracechurch": 12203,
    "Ġrefill": 18699,
    "uiperai": 10666,
    "threat": 10902,
    "Ġwhiteness": 5920,
    "entire": 6824,
    "saddest": 25528,
    "years": 6883,
    "Ġdeserves": 13294,
    "Ġrobots": 11085,
    "fted": 9121,
    "Ġappalled": 22220,
    "Ġforth": 3461,
    "spell": 22732,
    "Ġrenders": 13288,
    "Ġbell": 4635,
    "child": 5538,
    "umb": 3403,
    "moments": 19415,
    "Ġisa": 14028,
    "Ġobey": 9522,
    "zeal": 16274,
    "Ġconjure": 17126,
    "Ġvoy": 2619,
    "Ġincom": 9772,
    "Ġflights": 24752,
    "oup": 2016,
    "horror": 13163,
    "fect": 2300,
    "igen": 4829,
    "leeward": 15214,
    "aimed": 3954,
    "behaved": 24463,
    "listened": 15046,
    "Ġ**": 4720,
    "Ġpartners": 11857,
    "Ġunusually": 15850,
    "irra": 15789,
    "Ġterrific": 6756,
    "Ġimpart": 11786,
    "Ġbengal": 18785,
    "Ġarri": 2552,
    "Ġconc": 1845,
    "Ġsum": 2699,
    "Ġticklish": 25037,
    "Ġfearless": 9878,
    "Ġcritic": 19123,
    "Ġarticulated": 24433,
    "Ġprophecy": 25706,
    "bl": 4142,
    "suggest": 20379,
    "Ġcrusad": 23709,
    "Ġenjoy": 3760,
    "ivil": 6412,
    "Ġlikeness": 11181,
    "treas": 17681,
    "wickham": 5885,
    "Ġscenarios": 26544,
    "res": 2759,
    "whaler": 20312,
    "Ġentr": 14341,
    "Ġchase": 3947,
    "ms": 541,
    "sh": 647,
    "guess": 14764,
    "onent": 21251,
    "rie": 2787,
    "Ġmechanism": 2296,
    "cooper": 19192,
    "Ġgroan": 13329,
    "Ġalexander": 17427,
    "Ġrecurring": 23234,
    "Ġcolumns": 14379,
    "Ġrel": 1094,
    "rable": 11635,
    "Ġwis": 3729,
    "Ġentra": 18694,
    "hap": 17561,
    "zers": 21149,
    "Ġadmit": 7711,
    "Ġfinds": 6301,
    "irted": 14075,
    "Ġknowingly": 18481,
    "Ġberries": 13411,
    "Ġinqu": 2963,
    "Ġgaiety": 16751,
    "ruded": 15905,
    "Ġbankers": 24304,
    "Ġthickets": 24026,
    "Ġpilgrim": 25600,
    "jure": 20926,
    "remes": 21240,
    "Ġpallidness": 25605,
    "crazy": 24692,
    "mitting": 20975,
    "Ġrattler": 24998,
    "Ġdomineer": 23674,
    "Ġcuba": 25098,
    "entiating": 3437,
    "lu": 597,
    "Ġimprobable": 9798,
    "Ġdrawled": 23992,
    "Ġacquit": 18899,
    "cannib": 11907,
    "Ġlatterly": 24087,
    "Ġblot": 9815,
    "Ġmanner": 2193,
    "Ġpie": 13918,
    "Ġreadiness": 13055,
    "Ġlion": 9678,
    "Ġrelative": 11887,
    "Ġjoin": 4854,
    "Ġstepmother": 16093,
    "Ġconnex": 10668,
    "Ġlivers": 18462,
    "Ġsacrilege": 26230,
    "Ġboast": 7036,
    "Ġpretension": 23766,
    "Ġpedestrian": 25884,
    "ree": 875,
    "cong": 10691,
    "Ġunwearied": 20605,
    "protested": 13478,
    "Ġmour": 6974,
    "ivation": 3111,
    "loaded": 22516,
    "umblings": 23897,
    "lled": 10110,
    "Ġsubur": 12961,
    "ĠĠĠĠĠĠĠĠĠĠĠĠ": 12905,
    "Ġploughing": 26261,
    "Ġexcitement": 9385,
    "fierce": 25256,
    "rance": 5995,
    "Ġunseen": 3526,
    "Ġfrighten": 13283,
    "Ġlacepede": 20498,
    "luckily": 19755,
    "Ġethere": 23954,
    "Ġperceived": 4713,
    "Ġsnow": 3708,
    "otted": 14027,
    "Ġraiment": 22652,
    "ssing": 3810,
    "Ġlbs": 11618,
    "unks": 15779,
    "Ġeastern": 11632,
    "magnifying": 25393,
    "Ġcommunicates": 24547,
    "seek": 8841,
    "Ġattack": 5478,
    "Ġgratified": 8021,
    "Ġmoulton": 17438,
    "Ġgay": 5535,
    "Ġducking": 17149,
    "Ġripe": 13239,
    "derer": 4600,
    "Ġunravel": 26216,
    "quired": 21853,
    "Ġsome": 654,
    "Ġburn": 3685,
    "delights": 19704,
    "Ġkiss": 8183,
    "Ġrage": 5110,
    "stri": 6251,
    "Ġobvious": 4964,
    "Ġ(": 596,
    "Ġimpotent": 18454,
    "Ġwave": 7576,
    "details": 19678,
    "Ġdiffidence": 14661,
    "watches": 14950,
    "fell": 6953,
    "actor": 11841,
    "Ġcrew": 2494,
    "mushroom": 26397,
    "Ġunc": 2124,
    "triumph": 15443,
    "Ġpart": 859,
    "Ġtossed": 5816,
    "Ġshrew": 22004,
    "Ġparch": 11730,
    "Ġbritannica": 24681,
    "Ġaffair": 4464,
    "Ġcommended": 18657,
    "Ġtwilight": 16125,
    "Ġsolitudes": 22889,
    "Ġsuited": 12790,
    "ims": 7177,
    "cried": 8728,
    "Ġagile": 22517,
    "Ġdexter": 9704,
    "information": 12397,
    "Ġblaze": 16223,
    "Ġinconsiderable": 21498,
    "Ġaudibly": 24770,
    "Ġhier": 1898,
    "atical": 10773,
    "Ġfoul": 7160,
    "Ġbusks": 23342,
    "Ġsig": 867,
    "Ġnour": 10832,
    "lean": 21368,
    "Ġdepartment": 24244,
    "Ġcascade": 20584,
    "Ġrect": 18028,
    "Ġcontinuing": 14400,
    "fiend": 13665,
    "Ġshall": 1144,
    "Ġ59": 24323,
    "Ġunthinkingly": 26222,
    "ishment": 3506,
    "Ġke": 1157,
    "ren": 549,
    "find": 6954,
    "Ġdolphin": 17315,
    "Ġbuy": 8300,
    "Ġbeliever": 25847,
    "Ġplayers": 12042,
    "Ġshutting": 14762,
    "adm": 7609,
    "undertaking": 23790,
    "fters": 20863,
    "superst": 11327,
    "Ġcumberland": 21358,
    "formity": 10281,
    "Ġcourtship": 24138,
    "Ġdistance": 3483,
    "Ġreproofs": 24893,
    "Ġrushing": 7403,
    "Ġirregular": 9868,
    "Ġdella": 21442,
    "scor": 13025,
    "Ġunrolled": 22038,
    "Ġdrows": 21438,
    "Ġguided": 10462,
    "Ġyarman": 12710,
    "Ġcultivated": 17367,
    "mot": 17598,
    "Ġcraggy": 23531,
    "Ġinducements": 24968,
    "cupboards": 25402,
    "Ġflowery": 16237,
    "af": 2376,
    "arranging": 19320,
    "Ġjustice": 5111,
    "Ġ21": 11201,
    "ispensable": 9099,
    "Ġthundering": 24293,
    "`": 68,
    "Ġdisd": 7032,
    "Ġdestined": 7975,
    "Ġfelix": 4849,
    "colour": 9906,
    "mm": 676,
    "Ġferrule": 24500,
    "Ġnailed": 10192,
    "ler": 3492,
    "Ġ*": 1275,
    "Ġkingdom": 12023,
    "Ġpenet": 6888,
    "Ġshared": 10266,
    "ogany": 18680,
    "ating": 666,
    "ient": 392,
    "Ġboarders": 16602,
    "âĢĶâĢľ": 2968,
    "sav": 8097,
    "level": 2654,
    "Ġchat": 6562,
    "Ġtol": 6677,
    "Ġcrad": 21352,
    "Ġremained": 3142,
    "illar": 5101,
    "transform": 8050,
    "Ġcetology": 10012,
    "perceive": 12814,
    "Ġqu": 604,
    "Ġmuchness": 18709,
    "Ġrace": 5848,
    "Ġskewer": 19623,
    "Ġseverest": 14094,
    "point": 6064,
    "Ġpermit": 9752,
    "Ġschool": 5512,
    "affording": 23780,
    "Ġsprained": 15887,
    "albatross": 15634,
    "Ġparagraph": 17457,
    "Ġtravel": 5954,
    "sperm": 5203,
    "Ġalliance": 18269,
    "Ġcrashes": 13129,
    "ġ": 226,
    "Ġphilosophical": 26336,
    "cus": 3982,
    "io": 3803,
    "Ġimprec": 14226,
    "standing": 5558,
    "Ġuncommonly": 7760,
    "Ġtowns": 11175,
    "Ġliveliest": 24774,
    "ised": 1059,
    "Ġtissu": 25921,
    "big": 13689,
    "Ġbloodthirsty": 26603,
    "Ġdevotedly": 24749,
    "Ġloggerhead": 13661,
    "Ġdrawing": 3920,
    "Ġfamilies": 8027,
    "Ġexhibition": 14960,
    "withdrawn": 23029,
    "Ġconquer": 14030,
    "Ġbesee": 19245,
    "Ġmannish": 26239,
    "Ġinvited": 6903,
    "ĠâĢľâĢĻ": 22258,
    "kov": 17588,
    "Ġtroubles": 19442,
    "Ġpartially": 13127,
    "Ġoverflow": 10295,
    "raved": 18015,
    "Ġexpiration": 22628,
    "gon": 17554,
    "owers": 12690,
    "Ġstick": 6027,
    "oric": 21399,
    "stra": 4047,
    "Ġconverse": 11848,
    "myster": 16265,
    "Ġdest": 2235,
    "Ġgerm": 13967,
    "Ġsubdued": 11032,
    "Ġentranced": 25835,
    "ild": 1156,
    "eping": 5834,
    "Ġlimit": 10445,
    "Ġgasp": 7173,
    "Ġsimulates": 2738,
    "coming": 3564,
    "Ġhyena": 24519,
    "haust": 5777,
    "Ġnative": 4640,
    "Ġbapt": 13899,
    "Ġbra": 3257,
    "Ġentertainment": 12227,
    "Ġrid": 4355,
    "Ġvagu": 13593,
    "Ġneither": 3688,
    "isance": 17849,
    "Ġlurid": 19684,
    "Ġwait": 4908,
    "Ġattention": 1175,
    "Ġloops": 8856,
    "Ġjing": 15953,
    "Ġovertook": 18429,
    "fish": 3517,
    "Ġclouded": 13295,
    "Ġporus": 24398,
    "tottenham": 25419,
    "Ġkeys": 12001,
    "Ġanguish": 5584,
    "Ġfet": 5808,
    "merchant": 10469,
    "Ġming": 9648,
    "happiest": 19334,
    "Ġexplain": 545,
    "Ġvine": 8474,
    "Ġamput": 16038,
    "desc": 1395,
    "Ġperplexity": 2754,
    "Ġpa": 2986,
    "Ġrendering": 16660,
    "Ġpeter": 10538,
    "Ġdissembling": 26256,
    "Ġdimin": 3873,
    "Ġlandowner": 23384,
    "Ġconsidering": 4615,
    "Ġdur": 11595,
    "Ġdiscoveries": 13363,
    "roman": 22008,
    "Ġchalk": 15937,
    "nnight": 20995,
    "Ġspotted": 12143,
    "her": 488,
    "Ġrehearsed": 25972,
    "Ġcage": 17827,
    "Ġsoar": 18283,
    "orate": 10802,
    "ohog": 9847,
    "Ġbidden": 24647,
    "Ġdefection": 22945,
    "whalers": 17266,
    "Ġpalsy": 25779,
    "ote": 4596,
    "whosoever": 22244,
    "Ġrepeated": 3832,
    ".}": 20747,
    "Ġcrossed": 6070,
    "Ġne": 388,
    "Ġincorrect": 2728,
    "Ġimpulse": 10027,
    "Ġunluck": 8487,
    "imely": 14001,
    "Ġaustrian": 24302,
    "Ġsearched": 15823,
    "bennet": 5353,
    "keeper": 5597,
    "Ġhats": 14620,
    "ither": 1547,
    "murdered": 12207,
    "Ġaffront": 18789,
    "ernation": 8212,
    "ute": 4642,
    "Ġminister": 18753,
    "Ġelucidated": 26030,
    "Ġgir": 2256,
    "asy": 5296,
    "ayed": 12717,
    "ker": 5792,
    "Ġah": 5075,
    "Ġsuppress": 13029,
    "Ġperhaps": 1913,
    "Ġwhitened": 24868,
    "Ġbet": 1135,
    "gunw": 17223,
    "ament": 2437,
    "Ġsob": 12793,
    "oury": 22308,
    "terrific": 25043,
    "Ġapple": 14169,
    "Ġhuge": 4699,
    "har": 20892,
    "Ġinnoc": 3796,
    "erce": 6128,
    "Ġrespectful": 16349,
    "relig": 15515,
    "heartedness": 24825,
    "Ġdollars": 11457,
    "Ġundet": 16703,
    "Ġsheets": 9725,
    "su": 792,
    "ency": 3870,
    "Ġquenched": 22421,
    "Ġunprinciple": 18252,
    "avings": 12027,
    "idents": 6152,
    "complained": 25840,
    "Ġoftener": 13569,
    "Ġgur": 21595,
    "Ġdescending": 8906,
    "Ġshout": 4265,
    "Ġrepugn": 23366,
    "Ġalphabetical": 17204,
    "ivable": 10912,
    "retion": 9366,
    "Ġcurled": 8226,
    "Ġdiscovers": 4429,
    "moored": 22707,
    "ays": 6685,
    "Ġaspects": 4174,
    "Ġpersisted": 13045,
    "Ġcrescent": 16140,
    "sheets": 14445,
    "mies": 20970,
    "irable": 5776,
    "Ġzones": 22822,
    "Ġresnet": 5473,
    "Ġ102": 24410,
    "cr": 4014,
    "Ġslumbering": 25702,
    "Ġlongitude": 11013,
    "Ġmysteriously": 24602,
    "Ġsentiment": 6591,
    "dough": 15338,
    "ulations": 6030,
    "sleeve": 26109,
    "Ġinsolence": 20256,
    "write": 14649,
    "Ġtowing": 9196,
    "Ġbranches": 6777,
    "ambition": 13415,
    "Ġswear": 6462,
    "Ġcarpenter": 4684,
    "Ġavoided": 13263,
    "apsed": 6297,
    "domestic": 19828,
    "jaws": 20934,
    "Ġassistance": 6335,
    "ashions": 16421,
    "requiem": 24857,
    "Ġadorn": 12797,
    "embarr": 17295,
    "Ġpleasantly": 14522,
    "Ġaccusations": 22384,
    "Ġunstructured": 3002,
    "urg": 8142,
    "Ġthursday": 12649,
    "Ġtranquo": 14846,
    "phew": 6369,
    "Ġeludes": 26556,
    "anded": 5924,
    "Ġdrooping": 9423,
    "scythes": 26404,
    "button": 10968,
    "Ġmillion": 14990,
    "Ġpence": 17907,
    "concluded": 11245,
    "Ġcritical": 7474,
    "pretty": 10624,
    "roy": 7854,
    "alterable": 13628,
    "chairs": 21696,
    "manner": 6172,
    "Ġexperiences": 13035,
    "dar": 20826,
    "Ġrolling": 5976,
    "ordingly": 18522,
    "Ġacc": 573,
    "eous": 13715,
    "Ġhid": 1319,
    "Ġrack": 9315,
    "Ġride": 12763,
    "elab": 21573,
    "Ġhill": 5626,
    "Ġholiday": 13003,
    "quit": 15766,
    "Ġseaward": 22950,
    "weary": 22689,
    "Ġsteep": 2887,
    "Ġinstinct": 6577,
    "forks": 26389,
    "tru": 10731,
    "Ġbreaking": 6312,
    "Ġestablished": 9072,
    "does": 6196,
    "_,âĢĿ": 6220,
    "Ġdesired": 4664,
    "repe": 8780,
    "abiding": 21797,
    "Ġentreating": 24210,
    "ostentatious": 20654,
    "osop": 4405,
    "ilies": 18059,
    "tro": 15436,
    "ousand": 2428,
    "Ġavalanche": 17436,
    "Ġmastiff": 23727,
    "vener": 21114,
    "Ġ7": 4744,
    "Ġstacked": 21747,
    "introdu": 8940,
    "Ġleaders": 16630,
    "½": 126,
    "Ġfict": 21408,
    "quest": 4538,
    "Ġcongregation": 12333,
    "eted": 7592,
    "quod": 2164,
    "icions": 21566,
    "Ġkey": 2102,
    "Ġmeanly": 12914,
    "Ġprofessor": 11232,
    "flex": 24844,
    "ullied": 23108,
    "angles": 18296,
    "Ġsurpr": 2549,
    "Ġcalam": 13039,
    "elfth": 22373,
    "fetch": 12469,
    "devils": 20036,
    "tales": 17688,
    "atible": 17774,
    "Ġmanagement": 8193,
    "Ġdecidedly": 9512,
    "brought": 7285,
    "orrowed": 19292,
    "worn": 13809,
    "silver": 19693,
    "ersman": 11706,
    "chain": 18042,
    "constantly": 24607,
    "Ġresources": 2935,
    "Ġsomewhat": 4898,
    "lorious": 17594,
    "Ġwriggling": 15261,
    "arming": 8954,
    "Ġforcibly": 10064,
    "Ġtempor": 2367,
    "Ġdisputes": 25826,
    "atural": 949,
    "inks": 6869,
    "Ġliberties": 19670,
    "Ġcontribute": 12866,
    "Ġpunctures": 25136,
    "Ġparallel": 1415,
    "ago": 14068,
    "Ġvaluable": 5608,
    "Ġdropping": 7483,
    "Ġpossession": 5589,
    "thank": 4950,
    "Ġubiqu": 18049,
    "Ġstreaked": 19115,
    "Ġcatholic": 20684,
    "Ġdromedary": 17442,
    "Ġinvesting": 19644,
    "ight": 403,
    "Ġbenefit": 8294,
    "Ġannoyed": 17202,
    "culous": 11143,
    "consol": 9765,
    "gia": 20878,
    "Ġrecovering": 11866,
    "app": 1040,
    "told": 7811,
    "Ġposs": 1615,
    "Ġperish": 8878,
    "Ġrecalled": 8540,
    "Ġnavies": 16902,
    "puff": 21024,
    "Ġtransp": 4769,
    "threatened": 25463,
    "Ġsoon": 1228,
    "Ġmanipulated": 25179,
    "Ġcomply": 8894,
    "results": 20390,
    "Ġcrescentic": 20624,
    "Ġjeopardy": 13600,
    "acetty": 24464,
    "Ġsweatings": 25709,
    "Ġfathers": 16299,
    "Ġhire": 21488,
    "Ġtamer": 24979,
    "deadly": 17101,
    "convalescence": 24885,
    "phren": 22789,
    "Ġspeeches": 22666,
    "Ġinstability": 3814,
    "Ġwidows": 24239,
    "gay": 11491,
    "Ġ104": 24412,
    "Ġpyramid": 8806,
    "Ġcos": 2206,
    "Ġothers": 2582,
    "Ġgnashed": 20136,
    "Ġfriendless": 23027,
    "Ġtradesman": 20076,
    "Ġescape": 2648,
    "Ġsar": 21216,
    "Ġvouch": 15813,
    "Ġcord": 5222,
    "Ġamply": 22486,
    "Ġsoo": 15865,
    "Ġseeth": 21964,
    "Ġhabits": 6926,
    "itting": 1153,
    "Ġoverspread": 14209,
    "Ġnumerous": 6920,
    "ineering": 21985,
    "Ġencouraging": 2263,
    "Ġreluct": 14375,
    "aloft": 8811,
    "cell": 10689,
    "Ġnap": 8813,
    "Ġproportions": 16470,
    "Ġbarrels": 9439,
    "Ġsque": 18758,
    "extinguished": 16153,
    "esteem": 26009,
    "Ġown": 1007,
    "Ġyawning": 12304,
    "Ġprior": 11320,
    "retch": 4372,
    "Ġ110": 24435,
    "warks": 5004,
    "Ġtheatre": 21281,
    "hor": 2571,
    "naturalists": 23542,
    "mist": 5686,
    "Ġplutarch": 22606,
    "aphs": 22339,
    "Ġimaginative": 19249,
    "gor": 547,
    "feet": 6570,
    "icable": 6389,
    "Ġexhaustion": 14964,
    "Ġexpost": 18626,
    "volutional": 1936,
    "iate": 6506,
    "Ġeffusions": 18520,
    "Ġprotracted": 19472,
    "grow": 10101,
    "Ġsandwic": 24665,
    "Ġdial": 10812,
    "Ġesquimaux": 25154,
    "Ġlose": 5028,
    "Ġimpact": 10301,
    "Ġkeels": 11063,
    "Ġ66": 24369,
    "Ġhired": 10180,
    "etymology": 14704,
    "Ġvow": 10249,
    "Ġhay": 11608,
    "diminished": 20841,
    "Ġampl": 22484,
    "Ĩ": 233,
    "Ġimmensity": 25330,
    "ems": 5236,
    "Ġstreet": 2956,
    "emph": 21932,
    "Ġhereafter": 9333,
    "Ġcanals": 22168,
    "part": 2573,
    "perfectly": 9089,
    "Ġscrutin": 26015,
    "ffic": 22155,
    "Ġflogged": 23626,
    "Ġcommand": 3323,
    "liv": 9610,
    "Ġbuilding": 8063,
    "promised": 12256,
    "Ġsubsequently": 16164,
    "Ġeffemin": 18521,
    "mpt": 6656,
    "Ġcontraction": 16012,
    "biting": 20783,
    "Ġretreat": 6071,
    "doors": 19096,
    "useless": 14596,
    "expected": 5780,
    "Ġorphan": 12387,
    "Ġtreacherously": 25132,
    "latitudes": 17199,
    "Ġpitches": 23905,
    "Ġoccurrences": 11052,
    "Ġbrutality": 26278,
    "Ġsavannah": 17419,
    "Ġsinusoid": 4780,
    "Ġnephews": 24712,
    "Ġpupp": 10822,
    "Ġveil": 7935,
    "asis": 12655,
    "beth": 13692,
    "Ġale": 9157,
    "Ġlongbourn": 3509,
    "otent": 8836,
    "imson": 12694,
    "Ġalready": 2711,
    "Ġcitizens": 25440,
    "Ġinasmuch": 10827,
    "uation": 17696,
    "dressed": 10697,
    "detached": 19677,
    "vigorous": 25918,
    "pleasant": 5876,
    "furnish": 25339,
    "measured": 19993,
    "Ġimplicated": 24876,
    "Ġinsignificance": 20460,
    "Ġuplifted": 11650,
    "D": 40,
    "Ġturbul": 23614,
    "Ġhigher": 1823,
    "Ġpull": 5152,
    "Ġharrow": 17928,
    "Ġunable": 4951,
    "Ġunctuousness": 17237,
    "Ġnewton": 3535,
    "Ġrejo": 5917,
    "ends": 6040,
    "Ġundertaking": 8577,
    "Ġaw": 2509,
    "Ġvex": 5950,
    "Ġfearlessness": 19164,
    "gence": 877,
    "kindred": 24052,
    "usual": 5842,
    "dorff": 15241,
    "tarpaul": 21100,
    "Ġample": 11802,
    "turning": 8317,
    "Ġsealed": 15822,
    "jack": 7344,
    "Ġgum": 21598,
    "Ġfoaming": 18993,
    "bony": 15323,
    "left": 6976,
    "Ġdecline": 9290,
    "Ġmerc": 9429,
    "Ġwarrior": 24496,
    "Ġabsor": 8507,
    "!âĢĶ": 2452,
    "shott": 11798,
    "Ġneighbouring": 12123,
    "attempted": 20177,
    "subst": 12169,
    "Ġclinched": 17397,
    "Ġparticularly": 5056,
    "Ġmisery": 3815,
    "vint": 21117,
    "Ġdism": 9770,
    "arrival": 15604,
    "icip": 6390,
    "Ġinsertion": 26345,
    "Ġacquiescence": 20333,
    "remediable": 26296,
    "Ġinferiority": 17116,
    "Ġbowing": 10477,
    "Åĵuv": 15186,
    "Ġcomputations": 16008,
    "fiercely": 25257,
    "Ġchast": 18381,
    "bers": 2570,
    "Ġ77": 24266,
    "Ġinstant": 2703,
    "Ġbutton": 10270,
    "Ġtorrid": 25035,
    "tor": 15435,
    "Ġelbow": 12926,
    "Ġbursting": 8659,
    "Ġbambooz": 26120,
    "Ġperchance": 15991,
    "idually": 21773,
    "neither": 9760,
    "Ġdub": 13912,
    "Ġdisappo": 4506,
    "Ġemploy": 3617,
    "Ġhunsford": 6303,
    "Ġphr": 2681,
    "Ġindirect": 18836,
    "Ġ88": 19714,
    "Ġlogits": 3449,
    "Ġcharity": 8866,
    "queens": 22899,
    "Ġomin": 11580,
    "urns": 10216,
    "Ġrefresh": 10348,
    "Ġloved": 4599,
    "Ġdelicious": 14796,
    "Ġvinc": 14088,
    "st": 316,
    "Ġstandpoint": 23280,
    "burg": 16775,
    "Ġlegendary": 20540,
    "Ġdr": 2824,
    "stupid": 12681,
    "Ġpresumed": 10547,
    "nineteenth": 26139,
    "Ġunspeakably": 25173,
    "woof": 21142,
    "attention": 2110,
    "Ġfluctuations": 5516,
    "ĠâĢľ": 516,
    "tempered": 13450,
    "calm": 8937,
    "ie": 728,
    "Ġalter": 6544,
    "jud": 4482,
    "Ġcomfor": 14057,
    "itude": 1418,
    "Ġambiguous": 20167,
    "Ġfals": 15585,
    "etting": 21583,
    "âĢĶ_": 3204,
    "Ġnash": 5820,
    "hur": 6651,
    "Ġties": 12533,
    "Ġpredecess": 18518,
    "Ġswords": 19899,
    "Ġskirts": 14355,
    "Ġprejudices": 13473,
    "Ġbestowing": 16973,
    "Ġlullaby": 20591,
    "Ġimpute": 18334,
    "Ġdirecting": 16303,
    "gain": 8740,
    "Ġgreat": 896,
    "Ġheavy": 3744,
    "Ġpatagon": 14506,
    "definition": 23121,
    "pond": 21015,
    "rmsprop": 4522,
    "Ġencountering": 11271,
    "encyclopÃ¦dia": 16666,
    "Ġabove": 2934,
    "Ġenlightened": 12751,
    "Ġshifting": 12773,
    "silence": 8045,
    "Ġcripp": 9656,
    "Ġmurderous": 8316,
    "Ġepid": 18007,
    "ared": 773,
    "Ġdifficult": 3574,
    "elev": 12463,
    "achine": 609,
    "Ġwrung": 14474,
    "Ġantarctic": 19555,
    "Ġlightness": 23263,
    "op": 658,
    "maritime": 24176,
    "ernity": 18614,
    ";âĢĿ": 7791,
    "arned": 21821,
    "Ġconnected": 5393,
    "Ġdisc": 942,
    "flowing": 14572,
    "irectly": 6940,
    "iciency": 9577,
    "Ġuncouth": 14550,
    "Ġblan": 18818,
    "Ġcontents": 7210,
    "sensible": 20055,
    "running": 6798,
    "Ġextracting": 11106,
    "Ġfairer": 20465,
    "interview": 19301,
    "Ġscholars": 26113,
    "Ġenabling": 1077,
    "Ġastonished": 7089,
    "Ġunob": 22015,
    "Ġfloated": 7288,
    "Ġapplication": 2067,
    "ulia": 18151,
    "butter": 11789,
    "tish": 17679,
    "Ġancestors": 25643,
    "Ġretired": 6072,
    "impotence": 23763,
    "Ġevident": 6614,
    "devil": 7895,
    "Ġevenness": 22837,
    "Ġaccumul": 1411,
    "Ġpeep": 6870,
    "Ġprogra": 1146,
    "Ġcre": 889,
    "Ġmercenary": 17196,
    "Ġbarbar": 6935,
    "ray": 2435,
    "Ġwarrant": 17796,
    "Ġsignifies": 19206,
    "Ġinterlacing": 22582,
    "ppo": 18178,
    "accept": 8901,
    "hen": 3519,
    "Ġproudly": 19745,
    "gh": 3802,
    "idel": 5301,
    "Ġclubb": 22352,
    "Ġwaved": 9647,
    "iary": 15374,
    "think": 3611,
    "Ġapprehended": 26091,
    "mense": 4779,
    "Ġcrammed": 16473,
    "indifference": 15986,
    "ruding": 9727,
    "Ġpowdered": 24240,
    "seas": 14036,
    "Ġgulp": 20032,
    "Ġintermission": 18592,
    "cks": 3080,
    "Ġ181": 23899,
    "Ġforgotten": 5679,
    "Ġcursed": 6728,
    "greatly": 16626,
    "Ġgib": 13968,
    "umbent": 12094,
    "shad": 10984,
    "Ġconveyed": 8335,
    "fugitive": 26132,
    "Ġscandalous": 24880,
    "vulgar": 25919,
    "Ġoverthrown": 18431,
    "Ġsaintsbury": 26374,
    "pagans": 25526,
    "minute": 11276,
    "hearse": 17750,
    "Ġcle": 1512,
    "Ġcusack": 26435,
    "Ġpanelled": 19657,
    "ble": 542,
    "Ġearl": 7676,
    "rub": 15901,
    "Ï": 144,
    "Ġconsumed": 10352,
    "later": 20955,
    "Ġslewed": 23388,
    "Ġabundant": 17157,
    "Ġyours": 4125,
    "needle": 20313,
    "ars": 908,
    "Ġsharpen": 13573,
    "Ġpaddle": 20062,
    "awakened": 14456,
    "accomplishments": 25327,
    "Ġsemantic": 1960,
    "Ġpeterson": 9486,
    "Ġcaulking": 20296,
    "Ġescort": 23508,
    "Ġimmedi": 2903,
    "Ġwhisky": 23937,
    "Ġseptember": 18208,
    "Ġardent": 9973,
    "Ġforgetfulness": 14608,
    "Ġfolios": 23021,
    "icular": 2024,
    "obviously": 25243,
    "Ġheels": 10852,
    "thur": 7188,
    "âĢĶâĢĻ": 8188,
    "Ġpensive": 21478,
    "Ġcurb": 16240,
    "Ġtingling": 15096,
    "Ġcosy": 13135,
    "atived": 21265,
    "Ġcachalot": 17836,
    "Ġrotation": 25475,
    "secut": 7867,
    "Ġdropout": 1557,
    "Ġillustrative": 25069,
    "Ġbetokened": 18798,
    "Ġyore": 21782,
    "Ġblock": 2575,
    "Ġplenty": 6710,
    "blubber": 15240,
    "Ġmagic": 8233,
    "makers": 20984,
    "Ġmagnetic": 17243,
    "Ġgener": 586,
    "Ġbubblingly": 25633,
    "itch": 10163,
    "erness": 6435,
    "Ġperson": 2369,
    "Ġannoyance": 20664,
    "blood": 7780,
    "Ġeff": 665,
    "Ġmute": 19419,
    "Ġtype": 2021,
    "Ġbreathing": 9448,
    "matical": 13132,
    "Ġbridegroom": 10607,
    "Ġsol": 1101,
    "Ġproperty": 6451,
    "Ġsmall": 893,
    ".*": 7331,
    "Ġpoints": 5249,
    "Ġawaited": 17075,
    "hess": 4746,
    "office": 16397,
    "Ġisles": 8461,
    "Ġgenuine": 14888,
    "ger": 1104,
    "Ġinquiries": 5678,
    "Ġclinging": 10294,
    "Ġruins": 16160,
    "imodal": 17450,
    "welcome": 10004,
    "acknowledging": 25477,
    "comparison": 25842,
    "Ġbehalf": 14511,
    "Ġsor": 4146,
    "arched": 10817,
    "Ġmizen": 17261,
    "german": 11494,
    "Ġbubb": 12589,
    "itoring": 21335,
    "50": 6785,
    "algorithms": 8293,
    "Ġmanifold": 13564,
    "oder": 2457,
    "Ġclapping": 14205,
    "here": 2548,
    "Ġpraying": 19557,
    "eded": 9676,
    "Ġwears": 10243,
    "cripp": 20821,
    "Ġsultry": 20291,
    "Ġspeeding": 23566,
    "alone": 10186,
    "Ġelse": 2478,
    "stein": 5505,
    "Ġcriminal": 7537,
    "Ġcor": 1322,
    "darkness": 9515,
    "Ġoverdone": 22363,
    "Ġpunctilious": 26355,
    "Ġstamping": 20034,
    "bellies": 19977,
    "shock": 19857,
    "baboon": 25517,
    "birds": 15148,
    "itals": 17822,
    "Ġ550": 19639,
    "Ġpurposely": 10446,
    "Ġmorsel": 20680,
    "fl": 3602,
    "Ġemail": 19076,
    "bulkington": 19927,
    "Ġhumorous": 10363,
    "Ġmuteness": 19420,
    "oried": 10804,
    "Ġfoe": 7680,
    "bearer": 18525,
    "Ġcolour": 4462,
    "asses": 7018,
    "lucifer": 25302,
    "Ġwafted": 14500,
    "Ġedward": 19154,
    "dropout": 3199,
    "Ġnot": 413,
    "train": 2035,
    "Ġmisgivings": 15295,
    "uend": 21104,
    "ense": 2052,
    "haz": 17566,
    "caroline": 24152,
    "Ġpossible": 2584,
    "Ġeyel": 17097,
    "system": 4857,
    "iffs": 9025,
    "Ġenvied": 19289,
    "Ġisle": 8837,
    "Ġgree": 7595,
    "thar": 18218,
    "Ġassumptions": 5517,
    "Ġ89": 19715,
    "Ġavowal": 19418,
    "Ġbri": 21381,
    "Ġ121": 24466,
    "Ġmastery": 23996,
    "Ġgospel": 18003,
    "nostr": 22737,
    "Ġforeman": 23448,
    "from": 1992,
    "Ġconting": 18473,
    "Ġspeechless": 13358,
    "Ġobli": 9319,
    "Ġdisgracing": 26257,
    "equally": 19901,
    "Ġmeanness": 22599,
    "Ġluc": 3312,
    "Ġalfred": 21790,
    "Ġgrand": 3595,
    "metals": 24765,
    "inctions": 17734,
    "Ġly": 2268,
    "Ġconfined": 7465,
    "put": 414,
    "Ġcorn": 9353,
    "Ġunattended": 15847,
    "Ġtrack": 7450,
    "Ġgleams": 17313,
    "Ġrmsprop": 3355,
    "hers": 7636,
    "swells": 26149,
    "box": 5749,
    "Ġlazy": 17051,
    "Ġshops": 22005,
    "smoking": 23914,
    "Ġsacred": 10932,
    "Ġprovoked": 13330,
    "Ġcav": 13883,
    "ously": 2489,
    "generous": 16570,
    "Ġincul": 22553,
    "Ġcontrivances": 12361,
    "Ġtraverse": 18892,
    "natured": 7112,
    "Ġregain": 22571,
    "bering": 18695,
    "Ġdong": 17889,
    "Ġnobly": 22245,
    "Ġsill": 10767,
    "Ġendless": 7055,
    "Ġcouples": 16854,
    "í": 174,
    "Ġhasty": 10479,
    "brushing": 20790,
    "Ġleeward": 6212,
    "Ġtri": 4812,
    "Ġassid": 18947,
    "leagues": 21376,
    "Ġchewed": 16373,
    "Ġdecreed": 18485,
    "Ġfevers": 22213,
    "aton": 21261,
    "departed": 24793,
    "Ġpillow": 10041,
    "Ġsteeple": 19290,
    "vess": 7354,
    "Ġlazarus": 15031,
    "aciousness": 18607,
    "Ġsubtile": 20383,
    "Ġdemoniac": 15068,
    "Ġcorrectly": 9407,
    "carrying": 16714,
    "Ġdeclared": 5595,
    "Ġarchitectures": 2908,
    "Ġdipping": 15596,
    "rack": 18013,
    "Ġairth": 23323,
    "Ġdecoding": 3082,
    "raid": 3282,
    "Ġfamil": 4320,
    "Ġcolonel": 3408,
    "Ġ1": 1016,
    "Ġsix": 3042,
    "Ġperceptible": 18448,
    "Ġneedles": 11186,
    "Ġmainz": 22658,
    "steaks": 23964,
    "Ġoutlines": 15961,
    "Ġmoose": 22437,
    "Ġscot": 5643,
    "é": 170,
    "Ġwhittingham": 26199,
    "persecutor": 26531,
    "Ġgravel": 14105,
    "Ġagrippa": 11811,
    "Ġran": 3344,
    "Ġgrowl": 16540,
    "Ġpossessing": 16578,
    "inev": 21983,
    "Ġclose": 3034,
    "plied": 10257,
    "Ġdawned": 14997,
    "osa": 22261,
    "Ġere": 3687,
    "Ġmistress": 8615,
    "frankly": 20025,
    "sat": 4809,
    "Ġchaps": 14182,
    "Ġrefer": 18698,
    "Ġappropriate": 2250,
    "ature": 521,
    "Ġcommendation": 13614,
    "estim": 14172,
    "urning": 12921,
    "bitious": 16672,
    "59": 17476,
    "ction": 502,
    "Ġrestored": 7068,
    "pid": 1379,
    "iage": 17575,
    "Ġrescued": 24209,
    "Ġbeak": 18082,
    "goin": 23406,
    "daw": 17524,
    "Ġclo": 6044,
    "opposition": 24820,
    "canallers": 22969,
    "Ġclimb": 15083,
    "remember": 7262,
    "petulance": 24301,
    "Ġbusily": 9388,
    "Ġfury": 7662,
    "Ġobservant": 20113,
    "Ġwrithed": 17107,
    "omist": 21641,
    "killed": 15380,
    "ancho": 4938,
    "understood": 13220,
    "Ġmutters": 23959,
    "roused": 16655,
    "Ġhappens": 2186,
    "dining": 13709,
    "Ġextend": 18682,
    "Ġsultanism": 25889,
    "icle": 10836,
    "Ġbestow": 6456,
    "onel": 3090,
    "Ġgour": 21601,
    "Ġhouses": 6140,
    "Ġdisapprobation": 16062,
    "Ġsteals": 23088,
    "Ġcanvas": 7784,
    "Ġdined": 9179,
    "Ġswam": 6449,
    "Ġxvi": 19106,
    "Ġgrunt": 18736,
    "Ġunt": 2293,
    "Ġhazarded": 25655,
    "Ġsigmoid": 2460,
    "Ġwisely": 13276,
    "pr": 3178,
    "chastic": 2334,
    "Ġmighty": 4229,
    "announcement": 24563,
    "Ġbrain": 2089,
    "Ġpref": 14174,
    "ihood": 20924,
    "Ġtormenting": 15108,
    "orters": 21404,
    "Ġattacking": 24465,
    "vib": 21118,
    "Ġabout": 634,
    "Ġbor": 5805,
    "Ġactionable": 24560,
    "Ġprogen": 14042,
    "Ġpatagonian": 20537,
    "iting": 2156,
    "case": 5206,
    "Ġpalpable": 15209,
    "deformity": 22150,
    "lascar": 20962,
    "Ġhypocritical": 20740,
    "Ġfrankenstein": 7097,
    "Ġcobbler": 25831,
    "arding": 22161,
    "Ġsacri": 18329,
    "Ġhams": 16614,
    "Ġcler": 11774,
    "erie": 21273,
    "peter": 24300,
    "loud": 11503,
    "wicked": 24449,
    "Ġluxuriant": 20398,
    "Ġimpulsive": 19966,
    "gy": 2097,
    "Ġdividing": 12116,
    "Ġresounds": 22546,
    "Ġthomson": 26456,
    "Ġstubbs": 23299,
    "Ġslices": 23166,
    "detained": 24382,
    "spout": 7923,
    "Ġshakes": 10906,
    "Ġsummits": 14685,
    "Ġforeheads": 23449,
    "Ġcomplaisance": 19452,
    "derest": 18315,
    "Ġpred": 663,
    "Ġgallantry": 15107,
    "outh": 2687,
    "ondescript": 22919,
    "Ġlashed": 9201,
    "Ġrelaxed": 12989,
    "Ġchoosing": 19593,
    "Ġ16": 7927,
    "haul": 14769,
    "Ġstartled": 7084,
    "Ġsplin": 8622,
    "affrail": 11207,
    "Ġanother": 1740,
    "Ġhans": 12631,
    "Ġconsult": 6058,
    "invariably": 26418,
    "Ġrecurrent": 1807,
    "pens": 17634,
    "Ġneighbourhood": 5126,
    "Ġsphy": 18312,
    "Ġdiverged": 23596,
    "Ġthread": 14541,
    "Ġpit": 3420,
    "Ġheartless": 13077,
    "dimens": 2318,
    "Ġlowly": 11123,
    "snow": 10726,
    "recurring": 24197,
    "Ġdifficulties": 11227,
    "rades": 8592,
    "Ġcouple": 5423,
    "advice": 12162,
    "ocratic": 17247,
    "Ġhatchways": 24990,
    "jar": 17579,
    "Ġpills": 21469,
    "Ġintending": 11708,
    "ville": 6088,
    "gus": 13728,
    "Ġpassed": 2011,
    "pin": 13770,
    "Ġworm": 9165,
    "idate": 21771,
    "fingers": 17373,
    "Ġalcoves": 26488,
    "Ġalabama": 14022,
    "Ġpity": 4941,
    "Ġtimbers": 14842,
    "Ġ67": 19663,
    "Ġcollins": 2179,
    "Ġgrow": 2858,
    "shish": 11797,
    "Ġcasks": 7521,
    "danish": 20835,
    "Ġemployer": 19435,
    "meth": 11505,
    "Ġmildness": 9947,
    "(": 12,
    "naturally": 14577,
    "pets": 17638,
    "tap": 17678,
    "....": 11318,
    "Ġmarling": 23037,
    "rossing": 18642,
    "Ġhighlands": 22777,
    "Ġcivil": 4678,
    "uine": 13802,
    "Ġmiller": 19885,
    "Ġtow": 4397,
    "shed": 8095,
    "Ġhas": 826,
    "hom": 12478,
    "Ġsullen": 9160,
    "data": 2286,
    "Ġslaugh": 18940,
    "Ġpopulation": 16829,
    "Ġweakness": 9970,
    "solely": 19819,
    "Ġlodged": 11253,
    "agatha": 21912,
    "Ġwail": 21289,
    "Ġbeadle": 26486,
    "Ġleaks": 16447,
    "tram": 19646,
    "Ġ1869": 19387,
    "Ġconcent": 8250,
    "oted": 4597,
    "Ġplump": 14285,
    "wantonly": 25153,
    "benevolently": 25601,
    "Ġnautical": 17389,
    "Ġrefined": 18700,
    "convinced": 10625,
    "entitled": 21571,
    "Ġbat": 10797,
    "hens": 3939,
    "Ġbody": 2434,
    "Ġrecounted": 22740,
    "splash": 25210,
    "necessary": 5883,
    "Ġdistant": 5387,
    "Ġadvancement": 24475,
    "Ġapplications": 4782,
    "Ġwane": 21291,
    "hemat": 3129,
    "facts": 19845,
    "Ġferguson": 17472,
    "Ġprophesied": 26063,
    "armon": 23062,
    "Ġnooks": 26012,
    "wr": 3026,
    "co": 2432,
    "://": 11467,
    "Ġprefers": 20517,
    "himself": 3974,
    "recover": 24623,
    "Ġdiscompose": 25580,
    "bweb": 20793,
    "recl": 15513,
    "pped": 1999,
    "itchen": 7788,
    "Ġreducing": 1959,
    "Ġplanisp": 24060,
    "Ġtax": 13819,
    "Ġhealthy": 10853,
    "Ġwitty": 21295,
    "Ġunsettled": 14125,
    "gpt": 5356,
    "gratitude": 16818,
    "Ġcalf": 16268,
    "Ġunrecorded": 17470,
    "Ġblackness": 9396,
    "ternatural": 12720,
    "Ġgunwale": 7325,
    "Ġresol": 2666,
    "ows": 1919,
    "breeding": 16677,
    "Ġpitied": 14694,
    "Ġsupposed": 4558,
    "Ġbegrimed": 26580,
    "discover": 10542,
    "bounded": 13443,
    "fam": 5990,
    "Ġconstru": 19071,
    "loving": 18541,
    "Ġsame": 1340,
    "Ġprosper": 10231,
    "Ġliquid": 22413,
    "lest": 5290,
    "Ġverse": 16604,
    "eers": 20845,
    "profess": 10637,
    "Ġalco": 21786,
    "Ġrecommended": 8671,
    "Ġcinque": 20489,
    "head": 1437,
    "destined": 24117,
    "Ġboundless": 10498,
    "Ġbough": 13897,
    "Ġembellished": 25850,
    "ishing": 1145,
    "ighter": 7968,
    "lantic": 6365,
    "eray": 21269,
    "Ġpostponed": 20393,
    "ĠĠĠĠĠĠĠĠĠĠĠĠĠ": 22566,
    "destroyed": 15264,
    "dut": 10090,
    "ounted": 5030,
    "cloudless": 20335,
    "Ġincessantly": 11413,
    "Ġmuscle": 14691,
    "Ġbottle": 7490,
    "Ġprocessions": 18434,
    "Ġscarcity": 23830,
    "Ġdistingu": 2513,
    "Ġobtru": 18673,
    "Ġdiscount": 22780,
    "Y": 61,
    "Ġstig": 14005,
    "Ġprudential": 17922,
    "bearings": 25372,
    "Ġappals": 22219,
    "resh": 8405,
    "Ġsuccessive": 10503,
    "Ġunqualified": 22061,
    "Ġbegun": 7243,
    "Ġgroom": 13969,
    "arabian": 26448,
    "ogue": 9789,
    "Ġowners": 7663,
    "Ġparts": 4165,
    "admirably": 24947,
    "Ġutter": 3977,
    "Ġdisagree": 22536,
    "Ġintensity": 10019,
    "resistible": 10646,
    "Ġprocure": 9513,
    "acc": 2532,
    "ket": 17584,
    "vers": 1326,
    "begging": 22501,
    "regarding": 15075,
    "Ġabating": 22271,
    "mightily": 24106,
    "Ġseriously": 7063,
    "Ġconfidence": 6592,
    "Ġcanv": 7011,
    "opence": 18508,
    "Ġcredulous": 17147,
    "entieth": 17981,
    "sets": 17662,
    "Ġscrewed": 15124,
    "Ġpurposed": 23555,
    "Ġbarrow": 12074,
    "grieved": 17320,
    "Ġcond": 3876,
    "histor": 13495,
    "Ġcreatures": 4138,
    "400": 20757,
    "Ġprepar": 7897,
    "contain": 18503,
    "separately": 25228,
    "Ġafrica": 12349,
    "Ġgrasshopper": 24380,
    "Ġdaw": 21432,
    "Ġallowing": 2173,
    "Ġtre": 2535,
    "Ġcrumpled": 16440,
    "Ġendeavoured": 4919,
    "Ġevangelist": 20341,
    "Ġcongrat": 5828,
    "ais": 8071,
    "Ġphysiognomical": 25612,
    "bon": 13688,
    "Ġtrifling": 10605,
    "ific": 490,
    "Ġdaggoo": 5441,
    "Ġcathedral": 17416,
    "Ġsnaky": 23744,
    "tears": 11039,
    "pity": 17629,
    "ibles": 18787,
    "chop": 21691,
    "eldom": 4415,
    "wood": 5899,
    "Ġnoteworthy": 24165,
    "Ġjer": 6268,
    "intments": 18822,
    "Ġbelief": 5857,
    "Ġconstable": 19070,
    "Ġmilan": 19538,
    "frau": 15093,
    "Ġalike": 8147,
    "Ġexclam": 6759,
    "soldiers": 25912,
    "Ġunfailing": 24114,
    "Ġabstained": 25232,
    "ds": 4687,
    "âĢĿâĢĶ": 5721,
    "ulance": 15771,
    "instantly": 7506,
    "Ġfloat": 12036,
    "Ġcollapsed": 15085,
    "moran": 24155,
    "Ġwood": 2291,
    "Ġcalmed": 16269,
    "Ġrestricted": 19032,
    "Ġcloudy": 19480,
    "antic": 1600,
    "Ġbraz": 19361,
    "enth": 6682,
    "Ġdrunken": 12054,
    "Ġfloor": 4379,
    "Ġindign": 6175,
    "ituted": 13876,
    "Ġtoward": 17949,
    "Ġnewfound": 22935,
    "Ġlovely": 4709,
    "Ġcomforted": 19394,
    "cheeks": 23810,
    "Ġpeak": 16130,
    "Ġrob": 1307,
    "couldn": 23720,
    "Ġeverybody": 4511,
    "Ġproduct": 3536,
    "play": 5099,
    "Ġla": 5914,
    "Ġhaggerston": 26454,
    "Ġdestroyer": 13417,
    "Ġinfl": 6893,
    "Ġkra": 18346,
    "ryder": 18641,
    "Ġinvestigated": 25387,
    "careful": 14869,
    "weed": 14318,
    "Ġambitious": 18515,
    "prob": 7071,
    "Ġgravity": 9251,
    "Ġwhole": 1661,
    "Ġvindictiveness": 25739,
    "queequeg": 4334,
    "Ġdusty": 14928,
    "Ġstarts": 16585,
    "Ġgenerally": 4158,
    "~": 98,
    "Ġmotion": 4566,
    "trans": 5594,
    "Ġhempen": 13554,
    "Ġtawny": 20485,
    "Ġvinegar": 20103,
    "Ġantichron": 24184,
    "Ġends": 8238,
    "Ġveiled": 16205,
    "wherein": 19109,
    "Ġtogether": 1880,
    "Ġrepay": 19083,
    "Ġesq": 15112,
    "iful": 2879,
    "Ġincor": 2610,
    "alice": 3211,
    "seals": 21822,
    "Ġnuptial": 25783,
    "verity": 14004,
    "Ġcherished": 10593,
    "Ġinsensibility": 17111,
    "Ġmarvell": 7248,
    "Ġappointed": 20106,
    "ority": 8419,
    "Ġbury": 12045,
    "Ġabridged": 26542,
    "comprehend": 14363,
    "come": 2377,
    "Ġanatomy": 12324,
    "Ġfurnished": 6476,
    "Ġeven": 1028,
    "Ġtumb": 21172,
    "Ġans": 1645,
    "imately": 12693,
    "Ġpalmed": 24095,
    "iii": 14780,
    "Ġunb": 10908,
    "capt": 3837,
    "confirmation": 26090,
    "jo": 3751,
    "edding": 4368,
    "Ġprotruding": 16661,
    "Ġa": 263,
    "Ġastronomy": 25927,
    "arb": 1564,
    "Ġmarines": 16263,
    "bet": 6111,
    "Ġoverladen": 22366,
    "Ġrepairing": 25590,
    "Ġrefreshed": 15294,
    "Ġma": 3255,
    "Ġgained": 4535,
    "Ġnevertheless": 5040,
    "number": 10117,
    "Ġgrecian": 26297,
    "Ġjonas": 20612,
    "Ġwouldn": 6047,
    "Ġgrew": 5182,
    "Ġscreen": 17208,
    "Ġbrand": 16190,
    "Ġell": 17717,
    "Ġarrowy": 25470,
    "Ġspecial": 2103,
    "thouse": 21986,
    "Ġrisk": 8039,
    "Ġaccomplishments": 13383,
    "30": 20756,
    "Ġ73": 24263,
    "Ġmetropolis": 17277,
    "legs": 13186,
    "Ġpell": 21459,
    "Ġhorseman": 19610,
    "Ġinsince": 23682,
    "bottle": 20148,
    "shr": 10982,
    "Ġspinal": 12306,
    "dramatic": 19388,
    "floating": 12232,
    "Ġmart": 10781,
    "Ġstopping": 2749,
    "Ġpatentee": 25587,
    "Ġsuperseded": 26225,
    "Ġdep": 750,
    "Ġhail": 7400,
    "Ġobservations": 13557,
    "anatory": 21366,
    "seized": 14038,
    "Ġsong": 5904,
    "grandfather": 25012,
    "ubbub": 23245,
    "success": 6712,
    "Ġgather": 6536,
    "folio": 10549,
    "kempt": 20943,
    "aths": 22702,
    "iscuits": 24667,
    "Ġfates": 15582,
    "finding": 17015,
    "ount": 1112,
    "Ġcreates": 2010,
    "Ġsched": 2337,
    "market": 16841,
    "ident": 3380,
    "Ġdistributes": 4195,
    "offic": 7466,
    "ateness": 15523,
    "continu": 5501,
    "Ġgall": 4352,
    "Ġcabal": 23643,
    "Ġordained": 19448,
    "Ġrushed": 4088,
    "Ġtemporary": 7981,
    "structure": 2392,
    "Ġplague": 11828,
    "Ġdanger": 3521,
    "rison": 13782,
    "ensed": 10997,
    "os": 523,
    "ikes": 8087,
    "Ġgloom": 4201,
    "¾": 127,
    "Ġsweetest": 13252,
    "Ġtestimony": 14472,
    "Ġshoes": 7073,
    "scand": 18857,
    "grin": 19107,
    "Ġglare": 13022,
    "Ġdried": 7367,
    "Ġcondensed": 24055,
    "approb": 11043,
    "unwholesome": 26499,
    "leads": 21373,
    "uerus": 26408,
    "apparently": 15208,
    "Ġpinched": 17036,
    "Ġsaves": 18325,
    "Ġtars": 21167,
    "Ġinmost": 17933,
    "Ġdocile": 19962,
    "nns": 1896,
    "turn": 4292,
    "Ġhasten": 10480,
    "thoughts": 9938,
    "Ġpipes": 9854,
    "Ġwestmorland": 24390,
    "tom": 15438,
    "gammon": 20246,
    "Ġhorizontally": 17014,
    "Ġsympath": 4862,
    "accents": 19213,
    "Ġdisput": 14258,
    "Ġeagle": 13206,
    "Ġcrosswise": 18886,
    "Ġarea": 14189,
    "Ġlurks": 11292,
    "sleeping": 13458,
    "Ġprofile": 16490,
    "Ġlothario": 26186,
    "Ġdrunk": 9427,
    "Ġunreason": 15846,
    "Ġclassical": 22636,
    "Ġright": 1506,
    "turned": 7306,
    "Ġgravely": 7883,
    "Ġeternally": 11371,
    "prepared": 13594,
    "Ġsucc": 12789,
    "iance": 5280,
    "lotte": 3332,
    "Ġjabez": 11770,
    "Ġranges": 2881,
    "vously": 23507,
    "torn": 17684,
    "arctic": 12615,
    "Ġearnestness": 12130,
    "Ġsolicited": 20040,
    "]]": 5205,
    "followed": 8339,
    "greenland": 10024,
    "Ġheavily": 6742,
    "Ġphysiognomy": 25611,
    "Ġgrie": 3586,
    "Ġconnexion": 11456,
    "Ġmoot": 22436,
    "Ġbes": 2661,
    "Ġtink": 9151,
    "Ġrevealed": 6753,
    "Ġsells": 21226,
    "inate": 6235,
    "Ġabsolute": 6766,
    "plun": 15819,
    "awe": 20767,
    "Ġproportionably": 19974,
    "Ġcloudless": 16671,
    "Ġports": 10820,
    "Ġnavigation": 9996,
    "Ġindic": 2885,
    "speaking": 12103,
    "Ġmug": 21315,
    "Ġtherein": 11780,
    "Ġaberdeen": 26543,
    "Ġhunt": 6185,
    "Ġfaculties": 14961,
    "Ġtarget": 2821,
    "ess": 410,
    "Ġsets": 8778,
    "Ġprodigies": 19796,
    "Ġdistraction": 22510,
    "Ġexcessive": 3894,
    "Ġslam": 13063,
    "Ġmasks": 23331,
    "fitzwilliam": 11354,
    "Ġindel": 13009,
    "Ġpreservative": 24630,
    "Ġdigest": 24648,
    "rice": 13780,
    "Ġbash": 12591,
    "Ġoriginated": 24125,
    "doubtless": 17004,
    "Ġstrung": 22622,
    "¿": 128,
    "illity": 18297,
    "spending": 18690,
    "client": 18934,
    "Ġstrives": 23698,
    "ered": 1686,
    "Ġwires": 21298,
    "Ġathirst": 20601,
    "instant": 8655,
    "Ġcranial": 25593,
    "Ġimpaling": 22398,
    "Ġfarmhouse": 24987,
    "only": 3309,
    "enter": 7858,
    "Ġprof": 2458,
    "believe": 8304,
    "answer": 11736,
    "Ġtargets": 4204,
    "Ġlatest": 16824,
    "Ġcompat": 2936,
    "tic": 8391,
    "sink": 11524,
    "Ġcredited": 25157,
    "sullen": 17671,
    "prophet": 16184,
    "shoe": 14970,
    "tall": 17675,
    "wear": 22686,
    "Ġmince": 22834,
    "Ġintruder": 25992,
    "Ġmatrix": 1602,
    "Ġthee": 2623,
    "auley": 22624,
    "Ġspence": 22130,
    "rous": 3752,
    "Ġcaptioning": 23023,
    "oton": 3609,
    "Ġhan": 15622,
    "Ġsurv": 6082,
    "Ġmun": 12567,
    "Ġcal": 1325,
    "compared": 24036,
    "uteness": 17988,
    "makes": 10713,
    "Ġbarely": 16938,
    "Ġerecting": 24653,
    "Ġtenth": 13829,
    "degrad": 22147,
    "Ġglobe": 6077,
    "Ġsimilar": 4918,
    "Ġdecency": 18484,
    "Ġspo": 6846,
    "Ġcompared": 2227,
    "ac": 741,
    "Ġfixed": 2685,
    "Ġarray": 12817,
    "Ġcured": 21350,
    "cannibal": 15228,
    "Ġhorsey": 24252,
    "iet": 1776,
    "Ġpeered": 18669,
    "Ġfeedback": 23435,
    "apers": 3481,
    "meditation": 19073,
    "ange": 1018,
    "minded": 9040,
    "Ġneighb": 14077,
    "Ġcorresponds": 19824,
    "Ġburglar": 17357,
    "ivial": 15862,
    "Ġvalidation": 2356,
    "faint": 17547,
    "Ġcondemned": 7779,
    "chat": 21689,
    "Ġvery": 637,
    "Ġhumming": 12991,
    "pale": 13774,
    "Ġvesuvius": 26503,
    "ö": 183,
    "Ġpawnbroker": 13662,
    "strongly": 24685,
    "guest": 19485,
    "Ġpreviously": 3922,
    "Ġcove": 22585,
    "Ġfloundered": 18863,
    "Ġross": 2765,
    "Ġsignify": 16497,
    "adoes": 11663,
    "wearing": 22690,
    "Ġthirdly": 24146,
    "Ġdegener": 14053,
    "unfortunate": 15781,
    "Ġstretched": 5921,
    "Ġattends": 19653,
    "Ġlevel": 5020,
    "opp": 6963,
    "paddington": 20481,
    "),": 1346,
    "engagements": 25855,
    "Ġmathematics": 12078,
    "aves": 3601,
    "Ĭ": 237,
    "Ġprograms": 7239,
    "sis": 1812,
    "q": 85,
    "Ġnarrated": 14874,
    "Ġcousin": 3706,
    "Ġpredictions": 1456,
    "Ġhandsomest": 20337,
    "Ġstride": 22620,
    "Ġgestures": 13539,
    "distinctive": 25726,
    "furthermore": 20007,
    "Ġpet": 4586,
    "Ġlooking": 2472,
    "Ġcrop": 10165,
    "Ġpricking": 23225,
    "Ġwarden": 17227,
    "Ġscene": 3097,
    "crews": 15045,
    "Ġoffices": 14340,
    "proud": 9907,
    "Ġwoll": 21296,
    "Ġpendulous": 25956,
    "Ġsquee": 7929,
    "Ġunwritten": 22034,
    "Ġperforming": 7928,
    "Ġlimbs": 5967,
    "list": 7551,
    "Ġbagging": 24539,
    "Ġpaved": 17915,
    "hast": 5358,
    "Ġbarn": 11590,
    "Ġflushed": 13032,
    "Ġrecorded": 11295,
    "Ġjon": 15952,
    "Ġcircumstance": 4987,
    "isome": 17850,
    "ors": 854,
    "Ġsteeply": 23726,
    "Ġflattened": 26048,
    "Ġswerve": 14440,
    "warmly": 25029,
    "Ġscoresby": 10463,
    "dare": 12458,
    "evade": 24817,
    "elter": 21574,
    "Ġenl": 18190,
    "ortunities": 15944,
    "Ġattendant": 11287,
    "converse": 22477,
    "Ġresemblance": 7974,
    "Ġscold": 10952,
    "Ġobstacle": 16957,
    "Ġeaglet": 19307,
    "landish": 11946,
    "Ġsash": 17756,
    "sim": 6511,
    "hero": 21207,
    "particularly": 8340,
    "Ġcauldron": 25442,
    "Ġcloth": 9746,
    "laws": 19810,
    "Ġaddress": 2270,
    "cur": 3273,
    "liness": 8750,
    "Ġblurred": 22934,
    "Ġhurried": 4033,
    "americ": 8156,
    "hors": 9601,
    "Ġsunny": 13090,
    "pse": 21011,
    "ways": 1442,
    "Ġmuff": 8114,
    "Ġaper": 17745,
    "Ġsnowy": 9021,
    "Ġlan": 5821,
    "expectations": 24279,
    "Ġcared": 8787,
    "Ġhistories": 14689,
    "Ġsuspicions": 9482,
    "Ġdaugh": 2292,
    "Ġmarket": 7709,
    "Ġoars": 3899,
    "Ġuniverse": 14126,
    "cible": 20808,
    "Æ": 135,
    "misrepresented": 24214,
    "Ġdet": 512,
    "Ġsc": 531,
    "Ġdeformed": 14052,
    "Ġblocks": 6323,
    "Ġtexas": 25923,
    "iverer": 11720,
    "Ġrespectability": 14487,
    "itively": 21334,
    "Ġjinglers": 26019,
    "Ġbolt": 11336,
    "Ġmemorable": 16448,
    "mankind": 14377,
    "confess": 12180,
    "ostent": 16848,
    "Ġdim": 4756,
    "Ġtalents": 15047,
    "metic": 14987,
    "Ġsolitude": 6876,
    "binary": 20786,
    "Ġspe": 823,
    "uctive": 17698,
    "younger": 11314,
    "Ġcetace": 14991,
    "less": 929,
    "Ġmodern": 3232,
    "Ġbelly": 10372,
    "Ġwhar": 7388,
    "uvian": 12247,
    "possesses": 24617,
    "rates": 21041,
    "Ġmultiplication": 2869,
    "Ġdegrees": 7294,
    "moderate": 22866,
    "etence": 21580,
    "Ġmu": 17797,
    "Ġaslant": 21905,
    "laden": 14932,
    "Ġmould": 6520,
    "Ġgreek": 10633,
    "Ġrucastle": 5176,
    "verdict": 21733,
    "vocabulary": 25088,
    "Ġbol": 6243,
    "orse": 5807,
    "stone": 5089,
    "both": 5785,
    "Ġexamination": 8005,
    "ood": 964,
    "Ġwritten": 4168,
    "Ġcrisp": 12007,
    "Ġclues": 18422,
    "infer": 10147,
    "Ġcircumstantial": 14645,
    "Ġconfessor": 24022,
    "ingle": 1038,
    "Ġbutchers": 18273,
    "Ġjustified": 11909,
    "encoura": 15051,
    "Ġscound": 12837,
    "Ġgateway": 24799,
    "aiian": 23594,
    "tolerable": 17690,
    "suspect": 9543,
    "castles": 14637,
    "ivided": 22082,
    "Ġoct": 10161,
    "Ġcountess": 11968,
    "Ġadorned": 15251,
    "Ġscholar": 26112,
    "//": 11465,
    "Ġbus": 1907,
    "Ġpanic": 11288,
    "ĠĠĠĠĠĠĠĠĠĠĠĠĠĠĠĠĠĠĠĠĠĠĠĠĠĠĠĠĠĠĠĠĠĠĠĠĠĠĠĠĠĠĠĠĠĠĠĠĠ": 20041,
    "contents": 12062,
    "Ġshrouded": 14972,
    "chers": 11319,
    "subjects": 19878,
    "quely": 10234,
    "recollect": 17226,
    "speaks": 19722,
    "tot": 10730,
    "reas": 990,
    "Ġunrem": 18242,
    "Ġmetallic": 19045,
    "Ġsung": 23275,
    "Ġsneering": 24696,
    "Ġtaken": 2527,
    "ran": 11518,
    "Ġdens": 21427,
    "atherley": 7220,
    "Ġparsee": 6414,
    "ines": 662,
    "Ġbrixton": 13667,
    "Ġdiabolical": 20345,
    "aps": 1229,
    "Ġcongenial": 12415,
    "continuance": 19721,
    "drunk": 24660,
    "Ġcellar": 8059,
    "conceive": 16033,
    "Ġdisciple": 22782,
    "rush": 7012,
    "Ġunlocked": 14122,
    "Ġreads": 23116,
    "regiment": 16452,
    "rowed": 22863,
    "Ġnormalizes": 1864,
    "fel": 8737,
    "Ġcroquet": 9965,
    "Ġsixteen": 8283,
    "Ġgipsies": 12412,
    "Ġmerry": 5869,
    "Ġdelineations": 26059,
    "Ġratt": 7881,
    "Ġlaz": 7378,
    "iliating": 12700,
    "Ġornamented": 20365,
    "Ġangelic": 19630,
    "fooled": 24419,
    "Ġpile": 8425,
    "Ġrelapses": 26280,
    "ohn": 4561,
    "evid": 11487,
    "izabeth": 910,
    "Ġobstetrics": 24679,
    "sme": 17660,
    "Ġpalsied": 25780,
    "Ġfestival": 25446,
    "Ġhot": 4258,
    "lightning": 16554,
    "Ġprestige": 22240,
    "Ġtearless": 24785,
    "Ġkindly": 6078,
    "Ġactivity": 7920,
    "iated": 5891,
    "ridge": 9500,
    "Ġruff": 14350,
    "Ġrendered": 5773,
    "quished": 21852,
    "ciousness": 20819,
    "Ġacknowledge": 13406,
    "Ġkeep": 2355,
    "lovely": 16050,
    "Ġsensitivity": 3069,
    "Ġantiquities": 25599,
    "ician": 21568,
    "Ġsling": 21223,
    "doub": 6225,
    "Ġdough": 8422,
    "tub": 9146,
    "Ġrepent": 9866,
    "Ġcau": 13884,
    "Ġsinew": 25432,
    "peaceful": 20450,
    "heric": 15915,
    "Ġlethargy": 26485,
    "Ġslate": 11942,
    "representing": 25272,
    "Ġnile": 21524,
    "vity": 7815,
    "Ġlod": 4044,
    "Ġnaked": 8127,
    "Ġflooring": 23625,
    "anxiety": 25159,
    "eze": 20849,
    "ilst": 8144,
    "Ġfreemason": 23216,
    "Ġmechanisms": 1575,
    "Ġsalt": 8017,
    "Ġbridal": 14957,
    "plac": 15820,
    "should": 3264,
    "Ġrates": 1404,
    "Ġever": 1182,
    "Ġsocieties": 20185,
    "derstand": 632,
    "ection": 4948,
    "Ġimmort": 19487,
    "Ġgoble": 14233,
    "itters": 10783,
    "mer": 2832,
    "Ġdiana": 21439,
    "Ġlima": 10444,
    "Ġboys": 5194,
    "Ġwholesome": 16009,
    "rust": 2580,
    "performed": 18340,
    "Ġcop": 7580,
    "Ġspectators": 19410,
    "Ġlesson": 7276,
    "Ġnearing": 15798,
    "net": 1194,
    "Ġability": 2764,
    "igning": 12685,
    "Ġmassa": 19457,
    "Ġoak": 6130,
    "Ġprimary": 25063,
    "announced": 19762,
    "Ġpott": 21471,
    "Ġpermission": 9282,
    "Ġprodigious": 8057,
    "Ġreading": 5114,
    "Ġlevels": 12703,
    "Ġdisappearing": 22537,
    "emotions": 15801,
    "resentment": 15189,
    "Ġdeserved": 7737,
    "Ġlately": 6388,
    "hig": 12479,
    "adam": 15734,
    "Ġpremeditated": 22238,
    "vapor": 25756,
    "Ġdefault": 3036,
    "Ġsoftly": 7948,
    "Ġantelope": 24183,
    "Ġstoop": 16314,
    "bil": 20773,
    "Ġcurved": 18850,
    "Ġrepresents": 4903,
    "Ġunduly": 25995,
    "houn": 20895,
    "ers": 406,
    "Ġfrequented": 16588,
    "Ġmaterial": 5178,
    "ilted": 21726,
    "cod": 12448,
    "Ġmummy": 25769,
    "Ġhig": 753,
    "Ġexal": 10879,
    "nearest": 16026,
    "Ġd": 284,
    "signed": 21064,
    "sicilian": 21066,
    "Ġridic": 7508,
    "ape": 1908,
    "Ġpointing": 5661,
    "pedest": 24823,
    "compass": 9463,
    "Ġreconc": 9686,
    "safe": 10057,
    "Ġgovern": 10452,
    "Ġstren": 15724,
    "elaborate": 21579,
    "Ġexile": 12722,
    "Ġsun": 1721,
    "Ġfulfilled": 11364,
    "ardy": 22160,
    "Ġrally": 21972,
    "Ġhauled": 11698,
    "Ġyard": 5922,
    "Ġfleetness": 20182,
    "ccarthy": 4889,
    "Ġjuicy": 25371,
    "Ġknocking": 10562,
    "ineffectual": 26509,
    "Ġliking": 23593,
    "imaux": 21715,
    "Ġmonths": 3454,
    "Ġthirds": 16710,
    "Ġcompatibility": 2957,
    "hammer": 14491,
    "cc": 473,
    "early": 20122,
    "ean": 20842,
    "ensation": 22549,
    "night": 2167,
    "Ġindulge": 10585,
    "Ġhookah": 16972,
    "Ġluckily": 16800,
    "Ġannouncing": 16756,
    "Ġterrier": 23402,
    "Ġvisitors": 7985,
    "Ġpoised": 22593,
    "Ġdiscontented": 16063,
    "augment": 18830,
    "Ġrib": 4936,
    "Ġczar": 12579,
    "Ġhear": 1966,
    "Ġscent": 10287,
    "charming": 15710,
    "Ġintended": 5548,
    "Ġscrew": 8871,
    "Ġstrategies": 1843,
    "former": 11752,
    "childhood": 16870,
    "everybody": 8614,
    "anzas": 17842,
    "Ġreneg": 21678,
    "quickly": 14965,
    "combe": 7661,
    "congreg": 25399,
    "Ġmoonlight": 9961,
    "vacancies": 25920,
    "U": 57,
    "amore": 21847,
    "dy": 4076,
    "Ġpaper": 4283,
    "Ġopal": 23627,
    "Ġdeficient": 18826,
    "Ġchann": 15939,
    "Ġassumpt": 5415,
    "Ġarriving": 19219,
    "Ġwax": 10778,
    "Ġpatched": 16375,
    "Ġgen": 5298,
    "Ġarticles": 7110,
    "Ġshivering": 10268,
    "Ġig": 3502,
    "Ġcompanions": 5867,
    "affections": 17359,
    "deliberated": 26119,
    "redible": 15808,
    "Ġredundant": 16553,
    "Ġsugg": 4500,
    "Ġmuttered": 7088,
    "Ġ72": 19614,
    "compliments": 24807,
    "Ġdropped": 4472,
    "Ġdreadful": 4921,
    "Ġconvenience": 11333,
    "Ġfrigid": 17355,
    "Ġgangway": 20161,
    "Ġrecent": 7436,
    "Ġbehavior": 8002,
    "Ġobliv": 16137,
    "Ġunfrequently": 20741,
    "bell": 7332,
    "Ġshone": 7404,
    "Ġcups": 16884,
    "Ġdiffusion": 23785,
    "Ġassembled": 9239,
    "Ġyourselves": 9031,
    "Ġreceives": 20357,
    "Ġdiscre": 2416,
    "Ġterminated": 23512,
    "oles": 21007,
    "opes": 10313,
    "ially": 9250,
    "ware": 3937,
    "Ġliked": 5265,
    "kered": 18276,
    "Ġtime": 689,
    "log": 18538,
    "Ġmight": 965,
    "Ġbalancing": 2429,
    "Ġdeliciousness": 24129,
    "Ġpest": 13916,
    "ĠâĢľâĢĶ": 9737,
    "Ġunmindful": 22066,
    "Ġlysander": 13143,
    "Ġemployment": 8632,
    "lingly": 9776,
    "Ġmaximizing": 3172,
    "thy": 2932,
    "iscre": 17852,
    "Ġardently": 9501,
    "judges": 19576,
    "orum": 12595,
    "Ġsparing": 22133,
    "sies": 21057,
    "endurable": 22232,
    "calculating": 25690,
    "Ġafric": 8909,
    "thither": 21987,
    "eland": 11623,
    "sound": 6800,
    "forced": 11033,
    "ism": 4875,
    "Ġlessened": 19089,
    "ration": 2005,
    "eneva": 5118,
    "cherish": 24552,
    "Ġobstinate": 11338,
    "Ġbremen": 23348,
    "Ġwas": 370,
    "preserving": 25305,
    "Ġvillages": 14751,
    "Ġtid": 8107,
    "anders": 18155,
    "fishers": 24929,
    "«": 109,
    "âĢĻ!âĢĿ": 18170,
    "Ġsumat": 14132,
    "Ġlofty": 6219,
    "Ġscarlet": 13228,
    "Ġcontains": 2793,
    "Ġcanoe": 9726,
    "money": 8753,
    "Ġbland": 11066,
    "rigging": 20009,
    "Ġshrink": 14807,
    "Ġdependencies": 2314,
    "Ġstains": 21745,
    "Ġmeditate": 16709,
    "Ġheroes": 10579,
    "Ġreminding": 19800,
    "Ġrefrained": 14346,
    "terdam": 18132,
    "ige": 12684,
    "Ġlaughter": 9030,
    "Ġretreats": 16930,
    "Ġsubtlety": 24779,
    "declare": 25174,
    "Ġincluding": 2849,
    "inder": 9155,
    "Ġgratitude": 5599,
    "unwillingness": 25803,
    "Ġrefused": 6717,
    "Ġmidnight": 5266,
    "Ġunra": 18235,
    "Ġjenny": 20165,
    "Ġminuteness": 19141,
    "promote": 24726,
    "Ġcongen": 10875,
    "complacency": 19916,
    "Ġmadman": 13155,
    "uteronomy": 15668,
    "falsehood": 25902,
    "Ġfirmament": 19474,
    "Ġparamore": 22126,
    "Ġjewel": 9945,
    "Ġpupils": 20424,
    "Ġ128": 24473,
    "Ġwrath": 16321,
    "Ġtossings": 25357,
    "autions": 20769,
    "Ġscott": 22285,
    "master": 5687,
    "ter": 359,
    "Ġarctic": 12818,
    "Ġsle": 2015,
    "Ġfundamental": 3011,
    "Ġrank": 6260,
    "Ġglimpses": 13436,
    "Ġbethink": 12383,
    "Ġconfusion": 7273,
    "been": 3345,
    "aunted": 20772,
    "walked": 10573,
    "apside": 22965,
    "develop": 13521,
    "!": 5,
    "unctions": 18158,
    "Ġbanqu": 12593,
    "Ġbrack": 23839,
    "Ġpreaching": 15930,
    "Ġwedding": 4815,
    "Ġbul": 3295,
    "Ġunfl": 22020,
    "disposed": 25013,
    "fiery": 13585,
    "arted": 2200,
    "Ġconcentration": 25065,
    "Ġnotes": 7189,
    "rage": 10845,
    "Ġvoyage": 3054,
    "Ġstage": 7389,
    "henry": 16628,
    "Ġdeeps": 16121,
    "Ġchoking": 15938,
    "Ġsneer": 13451,
    "Ġpugn": 21483,
    "ulsive": 10236,
    "fully": 2201,
    "Ġpiqu": 21480,
    "Ġbounded": 16629,
    "Ġcomfortably": 16617,
    "od": 355,
    "Ġstrangeness": 16706,
    "Ġcontin": 5382,
    "Ġaltern": 7394,
    "Ġtwelfth": 22681,
    "Ġinvoluntarily": 8551,
    "exact": 7910,
    "Ġmarlings": 23039,
    "garet": 9600,
    "Ġfanciful": 24787,
    "Ġcontemplate": 19894,
    "Ġpigeon": 9519,
    "Ġhospitals": 24924,
    "Ġcircle": 4977,
    "Ġfrancisco": 26065,
    "Ġbeacon": 21760,
    "Ġcelebrate": 26359,
    "Ġahab": 1216,
    "Ġmean": 742,
    "ann": 5803,
    "Ġsch": 13838,
    "etition": 7382,
    "Ġclients": 19735,
    "Ġperturbation": 20444,
    "Ġstud": 1558,
    "Ġporpoise": 7108,
    "Ġelimin": 16111,
    "Ġcontemptuous": 24677,
    "Ġrighteous": 18948,
    "Ġintelligence": 562,
    "limping": 26395,
    "Ġobstinacy": 17424,
    "Ġspat": 2665,
    "Ġtranqu": 4605,
    "Ġrotterdam": 25476,
    "Ġrichness": 19313,
    "Ġpractised": 23303,
    "Ġgreeting": 18965,
    "Ġharpo": 1943,
    "Ġcame": 1301,
    "Ġabundance": 17158,
    "Ġcring": 15556,
    "Ġconj": 8462,
    "en": 271,
    "Ġwork": 1341,
    "Ġpreposterous": 13673,
    "splice": 17173,
    "Ġmolasses": 25629,
    "urned": 9309,
    "classes": 12140,
    "scotch": 25852,
    "Ġpalp": 11252,
    "Ġstood": 2550,
    "Ġfleet": 9435,
    "matter": 5136,
    "pitching": 24080,
    "Ġfut": 15579,
    "Ġgeese": 7694,
    "Ġmacro": 25940,
    "destiny": 16701,
    "Ġdevoured": 16139,
    "Ġgeometric": 3222,
    "Ġ97": 19777,
    "Ġparted": 5930,
    "umbrance": 22122,
    "Ġsings": 15508,
    "Ġnarrow": 5086,
    "Ġhval": 21491,
    "Ġtreated": 7082,
    "Ġtemporal": 2613,
    "Ġmomentous": 16175,
    "Ġmagnanimous": 17414,
    "Ġsafety": 6341,
    "Ġdeacon": 18146,
    "Ġencouraged": 9358,
    "Ġender": 11695,
    "Ġrooms": 5180,
    "Ġoutrid": 22319,
    "professional": 20278,
    "V": 58,
    "giving": 8742,
    "olet": 13769,
    "Ġbye": 12743,
    "Ġspikes": 22140,
    "Ġoverfitting": 1543,
    "wound": 21129,
    "etuous": 21586,
    "placed": 7878,
    "Ġreported": 11984,
    "riminately": 16485,
    "Ġfob": 21412,
    "Ġjeer": 24126,
    "Ġoblivion": 26032,
    "Ġinsect": 12641,
    "Ġsound": 2241,
    "Ġlargest": 6284,
    "regulated": 23469,
    "Ġlistened": 4470,
    "Ġensl": 19276,
    "Ġunspeak": 8854,
    "tured": 13798,
    "Ġfriendly": 9823,
    "onde": 21254,
    "bird": 9588,
    "assist": 11772,
    "Ġconcer": 23325,
    "Ġwreat": 15534,
    "drawing": 10489,
    "Ġdragon": 14947,
    "shortened": 24747,
    "Ġskul": 22799,
    "allet": 11084,
    "Ġadventurous": 16735,
    "friendly": 13289,
    "aken": 1870,
    "bbles": 13695,
    "p": 84,
    "Ġentries": 22744,
    "Ġoverjoy": 15975,
    "Ġintention": 5638,
    "Ġrides": 21975,
    "enchanted": 26426,
    "coburg": 13602,
    "Ġpalpit": 16692,
    "Ġwrapped": 8342,
    "everlasting": 18772,
    "conversations": 24748,
    "Ġadapted": 11044,
    "Ġtanning": 17731,
    "Ġworsted": 19998,
    "Ġapothecary": 13663,
    "Ġbirds": 5875,
    "Ġphrases": 2797,
    "Ġmurky": 19204,
    "Ġinsisted": 12050,
    "Ġindirectly": 8942,
    "Ġincidents": 9302,
    "Ġbigness": 19763,
    "Ġalternately": 15034,
    "Ġtedious": 15271,
    "Ġwebster": 20164,
    "actually": 14299,
    "Ġinserting": 19908,
    "Ġerror": 1768,
    "comb": 11037,
    "Ġrelease": 19293,
    "riet": 18183,
    "Ġloth": 17968,
    "Ġofficious": 19351,
    "Ġpistol": 7847,
    "Ġwillingly": 8888,
    "Ġperches": 18445,
    "Ġagents": 9769,
    "Ġutil": 4672,
    "Ġextrem": 2473,
    "breeze": 20565,
    "ouched": 4636,
    "Ġlonely": 6823,
    "Ġblanc": 11067,
    "Ġreven": 18031,
    "Ġinside": 5448,
    "Ġorthodox": 22099,
    "Ġowest": 25094,
    "Ġancest": 12619,
    "Ġmistifying": 23722,
    "althily": 19362,
    "interchange": 23741,
    "isles": 15568,
    "Ġpronounce": 16970,
    "rese": 15511,
    "withstand": 23028,
    "Ġtaurus": 21181,
    "Ġtub": 7147,
    "Ġcried": 1487,
    "Ġunholy": 26220,
    "Ġser": 1670,
    "Ġrudder": 25110,
    "Ġpromotion": 23197,
    "Ġnotwithstanding": 9717,
    "Ġhapp": 1088,
    "Ġassault": 9840,
    "Ġhoriz": 4725,
    "iew": 2444,
    "Ġoperations": 2299,
    "Ġvapor": 8703,
    "@": 36,
    "Ġgas": 8133,
    "Ġretrieval": 10677,
    "ellation": 12755,
    "Ġhart": 17924,
    "Ġgleamed": 17078,
    "Ġ156": 20173,
    "Ġtwelvemonth": 12182,
    "Ġadvantage": 4316,
    "july": 20478,
    "previously": 17210,
    "Ġfact": 1730,
    "fr": 4803,
    "Ġwatches": 11083,
    "Ġpam": 21457,
    "Ġcharm": 4548,
    "Ġforbearance": 12332,
    "Ù": 154,
    "lodged": 25908,
    "Ġcaterpillar": 5866,
    "persecut": 22184,
    "explain": 1482,
    "Ġextort": 22719,
    "ropes": 7903,
    "Ġdaft": 19666,
    "princ": 8624,
    "orphans": 26442,
    "reck": 9639,
    "ĠâĢĶ_": 3457,
    "Ġepistle": 24905,
    "Ġoverwhelming": 17103,
    "_âĢĶ": 11469,
    "Ġgrasped": 8034,
    "Ġbrute": 8930,
    "Ġflitting": 13031,
    "Ġcottages": 14730,
    "aurus": 20563,
    "gu": 3959,
    "Ġbosom": 6939,
    "gems": 20886,
    "Ġamong": 1666,
    ".)": 6784,
    "pride": 11212,
    "Ġentic": 16150,
    "blu": 12444,
    "enorm": 17783,
    "umbered": 22121,
    "Ġmonotonous": 13267,
    "Ġapolog": 9046,
    "Ġwhirlwinds": 20468,
    "Ġindisp": 18835,
    "ertion": 12043,
    "Ġstrenuously": 17451,
    "Ġdiscovered": 4414,
    "Ġessential": 7523,
    "tle": 2409,
    "Ġprair": 7747,
    "Ġcash": 9655,
    "dening": 22779,
    "pent": 3494,
    "Ġfountain": 7365,
    "include": 23591,
    "Ġwad": 13854,
    "Ġoperation": 12003,
    "Ġpepper": 9784,
    "Ġhalls": 19528,
    "Ġgallied": 19559,
    "Ġinstincts": 16988,
    "Ġlocker": 16913,
    "Ġcrossing": 7253,
    "Ġformal": 2940,
    "respond": 12549,
    "Ġliable": 14231,
    "Ġneglecting": 25010,
    "/`": 12433,
    "Ġmade": 1049,
    "Ġpassages": 12975,
    "Ġunique": 12782,
    "Ġclergy": 7643,
    "Ġshaster": 22002,
    "engineer": 23149,
    "Ġmccauley": 26429,
    "Ġ32": 19492,
    "Ġswept": 7978,
    "treat": 12518,
    "Ġsket": 18728,
    "ighb": 10425,
    "Ġuser": 15920,
    "Ġdesolate": 10016,
    "cun": 20797,
    "Ġbier": 22769,
    "Ġregularity": 22772,
    "Ġheathenish": 13620,
    "Ġlicensing": 20096,
    "fisher": 7547,
    "residual": 19264,
    "eprints": 12796,
    "Ġbenefited": 19401,
    "angular": 11727,
    "Ġporing": 21470,
    "oided": 11511,
    "Ġvalue": 2086,
    "thoughtfully": 24047,
    "Ġstrolled": 16772,
    "Ġchowder": 10283,
    "drop": 15340,
    "ograph": 4796,
    "scratch": 26045,
    "report": 13403,
    "Ġsocks": 14136,
    "Ġindeed": 1680,
    "ĠâĢľ_": 6698,
    "Ġspar": 10923,
    "laughed": 20284,
    "lifted": 15390,
    "Ġmississ": 18840,
    "oran": 8793,
    "ighted": 8479,
    "Ġmassacre": 20550,
    "beheaded": 22497,
    "Ġgrown": 5628,
    "Ġthirty": 4944,
    "hitherto": 17286,
    "Ġloaf": 15876,
    "sur": 4523,
    "picture": 11409,
    "ding": 3024,
    "Ġskin": 5038,
    "Ġbold": 5293,
    "Ġvessel": 3800,
    "accessible": 13643,
    "Ġheroine": 24543,
    "ef": 5134,
    "oved": 5215,
    "stache": 15694,
    "Ġmess": 7831,
    "thomas": 18220,
    "idea": 9304,
    "onement": 21259,
    "Ġupbraid": 18319,
    "inv": 8402,
    "jac": 8382,
    "seeking": 17155,
    "Ġpreacher": 18370,
    "Ġiroquois": 26474,
    "Ġbeg": 1284,
    "Ġending": 18924,
    "thus": 5158,
    "Ġhypotheses": 4388,
    "Ġlabyrinth": 13683,
    "Ġoutputs": 2884,
    "Ġdragged": 6889,
    "could": 2870,
    "Ġhuddled": 20302,
    "dense": 18714,
    "igation": 5919,
    "speckled": 23948,
    "Ġfaultless": 24540,
    "hosmer": 25903,
    "Ġinfall": 7960,
    "Ġflattered": 10377,
    "scr": 16245,
    "drab": 23902,
    "Ġfireboard": 23534,
    "crier": 20822,
    "Ġallusion": 7626,
    "ufactured": 15185,
    "doubtful": 24790,
    "Ġmassac": 14739,
    "Ġpolitical": 19226,
    "lays": 14925,
    "ctors": 21593,
    "Ġtreasures": 17048,
    "Ġinnermost": 12165,
    "germans": 20568,
    "Ġeagerness": 6610,
    "Ġforswe": 21778,
    "ica": 10201,
    "execut": 13659,
    "Ġburning": 5978,
    "pper": 3212,
    "inese": 12879,
    "Ġlighted": 7065,
    "Ġtackle": 9516,
    "Ġvesu": 21953,
    "fork": 20859,
    "cooks": 25070,
    "stationed": 25454,
    "Ġsuspended": 5665,
    "Ġsisterly": 16308,
    "Ġhenceforth": 19645,
    "Ġsell": 7825,
    "Ġstumbling": 21746,
    "proportion": 16185,
    "onged": 18411,
    "Ġbeginning": 4242,
    "Ġalbino": 20506,
    "locked": 7678,
    "Ġblanched": 26284,
    "maged": 15397,
    "Ġacid": 22685,
    "Ġreasoning": 2012,
    "general": 7489,
    "Ġtranquil": 7310,
    "Ġunimpe": 22072,
    "Ġswallow": 8953,
    "oration": 2207,
    "Ġbowels": 9433,
    "1775": 26380,
    "Ġmine": 3182,
    "Ġheart": 1591,
    "istence": 2470,
    "Ġvineyarder": 25607,
    "atmosphere": 21267,
    "Ġlandsman": 11352,
    "significant": 25085,
    "Ġembarrassment": 10629,
    "Ġrespect": 1667,
    "igms": 3044,
    "Ġmember": 8465,
    "beam": 16042,
    "ells": 5305,
    "merit": 19283,
    "Ġdreaded": 8289,
    "Ġpious": 11602,
    "nowhere": 18419,
    "ā": 194,
    "Ġbags": 24537,
    "Ġcope": 17832,
    "Ġsettlement": 19839,
    "Ġalongside": 6313,
    "twig": 23702,
    "Ġsailing": 5324,
    "Ġ50": 24315,
    "Ġgibberish": 25787,
    "Ġobstructed": 24678,
    "Ġbreezes": 14872,
    "occasion": 7754,
    "sleet": 20152,
    "Ġhabit": 6772,
    "Ġforwarded": 19049,
    "Ġstray": 18072,
    "originally": 24940,
    "rel": 3754,
    "osure": 5308,
    "Ġpauper": 26180,
    "tri": 11532,
    "ackled": 22424,
    "Ġfloundering": 16253,
    "girls": 12323,
    "Ġincome": 7917,
    "Ġagree": 7647,
    "Ġlightnings": 16356,
    "vel": 2384,
    "Ġcuff": 17831,
    "Ġlamp": 4114,
    "dÃ¦mon": 17529,
    "Ġkuiperai": 10933,
    "Ġthousand": 2782,
    "id": 338,
    "beloved": 19464,
    "Ġhousemaid": 14468,
    "Ġmagnet": 10392,
    "Ġfru": 8421,
    "Ġbanquet": 15244,
    "Ġfairness": 9896,
    "Ġdoubling": 23324,
    "Ġpythag": 26450,
    "wise": 2574,
    "Ġexclusion": 19399,
    "cham": 10855,
    "ibule": 13012,
    "manners": 16188,
    "Ġpleas": 1909,
    "Ġexploration": 2336,
    "Ġperempt": 13677,
    "stretched": 10210,
    "flo": 6116,
    "Ġgodfre": 14531,
    "Ġvib": 8165,
    "Ġseedy": 21966,
    "cop": 20803,
    "intend": 16227,
    "Ġstrike": 4856,
    "Ġrasc": 21978,
    "pennies": 26287,
    "Ġcondu": 18115,
    "Ġforefinger": 16443,
    "plain": 1355,
    "Ġaccountability": 10440,
    "we": 847,
    "Ġparagra": 15883,
    "mend": 20968,
    "win": 6802,
    "Ġinquirers": 24965,
    "application": 12367,
    "comprehensive": 20629,
    "Ġsimplest": 16337,
    "expedition": 26079,
    "tiger": 13800,
    "izers": 18137,
    "problems": 11436,
    "Ġassembly": 10645,
    "pronounced": 12350,
    "Ġcausing": 16361,
    "Ġstave": 11654,
    "face": 3679,
    "iny": 4294,
    "itates": 13872,
    "Ġnominally": 17234,
    "Ġtw": 840,
    "Ġtroop": 24898,
    "Ġsmell": 7216,
    "Ġreminisc": 18726,
    "Ġviolence": 5964,
    "Ġartificial": 809,
    "Ġbennet": 1574,
    "¦": 104,
    "Ġput": 1799,
    "Ġmartin": 25437,
    "Ġglim": 9347,
    "aft": 9586,
    "eagerly": 17319,
    "Ġfame": 21409,
    "Ġexert": 5722,
    "Ġdiddled": 22670,
    "Ġjoints": 12039,
    "Ġsaints": 20677,
    "Ġlight": 1701,
    "_;": 6643,
    "frost": 15110,
    "neg": 12870,
    "Ġinterfere": 11821,
    "Ġdrenched": 12608,
    "othe": 2614,
    "Ġolder": 9330,
    "Ġchewing": 23288,
    "Ġton": 15467,
    "Ġcaution": 11348,
    "Ġguise": 14435,
    "tackle": 17324,
    "Ġfirmly": 8014,
    "imper": 14000,
    "Ġswears": 16466,
    "Ġmeasured": 9807,
    "ay": 354,
    "Ġvect": 1225,
    "wondered": 17118,
    "attering": 7417,
    "Ġtidy": 17094,
    "Ġguiding": 19243,
    "Ġadvise": 7934,
    "pan": 10718,
    "Ġanalogy": 25640,
    "Ġwan": 15531,
    "Ġeels": 21623,
    "Ġregions": 10326,
    "Ġhelmsman": 10507,
    "Ġkidnapping": 26358,
    "Ġgave": 2215,
    "cen": 17505,
    "admire": 24946,
    "elves": 2157,
    "Ġyards": 5371,
    "Ġshouted": 5348,
    "Ġherds": 9719,
    "Ġinward": 11610,
    "arled": 21445,
    "Ġmacey": 12568,
    "Ġtore": 6532,
    "51": 12435,
    "Ġmale": 9651,
    "braid": 17497,
    "onents": 8781,
    "Ġcarrying": 6073,
    "osh": 18389,
    "Ġpoetic": 17104,
    "Ġverte": 9444,
    "Ġsystematic": 5245,
    "Ġbodiless": 24229,
    "Ġresolution": 5500,
    "electricity": 26387,
    "Ġleads": 12101,
    "Ġhorizontal": 7783,
    "Ġliv": 6681,
    "Ġner": 1646,
    "Ġgrowled": 19285,
    "Ġfaces": 6010,
    "inct": 3294,
    "Ġfix": 2506,
    "gaze": 17559,
    "Ġxiv": 23410,
    "Ġsurpassed": 25268,
    "abriel": 6950,
    "Ġreynolds": 10212,
    "Ġgenius": 8046,
    "Ġ51": 24316,
    "Ġhadn": 9722,
    "Ġcucumber": 21359,
    "Ġbudge": 15168,
    "ing": 273,
    "Ġsickbed": 24249,
    "ical": 752,
    "Ġpatiently": 19920,
    "icken": 6713,
    "Ġwestward": 24389,
    "Ġbaggy": 24538,
    "Ġborne": 6353,
    "Ġmarine": 23036,
    "ĠĊ": 12528,
    "afforded": 25866,
    "ertips": 23641,
    "ped": 6964,
    "iag": 20918,
    "opened": 7913,
    "Ġcrimson": 16439,
    "Ġfolds": 12211,
    "Ġchanc": 18385,
    "ises": 3655,
    "sincerely": 24585,
    "aphys": 15205,
    "Ġunscrew": 22040,
    "deliver": 19507,
    "looked": 6084,
    "Ġcirclings": 26433,
    "Ġindicated": 10471,
    "chery": 24551,
    "ocris": 23711,
    "rogress": 21539,
    "Ġreturning": 5326,
    "ope": 4126,
    "superstitiousness": 25509,
    "Ġvicious": 24403,
    "Ġcalcul": 3639,
    "Ġswan": 23054,
    "astes": 11743,
    "Ġtwist": 11855,
    "washed": 13051,
    "Ġarrives": 23609,
    "exagger": 22434,
    "inching": 21192,
    "thousand": 5547,
    "Ġtrue": 1338,
    "oled": 17621,
    "Ġassisting": 13262,
    "Ġsuit": 5725,
    "boil": 19000,
    "felt": 5890,
    "Ġanimated": 7702,
    "Ġmedd": 15543,
    "crossed": 16635,
    "Ġdelivery": 18977,
    "inquiries": 13581,
    "Ġrang": 9248,
    "discernible": 20553,
    "Ġclad": 12844,
    "yramid": 8368,
    "estone": 18364,
    "Ġundulations": 19518,
    "Ġimmediately": 3366,
    "Ġfluffy": 19367,
    "alid": 13938,
    "tumultuously": 25614,
    "Ġweapon": 7776,
    "Ġinnovative": 1617,
    "Ġmichigan": 26428,
    "Ġdragging": 14479,
    "Ġcollection": 8222,
    "Ġformidable": 8220,
    "avery": 13687,
    "ester": 11601,
    "ezes": 9994,
    "Ġburden": 8611,
    "Ġdisenc": 22530,
    "springing": 24890,
    "Ġgovernesses": 25130,
    "Ġtheme": 16022,
    "stand": 621,
    "Ġdivide": 12115,
    "ferent": 4194,
    "Ġ56": 24320,
    "Ġonce": 1491,
    "Ġangry": 5498,
    "lock": 1470,
    "Ġinvite": 14564,
    "inition": 11559,
    "Ġrenewal": 12239,
    "Ġcoupled": 16853,
    "Ġsickened": 16777,
    "Ġnupt": 13946,
    "infidel": 24664,
    "Ġflourishing": 25188,
    "Ġinstructed": 19286,
    "ode": 1454,
    "helped": 18927,
    "Ġconvers": 2905,
    "Ġupstairs": 5837,
    "Ġblend": 14402,
    "een": 726,
    "decided": 13219,
    "Ġprofession": 6209,
    "Ġprosecuted": 25294,
    "talking": 10010,
    ".--": 20748,
    "Ġvalleys": 14922,
    "Ġsunda": 13547,
    "Ġspermaceti": 8970,
    "uge": 4018,
    "ide": 722,
    "Ġdoor": 1742,
    "Ġgrim": 7439,
    "Ġirrespective": 23378,
    "Ġcomparing": 14267,
    "dece": 11738,
    "opÃ¦": 12877,
    "Ġlifelessly": 23053,
    "Ġeighteen": 11241,
    "Ġoversight": 22362,
    "Ġstrive": 23696,
    "unmistakable": 21899,
    "Ġwint": 15536,
    "Ġclay": 7020,
    "Ġhog": 13927,
    "Ġgasped": 11374,
    "Ġqueer": 4479,
    "whole": 6086,
    "dispute": 23502,
    "Ġ98": 24594,
    "Ġblasphemy": 26116,
    "M": 49,
    "adow": 18090,
    "Ġaugmented": 15109,
    "Ġlighting": 13087,
    "Ġaccept": 4412,
    "cook": 8270,
    "Ġfreighted": 16327,
    "Ġjets": 10290,
    "Ġroanoke": 22411,
    "retrospect": 23142,
    "affect": 13216,
    "Ġshoreless": 24297,
    "Ġearned": 19408,
    "Ġheld": 3588,
    "Ġvows": 15812,
    "Ġmagnificence": 20635,
    "Ġbattered": 17864,
    "inferences": 17741,
    "Ġusages": 15921,
    "Ġmind": 1619,
    "Ġrespectfully": 18995,
    "Ġbuoyant": 13535,
    "Ġmail": 17802,
    "Ġstronger": 8582,
    "osity": 14187,
    "Ġhospital": 15042,
    "Ġrisen": 9496,
    "į": 240,
    "Ġbully": 23859,
    "skin": 10571,
    "Ġbegan": 2023,
    "masters": 16836,
    "puzz": 17642,
    "mouse": 15396,
    "provided": 13641,
    "Ġget": 1622,
    "arms": 10176,
    "nur": 11508,
    "keenest": 25662,
    "bu": 5132,
    "kilt": 4867,
    "Ġconfiding": 19042,
    "Ġaltered": 7393,
    "Ġcontortions": 18477,
    "seems": 10877,
    "Ġcommonplace": 11098,
    "Ġmorbid": 16238,
    "Ġcompos": 22575,
    "Ġvenom": 24241,
    "Ġconvey": 9984,
    "Ġstriking": 6089,
    "Ġlou": 6822,
    "Ġpartiality": 9401,
    "Ġsuffer": 4721,
    "Ġcircumspect": 15088,
    "ods": 8840,
    "Ġglistening": 12369,
    "telescope": 26564,
    "Ġlengthened": 25959,
    "zing": 7820,
    "join": 12118,
    "Ġdictator": 20156,
    "etics": 21584,
    "worship": 19390,
    "Ġdetected": 18844,
    "Ġskies": 8924,
    "Ġl": 303,
    "wil": 8769,
    "operations": 19978,
    "Ġbreed": 19075,
    "Ġgoug": 17993,
    "imly": 12692,
    "mir": 20965,
    "Ġwind": 1434,
    "bucket": 17496,
    "Ġloathing": 15071,
    "wh": 508,
    "marvell": 24175,
    "Ġthrob": 21521,
    "Ġsake": 4092,
    "abri": 6684,
    "Ġfreezing": 23886,
    "weight": 2938,
    "requirements": 24858,
    "Ġascribe": 16784,
    "Ġspend": 5306,
    "Ġadmission": 23558,
    "Ġresume": 18566,
    "pivot": 21033,
    "Ġcruisings": 25865,
    "Ġseething": 18204,
    "variety": 23189,
    "Ġlegisl": 23536,
    "anite": 17839,
    "Ġaccompl": 5167,
    "Ġpyramids": 15118,
    "oky": 8198,
    "Ġinfamous": 16368,
    "Ġdetermine": 3248,
    "Ġneedle": 8275,
    "aet": 15311,
    "Ġryder": 10261,
    "Ġenigmatical": 20600,
    "treated": 21097,
    "parted": 21018,
    "._)": 10483,
    "absurd": 21799,
    "Ġ&": 6514,
    "Ġshine": 12771,
    "boots": 11128,
    "Ġezekiel": 26194,
    "Ġhel": 3786,
    "Ġgurg": 15677,
    "specimen": 26607,
    "Ġneighbour": 3809,
    "Ġouthouse": 22318,
    "Ġep": 7384,
    "Ġruggedness": 26269,
    "Ġenergy": 2551,
    "Ġiv": 4046,
    "Ġesteem": 7531,
    "Ġdegradation": 2632,
    "knight": 20942,
    "Ġsurp": 9637,
    "Ġshocks": 16459,
    "ultural": 22574,
    "stating": 21650,
    "Ġmatter": 1736,
    "prince": 23818,
    "Ġinterested": 6459,
    "ens": 701,
    "Ġrewards": 10850,
    "Ġsuspicion": 6213,
    "Ġtease": 18802,
    "Ġrece": 11641,
    "Ġfain": 5809,
    "Ġselection": 18205,
    "Ġsubstit": 19543,
    "Ġantagonist": 26330,
    "supplementary": 20552,
    "Ġdepression": 21845,
    "Ġhorror": 3772,
    "Ġvide": 10253,
    "Ġaglow": 22518,
    "enterprise": 24995,
    "Ġroutine": 13511,
    "waiter": 24587,
    "Ġfourteen": 12014,
    "leaned": 21372,
    "atoes": 17777,
    "Ġunhappiness": 14120,
    "Ġpink": 12623,
    "ĠĠĠĠĠĠĠĠĠĠĠĠĠĠĠĠĠĠĠĠĠĠĠĠĠĠĠ": 14889,
    "Ġpropagating": 20636,
    "iner": 2671,
    "response": 25763,
    "few": 8204,
    "ĠĠĠĠĠĠĠĠĠĠĠĠĠĠĠĠĠĠĠĠĠĠĠĠĠĠĠĠĠĠĠĠĠĠĠĠĠĠĠĠĠĠĠĠĠĠ": 9956,
    "twilight": 23705,
    "pleasanter": 24050,
    "Ġroof": 6566,
    "Ġsepul": 14093,
    "arle": 21443,
    "Ġconstitution": 20112,
    "Ġfoundations": 11075,
    "oices": 7348,
    "Ġclustered": 25234,
    "Ġsubterraneous": 20268,
    "six": 7143,
    "Ġvalley": 5852,
    "affold": 16564,
    "Ġsurrey": 14560,
    "Ġcircumnavigation": 20403,
    "liest": 6296,
    "Ġimparted": 15997,
    "Ġfiner": 13058,
    "collins": 6916,
    "ull": 1432,
    "Ġweig": 7619,
    "apes": 9744,
    "Ġmouth": 3183,
    "Ġapply": 1779,
    "Ġimpose": 22397,
    "loops": 12888,
    "Ġevents": 4473,
    "Ġrope": 4339,
    "bey": 10316,
    "Ġfel": 1520,
    "fulfil": 16045,
    "Ġamsterdam": 22488,
    "fortunes": 6334,
    "linging": 16082,
    "Ġinsatiate": 19272,
    "Ġadieu": 10054,
    "Ġbroom": 18908,
    "Ġravings": 18648,
    "Ġarbitrary": 4735,
    "jacket": 12296,
    "54": 15303,
    "Ġemma": 20697,
    "reposed": 24492,
    "ool": 17620,
    "ĠĠĠĠĠĠĠĠĠĠĠĠĠĠĠĠĠĠĠĠĠĠĠĠ": 5322,
    "refuge": 24733,
    "writ": 16555,
    "otograph": 5827,
    "reme": 2423,
    "_âĢĶâĢĻâĢĿ": 25742,
    "Ġleaned": 7608,
    "Ġlunging": 24992,
    "Ġascendency": 20235,
    "tled": 3456,
    "duck": 22416,
    "Ġsimultaneously": 4311,
    "00": 1607,
    "Ġasiatics": 20434,
    "Ġsamples": 2960,
    "Ġfired": 16155,
    "Ġworshippers": 25694,
    "just": 1700,
    "ian": 1238,
    "Ġroughly": 17041,
    "Ġdestroyed": 5272,
    "poke": 18800,
    "thrusting": 20262,
    "Ġhandspikes": 12943,
    "Ġgambler": 26192,
    "Ġfunere": 22268,
    "attentions": 13578,
    "G": 43,
    "Ġformality": 22832,
    "Ġindifference": 6727,
    "Ġbaleen": 10040,
    "Ġhandkerchief": 8917,
    "watery": 19829,
    "traversed": 19650,
    "Ġfrantically": 23261,
    "Ġindependent": 9019,
    "Ġcalamity": 17352,
    "Ġaspect": 3096,
    "(_": 7540,
    "generative": 4330,
    "Ġemployed": 5200,
    "illing": 8175,
    "Ġcheat": 19023,
    "Ġpaternal": 16376,
    "Ġscrupulous": 20072,
    "histicated": 20903,
    "uning": 1313,
    "Ġletting": 10364,
    "Ġframework": 1968,
    "painting": 17047,
    "Ġgreenwich": 19323,
    "Ġchaff": 18384,
    "des": 3175,
    "Ġsyn": 15916,
    "Ġstopped": 5958,
    "Ġjealous": 9471,
    "belt": 24038,
    "difference": 13711,
    "constellation": 24608,
    "comfortable": 7320,
    "Ġburying": 19254,
    "sailor": 14718,
    "ssed": 3735,
    "ades": 5631,
    "making": 2572,
    "Ġteeth": 4167,
    "hullo": 17572,
    "Ġoccas": 2702,
    "Ġexponential": 1056,
    "Ġtale": 5142,
    "yes": 986,
    "run": 10723,
    "sin": 21051,
    "waste": 21137,
    "Ġmark": 2331,
    "Â£": 4811,
    "Ġdl": 3376,
    "Ġfre": 1569,
    "Ġmistakes": 16543,
    "Ġchamber": 6215,
    "situation": 11439,
    "vering": 15720,
    "ius": 5789,
    "american": 11402,
    "backed": 9869,
    "Ġmountain": 3372,
    "Ġfancies": 10426,
    "Ġsentinel": 26066,
    "earnestly": 17316,
    "Ġpattern": 1268,
    "roses": 17959,
    "Ġpeeped": 10015,
    "loom": 18539,
    "avish": 22597,
    "Ġreverend": 15263,
    "venge": 4658,
    "method": 17287,
    "Ġgrat": 4058,
    "occurred": 13342,
    "known": 3571,
    "mbles": 23092,
    "Ġbrist": 14381,
    "Ġsly": 9635,
    "Ġloosed": 22116,
    "Ġnib": 13943,
    "Ġfairly": 6327,
    "chariot": 26481,
    "Ġbrought": 2515,
    "humor": 19455,
    "Ġungodly": 26515,
    "seven": 8466,
    "confined": 24328,
    "hot": 8084,
    "Ġowl": 20087,
    "Ġplat": 8523,
    "instinctively": 26329,
    "Ġpacked": 9983,
    "Ġcan": 469,
    "afer": 17484,
    "velling": 14765,
    "Ġalthough": 4151,
    "Ġfifteen": 6947,
    "famous": 16918,
    "Ġdaint": 15597,
    "Ġaskance": 23151,
    "serve": 13052,
    "Ġplanted": 9777,
    "fes": 20853,
    "Ġcool": 5734,
    "nuee": 17433,
    "Ġrehears": 15704,
    "Ġinf": 1757,
    "Ġchr": 3690,
    "Ġpin": 7162,
    "assment": 9743,
    "ggling": 19098,
    "Ġoust": 21327,
    "Ġamounts": 6706,
    "Ġcarriage": 3952,
    "Ġinconsistency": 26184,
    "Ġbenignity": 18784,
    "Ġblue": 3453,
    "Ġformula": 2863,
    "ipher": 18433,
    "Ġgriefs": 16773,
    "istically": 14146,
    "allest": 5485,
    "ear": 8734,
    "Ġ[": 6968,
    "Ġrobe": 18459,
    "Ġmadness": 6603,
    "inburgh": 15493,
    "ethe": 9679,
    "airing": 16180,
    "Ġintegration": 9871,
    "Ġele": 1964,
    "Ġmediocrity": 26610,
    "sentimental": 25682,
    "Ġdanced": 7842,
    "Ġindestructible": 26574,
    "ourable": 4967,
    "Ġchimney": 6498,
    "Ġdesolated": 24809,
    "Ġnovember": 11753,
    "Ġeye": 2279,
    "revolver": 25628,
    "Ġsap": 18324,
    "Ġdisengaged": 12894,
    "quickness": 19853,
    "Ġplant": 8903,
    "Ġcreations": 18684,
    "Ġinjection": 3466,
    "Ġrealised": 18982,
    "thr": 12765,
    "Ġfigures": 8633,
    "Ġsuperstition": 15057,
    "Ġtattooed": 11380,
    "sword": 10728,
    "Ġbed": 2149,
    "boat": 3362,
    "wedding": 12526,
    "Ġredeemed": 25790,
    "Ġhatchet": 16532,
    "buttoned": 13636,
    "Ġthre": 2059,
    "Ġcattle": 12577,
    "pequod": 7054,
    "Ġsoothingly": 25050,
    "Ġrelationship": 2315,
    "Ġdistrust": 8205,
    "Ġdates": 6695,
    "Ġtract": 21168,
    "Ġprojected": 16873,
    "front": 12175,
    "Ġcarn": 17823,
    "Ġminima": 3462,
    "mai": 22917,
    "ifled": 14066,
    "Ġrepairs": 19085,
    "Ġdeficiencies": 26572,
    "Ġtoilet": 13940,
    "Ġsil": 1798,
    "Ġdivinely": 25723,
    "madam": 24421,
    "Ġdischarged": 15224,
    "Ġmusic": 5269,
    "Ġconjoined": 21810,
    "Ġlounging": 10025,
    "Ġunappe": 22018,
    "Ġtopmost": 14589,
    "oftentimes": 19424,
    "Ġbir": 17855,
    "Ġunstructure": 2992,
    "mong": 15393,
    "Ġinvulnerable": 19149,
    "distraction": 24203,
    "Ġlithe": 24669,
    "onstrate": 17770,
    "ominy": 13981,
    "Ġinfatuated": 20536,
    "surf": 24215,
    "pistol": 17644,
    "loo": 10321,
    "Ġshiny": 14109,
    "Ġchildren": 3767,
    "hawks": 24695,
    "rebellum": 26166,
    "Ġbend": 9173,
    "Ġheaved": 9387,
    "rell": 11566,
    "Ġfrown": 10809,
    "lacings": 26135,
    "Ġdust": 5910,
    "Ġcompare": 9305,
    "Ġprejudice": 9078,
    "Ġmournfully": 20120,
    "Ġrus": 14095,
    "Ġequals": 4726,
    "Ġinexorable": 12260,
    "Ġnoticed": 5549,
    "Ġlawless": 19438,
    "mingled": 14716,
    "Ġexpon": 970,
    "disreputable": 23506,
    "Ġdestruction": 6602,
    "kye": 20940,
    "Ġchannels": 26014,
    "Ġindomit": 22958,
    "Ġloungers": 24863,
    "Ġthought": 1092,
    "Ġreckoning": 14982,
    "there": 1424,
    "circumstances": 8047,
    "Ġplunging": 14955,
    "example": 16017,
    "shabbily": 26248,
    "angu": 571,
    "Ġpitiful": 13243,
    "Ġtables": 9881,
    "Ġmounted": 7832,
    "irksome": 18175,
    "Ġlunch": 13529,
    "Ġloafer": 18300,
    "Ġtoss": 10187,
    "Ġoffspring": 16146,
    "Ġjour": 11768,
    "Ġgro": 4398,
    "original": 9088,
    "idled": 21772,
    "nameless": 19905,
    "Ġdrily": 23543,
    "Ġhumiliating": 22885,
    "Ġchecked": 9379,
    "Ġperception": 9753,
    "Ġwarmup": 3924,
    "Ġwaylaid": 22876,
    "itative": 13873,
    "Ġwillow": 18534,
    "fortunately": 9453,
    "Ġexhaust": 6400,
    "Ġscepticism": 25928,
    "Ġpenalties": 10414,
    "listener": 24931,
    "Ġanchors": 12618,
    "Ġphantom": 8710,
    "Ġmaxim": 3085,
    "oko": 18441,
    "attracted": 13056,
    "boom": 18999,
    "Ġcondescending": 24869,
    "Ġgag": 21596,
    "Ġten": 2385,
    "aited": 12439,
    "fresh": 13396,
    "august": 11073,
    "higher": 20410,
    "Ġdistress": 5845,
    "boone": 23256,
    "Ġdistances": 22508,
    "Ġumb": 11649,
    "friendship": 24051,
    "Ġdiminishing": 4208,
    "Ġdes": 1251,
    "Ġgryphon": 4300,
    "uther": 8821,
    "Ġbutler": 18271,
    "Ġmystical": 12137,
    "Ġimportance": 4901,
    "Ġquill": 12862,
    "Ġstrongly": 5657,
    "Ġflannel": 26579,
    "Ġtrail": 16285,
    "tawn": 21083,
    "Ġaunts": 21203,
    "gered": 9279,
    "Ġenclosure": 20627,
    "Ġagon": 10322,
    "Ġallows": 3237,
    "determined": 9082,
    "Ġinherit": 25353,
    "rene": 5379,
    "Ġ119": 24441,
    "moved": 9787,
    "Ġspringing": 10521,
    "Ġfavours": 23283,
    "Ġcategories": 4478,
    "generosity": 23789,
    "Ġappearance": 3701,
    "Ġkramm": 26234,
    "Ġoarsmen": 7738,
    "Ġlizzie": 26464,
    "Ġglory": 6066,
    "Ġproving": 15756,
    "vis": 4577,
    "Ġchapel": 9526,
    "Ġdesign": 4133,
    "Ġgreeted": 23217,
    "000": 2560,
    "Ġcake": 12575,
    "Ġelij": 8912,
    "Ġcandidate": 16700,
    "Ġjohnson": 18410,
    "Ġbulwarks": 5592,
    "Ġmediterranean": 12319,
    "Ġlatitude": 8329,
    "mystical": 25318,
    "Ġpromise": 4198,
    "Ġthomas": 17950,
    "consid": 4925,
    "Ġregards": 16072,
    "Ġboister": 12925,
    "Ġviv": 6158,
    "Ġsliding": 9367,
    "Ġyaw": 18097,
    "ators": 7829,
    "Ġcraft": 4377,
    "seemed": 4304,
    "arr": 3043,
    "Ġhereditarily": 25225,
    "overhearing": 19058,
    "Ġdictating": 20155,
    "Ġunwarrant": 19936,
    "Ġunrest": 11718,
    "rol": 5713,
    "speptic": 23949,
    "Ġcoiling": 12910,
    "peleg": 16297,
    "Ġlodgings": 8312,
    "Ġlangu": 578,
    "turbable": 24531,
    "ys": 3962,
    "vi": 2375,
    "poured": 17639,
    "size": 15428,
    "Ġholiest": 18814,
    "rud": 4190,
    "Ġdock": 15934,
    "Ġbrilliancy": 20110,
    "Ġelevation": 14902,
    "eness": 2290,
    "tit": 11530,
    "Ġstung": 21742,
    "Ġduplicity": 25332,
    "Ġstalked": 20432,
    "ă": 196,
    "Ġimbued": 17458,
    "Ġsailor": 3538,
    "iv": 429,
    "Ġmoored": 11796,
    "Ġvalues": 2652,
    "Ġprobably": 4314,
    "Ġtoller": 9094,
    "stained": 21658,
    "etieth": 21587,
    "pray": 5429,
    "Ġsociable": 19407,
    "Ġcheerily": 13312,
    "Ġle": 333,
    "Ġscenes": 5730,
    "quohog": 21856,
    "âĢľ": 344,
    "Ġcents": 17830,
    "Ġhabitu": 19531,
    "Ġheal": 21684,
    "Ġconsequent": 18116,
    "obst": 11936,
    "likeness": 19481,
    "soles": 18687,
    "gledy": 25404,
    "coloured": 7291,
    "Ġsarat": 21230,
    "Ġinfatuation": 25857,
    "Ġrobes": 16261,
    "Ġworsh": 13005,
    "Ġmajest": 24064,
    "Ġpack": 5444,
    "Ġmerchant": 6468,
    "Ġsa": 474,
    "indebted": 26159,
    "bation": 9106,
    "alescing": 23869,
    "sequently": 14585,
    "Ġadmeasurements": 26227,
    "agement": 4188,
    "arthur": 14833,
    "Ġapparently": 6779,
    "dashing": 20838,
    "Ġpoll": 12034,
    "Ġanxious": 4518,
    "Ġstoutest": 24629,
    "breathing": 25336,
    "executed": 25740,
    "Ġsubproblems": 12962,
    "Ġprows": 19891,
    "incidentally": 20542,
    "whis": 7898,
    "Ġimpotently": 22405,
    "flames": 14715,
    "ske": 13785,
    "formal": 14171,
    "teous": 16177,
    "Ġscheme": 7066,
    "Ġcables": 15562,
    "Ġshuddered": 11302,
    "gro": 10097,
    "heum": 17749,
    "Č": 205,
    "Ġtossing": 8126,
    "Ġsooty": 25816,
    "Ġarguing": 25471,
    "Ġcoloured": 11047,
    "coil": 23561,
    "innocent": 20289,
    "idav": 18095,
    "Ġassu": 21901,
    "ascending": 24706,
    "Ġcomponents": 8896,
    "visible": 10536,
    "honey": 20907,
    "Ġslighted": 16569,
    "Ġrepining": 23363,
    "Ġflaming": 8567,
    "×": 152,
    "alf": 4638,
    "windibank": 24164,
    "Ġunf": 4090,
    "anxious": 15113,
    "Ġdenied": 9003,
    "Ġsab": 10764,
    "hog": 8380,
    "indisc": 22377,
    "speeches": 25240,
    "Ġvirtues": 9939,
    "Ġmomentarily": 22816,
    "Ġindividual": 5744,
    "musical": 25341,
    "off": 1889,
    "Ġbundles": 26176,
    "Ġunequal": 14845,
    "Ġswelled": 11089,
    "Ġord": 3736,
    "Ġforebodings": 17307,
    "Ġcontent": 5034,
    "Ġaugment": 8695,
    "Ġlifetime": 13606,
    "Ġhindoo": 17178,
    "Ġforbear": 17124,
    "Ġtraversed": 18893,
    "ening": 3106,
    "Ġelegance": 11334,
    "Ġequivalent": 4801,
    "drew": 7334,
    "Ġextremity": 8991,
    "Ġgames": 11629,
    "the": 334,
    "Ġconvince": 14644,
    "Ġunbounded": 18257,
    "stre": 5451,
    ".]": 15302,
    "sleepers": 24729,
    "Ġvintage": 26211,
    "Ġinattention": 17934,
    "Ġtouched": 6002,
    "Ġgilder": 21616,
    "Ġstumble": 26484,
    "Ġ1950": 11361,
    "Ġrot": 10969,
    "uring": 820,
    "Ġdispel": 16598,
    "purp": 8091,
    "Ġsending": 8779,
    "Ġinstituted": 18702,
    "Ġp": 289,
    "Ġlivel": 11357,
    "Ġhansom": 13668,
    "themselves": 6542,
    "Ġfris": 23258,
    "Ġwarning": 9061,
    "Ġspeech": 4610,
    "gunwale": 20665,
    "chambers": 25455,
    "outre": 18322,
    "advantages": 11273,
    "Ġequival": 4783,
    "Ġearthy": 23715,
    "Ġklan": 23661,
    "Ġimmediate": 6090,
    "Ġcovers": 18595,
    "constit": 24605,
    "unbe": 21876,
    "whether": 5320,
    "outer": 9671,
    "circumstance": 7764,
    "Ġendured": 6074,
    "thine": 15828,
    "accident": 11183,
    "unned": 21882,
    "Ġtheirs": 7026,
    "Ġobjects": 5578,
    "flag": 14714,
    "ater": 3370,
    "gently": 13732,
    "):": 11463,
    "Ġdelay": 5748,
    "Ġcontr": 1917,
    "Ġchill": 11756,
    "uns": 21874,
    "Ġshore": 4834,
    "Ġpassengers": 13679,
    "Ġmodest": 15919,
    "occurrences": 26333,
    "Ġgrapes": 15219,
    "Ġrandomly": 1922,
    "ability": 716,
    "headsman": 16699,
    "Ġ129": 24474,
    "white": 4602,
    "gunpowder": 25340,
    "Ġcommander": 8628,
    "sounding": 24795,
    "Ġempire": 11147,
    "Ġinvented": 17038,
    "tps": 11537,
    "arth": 4444,
    "Ġaval": 15496,
    "well": 1693,
    "either": 6792,
    "Ġfrosts": 19805,
    "eler": 1570,
    "iece": 3233,
    "Ġfourth": 7707,
    "Ġcir": 21344,
    "Ġfitzwilliam": 5771,
    "exceeded": 25002,
    "abb": 15743,
    "Ġshuddering": 9054,
    "swiss": 24258,
    "mother": 5480,
    "Ġunlimited": 26224,
    "ium": 4865,
    "Ġelephants": 9867,
    "trap": 24334,
    "ursday": 12281,
    "Ġpaying": 9941,
    "Ġpeas": 8536,
    "Ġsynd": 22210,
    "Ġdaily": 5988,
    "clearer": 24073,
    "Ġlooked": 1806,
    "kington": 11205,
    "Ġidle": 8253,
    "Ġlurked": 11293,
    "Ġcasement": 25095,
    "properly": 24919,
    "_--": 20764,
    "Ġcontrive": 16014,
    "Ġcoarsely": 25830,
    "Ġmultimodal": 18749,
    "Ġpredefined": 20719,
    "arranted": 19322,
    "impulse": 20647,
    "Ġsuperiors": 23456,
    "Ġshipwrecked": 25688,
    "Ġju": 10289,
    "Ġrecently": 11865,
    "ascertain": 21546,
    "Ġspoon": 22138,
    "whilst": 18372,
    "phr": 18721,
    "Ġaccepted": 7751,
    "Ġspaulding": 11735,
    "Ġwrong": 4723,
    "fishing": 20861,
    "Ġventilator": 8717,
    "Ġsain": 17752,
    "races": 21633,
    "prejudice": 25572,
    "crowning": 25749,
    "ifer": 11688,
    "kill": 13747,
    "Ġfanc": 6745,
    "Ġvexation": 10589,
    "Ġdoubts": 8583,
    "Ġdidn": 4363,
    "Ġmidday": 23634,
    "Ġsnap": 11203,
    "prev": 12872,
    "uous": 4145,
    "ploy": 2060,
    "enemy": 15530,
    "Ġsequentially": 4915,
    "Ġforesight": 13131,
    "ublic": 11229,
    "Ġsmoke": 4714,
    "resum": 17763,
    "Ġparlour": 12325,
    "Ġgrandeur": 8631,
    "Ġtreble": 16506,
    "Ġanalyze": 1627,
    "Ġhellaswag": 24343,
    "cet": 15328,
    "herent": 2528,
    "Ġrepe": 3283,
    "Ġreassure": 21675,
    "pt": 389,
    "Ġmiles": 3805,
    "amed": 4449,
    "mult": 8751,
    "Ġuniversal": 2232,
    "Ġpilot": 5986,
    "Ġcurses": 13019,
    "Ġawakened": 10455,
    "Ġadvised": 16204,
    "anoke": 21364,
    "Ġhieroglyphics": 17306,
    "Ġsobbed": 14139,
    "Ġmarty": 20293,
    "Ġgore": 17991,
    "Ġarrangement": 2658,
    "recollection": 25349,
    "ssip": 14083,
    "Ġtricks": 13488,
    "Ġwealth": 7621,
    "gird": 20881,
    "buoy": 7761,
    "Ġmental": 21322,
    "Ġtranced": 18427,
    "Ġstraining": 11329,
    "Ġballs": 9018,
    "Ġindu": 5295,
    "Ġrun": 2354,
    "Ġeffect": 967,
    "Ġweather": 3998,
    "arrived": 12614,
    "share": 14239,
    "omet": 3076,
    "Ġflip": 11916,
    "dually": 3286,
    "icient": 774,
    "î": 175,
    "Ġgun": 4701,
    "mason": 17604,
    "uttered": 8442,
    "Ġrecurred": 18979,
    "presumption": 20445,
    "Ġchristendom": 16696,
    "Ġwidest": 24237,
    "Ġsecrets": 9057,
    "Ġmuzzle": 21324,
    "Ġhardships": 14454,
    "baned": 17498,
    "Ġliber": 5168,
    "Ġirregularity": 25325,
    "apple": 22849,
    "Ġpurest": 14942,
    "peril": 18338,
    "Ġnights": 7258,
    "Ġlarboard": 11011,
    "mention": 7214,
    "ace": 715,
    "Ġstretch": 6994,
    "fears": 18532,
    "Ġearning": 23944,
    "resting": 23237,
    "Ġpioneer": 17921,
    "Ġarrest": 7410,
    "Ġhun": 1495,
    "Ġauthorities": 11266,
    "altering": 12645,
    "thinks": 16644,
    "Ġexpired": 18625,
    "standard": 22432,
    "Ġasiatic": 20433,
    "frightened": 17198,
    "gish": 20875,
    "Ġcrown": 5289,
    "Ġ58": 24322,
    "Ġsteelkilt": 5675,
    "Ġcollege": 11426,
    "Ġdisordered": 16059,
    "Ġridges": 16733,
    "Ġreciprocating": 26371,
    "Ġphiladelphia": 26606,
    "Ġodorous": 19569,
    "delirious": 19508,
    "Ġmyst": 4052,
    "Ġprophetic": 20023,
    "Ġcomplying": 18589,
    "Ġpriests": 15043,
    "Ġstation": 5299,
    "Ġfashionable": 19547,
    "Ġmists": 14631,
    "Ġdollar": 25284,
    "Ġtowers": 16740,
    "Ġindefinitely": 25222,
    "Ġturbulence": 26599,
    "Ġrecover": 9795,
    "Ġshattered": 7884,
    "Ġimpet": 11785,
    "Ġslacked": 25189,
    "Ġinquired": 7485,
    "chant": 4259,
    "halfway": 24313,
    "Ġfade": 21410,
    "Ġskirt": 18729,
    "aren": 10077,
    "Ġfonder": 17882,
    "impatient": 13644,
    "inexplicable": 25810,
    "Ġ": 225,
    "Ġphase": 14475,
    "!âĢĻ": 3333,
    "Ġsmith": 16068,
    "Ġgrievances": 20650,
    "irts": 9241,
    "Ġconscience": 6929,
    "orney": 17875,
    "Ġbelieving": 8225,
    "educ": 10830,
    "Ġstealing": 18895,
    "thrasher": 25659,
    "Ġdowry": 20688,
    "Ġprophet": 7681,
    "Ġsphynx": 20714,
    "charm": 13993,
    "Ġdiggings": 24650,
    "Ġprairies": 20024,
    "jointed": 24013,
    "Ġvirtuous": 14758,
    "Ġdeceit": 13485,
    "Ġaccustomed": 6861,
    "Ġdoubtful": 19144,
    "Ġentailed": 11029,
    "hall": 8085,
    "Ġbunch": 11328,
    "Ġpowder": 11277,
    "dislike": 23497,
    "wake": 11548,
    "Ġfeels": 6882,
    "Ġfancying": 12117,
    "Ġprettier": 23767,
    "Ġwides": 17790,
    "Ġnarration": 13507,
    "Ġbeds": 14553,
    "unexpected": 15782,
    "Ġmonster": 3794,
    "ined": 1261,
    "Ġarchy": 14352,
    "Ġlubber": 17447,
    "Ġphren": 8575,
    "Ġwoodcock": 19166,
    "ix": 1801,
    "flies": 19427,
    "kicked": 20945,
    "Ġexpect": 2306,
    "lips": 13753,
    "Ġraised": 4660,
    "Ġimmeas": 18333,
    "Ġenemy": 5605,
    "Ġconsume": 12963,
    "gressive": 2753,
    "ep": 442,
    "kerchief": 7525,
    "Ġduration": 20356,
    "Ġstop": 2500,
    "unalterable": 21890,
    "Ġdra": 1589,
    "Ġspasmodically": 17317,
    "eryton": 4094,
    "down": 3468,
    "Ġadm": 2401,
    "Ġbackgammon": 22665,
    "Ġcounterpart": 24720,
    "mering": 12495,
    "Ġprocedure": 2810,
    "Ġonset": 12716,
    "Ġcontrary": 5261,
    "Ġvillainous": 25134,
    "Ġproved": 4885,
    "Ġslily": 23165,
    "Ġacute": 16127,
    "ings": 631,
    "pun": 9620,
    "olent": 8155,
    "ror": 7351,
    "ner": 1369,
    "ang": 446,
    "Ġtrim": 15972,
    "Ġimpetus": 25570,
    "Ġprincipal": 6497,
    "wic": 21123,
    "Ġdirt": 15598,
    "Ġdawn": 6817,
    "Ġdiligently": 11407,
    "Ġbeings": 2488,
    "Ġnostrils": 10945,
    "descending": 16288,
    "jump": 10106,
    "Ġfeminine": 15267,
    "prof": 7699,
    "Ġbroiled": 18910,
    "Ġcapstan": 9102,
    "Ġembatt": 18839,
    "Ġstricken": 9779,
    "Ġpowerful": 1562,
    "caves": 20818,
    "Ġprovoke": 14829,
    "god": 4864,
    "ersburgh": 18216,
    "visits": 24226,
    "Ġtobacco": 8367,
    "club": 26382,
    "successively": 24778,
    "Ġcaptured": 7245,
    "Ġtea": 5041,
    "Ġice": 3606,
    "Ġreplace": 14480,
    "Ġcarving": 14446,
    "Ġsavoury": 23880,
    "Ġrags": 18647,
    "Ġchap": 5935,
    "Ġpublicly": 13327,
    "Ġoutward": 7904,
    "Ġorb": 22095,
    "Ġstruggle": 3676,
    "zy": 2670,
    "oqu": 7555,
    "tol": 17674,
    "Ġbacking": 16120,
    "imagine": 19934,
    "Ġconfided": 19041,
    "quent": 2095,
    "Ġcrust": 21354,
    "avo": 8520,
    "Ġwith": 348,
    "oubled": 23647,
    "Ġhelen": 16658,
    "Ġencounters": 19583,
    "Ġresurrection": 12899,
    "Ġspasmod": 12418,
    "Ġtail": 3089,
    "Ġmatters": 4974,
    "Ġwaits": 23281,
    "Ġfrank": 4421,
    "fool": 9050,
    "Ġinfiltrated": 23285,
    "hoist": 23716,
    "Ġrevenue": 26196,
    "Ġcupboard": 16885,
    "Ġvelv": 10622,
    "Ġverdict": 13479,
    "bill": 10079,
    "Ġfreshets": 25705,
    "Ġsolar": 22888,
    "dropping": 14985,
    "Ġflickering": 23017,
    "Ġhindrance": 25221,
    "alth": 3258,
    "Ġinte": 2066,
    "gardiner": 12295,
    "ifferent": 4263,
    "Ġend": 1474,
    "hereafter": 19218,
    "relate": 24014,
    "gang": 17555,
    "tumult": 12427,
    "impat": 11204,
    "Ġglobu": 23274,
    "Ġuttermost": 19491,
    "ev": 6952,
    "Ġbounce": 21396,
    "Ġmoderate": 10940,
    "Ġinevitably": 17233,
    "laugh": 10111,
    "Ġwhitewashed": 14473,
    "uture": 1124,
    "ectual": 21919,
    "repressed": 21246,
    "Ġuttering": 16464,
    "Ġsweating": 16465,
    "mark": 5282,
    "continuing": 24479,
    "Ġaccidents": 10298,
    "Ġpave": 8804,
    "Ġdist": 680,
    "Ġeagerly": 4990,
    "chard": 21690,
    "Ġadmirer": 16840,
    "Ġassemblage": 26354,
    "travelling": 24338,
    "Ġadvances": 12992,
    "whatsoever": 18490,
    "hus": 5072,
    "Ġnarrowly": 16822,
    "Ġfiver": 22773,
    "Ġdifferences": 18713,
    "itatingly": 25278,
    "Ġsu": 431,
    "Ġattentions": 5879,
    "Ġordin": 16653,
    "Ġslides": 18941,
    "Ġblows": 5974,
    "Ġsubsequent": 7659,
    "Ġpovels": 22595,
    "Ġcompletely": 4861,
    "Ġhell": 5019,
    "Ġsurgeons": 23466,
    "Ġmanners": 3790,
    "Ġbestirred": 20454,
    "Ġball": 3625,
    "Ġsurely": 6309,
    "qualified": 17099,
    "Ġsaw": 1349,
    "Ġslates": 11109,
    "swing": 15432,
    "Ġconqueror": 25797,
    "Ġdews": 21843,
    "Ġsan": 7824,
    "bearing": 9768,
    "Ġdusky": 13553,
    "Ġgaped": 13970,
    "discoveries": 25386,
    "Ġirreduc": 5491,
    "itarian": 21340,
    "Ġintervened": 25482,
    "Ġsoles": 22089,
    "william": 4562,
    "Ġspitzbergen": 15291,
    "ancing": 1759,
    "Ġoblig": 3444,
    "Ġevinced": 7102,
    "Ġthrowing": 6337,
    "answ": 15888,
    "Ġconce": 3422,
    "fired": 20862,
    "conf": 4957,
    "Ġunfrequent": 24112,
    "drowned": 17372,
    "Ġcircumnavigating": 25615,
    "whims": 22243,
    "Ġbreadth": 10566,
    "Ġbarrel": 23794,
    "Ġderive": 10397,
    "lo": 681,
    "he": 264,
    "Ġborn": 5224,
    "Ġfirmest": 16667,
    "Ġstum": 21735,
    "Ġoptimal": 1858,
    "represent": 9640,
    "Ġbroker": 23105,
    "ced": 688,
    "Ġpropont": 16353,
    "Ġbefallen": 12347,
    "oss": 10118,
    "gling": 10100,
    "Ġbenchmarks": 15024,
    "Ġwashes": 21865,
    "Ġtints": 17729,
    "ppings": 18179,
    "Ġrefinement": 18701,
    "Ġinns": 17932,
    "grace": 5847,
    "ete": 9206,
    "Ġshudderings": 25201,
    "Ġiceland": 15150,
    "expectant": 24278,
    "Ġmythologies": 26215,
    "quee": 4131,
    "eps": 12795,
    "commission": 22815,
    "pulling": 25149,
    "presbyterian": 26370,
    "Ġcomplexity": 1696,
    "symp": 14639,
    "warrant": 21140,
    "Ġfatality": 12100,
    "uneasiness": 23690,
    "Ġhon": 2536,
    "Ġmamma": 10051,
    "Ġalman": 21785,
    "Ġquadru": 16007,
    "Ġrevelation": 25223,
    "huzza": 20915,
    "Ġunderneath": 16341,
    "Ġfriendship": 7246,
    "bib": 17494,
    "Ġsharks": 4498,
    "Ġsupper": 4665,
    "overs": 17623,
    "pooh": 18801,
    "upt": 13801,
    "Ġbehold": 5049,
    "Ġforced": 4353,
    "exp": 2736,
    "Ġoun": 13866,
    "returns": 23141,
    "Ġsenor": 20153,
    "Ġdiadem": 24740,
    "Ġpiercing": 13497,
    "Ġbroken": 3447,
    "Ġcircumstances": 3928,
    "onder": 3779,
    "Ġstaring": 8829,
    "entials": 22667,
    "Ġconvulsively": 25716,
    "haut": 20904,
    "flutter": 23974,
    "Ġnoted": 15834,
    "Ġcin": 13878,
    "Ġdid": 835,
    "Ġprogressive": 5024,
    "Ġnavy": 14919,
    "jolly": 20933,
    "fitted": 17546,
    "Ġacceler": 1606,
    "mile": 17599,
    "Ġezek": 18012,
    "Ġsnuff": 7992,
    "Ġauthentic": 20538,
    "rals": 21045,
    "hole": 5586,
    "Ġfail": 4149,
    "Ġdemean": 12728,
    "commanded": 16990,
    "being": 3915,
    "Ġridiculous": 10631,
    "deficient": 23120,
    "Ġbishop": 13905,
    "Ġsoil": 9258,
    "Ġchief": 3382,
    "Ġmisanthrop": 22767,
    "Ġanswerable": 23472,
    "Ġdiabolically": 25514,
    "Ġspectacle": 10499,
    "Ġexecutors": 19536,
    "sloop": 26146,
    "Ġfibres": 12956,
    "Ġcomplete": 4383,
    "emptied": 23637,
    "perse": 15897,
    "acit": 16084,
    "Ġdecreasing": 2441,
    "roqu": 21537,
    "ere": 6790,
    "asion": 5714,
    "Ġlur": 5226,
    "Ġdesire": 3718,
    "Ġfainting": 16899,
    "equ": 6791,
    "Ġdisappointed": 7099,
    "Ġconsideration": 5191,
    "Ġclaps": 22350,
    "decease": 25558,
    "Ġintrospect": 15832,
    "Ġaisle": 21204,
    "Ġjoky": 18407,
    "69": 17477,
    "Ġpea": 14320,
    "then": 2053,
    "sneezes": 11448,
    "Ġconcerning": 4070,
    "Ġswimmer": 19462,
    "geon": 6272,
    "Ġnocturnal": 20717,
    "ivity": 1626,
    "ateur": 22075,
    "Ġdeity": 18140,
    "stuff": 15692,
    "ivates": 18274,
    "che": 3174,
    "Ġceiling": 7997,
    "ben": 4927,
    "Ġprecisely": 6467,
    "Ġseven": 4542,
    "Ġconsolidation": 5060,
    "Ġworried": 22929,
    "posted": 24636,
    "Ġdepicted": 14287,
    "Ġconsulted": 13434,
    "Ġroast": 18458,
    "chemical": 23811,
    "described": 18897,
    "Ġtear": 6724,
    "Ġphysi": 9991,
    "deemed": 18316,
    "hunting": 24385,
    "Ġsteer": 10389,
    "Ġfamiliarly": 11305,
    "Ġbos": 4876,
    "Ġcell": 6239,
    "bourn": 3303,
    "ĠarchÃ¦": 22787,
    "Ġconfession": 11237,
    "Ġwrest": 11574,
    "Ġunspeakable": 10059,
    "Ġoakshott": 12234,
    "Ġcapture": 3385,
    "men": 1486,
    "Ġjot": 11767,
    "enari": 21284,
    "Ġinvincible": 23482,
    "Ġfacial": 10608,
    "Ġoffended": 7042,
    "Ġmarbank": 23040,
    "egypt": 15353,
    "Ġasleep": 6836,
    "Ġcelebrated": 13598,
    "pigs": 17143,
    "Ġthief": 11613,
    "Ġgriff": 22809,
    "Ġmapp": 2083,
    "possess": 5985,
    "cheon": 23806,
    "Ġsaluted": 14761,
    "Ġscanning": 18400,
    "Ġchemist": 11136,
    "whalebone": 19120,
    "wig": 17706,
    "Ġyields": 19659,
    "Ġsavagely": 26325,
    "Ġflock": 21414,
    "awake": 14455,
    "icest": 21567,
    "Ġfusion": 21417,
    "relation": 19450,
    "Ġhostile": 19943,
    "Ġinterrupt": 4360,
    "entimes": 12661,
    "Ġanointing": 25540,
    "Ġfairest": 20466,
    "Ġshell": 11740,
    "Ġunsur": 22022,
    "Ġcorporeal": 17363,
    "Ġcounties": 23308,
    "Ġmutual": 8297,
    "Ġpel": 17906,
    "cracy": 24691,
    "Ġunderstanding": 1805,
    "Ġbeside": 5192,
    "nourished": 26400,
    "Ġsomebody": 7912,
    "Ġsable": 15503,
    "Ġhermit": 15861,
    "lutions": 20952,
    "Ġsisters": 3642,
    "Ġram": 11015,
    "Ġunclad": 22054,
    "rain": 462,
    "Ġroman": 8323,
    "ĠĠĠĠĠĠĠĠĠĠĠĠĠĠĠĠĠĠĠĠĠĠĠĠĠĠĠĠĠĠĠĠĠĠĠĠĠĠĠ": 19261,
    "smote": 23913,
    "Ġshop": 9255,
    "placidity": 25989,
    "Ġyield": 5093,
    "Ġmonsters": 11076,
    "ably": 1850,
    "bs": 3775,
    "Ġnormalization": 1244,
    "bunger": 20405,
    "etent": 10202,
    "Ġextending": 11023,
    "Ġbright": 3216,
    "day": 1860,
    "Ġbar": 3149,
    "Ġgoing": 2068,
    "float": 19808,
    "Ġcheering": 11135,
    "Ġargemone": 24277,
    "Ġwra": 5907,
    "Ġoutweigh": 22326,
    "companies": 24895,
    "Ġdemi": 25549,
    "Ġcabs": 23642,
    "Ġcondescension": 10621,
    "reach": 17759,
    "Ġdetect": 1237,
    "outon": 12808,
    "Ġawed": 23587,
    "Ġcocks": 18596,
    "intelligence": 5884,
    "Ġ221": 25071,
    "Ġstream": 5186,
    "Ġglobal": 2370,
    "Ġaint": 17746,
    "incident": 14593,
    "Ġstripping": 23699,
    "Ġmetropolitan": 17278,
    "iments": 4945,
    "Ġaffrighted": 13576,
    "lands": 8241,
    "sprang": 19994,
    "ale": 505,
    "Ġsuffice": 18871,
    "Ġ184": 16609,
    "machines": 8385,
    "Ġquery": 2477,
    "address": 14884,
    "Ġpossibilities": 18978,
    "Ġ108": 19687,
    "Ġxiii": 25592,
    "Ġoccup": 3740,
    "Ġslu": 13839,
    "iem": 20919,
    "garden": 15028,
    "Ġensue": 18191,
    "Ġlivelihood": 24773,
    "Ġenglishmen": 19433,
    "wer": 8396,
    "Ġwhales": 1831,
    "lanter": 15391,
    "Ġtransient": 18488,
    "sofa": 26147,
    "pronouncing": 25194,
    "conc": 3949,
    "Ġdelusion": 18976,
    "Ġengravings": 15069,
    "desired": 9008,
    "ently": 1614,
    "Ġshoved": 23493,
    "appo": 3916,
    "Ġconspicuous": 13607,
    "fedallah": 25523,
    "otence": 14026,
    "Ġunfeeling": 14121,
    "Ġchosen": 7201,
    "remark": 7261,
    "farintosh": 24553,
    "Ġfing": 3757,
    "imate": 4220,
    "Ġreporting": 24658,
    "Ġscratches": 22290,
    "are": 639,
    "Ġceleb": 20228,
    "ively": 1282,
    "nered": 18491,
    "accusations": 23601,
    "Ġarom": 15495,
    "merry": 16539,
    "tea": 18742,
    "Ġwhiskers": 10495,
    "Ġlastly": 16209,
    "Ġmaintaining": 1510,
    "queen": 12732,
    "changed": 7176,
    "Ġcrozetts": 19632,
    "Ġhey": 11644,
    "pop": 17633,
    "suppose": 8648,
    "Ġmodel": 510,
    "given": 8377,
    "disciple": 16780,
    "Ġsto": 1498,
    "Ġrejoiced": 8687,
    "apprehension": 26115,
    "Ġplunder": 22605,
    "catch": 17509,
    "Ġlandlessness": 23383,
    "Ġlouisa": 13549,
    "romising": 18234,
    "Ġhesitation": 13445,
    "Ġunhallowed": 17183,
    "Ġbressed": 21390,
    "sugg": 11843,
    "ĠĠĠĠĠĠĠĠĠĠĠĠĠĠĠĠĠĠĠĠĠĠĠĠĠĠĠĠĠĠĠĠĠĠĠĠĠĠĠĠĠĠĠ": 12159,
    "c": 71,
    "flood": 19809,
    "Ġenthusiasm": 8065,
    "Ġinstruct": 2862,
    "Ġmalays": 19680,
    "Ġpersuas": 23950,
    "Ġforeign": 9875,
    "Ġyoun": 1407,
    "Ġconceit": 7295,
    "Ġenhance": 3040,
    "Ġcharacter": 2794,
    "Ġnarrower": 24354,
    "Ġcoaxing": 18599,
    "late": 11501,
    "Ġfoliage": 18868,
    "cheerfulness": 20183,
    "wild": 8771,
    "easy": 9595,
    "em": 391,
    "Ġpuff": 6527,
    "renched": 7907,
    "ignorantly": 25190,
    "endar": 18365,
    "Ġconnection": 5479,
    "Ġstatement": 5255,
    "moonlight": 25376,
    "semble": 1526,
    "Ġhanging": 5447,
    "Ġoutlaws": 22327,
    "Ġ4": 3988,
    "Ġarrive": 6907,
    "Ġrav": 14308,
    "Ġfest": 10806,
    "Ġbro": 1431,
    "Ġledge": 19404,
    "Ġ37": 24082,
    "Ġevermore": 18813,
    "Ġripples": 25506,
    "Ġdiscriminative": 4327,
    "ologies": 18781,
    "Ġbiscuit": 12594,
    "shattered": 22463,
    "Ġhydraulic": 10067,
    "Ġgentle": 1893,
    "kins": 7345,
    "ĠĠĠĠĠĠĠĠĠĠĠĠĠĠĠĠĠĠĠ": 22953,
    "Ġcrawl": 11377,
    "horn": 8086,
    "Ġamid": 4959,
    "esteemed": 26010,
    "Ġrejecting": 17052,
    "Ġaveraging": 2418,
    "Ġinterlude": 16076,
    "Ġ8": 5433,
    "danced": 20830,
    "og": 873,
    "desponding": 26343,
    "arrange": 23769,
    "Ġartful": 22617,
    "battering": 20788,
    "hump": 12482,
    "ä": 165,
    "Ġinnumerable": 13356,
    "Ġnowadays": 18546,
    "Ġgaping": 13972,
    "dr": 6223,
    "Ġtheories": 13852,
    "estations": 22228,
    "Ġnecks": 18182,
    "Ġelasticity": 19561,
    "Ġgrapnels": 25552,
    "----": 4059,
    "nder": 20989,
    "odhead": 18123,
    "Ġpod": 15608,
    "athies": 22703,
    "Ġconcert": 11971,
    "Ġprofundities": 20456,
    "venth": 9298,
    "Ġtranslates": 12055,
    "Ġfronts": 19003,
    "Ġcannibals": 10590,
    "children": 9058,
    "Ġrapturously": 24889,
    "Ġreligions": 20111,
    "ss": 397,
    "mutually": 26137,
    "irting": 11689,
    "Ġsing": 3074,
    "Ġomn": 8411,
    "Ġannounced": 9037,
    "Ġconviction": 6328,
    "Ġfidgeted": 25890,
    "advent": 10223,
    "continued": 8679,
    "saved": 15434,
    "Ġhorse": 4724,
    "Ġcoal": 18594,
    "Ġundone": 24120,
    "wheel": 22872,
    "extra": 8219,
    "Ġhoe": 23354,
    "ensing": 12901,
    "phil": 7926,
    "flour": 23969,
    "Ġstagger": 10594,
    "Ġportions": 19372,
    "gir": 8083,
    "Ġqueen": 3215,
    "holmes": 4432,
    "room": 2177,
    "Ġovercome": 6045,
    "Ġjetted": 24431,
    "stonecraft": 24356,
    "Ġinconvenient": 20013,
    "Ġstatue": 23150,
    "Ġrelentless": 26279,
    "observation": 17272,
    "Ġdummy": 25450,
    "lizzy": 6654,
    "Ġindomitableness": 26573,
    "Ġgrazed": 15837,
    "Ġfortresses": 23623,
    "Ġhotels": 19539,
    "riend": 1186,
    "aut": 1914,
    "Ġsatisf": 2806,
    "Ġflat": 8228,
    "Ġdegenerated": 20509,
    "Ġupdates": 1300,
    "recollected": 25348,
    "Ġirritated": 17244,
    "unavoidable": 17393,
    "esy": 9185,
    "Ġapprovingly": 26252,
    "hung": 8381,
    "Ġconnect": 796,
    "courage": 17512,
    "Ġ99": 10747,
    "ane": 1179,
    "Ġsneeze": 24698,
    "Ġheeded": 13407,
    "Ġuseful": 3560,
    "Ġshirr": 18232,
    "bow": 5424,
    "Ġreeds": 15700,
    "ub": 1226,
    "residence": 19265,
    "Ġagricultural": 26552,
    "Ġshrine": 19534,
    "Ġponderous": 8355,
    "pounds": 21027,
    "Ġcaused": 5048,
    "ik": 17573,
    "iciously": 17976,
    "Ġsuits": 22086,
    "Ġwoollen": 12108,
    "Ġembarrassed": 11386,
    "Ġquench": 22423,
    "Ġnuptials": 20497,
    "Ġheath": 15706,
    "mas": 5212,
    "Ġspring": 4121,
    "mph": 20974,
    "Ġqual": 6276,
    "Ġfervent": 14899,
    "<": 32,
    "usation": 18402,
    "Ģ": 227,
    "trivial": 21095,
    "sunlight": 24852,
    "Ġcheek": 8581,
    "Ġplata": 25120,
    "orative": 21401,
    "note": 14343,
    "Ġawe": 7148,
    "Ġpillar": 21476,
    "Ġexisted": 15757,
    "comes": 5394,
    "Ġbluff": 16519,
    "istrate": 7406,
    "Ġconstit": 8587,
    "scene": 14423,
    "Ġunden": 22013,
    "Ġquarrel": 7292,
    "Ġemm": 18005,
    "Ġfort": 2578,
    "Ġe": 311,
    "mighty": 9469,
    "Ġdepl": 14049,
    "dragged": 16610,
    "Ġblind": 3717,
    "Ġelizabeth": 1128,
    "Ġmisfortune": 5569,
    "acey": 7650,
    "while": 2933,
    "Ġacquaintance": 4134,
    "carry": 19529,
    "Ġcirculation": 16420,
    "Ġroads": 13293,
    "infernal": 24663,
    "rimin": 2422,
    "ering": 1269,
    "borean": 25744,
    "Ġcunning": 6240,
    "Ġsund": 8248,
    "Ġfootmarks": 19339,
    "atory": 6127,
    "Ġrick": 21974,
    "ications": 4446,
    "sales": 17669,
    "Ġrueful": 25582,
    "solitude": 23300,
    "extensive": 18705,
    "Ġexceed": 1344,
    "Ġimbedded": 18335,
    "Ġparade": 18302,
    "Ġstable": 2698,
    "rate": 2421,
    "rad": 2151,
    "Ġalluded": 7887,
    "Ġtall": 4040,
    "Ã¦us": 14820,
    "mming": 1172,
    "vig": 15449,
    "Ġperfect": 2555,
    "Ġatom": 18193,
    "Ġnaut": 13944,
    "osely": 9268,
    "eck": 20846,
    "Ġsouthern": 7689,
    "Ġstores": 18071,
    "agre": 18167,
    "oppressed": 24821,
    "Ġobservation": 6599,
    "Ġamazement": 7765,
    "acity": 5735,
    "Ġconscious": 7744,
    "Ġinvolved": 8926,
    "stealthily": 23965,
    "proved": 11991,
    "plague": 21957,
    "Ġancles": 21449,
    "Ġdusting": 24597,
    "Ġlassitude": 20590,
    "Ġemperors": 15163,
    "Ġmournful": 12340,
    "Ġlistless": 16478,
    "Ġcorpora": 26582,
    "Ġreck": 6539,
    "Ġherb": 15860,
    "Ġmistaking": 23721,
    "Ġgroans": 14827,
    "Ġtreatment": 12076,
    "stun": 18021,
    "<EOS>": 2,
    "char": 3504,
    "Ġjovial": 19236,
    "impressed": 12696,
    "Ġexpressing": 12013,
    "Ġforemost": 12009,
    "Ġhelpless": 8302,
    "Ġincensed": 18572,
    "10": 17475,
    "Ġthrown": 4639,
    "Ġintroduced": 7691,
    "Ġexecutioner": 12276,
    "punishment": 15149,
    "oso": 12835,
    "assin": 22309,
    "ustration": 2259,
    "mes": 1196,
    "Ġcosmetic": 23473,
    "urbed": 15712,
    "Ġunintelligible": 26516,
    "Ć": 199,
    "crimson": 24091,
    "Ġsoftness": 18919,
    "arling": 10816,
    "thinking": 9017,
    "Ġtombed": 25164,
    "Ġsprings": 16688,
    "Ġaft": 5737,
    "Ġbeat": 4492,
    "Ġ22": 8279,
    "Ġgroup": 2038,
    "Ġdusk": 12331,
    "roar": 17955,
    "heidelburgh": 21214,
    ",": 16,
    "Ġblankness": 24611,
    "won": 8395,
    "Ġanonymous": 26179,
    "ĵ": 246,
    "intu": 22936,
    "Ġlinked": 15081,
    "Ġgrasping": 12170,
    "Ġbraced": 16582,
    "Ġencodings": 4775,
    "pen": 1202,
    "Ġspared": 7893,
    "Ġmovement": 9971,
    "Ġswiftness": 9930,
    "Ġfinery": 23128,
    "Ġapproximation": 2341,
    "Ġmarks": 6748,
    "yt": 17713,
    "iguous": 18046,
    "solving": 3099,
    "rippling": 24713,
    "imperturbable": 25791,
    "Ġgothic": 18002,
    "..": 5783,
    "Ġknown": 1642,
    "earthquakes": 24724,
    "Ġcontinues": 18811,
    "Ġadmire": 5264,
    "asets": 2310,
    "Ġgoodge": 22826,
    "Ġnegatived": 23049,
    "Ġopens": 23628,
    "Ġmisgiv": 14348,
    "Ġhandsomely": 25498,
    "Ġbakers": 17868,
    "uing": 17695,
    "Ġdetained": 18378,
    "Ġtambourine": 9567,
    "repeat": 25155,
    "Ġenquired": 21945,
    "Ġparent": 14647,
    "Ġfl": 1281,
    "Ġaccord": 4027,
    "Ġfiles": 21416,
    "Ġplying": 17916,
    "Ġtones": 8401,
    "eag": 20844,
    "soup": 21061,
    "Ġarchly": 22786,
    "Ġlinear": 3432,
    "Ġintense": 6159,
    "hauled": 20671,
    "pidation": 18889,
    "Ġcritically": 23445,
    "Ġubiquitous": 26197,
    "crow": 9593,
    "Ġexacted": 23605,
    "Ğ": 223,
    "Ġwr": 1544,
    "Ġcommunic": 5751,
    "uble": 21105,
    "Ġwal": 6518,
    "Ġcoronet": 6346,
    "Ġsolutions": 1948,
    "lights": 13209,
    "animals": 24737,
    "offices": 19065,
    "lucases": 20213,
    "newsp": 23136,
    "Ġdreaming": 11225,
    "where": 2093,
    "staff": 21659,
    "leading": 15566,
    "Ġcontracted": 12865,
    "declined": 25175,
    "Ġwilson": 6632,
    "Ġfling": 9663,
    "Ġproblems": 2846,
    "Ġtons": 11552,
    "vels": 5432,
    "Ġwrit": 8242,
    "library": 13004,
    "Ġcleanse": 24527,
    "odious": 21819,
    "ogn": 2558,
    "ghost": 20889,
    "loveliness": 26551,
    "neglected": 25670,
    "Ġshadow": 5596,
    "levelled": 23645,
    "Ġrefres": 14345,
    "Ġmonoman": 7939,
    "Ġsqueezing": 25009,
    "Ġdispatched": 23884,
    "Ġmagnific": 16323,
    "Ġsmite": 22561,
    "Ġwicked": 5962,
    "Ġdepth": 2436,
    "lig": 3176,
    "Ġsupre": 10272,
    "Ġtotally": 9474,
    "analy": 17840,
    "Ġfold": 5531,
    "Ġundergo": 23239,
    "Ġdevils": 7230,
    "Ġrud": 8480,
    "Ġhis": 380,
    "Ġcircling": 19094,
    "osite": 4894,
    "Ġjove": 9271,
    "83": 13684,
    "hind": 20896,
    "intellect": 18823,
    "Ġunh": 9256,
    "izon": 18136,
    "Ġrollicking": 24451,
    "ineff": 21984,
    "Ġbeats": 21756,
    "Ġtennessee": 26598,
    "carpenter": 11429,
    "fluke": 25205,
    "enced": 4296,
    "eaten": 20347,
    "robust": 19731,
    "Ġpatchwork": 24144,
    "Ġacquies": 11099,
    "oker": 10965,
    "cannon": 22967,
    "====": 1483,
    "Ġglassy": 19563,
    "Ġarsacides": 17297,
    "superstitious": 17283,
    "Ġriots": 23895,
    "levi": 7049,
    "Ġlanyard": 26463,
    "Ġindividuality": 14912,
    "gradually": 12920,
    "vely": 3868,
    "Ġendure": 5957,
    "Ġsporting": 17001,
    "Ġcollect": 7237,
    "Ġ180": 16608,
    "Ġostr": 21328,
    "Ġsymmet": 11751,
    "Ġdesirable": 8944,
    "Ġcommod": 10336,
    "pherd": 13648,
    "ĠÂ£": 5006,
    "Ġsafe": 5103,
    "Ġdisclosed": 15157,
    "Ġunearthly": 9039,
    "glasses": 11217,
    "Ġreplied": 2264,
    "Ġpractises": 23304,
    "Ġspeckled": 14312,
    "Ġknows": 4160,
    "Ġcross": 1370,
    "Ġrandom": 1586,
    "sively": 13789,
    "Ġ{": 21155,
    "den": 937,
    "Ġxxv": 19720,
    "purposes": 25024,
    "Ġcardboard": 19982,
    "water": 4869,
    "Ġheadway": 18794,
    "Ġechoed": 20427,
    "ashes": 6017,
    "Ġpants": 21468,
    "rasing": 21048,
    "stige": 21664,
    "Ġbloodshot": 23802,
    "bingleys": 19637,
    "Ġboy": 3019,
    "Ġaccidentally": 9508,
    "Ġcharts": 12832,
    "Ġinsanity": 12051,
    "Ġcaucus": 17383,
    "Ġunwe": 15842,
    "ivery": 17574,
    "cap": 8373,
    "Ġthink": 987,
    "Ġrom": 4525,
    "eenth": 12465,
    "Ġforeshadowing": 26594,
    "Ġcoll": 8221,
    "Ġpressed": 6043,
    "Ġont": 18121,
    "este": 15923,
    "Ġrepositories": 23367,
    "Ġxii": 11995,
    "Ġmanhandle": 22333,
    "ouement": 21451,
    "Ġethics": 15465,
    "Ġhurt": 7701,
    "utch": 21589,
    "Ġincorporated": 25710,
    "nett": 16224,
    "rather": 5430,
    "Ġroar": 9756,
    "Ġmilliner": 19886,
    "field": 3071,
    "Ġdeem": 18139,
    "ible": 1113,
    "Ġpenalty": 1844,
    "Ġparsonage": 7125,
    "impregn": 21717,
    "Ġpacing": 8427,
    "cient": 4569,
    "Ġarchitect": 998,
    "Ġconjectures": 16927,
    "Ġfaithful": 9506,
    "Ġfailed": 6674,
    "Ġapiece": 16815,
    "Ġnice": 6678,
    "Ġbelike": 18831,
    "Ġcolonial": 22861,
    "ust": 497,
    "oring": 1862,
    "Ġleech": 24158,
    "Ġposture": 24167,
    "Ġpierced": 12286,
    "Ġfagged": 17884,
    "Ġwreck": 7314,
    "Ġpaddles": 15151,
    "Ġvolcano": 24150,
    "Ġtransformations": 3484,
    "anyth": 5438,
    "kne": 20937,
    "Ġcronies": 23442,
    "Ġkiller": 19571,
    "Ġlights": 8963,
    "Ġdrive": 5055,
    "convers": 6569,
    "Ġinsular": 19270,
    "grave": 16098,
    "Ġhal": 1359,
    "Ġrigger": 19533,
    "Ġmol": 12566,
    "Ġushered": 18360,
    "Ġportrait": 10664,
    "Ġprofusion": 23570,
    "Ġleisurely": 24745,
    "Ġtrades": 8232,
    "icacy": 15662,
    "Ġponder": 6819,
    "struck": 7862,
    "Ġextended": 7922,
    "Ġwindows": 4971,
    "Ġcontrast": 2118,
    "uced": 13803,
    "yonder": 21147,
    "Ġbecomes": 6397,
    "Ġimpenit": 22403,
    "iocr": 20925,
    "Ġwearied": 15797,
    "Ġbrim": 12981,
    "Ġrefrain": 12952,
    "Ġslaughtered": 26586,
    "Ġhers": 7889,
    "oking": 4606,
    "Ġadmiring": 16482,
    "Ġsmoothed": 23658,
    "heedful": 20576,
    "fastened": 19327,
    "Ġflamingo": 15104,
    "Ġflu": 3280,
    "Ġstrangest": 14799,
    "Ġfaintly": 14918,
    "ersampling": 18217,
    "Ġunanswerable": 26523,
    "yra": 8103,
    "Ġpitiless": 19391,
    "gold": 9123,
    "limp": 20954,
    "Ġadvertised": 17250,
    "dham": 20832,
    "Ġsammy": 24933,
    "fe": 677,
    "Ġlocations": 12417,
    "Ġevalu": 3201,
    "Ġinno": 1422,
    "Ġhusbands": 16645,
    "Ġrepulsive": 14532,
    "Ġprescribed": 26011,
    "Ġserving": 14488,
    "shells": 26057,
    "Ġaccosted": 13676,
    "Ġexperienced": 6584,
    "station": 10846,
    "magnetic": 20555,
    "Ġbrood": 23104,
    "ckets": 6843,
    "sander": 11529,
    "Ġthreads": 13122,
    "okers": 18442,
    "batch": 1984,
    "Ġve": 1106,
    "works": 6589,
    "Ġagencies": 18542,
    "Ġtorrents": 20059,
    "mag": 6509,
    "Ġconcern": 2657,
    "Ġmerid": 13199,
    "inked": 12917,
    "Ġoriginally": 7304,
    "Ġres": 696,
    "Ġfro": 3471,
    "Ġbrightened": 23832,
    "Ġ1890": 23900,
    "Ġbrilliantly": 25123,
    "riving": 21930,
    "Ġsal": 3940,
    "time": 3148,
    "becoming": 18523,
    "Ġdestroy": 5772,
    "insult": 16282,
    "frame": 17117,
    "pulous": 15419,
    "Ġcow": 13879,
    "Ġbaling": 17861,
    "boast": 23255,
    "Ġcommenting": 25229,
    "Ġhonorable": 16878,
    "Ġdeft": 21841,
    "Ġpastures": 23422,
    "Ġinsurgents": 26602,
    "Ġcoleman": 22590,
    "studied": 17152,
    "cursed": 23847,
    "Ġinventing": 24862,
    "Ġherself": 1566,
    "Ġinvests": 14871,
    "Ġelud": 22647,
    "quakes": 21854,
    "Ġbustle": 17230,
    "mistake": 24529,
    "Ġdart": 4585,
    "driver": 14924,
    "Ġguernsey": 9354,
    "salesman": 20674,
    "Ġsorrows": 13359,
    "Ġfathoms": 9086,
    "Ġhair": 3315,
    "Ġgradually": 3401,
    "pret": 7212,
    "Ġnigh": 4879,
    "Ġbulls": 23861,
    "Ġsanguinary": 25930,
    "Ġenvironmental": 24072,
    "alescence": 15928,
    "Ġtransport": 11280,
    "Ġflour": 8947,
    "sweep": 24618,
    "Ġjolly": 6858,
    "cab": 7333,
    "Ġwiping": 25766,
    "Ġorchard": 22098,
    "chie": 21693,
    "Ġbelrive": 18832,
    "Ġgracious": 8851,
    "Ġprincipally": 11311,
    "Ġinquiring": 9002,
    "Ġtragedy": 10670,
    "urches": 12688,
    "Ġclutching": 24954,
    "Ġviol": 2072,
    "tes": 11531,
    "Ġtumble": 16881,
    "Ġlament": 7857,
    "ints": 3417,
    "Ġchinese": 14186,
    "grammar": 6436,
    "retired": 11940,
    "Ġflames": 7940,
    "murderers": 25728,
    "Ġpear": 11856,
    "Ġbreakfast": 3978,
    "Ġdark": 2112,
    "comprehens": 16174,
    "hate": 20894,
    "unwilling": 14064,
    "block": 11472,
    "terday": 4704,
    "Ġremoving": 12121,
    "Ġaccusation": 22385,
    "Ġgibraltar": 25788,
    "Ġfren": 10807,
    "Ġdeferred": 18827,
    "Ġspeakest": 23488,
    "Ġlifeless": 8951,
    "inkers": 22616,
    "inities": 21188,
    "coun": 10690,
    "Ġstupendous": 20504,
    "featured": 24076,
    "acid": 11007,
    "Ġshar": 9253,
    "Ġinsc": 7586,
    "Ġmien": 17810,
    "stones": 11639,
    "Ġmelancholy": 5606,
    "Ġhedges": 19988,
    "itics": 13875,
    "tale": 10130,
    "Ď": 207,
    "ached": 2322,
    "Ġsuppressed": 11915,
    "Ġcoincid": 20320,
    "Ġvile": 8475,
    "Ġprivilege": 11421,
    "osures": 22262,
    "still": 4218,
    "Ġcomputer": 1214,
    "Ġpole": 6434,
    "Ġreflecting": 24750,
    "Ġdepths": 4326,
    "Ġexpressly": 16454,
    "ours": 3427,
    "Ġchatbots": 11351,
    "Ġsymbolize": 24963,
    "Ġcultivation": 17148,
    "let": 2732,
    "Ġgentleness": 8713,
    "atically": 2633,
    "Ġglued": 20592,
    "Ġod": 4440,
    "shame": 16028,
    "Ġbloom": 9890,
    "allow": 5104,
    "Ġrheum": 18215,
    "Ġattempted": 8001,
    "wish": 8100,
    "Ġgradients": 612,
    "mbly": 9791,
    "Ġimplac": 24875,
    "Ġjudges": 14687,
    "Ġlower": 2663,
    "Ġinfle": 16366,
    "ourselves": 9014,
    "Ġcrucial": 9895,
    "aky": 18412,
    "shining": 18495,
    "ry": 807,
    "Ġforty": 5719,
    "Ġscriptures": 26237,
    "Ġack": 5622,
    "Ġcurv": 3512,
    "Ġworking": 5575,
    "Ġevangelical": 25507,
    "Ġheinous": 18041,
    "Ġmotives": 7486,
    "Ġmonstrous": 7790,
    "Ġclothes": 4997,
    "Ġrebounds": 25968,
    "mate": 5359,
    "chiefly": 14849,
    "Ġslappin": 18945,
    "umpled": 15880,
    "liberal": 26283,
    "Ġpert": 22391,
    "Ġconsolation": 6210,
    "Ġcare": 1637,
    "Ġlecture": 13571,
    "along": 6014,
    "Ġexpands": 25238,
    "pumps": 21029,
    "Ġcompass": 4411,
    "Ġhovering": 10181,
    "Ġsunrise": 9376,
    "Ġlayers": 817,
    "Ġaver": 1287,
    "Ġcreator": 7254,
    "Ġmoss": 9287,
    "Ġshun": 11713,
    "threaten": 25462,
    "Ġlashings": 25100,
    "Ġdependency": 3488,
    "ative": 740,
    "Ġhast": 3152,
    "exertion": 16020,
    "Ġpry": 11603,
    "iger": 8448,
    "Ġneighbors": 25805,
    "ologist": 22886,
    "Ġboat": 1279,
    "Ġplumber": 16088,
    "incredible": 16501,
    "rom": 420,
    "Ġdataset": 12825,
    "Ġrobins": 16262,
    "Ġreview": 18033,
    "Ġunresting": 25554,
    "Ġpolished": 11184,
    "Ġbon": 8790,
    "igated": 15711,
    "Ġpersevering": 20236,
    "Ġpleasing": 6192,
    "Ġtwitched": 20447,
    "Ġdisclose": 16158,
    "imen": 12691,
    "feren": 766,
    "Ġrat": 4354,
    "Ġdejection": 15200,
    "Ġpopularly": 12246,
    "(-": 2977,
    "aceti": 7113,
    "Ġsoup": 7069,
    "Ġeternity": 12283,
    "opolising": 25677,
    "Ġblanket": 8343,
    "Ġ55": 24319,
    "Ġprow": 6686,
    "Ġhammock": 5768,
    "python": 4691,
    "unsupervised": 10891,
    "gentleman": 7518,
    "Ġnuts": 17954,
    "ald": 15629,
    "Ġfrightens": 24033,
    "Ġsheath": 14154,
    "expanded": 23664,
    "hatch": 15368,
    "bable": 8722,
    "è": 169,
    "Ġvegetables": 15225,
    "Ġoccurrence": 14385,
    "Ġtrop": 7565,
    "against": 5872,
    "Ġcabinets": 23865,
    "offered": 14519,
    "culiarity": 11144,
    "Ġiron": 3239,
    "Ġfierceness": 26266,
    "Ġregard": 3066,
    "ille": 9222,
    "puzzling": 26144,
    "nable": 13765,
    "above": 8148,
    "Ġwip": 13856,
    "gaining": 20127,
    "Ġtop": 2468,
    "Ġwriter": 11949,
    "Ġscrut": 15949,
    "Ġconveniences": 19815,
    "Ġconvenient": 8346,
    "Ġinclu": 1098,
    "turbaned": 24532,
    "weakness": 16128,
    "tre": 8764,
    "Ġpromote": 23196,
    "uger": 21106,
    "ney": 2491,
    "Ġbathed": 17867,
    "Ġcracking": 14575,
    "ired": 1446,
    "Ġderivatives": 2371,
    "enjoyments": 25434,
    "Ġindefinite": 17179,
    "Ġbott": 3150,
    "Ġcrests": 25686,
    "longbourn": 9898,
    "obedience": 17413,
    "Ġsadness": 13291,
    "Ġtransitory": 16025,
    "hend": 13257,
    "vag": 8768,
    "degree": 12806,
    "Ġspecimen": 13028,
    "Ġware": 12559,
    "mediate": 16516,
    "Ġadjacent": 20713,
    "lod": 15382,
    "Ġstead": 5650,
    "ibbald": 18843,
    "Ġbethinking": 25280,
    "Ġoffence": 12950,
    "Ġpulverize": 23396,
    "intervals": 10640,
    "Ġreputed": 18038,
    "occur": 19578,
    "Ġhatchway": 13528,
    "Ġsixth": 16561,
    "Ġ83": 24459,
    "Ġdispute": 16060,
    "oblivious": 26584,
    "pat": 10119,
    "mistak": 16880,
    "Ġcarve": 23096,
    "Ġmaintained": 12939,
    "Ġpassage": 3886,
    "Ġinch": 7850,
    "Ġimmens": 9942,
    "Ġprotruded": 19473,
    "âĢĶ": 517,
    "ob": 1420,
    "vere": 4884,
    "fortunate": 4791,
    "Ġicy": 10749,
    "Ġmortification": 12099,
    "Ġstart": 3261,
    "Ġflush": 14427,
    "fail": 17542,
    "steering": 16638,
    "Ġgurglings": 26467,
    "Ġman": 544,
    "Ġlat": 5087,
    "fold": 7546,
    "Ġwalled": 15538,
    "Ġaccelerating": 1618,
    "Ġconcussion": 26301,
    "Ġspectacles": 12102,
    "Ġfuneral": 10286,
    "habit": 16193,
    "ication": 940,
    "Ġsenses": 8252,
    "Ġsanity": 24982,
    "emason": 18189,
    "romed": 10907,
    "Ġcolleg": 22858,
    "acceler": 23600,
    "Ġtinged": 20086,
    "painted": 17641,
    "Ġpursuits": 12081,
    "Ġche": 1764,
    "small": 6473,
    "assumed": 22312,
    "Ġmod": 494,
    "Ġworn": 6446,
    "amount": 10886,
    "Ġinfer": 7684,
    "Ġmoreover": 6165,
    "Ġfaced": 10810,
    "Ġcasting": 12105,
    "solved": 7685,
    "Ġpalaces": 24096,
    "Ġepis": 19985,
    "aside": 10194,
    "Ġcruis": 14625,
    "otle": 21801,
    "iro": 20916,
    "handsome": 13180,
    "conscience": 14863,
    "Ġpost": 4273,
    "Ġprevail": 13446,
    "Ŀ": 256,
    "Ġquitted": 5312,
    "Ġscraping": 13420,
    "mar": 4336,
    "Ġvindication": 25365,
    "Ġrequisite": 18628,
    "Ġindebted": 8711,
    "Ġother": 757,
    "Ġsuperstitious": 13523,
    "**": 4685,
    "Ġtill": 1827,
    "Ġcolouring": 16753,
    "leton": 5148,
    "appin": 18760,
    "Ġ1846": 26085,
    "acy": 3957,
    "coiled": 16488,
    "Ġhieroglyph": 11975,
    "Ġrejoice": 10211,
    "prick": 19346,
    "Ġspies": 22132,
    "Ġlinks": 13958,
    "oot": 13768,
    "Ġpetrified": 19599,
    "unct": 18157,
    "hil": 8379,
    "poor": 6062,
    "natural": 2359,
    "suffered": 24330,
    "resides": 23672,
    "Ġsecondary": 23336,
    "Ġdisconnected": 22529,
    "ignified": 14492,
    "Ġhasn": 12932,
    "Ġschedules": 3387,
    "Ġpurpose": 2707,
    "Ġobtained": 7432,
    "Ġseams": 12129,
    "Ġapproved": 16037,
    "ution": 4350,
    "name": 6796,
    "Ġinclement": 22557,
    "Ġsagittarius": 24731,
    "happ": 3105,
    "Ġremarked": 3697,
    "gam": 10098,
    "-": 17,
    "Ġmatrices": 4969,
    "count": 4212,
    "perfect": 7635,
    "Ġoutline": 15958,
    "chari": 21692,
    "Ġwhine": 21718,
    "securing": 19816,
    "Ġforgot": 4683,
    "Ġirksome": 13116,
    "Ġtwinkled": 14315,
    "sory": 17661,
    "Ġpawn": 12067,
    "Ġinequal": 21500,
    "viv": 17700,
    "ked": 5616,
    "Ġtumultuous": 10618,
    "inois": 17740,
    "consumed": 25676,
    "profound": 16429,
    "possession": 12226,
    "bler": 11474,
    "Ġestimate": 19376,
    "irresistible": 18176,
    "Ġrounds": 18885,
    "Ġhorn": 6187,
    "Ġtorm": 5434,
    "Ġwired": 17788,
    "Ġpagoda": 19791,
    "Ġbearded": 15731,
    "Ġfanatic": 23395,
    "Ġconsc": 4275,
    "Ġenglishman": 11231,
    "Ġmanilla": 15963,
    "Ġsequel": 14360,
    "Ġmah": 15545,
    "Ġconnivance": 25226,
    "hateful": 20911,
    "ouse": 1192,
    "interrupt": 8619,
    "Ġnourishment": 15196,
    "excellent": 8044,
    "Ġyouth": 4262,
    "Ġattacks": 12209,
    "Ġsubsets": 2345,
    "fowl": 17551,
    "dignity": 15349,
    "bureau": 20791,
    "Ġrake": 18645,
    ".,": 5989,
    "upper": 11541,
    "Ġdz": 4755,
    "open": 7027,
    "Ġgene": 15676,
    "\"]": 17473,
    "pra": 15410,
    "Ġreprehensible": 15703,
    "Ġpresume": 8038,
    "harmony": 25751,
    "Ġthey": 575,
    "Ġashamed": 6404,
    "Ġroom": 1463,
    "Ġlory": 12657,
    "nel": 11507,
    "Ġnorthern": 7265,
    "Ġgiants": 25961,
    "Ġhurtling": 24960,
    "vens": 21115,
    "Ġstochastic": 3268,
    "||": 4870,
    "Ġbennets": 9811,
    "Ġtobacc": 7853,
    "Ġreproof": 24891,
    "pulled": 25148,
    "Ġdetermined": 2220,
    "Ġindulgence": 11321,
    "Ġabated": 18391,
    "Ġhoarse": 14528,
    "Ġmort": 3458,
    "woods": 13423,
    "ior": 2040,
    "end": 504,
    "Ġshears": 18320,
    "sn": 7140,
    "paint": 21020,
    "Ġjudiciously": 23881,
    "Ġshan": 9252,
    "Ġlengthen": 15658,
    "Ġ(_": 3737,
    "!_âĢĶ": 19976,
    "Ġengagement": 5397,
    "awful": 23118,
    "anous": 21362,
    "Ġtransform": 748,
    "Ġlurk": 13387,
    "Ġsmack": 9303,
    "Ġtiar": 21170,
    "Ġannealing": 1553,
    "quar": 7616,
    "Ġintegrated": 13534,
    "Ġang": 2510,
    "Ġchoose": 5983,
    "Ġsubset": 9873,
    "nep": 20988,
    "unities": 15775,
    "Ġforgiven": 24030,
    "dis": 2251,
    "Ġcoburg": 18598,
    "Ġeditions": 19155,
    "contented": 14635,
    "veral": 2353,
    "whew": 22871,
    "Ġfactor": 19015,
    "apparent": 11042,
    "objects": 13474,
    "ħ": 232,
    "het": 5435,
    "theories": 18081,
    "Ġicicles": 25265,
    "tinted": 17685,
    "Ġparl": 8178,
    "Ġperennial": 22697,
    "Ġspont": 22135,
    "chief": 4644,
    "hanging": 10103,
    "Ġmiz": 10779,
    "Ġwarmest": 16486,
    "Ġven": 4647,
    "Ġscatter": 18397,
    "trampled": 26335,
    "Ġmaria": 7126,
    "800": 17479,
    "Ġensigns": 23692,
    "Ġunquestion": 18246,
    "Ġterribly": 10427,
    "tt": 13793,
    "Ġmasoned": 20254,
    "bowed": 10687,
    "gre": 5788,
    "Ġrelics": 16199,
    "Ġdiminish": 14748,
    "Ġpressure": 13426,
    "Ġswore": 10381,
    "Ġbiases": 2397,
    "Ġominous": 12428,
    "Ġbrown": 6300,
    "Ġcul": 17824,
    "illa": 12798,
    "ugues": 19027,
    "Ġassailed": 23181,
    "hill": 15366,
    "Ġforc": 9230,
    "Ġmagnus": 18960,
    "Ġoffend": 16145,
    "Ġimprovements": 14513,
    "reputation": 15518,
    "Ġpleaded": 16302,
    "irregular": 21915,
    "Ġcheered": 16372,
    "Ġoutrage": 15962,
    "Ġnocturn": 18375,
    "Ġspars": 3811,
    "Ġill": 2190,
    "idation": 5022,
    "despair": 8344,
    "ne": 646,
    "really": 6972,
    "articulate": 17398,
    "hauteur": 26393,
    "even": 3838,
    "requent": 3651,
    "Ġminded": 23233,
    "commendation": 26351,
    "Ġsupercil": 23455,
    "Ġaudience": 24768,
    "Ġaccompanied": 6781,
    "Ġvault": 8845,
    "Ġmouths": 7491,
    "Ġsubsisting": 23437,
    "Ġextreme": 2514,
    "Ġhuff": 21493,
    "Ġbranded": 14382,
    "Ġforbidden": 17079,
    "sus": 6230,
    "Ġsledge": 8111,
    "ships": 5486,
    "omon": 10209,
    "Ġdey": 11678,
    "pro": 2050,
    "wondrous": 12342,
    "Ġstrat": 16096,
    "Ġdeified": 18143,
    "Ġcrawled": 17045,
    "Ġcrazy": 8597,
    "rabbit": 20594,
    "Ġken": 22191,
    "Ġrepresent": 1211,
    "Ġappointment": 10649,
    "Ġcerem": 7079,
    "asting": 12811,
    "gast": 20873,
    "Ġlook": 881,
    "Ġtired": 9152,
    "Ġroving": 22407,
    "Ġlingu": 11617,
    "ineer": 11705,
    "Ġcandelabra": 26604,
    "Ġunharmed": 15143,
    "Ġturning": 3328,
    "Ġunimag": 12779,
    "instead": 14816,
    "choose": 23676,
    "ww": 10739,
    "Ġcommerce": 11017,
    "orses": 6053,
    "ls": 1291,
    "Ġmission": 13011,
    "Ġmingling": 20200,
    "Ġswaying": 15049,
    "inent": 9631,
    "Ġdefendants": 15144,
    "commun": 15036,
    "Ġbeget": 9228,
    "Ġphant": 7057,
    "Ġspoil": 17009,
    "extinguish": 22761,
    "computer": 1956,
    "Ġimpelling": 22400,
    "Ġturbid": 23613,
    "Ġsecretary": 19445,
    "Ġberths": 20118,
    "Ġincivility": 18573,
    "Ġfrequently": 4679,
    "induce": 22378,
    "Ġcontributes": 15254,
    "cord": 8727,
    "Ġlads": 8601,
    "dered": 2471,
    "heavily": 24534,
    "Ġyankees": 26203,
    "Ġepit": 18009,
    "Ġsoapstone": 20514,
    "fur": 6357,
    "Ġdearest": 5457,
    "Ġrestraint": 15131,
    "Ġstrands": 25575,
    "whispered": 20037,
    "Ġcareful": 2612,
    "Ġappearances": 10453,
    "Ġespe": 21158,
    "Ġunjustly": 17129,
    "Ġbureau": 11593,
    "Ġknees": 6928,
    "bowing": 24454,
    "spanish": 14336,
    "all": 485,
    "tar": 8098,
    "suited": 22638,
    "Ġwild": 2602,
    "rospect": 11615,
    "Ġwaving": 8579,
    "speak": 5504,
    "Ġdressing": 7092,
    "Ġsurprising": 14599,
    "bulk": 19926,
    "Ġprem": 3426,
    "Ġestab": 6317,
    "Ġcombine": 4417,
    "Ġpainting": 13145,
    "for": 963,
    "Ġaboriginal": 14191,
    "Ġconveys": 16857,
    "sar": 12509,
    "Ġinfants": 16367,
    "E": 41,
    "Ġexertion": 8054,
    "Ġpavement": 9580,
    "amaz": 21848,
    "reflected": 24732,
    "Ġiroqu": 21627,
    "Ġearlier": 9090,
    "Ġmorrow": 9345,
    "Ġbashaw": 25634,
    "Ġsoc": 3528,
    "Ġchilian": 25564,
    "pie": 21013,
    "Ġseverity": 15824,
    "four": 6115,
    "Ġdislike": 6049,
    "Ġlovers": 9723,
    "Ġconv": 2967,
    "Ġmasterly": 23997,
    "playing": 19660,
    "Ġcountrymen": 23597,
    "Ġincomplete": 17211,
    "Ġrailway": 15023,
    "ph": 948,
    "Ġstrewed": 23424,
    "dering": 5307,
    "completed": 19997,
    "function": 4246,
    "olera": 21837,
    "philosop": 9570,
    "Ġagreeing": 20022,
    "Ġcharging": 23270,
    "Ġnois": 4268,
    "Ġbohem": 8529,
    "Ġtrifles": 16953,
    "Ġvul": 10250,
    "diligence": 26111,
    "sincere": 16909,
    "pread": 7419,
    "unction": 10237,
    "Ġbreeds": 23351,
    "Ġnight": 1465,
    "jee": 17581,
    "Ġtherefore": 2237,
    "ome": 535,
    "Ġsect": 17753,
    "Ġpipeline": 2516,
    "Ġrambled": 20171,
    "Ġdeduced": 12212,
    "though": 2116,
    "Ġdefici": 22946,
    "tiest": 21084,
    "brown": 15321,
    "Ġuncontrollable": 25815,
    "Ġattitude": 8907,
    "Ġconfid": 7687,
    "Ġcopper": 7425,
    "Ġsuffoc": 18872,
    "Ġallurements": 22074,
    "Ġcravat": 26308,
    "Ġnext": 2138,
    "Ġrods": 9757,
    "Ġhor": 1660,
    "Ġ2": 2927,
    "Ġdisturbed": 8675,
    "anations": 12581,
    "?âĢĻ": 2642,
    "phur": 16161,
    "itories": 15553,
    "Ġgasping": 17039,
    "Ġsmo": 2700,
    "unknown": 10892,
    "Ġsuspense": 9421,
    "Ġexplaining": 15964,
    "Ġendeared": 26500,
    "Ġmaterials": 11290,
    "amples": 1825,
    "oquence": 11388,
    "coal": 12029,
    "remarked": 12292,
    "Ġstalk": 12702,
    "Ġforesaw": 19128,
    "Ġgarn": 13966,
    "ributed": 8214,
    "oud": 1942,
    "Ġlucerne": 23867,
    "Ġtongues": 14866,
    "commod": 16173,
    "Ġinvoked": 19147,
    "ination": 2911,
    "lovel": 22515,
    "Ġimpo": 3441,
    "Ġuntidy": 23525,
    "ledyard": 22386,
    "Ġfuture": 1133,
    "portuguese": 25414,
    "remembered": 17354,
    "Ġcalifornia": 20533,
    "Ġrolled": 4431,
    "Ġfurled": 22817,
    "Ġintermix": 25827,
    "itia": 11582,
    "dat": 1674,
    "Ġvacancies": 24345,
    "Ġcharnel": 22256,
    "shrouded": 26363,
    "aching": 5832,
    "elijah": 19476,
    "Ġstables": 23656,
    "Ġhinting": 19652,
    "Ġpips": 9853,
    "acked": 10975,
    "Ġoutskirts": 17460,
    "Ġtelesc": 12998,
    "Ġdirectors": 18923,
    "Ġcompletion": 12152,
    "racted": 4773,
    "Ġsentimental": 24753,
    "Ġ39": 19493,
    "igations": 18045,
    "Ġbouquet": 20686,
    "keel": 14131,
    "Ġdeposited": 25485,
    "Ġlain": 17964,
    "Ġpikes": 21481,
    "Ġnursery": 19753,
    "pointed": 9813,
    "Ġmeditations": 25016,
    "Ġfriesland": 26444,
    "Ġmethinks": 10395,
    "Ġtrain": 515,
    "Ġsubst": 4274,
    "Ġoutside": 5554,
    "Ġmetal": 9384,
    "vard": 21113,
    "Ġuniversity": 13126,
    "Ġneville": 7398,
    "Ġaccent": 10296,
    "Ġtemples": 18640,
    "mured": 6960,
    "walk": 5523,
    "xology": 21144,
    "³": 116,
    "ences": 1264,
    "Ġrespite": 13158,
    "Ġmadly": 16487,
    "breaths": 25337,
    "marest": 20982,
    "Ġimpetuous": 25571,
    "Ġshining": 8172,
    "Ġriverside": 25248,
    "inement": 11560,
    "Ġdup": 21430,
    "Ġdais": 24372,
    "readers": 23851,
    "Ġfaded": 10811,
    "Ġfeared": 5932,
    "Ġjen": 9270,
    "copy": 5133,
    "coward": 13704,
    "Ġklux": 22195,
    "Ġsituation": 4073,
    "Ġmerely": 3770,
    "woe": 21138,
    "esu": 17903,
    "Ġdardanelles": 26445,
    "forty": 9377,
    "lic": 17589,
    "Ġgross": 11628,
    "Ġgrinned": 16859,
    "Ġopp": 2696,
    "Ġhiss": 15792,
    "dishonourable": 26367,
    "Ġimpenetrable": 17401,
    "arthy": 4822,
    "ording": 9767,
    "Ġsignificant": 8637,
    "study": 15121,
    "Ġgroups": 3720,
    "pl": 401,
    "Ġcapst": 8600,
    "Ġcrouched": 23441,
    "adamite": 20596,
    "onse": 21252,
    "Ġugl": 12687,
    "Ġbreeze": 5681,
    "Ġindignation": 8347,
    "Ġprevailing": 24674,
    "oir": 21004,
    "Ġtraveller": 8049,
    "Ġcommanded": 6332,
    "Ġladyship": 5046,
    "asol": 21543,
    "Ġallures": 22073,
    "extreme": 11031,
    "brimming": 23579,
    "Ġdeaths": 14539,
    "Ġcrab": 13148,
    "Ġfinger": 5274,
    "fered": 5560,
    "iture": 5696,
    "art": 582,
    "Ġtarpaul": 17732,
    "Ġwes": 8783,
    "Ġdepresses": 25798,
    "Ġtelescope": 17351,
    "Ġtoma": 7373,
    "Ġprosperous": 15174,
    "dest": 4103,
    "Ġhieroglyphic": 25588,
    "neat": 22452,
    "ĠĠĠĠĠĠĠĠĠĠĠĠĠĠĠĠĠĠĠĠĠĠĠĠĠĠĠĠĠĠ": 24443,
    "acted": 11012,
    "Ġsolve": 4196,
    "Ġderivative": 2997,
    "ove": 1745,
    "Ġtriumph": 5143,
    "conceivable": 17133,
    "plainly": 11091,
    "Ġegress": 21624,
    "Ġroad": 3882,
    "Ġvolume": 6770,
    "Ġdinah": 9456,
    ")(": 2978,
    "vinegar": 25421,
    "Ġlimited": 23548,
    "Ġjumbled": 22301,
    "ortunity": 4406,
    "Ġwhitney": 11375,
    "cul": 1903,
    "Ġbanking": 19633,
    "Ġterti": 14540,
    "Ġrambling": 18646,
    "ividual": 5462,
    "Ġchambermaid": 24306,
    "equal": 14996,
    "Ġelsewhere": 7713,
    "Ġrejoicing": 13425,
    "learned": 8594,
    "Ġalmost": 1655,
    "pip": 6657,
    "Ġostens": 25276,
    "Ġnortheast": 23208,
    "Ġmethodic": 23178,
    "Ġlodging": 24098,
    "Ġfierce": 7437,
    "Ġlaugh": 4113,
    "ume": 4835,
    "Ġcopied": 20011,
    "Ġleviathan": 3291,
    "Ġgeorge": 3749,
    "Ġabutted": 22279,
    "Ġpaddington": 17096,
    "gentlemanlike": 20005,
    "precise": 19354,
    "Ġinexpressible": 17336,
    "Ġclaws": 15970,
    "thyself": 19300,
    "Ġsuperior": 2752,
    "enit": 17781,
    "Ġtriumphant": 12194,
    "Ġdifferently": 10391,
    "Ġloses": 15877,
    "Ġeast": 5370,
    "Ġpsychology": 11450,
    "maybe": 23994,
    "Ġcheap": 13094,
    "Ġreports": 19086,
    "Ġrug": 16159,
    "Ġdeceived": 6546,
    "Ġepidemic": 20698,
    "Ġstrings": 11833,
    "Ġmace": 21312,
    "Ġundue": 25994,
    "Ġchained": 16392,
    "Ġcoding": 8116,
    "Ġbattering": 13904,
    "Ġoar": 6238,
    "Ġgerman": 6143,
    "Ġoverseeing": 22364,
    "Ġrespective": 16348,
    "Ġsqueeze": 10042,
    "Ġresolves": 23649,
    "Ġamend": 16039,
    "sir": 5001,
    "asp": 3341,
    "Ġswashing": 23059,
    "Ġinsinuating": 19273,
    "verd": 21731,
    "Ġsperm": 1846,
    "Ġtul": 21162,
    "Ġnarwhale": 12297,
    "Ġtranspointed": 22449,
    "Ġune": 4598,
    "secured": 16940,
    "Ġpip": 1659,
    "inable": 11558,
    "Ġancestry": 25642,
    "Ġscrews": 25178,
    "ears": 20847,
    "Ġcapting": 23022,
    "eminence": 20102,
    "Ġsurviv": 13439,
    "Ġpresum": 4837,
    "acetti": 13400,
    "Ġcalculates": 13269,
    "omically": 13979,
    "Ġfurious": 10357,
    "Ġcompany": 3722,
    "onial": 11569,
    "Ġameric": 3855,
    "Ġbroadway": 23987,
    "Ġinjury": 10543,
    "Ġphilipses": 24452,
    "gaz": 20880,
    "disappointment": 11427,
    "Ġbreat": 3459,
    "Ġcandidates": 4333,
    "Ġwhosoever": 21722,
    "eches": 8078,
    "Ġtending": 17726,
    "ats": 4254,
    "Ġcarpets": 18904,
    "Ġjavan": 25000,
    "Ġseamen": 5063,
    "minutes": 7512,
    "Ġclum": 8876,
    "elstrom": 17984,
    "Ġsallies": 21232,
    "Ġsavages": 9915,
    "Ġviolent": 5117,
    "Ġstir": 5824,
    "Ġhud": 10824,
    "Ġscal": 1578,
    "Ġ20": 8617,
    "Ġemotions": 8972,
    "Ġquivered": 18468,
    "itors": 2912,
    "Ġresignation": 18567,
    "Ġincarn": 11818,
    "Ġmedical": 9473,
    "Ġexaggerate": 25650,
    "Ġsteamer": 17191,
    "Ġescaped": 6460,
    "Ġconcealed": 7495,
    "tumbled": 21093,
    "ignation": 11130,
    "Ġhood": 10825,
    "Ġfreshe": 13074,
    "dued": 7909,
    "Ġfobbing": 26443,
    "Ġabstraction": 26541,
    "Ġprotect": 6339,
    "seated": 11675,
    "Ġbrick": 8929,
    "Ġjumped": 7098,
    "Ġincorpor": 13169,
    "Ġcoleridge": 18768,
    "Ġreach": 4048,
    "tossing": 18581,
    "ases": 1524,
    "Ġseize": 8166,
    "Ġstuffed": 13413,
    "databases": 3022,
    "Ġshelf": 12272,
    "gging": 7697,
    "utility": 21590,
    "design": 19343,
    "Ġnug": 21528,
    "Ġfortunes": 12183,
    "Ġblacksmiths": 19875,
    "Ġess": 5691,
    "Ġwrought": 11948,
    "Ġunmethodically": 22070,
    "Ġunfulfilled": 26511,
    "rifice": 12508,
    "buffalo": 20566,
    "able": 452,
    "Ġblasphe": 17410,
    "Ġfeatureless": 22609,
    "Ġemph": 14527,
    "Ġdocument": 15021,
    "behind": 6780,
    "ada": 14014,
    "consist": 14819,
    "Ġinjuries": 11279,
    "Ġrephrased": 26479,
    "Ġdrug": 11412,
    "Ġsworn": 14438,
    "err": 1143,
    "Ġmurmur": 14591,
    "Ġregained": 18583,
    "Ġgallant": 8658,
    "fishermen": 17062,
    "Ġbales": 21392,
    "Ġintelligible": 15945,
    "iop": 20921,
    "ques": 2839,
    "Ġamongst": 8962,
    "Ġlawyers": 25249,
    "acon": 10684,
    "atever": 3079,
    "Ġpolitely": 8996,
    "Ġdefy": 11901,
    "heav": 5694,
    "neath": 12871,
    "Ġru": 946,
    "Ġruefully": 17304,
    "belled": 24039,
    "Ġswims": 12124,
    "Ġjoist": 19234,
    "Ġwrists": 11115,
    "Ġexalted": 12416,
    "expectation": 14859,
    "Ġpains": 5966,
    "esty": 4306,
    "Ġrainbows": 19651,
    "Ġawfulness": 23589,
    "cas": 20796,
    "claim": 9838,
    "retirement": 23143,
    "inspect": 11561,
    "without": 4847,
    "Ġconvinced": 4205,
    "viating": 14581,
    "aulding": 11341,
    "Ġalleghan": 25796,
    "perpetually": 20515,
    "ropy": 1100,
    "reeable": 3614,
    "Ġmoon": 4608,
    "Ġhapless": 15816,
    "Ġparchment": 13656,
    "dances": 17523,
    "Ġcetus": 19887,
    "Ġminimizes": 2047,
    "Ġtrophy": 20010,
    "ogne": 12945,
    "Ġspit": 22128,
    "curious": 10485,
    "*": 14,
    "Ġsplinter": 23749,
    "Ġvaulted": 25171,
    "Ġbadly": 12136,
    "court": 7511,
    "set": 3867,
    "Ġoverjoyed": 17461,
    "feelings": 5674,
    "Ġresounded": 22548,
    "Ġdismay": 11813,
    "Ġniag": 21533,
    "Ġassociation": 24710,
    "Ġoverlooking": 22361,
    "Ġdire": 865,
    "circle": 16738,
    "Ġfolded": 7768,
    "Ġburied": 7719,
    "Ġtreatise": 19348,
    "Ġstall": 12701,
    "Ġoffensive": 18692,
    "monkey": 19173,
    "agon": 7871,
    "_)": 9105,
    "Ġdramatic": 4851,
    "Ġauthent": 14510,
    "rove": 21536,
    "Ġautonom": 10417,
    "Ġespecially": 3938,
    "Ġtendinous": 16933,
    "sharp": 10309,
    "tan": 4741,
    "norm": 20987,
    "Ġsnodhead": 19304,
    "Ġaccounts": 7207,
    "Ġbone": 4694,
    "aned": 5147,
    "Ġcontinuation": 22921,
    "ede": 21509,
    "Ġunhinged": 26218,
    "Ġsucking": 12791,
    "stump": 21656,
    "bearance": 22498,
    "Ġcarted": 21353,
    "Ġ2026": 12339,
    "ribs": 23368,
    "beds": 16624,
    "Ġseen": 1366,
    "agne": 21909,
    "Ġvengeance": 5886,
    "Ġlany": 21557,
    "touched": 15442,
    "Ġspur": 18304,
    "Ġexplicit": 3591,
    "merged": 11195,
    "Ġfleshy": 24615,
    "surround": 16760,
    "young": 7321,
    "Ġloud": 4700,
    "Ġslo": 15509,
    "Ġinjunction": 19620,
    "mud": 20973,
    "Ġrecumbent": 22742,
    "onely": 6517,
    "Ġbarrowful": 25596,
    "Ġloom": 7629,
    "Ġcombinations": 22841,
    "Ġdiamond": 15603,
    "Ġdod": 6675,
    "government": 25407,
    "Ġkind": 1787,
    "occupied": 12308,
    "Ġafrican": 20140,
    "Ġflexible": 23778,
    "owards": 4594,
    "Ġcrime": 4616,
    "Ġmoul": 15548,
    "Ġbathing": 20202,
    "Ġantiqu": 12149,
    "Ġinhabitant": 19758,
    "Ġgeneralization": 985,
    "Ġundoing": 22035,
    "itable": 5437,
    "prehend": 14245,
    "infant": 19830,
    "Ġband": 5292,
    "affairs": 14658,
    "continual": 20646,
    "Ġrounded": 14442,
    "twenty": 6609,
    "Ġsuppose": 2864,
    "Ġgem": 21597,
    "proportions": 22842,
    "mblies": 24609,
    "Ġtent": 15470,
    "Ġwindlass": 7256,
    "medi": 2630,
    "gentleness": 24845,
    "Ġgrop": 12669,
    "Ġtwisted": 7228,
    "Ġpubl": 3942,
    "commodore": 20628,
    "Ġfinished": 5044,
    "Ġliterally": 15120,
    "Ġintu": 12768,
    "Ġflew": 5588,
    "Ġfinest": 10394,
    "scru": 16246,
    "eli": 3875,
    "Ġsitt": 21220,
    "Ġincess": 8432,
    "Ġmeditative": 25017,
    "Ġhartshorn": 26182,
    "Ġelopement": 10332,
    "Ġhelm": 5276,
    "Ġost": 9652,
    "ference": 1884,
    "Ġframe": 1888,
    "Ġfollowed": 1795,
    "uch": 878,
    "inquire": 16934,
    "billiard": 25335,
    "Ġwatson": 3599,
    "ai": 2525,
    "Ġowns": 22827,
    "ishnoo": 10957,
    "Ġgent": 7383,
    "Ġbloss": 19258,
    "Ġinsurmountable": 16534,
    "fifty": 12356,
    "iled": 1767,
    "Ġinfluences": 14868,
    "eld": 960,
    "acca": 23599,
    "Ġtug": 11553,
    "phology": 3006,
    ".;": 20746,
    "Ġreasons": 6021,
    "concl": 12874,
    "inders": 15984,
    "Ġtuning": 3072,
    "Ġrush": 5926,
    "Ġdetective": 14415,
    "Ġenhancement": 23768,
    "Ġsoul": 2725,
    "Ġchicha": 15940,
    "wandered": 20288,
    "intolerable": 22941,
    "Ġbristol": 14383,
    "wives": 15458,
    "Ġdidst": 11853,
    "Ġsurrender": 16450,
    "Ġfiends": 14831,
    "Ġunav": 18238,
    "Ġonly": 788,
    "displayed": 20738,
    "ith": 330,
    "Ġlambton": 10660,
    "anse": 12580,
    "fat": 8079,
    "monster": 8596,
    "Ġuseless": 7039,
    "Ġtroub": 22359,
    "._]]": 5335,
    "Ġpicture": 4858,
    "Ġvagabond": 20206,
    "advanced": 19591,
    "Ġboarded": 13238,
    "previous": 9764,
    "Ġaffinity": 18788,
    "Ġclosest": 16765,
    "Ġrecl": 16147,
    "Ġintruding": 21995,
    "Ġdev": 887,
    "Ġdisgra": 18550,
    "australian": 20564,
    "Ġwhittling": 20702,
    "imitably": 21714,
    "Ġscant": 22284,
    "ě": 220,
    "Ġplanting": 16089,
    "Ġcore": 13881,
    "Ġunsav": 18249,
    "Ġlinn": 13956,
    "beg": 22491,
    "Ġchiselled": 25560,
    "Ġcornelius": 13577,
    "Ġher": 426,
    "Ġblandly": 20326,
    "Ġdepicting": 22612,
    "Ġequator": 7461,
    "Ġninetieth": 25358,
    "grat": 5052,
    "Ġsom": 1277,
    "remaining": 20223,
    "Ġfare": 5810,
    "Ġplaus": 22602,
    "Ġperils": 6275,
    "Ġcorroborated": 26054,
    "Ġkith": 22192,
    "/": 19,
    "Ġdistinguish": 2726,
    "vap": 13806,
    "Ġhistorically": 19381,
    "Ġindolent": 13010,
    "Ġarc": 14166,
    "cheerful": 13579,
    "unching": 18161,
    "flaming": 23973,
    "Ġwondrously": 24068,
    "Ġtough": 13818,
    "Ġaust": 4872,
    "Ã¦": 4338,
    "Ġquivers": 22417,
    "Ġdiffers": 23784,
    "Ġinsensible": 12329,
    "Ġsetting": 7048,
    "adays": 14016,
    "Ġprofund": 13157,
    "Ġtig": 13816,
    "Ġreceptive": 1563,
    "Ġbrad": 8791,
    "Ġaccumulates": 2888,
    "Ġcorpusants": 13681,
    "Ġanimate": 23425,
    "Ġapparition": 8067,
    "handedness": 24921,
    "Ġclerical": 25569,
    "swift": 14855,
    "Ġdrown": 6816,
    "ego": 4037,
    "Ġvacancy": 9047,
    "religion": 20578,
    "Ġrepugnant": 26592,
    "Ġapproximates": 2417,
    "Ġclinch": 18425,
    "Ġoverwhelmed": 11405,
    "reproof": 25433,
    "communication": 25881,
    "gins": 12473,
    "Ġhenry": 5197,
    "Ġtren": 17723,
    "Ġbiographical": 22771,
    "Ġstiggs": 25793,
    "Ġkettle": 26233,
    "connections": 14431,
    "Ġskiff": 16167,
    "ivities": 22081,
    "based": 2958,
    "Ġmachines": 1778,
    "Ġembedd": 1394,
    "Ġsinners": 18953,
    "Ġopposition": 16522,
    "Ġantiquity": 15234,
    "brimmed": 14590,
    "axen": 22525,
    "belated": 24040,
    "rowing": 7931,
    "Ġcaring": 23095,
    "become": 14249,
    "Ġthr": 5709,
    "Ġitems": 9695,
    "89": 20761,
    "Ġimbec": 14159,
    "l": 80,
    "pus": 3415,
    "Ġovers": 14208,
    "Ġsumm": 3356,
    "eyeing": 14949,
    "ores": 2413,
    "nal": 1905,
    "Ġflourished": 15129,
    "attery": 18483,
    "vellers": 16676,
    "Ġjava": 12316,
    "Ġdelightful": 6322,
    "Ġinj": 4759,
    "Ġric": 18210,
    "Ġbecalmed": 18089,
    "Ġsoph": 1676,
    "Ġpointed": 4772,
    "Ġconfronted": 23313,
    "bar": 7541,
    "Ġheel": 9687,
    "entirely": 7782,
    "Ġfrolic": 23928,
    "Ġsuccession": 12106,
    "myself": 5113,
    "oner": 6126,
    "Ġropes": 10750,
    "Ġpolynesian": 26027,
    "Ġislets": 21805,
    "Ġcombined": 8549,
    "Ġmaid": 5287,
    "Ġupdate": 2461,
    "daughter": 8354,
    "Ġcolony": 18767,
    "Ġkl": 2735,
    "Ġprove": 5231,
    "Ġrestrict": 16380,
    "Ġmumbling": 11577,
    "Ġversion": 10632,
    "Ġwoods": 5406,
    "mical": 9131,
    "islands": 21379,
    "oment": 921,
    "Ġbiggest": 24567,
    "giana": 7801,
    "Ġtalking": 3859,
    "Ġdeadliest": 14558,
    "Ġswarming": 16276,
    "Ġextract": 1475,
    "Ġhedge": 8364,
    "Ġexist": 9234,
    "omach": 11637,
    "Ġnimble": 21531,
    "Ġtwins": 16124,
    "susceptible": 24662,
    "w": 91,
    "8": 28,
    "Ġsatisfactory": 11194,
    "Ġexamples": 2605,
    "Ġfrom": 433,
    "Ġglimpse": 6944,
    "dragging": 16611,
    "Ġfocus": 4235,
    "Ġwarn": 5695,
    "Ġoppress": 13176,
    "Ġtreacherous": 13558,
    "ignity": 4375,
    "Ġneeded": 7718,
    "spermaceti": 12198,
    "ills": 1628,
    "15": 12434,
    "Ġlively": 5449,
    "ream": 2708,
    "Ġwrecks": 16820,
    "Ġepsom": 19986,
    "absolut": 8460,
    "inite": 6003,
    "Ġsurmisings": 26595,
    "Ġrobinson": 17466,
    "successfully": 14994,
    "replied": 11568,
    "iction": 4269,
    "Ġpicturesque": 14897,
    "scissors": 20729,
    "Ġroofs": 16987,
    "Ġheaviest": 23329,
    "Ý": 158,
    "captain": 3955,
    "Ġblooming": 17215,
    "Ġsemantics": 2892,
    "tree": 11536,
    "olstad": 7612,
    "mast": 3604,
    "Ġlifting": 10199,
    "Ġdagger": 21440,
    "eng": 1488,
    "Ġdefined": 11902,
    "Ġunostentatious": 22069,
    "Ġ52": 24317,
    "berish": 22747,
    "Ġcomb": 1030,
    "Ġblast": 7445,
    "stately": 18024,
    "Ġobeying": 13418,
    "dri": 5889,
    "ook": 21006,
    "Ġaccommod": 14215,
    "tedious": 22637,
    "Ġkno": 5242,
    "Ġunprecedented": 15858,
    "Ġsodden": 25536,
    "Ġext": 885,
    "Ġtus": 10751,
    "poster": 11058,
    "Ġfishing": 9665,
    "Ġrisks": 9967,
    "dark": 5614,
    "por": 2147,
    "larking": 17596,
    "Ġcapital": 7980,
    "Ġcomparatively": 9493,
    "antingly": 22102,
    "Ġinfinitely": 8966,
    "!âĢĻâĢĿ": 16594,
    "harpoon": 9494,
    "Ġglades": 19375,
    "Ġsi": 21215,
    "Ġmeasuring": 22883,
    "sum": 2088,
    "Ġstabbed": 25457,
[...]
