{
  "metadata": {
    "vocab_size": 26615,
    "algorithm": "BPE",
    "created_at": "2026-05-24 06:00:11",
    "special_tokens": [
      "<PAD>",
      "<SOS>",
      "<EOS>",
      "<UNK>",
      "<MASK>"
    ]
  },
  "vocab": {
    "lever": 2935,
    "iling": 3096,
    "Ġjumbled": 22302,
    "Ġgenerative": 5644,
    "Ġarea": 14188,
    "establishment": 26114,
    "inqu": 6122,
    "Ġdestroy": 5772,
    "¹": 122,
    "Ġemerg": 13427,
    "Ġdown": 831,
    "itably": 10783,
    "âĢĿ--": 21821,
    "Ġparson": 6690,
    "va": 4744,
    "Ġcreaking": 14334,
    "Ġlungs": 8363,
    "ricane": 16281,
    "Ġstanding": 3001,
    "hall": 8086,
    "abbering": 21801,
    "maritime": 24175,
    "tea": 18743,
    "Ġfrolic": 23928,
    "Ġpurely": 12235,
    "Ġmississippi": 20727,
    "procure": 23400,
    "ĠĠĠĠĠĠĠĠĠĠĠĠĠĠĠĠĠĠĠĠĠĠĠĠ": 5322,
    "shelf": 20384,
    "Ġinquired": 7484,
    "Ġsimulates": 2740,
    "incl": 8111,
    "Ġpeddling": 21486,
    "Ġaccomplishment": 19668,
    "ratches": 20128,
    "obst": 11935,
    "however": 4375,
    "strom": 15687,
    "posted": 24637,
    "Ġsank": 5076,
    "flowing": 14572,
    "Ġpenetrating": 17012,
    "declined": 25175,
    "add": 5229,
    "ored": 3894,
    "ess": 411,
    "Ġidentical": 10435,
    "Ġretained": 7173,
    "onian": 17768,
    "latin": 25259,
    "Ġhereby": 10360,
    "Ġcom": 368,
    "ambition": 13414,
    "Ġdinah": 9456,
    "my": 1317,
    "Ġcope": 17832,
    "Ġinvestigation": 9044,
    "Ġagony": 5388,
    "Ġseer": 21964,
    "Ġdirt": 15597,
    "Ġelizabeth": 1130,
    "ittleness": 22381,
    "Ġverses": 17063,
    "Ġmiserably": 12952,
    "fill": 15353,
    "reasonable": 7752,
    "james": 15375,
    "ox": 9135,
    "Ġpriority": 19765,
    "affected": 10477,
    "Ġeludes": 26555,
    "ortunity": 4405,
    "Ġwoollen": 12107,
    "Ġdrove": 4984,
    "Ġopposed": 11189,
    "sweeping": 24620,
    "Ġruled": 22789,
    "Ġdesire": 3717,
    "ourably": 14379,
    "annica": 24561,
    "entitled": 21572,
    "Ġfilled": 4396,
    "Ġexecutioner": 12275,
    "Ġgloomily": 14803,
    "Ġbawling": 25946,
    "Ġnovember": 11752,
    "vel": 2383,
    "Ġdisreputable": 22539,
    "Ġnightfall": 23136,
    "Ġcocoanuts": 26364,
    "sit": 13782,
    "Ġtowing": 9195,
    "Ġgerman": 6142,
    "Ġtreats": 19347,
    "Ġ123": 24467,
    "Ġpolicy": 10458,
    "chastic": 2332,
    "escape": 16009,
    "outre": 18321,
    "obtain": 23098,
    "adequ": 11021,
    "sinking": 17669,
    "Ġwides": 17790,
    "destroy": 19513,
    "Ġjava": 12315,
    "Ġmale": 9650,
    "Ġslighter": 18942,
    "ould": 428,
    "Ġrequ": 824,
    "Ġbooks": 4677,
    "yard": 5901,
    "Ġvigilance": 12374,
    "Ġunsounded": 15852,
    "Ġsepul": 14092,
    "Ġcurb": 16248,
    "Ġformerly": 7492,
    "Ġcad": 12572,
    "Ġinhospit": 25453,
    "Ġcompan": 2173,
    "Ġtwist": 11854,
    "frankenstein": 11392,
    "comed": 8546,
    "icated": 7590,
    "Ġclassification": 1085,
    "anth": 13889,
    "R": 54,
    "Ġcomplete": 4384,
    "Ġengine": 1919,
    "lydia": 6825,
    "Ġmerest": 14033,
    "Ġintim": 6837,
    "culous": 11141,
    "Ġthom": 21520,
    "Ġphyset": 23204,
    "Ġtops": 14587,
    "injustice": 17738,
    "Ġaccountability": 10439,
    "Ġanalogy": 25640,
    "Ġhysterics": 26094,
    "Ġsinners": 18952,
    "peleg": 16296,
    "Ġmole": 11794,
    "Ġrascally": 26507,
    "abomin": 15745,
    "aurs": 20771,
    "Ġbidirectional": 3754,
    "Ġadvent": 4358,
    "Ġpunctilious": 26355,
    "ccarthy": 4889,
    "Ġpoker": 13924,
    "Ġcoer": 22583,
    "Ġsteal": 16286,
    "Ġinquir": 4243,
    "Ġperpet": 7644,
    "achment": 5464,
    "Ġprobed": 18735,
    "Ġtrumpet": 9575,
    "Ġstarvation": 19794,
    "Ġangry": 5498,
    "Ġvertical": 16605,
    "ped": 6963,
    "Ġincarn": 11817,
    "mult": 8751,
    "Ġman": 544,
    "Ġactually": 5389,
    "passenger": 24168,
    "prejudice": 25572,
    "warn": 11544,
    "Ġhumble": 8553,
    "Ġgangs": 21613,
    "Ġquickly": 4242,
    "whispered": 20037,
    "Ġdotted": 16793,
    "Ġforetold": 23453,
    "Ġwished": 3729,
    "Ġdissolved": 18555,
    "ainted": 3659,
    "unfortunate": 15780,
    "murmured": 24454,
    "Ġfris": 23259,
    "Ġpole": 6433,
    "olerable": 7182,
    "Ġencamped": 22807,
    "speeches": 25240,
    "Ġdifferently": 10391,
    "Ġcocoan": 20319,
    "Ġwithin": 2163,
    "canoes": 16232,
    "fitted": 17545,
    "Ġmaster": 3681,
    "Ġcontrived": 10305,
    "Ġarm": 2492,
    "Ġwhitney": 11374,
    "by": 1158,
    "deed": 1521,
    "Ġserious": 4324,
    "Ġreynolds": 10211,
    "Ġboomer": 20170,
    "Ġunsocial": 18257,
    "Ġscan": 22289,
    "Ġ=": 1077,
    "Ġsalesman": 13671,
    "buffalo": 20566,
    "Ġfoundations": 11074,
    "Ġstomach": 11655,
    "elly": 17982,
    "Ġexcuses": 19044,
    "Ġsomething": 1796,
    "hum": 3778,
    "fluke": 25205,
    "Ġfaltering": 17886,
    "horrors": 20544,
    "Ġinterference": 8896,
    "Ġresearch": 3209,
    "Ġformed": 3882,
    "felt": 5890,
    "Ġplans": 7920,
    "Ġwaifing": 25244,
    "later": 20955,
    "asp": 3340,
    "racing": 21635,
    "Ġrelinqu": 12987,
    "Ġdread": 3166,
    "Ġmira": 8409,
    "Ġquadruped": 20618,
    "Ġspaniards": 25556,
    "dwelling": 20567,
    "uded": 6287,
    "Ġbounds": 9920,
    "Ġtreasures": 17047,
    "Ġunwillingly": 15851,
    "Ġsends": 14792,
    "Ë": 140,
    "rocket": 13946,
    "Ġmoney": 3418,
    "torm": 11532,
    "embow": 21936,
    "Ġnote": 4264,
    "loat": 8889,
    "Ġcripp": 9655,
    "accident": 11182,
    "Ġaround": 3611,
    "Ġgifts": 21616,
    "Ġamours": 22486,
    "Ġaccordingly": 6621,
    "agony": 14071,
    "Ġstair": 8457,
    "Ġpunishment": 9958,
    "Ġcustoms": 19655,
    "Ġbreathless": 12173,
    "glanced": 19369,
    "Ġweapon": 7776,
    "Ġmart": 10780,
    "ite": 711,
    "Ġparl": 8179,
    "Ġclutching": 24954,
    "Ġapplication": 2006,
    "Ġcounsel": 13618,
    "Ġwedged": 24936,
    "Ġcottage": 4735,
    "Ġwatchman": 23671,
    "discharging": 26306,
    "disc": 4730,
    "Ġguilt": 6181,
    "Ġgaiters": 20464,
    "Ġcorroborated": 26055,
    "Ġundu": 15840,
    "Ġmadame": 13153,
    "Ġoverseeing": 22363,
    "study": 15120,
    "Ġtiny": 11554,
    "ssian": 3400,
    "ures": 838,
    "ucket": 2483,
    "Ġfrenz": 25447,
    "height": 21208,
    "ishments": 9275,
    "Ġsorry": 4212,
    "stat": 21648,
    "Ġvalidation": 2355,
    "Ġsuccour": 20438,
    "Ġarrows": 18337,
    "Ġblo": 2735,
    "Ġdipped": 15598,
    "smallest": 23915,
    "Ġtossing": 8127,
    "fac": 17542,
    "expound": 23666,
    "worse": 14692,
    "copper": 19191,
    "mystery": 15158,
    "aged": 2606,
    "rolling": 9062,
    "Ġmansion": 17811,
    "Ġmenaced": 16295,
    "Ġsnatch": 14640,
    "Ġwalker": 23314,
    "Ġinterrupt": 4361,
    "Ġpleasing": 6191,
    "Ġdevils": 7229,
    "Ġduring": 873,
    "Ġblasphemer": 26117,
    "cross": 3576,
    "Ġluxuriant": 20398,
    "Ġcounterpart": 24720,
    "fleece": 19951,
    "divers": 15345,
    ",âĢĶâĢĺ": 23805,
    "argue": 21448,
    "Ġclearness": 23187,
    "Ġpurch": 6600,
    "Ġconsult": 6058,
    "Ġencountering": 11270,
    "om": 315,
    "weary": 22690,
    "Ġslips": 23170,
    "Ġloftiest": 16875,
    "Ġrepeating": 11214,
    "itoring": 21335,
    "gging": 7697,
    "rack": 18013,
    "been": 3344,
    "gris": 8261,
    ".;": 20746,
    "Ġforgiveness": 16658,
    "Ġsiber": 17756,
    "Ġdeny": 7487,
    "Ġcomputer": 1177,
    "Ġcompanies": 14558,
    "intern": 23739,
    "suggest": 20379,
    "ighted": 8478,
    "Ġshortened": 23484,
    "Ġseal": 10258,
    "Ġrecovering": 11864,
    "don": 3544,
    "rer": 3623,
    "commanded": 16989,
    "ivers": 1985,
    "Ġpedest": 15068,
    "ille": 9221,
    "record": 16922,
    "Ġunfit": 14789,
    "Ġembal": 11906,
    "N": 50,
    "Ġbred": 9171,
    "Ġvor": 15809,
    "Ġevanesc": 24295,
    "Ġapril": 13665,
    "Ġproposed": 7459,
    "Ġwoods": 5406,
    "organic": 25947,
    "infor": 2835,
    "Ġunst": 18239,
    "Ġrichest": 26213,
    "Ġgovernments": 20270,
    "probability": 17023,
    "Ġbrooded": 23108,
    "Ġsullenly": 17174,
    "Ġbeheaded": 11658,
    "Ġphenomena": 21488,
    "Ġwhar": 7387,
    "Ġacted": 7421,
    "draw": 23903,
    "Ġthread": 14540,
    "child": 5537,
    "Ġhay": 11607,
    "azed": 9401,
    "Ġbliss": 13005,
    "pretend": 24883,
    "Ġdigest": 24648,
    "Ġbefitting": 15729,
    "ientiously": 21946,
    "Ġsports": 18309,
    "Ġframe": 1849,
    "Ġpicturesqueness": 24479,
    "Ġpossibilities": 18978,
    "Ġfict": 21408,
    "Ġlimber": 16480,
    "cain": 15328,
    "Ġmachinery": 20488,
    "Ġlimit": 10444,
    "Ġconsulting": 13432,
    "Ġpleated": 16299,
    "Ġgroves": 16741,
    "Ġfew": 1211,
    "sorrows": 17322,
    "Ġmccauley": 26428,
    "Ġgirls": 4281,
    "cra": 6355,
    "Ġboon": 22641,
    "Ġlizz": 21561,
    "Ġjuggl": 20441,
    "Ġsquares": 11170,
    "Ġselfish": 7271,
    "entary": 21571,
    "throne": 25658,
    "mund": 13760,
    "Ġdon": 1614,
    "copy": 5133,
    "Ġtw": 841,
    "Ġonly": 788,
    "Ġsteering": 10389,
    "Ġparametric": 2394,
    "Ġunabated": 15855,
    "Ġdoomed": 11343,
    "Ġbelt": 13007,
    "Ġunprofitable": 18268,
    "Ġpurplish": 19142,
    "Ġbesee": 19244,
    "proves": 23397,
    ":": 30,
    "rue": 1129,
    "Ġtone": 4039,
    "Ġresign": 18565,
    "irably": 13299,
    "deserted": 19344,
    "ources": 2791,
    "Ġdownstream": 3773,
    "Ġpack": 5444,
    "Ġpray": 3898,
    "Ġvigour": 24461,
    "Ġneglect": 7943,
    "Ġshrouds": 11345,
    "bbed": 6910,
    "Ġwaned": 17793,
    "Ġquit": 5247,
    "Ġhunters": 6301,
    "uberance": 25917,
    "Ġspasmodically": 17316,
    "Ġdisordered": 16058,
    "Ġexp": 779,
    "caught": 8730,
    "Ġcheapside": 23292,
    "iors": 9127,
    "theast": 21753,
    "estim": 14171,
    "Ġmitigating": 1619,
    "excepting": 19709,
    "Ġcontradictory": 20400,
    "Ġriding": 14096,
    "emporary": 15801,
    "Ġportra": 9011,
    "Ġdreadful": 4921,
    "piteous": 21036,
    "Ġcontention": 22431,
    "Ġconfidently": 24960,
    "cocks": 23562,
    "Ġtable": 2499,
    "Ġfabric": 25948,
    "Ġorgan": 2502,
    "Ġspy": 22124,
    "zening": 21151,
    "!--": 10679,
    "Ġspeaker": 19150,
    "Ġfresh": 3670,
    "Ġdiscrimination": 23607,
    "Ġanoint": 25538,
    "Ġuntidy": 23526,
    "Ġnat": 12649,
    "Ġtied": 7356,
    "Ġbeer": 10221,
    "following": 10574,
    "Ġtides": 13823,
    "clam": 13059,
    "doom": 23380,
    "oors": 17621,
    "honorable": 19903,
    "Ġimprove": 1838,
    "dec": 3115,
    "Ġmarvellous": 7537,
    "Ġcomprehend": 6494,
    "Ġboasting": 19939,
    "Ġdisdain": 8361,
    "Ġacre": 22685,
    "Ġplanets": 24059,
    "Ġvectors": 1772,
    "Ġstabbing": 20306,
    "Ġmadness": 6602,
    "Ġseconds": 16393,
    "Ġbleeds": 24396,
    "Ġprodigies": 19796,
    "Ġfaulty": 14909,
    "sleep": 6511,
    "walked": 10572,
    "venant": 22629,
    "Ġstrife": 18614,
    "lue": 8510,
    "Ġagency": 11809,
    "exclaimed": 11793,
    "Ġdetestation": 17129,
    "adier": 18092,
    "_.âĢĿ": 5887,
    "Ġsecret": 3720,
    "ancing": 1759,
    "Ġindispensable": 11903,
    "Ġadvise": 7937,
    "manned": 18765,
    "Ġnarrated": 14873,
    "consid": 4925,
    "Ġperennial": 22698,
    "brilliancy": 26078,
    "Ġafforded": 8030,
    "ivil": 6411,
    "ined": 1261,
    "etent": 10201,
    "dance": 17520,
    "Ġseaman": 8642,
    "library": 13003,
    "Ġprofund": 13156,
    "Ġdeclaring": 19423,
    "Ġhorses": 6385,
    "casks": 20406,
    "Ġswung": 6449,
    "urements": 18126,
    "Ġpity": 4941,
    "brous": 19201,
    "Ġdescried": 7921,
    "aching": 5832,
    "Ġalche": 21788,
    "Ġmedd": 15542,
    "cheer": 9439,
    "Ġphilosophical": 26336,
    "Ġelab": 22646,
    "Ġbrain": 2089,
    "stay": 9683,
    "Ġha": 400,
    "'": 11,
    "robe": 15645,
    "ksome": 10106,
    "gaze": 17558,
    "nament": 11508,
    "Ġget": 1624,
    "Ġpon": 10177,
    "slide": 24555,
    "pyramid": 21032,
    "Ġbefriend": 18084,
    "Ġfinding": 3267,
    "====": 1483,
    "Ġreligions": 20111,
    "magistrate": 19865,
    "reduc": 5459,
    "Ġrattler": 25000,
    "gether": 1594,
    "Ġunch": 18240,
    "Ġprairies": 20024,
    "Ġelucidated": 26030,
    "Ġbattery": 21397,
    "acquired": 24297,
    "amongst": 24673,
    "Ġencomp": 12967,
    "Ġinsular": 19270,
    "Ġpumping": 25644,
    "Ġtitle": 11409,
    "Ġceler": 15554,
    "Ġparchment": 13655,
    "Ġsoliloquized": 17304,
    "underneath": 23791,
    "Ġmythologies": 26215,
    "rels": 6666,
    "speckled": 23948,
    "summit": 23420,
    "appro": 7045,
    "Ġwarden": 17226,
    "Ġpiteous": 17920,
    "tan": 4743,
    "pron": 9008,
    "Ġgleam": 12311,
    "complet": 11384,
    "Ġtranquilly": 12293,
    "Ġlouis": 8358,
    "entle": 1740,
    "rael": 21633,
    "Ġinsol": 10182,
    "Ġsolutions": 1948,
    "ckled": 9259,
    "Ġguarded": 9828,
    "Ġglasses": 9477,
    "Ġducks": 25161,
    "Ġunsolved": 22038,
    "guest": 19485,
    "Ġimplac": 24875,
    "Ġattempts": 10492,
    "peasant": 23115,
    "nursery": 26400,
    "h": 76,
    "Ġpeev": 22697,
    "hate": 20894,
    "ghost": 20889,
    "Ġindolence": 16231,
    "Ġreduced": 11927,
    "Ġadorn": 12796,
    "relics": 24018,
    "Ġthrew": 3972,
    "cadence": 26126,
    "Ġinsignificant": 20459,
    "Ġsun": 1722,
    "Ġ38": 24080,
    "Ġvoice": 2189,
    "soon": 4028,
    "law": 6116,
    "Ġequality": 16361,
    "Ġ113": 19699,
    "iet": 1775,
    "osop": 4406,
    "charitable": 23936,
    "Ġaerial": 21201,
    "Ġhated": 7584,
    "forgotten": 12419,
    "Ġglad": 3326,
    "Ġabsolut": 3909,
    "Ġpermanently": 25474,
    "Ġimagined": 8610,
    "Ġdaintiest": 25954,
    "Ġlicensing": 20096,
    "Ġphant": 7056,
    "Ġunh": 9255,
    "Ġattachment": 6051,
    "vii": 13151,
    "Ġuncivilized": 25499,
    "Ġdrawling": 19440,
    "concerns": 24583,
    "owl": 12687,
    "orum": 12594,
    "Ġcondescend": 19958,
    "Ġrider": 24187,
    "masterly": 24529,
    "monograph": 23529,
    "utch": 21590,
    "watches": 14949,
    "Ġcondition": 6764,
    "away": 4627,
    "Ġdiscipl": 22788,
    "Ġoutrid": 22320,
    "Ġflannel": 26578,
    "Ġappeared": 2777,
    "Ġunfortunate": 5376,
    "endless": 22229,
    "hampshire": 23268,
    "Ġexclude": 19043,
    "Ġburglar": 17356,
    "plun": 15818,
    "Ġw": 272,
    "Ġcircumference": 13547,
    "fully": 2201,
    "Ġshrouded": 14971,
    "Ġoutlast": 22318,
    "Ġaccounting": 14574,
    "Ġpy": 21455,
    "Ġconsider": 2568,
    "reception": 15516,
    "circ": 4390,
    "Ġjabez": 11769,
    "Ġfrequent": 3288,
    "Ġmock": 3691,
    "Ġmistakes": 16542,
    "Ġsorely": 17258,
    "stealthily": 23965,
    "Ġrevolutionized": 3366,
    "Ġjuggling": 20442,
    "Ġsalt": 8018,
    "Ġfunctional": 3050,
    "movable": 14326,
    "Ġbanking": 19633,
    "Ġbraced": 16581,
    "Ġmartyr": 26362,
    "Ġdepose": 22599,
    "phur": 16153,
    "í": 174,
    "Ġsenseless": 12082,
    "thank": 4950,
    "humiliation": 24024,
    "flames": 14714,
    "Ġpleadings": 25854,
    "Ġpronouncing": 16970,
    "Ġcrosswise": 18889,
    "Ġunprejudiced": 18270,
    "Ġdespise": 14667,
    "Ġsell": 7826,
    "Ġtun": 6000,
    "complied": 19915,
    "Ġweights": 898,
    "Ġroughly": 17040,
    "Ġ(âĢľ": 15998,
    "abode": 21796,
    "Ġinspired": 2518,
    "Ġworsh": 13004,
    "Ġconquest": 15751,
    "Ġvexed": 9996,
    "Ġm": 274,
    "Ġgrowl": 16539,
    "heav": 5694,
    "Ġinte": 2066,
    "Ġarchly": 22768,
    "Ġpang": 15608,
    "min": 4572,
    "Ġintegration": 9870,
    "exceedingly": 9568,
    "Ġmute": 19419,
    "adm": 7608,
    "pad": 13770,
    "before": 3117,
    "Ġaperture": 26161,
    "ougher": 18276,
    "Ġgnarled": 25169,
    "murderers": 25728,
    "Ġpensive": 21479,
    "Ġsuppl": 11079,
    "Ġcryst": 9919,
    "Ġcorporeally": 25729,
    "pherd": 13647,
    "Ġshared": 10265,
    "properly": 24919,
    "Ġtrack": 7449,
    "Ġcomplained": 16999,
    "Ġtol": 6676,
    "Ġparadigms": 3059,
    "Ġezekiel": 26194,
    "lay": 5892,
    "Ġindependent": 9018,
    "interests": 19711,
    "Ġcre": 889,
    "Ġsolution": 9807,
    "Ġendangered": 16305,
    "Ġexcell": 10418,
    "Ġheadlands": 22904,
    "Ġnaturalist": 22901,
    "Ġmusical": 23896,
    "Ġcum": 21345,
    "Ġwra": 5907,
    "dict": 15340,
    "Ġargument": 7099,
    "hom": 12477,
    "Ġsinusoidal": 4802,
    "Ġhaven": 8475,
    "chari": 21693,
    "appalling": 22849,
    "answer": 11735,
    "alice": 3212,
    "Ġguard": 6180,
    "Ġperse": 6273,
    "possessed": 9530,
    "Ġsentiment": 6590,
    "Ġinfluences": 14867,
    "inished": 17735,
    "ung": 2746,
    "op": 658,
    "Ġreceived": 2954,
    "killed": 15379,
    "Ġexploitation": 2346,
    "Ġdone": 1818,
    "Ġamaze": 22488,
    "imaux": 21716,
    "Ġgaped": 13969,
    "Ġcontradicted": 20214,
    "trem": 17682,
    "Ġbelrive": 18832,
    "Ġalarm": 4047,
    "Ġsubjects": 7073,
    "officers": 10629,
    "nlp": 8754,
    "Ġsolemnity": 9943,
    "Ġingrat": 16841,
    "Ġrespected": 11957,
    "ppo": 18178,
    "Ġinsurmountable": 16533,
    "Ġremonstr": 16165,
    "Ġamiss": 18513,
    "Ġpruning": 18971,
    "Ġdistinguishing": 16498,
    "cnns": 3622,
    "plexion": 14263,
    "ologist": 22868,
    "uten": 11624,
    "asiness": 8130,
    "Ġvillainous": 25134,
    "phren": 22771,
    "scr": 16244,
    "Ġtang": 13816,
    "Ġlakes": 8132,
    "Ġserpents": 13080,
    "Ġeber": 18006,
    "writ": 16555,
    "Ġgeneralize": 3103,
    "Ġmorals": 22976,
    "Ġfin": 1461,
    "clu": 20801,
    "Ġconverts": 2807,
    "judges": 19576,
    "Ġdexterity": 25295,
    "deemed": 18316,
    "Ġclergy": 7642,
    "Ġreck": 6538,
    "Ġyawned": 15053,
    "Ġkeels": 11062,
    "exposure": 19258,
    "hood": 2658,
    "birth": 15324,
    "Ġextent": 7655,
    "mount": 9131,
    "Ġess": 5691,
    "Ġimpossibility": 20649,
    "Ġ133": 24782,
    "nearly": 8684,
    "raged": 9213,
    "Ġpreface": 18368,
    "avor": 14278,
    "arranted": 19322,
    "Ġallowance": 14391,
    "Ġbordering": 17230,
    "Ġgirl": 3089,
    "Ġinsomuch": 23686,
    "opened": 7915,
    "nets": 9134,
    "Ġmonsters": 11075,
    "bourn": 3302,
    "pacing": 21023,
    "Ġempires": 19075,
    "Ġwaterproof": 19090,
    "Ġthat": 335,
    "Ġmoves": 14233,
    "Ġviv": 6157,
    "Ġpotential": 3620,
    "Ġelevation": 14899,
    "Ġbarbs": 10533,
    "Ġqueens": 16704,
    "Ġshadows": 8014,
    "Ġchat": 6561,
    "Ġintelligently": 4062,
    "onted": 11569,
    "Ġlungless": 24864,
    "persuade": 13535,
    "Ġrestraint": 15130,
    "Ġiv": 4044,
    "Ġatom": 18193,
    "Ġtantamount": 25626,
    "Ġdirectors": 18923,
    "Ġyanke": 18100,
    "outside": 12808,
    "knight": 20942,
    "Ġwaggish": 25435,
    "lift": 15387,
    "Ġwarbling": 26169,
    "Ġtending": 17725,
    "collar": 19330,
    "ott": 1873,
    "Ġcure": 21343,
    "ice": 590,
    "Ġsinister": 8571,
    "Ġexisting": 12722,
    "hangs": 15371,
    "ready": 2359,
    "omics": 21647,
    "Ġcurios": 18859,
    "Ġdidn": 4364,
    "Ġrattled": 15071,
    "Ġseventeen": 26212,
    "Ġdug": 21434,
    "iloqu": 11650,
    "Ġborrow": 10172,
    "Ġsuits": 22087,
    "Ġteeth": 4168,
    "Ġluc": 3311,
    "ability": 715,
    "asher": 15649,
    "Ġclearly": 6896,
    "conducted": 25573,
    "Ġuncommonly": 7760,
    "Ġprocessions": 18434,
    "Ġimpropri": 14217,
    "Ġtranced": 18433,
    "Ġsurvive": 9069,
    "bantering": 25254,
    "inquiry": 15145,
    "ines": 677,
    "twenty": 6608,
    "prove": 11148,
    "Ġgpus": 3732,
    "Ġeverything": 3157,
    "bitterly": 20340,
    "rating": 7809,
    "Ġwait": 4908,
    "Ġassisted": 11112,
    "Ġprotested": 9936,
    "Ġintellect": 8171,
    "eties": 10838,
    "ith": 330,
    "Ġbedfellows": 23448,
    "agation": 1241,
    "Ġheartless": 13076,
    "express": 4896,
    "istence": 2208,
    "chose": 18043,
    "Ġfunctions": 1342,
    "designated": 26320,
    "luyt": 18455,
    "Ġflag": 7241,
    "thes": 7390,
    "Ġoath": 7834,
    "Ġspectacle": 10498,
    "Ġreported": 11982,
    "Ġ63": 24365,
    "eded": 9675,
    "Ġrevenue": 26196,
    "Ġoffending": 22747,
    "bank": 10081,
    "Ġrazor": 22655,
    "plifted": 9712,
    "articulate": 17400,
    "Y": 61,
    "nails": 17615,
    "Ġblind": 3716,
    "despair": 8345,
    "Ġ150": 22830,
    "Ġmich": 21308,
    "Ġgrooves": 16742,
    "Ġnecessary": 4474,
    "conceive": 16032,
    "unfearing": 21897,
    "Ġlake": 5227,
    "sed": 4178,
    "returned": 7766,
    "Ġbennett": 16326,
    "Ġapp": 494,
    "imprudence": 16559,
    "succeeded": 15178,
    "passage": 11262,
    "Ġwrithing": 11949,
    "Ġtail": 3092,
    "Ġgree": 7594,
    "alling": 6038,
    "Ġcorrected": 10449,
    "Ġslender": 11943,
    "Ġexclusiveness": 23931,
    ".*": 7330,
    "rol": 5713,
    "Ġcompanions": 5866,
    "um": 454,
    "icilian": 20694,
    "warp": 17707,
    "Ġpals": 13920,
    "ene": 2169,
    "Ġinvented": 17037,
    "Ġramadan": 9577,
    "used": 3262,
    "Ġexceeding": 1579,
    "obey": 11511,
    "Ġdisabled": 18562,
    "nib": 5214,
    "reshold": 21242,
    "Ġspangled": 22136,
    "Ġleaves": 5021,
    "¡": 99,
    "Ġcreativity": 3192,
    "Ġwife": 2587,
    "ued": 7560,
    "Ġdoesn": 7437,
    "Ġprimitive": 25064,
    "Ġretired": 6072,
    "shout": 22452,
    "or": 282,
    "aract": 17896,
    "ained": 3067,
    "Ġprotracted": 19472,
    "Ġtwisted": 7227,
    "Ġgreenwich": 19323,
    "Ġlunch": 13528,
    "convenient": 12241,
    "Ġoar": 6237,
    "Ġmoby": 3665,
    "Ġbucket": 8791,
    "cceed": 4144,
    "Ġincurable": 22557,
    "Ġsplashed": 23751,
    "Ġstre": 2109,
    "Ġrunning": 3951,
    "Ġfalse": 4345,
    "Ġwavering": 23284,
    "Ġbuttoning": 17237,
    "entieth": 17981,
    "snap": 24849,
    "de": 460,
    "Ġchoosing": 19593,
    "Ġconven": 6152,
    "Ġagonies": 14253,
    "ignation": 11129,
    "Ġskilful": 25839,
    "involuntarily": 20418,
    "Ġmeet": 2806,
    "Ġrepentance": 15163,
    "Ġencodings": 4776,
    "Ġunf": 4089,
    "Ġdegener": 14050,
    "Ġfrivolous": 26177,
    "conven": 6163,
    "Ġpointed": 4774,
    "rapt": 13975,
    "doc": 23379,
    "ship": 1392,
    "Ġrud": 8479,
    "Ġtrain": 515,
    "aux": 14292,
    "Ġluxuries": 25167,
    "Ġclap": 10958,
    "Ġhonour": 3922,
    "Ġscotland": 6641,
    "Ġgruff": 21618,
    "âĢĶâĢĿ": 3300,
    "Ġwrecked": 9968,
    "Ġshipwrecked": 25688,
    "pen": 1202,
    "Ġapologize": 15131,
    "Ġloite": 22116,
    "Ġconjecture": 9534,
    "Ġdeified": 18140,
    "acknowled": 10975,
    "Ġadding": 2401,
    "politeness": 16907,
    "ady": 997,
    "Ġwear": 6032,
    "Ġresolve": 13173,
    "Ġchasing": 11757,
    "sure": 5522,
    "Ġirreproachable": 24918,
    "Ġexist": 9233,
    "Ġtechnical": 17193,
    "peculiar": 6885,
    "Ġdie": 3961,
    "Ġneurons": 977,
    "Ġtoll": 7853,
    "Ġbasket": 9574,
    "Ġproprietors": 20189,
    "axed": 8891,
    "atively": 2696,
    "consternation": 16913,
    "Ġvillagers": 19477,
    "Ġbarricade": 14661,
    "Ġscruple": 25051,
    "Ġgard": 2188,
    "Ġlomb": 21563,
    "Ġcorrespondent": 19825,
    "Ġstung": 21743,
    "Ġestablished": 9071,
    "Ġaim": 10147,
    "Ġburgled": 23659,
    "Ġupstairs": 5837,
    "Ġnoise": 1073,
    "jour": 20929,
    "analysis": 26174,
    "Ġrevelry": 15139,
    "respond": 12548,
    "wer": 8397,
    "woes": 21136,
    "soul": 9142,
    "Ġfloundering": 16254,
    "boots": 11127,
    "Ġconst": 1910,
    "gracechurch": 24581,
    "Ġcounters": 24142,
    "iliary": 21731,
    "money": 8753,
    "Ġcomprising": 16071,
    "Ġsquared": 1383,
    "ece": 17532,
    "Ġsolitude": 6875,
    "Ġcalcul": 3638,
    "anced": 1334,
    "renched": 7909,
    "elements": 25204,
    "ouses": 5163,
    "ve": 322,
    "distinctive": 25726,
    "Ġportents": 14680,
    "light": 3019,
    "itzerland": 9997,
    "urned": 9308,
    "Ġjem": 18403,
    "ilt": 2970,
    "igated": 15710,
    "Ġfergus": 16873,
    "Ġhumaneval": 25583,
    "inspector": 13649,
    "Ġthreatens": 24374,
    "Ġstillness": 12999,
    "Ġmemoirs": 26207,
    "Ġsultry": 20291,
    "Ġconceal": 5975,
    "Ġboot": 11842,
    "Ġdetermines": 2366,
    "royal": 11394,
    "Ġstacks": 18077,
    "rie": 2789,
    "Ġdedu": 5584,
    "Ġgrap": 11710,
    "Ġlaurel": 20656,
    "Ġlondon": 2840,
    "prison": 14664,
    "Ġrudimental": 25111,
    "absence": 12712,
    "Ġskeletons": 16792,
    "Ġreservo": 16832,
    "wic": 21123,
    "Ġdisposed": 7084,
    "Ġdeceased": 15007,
    "dron": 17526,
    "Ġringed": 16751,
    "Ġcemet": 20683,
    "cart": 10691,
    "blind": 16703,
    "Ġshelter": 17009,
    "ears": 20847,
    "trampled": 26335,
    "Ġexcellence": 11452,
    "oth": 1184,
    "nnight": 20995,
    "escript": 18470,
    "Ġcarted": 21353,
    "Ġbathing": 20202,
    "Ġrom": 4526,
    "Ġpulley": 2978,
    "thrown": 8482,
    "approached": 13488,
    "Ġpell": 21460,
    "Ġimpart": 11783,
    "Ġexploit": 19164,
    "Ġfortresses": 23623,
    "useless": 14595,
    "Ġunsupp": 22026,
    "beneath": 9537,
    "Ġshank": 22004,
    "Ġcasement": 25095,
    "Ġchin": 4892,
    "Ġimmured": 24073,
    "Ġglimp": 6067,
    "Ġunimpe": 22077,
    "Ġsleeper": 8603,
    "Ġcivil": 4680,
    "Ġpredecessor": 26255,
    "nable": 13764,
    "Ġtandem": 26412,
    "Ġindex": 17049,
    "Ġrepresentations": 1876,
    "Ġflaw": 23014,
    "Ġdismantled": 20219,
    "tier": 12518,
    "Ġemblem": 20501,
    "Ġcrowds": 14741,
    "cr": 4011,
    "Ġfaster": 3201,
    "Ġtoe": 13938,
    "Ġarticulated": 24432,
    "Ġcoiling": 12909,
    "concerned": 24584,
    "beg": 22492,
    "Ġfarm": 7841,
    "Ġjanuary": 13656,
    "Ġtrim": 15977,
    "porpoise": 16437,
    "Ġfigured": 16645,
    "Ġadmiral": 17307,
    "usal": 7638,
    "Ġanew": 11431,
    "Ġfrenchman": 11284,
    "much": 3705,
    "uing": 17694,
    "Ġscr": 11764,
    "Ġconfiding": 19040,
    "Ġrep": 1937,
    "small": 6472,
    "Ġdivergence": 2729,
    "Ġcheetah": 14504,
    "Ġspiral": 14585,
    "Ġrelics": 16198,
    "Ġpondering": 17006,
    "Ġacquit": 18899,
    "stocks": 23824,
    "instances": 13323,
    "Ġunwritten": 22039,
    "Ġiii": 7862,
    "Ġconceit": 7294,
    "Ġachieve": 3673,
    "Ġperforming": 7929,
    "Ġstables": 23660,
    "Ġselecting": 16682,
    "¦": 104,
    "Ġsecurely": 16803,
    "Ġlobsters": 13519,
    "Ġraptures": 13499,
    "Ġhasn": 12931,
    "Ġtermination": 16461,
    "Ġyoung": 1507,
    "Ġpanelled": 19657,
    "Ġgirdle": 19160,
    "Ġcanted": 17833,
    "Ġtalents": 15046,
    "Ġdenial": 13217,
    "vulgar": 25919,
    "cracy": 24691,
    "Ġwapping": 21297,
    "braid": 17496,
    "Ġposter": 14277,
    "Ġfire": 2331,
    "Ġshrubbery": 18233,
    "kindly": 14746,
    "Ġemig": 14525,
    "ouch": 2782,
    "Ġsibbald": 21233,
    "Ġswept": 7979,
    "exceeded": 25004,
    "ptic": 21929,
    "ricted": 15422,
    "Ġformless": 22831,
    "Ġmeasured": 9806,
    "Ġcontinent": 14890,
    "hen": 3518,
    "nostr": 22719,
    "Ġpursuers": 13230,
    "mar": 4337,
    "Ġbegone": 11919,
    "Ġrending": 19470,
    "Ġmerid": 13196,
    "Ġcompliance": 12118,
    "Ġopine": 19229,
    "Ġdisclose": 16159,
    "Ġcondem": 6339,
    "apparat": 22850,
    "inst": 4297,
    "Ġwondering": 7972,
    "Ġunlock": 18244,
    "forbidding": 25838,
    "Ġpromised": 5181,
    "Ġvaults": 17155,
    "Ġsocietal": 11437,
    "Ġcocksure": 26260,
    "joice": 9604,
    "Ġscor": 8192,
    "onness": 21257,
    "Ġlivel": 11356,
    "inative": 15485,
    "Ġjeopardized": 20233,
    "Ġelder": 7222,
    "Ġmeta": 3487,
    "beating": 22494,
    "Ġdeduced": 12211,
    "Ġst": 332,
    "erson": 7002,
    "://": 11466,
    "Ġvisited": 5949,
    "exciting": 19671,
    "Ġro": 599,
    "Ġlatent": 19658,
    "Ġobstacles": 19838,
    "anite": 17839,
    "(": 12,
    "relieved": 13280,
    "Ġraises": 11846,
    "erately": 21276,
    "Ġhyster": 16874,
    "thunder": 10264,
    "Ġincrease": 9372,
    "Ġcontented": 9758,
    "Ġmerit": 9429,
    "Ġmotion": 4567,
    "Ġfurnishes": 19444,
    "simply": 20673,
    "Ġliterature": 17150,
    "Ġtracing": 18892,
    "none": 6961,
    "inition": 11558,
    "Ġblameless": 19861,
    "Ġannounced": 9036,
    "Ġminute": 4280,
    "sory": 17660,
    "adventure": 17235,
    "Ġoptimal": 1856,
    "Ġhealthcare": 8017,
    "Ġbeseeching": 26312,
    "Ġgazing": 5877,
    "Ġalchemists": 26488,
    "``": 15309,
    "ments": 1402,
    "step": 2457,
    "Ġfurious": 10356,
    "Ġcrystal": 17216,
    "result": 12047,
    "alleled": 14431,
    "splash": 25210,
    "Ġresided": 11814,
    "cription": 20820,
    "Ġunclasp": 26512,
    "Ġblankets": 24613,
    "willingness": 24754,
    "nd": 11505,
    "mother": 5480,
    "cigar": 26125,
    "Ġexclaimed": 4684,
    "Ġopens": 23629,
    "Ġconsequence": 5541,
    "norm": 20987,
    "Ġmac": 15541,
    "cupboards": 25402,
    "Ġpaying": 9940,
    "Ġannoyed": 17201,
    "Ġembarr": 7445,
    "rential": 22922,
    "Ġtrampled": 20331,
    "Ġcivilly": 19606,
    "Ġnumerous": 6919,
    "Ġbreat": 3460,
    "Ġinsatiate": 19272,
    "Ġgrenadier": 21620,
    "Ġdismay": 11812,
    "ish": 550,
    "Ġsuccession": 12105,
    "ructed": 7030,
    "Ġtragedy": 10669,
    "station": 10845,
    "Ġkings": 7196,
    "ription": 5676,
    "Ġwinking": 17795,
    "Ġsteeply": 23726,
    "moid": 2451,
    "Ġshelves": 14999,
    "Ġderived": 8240,
    "cav": 17509,
    "Ġuneasily": 24232,
    "Ġimpetus": 25570,
    "rossed": 11014,
    "racts": 14358,
    "Ġstreet": 2960,
    "opement": 10313,
    "stretched": 10209,
    "Ġbrand": 16189,
    "clings": 23156,
    "Ġgums": 21615,
    "civil": 7797,
    "Ġthimble": 15640,
    "Ġscarcity": 23830,
    "Ġaccomplice": 24375,
    "okingly": 22383,
    "Ġflexible": 23778,
    "Ġperemptorily": 17369,
    "happily": 14658,
    "tempt": 21082,
    "etch": 9206,
    "errand": 22915,
    "Ġlandlessness": 23383,
    "Ġpersevering": 20236,
    "Ġmore": 676,
    "rocious": 21543,
    "Ġaloysius": 15741,
    "Ġunho": 18246,
    "Ġilluminated": 20178,
    "soc": 5175,
    "Ġterminated": 23513,
    "Ġloving": 8177,
    "ompl": 4537,
    "Ġrevolver": 14900,
    "difference": 13710,
    "Ġvig": 5460,
    "Ġbreeding": 14523,
    "Ġcompiled": 22575,
    "Ġvain": 3630,
    "farintosh": 24552,
    "Ġ48": 24082,
    "nav": 17613,
    "Ġlimbs": 5967,
    "Ġwarmth": 6904,
    "Ġsw": 1357,
    "idered": 4554,
    "Ġomniscient": 20089,
    "find": 6953,
    "single": 10128,
    "gro": 10096,
    "Ġarithmetic": 18339,
    "Ġcordon": 24393,
    "Ġcasualties": 25513,
    "Ġimagenet": 19247,
    "Ġpencil": 11946,
    "Ġwore": 6377,
    "idav": 18095,
    "Ġfatigued": 13468,
    "Ġ1991": 3018,
    "Ġclasping": 20212,
    "Ġemerged": 8688,
    "ations": 709,
    "Ġhawsers": 26503,
    "despicable": 24639,
    "54": 15302,
    "Ġwinds": 5746,
    "Ġprophetic": 20023,
    "Ġsc": 532,
    "saf": 11526,
    "Ġgrapp": 14103,
    "Ġpleaded": 16301,
    "among": 6257,
    "Ġwhoa": 22427,
    "Ġslam": 13062,
    "ellig": 522,
    "Ġgi": 15669,
    "tied": 21073,
    "oundered": 14166,
    "didn": 9009,
    "dreams": 12340,
    "Ġmam": 8407,
    "Ġdecorum": 16023,
    "fortunate": 4793,
    "Ġzone": 14364,
    "aded": 3549,
    "Ġblast": 7444,
    "Ġmons": 10158,
    "Ġextracted": 16306,
    "Ġinconven": 7586,
    "ł": 259,
    "Ġsomehow": 4843,
    "Ġvulgarity": 25364,
    "Ġmerry": 5869,
    "Ġtendinous": 16932,
    "Ġinexperienced": 26101,
    "Ġ88": 19714,
    "Ġroarings": 25303,
    "Ġaspire": 21905,
    "Ġribbed": 16805,
    "allest": 5485,
    "Ġbraided": 16583,
    "el": 306,
    "altering": 12644,
    "paradise": 20640,
    "orange": 21403,
    "daggoo": 13709,
    "Ġscrib": 22293,
    "rably": 21637,
    "Ġomin": 11579,
    "Ġtwine": 14313,
    "Ġpiled": 8427,
    "Ġintegral": 25011,
    "Ġquestioning": 10465,
    "orse": 5807,
    "Ġmusk": 7493,
    "fact": 6359,
    "rebellum": 26166,
    "nesday": 8706,
    "wanted": 10744,
    "Ġdetect": 1248,
    "Ġskirting": 22801,
    "Ġskip": 1845,
    "Ġjustly": 11907,
    "Ġshakes": 10905,
    "Ġdeliciousness": 24127,
    "acity": 5735,
    "delighted": 10564,
    "lier": 20951,
    "Ġcopy": 10165,
    "subsided": 25832,
    "Ġuncont": 14118,
    "carried": 16713,
    "Ġshade": 6551,
    "game": 11492,
    "Ġruff": 14351,
    "glance": 16588,
    "Ġcombines": 1169,
    "wealth": 22692,
    "Ġroyal": 5601,
    "Ġin": 291,
    "vous": 2252,
    "Ġborders": 15575,
    "Ġuncommon": 5026,
    "Ġpearl": 20380,
    "Ġdominion": 16518,
    "Ġlit": 6247,
    "Ġlining": 13953,
    "Ġinhab": 5083,
    "Ġfluffy": 19367,
    "drifting": 19827,
    "Ġmadam": 5663,
    "Ġlazy": 17050,
    "orm": 425,
    "ian": 1235,
    "draught": 12094,
    "ce": 313,
    "Ġmiser": 18704,
    "says": 13303,
    "Ġstructure": 835,
    "Ġforeseeing": 23452,
    "introduction": 15126,
    "vig": 15448,
    "Ġund": 4121,
    "aut": 1912,
    "Ġinstinctively": 13462,
    "produced": 25415,
    "Ġplunged": 8696,
    "Ġprocuring": 16869,
    "hon": 6793,
    "ustration": 2259,
    "accepted": 20139,
    "Ġcelest": 9903,
    "cially": 3489,
    "Ġpref": 14173,
    "Ġhell": 5019,
    "Ġrequisition": 22667,
    "parm": 21016,
    "correct": 24482,
    "Ġsolicited": 20040,
    "throwing": 11706,
    "Ġpurpose": 2708,
    "lose": 12886,
    "Ġplu": 8802,
    "occurrences": 26333,
    "Ġbarred": 9004,
    "Ġnotwithstanding": 9716,
    "Ġsanguinary": 25930,
    "Ġfailure": 13318,
    "Ġcalmly": 7734,
    "Ġshunned": 17295,
    "Ġrooms": 5180,
    "Ġident": 2241,
    "dropped": 12266,
    "algorith": 3500,
    "Ġhes": 6251,
    "Ġsav": 3356,
    "Ġspotted": 12142,
    "til": 17672,
    "Ġheads": 3740,
    "violent": 14581,
    "Ġparent": 14646,
    "Ġrespecting": 14485,
    "ons": 708,
    "Ġmix": 7576,
    "Ġremonstrance": 20626,
    "Ġwaylaid": 22879,
    "frost": 15109,
    "Ġtwelvemonth": 12181,
    "swallowed": 14855,
    "oyed": 14365,
    "Ġaversion": 18867,
    "igin": 3656,
    "Ġannoyance": 20664,
    "/*": 10073,
    "Ġenormity": 19698,
    "Ġdissatisfied": 14258,
    "Ġloaded": 8492,
    "Ġpractised": 23342,
    "Ġrally": 21973,
    "sive": 4145,
    "Ġesquimaux": 25154,
    "Ġnautical": 17388,
    "Ġleap": 5825,
    "Ġdelusion": 18976,
    "indebted": 26159,
    "Ġterrors": 6917,
    "Ġcoun": 4180,
    "wel": 6118,
    "walks": 19724,
    "Ġforgery": 25978,
    "Ġmuttered": 7087,
    "Ġhangs": 11608,
    "Ġhorn": 6186,
    "ang": 445,
    "itud": 2934,
    "Ġgallop": 19558,
    "Ġcollectively": 19971,
    "baned": 17497,
    "Ġtrusting": 24105,
    "prosper": 19102,
    "stache": 15693,
    "Ġtranspired": 16785,
    "Ġoccasions": 7989,
    "Ġsket": 18729,
    "Ġcurves": 18857,
    "Ġseaport": 20602,
    "stump": 21657,
    "Ġgrampus": 21998,
    "Ġpaintings": 15059,
    "Ġelated": 18634,
    "Ġjenkinson": 11432,
    "Ġpercept": 14225,
    "Ġinfant": 11963,
    "Ġinspecting": 24615,
    "Ġcircumstance": 4987,
    "Ġlurk": 13386,
    "Ġdong": 17889,
    "erated": 21273,
    "Ġcasked": 24496,
    "Ġgracious": 8850,
    "Ġprivileges": 25135,
    "Ġoppressed": 11190,
    "Ġrecept": 1527,
    "Ġconsequently": 8061,
    "resses": 16156,
    "Ġsurtout": 23467,
    "Ġcous": 3436,
    "Ġheeds": 24519,
    "Ġsystemat": 18448,
    "Ġfake": 5811,
    "denial": 18718,
    "pread": 7417,
    "speed": 19412,
    "the": 334,
    "osing": 3689,
    "Ġemployment": 8632,
    "magnetic": 20555,
    "ong": 536,
    "uend": 21104,
    "cest": 12448,
    "Ġgroan": 13328,
    "Ġscuttle": 7413,
    "hark": 15368,
    "Ġhumility": 12989,
    "Ġell": 17716,
    "Ġcontraction": 16011,
    "Ġexal": 10878,
    "Ġprofessed": 14726,
    "helping": 23147,
    "thed": 8830,
    "Ġfaintly": 14917,
    "oise": 15406,
    "Ġsur": 2182,
    "Ġcomforted": 19394,
    "utely": 8133,
    "Ġemigrant": 25860,
    "appetite": 22851,
    "reds": 12754,
    "Ġscorched": 17101,
    "Ġinsens": 8278,
    "Ġgall": 4353,
    "Ġvaried": 11851,
    "Ġoutlandish": 12842,
    "Ġorigin": 4122,
    "Ġluggage": 25958,
    "Ġclapham": 17267,
    "Ġgive": 1715,
    "Ġthursday": 12648,
    "bearance": 22499,
    "Ġunob": 22020,
    "Ġsecondary": 23335,
    "olence": 10232,
    "Ġminers": 22835,
    "pans": 13772,
    "Ġcashier": 20201,
    "Ġhom": 9188,
    "agne": 21910,
    "Ġinterlude": 16073,
    "amouch": 21850,
    "Ġguitar": 16273,
    "tru": 10730,
    "promise": 12254,
    "Ġbabes": 24424,
    "Ġne": 389,
    "ck": 436,
    "goldsmith": 20150,
    "Ġclad": 12843,
    "Ġpaste": 23422,
    "Ġslipping": 13364,
    "Ġnorm": 763,
    "Ġlegs": 4917,
    "Ġcustomary": 8673,
    "Ġjetted": 24430,
    "reflections": 24734,
    "Ġcoolness": 16887,
    "Ġmartin": 25437,
    "ccess": 3186,
    "prim": 23814,
    "jur": 17579,
    "agged": 9239,
    "Ġorchard": 22099,
    "Ġjub": 22300,
    "Ġoccasionally": 5589,
    "Ġreassure": 21676,
    "Ġrefusing": 11029,
    "Ġaccorded": 24091,
    "Ġstreatham": 17451,
    "Ġchancery": 20718,
    "Ġjutting": 22306,
    "Ġscrew": 8870,
    "folio": 10548,
    "Ġvivacity": 14943,
    "Ġshadow": 5595,
    "Ġpair": 5706,
    "likeness": 19481,
    "Ġvideo": 25366,
    "iv": 433,
    "ving": 593,
    "Ġdisappearance": 9299,
    "Ġbought": 8418,
    "Ġpersever": 10005,
    "Ġberkshire": 16885,
    "securing": 19816,
    "Ġsharks": 4499,
    "Ġthickness": 13281,
    "Ġmills": 21314,
    "Ġsuperstitious": 13522,
    "aren": 10076,
    "<PAD>": 0,
    "recollected": 25348,
    "uated": 10133,
    "uth": 3020,
    "traced": 19648,
    "Ġhanged": 17927,
    "forget": 11032,
    "pos": 15412,
    "Ġaccomplishments": 13382,
    "agger": 7874,
    "Ġbeth": 9659,
    "Ġaffords": 16735,
    "cond": 1665,
    "Ġ75": 19615,
    "bears": 22495,
    "torn": 17683,
    "Ġcuba": 25098,
    "Ġdeserted": 8640,
    "Ġexpeditions": 24957,
    "waist": 13421,
    "Ġchristmas": 6923,
    "muring": 17602,
    "Ġdandy": 17894,
    "ó": 180,
    "pede": 19932,
    "Ã¦us": 14819,
    "Ġhorr": 3194,
    "Ġpervading": 20616,
    "Ġsabbee": 17257,
    "ander": 6401,
    "Ġboat": 1278,
    "Ġ85": 24459,
    "Ġstroke": 6935,
    "hering": 12818,
    "encoun": 12301,
    "Ġtenement": 23550,
    "Ġattained": 14080,
    "daylight": 19055,
    "Ġencirc": 18733,
    "Ġcontinental": 19708,
    "reclining": 20577,
    "firmly": 20283,
    "bug": 17494,
    "Ġinqu": 2967,
    "Ġfriendless": 23029,
    "Ġcru": 2824,
    "Ġremembering": 14611,
    "stubb": 6019,
    "Ġfinancier": 26584,
    "Ġattent": 4362,
    "Ġsliding": 9366,
    "uned": 21876,
    "inaw": 21186,
    "Ġrelation": 2141,
    "Ġvengeance": 5886,
    "scores": 22991,
    "Ġglimmered": 20174,
    "Ġmaintainable": 12940,
    "Ġbohemian": 17135,
    "Ġdespised": 14668,
    "sy": 2770,
    "granting": 23417,
    "Ġwidely": 8034,
    "ladder": 19787,
    "exerc": 16018,
    "Ġfierce": 7436,
    "Ġpanthe": 19656,
    "instrument": 15241,
    "Ġstrasburgh": 18615,
    "concluding": 19484,
    "housekeeping": 24102,
    "Ġodd": 6626,
    "Ġplucked": 15116,
    "gaffman": 26391,
    "Ġfinal": 5400,
    "Ġbeds": 14553,
    "Ġobey": 9521,
    "Ġsignification": 19205,
    "bod": 12440,
    "imagine": 19934,
    "Ġcherry": 16936,
    "Ġsticks": 14933,
    "Ġmonitors": 3159,
    "Ġfragments": 19021,
    "Ġexhausted": 8697,
    "Ġsnoo": 21231,
    "Ġspont": 22132,
    "Ġdiscourage": 3119,
    "Ġunacquainted": 12780,
    "Ġbillows": 7501,
    "water": 4869,
    "Ġleading": 7296,
    "mal": 6794,
    "Ġoarsmen": 7738,
    "Ġexter": 7396,
    "Ġpreliminary": 10059,
    "Ġcarrying": 6073,
    "Ġscoresby": 10463,
    "illity": 18297,
    "Ġresults": 7307,
    "more": 1031,
    "Ġvehem": 22894,
    "claim": 9837,
    "Ġexulting": 20261,
    "arling": 10815,
    "recked": 17763,
    "Ġswiftly": 5670,
    "Ġtoiled": 12646,
    "ivering": 7698,
    "rob": 5533,
    "abash": 18110,
    "bounded": 13442,
    "Ġxxxvi": 24974,
    "Ġobstructed": 24678,
    "Ġhackluyt": 25656,
    "loo": 10321,
    "Ġgodson": 23362,
    "Ġbart": 17859,
    "pressed": 6589,
    "outh": 2687,
    "Ġscotch": 12213,
    "Ġsuffocated": 20730,
    "alt": 12642,
    "Ġem": 1923,
    "uneasy": 23689,
    "interruption": 20115,
    "Ġapparently": 6778,
    "Ġsteps": 2865,
    "Ġattack": 5478,
    "Ġcapacity": 10441,
    "Ġresignation": 18567,
    "Õ": 150,
    "Ġporing": 21471,
    "Ġnap": 8812,
    "Ġlightnings": 16355,
    "bourine": 9398,
    "pockets": 16212,
    "Ġpill": 7847,
    "Ġhurst": 5581,
    "iluvian": 18063,
    "Ġsuspicions": 9481,
    "Č": 205,
    "Ġseasons": 9433,
    "Ġtheory": 5799,
    "Ġhungry": 10534,
    "Ġwaters": 3596,
    "offic": 7465,
    "rict": 8094,
    "Ġcaution": 11347,
    "stains": 11639,
    "yours": 7695,
    "Ġcarefully": 6305,
    "Ġaverted": 16259,
    "Ġmidst": 7987,
    "Ġener": 10897,
    "Ġfireplace": 13148,
    "Ġstrange": 2272,
    "Ġpartly": 6714,
    "attain": 21264,
    "december": 25559,
    "Ġord": 3735,
    "Ġpalmy": 19502,
    "Ġtravelling": 11308,
    "Ġrecommended": 8671,
    "akes": 2219,
    "bern": 20777,
    "Ġdictated": 25219,
    "Ġchis": 11753,
    "Ġ_": 840,
    "Ġpromise": 4201,
    "Ġhysterical": 26093,
    "Ġpastures": 23423,
    "Ġrecompense": 14840,
    "Ġthomson": 26455,
    "Ġdishon": 12234,
    "henry": 16627,
    "ĸ": 249,
    "retched": 3071,
    "Ġconv": 2971,
    "Ġinst": 912,
    "Ġtransport": 11279,
    "Ġdep": 740,
    "Ġcourses": 10412,
    "un": 373,
    "Ġfeelingly": 22996,
    "Ġblacksmiths": 19875,
    "Ġgir": 2256,
    "aff": 3104,
    "Ġpolitely": 8996,
    "Ġhospitable": 17059,
    "Ġproposal": 10021,
    "tuning": 1580,
    "rers": 14720,
    "crossed": 16634,
    "gratulation": 24348,
    "iners": 4937,
    "keenest": 25662,
    "Ġcoburg": 18596,
    "Ġhandsomer": 20336,
    "Ġexplaining": 15963,
    "Ġredden": 15697,
    "marching": 25753,
    "Ġpadded": 25039,
    "Ġgrasp": 4665,
    "rest": 1631,
    "Ġfastening": 16359,
    "said": 4106,
    "Ġvort": 18194,
    "crowd": 25255,
    "borean": 25744,
    "Ġcounting": 13099,
    "Ġbadly": 12135,
    "Ġunattended": 15846,
    "ateful": 5928,
    "Ġprofile": 16490,
    "Ġglistened": 20175,
    "Ġroasted": 18460,
    "Ġ-": 1945,
    "dashing": 20838,
    "Ġindifference": 6726,
    "Ġplatonian": 25121,
    "Ġyields": 19659,
    "ithing": 11651,
    "Ġdives": 17892,
    "Ġcampa": 17175,
    "vering": 15719,
    "umbent": 12093,
    "damn": 20027,
    "Ġinsensibility": 17110,
    "Ġshow": 3402,
    "Ġduplicate": 17217,
    "distrustful": 26332,
    "Ġrang": 9247,
    "oney": 3051,
    "Ġmari": 6813,
    "Ġteneriffe": 26415,
    "Ġparcels": 25466,
    "cious": 6645,
    "Ġstole": 7954,
    "behaved": 24462,
    "Ġfavourites": 16646,
    "Ġcordially": 16837,
    "tracks": 19649,
    "Ġskills": 1839,
    "?âĢĿâĢĶ": 12899,
    "Ġheading": 8937,
    "Ġbrass": 11049,
    "elves": 2158,
    "boom": 19000,
    "along": 6014,
    "autions": 20769,
    "Ġslammed": 20451,
    "Ġcrop": 10164,
    "Ġcurvature": 3574,
    "Ġers": 15462,
    "Ġbachelors": 24861,
    "Ġtoiling": 15638,
    "isis": 12583,
    "olic": 14044,
    "Ġdrawer": 13270,
    "Ġfatally": 19397,
    "Ġstarboard": 7604,
    "Ġtreat": 3179,
    "hit": 20891,
    "without": 4848,
    "Ġvinegar": 20103,
    "Ġinvolved": 8925,
    "Ġsettles": 22924,
    "Ġpuzzled": 7316,
    "Ġkate": 15908,
    "Ġweld": 8113,
    "ishes": 6523,
    "Ġtyphoons": 20237,
    "Ġbas": 6380,
    "Ġdisappointed": 7098,
    "Ġsplin": 8622,
    "widows": 25345,
    "Ġmistake": 6204,
    "ann": 5803,
    "problems": 11435,
    "Ġtranslation": 3090,
    "executed": 25740,
    "example": 16016,
    "night": 2168,
    "Ġundertaken": 18988,
    "Ġ6": 5141,
    "riot": 18184,
    "Ġborne": 6352,
    "wharf": 20609,
    "Ġworse": 4720,
    "ird": 2427,
    "Ġjuly": 17238,
    "Ġshrieks": 12203,
    "Ġinfluence": 5515,
    "Ġperil": 5556,
    "Ġdishonoured": 20394,
    "ishnoo": 10956,
    "æ": 167,
    "Ġwriggling": 15260,
    "Ġorphan": 12386,
    "Ġshortly": 6197,
    "Ġrh": 9246,
    "oline": 6833,
    "clear": 9026,
    "Ġinvoluntary": 18764,
    "Ġamendment": 26025,
    "shriek": 20523,
    "infallibly": 26418,
    "illustration": 2281,
    "Ġstepdaughter": 22621,
    "Ġattacks": 12208,
    "Ġmig": 13858,
    "Ġformer": 3323,
    "Ġunrest": 11717,
    "omely": 21643,
    "Ġselling": 21227,
    "musical": 25341,
    "Ġsailing": 5324,
    "entered": 8818,
    "oused": 6557,
    "shed": 8096,
    "Ġhears": 8140,
    "yourself": 6743,
    "Ġdeemed": 7612,
    "riages": 10244,
    "Ġarbit": 4652,
    "Ġmutineer": 19421,
    "Ġsord": 21222,
    "âĢĻ": 378,
    "Ġdivided": 8635,
    "ounder": 11747,
    "acid": 11007,
    "Ġfritters": 23260,
    "assault": 22311,
    "Ġshoals": 13137,
    "Ġsurely": 6308,
    "Ġinno": 1354,
    "Ġpoison": 7218,
    "varying": 13806,
    "completed": 19997,
    "Ġblackness": 9395,
    "Ġevening": 2652,
    "Ġinch": 7851,
    "Ġspear": 9316,
    "takes": 21079,
    "Ġcaught": 3730,
    "lorious": 17593,
    "Ġtalking": 3856,
    "Ġparaph": 22142,
    "Ġraving": 16115,
    "engagements": 25855,
    "O": 51,
    "Ġunlikely": 10909,
    "perth": 22190,
    "Ġpricking": 23221,
    "Ġ122": 24466,
    "Ġbounty": 26438,
    "zed": 8105,
    "Ġconvers": 2909,
    "hercules": 22210,
    "trial": 20353,
    "Ġre": 317,
    "Ġfact": 1729,
    "Ġmundane": 26430,
    "Ġactivations": 2719,
    "apes": 9743,
    "Ġbund": 17865,
    "Ġgoney": 14546,
    "pleasure": 5979,
    "amed": 4449,
    "Ġlik": 2522,
    "dressing": 11483,
    "publ": 17639,
    "Ġmoluccas": 25630,
    "Ġdenny": 9003,
    "extinguish": 22778,
    "Ġeloquence": 11845,
    "ib": 1232,
    "Ġconfinement": 19041,
    "Ġaccordance": 19501,
    "Ġsailor": 3536,
    "isive": 10794,
    "Ġcobweb": 22588,
    "form": 498,
    "residence": 19264,
    "Ġcomplement": 23712,
    "discrimin": 19611,
    "Ġgraces": 18226,
    "Ġtransparen": 10543,
    "shire": 3023,
    "Ġrestored": 7067,
    "Ġstraight": 3702,
    "rannical": 26402,
    "allowance": 16825,
    "Ġallegor": 25546,
    "Ġconstable": 19068,
    "Ġsorrows": 13358,
    "Ġshark": 5549,
    "Ġcaravan": 26292,
    "Ġsquat": 14370,
    "Ġloosened": 26003,
    "Ġsill": 10766,
    "Ġlifelessly": 23054,
    "Ġappearance": 3699,
    "Ġperceptibly": 25822,
    "Ġcanaller": 25468,
    "Ġugly": 8719,
    "Ġrationally": 18214,
    "letons": 14613,
    "sole": 6169,
    "Ġ181": 23899,
    "Ġbats": 13902,
    "iration": 4541,
    "Ġnose": 4404,
    "Ġbeings": 2489,
    "thinness": 25811,
    "²": 115,
    "Ġclear": 1950,
    "Ġcomposition": 1689,
    "Ġcurled": 8228,
    "mitted": 5213,
    "Ġtoward": 17949,
    "Ġembod": 14413,
    "Ġwhirlpool": 20657,
    "!âĢĻâĢĿ": 16593,
    "bearing": 9767,
    "aces": 2069,
    "Ġgeorge": 3748,
    "Ġ2026": 12338,
    "dig": 4930,
    "disappo": 8986,
    "Ġprayers": 12127,
    "presents": 18799,
    "Ġcommence": 6168,
    "crow": 9592,
    "Ġclapping": 14204,
    "Ġtumble": 16880,
    "Ġbetrayed": 9563,
    "Ġelegance": 11333,
    "untering": 15779,
    "Ġstall": 12700,
    "solely": 19819,
    "Ġnorthwards": 19549,
    "iers": 5992,
    "warnings": 20354,
    "Ġshears": 18320,
    "Ġliveliness": 13646,
    "mas": 5212,
    "Ġblan": 18818,
    "f": 74,
    "sens": 8097,
    "Ġstumped": 24945,
    "house": 4077,
    "courage": 17511,
    "Ġhob": 12633,
    "Ġmishap": 20579,
    "alot": 15629,
    "aze": 10077,
    "Ġeel": 18004,
    "iosity": 2434,
    "ne": 644,
    "Ġbaling": 17861,
    "stopping": 19353,
    "Ġbruited": 25774,
    "uttermost": 24943,
    "Ġdealer": 23980,
    "Ġcleared": 6076,
    "guarded": 13298,
    "Ġboa": 22639,
    "Ġele": 1965,
    "Ġdiscre": 2416,
    "Ġhanging": 5447,
    "Ġstranger": 3483,
    "Ġward": 10157,
    "Ġprepare": 8650,
    "together": 3556,
    "Ġunqualified": 22066,
    "Ġbecoming": 4399,
    "instr": 12535,
    "Ġprophets": 20453,
    "fred": 20857,
    "ĠâĢĶâĢĶ": 25758,
    "Ġprominence": 18956,
    "accompan": 11453,
    "Ġfill": 5701,
    "Ġalpine": 18108,
    "Ġmasoned": 20254,
    "Ġere": 3685,
    "Ġcompact": 2262,
    "ersed": 10261,
    "Ġelopement": 10331,
    "Ġrefres": 14344,
    "clock": 3932,
    "Ġklan": 23665,
    "Ġfitzwilliam": 5771,
    "Ġspades": 12799,
    "code": 15331,
    "until": 6597,
    "er": 269,
    "Ġdesolation": 12272,
    "Ġantip": 24179,
    "Ġobserve": 4672,
    "grees": 20888,
    "vings": 9753,
    "Ġangular": 19209,
    "Ġsurging": 19135,
    "Ġaltitude": 26204,
    "ske": 13784,
    "Ġpurse": 12013,
    ",âĢĶâĢľ": 10072,
    "bestow": 16930,
    "Ġprettier": 23768,
    "sper": 4436,
    "Ġinclud": 1512,
    "cloth": 11940,
    "Ġallowed": 4058,
    "Ġunmolested": 15248,
    "orus": 10802,
    "Ġparadise": 11196,
    "Ġportable": 19373,
    "allah": 5839,
    "Ġbeautifully": 13271,
    "Ġhappiest": 11885,
    "umbs": 14691,
    "pression": 10408,
    "Ġenvironmental": 24140,
    "Ġvehemently": 26040,
    "ume": 4837,
    "Ġgurglings": 26466,
    "Ġsnatching": 10473,
    "Ġelbowed": 16112,
    "Ġ(`": 12856,
    "Ġimplies": 24874,
    "Ġdefinite": 11070,
    "Ġvenetian": 14849,
    "Ġcomprehens": 8321,
    "orrah": 17877,
    "Ġentity": 10344,
    "Ġcolon": 18768,
    "tranquillity": 20549,
    "Ġwin": 9643,
    "Ġshrieking": 24757,
    "warmly": 25029,
    "Ġconfederate": 17355,
    "Ġcrouched": 23442,
    "Ġdisturb": 7108,
    "Ă": 195,
    "Ġexpose": 10329,
    "Ġexceedingly": 4616,
    "Ġperiod": 4002,
    "Ġstamped": 13529,
    "vult": 21116,
    "lacing": 17591,
    "angu": 569,
    "oura": 1061,
    "Ġgaff": 17996,
    "Ġgobern": 22430,
    "Ġadoration": 18293,
    "saddest": 25528,
    "Ġlively": 5449,
    "Ġvicissitudes": 12422,
    "Ġsquare": 2395,
    "Ġlowerings": 23649,
    "Ġsteepest": 3091,
    "âĢĿ]": 21820,
    "Ġone": 568,
    "Ġknife": 7308,
    "remarkable": 13500,
    "Ġwhaleman": 4656,
    "Ġjingling": 26018,
    "Ġgaily": 16749,
    "foundation": 16716,
    "Ġsubl": 7234,
    "Ġsoldier": 16921,
    "Ġgem": 21598,
    "Ġtunes": 24621,
    "andy": 8159,
    "alty": 17941,
    "Ġendeavours": 8621,
    "Ġobstinate": 11337,
    "exertion": 16019,
    "Ġmortified": 14696,
    "Ġkuiperai": 10936,
    "somehow": 12014,
    "Ġreasons": 6021,
    "but": 591,
    "Ġgenerously": 22397,
    "Ġdefence": 11068,
    "ipped": 5790,
    "Ġdisown": 22529,
    "Ġnights": 7257,
    "preserving": 25305,
    "Ġhudson": 15194,
    "Ġlavater": 20499,
    "Ġansw": 2203,
    "Ġhorribly": 16345,
    "Ġbrahma": 26321,
    "Ġelud": 22647,
    "Ġcapacious": 19178,
    "superior": 9527,
    "Ġrocked": 12860,
    "Ġchief": 3381,
    "posterity": 25489,
    "Ġhud": 10823,
    "Ġintroduce": 3208,
    "Ġharder": 14451,
    "eronomy": 15527,
    "Ġequin": 14496,
    "Ġclerval": 4655,
    "Ġtake": 1577,
    "bingleys": 19637,
    "Ġtumb": 21172,
    "Ġviolation": 23409,
    "Ġhundreds": 4330,
    "Ġacceler": 1609,
    "cast": 2931,
    "Ġfulfil": 9553,
    "Ġcommissionaire": 17001,
    "Ġpoverty": 9306,
    "Ġrespectfully": 18996,
    "Ġpledged": 20690,
    "arrival": 15603,
    "phantoms": 24680,
    "Ġwednesday": 9086,
    "Ġisland": 4048,
    "Ġconveniences": 19815,
    "Ġ1825": 25719,
    "Ġbreaking": 6311,
    "Ġlikewise": 5386,
    "Ġnetwork": 451,
    "fol": 4863,
    "Ġbeats": 21757,
    "darker": 24512,
    "Ġstature": 10864,
    "written": 7996,
    "Ġto": 297,
    "Ġhands": 1666,
    "Ġconge": 15749,
    "Ġendeavored": 19304,
    "uss": 8767,
    "Ġanimal": 2498,
    "Ġinward": 11609,
    "introduce": 25187,
    "girdling": 26390,
    "Ġtrees": 4205,
    "Ġcognitive": 13637,
    "Ġcooking": 16648,
    "Ġinflict": 15002,
    "hibited": 17429,
    "Ě": 219,
    "Ġstar": 6024,
    "Ġreser": 5170,
    "iscreet": 20685,
    "Ġwhis": 3505,
    "Ġphilosophers": 10553,
    "blacksmith": 17002,
    "shoe": 14969,
    "ounted": 5030,
    "Ġwarmup": 3921,
    "ression": 3406,
    "conc": 3946,
    "Ġsuavely": 26524,
    "Ġimplements": 2485,
    "Ġrenewed": 9540,
    "hauled": 20671,
    "rice": 13779,
    "Ġstrained": 10220,
    "sailors": 9924,
    "Ġaccumulation": 2693,
    "secre": 18129,
    "Ġsp": 456,
    "indian": 11781,
    "Ġpir": 6817,
    "Ġclink": 22351,
    "Ġrambled": 20171,
    "Ġack": 5621,
    "ado": 11660,
    "Ġvowed": 14086,
    "Ġwarp": 8114,
    "seaman": 25458,
    "Ġsurpassing": 20471,
    "rev": 17757,
    "dances": 17522,
    "Ġreadiness": 13054,
    "Ġdiligent": 25078,
    "Ġeloquent": 16113,
    "Ġfolk": 10377,
    "Ġdeactivates": 20706,
    "Ġcorpora": 26581,
    "Ġsuicide": 12792,
    "Ġcontextual": 3742,
    "Ġban": 7156,
    "Ġannals": 17900,
    "Ġcircumnavigating": 25615,
    "Ġphrenologically": 20397,
    "Ġespecial": 26411,
    "Ġtale": 5142,
    "Ġoriginated": 24123,
    "och": 21003,
    "Ġintended": 5547,
    "Ġincess": 8433,
    "uv": 6230,
    "Ġsalad": 19482,
    "Ġbundle": 13429,
    "Ġconsequent": 18113,
    "Ġstraightway": 9019,
    "Ġodorous": 19569,
    "Ġgen": 5298,
    "armed": 7250,
    "Ġmentioning": 9901,
    "ĠvertebrÃ¦": 11436,
    "repaid": 24490,
    "utility": 21591,
    "Ġremoval": 12121,
    "endent": 15922,
    "Ġamput": 16037,
    "Ġare": 527,
    "Ġchosen": 7200,
    "gradually": 12919,
    "ulls": 8841,
    "ateg": 1286,
    "Ġratt": 7883,
    "hawk": 7122,
    "Ġep": 7383,
    "Ġhemis": 21688,
    "elope": 14468,
    "Ġcalifornia": 20533,
    "Ġconfounded": 16386,
    "appearance": 5334,
    "Ġupwards": 7633,
    "Ġstraggling": 23754,
    "Ġstars": 6150,
    "Ġpicked": 6342,
    "Ġbinnacle": 8120,
    "unwillingly": 21889,
    "Ġdeclined": 9923,
    "Ġprofessional": 7298,
    "Ġkeep": 2354,
    "Ġstrangled": 24134,
    "thine": 15827,
    "Ġhappily": 9333,
    "mews": 22713,
    "according": 12030,
    "Ġrue": 11870,
    "Ġexhaust": 6399,
    "Ġunravel": 26216,
    "Ġcripple": 11441,
    "Ġredeem": 20503,
    "revolver": 25628,
    "Ġlug": 15655,
    "Ġcheating": 16369,
    "Ġspirits": 3697,
    "Ġhonestly": 19975,
    "Ġpicking": 11260,
    "Ġsyrian": 18355,
    "nant": 17610,
    "Ġink": 8806,
    "Ġunhing": 18242,
    "Ġcoach": 6866,
    "Ġrumours": 24600,
    "A": 37,
    "Ġfasc": 12602,
    "Ġworkflow": 2508,
    "Ġgrudge": 20696,
    "someone": 14565,
    "Ġcamp": 9166,
    "Ġdav": 15593,
    "Ġcomplex": 751,
    "veral": 2352,
    "itigated": 23049,
    "isome": 17850,
    "lesome": 12969,
    "enchant": 21286,
    "Ġeth": 17717,
    "Ġchaise": 9078,
    "drawing": 10488,
    "ira": 3957,
    "anting": 6412,
    "begone": 12882,
    "joint": 24012,
    "Ġearly": 2080,
    "Ġbalm": 22909,
    "Ġtrunks": 15979,
    "Ġeliza": 6437,
    "apse": 14200,
    "Ġautonomous": 10677,
    "Ġtowed": 11266,
    "Ġsteep": 2891,
    "Ġduke": 7756,
    "goin": 23406,
    "Ġsharpened": 17367,
    "Ġblessings": 24178,
    "extra": 8220,
    "Ġtroubled": 6617,
    "Ġturks": 14599,
    "Ġoversampling": 20519,
    "Ġhaz": 12759,
    "Ġvener": 8165,
    "dom": 6223,
    "Ġmalay": 24390,
    "Ġwherefore": 8526,
    "Ġattentively": 9952,
    "hurry": 24762,
    "af": 2374,
    "Ġdepartments": 24244,
    "Ġloitering": 22121,
    "alo": 7587,
    "Ġexecutors": 19536,
    "keel": 14130,
    "Ġnail": 9197,
    "Ġembatt": 18843,
    "Ġcarbuncle": 14447,
    "worm": 15455,
    "brit": 19200,
    "quered": 11054,
    "Ġhorizontal": 7783,
    "Ġwhirlwinds": 20468,
    "considerable": 10550,
    "Ġpens": 21464,
    "leness": 4692,
    "Ġclinging": 10293,
    "Ġ119": 24440,
    "Ġmanhat": 22332,
    "Ġunfeeling": 14121,
    "butt": 15997,
    "utored": 15666,
    "Ġlassitude": 20590,
    "Ġadmitted": 8988,
    "immedi": 8452,
    "breaking": 14767,
    "measured": 19993,
    "Ġblacksmith": 6596,
    "Ġconfine": 14511,
    "Ġshud": 5461,
    "Ġsaves": 18325,
    "impropriety": 21717,
    "č": 206,
    "amaz": 21849,
    "Ġautom": 3566,
    "Ġgrandeur": 8631,
    "Ġcursed": 6730,
    "bride": 19202,
    "Ġdisappeared": 5645,
    "wreck": 21139,
    "Ġvapory": 17007,
    "Ġdivide": 12114,
    "Ġla": 5914,
    "Ġmember": 8588,
    "Ġproperty": 6450,
    "itled": 7577,
    "inordinate": 21197,
    "Ġvultures": 25654,
    "Ġembarrassed": 11385,
    "Ġprayer": 16668,
    "greater": 13254,
    "Ġmelting": 24289,
    "Ġhealthy": 10852,
    "Ġconversing": 14634,
    "Ġdecomp": 3810,
    "Ġunfaltering": 24112,
    "consciousness": 13369,
    "Ġengraving": 17080,
    "regiment": 16451,
    "Ġqualifications": 24676,
    "Ġspent": 3963,
    "Ġdegenerating": 25800,
    "fierce": 25256,
    "Ġupward": 9723,
    "Ġpondicherry": 20494,
    "Ġdirty": 9180,
    "Ġ]": 15461,
    "Ġmustard": 12934,
    "carefully": 13372,
    "hee": 10761,
    "pardonable": 17219,
    "Ġlikened": 16501,
    "Ġferrule": 24516,
    "?_âĢĿ": 12319,
    "Ġpreservative": 24631,
    "Ġmeantime": 6207,
    "Ġ1820": 25718,
    "presume": 25671,
    "Ġneedlessly": 23632,
    "bordered": 17500,
    "Ġspoon": 22135,
    "umed": 6555,
    "dimensional": 2347,
    "hawks": 24695,
    "Ġbeheading": 21759,
    "(_": 7539,
    "Ġpedd": 17912,
    "Ġoftentimes": 20158,
    "Ġsuperst": 7704,
    "Ġmine": 3182,
    "Ġtorpor": 25034,
    "Ġdefe": 21840,
    "geons": 15982,
    "Ġplug": 17149,
    "Ġnineveh": 13392,
    "Ġinterp": 16072,
    "Ġdistant": 5387,
    "arp": 2029,
    "fr": 4805,
    "Ġplants": 22605,
    "Ġcousin": 3704,
    "article": 22398,
    "crane": 24087,
    "Ġmainland": 22660,
    "Ġowns": 22828,
    "ceptible": 10957,
    "abilities": 3240,
    "Ġmagnanimous": 17413,
    "athans": 7432,
    "ornament": 23492,
    "ravity": 21639,
    "converse": 22480,
    "Ġnodding": 23338,
    "derment": 22171,
    "urns": 10215,
    "Ġtransparent": 9491,
    "Ġyourselves": 9030,
    "Ġnin": 10189,
    "Ġcharacteristics": 8613,
    "Ġguineas": 16274,
    "inf": 6233,
    "verdict": 21734,
    "Ġsage": 17753,
    "Ġwaves": 3918,
    "Ġplanning": 14753,
    "Ġafore": 10759,
    "embarr": 17294,
    "ister": 1296,
    "Ġher": 427,
    "Ġmaintaining": 1509,
    "anke": 15564,
    "Ġstigma": 25792,
    "conf": 4957,
    "acceler": 23600,
    "dist": 4482,
    "Ġrover": 18456,
    "Ġrank": 6259,
    "ld": 385,
    "Ġthrough": 603,
    "Ġnailed": 10191,
    "stayed": 25291,
    "Ġdispositions": 13236,
    "Ġelastic": 4363,
    "steak": 14710,
    "Ġecho": 12670,
    "Ġapprehens": 5682,
    "Ġsuppose": 2868,
    "eth": 618,
    "gentleman": 7517,
    "alf": 4640,
    "tahit": 17693,
    "?âĢĻ": 2639,
    "Ġcrystall": 20229,
    "Ġjokes": 18409,
    "Ġvessel": 3798,
    "Ġphiladelphia": 26605,
    "unnatural": 15776,
    "ild": 1155,
    "Ġfists": 15586,
    "bench": 16804,
    "cig": 17505,
    "Ġbrightly": 13228,
    "horr": 14600,
    "bourgh": 19105,
    "word": 2487,
    "Ġblame": 6446,
    "Ġfisher": 3226,
    "persu": 8029,
    "Ġwallet": 21301,
    "Ġmany": 1108,
    "readily": 19365,
    "acceptance": 25186,
    "Ġgash": 15674,
    "inguished": 6599,
    "poison": 14394,
    "welcome": 10003,
    "ius": 5789,
    "Ġcosine": 2371,
    "alone": 10185,
    "Ġbutt": 14127,
    "Ġheaving": 7600,
    "inated": 6804,
    "Ġcrockery": 24302,
    "jure": 20926,
    "calling": 12453,
    "Ġcontract": 18476,
    "difficult": 10060,
    "Ġconvey": 9983,
    "Ġmum": 13860,
    "european": 26373,
    "Ġdau": 21429,
    "Ġencamp": 22806,
    "Ġold": 1057,
    "Ġcups": 16883,
    "Ġswelling": 11928,
    "Ġtransp": 4771,
    "Ġpulverize": 23396,
    "Ġenergetic": 15200,
    "Ġdisinterested": 16060,
    "weep": 22688,
    "Ġ[": 6967,
    "Ġalbert": 12710,
    "Ġpraises": 16731,
    "retrie": 18926,
    "leo": 21367,
    "surf": 24214,
    "70": 17477,
    "Ġfant": 9175,
    "Ġsuppressed": 11914,
    "pierced": 26142,
    "Ġsewing": 21966,
    "Ġroyals": 19535,
    "other": 1316,
    "arance": 4699,
    "arrived": 12613,
    "Ġdominant": 12399,
    "ceiling": 21631,
    "Ġinstituted": 18702,
    "Ġnoon": 6560,
    "Ġalders": 21789,
    "Ġcool": 5734,
    "Ġdere": 21839,
    "assumed": 22313,
    "Ġharem": 9711,
    "oglyph": 11017,
    "Ġundaunted": 24120,
    "Ġshrine": 19534,
    "excuse": 13384,
    "Ġcurling": 9349,
    "Ġdistrusting": 25056,
    "Ġchristendom": 16695,
    "Ġheartily": 6889,
    "Ġshout": 4265,
    "dece": 11737,
    "Ġhuzza": 12637,
    "Ġindulge": 10584,
    "Ġintervened": 25482,
    "Ġburied": 7719,
    "Ġblanket": 8344,
    "Ġarch": 924,
    "isf": 2436,
    "mer": 2833,
    "intend": 16226,
    "russian": 22188,
    "Ġpermanent": 13634,
    "Ġunerringly": 18266,
    "lement": 10168,
    "aulets": 18621,
    "evade": 24817,
    "Ġaint": 17745,
    "moran": 24154,
    "roses": 17959,
    "Ġreflecting": 24750,
    "Ġtens": 17724,
    "served": 5043,
    "civilities": 24976,
    "Ġhousings": 21497,
    "Ġwhitt": 18057,
    "laid": 10111,
    "rollable": 13947,
    "ifers": 15785,
    "Ġpit": 3420,
    "stee": 21655,
    "failed": 20865,
    "pard": 9620,
    "supposing": 24135,
    "Ġconfirms": 23313,
    "Ġowen": 15097,
    "Ġeels": 21624,
    "k": 79,
    "Ġmocking": 24006,
    "pieces": 8758,
    "Ġequival": 4785,
    "ocity": 8279,
    "decan": 22146,
    "Ġblackstone": 23392,
    "Ġrekindled": 21681,
    "Ġran": 3343,
    "wil": 8769,
    "ashion": 3857,
    "Ġporter": 15614,
    "shipping": 10308,
    "Ġchiselled": 25560,
    "||": 4870,
    "everlasting": 18775,
    "vacancies": 25920,
    "Ġstaggered": 9541,
    "Ġduty": 4071,
    "Ġsnugly": 17111,
    "doublo": 24661,
    "Ġinterview": 9772,
    "Ġadventurous": 16734,
    "Ġbaker": 4697,
    "Ġsqueezed": 20039,
    "Ġhabit": 6771,
    "yed": 3274,
    "Ġfooted": 23799,
    "Ġtoilet": 13939,
    "Ġinsulted": 14994,
    "arrant": 10475,
    "Ġstripping": 23699,
    ",": 16,
    "draul": 9445,
    "Ġcrocodile": 20742,
    "Ġanxiously": 8291,
    "ental": 7168,
    "Ġassembl": 20064,
    "Ġvariants": 1793,
    "Ġjing": 15952,
    "giv": 13724,
    "Ġcultivation": 17147,
    "kles": 17585,
    "crowded": 20193,
    "Ġtit": 8401,
    "ruined": 18341,
    "Ġhesitation": 13444,
    "Ġlabeled": 3718,
    "re": 266,
    "prophet": 16182,
    "riend": 1185,
    "Ġthine": 7373,
    "Ġmassac": 14738,
    "vess": 7353,
    "Ġwee": 21923,
    "Ġreliable": 18780,
    "Ġreckoning": 14981,
    "oy": 1006,
    "Ġempire": 11145,
    "Ġsensations": 5260,
    "Ġincarnation": 25574,
    "±": 114,
    "Ġconcent": 8251,
    "irted": 14074,
    "Ġjacket": 6489,
    "ipping": 2205,
    "doesn": 19823,
    "antucket": 2643,
    "Ġbubbling": 17328,
    "v": 90,
    "guilty": 19486,
    "Ġplanet": 14752,
    "Ġoce": 3032,
    "Ġflann": 23016,
    "Ġloun": 7166,
    "Ġnervous": 2403,
    "==": 944,
    "conjectures": 25181,
    "odox": 21816,
    "Ġkid": 9727,
    "furthermore": 20007,
    "ishness": 22347,
    "Ġdwell": 5813,
    "Ġeasily": 3889,
    "Ġmethodic": 23118,
    "augmented": 26288,
    "buried": 14851,
    "Ġgreedily": 18965,
    "Ġsnapping": 19302,
    "onely": 6516,
    "covering": 15336,
    "Ġdesolated": 24809,
    "iana": 7049,
    "Ġantagon": 19553,
    "Ġowners": 7663,
    "Ġhorsey": 24251,
    "real": 10151,
    "Ġagrees": 22521,
    "arthly": 8031,
    "handsome": 13179,
    "ob": 1421,
    "Ġpressure": 13425,
    "proportion": 16183,
    "Ġ131": 24781,
    "Ġfreshness": 23991,
    "Ġrav": 14306,
    "Ġdepicted": 14279,
    "anch": 15563,
    "Ġseveral": 2673,
    "Ġunexampled": 20363,
    "Ġhier": 1894,
    "Ġtypes": 8938,
    "sprang": 19994,
    "followed": 8340,
    "Ġfavour": 3642,
    "ution": 4351,
    "Ġnear": 1720,
    "Ġintu": 12767,
    "Ġexactly": 2768,
    "attracted": 13055,
    "Ġoffering": 3010,
    "Ġrake": 18640,
    "Ġput": 1799,
    "omb": 10207,
    "Ġperman": 10966,
    "Ġarsacides": 17296,
    "acetti": 13399,
    "limin": 8385,
    "Ġgilt": 21610,
    "idate": 21772,
    "Ġderanged": 23178,
    "july": 20478,
    "Ġdiabolical": 20345,
    "Ġstup": 14007,
    "Ġarmies": 16494,
    "Ġpaws": 13923,
    "Ļ": 252,
    "Ġpendulous": 25956,
    "Ġdreadfully": 7726,
    "Ġrussia": 26269,
    "Ġincognit": 22559,
    "Ġfirmament": 19474,
    "Ġsubstances": 24167,
    "Ġdischarged": 15223,
    "ogn": 2381,
    "Ġfirmly": 8015,
    "Ġhelm": 5276,
    "Ì": 141,
    "Ġfancying": 12116,
    "geor": 15981,
    "Ġdol": 9666,
    "Ġstaving": 21742,
    "Ġregretted": 13403,
    "feel": 3811,
    "octavo": 11386,
    "cousins": 20121,
    "Ġchannels": 26014,
    "protection": 19922,
    "Ġisa": 14027,
    "Ġcentury": 8292,
    "Ġgeography": 23375,
    "lantern": 17430,
    "Ġestablish": 9545,
    "securer": 25603,
    "Ġpool": 5173,
    "flukes": 25206,
    "Ġcarving": 14445,
    "brandy": 19203,
    "anesc": 21363,
    "Ġobstacle": 16956,
    "Ġunrem": 18245,
    "Ġfishy": 16526,
    "Ġsolemnly": 8024,
    "irene": 15918,
    "Ġade": 22109,
    "Ġexagger": 12723,
    "cen": 17504,
    "Ġexerting": 21837,
    "Ġclatter": 22350,
    "once": 5905,
    "unhesitatingly": 26497,
    "Ġlawless": 19438,
    "Ġideal": 13124,
    "ific": 487,
    "Ġjulia": 22307,
    "ikes": 8088,
    "ern": 748,
    "Ġacquisition": 18901,
    "Ġfing": 3756,
    "Ġslight": 3122,
    "Ġshaster": 22005,
    "iple": 4807,
    "Ġalteration": 9548,
    "Ġsixpence": 19319,
    "ency": 3867,
    "Ġnile": 21525,
    "Ġunwe": 15841,
    "atiously": 15524,
    "visual": 24224,
    "Ġcakes": 13886,
    "Ġspong": 15881,
    "mopol": 15398,
    "Ġsomebody": 7914,
    "Ġchrist": 4073,
    "Ġimpud": 18445,
    "sad": 11522,
    "univers": 15775,
    "rud": 4193,
    "Ġpartiality": 9400,
    "Ġbreast": 8970,
    "Ġplaned": 24058,
    "wrote": 11548,
    "Ġconstitutional": 25128,
    "requent": 3650,
    "arrang": 14653,
    "Ġexchanging": 18134,
    "Ġbewil": 11659,
    "Ġvill": 3876,
    "Ġjur": 12838,
    "handedness": 24921,
    "Ġtumult": 7115,
    "Ġamend": 16038,
    "inc": 2520,
    "folly": 20864,
    "an": 278,
    "Ġattentive": 9035,
    "helm": 12175,
    "Ġmeek": 21817,
    "Ġmortal": 4683,
    "vict": 11542,
    "Ġtravell": 5575,
    "Ġafraid": 3530,
    "Ġexpand": 9309,
    "Ġgateway": 24799,
    "Ġdrenched": 12607,
    "Ġbroke": 5323,
    "Ġpossessed": 5195,
    "Ġsuspecting": 14912,
    "Ġharsh": 9523,
    "Ġgets": 10840,
    "Ġloss": 825,
    "Ġxx": 5492,
    "Ġcir": 21344,
    "Ġlaying": 7910,
    "Ġprogram": 12996,
    "apple": 22846,
    "ductive": 23939,
    "ostent": 16847,
    "Ġmoonshine": 19600,
    "Ġrim": 21970,
    "Ġeh": 6987,
    "Ġsecured": 6746,
    "Ġsimple": 1622,
    "Ġate": 8843,
    "striving": 24670,
    "proceeding": 20144,
    "Ġanteced": 26178,
    "Ġforces": 12706,
    "Ġstart": 3261,
    "Ġgaping": 13971,
    "Ġwildness": 14604,
    "Ġilluminate": 17194,
    "relu": 17760,
    "pequod": 7053,
    "ival": 4228,
    "metallic": 19882,
    "Ġungod": 22029,
    "Ġbehaves": 23304,
    "µ": 118,
    "engineer": 23152,
    "Ġwoodcock": 19165,
    "Ġcassock": 20490,
    "Ġbargain": 23795,
    "Ġankles": 17901,
    "Ġreplen": 11115,
    "allingly": 22204,
    "arman": 11597,
    "Ġproductions": 22950,
    "repid": 11566,
    "americ": 8157,
    "Ġkeeping": 7282,
    "Ġrumbling": 18212,
    "bell": 7331,
    "ribution": 14308,
    "notwithstanding": 22757,
    "Ġimpropriety": 17397,
    "Ġjovial": 19235,
    "Ġnecess": 3475,
    "Ġextinguish": 14331,
    "Ġpiratical": 24798,
    "Ġminuteness": 19140,
    "Ġchall": 10945,
    "Ġdevil": 3614,
    "Ġnightgown": 23137,
    "Ġinfrequent": 3823,
    "sink": 11523,
    "Ġparac": 12802,
    "Ġsymmetry": 20369,
    "ires": 6039,
    "U": 57,
    "ľ": 255,
    "iro": 20916,
    "Ġakin": 15497,
    "Ġhelplessness": 25074,
    "unched": 10237,
    "Ġstrand": 11831,
    "repeating": 20132,
    "Ġcircumspect": 15087,
    "raint": 18318,
    "forbearance": 22791,
    "Ġinvestigated": 25387,
    "Ġblank": 5952,
    "Ġscope": 15947,
    "deep": 1035,
    "obscure": 23102,
    "Ġcommerce": 11016,
    "Ġtur": 2562,
    "Ġest": 2265,
    "..": 5783,
    "Ġdoted": 21437,
    "ks": 3148,
    "Ġcrisis": 13129,
    "pike": 11516,
    "icirc": 15659,
    "Ġgover": 2462,
    "Ġrighted": 23182,
    "alive": 10828,
    "Ġthieves": 15639,
    "kinder": 24846,
    "Ġunsav": 18252,
    "haz": 17565,
    "Ġwhiskers": 10494,
    "Ġd": 284,
    "horse": 8609,
    "resides": 23675,
    "Ġscener": 10950,
    "apering": 8042,
    "mean": 6438,
    "Ġnewfoundland": 26570,
    "capitals": 25083,
    "Ġconstruction": 9387,
    "flagged": 23975,
    "inders": 15983,
    "stige": 21665,
    "aths": 22705,
    "Ġgestic": 21612,
    "Ġkin": 15907,
    "Ġsynthe": 26008,
    "Ġunwinding": 22065,
    "Ġrepresenting": 4060,
    "tolerably": 21098,
    "Ġbaltic": 18797,
    "historian": 25735,
    "Ġeternity": 12282,
    "Ġinterposed": 20622,
    "regarded": 12010,
    "Ġsixteen": 8284,
    "Ġfil": 3472,
    "Ġrelate": 6874,
    "Ġserve": 9371,
    "Ġaghast": 16050,
    "Ġsooty": 25816,
    "Ġcaul": 10788,
    "ushing": 5730,
    "Ġrelease": 19292,
    "Ġstammered": 26201,
    "Ġselected": 9713,
    "Ġblocked": 19224,
    "ĠlinnÃ¦us": 15278,
    "justified": 19006,
    "ĥ": 230,
    "aimed": 3952,
    "Ġnailing": 21531,
    "mody": 16186,
    "Ġtend": 6121,
    "hers": 7635,
    "trifling": 19417,
    "phenomenon": 17649,
    "Ġsaddest": 16664,
    "Ġridiculous": 10630,
    "etrics": 21589,
    "Ġ>": 21154,
    "bble": 17486,
    "Ġleeward": 6211,
    "Ġconvivial": 16550,
    "Ġcaptain": 1602,
    "sheet": 16288,
    "Ġtie": 10751,
    "phon": 4129,
    "Ġmonstrous": 7790,
    "Ġthreading": 23405,
    "Ġactively": 18655,
    "useness": 22287,
    "Ġstudious": 23228,
    "Ġpapered": 20134,
    "terror": 18131,
    "Ġdarcy": 1345,
    "hounds": 20909,
    "Ġtorrents": 20059,
    "Ġchild": 2260,
    "Ġsouthampton": 24308,
    "Ġunhallowed": 17182,
    "Ġplowdon": 26448,
    "Ġaz": 9631,
    "sutherland": 21065,
    "Ġpiercing": 13496,
    "ographical": 16787,
    "Ġjustification": 22972,
    "loaded": 22517,
    "arks": 2845,
    "Ġpursuit": 4734,
    "africa": 26309,
    "Ġspectrum": 4475,
    "@": 36,
    "remorse": 14469,
    "companions": 15025,
    "Ġyon": 9695,
    "bpp": 20774,
    "brother": 7092,
    "girl": 12321,
    "Ġrivals": 20274,
    "cut": 3127,
    "Ġrooted": 13172,
    "Ġawhile": 13832,
    "Ġwhitting": 18058,
    "alous": 7371,
    "Ġnavel": 24576,
    "Ġfreckled": 18960,
    "Ġexchange": 15757,
    "Ġfullest": 14816,
    "Ġmysterious": 7526,
    "evinced": 19928,
    "Ġnought": 21526,
    "master": 5687,
    "istics": 1629,
    "pitching": 24077,
    "seat": 18127,
    "Ġgather": 6535,
    "Ġreaders": 18916,
    "minutes": 7511,
    "infant": 19830,
    "Ġfootsteps": 16574,
    "Ġinside": 5448,
    "Ġclimes": 12844,
    "Ġfloundered": 18863,
    "Ġbur": 2698,
    "Ġspurred": 22139,
    "Ġsevered": 18206,
    "knowledge": 7477,
    "Ġglobal": 2368,
    "Ġwillingness": 24911,
    "Ġstoner": 7178,
    "write": 14648,
    "Ġchann": 15938,
    "Ġdarker": 13123,
    "Ġjavel": 17084,
    "Ġdisgu": 8207,
    "Ġepsom": 19986,
    "Ġsuffoc": 18872,
    "Ġindirect": 18836,
    "ulatory": 15771,
    "Ġhint": 5016,
    "ov": 15402,
    "Ġbra": 3257,
    "closing": 23160,
    "pretending": 17041,
    "ffic": 22156,
    "traversed": 19650,
    "Ġbellies": 13359,
    "igating": 21704,
    "Ġflounders": 23017,
    "Ġpurchases": 24755,
    "Ġchaplain": 19914,
    "Ġfruits": 17120,
    "reck": 9638,
    "bottle": 20148,
    "ouse": 1192,
    "incredible": 16500,
    "Ġarticle": 9504,
    "althy": 8434,
    "Ġsung": 23276,
    "significant": 25085,
    "quit": 15765,
    "Ġscandal": 9083,
    "oment": 920,
    "chain": 18042,
    "Ġmoustache": 20487,
    "meditation": 19071,
    "Ġcreditor": 24291,
    "Ġdebts": 8037,
    "Ġcivilized": 8668,
    "ective": 18177,
    "Ġmic": 17799,
    "Ġyoungster": 23183,
    "Ġwalls": 6762,
    "bask": 20778,
    "Ġrecommendation": 17026,
    "datasets": 11955,
    "Ġdomineering": 23653,
    "steps": 9407,
    "judged": 14833,
    "soldiers": 25912,
    "orient": 2881,
    "Ġpar": 457,
    "Ġsurvived": 14936,
    "Ġunex": 11716,
    "Ġdisp": 3358,
    "Ġimprudence": 10299,
    "Ġbumps": 21395,
    "Ġinitialization": 1253,
    "Ġcrony": 23441,
    "Ġhealthful": 24061,
    "audible": 17134,
    "Ġemb": 1237,
    "swiss": 24257,
    "Ġbelonging": 8309,
    "Ġwhereupon": 14298,
    "Ġpreposterous": 13672,
    "laden": 14931,
    "Ġdolph": 12383,
    "ructive": 18545,
    "Ġzig": 18745,
    "Ġguiltless": 16941,
    "Ġwhitened": 24868,
    "Ġtot": 4188,
    "Ġpolar": 9413,
    "Ġvisions": 12977,
    "Ġdishes": 16053,
    "dar": 20826,
    "Ġtalk": 1972,
    "Ġflowers": 8942,
    "Ġbales": 21392,
    "ĠĠĠĠĠĠĠĠĠĠĠĠĠĠĠĠĠĠĠĠĠĠĠĠĠĠĠĠĠĠĠĠĠĠĠĠĠĠĠĠĠĠ": 24211,
    "solemn": 19820,
    "omen": 4086,
    "Ġknowledge": 1448,
    "Ġsupposition": 9819,
    "activity": 22635,
    "Ġlamb": 8816,
    "Ġabused": 22274,
    "Ġimpose": 22387,
    "Ġgoethe": 22429,
    "early": 20122,
    "Ġcorp": 5573,
    "Ġlar": 766,
    "giving": 8742,
    "Ġturbulence": 26598,
    "Ġpresently": 5116,
    "Ġfull": 2177,
    "Ġreverence": 12062,
    "Ġregulations": 18600,
    "Ġdemonstrate": 24999,
    "Ġxlvi": 25591,
    "Ġsuck": 15864,
    "hug": 17564,
    "during": 6787,
    "ashes": 6017,
    "Ġcirc": 1987,
    "Ġtransplanted": 22470,
    "Ġmightier": 18732,
    "Ġlect": 9224,
    "contents": 12061,
    "Ġrock": 5311,
    "Ġprincip": 5599,
    "emy": 14077,
    "Ġscorching": 20071,
    "Ġlieu": 19567,
    "frame": 17116,
    "Ġarrangement": 2656,
    "Ġtropical": 17065,
    "Ġstroll": 13356,
    "Ġimitate": 14159,
    "12": 20751,
    "Ġdictate": 20154,
    "ational": 5716,
    "Ġmasters": 11577,
    "lays": 14924,
    "Ġnets": 21528,
    "Ġent": 903,
    "Ġball": 3624,
    "Ġirrespective": 23378,
    "Ġsize": 1216,
    "Ġsunny": 13089,
    "Ġarchitects": 18731,
    "Ġcatch": 4442,
    "Ġblanche": 18821,
    "Ġrespons": 2684,
    "haut": 20904,
    "Ġchimney": 6497,
    "accurately": 25862,
    "Ġsurplus": 26304,
    "Ġcurly": 18856,
    "Ġcrust": 21354,
    "Ġcombing": 22863,
    "Ġearnest": 3929,
    "tee": 16175,
    "Ġhotel": 8654,
    "Ġnothing": 1361,
    "Ġlay": 585,
    "disapprobation": 19159,
    "building": 17311,
    "Ġdefendants": 15143,
    "col": 3105,
    "Ġmarvel": 23039,
    "mannered": 22855,
    "Ġjaw": 3319,
    "Ġof": 298,
    "Ġtrad": 9830,
    "smoke": 17224,
    "Ġsuburban": 17348,
    "over": 1846,
    "india": 22376,
    "rank": 21044,
    "Ġpretty": 3859,
    "Ġdeafened": 25652,
    "Ġdishonor": 25602,
    "Ġpieces": 7368,
    "Ġhim": 476,
    "Ġeventually": 8620,
    "Ġcalm": 3446,
    "Ġvictims": 19807,
    "sche": 13019,
    "everywhere": 23701,
    "pless": 6261,
    "Ġrefrained": 14345,
    "say": 3983,
    "isles": 15567,
    "Ġcomical": 11680,
    "Ġconcealing": 23906,
    "Ġoppressive": 20458,
    "Ġcompensated": 17403,
    "Ġamidst": 9496,
    "tfordshire": 4812,
    "Ġpeninsula": 23200,
    "Ġmorcar": 13015,
    "Ġsegment": 12761,
    "Ġaugmentation": 20119,
    "Ġsplend": 9900,
    "ohn": 4562,
    "ograph": 4798,
    "Ġ116": 24439,
    "nel": 11506,
    "Ġdistrustful": 25057,
    "Ġclothes": 4997,
    "Ġtwitching": 25684,
    "Ġdisadvantages": 18559,
    "Ġpout": 17908,
    "cules": 12394,
    "hither": 11494,
    "Ġundertake": 14481,
    "hib": 15370,
    "rich": 11519,
    "Ġper": 588,
    "iliar": 15717,
    "Ġimpenitent": 26549,
    "Ġassent": 12737,
    "ansion": 10926,
    "poke": 18800,
    "Ġeleventh": 23372,
    "pleasant": 5875,
    "Ġconvul": 13204,
    "Ġungodly": 26514,
    "Ġexecuted": 9474,
    "Ġbarrowful": 25596,
    "Ġindignant": 12243,
    "prehensible": 12363,
    "Ġsuperiors": 23457,
    "Ġswim": 3819,
    "Ġreflection": 6440,
    "Ġdepl": 14046,
    "Ġshutting": 14762,
    "Ġpaddle": 20062,
    "Ġshoreless": 24296,
    "Ġeffective": 1249,
    "Ġnavigation": 9995,
    "civilized": 17075,
    "Ġliberated": 19669,
    "Ġahoy": 12188,
    "Ġicy": 10748,
    "Ġgases": 21606,
    "ips": 2592,
    "esty": 4308,
    "looked": 6084,
    "dz": 4740,
    "nearer": 22450,
    "Ġrummaged": 16911,
    "Ġsomewhat": 4898,
    "missed": 11210,
    "Ġbaked": 21389,
    "Ġsocieties": 20185,
    "stone": 5089,
    "shells": 26057,
    "Ġembraces": 19874,
    "big": 13688,
    "?--": 15306,
    "resh": 8406,
    "Ġexamined": 6335,
    "Ġplaguy": 22611,
    "cour": 4481,
    "Ġdumbly": 24990,
    "arted": 2200,
    "Ġfert": 15585,
    "Ġjustified": 11908,
    "Ġmapp": 2083,
    "Ġforbearing": 25101,
    "quaker": 15766,
    "Ġresembles": 25970,
    "ios": 2358,
    "Ġpurp": 2391,
    "Ġseem": 913,
    "Ġcommonplace": 11097,
    "Ġhish": 21918,
    "Ġgrounds": 6750,
    "sery": 17662,
    "Ġcentaurs": 23836,
    "doub": 6224,
    "sight": 5996,
    "fedallah": 25523,
    "Ġbrine": 18773,
    "Ġdec": 639,
    "kindness": 10507,
    "Ġsly": 9634,
    "Ġhides": 16267,
    "Ġlodges": 19503,
    "Ġcommitted": 7430,
    "Ġignoble": 19402,
    "Ġunaccountable": 7889,
    "Ġhartshorn": 26182,
    "analy": 17840,
    "Ġgranting": 18738,
    "-": 17,
    "bil": 20773,
    "ums": 10274,
    "Ġpredictions": 1457,
    "Ġordering": 18999,
    "Ġspaulding": 11732,
    "Ġcitadel": 25439,
    "changed": 7175,
    "Ġsenior": 17173,
    "Ġsleep": 2398,
    "Ġseating": 18202,
    "man": 1054,
    "Ġfacetious": 20587,
    "Ġjoyful": 13225,
    "encounter": 20395,
    "Ġthose": 1172,
    "Ġprying": 15612,
    "Ġarrow": 10932,
    "Ġnick": 21527,
    "Ġgour": 21602,
    "Ġtack": 5620,
    "Ġdispelling": 23883,
    "Ġflickering": 23018,
    "izure": 21846,
    "Ġfurnace": 19443,
    "declaration": 25176,
    "Ġveter": 15814,
    "Ġpewter": 17187,
    "leather": 13892,
    "ffy": 18317,
    "Ġinvolve": 11044,
    "Ġsurmise": 12298,
    "Ġburns": 16525,
    "ldog": 21922,
    "Ġdare": 3545,
    "Ġshifted": 14109,
    "negro": 18488,
    "approbation": 11459,
    "Ġcunning": 6239,
    "quin": 21858,
    "Ġreminiscences": 26271,
    "conceivable": 17132,
    "amuse": 14054,
    "finished": 10556,
    "Ġsemicircle": 26068,
    "Ġdiscount": 22785,
    "Ġdiscriminator": 3391,
    "rim": 7138,
    "Ġecc": 11630,
    "Ġsprings": 16687,
    "Ġneighbourhood": 5126,
    "Ġlaure": 16910,
    "Ġfaded": 10810,
    "Ġsubsequent": 7658,
    "Ġreven": 18031,
    "Ġcomprehension": 15089,
    "omnipotent": 25965,
    "Ġclout": 22349,
    "Ġbottled": 23798,
    "Ġrenders": 13287,
    "Ġpleasanter": 19067,
    "ellations": 21947,
    "endure": 22228,
    "onent": 21251,
    "cstasy": 11446,
    "Ġtinker": 15134,
    "Ġsurpl": 19134,
    "Ġsuperseded": 26226,
    "Ġmap": 2390,
    "Ġwants": 5742,
    "xim": 1095,
    "locks": 14458,
    "Ġsmitten": 12903,
    "Ġjavan": 25002,
    "elder": 21576,
    "counterpart": 26361,
    "pervised": 1612,
    "ratulations": 20129,
    "Ġrumpled": 24602,
    "Ġconfining": 23310,
    "race": 11633,
    "Ġtherefore": 2239,
    "paddington": 20481,
    "Ġlascar": 9201,
    "Ġlowermost": 23245,
    "apprehension": 26115,
    "Ġemptied": 24346,
    "Ġy": 341,
    "punctual": 26357,
    "Ġimmemorial": 10512,
    "Ġbrixton": 13666,
    "uzz": 4525,
    "Ġreptile": 15280,
    "Ġstones": 9223,
    "Ġdur": 11594,
    "Ġlanded": 7468,
    "Ġengaged": 3429,
    "Ġventilator": 8717,
    "Ġnamely": 20692,
    "neither": 9759,
    "Ġdaunt": 19667,
    "accents": 19213,
    "Ġmeasurement": 19426,
    "Ġbethinking": 25280,
    "Ġrash": 10899,
    "â": 163,
    "Ġunremitting": 26219,
    "Ġmatch": 4530,
    "Ġconflagration": 26366,
    "Ġcowards": 12577,
    "looks": 12020,
    "inkers": 22623,
    "Ġexec": 19495,
    "Ġthe": 270,
    "Ġexceptions": 13233,
    "visitors": 13352,
    "Ġtoast": 21516,
    "Ġorganically": 3014,
    "Ġsnatches": 16546,
    "hens": 3936,
    "roman": 22011,
    "Ġmean": 743,
    "Ġwhy": 1760,
    "bular": 15316,
    "Ġhil": 10822,
    "ulates": 14057,
    "warmth": 20056,
    "justine": 7683,
    "Ġgri": 17990,
    "Ġfolly": 7942,
    "pre": 648,
    "ulance": 15770,
    "Ġbarb": 4532,
    "offices": 19061,
    "Ġoutright": 18413,
    "ellest": 21578,
    "interview": 19300,
    "Ġangle": 8606,
    "Ġpebbles": 16132,
    "Ġparasol": 22143,
    "Ġpossess": 3207,
    "Ġmeryton": 4439,
    "Ġsaved": 6691,
    "Ġdouble": 4940,
    "contrivance": 26317,
    "Ġobliv": 16136,
    "Ġthen": 665,
    "Ġhellish": 10552,
    "Ġcivilities": 14850,
    "Ġbigness": 19763,
    "tattoo": 21090,
    "Ġilliterate": 26595,
    "Ġinheritance": 25356,
    "ade": 881,
    "Ġreasoned": 23089,
    "Ġcontinents": 16850,
    "here": 2547,
    "Ġassaulted": 25321,
    "Ġbarnacled": 25537,
    "pacific": 17642,
    "irements": 22219,
    "Ġmanipulated": 25179,
    "Ġascend": 9962,
    "roded": 17958,
    "Ġ127": 24471,
    "tastes": 21099,
    "air": 1003,
    "âĢĻ-": 18169,
    "Ġbeasts": 10619,
    "que": 1124,
    "Ġnervousness": 23558,
    "Ġimages": 1599,
    "te": 996,
    "Ġsarat": 21230,
    "happened": 9435,
    "total": 17252,
    "Ġuncomfortable": 8487,
    "Ġstrangest": 14798,
    "control": 16545,
    "Ġcannib": 6037,
    "decease": 25558,
    "Ġevangelists": 20342,
    "inno": 10757,
    "lightened": 12068,
    "Ġmurmuring": 23581,
    "Ġblemish": 19682,
    "Ġunkindness": 22047,
    "sooner": 14780,
    "Ġslime": 23165,
    "Ġsquires": 16185,
    "slee": 17170,
    "autumn": 23346,
    "oc": 2834,
    "Ġinoffensive": 21502,
    "Ġgenteel": 19984,
    "Ġdisconcerted": 18563,
    "Ġpolitical": 19225,
    "Ġavail": 11227,
    "ze": 1255,
    "Ġdoubled": 19640,
    "Ġsimon": 5172,
    "rippa": 11342,
    "war": 6802,
    "Ġbeech": 18085,
    "Ġmel": 4818,
    "Ġcountryside": 23598,
    "Ġquantization": 19856,
    "counters": 25398,
    "beer": 22493,
    "Ġvineyards": 25109,
    "esu": 17903,
    "Ġusage": 9733,
    "Ġinser": 6819,
    "dinah": 20084,
    "grant": 10428,
    "edy": 2860,
    "verty": 8454,
    "ker": 5792,
    "wol": 21125,
    "ass": 538,
    "Ġweigh": 10894,
    "Ġbengal": 18786,
    "Ġmans": 15539,
    "Ġdinn": 23984,
    "âĢĿâĢĶ": 5721,
    "wheeling": 22877,
    "handed": 7481,
    "Þ": 159,
    "winds": 10523,
    "Ġdeser": 3885,
    "spike": 16145,
    "ah": 1833,
    "ening": 3107,
    "Ġusefulness": 19411,
    "Ġundertaking": 8576,
    "Ġsickle": 24247,
    "Ġmysticetus": 24923,
    "Ġthrice": 10577,
    "islanders": 25443,
    "Ġplutarch": 22610,
    "Ġbleeding": 14882,
    "Ġwalking": 4326,
    "ulity": 10887,
    "ackled": 22425,
    "Ġfang": 21406,
    "Ġgetting": 4066,
    "uvier": 9070,
    "Ġwell": 901,
    "Ġhilarity": 20300,
    "uity": 12521,
    "Ġentail": 9794,
    "Ġfield": 1240,
    "Ġfor": 340,
    "Ġelements": 2666,
    "Ġjuggler": 26368,
    "Ġcorpor": 23043,
    "discovery": 12019,
    "Ġpapers": 4020,
    "Ġrefinement": 18701,
    "irregular": 21916,
    "Ġushered": 18361,
    "grieved": 17319,
    "Ġlick": 21554,
    "Ġbrilliant": 11415,
    "Ġuniformity": 23485,
    "Ġgritted": 22809,
    "ors": 855,
    "Ġlamented": 24996,
    "Ġembedd": 1415,
    "asserted": 22314,
    "Ġsword": 6733,
    "Ġreiterating": 26475,
    "ruction": 4359,
    "Ġmatrim": 11061,
    "Ġspeedy": 11173,
    "Ġstubbs": 23300,
    "Ġimpressions": 9555,
    "ishop": 9744,
    "Ġunable": 4951,
    "Ġblade": 11896,
    "Ġepicures": 25880,
    "Ġresolved": 3797,
    "Ġintelligent": 1395,
    "Ġconsecut": 18114,
    "needle": 20313,
    "Ġsteals": 23088,
    "romising": 18234,
    "Ġsaleve": 17393,
    "Ġsubsided": 14551,
    "Ġscript": 18400,
    "eur": 7544,
    "uccas": 21109,
    "Ġworsted": 19998,
    "Ġsubterraneous": 20268,
    "Ġwheelbarrow": 17206,
    "Ġexpert": 18870,
    "Ġcur": 1267,
    "ling": 736,
    "presented": 12994,
    "Ġtremulous": 14988,
    "Ġprinciple": 6770,
    "itching": 21338,
    "Ġmisty": 16541,
    "Ġchildhood": 13141,
    "Ġacknowledges": 24689,
    "ails": 6161,
    "Ġmodesty": 12821,
    "antage": 3877,
    "!)": 10071,
    "Ġcranes": 20386,
    "Ġwint": 15535,
    "Ġimage": 3404,
    "mates": 5073,
    "magnitude": 17250,
    "Ĵ": 245,
    "Ġconsummation": 17427,
    "Ġimpreg": 15990,
    "watching": 16931,
    "Ġfarmhouse": 24989,
    "Ġcrushed": 9425,
    "Ġcompromised": 22576,
    "sac": 7141,
    "apart": 15964,
    "warrior": 24797,
    "ilty": 6394,
    "Ġclaret": 22356,
    "culine": 19063,
    "Ġargue": 16784,
    "Ġpractice": 2926,
    "coward": 13703,
    "Ġneighb": 14076,
    "Ġsequ": 984,
    "ivation": 3113,
    "dining": 13708,
    "Ġrouted": 24908,
    "Ġwarrior": 24495,
    "numbers": 17617,
    "terrific": 25043,
    "Ġpoky": 21483,
    "Ġcetus": 19887,
    "Ġforts": 21777,
    "ancient": 9657,
    "Ġnonsensical": 21533,
    "birds": 15147,
    "eers": 20845,
    "Ġpacked": 9982,
    "Ġmice": 13861,
    "Ġgrave": 5100,
    "ela": 21573,
    "Ġvitality": 15175,
    "Ġsoc": 3525,
    "Ġreusable": 13560,
    "Ġunreliable": 3928,
    "Ġruminated": 24601,
    "too": 4509,
    "Ġgrow": 2861,
    "rable": 11634,
    "otam": 21803,
    "vid": 914,
    "Ġsentin": 16377,
    "Ġtear": 6723,
    "Ġancestors": 25643,
    "innacle": 7518,
    "Ġchurning": 15940,
    "Ġwraps": 19779,
    "Ġjeopardy": 13599,
    "Ġcorrespondence": 10596,
    "Ġinvective": 26183,
    "consum": 12874,
    "Ġconfused": 7965,
    "aloons": 20014,
    "mark": 5282,
    "Ġclo": 6044,
    "ti": 8391,
    "government": 25407,
    "Ġetext": 23953,
    "Ġner": 1647,
    "Ġjourney": 3878,
    "Ġhurricane": 16434,
    "Ġinteraction": 7423,
    "Ġfurthest": 22820,
    "Ġerrone": 14432,
    "serious": 14450,
    "Ġheld": 3586,
    "Ġprofessors": 14727,
    "Ġchimneys": 16973,
    "idays": 21775,
    "Ġdisturbance": 15014,
    "Ġnur": 5710,
    "Ġdoubted": 7966,
    "Ġgun": 4703,
    "Ġequ": 1735,
    "Ġabed": 22270,
    "sters": 6391,
    "Ġsmelling": 16069,
    "ru": 480,
    "Ġmystical": 12136,
    "spanish": 14337,
    "nx": 17608,
    "cripp": 20821,
    "ought": 830,
    "Ġsoar": 18278,
    "buoy": 7761,
    "ense": 2053,
    "ifled": 14065,
    "Ġrevolution": 3305,
    "gunwale": 20665,
    "concl": 12873,
    "Ġlikely": 3598,
    "ighb": 10424,
    "Ġcontrasting": 11155,
    "Ġundeniable": 26511,
    "credit": 12452,
    "Ġjumped": 7097,
    "Ġl": 303,
    "Ġmethodically": 23119,
    "sleepy": 24728,
    "recurring": 24196,
    "drawers": 19389,
    "luded": 4229,
    "Ġpage": 6978,
    "itiously": 13873,
    "ĠĠĠĠĠĠĠĠĠĠĠĠĠĠĠĠĠĠĠĠĠĠĠĠĠĠĠĠĠĠĠĠĠĠĠĠĠĠĠĠĠĠĠĠĠĠĠĠĠĠĠ": 20042,
    "true": 2586,
    "ich": 470,
    "Ġsquatted": 25843,
    "Ġinstinct": 6576,
    "Ġfollies": 16260,
    "bru": 12442,
    "Ġelevated": 7317,
    "Ġdrow": 21430,
    "Ġrecip": 16142,
    "Ġsky": 3968,
    "your": 1986,
    "sufferable": 12180,
    "scratch": 26045,
    "Ġsalvation": 14760,
    "Ġundoubtedly": 8314,
    "sych": 9892,
    "australian": 20564,
    "Ġcolourless": 19572,
    "Ġital": 10867,
    "Ġslu": 13838,
    "Ġprocessing": 886,
    "boat": 3361,
    "Ġpreservation": 24632,
    "Ġtemptations": 24504,
    "icular": 2025,
    "Ġbroadway": 23987,
    "Ġspar": 10921,
    "tish": 17678,
    "Ġtawny": 20485,
    "Ġsignal": 5946,
    "Ġenticements": 26035,
    "emotions": 15800,
    "arch": 1117,
    "Ġsensationalism": 26067,
    "Ġtahitian": 25428,
    "Ġjun": 8507,
    "bed": 3490,
    "then": 2054,
    "Ġlaunched": 14928,
    "Ġmaketh": 15190,
    "Ġoutset": 15958,
    "richard": 17288,
    "wing": 2519,
    "ud": 915,
    "Ġopium": 8997,
    "itiousness": 21337,
    "spirit": 11314,
    "Ġtalker": 23374,
    "Ġskirts": 14355,
    "ĠcÃ¦sar": 20583,
    "Ġpassionate": 11274,
    "Ġvers": 7562,
    "fourth": 11329,
    "Ġzer": 1097,
    "Ġprojects": 9513,
    "tha": 15826,
    "Ġmaj": 3926,
    "Ġsupplement": 23001,
    "Ġalgorithm": 761,
    "Ġtul": 21162,
    "Ġcurds": 23006,
    "Ġbuy": 8301,
    "death": 6262,
    "onsensical": 18576,
    "sell": 13783,
    "specific": 10499,
    "mere": 11858,
    "ane": 1178,
    "ailed": 3250,
    "gon": 17553,
    "Ġassail": 13067,
    "mortal": 10114,
    "Ġmagnificence": 20635,
    "Ġitems": 9694,
    "Ġinquis": 19305,
    "Ġassumptions": 5517,
    "Ġrefrain": 12951,
    "Ġdemon": 7871,
    "bound": 6221,
    "Ġenticing": 22750,
    "Ġchaps": 14181,
    "Ġext": 883,
    "Ġrejoiced": 8687,
    "abashed": 21797,
    "Ġwing": 6667,
    "aits": 20768,
    "heartily": 24217,
    "Ġloathing": 15072,
    "Ġequally": 5258,
    "Ġvocabulary": 4995,
    "inder": 9154,
    "Ġpockets": 8898,
    "speechless": 25396,
    "Ġgnashed": 20136,
    "Ġsilently": 6894,
    "tt": 13792,
    "Ġdin": 3626,
    "Ġwishes": 4796,
    "Ġagreeably": 24955,
    "jaws": 20934,
    "anqu": 4112,
    "Ġmoritz": 11909,
    "extensive": 18713,
    "Ġdrink": 4788,
    "enial": 17781,
    "ording": 9766,
    "ange": 1017,
    "azing": 7705,
    "arily": 4128,
    "tie": 21071,
    "Ġstay": 3097,
    "Ġimmens": 9941,
    "transferred": 24510,
    "Ġintrepidity": 25551,
    "herds": 22209,
    "Ġplayful": 19238,
    "Ġbetake": 22911,
    "part": 2573,
    "Ġbankrupt": 16797,
    "Ġsoftmax": 1690,
    "Ġanaly": 1091,
    "Ġinsure": 13181,
    "clopÃ¦dia": 15259,
    "awned": 19463,
    "Ġrod": 9282,
    "adem": 21762,
    "dreaded": 25141,
    "Ġimpetuous": 25571,
    "Ġleech": 24157,
    "Ġchry": 22251,
    "Ġbroods": 23107,
    "Ġparcel": 15202,
    "Ġkent": 6692,
    "Ġvenom": 24240,
    "Ġbiographical": 22767,
    "time": 3149,
    "Ġbeating": 8146,
    "Ġbachel": 7158,
    "Ġcorner": 4372,
    "ipl": 20920,
    "beside": 19879,
    "urried": 21708,
    "Ġsafer": 22175,
    "probable": 17022,
    "Ġcrimin": 6900,
    "render": 10292,
    "Ġsatisfy": 6911,
    "Ġconfed": 13101,
    "Ġbattered": 17864,
    "Ġillustrious": 17109,
    "Ġassailants": 20452,
    "Ġspe": 822,
    "Ġdeduce": 8338,
    "Ġfundament": 2929,
    "Ġserenely": 13509,
    "Ġexponential": 1059,
    "steelkilt": 10049,
    "cooper": 19192,
    "ude": 7561,
    "Ġmayhap": 18708,
    "foolish": 12350,
    "acup": 14281,
    "Ġmrs": 1468,
    "evident": 25521,
    "Ġcollins": 2180,
    "Ġominous": 12427,
    "inkles": 7425,
    "Ġoat": 21326,
    "Ġnod": 1889,
    "Ġfalling": 6914,
    "Ġfeeble": 12287,
    "Ġstocks": 23180,
    "corrob": 24484,
    "acet": 5476,
    "Ġmadden": 10448,
    "pocket": 9811,
    "whew": 22875,
    "ellect": 7380,
    "Ġhoot": 19078,
    "Ġwharves": 13508,
    "yth": 983,
    "tend": 17675,
    "commanders": 16990,
    "Ġinmates": 15626,
    "Ġrelapses": 26280,
    "ray": 2438,
    "Ġapproximate": 2340,
    "Ġboiling": 8527,
    "Ġsending": 8779,
    "...": 24548,
    "intending": 22939,
    "Ġourselves": 5127,
    "Ġeating": 8137,
    "offensive": 16397,
    "Ġgiants": 25961,
    "Ġanonym": 17899,
    "akened": 7414,
    "george": 26020,
    "Ġliterary": 25166,
    "guinea": 16674,
    "enances": 10155,
    "Ġdivert": 23595,
    "warmest": 25030,
    "Ġconsp": 10226,
    "Ġcluster": 13574,
    "imagination": 13483,
    "ician": 21569,
    "Ġunnatural": 7189,
    "Ġjurymen": 16848,
    "tically": 3393,
    "generous": 16570,
    "endous": 6849,
    "king": 3062,
    "tures": 21072,
    "Ġquantity": 6947,
    "osis": 18390,
    "Ġmolasses": 25629,
    "Ġfiercely": 12956,
    "Ġguardianship": 17422,
    "unwholesome": 26498,
    "Ġfluke": 14675,
    "Ġsuccor": 25663,
    "Ġbulb": 23858,
    "Ġset": 1176,
    "behaviour": 11302,
    "Ġcaw": 13885,
    "ond": 1161,
    "bohem": 19003,
    "vigorous": 25918,
    "unreasonable": 18165,
    "Ġwall": 3841,
    "Ġanalyzing": 18776,
    "Ġdrought": 19280,
    "expected": 5780,
    "Ġshuddering": 9053,
    "Ġstartling": 14672,
    "Ġsix": 3046,
    "Ġshudder": 9052,
    "Ī": 235,
    "Ġsuperior": 2753,
    "unvarying": 21892,
    "fur": 6356,
    "Ġfre": 1570,
    "dition": 15341,
    "Ġrespectively": 23252,
    "Ġannum": 24205,
    "Ġrecur": 1623,
    "Ġsporting": 17000,
    "xology": 21144,
    "initely": 7567,
    "Ġsignific": 3827,
    "Ġoccupation": 9933,
    "ache": 8520,
    "Ġhood": 10824,
    "threw": 21989,
    "Ġdistrust": 8206,
    "frock": 20124,
    "Ġacknowledged": 7533,
    "Ġenhancement": 23732,
    "ella": 12751,
    "infer": 10146,
    "brothers": 17025,
    "Ġsphy": 18310,
    "Ġpuzzling": 14898,
    "Ġhold": 2245,
    "bitious": 16671,
    "vic": 13804,
    "Ġpillar": 21477,
    "delight": 5345,
    "invol": 12534,
    "purp": 8092,
    "Ġmant": 9649,
    "Ġmagnificent": 9844,
    "Ġimmortal": 8019,
    "Ġbigot": 24565,
    "Ġalterations": 19873,
    "Ġpatron": 7461,
    "Ġgoes": 3851,
    "Ġ\"": 6120,
    "youn": 5690,
    "Ġpapa": 10658,
    "Ġ1894": 5196,
    "remem": 13071,
    "ject": 875,
    "founded": 16715,
    "Ġschoolmasters": 19723,
    "Ġdomestic": 6909,
    "Ġwelfare": 12563,
    "ainty": 21792,
    "pool": 16210,
    "Ġwasted": 9706,
    "Ġnoted": 15833,
    "earn": 10697,
    "Ġcau": 13883,
    "Ġdet": 512,
    "intended": 11067,
    "Ġloafer": 18300,
    "Ġetern": 7086,
    "Ġjerking": 12249,
    "Ġmin": 1024,
    "Ġexultation": 15174,
    "Ġaright": 11743,
    "Ġenjoined": 18192,
    "Ġcotton": 17381,
    "Ġsignify": 16496,
    "Ġdeparted": 5561,
    "removing": 17765,
    "Ġhy": 5625,
    "Ġflies": 13029,
    "Ġemble": 13973,
    "E": 41,
    "Ġpear": 11855,
    "marriage": 7745,
    "enged": 23151,
    "Ġprivacy": 19527,
    "Ġallures": 22013,
    "Ġvolcanoes": 24148,
    "Ġfrequ": 3328,
    "Ġtesting": 23224,
    "Ġvari": 832,
    "despairing": 25077,
    "Ġdew": 14045,
    "Ġswells": 9829,
    "Ġrehears": 15703,
    "Ġpondered": 15169,
    "scotland": 20532,
    ".âĢĶâĢľ": 20749,
    "maj": 18806,
    "hearing": 8405,
    "Ġbullion": 24988,
    "Ġundisturbed": 19522,
    "Ġcostume": 16497,
    "ms": 543,
    "Ġinsect": 12640,
    "ineff": 21985,
    "ġ": 226,
    "Ġunreasonably": 17453,
    "Ġnooks": 26012,
    "lips": 13752,
    "Ġ90": 24590,
    "loath": 22514,
    "Ġsixty": 7723,
    "Ġarthur": 7195,
    "Ġexper": 1300,
    "Ġfervent": 14903,
    "Ġscarlet": 13227,
    "etween": 773,
    "Ġdiscontented": 16062,
    "Ġchim": 5934,
    "ic": 304,
    "osures": 22266,
    "Ġglass": 4371,
    "grampus": 18619,
    "Ġdavy": 25952,
    "Ġopt": 796,
    "Ġsucceeding": 16762,
    "itatingly": 25278,
    "Ġslightly": 7292,
    "Ġdelicacy": 6341,
    "paint": 21020,
    "goose": 19103,
    "Ġreadability": 2725,
    "Ġroses": 11789,
    "Ġprivately": 19526,
    "Ġpositively": 13035,
    "Ġadvanced": 1538,
    "Ġensure": 23691,
    "solving": 3102,
    "older": 15759,
    "Ġfrequencies": 4790,
    "Ġquadrant": 11405,
    "Ġultimately": 17166,
    "writhed": 26081,
    "Ġwhel": 15869,
    "Ġsurmis": 23465,
    "Ġhussey": 7725,
    "Ġpainfully": 13145,
    "feeder": 12364,
    "mechan": 11860,
    "oon": 6365,
    "Ġblazing": 11899,
    "Ġchill": 11755,
    "cellar": 20280,
    "othing": 6995,
    "laying": 19775,
    "Ġcommotion": 9782,
    "liked": 10510,
    "Ġstream": 5186,
    "Ġsavi": 18326,
    "ordingly": 18516,
    "Ġmoul": 15547,
    "Ġcastor": 19430,
    "Ġtiar": 21170,
    "Ġpaces": 13921,
    "abst": 21793,
    "Ġdorm": 4823,
    "deepest": 22838,
    "Ġnumer": 3639,
    "Ġfibres": 12955,
    "rather": 5430,
    "Ġsymbol": 7717,
    "hint": 12479,
    "Ġdoing": 3661,
    "Ġfeasts": 25370,
    "Ġslide": 10395,
    "Ġhoe": 23355,
    "Ġwindigate": 18912,
    "Ġlifted": 6985,
    "famous": 16917,
    "glit": 23853,
    "Ġconsequ": 6255,
    "Ġarr": 1800,
    "Ġshameful": 19854,
    "physiogn": 26265,
    "Ġfuture": 1070,
    "oars": 9616,
    "Ġforbade": 15217,
    "Ġmuscles": 12092,
    "Ġrocks": 6862,
    "Ġsounding": 8266,
    "Ġwanting": 6722,
    "Ġclams": 19992,
    "vib": 21118,
    "Ġwears": 10242,
    "Ġupdating": 2691,
    "Ġdear": 1542,
    "Ġmargaret": 10378,
    "Ġreinforcement": 3110,
    "Ġsaviour": 20715,
    "reas": 991,
    "reached": 13843,
    "Ġobliged": 4288,
    "Ġabominate": 20068,
    "Ġincluding": 2851,
    "imly": 12691,
    "ication": 989,
    "Ġ177": 13415,
    "Ġdeliberation": 19972,
    "Ġphilosophy": 7104,
    "Ġvales": 21951,
    "crucible": 24843,
    "currents": 23848,
    "Ġfac": 6381,
    "Ġfiltering": 23930,
    "Ġwilt": 9645,
    "toller": 20675,
    "itating": 9652,
    "Ġcordial": 16836,
    "Ġyoked": 15738,
    "ampled": 18886,
    "Ġinterval": 4053,
    "Ġsecrecy": 7315,
    "Ġvision": 1533,
    "Ġstuck": 9222,
    "Ġsphynx": 20714,
    "le": 279,
    "Ġ110": 24434,
    "Ġgrey": 4514,
    "baby": 25516,
    "Ġbonds": 17871,
    "Ġlion": 9677,
    "Ã": 132,
    "ave": 979,
    "standers": 18480,
    "Ġinstruction": 14346,
    "Ġhot": 4258,
    "Ġsog": 22081,
    "Ġobject": 1397,
    "occasionally": 13523,
    "sea": 4764,
    "Ġsailors": 4278,
    "Ġblinded": 13274,
    "Ġbreaches": 14522,
    "strangers": 20339,
    "ust": 495,
    "Ġsurvivors": 25732,
    "Ġwildest": 16511,
    "wag": 21126,
    "iform": 2199,
    "Ġyounge": 16290,
    "arle": 21444,
    "ploy": 2000,
    "ly": 319,
    "Ġtarpaulin": 26158,
    "Ġbewitched": 25976,
    "ada": 14013,
    "Ġdoubtless": 6196,
    "Ġaverage": 3142,
    "pred": 2804,
    "asily": 13948,
    "Ġdiscovering": 13361,
    "Ġgrind": 18736,
    "Ġcold": 3034,
    "arris": 13212,
    "Ġhorrors": 10481,
    "Ġmagnanim": 14474,
    "Ġtierce": 15480,
    "arness": 11674,
    "Ġbrilliantly": 25123,
    "Ġascended": 8669,
    "Ġn": 300,
    "Ġbetween": 791,
    "Ġagric": 22520,
    "ame": 642,
    "grief": 13733,
    "Ġexplored": 23521,
    "Ġsheer": 14152,
    "astron": 22174,
    "Ġpenny": 16316,
    "ells": 5305,
    "Ġmould": 6519,
    "Ġelephant": 8257,
    "Ġinns": 17932,
    "Ġcorrob": 16268,
    "Ġhospital": 15041,
    "ruin": 22185,
    "Ġmuseum": 15274,
    "Ġbarber": 23792,
    "Ġconcealment": 16915,
    "ar": 285,
    "Ġlifetime": 13605,
    "hol": 3837,
    "red": 398,
    "Ġdiverged": 23596,
    "Ġstyle": 6945,
    "Ġjam": 10952,
    "agreeable": 5830,
    "Ġwatson": 3597,
    "ption": 7397,
    "linging": 16081,
    "Ġconcoct": 19047,
    "Ġsoothingly": 25050,
    "Ġconsoling": 19460,
    "uding": 16151,
    "Ġtheoretically": 3567,
    "Ġjib": 14195,
    "Ġmitt": 21310,
    "Ġsty": 6252,
    "elfare": 11780,
    "Ġsensitive": 13200,
    "Ġthird": 4189,
    "function": 4477,
    "Ġsouthwards": 19636,
    "Ġbeam": 2882,
    "Ġsuspicion": 6212,
    "Ġlooks": 4167,
    "Ġeither": 2603,
    "¢": 100,
    "dark": 5613,
    "Ġminority": 18754,
    "Ġsurmisings": 26594,
    "Ġwidower": 24237,
    "Ġphilosopher": 12187,
    "Ġcomprises": 22577,
    "Ġnerves": 2626,
    "Ġintimate": 6550,
    "Ġattentions": 5879,
    "Ġdrank": 16537,
    "forever": 22524,
    "pleasantness": 19773,
    "prof": 7699,
    "Ġheel": 9686,
    "Ġnoisy": 13322,
    "Ġinternal": 2247,
    "Ġhump": 5854,
    "Ġsensible": 4976,
    "Ġtransferred": 16468,
    "opÃ¦": 12876,
    "Ġprofusion": 23570,
    "Ġmult": 1021,
    "Ġstamping": 20034,
    "rot": 21536,
    "Ġsuggestions": 24452,
    "Ġveil": 7935,
    "groom": 8743,
    "Ġcoron": 4465,
    "authority": 13594,
    "Ġagent": 6278,
    "plumed": 21960,
    "Ġvertically": 19383,
    "Ġinquiring": 9001,
    "osp": 6853,
    "Ġmaids": 19694,
    "Ġvastly": 23863,
    "please": 8178,
    "thrust": 10263,
    "Ġlong": 794,
    "Ġunivers": 2126,
    "Ġundiscernible": 22073,
    "decided": 13218,
    "anyth": 5438,
    "officer": 17054,
    "weather": 7228,
    "Ġinfle": 16365,
    "mpus": 13759,
    "Ġpostponed": 20393,
    "elizabeth": 1988,
    "Ġwinchester": 10068,
    "breathing": 25336,
    "Ġopposing": 12044,
    "ror": 7350,
    "Ġperem": 12936,
    "Ġworked": 6584,
    "Ġsovereign": 10064,
    "Ġbedside": 19125,
    "Ġmoses": 21318,
    "Ġsupreme": 13610,
    "similar": 13456,
    "Ġpos": 1010,
    "destined": 24115,
    "Ġmachinations": 25768,
    "secondly": 16985,
    "Ġpermitting": 22405,
    "Ġencourage": 10382,
    "Ġother": 759,
    "ĠâĢľâĢĻ": 22259,
    "gabriel": 15363,
    "Ġrecede": 25969,
    "Ġhandy": 12941,
    "duchess": 18464,
    "Ġdusting": 24598,
    "Ġalbatross": 10872,
    "Ġmonica": 22984,
    "likes": 18816,
    "Ġbully": 23859,
    "Ġboil": 16107,
    "Ġowe": 8116,
    "Ġgenial": 12198,
    "batim": 25019,
    "whe": 1076,
    "lover": 18540,
    "Ġcatching": 9480,
    "Ġradiant": 16810,
    "Ġprelimin": 8863,
    "Ġcircular": 13114,
    "Ġdegenerated": 20509,
    "Ġsummer": 4791,
    "viv": 17699,
    "Ġconfession": 11236,
    "Ġdiminishing": 4211,
    "ificial": 604,
    "Ġgroups": 3719,
    "Ġbedfellow": 16441,
    "likely": 9025,
    "Ġknives": 14839,
    "Ġrates": 1406,
    "inates": 21183,
    "Ġimper": 4503,
    "disgrace": 16459,
    "individual": 18437,
    "Ġpeg": 22693,
    "Ġdummy": 25450,
    "imson": 12693,
    "Ġpossessor": 23827,
    "ill": 447,
    "av": 739,
    "acknowledged": 15205,
    "Ġseverity": 15823,
    "ver": 331,
    "eye": 6225,
    "espe": 3498,
    "uguese": 20734,
    "/`)": 13663,
    "Ġdraughts": 20224,
    "ds": 4689,
    "Ġniece": 5712,
    "Ġarc": 14160,
    "order": 1960,
    "Ġunfolding": 17086,
    "ologies": 18771,
    "Ġsurmount": 20004,
    "Ġceremonious": 24838,
    "long": 2914,
    "Ġbanquet": 15243,
    "Ġbranded": 14381,
    "Ġhigh": 932,
    "Ġ199": 3012,
    "ectual": 21920,
    "Ġjapanese": 10634,
    "Ġswayed": 15049,
    "Ġoutrageous": 20613,
    "arded": 5029,
    "Ġspecially": 12000,
    "ineas": 15825,
    "ky": 4521,
    "Ġhastening": 19338,
    "Ġegyptians": 25290,
    "Ġspur": 18302,
    "olly": 3229,
    "Ġmurderous": 8317,
    "Ġsprawling": 22140,
    "Ġoutlined": 22325,
    "Ġorganisation": 23585,
    "Ġstile": 21737,
    "Ġcoroner": 7509,
    "Ġendeavour": 4679,
    "Ġdons": 17890,
    "Ġappre": 5165,
    "shott": 11797,
    "iving": 1727,
    "Ġprey": 6415,
    "Ġpeaceable": 14725,
    "Ġstain": 18067,
    "Ġadduced": 26525,
    "Ġquitting": 7645,
    "persons": 24176,
    "Ġmenacing": 23112,
    "_)âĢĶ": 20147,
    "Ġinfinity": 23286,
    "Ġgently": 7171,
    "Ġnatur": 17336,
    "!_âĢĶ": 19976,
    "Ġcoronation": 13337,
    "expedition": 26079,
    ")(": 2984,
    "resolution": 17767,
    "Ġcases": 3960,
    "trying": 15440,
    "god": 4864,
    "Ġastronomy": 25927,
    "Ġende": 21937,
    "Ġbloss": 19257,
    "Ġfrocks": 23926,
    "Ġstilly": 25974,
    "Ġstarted": 4151,
    "mon": 2308,
    "Ġshroud": 6483,
    "ensive": 6280,
    "always": 5708,
    "Ġinvisible": 7326,
    "bowl": 14893,
    "Ġbottles": 16572,
    "âĢĶ.âĢĿ": 22260,
    "Ġpret": 3037,
    "Ġfiddle": 25445,
    "ology": 1545,
    "Ġmen": 1436,
    "metal": 24764,
    "Ġsporty": 19892,
    "arial": 5531,
    "Ġsport": 6688,
    "zek": 16241,
    "Ġfresher": 23211,
    "consolatory": 25307,
    "ouble": 2661,
    "Ġgave": 2218,
    "Ġrags": 18642,
    "Ġevangel": 11281,
    "Ġforeb": 12006,
    "Ġlower": 2662,
    "Ġtour": 9149,
    "Ġpoised": 22594,
    "Ġspoil": 17008,
    "Ġfearfulness": 23516,
    "Ġsnorting": 23744,
    "oves": 15405,
    "Ġcritic": 19123,
    "Ġnotion": 7884,
    "Ġbabel": 24425,
    "Ġfettered": 24568,
    "Ġharris": 13929,
    "Ġhailing": 11696,
    "acific": 4960,
    "gment": 4392,
    "abled": 12798,
    "uce": 11537,
    "alongside": 19792,
    "Ġglens": 18850,
    "ned": 3492,
    "Ġinclude": 1875,
    "Ġhelplessly": 20081,
    "rooms": 10433,
    "Ġtyp": 1131,
    "ef": 5134,
    "compassion": 12371,
    "sherlock": 5422,
    "Ġtyphoon": 12392,
    "Ġshaking": 6552,
    "fairly": 17221,
    "million": 25752,
    "alcul": 15631,
    "Ġliving": 3065,
    "Ġcetacea": 20556,
    "urer": 18124,
    "Ġunreserved": 19400,
    "Ġvaguely": 17368,
    "planks": 21959,
    "Ġcandidate": 16699,
    "Ġsingled": 23775,
    "Ġexempl": 21835,
    "mankind": 14376,
    "Ġdog": 4195,
    "treatment": 20415,
    "Ġdetested": 14179,
    "Ġtook": 1855,
    "app": 1041,
    "tical": 10130,
    "Ġbaff": 10800,
    "osal": 11762,
    "Ġcomplaint": 24775,
    "Ġdundee": 16998,
    "Ġfashions": 17887,
    "Ġattending": 3286,
    "cad": 17506,
    "topp": 22570,
    "Ġassu": 21902,
    "dough": 15337,
    "Ġdiscoverer": 26036,
    "handle": 11191,
    "Ġrans": 21971,
    "Ġar": 479,
    "Ġrainbows": 19651,
    "Ġdistantly": 18535,
    "Ġphyseter": 26587,
    "Ġsomnam": 23009,
    "Ġscenes": 5731,
    "Ġsprain": 18304,
    "Ġvalid": 1716,
    "Ġintervening": 17269,
    "Ġregulate": 22592,
    "Ġmil": 4255,
    "Ġbead": 21755,
    "Ġhindrance": 25221,
    "Ġlate": 3376,
    "glorious": 19370,
    "explanations": 25235,
    "Ġchoose": 5983,
    "Ġag": 683,
    "Ġturnkeys": 23033,
    "Ġstarry": 16924,
    "Ġtrapped": 23080,
    "ersampling": 18217,
    "il": 329,
    "Ġwinter": 5220,
    "Ġdevelop": 1659,
    "Ġrio": 23894,
    "dissatisfied": 26613,
    "Ġcrawled": 17044,
    "ica": 10200,
    "Ġredeemed": 25790,
    "Ġwh": 328,
    "esteemed": 26010,
    "Ġbathed": 17867,
    "future": 13719,
    "Ġsculpt": 15950,
    "Ġdiscrete": 2476,
    "Ġscruples": 15081,
    "Ġdisposal": 19379,
    "Ġtug": 11552,
    "Ġundiscovered": 18253,
    "irst": 879,
    "anders": 18155,
    "Ġissue": 2310,
    "Ġwails": 21299,
    "ifice": 7197,
    "Ġwharf": 9561,
    "finish": 24383,
    "Ġturkey": 19221,
    "road": 6678,
    "Ġtrophy": 20010,
    "carriage": 9948,
    "Ġstriding": 16092,
    "Ġwoke": 21292,
    "clifford": 23161,
    "Ġstalls": 25648,
    "Ġassurance": 7775,
    "Ġreasonably": 11094,
    "Ġsucked": 14138,
    "Ġclicked": 22358,
    "Ġspices": 22131,
    "iless": 10283,
    "spir": 5738,
    "Ġknowingly": 18481,
    "Ġsternly": 16710,
    "hind": 20896,
    "Ġharpoons": 5659,
    "Ġappertain": 22221,
    "exasper": 22432,
    "Ġbass": 17857,
    "hitherto": 17285,
    "Ġfaultless": 24539,
    "Ġcellars": 24666,
    "Ġsin": 1515,
    "Ġappe": 1543,
    "occup": 7753,
    "Ġdissu": 18551,
    "Ġcanallers": 13630,
    "Ġcompressed": 21855,
    "heavenly": 20048,
    "Ġemma": 20697,
    "Ġheat": 5453,
    "Ġblotches": 25315,
    "Ġspectator": 19409,
    "wed": 5796,
    "Ġremnants": 22797,
    "Ġfills": 12598,
    "crimin": 17510,
    "snowy": 20286,
    "augment": 18830,
    "values": 4973,
    "Ġidiotic": 25589,
    "boone": 23257,
    "brad": 20782,
    "elephant": 12354,
    "Ġname": 2084,
    "Ġdented": 17893,
    "Ġwhimsical": 20431,
    "Ġfig": 3625,
    "Ġprimal": 17107,
    "slept": 17171,
    "Ġconclusions": 10555,
    "allied": 7409,
    "Ġtrepidation": 19217,
    "Ġcomstock": 21856,
    "Ġmission": 13010,
    "Ġlightning": 5750,
    "Ġclutch": 15055,
    "thumb": 18219,
    "now": 548,
    "Ġtragic": 15258,
    "Ġcensured": 25097,
    "Ġcargo": 16292,
    "Ġlombardy": 26464,
    "Ġturtle": 4206,
    "suspect": 9542,
    "Ġrubber": 22790,
    "Ġcumberland": 21358,
    "abb": 15742,
    "Ġtext": 2267,
    "Ġresource": 10994,
    "who": 2447,
    "Ġpunctures": 25136,
    "Ġperturbed": 20443,
    "arrangement": 17417,
    "Ġchest": 5185,
    "Ġtastes": 15479,
    "Ġnoting": 18222,
    "Ġlothario": 26186,
    "Ġexacted": 23605,
    "Ġsoapstone": 20514,
    "Ġsimultaneously": 4313,
    "Ġtass": 15472,
    "servants": 15039,
    "Ġrefreshed": 15293,
    "sub": 4661,
    "hanging": 10102,
    "Ġveritable": 19384,
    "eding": 7165,
    "Ġtaller": 16688,
    "Ġclimax": 25054,
    "Ġfut": 15578,
    "ames": 2956,
    "Ġstrands": 25575,
    "Ġconsisted": 10420,
    "Ġperseverance": 13600,
    "Ġseemingly": 9320,
    "Ġcoleman": 22589,
    "Ġcrowder": 19459,
    "salesman": 20674,
    "solved": 7685,
    "Ġsummarization": 3647,
    "Ġnational": 13944,
    "Ġhorrid": 8000,
    "Ġsallied": 12541,
    "dimly": 15349,
    "Ġglue": 15677,
    "renew": 24449,
    "Ġconscious": 7744,
    "?âĢĻâĢĿ": 23645,
    "Ġcathed": 14549,
    "grass": 23416,
    "Ġfail": 4150,
    "nothing": 3156,
    "Ġentailed": 11028,
    "Ġswiftness": 9929,
    "Ġcheat": 19023,
    "Ġwilled": 21294,
    "Ġtumbled": 13409,
    "Ġrotation": 25475,
    "Ġmisgivings": 15294,
    "Ġstating": 15725,
    "Ġours": 4613,
    "Ġpolluted": 25594,
    "Ġbestirred": 20454,
    "Ġunnearable": 26517,
    "Ġchurned": 18386,
    "Ġtru": 4108,
    "Ġmystery": 5509,
    "Ġretention": 23075,
    "Ġdisent": 22528,
    "Ġhumans": 8932,
    "Ġtradeoff": 2657,
    "lady": 4434,
    "Ġminister": 18753,
    "Ġpleasantly": 14521,
    "Ġmisery": 3813,
    "Ġcraggy": 23532,
    "Ġcirclings": 26432,
    "ophisticated": 22483,
    "000": 2558,
    "oul": 4700,
    "vellers": 16675,
    "Ġrearing": 12681,
    "emotion": 21935,
    "lion": 20946,
    "Ġfrance": 7682,
    "Ġunforeseen": 22058,
    "Ġprynne": 25541,
    "ood": 963,
    "Ġjelly": 22305,
    "tor": 15434,
    "fired": 20862,
    "lo": 681,
    "affa": 23779,
    "Ġlose": 5028,
    "Ġbowditch": 19325,
    "Ġeste": 6085,
    "Ġrain": 5005,
    "Ġreject": 7385,
    "isation": 13895,
    "provoke": 26072,
    "Ġinve": 17931,
    "Ġoscill": 2858,
    "dishonourable": 26367,
    "Ġtrespass": 23602,
    "started": 10846,
    "Ġalcoves": 26487,
    "unw": 14059,
    "ouder": 17902,
    "Ġadmits": 23556,
    "glancing": 11215,
    "Ġdesertion": 24786,
    "Ġdom": 2671,
    "included": 19210,
    "Ġupon": 718,
    "neighbouring": 19967,
    "ladyship": 14831,
    "projecting": 26074,
    "approach": 24834,
    "Ġproposals": 10615,
    "Ġattested": 22632,
    "Ġed": 2242,
    "anxiously": 15113,
    "Ġentertain": 6055,
    "Ġposterity": 17404,
    "Ġraven": 16116,
    "Ġpropontis": 17467,
    "Ġcut": 2641,
    "soled": 14336,
    "Ġkeeps": 8268,
    "Ġcontinual": 6777,
    "tro": 15435,
    "Ġhugest": 17016,
    "Ġstupid": 7603,
    "Ġmaintains": 2144,
    "chancing": 22923,
    "Ġser": 1674,
    "ole": 9615,
    "Ġinvolving": 18763,
    "Ġchamp": 18382,
    "Ġweeps": 24950,
    "Ġacquired": 13048,
    "Ġminimum": 23044,
    "Ġsaws": 23053,
    "creator": 26382,
    "acknowledge": 18469,
    "bes": 6643,
    "77": 15303,
    "inal": 15482,
    "police": 10585,
    "Ġbeliever": 25847,
    "infernal": 24663,
    "beings": 12880,
    "itable": 5437,
    "Ġdevote": 10341,
    "blog": 19842,
    "Ġease": 5629,
    "Ġepaulets": 24906,
    "Ġappropriate": 2250,
    "Ġimportance": 4901,
    "Ġunholy": 26220,
    "ulty": 22572,
    "Ġspurned": 12800,
    "Ġinn": 4591,
    "Ġvis": 1055,
    "Ġmighty": 4231,
    "lock": 1471,
    "Ġrealities": 18983,
    "print": 23815,
    "Ġnarwhale": 12296,
    "Ġcogn": 11003,
    "turbable": 24530,
    "ine": 407,
    "possible": 5743,
    "Ġunmingled": 18264,
    "Ġbeaut": 2392,
    "Ġheron": 22078,
    "Ġlaughter": 9029,
    "Ġstumble": 26483,
    "saturday": 14860,
    "Ġdying": 2136,
    "Ġstro": 4596,
    "Ġblades": 11898,
    "strained": 21662,
    "Ġnephews": 24712,
    "chiefly": 14848,
    "Ġanat": 8125,
    "Ġgroping": 13668,
    "Ġender": 11693,
    "Ġsuspend": 14609,
    "Ġhoist": 11979,
    "Ġtruck": 19514,
    "sixty": 24853,
    "Ġpatch": 4183,
    "Ġdegrees": 7293,
    "furn": 10093,
    "Ġconcerned": 5332,
    "vital": 17701,
    "Ġassured": 4374,
    "Ġunimag": 12779,
    "Ġgrand": 3593,
    "Ġpreceded": 13431,
    "dissatisf": 26130,
    "Ġcommunicative": 24547,
    "Ġirresolute": 24917,
    "Ġcultivated": 17366,
    "ĠĠĠĠĠĠĠĠĠĠĠĠĠĠĠĠĠĠĠĠĠĠĠĠĠĠ": 13391,
    "Ġgame": 3629,
    "Ġdisobey": 18560,
    "sacred": 17029,
    "Ġlecture": 13570,
    "take": 4577,
    "twig": 23702,
    "Ġcogent": 14275,
    "Ġrequires": 1047,
    "Ġindividually": 22961,
    "Ġbreach": 11976,
    "ĠĠĠĠĠĠĠĠĠĠĠĠĠĠĠĠĠĠĠĠĠĠ": 16229,
    "abilizing": 2927,
    "amp": 2605,
    "Ġrouse": 15824,
    "bs": 3775,
    "Ġgardeners": 12124,
    "Ġwhip": 8453,
    "Ġcreditable": 19625,
    "strangely": 17278,
    "Ġexordium": 26493,
    "Ġfun": 525,
    "ground": 4673,
    "Ġrefined": 18700,
    "causes": 20346,
    "Ġdismissed": 12896,
    "Ġbag": 5699,
    "oman": 2020,
    "Ġlace": 13951,
    "length": 7135,
    "Ġshining": 8173,
    "Ġchancing": 22253,
    "Ġrece": 11640,
    "vit": 13803,
    "Ġquoted": 22420,
    "Ġgrammar": 1062,
    "biscuit": 17502,
    "n": 82,
    "Ġknow": 632,
    "Ġwines": 21290,
    "r": 86,
    "Ġseven": 4543,
    "oters": 21804,
    "Ġhair": 3314,
    "Ġdiscrimin": 2544,
    "bastian": 10675,
    "Ġhans": 12630,
    "Ġgrimesby": 11458,
    "alterable": 13627,
    "patient": 25343,
    "Ġcomp": 723,
    "Ġofficio": 23819,
    "Ġdip": 13909,
    "Ġmankind": 6699,
    "Ġvagabond": 20206,
    "orne": 17874,
    "Ġdistributed": 18662,
    "wander": 17710,
    "Ġvult": 12756,
    "Ġsituation": 4072,
    "Ġplayfully": 19240,
    "Ġridic": 7507,
    "mph": 20974,
    "Ġdivers": 9667,
    "Ġpresentiment": 18990,
    "Ġfortifications": 23622,
    "Ġrumors": 11322,
    "Ġgamy": 18001,
    "devilish": 17082,
    "Ġexclusion": 19399,
    "twelve": 14623,
    "Ġhunter": 5401,
    "Ġbequeathed": 20704,
    "Ġenlivened": 26209,
    "Ġfaithfully": 14889,
    "Ġcyp": 21348,
    "gged": 3777,
    "Ġhunting": 7258,
    "circum": 16738,
    "Ġnon": 1625,
    "noble": 7924,
    "Ġartistic": 18613,
    "Ġclump": 15969,
    "Ġhammer": 6095,
    "Ġpeculiar": 3155,
    "pleas": 3850,
    "comput": 1963,
    "Ġ27": 8618,
    "Ġbackgammon": 22665,
    "iters": 21332,
    "ĠĠĠĠĠĠĠĠĠĠĠĠĠĠĠĠĠĠĠĠĠĠĠĠĠĠĠĠĠ": 19702,
    "Ġelect": 10843,
    "Ġeddying": 17118,
    "aul": 6353,
    "Ġloathsome": 13530,
    "ore": 418,
    "bunger": 20405,
    "Ġmidday": 23635,
    "Ġdost": 7636,
    "Ġencourages": 2062,
    "Ġvirginia": 13502,
    "semic": 21825,
    "kempt": 20943,
    "Ġchronic": 9931,
    "Ġimpersonal": 17398,
    "Ġsepulchral": 25893,
    "Ġfunere": 22264,
    "ignified": 14491,
    "Ġgrie": 3584,
    "subtle": 24245,
    "Ġwith": 349,
    "itors": 2916,
    "Ġlandsmen": 11352,
    "impl": 21711,
    "Ġparad": 2843,
    "Ġlift": 8814,
    "conject": 8882,
    "Ġcost": 2505,
    "Ġlimits": 3452,
    "sli": 11524,
    "Ġprotesting": 14743,
    "Ġ128": 24472,
    "Ġalleghan": 25796,
    "acter": 2506,
    "Ġdescribes": 3125,
    "poles": 16211,
    "Ġcrutch": 23447,
    "Ġsordid": 26423,
    "ulgent": 18152,
    "sulphur": 25910,
    "Ġfooting": 14484,
    "former": 11751,
    "Ġcrammed": 16472,
    "begging": 22502,
    "Ġswam": 6448,
    "ooping": 21009,
    "Ġresentment": 7529,
    "things": 6034,
    "Ķ": 247,
    "Ġjoes": 19232,
    "Ġvicious": 24402,
    "Ġobli": 9318,
    "Ġth": 299,
    "Ġimpat": 4457,
    "Ġexpressing": 12011,
    "conspicuous": 26249,
    "iag": 20918,
    "Ġsurround": 4619,
    "Ġalco": 21787,
    "shish": 11796,
    "nical": 20993,
    "Ġpatched": 16374,
    "Ġclust": 9276,
    "spin": 22741,
    "Ġuttermost": 19491,
    "Ġtries": 9152,
    "Ġporpoises": 13385,
    "recollection": 25349,
    "Ġneither": 3686,
    "nut": 12498,
    "Ġinterpreter": 23214,
    "ceive": 3066,
    "Ġsil": 1798,
    "Ġupp": 13994,
    "Ġbos": 4876,
    "+": 15,
    "hide": 10704,
    "inking": 6710,
    "sir": 5001,
    "Ġmurdered": 6464,
    "Ġmass": 3780,
    "Ġpines": 12621,
    "Ġsuperlative": 26075,
    "Ġbreathing": 9447,
    "Ġpitiful": 13242,
    "trop": 15438,
    "Ġwept": 7183,
    "Ġwhistle": 9068,
    "bra": 6220,
    "Ġlinks": 13957,
    "umbling": 6613,
    "Ġblubber": 5666,
    "achel": 7033,
    "table": 5795,
    "reproach": 15189,
    "lung": 17592,
    "Ġperverseness": 13657,
    "Ġrefuge": 8541,
    "const": 5940,
    "Ġtelegram": 15226,
    "gage": 13725,
    "Ġnobleman": 19395,
    "Ġdisgusted": 14992,
    "Ġow": 8410,
    "merged": 11195,
    "oing": 15403,
    "tled": 3457,
    "Ġexpon": 970,
    "Ġbelted": 22952,
    "iard": 9603,
    "fes": 20853,
    "Ġacts": 2294,
    "Ġbanks": 6814,
    "Ġshr": 4227,
    "Ġazure": 12377,
    "Ġlac": 17967,
    "rages": 15684,
    "icher": 9204,
    "Ġstudy": 1779,
    "Ġdid": 836,
    "mblings": 19783,
    "Ġsubsiding": 23437,
    "Ġstruct": 2786,
    "ort": 523,
    "Ġenormousness": 24511,
    "Ġbackbone": 22661,
    "Ġmultiple": 1186,
    "beautiful": 10650,
    "odings": 4401,
    "impressed": 12695,
    "whilst": 18372,
    "ieved": 3233,
    "Ġuntutored": 19168,
    "Ġavoided": 13262,
    "Ġpalms": 8647,
    "Ġburden": 8611,
    "Ġyea": 8918,
    "Ġregularization": 1204,
    "tum": 11533,
    "Ġgemin": 21614,
    "pered": 4200,
    "Ġprocure": 9512,
    "umes": 10918,
    "surd": 6933,
    "situation": 11438,
    "Ġenough": 1762,
    "Ġdirecting": 16302,
    "Ġeveryone": 8920,
    "Ġcruellest": 19661,
    "Ġbristling": 20530,
    "prise": 7727,
    "fingers": 17372,
    "Ġsums": 2905,
    "rown": 2190,
    "Ġmerchantmen": 19862,
    "xter": 9148,
    "Ġdevice": 1927,
    "Ġlies": 5297,
    "ĠĠĠĠĠĠĠĠĠĠĠĠĠĠĠĠĠĠĠĠĠĠĠĠĠĠĠĠĠĠĠĠĠĠĠĠĠĠĠĠĠ": 19585,
    "ĳ": 244,
    "Ġattaining": 15806,
    "Ġgret": 21605,
    "Ġyoun": 1409,
    "Ġmarvelled": 18875,
    "Ġexistence": 4708,
    "Ġdick": 3497,
    "Ġinsert": 19907,
    "Ġearliest": 9832,
    "yl": 7819,
    "tub": 9145,
    "Ġmusky": 19385,
    "examined": 17268,
    "Ġvir": 7001,
    "hears": 12537,
    "Ġyet": 1026,
    "Ġsign": 2495,
    "Ġshapeless": 24523,
    "Ġbulkhead": 24507,
    "ledge": 1330,
    "Ġexact": 2541,
    "atible": 17773,
    "Ġsinging": 7724,
    "Ġscuffle": 20611,
    "Ġratio": 5066,
    "Ġ126": 24470,
    "gest": 5426,
    "anx": 8787,
    "----": 4057,
    "Ġthirty": 4944,
    "disappointed": 25192,
    "Ġsullen": 9159,
    "Ġexpressions": 7706,
    "ension": 6570,
    "Ġinfamous": 16367,
    "oriented": 2950,
    "Ġfeatures": 1434,
    "pus": 3415,
    "Ġinterest": 2249,
    "Ġadapted": 11041,
    "caps": 20809,
    "Ġcapital": 7981,
    "crime": 14777,
    "camp": 15332,
    "Ġass": 1505,
    "Ġxiv": 23411,
    "acquaintance": 6937,
    "scrape": 25699,
    "Ġindies": 22955,
    "belais": 24041,
    "Ġderivative": 3002,
    "Ġoutfits": 22326,
    "Ġrepublic": 14532,
    "Ġsensit": 2949,
    "upper": 11540,
    "whel": 7665,
    "Ġbig": 5806,
    "Ġterminating": 23514,
    "invariably": 26417,
    "spades": 14338,
    "kind": 3862,
    "Ġpian": 13919,
    "Ġbehaviour": 4386,
    "Ġknight": 9729,
    "Ġimmeasurable": 26231,
    "Ġimpenet": 14221,
    "Ġmasking": 2419,
    "Ġcontemptuous": 24677,
    "Ġcannot": 1668,
    "rann": 21047,
    "men": 1486,
    "Ġvisits": 8222,
    "irs": 14073,
    "Ġgu": 1329,
    "Ġexamples": 2604,
    "classification": 4389,
    "Ġprayed": 16669,
    "Ġtwain": 16122,
    "Ġdireful": 11019,
    "mid": 5616,
    "Ġagree": 7646,
    "afforded": 25866,
    "ety": 3521,
    "mush": 20979,
    "Ġaccumulated": 11934,
    "eli": 3872,
    "Ġcoars": 14273,
    "same": 5362,
    "Ġsilver": 7463,
    "Ġcompacted": 23512,
    "Ġlegend": 14576,
    "privilege": 25264,
    "Ġlands": 6595,
    "j": 78,
    "Ġpond": 13918,
    "ills": 1628,
    "quietly": 10594,
    "Ġpetty": 19598,
    "Ġrecovered": 5481,
    "Ġeffort": 8203,
    "Ġchamois": 16801,
    "itudes": 3017,
    "import": 5668,
    "shri": 14236,
    "delivered": 24100,
    "Ġhoping": 11104,
    "pray": 5429,
    "Ġdisagree": 22537,
    "Ġdestined": 7976,
    "Ġstudents": 23229,
    "Ġcou": 5288,
    "attending": 18918,
    "Ġdisastrous": 16063,
    "prince": 23818,
    "-------": 20392,
    "Ġretrogress": 23077,
    "fortnight": 13091,
    "Ġravines": 25833,
    "dost": 14536,
    "Ġtemporarily": 11168,
    "orses": 6053,
    "Ġutterance": 14766,
    "Ġret": 1382,
    "Ġtransparency": 10678,
    "Ġoptimizers": 18631,
    "Ġcase": 1941,
    "ĠâĢĻ": 3045,
    "Ġremainder": 9860,
    "pect": 1254,
    "explained": 23149,
    "Ġdisrespect": 18554,
    "surface": 10532,
    "effectually": 25131,
    "Ġcolour": 4462,
    "omeness": 18018,
    "Ġdespite": 19356,
    "Ġhark": 8430,
    "quadr": 15767,
    "'(": 2982,
    "pointed": 9810,
    "Ġbind": 12586,
    "tart": 21070,
    "Ġdrinks": 24281,
    "Ġcruel": 5121,
    "roof": 17956,
    "Ġfitly": 24002,
    "opportunity": 12278,
    "Ġcentrally": 23835,
    "Ġenv": 3009,
    "Ġantagonist": 26330,
    "Ġgradient": 450,
    "Ġapparition": 8068,
    "Ġtal": 7563,
    "Ġknitted": 19592,
    "Ġnames": 4534,
    "Ġfaces": 6010,
    "duty": 20242,
    "metic": 14986,
    "Ġdiscours": 18719,
    "Ġpant": 10818,
    "Ġbeatrix": 24206,
    "Ġsemblance": 20736,
    "Ġimpediments": 26242,
    "Ġfl": 1280,
    "Ġthereby": 7643,
    "Ġchances": 9265,
    "ckets": 6842,
    "Ġunperceived": 22042,
    "reward": 15511,
    "Ġmurmured": 7479,
    "Ġeffectually": 16170,
    "Ġleviathans": 8283,
    "Ġlids": 12279,
    "Ġcondense": 21813,
    "encouragement": 17425,
    "Ġastonishment": 4795,
    "Ġuses": 1208,
    "ú": 187,
    "Ġpersuaded": 5769,
    "Ġshone": 7403,
    "Ġtort": 5903,
    "interest": 5421,
    "Ġpaltry": 16692,
    "Ġstone": 4647,
    "ishly": 14201,
    "Ġcit": 10784,
    "Ġdesperate": 7777,
    "viii": 12023,
    "horror": 13162,
    "Ġtra": 1385,
    "Ġcourage": 4635,
    "heaving": 21210,
    "Ġmotionless": 8325,
    "promontory": 24727,
    "Ġlodger": 24094,
    "pass": 4293,
    "Ġduchess": 4800,
    "Ġdinner": 4245,
    "Ġfleets": 23777,
    "Ġpart": 860,
    "oding": 1463,
    "Ġcheerful": 6623,
    "Ġsummoned": 9913,
    "domestic": 19828,
    "Ġmyth": 18221,
    "Ġpettiness": 24231,
    "Ġincognita": 26552,
    "Ġinterested": 6458,
    "athed": 7829,
    "Ġcloak": 9536,
    "Ġambition": 11433,
    "postp": 24636,
    "Ġdenied": 9002,
    "proceeded": 25191,
    "unpardonable": 21895,
    ".âĢĻ": 1721,
    "Ġcarr": 23095,
    "Ġjolly": 6857,
    "Ġcharacteristic": 12051,
    "Ġdivin": 13277,
    "ě": 220,
    "Ġtolland": 24993,
    "Ġdiet": 13912,
    "icate": 9203,
    "Ġsar": 21216,
    "fixed": 7547,
    "Ġspasmodic": 20401,
    "pence": 15411,
    "lour": 15383,
    "Ġmutters": 23959,
    "anging": 3551,
    "librarian": 26569,
    "thoughts": 9937,
    "Ġpump": 12625,
    "summon": 23419,
    "Ġrepast": 16413,
    "Ġfrigid": 17354,
    "from": 1992,
    "Ġgramm": 8172,
    "Ġensued": 11395,
    "ience": 819,
    "ph": 925,
    "Ġdefine": 9817,
    "mering": 12494,
    "Ġfamine": 16329,
    "Ġtheoretic": 23315,
    "Ġcircumstances": 3925,
    "Ġwr": 1547,
    "Ġbridges": 24683,
    "try": 7813,
    "Ġsteadfastly": 10653,
    "Ĝ": 221,
    "conversation": 7123,
    "Ġ$": 21153,
    "Ġjealousy": 13579,
    "Ġroots": 11186,
    "Ġdismast": 12892,
    "Ġglorious": 11076,
    "Ġpretend": 7722,
    "mira": 20981,
    "Ġassociations": 14965,
    "enance": 3370,
    "Ġplant": 8902,
    "Ġpeeped": 10014,
    "Ġwonders": 7499,
    "ĠĠĠĠĠĠĠĠĠĠĠĠĠĠĠĠĠĠĠĠĠĠĠĠĠĠĠĠ": 9977,
    "Ġpur": 2217,
    "Ġupper": 5090,
    "ecess": 17533,
    "Ġnarrow": 5086,
    "Ġnotions": 14101,
    "Ġentropy": 2033,
    "lines": 6958,
    "menced": 23150,
    "Ġdefilements": 26286,
    "Ġlustre": 15137,
    "Ġworaciousness": 22933,
    "Ġathirst": 20601,
    "service": 15038,
    "ntax": 935,
    "propriety": 14369,
    "Ġceremonies": 24837,
    "Ġgrego": 18962,
    "Ġunassuming": 20512,
    "Ġsult": 10768,
    "understand": 1146,
    "Ġconscience": 6928,
    "Ġflew": 5587,
    "Ġtight": 8109,
    "disaster": 23497,
    "1": 21,
    "avers": 17482,
    "Ġphrase": 11188,
    "gone": 6504,
    "lived": 12490,
    "Ġpersuade": 5873,
    "Ġsource": 6805,
    "arrange": 23769,
    "condescended": 26250,
    "beam": 16041,
    "istical": 8491,
    "¨": 106,
    "txt": 12519,
    "Ġminimize": 7051,
    "Ġwonderfully": 10431,
    "Ġturned": 2133,
    "Ġmere": 2713,
    "work": 1696,
    "Ġforc": 9229,
    "unaccountable": 15782,
    "ages": 828,
    "blasted": 20192,
    "Ġfury": 7662,
    "Ġreward": 6145,
    "Ġpained": 19169,
    "Ġenvelopes": 24506,
    "Ġcommission": 6713,
    "deli": 15347,
    "live": 7549,
    "nailed": 20998,
    "Ġhey": 11643,
    "soup": 21061,
    "Ġcharacter": 2796,
    "Ġsympathise": 16795,
    "Ġaxis": 12310,
    "Ġmasts": 6465,
    "Ġsurpasses": 25269,
    "Ġstanders": 19017,
    "Ġjumping": 13345,
    "pine": 13771,
    "Ġslumbers": 18944,
    "´": 117,
    "Ġim": 475,
    "Ġwondrously": 24068,
    "Ġsaintly": 25932,
    "feelings": 5674,
    "Ġlegendary": 20540,
    "increased": 20273,
    "Ġsquaring": 22844,
    "Ġgeneral": 1861,
    "Ġenlightened": 12750,
    "Ġtarts": 10754,
    "Ġknees": 6927,
    "Ġbroadened": 23988,
    "Ġhor": 1662,
    "Ġinconvenience": 9565,
    "shattered": 22459,
    "Ġensigns": 23692,
    "Ġham": 3421,
    "within": 6731,
    "balance": 12009,
    "Ġtoo": 1164,
    "shud": 18489,
    "Ġsalmon": 24065,
    "Ġresiding": 16064,
    "rous": 3751,
    "Ġreliability": 22886,
    "Ġenglishman": 11230,
    "Ġrecre": 22735,
    "Ġtreacherously": 25132,
    "Ġconfidential": 9090,
    "Ġpainful": 6462,
    "Ġminim": 1325,
    "distinguish": 19575,
    "Ġpips": 9851,
    "Ġsweatings": 25709,
    "Ġbarbaric": 10016,
    "Ġandes": 12645,
    "Ġscenery": 11457,
    "idents": 6151,
    "Ġdesolate": 10015,
    "Ġtakes": 5007,
    "iciously": 17976,
    "comfortable": 7319,
    "Ġtroop": 24898,
    "Ġasyl": 12738,
    "Ġhag": 12629,
    "Ġlifeless": 8950,
    "expectant": 24277,
    "Ġcows": 15556,
    "Ġsigned": 11178,
    "angible": 22107,
    "zers": 21149,
    "Ġsig": 868,
    "Ġ34": 16678,
    "Ġseries": 7061,
    "Ġfrancis": 26064,
    "Ġenables": 725,
    "natured": 7111,
    "forgive": 18723,
    "Ġeaster": 15678,
    "jah": 17582,
    "Ġoct": 10160,
    "machine": 1014,
    "Ġlodging": 24095,
    "burgh": 6773,
    "stones": 11638,
    "Ġdelivered": 11117,
    "Ġbalmoral": 16209,
    "Ġdash": 8123,
    "knives": 14915,
    "Ġpossessing": 16577,
    "Ġmosses": 20166,
    "succeed": 10330,
    "Ġcontemporary": 16015,
    "spouting": 25005,
    "Ġtrivial": 10144,
    "Ġeconomically": 25289,
    "ipp": 10104,
    "rent": 1170,
    "Ġadhes": 22111,
    "Ġaye": 3352,
    "beth": 13691,
    "Ġprospects": 9961,
    "ellation": 12752,
    "Ġsplice": 19310,
    "connect": 1294,
    "ccas": 15889,
    "totally": 25418,
    "Ġsnaky": 23745,
    "Ġwarmly": 8989,
    "mechanically": 17302,
    "view": 5897,
    "urred": 8451,
    "Ġmanip": 8874,
    "Ġspatial": 2731,
    "idity": 8834,
    "dually": 3285,
    "Ġbar": 3150,
    "Ġrelatives": 12986,
    "avail": 18605,
    "icken": 6712,
    "profitable": 17071,
    "represent": 9639,
    "Ġluxurious": 17313,
    "Ġcheese": 9379,
    "Ġrepositories": 23368,
    "Ġrises": 9715,
    "Ġrains": 24339,
    "Ġdead": 2171,
    "afer": 17483,
    "plexy": 18578,
    "Ġoverjoyed": 17460,
    "Ġspies": 22129,
    "Ġadored": 18294,
    "dilig": 17284,
    "whis": 7900,
    "Ġconfide": 13102,
    "Ġbalances": 2338,
    "thar": 18218,
    "Ġnewcom": 16224,
    "Ġfain": 5809,
    "Ġunidirectional": 3425,
    "onden": 13846,
    "Ġspeech": 4611,
    "Ġpra": 4348,
    "loops": 12887,
    "Ġtin": 15465,
    "announcement": 24562,
    "plunging": 25988,
    "Ġforming": 7043,
    "Ġnotorious": 18224,
    "Ġwindward": 6884,
    "gradient": 2273,
    "accustomed": 13160,
    "Ġwilfully": 16767,
    "Ġescort": 23509,
    "Ġdines": 21427,
    "Ġvelvets": 25394,
    "vengeance": 13360,
    "Ġbestow": 6455,
    "Ġxli": 14543,
    "stall": 21650,
    "Ġ1950": 11360,
    "Ġmountain": 3371,
    "Ġangelic": 19630,
    "Ġshipmate": 8931,
    "Ġsheep": 10927,
    "Ġcompliments": 8636,
    "Ġcontempt": 6276,
    "Ġrever": 6537,
    "Ġrenegades": 26477,
    "Ġyielded": 14874,
    "usually": 10286,
    "bucket": 17495,
    "Ġvertebra": 20184,
    "ipper": 13742,
    "Ġdispersed": 16598,
    "Ġroaring": 10969,
    "collected": 13216,
    "protested": 13477,
    "Ġireland": 17337,
    "hor": 2571,
    "Ġmutinous": 23961,
    "language": 5129,
    "Ġattracted": 8907,
    "Ġheap": 12682,
    "actions": 8909,
    "isc": 6240,
    "direful": 25897,
    "char": 3504,
    "Ġreferred": 8919,
    "Ġwipe": 25765,
    "Ġearthquake": 14629,
    "ropri": 2179,
    "Ġbias": 1191,
    "Ġfreshet": 25704,
    "Ġey": 8136,
    "Ġsubstit": 19543,
    "reast": 17759,
    "Ġmal": 5221,
    "gallery": 24694,
    "Ġbison": 21391,
    "eted": 7591,
    "Ġstepped": 7052,
    "lected": 1636,
    "Ġdespond": 14669,
    "Ġflushed": 13031,
    "notches": 22756,
    "_": 67,
    "Ġerrors": 2596,
    "Ġspec": 1263,
    "Ġarcher": 22184,
    "Ġchanging": 11756,
    "Ġlost": 2634,
    "tiness": 21074,
    "Ġheels": 10851,
    "apping": 5852,
    "C": 39,
    "force": 12960,
    "fal": 17537,
    "Ġpreposter": 12826,
    "Ġindel": 13008,
    "ap": 546,
    "addressed": 13388,
    "jump": 10105,
    "Ġhove": 17925,
    "rendering": 22345,
    "Ġwonder": 2118,
    "Ġwhirling": 12252,
    "Ġequalled": 13316,
    "Ġarrival": 4732,
    "Ġced": 10785,
    "Ġeternal": 5977,
    "delirious": 19508,
    "pid": 1374,
    "difficulty": 12393,
    "Ġyourself": 2593,
    "Ġpublicly": 13326,
    "els": 1765,
    "Ġdipping": 15595,
    "Ġmorass": 22975,
    "animation": 16980,
    "nose": 17611,
    "voyage": 7786,
    "\"": 6,
    "Ġtattoo": 7358,
    "Ġobserver": 11991,
    "Ġtraversed": 18895,
    "ķ": 248,
    "ourney": 3553,
    "Ġpersonages": 23543,
    "Ġhighway": 14350,
    "Ġscaled": 2107,
    "Ġdeplored": 20508,
    "Ġ67": 19663,
    "Ġnugent": 26458,
    "Ġnarrower": 24353,
    "Ġsmile": 4272,
    "ultaneous": 18583,
    "dishon": 20407,
    "Ô": 149,
    "Ġarchbishop": 18709,
    "Ġbump": 9661,
    "Ġplus": 3881,
    "iar": 2376,
    "Ġnonsense": 6982,
    "Ġbleak": 10560,
    "Ġoffice": 4965,
    "Ġendwise": 23141,
    "bber": 4569,
    "comp": 3815,
    "doms": 20837,
    "Ġsom": 1275,
    "Ġoverpow": 14208,
    "Ġprized": 23220,
    "Ġrecursive": 4783,
    "izon": 18144,
    "Ġringbolts": 24198,
    "iah": 14418,
    "Ġswandam": 11090,
    "Ġwrist": 8244,
    "Ġhurrah": 9871,
    "Ġvishnoo": 12757,
    "pict": 8387,
    "Ġprofess": 3698,
    "Ġdedication": 3454,
    "Ġpistol": 7848,
    "stately": 18024,
    "qualities": 25046,
    "Ġbrisk": 9805,
    "Ġtut": 8774,
    "Ġsaville": 15892,
    "fl": 3600,
    "Ġmists": 14631,
    "Ġsupercil": 23456,
    "Ġbeak": 18082,
    "treas": 17680,
    "Ġswaths": 23062,
    "ifix": 21908,
    "Ġinert": 15625,
    "turning": 8318,
    "Ġfuneral": 10284,
    "Ġdry": 5624,
    "Ġfish": 2710,
    "to": 713,
    "Ġevil": 3805,
    "Ġcalculus": 23986,
    "Ġcard": 7362,
    "ptember": 10895,
    "happiest": 19334,
    "chester": 23809,
    "consent": 18504,
    "protected": 19923,
    "Ġstoven": 23179,
    "entimes": 12660,
    "neglect": 25668,
    "Ġtry": 3137,
    "windows": 19537,
    "Ġasc": 4766,
    "genteel": 19952,
    "¾": 127,
    "christian": 17234,
    "iply": 22366,
    "Ġpromontory": 11944,
    "Ġbreed": 19073,
    "Ġtis": 15467,
    "Ġportly": 14679,
    "iary": 15373,
    "ordered": 8793,
    ";âĢĶ": 3749,
    "Ġsmooth": 2780,
    "Ġstop": 2501,
    "Ġgracechurch": 12202,
    "Ġowned": 11879,
    "Ġextract": 1475,
    "Ġguilty": 7249,
    "Ġpunctually": 17140,
    "Ġcrystals": 20230,
    "istrate": 7405,
    "Ġplains": 14624,
    "Ġyell": 21782,
    "Ġflora": 11417,
    "Ġexcel": 3568,
    "Ġpaus": 4301,
    "Ġsanct": 15066,
    "Ġnewsp": 9341,
    "Ġperfectly": 3700,
    "Ġnever": 1018,
    "bree": 15317,
    "Ġtrifles": 16952,
    "Ġreverse": 16983,
    "Ġmonarch": 14417,
    "reat": 620,
    "Ġdece": 6996,
    "Ġinserting": 19908,
    "Ġlo": 453,
    "Ġrustic": 14967,
    "Ġisol": 8837,
    "Ġlysander": 13142,
    "Ġlatter": 3988,
    "Ġembalmed": 13659,
    "woman": 5900,
    "Ġblaming": 22934,
    "ppered": 15794,
    "F": 42,
    "bond": 17491,
    "aves": 3599,
    "perquisites": 26532,
    "iscuits": 24667,
    "win": 6801,
    "Ġonto": 14031,
    "Ġornament": 11723,
    "Ġ69": 19664,
    "Q": 53,
    "drawn": 9915,
    "national": 21000,
    "Ġdreaming": 11224,
    "Ġwhence": 5840,
    "hurst": 19881,
    "interred": 23740,
    "Ġmess": 7832,
    "Ġ62": 24364,
    "sig": 2877,
    "Ġflogged": 23627,
    "Ġthereof": 22373,
    "Ġfrequently": 4681,
    "Ġcuring": 21347,
    "shore": 10306,
    "Ġlevels": 12702,
    "Ġleaned": 7607,
    "Ġwisely": 13276,
    "Ġglen": 18848,
    "wants": 21133,
    "Ġringleader": 26214,
    "consider": 6349,
    "Ġsuspic": 4471,
    "Ġindolent": 13009,
    "oub": 1632,
    "Ġburned": 8634,
    "Ġstump": 7602,
    "Ġcomputes": 4769,
    "attached": 11938,
    "Ġpilgr": 12184,
    "Ġengineer": 11977,
    "Ġlustrous": 20159,
    "Ġbulkington": 14678,
    "Ġcircumn": 11986,
    "continue": 16862,
    "brevi": 24075,
    "Ġassistance": 6334,
    "Ġreproachfully": 25252,
    "Ġrepeat": 8001,
    "Ġassaults": 15159,
    "Ġsulk": 15047,
    "Ġrats": 21978,
    "Ġassum": 4065,
    "canonical": 22967,
    "Ġemaciated": 20641,
    "mpt": 6655,
    "Ġtackle": 9515,
    "Ġdomineer": 23652,
    "prosperity": 20737,
    "Ġsalisbury": 24067,
    "ection": 4948,
    "Ġgenealogies": 25962,
    "Ġ49": 24083,
    "ingle": 1039,
    "Ġwhistling": 19793,
    "Ġimmedi": 2907,
    "Ġcaptivating": 26051,
    "Ġharshly": 25250,
    "libra": 22929,
    "Ġbirds": 5874,
    "Ġ70": 11277,
    "tall": 17674,
    "Ġrobustness": 18885,
    "Ġyour": 634,
    "Ġdoes": 942,
    "Ġprocesses": 3634,
    "Ġide": 2123,
    "Ġspots": 11730,
    "Ġdiligence": 17114,
    "ugn": 9380,
    "Ġaided": 17746,
    "89": 20761,
    "uits": 21107,
    "Ġsimpleton": 16337,
    "chery": 24550,
    "amount": 10885,
    "Ġtransformers": 1147,
    "Ġloaf": 15875,
    "Ġadmon": 15871,
    "ulnerable": 18153,
    "mystic": 25317,
    "Ġprogno": 14042,
    "embedding": 20360,
    "Ġlet": 1113,
    "rep": 5525,
    "Ġcharging": 23271,
    "Ġbarbed": 14837,
    "Ġsmokes": 22564,
    "Ġantichron": 24183,
    "Ġchron": 19441,
    "Ġbadge": 16681,
    "Ġshame": 6410,
    "Ġobserving": 6081,
    "Ġlisten": 4675,
    "strike": 14951,
    "accessible": 13642,
    "mental": 16051,
    "erably": 7572,
    "Ġpoultry": 17443,
    "itime": 15551,
    "Ġfocuses": 8653,
    "Ġtemporary": 7982,
    "ially": 9249,
    "Ġmach": 13859,
    "gigantic": 15362,
    "Ġproceeds": 12081,
    "Ġgod": 1936,
    "Ġprogramming": 1183,
    "Ġmanoir": 22336,
    "jaw": 13745,
    "cherries": 19759,
    "seized": 14037,
    "Ġlightness": 23264,
    "Ġconfid": 7687,
    "Ġnightmare": 18921,
    "appalled": 18762,
    "jol": 20927,
    "exagger": 22433,
    "Ġyear": 3287,
    "Ġjeer": 24124,
    "Ġwilful": 10536,
    "Ġunion": 6838,
    "Ġvilla": 14749,
    "Ġvisage": 18766,
    "Ġsuspicious": 9482,
    "Ġergo": 25032,
    "scence": 14420,
    "Ġency": 21938,
    "lu": 596,
    "conclusive": 25674,
    "Ġprincipal": 6496,
    "system": 4283,
    "Ġscheming": 23274,
    "Ġmarrying": 6178,
    "convolutional": 4958,
    "places": 7879,
    "Ġinstances": 5567,
    "Ġbackpropagation": 1257,
    "composure": 24037,
    "Ġwithal": 18116,
    "discredit": 24252,
    "thither": 21988,
    "Ġretarded": 23076,
    "what": 640,
    "Ġoverboard": 6046,
    "Ġboards": 14302,
    "perhaps": 4124,
    "chair": 5918,
    "oper": 7346,
    "Ġcow": 13878,
    "union": 15773,
    "Ġtaurus": 21181,
    "Ġinsolent": 13603,
    "finger": 10095,
    "umst": 2503,
    "Ġoperations": 2298,
    "arest": 4003,
    "block": 11471,
    "Ġcaterpillar": 5865,
    "Ġoccas": 2703,
    "impenetrable": 26198,
    "Ġbusiness": 2232,
    "Ġunspeak": 8853,
    "Ġexperienced": 6583,
    "Ġscraped": 16904,
    "Ġevol": 2816,
    "Ġfiner": 13057,
    "definition": 23124,
    "pip": 6656,
    "Ġpink": 12622,
    "chie": 21694,
    "astic": 1869,
    "parted": 21018,
    "Ġsenses": 8253,
    "Ġexpans": 18622,
    "Ġpersisting": 18878,
    "Ġgravel": 14104,
    "pleasing": 14744,
    "whims": 22244,
    "Ġever": 1180,
    "Ġbit": 2966,
    "tawny": 26405,
    "Ġhaunt": 18198,
    "Ġoverhead": 11776,
    "Ġcot": 13879,
    ".âĢĻâĢĿ": 6740,
    "kye": 20940,
    "Ġprovocation": 24193,
    "greenland": 10023,
    "Ġlabel": 14516,
    "north": 14616,
    "Ġdecisions": 6703,
    "smiled": 16615,
    "Ġsides": 4580,
    "papers": 12505,
    "rin": 10123,
    "wick": 5363,
    "stout": 21649,
    "Ġendured": 6074,
    "Ġrelationship": 2314,
    "happening": 16566,
    "Ġpupp": 10821,
    "wretch": 17709,
    "indust": 18436,
    "box": 5749,
    "Ġsavesoul": 26229,
    "ruding": 9726,
    "Ġmarshy": 20221,
    "Ġcouldn": 7648,
    "Ġpairs": 4184,
    "Ġindividuality": 14911,
    "broke": 14781,
    "hogs": 20085,
    "acquainted": 7312,
    "Ġlead": 3523,
    "aunt": 8371,
    "Ġnew": 1195,
    "fly": 13716,
    "relatively": 24017,
    "Ġdistinction": 8888,
    "Ġstructured": 2974,
    "Ġknocked": 9502,
    "ament": 2440,
    "spell": 22742,
    "Ġbath": 9660,
    "Ġdaniel": 15114,
    "Ġflowed": 10373,
    "Ġsilk": 11966,
    "aswag": 21550,
    "Ġfront": 3450,
    "Ġsymbols": 2798,
    "apparently": 15207,
    "condition": 7060,
    "tland": 21076,
    "Ġtwisting": 18659,
    "Ġcultiv": 13559,
    "Ġhull": 5446,
    "Ġdine": 7365,
    "precaution": 23826,
    "hush": 20908,
    "Ġsebastian": 11701,
    "crat": 24086,
    "ure": 356,
    "Ġbloody": 9891,
    "spread": 8390,
    "Ġbled": 17858,
    "Ġintroducing": 11978,
    "Ġbernard": 20687,
    "Ġangel": 4854,
    "Ġunforgiving": 25996,
    "Ġcoasts": 12167,
    "Ġcaptive": 14429,
    "mming": 1171,
    "Ġcho": 4548,
    "Ġadroit": 26001,
    "Ġeuroc": 14961,
    "Ġgaunt": 11269,
    "Ġdisplayed": 10610,
    "Ġhereabouts": 12982,
    "Ġvelv": 10621,
    "Ġaggreg": 12888,
    "atived": 21265,
    "pping": 1426,
    "Ġamid": 4959,
    "Ġnurtured": 19752,
    "wand": 10739,
    "pop": 17632,
    "Ġexploring": 4307,
    "complexion": 14363,
    "Ġgoodge": 22827,
    "Ġheroic": 14910,
    "Ġspringing": 10520,
    "inuating": 16205,
    "Ĩ": 233,
    "Ġdiminished": 16667,
    "Ġturning": 3327,
    "Ġhurled": 10430,
    "fisher": 7546,
    "Ġunsuccessful": 18258,
    "common": 4130,
    "Ġsubstantial": 14812,
    "Ġcolonnades": 26277,
    "nevertheless": 8287,
    "Ġconfessor": 24022,
    "Ġstricken": 9778,
    "Ń": 260,
    "ast": 472,
    "protruding": 24813,
    "icorn": 15660,
    "Ġhellaswag": 24342,
    "skylight": 25624,
    "Ġgranite": 22812,
    "separated": 20162,
    "isance": 17849,
    "Ġmerciless": 25247,
    "canallers": 22968,
    "Ġunguarded": 15853,
    "gressive": 2754,
    "Ġoccupy": 14733,
    "Ġsympathising": 24298,
    "features": 14758,
    "Ġunsupplied": 22048,
    "Ġtusked": 25427,
    "Ġshocks": 16458,
    "Ġdiscoverers": 26037,
    "Ġchronicled": 25329,
    "Ġfumbled": 17883,
    "dream": 8731,
    "Ġdisco": 3428,
    "ifted": 4496,
    "Ġshower": 11713,
    "Ġvineyard": 12333,
    "Ġcabinets": 23865,
    "Ġadapts": 3816,
    "Ġmariners": 6069,
    "Ġcommunication": 1871,
    "iasm": 8062,
    "Ġlav": 13952,
    "Ġresigned": 9770,
    "outs": 7009,
    "Ġholy": 6592,
    "Ġauthorized": 16736,
    "Ġanticipatingly": 26103,
    "Ġshrew": 22007,
    "Ġstr": 747,
    "Ġrasc": 21979,
    "wearing": 22691,
    "Ġsledge": 8112,
    "heaved": 21213,
    "charles": 14701,
    "sockets": 22740,
    "andering": 21872,
    "Ġoutline": 15957,
    "countenance": 6924,
    "mind": 4628,
    "i": 77,
    "Ġpost": 4273,
    "interrupted": 11418,
    "Ġfret": 10807,
    "Ġpitched": 9446,
    "bethink": 25745,
    "Ġcaliforn": 14433,
    "Ġelaborate": 18637,
    "Ġchas": 18380,
    "ucumber": 19058,
    "bouton": 17503,
    "Ġcomposure": 7216,
    "Ģ": 227,
    "tri": 11531,
    "alarmed": 21507,
    "Ġpelt": 15613,
    "cheeked": 19342,
    "Ġthousandth": 23687,
    "vember": 10856,
    "heum": 17748,
    "sensible": 20055,
    "Ġforenoon": 19127,
    "o": 83,
    "raising": 21636,
    "Ġhurriedly": 11250,
    "Ġluckless": 16798,
    "contained": 22477,
    "elev": 12462,
    "irection": 2387,
    "asc": 6386,
    "Ġ87": 19713,
    "Ġartfully": 22614,
    "Ġquarrel": 7291,
    "Ġsluggish": 25891,
    "Ġbou": 17854,
    "desire": 14663,
    "Ġdynam": 3056,
    "still": 4221,
    "eyes": 5684,
    "Ġremained": 3144,
    "Ġlabours": 8585,
    "Ġbeware": 8831,
    "Ġimpulsively": 24881,
    "delirium": 14787,
    "Ġhur": 2101,
    "ipher": 18432,
    "ospel": 17011,
    "gryphon": 15361,
    "Ġcornelius": 13576,
    "Ġadvocate": 13679,
    "balls": 12308,
    "Ġjago": 22304,
    "Ġsnake": 12064,
    "Ġinstructions": 11197,
    "Ġmuffled": 10642,
    "cles": 8729,
    "Ġapology": 8329,
    "Ġcomb": 1064,
    "Ġsublimity": 26348,
    "Ġwool": 19436,
    "Ġeffectively": 2619,
    "Ġbrown": 6299,
    "ien": 10103,
    "corrid": 24483,
    "striking": 13443,
    "Ġpie": 13917,
    "extreme": 11030,
    "83": 13683,
    "Ġassur": 6075,
    "Ġdrowsiness": 26446,
    "Ġchanges": 2284,
    "Ġbrow": 3987,
    "brary": 5755,
    "Ġfind": 1459,
    "Ġfrosted": 19806,
    "Ġdistinctions": 18536,
    "Ġimmense": 4952,
    "Ġknee": 7094,
    "Ġcrushing": 20179,
    "Ġsumm": 3355,
    "fering": 17543,
    "Ġceiling": 7998,
    "Ġunexplored": 26519,
    "Ġhelp": 1642,
    "Ġmod": 492,
    "reng": 4001,
    "Ġseaward": 22951,
    "rane": 17654,
    "Ġwillingly": 8887,
    "princip": 17138,
    "terday": 4706,
    "Ġrespects": 7268,
    "gentlemanlike": 20005,
    "Ġfighting": 12201,
    "Ġrefuse": 5739,
    "eag": 20844,
    "Ġirons": 7696,
    "Ġmilliner": 19886,
    "incom": 21184,
    "fright": 9597,
    "ĠĠĠĠĠĠĠĠĠĠĠĠĠĠĠĠĠĠĠĠĠĠĠĠĠĠĠĠĠĠĠĠĠĠĠĠĠĠĠĠĠĠĠ": 12158,
    "Ġdock": 15933,
    "coat": 5407,
    "afraid": 10442,
    "Ġsuperglue": 23459,
    "Ġthere": 564,
    "Ġplied": 22604,
    "Ġbreathed": 11221,
    "urbed": 15712,
    "believe": 8305,
    "angling": 14141,
    "Ġpriests": 15042,
    "berish": 22723,
    "Ġpossesses": 19355,
    "Ġparsonage": 7124,
    "Ġsmoothed": 23662,
    "Ġhed": 7386,
    "Ġentirely": 3433,
    "sky": 12514,
    "Ġquite": 1742,
    "Ġconsummate": 25311,
    "Ġstuffed": 13412,
    "Ġflavor": 16255,
    "Ġwreat": 15533,
    "Ġhit": 7163,
    "Ġslice": 23164,
    "spe": 3560,
    "Ġgenerations": 10965,
    "ĠâĢľâĢĺ": 8505,
    "Ġkeeled": 18810,
    "Ġascent": 19621,
    "Ġspoils": 24805,
    "ique": 8746,
    "Ġinjection": 3466,
    "Ġchalk": 15936,
    "Ġtwentieth": 18660,
    "Ġsaxon": 25469,
    "Ġbeadle": 26485,
    "material": 13133,
    "Ġnominal": 15171,
    "niece": 20997,
    "discernible": 20553,
    "brance": 7283,
    "Ġunder": 1635,
    "particip": 23618,
    "ĠĠĠĠĠĠĠĠĠĠĠĠ": 12904,
    "reen": 21234,
    "Ġsqualid": 14371,
    "Ġdr": 2825,
    "Ġineffable": 17334,
    "Ġrashness": 25461,
    "completely": 12423,
    "Ġgratefully": 20448,
    "Ġinclinations": 19542,
    "Ġbery": 13900,
    "Ġpatentee": 25587,
    "thern": 4953,
    "staking": 21652,
    "Ġpark": 5465,
    "Ġarguing": 25471,
    "Ġarduous": 26530,
    "Ġsuspense": 9420,
    "Ġtribute": 15477,
    "cks": 3082,
    "Ġling": 7376,
    "Ġswap": 23056,
    "oe": 7551,
    "Ġdiscussed": 19562,
    "day": 1858,
    "Ġsupported": 9820,
    "shel": 11933,
    "convers": 6568,
    "shine": 9290,
    "Ġhieroglyphics": 17305,
    "Ġgardens": 16452,
    "Ġremind": 6059,
    "Ġmeadow": 17153,
    "formed": 2552,
    "Ġsymptom": 13486,
    "ulate": 5233,
    "ĠĠĠĠĠĠĠĠĠĠĠĠĠĠĠĠĠĠĠĠĠĠĠĠĠĠĠĠĠĠĠĠĠĠĠĠ": 23669,
    "agings": 18168,
    "Ġvigilant": 20187,
    "Ġgrat": 4056,
    "Ġcommended": 18657,
    "ese": 4445,
    "ricity": 23067,
    "Ġharbour": 19983,
    "knew": 9128,
    "leeward": 15213,
    "Ġvegetables": 15224,
    "Ġtash": 13822,
    "Ġjealous": 9470,
    "added": 11661,
    "Ġlaug": 3628,
    "Ġhorizontally": 17013,
    "Ġpres": 9734,
    "Ġaw": 2510,
    "Ġtoler": 7588,
    "ferent": 4197,
    "adieu": 26202,
    "pig": 8756,
    "forth": 9324,
    "jub": 20931,
    "Ġbenchmarks": 15023,
    "Ġ56": 24319,
    "pro": 2051,
    "Ġhue": 8431,
    "brown": 15320,
    "Ġplay": 2625,
    "burst": 10539,
    "itic": 11580,
    "Ġnewspaper": 12367,
    "note": 14342,
    "Ġmol": 12565,
    "Ġpallor": 13518,
    "tol": 17673,
    ":--": 5784,
    "Ġeag": 2969,
    "Ġchopping": 24221,
    "Ġvictor": 5125,
    "Ġfrock": 10491,
    "Ġstalked": 20432,
    "igms": 3048,
    "Ġimplement": 2976,
    "Ġwax": 10777,
    "onze": 21258,
    "ď": 208,
    "Ġhemp": 9217,
    "Ġsocks": 14133,
    "ulent": 21867,
    "val": 1153,
    "dman": 10090,
    "Ġfunny": 7637,
    "ulations": 6030,
    "Ġrejoicing": 13424,
    "Ġabusive": 22278,
    "Ġrepeatedly": 9023,
    "Ġelementary": 24811,
    "danger": 10091,
    "Ġerror": 1767,
    "nals": 16401,
    "Ġpractical": 3167,
    "Ġprender": 22240,
    "lingly": 9775,
    "iverer": 11719,
    "Ġkeenly": 9487,
    "each": 7334,
    "alth": 3258,
    "Ġcha": 6852,
    "Ġdiscove": 16158,
    "Ġcedars": 20295,
    "Ġxiii": 25592,
    "lacings": 26135,
    "inea": 7623,
    "mentioning": 24886,
    "Ġsteward": 6585,
    "through": 4022,
    "unusually": 15783,
    "Ġclean": 5652,
    "Ġtoma": 7372,
    "Ġcuff": 17831,
    "aguy": 21915,
    "icket": 22672,
    "Ġostlers": 25277,
    "Ġprizes": 13077,
    "Ġdodging": 19889,
    "Ġcommend": 10336,
    "Ġhardened": 14452,
    "Ġthroat": 7771,
    "Ġens": 2790,
    "distinction": 19574,
    "Ġsafety": 6340,
    "Ġmaintain": 856,
    "¥": 103,
    "Ġfossiliferous": 25610,
    "Ġlocked": 6036,
    "preser": 9762,
    "shooting": 16966,
    "hurrying": 14985,
    "Ġsy": 491,
    "Ġauger": 21206,
    "Ġschools": 9479,
    "thole": 21991,
    "Ġbildad": 3781,
    "Ġblushed": 13006,
    "Ġcatherine": 2814,
    "Ġschool": 5512,
    "Ġflourishing": 25188,
    "response": 25763,
    "Ġunrelieved": 20548,
    "onged": 18411,
    "Ġmallet": 17812,
    "twist": 23704,
    "Ġmurderer": 4980,
    "Ġfuss": 13907,
    "Ġinterm": 14270,
    "Ġprot": 3846,
    "ĠĠĠĠĠĠĠĠĠĠĠĠĠĠĠĠĠĠĠĠĠĠĠĠĠĠĠĠĠĠĠĠĠĠĠĠĠĠĠĠĠĠĠĠĠĠĠĠĠ": 20041,
    "Ġfacility": 19852,
    "Ġembellished": 25850,
    "determination": 19948,
    "Ġknelt": 12162,
    "Ġcapricious": 20541,
    "Ġinflamed": 13476,
    "Ġmerely": 3769,
    "Ġimpious": 15989,
    "ß": 160,
    "visible": 10535,
    "Ġserpentine": 11361,
    "Ġexquis": 9701,
    "relation": 19450,
    "greg": 6649,
    "atisf": 21266,
    "Ġmanipulation": 10660,
    "Ġschoolboys": 24480,
    "was": 1422,
    "Ġstir": 5824,
    "Ġtested": 23225,
    "Ġexhib": 6350,
    "Ġdiscompose": 25580,
    "tail": 8765,
    "suffered": 24329,
    "Ġgems": 9210,
    "ogra": 4574,
    "Ġindispens": 22958,
    "ribes": 23370,
    "Ġdrama": 16330,
    "Ġheidelburgh": 11645,
    "ckinridge": 11722,
    "Ġhow": 597,
    "west": 10740,
    "Ġpanted": 21476,
    "Ġmast": 2902,
    "danish": 20835,
    "Ġwindow": 2999,
    "Ġclapped": 9747,
    "absurd": 21800,
    "Ġ59": 24322,
    "Ġsoothe": 7404,
    "upset": 23021,
    "Ġmorose": 18845,
    "Ġendowed": 18925,
    "Ġtheories": 13851,
    "Ġranging": 8480,
    "sip": 10726,
    "lyph": 10853,
    "lower": 8883,
    "itance": 13870,
    "matters": 14876,
    "Ġcould": 703,
    "particularly": 8341,
    "endar": 18363,
    "Ġprovide": 7750,
    "Ġmim": 3108,
    "Ġwhites": 21721,
    "Ġhearing": 4762,
    "forgot": 11033,
    "grand": 7971,
    "Ġcontrari": 23353,
    "Ġallowing": 2174,
    "Ġwarrant": 17796,
    "atered": 22001,
    "dorff": 15240,
    "shiver": 16028,
    "Ġpraise": 6486,
    "Ġdimly": 9490,
    "all": 485,
    "Ġaffidavit": 20726,
    "Ġaccounts": 7206,
    "Ġrepul": 16411,
    "Ġrejo": 5917,
    "ousness": 10276,
    "Ġestimation": 11219,
    "ensils": 22553,
    "Ġneeded": 7718,
    "urrection": 12412,
    "Ġnorms": 3666,
    "shudder": 26247,
    "teringly": 21828,
    "Ġreciprocating": 26371,
    "suggested": 17301,
    "ellow": 3874,
    "Ġoff": 902,
    "Ġexpect": 2305,
    "Ġiceland": 15149,
    "Ġbespeaking": 26311,
    "Ġhast": 3153,
    "neat": 22448,
    "Ġrepay": 19083,
    "Ġdelicate": 6480,
    "Ġsweeping": 8987,
    "sp": 895,
    "/": 19,
    "Ġplump": 14285,
    "interference": 23741,
    "Ġbroom": 18908,
    "Ġsacrificed": 17424,
    "Ġtapers": 11553,
    "âĢĶ.": 11758,
    "Ġascribe": 16783,
    "news": 23138,
    "vels": 5432,
    "Ġnic": 7375,
    "Ġicicles": 25265,
    "Ġcond": 3873,
    "wow": 21124,
    "Ġcandid": 4099,
    "bulk": 19926,
    "Ġpalaces": 24093,
    "Ġreigning": 15704,
    "eler": 1571,
    "Ġfer": 5623,
    "Ġtemporal": 2612,
    "Ġgrizzled": 11451,
    "Ġlayers": 816,
    "Ġbackstays": 22664,
    "Ġtarpaul": 17731,
    "ermost": 7429,
    "brimming": 23579,
    "anter": 9168,
    "aries": 6245,
    "Ġedition": 16456,
    "Ġphiladel": 23888,
    "Ġscrews": 25178,
    "Ġtongue": 6348,
    "gn": 8083,
    "Ġbarbarous": 13479,
    "ara": 12610,
    "Ġbeloved": 5571,
    "asses": 7017,
    "Ġwhisker": 23938,
    "Ġzoned": 22824,
    "Ġkitchen": 8497,
    "Ġacquainted": 5179,
    "Ġlbs": 11617,
    "Ġchairs": 12830,
    "Ġgriff": 22810,
    "Ġai": 3131,
    "snapping": 24850,
    "Ġinsince": 23682,
    "sis": 1865,
    "Ġruined": 12958,
    "Ġburn": 3683,
    "Ġintroduction": 8972,
    "Ġresult": 4461,
    "Ġcouns": 10522,
    "Ġbordered": 24563,
    "oice": 1384,
    "Ġdividing": 12115,
    "Ġskylight": 24074,
    "Ġenrolled": 21942,
    "Ġhookah": 16971,
    "mathematics": 26305,
    "harb": 9125,
    "Ġglist": 9346,
    "akeman": 6268,
    "tremble": 17143,
    "Ġage": 3895,
    "Ġpride": 3822,
    "ics": 3259,
    "gently": 13731,
    "Ġpress": 5933,
    "houn": 20895,
    "neys": 23584,
    "Ġcleansed": 26295,
    "Ġchange": 1995,
    "Ġalleg": 14019,
    "Ġexpansion": 22628,
    "Ġsgd": 3133,
    "Ġrescued": 24208,
    "Ġdoings": 18376,
    "Ġthumb": 6981,
    "Ġcatches": 23430,
    "follows": 24527,
    "rubbed": 22189,
    "stooped": 23825,
    "Ġseemed": 1279,
    "Ġanimating": 23427,
    "Ġquoin": 22423,
    "Ġwidespread": 20678,
    "increasing": 20272,
    "Ġcontact": 9283,
    "Ġfrowning": 13626,
    "Ġcollected": 2610,
    "Ġshilling": 18229,
    "ruded": 15902,
    "Ġ77": 24265,
    "Ġsets": 8778,
    "given": 8378,
    "Ġpronounced": 8352,
    "Ġtemples": 18646,
    "Ġ89": 19715,
    "Ġinnoc": 3794,
    "ascertaining": 26461,
    "actorily": 25577,
    "Ġresid": 22543,
    "ggy": 13117,
    "Ġinsisted": 12049,
    "Ġinvesting": 19644,
    "Ġfurs": 18741,
    "punct": 20195,
    "Ġaffected": 5576,
    "Ġmexic": 14034,
    "sudden": 5316,
    "Ġtus": 10750,
    "Ġboarded": 13237,
    "abond": 15744,
    "ateral": 19380,
    "erative": 21275,
    "Ġanchored": 17442,
    "Ġfru": 8422,
    "Ġacid": 22686,
    "Ġsheeted": 19834,
    "Ġpeaks": 16131,
    "Ġinit": 817,
    "Ġdamp": 8265,
    "Ġrambles": 17186,
    "Ġjup": 15955,
    "Ġgriev": 16636,
    "Ġresented": 22548,
    "Ġforgetfulness": 14607,
    "dashed": 12459,
    "nour": 20990,
    "robustness": 26340,
    "sullen": 17670,
    "Ġalleviated": 26205,
    "ari": 671,
    "Ġgreatly": 5850,
    "Ġmerrily": 23735,
    "Ġmichaelmas": 26376,
    "Ġdiadem": 24740,
    "Ġunb": 10908,
    "Ġslain": 8955,
    "ĠĠĠĠĠĠĠĠĠĠĠĠĠĠĠĠĠĠĠĠĠĠĠĠĠĠĠĠĠĠĠĠĠĠĠĠĠĠĠĠĠĠĠĠĠĠĠĠĠĠĠĠĠĠĠĠĠĠĠĠ": 19261,
    "Ġhuman": 1319,
    "Ġgoest": 22428,
    "Ġanatomical": 15079,
    "Ġporthole": 24398,
    "Ġsoles": 22082,
    "Ġponder": 6818,
    "Ġpunctual": 17139,
    "##": 2315,
    "Ġunhinged": 26218,
    "Ġpursuits": 12080,
    "Ġimputation": 22177,
    "Ġ117": 19700,
    "topic": 10529,
    "rained": 5162,
    "Ġsublim": 19970,
    "Ġflutter": 16251,
    "Ġgaieties": 24197,
    "Ġboarders": 16601,
    "Ġadds": 1807,
    "Ġbrew": 23348,
    "Ġsitting": 3605,
    "Ġsmiled": 5942,
    "Ġsafe": 5103,
    "Ġyelled": 9696,
    "Ġliver": 14229,
    "wouldn": 23538,
    "Ġwhitewashed": 14471,
    "Ġexasperate": 20101,
    "Ġcovent": 16075,
    "pondicherry": 26401,
    "Ġchewing": 23289,
    "somers": 19371,
    "regularization": 3515,
    "Ġjuicy": 25371,
    "ifully": 13187,
    "beginning": 13564,
    "Ġwreak": 16818,
    "Ġoccurrences": 11051,
    "Ġstag": 6149,
    "Ġinsensibly": 20079,
    "amous": 15764,
    "Ġartic": 5315,
    "Ġimpet": 11782,
    "Ġundec": 22024,
    "Ġoffence": 12949,
    "Ġreserves": 19673,
    "harmony": 25751,
    "§": 105,
    "Ġsplinters": 15105,
    "teous": 16176,
    "bale": 20776,
    "Ġdiscussion": 17196,
    "Ġpills": 21470,
    "Ġmerc": 9428,
    "bowed": 10686,
    "Ġke": 1156,
    "Ġobtruded": 20724,
    "Ġwoof": 14723,
    "hatchet": 24819,
    "deceiving": 22149,
    "twain": 23703,
    "Ġcreditors": 20133,
    "morland": 24155,
    "hatherley": 17569,
    "Ġarid": 22181,
    "Ġunjustifiable": 25112,
    "Ġknave": 11273,
    "conjecturing": 20137,
    "Ġthr": 5709,
    "Ġbelieves": 14409,
    "ladies": 9531,
    "aver": 6785,
    "Ġsalutation": 12400,
    "thrusting": 20262,
    "Ġunreasoning": 15848,
    "Ġplata": 25120,
    "Ġring": 4453,
    "Ġfault": 5702,
    "Ġah": 5075,
    "hauteur": 26392,
    "osh": 18389,
    "Ġbark": 10799,
    "Ġfriends": 2654,
    "angry": 18290,
    "Ġtorrent": 17092,
    "Ġgrin": 5482,
    "inridge": 11562,
    "innocent": 20289,
    "Ġequilibrium": 4142,
    "03": 20750,
    "Ġmadman": 13154,
    "ted": 790,
    "Ġstagnant": 24655,
    "Ġpeter": 10537,
    "Ġprepared": 5878,
    "Ġcrack": 7710,
    "Ġconsoled": 18115,
    "Ġmetropol": 11146,
    "forty": 9376,
    "bb": 2802,
    "zy": 2669,
    "Ġfly": 3868,
    "bethinking": 25746,
    "Ġcombat": 16188,
    "Ġcountenance": 3969,
    "Ġlichen": 20095,
    "Ġjury": 5378,
    "pond": 21015,
    "Ġfortitude": 9887,
    "levi": 7048,
    "Ġsuspects": 16891,
    "bre": 3977,
    "Ġincorporated": 25710,
    "Ġfrightens": 24033,
    "Ġgradually": 3401,
    "stripped": 16946,
    "expose": 23667,
    "Ġparticulars": 5754,
    "Ġselfishness": 12292,
    "possibly": 10545,
    "Ġextracting": 11105,
    "mistress": 14907,
    "Ġdefect": 8556,
    "Ġdeceiving": 21842,
    "Ġleaky": 2345,
    "Ġaffectionately": 13171,
    "Ġcobb": 14274,
    "Ġscriptures": 26237,
    "Ġscanning": 18401,
    "mud": 20973,
    "Ġfable": 15580,
    "Ġfoaming": 18993,
    "Ġinherent": 4592,
    "perils": 22192,
    "inks": 6868,
    "Ġenglish": 3615,
    "Ġdoubloon": 6944,
    "Ġx": 2075,
    "Ġdissembling": 26256,
    "gh": 3800,
    "Ġtemple": 7653,
    "Ġwoven": 9928,
    "passed": 8027,
    "Ġcells": 13887,
    "een": 726,
    "Ġpasseng": 12975,
    "establish": 17395,
    "oses": 3945,
    "?": 35,
    "bearings": 25372,
    "Ġsust": 7008,
    "Ġtravel": 5954,
    "Ġcease": 7077,
    "Ġcommendation": 13613,
    "Ġcolossal": 11460,
    "Ġhistories": 14688,
    "Ġgrotesque": 26331,
    "modern": 1140,
    "Ġengland": 3855,
    "ification": 1000,
    "Ġitem": 12705,
    "Ġspermacetti": 19051,
    "Ġdetected": 18844,
    "Ġgrievances": 20650,
    "Ġmonuments": 22983,
    "Ġhooped": 23359,
    "Ġcorporeal": 17362,
    "Ġexcurs": 23318,
    "attery": 18501,
    "Ġlan": 5821,
    "formation": 22226,
    "Ġdisturbing": 19949,
    "Ġconjectures": 16926,
    "Ġdispatched": 23884,
    "Ġeloped": 22649,
    "Ġcongeal": 25981,
    "usive": 8191,
    "Ġalexander": 17426,
    "Ġtriumphal": 24370,
    "Ġmagn": 1557,
    "Ġshavings": 14112,
    "person": 7746,
    "Ġhandkerchief": 8916,
    "Ġstandard": 14497,
    "Ġhose": 12631,
    "kshire": 13748,
    "Ġinheriting": 25355,
    "Ġwhat": 600,
    "Ġfollowing": 4063,
    "Ġkindred": 16380,
    "Ġoysters": 20582,
    "Ġg": 310,
    "fer": 1955,
    "Ġplease": 4724,
    "retired": 11939,
    "ant": 438,
    "fee": 12883,
    "Ġreceptive": 1564,
    "transformers": 8718,
    "Ġcollapsed": 15084,
    "Ġ1846": 26085,
    "Ġcongregated": 20100,
    "Ġasserted": 16950,
    "orrowed": 19291,
    "Ġcompletion": 12151,
    "Ġcomple": 2841,
    "Ġruffled": 25837,
    "iful": 2884,
    "Ġendure": 5957,
    "Ġvoy": 2618,
    "Ġpouring": 12628,
    "Ġuncontrollable": 25815,
    "saving": 21062,
    "ctuous": 9207,
    "Ġxi": 16432,
    "utional": 17986,
    "Ġrevol": 5536,
    "Ġmor": 1250,
    "ertion": 12043,
    "Ġarrives": 23609,
    "Ġmurky": 19204,
    "Ġpeeping": 16130,
    "Ġgr": 978,
    "Ġspitzbergen": 15290,
    "Ġstorms": 11263,
    "Ġbells": 19604,
    "Ġpeevish": 26558,
    "mediate": 16515,
    "Ġanyhow": 14256,
    "locked": 7678,
    "Ġplain": 2818,
    "Ġseat": 4949,
    "Ġcaprice": 14578,
    "Ġgib": 13967,
    "wl": 17703,
    "Ġentreaty": 10531,
    "rifled": 21050,
    "Ġmob": 16020,
    "Ġcabs": 23643,
    "clopÃ¦": 13060,
    "desirable": 23813,
    "Ġout": 542,
    "Ġslipper": 24267,
    "aker": 3663,
    "Ġcheer": 4067,
    "Ġwidows": 24238,
    "taste": 10131,
    "Ġabandoned": 8353,
    "Ġenvied": 19314,
    "Ġarom": 15494,
    "Ġobedience": 11414,
    "Ġstrategy": 2097,
    "Ġliv": 6680,
    "Ġgeomet": 3195,
    "Ġdecidedly": 9511,
    "ignific": 11959,
    "avering": 24792,
    "Ġnocturn": 18375,
    "Ġmoss": 9286,
    "Ġlima": 10443,
    "image": 9688,
    "Ġcrews": 8992,
    "journey": 8748,
    "Ġwickham": 2204,
    "Ġmcc": 21309,
    "uttle": 6248,
    "comprehensive": 20629,
    "Ġfreedom": 9084,
    "alescence": 15927,
    "Ġplaced": 3443,
    "Ġtalent": 12300,
    "ick": 837,
    "Ġwafted": 14500,
    "Ġorganization": 7985,
    "abound": 15743,
    "springing": 24890,
    "Ġfounded": 8560,
    "emone": 21932,
    "Ġcommander": 8628,
    "Ġross": 2765,
    "Ġ98": 24595,
    "pursue": 24978,
    "Ġmaxim": 3088,
    "ý": 190,
    "aches": 6571,
    "Ġamerica": 6763,
    "Ġingenuity": 17165,
    "estone": 18365,
    "Ġbushes": 16402,
    "Ġneural": 619,
    "Ġlightly": 13087,
    "aby": 18109,
    "Ġhereditary": 10666,
    "Ġcumulative": 4213,
    "Ġbearing": 5300,
    "ream": 2709,
    "Ġmaximizing": 3172,
    "Ġwherein": 14297,
    "teak": 22821,
    "Ġperformance": 1309,
    "Ġcampaign": 20663,
    "ize": 775,
    "Ġbatt": 13901,
    "Ġhardest": 18914,
    "virtue": 20572,
    "Ġanecd": 20157,
    "sailor": 14717,
    "ights": 8477,
    "Ġvane": 22880,
    "Ġkrusenstern": 20716,
    "Ġprotection": 9464,
    "imble": 10859,
    "Ġmorrow": 9344,
    "Ġbranch": 8333,
    "Ġmarch": 4082,
    "Ġindignity": 18834,
    "suitable": 18633,
    "velled": 9878,
    "Ġsilent": 3412,
    "pronouncing": 25194,
    "were": 2556,
    "Ġcount": 1816,
    "Ġincorrupt": 19236,
    "Ġmuteness": 19420,
    "Ġpurchas": 19876,
    "Ġunderstanding": 1806,
    "Ġpropos": 7063,
    "georgiana": 26021,
    "Ġespecially": 3935,
    "Ġpillows": 24991,
    "Ġabandon": 12261,
    "Ġsheets": 9724,
    "Ġfascinated": 25636,
    "es": 288,
    "furniture": 20245,
    "Ġhydraul": 9516,
    "Ġpunish": 12163,
    "squeezing": 25914,
    "belated": 24040,
    "marvell": 24174,
    "Ġgot": 2278,
    "Ġsilly": 7686,
    "Ġrecesses": 17262,
    "appo": 3914,
    "Ġgasping": 17038,
    "barbs": 20240,
    "replied": 11567,
    "Ġpretence": 13210,
    "Ġwasting": 12732,
    "Ġcomrade": 11681,
    "Ġdrugg": 17121,
    "Ġcharnel": 22257,
    "Ġmorocc": 22978,
    "Ġsunk": 5752,
    "certainly": 5340,
    "Ġsecuring": 11994,
    "Ġvaliant": 9802,
    "Ġmalays": 19680,
    "Ġpassengers": 13678,
    "Ġmisfortune": 5568,
    "Ġdoorway": 14499,
    "assin": 22310,
    "Ġwho": 611,
    "Ġfleshy": 24616,
    "Ġprocession": 11778,
    "Ġtogether": 1879,
    "Ġrevolt": 24500,
    "lik": 3915,
    "fitting": 1510,
    "Ġtart": 12531,
    "elaborate": 21580,
    "Ġ68": 24369,
    "lances": 15386,
    "distant": 13338,
    "Ġsyntax": 958,
    "Ġpagan": 7118,
    "meryton": 10113,
    "press": 1732,
    "Ġfarther": 5956,
    "Ġdesires": 9459,
    "works": 6588,
    "creation": 14808,
    "Ġasiatic": 20433,
    "Ġdesper": 6177,
    "neighbour": 7210,
    "Ġparm": 15884,
    "Ġdistribution": 2021,
    "lestrade": 9658,
    "madam": 24420,
    "Ġheavens": 5050,
    "ogr": 18671,
    "Ġboundary": 11223,
    "Ġcanvassed": 19938,
    "Ġflask": 3041,
    "Ġsubdiv": 16163,
    "Ġdevoted": 6574,
    "Ġrecurrent": 1804,
    "Ġbanished": 10618,
    "Ġtrump": 8198,
    "Ġcrush": 9424,
    "Ġbreaks": 13186,
    "Ġannual": 14834,
    "invisible": 17741,
    "Ġjonah": 3479,
    "Ġcrowd": 6337,
    "Ġsuddenness": 23385,
    "Ġxv": 23410,
    "Ġsame": 1343,
    "Ġnoisier": 4626,
    "Ġwrinkled": 7263,
    "Ġago": 3139,
    "slave": 16896,
    "lantic": 6364,
    "Ġflinging": 13588,
    "Ġflush": 14426,
    "access": 11181,
    "Ġsub": 950,
    "Ġteaches": 18804,
    "Ġarabian": 9092,
    "Ġcarter": 18902,
    "Ġlovers": 9722,
    "Ġhulls": 13928,
    "ahit": 9384,
    "utherland": 9580,
    "Ġmates": 4873,
    "Ġrivers": 9444,
    "Ġfishermen": 5972,
    "clever": 20815,
    "Ġtrans": 646,
    "crated": 16684,
    "Ġforever": 14554,
    "Ġboughs": 20492,
    "Ġcharley": 19009,
    "Ġostentatious": 25737,
    "Ġwintry": 17436,
    "kward": 6957,
    "Ġrescales": 5068,
    "Ġarrive": 6906,
    "aim": 2756,
    "although": 8809,
    "Ġjudges": 14686,
    "gerine": 22893,
    "claims": 25320,
    "indulged": 22380,
    "Ġaffability": 14389,
    "purse": 20028,
    "Ġforg": 3787,
    "erest": 10698,
    "ax": 693,
    "Ġdeposit": 17270,
    "Ġcaulking": 20296,
    "ches": 2148,
    "Ġhanding": 16133,
    "Ġsanctified": 25883,
    "Ġhistorically": 19381,
    "Ġimagine": 3923,
    "Ġven": 4649,
    "Ġballasted": 23983,
    "Ġcursory": 18860,
    "Ġploughed": 22612,
    "mense": 4781,
    "Ġpetulance": 24229,
    "Ġbrings": 11883,
    "Ġlicense": 20094,
    "hav": 20899,
    "Ġclenched": 14205,
    "Ġabsorb": 25115,
    "Ġbeyond": 2459,
    "ceived": 1966,
    "Ġsuggested": 8322,
    "Ġarray": 12813,
    "Ġco": 730,
    "oubled": 23648,
    "Ġdisclosed": 15156,
    "satisfy": 16893,
    "Ġseeking": 7036,
    "Ġcapstan": 9101,
    "warrant": 21140,
    "purpose": 10046,
    "177": 20754,
    "scheme": 15257,
    "Ġperilously": 24503,
    "Ġelectric": 15197,
    "erve": 12553,
    "investments": 25533,
    "urning": 12920,
    "Ġhaul": 11695,
    "dismal": 23501,
    "Ġexplicit": 3589,
    "talking": 10009,
    "wives": 15457,
    "Ġmexico": 15283,
    "figures": 20125,
    "Ġwane": 21291,
    "romang": 22012,
    "Ġdisplays": 19859,
    "irts": 9240,
    "Ġgaining": 9494,
    "emin": 8472,
    "active": 16106,
    "acted": 11011,
    "Ġmetaphysical": 26070,
    "Ġbegins": 7243,
    "Ġclothing": 18424,
    "Ġlakeman": 6986,
    "Ġsucc": 12789,
    "Ġdough": 8423,
    "Ġhouse": 1504,
    "Ġliked": 5265,
    "unavoidable": 17392,
    "Ġsentences": 2682,
    "Ġcomplaints": 12268,
    "ronted": 14879,
    "daugh": 6788,
    "keep": 3849,
    "secut": 7869,
    "Ġcoincidence": 25484,
    "formality": 22227,
    "Ġpick": 4257,
    "ampton": 18147,
    "Ġdenomin": 12071,
    "Ġnovel": 6696,
    "Ġsuspect": 5758,
    "baden": 25616,
    "blow": 9106,
    "Ġinscriptions": 20012,
    "Ġtypewriter": 19099,
    "stretch": 13983,
    "Ġrecess": 10848,
    "Ġhypotheses": 4388,
    "Ġuniformly": 19149,
    "Ġsubsequently": 16164,
    "them": 3021,
    "faint": 17546,
    "Ġweal": 21924,
    "steam": 23963,
    "Ġmouldy": 14976,
    "Ġinj": 4761,
    "henomenon": 13617,
    "Ġye": 900,
    "Ġcomprehending": 24444,
    "ibly": 2998,
    "Ġexcellent": 4239,
    "any": 3338,
    "Ġagonising": 25374,
    "Ġcap": 2361,
    "wherefore": 19110,
    "disinterested": 23505,
    "Ġfeat": 10938,
    "resemblance": 25934,
    "ssed": 3734,
    "Ġhatchway": 13527,
    "insufferable": 21195,
    "Ġsauc": 15891,
    "barbaric": 26360,
    "gement": 13730,
    "Ġofficers": 4427,
    "backward": 2683,
    "endeavoured": 12284,
    "Ġmerryweather": 9524,
    "ean": 20842,
    "Ġwest": 5219,
    "Ġaccomp": 4714,
    "childhood": 16867,
    "haps": 1673,
    "Ġspeed": 2449,
    "Ġknot": 7012,
    "gunw": 17222,
    "Ġsemicircular": 26069,
    "effort": 19216,
    "Ġtended": 21169,
    "enger": 10774,
    "Ġghastly": 10062,
    "itation": 1782,
    "Ġcourse": 2131,
    "Ġpipe": 4323,
    "Ġgraze": 18227,
    "stonecraft": 24355,
    "Ġtire": 17721,
    "Ġeverybody": 4512,
    "Ġfavourable": 7960,
    "Ġdarts": 16769,
    "iline": 21725,
    "Ġponderous": 8356,
    "Ġimagination": 5759,
    "barrels": 15043,
    "recovered": 19790,
    "Ġendued": 14079,
    "Ġreputed": 18038,
    "Ġneutral": 12745,
    "Ġgross": 11627,
    "Ġhall": 4186,
    "Ġapoplexy": 25266,
    "cream": 15333,
    "ortal": 6266,
    "Ġstatistical": 11106,
    "Ġinforming": 18744,
    "Ġvirtue": 4923,
    "oat": 13766,
    "Ġstation": 5299,
    "Ġforthwith": 16619,
    "Ġequator": 7460,
    "Ġcaptioning": 23026,
    "nantucketer": 24977,
    "Ġpreyed": 18367,
    "dat": 1660,
    "Ġpassive": 22845,
    "Ġpropont": 16352,
    "Ġlethar": 21751,
    "mistaken": 12214,
    "turned": 7305,
    "ienced": 5685,
    "Ġid": 1909,
    "taining": 7205,
    "Ġaged": 10323,
    "fig": 8738,
    "Ġcame": 1302,
    "singing": 24362,
    "Ġdomain": 3392,
    "cords": 25139,
    "detached": 19677,
    "weakness": 16127,
    "Ġbreaching": 23351,
    "iation": 7342,
    "Ġubiquitous": 26197,
    "Ġenlist": 21941,
    "Ġdelay": 5748,
    "Ġbritain": 16957,
    "igations": 18046,
    "Ġawe": 7147,
    "Ġtrinity": 22371,
    "boys": 13363,
    "Ġimaginative": 19248,
    "Ġalas": 5923,
    "astern": 8584,
    "irwin": 8470,
    "Ġtore": 6531,
    "Ġwander": 9033,
    "Ġkilburn": 18352,
    "Ġdictionaries": 12343,
    "Ġshallow": 14397,
    "battering": 20788,
    "Ġsteamer": 17190,
    "depart": 12269,
    "Ġstraw": 9431,
    "Ġtransient": 18495,
    "Ġreturn": 1713,
    "wise": 2574,
    "Ġdef": 1199,
    "Ġdeductions": 19735,
    "Ġdemo": 10880,
    "pedest": 24823,
    "asburgh": 15650,
    "Ġhaunts": 18199,
    "Ġslipped": 6492,
    "Ġcringing": 25942,
    "hump": 12481,
    "Ġsea": 1207,
    "Ġlodgings": 8313,
    "history": 15016,
    "Ġalmighty": 18107,
    "conditional": 9080,
    "buckets": 26124,
    "provid": 11150,
    "Ġsponge": 26004,
    "Ġmutually": 23960,
    "Ġfist": 21407,
    "tack": 12516,
    "Ġbold": 5293,
    "aps": 1227,
    "Ġsisterly": 16307,
    "Ġdyspeps": 16487,
    "Ġaccused": 8509,
    "Ġboard": 3383,
    "Ġvote": 21952,
    "Ġpredef": 18531,
    "abular": 4763,
    "be": 669,
    "Ġchoke": 22254,
    "Ġprolong": 6831,
    "fiercely": 25257,
    "Ġardour": 8044,
    "Ġ7": 4746,
    "Ġpunchbowl": 20234,
    "Ġshelf": 12271,
    "awakened": 14455,
    "Ġpolitics": 19226,
    "itives": 17821,
    "Ġunrolled": 22043,
    "taught": 17685,
    "sham": 9760,
    "Ġberths": 20118,
    "desperate": 17359,
    "ituted": 13875,
    "ard": 465,
    "remark": 7260,
    "Ġflukes": 5267,
    "pleasanter": 24050,
    "Ġbre": 1914,
    "inexplicable": 25810,
    "Ġnib": 13942,
    "Ġheightens": 24156,
    "oo": 7552,
    "Ġpotent": 12067,
    "Ġcalifornian": 25853,
    "Ġcondescension": 10620,
    "sies": 21057,
    "reel": 21236,
    "Ġbids": 24646,
    "Ġerad": 25031,
    "Ġtok": 1245,
    "asse": 15648,
    "Ġindustry": 18838,
    "Ġcertainty": 6735,
    "Ġglut": 18849,
    "ĠĠĠĠĠĠĠĠĠĠĠĠĠĠĠĠĠĠĠĠĠĠĠĠĠĠĠĠĠĠĠĠĠĠĠĠĠĠĠĠĠĠĠĠĠ": 9954,
    "bolt": 25138,
    "seriously": 18906,
    "«": 109,
    "jury": 15376,
    "Ġebony": 18011,
    "cred": 9110,
    "Ġchocks": 13349,
    "Ġmonday": 6128,
    "Ġtwitch": 22680,
    "osely": 9267,
    "Ġabroad": 8868,
    "Ġincorpor": 13168,
    "coun": 10689,
    "Ġassertion": 13492,
    "Ġabominably": 20069,
    "Ġissu": 6254,
    "Ġroods": 22409,
    "Ġdigress": 24649,
    "isen": 10793,
    "Ġaunts": 21203,
    "wig": 17705,
    "engagement": 14460,
    "Ġbarbarously": 24816,
    "Ġperceived": 4715,
    "Ġtoilette": 20496,
    "Ġturk": 6604,
    "Ġsinusoid": 4782,
    "Ġevents": 4473,
    "Ġspeeches": 22666,
    "======": 9835,
    "respective": 19848,
    "zen": 5140,
    "uming": 8493,
    "Ġsmiting": 12902,
    "ent": 305,
    "Ġremot": 8545,
    "Ġinadequate": 17939,
    "rene": 5379,
    "Ġsympathies": 14863,
    "mmar": 952,
    "Ġjenny": 20165,
    "Ġmajesty": 5201,
    "Ġpan": 5082,
    "abriel": 6949,
    "watery": 19829,
    "wrong": 13209,
    "Ġtrading": 23082,
    "Ġdiffered": 22717,
    "Ġcomput": 601,
    "themselves": 6541,
    "Ġintimidated": 24802,
    "herfield": 3631,
    "Ġgales": 12669,
    "Ġunre": 3477,
    "Ġthinner": 24184,
    "diversity": 25898,
    "Ġnibbling": 17387,
    "Ġscrape": 14920,
    "Ġanxiety": 5408,
    "Ġtransformations": 3484,
    "consc": 4842,
    "Ġill": 2191,
    "Ġlonely": 6822,
    "rabbit": 20594,
    "Ġpassage": 3883,
    "Ġinfirmity": 26299,
    "Ġbenediction": 18787,
    "Ġextravagant": 17280,
    "Ġcherub": 23291,
    "Ġobjective": 3764,
    "Ġsleepless": 14583,
    "squ": 7810,
    "Ġtransports": 24279,
    "ote": 4597,
    "puff": 21024,
    "Ġimmemorially": 25384,
    "K": 47,
    "gorge": 22342,
    "ength": 2312,
    "a": 69,
    "tashtego": 9624,
    "Ġcaucus": 17382,
    "pitch": 13302,
    "orated": 12595,
    "Ġincreases": 3795,
    "Ġdocument": 15020,
    "Ġwhosoever": 21723,
    "Ġallusion": 7625,
    "Ġhogarth": 25781,
    "Ġpocket": 4899,
    "letters": 13177,
    "Ġduration": 20356,
    "charm": 13992,
    "Ġrollicking": 24450,
    "visited": 13351,
    "Ġstalk": 12701,
    "Ġ45": 14773,
    "Ġtypewriting": 16423,
    "gazing": 12475,
    "Ġproc": 5544,
    "Ġcensure": 15098,
    "Ġmoderately": 22218,
    "Ġactions": 6279,
    "Ġkiller": 19571,
    "Ġcruises": 23708,
    "Ġ83": 24458,
    "Ġnorthward": 13325,
    "este": 15924,
    "Ġcalculated": 4476,
    "Ġfarthest": 23122,
    "sciss": 18853,
    "Ġdemanding": 16806,
    "allies": 14167,
    "ction": 501,
    "Ġopinions": 9417,
    "meas": 7433,
    "Ġpersonal": 7478,
    "deliberated": 26119,
    "Ġesc": 2253,
    "eter": 11623,
    "Ġpatagonia": 25859,
    "Ġphilips": 5410,
    "gangway": 20670,
    "Ġcrozetts": 19632,
    "Ġmeagre": 21818,
    "Ġfugitives": 25635,
    "ary": 988,
    "tomb": 21096,
    "Ġspoilt": 24804,
    "Ġglacier": 11434,
    "Ġjudgment": 5765,
    "Ġperches": 18450,
    "Ġgamming": 25543,
    "ilities": 6991,
    "Ġfo": 1652,
    "Ġepo": 21623,
    "Ġrate": 1065,
    "Ġfling": 9662,
    "Ġparents": 6753,
    "Ġfoss": 9853,
    "Ġcons": 953,
    "Ġhoars": 19079,
    "Ġelijah": 9102,
    "Ġcable": 11582,
    "Ġdarkness": 4279,
    "inging": 5908,
    "bred": 11470,
    "fore": 686,
    "ids": 21768,
    "Ġpeasant": 13554,
    "oration": 2207,
    "Ġbiography": 22766,
    "gathered": 13734,
    "Ġgowns": 25360,
    "court": 7510,
    "previous": 9763,
    "max": 1686,
    "Ġanchors": 12617,
    "Ġheadland": 22903,
    "Ġplush": 18611,
    "Ġvillanous": 24057,
    "Ġejaculated": 15172,
    "pencil": 18829,
    "Ġunderneath": 16340,
    "Ġbashful": 20423,
    "Ġcat": 2122,
    "Ġmemory": 2274,
    "lashed": 20956,
    "dr": 6222,
    "Ġtobacc": 7854,
    "Ġbristles": 25845,
    "Ġbended": 21388,
    "parameter": 3124,
    "Ġstreamed": 14547,
    "Ġamounts": 6705,
    "Ġfitted": 6244,
    "swallow": 24259,
    "Ġcomprehen": 5350,
    "furnished": 20244,
    "Ġtorn": 6001,
    "coming": 3562,
    "Ġslack": 8957,
    "Ġrenewing": 19813,
    "Ġspilling": 22138,
    "Ġdepicting": 22600,
    "Ġsleeps": 10447,
    "Ġbanker": 8670,
    "Ġannouncing": 16755,
    "âĢľâĢĺ": 1485,
    "Ġregiment": 6432,
    "itous": 13869,
    "ofs": 11833,
    "Ġreadily": 5254,
    "Ġboneless": 19608,
    "odes": 18119,
    "Ġclimbing": 20073,
    "oes": 4435,
    "factories": 19846,
    "Ġbarriers": 23797,
    "gar": 5614,
    "e": 73,
    "Ġlengthwise": 10453,
    "Ġresembled": 18036,
    "Ġuncovered": 23435,
    "Ġheave": 7599,
    "dangerous": 20243,
    "É": 138,
    "Ġpropri": 6739,
    "Ġkins": 22199,
    "Ġknocking": 10561,
    "arned": 21826,
    "aceti": 7112,
    "Ú": 155,
    "Ġwarned": 16881,
    "ople": 2318,
    "Ġthousands": 6749,
    "Ġjavelin": 26105,
    "inglass": 21305,
    "dismay": 19156,
    "wide": 10139,
    "ouement": 21452,
    "Ġagonizing": 17240,
    "treat": 12517,
    "hem": 6665,
    "Ġblinds": 8008,
    "ingham": 21303,
    "yt": 17712,
    "Ġfields": 2142,
    "iloquent": 21730,
    "Ġmeans": 699,
    "running": 6797,
    "Ġdistraction": 22511,
    "Ġaffliction": 25846,
    "begin": 8886,
    "Ġethiop": 26156,
    "vens": 21115,
    "thoughtfully": 24047,
    "ash": 1993,
    "oded": 11671,
    "Ġplaintiffs": 13612,
    "Ġrusty": 14966,
    "eled": 2356,
    "Ġsu": 432,
    "formal": 14170,
    "Ġ**": 4722,
    "Ġunfrequent": 24109,
    "Ġluxur": 12344,
    "itor": 12570,
    "Ġintently": 8170,
    "Ġcub": 8416,
    "Ġmassive": 9934,
    "Ġarg": 4767,
    "extinguished": 16155,
    "Ġventured": 7500,
    "Ġunearthly": 9038,
    "Ġdebility": 24274,
    "Ġfinite": 2323,
    "league": 17846,
    "nyder": 16686,
    "report": 13402,
    "venerable": 26409,
    "mber": 7804,
    "ribed": 7693,
    "Ġexhilar": 19686,
    "Ġfrancisco": 26065,
    "Ġperiodically": 19497,
    "usages": 22285,
    "deal": 12803,
    "cruising": 12283,
    "Ġweap": 6156,
    "idious": 11664,
    "wound": 21129,
    "omically": 13978,
    "Ġcritics": 23445,
    "Ġsurp": 9636,
    "lighter": 20961,
    "Ġnimble": 21532,
    "Ġfolded": 7768,
    "acks": 11791,
    "Ġfrom": 434,
    "heedful": 20576,
    "Ġharmony": 16815,
    "shaven": 18493,
    "Ġsymmet": 11750,
    "usage": 12836,
    "Ġcarpet": 9358,
    "Ġdespatched": 23833,
    "Ġsupply": 6068,
    "whip": 22242,
    "Ġridge": 14821,
    "Ġphrensy": 25127,
    "Ġglove": 14492,
    "Ġoffices": 14340,
    "Ġinsc": 7585,
    "application": 12366,
    "Ġearned": 19408,
    "Ġgoble": 14232,
    "lance": 12485,
    "Ġstains": 21746,
    "Ġcontemplated": 13467,
    "ocean": 12404,
    "Ġerskine": 17434,
    "web": 18665,
    "insisted": 23071,
    "Ġvenge": 5420,
    "Ġencoun": 4513,
    "Ġderive": 10396,
    "Ġruin": 6057,
    "woof": 21142,
    "aire": 10682,
    "Ġtrust": 4079,
    "Ġcrew": 2496,
    "america": 17097,
    "Ġuninterrupted": 22051,
    "Ġappar": 7410,
    "Ġcrad": 21352,
    "Ġmoulded": 16976,
    "Ġpromote": 23197,
    "Ġvarious": 3510,
    "Ġselect": 3997,
    "Ġenlar": 15803,
    "Ġactionable": 24559,
    "acious": 5562,
    "rug": 18340,
    "fine": 10092,
    "Ġbud": 10170,
    "Ġatrocious": 21950,
    "Ġcomforter": 20510,
    "tstone": 21087,
    "Ġadieu": 10053,
    "organ": 15577,
    "Ġfilters": 3927,
    "Ġstrengthen": 20703,
    "adventures": 20259,
    "Ġspread": 5161,
    "Ġdreary": 10409,
    "Ġvariously": 18654,
    "Ġskeleton": 5514,
    "Ġsuperstition": 15058,
    "consequential": 26251,
    "÷": 184,
    "!_": 7328,
    "shoals": 24716,
    "Ø": 153,
    "quitted": 21862,
    "Ġmors": 17803,
    "Ġmaddening": 17244,
    "Ġillustrative": 25069,
    "mass": 12493,
    "steaks": 23964,
    "ont": 2621,
    "Ġmeadows": 11423,
    "Ġaccelerate": 23230,
    "Ġconsternation": 9861,
    "supp": 4163,
    "Ġtufted": 17015,
    "apolog": 22337,
    "Ġasse": 8161,
    "ultural": 22573,
    "Ġdwelling": 7321,
    "foam": 24417,
    "cake": 20806,
    "Ġastern": 6091,
    "Ġberth": 8683,
    "Ġacross": 1332,
    "harbors": 20151,
    "slipped": 25530,
    "Ġsant": 21217,
    "fug": 17544,
    "Ġchicha": 15939,
    "Ġridges": 16732,
    "Ġwives": 12559,
    "Ġmiguel": 25767,
    "Ġcontrary": 5261,
    "Ġkentuckian": 26344,
    "inence": 15483,
    "Ġerected": 12237,
    "surrounded": 26089,
    "Ġashamed": 6403,
    "ras": 21039,
    "Ġchildren": 3766,
    "erness": 6434,
    "Ġpictured": 16624,
    "Ġjerked": 19835,
    "expressing": 16802,
    "Ġimbec": 14158,
    "Ġaslant": 21906,
    "Ġ[_": 15463,
    "milk": 20480,
    "impenet": 18056,
    "Ġcapric": 14577,
    "sick": 13786,
    "atherine": 2595,
    "Ġuns": 15839,
    "th": 408,
    "mic": 12492,
    "stead": 10847,
    "Ġinhabited": 12189,
    "moored": 22710,
    "Ġargu": 10935,
    "Ġsmut": 22561,
    "bec": 4052,
    "side": 2301,
    "fil": 12466,
    "Ġdefined": 11901,
    "jected": 22718,
    "Ġappertaining": 26534,
    "Ġbrooding": 18909,
    "Ġded": 2781,
    "Ġpractices": 19065,
    "Ġdamned": 13135,
    "Ġnorton": 12653,
    "cket": 3687,
    "Ġchased": 8864,
    "Ġmodified": 14168,
    "ĠĠĠĠĠĠĠĠĠĠĠĠĠĠĠĠĠĠĠĠĠĠĠĠĠĠĠĠĠĠĠĠĠĠĠĠĠĠĠ": 19260,
    "Ġstreat": 15724,
    "Ġweave": 21925,
    "Ġdro": 2772,
    "Ġtumultuous": 10617,
    "Ġmem": 2070,
    "proachable": 23401,
    "Ġscraping": 13419,
    "Ġinquirer": 24966,
    "ĠĠĠĠĠĠĠĠĠĠĠĠĠĠĠĠĠĠĠĠĠĠĠĠĠĠĠĠĠĠĠĠ": 2739,
    "Ġdisplaying": 16967,
    "equally": 19901,
    "relative": 24016,
    "Ġsimilarity": 3170,
    "humoredly": 26326,
    "Ġvaliantly": 22804,
    "pow": 10718,
    "ternatural": 12719,
    "Ġblotting": 25314,
    "Ġdiscreet": 16483,
    "Ġinvention": 19956,
    "Ġaqu": 17743,
    "Ġethere": 23954,
    "Ġveiled": 16203,
    "Ġhermits": 22079,
    "Ġclaw": 22353,
    "Ġunceasing": 20361,
    "âĢĶ": 517,
    "Ġthroats": 24575,
    "smug": 23911,
    "aisance": 15077,
    "Ġnatures": 16507,
    "Ġanticipation": 17057,
    "Ġindebted": 8711,
    "gers": 8377,
    "entions": 17977,
    "Ġrestrained": 16378,
    "Ġverify": 12091,
    "Ġgrosvenor": 17420,
    "upid": 6582,
    "feed": 9295,
    "Ġtacit": 21177,
    "Ġgleamed": 17077,
    "Ġarsacidean": 20368,
    "Ġemir": 23354,
    "springs": 24912,
    "Ġcomply": 8893,
    "leisure": 21374,
    "Ġadvis": 9812,
    "tra": 5002,
    "Ġwatch": 2744,
    "naturally": 14564,
    "Ġtender": 5753,
    "gd": 3128,
    "cou": 13698,
    "Ġpatroness": 13512,
    "Ġhaunted": 10255,
    "Ġappals": 22222,
    "dignity": 15348,
    "Ġbambooz": 26120,
    "gence": 876,
    "unwho": 21882,
    "Ġgasfitters": 25041,
    "Ġcoco": 11001,
    "isl": 21378,
    "Ġsoothed": 10031,
    "hair": 9124,
    "Ġpantheistic": 26337,
    "Ġdisquis": 22532,
    "Ġaddresses": 3767,
    "Ġaccidentally": 9507,
    "Ġgalvan": 21621,
    "Ġmarvels": 11085,
    "Ġstriving": 8998,
    "Ġde": 363,
    "largely": 19577,
    "Ġcolony": 18769,
    "Ġinterrupting": 19560,
    "Ġhimmalehs": 26232,
    "Ġ76": 24264,
    "Ġlandsman": 11351,
    "Ġbut": 424,
    "Ġtig": 13815,
    "ologically": 22869,
    "ython": 1027,
    "need": 10980,
    "Ġexempt": 21833,
    "smo": 10127,
    "sun": 7140,
    "circumst": 5349,
    "Ġrevel": 9216,
    "Ġenorm": 5304,
    "output": 4403,
    "Ġdiving": 12605,
    "Ġdiverted": 14593,
    "Ġhappened": 3713,
    "ceremony": 20593,
    "Ġskipper": 22802,
    "Ġstorm": 4303,
    "search": 8466,
    "condesc": 18506,
    "asol": 21544,
    "asets": 2309,
    "Ġentering": 6286,
    "Ġslacked": 25189,
    "Ġunderground": 18986,
    "Ġcommentators": 25230,
    "Ġsuitable": 18282,
    "Ġportent": 12085,
    "Ġagatha": 6865,
    "04": 10681,
    "ours": 3427,
    "Ġrept": 13985,
    "Ġcontracted": 12864,
    "Ġpinioned": 21487,
    "fra": 8376,
    "Ġoutskirts": 17459,
    "Ġsatan": 14392,
    "decl": 8859,
    "Ġch": 513,
    "Ġbury": 12045,
    "sails": 7496,
    "Ġprophesy": 26062,
    "Ġclinched": 17396,
    "Ġdissipate": 13636,
    "cost": 19189,
    "convinced": 10624,
    "Ġunbroken": 18251,
    "cup": 10693,
    "Ġthrilling": 19751,
    "Ġcoil": 11821,
    "ĠâĢĶ": 13813,
    "fire": 6358,
    "Ġte": 1138,
    "wish": 8101,
    "Ġimpulsive": 19966,
    "Ġfired": 16157,
    "incible": 16499,
    "author": 9862,
    "Ġaugment": 8695,
    "Ġtip": 15473,
    "Ġquietude": 19363,
    "Ġmelancholy": 5605,
    "believing": 19465,
    "unned": 21883,
    "Ġmathematics": 12077,
    "smile": 23909,
    "Ġor": 437,
    "Ġvilest": 20104,
    "Ġcorrupt": 11926,
    "resembled": 21249,
    "Ġglued": 20592,
    "Ġevenly": 4131,
    "Ġaffection": 2638,
    "Ġchina": 8041,
    "Ġheaps": 11644,
    "Ġspare": 5102,
    "mechanical": 25579,
    "Ġenable": 685,
    "unable": 14061,
    "Ġoverlooked": 15974,
    "Ġenchanted": 9082,
    "Ġsample": 3181,
    "overspreading": 26140,
    "Ġmilan": 19538,
    "Ġmuhammad": 26170,
    "Ġscrutiny": 26016,
    "rese": 15510,
    "Ġitself": 2521,
    "higher": 20410,
    "Ġpinched": 17035,
    "knowing": 10438,
    "prehens": 9291,
    "erable": 1916,
    "Ġsales": 12811,
    "Ġdelicately": 24126,
    "Ġartful": 22613,
    "churning": 21701,
    "Ġrand": 1582,
    "ancial": 21365,
    "pemberley": 9622,
    "Ġresounds": 22547,
    "Ġsqualidness": 25844,
    "riving": 21931,
    "Ġfors": 21776,
    "Ġappears": 5402,
    "Ġcomplied": 14736,
    "peculiarity": 23114,
    "Ġcables": 15561,
    "towing": 17690,
    "tr": 3580,
    "Ġcopestone": 24939,
    "occupations": 24969,
    "title": 17289,
    "Ġsidel": 9637,
    "Ġtrif": 6270,
    "flutter": 23974,
    "entreat": 17978,
    "Ġeye": 2279,
    "Ġdarkened": 16435,
    "imming": 9689,
    "Ġmout": 17800,
    "Ġturkish": 12265,
    "omited": 21645,
    "Ġnoble": 3439,
    "Ġfigures": 8633,
    "little": 3351,
    "sequ": 2399,
    "Ġbringing": 5870,
    "feared": 11806,
    "Ġadjust": 2155,
    "Ġswallow": 8952,
    "repe": 8780,
    "Ġhappier": 10361,
    "Ġreputation": 11642,
    "Ġgentleman": 3043,
    "Ġarchitecture": 1103,
    "scra": 13022,
    "Ġpersons": 6179,
    "Ġburke": 19252,
    "hap": 17560,
    "bos": 17485,
    "Ġtranquo": 14845,
    "Ġalex": 15136,
    "oa": 9614,
    "Ġhagger": 21495,
    "Ġslept": 8260,
    "igning": 12685,
    "Ġbeat": 4493,
    "Ġdangling": 17176,
    "erie": 21274,
    "Ġsermon": 12379,
    "Ġpersuasion": 10500,
    "Ġclerks": 17297,
    "Ġearthy": 23715,
    "Ġpatriot": 23293,
    "Ġtomahawk": 7538,
    "Ġlub": 15652,
    "pleased": 8856,
    "Ġcooped": 22585,
    "po": 1137,
    "Ġcaroline": 7253,
    "Ġentit": 22748,
    "lim": 9608,
    "training": 2517,
    "Ġoccupations": 9460,
    "Ġaquiline": 26160,
    "chat": 21690,
    "Ġpace": 9185,
    "gle": 20871,
    "nants": 17614,
    "Ġkingdom": 12021,
    "Ġessence": 13408,
    "Ġexposed": 8524,
    "Ġinteresting": 4327,
    "Ġdeliberately": 10626,
    "Ġunderstand": 833,
    "ail": 566,
    "uries": 6148,
    "Ġarchy": 14348,
    "Ġbagging": 24538,
    "Ġverily": 16604,
    "Ġfurnishing": 16647,
    "carrying": 16714,
    "Ġfled": 6672,
    "enterprise": 24997,
    "Ġquadru": 16007,
    "bene": 6113,
    "Ġlob": 7627,
    "Ġcousins": 9917,
    "Ġbab": 5291,
    "Ġadmission": 23557,
    "Ġshetland": 22164,
    "Ġdropping": 7482,
    "tern": 4225,
    "tried": 13796,
    "Ġcommod": 10335,
    "Ġgush": 10204,
    "Ġaccompanied": 6780,
    "Ġtorm": 5434,
    "ittingly": 18808,
    "Ġuniform": 2226,
    "arson": 22752,
    "Ġconnecting": 18630,
    "Ġeduc": 4786,
    "desponding": 26343,
    "Ġmapple": 11151,
    "Ġbrick": 8928,
    "Ġcommodores": 25375,
    "melted": 25207,
    "Ġfollows": 7673,
    "oot": 13767,
    "owner": 18612,
    "Ġengaging": 9338,
    "Ġrefusal": 10346,
    "Ġhab": 4220,
    "Ġpresents": 8246,
    "trembling": 17144,
    "ertain": 1206,
    "nson": 16096,
    "influences": 25251,
    "Ġhinges": 15215,
    "Ġyork": 11667,
    "therefore": 5955,
    "Ġtrembling": 7480,
    "Ġunbounded": 18260,
    "Ġgrammars": 11403,
    "Ġtr": 557,
    "Ġprofundities": 20456,
    "happy": 4426,
    "masts": 19428,
    "Ġcomfortless": 23916,
    "Ġinfinite": 8579,
    "Ġdoubly": 16388,
    "Ġhelter": 24028,
    "chel": 11208,
    "rodden": 21539,
    "?_": 8071,
    "Ġdreaminess": 23943,
    "»": 124,
    "Ġterror": 5124,
    "sings": 4252,
    "wail": 21128,
    "cence": 9590,
    "Ġknots": 15010,
    "Ġaccommodate": 20520,
    "Ġtoy": 15637,
    "divided": 25021,
    "andes": 18154,
    "ascending": 24706,
    "Ġbakers": 17868,
    "Ġalliance": 18236,
    "Ġchair": 3662,
    "Ġconj": 8462,
    "!": 5,
    "Ġ*/": 10375,
    "Ġtrooped": 24900,
    "threadbare": 25990,
    "either": 6791,
    "Ġfavoring": 2343,
    "Ġturing": 7565,
    "Ġfour": 2215,
    "pse": 21011,
    "Ġbrother": 2749,
    "Ġpitied": 14693,
    "Ġsanity": 24984,
    "consequ": 18507,
    "Ġunchanging": 22050,
    "Ġblooming": 17214,
    "Ġthus": 2038,
    "Ġtougher": 21179,
    "Ġdemocracy": 25459,
    "Ġremoter": 20109,
    "Ġcapsizing": 20092,
    "Ġprovided": 6578,
    "Ġcolumbus": 26565,
    "Ġhotels": 19539,
    "stein": 5505,
    "Ġexisted": 15756,
    "Ġcele": 9902,
    "Ġnaturally": 2467,
    "Ġfestoon": 20297,
    "start": 7598,
    "Ġbidding": 9539,
    "Ġuncl": 22021,
    "Ġunlab": 3788,
    "Ġwealth": 7620,
    "Ġbewitching": 25977,
    "pistol": 17643,
    "www": 17253,
    "structure": 2386,
    "Ġterra": 13120,
    "extremely": 26266,
    "Ġassuming": 16693,
    "Ġac": 846,
    "attest": 23125,
    "Ġprofessor": 11231,
    "liness": 8750,
    "immortal": 21714,
    "congratulations": 20282,
    "Ġcannibals": 10589,
    "Ġgarb": 21607,
    "bearer": 18519,
    "Ġdetails": 6566,
    "vap": 13805,
    "Ġglit": 8562,
    "Ġpropriety": 10012,
    "Ġjackets": 19605,
    "Ġchimer": 24604,
    "Ġmatter": 1734,
    "Ġplaning": 22608,
    "Ġassociated": 12253,
    "Ġunw": 7004,
    "fab": 13718,
    "Ġfedallah": 6109,
    "Ġincred": 5646,
    "Ġgambler": 26192,
    "presbyterian": 26370,
    "Ġ73": 24262,
    "Ġconveys": 16856,
    "Ġpatagonian": 20537,
    "Ġsnarled": 25715,
    "Ġunt": 2292,
    "Ġinsignific": 13183,
    "Ġemblaz": 16235,
    "Ġsurpr": 2548,
    "Ġunwillingness": 20035,
    "circuit": 24190,
    "avo": 8519,
    "Ġmotions": 8282,
    "Ġlif": 10197,
    "scru": 16245,
    "ded": 2757,
    "Ġperplexity": 2755,
    "Ġreeled": 13988,
    "uit": 8394,
    "Ġridicule": 13514,
    "Ġaristocratic": 20515,
    "Ġauthor": 4377,
    "gy": 2098,
    "female": 20669,
    "Ġdescends": 14289,
    "shazz": 14242,
    "Ġdetermination": 9821,
    "refuge": 24733,
    "Ġmoved": 4841,
    "Ġnaught": 8129,
    "adoes": 11662,
    "Ġfol": 1289,
    "longing": 23728,
    "aust": 15312,
    "shell": 16289,
    "ediction": 17947,
    "Ġtangle": 25761,
    "erxes": 21278,
    "grasp": 16433,
    "Ġdoom": 6417,
    "Ġrevolving": 9985,
    "dread": 8732,
    "pot": 10119,
    "Ġharpooneer": 3770,
    "Ġgoose": 5939,
    "Ġexhilarating": 26339,
    "Ġmultitude": 9327,
    "Ġbegin": 3101,
    "Ġpushing": 10820,
    "Ġbubbles": 11399,
    "Ġcross": 1375,
    "Ġshrimp": 24159,
    "Ġdemands": 19641,
    "Ġunconsciously": 10007,
    "Ġoccupant": 16653,
    "esley": 17904,
    "archical": 1925,
    "hval": 20900,
    "Ġtalked": 4422,
    "Ġshell": 11739,
    "Ġslighted": 16569,
    "Ġmediterranean": 12318,
    "Ġblending": 14401,
    "Ġtomorrow": 21517,
    "clinging": 20824,
    "/`": 12432,
    "Ġcor": 1323,
    "Ġ112": 24436,
    "Ġegypt": 9680,
    "Ġfrank": 4421,
    "fi": 12465,
    "Ġbunch": 11327,
    "venor": 16100,
    "Ġindividuals": 24545,
    "ylon": 24980,
    "Ġlump": 21556,
    "narrowly": 20350,
    "eks": 4729,
    "Ġslily": 23168,
    "kin": 7132,
    "Ġsimplicity": 2925,
    "Ġpalsied": 25780,
    "Ġwakes": 11574,
    "feeling": 6618,
    "sperm": 5203,
    "driven": 19774,
    "Ġdistinct": 4610,
    "Ġreaching": 7302,
    "stranger": 9885,
    "fth": 20858,
    "Ġspir": 2428,
    "Ġdaw": 21433,
    "Ġnay": 5711,
    "Ġperishing": 22403,
    "waiter": 24588,
    "hast": 5358,
    "Ġsealed": 15821,
    "ubines": 22963,
    "chop": 21692,
    "Ġdestitute": 14567,
    "ractions": 11635,
    ":âĢĶâĢĺ": 24195,
    "Ġcand": 3278,
    "itions": 4149,
    "ĠĠĠĠĠĠĠĠĠĠĠĠĠĠĠĠĠĠĠĠĠĠĠĠĠĠĠĠĠĠĠ": 19703,
    "inations": 7566,
    "Ġmarket": 7709,
    "Ġhalting": 16277,
    "Ġpikes": 21482,
    "Ġrecollections": 10514,
    "Ġisles": 8461,
    "Ġdexter": 9703,
    "Ġshillings": 15838,
    "unconquerable": 21896,
    "careful": 14868,
    "Ġsmallest": 6430,
    "cord": 8727,
    "Ġsummits": 14684,
    "ernally": 22618,
    "ichever": 13959,
    "seventh": 12718,
    "ugnance": 12370,
    "Ġnom": 21523,
    "Ġsymp": 4504,
    "Ġjabbering": 22308,
    "Ġcondescended": 19959,
    "contempt": 13191,
    "Ġrestrictions": 20638,
    "Ġtertiary": 15297,
    "Ġahead": 6664,
    "Ġutil": 4674,
    "Ġautonom": 10416,
    "connected": 1311,
    "andish": 18156,
    "Ġappropri": 2227,
    "Ġnatural": 1122,
    "eyeing": 14948,
    "Ġbitterness": 8025,
    "Ġwallowing": 24046,
    "riers": 18185,
    "Ġimplicit": 19961,
    "Ġshreds": 12774,
    "Ġsense": 3253,
    "Ġshouted": 5348,
    "Ġantilles": 24181,
    "Ġcongreg": 8464,
    "bler": 11473,
    "ouring": 6420,
    "inous": 8776,
    "tears": 11038,
    "~": 98,
    "Ġundulated": 19519,
    "Ġdeep": 803,
    "Ġfainted": 8795,
    "headed": 4320,
    "value": 18809,
    "respectable": 19849,
    "Ġgradients": 609,
    "Ġhorizont": 6936,
    "Ġbolt": 11335,
    "Ġfrighted": 24032,
    "Ġbol": 6242,
    "Ġeyebrows": 23519,
    "darcy": 5208,
    "fever": 22506,
    "will": 1971,
    "remote": 23194,
    "Ġpersecutor": 26097,
    "Ġwag": 10776,
    "comm": 7439,
    "arabian": 26447,
    "Ġtambourine": 9566,
    "Ġraved": 22651,
    "Ġgives": 5018,
    "exactly": 10638,
    "Ġcoppers": 22587,
    "Ġcongratulate": 9065,
    "Ġcattle": 12576,
    "conviction": 19968,
    "Ġquohog": 10973,
    "Ġpleasurable": 23344,
    "Ġpremeditated": 22239,
    "Ġreader": 11937,
    "Ġamusing": 11803,
    "Ġledger": 19405,
    "Ġmessage": 13525,
    "Ġpeaking": 22694,
    "Ġowed": 10781,
    "Ġben": 1111,
    "Ġdependen": 1829,
    "Ġenig": 15802,
    "Ġdamning": 19141,
    "Ġejac": 10205,
    "irious": 15789,
    "isition": 11588,
    "Ġchronicler": 20232,
    "Ġdefines": 1743,
    "Ġmainz": 22658,
    "Ġforbid": 7867,
    "Ġcompelled": 14267,
    "Ġtemperate": 16166,
    "Ġpeculiarity": 12937,
    "Ġbrawny": 13616,
    "Ġperceive": 6700,
    "attempted": 20177,
    "accepting": 20138,
    "Ġlibrary": 6423,
    "description": 11095,
    "99": 1895,
    "Ġalphabetical": 17203,
    "Ġglide": 22985,
    "Ġpliny": 11828,
    "Ġmouths": 7490,
    "hedge": 22504,
    "Ġpuppy": 12408,
    "Ġinsists": 23681,
    "adventurous": 25362,
    "enchanted": 26425,
    "emb": 11692,
    "Ġsolving": 2482,
    "interrupt": 8619,
    "mist": 5686,
    "Ġmouth": 3183,
    "breeding": 16676,
    "onomy": 12551,
    "Ġunthink": 18248,
    "Ġentire": 2557,
    "Ġwast": 21865,
    "Ġwond": 3938,
    "Ġlingering": 11380,
    "Ġscents": 22292,
    "Ġbeaches": 18087,
    "Ġjoy": 3187,
    "Ġperturbation": 20444,
    "private": 13585,
    "Ġfavoured": 16363,
    "Ġclumsy": 9581,
    "Ġlanes": 19768,
    "ondency": 15272,
    "board": 3565,
    "Ġparameters": 995,
    "outer": 9670,
    "Ġchinks": 22256,
    "ernsey": 8904,
    "quired": 21860,
    "det": 5207,
    "kes": 3678,
    "summoned": 26592,
    "storied": 18027,
    "Ġsquid": 11881,
    "everything": 6325,
    "Ġske": 4816,
    "Ġconf": 1820,
    "emph": 21933,
    "Ġbelieving": 8226,
    "Ġchamber": 6214,
    "arus": 13914,
    "Ġrespectable": 6737,
    "whom": 8186,
    "ount": 1114,
    "Ġdelightfully": 13161,
    "Ġblotted": 20220,
    "Ġbake": 21385,
    "Ġedd": 8399,
    "Ġwor": 1188,
    "Ġsettled": 3741,
    "Ġoffend": 16147,
    "Ġ108": 19687,
    "dissemble": 23496,
    "Ġmile": 7151,
    "eline": 2410,
    "Ġwiping": 25766,
    "necess": 4897,
    "emper": 18188,
    "neighboring": 20620,
    "Ġunhappy": 5640,
    "hoist": 23716,
    "shapes": 22462,
    "province": 26073,
    "Ġhansom": 13667,
    "Ġet": 3581,
    "Ġmiscell": 16152,
    "easily": 17535,
    "Ġformality": 22832,
    "bable": 8722,
    "home": 7340,
    "Ġanswerable": 23472,
    "Ġmetropolis": 17276,
    "Ġendeared": 26499,
    "Ġfleet": 9434,
    "aus": 1502,
    "ually": 2771,
    "Ġprice": 10404,
    "Ġshut": 3941,
    "insurance": 18891,
    "having": 5211,
    "versed": 9827,
    "Ġconsumed": 10351,
    "Ġtarn": 21161,
    "Ġaffinity": 18790,
    "haired": 14769,
    "sher": 5217,
    "Ġfitting": 21412,
    "Ġcelerity": 17438,
    "Ġ100": 14367,
    "Ġejaculation": 20257,
    "Ġregularizer": 2337,
    "irmed": 9241,
    "solid": 16383,
    "Ġreliance": 14387,
    "cabinet": 25080,
    "Ĉ": 201,
    "required": 17030,
    "Ù": 154,
    "Ġfierc": 18715,
    "turkish": 24532,
    "ows": 1917,
    "ĠcÃ¦": 15558,
    "Ġresponsible": 9889,
    "ource": 5244,
    "Ġcreated": 2707,
    "Ġbuffalo": 11430,
    "opposing": 24822,
    "Ġsubsets": 2344,
    "Ġgener": 582,
    "Ġamerican": 5061,
    "whaler": 20312,
    "mb": 904,
    "Ġdisconsolate": 20721,
    "Ġsatisfied": 4173,
    "Ġsens": 1853,
    "pp": 384,
    "Ġways": 5396,
    "ounding": 22399,
    "garity": 17555,
    "Ġattractions": 12922,
    "Ġmr": 661,
    "Ġcoming": 2616,
    "fow": 20855,
    "Ġgreenness": 23770,
    "Ġslew": 23386,
    "Ġquar": 3116,
    "Ġcent": 3256,
    "Ġthis": 382,
    "leman": 21371,
    "culiarity": 11142,
    "Ġpenalizing": 13095,
    "Ġalternately": 15033,
    "Ġapplications": 4784,
    "Ġspence": 22127,
    "Ġtell": 1469,
    "Ġdisguises": 25058,
    "examine": 25478,
    "Ġsched": 2335,
    "Ġblackest": 19100,
    "acceptable": 25185,
    "based": 2962,
    "Ġeulogy": 26471,
    "industrious": 26241,
    "Ġalleged": 17292,
    "anned": 17841,
    "Ġapplicable": 18994,
    "Ġnotable": 18223,
    "omin": 4704,
    "Ġoverpower": 12845,
    "asable": 21545,
    "Ġfrighten": 13282,
    "icip": 6389,
    "Ġholiday": 13002,
    "\":": 9583,
    "Ġinterlacing": 22581,
    "Ġscorch": 20070,
    "Ġcrawford": 24894,
    "returning": 12209,
    "scy": 21058,
    "Ġtruthful": 23870,
    "Ġsex": 8845,
    "Ġpreach": 14174,
    "Ġexerc": 6832,
    "Ġtemper": 956,
    "Ġsubfield": 11872,
    "scand": 18851,
    "Ġvalue": 2086,
    "tender": 14475,
    "Ġtomb": 8811,
    "complained": 25840,
    "Ġhandled": 12942,
    "Ġfraud": 19019,
    "Ġunsur": 22027,
    "zz": 4295,
    "Ġprosecution": 12384,
    "Ġevolved": 9894,
    "lings": 8749,
    "Ġuninter": 18247,
    "Ġwater": 1949,
    "Ġple": 1470,
    "Ġfore": 2152,
    "Ġdeliver": 9850,
    "Ġsummers": 23876,
    "Ġpleases": 16300,
    "Ġbedrooms": 19973,
    "Ġthoroughfares": 26096,
    "Ġantiqu": 12148,
    "Ġalan": 10870,
    "T": 56,
    "Ġhiss": 15791,
    "Ġcosmetic": 23473,
    "Ġatone": 15805,
    "makers": 20984,
    "entials": 22668,
    "Ġsubdued": 11034,
    "Ġidentify": 12016,
    "pil": 15410,
    "conqu": 14246,
    "lies": 15384,
    "elsewhere": 19870,
    "Ġproprietor": 12376,
    "thirds": 25049,
    "Ġobligations": 12096,
    "Ġrapture": 13498,
    "thinking": 9016,
    "Ġunprinciple": 18255,
    "in": 262,
    "Ġnour": 10831,
    "riminately": 16484,
    "branch": 23580,
    "unhes": 21880,
    "Ġflorida": 20661,
    "Ġrendering": 16659,
    "Ġagreement": 18543,
    "Ġmotive": 6092,
    "Ġwilliam": 3481,
    "Ġgreatest": 4092,
    "shut": 10982,
    "Ġdiagon": 24739,
    "Ġvintage": 26211,
    "Ġ129": 24473,
    "Ġdemig": 20359,
    "sheep": 23091,
    "want": 8770,
    "screen": 22995,
    "iveness": 2468,
    "Ġloggerhead": 13660,
    "Ġtax": 13818,
    "Ġdairy": 20689,
    "rendered": 22344,
    "Ġfetch": 7770,
    "pane": 10122,
    "Ġarts": 11009,
    "itarian": 21340,
    "Ġenthusiastic": 19969,
    "Ġcake": 12574,
    "Ġmonogra": 22981,
    "Ġvigorous": 10568,
    "Ġbrightness": 16578,
    "Ġfrosts": 19805,
    "Ġfacet": 15588,
    "critters": 14778,
    "Ġafford": 4367,
    "adopt": 25545,
    "urous": 10214,
    "Ġdecline": 9289,
    "Ġfunction": 587,
    "iction": 4269,
    "avoiding": 25237,
    "Ġcapst": 8599,
    "Ġclue": 7020,
    "Ġpersian": 11087,
    "Ġsimil": 2530,
    "Ġjoint": 12038,
    "Ġquery": 2479,
    "Ġannihil": 10176,
    "Ġprep": 4194,
    "Ġgratitude": 5598,
    "Ġdiscourse": 9800,
    "ravelled": 18017,
    "whal": 10941,
    "rant": 11518,
    "tete": 10733,
    "wandering": 20287,
    "steel": 8300,
    "hopper": 23717,
    "Ġacquiescence": 20333,
    "Ġjig": 15954,
    "anchor": 13891,
    "engaged": 7451,
    "Ġearnestness": 12129,
    "Ġwhich": 504,
    "Ġ15": 9326,
    "chron": 21698,
    "oried": 10803,
    "Ġdegrad": 2589,
    "Ġslid": 7953,
    "Ġsmell": 7215,
    "beyond": 8885,
    "exhibited": 18478,
    "lane": 10707,
    "names": 16517,
    "Ġcrimson": 16439,
    "william": 4563,
    "Ġabsolutely": 4859,
    "Ġmuchness": 18707,
    "Ġcrater": 16438,
    "Ġanonymous": 26179,
    "hend": 13255,
    "ath": 862,
    "successful": 11359,
    "Ġsteersman": 13046,
    "hear": 10148,
    "Ġtyro": 16995,
    "cannot": 5745,
    "Ġsenor": 20153,
    "iron": 3711,
    "mbling": 3345,
    "Ġfervour": 19741,
    "action": 3726,
    "inate": 6234,
    "inisc": 15490,
    "Ġirregularly": 25324,
    "enjoyments": 25434,
    "key": 5462,
    "mand": 3893,
    "destro": 13313,
    "Ġpeep": 6869,
    "aked": 2018,
    "aspect": 10195,
    "Ġcushion": 17835,
    "late": 11500,
    "Ġforefinger": 16443,
    "Ġamongst": 8961,
    "breat": 10080,
    "awk": 23120,
    "Ġcrash": 12004,
    "lace": 13750,
    "Ġroofs": 16986,
    "Ġexquisite": 12385,
    "Ġinjure": 16782,
    "Ġtruly": 4797,
    "oons": 12502,
    "fields": 14654,
    "Ġsingle": 1693,
    "Ġreminded": 10001,
    "Ġhaughty": 11450,
    "flitted": 23972,
    "Ġrobust": 1359,
    "fashioned": 9572,
    "stricken": 9886,
    "slipping": 25529,
    "Ġadie": 8490,
    "interesting": 12205,
    "Ġdiffers": 23784,
    "urs": 6989,
    "Ġbarbary": 24218,
    "attended": 8954,
    "Ġrender": 8306,
    "discoveries": 25386,
    "Ġgourmand": 26467,
    "Ġintercourse": 10999,
    "Ġmixture": 9564,
    "fere": 10989,
    "Ġrot": 10968,
    "Ġclassifies": 11841,
    "Ġnind": 17952,
    "necessary": 5883,
    "Ġvice": 6549,
    "ĠĠĠĠĠĠĠĠĠĠĠĠĠĠĠĠĠĠĠĠĠĠĠĠĠĠĠĠĠĠĠĠĠĠĠ": 19259,
    "Ġconsole": 8152,
    "Ġpurple": 10434,
    "Ġwits": 15534,
    "Ġwe": 386,
    "Ġsch": 13837,
    "neural": 3069,
    "ingolstadt": 21306,
    "Ġauthentic": 20538,
    "Ġwent": 1540,
    "Ġkeener": 22919,
    "Ġscream": 5936,
    "rushing": 10020,
    "Ġiceberg": 14718,
    "mn": 3577,
    "darkened": 24513,
    "Ġswear": 6461,
    "Ġhire": 21489,
    "]]": 5205,
    "Ġdevoid": 18685,
    "Ġreduces": 2341,
    "impat": 11203,
    "Ġtribe": 10752,
    "Ġlistened": 4470,
    "Ġfatigue": 8701,
    "Ġselection": 18205,
    "ı": 242,
    "Ġproportion": 7280,
    "tese": 21086,
    "Ġdiffused": 12072,
    "Ġpeasants": 12335,
    "eyed": 11488,
    "onstr": 12550,
    "Ġperplexed": 23664,
    "Ġweek": 2827,
    "Ġleisure": 6540,
    "repressed": 21246,
    "Ġdivined": 19446,
    "Ġprincipally": 11310,
    "species": 13259,
    "Ġplaything": 19239,
    "Ġclosely": 6488,
    "relate": 24014,
    "schoolmaster": 15164,
    "Ġcountries": 13100,
    "Ġfinancial": 23134,
    "Ġpolic": 13164,
    "Ġemperor": 15161,
    "Ġoak": 6129,
    "7": 27,
    "iocr": 20925,
    "Ġhumbled": 16199,
    "Ġhitting": 21491,
    "wond": 8772,
    "Ġunfl": 22025,
    "Ġohio": 19130,
    "Ġpostmark": 16726,
    "Ġpassionately": 16765,
    "Ġpretension": 23767,
    "Ġunallied": 22037,
    "Ġpoorly": 9857,
    "Ġmitigates": 3053,
    "Ġting": 8400,
    "circle": 16737,
    "Ġdoors": 6418,
    "Ġprecise": 7076,
    "Ġparting": 9786,
    "Ġsignificantly": 4520,
    "Ġexert": 5722,
    "feeders": 25236,
    "Ġreally": 2159,
    "Ġencouraged": 9357,
    "Ġhoarsely": 26303,
    "usions": 6160,
    "uiperai": 10665,
    "Ġenthus": 7231,
    "Ġpublic": 4334,
    "Ġsoda": 25535,
    "Ġsulkily": 25882,
    "Ġassurances": 10002,
    "Ġenumerating": 15247,
    "Ġintending": 11707,
    "Ġwatching": 4856,
    "Ġsequential": 2132,
    "Ġinhabitants": 7523,
    "Ġwords": 1326,
    "Ġgrasped": 8035,
    "disgust": 23500,
    "Ġcharcoal": 19010,
    "event": 8078,
    "pling": 8476,
    "hmael": 7341,
    "Ġawaken": 23588,
    "yet": 3752,
    "inserted": 18890,
    "Ġhauled": 11697,
    "ootiful": 17375,
    "south": 8762,
    "Ġtrample": 20330,
    "content": 11199,
    "Ġexamination": 8006,
    "Ġmounted": 7833,
    "tps": 11536,
    "missionary": 24617,
    "Ġbower": 15570,
    "Ġwad": 13853,
    "Ġromantic": 8032,
    "Ġwakeful": 24268,
    "irm": 3111,
    "Ġtones": 8402,
    "judging": 24203,
    "Ġelderly": 13497,
    "Ġoutstanding": 22321,
    "oysius": 14366,
    "earthly": 24723,
    "unction": 10236,
    "lording": 24053,
    "Ġsupplies": 20329,
    "Ġskewer": 19623,
    "Ġtempestuous": 20074,
    "Ġ53": 19638,
    "obliged": 20634,
    "Ġadler": 8175,
    "Ġarranging": 11175,
    "Ġbent": 5149,
    "olds": 9313,
    "inlaid": 21193,
    "Ġcharts": 12831,
    "ĠĠĠĠĠĠĠĠĠĠĠĠĠĠĠĠĠĠĠĠĠĠĠĠĠĠĠĠĠĠĠĠĠĠ": 14614,
    "Ġwant": 1120,
    "owed": 2269,
    "Ġpollard": 20389,
    "erne": 21272,
    "Ġvestige": 20066,
    "worthy": 7733,
    "Ġintention": 5638,
    "Ġbob": 22640,
    "Ġaccidental": 16849,
    "Ġglory": 6066,
    "Ġtu": 6968,
    "Åĵuvre": 25888,
    "Ġins": 2783,
    "Ġdiligently": 11406,
    "offers": 16394,
    "Ġastir": 14641,
    "Ġlxi": 21565,
    "Ġfolios": 23024,
    "Ġz": 999,
    "wild": 8771,
    "Ġcrowding": 13283,
    "Ġconverted": 16118,
    "Ġaut": 1812,
    "ij": 7802,
    "Ġtails": 9904,
    "Ġpratt": 23219,
    "Ġcopper": 7424,
    "tick": 17679,
    "Ġhun": 1496,
    "Ġsoftly": 7949,
    "Ġcrossed": 6070,
    "Ġescaped": 6459,
    "Ġsmaller": 1884,
    "Ġobligation": 13247,
    "also": 7852,
    "downward": 16620,
    "Ġbodies": 8033,
    "Ġsurv": 6082,
    "Ġchart": 10946,
    "erranean": 9336,
    "Ġrudder": 25110,
    "Ġrevered": 23737,
    "respect": 6374,
    "Ġconception": 10315,
    "nar": 12497,
    "comb": 11036,
    "Ġglided": 7446,
    "scissors": 20729,
    "Ġvancouver": 26566,
    "move": 11857,
    "Ġdepresses": 25798,
    "pening": 2832,
    "Ġpardon": 5727,
    "đ": 210,
    "Ġback": 820,
    "everybody": 8614,
    "Ġbeaten": 10530,
    "verize": 21733,
    "Ġsolely": 9912,
    "ĠâĢĶ_": 3458,
    "Ġsaturation": 2063,
    "kins": 7344,
    "Ġsaith": 14157,
    "Ġfinishing": 23130,
    "Ġpat": 1764,
    "eg": 17530,
    "ived": 1536,
    "flo": 6115,
    "Ġbehooves": 20735,
    "jee": 17580,
    "Ġdigesting": 19812,
    "Ġpoor": 1712,
    "tolerable": 17689,
    "cabin": 8364,
    "Ġincarnate": 20378,
    "Ġpleasantness": 24139,
    "Ġgoing": 2067,
    "happ": 3106,
    "Ġrachel": 11848,
    "Ġvelvet": 12401,
    "seen": 2883,
    "Ġaffect": 1386,
    "Ġestablishment": 13582,
    "Ġ1000": 3120,
    "oniously": 21260,
    "theories": 18081,
    "match": 15393,
    "Ġbored": 16108,
    "showing": 22461,
    "Ġinsights": 13182,
    "Ġsatisfaction": 5667,
    "Ġartificial": 783,
    "Ġsinews": 20290,
    "Ġvariety": 8532,
    "ogany": 18673,
    "Ġwindlass": 7254,
    "arctic": 12614,
    "Ġmyself": 1456,
    "ilted": 21727,
    "Ġdevoutly": 25834,
    "seem": 10229,
    "Ġalph": 9697,
    "iguous": 18047,
    "xes": 21143,
    "Ġshowed": 4498,
    "date": 17518,
    "Ġpianoforte": 15276,
    "Ġannouncement": 14835,
    "Ġentertaining": 16927,
    "stating": 21651,
    "âĢĶâĢĺ_": 24832,
    "Ġracket": 22654,
    "Ġrol": 3555,
    "willingly": 11985,
    "Ġhusband": 3621,
    "Ġindeed": 1681,
    "alid": 13937,
    "Ġajar": 21205,
    "ouri": 21451,
    "Ġaugust": 10599,
    "Ġwrapped": 8343,
    "Ġgratification": 24098,
    "remind": 23192,
    "sembled": 7262,
    "cst": 10086,
    "orous": 5294,
    "âĢĿ)": 21819,
    "Ġbacks": 8530,
    "Ġconjugal": 25104,
    "grateful": 10429,
    "Ġindefinitely": 25222,
    "Ġdistress": 5845,
    "Ġinquiries": 5678,
    "Ġdecanting": 22443,
    "Ġremarking": 13127,
    "Ġbody": 2437,
    "Ġeucl": 24708,
    "Ġlouder": 13471,
    "plish": 18201,
    "Ġ111": 24435,
    "fowl": 17550,
    "Ġxxxiv": 24972,
    "Ġerecting": 24653,
    "observing": 25495,
    "Ġhig": 755,
    "Ġmuzzle": 21324,
    "kilt": 4867,
    "Ġvalued": 12186,
    "Ġrace": 5848,
    "Ġfrog": 23925,
    "Ġming": 9647,
    "Ġcult": 8785,
    "Ġresting": 7963,
    "oftener": 23968,
    "Ġchr": 3688,
    "Ġprecipices": 12281,
    "Ġledgers": 23941,
    "Ġduc": 4698,
    "Ġcongratulatory": 19770,
    "curiosity": 8627,
    "Ġscholars": 26113,
    "Ġcorrect": 2431,
    "hement": 13834,
    "Ġfejee": 18354,
[...]
