{
  "metadata": {
    "vocab_size": 26613,
    "algorithm": "BPE",
    "created_at": "2026-05-21 06:08:54",
    "special_tokens": [
      "<PAD>",
      "<SOS>",
      "<EOS>",
      "<UNK>",
      "<MASK>"
    ]
  },
  "vocab": {
    "orses": 6052,
    "Ġfurnishing": 16644,
    "Ġenrapt": 21937,
    "Ġintegrity": 12310,
    "Ġmeaning": 1417,
    "Ġmiscellaneous": 17461,
    "iture": 5696,
    "Ġcompiled": 22569,
    "Ġemblaz": 16239,
    "Ġaddress": 2269,
    "disposition": 10040,
    "connected": 1310,
    "Ġstation": 5297,
    "Ġprofounder": 23568,
    "Ġtalking": 3857,
    "which": 1710,
    "nson": 16089,
    "rect": 1598,
    "prairies": 20565,
    "é": 170,
    "Ġris": 4885,
    "eping": 5833,
    "alvan": 21502,
    "Ġseas": 3075,
    "azine": 19130,
    "Ġwasting": 12724,
    "Ġrejection": 19982,
    "pire": 9134,
    "Ġmeantime": 6206,
    "Ġstrain": 6024,
    "Ġneck": 4884,
    "Ġwell": 901,
    "Ġcorners": 18875,
    "Ġbrightest": 13222,
    "rices": 4557,
    "anke": 15558,
    "Ġcousins": 9913,
    "Ġmodified": 14166,
    "Ġreveal": 11198,
    "Ġlargest": 6282,
    "akin": 11765,
    "Ġwards": 17789,
    "Ġappetite": 12381,
    "admirably": 24944,
    "Ġperth": 7022,
    "Ġlead": 3522,
    "Ġfrighten": 13276,
    "Ġimmedi": 2906,
    "peace": 13045,
    "abling": 1076,
    "dispositions": 25011,
    "itations": 17817,
    "listener": 24930,
    "Ġconcert": 11964,
    "bil": 20770,
    "tort": 17674,
    "Ġcentrally": 23829,
    "Ġtints": 17726,
    "ody": 1477,
    "square": 15060,
    "Ġprovid": 1007,
    "Ġcatastrophe": 10482,
    "urning": 12913,
    "Q": 53,
    "Ġdisquiet": 18552,
    "Ġrickety": 26504,
    "Ġmud": 11571,
    "icate": 9200,
    "Ġimprovements": 14507,
    "favour": 9547,
    "ining": 3222,
    "imental": 16532,
    "Ġinsanity": 12044,
    "rob": 5533,
    "Ġprick": 14476,
    "Ġdestination": 19149,
    "Ġregent": 18598,
    "Ġglu": 15665,
    "wheels": 14379,
    "Ġrobustness": 18861,
    "tle": 2406,
    "Ġpreposter": 12818,
    "ef": 5134,
    "Ġgle": 7859,
    "Ġcurses": 13009,
    "shadow": 20311,
    "Ġreigning": 15698,
    "Ġbreaches": 14520,
    "Ġdistension": 22503,
    "Ġnasty": 17441,
    "Ġgoring": 21602,
    "Ġferocity": 16870,
    "ev": 6952,
    "Ġcau": 13879,
    "ittance": 12841,
    "Ġsuperstitions": 17071,
    "Ġhoist": 11973,
    "ackled": 22422,
    "scept": 21052,
    "ure": 356,
    "Ġpersu": 3564,
    "Ġgladness": 16590,
    "Ġacting": 10990,
    "button": 10969,
    "instr": 12527,
    "Ġamours": 22479,
    "Ġsends": 14788,
    "Ġneglig": 18878,
    "Ġsized": 11561,
    "Ġmechanisms": 1574,
    "liter": 11500,
    "Ġheeds": 24519,
    "Ġrevived": 11367,
    "Ġsmite": 22556,
    "contained": 22468,
    "difficult": 10056,
    "Ġ48": 24079,
    "Ġcrescent": 16135,
    "arance": 4697,
    "Ġpracticable": 19061,
    "Ġdrowsy": 26443,
    "Ġexcept": 3312,
    "pardon": 10063,
    "Ġbuffalo": 11428,
    "Ġbaling": 17859,
    "Ġhump": 5853,
    "included": 19206,
    "tracks": 19637,
    "§": 105,
    "bles": 7017,
    "Ġboun": 21378,
    "Ġme": 350,
    "loaded": 22510,
    "Ġsooner": 5572,
    "lorious": 17591,
    "Ġhelmet": 19686,
    "Ġexpedition": 10633,
    "Ġcry": 3495,
    "Ġfounder": 17883,
    "stein": 5505,
    "Ġoutwardly": 25000,
    "Ġremarking": 13122,
    "branch": 23577,
    "Ġforbear": 17120,
    "yed": 3272,
    "Ġpray": 3899,
    "Ġstraining": 11326,
    "hab": 1075,
    "its": 1149,
    "inkles": 7426,
    "imprisonment": 23761,
    "methodically": 20663,
    "Ġpagan": 7117,
    "Ġmurmur": 14588,
    "Ġropes": 10747,
    "impress": 18051,
    "Ġreflections": 5947,
    "Ġconducting": 16648,
    "Ġgrizzled": 11449,
    "Ġsubmit": 11867,
    "Ġslighter": 18939,
    "na": 13758,
    "Ġvapors": 19907,
    "places": 7880,
    "Ġlim": 2377,
    "eldest": 22799,
    "Ġkelson": 18350,
    "Ġfragmentary": 25858,
    "als": 2042,
    "alarm": 15624,
    "Ġapparatus": 24908,
    "quely": 10230,
    "Ġargument": 7098,
    "eman": 5636,
    "Ġbarn": 11585,
    "Ġbeech": 18082,
    "Ġstabilizing": 3657,
    "dition": 15338,
    "za": 13808,
    "morn": 20975,
    "stern": 7862,
    "Ġperceiving": 8874,
    "Ġbulkington": 14676,
    "Ġsteelkilt": 5675,
    "akes": 2220,
    "prof": 7471,
    "isms": 12576,
    "ernsey": 8900,
    "expectation": 14854,
    "honour": 13465,
    "Ġsteepest": 3086,
    "intolerable": 22936,
    ";": 31,
    "Ġmultipl": 2789,
    "stands": 22433,
    "Ġreason": 1367,
    "esu": 17918,
    "Ġdirecting": 16298,
    "shabbily": 26246,
    "Ġmenaced": 16291,
    "Ġpharaoh": 26584,
    "xt": 2083,
    "Ġtrunk": 7205,
    "Ġgentlemen": 3643,
    "Ġnorthward": 13319,
    "umbent": 12092,
    "Ġwithal": 18113,
    "Ġnoted": 15828,
    "Ġrugged": 18720,
    "Ġmomentum": 1602,
    "Ġgolden": 5336,
    "ographical": 16785,
    "pets": 17635,
    "Ġzodiac": 16173,
    "Ġroof": 6564,
    "Ġlook": 879,
    "Ġaghast": 16045,
    "Ġdisdained": 15008,
    "nants": 17612,
    "equ": 6790,
    "Ġcircumspection": 25884,
    "Ġstays": 16559,
    "Ġgrew": 5182,
    "Ġbedroom": 7277,
    "Ġtoad": 21508,
    "F": 42,
    "Ġhearers": 15700,
    "Ġclerval": 4652,
    "Ġgoes": 3852,
    "Ġejac": 10202,
    "scr": 16242,
    "ete": 9202,
    "Ġploughed": 22604,
    "Ġformal": 2942,
    "Ġbourgh": 5069,
    "such": 3080,
    "Ġcrews": 8989,
    "Ġlayer": 1011,
    "Ġintricate": 15135,
    "lutions": 20949,
    "Ġneighbors": 25806,
    "Ġram": 11011,
    "Ġlift": 8809,
    "Ġgradu": 15830,
    "lover": 18540,
    "Ġtiar": 21166,
    "slack": 16893,
    "Ġacquiescence": 20329,
    "Ġcharming": 6628,
    "Ġburke": 19250,
    "reve": 12535,
    "Ġpropontis": 17464,
    "hen": 3517,
    "Ġforge": 8456,
    "uth": 3017,
    "Ġvile": 8472,
    "Ġbinnacle": 8119,
    "Ġready": 3399,
    "Ġvariants": 1791,
    "Ġlet": 1108,
    "Ġtreasure": 9557,
    "Ġhoney": 12628,
    "sideways": 14570,
    "fur": 6355,
    "portent": 25412,
    "Ġmajor": 13289,
    "Ġportcullis": 26602,
    "Ġghosts": 12229,
    "Ġrout": 7402,
    "Ġslee": 8973,
    "oubtedly": 6943,
    "Ġarrives": 23606,
    "Ġdeadliest": 14555,
    "Ġhorribly": 16340,
    "Ġworried": 22924,
    "Ġhut": 15616,
    "Ġchim": 5933,
    "Ġdeny": 7489,
    "ement": 1499,
    "Ġunflinching": 26511,
    "Ġepoch": 26470,
    "Ġhousekeeper": 7456,
    "Ġaffright": 9330,
    "Ġnorth": 4318,
    "Ġsporty": 19889,
    "otent": 8830,
    "Ġbachelors": 24860,
    "gle": 20868,
    "Ġharm": 5017,
    "smo": 10124,
    "instrument": 15236,
    "Ġsimulation": 2751,
    "stonecraft": 24355,
    "Ġhandspike": 22694,
    "endeavoured": 12277,
    "gang": 17552,
    "Ġcontriv": 9280,
    "sheep": 23084,
    "someone": 14562,
    "Ġbrisk": 9801,
    "Ġupset": 22151,
    "2": 22,
    "forecastle": 10989,
    "Ġblight": 18817,
    "biscuit": 17499,
    "Ġdistur": 5312,
    "Ġgrown": 5628,
    "Ġvect": 1223,
    "oy": 1029,
    "Ġresp": 2493,
    "Ġhost": 7068,
    "alescing": 23864,
    "Ġpeople": 2545,
    "ifting": 6545,
    "Ġpirates": 9072,
    "vously": 23502,
    "dial": 20824,
    "attracted": 13047,
    "Ġaffrighted": 13570,
    "ù": 186,
    "Ġmill": 6666,
    "Ġdespondence": 25869,
    "Ġsmelling": 16067,
    "Ġtahitian": 25427,
    "Ġrevolut": 3257,
    "amount": 10883,
    "Ġobstetrics": 24678,
    "_,âĢĻ": 12430,
    "olic": 14040,
    "compared": 24030,
    "archical": 1925,
    "Ġglens": 18854,
    "evident": 25520,
    "Ġlabors": 23326,
    "Ġjun": 8505,
    "whiskers": 12308,
    "Ġaccidentally": 9503,
    "atter": 640,
    "Ġconcluded": 5658,
    "Ġdesmarest": 22979,
    "nam": 2960,
    "Ġsubstantiated": 25875,
    "ere": 6789,
    "ssing": 3809,
    "henomenon": 13612,
    "Ġdevelop": 1654,
    "without": 4845,
    "pse": 21008,
    "sword": 10725,
    "Ġtube": 15002,
    "Ġusurpation": 18358,
    "Ġomitted": 12560,
    "Ġpraying": 19553,
    "gal": 15353,
    "Ġofficer": 6753,
    "©": 107,
    "Ġage": 3896,
    "ready": 2358,
    "quin": 21851,
    "Ġpry": 11597,
    "Ġvouch": 15807,
    "sharp": 10305,
    "phants": 9318,
    "nals": 16394,
    "Ġfest": 10803,
    "deser": 10401,
    "ruction": 4356,
    "Ġthirt": 13937,
    "Ġunluck": 8484,
    "bureau": 20788,
    "Ġconve": 5455,
    "Ġsweatings": 25710,
    "Ġcreatures": 4138,
    "Ġrepetition": 8971,
    "slipping": 25528,
    "Ġanimated": 7702,
    "precisely": 6917,
    "adders": 24399,
    "Ġfates": 15575,
    "ampl": 21846,
    "Ġrobert": 10968,
    "smeer": 26147,
    "ims": 7176,
    "banked": 25337,
    "Ġauthent": 14510,
    "Ġ25": 13192,
    "hurrying": 14981,
    "Ġmisunderstood": 18707,
    "ellative": 21943,
    "vid": 916,
    "Ġgreatly": 5849,
    "oms": 4591,
    "Ġpat": 1794,
    "Ġceremonies": 24836,
    "Ġphysiogn": 12385,
    "Ġtrick": 7020,
    "Ġdrew": 3537,
    "Ġinfluences": 14863,
    "gover": 10701,
    "tram": 19634,
    "Ġsacr": 7194,
    "Ġevangelical": 25506,
    "lets": 7837,
    "Ġconjectured": 9995,
    "Ġrecently": 11859,
    "Ġreduces": 2342,
    "Ġcrazed": 19174,
    "Ġerad": 25028,
    "Ġcrammed": 16469,
    "Ġ>": 21150,
    "exhibited": 18477,
    "wife": 8101,
    "bes": 6641,
    "uced": 13798,
    "emy": 14071,
    "Ġsiamese": 20481,
    "Ġincrust": 22549,
    "Ġpovelson": 26551,
    "Ġdisplaying": 16965,
    "precision": 4330,
    "Ġcaptivating": 26049,
    "Ġshed": 8181,
    "Ġlogs": 16345,
    "Ġcreamy": 14328,
    "garden": 15024,
    "Ġsweat": 13138,
    "Ġdazz": 11592,
    "inating": 9152,
    "gainst": 25141,
    "nevertheless": 8286,
    "Ġwind": 1435,
    "Ġarrog": 18344,
    "orted": 4601,
    "Ġcapabilities": 4375,
    "tout": 21064,
    "Ġmonosy": 18851,
    "concealed": 25115,
    "Ġwolves": 25934,
    "Ġmarbles": 18873,
    "ppery": 10891,
    "corners": 17366,
    "Ġability": 2762,
    "batch": 1982,
    "Ġhawaiian": 25366,
    "ited": 1750,
    "Ġexpressive": 8981,
    "Ġtropics": 17066,
    "photograph": 16150,
    "Ġsparing": 22127,
    "Ġname": 2085,
    "bery": 9785,
    "Ġarsacidean": 20363,
    "Ġinevitable": 15165,
    "Ġprize": 11945,
    "Ġfumbled": 17881,
    "Ġunearthly": 9035,
    "extric": 22754,
    "Ġintrusted": 21990,
    "Ġentity": 10341,
    "Ġrequisite": 18648,
    "impat": 11200,
    "useless": 14593,
    "oided": 11507,
    "Ġtrophy": 20005,
    "Ġalgorith": 557,
    "Ġbob": 22634,
    "Ġgenuine": 14883,
    "isol": 17846,
    "Ġunexpected": 6841,
    "Ġcheer": 4069,
    "Ġmoderation": 12814,
    "Ġdock": 15928,
    "jointed": 24007,
    "Ġlevi": 3032,
    "rinted": 21042,
    "happened": 9431,
    "introduction": 15121,
    "Ġsupports": 3047,
    "Ġdeer": 12716,
    "Ġmanoir": 22329,
    "Ġgrant": 11870,
    "apart": 15959,
    "underneath": 23787,
    "Ġoutward": 7905,
    "aper": 4999,
    "provid": 11148,
    "worshipping": 16609,
    "Ġupd": 945,
    "Ġswim": 3820,
    "Ġmar": 1312,
    "Ġinhabited": 12182,
    "Ġdesperate": 7777,
    "Ġsagacious": 14969,
    "thole": 21984,
    "anatory": 21361,
    "Ġcapable": 5054,
    "Ġdeposited": 25484,
    "Ġsaratoga": 26422,
    "despairing": 25074,
    "spears": 23939,
    "woman": 5899,
    "pitch": 13296,
    "Ġinexhaustible": 16980,
    "Ġgrasp": 4662,
    "load": 12877,
    "roots": 15640,
    "ations": 710,
    "Ġred": 3004,
    "pie": 21010,
    "Ġmaking": 1780,
    "ela": 21567,
    "--": 1041,
    "wherein": 19107,
    "Ġloaf": 15870,
    "04": 10678,
    "rison": 13777,
    "tw": 2809,
    "soever": 11857,
    "Ġflies": 13022,
    "Ġnobleman": 19390,
    "cordiality": 25137,
    "Ġsurrounding": 12159,
    "Ġspectacle": 10495,
    "Ġcollar": 11876,
    "Ġscrews": 25177,
    "Ġvigorously": 11298,
    "Ġvertebra": 20180,
    "oun": 483,
    "z": 94,
    "Ġanchor": 7368,
    "Ġreserved": 7516,
    "owe": 15705,
    "Ġbene": 2033,
    "Ġking": 2304,
    "Ġconvers": 2908,
    "Ġgeese": 7695,
    "looks": 12014,
    "Ġchoose": 5982,
    "ount": 1109,
    "Ġburnished": 23995,
    "host": 5866,
    "Ġdiscrimination": 23604,
    "Ġlessons": 7693,
    "exception": 9974,
    "Ġscarcely": 4013,
    "Ġskill": 6872,
    "eli": 3874,
    "learnt": 23562,
    "increase": 20267,
    "silenced": 24422,
    "Ġlinks": 13953,
    "ro": 301,
    "missionary": 24616,
    "otle": 21795,
    "isco": 12577,
    "ppo": 18175,
    "Ġvariance": 1170,
    "cabin": 8363,
    "Ġsplin": 8618,
    "Ġpursuits": 12073,
    "Ġconstantly": 11969,
    "Ġbelike": 18829,
    "Ġcentre": 5122,
    "lod": 15376,
    "Ġdetermined": 2223,
    "Ġbewitching": 25976,
    "zeal": 16263,
    "Ġparmacetti": 20603,
    "hetically": 21207,
    "Ġlxi": 21559,
    "Ġaltered": 7393,
    "Ġgurglings": 26464,
    "urred": 8449,
    "<PAD>": 0,
    "Ġad": 443,
    "Ġderivatives": 2368,
    "ercely": 12546,
    "Ġencountered": 8322,
    "deformity": 22144,
    "Ġdocument": 15017,
    "Ġapo": 9629,
    "Ġbough": 13892,
    "drunk": 24659,
    "ancient": 9654,
    "Ġmoluccas": 25629,
    "Ġchronicler": 20228,
    "Ġencoura": 1366,
    "Ġsurgeon": 8980,
    "bted": 7794,
    "Ġpronouncing": 16968,
    "Ġbeads": 18083,
    "Ġmeta": 3487,
    "Ġthroat": 7771,
    "Ġunaccountably": 26514,
    "atical": 10770,
    "Ġsuspending": 19243,
    "ouch": 2777,
    "Ġquartered": 20371,
    "Ġrheumatic": 20704,
    "mediate": 16513,
    "ethics": 8877,
    "99": 1893,
    "Ġemerged": 8684,
    "Ġbriony": 9327,
    "dishon": 20402,
    "Ġfowler": 16936,
    "Ġanvil": 11595,
    "Ġragged": 11841,
    "Ġovercame": 9744,
    "Ġdefe": 21834,
    "strongly": 24684,
    "Ġphrase": 11186,
    "Ġirrespective": 23373,
    "leap": 21365,
    "Ġencoding": 4773,
    "glorious": 19365,
    "biqu": 17496,
    "bast": 10075,
    "wishes": 13805,
    "chains": 9683,
    "mews": 22712,
    "oss": 10114,
    "Ġspacious": 18312,
    "Ġbase": 5013,
    "Ġbolt": 11333,
    "rals": 21041,
    "Ġbag": 5699,
    "Ġindign": 6173,
    "Ġinmates": 15620,
    "Ġfraud": 19033,
    "Ġtype": 2019,
    "Ġunfrequ": 19507,
    "vour": 17698,
    "crew": 7545,
    "jar": 17576,
    "Ġworsted": 19993,
    "caves": 20815,
    "apsed": 6295,
    "umer": 9256,
    "Ġantique": 19550,
    "ifying": 5251,
    "Ġblaming": 22928,
    "Ġproportional": 2527,
    "athan": 2955,
    "itically": 21328,
    "Ġburgl": 13171,
    "Ġhumiliating": 22879,
    "Ġwake": 4748,
    ",--": 2475,
    "felix": 10652,
    "Ġcompetition": 14268,
    "Ġpretty": 3861,
    "Ġfibres": 12947,
    "glance": 16586,
    "churning": 21695,
    "cst": 10083,
    "Ġfrequently": 4678,
    "dataset": 23236,
    "Ġide": 2124,
    "venerable": 26407,
    "Ġluff": 15650,
    "steps": 9403,
    "needles": 20313,
    "killing": 20941,
    "iary": 15368,
    "eling": 6681,
    "arcy": 1275,
    "Ġinstigated": 18698,
    "itiousness": 21332,
    "Ġghostliness": 24651,
    "code": 15327,
    "Ġjig": 15944,
    "cup": 10689,
    "Ġpet": 4584,
    "Ġconductor": 24004,
    "Ġpuzz": 5532,
    "Ġmarshy": 20217,
    "Ġsports": 18310,
    "ringle": 21039,
    "somerset": 26322,
    "doing": 8584,
    "Ġstrugg": 3218,
    "Ġheedfully": 24520,
    "mistaken": 12207,
    "alogue": 25159,
    "Ġamply": 22480,
    "Ġshivering": 10264,
    "Ġsuperfluous": 17412,
    "lives": 12482,
    "Ġchambermaid": 24303,
    "Ġdeck": 2139,
    "arr": 3042,
    "Ġsin": 1510,
    "treasures": 26152,
    "Ġstalked": 20427,
    "Ġdeliriously": 23226,
    "ander": 6401,
    "jury": 15371,
    "Ġbulk": 5590,
    "moil": 22701,
    "surrounded": 26088,
    "cruise": 24841,
    "Ġunspeakably": 25172,
    "agreeable": 5829,
    "Ġneither": 3686,
    "cooper": 19188,
    "Ġinestimable": 17440,
    "sad": 11519,
    "numer": 15398,
    "Ġout": 543,
    "Ġswayed": 15046,
    "Ġstiggs": 25792,
    "Ġrobust": 1282,
    "Ġrashly": 20304,
    "andy": 8158,
    "Ġresolves": 23649,
    "Ġdesign": 4133,
    "Ġterritories": 23843,
    "Ġfamiliar": 5511,
    "¢": 100,
    "Ġsky": 3973,
    "poverty": 22905,
    "estations": 22222,
    "ichever": 13955,
    "Ġsympat": 13338,
    "Ġegyptians": 25289,
    "neglect": 25668,
    "Ġdisgraceful": 15018,
    "!_": 7329,
    "luding": 6700,
    "Ġhints": 8430,
    "succeeded": 15173,
    "Ġapril": 13660,
    "utch": 21584,
    "Ġdru": 8422,
    "Ġdissu": 18550,
    "Ġensu": 7876,
    "cus": 3984,
    "run": 10720,
    "Ġhonour": 3923,
    "religion": 20574,
    "Ġstamp": 7865,
    "Ġ105": 24412,
    "icip": 6389,
    "ur": 326,
    "perplex": 18340,
    "Ġfalsely": 20580,
    "Ġmedit": 8019,
    "Ġhindoo": 17174,
    "Ġcircumstantial": 14642,
    "ission": 6457,
    "Ġwag": 10774,
    "difference": 13706,
    "Ġassaulted": 25320,
    "Ġbestirred": 20450,
    "idence": 4301,
    "Ġmorals": 22975,
    "Ġeverybody": 4509,
    "Ġemm": 18002,
    "Ġwork": 1335,
    "Ġpervading": 20612,
    "circumstance": 7764,
    "Ġlap": 8437,
    "daring": 20828,
    "feet": 6568,
    "fters": 20860,
    "Ġbeaver": 18085,
    "fold": 7547,
    "ilt": 2968,
    "beryls": 25309,
    "whiteness": 18370,
    "Ġviews": 7290,
    "Ġhomeward": 9390,
    "Ġplus": 3883,
    "Ġcharted": 22248,
    "Ġimprisonment": 22389,
    "icacy": 15655,
    "Ġspitzbergen": 15285,
    "Ġholland": 10364,
    "Ġhier": 1892,
    "benevol": 12223,
    "ugn": 9376,
    "blunder": 24128,
    "Ġmag": 1430,
    "Ġreservoir": 20650,
    "Ġess": 5691,
    "Ġcircumspect": 15082,
    "lig": 3171,
    "fastened": 19324,
    "Ġstolen": 14005,
    "surgeon": 24213,
    "Ġsentinel": 26065,
    "Ġskylight": 24071,
    "Ġsaf": 4006,
    "Ġbracing": 16579,
    "Ġonly": 790,
    "crop": 20797,
    "Ġninety": 13599,
    "cloud": 11104,
    "Ġdella": 21438,
    "Ġfaded": 10808,
    "Ġconvergence": 974,
    "Ġfootman": 8288,
    "Ġspoilt": 24807,
    "extra": 8219,
    "Ġwildness": 14602,
    "Ġmuscles": 12085,
    "begging": 22496,
    "Ġstash": 18067,
    "Ġevanesc": 24293,
    "reflection": 13453,
    "ww": 10736,
    "Ġcovent": 16073,
    "Ġdismantled": 20215,
    "Ġimmensity": 25329,
    "Ġvolley": 24143,
    "Ġcolouring": 16750,
    "Ġyouthful": 16722,
    "laid": 10108,
    "tallied": 21088,
    "Ġsoothe": 7405,
    "conce": 8510,
    "Ġtight": 8108,
    "Ġexponentially": 1444,
    "Ġdr": 2823,
    "fate": 17538,
    "Ġprogrammed": 11057,
    "Ġappal": 18359,
    "Ġlesson": 7276,
    "agrad": 2746,
    "separ": 9229,
    "thither": 21981,
    "Ġsouls": 6308,
    "ane": 1179,
    "achel": 7031,
    "Ġknock": 9971,
    "wretched": 10740,
    "Ġstopping": 2749,
    "ileries": 18058,
    "deserving": 17240,
    "ect": 381,
    "nose": 17609,
    "Ġsnatching": 10471,
    "destruction": 11254,
    "Ġdecline": 9286,
    "dz": 4738,
    "Ġclasped": 17205,
    "Ġsacrilege": 26228,
    "awn": 3834,
    "Ġhis": 380,
    "whis": 7899,
    "compar": 14354,
    "Ġmilitia": 13315,
    "Ġsplinter": 23746,
    "umul": 1291,
    "Ġthing": 1638,
    "prevented": 20372,
    "Ġimpunity": 14217,
    "Ġadventure": 5981,
    "urons": 3129,
    "Ġpropri": 6738,
    "Ġmarched": 18872,
    "Ġweary": 5635,
    "Ġaccomplice": 24375,
    "Ġnavy": 14914,
    "Ġfail": 4150,
    "Ġceiling": 7997,
    "ivation": 3109,
    "Ġlion": 9674,
    "awing": 18915,
    "ulance": 15764,
    "etition": 7382,
    "Ġbags": 24536,
    "Ġspur": 18303,
    "Ġravines": 25831,
    "dham": 20829,
    "Ġdiabolical": 20341,
    "wondered": 17028,
    "Ġimpending": 22386,
    "oves": 15402,
    "horrible": 14599,
    "erie": 21270,
    "Ġoct": 10157,
    "Ġsanctified": 25883,
    "ercial": 21273,
    "Ġthrown": 4638,
    "Ġshift": 2283,
    "mightily": 24102,
    "ouement": 21447,
    "Ġfirmament": 19469,
    "Ġimpotent": 18447,
    "Ġattics": 22619,
    "Ġwantest": 18788,
    "Ġcrawford": 24893,
    "Ġbumpkins": 25281,
    "Ġscorn": 7903,
    "Ġabominably": 20064,
    "Ġchowders": 18386,
    "highly": 24764,
    "Ġincorpor": 13163,
    "maybe": 23988,
    "Ġporch": 19679,
    "Ġpockets": 8895,
    "commod": 16167,
    "Ġuncommon": 5026,
    "Ġvigilance": 12368,
    "Ġbart": 17857,
    "Ġcanaller": 25467,
    "Ġsoothingly": 25047,
    "Ġimpossible": 3543,
    "interview": 19298,
    "aid": 1921,
    "Ġjer": 6266,
    "sun": 7139,
    "Ġdistorted": 14248,
    "Ġcharmingly": 24220,
    "Ġsewing": 21952,
    "Ġmaled": 21313,
    "Ġpeterson": 9481,
    "output": 4400,
    "sales": 17666,
    "Ġpiqu": 21475,
    "Ġstill": 1157,
    "Ġflutter": 16247,
    "Ġindistinct": 17406,
    "Ġreasoner": 14436,
    "ĠĠĠĠĠĠĠĠĠĠĠĠĠĠĠĠĠĠĠĠĠĠĠĠĠĠĠĠĠĠĠĠĠĠ": 14612,
    "relieved": 13273,
    "learned": 8600,
    "Ġforster": 5230,
    "Ġshin": 18227,
    "Ġboy": 3021,
    "reed": 6373,
    "Ġvirtues": 9934,
    "Ġunthinkingly": 26220,
    "Ġblotted": 20216,
    "caused": 25519,
    "Ġgaze": 6932,
    "positive": 20566,
    "Ġpalsy": 25778,
    "Ġworst": 7444,
    "Ġslack": 8954,
    "adays": 14011,
    "val": 1175,
    "Ġadditional": 7935,
    "trowsers": 17690,
    "assured": 10951,
    "Ġaddresses": 3768,
    "Ġinestim": 15621,
    "Ġvisibly": 22882,
    "Ġfinally": 4665,
    "Ġperiods": 13301,
    "Ġcharcoal": 19007,
    "Ġdisown": 22522,
    "Ġalongside": 6311,
    "Ġfre": 1569,
    "retch": 4369,
    "Ġpaling": 21460,
    "age": 507,
    "dragged": 16607,
    "olets": 21007,
    "Ġdi": 6525,
    "Ġheavily": 6740,
    "Ġcarve": 23090,
    "Ġdigging": 14936,
    "chers": 11316,
    "Ġbol": 6241,
    "produ": 10719,
    "fle": 7128,
    "quarter": 11387,
    "Ġpeddling": 24799,
    "less": 928,
    "Ġunlo": 22008,
    "Ġrespects": 7269,
    "Ġwhe": 438,
    "Ġrepressed": 21666,
    "Ġidler": 16403,
    "Ġproblems": 2847,
    "prob": 7069,
    "arranged": 19318,
    "Ġwilt": 9642,
    "Ġunabated": 15850,
    "Ġchestnut": 19671,
    "elab": 21568,
    "Ġmalignity": 10555,
    "Ġbarbarous": 13474,
    "kindred": 24047,
    "neys": 23581,
    "Ġcase": 1940,
    "Ġare": 527,
    "Ġelsewhere": 7713,
    "Ġtubs": 11369,
    "Ġtis": 15464,
    "conscientious": 19625,
    "Ġimmensely": 13593,
    "Ġacceler": 1610,
    "Ġhovers": 19078,
    "shrouded": 26361,
    "Ġnumer": 3639,
    "Ġwretchedness": 9025,
    "ccas": 15883,
    "Ġoutset": 15953,
    "Ġtall": 4041,
    "Ġnautical": 17384,
    "flies": 19422,
    "Ġpanelled": 19653,
    "devoted": 20015,
    "stat": 21636,
    "Ġrepro": 7275,
    "uff": 2730,
    "Ġmartin": 25436,
    "Ġasph": 21896,
    "important": 7112,
    "Ġtrees": 4203,
    "Ġkitty": 3909,
    "frozen": 25139,
    "Ġ77": 24262,
    "iop": 20918,
    "Ġhides": 16261,
    "Ġindignity": 18832,
    "Ġgum": 21593,
    "unworthy": 18161,
    "Ġundressed": 19512,
    "Ġfobbing": 26440,
    "ashions": 16415,
    "servants": 15036,
    "derick": 22165,
    "Ġseeking": 7036,
    "Ġenigmatical": 20596,
    "preserving": 25304,
    "Ġacquaintances": 17348,
    "Ġseized": 4832,
    "breeding": 16674,
    "ĠĠĠĠĠĠĠĠĠĠĠĠĠĠĠĠĠĠĠĠĠĠĠĠĠĠĠĠĠĠĠĠĠĠĠĠĠĠ": 16525,
    "perpet": 14157,
    "pect": 1253,
    "Ġmechanical": 7937,
    "Ġtrowsers": 9626,
    "Ġclerical": 25568,
    "va": 4742,
    "fuller": 22484,
    "cas": 20793,
    "represented": 20194,
    "attain": 21260,
    "Ġfeatures": 1433,
    "Ġsignific": 3828,
    "Ġshakespeare": 20306,
    "Ġspouts": 7730,
    "Ġdistant": 5387,
    "compassion": 12365,
    "Ġbiases": 2395,
    "mosphere": 10041,
    "Ġsw": 1356,
    "Ġpreyed": 18366,
    "viii": 12017,
    "Ġposterity": 17400,
    "Ġul": 6828,
    "Ġwarehouse": 20415,
    "Ġjewel": 9940,
    "Ġpassage": 3885,
    "ength": 2313,
    "Ġinvesting": 19645,
    "Ġalarming": 14777,
    "ginger": 13161,
    "Ġdependencies": 2314,
    "borrowed": 20791,
    "Ġjunk": 15946,
    "Ġdarkly": 19114,
    "Ġliterally": 15114,
    "irksome": 18172,
    "Ġdinnertime": 16718,
    "vast": 10735,
    "Ġferguson": 17468,
    "Ġoutsk": 15954,
    "Ġexamine": 7735,
    "Ġcompressed": 21843,
    "Ġprinces": 23220,
    "mean": 6438,
    "Ġtearing": 14392,
    "roses": 17956,
    "Ġundiscovered": 18252,
    "rece": 21233,
    "Ġcalamity": 17347,
    "ulatory": 15765,
    "Ġsmoking": 6429,
    "etent": 10198,
    "inspect": 11557,
    "Ġamput": 16031,
    "care": 4928,
    "gam": 10094,
    "Ġdeficiency": 14401,
    "Ġflint": 23010,
    "Ġbuying": 23993,
    "Ġmonarch": 14414,
    "Ġcontinued": 2923,
    "Ġoverall": 4357,
    "Ġcareer": 11117,
    "Ġsuper": 2154,
    "Ġswamp": 14434,
    "Ġopposition": 16520,
    "Ġsustained": 13480,
    "maul": 11889,
    "Ġrod": 9278,
    "ders": 8075,
    "Ġharsh": 9519,
    "Ġpoured": 8799,
    "Ġenquired": 21938,
    "tranquil": 25870,
    "itation": 1781,
    "asleep": 21542,
    "ä": 165,
    "Ġloathing": 15067,
    "Ġrecounted": 22738,
    "Ġlines": 4532,
    "Ġincalculable": 17459,
    "ighb": 10422,
    "Ġautomation": 13265,
    "Ġtricks": 13482,
    "Ġagainst": 1700,
    "Ġprematurely": 24003,
    "merchant": 10466,
    "Ġpacked": 9978,
    "prospect": 23394,
    "Ġdeformed": 14047,
    "Ġdissol": 18551,
    "Ġdictating": 20151,
    "club": 26379,
    "Ġpunct": 8660,
    "dered": 2471,
    "Ġcourage": 4632,
    "rudently": 16710,
    "examination": 25478,
    "done": 6500,
    "Ġstrangled": 24132,
    "Ġcomm": 839,
    "Ġpierce": 17035,
    "ounced": 4954,
    "Ġmeets": 7396,
    "Ġpince": 21469,
    "Ġamaze": 22481,
    "ojo": 7349,
    "vable": 10131,
    "gether": 1595,
    "right": 2767,
    "Ġiceberg": 14714,
    "playful": 24356,
    "Ġecho": 12662,
    "Ġfortifications": 23619,
    "Ġunconquerable": 22059,
    ",âĢĶâĢĺ": 23801,
    "Ġregardless": 19323,
    "ineering": 21979,
    "Ġcomputation": 966,
    "Ġconsiderations": 9408,
    "animals": 24738,
    "Ġcondem": 6338,
    "Ġnorthwards": 19545,
    "Ġbasis": 16960,
    "!âĢĶâĢĻ": 23564,
    "Ġplays": 12034,
    "Ġtune": 17724,
    "ulnerable": 18150,
    "tstone": 21083,
    "Ġpure": 6137,
    "Ġdrunken": 12047,
    "Ġexplaining": 15958,
    "Ġ179": 19753,
    "Ġbreed": 19071,
    "Ġroute": 11380,
    "magnifying": 25392,
    "ivered": 7005,
    "ina": 21178,
    "Ġthousand": 2779,
    "Ġbreaths": 14855,
    "urns": 10212,
    "Ġcares": 9365,
    "Ġcommission": 6712,
    "Ġremained": 3140,
    "Ġvillanous": 24052,
    "necessary": 5882,
    "Ġenemies": 9037,
    "ª": 108,
    "Ġsaves": 18324,
    "Ġmagnetic": 17239,
    "Ġheadache": 22895,
    "Ġbaff": 10798,
    "Ġanguish": 5582,
    "tired": 21071,
    "Ġcoll": 8221,
    "Ġaloud": 6252,
    "Ġaforethought": 25428,
    "striving": 24669,
    "Ġwaist": 6892,
    "Ġvictor": 5125,
    "etting": 21578,
    "oquent": 12496,
    "Ġrevers": 21662,
    "Ġleviathans": 8282,
    "wander": 17708,
    "Ġraging": 14303,
    "Ġcongregated": 20095,
    "Ġcontrad": 9753,
    "collected": 13211,
    "Ġappropri": 2228,
    "illes": 12690,
    "Ġwithdrawing": 11339,
    "limping": 26392,
    "Ġcongratulations": 10579,
    "darkness": 9510,
    "Ġunchanged": 22027,
    "Ġunwinding": 22056,
    "Ġkey": 2103,
    "Ġneskye": 21529,
    "omination": 21660,
    "Ġattend": 5036,
    "Ġball": 3624,
    "odecimoes": 25318,
    "Ġpicking": 11258,
    "awful": 23112,
    "Ġexisting": 12714,
    "governed": 25405,
    "odes": 18118,
    ";--": 8069,
    "oon": 6364,
    "Ġsanct": 15063,
    "ĠĠĠ": 2116,
    "operation": 13499,
    "Ġcorps": 13029,
    "Ġshades": 9461,
    "cares": 24308,
    "ordered": 8788,
    "Ġlasting": 18790,
    "duing": 22409,
    "mises": 20977,
    "Ġchosen": 7201,
    "bred": 11468,
    "Ġhighlands": 22773,
    "Ġascended": 8665,
    "Ġyarn": 10867,
    "Ġraiment": 22646,
    "Ġfads": 21415,
    "vous": 2250,
    "science": 11907,
    "Ġmunro": 25630,
    "Ġterminating": 23508,
    "Ġvag": 9706,
    "Ġconsec": 21803,
    "block": 11469,
    "Ġtouches": 20569,
    "go": 2064,
    "Ġbeside": 5192,
    "Ġconvalescence": 23745,
    "ounce": 6557,
    "Ġbash": 12582,
    "Ġtables": 9876,
    "Ġbud": 10167,
    "Ġstreamed": 14545,
    "Ġmortified": 14693,
    "Ġannoyance": 20661,
    "Ġgret": 21599,
    "death": 6261,
    "fell": 6953,
    "asmuch": 10193,
    "diff": 9112,
    "Ġverge": 23885,
    "Ġline": 1849,
    "Ġsubl": 7235,
    "Ġpatched": 16378,
    "Ġcompact": 2261,
    "Ġgrotesque": 26329,
    "alled": 5911,
    "unken": 10235,
    "Ġencoder": 3636,
    "pard": 9617,
    "Ġfrigid": 17351,
    "Ġquoin": 22416,
    "anthrop": 17380,
    "afternoon": 13185,
    "ource": 5243,
    "Ġimmediate": 6090,
    "Ġhusbands": 16641,
    "yield": 13807,
    "Ü": 157,
    "Ġspokes": 18313,
    "Ġrepugnant": 26589,
    "wear": 22681,
    "reporting": 24493,
    "Ġdividing": 12108,
    "posted": 24636,
    "Ġii": 7385,
    "pper": 3210,
    "Ġexpanding": 25238,
    "pig": 8752,
    "exc": 5169,
    "Ġ111": 24435,
    "Ġintu": 12759,
    "invol": 12526,
    "Ġairs": 14511,
    "Ġmainten": 16114,
    "Ġforked": 11662,
    "lue": 8508,
    "uning": 1313,
    "Ġhesitation": 13439,
    "stoke": 18019,
    "Ġbingley": 1678,
    "Ġmotioned": 19591,
    "wester": 21137,
    "Ġcorpor": 23037,
    "Ġprofund": 13151,
    "Ġlany": 21552,
    "Ġheaviest": 23323,
    "m": 81,
    "Ġxx": 5492,
    "Ġsink": 4339,
    "Ġharder": 14447,
    "Ġtraced": 10382,
    "beautiful": 10647,
    "Ġviewed": 10462,
    "cest": 12441,
    "Ġpave": 8798,
    "adam": 15727,
    "ixed": 4850,
    "seeing": 7078,
    "fairly": 17218,
    "Ġdeacon": 18143,
    "Ġmuhammad": 26169,
    "mud": 20970,
    "Ġimport": 1064,
    "Ġtaught": 6803,
    "redible": 15802,
    "Ġdealer": 23974,
    "Ġrichness": 19310,
    "oked": 4307,
    "Ġstirs": 14915,
    "Ġply": 21451,
    "Ġubiqu": 18046,
    "warmly": 25026,
    "Ġembeddings": 2192,
    "Ġprotecting": 24686,
    "revolver": 25627,
    "lesson": 22771,
    "mountains": 15178,
    "Ļ": 252,
    "astrous": 15884,
    "aimed": 3955,
    "Ġbeasts": 10616,
    "Ġposition": 1954,
    "Ğ": 223,
    "iqu": 7803,
    "oga": 22708,
    "Ġpredictions": 1455,
    "Ġconvincing": 19307,
    "uneasy": 23684,
    "Ġsuffer": 4721,
    "voy": 7143,
    "fr": 4803,
    "Ġpreprocess": 22231,
    "Ġzeal": 9096,
    "Ġantagonist": 26328,
    "Ġsignificant": 8633,
    "decan": 22140,
    "Ġanecdote": 26354,
    "Ġstarvation": 19790,
    "Ġrings": 11696,
    "lamps": 25260,
    "stun": 18015,
    "Ġoce": 3028,
    "Ġcontact": 9279,
    "rael": 21627,
    "sho": 6425,
    "Ġrealities": 18982,
    "Ġenv": 2859,
    "========": 2312,
    "specimen": 26604,
    "derer": 4598,
    "Ġprotection": 9460,
    "impression": 15708,
    "protection": 19919,
    "tube": 20409,
    "Ġtoil": 6531,
    "Ġinstituted": 18697,
    "capting": 24036,
    "Ġexperience": 1355,
    "ull": 1432,
    "Ġtrusty": 24103,
    "Ġundue": 25993,
    "Ġtambourine": 9563,
    "Ġbound": 3518,
    "Ġbul": 3294,
    "eration": 10771,
    "impregn": 21712,
    "Ġmaze": 23828,
    "Ġmultiplied": 23688,
    "fain": 13713,
    "theories": 18078,
    "landed": 18955,
    "Ġsharkish": 24502,
    "Ġrash": 10897,
    "Ġnatures": 16504,
    "Ġunwaning": 25170,
    "pract": 10118,
    "Ġsuperstition": 15055,
    "cutting": 23783,
    "Ġlime": 13946,
    "Ġdrugg": 17118,
    "Ġ68": 24369,
    "stooped": 23819,
    "stock": 13219,
    "avier": 2829,
    "Ġpane": 21461,
    "flo": 6114,
    "Ġall": 421,
    "opening": 10311,
    "umphed": 23514,
    "Ġmisty": 16538,
    "Ġcabman": 14604,
    "Ġgowns": 25359,
    "arp": 2028,
    "arranted": 19319,
    "Ġhabitual": 24790,
    "Ġloath": 7891,
    "discover": 10538,
    "Ġfle": 3089,
    "Ġponder": 6819,
    "Ġtorrents": 20054,
    "beside": 19876,
    "gment": 4389,
    "pump": 21016,
    "heard": 5009,
    "yramid": 8368,
    "drive": 8682,
    "Ġshuddered": 11299,
    "Ġchap": 5934,
    "iled": 1765,
    "cried": 8724,
    "Ġglass": 4367,
    "Ġgrass": 5177,
    "Ġspont": 22129,
    "Ġprocessions": 18433,
    "Ġeach": 891,
    "truck": 15440,
    "vanished": 15061,
    "handkerchief": 14616,
    "pleased": 8852,
    "iliating": 12691,
    "hint": 12472,
    "returns": 23133,
    "Ġcrow": 3805,
    "apparently": 15202,
    "lantic": 6363,
    "Ġpumps": 8427,
    "relig": 15511,
    "Ġsplitting": 4381,
    "Ġmiles": 3804,
    "Ġsprinkled": 19495,
    "Ġlbs": 11613,
    "ancy": 4392,
    "poky": 17643,
    "Ġfrogs": 23920,
    "Ġrad": 4962,
    "Ġfalse": 4342,
    "lin": 9602,
    "Ġpublicly": 13320,
    "inclination": 20056,
    "eded": 9672,
    "adventures": 20255,
    "farintosh": 24552,
    "since": 5895,
    "Ġproduce": 4365,
    "Ġmusical": 23891,
    "Ġeliza": 6437,
    "onsible": 22560,
    "Ġcig": 6520,
    "vis": 4575,
    "Ġappo": 8498,
    "Ġminimax": 5857,
    "Ġdecently": 22454,
    "Ġplow": 21457,
    "Ġintervene": 25480,
    "Ġpromised": 5181,
    "Ġpanegyric": 26448,
    "Ġworker": 23045,
    "âĢĶâĢľ_": 13202,
    "Ġostrich": 26429,
    "latitude": 25259,
    "Ġbow": 3057,
    "Ġinward": 11605,
    "eel": 11482,
    "ally": 529,
    "Ġstyle": 6946,
    "Ġeel": 18001,
    "discredit": 24249,
    "Ġimpatiently": 8338,
    "iles": 2860,
    "Ġretiring": 16278,
    "eyed": 11485,
    "Ġprofusion": 23567,
    "Ġoutrages": 18415,
    "rapt": 13971,
    "ropes": 7904,
    "Ġcrests": 25685,
    "savage": 15073,
    "ust": 492,
    "Ġanywhere": 8516,
    "Ġsurv": 6082,
    "Ġsoph": 1584,
    "Ġgleaming": 24995,
    "han": 12469,
    "Ġfatt": 15576,
    "Ġmonday": 6127,
    "Ġdidst": 11846,
    "Ġsnodhead": 19301,
    "igh": 2030,
    "ê": 171,
    "..": 5783,
    "Ġsooty": 25815,
    "ners": 3271,
    "Ġmans": 15534,
    "ass": 536,
    "Ġcetology": 10007,
    "Ġecstasy": 11628,
    "ired": 1445,
    "Ġscrawled": 24579,
    "Ġsour": 21215,
    "Ġdamned": 13129,
    "isons": 17849,
    "Ġinvoking": 19145,
    "justice": 7958,
    "Ġinte": 2066,
    "Ġconsistent": 14527,
    "Ġobliged": 4285,
    "Ġinferior": 8366,
    "Ġstare": 10863,
    "scho": 8759,
    "Ġenvironments": 24045,
    "Ġsources": 10146,
    "Ġfolio": 11916,
    "Ġunconsc": 6552,
    "Ġpage": 6978,
    "Ġstrategies": 1840,
    "hunted": 16831,
    "Ġdisk": 22520,
    "sails": 7498,
    "rises": 17654,
    "Ġquietly": 4565,
    "Ġgazed": 6478,
    "Ġtendinous": 16930,
    "missed": 11208,
    "miserably": 24209,
    "Ġdispleasure": 16050,
    "Ġsubstantial": 14808,
    "comb": 11033,
    "Ġhospitable": 17059,
    "ful": 669,
    "iquet": 17574,
    "elzebub": 26463,
    "evening": 7089,
    "Ġrelish": 14382,
    "Ġsickened": 16774,
    "Ġunknown": 4452,
    "Ġnook": 15926,
    "Ġgames": 11624,
    "unpardonable": 21888,
    "Ġgarn": 13961,
    "Ġvic": 5236,
    "shoulder": 16582,
    "000": 2561,
    "painful": 13500,
    "Ġfield": 1239,
    "detective": 24382,
    "Ġrefusing": 11028,
    "oof": 15404,
    "ni": 1612,
    "Ġaccompl": 5167,
    "Ġreject": 7386,
    "Ġbored": 16103,
    "Ġmoustache": 20482,
    "Ġscenery": 11455,
    "atively": 2696,
    "aze": 10073,
    "clothes": 9056,
    "acon": 10680,
    "Ġsixty": 7723,
    "complaisance": 24811,
    "atiable": 17773,
    "excited": 13378,
    "Ġbackstays": 22661,
    "Ġnorthumbria": 24170,
    "eminence": 20097,
    "Ġharpooned": 13258,
    "N": 50,
    "Ġnotorious": 18223,
    "Ġwid": 4631,
    "Ġbless": 4341,
    "Ġstructural": 2796,
    "roded": 17955,
    "ifted": 4493,
    "insist": 23062,
    "Ġkeels": 11060,
    "Ġemploy": 3616,
    "Ġrepresenting": 4063,
    "Ġencounter": 6627,
    "kshire": 13744,
    "innacle": 7520,
    "Ġ51": 24319,
    "cracy": 24690,
    "accomp": 10454,
    "ental": 7168,
    "Ġhoisting": 9860,
    "Ġexclude": 19040,
    "ougher": 18280,
    "Ġproduces": 2095,
    "Ġwarned": 16879,
    "scrape": 25698,
    "Ġbanks": 6814,
    "Ġdash": 8122,
    "Ġlearnable": 4000,
    "Ġguardians": 14941,
    "turkish": 24532,
    "eter": 11619,
    "very": 499,
    "Ġpivot": 13921,
    "vity": 7816,
    "Ġenjoined": 18191,
    "gaffman": 26389,
    "Ġcele": 9898,
    "companion": 9556,
    "Ġcluster": 13569,
    "Ġdiscreet": 16481,
    "pipe": 8696,
    "Ġbottomless": 12103,
    "Ġpeeped": 10010,
    "ten": 1554,
    "Ġwillingness": 24910,
    "ipelag": 12840,
    "Ġtranspired": 16783,
    "Ġfails": 13311,
    "Ġcollect": 7237,
    "Ġepicurean": 20554,
    "Ġsigh": 10335,
    "Ġautom": 3694,
    "intention": 10366,
    "cord": 8723,
    "Ġproved": 4883,
    "Ġlaboratory": 13610,
    "whenever": 11878,
    "Ġhel": 3785,
    "Ġahead": 6662,
    "Ġped": 6817,
    "iz": 364,
    "Ġtoilings": 24742,
    "Ġlacey": 10196,
    "Ġpostmark": 16724,
    "Ġshorter": 4497,
    "obscure": 23095,
    "Ġlikes": 9406,
    "Ġsight": 2112,
    "Ġjelly": 22288,
    "ader": 14010,
    "Ġrealistic": 5860,
    "Ġimmaculate": 19484,
    "sockets": 22728,
    "Ġcriminal": 7538,
    "welt": 12517,
    "uncomfortable": 18160,
    "compasses": 19456,
    "cruet": 17025,
    "Ġcopies": 24935,
    "amaz": 21848,
    "Ġexperienced": 6580,
    "Ġoutline": 15952,
    "Ġancient": 5443,
    "Ġsundry": 20072,
    "Ġmoodily": 19833,
    "lost": 8886,
    "Ġexert": 5722,
    "mush": 20976,
    "article": 22381,
    "Ġherbage": 25996,
    "andromeda": 21866,
    "skylight": 25623,
    "so": 890,
    "forbidding": 25837,
    "allowed": 5728,
    "Ġrested": 9377,
    "concern": 5875,
    "Ġsurf": 19131,
    "Ġinitialized": 3951,
    "Ġsymp": 4501,
    "Ġrosings": 4605,
    "greg": 6647,
    "Ġobst": 6284,
    "Ġaffectionately": 13166,
    "Ġwhilst": 9217,
    "Ġfeasible": 22209,
    "Ġfanc": 6743,
    "Ġgloves": 8574,
    "Ġsuckling": 25997,
    "Ġnoblest": 13239,
    "Ġfurs": 18739,
    "Ġenormousness": 24511,
    "Ġdetailed": 12820,
    "Ġsolitude": 6876,
    "conceivable": 17129,
    "Ġelastic": 4360,
    "Ġ108": 19683,
    "Ġswinging": 7449,
    "Ġtrag": 13035,
    "wig": 17703,
    "Ġwealthy": 18178,
    "Ġdepressions": 25798,
    "Ġdemonstrate": 24996,
    "avenue": 25057,
    "Ġwra": 5906,
    "loat": 8885,
    "Ġtests": 8956,
    "Ġcoiled": 11817,
    "Ġcouples": 16851,
    "Ġfonder": 17880,
    "Ġrecover": 9789,
    "Ġsulky": 13513,
    "Ġday": 956,
    "ding": 1230,
    "Ġledgers": 23935,
    "Ġeligible": 10669,
    "Ġtick": 8109,
    "ispensable": 9094,
    "mortals": 25409,
    "giana": 7801,
    "Ġignorant": 5343,
    "¤": 102,
    "innocence": 15181,
    "ck": 436,
    "vels": 5432,
    "istical": 8489,
    "restored": 18979,
    "Ġpretensions": 16556,
    "bling": 10077,
    "Ġpie": 13913,
    "Ġgoethe": 22420,
    "Ġripe": 13232,
    "Ġhear": 1965,
    "ships": 5486,
    "Ġrustic": 14963,
    "ruct": 677,
    "barbs": 20236,
    "Ġalgorithms": 856,
    "Ġpollard": 20384,
    "ering": 1267,
    "Ġadduced": 26523,
    "Ġspeeches": 22656,
    "Ġlullaby": 20586,
    "Ġcamp": 9163,
    "Ġparish": 8853,
    "Ġacceded": 22377,
    "Ġat": 395,
    "Ġvalleys": 14917,
    "Ġinducements": 24967,
    "swiss": 24254,
    "Ġchatting": 24747,
    "Ġmeek": 21807,
    "Ġrestricted": 19025,
    "anybody": 12079,
    "Ġcalculates": 13261,
    "Ġremembered": 5276,
    "circled": 24186,
    "Ġhundreds": 4327,
    "executed": 25739,
    "Ġchance": 3317,
    "Ġcurtain": 14410,
    "historical": 20464,
    "Ġsodden": 25535,
    "vellers": 16672,
    "Ġobstinacy": 17419,
    "doesn": 19819,
    "Ġtreasures": 17046,
    "Ġdefilements": 26284,
    "fates": 20857,
    "este": 15917,
    "Ġweak": 5098,
    "Ġuniversal": 2234,
    "atum": 21258,
    "Ġopened": 3512,
    "batt": 20777,
    "Ġscheming": 23269,
    "mechan": 11854,
    "Ġgrandfather": 19420,
    "usages": 22278,
    "benevolent": 15231,
    "Ġlurking": 11288,
    "Ġproceed": 3242,
    "toller": 20671,
    "verity": 13999,
    "Ġwhosoever": 21717,
    "dropout": 3195,
    "Ġquite": 1741,
    "motion": 17605,
    "Ġenforced": 21936,
    "Ġbottled": 23794,
    "Ġdism": 9765,
    "mbling": 3345,
    "Ġfinding": 3264,
    "solut": 3364,
    "Ġtrained": 8502,
    "Ġlaughs": 24115,
    "somehow": 12008,
    "descried": 11926,
    "rium": 3131,
    "ene": 2168,
    "Ġcontemptuous": 24676,
    "laws": 19806,
    "Ġrounds": 18884,
    "Ġlurked": 11290,
    "Ġouter": 6859,
    "Ġoil": 3373,
    "Ġflooring": 23623,
    "Ġflood": 7716,
    "Ġfooting": 14481,
    "Ġthoughtless": 16191,
    "ach": 435,
    "Ġtherefore": 2239,
    "then": 2053,
    "Õ": 150,
    "perch": 18338,
    "Ġsituated": 9445,
    "Ġsplashing": 16548,
    "dually": 3283,
    "Ġfloundering": 16250,
    "Ġhypotheses": 4385,
    "Ġcoral": 11919,
    "Ġinno": 1403,
    "burn": 8371,
    "Ġorphan": 12380,
    "that": 850,
    "Ġtint": 13815,
    "Ġour": 1009,
    "Ġsurmis": 23462,
    "incidentally": 20538,
    "verdict": 21727,
    "Ġcalls": 6744,
    "accomplishment": 20222,
    "also": 7851,
    "sir": 5001,
    "Ġlearnt": 7613,
    "Ġseventy": 7879,
    "Ġtablet": 19203,
    "Ġcrest": 12937,
    "arising": 17895,
    "Ġcherish": 10588,
    "ause": 1314,
    "magnificent": 20273,
    "Ġpredict": 667,
    "bright": 8988,
    "grasping": 20638,
    "opinion": 10983,
    "Ġwhine": 21713,
    "Ġrises": 9711,
    "Ġcurb": 16234,
    "Ġambiguous": 20163,
    "ation": 320,
    "impotence": 23760,
    "Ġpursuers": 13223,
    "Ġcirclings": 26430,
    "lasting": 8011,
    "Ġwatches": 11081,
    "reel": 21232,
    "Ġbetake": 22903,
    "web": 18664,
    "Ġillustrations": 17107,
    "Ġdebility": 24271,
    "sleeping": 13452,
    "Ġtasted": 12525,
    "Ġhue": 8429,
    "Ġincl": 4270,
    "net": 1196,
    "Ġheel": 9682,
    "Ġincluded": 8929,
    "Ġdozen": 8186,
    "oro": 21393,
    "agings": 18165,
    "opposing": 24825,
    "lines": 6959,
    "tur": 5688,
    "ġ": 226,
    "ler": 3490,
    "said": 4106,
    "Ġspell": 8854,
    "hic": 3248,
    "ĠĠĠĠĠĠĠĠĠĠĠĠĠĠĠĠĠĠĠĠĠĠĠĠĠĠĠĠĠĠĠĠĠĠĠĠĠ": 14613,
    "inf": 6232,
    "Ġperson": 2366,
    "Ġpop": 5151,
    "Ġindulged": 13415,
    "whilst": 18371,
    "buncle": 13690,
    "Ġsociet": 9447,
    "racing": 21629,
    "fem": 17536,
    "Ġchry": 22244,
    "Ġtheoretically": 3567,
    "Ġprelimin": 8859,
    "Ġkindest": 23291,
    "Ġwitty": 21291,
    "hot": 8084,
    "listen": 13512,
    "Ġvow": 10245,
    "orers": 14101,
    "Ġinexper": 16979,
    "Ġattacked": 10566,
    "circumst": 5348,
    "allen": 22194,
    "Ġaffection": 2642,
    "_âĢĶ": 11466,
    "knows": 19171,
    "asable": 21539,
    "Ġbook": 2702,
    "Ġburied": 7719,
    "Ġexplanation": 6692,
    "Ġresign": 18564,
    "bs": 3750,
    "Ġriot": 14687,
    "Ġlawyers": 25248,
    "Ġdiscontented": 16057,
    "Ġscener": 10949,
    "Ġplun": 6281,
    "tom": 15434,
    "Ġpluck": 15611,
    "Ġavocation": 23950,
    "Ġperpendicularly": 11373,
    "Ġabsor": 8504,
    "-------": 20387,
    "Ġminded": 23227,
    "Ġproportions": 16466,
    "four": 6113,
    "Ġconvolutional": 2162,
    "uttermost": 24940,
    "Ġglacier": 11432,
    "pick": 17633,
    "Ġfeigned": 22208,
    "new": 1465,
    "Ġvalued": 12179,
    "damp": 15341,
    "whel": 7666,
    "entered": 8813,
    "Ġsaith": 14154,
    "english": 2772,
    "Ġhe": 318,
    "Þ": 159,
    "Ġaccompanying": 11303,
    "acetti": 13394,
    "sle": 9137,
    "Ġimaginative": 19246,
    "Ġscreening": 25300,
    "Ġbreezes": 14867,
    "il": 329,
    "Ġirons": 7697,
    "Ġoperated": 14546,
    "Ġcanvassed": 19933,
    "foam": 24417,
    "lled": 10106,
    "Ġaided": 17744,
    "Ġinstructed": 19284,
    "abst": 21786,
    "Ġprincipally": 11308,
    "Ġwails": 21295,
    "yth": 982,
    "Ġdolphins": 20394,
    "france": 24281,
    "patient": 25342,
    "mansion": 20982,
    "icy": 6140,
    "thrusting": 20258,
    "frock": 20119,
    "Ġchapters": 10472,
    "Ġadapt": 1008,
    "women": 15455,
    "Ġrepeatedly": 9019,
    "join": 12110,
    "offer": 19058,
    "Ġpoultry": 17439,
    "ldog": 21915,
    "Ġtorn": 6000,
    "atlantic": 15522,
    "Ġdecl": 3590,
    "whale": 2141,
    "Ġepisode": 26346,
    "anite": 17837,
    "Ġrainy": 24340,
    "dinner": 11405,
    "calculation": 25688,
    "Ġprobable": 5569,
    "uated": 10130,
    "garity": 17553,
    "Ġmaty": 22908,
    "Ġconverts": 2803,
    "Ġprints": 16328,
    "Ġreadily": 5253,
    "cele": 21623,
    "Ġishmael": 7395,
    "skelter": 24489,
    "Ġsafie": 6617,
    "Ġperf": 12846,
    "Ġoutweigh": 22320,
    "Ġsketches": 26270,
    "Ġunconditional": 15842,
    "mysterious": 26051,
    "Ġtimidity": 24687,
    "------": 12130,
    "Ġunche": 23427,
    "Ġswears": 16462,
    "Ġirresolute": 24916,
    "Ġloitering": 22114,
    "Ġepidemic": 20694,
    "Ġword": 1052,
    "Ġflowed": 10370,
    "Ġactivity": 7921,
    "Ġhook": 6453,
    "Ġhereford": 22874,
    "Ġtheatre": 21277,
    "Ġtruth": 3319,
    "Ġcut": 2644,
    "Ġsog": 22082,
    "Ġdetective": 14408,
    "Ġbutler": 18270,
    "ertion": 12036,
    "Ġscimet": 22301,
    "Ġmodern": 3212,
    "pent": 3492,
    "Ġamid": 4959,
    "Ġdress": 4024,
    "illation": 14140,
    "Ġpiled": 8425,
    "Ġgulp": 20027,
    "Ġaffairs": 6877,
    "Ġmix": 7577,
    "Ġeyelashes": 26106,
    "Ġunst": 18238,
    "Ġlady": 1587,
    "Ġvit": 10244,
    "bable": 8718,
    "discovered": 8325,
    "Ġverdict": 13473,
    "Ġfootfall": 14660,
    "Ġcards": 7581,
    "ullied": 23102,
    "Ġtempor": 2364,
    "leaning": 10789,
    "Ġsays": 3562,
    "increased": 20269,
    "Ġignoble": 19397,
    "Ġaccursed": 9456,
    "Ġloudly": 7312,
    "thought": 3848,
    "Ġomin": 11575,
    "Ġhunks": 18935,
    "Ġuneasiness": 9482,
    "Ġconcealment": 16913,
    "Ġfingers": 5672,
    "wered": 2690,
    "Ġcorrupt": 11920,
    "Ġchivalrous": 20513,
    "rese": 15507,
    "Ġspiritual": 9928,
    "ption": 7398,
    "allow": 5104,
    "Ġheard": 1399,
    "commendation": 26348,
    "Ġfifty": 4622,
    "Ġsuited": 12781,
    "Ġstrewed": 23420,
    "Ġcarn": 17821,
    "inisc": 15487,
    "Ġmorality": 22976,
    "gled": 10698,
    "flag": 14709,
    "Ġsou": 1884,
    "gris": 8260,
    "conceive": 16027,
    "Ġvarieties": 14308,
    "gabriel": 15358,
    "enjoyment": 17256,
    "Ġvolume": 6769,
    "Ġspile": 22125,
    "horrors": 20540,
    "Ġapple": 14167,
    "Ġbennett": 16322,
    "Ġhab": 4218,
    "Ġcomponents": 8892,
    "anth": 13885,
    "gradually": 12911,
    "Ġbarbed": 14833,
    "occup": 7753,
    "Ġpondicherry": 20489,
    "glings": 23849,
    "Ġdistress": 5844,
    "try": 7813,
    "Ġresurrection": 12890,
    "Ġcurling": 9339,
    "Ġcoarsely": 25828,
    "Ġasking": 5651,
    "affa": 23775,
    "Ġdeposition": 18613,
    "Ġindelicacy": 25695,
    "Ġahoy": 12181,
    "Ġproceedings": 9905,
    "Ġtro": 7356,
    "asher": 15643,
    "dep": 6786,
    "Ġstamping": 20029,
    "Ġblessings": 24175,
    "lizzy": 6651,
    "Ġbeen": 626,
    "postp": 24635,
    "ladder": 19783,
    "iable": 3334,
    "Ġbuckskin": 19950,
    "Ġdarted": 4757,
    "rary": 4573,
    "osoever": 17341,
    "Ġinnoc": 3795,
    "Ġinterrupt": 4358,
    "Ġantichron": 24180,
    "Ġoscillations": 2899,
    "reader": 23844,
    "Ġclams": 19987,
    "accurately": 25861,
    "Ġwidespread": 20674,
    "Ġknave": 11271,
    "Ġwhites": 21715,
    "inno": 10755,
    "ille": 9218,
    "reduced": 15803,
    "Ġforgetfulness": 14605,
    "Ġcumulative": 4211,
    "Ú": 155,
    "cannibals": 25584,
    "inform": 10142,
    "Ġeduc": 4784,
    "Ġpromotion": 23192,
    "Ġsan": 7825,
    "Ġconjunction": 25100,
    "Ġlend": 17962,
    "Ġrides": 21969,
    "oration": 2211,
    "Ġalms": 21778,
    "Ġtyros": 26101,
    "cooks": 25067,
    "Ġending": 18189,
    "Ġempires": 19073,
    "Ġoverbearing": 12839,
    "Ġdusting": 24597,
    "likewise": 13102,
    "Ġdisgusting": 19893,
    "Ġbeg": 1285,
    "Ġintellig": 523,
    "spe": 3561,
    "kinson": 10024,
    "Ġwoke": 21288,
    "Ġrestoration": 19024,
    "Ġfiftieth": 24703,
    "Ġcity": 4528,
    "Ġpreposterous": 13667,
    "ually": 2768,
    "uger": 21102,
    "Ġalacrity": 15734,
    "Ġshuddering": 9050,
    "enced": 4295,
    "gives": 15355,
    "dragging": 16608,
    "determined": 9078,
    "Ġindec": 13926,
    "Ġworthless": 19564,
    "Ġbuoyed": 20039,
    "lights": 13203,
    "Ġopen": 1549,
    "Ġmeetings": 16531,
    "puted": 8844,
    "neath": 12862,
    "Ġvehem": 22887,
    "Ġflaming": 8563,
    "Ġconsequently": 8060,
    "Ġpleasantly": 14517,
    "Ġrendered": 5773,
    "Ġsho": 2244,
    "Ġjen": 9265,
    "Ġfootsteps": 16570,
    "Ġmaketh": 15185,
    "stra": 4048,
    "Ġmetrics": 19075,
    "etimes": 1987,
    "Ġtinker": 15129,
    "itu": 1226,
    "Ġinvolves": 1107,
    "Ġcoming": 2620,
    "Ġcapsized": 20088,
    "Ġallowance": 14387,
    "tallow": 21084,
    "iet": 1774,
    "eline": 2425,
    "Ġelephants": 9862,
    "infallibly": 26416,
    "Ġexertion": 8054,
    "windows": 19533,
    "Ġgodfrey": 15291,
    "Ġlurid": 19680,
    "Ġpike": 12619,
    "Ġcompar": 4770,
    "Ġcling": 11768,
    "Ġdumb": 7844,
    "uendoes": 26406,
    "Ġplum": 11819,
    "Ġpossess": 3203,
    "Ġruth": 14091,
    "ribution": 14304,
    "boilers": 26297,
    "wicked": 24448,
    "lashed": 20953,
    "Ġdiagon": 24740,
    "Ġsir": 1568,
    "Ġhospitality": 13511,
    "Ġdischar": 11805,
    "Ġsounded": 8590,
    "Ġtalks": 23368,
    "ellent": 3761,
    "Ġfacil": 16961,
    "Ġunceasingly": 20357,
    "grow": 10097,
    "Ġdiscount": 22779,
    "destroy": 19509,
    "week": 12927,
    "Ġlapl": 19776,
    "Ġmembrane": 20502,
    "skill": 24486,
    "Ġman": 544,
    "Ġadvertise": 25388,
    "stick": 15681,
    "ama": 11676,
    "Ġsurrounded": 5879,
    "Ġtwink": 8216,
    "brother": 7091,
    "Ġburned": 8630,
    "Ġsatisfactory": 11191,
    "Ġrobins": 16226,
    "Ġrans": 21964,
    "Ġdisgra": 18549,
    "Ġunworthy": 11712,
    "Ġimpat": 4455,
    "Ġringed": 16749,
    "puff": 21021,
    "Ġsource": 6805,
    "Ġpausing": 8652,
    "Ġfervour": 19737,
    "Ġbott": 3147,
    "Ġsanguinary": 25929,
    "Ġshrouded": 14967,
    "Ġimpetuously": 20370,
    "cely": 3575,
    "Ġxlvi": 25590,
    "Ġgodlike": 23356,
    "Ġparchment": 13650,
    "Ġsynd": 22200,
    "Ġpushing": 10818,
    "hauteur": 26390,
    "'s": 2468,
    "suited": 22638,
    "Ġmonotonically": 3833,
    "idea": 9299,
    "moved": 9782,
    "Ġnever": 1018,
    "mount": 9128,
    "ave": 980,
    "Ġtil": 12520,
    "Ġglobular": 19010,
    "Ġcoco": 11000,
    "Ġdesolation": 12265,
    "Ġnantucketers": 9891,
    "avenza": 17103,
    "Ġrendering": 16656,
    "Ġforcing": 3225,
    "Ġfur": 992,
    "Ġgull": 15667,
    "Ġsilver": 7464,
    "Ġlandless": 23377,
    "antled": 18287,
    "Ġwalked": 3139,
    "remembered": 17349,
    "Ġprodigiously": 14930,
    "Ġstoner": 7178,
    "Ġcumberland": 21353,
    "present": 1136,
    "Ġrail": 7224,
    "Ġstrikes": 13179,
    "Ġclap": 10955,
    "Ġhaggerston": 26451,
    "ences": 1265,
    "retreat": 23132,
    "Ġsplashed": 23747,
    "Ġarrest": 7409,
    "Ġobed": 8535,
    "ason": 1263,
    "K": 47,
    "Ġcoals": 16074,
    "iltrated": 19305,
    "Ġglided": 7447,
    "asion": 5714,
    "idation": 5022,
    "Ġmills": 21310,
    "prepar": 22465,
    "Ġjaw": 3318,
    "oried": 10801,
    "Ġornam": 15862,
    "Ġpoint": 2057,
    "Ġindies": 22951,
    "sense": 11522,
    "oundering": 11743,
    "Ġstepfather": 7221,
    "Ġplowdon": 26446,
    "Ġportent": 12078,
    "gloves": 25143,
    "Ġcaulk": 25440,
    "Ġdiversion": 17196,
    "reds": 12744,
    "nment": 20989,
    "hr": 20887,
    "manners": 16184,
    "fif": 9115,
    "Ġmodular": 12812,
    "Ġprophet": 7682,
    "speps": 14332,
    "Ġalleghan": 25795,
    "esy": 9184,
    "Ġvivacious": 19814,
    "Ġorgans": 15863,
    "Ġcircumnavigation": 20398,
    "Ġsympathise": 16793,
    "Ġhand": 859,
    "Ġ76": 24261,
    "Ġis": 347,
    "vint": 21113,
    "Ġsprout": 24086,
    "ogany": 18677,
    "Ġinsult": 6747,
    "._": 3221,
    "rows": 6442,
    "hauled": 20667,
    "Ġcoroner": 7511,
    "ishing": 1143,
    "riors": 18187,
    "Ġl": 303,
    "Ġregret": 5561,
    "Ġmappings": 2149,
    "uten": 11620,
    "Ġhorr": 3189,
    "Ġrefreshed": 15288,
    "Ġclaret": 22348,
    "intosh": 22938,
    "Ġsordid": 26421,
    "icial": 12651,
    "bitious": 16668,
    "unbidden": 21892,
    "noise": 14326,
    "Ġwonders": 7501,
    "might": 4080,
    "Ġtomorrow": 21511,
    "Ġcommended": 18656,
    "formal": 14165,
    "Ġwestern": 10653,
    "ate": 423,
    "Ġbundles": 26175,
    "Ġcapacity": 10439,
    "Ġnotes": 7189,
    "ppers": 7618,
    "lucifer": 25302,
    "Ġaffair": 4462,
    "eu": 17529,
    "Ġsurp": 9633,
    "Ġtattooing": 15026,
    "eth": 623,
    "Ġfrivolous": 26176,
    "Ġproceeds": 12074,
    "Ġbus": 1901,
    "Ġmer": 2930,
    "eties": 10836,
    "Ġsucceeded": 6105,
    "venge": 4657,
    "Ġunden": 22009,
    "Ġmult": 1021,
    "Ġcomputes": 4767,
    "ements": 11106,
    "Ġherself": 1565,
    "staring": 18017,
    "guard": 12125,
    "Ġtorment": 8673,
    "fierce": 25255,
    "aspect": 10192,
    "Ġendued": 14075,
    "Ġconstitutes": 13550,
    "Ġthump": 11609,
    "rising": 7558,
    "ĠĠĠĠĠĠĠĠĠĠĠĠ": 12899,
    "Ġminutest": 14558,
    "unhesitatingly": 26495,
    "Ġcurrents": 13010,
    "Ġyours": 4125,
    "ective": 18174,
    "Ġbapt": 13894,
    "Ġcatholic": 20680,
    "Ġforehead": 5261,
    "talking": 10005,
    "sen": 21048,
    "corn": 13697,
    "ć": 200,
    "Ġtempered": 12919,
    "Ġprominence": 18954,
    "Ġretribution": 16279,
    "Ġnecess": 3474,
    "Ġfurthest": 22814,
    "Ġrecurred": 18978,
    "train": 2035,
    "Ġprecautions": 23725,
    "Ġdiffered": 22707,
    "Ġmanagement": 8193,
    "ror": 7351,
    "Ġcome": 1240,
    "pervised": 1540,
    "ilburn": 18059,
    "Ġcane": 10926,
    "Ġladyship": 5046,
    "Ġugly": 8715,
    "mine": 5617,
    "rid": 5137,
    "Ġdest": 2237,
    "Ġnoon": 6559,
    "Ġcloud": 3911,
    "Ġvacant": 9493,
    "lace": 13746,
    "mpus": 13755,
    "Ġindolent": 13001,
    "Ġdatasets": 2386,
    "Ġroving": 22399,
    "~": 98,
    "Ġcategorization": 12133,
    "Ġapologies": 25196,
    "Ġenglishmen": 19428,
    "shipmates": 11925,
    "Ġthink": 987,
    "Ġcattle": 12568,
    "Ġcred": 8779,
    "distance": 12149,
    "thern": 4953,
    "Ġfolly": 7941,
    "Ġamiss": 18511,
    "follows": 24527,
    "parameter": 3163,
    "Ġhumph": 22878,
    "ribe": 1222,
    "odiac": 14029,
    "trivial": 21091,
    "Ġviii": 16411,
    "Ġconjecture": 9530,
    "Ġaudience": 24769,
    "Ġdromed": 15594,
    "Ġassizes": 11107,
    "Ġparm": 15875,
    "shapes": 22450,
    "revenge": 13840,
    "Ġhoe": 23350,
    "Ġstar": 6023,
    "lit": 9604,
    "ĠĠĠĠĠĠĠĠĠĠĠĠĠĠĠĠĠĠĠĠĠĠĠĠĠĠĠĠĠĠĠĠĠĠĠĠĠĠĠĠĠĠĠĠĠĠĠĠ": 7989,
    "Ġsensations": 5259,
    "illings": 14141,
    "resolution": 17765,
    "Ġterms": 2563,
    "Ġdecrease": 4201,
    "anded": 5923,
    "depart": 12262,
    "Ġclasping": 20208,
    "Ġintroduction": 8969,
    "Ġexasperated": 11411,
    "Ġsuite": 18277,
    "Ġlooking": 2472,
    "arrant": 10473,
    "orate": 10799,
    "Ġapproaching": 6283,
    "sooner": 14773,
    "Ġeveryone": 8916,
    "Ġaccordance": 19496,
    "Ġcoast": 4654,
    "Ġmermaids": 26170,
    "Ġdishon": 12227,
    "eneva": 5118,
    "Ġcapstan": 9097,
    "recollected": 25347,
    "Ġrambles": 17183,
    "Ġdair": 17889,
    "rel": 3754,
    "window": 7743,
    "¿": 128,
    "Ġbaked": 21384,
    "Ġdarcy": 1342,
    "Ġembarkation": 25122,
    "Ġrare": 7037,
    "Ġow": 8408,
    "Ġsto": 1497,
    "Ġvineyarder": 25606,
    "Ġmoot": 22428,
    "Ġasks": 5115,
    "Ġuneasy": 8661,
    "Ġagonizing": 17237,
    "Ġpersecut": 16951,
    "jee": 17578,
    "Ġprinted": 11946,
    "Ġfever": 6558,
    "Ġpout": 17904,
    "Ġmonomania": 17084,
    "Ġwakes": 11570,
    "Ġresumed": 11809,
    "ru": 479,
    "Ġqueerest": 16412,
    "ok": 573,
    "istered": 14143,
    "iring": 1709,
    "Ġwhelmed": 25999,
    "sheets": 14440,
    "queen": 12723,
    "Ġbasic": 24701,
    "Ġcorpusants": 13675,
    "Ġrecovered": 5481,
    "Ġupp": 13990,
    "Ġbutt": 14124,
    "onze": 21254,
    "Ġnought": 21520,
    "Ġoppressed": 11188,
    "Ġmistakes": 16539,
    "Ġhide": 4587,
    "Ġwages": 13852,
    "Ġreside": 22537,
    "ĠmanÅĵuv": 18417,
    "Ġergo": 25029,
    "Ġbeacon": 21754,
    "Ġfossiliferous": 25609,
    "oa": 9611,
    "Ġgrowth": 14627,
    "Ġoverfitting": 1541,
    "erce": 6126,
    "jah": 17580,
    "deal": 12795,
    "Ġpunctual": 17136,
    "Ġnarwhale": 12290,
    "ky": 4518,
    "ifice": 7198,
    "Ġforeb": 12000,
    "Ġfaltering": 17884,
    "rig": 7557,
    "Ġwoods": 5406,
    "Ġob": 861,
    "Ġheart": 1594,
    "Ġpostscript": 14806,
    "unsupervised": 10888,
    "Ġinadequate": 17936,
    "terms": 15748,
    "reproach": 15184,
    "ver": 331,
    "Ġremaining": 6188,
    "Ġobjection": 6585,
    "versed": 9823,
    "Ġaunts": 21199,
    "supper": 12916,
    "dist": 4479,
    "Ġribs": 7101,
    "Ġthee": 2625,
    "regiment": 16451,
    "Ġmichaelmas": 26374,
    "Ġjem": 18397,
    "Ġgenerously": 22393,
    "Ġpatter": 819,
    "Ġinterrupted": 6343,
    "shipped": 18486,
    "Ġmorocco": 26572,
    "Ġpushed": 5910,
    "Ġalt": 18098,
    "Ġadvertising": 25389,
    "Åĵuv": 15180,
    "Ġrapidity": 11099,
    "Ġweaving": 12736,
    "Ġimpenet": 14220,
    "Ġsoc": 3525,
    "Ġcottages": 14725,
    "reading": 12076,
    "forbearance": 22798,
    "Ġmistaking": 23717,
    "singing": 24362,
    "extent": 22753,
    "Ġcoincidences": 26363,
    "Ġlongest": 18628,
    "Ġchristian": 6479,
    "Ġaloft": 4302,
    "achines": 1723,
    "Ġconfusing": 23305,
    "ilogue": 21722,
    "her": 489,
    "Ġcaprice": 14576,
    "named": 9895,
    "Ġemigrant": 25859,
    "Ġequal": 4136,
    "Ġprofound": 5497,
    "acing": 2717,
    "Ġshifted": 14105,
    "Ġbeginning": 4243,
    "Ġding": 12595,
    "Ġtopic": 9404,
    "performances": 26006,
    "Ġseren": 7401,
    "way": 766,
    "Ġtopsails": 19192,
    "Ġremarkably": 7703,
    "Ġcircles": 7967,
    "asburgh": 15644,
    "mand": 3894,
    "mped": 16646,
    "Ġcomprehens": 8320,
    "Ġbarrels": 9434,
    "elius": 13285,
    "Ġbleeds": 24396,
    "Ġmissed": 8555,
    "Ġpitied": 14690,
    "Ġlids": 12272,
    "Ġbank": 4876,
    "Ġpictures": 5503,
    "recogn": 13423,
    "embra": 14072,
    "Ġcreases": 22724,
    "uned": 21869,
    "crowded": 20189,
    "Ġgravel": 14100,
    "Ġfarthing": 14452,
    "ching": 5156,
    "apolog": 22331,
    "despond": 19799,
    "Ġcetace": 14986,
    "Ġcrouched": 23440,
    "Ġbump": 9658,
    "iferous": 17290,
    "Ġuncertain": 4070,
    "itous": 13865,
    "boots": 11125,
    "Ġsurm": 7477,
    "lord": 3865,
    "fts": 18696,
    "welcomed": 24644,
    "Ġbanners": 24858,
    "ops": 5246,
    "Ġabroad": 8864,
    "Ġinfamous": 16363,
    "Ġner": 1646,
    "Ġax": 7823,
    "Ġpinioned": 21480,
    "Ġunanswerable": 26520,
    "alling": 6037,
    "Ġparaph": 22118,
    "gird": 20878,
    "Ġchink": 15930,
    "Ġdoctor": 5067,
    "looking": 4036,
    "Ġquaff": 22412,
    "Ġundulating": 19516,
    "miss": 3172,
    "Ġforefinger": 16443,
    "Ġwhether": 2000,
    "Ġlowermost": 23242,
    "Ġwhereupon": 14292,
    "Ġtunnels": 24621,
    "Ġsearched": 15814,
    "eers": 20842,
    "unusual": 21877,
    "Ġexertions": 13408,
    "removing": 17763,
    "Ġembellish": 25847,
    "fac": 17540,
    "iners": 4937,
    "Ġtill": 1825,
    "Ġceased": 6468,
    "oysius": 14364,
    "incom": 21180,
    "pivot": 21030,
    "opportunity": 12271,
    "Ġhoping": 11102,
    "Ġdoubly": 16384,
    "Ġstripped": 10464,
    "Ġconvolutions": 21805,
    "umblings": 23927,
    "Ġinst": 912,
    "Ġ-": 1944,
    "Ġcran": 11997,
    "Ġstopped": 5957,
    "Ġsultan": 15182,
    "corpse": 24485,
    "Ġunderwent": 23234,
    "Ġshrugged": 12765,
    "inte": 5144,
    "Ġlangs": 13952,
    "specul": 23940,
    "gul": 12462,
    "Ġshillings": 15833,
    "Ġroaring": 10966,
    "ospit": 22260,
    "Ġdaring": 8121,
    "deprived": 19897,
    "Ġridic": 7509,
    "ickering": 22668,
    "ositions": 10281,
    "Ġpeg": 22687,
    "Ġabraham": 18395,
    "Ġrhyme": 21976,
    "Ġ6": 5141,
    "Ġdisdain": 8360,
    "carte": 25400,
    "Ġdoes": 941,
    "Ġperiodically": 19493,
    "adamite": 20591,
    "Ġco": 730,
    "Ġbreath": 4790,
    "ied": 940,
    "lo": 682,
    "Ġincidents": 9297,
    "networks": 2403,
    "Ġmournfully": 20115,
    "Ġmus": 3398,
    "Ġescapes": 23505,
    "unicorn": 21887,
    "Ġkentuckian": 26342,
    "profess": 10627,
    "Ġmastery": 23990,
    "Ġshirr": 18231,
    "face": 3677,
    "remes": 21236,
    "Ġseething": 18201,
    "Ġstony": 21737,
    "Ġconcerning": 4071,
    "Ġexcl": 3473,
    "Ġastern": 6091,
    "Ġpeninsula": 23194,
    "meadow": 18679,
    "Ġimagined": 8606,
    "Ġconv": 2969,
    "again": 3400,
    "Ġwallowing": 24040,
    "Ġplaning": 22600,
    "appear": 13196,
    "Ġplay": 2629,
    "Ġunited": 6840,
    "Ġreceives": 20353,
    "nowhere": 18418,
    "Ġshortly": 6196,
    "Ġgreeted": 23209,
    "Ġdivinely": 25723,
    "Ġdiscrete": 2474,
    "Ġinflicted": 11364,
    "lings": 8745,
    "Ġded": 2626,
    "Ġlatter": 3994,
    "heedful": 20572,
    "Ġtypewriter": 19097,
    "vital": 17699,
    "Ġrelentless": 26277,
    "Ġcetacean": 25878,
    "warks": 5004,
    "Ġnative": 4639,
    "Ġslapped": 23169,
    "Ġlances": 6984,
    "Ġrural": 21965,
    "Ġindication": 22952,
    "py": 17623,
    "Ġsatire": 22898,
    "Ġmisgivings": 15289,
    "Ġif": 697,
    "Ġshortened": 23481,
    "Ġmach": 13855,
    "extreme": 11027,
    "eff": 2536,
    "vel": 2382,
    "rusted": 16505,
    "Ġhudson": 15189,
    "Ġcoward": 7155,
    "Ġterrify": 19359,
    "fa": 7336,
    "Ġinde": 7371,
    "ensities": 22545,
    "Ġ110": 24434,
    "Ġinquirers": 24964,
    "Ġbrush": 17864,
    "Ġsubjected": 23571,
    "Ġnations": 8808,
    "Ġmolasses": 25628,
    "ith": 330,
    "Ġendeavoured": 4918,
    "Ġstepmother": 16086,
    "Ġmercenary": 17192,
    "Ġpolitely": 8992,
    "Ġcomprehending": 24444,
    "ellect": 7381,
    "isp": 5528,
    "Ġdue": 3844,
    "ct": 309,
    "hmael": 7342,
    "Ġwith": 349,
    "caroline": 24147,
    "Ġresembling": 4100,
    "Ġdistribution": 2018,
    "Ġtree": 5284,
    "Ġegg": 8817,
    "Ġbrew": 23343,
    "Ġmoose": 22429,
    "Ġfordham": 21774,
    "Ġslugg": 15266,
    "Ġboarders": 16599,
    "contrivance": 26316,
    "Ġrubber": 22784,
    "Ġcat": 2123,
    "Ġeye": 2281,
    "Ġoccupies": 24005,
    "Ġimp": 585,
    "Ġcapital": 7980,
    "Ġyielding": 12183,
    "Ġterti": 14537,
    "Ġplentiful": 12907,
    "Ġcopper": 7425,
    "encouragement": 17421,
    "aco": 12891,
    "Ġceremonious": 24837,
    "Ġeyel": 17095,
    "Ġstepdaughter": 22612,
    "Ġtransfer": 2387,
    "Ġunsav": 18251,
    "Ġgained": 4533,
    "Ġlace": 13947,
    "ield": 2405,
    "Ġthrowing": 6335,
    "Ġirksome": 13109,
    "Ġtoils": 10184,
    "Ġmissionary": 25696,
    "Ġsecurity": 8976,
    "Ġbravely": 23836,
    "stretched": 10204,
    "Ġsom": 1276,
    "Ġlibraries": 20613,
    "inhab": 10756,
    "Ġregulations": 18600,
    "Ġbath": 9657,
    "Ġbuzz": 23994,
    "dressing": 11480,
    "commotion": 24913,
    "collins": 6916,
    "Ġlassitude": 20585,
    "Ġanyhow": 14253,
    "Ġdestabilizing": 5053,
    "regulated": 23466,
    "ĠĠĠĠĠĠĠĠĠĠĠĠĠĠĠĠĠĠĠĠĠĠĠĠ": 5321,
    "Ġscrolled": 22297,
    "Ġwhittling": 20698,
    "times": 8099,
    "Ġarising": 10932,
    "Ġcitations": 25437,
    "clever": 20812,
    "Ġweather": 4001,
    "Ġumbrell": 13648,
    "Ġalarm": 4050,
    "Ġebony": 18008,
    "Ġfurnish": 9017,
    "ë": 172,
    "Ġbulls": 23856,
    "kov": 17585,
    "hever": 13829,
    "Ġinstinct": 6574,
    "wers": 12516,
    "independ": 15979,
    "ister": 1297,
    "Ġfinery": 23123,
    "terrible": 8465,
    "ige": 12676,
    "exceeded": 25001,
    "spout": 7924,
    "Ġintermediate": 18589,
    "Ġidentity": 2526,
    "hind": 20893,
    "eleg": 20848,
    "ox": 9132,
    "Ġcrate": 19122,
    "countryman": 24639,
    "²": 115,
    "Ġexpiring": 16096,
    "Ġsignification": 19201,
    "Ġbengal": 18782,
    "above": 8148,
    "ensibility": 22546,
    "Ġn": 300,
    "ffic": 22149,
    "Ġswallowed": 7944,
    "Ġearnestly": 5979,
    "Ġmaids": 19690,
    "Ġdaint": 15590,
    "âĢĶ": 517,
    "Ġintrepidity": 25550,
    "Ġflames": 7940,
    "startled": 24941,
    "õ": 182,
    "Ġhyper": 19738,
    "Ġgone": 2108,
    "Ġminutely": 14559,
    "Ġagonized": 25372,
    "Ġforgot": 4682,
    "Ġkeenest": 12158,
    "Ġfanning": 23388,
    "Ġquadru": 16001,
    "dri": 5888,
    "Ġhorrify": 23816,
    "Ġquick": 2582,
    "derment": 22164,
    "Ġspecially": 11994,
    "atoes": 17774,
    "concerns": 24582,
    "Ġsickbed": 24245,
    "Ġvictoria": 14871,
    "Ġwrung": 14468,
    "Ġcringing": 25941,
    "Ġdecency": 18491,
    "Ġstratag": 26028,
    "Ġskipper": 22796,
    "Ġices": 21153,
    "Ġcatherine": 2810,
    "Ġoffic": 3185,
    "Ġreeling": 18032,
    "Ġbefriend": 18081,
    "Ġthrew": 3977,
    "Ġbewit": 15725,
    "hig": 12471,
    "Ġknife": 7309,
    "ccess": 3181,
    "Ġrelu": 1046,
    "trucks": 25419,
    "Ġcomplexity": 1697,
    "Ġconsists": 11974,
    "rud": 4191,
    "Ġmyself": 1454,
    "Ġmyster": 5926,
    "ier": 1135,
    "ples": 6845,
    "Ġreflection": 6440,
    "solution": 14685,
    "Ġrevelations": 25223,
    "Ġsuspects": 16889,
    "female": 20665,
    "Ġcrozetts": 19628,
    "âĢĻ!âĢĿ": 18167,
    "elizabeth": 1986,
    "elope": 14464,
    "cal": 1115,
    "Ġgorge": 13564,
    "aried": 10986,
    "desponding": 26341,
    "Ġreckoning": 14977,
    "icted": 5937,
    "prodigious": 17465,
    "Ġdetained": 18372,
    "ubines": 22959,
    "Ġblundering": 26283,
    "oughed": 22081,
    "Ġpermanently": 25473,
    "Ġgraceful": 11295,
    "Ġ1000": 3116,
    "appearance": 5333,
    "Ġdefects": 12330,
    "Ġdesperately": 24656,
    "es": 289,
    "Ġmuffled": 10639,
    "Ġknow": 631,
    "Ġhell": 5019,
    "resting": 23231,
    "sharpening": 22452,
    "Ġlarger": 1402,
    "Ġstile": 21730,
    "flowing": 14569,
    "tering": 3807,
    "Ġseen": 1368,
    "opius": 18508,
    "whales": 5187,
    "Ġdepos": 11007,
    "tedious": 22631,
    "Ġstranded": 9773,
    "Ġaudio": 24772,
    "Ġalpha": 13586,
    "Ġstir": 5823,
    "Ġadmiration": 5328,
    "heavy": 10573,
    "Ġpaws": 13919,
    "Ġcould": 704,
    "folding": 24927,
    "Ġbelieved": 4366,
    "Ġartful": 22605,
    "Ġfishing": 9661,
    "Ġexordium": 26491,
    "Ġadvancing": 6879,
    "y": 93,
    "Ġrows": 10560,
    "Ġalley": 15733,
    "kl": 4864,
    "Ġgave": 2219,
    "car": 4212,
    "oft": 3591,
    "Ġgpt": 4349,
    "lour": 15378,
    "Ġobstacle": 16954,
    "sme": 17657,
    "Ć": 199,
    "liable": 3818,
    "sure": 5522,
    "Ġalmost": 1657,
    "Ġwrest": 11569,
    "riot": 18185,
    "altern": 17941,
    "Ġcreations": 18683,
    "flung": 16637,
    "Ġincorruption": 26309,
    "holding": 7739,
    "Ġswells": 9825,
    "Ġvanishing": 1346,
    "Ġsank": 5076,
    "Ġseeming": 8539,
    "comm": 7439,
    "Ġconscience": 6929,
    "Ġbreathless": 12166,
    "vigorous": 25917,
    "Ġproport": 2298,
    "Ġfavoring": 2343,
    "Ġkindly": 6078,
    "diminished": 20838,
    "Ġ{": 21151,
    "omely": 21657,
    "Ġleadenhall": 16627,
    "became": 10513,
    "Ġgemin": 21608,
    "consternation": 16911,
    "Ġsunshine": 14493,
    "Ġinvestigated": 25386,
    "Ġenlightened": 12742,
    "ordingly": 18518,
    "Ġsalesman": 13666,
    "ustry": 18355,
    "resum": 17760,
    "Ġlucases": 9008,
    "Ġpreser": 6041,
    "ats": 4253,
    "Ġcontribut": 12855,
    "morrow": 4570,
    "ben": 4926,
    "Ġelimin": 16105,
    "unwillingly": 21882,
    "arched": 10814,
    "ishmael": 18420,
    "Ġsinking": 7307,
    "Ġsmallest": 6430,
    "stories": 18020,
    "direction": 17523,
    "Ġdisguises": 25055,
    "Ġaberde": 22275,
    "Ġresolve": 13168,
    "izar": 14041,
    "Ġteneriffe": 26413,
    "Ġglad": 3326,
    "Ġcrumb": 16439,
    "Ġgardeners": 12117,
    "Ġtyrant": 24767,
    "misery": 13341,
    "Ġconsummate": 25310,
    "illustration": 2284,
    "Ġvaried": 11845,
    "Ġbordered": 24562,
    "Ġdisorder": 16049,
    "Ġagitates": 22515,
    "Ġadversity": 24302,
    ":--": 5784,
    "Ġgiant": 13966,
    "Ġelegant": 7533,
    "treas": 17678,
    "presumption": 20440,
    "Ġappetites": 20205,
    "Ġfil": 3471,
    "Ġtreatment": 12068,
    "Ġcanst": 8856,
    "peasant": 23108,
    "Ġprodigies": 19792,
    "flood": 19805,
    "Ġtrifling": 10601,
    "Ġnast": 15636,
    "Ġminimum": 23038,
    "ient": 394,
    "Ġpitch": 5767,
    "Ġproprietors": 20185,
    "parad": 16399,
    "Ġpatient": 6894,
    "Ġspikes": 22134,
    "da": 17513,
    "Ġorgies": 18285,
    "Ġafrican": 20136,
    "Ġtorrent": 17091,
    "vell": 3962,
    "Ġcuba": 25095,
    "Ġfacilitate": 26098,
    "Ġeducation": 5128,
    "alice": 3208,
    ".)": 6783,
    "earth": 6502,
    "Ġhealthful": 24056,
    "derness": 11734,
    "Ġdeem": 18136,
    "Ġtroub": 22353,
    "Ġtumb": 21168,
    "ility": 624,
    "xible": 13806,
    "althily": 19357,
    "Ġfrosts": 19801,
    "exp": 2736,
    "Ġbeamed": 23720,
    "Ġlo": 452,
    "Ġmountains": 4426,
    "Ġfatal": 5871,
    "Ġissue": 2311,
    "Ġdread": 3161,
    "Ġrise": 5637,
    "dismal": 23495,
    "Ġobliging": 13240,
    "Ġhaz": 12751,
    "Ġpopularly": 12238,
    "Ġconsumm": 15152,
    "Ġconcise": 23321,
    "Ġgrey": 4511,
    "tical": 10127,
    "coloured": 7291,
    "Ġconfess": 3766,
    "Ġwedged": 24069,
    "moran": 24150,
    "Ġmerrily": 23730,
    "Ġaims": 15495,
    "Ġgradients": 611,
    "Ġseer": 21950,
    "Ġconstructed": 9384,
    "Ġremonstr": 16159,
    "Ġsally": 15501,
    "Ġlighter": 12649,
    "Ġencaps": 12958,
    "Ġoverseeing": 22358,
    "Ġclubb": 22346,
    "Ġbully": 23854,
    "Ġnaturalist": 22912,
    "Ġsling": 21219,
    "Ġsupplement": 23002,
    "Ġincognita": 26550,
    "enjoyments": 25433,
    "Ġswart": 14432,
    "ĠĠĠĠĠĠĠĠĠĠĠĠĠĠĠĠĠĠĠĠĠĠĠĠĠĠĠĠĠĠĠĠĠĠĠĠĠĠĠĠĠĠĠĠĠĠ": 9951,
    "Ġworn": 6445,
    "backward": 2684,
    "patter": 3937,
    "Ġegypt": 9677,
    "Ġneedle": 8275,
    "Ġtash": 13818,
    "Ġdefines": 1742,
    "Ġofficio": 23813,
    "Ġdevoting": 22719,
    "Ġthus": 2037,
    "pond": 21012,
    "Ġexerc": 6833,
    "Ġboth": 1656,
    "Ġinsensibly": 20074,
    "aul": 6352,
    "Ġlocket": 22111,
    "Ġgoodge": 22821,
    "Ġunfit": 14785,
    "rule": 15892,
    "sac": 7140,
    "Ġindirectly": 8938,
    "Ġ17": 5740,
    "Ġrather": 1492,
    "chief": 4643,
    "Ġsoda": 25534,
    "Ġflirting": 16249,
    "Ġalbino": 20501,
    "Ġfoaming": 18992,
    "odd": 21809,
    "Ġeclips": 20695,
    "Ġbert": 4580,
    "rushed": 10583,
    "culiar": 2819,
    "Ġraising": 8908,
    "Ġflourishing": 25187,
    "ħ": 232,
    "itics": 13870,
    "revival": 26162,
    "Ò": 147,
    "Ġpulley": 2976,
    "Ġcleansed": 26293,
    "Ġlanes": 19764,
    "lion": 20943,
    "yours": 7696,
    "book": 4668,
    "Ġlatest": 16821,
    "oundered": 14163,
    "Ġcelerity": 17434,
    "overing": 6306,
    "Ġtriangular": 14857,
    "Ġdestitute": 14564,
    "Ġchast": 18380,
    "Ġextinguished": 10340,
    "attend": 11100,
    "Ġpsalmody": 20583,
    "Ġchannels": 26013,
    "_,âĢĿ": 6218,
    "remed": 18952,
    "Ġdispirited": 23880,
    "recover": 24623,
    "Ġcomfor": 14050,
    "Ġretreat": 6070,
    "utility": 21585,
    "Ġbund": 17863,
    "Ġstochastic": 3265,
    "Ġhaunts": 18198,
    "Ġ82": 24457,
    "Ġindecision": 25781,
    "Ġnone": 3224,
    "Ġgracechurch": 12195,
    "Ġnug": 21523,
    "Ġshoving": 23487,
    "appl": 9324,
    "Ġpassing": 4314,
    "bon": 13682,
    "protruding": 24816,
    "Ġyork": 11663,
    "rics": 13033,
    "Ġglobe": 6077,
    "downward": 16618,
    "Ġlights": 8959,
    "Ġaft": 5737,
    "Ġbomb": 17867,
    "Ġneed": 2609,
    "Ġsovereign": 10060,
    "Ġnotice": 4541,
    "Ġangles": 23587,
    "Ġgoal": 10300,
    "Ġbeseeching": 26311,
    "hammer": 14488,
    "Ġunctuous": 10265,
    "Ġdau": 21424,
    "Ġrests": 13090,
    "Ġnoisy": 13316,
    "Ġagents": 9764,
    "Ġbrighton": 6470,
    "middle": 11309,
    "Ġinvolved": 8922,
    "Ġlomb": 21557,
    "Ġsinew": 25431,
    "Ġpap": 8796,
    "young": 7321,
    "Ġoffences": 18693,
    "Ġprepar": 7898,
    "luckily": 19751,
    "Ġpreference": 9731,
    "Ġparted": 5929,
    "ifications": 9727,
    "Ġacquies": 11096,
    "oking": 4604,
    "Ġarms": 3970,
    "infliction": 25924,
    "Ġpian": 13915,
    "hoped": 20909,
    "Ġhangs": 11604,
    "Ġtension": 13822,
    "ă": 196,
    "Ġmeasures": 1206,
    "assistant": 25567,
    ").": 1273,
    "Ġrats": 21971,
    "Ġgloom": 4202,
    "uation": 17693,
    "Ġmusket": 12293,
    "Ġinfl": 6893,
    "Ġlightly": 13081,
    "Ġprivately": 19522,
    "Ġprosper": 10227,
    "eliest": 14744,
    "Ġwhispering": 14943,
    "Ġfists": 15580,
    "kingly": 20938,
    "itic": 11576,
    "Ġbigot": 24564,
    "Ġchief": 3382,
    "Ġverte": 9439,
    "177": 20751,
    "Ġpolitical": 19222,
    "Ġtame": 17721,
    "Ġgrope": 17994,
    "Ġmccauley": 26426,
    "sander": 11525,
    "Ġestimated": 16593,
    "irited": 15784,
    "Ġminimize": 7050,
    "Ġspitz": 14147,
    "devils": 20031,
    "_;": 6640,
    "impetuous": 23762,
    "gage": 13722,
    "Ġunbounded": 18259,
    "Ġfoundation": 4232,
    "Ġtrample": 20326,
    "Ġmerryweather": 9520,
    "gr": 2088,
    "yp": 1045,
    "Ġfairest": 20461,
    "Ġhungry": 10531,
    "conclusion": 25671,
    "soles": 18686,
    "Ġsteered": 11091,
    "Ġtransient": 18481,
    "Ġjoys": 13217,
    "Ġdreary": 10407,
    "Ġic": 9624,
    "Ġoblig": 3445,
    "Ġfix": 2509,
    "Ġmiserably": 12944,
    "wat": 6231,
    "msgate": 18412,
    "Ġbrazier": 26320,
    "ization": 488,
    "itying": 21992,
    "rolled": 9058,
    "umst": 2505,
    "Ġpositives": 4316,
    "Ġtigris": 25759,
    "Ġladen": 19176,
    "Ġhackluyt": 25655,
    "Ġcontinuously": 23203,
    "Ġcontribute": 12857,
    "leads": 21368,
    "Ġvexation": 10585,
    "Ġascendency": 20231,
    "bree": 15312,
    "Ġroundabout": 23059,
    "pr": 3173,
    "Ġassociation": 24711,
    "Ġcad": 12564,
    "gather": 20874,
    "Ġfishery": 4176,
    "Ġreckon": 19869,
    "Ġexhaust": 6399,
    "Ġpup": 12615,
    "Ġengland": 3856,
    "Ġrepaid": 19082,
    "Ġelevates": 24499,
    "clothed": 19736,
    "pooh": 18798,
    "Ġjove": 9266,
    "Ġribbons": 24328,
    "Ġlate": 3377,
    "Ġexpand": 9305,
    "midnight": 14898,
    "Ġgranted": 22807,
    "Ġreplete": 15695,
    "Ġunexpl": 22035,
    "Ġuniversally": 11996,
    "Ġengaging": 9334,
    "ċ": 204,
    "Ġlawless": 19433,
    "cannib": 11900,
    "attent": 9357,
    "Ġtasselled": 25921,
    "Ġache": 18663,
    "ench": 21278,
    "Ġswarm": 23052,
    "Ġobstin": 14951,
    "Ġsurpassed": 25267,
    "Ġriveted": 13616,
    "Ġcompanies": 14556,
    "Ġindefatigable": 17176,
    "Ġdwelt": 12601,
    "Ġcontributes": 15248,
    "itate": 6667,
    "uccas": 21105,
    "have": 2059,
    "encoura": 15047,
    "rain": 462,
    "unteered": 26494,
    "Ġtelescopes": 25690,
    "mistakable": 20652,
    "Ġtranquilly": 12287,
    "Ġhaunted": 10252,
    "Ġworth": 4415,
    "Ġgales": 12661,
    "Ġpersonified": 19177,
    "Ġheron": 22071,
    "Ġstumble": 26481,
    "Ġrenders": 13281,
    "composure": 24031,
    "riminately": 16482,
    "Ġcore": 13876,
    "Ġtossings": 25356,
    "macy": 18806,
    "Ġreproached": 24891,
    "consideration": 14953,
    "Ġmetropolis": 17273,
    "warnings": 20350,
    "apping": 5851,
    "Ġmothers": 14539,
    "Ġbrother": 2748,
    "Ġlucas": 3832,
    "Ġtransparency": 10675,
    "Ġfishers": 19352,
    "Ġbelong": 3886,
    "Ġforswe": 21772,
    "Ġhighland": 18712,
    "quent": 2096,
    "Ġrains": 24339,
    "Ġhydraul": 9512,
    "Ġresearches": 13137,
    "Ġburglar": 17353,
    "Ġimpropriety": 17394,
    "bonnet": 25742,
    "Ġstam": 18065,
    "vius": 23540,
    "Ġdaughter": 2869,
    "Ġqueen": 3214,
    "Ġindirect": 18834,
    "Ġstrictest": 17041,
    "Ġmaterially": 12188,
    "ap": 547,
    "Ġassuming": 16692,
    "Ġparts": 4166,
    "Ġranged": 10256,
    "Ġwedded": 16673,
    "Ġ[\"": 19929,
    "fashion": 8081,
    "Ġalluded": 7886,
    "ellig": 522,
    "Ġexpenses": 11833,
    "Ġhereditarily": 25224,
    "Ġaloof": 21783,
    "Ġfrancis": 26063,
    "descending": 16283,
    "Ġbodings": 21389,
    "provoke": 26071,
    "orrowed": 19289,
    "Ġneighbours": 8303,
    "Ġavert": 14423,
    "Ġvehement": 16200,
    "elling": 5830,
    "ontory": 10459,
    "ocr": 10467,
    "Ġcalamities": 25699,
    "Ġcomposed": 8891,
    "Ġaccidents": 10294,
    "ough": 471,
    "Ġcommitting": 22671,
    "concluding": 19479,
    "Ġsympathetic": 17357,
    "Ġwarped": 25035,
    "Ġwoody": 23516,
    "wishing": 21127,
    "Ġthereby": 7644,
    "impart": 21707,
    "dare": 12450,
    "riptions": 14792,
    "Ġleap": 5824,
    "Ġadvis": 9808,
    "Ġaccounted": 10293,
    "Ġbelfry": 26437,
    "Ġinsist": 9887,
    "âĢĿ--": 21814,
    "Ġru": 946,
    "Ġmankind": 6698,
    "understood": 13214,
    "rance": 5994,
    "Ġrocking": 10967,
    "Ġfulfilled": 11361,
    "Ġtelesc": 12987,
    "Ġramad": 8527,
    "Ġdeserving": 14751,
    "Ġlust": 9196,
    "Ġunnear": 22024,
    "lur": 13745,
    "aciousness": 18568,
    "calmly": 20138,
    "pushed": 21022,
    "Ġ156": 20169,
    "Ġbiography": 22765,
    "ampton": 18145,
    "Ġconge": 15743,
    "ificial": 607,
    "Ġblasp": 14399,
    "supernatural": 19778,
    "carried": 16711,
    "Ġgunw": 6212,
    "Ġotherwise": 4656,
    "Ġacquiesced": 25493,
    "ĠĠĠĠĠĠĠĠĠĠĠĠĠĠĠĠĠ": 22949,
    "stache": 15686,
    "Ġdaunt": 19663,
    "Ġgills": 17992,
    "Ġmariners": 6068,
    "Ġglance": 4233,
    "Ġminut": 2204,
    "leader": 25351,
    "Ġshel": 6847,
    "ignified": 14489,
    "Ġlifts": 25358,
    "Ġscrew": 8867,
    "Ġremembrance": 8318,
    "satisfaction": 9990,
    "Ġthr": 5709,
    "Ġwindows": 4971,
    "Ġstigma": 25791,
    "Ġhealed": 21681,
    "Ġaids": 12225,
    "Ġfronts": 20530,
    "loun": 17587,
    "ugging": 23288,
    "Ġstarboard": 7605,
    "onde": 21250,
    "Ġindelible": 25694,
    "Ġquarto": 17294,
    "Ġunre": 3476,
    "mortal": 10111,
    "aning": 2252,
    "Ġcarpenter": 4684,
    "outer": 9667,
    "Ġoutfits": 22319,
    "Ġawed": 23584,
    "Ġprevious": 2091,
    "Ġfollows": 7674,
    "Ġbeware": 8826,
    "Ġhour": 1813,
    "Ġindependence": 12101,
    "Ġoily": 13862,
    "Ġsign": 2494,
    "Ġxvi": 19104,
    "etrics": 21583,
    "Ġdipped": 15592,
    "orously": 8419,
    "building": 17307,
    "ortations": 22256,
    "Ġcardboard": 19977,
    "goodness": 19288,
    "breeze": 20561,
    "execut": 13653,
    "depths": 25663,
    "Ġmining": 22828,
    "Ġstrenuously": 17446,
    "Ġgloss": 11956,
    "Ġjust": 1238,
    "Ġheadsmen": 14730,
    "tumult": 12420,
    "Ġalternately": 15030,
    "Ġfriend": 1298,
    "awe": 20764,
    "ainted": 3659,
    "Ġ133": 24783,
    "sometimes": 5972,
    "Ġinterpreter": 23212,
    "Ġinoffensive": 21496,
    "ieces": 4771,
    "aches": 6569,
    "Ġdear": 1537,
    "Ġtub": 7146,
    "yra": 8103,
    "Ġnugent": 26456,
    "feit": 16040,
    "Ġbun": 6007,
    "Ġix": 12664,
    "Ġexponential": 1058,
    "Ġpermitting": 22398,
    "pleasing": 14740,
    "Ġtartar": 17320,
    "Ġnoises": 18374,
    "Ġfirmest": 16663,
    "Ġsatiated": 22900,
    "gunw": 17219,
    "learning": 2650,
    "suit": 18631,
    "save": 13783,
    "Ġinsignificant": 20455,
    "Ġvessel": 3799,
    "Ġsundial": 15080,
    "¸": 121,
    "Ġcomplaint": 24776,
    "Ġcounsel": 13613,
    "Ġweight": 657,
    "Ġstagnant": 24654,
    "Ġrewarding": 13435,
    "Ġcoer": 22578,
    "splash": 25209,
    "infl": 15486,
    "gd": 3123,
    "Ġang": 2512,
    "Ġvines": 12747,
    "Ġcham": 4891,
    "Ġawaken": 23585,
    "Ġha": 400,
    "Ġnarrowed": 24354,
    "Ġsquatted": 25841,
    "metals": 24766,
    "derstand": 650,
    "Ġchamounix": 14862,
    "christian": 17231,
    "Ġscattered": 6857,
    "congenial": 25399,
    "Ġtrooped": 24899,
    "Ġseat": 4949,
    "Ġdespite": 19351,
    "aways": 15308,
    "ateness": 15518,
    "Ġne": 390,
    "Ġarchitects": 18734,
    "adel": 15726,
    "Ġprocedural": 12027,
    "Ġlevelled": 11283,
    "Ġconcuss": 19046,
    "Ġg": 310,
    "Ġarist": 14160,
    "inian": 21181,
    "Ġslyness": 25266,
    "Ġdesire": 3717,
    "Ġscotland": 6639,
    "ĠĠĠĠĠĠĠĠĠĠĠĠĠĠĠĠĠĠĠĠĠĠĠĠĠĠĠĠĠĠĠĠĠĠĠĠ": 23665,
    "ahawk": 23314,
    "Ġmortifying": 13242,
    "Ġbecalmed": 18086,
    "Ġtistig": 26412,
    "enger": 10772,
    "dies": 15336,
    "Ġdeceased": 15005,
    "ighted": 8476,
    "Ġbat": 10794,
    "Ġsuccessfully": 19427,
    "Ġleaped": 8824,
    "Ġcoburg": 18594,
    "Ġdo": 511,
    "Ġenriched": 26498,
    "Ġjam": 10948,
    "cing": 1013,
    "Ġranging": 8478,
    "Ġfell": 1977,
    "Ġthickest": 16653,
    "behaved": 24462,
    "emberley": 4172,
    "cod": 12440,
    "Ġnumberless": 16413,
    "Ġliable": 14227,
    "forbid": 14351,
    "Ġamount": 8511,
    "Ġsubordinate": 18722,
    "hole": 5585,
    "Ġsofas": 26224,
    "cri": 17504,
    "Ġbustle": 17226,
    "Ġfavour": 3642,
    "Ġshade": 6550,
    "Ġlamb": 8811,
    "reproof": 25432,
    "Ġaf": 784,
    "Ġrider": 24184,
    "Ġcuriously": 13008,
    "inglass": 21301,
    "Ġdeath": 2043,
    "months": 9070,
    "Ġimmured": 24070,
    "remembrance": 25702,
    "Ġharpoon": 3617,
    "Ġbegone": 11915,
    "ought": 831,
    "ribut": 815,
    "70": 17474,
    "Ġcupidity": 24534,
    ":âĢĶâĢĺ": 24192,
    "Ġ_": 840,
    "Ġpleasantness": 24137,
    "Ġquoted": 22413,
    "gered": 9274,
    "_,": 2797,
    "Ġshape": 5639,
    "rat": 8755,
    "_.": 2214,
    "Ġelixir": 26554,
    "Ġenergetic": 15195,
    "algorithm": 3956,
    "ieve": 1659,
    "emper": 18180,
    "Ġincarnation": 25573,
    "_âĢĶâĢĻ": 13680,
    "Ġshock": 6083,
    "Ġsweet": 3465,
    "Ġbanished": 10615,
    "Ġcultivated": 17362,
    "inguished": 6598,
    "icting": 12849,
    "Ġexhale": 24401,
    "Ġpar": 456,
    "Ġbecomes": 6396,
    "Ġdisturbance": 15011,
    "agon": 7872,
    "Ġpaused": 5416,
    "Ġharpo": 1942,
    "Ġhunt": 6183,
    "Ġperches": 18449,
    "dared": 13700,
    "Ġprofit": 14584,
    "exceedingly": 9565,
    "eminent": 25104,
    "Ġunlock": 18243,
    "Ġwarmth": 6905,
    "ellations": 21942,
    "Ġimpediments": 26240,
    "Ġforth": 3462,
    "Ġlamentations": 17075,
    "Ġdouble": 4940,
    "Ġsoot": 14130,
    "itz": 6006,
    "Ġrespective": 16343,
    "Ġinstrument": 7118,
    "Ġcontrived": 10302,
    "jackets": 24895,
    "Ġsitt": 21216,
    "Ġstory": 2903,
    "Ġaddison": 14231,
    "Ġswish": 23051,
    "Ġattack": 5478,
    "terror": 18128,
    "Ġlawn": 7379,
    "Ġcommunicative": 24547,
    "achine": 606,
    "gy": 2098,
    "hamed": 6305,
    "Ġpaddling": 25285,
    "fat": 8079,
    "Ġmelt": 21317,
    "Ġcharity": 8861,
    "Ġasse": 8160,
    "remains": 10397,
    "Ġcommun": 1708,
    "Ġslowly": 3619,
    "Ġpl": 744,
    "Ġconnection": 5479,
    "Ġpetticoat": 15293,
    "riet": 18184,
    "espe": 3498,
    "Ġlucerne": 23862,
    "Ġbower": 15564,
    "che": 3170,
    "Ġpertaining": 18451,
    "phere": 21018,
    "Ġclass": 779,
    "Ġstriking": 6089,
    "imaux": 21710,
    "Ġothers": 2583,
    "elag": 12654,
    "Ġblock": 2576,
    "garious": 17557,
    "library": 12995,
    "Ġref": 917,
    "Ġadieu": 10049,
    "Ġwhitewashed": 14467,
    "Ġwindpipe": 23103,
    "Ġcamel": 25349,
    "Ġinsight": 16529,
    "Ġsuperl": 16445,
    "Ġdoing": 3661,
    "Ġgraze": 18226,
    "Ġconquered": 14024,
    "Ġinsects": 25646,
    "Ġsimilitude": 19209,
    "cigar": 26124,
    "Ġinfernal": 11958,
    "reg": 2183,
    "Ġcode": 1721,
    "Ġ44": 16678,
    "Ġcarriages": 11097,
    "divided": 25018,
    "Ġdeterm": 1271,
    "Ġsomething": 1795,
    "oftentimes": 19419,
    "Ġstatue": 23145,
    "Ġgripping": 26186,
    "Ġhold": 2243,
    "Ġvitality": 15170,
    "Ġawait": 17072,
    "Ġthirty": 4944,
    "luent": 15996,
    "instant": 8651,
    "Ġtig": 13811,
    "Ġwerter": 15237,
    "Ġsleet": 8974,
    "omical": 9680,
    "Ġseam": 3908,
    "Ġwarning": 9057,
    "broad": 8642,
    "Ġdiscove": 16153,
    "Ġrel": 1092,
    "solitude": 23294,
    "Ġbeheaded": 11654,
    "start": 7599,
    "trees": 10730,
    "consciousness": 13363,
    "Ġrefers": 1563,
    "fav": 6646,
    "axing": 18547,
    "mrs": 3744,
    "erest": 10696,
    "saying": 8640,
    "Ġtranquil": 7310,
    "spir": 5738,
    "Ġmeryton": 4437,
    "skin": 10567,
    "late": 11497,
    "Ġconcent": 8250,
    "harbors": 20147,
    "sm": 3436,
    "Ġanew": 11429,
    "preservation": 25305,
    "Ġnormalizes": 1861,
    "duct": 3506,
    "dron": 17524,
    "Ġmorphology": 3010,
    "leather": 13888,
    "Ġbreadth": 10562,
    "Ġessentially": 24924,
    "Ġplate": 8897,
    "uns": 21868,
    "fort": 1749,
    "Ġdisciple": 22781,
    "endeav": 7150,
    "Ġstreets": 5863,
    "Ġskip": 1845,
    "Ġsickening": 19603,
    "Ġwitnessing": 19597,
    "despatched": 19800,
    "isance": 17847,
    "ggy": 13111,
    "Ġmanilla": 15957,
    "guilt": 24067,
    "setting": 13283,
    "Ġaudacity": 19881,
    "Ġretired": 6071,
    "rious": 11686,
    "Ġseize": 8166,
    "admon": 21759,
    "Ġhil": 10820,
    "tolerable": 17687,
    "Ġcass": 13877,
    "Ġinviting": 19143,
    "Ġspectators": 19405,
    "Ġfurnace": 19438,
    "unted": 6998,
    "Ġprimal": 17106,
    "in": 262,
    "Ġmischie": 22763,
    "Ġencircling": 26271,
    "ļ": 253,
    "Ġintermix": 22576,
    "Ġimbib": 22173,
    "Ġown": 1006,
    "wild": 8766,
    "Ġconvert": 11843,
    "acles": 8518,
    "Ġbeing": 1163,
    "ceptive": 15974,
    "boil": 18999,
    "ĠÂ£": 5006,
    "Ġshoot": 11160,
    "Ġmouthful": 16572,
    "Ġfearfully": 23509,
    "Ġatmosphere": 10896,
    "companions": 15022,
    "scheme": 15252,
    "Ġjackets": 19601,
    "Ġdispatched": 23879,
    "Ġdining": 6977,
    "makers": 20981,
    "assistance": 20369,
    "Ġgreenwich": 19320,
    "Ġlife": 1353,
    "Ġforms": 6397,
    "Ġful": 4296,
    "ium": 4863,
    "Ġwalrus": 14971,
    "Ġepit": 18006,
    "Ġinstructions": 11194,
    "Ġpassers": 18756,
    "Ġsped": 22123,
    "Ġbrings": 11877,
    "Ġprizes": 13071,
    "Ġkne": 4266,
    "Ġunsupp": 22017,
    "Ġneared": 14073,
    "Ġshouting": 10521,
    "ogr": 18675,
    "Ġaccompany": 9485,
    "Ġasiatics": 20429,
    "ascal": 10191,
    "izer": 2031,
    "mark": 5281,
    "delay": 16697,
    "ricted": 15419,
    "Ġanimate": 23421,
    "ones": 2742,
    "Ġpenalizing": 13088,
    "Ġspiced": 22131,
    "Ġflag": 7242,
    "Ġhavoc": 15811,
    "Ġnaval": 16898,
    "Ġsomebody": 7913,
    "\\": 64,
    "Ġcontemplated": 13462,
    "Ġpertur": 12847,
    "Ġroutine": 13506,
    "Ġechoed": 20422,
    "Ġsealed": 15813,
    "explain": 1479,
    "Ġmet": 1930,
    "Ġphren": 8571,
    "Ġspe": 823,
    "Ġcustom": 5078,
    "Ġarve": 15900,
    "Ġeels": 21618,
    "Ġabusive": 22271,
    "Ġparacels": 13665,
    "Ġmice": 13857,
    "still": 4219,
    "Ġresounds": 22540,
    "benevolently": 25600,
    "Ġseparately": 13300,
    "dissemble": 23490,
    "Ġinfinite": 8576,
    "mph": 20971,
    "Ġpromptly": 23815,
    "Ġpredicts": 2595,
    "Ġangel": 4851,
    "Ġnecessitated": 23925,
    "Ġspires": 11727,
    "iver": 2049,
    "Ġdistributing": 22677,
    "Ġdocumentation": 20553,
    "rer": 3623,
    "Ġsyntax": 957,
    "amouch": 21849,
    "Ġcreeping": 18684,
    "Ġste": 1389,
    "sunlight": 24851,
    "bread": 10683,
    "Ġoccurs": 1856,
    "Ġpurest": 14937,
    "Ġapprehensiveness": 16876,
    "Ġchiswick": 25560,
    "Ġsensation": 6896,
    "Ġduke": 7756,
    "Ġmil": 4254,
    "backpropagation": 11982,
    "sings": 4251,
    "Ġleakage": 23458,
    "(-": 2980,
    "Ġriding": 14092,
    "Ġdeprived": 8212,
    "Ġantelope": 24179,
    "bring": 9103,
    "Ġcompletion": 12144,
    "Ġhearsed": 25039,
    "beginning": 13559,
    "Ġfact": 1728,
    "iments": 4945,
    "ornamented": 26594,
    "smitten": 23906,
    "Ġcondesc": 7181,
    "Ġroses": 11782,
    "Ġgrotes": 19562,
    "Ġexord": 21825,
    "am": 368,
    "featured": 24156,
    "Ġegotistical": 26191,
    "Ġclut": 7642,
    "Ġwee": 21917,
    "repe": 8775,
    "Ġstocks": 23174,
    "Ġclear": 1948,
    "ang": 446,
    "Ġoccasion": 3245,
    "Ġfixing": 13154,
    "ignorant": 13561,
    "Ġprosperity": 20256,
    "commander": 16986,
    "gh": 3801,
    "turner": 19540,
    "Ġdistricts": 20262,
    "Ġcontro": 1689,
    "Ġenormous": 5608,
    "Ġsupremacy": 20259,
    "father": 3775,
    "Ġremembering": 14609,
    "Ġfr": 1698,
    "Ġasserted": 16948,
    "porary": 14551,
    "evil": 11484,
    "term": 3758,
    "Ġpoland": 23616,
    "Ġxiv": 23406,
    "======================================================================": 10066,
    "olly": 3226,
    "Ġlaborious": 13100,
    "Ġ22": 8279,
    "Ġhuff": 21488,
    "imodal": 17445,
    "Ġvincent": 15281,
    "Ġrio": 23889,
    "impropriety": 21711,
    "Ġgrave": 5100,
    "Ġrind": 21967,
    "Ġbeggar": 9347,
    "curiosity": 8623,
    "ower": 1042,
    "Ġsemantic": 1958,
    "me": 875,
    "wal": 10132,
    "Ġparis": 8179,
    "outon": 12799,
    "bu": 5132,
    "Ġprecious": 5760,
    "ipp": 10101,
    "heredit": 21208,
    "Ġbars": 13895,
    "Ġabhorrent": 16855,
    "Ġrashness": 25460,
    "Ġdollars": 11454,
    "Ġstat": 1488,
    "us": 531,
    "kee": 18273,
    "Ġspeed": 2447,
    "Ġundeniable": 26509,
    "Ġextravagant": 17277,
    "Ġsen": 9155,
    "Ġbitterness": 8025,
    "Ġannounce": 13336,
    "Ġalfred": 21784,
    "Ġweld": 8112,
    "Ġthrow": 3782,
    "Ġany": 688,
    "ermaid": 14294,
    "Ġappropriated": 23483,
    "Ġfad": 17876,
    "itories": 15546,
    "Ġdives": 17890,
    "Ġpioneer": 17916,
    ",*": 17470,
    "Ġshun": 11706,
    "enterprise": 24994,
    "trust": 21077,
    "Ġbelrive": 18830,
    "Ġpathetic": 19030,
    "Ġours": 4610,
    "form": 494,
    "Ġidentifies": 12011,
    "Ġbelt": 12999,
    "ub": 1225,
    "Ġgirdle": 19156,
    "Ġconversations": 9423,
    "Ġbrix": 12579,
    "ual": 944,
    "Ġchannel": 26012,
    "sleet": 20148,
    "preser": 9758,
    "Ġlithe": 24668,
    "Ġdelicately": 24124,
    "Ġparagraph": 17452,
    "Ġinstrum": 6055,
    "Ġmuteness": 19415,
    "Ġfeels": 6882,
    "Ġpart": 860,
    "agree": 14065,
    "Ġjiff": 22284,
    "Ġbirds": 5873,
    "Ġ102": 24409,
    "pin": 13765,
    "estation": 15918,
    "inced": 3336,
    "console": 22469,
    "Ġclos": 4547,
    "ishments": 9271,
    "Ġ124": 24468,
    "Ġcalmed": 16266,
    "Ġhast": 3149,
    "nal": 1899,
    "Ġpolic": 13159,
    "entle": 1739,
    ",_": 11461,
    "nantucket": 7805,
    "Ġhumanity": 6731,
    "myster": 16260,
    "Ġsuccour": 20433,
    "ended": 1834,
    "apply": 18758,
    "Ġdarting": 7757,
    "Ġviolin": 16427,
    "topp": 22564,
    "ch": 321,
    "Ġadvers": 4886,
    "aulets": 18622,
    "Ġformed": 3884,
    "Ġobligations": 12088,
    "Ġsinister": 8568,
    "Ġuttering": 16460,
    "connections": 14426,
    "Ġlunacy": 20026,
    "Ġorbs": 22090,
    "emotion": 21926,
    "Ġbespe": 19241,
    "queer": 10361,
    "Ġworm": 9161,
    "distinguished": 10525,
    "Ġshelter": 17007,
    "Ġpossessed": 5195,
    "S": 55,
    "Ġsuavely": 26522,
    "Ġtin": 15462,
    "Ġbearded": 15724,
    "Ġunostentatious": 22066,
    "ide": 721,
    "bott": 9104,
    "ĠĠĠĠĠĠĠĠĠĠĠĠĠĠĠĠĠĠĠĠĠĠĠĠĠĠĠĠĠĠ": 24442,
    "passed": 8026,
    "Ġwomanly": 23549,
    "Ġverbal": 19377,
    "shott": 11791,
    "mant": 20964,
    "Ġcliffs": 15965,
    "Ġfavourite": 5270,
    "dia": 2135,
    "Ġfiery": 6871,
    "Ġspray": 7895,
    "Ġhistorically": 19376,
    "Ġact": 691,
    "Ġobjecting": 18896,
    "prudently": 21033,
    "Ġdefiance": 11067,
    "Ġconnex": 10664,
    "volut": 1558,
    "octial": 20003,
    "Ġfirmness": 11236,
    "Ġscientific": 6858,
    "nest": 10112,
    "ilight": 12689,
    "Ġplumage": 17296,
    "storied": 18021,
    "sorrows": 17318,
    "tim": 13789,
    "cu": 10082,
    "Ġunrem": 18244,
    "Ġcomply": 8890,
    "ortunity": 4402,
    "Ġarrant": 23296,
    "Ġheave": 7600,
    "barrel": 17060,
    "Ġbliss": 12997,
    "Ġactions": 6278,
    "Ġweights": 896,
    "successively": 24779,
    "agony": 14067,
    "Ġconceits": 19388,
    "Ġapprehended": 26091,
    "blown": 25201,
    "Ġnodded": 11966,
    "pervading": 18953,
    "Ġcraw": 7282,
    "three": 5238,
    "swaying": 25910,
    "Ġrecommend": 7102,
    "Ġwondered": 11124,
    "Ġhandspikes": 12934,
    "Ġgrizz": 10350,
    "Ġkeep": 2354,
    "Ġprophesied": 26062,
    "Ġhen": 3501,
    "Ġdoze": 14175,
    "eat": 11481,
    "Ġabreast": 18394,
    "Ġhandwriting": 14317,
    "Ġfacts": 2289,
    "nephew": 26396,
    "python": 4691,
    "Ġprodu": 1205,
    "quaker": 15760,
    "nearly": 8680,
    "maintained": 25020,
    "abetical": 15740,
    "Ġwhitney": 11372,
    "Ġscar": 3213,
    "ity": 416,
    "paying": 25411,
    "Ġphil": 3386,
    "atious": 10150,
    "ize": 761,
    "Ġpursu": 3239,
    "Ġhack": 12752,
    "Ġpractice": 2867,
    "Ġfuture": 1125,
    "prev": 12863,
    "entering": 17976,
    "Ġrecital": 16140,
    "Ġunw": 8848,
    "etah": 12657,
    "Ġtake": 1576,
    "Ġpiazza": 26449,
    "Ġwides": 17788,
    "Ġcontrolled": 23250,
    "Ġenticements": 26034,
    "Ç": 136,
    "Ġunhappy": 5640,
    "sigma": 3002,
    "ad": 337,
    "gentleman": 7519,
    "Ġbecher": 18879,
    "Ġthinner": 24181,
    "vishnoo": 21118,
    "Ġalb": 14014,
    "Ġconsole": 8151,
    "Ġinexperienced": 26100,
    "whatsoever": 18495,
    "raged": 9210,
    "drew": 7334,
    "Ġpropos": 7062,
    "Ġfoes": 11949,
    "ashion": 3858,
    "Ġdearest": 5457,
    "shorn": 22445,
    "Ġmainmast": 9777,
    "Ġdenoted": 16563,
    "baboon": 25516,
    "Ġcourses": 10410,
    "itering": 17818,
    "â": 163,
    "Ġwhittingham": 26197,
    "ident": 3380,
    "ulpt": 10884,
    "ceived": 1964,
    "son": 2328,
    "idually": 21767,
    "itud": 2931,
    "Ġloving": 8176,
    "Ġmastiff": 23723,
    "Ġclasp": 9742,
    "ergy": 2359,
    "Â·": 21148,
    "Ġclimax": 25051,
    "writing": 7721,
    "Ġstru": 2169,
    "Ġconsolation": 6208,
    "owner": 18610,
    "manned": 18761,
    "Ġsteadfast": 8678,
    "answering": 26004,
    "Ġrear": 6535,
    "Ġburgled": 23655,
    "value": 18810,
    "Ġspas": 10921,
    "Ġrecognise": 12039,
    "sufficient": 6635,
    "rugged": 6849,
    "Ġtwo": 1043,
    "Ġteach": 8552,
    "Ġturbul": 23611,
    "Ĉ": 201,
    "Ġapproving": 18514,
    "Ġrascal": 11697,
    "ught": 2750,
    "Ġvisions": 12982,
    "Ġhumiliation": 16197,
    "take": 4574,
    "trade": 19635,
    "Ġabomination": 22276,
    "95": 17476,
    "sorting": 17003,
    "flight": 15350,
    "ies": 581,
    "Ġcredulous": 17143,
    "Ġconstruction": 9383,
    "mercenary": 26315,
    "mir": 20962,
    "Ġinnocence": 6477,
    "Ġemployments": 12099,
    "Ġoverflow": 10291,
    "grees": 20885,
    "engaged": 7452,
    "exercise": 17458,
    "Ġfaithfulness": 24445,
    "nial": 20983,
    "Ġallures": 22004,
    "Ġprograms": 7239,
    "whispered": 20032,
    "Ġde": 365,
    "Ġmatrices": 4969,
    "Ġsimilarly": 24307,
    "Ġsandwiched": 26609,
    "Ġchaplain": 19911,
    "Ġflip": 11911,
    "oices": 7348,
    "Ġallies": 18234,
    "Ġgazes": 24092,
    "spread": 8389,
    "ternatural": 12711,
    "luded": 4228,
    "Ġeight": 3901,
    "Ġshudderings": 25200,
    "fing": 13711,
    "Ġlung": 7167,
    "eye": 6224,
    "twenty": 6607,
    "Ġwoeful": 19618,
    "chat": 21684,
    "walked": 10569,
    "els": 1764,
    "Ġgrowled": 19282,
    "counters": 25397,
    "Ġartificial": 787,
    "Ġfitting": 21407,
    "geor": 15976,
    "Ġnoah": 10941,
    "unvarying": 21885,
    "Ġ56": 24323,
    "Ġboundary": 11221,
    "chant": 4258,
    "Ġunhinged": 26216,
    "elze": 21571,
    "indifference": 15980,
    "knight": 20939,
    "Ġoriginal": 6102,
    "blacksmith": 17000,
    "Ġmanufact": 22326,
    "Ġplucked": 15111,
    "zy": 2671,
    "specific": 10496,
    "Ġirr": 10420,
    "pot": 10116,
    "Ġlighting": 13080,
    "Ġutilize": 4797,
    "Ġclank": 15962,
    "Ġunsupplied": 22039,
    "Ġfleets": 23773,
    "Ġamendment": 26024,
    "Ġaffl": 14384,
    "Ķ": 247,
    "Ġdiscriminative": 4326,
    "Ġjewelled": 20182,
    "Ġtranque": 14203,
    "Ġmention": 2986,
    "Ġmargin": 11918,
    "Ġgrace": 5374,
    "sand": 21051,
    "Ġgrecian": 26296,
    "sw": 4740,
    "gerine": 22886,
    "Ġdefer": 18822,
    "daughters": 13464,
    "uding": 16146,
    "Ġsnar": 13198,
    "breckinridge": 24073,
    "iger": 8446,
    "Ġwoollen": 12100,
    "Ġstillness": 12989,
    "earthly": 24724,
    "Ġsang": 12531,
    "mentioned": 10622,
    "Ġdreaming": 11222,
    "Ġprospect": 4705,
    "salesman": 20670,
    "Ġacquired": 13040,
    "Ġlordly": 23743,
    "iag": 20915,
    "Ġbohem": 8526,
    "Ġcensus": 15094,
    "Ġcap": 2360,
    "Ġcigarette": 20655,
    "Ġthousands": 6748,
    "Ġenvied": 19283,
    "Ġdisconsol": 18557,
    "Ġwaistcoat": 12267,
    "bergen": 14324,
    "Ġkick": 5837,
    "Ġhath": 12624,
    "Ġcommonplace": 11095,
    "Ġexposure": 16097,
    "Ġmizzen": 20288,
    "Ġsporting": 16998,
    "Ġtrustees": 24106,
    "Ġsix": 3041,
    "mouthful": 25208,
    "metallic": 19879,
    "Ġplaything": 19237,
    "gers": 8376,
    "Ġ27": 8614,
    "rich": 11516,
    "school": 10053,
    "Ġknee": 7093,
    "Ġgracious": 8845,
    "Ġsaleve": 17389,
    "Ġrecomm": 4996,
    "Ġquietude": 19358,
    "Ġpuzzling": 14894,
    "Ġuninterrupted": 22042,
    "Ġresent": 6049,
    "flu": 9116,
    "house": 4079,
    "Ġear": 1423,
    "Ġvectors": 1771,
    "Ġpost": 4272,
    "Ġdoublo": 6079,
    "Ġacquiring": 2765,
    "Ġweig": 7619,
    "Ġquench": 22417,
    "ilty": 6394,
    "izon": 18133,
    "isite": 15560,
    "Ġbefallen": 12340,
    "compliments": 24810,
    "ge": 561,
    "Ġsuppressing": 23001,
    "Ġscraping": 13414,
    "Ġblasphemer": 26116,
    "offers": 16389,
    "miseries": 16756,
    "Ġporpoise": 7106,
    "revealed": 20414,
    "Ġmature": 17799,
    "twilight": 23700,
    "counter": 20277,
    "Ġwarmer": 19184,
    "Ġsweetest": 13244,
    "Ġputting": 5326,
    "shed": 8095,
    "fork": 20856,
    "Ġvigorous": 10565,
    "oak": 21002,
    "unwillingness": 25802,
    "Ġphrensy": 25124,
    "ouri": 21446,
    "Ġmarines": 16258,
    "piled": 21014,
    "'d": 12424,
    "oh": 1575,
    "growing": 13731,
    "Ġcunning": 6238,
    "islands": 21374,
    "levelled": 23646,
    "Ġlayers": 816,
    "Ġmilk": 6485,
    "Ġresponsiveness": 2898,
    "Ġken": 22189,
    "endent": 15920,
    "Ġbleak": 10557,
    "Ġhardships": 14449,
    "news": 23130,
    "Ġunconscious": 9545,
    "Ġdestructive": 23485,
    "worked": 19016,
    "bearing": 9763,
    "fin": 5209,
    "letter": 6201,
    "Ġjoyous": 14662,
    "Ġtypewriting": 16419,
    "Ġlightened": 23260,
    "ivering": 7699,
    "angular": 11720,
    "Ġorigin": 4121,
    "Ġvult": 12748,
    "Ġgambler": 26190,
    "Ġvoracity": 25986,
    "Ġsimon": 5172,
    "Ġpalace": 16689,
    "igns": 8447,
    "comfortable": 7320,
    "Ġeighty": 19474,
    "ancing": 1759,
    "Ġab": 528,
    "ree": 873,
    "Ġlivery": 15997,
    "shel": 11927,
    "Ġrevolve": 19728,
    "ales": 3316,
    "Ġcanopy": 18321,
    "Ġexpired": 18624,
    "Ġexchanging": 18131,
    "accompan": 11451,
    "Ġgranite": 22808,
    "Ġpenn": 11111,
    "Ġremonstrate": 22793,
    "ientiously": 21939,
    "Ġweb": 9238,
    "Ġlimp": 19179,
    "Ġsquee": 7929,
    "Ġringing": 13329,
    "ney": 2492,
    "Ġpail": 15604,
    "Ġengagements": 9976,
    "Ġpanting": 11600,
    "these": 3241,
    "Ġwe": 388,
    "Ġsupple": 22999,
    "Ġlighted": 7063,
    ".}": 20744,
    "commencement": 26347,
    "therefore": 5954,
    "Ġask": 1490,
    "gans": 11488,
    "Ġagreed": 7029,
    "Ġdistinctions": 18536,
    "Ġobliv": 16131,
    "Ġinconveniences": 24939,
    "Ġburly": 19249,
    "Ġdiscre": 2414,
    "Ġolive": 12561,
    "Ġcareless": 11118,
    "vine": 10733,
    "Ġbattering": 13899,
    "wickham": 5884,
    "Ġmoonshine": 19596,
    "igger": 21699,
    "Ġfirst": 937,
    "Ġsage": 17751,
    "Ġpuffs": 14974,
    "Ġhesitating": 16946,
    "travel": 24315,
    "Ġmonotonous": 13259,
    "Ġimmediately": 3366,
    "ley": 1817,
    "avering": 24793,
    "Ġjeopard": 9941,
    "billows": 20235,
    "suggested": 17297,
    "Ġunman": 12770,
    "Ġraise": 6166,
    "aphys": 15199,
    "Ġsurvive": 9066,
    "misfortunes": 16755,
    "Ġsick": 4692,
    "didn": 9005,
    "Ġworshippers": 25693,
    "...": 24548,
    "astonishment": 10028,
    "winter": 10739,
    "Ġdeliverer": 11947,
    "Ġnap": 8807,
    "Ġherb": 15854,
    "Ġsaying": 3243,
    "Ġfolded": 7768,
    "Ġfoe": 7681,
    "somers": 19366,
    "Ġsufficient": 2003,
    "handle": 11189,
    "Ġsatisfaction": 5667,
    "aim": 2755,
    "Ġornamented": 20360,
    "achalot": 15861,
    "omist": 21656,
    "Ġporing": 21465,
    "Ġstyled": 24671,
    "Ġcobbler": 25829,
    "Ġenrolled": 21935,
    "hero": 21203,
    "Ġdisinclined": 22527,
    "Ġcourse": 2132,
    "isters": 11917,
    "Ġactual": 3737,
    "Ġfreedom": 9081,
    "Ġ78": 19612,
    "Ġeyelids": 26107,
    "Ġprivate": 5345,
    "Ġseek": 4507,
    "Ġcalendar": 18877,
    "Ġinstantaneously": 23659,
    "Ġaltering": 18102,
    "grim": 19106,
    "Ġtrembled": 8701,
    "Ġperhaps": 1909,
    "Ġtear": 6722,
    "Ġunprovided": 18260,
    "sher": 5217,
    "Ġhelmeted": 19687,
    "Ġlifted": 6985,
    "aloons": 20009,
    "Ġmagazine": 23097,
    "mat": 2200,
    "Ġwoman": 2384,
    "reflect": 19864,
    "Ġrecol": 4032,
    "Ġchains": 8251,
    "Ñ": 146,
    "crier": 20819,
    "no": 886,
    "Ġsitting": 3606,
    "Ġconstantinople": 19836,
    "Ġpatent": 11959,
    "fear": 8513,
    "Ġbranches": 6776,
    "Ġhandy": 12932,
    "Ġgratifying": 13303,
    "ada": 14009,
    "spr": 7435,
    "Ġscho": 4435,
    "dropped": 12259,
    "izers": 18134,
    "Ġohio": 19128,
    "Ġliberality": 24376,
    "omited": 21659,
    "Ġarchy": 14345,
    "Ġintelligences": 12826,
    "Ġscanning": 18408,
    "Ġvigil": 9505,
    "Ġpraised": 19552,
    "Ġye": 899,
    "Ġyon": 9691,
    "Ġproof": 6153,
    "Ġvoc": 4450,
    "Ġfinancial": 23126,
    "ppered": 15788,
    "ishnoo": 10954,
    "Ġreports": 19084,
    "Ġtid": 8107,
    "Ġgash": 15668,
    "Ġunlabeled": 3800,
    "convinced": 10621,
    "Ġuse": 801,
    "atory": 6125,
    "Ġbutts": 15853,
    "Ġreligion": 11414,
    "Ġformer": 3322,
    "Ġstrength": 4259,
    "charge": 9446,
    "palms": 25262,
    "Ġaunt": 3175,
    "Ġrecesses": 17259,
    "passage": 11260,
    "Ġpeasants": 12329,
    "ht": 376,
    "Ġportion": 7493,
    "cut": 3122,
    "Ġfavourites": 16643,
    "umes": 10916,
    "civilized": 17074,
    "Ġdefray": 22939,
    "Ġjoyfully": 19344,
    "Ġtrump": 8196,
    "Ġviolence": 5963,
    "ounds": 4158,
    "Ġhermit": 15855,
    "Ġpapa": 10655,
    "Ġinterposed": 20617,
    "yourselves": 24958,
    "Ġlashed": 9197,
    "canallers": 22964,
    "Ġemblem": 20496,
    "Ġexecutioner": 12268,
    "Ġsk": 960,
    "aract": 17894,
    "Ġtho": 21512,
    "erred": 6376,
    "consolatory": 25306,
    "amet": 590,
    "Ġbulky": 13226,
    "Ġduring": 872,
    "Ġopenness": 18956,
    "coiled": 16485,
    "Ġcul": 17822,
    "quohog": 21856,
    "weather": 7229,
    "Ġkeys": 11993,
    "precipitance": 25867,
    "entire": 6824,
    "Ġsingle": 1695,
    "Ġunfl": 22016,
    "Ġtarred": 23608,
    "desolate": 25703,
    "itar": 15544,
    "rity": 13774,
    "Ġsubstitute": 16725,
    "Ġtook": 1854,
    "invested": 17116,
    "iction": 4268,
    "Ġalas": 5922,
    "Ġstepping": 9352,
    "Ġsemicircular": 26068,
    "Ġbarbary": 24215,
    "hedge": 22498,
    "Ġretrie": 10381,
    "Ġintrusion": 12761,
    "Ġlandlessness": 23378,
    "Ġconstable": 19068,
    "wants": 21129,
    "Ġmaterials": 11287,
    "brevi": 24072,
    "Ġgetting": 4068,
    "apt": 724,
    "Ġretreats": 16927,
    "burnt": 20078,
    "inconsiderable": 21190,
    "Ġberths": 20113,
    "shabb": 18488,
    "Ġgenus": 24428,
    "Ġplumber": 16082,
    "Ġlizard": 12650,
    "Ġarid": 22185,
    "pag": 11509,
    "handedness": 24920,
    "Ġnight": 1464,
    "Ġalbatross": 10870,
    "Ġoaths": 13522,
    "Ġpenalty": 1841,
    "Ġimper": 4500,
    "Ġcrystall": 20225,
    "meet": 11853,
    "expected": 5780,
    "Ġwer": 12548,
    "Ġwoe": 4792,
    "ster": 1960,
    "Ġshipwrecked": 25687,
    "umn": 5835,
    "Ġfrederick": 15584,
    "pistol": 17641,
    "Ġpreced": 6040,
    "Ġdipping": 15589,
    "Ġmassachusetts": 24019,
    "Ġchorus": 10945,
    "Ġbeards": 21749,
    "Ġthanked": 9457,
    "kitty": 10104,
    "Ġabsolut": 3910,
    "Ġlens": 8438,
    "Ġgasping": 17037,
    "Ġostlers": 25276,
    "Ġridges": 16730,
    "Ġice": 3605,
    "Ġrasc": 21972,
    "rem": 1520,
    "Ġbeck": 14007,
    "Ġparading": 23709,
    "Ġsadder": 24049,
    "Ġaccording": 5508,
    "Ġantichronical": 26608,
    "Ġouthouse": 22312,
    "Ġlent": 21545,
    "asily": 13944,
    "eng": 1486,
    "Ġexerting": 21830,
    "Ġbeats": 21750,
    "Ġjabbering": 22291,
    "unforeseen": 21886,
    "Ġork": 18284,
    "Ġspilled": 10923,
    "Ġnigh": 4877,
    "Ġsquint": 22836,
    "Ġchanged": 5242,
    "Ġfancying": 12109,
    "scissors": 20726,
    "Ġdial": 10809,
    "necessity": 13365,
    "Ġalien": 14016,
    "Ġdistrict": 10316,
    "Ġheightens": 24152,
    "answers": 22138,
    "vul": 15447,
    "Ġreply": 4513,
    "Ġemotion": 7691,
    "Ġgrasshopper": 24379,
    "B": 38,
    "vert": 15712,
    "culine": 19063,
    "Ġwould": 651,
    "agged": 9235,
    "Ġadvantages": 9809,
    "plainly": 11088,
    "Ġfree": 3375,
    "Ġintellect": 8170,
    "bloom": 24689,
    "Ġtennes": 23547,
    "Ġunrest": 11711,
    "Ġbestowing": 16970,
    "Ġcomprehensive": 15085,
    "Ġtranslations": 12049,
    "aunt": 8370,
    "inions": 8402,
    "Ġcam": 10160,
    "ments": 1401,
    "Ġrattle": 10898,
    "whaleman": 23434,
    "Ġstorm": 4300,
    "Ġheading": 8934,
    "Ġval": 951,
    "Ġsav": 3357,
    "Ġsumatra": 15284,
    "exertion": 16014,
    "dashed": 12452,
    "Ġtrusting": 24104,
    "Ġbrawn": 10480,
    "Ġeulogy": 26469,
    "Ġvacantly": 16814,
    "towing": 17688,
    "ellation": 12746,
    "Ġhauled": 11691,
    "arius": 14247,
    "jacket": 12289,
    "owl": 12679,
    "copper": 19187,
    "suitable": 18632,
    "Ġthird": 4187,
    "refusal": 24736,
    "Ġricher": 12755,
    "affections": 17355,
    "examined": 17265,
    "Ġwestmorland": 24389,
    "Ġfish": 2710,
    "Ġoverwhel": 8197,
    "called": 6292,
    "Ġtrains": 10946,
    "Ġthreading": 23400,
    "Ġcomely": 21841,
    "clopÃ¦": 13052,
    "Ġinflict": 15000,
    "stir": 12668,
    "Ġecc": 11626,
    "spirits": 8055,
    "regard": 7973,
    "Ġdrenched": 12599,
    "male": 15386,
    "Ġsprain": 18305,
    "Ġanxiety": 5408,
    "leg": 2811,
    "flying": 13719,
    "Ġhurled": 10428,
    "soul": 9139,
    "interval": 7991,
    "Ġanat": 8124,
    "muttered": 13757,
    "Ġentreaties": 9034,
    "Ġcle": 1508,
    "Ġchasing": 11751,
    "Ġadroop": 26001,
    "ked": 5615,
    "north": 14614,
    "Ġadroit": 26000,
    "âĢľ_": 5720,
    "Ġrealise": 16333,
    "Ġchopping": 24218,
    "Ġanimals": 8977,
    "Ġlounging": 10020,
    "lightened": 12062,
    "Ġsecret": 3720,
    "Ġpity": 4941,
    "extremely": 26263,
    "Ġneur": 813,
    "Ġdecayed": 22823,
    "Ġcommunity": 19009,
    "omp": 2470,
    "acher": 6867,
    "Ġcare": 1637,
    "zar": 11546,
    "Ġdisaster": 12883,
    "Ġgleams": 17308,
    "upset": 23018,
    "gained": 20880,
    "Ġrecent": 7436,
    "cast": 2928,
    "Ġaverted": 16253,
    "Ġglen": 18852,
    "ibles": 18784,
    "service": 15035,
    "Ġvi": 1952,
    "aration": 12603,
    "Ġgermans": 25784,
    "Ġchronicled": 25328,
    "Ġgrosvenor": 17416,
    "iably": 13736,
    "devilish": 17081,
    "Ġretained": 7173,
    "Ġmessage": 13521,
    "Ġfollowing": 4065,
    "Ġtypically": 1534,
    "Ġsignature": 16492,
    "Ġtrain": 515,
    "Ġidiotic": 25588,
    "ots": 3295,
    "Ġ106": 24413,
    "Ġmy": 412,
    "Ġappearing": 9839,
    "Ġominous": 12421,
    "considered": 9579,
    "Ġ150": 22824,
    "Ġcomple": 2839,
    "Ġmomentous": 16170,
    "gener": 3124,
    "liking": 22922,
    "Ġinsufferable": 13929,
    "Ġwretchedly": 19505,
    "Ġboomer": 20166,
    "Ġpersuasions": 16630,
    "ening": 3104,
    "Ġmout": 17798,
    "Ġindians": 14407,
    "Ġcredited": 25153,
    "Ġfow": 6133,
    "Ġtechn": 9364,
    "pretty": 10620,
    "Ġxxxix": 24970,
    "Ġcannib": 6036,
    "Ġdistinction": 8884,
    "Ġsurprising": 14596,
    "nonsense": 17614,
    "Ġmagnificent": 9840,
    "Ġkitchen": 8495,
    "Ġhilarious": 20297,
    "ship": 1391,
    "Ġaright": 11737,
    "Ġparticulars": 5754,
    "scythes": 26401,
    "Ġdiscours": 18718,
    "Ġheaving": 7601,
    "Ġunsatisfied": 22040,
    "ari": 674,
    "Ĵ": 245,
    "Ġdazed": 15593,
    "Ġheh": 21678,
    "Ġtheory": 5798,
    "Ġamelia": 26250,
    "Ġlocal": 1200,
    "Ġmagnified": 23201,
    "meat": 18678,
    "Ġsequ": 984,
    "Ġdoubt": 2224,
    "Ġ54": 24321,
    "atigable": 15268,
    "haustible": 16890,
    "rights": 23673,
    "Ġing": 5283,
    "Ġextant": 18690,
    "Ġquarters": 8619,
    "Ġcabaco": 13165,
    "Ġaven": 10758,
    "Ġwindlass": 7256,
    "stout": 21637,
    "cottagers": 20046,
    "Ġelementary": 24814,
    "Ġisa": 14023,
    "Ġbloodthirst": 23800,
    "Ġfruit": 12323,
    "affair": 14654,
    "Ġaccelerating": 1618,
    "Ġwish": 2099,
    "guarded": 13292,
    "Ġcumul": 4179,
    "rapid": 12666,
    "Ġtriumphantly": 11286,
    "uble": 21101,
    "seam": 10873,
    "maid": 8553,
    "Ġdav": 15587,
    "Ġstraps": 19309,
    "yet": 3753,
    "Ġboots": 5943,
    "Ġartfully": 22606,
    "Ġsaddest": 16661,
    "Ġcloudy": 19475,
    "Ġcollections": 22857,
    "Ġcabinets": 23860,
    "play": 5099,
    "Ġowing": 6005,
    "watson": 12240,
    "ivates": 18275,
    "typewritten": 26038,
    "Ġtim": 4576,
    "Ġpromote": 23191,
    "Ġsprained": 15881,
    "×": 152,
    "values": 4974,
    "atics": 15521,
    "sp": 893,
    "Ġpel": 17902,
    "asional": 17959,
    "brimming": 23576,
    "Ġmotionless": 8324,
    "Ġmade": 1049,
    "Ġsize": 1216,
    "tps": 11533,
    "Ġseated": 4539,
    "Ġpropont": 16348,
    "Ġeverlasting": 9335,
    "ribly": 8255,
    "Ġharry": 24570,
    "Ġfading": 15581,
    "Ġvaguely": 17364,
    "))": 1513,
    "Ġslit": 13053,
    "Ġdis": 694,
    "Ġeaglet": 19304,
    "Ġdispleased": 18555,
    "mysteries": 26050,
    "thence": 23398,
    "Ġfurniture": 6476,
    "ls": 1293,
    "Ġslaughtered": 26583,
    "dece": 11731,
    "Ġpreviously": 3920,
    "Ġgemini": 26468,
    "Ġentirely": 3434,
    "Ġirritated": 17241,
    "Ġpratt": 23217,
    "plentiful": 21960,
    "Ġforeseeing": 23449,
    "Ġinitialization": 1252,
    "30": 20753,
    "pip": 6654,
    "needle": 20312,
    "Ġcasualties": 25512,
    "terdam": 18129,
    "Ġdrags": 16940,
    "consumed": 25675,
    "Ġmalicious": 10556,
    "ruff": 15893,
    "Ġincred": 5646,
    "Ġsplend": 9896,
    "Ġwayward": 22869,
    "unwholesome": 26496,
    "Ġbrag": 23831,
    "leaving": 10790,
    "Ġinex": 6528,
    "Ġkindled": 19026,
    "Ġwife": 2588,
    "Ġinert": 15619,
    "Ġencouraging": 2262,
    "Ġhelmsman": 10503,
    "Ġcompared": 2229,
    "Ġmaternal": 11058,
    "Ġ85": 24459,
    "Ġdelay": 5748,
    "port": 10718,
    "Ġtrouble": 3690,
    "Ġlanc": 19763,
    "Ġinconven": 7587,
    "dining": 13703,
    "Ġsitu": 3494,
    "Ġroylott": 7305,
    "Ġdistrustful": 25054,
    "divers": 15340,
    "Ġanalogy": 25639,
    "Ġprefer": 6416,
    "Ġencouraged": 9353,
    "Ġbritannica": 24680,
    "Ġsilvery": 13091,
    "Ġdisappo": 4504,
    "oric": 21394,
    "Ġmaz": 15539,
    "etical": 13956,
    "Ġjokes": 18403,
    "Ġlover": 7193,
    "Ġspasmodic": 20396,
    "Ġproposed": 7460,
    "Ġentreating": 24206,
    "Ġheire": 18036,
    "Ġrig": 4224,
    "Ġjuggler": 26366,
    "open": 7025,
    "Ġbarrowful": 25595,
    "gracious": 11828,
    "acks": 11785,
    "long": 2913,
    "Ġworked": 6583,
    "Ġrevolved": 9982,
    "Ġkeeled": 18808,
    "Ġorganizations": 12311,
    "Ġbreak": 2868,
    "Ġtyphoons": 20233,
    "perquis": 22184,
    "Ġbennet": 1573,
    "Ġliar": 22406,
    "Ġgor": 9205,
    "Ġfifteen": 6947,
    "avern": 24792,
    "Ġri": 3396,
    "Ġindestruct": 22958,
    "Ġblueprints": 13169,
    "Ġforbe": 8457,
    "Ġbeget": 9224,
    "Ġpurchases": 24756,
    "Ġintercepted": 25826,
    "phur": 16149,
    "leaned": 21367,
    "rocket": 13942,
    "Ġexclusiveness": 23924,
    "Ġunt": 2294,
    "Ġinc": 703,
    "Ġassertions": 19945,
    "Ġbuild": 6474,
    "Ġmeridians": 17354,
    "Ġlantern": 7116,
    "Ġquarrelling": 13497,
    "Ġavoid": 5199,
    "Ġseparating": 16684,
    "Ġlabourers": 23329,
    "she": 1397,
    "Ġrevelry": 15134,
    "man": 1053,
    "formity": 10277,
    "iah": 14415,
    "Ġ94": 17716,
    "sea": 4762,
    "thorough": 21983,
    "Ġitalian": 12407,
    "tubs": 15128,
    "Ġban": 7156,
    "Ġtapers": 11550,
    "cheeked": 19339,
    "Ġagric": 22513,
    "Ġvalid": 1666,
    "ively": 1281,
    "put": 414,
    "Ġextraction": 11251,
    "Ġretreated": 13431,
    "forgetting": 25485,
    "Ġtendency": 11328,
    "been": 3344,
    "Ġtolerable": 6949,
    "Ġoffspring": 16143,
    "scorn": 22991,
    "Ġimposed": 14215,
    "Ġmarvellous": 7539,
    "stains": 11634,
    "Ġhoky": 17926,
    "}": 97,
    "Ġsubsc": 22787,
    "Ġexig": 21824,
    "Ġvoyager": 16512,
    "Ġanomaly": 25636,
    "Ġentra": 18695,
    "ool": 17617,
    "Ġamidst": 9492,
    "Ġpassed": 2010,
    "Ġbeautiful": 3672,
    "Ġrumbling": 18211,
    "peter": 24297,
    "ĠâĢĶâĢĶ": 25757,
    "rear": 21231,
    "Ġafforded": 8029,
    "ice": 591,
    "urities": 18049,
    "llable": 6878,
    "thoroughly": 26507,
    "Ġtied": 7357,
    "Ġmajority": 13290,
    "Ġloungers": 24862,
    "Ġbent": 5149,
    "spoutings": 25003,
    "dr": 6221,
    "Ġvillain": 8635,
    "Ġameric": 3853,
    "Ġsteak": 9827,
    "Ġphaet": 16316,
    "Ġbiscuit": 12585,
    "hearted": 6970,
    "Ġfondness": 16779,
    "Ġdisinclination": 22534,
    "steak": 14706,
    "itable": 5437,
    "Ġannot": 15599,
    "Ġdevious": 22718,
    "Ġvelvets": 25393,
    "departed": 24794,
    "Ġtawny": 20480,
    "Ġhieroglyphics": 17301,
    "nets": 9131,
    "Ġmason": 10156,
    "homage": 25616,
    "Ġtroop": 24897,
    "Ġclasses": 4057,
    "Ġprovoked": 13323,
    "sounded": 12263,
    "Ġfretfulness": 25448,
    "Ġdam": 2217,
    "Ġunclad": 22050,
    "Ġfears": 5729,
    "Ġoccupations": 9455,
    "recklessly": 25269,
    "aft": 9582,
    "linen": 25257,
    "leo": 21362,
    "Ġuncivil": 11154,
    "shop": 14235,
    "Ġadvisable": 11441,
    "Ġterrible": 5327,
    "diss": 17522,
    "situ": 9620,
    "d": 72,
    "mem": 10708,
    "Ġfagged": 17882,
    "irms": 18168,
    "assed": 6421,
    "springing": 24889,
    "bout": 20772,
    "Ġmove": 5107,
    "Ġtropical": 17065,
    "Ġcogent": 14274,
    "Ġbeliefs": 24581,
    "Ġtongue": 6347,
    "countenance": 6925,
    "Ġbrad": 8785,
    "Ġoccurred": 4461,
    "uneasiness": 23685,
    "Ġadvent": 4355,
    "ena": 11566,
    "Ġslabs": 13057,
    "Ġmildness": 9942,
    "involuntarily": 20413,
    "belief": 13279,
    "girl": 12315,
    "Ġarranging": 11173,
    "Ġhaught": 10251,
    "Ġresolution": 5500,
    "entiating": 3438,
    "lower": 8879,
    "po": 1137,
    "iations": 11493,
    "yrin": 12518,
    "Ġeffects": 7236,
    "Ġcarry": 4778,
    "Ġteeth": 4168,
    "Ġclothed": 19605,
    "Ġabsence": 4893,
    "Ġseasoned": 24404,
    "hardly": 6491,
    "Ġhelm": 5275,
    "Ġweedy": 15790,
    "seems": 10874,
    "Ġfren": 10804,
    "uc": 1874,
    "Ġhedgehog": 10643,
    "Ġstem": 15716,
    "Ġsaxe": 13626,
    "Ġsuperiority": 14615,
    "antucket": 2646,
    "venant": 22626,
    "Ġxxxi": 24968,
    "Ġbenefits": 4286,
    "Ġbuff": 9171,
    "Ġlately": 6387,
    "asc": 6386,
    "Ġpeak": 16124,
    "Ġrevolutions": 23839,
    "del": 4078,
    "willingness": 24755,
    "Ġcandelabra": 26601,
    "Ġventilator": 8713,
    "cloudless": 20331,
    "quee": 4131,
    "Ġflukes": 5266,
    "goin": 23401,
    "Ġseparate": 5778,
    "Ġbefell": 14008,
    "aware": 16293,
    "Ġchuckled": 10646,
    "ca": 20792,
    "Ġlou": 6822,
    "ario": 14246,
    "Ġchildren": 3767,
    "Ġhipp": 21490,
    "Ġbreathing": 9443,
    "gust": 6360,
    "Ġstruggles": 16577,
    "imming": 9685,
    "Ġdeclaration": 16635,
    "scores": 22992,
    "Ġhoard": 23351,
    "Ġcannot": 1668,
    "Ġsuspecting": 14908,
    "Ġtranqu": 4603,
    "overfitting": 13098,
    "Ġdeclined": 9919,
    "drovand": 24760,
    "Ġcomfits": 21845,
    "icing": 9199,
    "Ġmamma": 10046,
    "Ġexasper": 8466,
    "Ġmasoned": 20250,
    "Ġallude": 12767,
    "Ġbidding": 9535,
    "Ġpast": 2100,
    "Ġfisherman": 12072,
    "Ġplaced": 3444,
    "Ġgrammar": 1061,
    "experienced": 15119,
    "iber": 6506,
    "Ġhabits": 6926,
    "because": 4923,
    "constit": 24605,
    "Ġsuspicions": 9477,
    "Ġced": 10783,
    "Ġ1894": 5196,
    "oul": 4698,
    "Ġcontext": 1669,
    "Ġcomplain": 6685,
    "Ġspinning": 15051,
    "ersman": 11699,
    "cocks": 23559,
    "ateg": 1380,
    "belong": 12119,
    "ó": 180,
    "resides": 23670,
    "Ġjavelins": 26105,
    "Ġdisquis": 22525,
    "Ġwildly": 9412,
    "Ġpreprocessing": 26535,
    "Ġpuppy": 12402,
    "alous": 7372,
    "Ġyoung": 1503,
    "county": 25396,
    "Ġseap": 15812,
    "prepare": 20211,
    "Ġshutting": 14757,
    "Ġankles": 17899,
    "Ġsnowy": 9016,
    "Ġinferences": 17934,
    "attest": 23117,
    "including": 23589,
    "rifle": 21045,
    "Ġbran": 5250,
    "discrimin": 19607,
    "parable": 16400,
    "announce": 24559,
    "ppings": 18176,
    "poison": 14390,
    "Ġasia": 11680,
    "Ġgu": 1328,
    "Ġwheel": 9716,
    "Ġhal": 1362,
    "Ġdriven": 6198,
    "Ġfatigue": 8697,
    "Ġquiver": 16000,
    "Ġlaw": 3655,
    "Ġvigour": 24461,
    "Ġluxury": 20130,
    "Ġattempts": 10489,
    "Ġhardware": 4904,
    "Ġperdition": 15990,
    "iarity": 8743,
    "Ġcoloss": 11045,
    "Ġmitigating": 1617,
    "Ġoutrage": 15956,
    "Ġpal": 4044,
    "shiver": 16019,
    "Ġgordon": 26466,
    "loud": 11499,
    "message": 17370,
    "Ġdanced": 7843,
    "roylott": 20025,
    "irably": 13293,
    "paused": 17372,
    "Ġexpect": 2305,
    "ratulations": 20124,
    "Ġsolution": 9803,
    "Ġcorpulence": 24505,
    "side": 2301,
    "Ġarticulated": 24432,
    "Ġhose": 12623,
    "ulsive": 10232,
    "mitting": 17601,
    "ulation": 5458,
    "Ġgrease": 26189,
    "mpt": 6653,
    "Ġstrateg": 1382,
    "Ġbarbar": 6935,
    "qual": 8157,
    "time": 3145,
    "chairs": 21691,
    "Ġhoot": 19076,
    "Ġbrilliantly": 25120,
    "Ġcrisis": 13124,
    "Ġprairies": 20019,
    "ulged": 12726,
    "Ġrep": 1937,
    "Ġmaledictions": 26427,
    "eprints": 12787,
    "worth": 8626,
    "footsteps": 25199,
    "Ġire": 12665,
    "Ġclink": 22343,
    "Ġbrushed": 15568,
    "Ġundet": 16703,
    "bler": 11471,
    "alizing": 17939,
    "heart": 4524,
    "Ġreserve": 9969,
    "Ġpretension": 23763,
    "Ġnour": 10829,
    "Ġbending": 12581,
    "Ġ7": 4744,
    "sheltered": 25585,
    "buoy": 7761,
    "Ġforeshad": 23451,
    "white": 4600,
    "Ġstren": 15717,
    "Ġcoldness": 23758,
    "triumph": 15439,
    "unfort": 21874,
    "Ġemperors": 15157,
    "Ġmainz": 22652,
    "ells": 5303,
    "Ġsucking": 12782,
    "Ġbabel": 24425,
    "Ġmomentarily": 22811,
    "ds": 4687,
    "steelkilt": 10045,
    "Ġendeavours": 8617,
    "Ġmab": 12556,
    "Ġsqueezed": 20034,
    "cked": 2761,
    "ksome": 10103,
    "Ġhindrance": 25220,
    "Ġparr": 22117,
    "Ġwalled": 15533,
    "isely": 4487,
    "flame": 16636,
    "Ġcorp": 5573,
    "lacing": 17589,
    "Ġbeau": 9223,
    "berg": 11855,
    "¡": 99,
    "Ġlogits": 3450,
    "Ġcountrymen": 23594,
    "Ġnapoleon": 20556,
    "ecess": 17531,
    "Ġwest": 5219,
    "undoubtedly": 13308,
    "Ġratt": 7882,
    "problem": 25244,
    "just": 1701,
    "Ġnibbling": 17383,
    "source": 11524,
    "Ġnourishment": 15190,
    "Ġoppose": 16519,
    "indulged": 22373,
    "Ġentrances": 25833,
    "Ġslackened": 15124,
    "Ġvillains": 14747,
    "Ġenvelope": 7319,
    "Ġbery": 13896,
    "Ġnatural": 1150,
    "Ġconfl": 11136,
    "Ġcomrade": 12280,
    "etween": 775,
    "Ġtorrid": 25032,
    "rove": 21531,
    "%": 9,
    "ic": 304,
    "viating": 14578,
    "Ġfuel": 13902,
    "warp": 17705,
    "Ġrestrain": 8963,
    "Ġunansw": 22054,
    "Ġproves": 14036,
    "Ġremot": 8543,
    "uttle": 6247,
    "Ġperch": 10297,
    "Ġsoothed": 10027,
    "Ġdexter": 9699,
    "Ġmeridian": 25714,
    "Ġpossible": 2585,
    "Ġburtons": 19252,
    "isive": 10792,
    "Ġtheme": 16021,
    "Ġhorseman": 19606,
    "Ġtoilette": 20491,
    "proves": 23392,
    "Ġeddying": 16434,
    "Ġmisunderstand": 18706,
    "omed": 13977,
    "Ġembraced": 10004,
    "meth": 11501,
    "Ġsulkily": 25882,
    "Ġasc": 4764,
    "Ġpolitic": 23617,
    "Ġmonster": 3793,
    "ume": 4834,
    "inished": 17733,
    "Ġstain": 18064,
    "ous": 477,
    "owners": 16084,
    "aus": 1498,
    "Ġott": 13864,
    "Ġcovered": 5171,
    "Ġvalidation": 2355,
    "quickness": 19850,
    "actually": 14293,
    "Ġsales": 12803,
    "Ġwearing": 12735,
    "Ġorganisation": 23582,
    "aking": 976,
    "Ġbible": 9317,
    "Ġsparsity": 4208,
    "inging": 5907,
    "Ġwives": 12551,
    "Ġbulge": 23855,
    "Ġdrawn": 4275,
    "Ġident": 2240,
    "Ġinverted": 12633,
    "Ġbasin": 19847,
    "Ġsub": 949,
    "Ġpreservative": 24630,
    "Ġdams": 16455,
    "r": 86,
    "their": 2542,
    "willingly": 11979,
    "Ġsuperb": 16444,
    "lessness": 5317,
    "Ġentropy": 2032,
    "driven": 19770,
    "Ġwoven": 9924,
    "outh": 2688,
    "Ġrecommendation": 17024,
    "Ġdespaired": 14667,
    "Ġcramped": 23529,
    "japan": 15372,
    "Ġexchanged": 10877,
    "Ġrush": 5925,
    "Ġsparkling": 11355,
    "Ġcopying": 17068,
    "Ġsidel": 9634,
    "Ġinser": 6820,
    "Ġod": 4438,
    "beds": 16585,
    "Ġbacked": 12922,
    "Ġcasks": 7522,
    "Ĭ": 237,
    "honor": 19899,
    "Ġlurch": 21553,
    "Ġovertake": 15970,
    "Ġcivility": 4787,
    "brink": 23575,
    "Ġrecourse": 22739,
    "saf": 11523,
    "gain": 8736,
    "inhabited": 13618,
    "aged": 2608,
    "Ġagreement": 18543,
    "Ġmaritime": 23036,
    "craft": 12243,
    "Ġtattoo": 7359,
    "Ġpa": 2989,
    "Ġtallow": 14775,
    "Ġsluggish": 25890,
    "i": 77,
    "Ġpigs": 19746,
    "Ġinterests": 14567,
    "Ġfind": 1457,
    "liv": 9606,
    "Ġensue": 18190,
    "Ġfi": 933,
    "Ġcassock": 20485,
    "Ġmediterranean": 12312,
    "tacit": 21097,
    "oons": 12495,
    "Ġslavery": 16305,
    "Ġappeal": 16313,
    "Ġrussian": 14348,
    "walk": 5523,
    "weaving": 18666,
    "Ġharpoone": 2912,
    "kitchen": 17584,
    "ase": 1159,
    "Ġfitly": 23996,
    "cats": 17511,
    "rail": 10203,
    "uneven": 23683,
    "Ġcategories": 4476,
    "Ġdense": 8123,
    "Ġspecimens": 18858,
    "Ġpainful": 6462,
    "Ġfireboard": 23531,
    "Ġsch": 13833,
    "Ġtimely": 19593,
    "Ġbroadway": 23981,
    "onings": 21251,
    "dutch": 17217,
    "Ġsorry": 4210,
    "Ġgpus": 3732,
    "Ġscenarios": 26541,
    "Ġantip": 24176,
    "Ġsmack": 9298,
    "Ġloops": 8851,
    "Ġlimit": 10442,
    "Ġ166": 25004,
    "politeness": 16905,
    "Ġclaw": 22345,
    "Ġreddening": 25970,
    "Ġafar": 14290,
    "Ġfrayed": 23299,
    "officer": 17053,
    "romeda": 17261,
    "Ġmustering": 18662,
    "arying": 9799,
    "Ġwhiting": 10858,
    "Ġshiny": 14104,
    "Ġplight": 14279,
    "ĠĠĠĠĠĠĠĠĠĠĠĠĠĠĠĠĠĠĠĠĠĠĠĠĠĠĠĠĠĠĠ": 19699,
    "omics": 21661,
    "Ġplanisp": 24055,
    "hello": 13361,
    "shriek": 20518,
    "Ġpacing": 8426,
    "Ġsemantics": 2895,
    "Ġtry": 3132,
    "í": 174,
    "Ġmanage": 7641,
    "Ġ116": 24439,
    "finger": 10092,
    "Ġabominable": 12319,
    "upwards": 18865,
    "upper": 11537,
    "lucas": 15149,
    "Ġstuff": 5717,
    "Ġconfiding": 19037,
    "Ġbackwards": 12923,
    "Ġrestless": 10412,
    "lynes": 15701,
    "lun": 20945,
    "manifested": 20524,
    "ieving": 7032,
    "Ġinquired": 7486,
    "jeroboam": 25619,
    "nant": 17608,
    "Ġrelates": 12976,
    "disgu": 19153,
    "Ġoozy": 21325,
    "Ġqueer": 4477,
    "Ġhome": 2029,
    "Ġpope": 11599,
    "Ġcreditor": 24289,
    "Ġchecked": 9374,
    "Ġarrangement": 2659,
    "ientific": 6547,
    "Ġfate": 4753,
    "Ġcolleague": 17158,
    "Ġloveliest": 20260,
    "Ġinvolve": 11042,
    "fixedly": 24929,
    "),": 1347,
    "Ġcriminals": 19921,
    "draughts": 20386,
    "Ġloads": 22112,
    "Ġharbour": 19978,
    "Ġadmirably": 16480,
    "ighbour": 3389,
    "Ġloft": 5642,
    "Ġinspiring": 19112,
    "Ġbolted": 12241,
    "Ġthanking": 18603,
    "Ġfemin": 13434,
    "Ġmace": 21308,
    "running": 6797,
    "Ġunlim": 18253,
    "Ġtried": 3648,
    "Ġdefence": 11066,
    "Ġexpressions": 7706,
    "erm": 789,
    "Ġhigher": 1821,
    "Ġtantalizing": 20412,
    "berries": 22717,
    "Ġbricks": 13560,
    "Ġnarrower": 24353,
    "illating": 22105,
    "Ġstaid": 21733,
    "gun": 10095,
    "Ġinn": 4588,
    "Ġdumbly": 24987,
    "Ġalche": 21781,
    "pleasanter": 24044,
    "Ġpell": 21454,
    "desper": 13066,
    "Ġupbraiding": 26226,
    "fal": 17535,
    "impregnable": 26480,
    "Ġimpressed": 8199,
    "Ġfurrow": 22813,
    "Ġunkindness": 22038,
    "oke": 1858,
    "Ġtravell": 5575,
    "Ġpaw": 12616,
    "Ġgriff": 22806,
    "sell": 13779,
    "Ġindia": 10369,
    "whal": 10939,
    "Ġpersonages": 23539,
    "Ġswiftly": 5670,
    "Ġfreckled": 18960,
    "laden": 14927,
    "Ġcoleman": 22584,
    "warmest": 25027,
    "ductive": 23933,
    "rers": 14716,
    "Ġwrites": 23196,
    "Ġexped": 7651,
    "salis": 25147,
    "Ġascertaining": 17202,
    "Á": 130,
    "inordinate": 21193,
    "utely": 8132,
    "Ġwatson": 3598,
    "Ġvote": 21945,
    "Ġexhibit": 14954,
    "Ġbarbs": 10530,
    "ood": 962,
    "ez": 5683,
    "Ġspire": 18306,
    "Ġfade": 21406,
    "_,âĢĻâĢĿ": 20399,
    "Ġnephew": 6404,
    "_.âĢĿ": 5886,
    "occur": 19574,
    "Ġmanipulation": 10657,
    "Ġyoungest": 7954,
    "angry": 18294,
    "Ġtransformed": 22595,
    "uracy": 1079,
    "Ġthought": 1090,
    "ushed": 2971,
    "Ġsallied": 12533,
    "ĭ": 238,
    "gno": 13725,
    "Ġglittering": 10051,
    "escape": 16010,
    "Ġviv": 6156,
    "grie": 12467,
    "will": 1968,
    "Ġconting": 18471,
    "Ġsimply": 7218,
    "Ġroofs": 16984,
    "Ġanswerable": 23469,
    "D": 40,
    "wins": 21128,
    "Ġscot": 5643,
    "Ġakin": 15494,
    "Ġmoderate": 10937,
    "Ġ1825": 25719,
    "Ġplutarch": 22602,
    "Ġblack": 2034,
    "Ġunmethodically": 22067,
    "Ġlobster": 11388,
    "Ġabandonment": 25603,
    "Ġsoftware": 18918,
    "Ġcanvas": 7784,
    "Ġbride": 6291,
    "Ġpeaks": 16126,
    "Ġtrifle": 10600,
    "sake": 13781,
    "rative": 17651,
    "Ġdames": 23472,
    "Ġselfish": 7272,
    "Ġeyeing": 6460,
    "Ġthorough": 6245,
    "Ġinterior": 8894,
    "Ġproducts": 5198,
    "Ġpowder": 11274,
    "Ġdirect": 1471,
    "Ġenhance": 2831,
    "Ġdairy": 20685,
    "belonged": 25597,
    "Ġharpooneers": 4731,
    "anum": 17835,
    "remark": 7261,
    "Ġfiled": 15577,
    "Ġentry": 11025,
    "Ġavail": 11225,
    "painter": 24896,
    "Ġemptied": 24346,
    "Ġdeject": 10880,
    "Ġbrilliancy": 20105,
    "artificial": 989,
    "Ġveins": 8931,
    "ber": 883,
    "gaining": 20122,
    "Ġunusually": 15844,
    "phia": 22769,
    "chel": 11206,
    "Ġdamp": 8264,
    "Ġmock": 3691,
    "Ġmiz": 10776,
    "Ġpervers": 11780,
    "Ġobjective": 3765,
    "Ġengineering": 3024,
    "--------": 14778,
    "Ġstrata": 26027,
    "sed": 4177,
    "Ġvineyards": 25106,
    "Ġrattled": 15066,
    "outward": 22158,
    "captains": 12124,
    "Ġhedge": 8364,
    "footman": 17161,
    "ructive": 18531,
    "danish": 20832,
    "analy": 17838,
    "od": 351,
    "Ġmould": 6519,
    "Ġlashings": 25097,
    "widows": 25344,
    "Ġpumping": 25643,
    "Ġrepast": 16409,
    "Ġedition": 16433,
    "sequ": 2398,
    "Ġconsisting": 8970,
    "Ġcommit": 18655,
    "sterdam": 19090,
    "Ġunderstanding": 1800,
    "Ġboldly": 9499,
    "neural": 3062,
    "reluct": 26163,
    "Ġnavel": 24575,
    "Ġdenomin": 12064,
    "Ġinitial": 824,
    "Ġsermons": 20193,
    "vering": 15713,
    "insulting": 26055,
    "Ġwillingly": 8883,
    "Ġost": 9648,
    "Ġhunsford": 6301,
    "lingly": 9771,
    "sufficiently": 14979,
    "bedstead": 23847,
    "Ġroad": 3881,
    "tenham": 16319,
    "Ġan": 286,
    "uded": 6286,
    "Ġcorrect": 2430,
    "Ġforest": 9869,
    "elevating": 20404,
    "Ġconveniently": 20077,
    "Ġdetection": 3325,
    "odious": 21810,
    "Ġdeveloped": 16339,
    "Ġhedgehogs": 25394,
    "Ġdimin": 3872,
    "ourable": 4967,
    "trained": 4239,
    "Ġdamn": 11157,
    "Ġimpud": 18445,
    "Ġweep": 7620,
    "Ġgood": 1000,
    "robotics": 11305,
    "ius": 5789,
    "see": 3044,
    "extensive": 18700,
    "Ġmerciless": 25246,
    "_": 67,
    "Ġcapering": 21352,
    "Ġconstant": 6309,
    "Ġrug": 16155,
    "Ġleaps": 14006,
    "string": 15682,
    "Ġferocious": 17417,
    "osh": 18388,
    "Ġtease": 18799,
    "Ġthreshold": 2806,
    "Ġli": 601,
    "Ġpersons": 6182,
    "izard": 10878,
    "Ġweapons": 10592,
    "Ġtophet": 23572,
    "Ġheroes": 10575,
    "Ġdomineer": 23635,
    "ead": 2600,
    "inities": 21184,
    "Ġcombines": 1153,
    "Ġfit": 3684,
    "pacific": 17640,
    "Ġ128": 24472,
    "Ġdavis": 25952,
    "successfully": 14989,
    "resh": 8404,
    "Ġsolitudes": 22884,
    "quid": 18146,
    "Ġcrosswise": 18886,
    "Ġshar": 9248,
    "Ġvacuous": 24343,
    "sor": 7352,
    "Ġexactness": 23603,
    "Ġsher": 3763,
    "Ĳ": 243,
    "Ġgaped": 13965,
    "Ġproperties": 3117,
    "Ġinterruptions": 24185,
    "Ġconsequence": 5541,
    "Ġlowering": 7987,
    "Ġpersistence": 3202,
    "Ġgeneric": 18448,
    "Ġcorpse": 6638,
    "Ġcheek": 8577,
    "Ġhail": 7400,
    "idity": 8829,
    "inde": 17730,
    "Ġskrimshander": 22797,
    "Ġunfav": 14786,
    "philosophers": 25252,
    "Ġwide": 4110,
    "enial": 17779,
    "wam": 10134,
    "Ġunhappily": 18262,
    "ids": 21761,
    "Ġderivative": 2999,
    "Ġetern": 7085,
    "Ġpotential": 3620,
    "Ġinclined": 6622,
    "Ġbeyond": 2457,
    "Ġniagara": 26457,
    "forward": 2186,
    "Ġballarat": 14717,
    "Ġcomparable": 24277,
    "Ġpeeping": 16125,
    "Ġtribe": 10750,
    "Ġcrippled": 25278,
    "Ġilleg": 21621,
    "acey": 7650,
    "Ġquitted": 5311,
    "Ġsinks": 19548,
    "mother": 5480,
    "rably": 21631,
    "Ġembellished": 25848,
    "Ġnineveh": 13387,
    "infor": 3069,
    "Ġwhistles": 24625,
    "akness": 14193,
    "Ġwelfare": 12555,
    "Ġbatt": 13897,
    "kins": 7345,
    "Ġdiscompose": 25579,
    "deception": 22143,
    "single": 10125,
    "Ġgrandeur": 8627,
    "Ġplat": 8520,
    "Ġaccompan": 5513,
    "angels": 22104,
    "accessible": 13637,
    "brothers": 17023,
    "Ġissued": 10598,
    "icil": 17971,
    "Ġsust": 7006,
    "Ġbur": 2698,
    "Ġpan": 5082,
    "Ġsocially": 22085,
    "soldiers": 25911,
    "rages": 15678,
    "Ġbirth": 6524,
    "Ġconveyed": 8335,
    "Ġdrawling": 19435,
    "Ġeleven": 9388,
    "Ġforwards": 12699,
    "even": 3837,
    "dirty": 20833,
    "onet": 12541,
    "Ġ61": 24363,
    "complacency": 19913,
    "ilst": 8144,
    "Ġmermaid": 17813,
    "achus": 18283,
    "Ġconference": 15744,
    "č": 206,
    "followed": 8339,
    "Ġremoving": 12113,
    "Ġvex": 5949,
    "Ġrogue": 22401,
    "Ġought": 3420,
    "inctions": 17731,
    "Ġdevouring": 11856,
    "ocity": 8278,
    "Ġvindictiveness": 25738,
    "training": 2519,
    "warrior": 24798,
    "Ġdisconsolate": 20718,
    "Ġdecay": 1012,
    "Ġwhisker": 23932,
    "goldsmith": 20146,
    "Ġpassionately": 16763,
    "Ġghastly": 10058,
    "Ġsunken": 14492,
    "Ġgunwales": 12237,
    "Ġimprec": 14218,
    "slipped": 25529,
    "Ġproportionate": 17042,
    "gates": 20871,
    "Ġ49": 24080,
    "adr": 6994,
    "brow": 15313,
    "venth": 9293,
    "âĢĶâĢĻâĢĿ": 20062,
    "?âĢĶ": 3467,
    "gpt": 5355,
    "Ġcompress": 21842,
    "Ġsummary": 19401,
    "zwilliam": 5074,
    "miles": 10711,
    "ins": 1377,
    "Ġsensitivity": 3065,
    "marked": 9047,
    "pans": 13768,
    "les": 1015,
    "meetings": 20376,
    "Ġtangle": 25760,
    "Ġtie": 10749,
    "confirmed": 19644,
    "baden": 25615,
    "Ġprosecut": 9696,
    "Ġpips": 9847,
    ",âĢĶâĢľ": 10068,
    "olerable": 7182,
    "ics": 3256,
    "Ġwine": 6810,
    "le": 279,
    "thur": 7188,
    "Ġdebt": 12164,
    "Ġcomputations": 16002,
    "Ġunreserved": 19395,
    "Ġbuy": 8300,
    "Ġsupplied": 8942,
    "perfectly": 9084,
    "Ġbrief": 6976,
    "Ġhilariously": 25450,
    "particip": 23615,
    "Ġomit": 17815,
    "Ġweigh": 10893,
    "Ġcash": 9651,
    "copyright": 5277,
    "Ġforemost": 12001,
    "Ġmantle": 25274,
    "Ġnavigators": 19762,
    "Ġtiny": 11551,
    "Ġtrap": 7673,
    "atically": 2499,
    "Ġmalignant": 14876,
    "Ġquebec": 24131,
    "feed": 9291,
    "Ġcomplaints": 12261,
    "Ġchronicle": 20227,
    "ourage": 2450,
    "content": 11196,
    "Ġpewter": 17184,
    "Ġiceland": 15144,
    "iest": 4039,
    "Ġaudacious": 13458,
    "Ġthinks": 6169,
    "Ġprocuring": 16867,
    "Ġtempt": 5564,
    "Ġaye": 3353,
    "elsewhere": 19867,
    "Ġundeceive": 25552,
    "presently": 9805,
    "Ġgesture": 11398,
    "Ġsluggishly": 25891,
    "cavity": 26126,
    "Ġsake": 4094,
    "Ġextremely": 2670,
    "Ġpredefined": 20716,
    "preserver": 20212,
    "mature": 20966,
    "it": 276,
    "Ġamel": 18509,
    "Ġfict": 21403,
    "l": 80,
    "Ġsevered": 18203,
    "Ġdecomposes": 5506,
    "waist": 13416,
    "Ġloggerhead": 13655,
    "Ġextreme": 2516,
    "Ġsyn": 15906,
    "paralleled": 14519,
    "Ġcorresponding": 13436,
    "orts": 2556,
    "Ġinvestment": 24335,
    "Ġovercome": 6044,
    "per": 480,
    "erate": 7149,
    "Ġmatrix": 1606,
    "measureless": 20234,
    "Ġelevated": 7318,
    "Ġpoll": 12026,
    "Ġtinted": 13820,
    "chain": 18039,
    "Ġpetty": 19594,
    "Ġdisapprobation": 16056,
    "Ġunfathom": 14787,
    "Ġdagger": 21436,
    "cop": 20800,
    "Ġinquis": 19303,
    "Ġreceptive": 1560,
    "Ġtossing": 8126,
    "Ġempt": 5051,
    "gan": 2199,
    "declined": 25174,
    "Ġprompted": 23814,
    "mastod": 23971,
    "Ġfiltering": 23923,
    "?_": 8070,
    "Ġusually": 6263,
    "Ġprettier": 23764,
    "Ġpugnacious": 26450,
    "Ġmethods": 3158,
    "osite": 4892,
    "threshold": 21985,
    "Ġdelirium": 10404,
    "Ġdrug": 11409,
    "ctive": 11621,
    "ruding": 9722,
    "Ġlog": 1679,
    "Ġklan": 23661,
    "Ġfathom": 17047,
    "Ġheeded": 13401,
    "Ġaz": 9628,
    "ular": 714,
    "Ġ55": 24322,
    "Ġloathsome": 13526,
    "Ġgold": 3278,
    "utting": 17984,
    "Ġscream": 5935,
    "Ġimpious": 15985,
    "Ġruins": 16156,
    "mal": 6794,
    "orn": 2242,
    "Ġdisputes": 25825,
    "enthus": 17977,
    "Ġsoothing": 8173,
    "Ġdeliberately": 10623,
    "Ġgramm": 8171,
    "leading": 15559,
    "Ġmachine": 791,
    "Ġracket": 22648,
    "activation": 3231,
    "taste": 10128,
    "Ġspeakest": 23484,
    "properly": 24918,
    "Ġconn": 9228,
    "Ġparamet": 610,
    "presbyter": 20616,
    "Ġfootpaths": 26318,
    "Ġpor": 5225,
    "Ġdaggoo": 5441,
    "dick": 11478,
    "Ġsuperficial": 23455,
    "date": 17516,
    "Ġger": 21589,
    "omen": 4088,
    "fresh": 13390,
    "Ġkra": 18348,
    "Ġimprecations": 25820,
    "Ġsoftly": 7948,
    "leful": 17842,
    "recurring": 24193,
    "U": 57,
    "Ġbore": 5079,
    "pidation": 18885,
    "Ġwitnesses": 9484,
    "terbury": 21822,
    "Ġpractised": 23332,
    "Ġbehooves": 20732,
    "Ġcruising": 6913,
    "Ġguid": 2641,
    "Ġverses": 17063,
    "Ġsple": 21214,
    "Ġnewcastle": 16222,
    "Ġcomforters": 25800,
    "Ġhowling": 8509,
    "Ġhesitated": 10000,
    "government": 25406,
    "uttural": 21587,
    "gaff": 20881,
    "Ġtok": 1244,
    "Ġanecd": 20153,
    "Ġmystic": 7504,
    "Ġscant": 22293,
    "Ġenvelop": 5586,
    "Ġhonoured": 9879,
    "Ġevian": 24291,
    "Ġrevive": 13477,
    "Ġease": 5629,
    "Ġcrucial": 9889,
    "pursu": 11391,
    "bun": 12435,
    "higher": 20405,
    "Ġfals": 15578,
    "Ġfrocks": 23919,
    "type": 16174,
    "Ġoakshott": 12226,
    "Ġfullest": 14812,
    "Ġheartily": 6890,
    "Ġjapan": 7640,
    "Ġnails": 12644,
    "Ġconcl": 5095,
    "erately": 21272,
    "ably": 1847,
    "hercules": 22204,
    "Ġfries": 21414,
    "ed": 293,
    "linked": 17592,
    "oles": 21004,
    "says": 13297,
    "Ġsensibly": 14513,
    "discoloured": 23496,
    "glo": 8737,
    "Ġpotent": 12061,
    "Ġcenturies": 8622,
    "Ġurged": 6781,
    "Ġstrands": 25574,
    "Ġaltern": 7394,
    "Ġjumbled": 22285,
    "ike": 5000,
    "vest": 6230,
    "recollection": 25348,
    "Ġransacked": 26503,
    "quarried": 24945,
    "meditation": 19066,
    "athy": 14321,
    "Ġrespect": 1672,
    "dropping": 14980,
    "Ġineffect": 13928,
    "staff": 21648,
    "icher": 9201,
    "Ġcruelty": 9967,
    "fed": 11486,
    "arctic": 12606,
    "Ġanalytical": 22911,
    "Ġspeckled": 14307,
    "Ġendow": 23139,
    "orton": 11753,
    "Ġfactor": 19012,
    "author": 9858,
    "Ġrelent": 18772,
    "Ġcultiv": 13554,
    "Ġthoughtful": 16190,
    "Ġnarrated": 14869,
    "Ġcandour": 14671,
    "Ġd": 284,
    "Ġpinched": 17034,
    "Ġduodecimo": 16766,
    "etite": 21577,
    "anyone": 16592,
    "lested": 14881,
    "elled": 3997,
    "omuch": 21658,
    "Ġagricultural": 26549,
    "Ġequatorial": 13507,
    "Ġearned": 19403,
    "accents": 19210,
    "Ġarrogance": 26231,
    "inent": 9627,
    "Ġexpecting": 10435,
    "Ġtimbers": 14837,
    "season": 14032,
    "Ġcompromised": 22570,
    "Ġresides": 22538,
    "icked": 10331,
    "Ġfrowning": 13621,
    "Ġquee": 1980,
    "Ġcent": 3253,
    "rec": 6004,
    "Ġguido": 2977,
    "apothecary": 26544,
    "Ġeffort": 8202,
    "books": 8663,
    "Ġformidable": 8220,
    "Ġembalmed": 13654,
    "Ġthread": 14538,
    "Ġosc": 2834,
    "may": 3679,
    "Ġimmortal": 8018,
    "reigned": 21241,
    "Ġanointing": 25539,
    "Ġawake": 8272,
    "phys": 18711,
    "Ġflaw": 23011,
    "Ġdevotees": 25376,
    "Ġjudge": 5502,
    "Ġnobly": 22239,
    "uv": 6229,
    "Ġxi": 16428,
    "Ġhunter": 5401,
    "Ġnurtured": 19748,
    "Ġleisure": 6539,
    "Ġdesol": 6881,
    "Ġpink": 12614,
    "Ġbounded": 16625,
    "Ġrevolt": 24500,
    "Ġguessed": 11281,
    "Ġchallenge": 25471,
    "elijah": 19471,
    "Ġwindsor": 16886,
    "Ġflo": 2589,
    "apped": 5395,
    "arrange": 23765,
    "Ġrushing": 7403,
    "bul": 6951,
    "indignation": 18438,
    "jaws": 20931,
    "conside": 9288,
    "clouded": 20330,
    "Ġjohnson": 18404,
    "Ġed": 2144,
    "Ġconfound": 23302,
    "Ġrokovoko": 22402,
    "Ġpond": 13914,
    "showed": 16020,
    "Ġstubbs": 23293,
    "Ġaltar": 9227,
    "<UNK>": 3,
    "axed": 8887,
    "Ġphilosophical": 26334,
    "Ġten": 2383,
    "Ġshaken": 10263,
    "ped": 6365,
    "eg": 17528,
    "Ġannihil": 10173,
    "living": 7133,
    "Ġmasterly": 23991,
    "supervised": 1953,
    "Ġkeen": 4611,
    "Ġimagenet": 19245,
    "Ġinsect": 12632,
    "Ġanything": 2185,
    "Ġpauper": 26179,
    "Ġtoiling": 15632,
    "vess": 7354,
    "Ġparlour": 12318,
    "iew": 2446,
    "Ġoxford": 11370,
    "rann": 21043,
    "Ġspleen": 26420,
    "Ġflash": 8230,
    "Ġswash": 23053,
    "Ġclean": 5652,
    "Ġresc": 4505,
    "Ġcuriosities": 26288,
    "iday": 8828,
    "roofed": 26183,
    "Ġsly": 9631,
    "Ġchained": 16386,
    "Ġlawy": 9452,
    "Ġcompliments": 8632,
    "inois": 17737,
    "Ġdreadfully": 7726,
    "bub": 15314,
    "french": 9118,
    "Ġhud": 10821,
    "Ġstore": 8453,
    "Ġfevers": 22207,
    "Ġdeduced": 12204,
    "smile": 23903,
    "Ġauto": 23315,
    "information": 12390,
    "Ġdishes": 16048,
    "jewell": 25523,
    "Ġspectrum": 4473,
    "ils": 3180,
    "unctions": 18155,
    "raised": 15676,
    "Ġinvaders": 23479,
    "Ġcabin": 3303,
    "Ġnormalization": 1241,
    "Ġsoapstone": 20509,
    "youth": 11872,
    "pile": 17628,
    "Ġseeks": 14300,
    "Ġclamorous": 24909,
    "Ġscrape": 14916,
    "Ġmortar": 19391,
    "caus": 11475,
    "fright": 9594,
    "Ġheroism": 24543,
    "Ġassociated": 12246,
    "Ġprendergast": 26536,
    "Ġeven": 1026,
    "Ġthrice": 10574,
    "Ġpipe": 4320,
    "Ġlands": 6594,
    "count": 4213,
    "vely": 3867,
    "Ġsolutions": 1946,
    "irresistible": 18173,
    "Ġale": 9153,
    "Ġverd": 6919,
    "Ġmac": 15536,
    "Ġpsych": 10175,
    "ets": 1160,
    "anations": 12572,
    "otics": 10222,
    "circ": 4387,
    "Ġtangles": 25761,
    "Ġannesley": 19576,
    "Ġpriest": 7527,
    "Ġmanners": 3789,
    "cture": 15662,
    "Ġpertin": 18450,
    "Ġdeeps": 16113,
    "Ġfathoms": 9082,
    "itan": 10158,
    "Ġinquest": 16545,
    "Ġjollity": 25565,
    "Ġreveries": 11346,
    "Ġdeclining": 23961,
    "wis": 12515,
    "ortal": 6265,
    "Ġsymmetry": 20364,
    "Ġpretend": 7722,
    "mblings": 19779,
    "Ġdeclared": 5594,
    "Ġric": 18209,
    "Ġimprobable": 9790,
    "Ġthreatens": 24374,
    "employ": 10894,
    "Ġbehoo": 19032,
    "w": 91,
    "Ġmatlock": 18802,
    "Ġagency": 11803,
    "dread": 8728,
    "Ġsteal": 16281,
    "Ġcoin": 9769,
    "Ġadvancement": 24474,
    "brÃ¦": 11174,
    "Ġarabic": 24980,
    "carry": 19525,
    "Ġfru": 8420,
    "Ġkn": 4544,
    "voices": 21116,
    "Ġhaul": 11689,
    "Ġactually": 5389,
    "irements": 22210,
    "Ġmeth": 1468,
    "elfth": 22367,
    "Ġimposing": 11778,
    "simon": 16972,
    "Ġclin": 14199,
    "Ġspot": 4156,
    "propriety": 14370,
    "annica": 24560,
    "Ġsuggested": 8321,
    "Ġdug": 21429,
    "Ġfatally": 19392,
    "Ġunguarded": 15848,
    "communication": 25881,
    "tt": 13788,
    "Ġbring": 3323,
    "Ġtumult": 7114,
    "Ġrecoil": 18692,
    "Ġpondered": 15164,
    "Ġstud": 1582,
    "Ġvastly": 23858,
    "Ġhunger": 8566,
    "ve": 322,
    "Ġcopse": 17067,
    "Ġswift": 3669,
    "Ġweaver": 11685,
    "Ġscalable": 1692,
    "jam": 15369,
    "Ġworthy": 7241,
    "foreseen": 14252,
    "Ġplaster": 16081,
    "instance": 24167,
    "Ġtipt": 21172,
    "unfearing": 21890,
    "Ġpunchbowl": 20230,
    "Ġbusks": 23338,
    "Ġdepl": 14044,
    "Ġdem": 11672,
    "Ġfaculties": 14956,
    "ilingly": 21721,
    "Ġanatomical": 15074,
    "Ġfeeding": 7972,
    "course": 6104,
    "neurons": 3133,
    "resembling": 25932,
    "Ġsquared": 1383,
    "ingale": 21298,
    "C": 39,
    "Ġben": 1105,
    "Ġlaurel": 20653,
    "Ġequin": 14494,
    "Ġdrink": 4786,
    "Ġnind": 17949,
    "irations": 18170,
    "minute": 11273,
    "Ġpersuasion": 10497,
    "contr": 12054,
    "Ġscolding": 15198,
    "Ġwand": 4340,
    "Ġshrivelled": 19702,
    "Ġlearns": 2645,
    "Ġethere": 23948,
    "Ġpeep": 6870,
    "antly": 1988,
    "solving": 3098,
    "jabez": 20932,
    "bacc": 7795,
    "Ġstudy": 1745,
    "sch": 21049,
    "isis": 12575,
    "ached": 2321,
    "Ġforward": 1838,
    "Ġserious": 4321,
    "Ġwhisper": 6205,
    "helping": 23136,
    "Ġcompleted": 8996,
    "Ġremainder": 9856,
    "Ġquivering": 12854,
    "Ġalpine": 18105,
    "Ġmemorand": 23403,
    "Ġdetaining": 25818,
    "Ġplanned": 14750,
    "Ġproxim": 3198,
    "tempt": 21078,
    "af": 2373,
    "scale": 3535,
    "scans": 22989,
    "Ġlatterly": 24083,
    "Ġillness": 8589,
    "Ġgases": 21600,
    "Ġindepend": 3668,
    "amb": 5723,
    "jane": 4481,
    "Ġbasics": 13446,
    "Ġsnapped": 9894,
    "Ġregions": 10323,
    "Ġgayer": 24497,
    "Ġcaring": 23089,
    "Ġdiscourage": 3115,
    "Ġenveloped": 12205,
    "Ġperforming": 7928,
    "Ġcompassion": 6487,
    "Ġelasticity": 19557,
    "unalterable": 21884,
    "old": 798,
    "ban": 9583,
    "Ġsingularly": 12145,
    "Ġirreparable": 19997,
    "Ġark": 10275,
    "Ġinjury": 10539,
    "captain": 3957,
    "Ġinvestigation": 9041,
    "decor": 23779,
    "Ġah": 5075,
    "Ġmushroom": 13233,
    "lying": 7174,
    "situation": 11436,
    "Ġinject": 2711,
    "turn": 4291,
    "por": 2151,
    "Ġdesk": 11904,
    "Ġhip": 17920,
    "Ġgreas": 17991,
    "ances": 1337,
    "Ġshr": 4225,
    "Ġinwards": 15618,
    "Ġabandon": 12254,
    "Ġpret": 3033,
    "Ġarrows": 18343,
    "Ġtam": 7822,
    "frame": 17115,
    "promise": 12247,
    "mai": 22913,
    "leviathan": 7785,
    "fool": 9046,
    "Ġbegins": 7244,
    "Ġshrine": 19530,
    "ridden": 24361,
    "Ġpalmy": 19497,
    "Ġpartiality": 9396,
    "Ġcourting": 23289,
    "Ġsuav": 22079,
    "som": 3292,
    "Ġemails": 13104,
    "bodily": 17313,
    "Ġlaid": 3944,
    "ab": 345,
    "chet": 13215,
    "Ġdealing": 14045,
    "Ġinasmuch": 10824,
    "Ġcult": 8780,
    "Ġmatches": 14394,
    "Ġdisabled": 18561,
    "Ġrecollections": 10511,
    "shoe": 14965,
    "teen": 6370,
    "Ġutil": 4671,
    "bar": 7542,
    "Ġfair": 2836,
    "Ġoutright": 18413,
    "ered": 1686,
    "acle": 4714,
    "Ġaglow": 22512,
    "Ġwithdrawn": 10605,
    "Ġunduly": 25994,
    "Ġsupernatural": 9871,
    "tered": 2231,
    "conceal": 25114,
    "hospit": 25903,
    "Ġscaled": 2107,
    "Ġchoosing": 19589,
    "Ġvapor": 8699,
    "Ġhalyards": 21492,
    "ieves": 4010,
    "Ġmidday": 23632,
    "Ġordered": 5832,
    "ying": 1449,
    "Ġpots": 9426,
    "creatures": 7518,
    "introduce": 25186,
    "ulled": 14054,
    "Ġtens": 17722,
    "Ġpartial": 2130,
    "Ġreeds": 15693,
    "Ġliterary": 25162,
    "rely": 6123,
    "Ġmaintainable": 12931,
    "Ġplanting": 16083,
    "Ġpyramids": 15112,
    "according": 12024,
    "Ġbudge": 15162,
    "Ġende": 21930,
    "Ġmau": 21309,
    "level": 2656,
    "Ġobedient": 20103,
    "Ġsleepless": 14581,
    "Ġcrazy": 8592,
    "Ġbos": 4874,
    "chastic": 2333,
    "Ġstruggle": 3675,
    "Ġramble": 9311,
    "Ġearning": 23938,
    "given": 8377,
    "good": 2900,
    "Ġpreceded": 13426,
    "Ġjones": 7203,
    "Ġprocesses": 3634,
    "whaler": 20308,
    "Ġuniformly": 19147,
    "Ġscal": 1663,
    "G": 43,
    "Ġpier": 7162,
    ").âĢĿ": 20740,
    "Ġproflig": 23566,
    "ured": 1655,
    "hampshire": 23263,
    "Ġbranch": 8332,
    "ferent": 4195,
    "ty": 1001,
    "Ġconceive": 8461,
    "precious": 12069,
    "enter": 7858,
    "Ġcontinual": 6777,
    "isk": 9166,
    "pounds": 21024,
    "Ġobtru": 18672,
    "Ġancles": 21445,
    "Ġcant": 17824,
    "gast": 20870,
    "Ġsatisfying": 23695,
    "Ġstacked": 21741,
    "Ġspeak": 2230,
    "tor": 15431,
    "Ġspecksnyder": 17401,
    "Ġgovernments": 20266,
    "ensions": 14261,
    "Ġdomestic": 6908,
    "Ġsteed": 13036,
    "actor": 11835,
    "Ġundersampling": 19517,
    "Ġbefall": 8827,
    "Ġwhistling": 19789,
    "Ġtowns": 11172,
    "Ġtusk": 25425,
    "geneva": 13728,
    "Ġimaginary": 11185,
    "Ġburnt": 9926,
    "suff": 4961,
    "Ġappare": 12815,
    "Ġspies": 22126,
    "Ġincommod": 25307,
    "Ġjurors": 17342,
    "Ġimplements": 2485,
    "gall": 6359,
    "Ġpretending": 19314,
    "nes": 6961,
    "explanation": 12355,
    "ctions": 950,
    "tiest": 21080,
    "cking": 4265,
    "Ġanytime": 12881,
    "unders": 13307,
    "Ġsuccessive": 10499,
    "aswag": 21544,
    "Ġcoff": 3507,
    "bud": 10681,
    "Ġrom": 4523,
    "Ġgips": 10840,
    "plish": 18208,
    "Ġrace": 5847,
    "ices": 2138,
    "Ġagile": 22511,
    "Ġonset": 12707,
    "Ġboard": 3384,
    "Ġsemicircle": 26067,
    "Ġboisterous": 20441,
    "kilt": 4865,
    "Ġstormy": 16727,
    "Ġcring": 15549,
    "Ġresnet": 5473,
    "Ġcommissionaire": 16999,
    "Ġunderstood": 5655,
    "thirst": 15823,
    "Ġconfidently": 24957,
    "ķ": 248,
    "Ġcombine": 4414,
    "Ġoverheard": 11771,
    "Ġdesigned": 7741,
    "Ġcapt": 1294,
    "Ġaffronted": 22889,
    "fight": 17537,
    "Ġdashed": 6010,
    "Ġdig": 6135,
    "tackles": 25624,
    "peare": 18911,
    "practical": 17220,
    "Ġsacri": 18328,
    "Ġpieces": 7369,
    "/": 19,
    "ique": 8742,
    "construction": 19777,
    "cating": 20801,
    "Ġumb": 11644,
    "Ġcoars": 14272,
    "Ġfiendish": 13325,
    "Ġwast": 21858,
    "Ġbelief": 5855,
    "Ġconfederate": 17352,
    "Ġslime": 23159,
    "Ġmeasurement": 19421,
    "Ġcusack": 26432,
    "seeking": 17151,
    "Ġmonkey": 8227,
    "tuning": 1580,
    "Ġpatron": 7463,
    "Ġdrown": 6815,
    "umpled": 15874,
    "Ġdinner": 4244,
    "Ġunsafe": 22037,
    ",": 16,
    "herfield": 3631,
    "Ġpatagon": 14504,
    "Ġturned": 2134,
    "Ġshore": 4833,
    "Ġ72": 19610,
    "erial": 4630,
    "dissatisf": 26129,
    "onged": 18410,
    "Ġjob": 7015,
    "Ġcoarse": 14275,
    "Ġintimate": 6549,
    "Ġcaresses": 26059,
    "Ġtawn": 13821,
    "Ġrequires": 1039,
    "Ġdragged": 6889,
    "Ġperished": 11781,
    "uend": 21100,
    "Ġdonkey": 23225,
    "Ġcalm": 3447,
    "Ġless": 1938,
    "Ġalluding": 18236,
    "although": 8804,
    "Ġloitered": 26524,
    "hatherley": 17567,
    "brad": 20780,
    "Ġtreacle": 14594,
    "flesh": 13488,
    "Ġfoolscap": 24157,
    "Ń": 260,
    "Ġintersect": 22574,
    "Ġdownstream": 3774,
    "Ġcomprise": 18584,
    "solid": 16376,
    "Ġindian": 4132,
    "dead": 8180,
    "live": 7551,
    "Ġsizes": 1519,
    "ution": 4348,
    "endless": 22224,
    "Ġdefined": 11895,
    "comfort": 5647,
    "Ġcontinues": 18809,
    "Ġafloat": 9306,
    "mindful": 19598,
    "neighbours": 24881,
    "Ġtemporarily": 11166,
    "leag": 21364,
    "cabinet": 25077,
    "Ġhousekeeping": 18943,
    "drawers": 19384,
    "standing": 5557,
    "ctor": 13958,
    "heavenly": 20043,
    "Ġrim": 21963,
    "sworn": 24255,
    "Ġinspired": 2520,
    "Ġstoried": 18072,
    "Ġsap": 18323,
    "Ġtingling": 15090,
    "nowledge": 10288,
    "urn": 777,
    "Ġstagger": 10590,
    "evidence": 25521,
    "Ġunfold": 8023,
    "Ġprovoke": 14824,
    "Ġlord": 2966,
    "Ġhereafter": 9328,
    "Ġvirginia": 13498,
    "Ġsupreme": 13605,
    "hilar": 25081,
    "Ġadhes": 22101,
    "Ġlaws": 8003,
    "Ġgn": 8816,
    "dishonourable": 26365,
    "possessed": 9526,
    "confess": 12172,
    "Ġaddressed": 5262,
    "Ġbind": 12578,
    "ifer": 11681,
    "deserted": 18959,
    "point": 6063,
    "somewhere": 12009,
    "Ġrephrased": 26476,
    "valued": 2851,
    "Ġpraise": 6486,
    "Ġshroud": 6483,
    "Ġspoils": 24808,
    "Ġwardrobe": 17224,
    "dog": 10691,
    "Ġuntil": 2669,
    "bale": 20773,
    "85": 13679,
    "Ġrecollection": 6620,
    "Ġreplenished": 13634,
    "Ġbas": 6380,
    "asis": 12646,
    "Ġ39": 19488,
    "Ġcrimin": 6901,
    "Ġcens": 8413,
    "Ġrestraint": 15125,
    "Ġunwillingly": 15846,
    "whips": 22236,
    "contents": 12055,
    "Ġatone": 15800,
    "Ġineff": 12630,
    "narwhale": 17316,
    "Ġmaintain": 857,
    "Ġvilla": 14745,
    "letters": 13172,
    "Ġgoing": 2068,
    "Ġneuron": 1809,
    "Ġjames": 6419,
    "Ġay": 15490,
    "Ġforgiven": 24024,
    "uncommon": 11679,
    "Ġplanks": 5562,
    "irt": 3074,
    "sherlock": 5422,
    "Ġproc": 5544,
    "Ġwhaling": 2780,
    "Ġbehalf": 14505,
    "Ġfiddle": 25444,
    "Ġwhim": 13997,
    "Ġheadlands": 22894,
    "was": 1422,
    "Ġfearfulness": 23510,
    "Ġoffended": 7040,
    "estic": 4956,
    "Ġpeaking": 22688,
    "ĠĠĠĠĠĠĠĠĠĠĠĠĠĠ": 22562,
    "built": 16824,
    "Ġpaying": 9936,
    "pity": 17626,
    "Ġheaded": 11054,
    "Ġsolid": 6443,
    "strength": 13973,
    "Ġshare": 1658,
    "Ġdry": 5624,
    "Ġsacred": 10929,
    "Ġexhausting": 24710,
    "Ġgidd": 25783,
    "Ġdoor": 1740,
    "majesty": 26280,
    "Ġunsh": 14113,
    "Ġwhimsical": 20426,
    "Ġcrust": 21349,
    "oso": 12827,
    "egyptians": 25898,
    "Ġundisturbed": 19518,
    "iries": 18169,
    "Ġapplication": 2067,
    "reasoning": 9474,
    "Ġfull": 2176,
    "Ġdespair": 4014,
    "trip": 21090,
    "Ġbull": 7840,
    "ipher": 18432,
    "Ġfear": 2274,
    "omically": 13978,
    "unreasonable": 18162,
    "Ġbelf": 21379,
    "igning": 12677,
    "Ġslam": 13054,
    "known": 3569,
    "ing": 273,
    "Ġploughing": 26259,
    "Ġcheery": 16366,
    "smith": 5669,
    "Ġwarehouses": 20416,
    "Ġimminent": 11243,
    "lemagne": 26435,
    "Ġboisterously": 25682,
    "along": 6013,
    "ignity": 4372,
    "arboard": 7266,
    "writes": 4988,
    "Ġinterven": 10997,
    "Ġabout": 632,
    "iant": 5427,
    "Ġunclasp": 26510,
    "acquired": 24295,
    "boards": 23254,
    "83": 13678,
    "Ġmysticetus": 24922,
    "relapse": 24013,
    "allowing": 24357,
    "Ġwhence": 5839,
    "Ġdisregarded": 22528,
    "Ġguest": 7249,
    "Ġjing": 15942,
    "Ġsilent": 3412,
    "Ġburton": 23654,
    "Ġsuffering": 8945,
    "Ġrevol": 5536,
    "Ġfreemason": 23208,
    "Ġrailway": 15019,
    "Ġinscrut": 10032,
    "Ġpen": 1530,
    "velled": 9874,
    "ĠĠĠĠĠĠĠĠĠĠĠĠĠĠĠĠĠĠĠĠĠĠĠĠĠĠĠĠĠĠĠĠĠĠĠ": 19257,
    "Ġtone": 4042,
    "/`)": 13658,
    "Ġevenly": 4130,
    "Ġalliance": 18235,
    "Ġphiladelphia": 26603,
    "famous": 16915,
    "Ġdefinition": 14402,
    "Ġinv": 2225,
    "Ġgestures": 13534,
    "Ġ91": 24590,
    "Ġnormal": 1203,
    "brought": 7285,
    "Ġdrawings": 14720,
    "Ġstreng": 18070,
    "Ġrossum": 3012,
    "Ġturks": 14597,
    "weep": 22682,
    "gently": 13727,
    "appalling": 22843,
    "ety": 3520,
    "hog": 8380,
    "Ġrealised": 18981,
    "Ġwalton": 14970,
    "Ġviewing": 19263,
    "Ġtanning": 17728,
    "Ġcomparative": 10541,
    "Ġvulgarity": 25363,
    "tribute": 21087,
    "Ġpedro": 14993,
    "Ġworaciousness": 22927,
    "croquet": 25747,
    "Ġbrightness": 16575,
    "ortunities": 15939,
    "Ġbegged": 8231,
    "izings": 14042,
    "passing": 14810,
    "ast": 473,
    "Ġbid": 6131,
    "inridge": 11559,
    "Ġbushes": 16395,
    "eldom": 4412,
    "certain": 3676,
    "killer": 20474,
    "shake": 22443,
    "princip": 17135,
    "Ġindependently": 4246,
    "lant": 20946,
    "Ġimbedded": 18333,
    "tackle": 17319,
    "800": 17475,
    "Ġofficious": 19346,
    "æ": 167,
    "Ġhotel": 8650,
    "Ġengraving": 17079,
    "'re": 12425,
    "want": 8765,
    "apology": 22332,
    "ii": 4018,
    "twelvemonth": 25862,
    "Ġqu": 604,
    "Ġstartled": 7082,
    "free": 8735,
    "befall": 22494,
    "Ġreminds": 13429,
    "rog": 15637,
    "velope": 17700,
    "!âĢĿâĢĶ": 8532,
    "romed": 10904,
    "Ġskilful": 25836,
    "Ġaspire": 21898,
    "Ġhugh": 15003,
    "wrote": 11545,
    "³": 116,
    "nut": 12491,
    "dec": 3111,
    "Ġperilously": 24503,
    "Ġcalam": 13030,
    "vessels": 10624,
    "Ġbox": 5109,
    "reached": 13839,
    "ains": 5094,
    "Ġspectacles": 12094,
    "Ġfresh": 3670,
    "Ġbands": 14882,
    "delirious": 19504,
    "watch": 6118,
    "rifled": 21046,
    "Ġlewis": 15722,
    "Ġgabriel": 7596,
    "Ġstarlight": 24627,
    "Ġinfer": 7685,
    "Ġgrow": 2858,
    "Ġsupervised": 3006,
    "Ġprofundity": 20451,
    "Ġanxious": 4516,
    "hering": 12810,
    "Ġreappeared": 21663,
    "Ġthreats": 13375,
    "Ġdisagree": 22530,
    "stays": 15685,
    "Ġelements": 2668,
    "Ġvoid": 14084,
    "Ġordering": 18997,
    "Ġsurmisings": 26592,
    "ô": 181,
    "plendent": 21962,
    "respective": 19845,
    "Ġbarriers": 23793,
    "Ġgroaned": 11265,
    "Ġensures": 3052,
    "twist": 23699,
    "Ġanimation": 11151,
    "Ġbandaged": 16841,
    "ald": 15622,
    "awned": 19458,
    "Ġmistaken": 4986,
    "Ġshaft": 18229,
    "Ġmiser": 18705,
    "Ġinjunctions": 24268,
    "Ġadjusted": 23457,
    "ling": 736,
    "Ġpreferred": 14964,
    "levi": 7047,
    "tomb": 21092,
    "eral": 9158,
    "dogs": 25402,
    "!âĢĻâĢĿ": 16591,
    "inal": 15479,
    "Ġforthwith": 16617,
    "sne": 10123,
    "Ġyale": 21777,
    "Ġveter": 15809,
    "mo": 863,
    "Ġneighbour": 3808,
    "Ġcook": 3712,
    "Ġcocaine": 20720,
    "benefact": 24641,
    "Ġpeering": 8534,
    "Ġtooks": 23324,
    "Ġbolts": 16942,
    "Ġshuttle": 12123,
    "herds": 22203,
    "stained": 21647,
    "Ġevaluate": 3289,
    "Ġhails": 21948,
    "Ġoutrid": 22313,
    "Ġeloquent": 16108,
    "Ġresigned": 9766,
    "ezes": 9989,
    "errand": 22907,
    "Ġbabies": 19691,
    "bering": 18680,
    "Ġhes": 6250,
    "bewil": 22497,
    "Ġgrimes": 11034,
    "Ġdim": 4756,
    "pents": 11511,
    "Ġsembl": 19057,
    "Ġapproximate": 2341,
    "Ġfortnight": 6200,
    "Ġpenetrating": 17010,
    "Ġliterature": 17147,
    "misrepresented": 24210,
    "part": 2574,
    "andam": 10887,
    "Ġheat": 5453,
    "apan": 6860,
    "Ġphilosophers": 10550,
    "Ġimmutable": 17356,
    "Ġtermination": 16459,
    "Ġhussey": 7725,
    "Ġassistant": 7298,
    "Ġferoc": 14900,
    "Ġdisliked": 12887,
    "Ġsurrounds": 24230,
    "Ġquicker": 16506,
    "Ġdespised": 14665,
    "Ġ5": 4935,
    "Ġsingers": 23770,
    "Ġsore": 10763,
    "Ġanalyze": 1609,
    "epend": 3314,
    "Ġtransported": 11278,
    "Ġsubtile": 20378,
    "Ġthoughtfully": 12975,
    "Ġflexible": 23774,
    "frankenstein": 11390,
    "abled": 12790,
    "supers": 22639,
    "Ġyelling": 18096,
    "Ġmixing": 24934,
    "Ġspiral": 14583,
    "Ġstair": 8455,
    "yourself": 6742,
    "Ġvision": 1649,
    "Ġcanall": 10927,
    "Ġugliness": 20425,
    "itates": 13867,
    "inst": 4294,
    "Ġascribe": 16781,
    "Ġdiving": 12597,
    "Ġcalifornian": 25851,
    "Ġtenderest": 23548,
    "Ġsemblance": 20733,
    "Ġsketch": 16162,
    "buttons": 22405,
    "hel": 4813,
    "Ġencamped": 22801,
    "Ġtexas": 25922,
    "theirs": 23601,
    "Ġideal": 13118,
    "this": 1440,
    "Ġrefusal": 10343,
    "Ġwound": 4526,
    "Ġescape": 2649,
    "Ġbug": 11587,
    "Ġcomplex": 735,
    "strils": 10457,
    "Ġ1950": 11358,
    "Ġtired": 9148,
    "delights": 19700,
    "Ġpenalties": 10411,
    "Ġapples": 22216,
    "Ġhelter": 24022,
    "Ġlucy": 17969,
    "bold": 17486,
    "ondency": 15267,
    "Ġintrospective": 20599,
    "Ġdented": 17891,
    "Ġgilder": 21611,
    "Ġnib": 13938,
    "Ġconvenient": 8346,
    "Ġtore": 6530,
    "Ġswearing": 16463,
    "Ġprovide": 7750,
    "Ġpunctilious": 26352,
    "Ġeating": 8136,
    "Ġumbrella": 15263,
    "Ė": 215,
    "sit": 13778,
    "Ġirrad": 19093,
    "mospheric": 17090,
    "heeded": 13832,
    "Ġcheese": 9375,
    "whispering": 26103,
    "Ġhappier": 10357,
    "Ġmundane": 26428,
    "Ġgibe": 25959,
    "Ġgathers": 24743,
    "lingering": 18602,
    "Ġcourtesy": 9943,
    "Ġfinal": 5400,
    "Ġth": 299,
    "Ġsocks": 14132,
    "leagues": 21371,
    "Ġcultured": 25154,
    "expl": 9281,
    "Ġsuggestive": 11296,
    "hurst": 19878,
    "Ġsoft": 1458,
    "gre": 5788,
    "Ġreverber": 19868,
    "Ġturnkeys": 23028,
    "Ġactivation": 919,
    "Ġsupercil": 23453,
    "cial": 2651,
    "powerful": 24847,
    "thyself": 19297,
    "Ġdrab": 13068,
    "creation": 14804,
    "Ġcocked": 12903,
    "Ġvesuvius": 26500,
    "Ġheels": 10849,
    "Ġathe": 17740,
    "owing": 7602,
    "Ġlengthwise": 10451,
    "far": 5787,
    "inu": 1112,
    "Ġivory": 4475,
    "Ġpant": 10816,
    "Ġcollinses": 19129,
    "zor": 15457,
    "Ġcaved": 21351,
    "Ġliver": 14226,
    "maltese": 24795,
    "bone": 5611,
    "world": 5058,
    "Ġhind": 9187,
    "twelve": 14620,
    "Ġtending": 17723,
    "presume": 25670,
    "Ġanonym": 17897,
    "shortly": 12255,
    "ole": 9612,
    "joice": 9601,
    "Ġnameless": 7700,
    "Ġembell": 14413,
    "Ġreappearance": 21665,
    "Ġavowed": 16632,
    "idious": 11660,
    "Ġsallies": 21228,
    "Ġexercised": 24803,
    "accuracy": 9877,
    "tically": 3394,
    "boats": 6204,
    "Ġbel": 1215,
    "Ġskylarking": 19485,
    "Ġjest": 18398,
    "Ġhelped": 7459,
    "Ġnervous": 2402,
    "stranger": 9881,
    "Ġrevellers": 21676,
    "Ġchocks": 13343,
    "Ġhowled": 12852,
    "Ġventured": 7502,
    "è": 169,
    "talk": 6656,
    "Ġpistols": 17327,
    "Ġscrutin": 26016,
    "Ġrescales": 5068,
    "Ġspeech": 4608,
    "Ġgamming": 25542,
    "Ġsocket": 12785,
    "leman": 21366,
    "Ġsome": 654,
    "Ġgrowl": 16536,
    "Ġseverely": 14931,
    "Ġconsecrated": 26487,
    "spee": 9315,
    "Ġroot": 2653,
    "Ġmaker": 15540,
    "Ġblotches": 25314,
    "Ġpun": 4585,
    "Ġag": 684,
    "Ġworking": 5574,
    "Ġencouragement": 13038,
    "Ġshipw": 12974,
    "Ġprows": 19888,
    "Ġservant": 5764,
    "Ġvintage": 26209,
    "_?âĢĿ": 15303,
    "orough": 5700,
    "Ġembattled": 26289,
    "Ġcarter": 18900,
    "Ġleaned": 7608,
    "Ġshetland": 22157,
    "ary": 988,
    "Ġnotwithstanding": 9712,
    "Ġdesc": 778,
    "augmented": 26286,
    "Ġbreckinridge": 14522,
    "Ġchivalry": 25819,
    "Ġlawyer": 10667,
    "convenient": 12234,
    "aur": 15306,
    "ledyard": 22380,
    "Ġappe": 1538,
    "Ġpersisted": 13039,
    "collinses": 19922,
    "motives": 26137,
    "Ġmoisture": 12356,
    "supposing": 24133,
    "vulgar": 25918,
    "Ġsecrecy": 7316,
    "ĠâĢĶ_": 3458,
    "Ġmonsie": 11446,
    "woes": 21132,
    "Ġpaved": 17910,
    "ipping": 2209,
    "Ġharness": 17927,
    "Ġairy": 23316,
    "Ġplanet": 14748,
    "distressed": 24198,
    "Ġsoften": 23121,
    "Ġlakes": 8131,
    "indef": 17734,
    "Ġcommanding": 16589,
    "Ġproofs": 19813,
    "certainly": 5339,
    "stubb": 6018,
    "elder": 21570,
    "Ġoverthrown": 18430,
    "patched": 17642,
    "plans": 21956,
    "anter": 9165,
    "Ġdeploy": 3073,
    "Ġconfluent": 19039,
    "Ġhumbug": 18777,
    "Ġcous": 3437,
    "Ġslay": 16304,
    "atisf": 21262,
    "Ġchances": 9261,
    "ahab": 4289,
    "Ġputs": 19031,
    "Ġfantastic": 10057,
    "ior": 2040,
    "Ġcomes": 3424,
    "Ġkicking": 16900,
    "Ġlethargy": 26482,
    "Ġdiadem": 24741,
    "impressed": 12687,
    "Ġsymbol": 7717,
    "Ġvel": 7186,
    "Ġcaw": 13881,
    "joining": 19444,
    "Ġabrupt": 9734,
    "presbyterian": 26368,
    "Ġreconcile": 25291,
    "Ġexcellent": 4238,
    "Ġoverladen": 22360,
    "Ġslices": 23163,
    "Ġrelied": 16193,
    "Ġberries": 13405,
    "Ġadventurous": 16732,
    "redit": 3876,
    "temper": 10002,
    "Ġvisual": 5741,
    "Ġmccarthys": 19661,
    "Ġclassifies": 11831,
    "Ġholmes": 1309,
    "Ġknitted": 19588,
    "Ġrecede": 25968,
    "unguarded": 23668,
    "Ġtinged": 20081,
    "Ġinfallible": 15068,
    "Ġdiscu": 4362,
    "Ġ177": 13410,
    "Ġfoolishly": 19781,
    "Ġabominate": 20063,
    "painting": 17045,
    "Ġhalloa": 13314,
    "iel": 11492,
    "Ġlikely": 3599,
    "Ġlose": 5028,
    "ints": 3418,
    "glit": 23848,
    "variety": 23184,
    "Ġphilist": 16600,
    "alot": 15623,
    "million": 25751,
    "Ġpurple": 10432,
    "security": 26206,
    "view": 5896,
    "Ġbeaut": 2391,
    "catherine": 7127,
    "Ġauthoritative": 19560,
    "Ġsuccess": 3611,
    "Ġendurance": 23141,
    "Ġtea": 5041,
    "ruded": 15895,
    "ĠĠĠĠĠĠĠĠĠĠĠĠĠĠĠĠĠĠĠĠĠĠĠĠĠĠĠ": 14884,
    "Ġtun": 5999,
    "Ġferry": 24514,
    "Ġr": 404,
    "Ġfuss": 13903,
    "Ġcounsell": 25384,
    "Ġfallen": 5968,
    "Ġpatches": 4237,
    "leagued": 26434,
    "Ġlustrous": 20155,
    "Ġtinge": 25087,
    "sively": 13784,
    "erringly": 16210,
    "Ġtying": 15472,
    "Ġdeposed": 16085,
    "tremble": 17140,
    "Ġcolumn": 9326,
    "whole": 6086,
    "Ġgenerate": 1532,
    "Ġconfidence": 6590,
    "poles": 16207,
    "Ġghostly": 24650,
    "Ġshadow": 5595,
    "Ġrede": 13982,
    "loops": 12879,
    "Ġperfect": 2557,
    "Ġunacquainted": 12772,
    "Ġsaxon": 25468,
    "yea": 23085,
    "Ġtrough": 15967,
    "treat": 12510,
    "Ġexplored": 23515,
    "ures": 838,
    "Ġmuster": 16120,
    "ropout": 1321,
    "balanced": 14554,
    "Ġnooks": 26011,
    "Ġascending": 14852,
    "Ġloved": 4597,
    "Ġordained": 19443,
    "unquiet": 21879,
    "pine": 13767,
    "Ġarchangel": 8542,
    "Ġscoresby": 10461,
    "Ġthree": 1371,
    "amuse": 14051,
    "thrill": 25656,
    "could": 2872,
    "organ": 15571,
    "Ġnoticing": 18224,
    "boone": 23253,
    "Ġcalculating": 9923,
    "Ġinfirm": 19017,
    "Ġswap": 23050,
    "Ġrecklessly": 16982,
    "Ġshrubbery": 18232,
    "aphs": 22334,
    "Ġconveniences": 19811,
    "ripp": 6405,
    "Ġcandle": 8292,
    "Ġit": 339,
    "rose": 6014,
    "Ġlug": 15649,
    "fow": 20852,
    "Ġwreaths": 25937,
    "Ġstaring": 8823,
    "Ġaccident": 5380,
    "Ġaccusation": 22379,
    "Ġcommunic": 5751,
    "Ġgamesome": 17288,
    "sey": 5542,
    "steady": 14707,
    "Ġwrought": 11941,
    "Ġtom": 15630,
    "ould": 428,
    "Ġtu": 6968,
    "Ġprep": 4192,
    "hammad": 23262,
    "ingham": 21299,
    "lorn": 12484,
    "longer": 8612,
    "Ġneighb": 14074,
    "Ġcurly": 18843,
    "Ġhyp": 3873,
    "Ġgardener": 19134,
    "Ġrespectfully": 18994,
    "Ġceremony": 8361,
    "Ġexplain": 546,
    "ested": 3478,
    "enged": 23143,
    "bbings": 19275,
    "Ġrecurring": 23228,
    "Ġquivered": 18467,
    "Ġmast": 2901,
    "fit": 6645,
    "Ġnapkins": 25161,
    "Ġsearch": 2591,
    "Ġspain": 15878,
    "Ġcove": 22579,
    "Ġprogress": 5023,
    "stalk": 21642,
    "Ġawa": 7714,
    "Ġ11": 5318,
    "Ġremonstrance": 20621,
    "oth": 1185,
    "Ġqualified": 14948,
    "Ġbrows": 13298,
    "Ġinjurious": 24269,
    "Ġxlix": 25860,
    "Ġap": 5008,
    "Ġreported": 11976,
    "Ġvagabond": 20202,
    "Ġ1846": 26084,
    "Ġexamples": 2606,
    "ana": 15556,
    "intense": 22934,
    "Ġoversampling": 20514,
    "Ġminiatures": 20320,
    "Ġgods": 6454,
    "Ġwel": 4525,
    "hither": 11491,
    "Ġearthly": 7990,
    "Ġanalyzing": 18804,
    "Ġthirds": 16707,
    "ezing": 10572,
    "Ġrecom": 4553,
    "Ġrooms": 5180,
    "Ġflush": 14422,
    "Ġsaintsbury": 26372,
    "Ġchancing": 22246,
    "lovel": 22509,
    "Ġbowl": 11202,
    "Ġindividually": 22957,
    "answered": 10272,
    "oury": 22302,
    "Ġwondering": 7971,
    "acceptable": 25183,
    "qualified": 17097,
    "rote": 4590,
    "Ġpri": 5813,
    "Ġgomorrah": 21613,
    "Ġbier": 22764,
    "Ġvac": 5025,
    "Ġbalance": 2020,
    "Ġmirror": 12375,
    "Ġdome": 15586,
    "Ġcharmed": 16761,
    "cated": 20802,
    "Ġprice": 10402,
    "deceit": 25556,
    "Ġclaim": 5106,
    "Ġshipmate": 8927,
    "oding": 1461,
    "Ġsleepy": 8268,
    "Ġbare": 6132,
    "Ġnoticed": 5548,
    "Ġstature": 10862,
    "Ġmuttering": 10498,
    "Ġbusy": 6189,
    "Ġfounded": 8556,
    "hur": 6648,
    "Ġdeduction": 14897,
    "Ġdeafened": 25651,
    "Ġminute": 4278,
    "acency": 12893,
    "Ġsettling": 11061,
    "Ġcake": 12566,
    "Ġinquirer": 24963,
    "Ġtener": 21162,
    "iors": 9124,
    "Ġknots": 15007,
    "isles": 15561,
    "Ġcolour": 4460,
    "Ġvisage": 18779,
    "Ġeliminating": 20618,
    "Ġcast": 3607,
    "Ġseedy": 21953,
    "Ġguilty": 7250,
    "Ġpartake": 18670,
    "Ġlower": 2664,
    "Ġcontrivance": 17182,
    "Ġcaptured": 7245,
    "Ġflickering": 23015,
    "Ġsine": 10762,
    "Ġjollies": 20367,
    "Ġpreserved": 9260,
    "ware": 3938,
    "thanking": 24329,
    "Ġgettest": 23229,
    "impul": 16554,
    "gorith": 549,
    "remind": 23186,
    "Ġinflexibly": 26370,
    "Ġmadness": 6601,
    "scorched": 25697,
    "Ġmonstrous": 7790,
    "Ġdiffident": 23782,
    "Ġcheating": 16365,
    "Ġconjured": 25099,
    "t": 88,
    "Ġoutdone": 22316,
    "Ġstool": 14459,
    "Ġmist": 2877,
    "oker": 10962,
    "Ġtul": 21158,
    "ohog": 9841,
    "ppa": 10238,
    "Ġsouthern": 7690,
    "torm": 11529,
    "Ġreceptacle": 23190,
    "fisher": 7548,
    "nel": 11503,
    "Ġinterfere": 11814,
    "how": 1644,
    "venty": 6427,
    "brown": 15315,
    "Ġresolving": 9417,
    "Ġconcisely": 19044,
    "Ġwholly": 4446,
    "cheer": 9435,
    "Ġjudges": 14684,
    "Ġstrategy": 2483,
    "Ġpre": 506,
    "Ġcha": 6853,
    "Ġpiteous": 17915,
    "Ġshoes": 7071,
    "Ġfireside": 23530,
    "apside": 22960,
    "Ġfrank": 4418,
    "Ġ103": 24410,
    "Ġconstraint": 16514,
    "Ġcommunications": 16353,
    "Ġelement": 6898,
    "Ġprogeny": 17386,
    "bohemia": 20730,
    "Ġporter": 15608,
    "Ġacid": 22680,
    "ses": 3025,
    "Ġreliability": 22876,
    "Ġpurplish": 19140,
    "arness": 11669,
    "Ġhollow": 5648,
    "wandered": 20284,
    "Ġcovariate": 2349,
    "Ġbased": 3339,
    "Ġglared": 13014,
    "Ġcutting": 4983,
    "design": 18958,
    "wedged": 24337,
    "Ġcashier": 20197,
    "enstern": 17781,
    "fetch": 12461,
    "Ġwasted": 9702,
    "Ġcontradictory": 20395,
    "Ġwhere": 786,
    "Ġseal": 10253,
    "chased": 18041,
    "Ġfav": 1755,
    "dient": 440,
    "Ġnailed": 10188,
    "inkled": 5477,
    "Ġhelp": 1641,
    "ifference": 5632,
    "Ġpilot": 5985,
    "casks": 20401,
    "itigated": 23043,
    "combination": 25486,
    "uberance": 25916,
    "Ġphrenolog": 12331,
    "cous": 8721,
    "affection": 7488,
    "ibilities": 13004,
    "Ġcompan": 2172,
    "Ġflesh": 5969,
    "Ġcostume": 16494,
    "Ġcausing": 16356,
    "Ġjoy": 3182,
    "mus": 10109,
    "brimmed": 14587,
    "Ġvilest": 20099,
    "Ġdestro": 3722,
    "crimes": 16696,
    "Ġlegend": 14574,
    "Ġtext": 2266,
    "Ġfaire": 13362,
    "Ġwarring": 16864,
    "Ġpolar": 9409,
    "Ġcolonnades": 26275,
    "Ġenjoy": 3760,
    "Ġeffusions": 18520,
    "tail": 8761,
    "Ġabatement": 22274,
    "Ġaroused": 15901,
    "Ġcourtiers": 24135,
    "Ġcurve": 22968,
    "ibank": 6880,
    "Ġplunge": 13441,
    "Ġph": 1547,
    "deployment": 26526,
    "Ġscrewing": 20207,
    "ĠĠĠĠĠĠĠĠĠĠĠĠĠĠĠĠĠĠĠĠĠĠĠĠĠĠĠĠĠĠĠĠĠĠĠĠĠĠĠĠ": 4515,
    "Ġcurves": 18844,
    "pursue": 24975,
    "Ġconcer": 23319,
    "Ġsending": 8774,
    "Ġconsummation": 17423,
    "Ġreigns": 21669,
    "Ġfluttered": 16248,
    "Ġabject": 18391,
    "acrity": 14260,
    "Ġembodiment": 20526,
    "Ġcaulking": 20292,
    "abulary": 4799,
    "Ġcoupled": 16850,
    "Ġpleases": 16296,
    "istry": 22107,
    "recol": 10149,
    "Ġunallied": 22028,
    "aught": 2681,
    "ĠĠĠĠĠĠĠĠĠĠĠĠĠĠĠĠĠĠĠĠĠĠĠĠĠĠĠĠĠĠĠĠĠĠĠĠĠĠĠĠĠĠĠĠĠĠĠ": 16754,
    "hun": 5210,
    "Ġaverse": 11080,
    "Ġcanal": 8182,
    "Ġapparelled": 20435,
    "Ġboston": 22636,
    "unk": 4537,
    "Ġprogra": 1144,
    "Ġremotest": 10050,
    "ingley": 1544,
    "green": 7115,
    "Ġbark": 10797,
    "p": 84,
    "Ġrus": 14090,
    "Ġromans": 16758,
    "Ġprognostics": 20557,
    "Ġeluded": 12918,
    "osque": 22259,
    "Ġrepulsive": 14529,
    "Ġdesperation": 19817,
    "ckinridge": 11716,
    "Ġsar": 21212,
    "Ġjudgment": 5765,
    "Ġcoincid": 20316,
    "renadier": 18419,
    "Ġsorely": 17255,
    "squee": 15429,
    "°": 113,
    "Ġimbalance": 22172,
    "interested": 9504,
    "snatched": 24850,
    "Ġthoughtlessness": 16192,
    "med": 1905,
    "fulfil": 16035,
    "uteronomy": 15661,
    "ignantly": 23264,
    "mbles": 23086,
    "Ġmaintains": 2146,
    "Ġfan": 2036,
    "Ġshow": 3403,
    "Ġadd": 630,
    "Ġembrace": 16989,
    "Ġrecognition": 3084,
    "Ġforged": 12700,
    "Ġtypes": 8935,
    "bre": 3983,
    "Ġ}": 21152,
    "Ġalbertus": 25648,
    "afer": 17480,
    "ously": 2490,
    "reement": 15510,
    "Ġpocket": 4897,
    "Ġtastes": 15476,
    "ieged": 22577,
    "Ġgaol": 19566,
    "physiogn": 26264,
    "able": 455,
    "Ġenumer": 12741,
    "Ġdislike": 6048,
    "Ġwickham": 2207,
    "Ġharpooning": 23976,
    "Ġlikened": 16498,
    "lascar": 20959,
    "enances": 10152,
    "Ġconceals": 23901,
    "luc": 9752,
    "Ġprincess": 23221,
    "Ġcondemned": 7779,
    "Ġunsur": 22018,
    "ricity": 23061,
    "usage": 12828,
    "pro": 2050,
    "Ġhoarse": 14525,
    "Ġmowers": 17812,
    "gent": 7129,
    "Ġremorseless": 13449,
    "Ġrule": 1533,
    "Ġextrem": 2473,
    "Ġimpenitent": 26547,
    "Ġjinglers": 26015,
    "mystic": 25316,
    "induce": 22372,
    "¼": 125,
    "Ġunique": 12774,
    "Ġinvest": 4978,
    "Ġovers": 14204,
    "Ġignorantly": 19494,
    "Ġhopkins": 23127,
    "end": 503,
    "batross": 9091,
    "umed": 6554,
    "Ġseems": 2479,
    "Ġbye": 12734,
    "Ġmiseries": 10345,
    "pious": 17632,
    "seventy": 10875,
    "Ġspoutings": 14674,
    "Ġdecisions": 6702,
    "mers": 9609,
    "ulus": 21862,
    "Ġunalterable": 15849,
    "Ġ1807": 26083,
    "rusion": 11322,
    "sculptured": 26046,
    "Ġimpulsive": 19961,
    "Ġutility": 23511,
    "Ġfeedforward": 2326,
    "Ġyears": 1890,
    "Ġelaborate": 18636,
    "hue": 20898,
    "anyth": 5438,
    "perhaps": 4123,
    "Ġoutermost": 22317,
    "oriental": 23719,
    "Ġcosy": 13128,
    "clad": 14457,
    "Ġfling": 9659,
    "Ġgalvan": 21615,
    "Ġjot": 11759,
    "flutter": 23968,
    "Ġinquir": 4242,
    "Ġdriving": 3618,
    "poster": 11055,
    "Ġhairs": 13228,
    "Ġwait": 4907,
    "Ġhatter": 4114,
    "itheat": 21336,
    "Ġsubsided": 14549,
    "ens": 702,
    "Ġtout": 17718,
    "Ġelder": 7223,
    "Ġchrist": 4075,
    "Ġderives": 16306,
    "Ġtrout": 22352,
    "Ġwhirling": 12245,
    "res": 2758,
    "Ġem": 1923,
    "like": 1882,
    "bare": 12438,
    "Ġlance": 4878,
    "intend": 16223,
    "morning": 4858,
    "presum": 12864,
    "Ġlexic": 15721,
    "Ġ1883": 23894,
    "Ġce": 3029,
    "Ġneg": 1332,
    "Ġproximity": 3220,
    "Ġfarmhouse": 24986,
    "borough": 20784,
    "hat": 6956,
    "goodbye": 12053,
    "Ġvillagers": 19472,
    "Ġmincing": 18750,
    "ckled": 9255,
    "Ġbenevolence": 9525,
    "Ġlevers": 18077,
    "visited": 13345,
    "ived": 1531,
    "Ġcontinental": 19704,
    "Ġdidn": 4361,
    "Ġeaten": 14843,
    "fron": 24280,
    "knife": 6942,
    "alongside": 19788,
    "rents": 5308,
    "apple": 22840,
    "Ġoperate": 19115,
    "Â": 131,
    "Ġswear": 6461,
    "Ġthat": 335,
    "Ġwrongfully": 24247,
    "Ġspecial": 2104,
    "daughter": 8354,
    "Ġacted": 7422,
    "Ĝ": 221,
    "Ġblessed": 6931,
    "Ġgild": 15666,
    "iating": 3206,
    "Ġaut": 1835,
    "Ġconfidential": 9086,
    "Ġ13": 6718,
    "ccarthy": 4887,
    "Ġexceedingly": 4612,
    "Ġsplit": 7993,
    "Ġspoiled": 11362,
    "Ġislets": 21799,
    "Ġmaddened": 17243,
    "Ġoldest": 12969,
    "Ġlink": 8130,
    "Ġtime": 690,
    "uts": 8814,
    "oky": 8198,
    "Ġbed": 2145,
    "Ġreverence": 12056,
    "ribute": 7226,
    "weed": 14313,
    "boast": 23252,
    "Ġcentaurs": 23830,
    "later": 20952,
    "Ġthose": 1174,
    "oub": 1630,
    "asol": 21538,
    "rised": 10122,
    "some": 2235,
    "carpet": 25202,
    "Ġsundering": 23273,
    "Ġsustaining": 25333,
    "Ġrefrained": 14342,
    "rabbit": 20589,
    "harpo": 4804,
    "Ġcheck": 7271,
    "Ġcapacious": 19175,
    "Ġcastaway": 16639,
    "Ġtransformer": 2639,
    "Ġcasement": 25092,
    "butter": 11783,
    "ithmetic": 18061,
    "lies": 15379,
    "Ġoverboard": 6045,
    "entric": 11617,
    "loath": 22507,
    "Ġdistressing": 12215,
    "Ġweave": 21919,
    "elastic": 17980,
    "Ġcuriosity": 2401,
    "----âĢĻ": 24095,
    "Ġgallons": 14816,
    "sleeve": 26108,
    "lar": 4482,
    "Ġtokens": 1772,
    "Ġaddu": 22100,
    "monograph": 23523,
    "Ġhesitate": 16945,
    "fishers": 24928,
    "Ġseeth": 21951,
    "Ġgasped": 11371,
    "ĠâĢľâĢĺ": 8503,
    "Ġconsidering": 4613,
    "Ġirregularly": 25323,
    "Ġwounding": 19585,
    "case": 5206,
    "Ġconsort": 18723,
    "Ġintimidated": 24805,
    "Ġsurveying": 25325,
    "Ġstove": 6733,
    "Ġperusal": 14223,
    "laz": 15383,
    "Ġornaments": 17450,
    "Ġcontinu": 1167,
    "ifling": 15780,
    "Ġtroubling": 26546,
    "wedding": 13369,
    "Ġlatin": 16820,
    "Ġcontortions": 18475,
    "Ġwhelm": 25998,
    "Ġposted": 16723,
    "Ġbruised": 25772,
    "Ġmassive": 9930,
    "igations": 18043,
    "Ġwallow": 19464,
    "Ġwaste": 9232,
    "Ġvengeance": 5885,
    "Ġregulate": 22586,
    "Ġincarn": 11811,
    "Ġaccomplishment": 19664,
    "Ġrec": 898,
    "Ġstrictly": 12282,
    "Ġdownst": 3560,
    "Ġnaturally": 2465,
    "Ġimputed": 12804,
    "Ġrepine": 16408,
    "Ġnumerous": 6920,
    "Ġbacks": 8528,
    "Ġcircumstances": 3926,
    "Ġbale": 7839,
    "Ġwitt": 17783,
    "conversations": 24749,
    "wheeling": 22868,
    ".;": 20743,
    "Ġdelivered": 11115,
    "Ġpit": 3421,
    "alone": 10182,
    "heaven": 8053,
    "aken": 1867,
    "coburg": 13596,
    "gon": 17551,
    "cheon": 23802,
    "Ġ131": 24782,
    "Ġnames": 4531,
    "Ġshoals": 13131,
    "persons": 24173,
    "Ġvanquished": 22873,
    "Ġpin": 7161,
    "Ġcollateral": 20070,
    "ignominious": 26586,
    "Ġproviding": 1361,
    "suffered": 24333,
    "Ġidly": 16402,
    "Ġtow": 4394,
    "Ġincognit": 22553,
    "arthur": 14828,
    "Ġfragments": 19035,
    "Ġusual": 3946,
    "extrem": 18699,
    "olog": 1095,
    "Ġloveliness": 13606,
    "Ġsickle": 24244,
    "Ġstreaked": 19113,
    "colour": 9901,
    "Ġaxe": 15062,
    "sighted": 19784,
    "Ġalarmed": 6923,
    "Ġtandem": 26410,
    "pet": 4866,
    "zz": 4292,
    "Ġreverse": 16981,
    "Ġdisappointment": 6626,
    "rederick": 14077,
    "Ġmarbank": 23035,
    "itch": 10159,
    "uy": 21098,
    "Ġluck": 4879,
    "Ġscorched": 17100,
    "additional": 20462,
    "Ġbutchers": 18272,
    "Ġsam": 7570,
    "Ġcomposedly": 25185,
    "Ġproclaim": 18130,
    "Ġqual": 6274,
    "Ġnowhere": 12882,
    "Ġenl": 18188,
    "Ġbeggars": 20628,
    "tone": 8762,
    "Ġaries": 21196,
    "Ġadvertised": 17246,
    "zas": 17711,
    "Ġsobbing": 14134,
    "89": 20758,
    "Ġsnorting": 23739,
    "irmed": 9237,
    "Ġprairie": 8712,
    "Ġdaniel": 15109,
    "inarticulate": 21194,
    "Ġinsens": 8277,
    "Ġconfessor": 24016,
    "Ġleak": 2160,
    "ctic": 8442,
    "Ġejaculated": 15167,
    "aits": 20765,
    "Ġpierced": 12278,
    "Ġpurch": 6599,
    "proud": 9902,
    "Ġblown": 12082,
    "Ġstri": 2801,
    "Ġadmits": 23552,
    "Ġpredicted": 2045,
    "Ġorgan": 2503,
    "Ġmurdered": 6464,
    "glancing": 11213,
    "Ġresided": 11808,
    "Ġlogic": 13075,
    "haven": 20911,
    "flatter": 23964,
    "osc": 18387,
    "Ġvide": 10249,
    "Ġdoubling": 23318,
    "Ġunicorn": 22053,
    "Ġwarden": 17223,
    "Ġguardianship": 17418,
    "prints": 23810,
    "Ġwillow": 18532,
    "winding": 16719,
    "Ġvoy": 2622,
    "another": 5439,
    "Ġmccarthy": 5145,
    "vative": 1585,
    "rable": 11630,
    "Ġtickets": 17093,
    "Ġbarrow": 12066,
    "nical": 20990,
    "Ġpens": 21458,
    "Ġankers": 21444,
    "aloes": 21500,
    "Ġdictionaries": 12337,
    "Ġcurious": 3361,
    "Ġverse": 16601,
    "springs": 24911,
    "Ġadult": 18289,
    "Ġbrill": 8549,
    "oam": 8751,
    "Ġarose": 7360,
    "Ġunprincipled": 20707,
    "damn": 20022,
    "Ġflooded": 24961,
    "Ġdistributed": 18661,
    "find": 6954,
    "Ġreach": 4049,
    "erick": 13846,
    "farmer": 25899,
    "Ġbrooded": 23101,
    "Ġwar": 5526,
    "Ġconsc": 4274,
    "wilful": 25086,
    "Ġbir": 17853,
    "neying": 22461,
    "Ġsinful": 18948,
    "Ġinvested": 7279,
    "Ġsuffusing": 23029,
    "Ġautonomous": 10674,
    "Ġexeget": 24084,
    "Ġsofa": 10269,
    "Ġgoverning": 2793,
    "Ġgurg": 15670,
    "city": 15325,
    "Ġwrinkles": 8570,
    "Ġstrongest": 11134,
    "Ġhig": 756,
    "Ġaccomplishments": 13377,
    "Ġdeliciousness": 24125,
    "Ġstraits": 7994,
    "angles": 18295,
    "Ġassid": 18944,
    "Ġavailed": 23949,
    "inate": 6233,
    "send": 15422,
    "Ġodorous": 19565,
    "Ġshut": 3945,
    "Ġboiling": 8525,
    "Ġsinusoidal": 4800,
    "Ġscuffle": 20608,
    "Ġdegree": 3704,
    "elopement": 23178,
    "ofs": 11827,
    "Ġ113": 19695,
    "Ġsaucer": 20604,
    "heads": 4097,
    "ego": 4038,
    "Ġdismally": 20213,
    "lic": 17586,
    "shown": 22442,
    "umbered": 22115,
    "bro": 4037,
    "Ġcaval": 25769,
    "Ġdestined": 7974,
    "Ġbreast": 8967,
    "pron": 9004,
    "Ġparad": 2841,
    "Ġglancing": 5399,
    "Ġdisput": 14254,
    "Ġunfor": 15837,
    "musket": 25341,
    "Ġdeparture": 6490,
    "Ġtram": 11090,
    "partly": 14601,
    "Ġsymptom": 13481,
    "Ġslumber": 13056,
    "instinctively": 26327,
    "Ġdesigns": 13012,
    "Ġdiscoveries": 13356,
    "Ġsatisf": 2804,
    "Ġshores": 8846,
    "Ġagree": 7647,
    "ignorantly": 25189,
    "Ġinstincts": 16985,
    "anse": 12571,
    "justified": 19002,
    "Ġmanufactured": 22328,
    "contempl": 13189,
    "Ġnobler": 14174,
    "cures": 20804,
    "Ġsed": 10760,
    "Ġswerve": 14435,
    "Ġrenegades": 26475,
    "Ġsnap": 11199,
    "look": 2260,
    "Ġpeevish": 26556,
    "Ġagent": 6277,
    "Ġunhappiness": 14116,
    "enge": 21279,
    "izens": 18135,
    "neighboring": 20615,
    "Ġfetch": 7770,
    "Ġdecanting": 22455,
    "peaceful": 20445,
    "let": 2732,
    "Ġyards": 5371,
    "Ġshud": 5461,
    "deeply": 16177,
    "Ġkentuck": 19890,
    "Ġwaving": 8575,
    "Ġgust": 21595,
    "Ġloud": 4700,
    "Ġfoam": 6891,
    "sculpt": 16245,
    "alyards": 18789,
    "Ġstaggers": 24653,
    "Ġlightness": 23259,
    "Ġgar": 10837,
    "begged": 18523,
    "Ġshriek": 6637,
    "Ġrejoice": 10207,
    "oir": 21001,
    "Ġthem": 641,
    "Ġpoetry": 15078,
    "Ġescaping": 13132,
    "Ġpondering": 17004,
    "Ġfrigate": 13079,
    "Ġhonor": 5664,
    "board": 3566,
    "Ġthings": 1962,
    "Ġsolemnly": 8024,
    "past": 8090,
    "Ġindignantly": 16938,
    "Ġwednesday": 9023,
    "Ġrequested": 14305,
    "Ġaband": 6561,
    "Ġpresent": 1642,
    "Ġdep": 752,
    "Ġvoyagings": 19234,
    "Ġapplies": 11953,
    "flow": 2278,
    "Ġredress": 23751,
    "Ġstrife": 18614,
    "Ġweighted": 2092,
    "Ġrinal": 21975,
    "Ġcontent": 5034,
    "Ġdeft": 21835,
    "Ġplainly": 4379,
    "Ġimpropri": 14216,
    "mates": 5073,
    "Ġpear": 11849,
    "P": 52,
    "Ġinsupportable": 13930,
    "rever": 21234,
    "Ġyellowish": 24429,
    "Ġoblivion": 26031,
    "Ġreplaced": 13069,
    "Ġhap": 18195,
    "Ġweakened": 16822,
    "ispens": 8336,
    "Ġacres": 14311,
    "Ġmonths": 3455,
    "insufficient": 15488,
    "Ġphys": 5653,
    "Ġtweezers": 26555,
    "Ġsurround": 4615,
    "Ġcautiousness": 19865,
    "alive": 10826,
    "erness": 6434,
    "judge": 13334,
    "inite": 6002,
    "Ġglim": 9342,
    "Ì": 141,
    "goose": 19101,
    "Ġventing": 19492,
    "Ġexcavating": 23313,
    "Ġlimber": 16477,
    "Ġunwilling": 7887,
    "Ġbust": 10166,
    "Ġnews": 3819,
    "say": 3988,
    "Ġsuddenly": 2648,
    "nourished": 26397,
    "ilder": 15710,
    "Ġblows": 5973,
    "Ġequinox": 25855,
    "Ġintuitions": 17339,
    "Ġmotion": 4564,
    "lemag": 21370,
    "Ġhumorously": 18776,
    "ache": 8517,
    "constantly": 24607,
    "Ġreads": 23110,
    "Ġclam": 7416,
    "protected": 19920,
    "Ġpolicy": 10456,
    "kind": 3864,
    "Ġderived": 8239,
    "Ġnodes": 1967,
    "Ġshaded": 14103,
    "Ġclinging": 10290,
    "Ġnarratives": 24352,
    "frost": 15104,
    "engines": 18927,
    "Ġinhabitants": 7525,
    "Ġbullion": 24985,
    "Ġspectator": 19404,
    "ising": 2253,
    "fthand": 26385,
    "noon": 5037,
    "Ġcompat": 2938,
    "Ġterrific": 6754,
    "crow": 9589,
    "ading": 5091,
    "Ġarch": 934,
    "ores": 2410,
    "Ġtell": 1467,
    "prises": 23811,
    "grief": 13729,
    "Ġemail": 19072,
    "Ġgreat": 895,
    "dozen": 23376,
    "third": 8168,
    "irons": 10237,
    "Ġbabes": 24424,
    "duck": 22410,
    "Ġportable": 19368,
    "Ġmanhandle": 22327,
    "feeder": 12358,
    "Ġthoroughfare": 16943,
    "inn": 5363,
    "Ġrepented": 23361,
    "unwittingly": 25801,
    "charm": 13988,
    "Ġgeorgia": 23884,
    "philips": 20033,
    "Ġbeloved": 5571,
    "remote": 23188,
    "explaining": 23137,
    "Ġportrait": 10660,
    "Ġtumbled": 13404,
    "Ġwhereof": 16100,
    "Ġcrocod": 19627,
    "Ġfleet": 9430,
    "illuminated": 17451,
    "Ġfrantic": 7957,
    "Ġhanding": 16128,
    "heat": 15496,
    "Ġveracity": 23887,
    "ashed": 3783,
    "mankind": 14372,
    "Ġgeorgiana": 8625,
    "imper": 13995,
    "du": 603,
    "eld": 965,
    "Ġrejoined": 14925,
    "burning": 25078,
    "Ġenjoyed": 8008,
    "Ġdesist": 16238,
    "deficient": 23115,
    "Ġhill": 5626,
    "Ġinduce": 7763,
    "poured": 17636,
    "Ġfolding": 19725,
    "hatch": 15362,
    "Ġsummoned": 9909,
    "Ġsavagely": 26323,
    "Ġsanguine": 25928,
    "Ġtroublesome": 23999,
    "Ġmedium": 16680,
    "Ġundoubted": 19513,
    "urements": 18123,
    "Ġstreat": 15718,
    "Ġabsurd": 7202,
    "conda": 18993,
    "disgust": 23494,
    "road": 6677,
    "armed": 7251,
    "oin": 17616,
    "Ġincapable": 7423,
    "Ġwheeled": 14137,
    "Ġluxuriant": 20393,
    "Ġlinn": 13951,
    "national": 20997,
    "Ġenticing": 22746,
    "Ġsenior": 17170,
    "sweetly": 25134,
    "sin": 21047,
    "Ġpersist": 16282,
    "Ġvillainous": 25131,
    "Ġpause": 5707,
    "Ġcorrid": 9822,
    "acked": 10973,
    "Ġthief": 11608,
    "Ġabounding": 12341,
    "yt": 17710,
    "Ġlaunched": 14924,
    "Ġcompass": 4407,
    "Ġphysical": 7523,
    "Ġoutlast": 22311,
    "Ġreb": 15688,
    "strange": 6087,
    "Ġancest": 12610,
    "augh": 1783,
    "iriously": 18171,
    "Ġcampa": 17172,
    "Ġunreasoning": 15843,
    "Ġsmoothe": 23657,
    "Ġstrained": 10217,
    "Ġchick": 22245,
    "Ġmodeling": 2097,
    "Ġpublisher": 24064,
    "Ġdances": 10811,
    "Ġglowed": 24864,
    "Ġnewcomer": 26040,
    "Ġcowardice": 17031,
    "Ġactivations": 2720,
    "authority": 13589,
    "Ġbeeches": 9225,
    "Ġfurthermore": 1171,
    "Ġtowering": 16738,
    "for": 961,
    "Ġfilthy": 13245,
    "erxes": 21274,
    "bey": 10312,
    "Ġachieved": 13164,
    "Ġstraggling": 23750,
    "Ġleft": 1761,
    "Ġvictim": 6098,
    "rane": 17652,
    "utral": 12659,
    "hooked": 23714,
    "Ġryder": 10257,
    "copy": 5133,
    "Ġmeagre": 21808,
    "Ġsurpassing": 20466,
    "Ġlestrade": 5825,
    "Ġresist": 7917,
    "Ġcondu": 18109,
    "Ġstarbuck": 2195,
    "Ġsurely": 6307,
    "Ġgazing": 5876,
    "Ġvegetables": 15219,
    "Ġdeep": 809,
    "looked": 6084,
    "Ġfar": 1450,
    "endured": 22225,
    "Ġmental": 21318,
    "Ġsequentially": 4914,
    "embraced": 25804,
    "Ġcontextual": 3742,
    "Ġsombre": 18859,
    "profound": 16424,
    "Ġdiddled": 22665,
    "Ġmanager": 11766,
    "inferences": 17738,
    "Ġattitude": 8901,
    "Ġminima": 3463,
    "arris": 13207,
    "Ġeffeminacy": 20717,
    "gravel": 22618,
    "ubbub": 23243,
    "Ġansw": 2206,
    "Ġprot": 3847,
    "Ġinconvenience": 9562,
    "Ġbarricade": 14659,
    "Ġnarrow": 5086,
    "Ġreasonably": 11089,
    "Ġappertaining": 26532,
    "Ġcreativity": 2974,
    "hunsford": 24385,
    "ject": 874,
    "Ġjealous": 9467,
    "depth": 12796,
    "Ġproportionably": 19969,
    "comput": 1913,
    "weakness": 16122,
    "overcoat": 19051,
    "Ġimbued": 17453,
    "Ġpubl": 3943,
    "Ġrational": 8479,
    "Ġentail": 9791,
    "Ġasp": 15778,
    "Ġnothing": 1360,
    "urrection": 12406,
    "Ġunmolested": 15243,
    "Ġundeserving": 18268,
    "Ġmute": 19414,
    "cules": 12388,
    "Ġsolicited": 20035,
    "Ġthe": 270,
    "Ġraw": 3320,
    "Ġpatroness": 13508,
    "Ġfashioned": 13318,
    "Ġhelplessness": 25071,
    "landish": 11939,
    "unwho": 21875,
    "Ġbreathes": 13243,
    "elve": 4640,
    "ex": 621,
    "rested": 13072,
    "Ġxxxii": 24972,
    "heum": 17746,
    "ury": 3311,
    "ony": 3027,
    "Ġcontinent": 14886,
    "shroud": 20309,
    "Ġnoiselessly": 22861,
    "Ġsetting": 7046,
    "attended": 8951,
    "Ġdeportment": 22611,
    "Ġhorizontal": 7783,
    "Ġdiligently": 11404,
    "pow": 10716,
    "itted": 2439,
    "prom": 6509,
    "Ġcup": 5697,
    "Ġprophetic": 20018,
    "Ġuttered": 7280,
    "Ġscrutiny": 26017,
    "be": 671,
    "manif": 14371,
    "wind": 4252,
    "mingled": 14711,
    "Ġunrel": 14694,
    "Ġrisks": 9962,
    "Ġconquer": 14025,
    "ow": 325,
    "Ġbewitched": 25975,
    "Ġspoke": 2747,
    "Ġleaf": 15720,
    "Ġ(âĢľ": 15995,
    "Ġimmovable": 15890,
    "eon": 8729,
    "Ġover": 554,
    "Ġmisfortune": 5568,
    "Ġjulia": 22290,
    "Ġdriver": 16472,
    "round": 3368,
    "Ġarri": 2554,
    "from": 1990,
    "Ġguise": 14430,
    "exact": 7911,
    "lege": 17841,
    "Ġsneezing": 12244,
    "Ġdilig": 8350,
    "tinted": 17682,
    "gigantic": 15357,
    "impressions": 20697,
    "respond": 12540,
    "Ġ41": 24078,
    "Ġchoke": 22247,
    "Ġwhistled": 24624,
    "Ġcolumns": 14374,
    "interruption": 20110,
    "Ġcomprehension": 15084,
    "Ġcrunched": 19123,
    "pleasures": 24043,
    "egypt": 15347,
    "Ġprender": 22233,
    "Ġsay": 932,
    "Ġrocks": 6863,
    "Ġderbyshire": 6586,
    "Ġatlantic": 7000,
    "Ġimprovement": 7964,
    "stool": 23817,
    "Ġungod": 22020,
    "Ġtrans": 637,
    "roar": 17952,
    "except": 5383,
    "Ġantarctic": 19551,
    "Ġlob": 7628,
    "Ġsupport": 6728,
    "company": 9459,
    "Ġsurtout": 23464,
    "Ġdisturbing": 19944,
    "Ġ45": 14768,
    "Ġnuptial": 25782,
    "Ġlarboard": 11008,
    "Ġpea": 14315,
    "Ġtarget": 2820,
    "rock": 15638,
    "Ġthrone": 12210,
    "poling": 12216,
    "signed": 21060,
    "Ġfrenz": 25446,
    "Ġunprofitable": 18267,
    "Ġdashes": 21433,
    "Ġjourney": 3880,
    "epilogue": 22098,
    "objection": 19914,
    "Ġprofoundly": 16858,
    "othic": 16215,
    "gracechurch": 24580,
    "lott": 6650,
    "Ġcanals": 22160,
    "Ġunaccount": 22023,
    "ade": 880,
    "Ġapprovingly": 26252,
    "verse": 9686,
    "Ġunp": 12768,
    "nings": 9130,
    "urs": 6989,
    "Ġunshored": 25813,
    "iom": 20914,
    "Ġfry": 17879,
    "Ġarmed": 9258,
    "haw": 6361,
    "Ġjoky": 18401,
    "naturalists": 23525,
    "occasionally": 13519,
    "Ġjail": 22282,
    "Ġthis": 382,
    "below": 12118,
    "Ġlanguid": 14213,
    "Ġreasoning": 2022,
    "Ġseclusion": 18206,
    "onsensical": 18577,
    "Ġnot": 413,
    "deserts": 25379,
    "Ġsphy": 18311,
    "Ġpantheistic": 26335,
    "Ġstrokes": 16768,
    "Ġlinen": 12404,
    "influences": 25250,
    "thumb": 18218,
    "Ġdecreas": 1648,
    "Ġwharf": 9558,
    "Ġinfallibly": 10039,
    "Ġnamed": 6139,
    "Ġunc": 2126,
    "Ġcelebrated": 13592,
    "Ġclim": 8195,
    "Ġrelative": 11880,
    "Ġencourages": 2062,
    "ho": 2856,
    "dinah": 20079,
    "Ġgrounds": 6749,
    "Ġxxxvi": 24971,
    "Ġfatigued": 13463,
    "roll": 9195,
    "procure": 23395,
    "Ġadaptation": 3154,
    "widely": 25343,
    "nights": 16448,
    "Ġmonarchs": 25849,
    "Ă": 195,
    "gunpowder": 25339,
    "¨": 106,
    "Ġhorrid": 7999,
    "Ġthankful": 14736,
    "inferiors": 25346,
    "Ġvery": 636,
    "Ġencirc": 18732,
    "aited": 12432,
    "Ġclosest": 16762,
    "Ġrevered": 23732,
    "tan": 4741,
    "magnet": 14968,
    "Ġvindication": 25364,
    "Ġsayest": 22774,
    "parsee": 14518,
    "irs": 14069,
    "Ġhumorous": 10358,
    "Ġgay": 5534,
    "further": 7536,
    "eyes": 5684,
    "who": 2445,
    "concerned": 24583,
    "Ġjac": 1895,
    "enched": 10153,
    "spirited": 19752,
    "Ġwhale": 627,
    "Ġpay": 3967,
    "Ġbenediction": 18783,
    "duodecimo": 15999,
    "tfordshire": 4810,
    "quar": 7616,
    "mechanically": 17298,
    "blue": 13691,
    "Ġpensive": 21473,
    "Ġrequest": 6051,
    "Ġplayful": 19236,
    "Ġexclaiming": 13639,
    "Ġcasked": 24496,
    "Ġliked": 5264,
    "Ġunjust": 8483,
    "Ġwears": 10239,
    "Ġpadd": 9668,
    "Ġserviceable": 24718,
    "Ġbitterly": 8315,
    "Ġdecorated": 22457,
    "Ġutensils": 23512,
    "Ġsubterr": 10347,
    "itig": 1331,
    "Ġgenteel": 19979,
    "Ġfaithfully": 14885,
    "Ġunob": 22011,
    "northern": 23666,
    "Ġlocations": 12410,
    "Ġdoxology": 22242,
    "rab": 7597,
    "Ġsaturday": 6452,
    "Ġvia": 2380,
    "quiet": 6154,
    "Ġtrivial": 10141,
    "gies": 13724,
    "Ġdistrust": 8205,
    "Ġblended": 16218,
    "Ġdisputing": 25824,
    "Ġvernal": 23886,
    "Ġchar": 1706,
    "party": 8991,
    "Ġthrust": 5084,
    "Ġpacifics": 24372,
    "Ġsnuffed": 15070,
    "Ġremnants": 22792,
    "Ġlouisa": 13544,
    "Ġleaky": 2345,
    "adequate": 15201,
    "Ġhappen": 5570,
    "days": 7689,
    "strom": 15680,
    "gely": 10699,
    "suppose": 8644,
    "inations": 7568,
    "Ġinqu": 2965,
    "breast": 11244,
    "Ġdescription": 7429,
    "Ġdissuade": 26256,
    "madam": 24420,
    "Ġoutside": 5553,
    "putting": 14098,
    "Ġforbidding": 17078,
    "Ġjenny": 20161,
    "Ġbestir": 13107,
    "convers": 6567,
    "scar": 9814,
    "Ġdigesting": 19808,
    "Ġadjust": 2155,
    "Ġchuck": 8501,
    "calculating": 25689,
    "joy": 3335,
    "Ġthrobbing": 16897,
    "utherland": 9577,
    "Ġ43": 14767,
    "nect": 662,
    "characteristic": 24685,
    "Ġearl": 7677,
    "Ġensigns": 23687,
    "Ġguests": 12284,
    "Ġalong": 1979,
    "Ġfourth": 7707,
    "Ġclutched": 13517,
    "atible": 17771,
    "Ġdisadvantages": 18558,
    "Ġfrock": 10488,
    "inev": 21977,
    "Ġcarved": 7947,
    "Ġspent": 3968,
    "Ġhumane": 11881,
    "Ġobeyed": 12213,
    "Ġharbors": 24901,
    "aves": 3600,
    "Ġmayhap": 18709,
    "they": 1877,
    "Ġcomfortless": 23910,
    "Ġcuvier": 9164,
    "Ġswell": 8948,
    "zealand": 26052,
    "Ġliberty": 7762,
    "nantucketer": 24974,
    "Ġhatchways": 24989,
    "contrasted": 17304,
    "Ġliking": 23590,
    "ight": 403,
    "Ġstout": 6025,
    "Ġbig": 5805,
    "Ġkeeps": 8267,
    "Ġast": 2961,
    "chooses": 23672,
    "uish": 5431,
    "Ġinterested": 6458,
    "Ġcastors": 23973,
    "Ġerrand": 11084,
    "Ġpoetic": 17102,
    "Ġalmanac": 26484,
    "Ġconclusions": 10552,
    "ugal": 19019,
    "Ġmasses": 10502,
    "Ġtrials": 16788,
    "`": 68,
    "Ġsumat": 14128,
    "Ġb": 281,
    "Ġinstruct": 2863,
    "surv": 24212,
    "Ġsafe": 5103,
    "Ġhypothe": 4076,
    "Ġpicturesque": 14892,
    "Ġequality": 16357,
    "Ġsong": 5903,
    "Ġimproves": 22742,
    "aution": 9385,
    "nue": 15395,
    "Ġnarrative": 6215,
    "\"]": 17469,
    "little": 3352,
    "squeezing": 25913,
    "asper": 7855,
    "Ġdigress": 24648,
    "Ġnumbers": 2889,
    "idean": 14264,
    "akened": 7415,
    "Ġsheltered": 19910,
    "Ġemerging": 24613,
    "cannibal": 15222,
    "Ġobeisance": 19757,
    "Ġwaking": 11568,
    "Ġjuly": 17235,
    "exceed": 7912,
    "unless": 9233,
    "tender": 14471,
    "Ġplain": 2814,
    "ĠcÃ¦": 15552,
    "Ġgroom": 13964,
    "Ġpassion": 4555,
    "possible": 5743,
    "Ġselect": 4003,
    "verize": 21726,
    "abriel": 6950,
    "question": 5418,
    "Ġsorting": 3234,
    "Ġfairly": 6325,
    "Ġverily": 16602,
    "Ġporus": 24397,
    "Ġdon": 1613,
    "Ġtools": 11607,
    "max": 1687,
    "evinced": 19925,
    "Ġmeanwhile": 5736,
    "unity": 4153,
    "Ġcolumb": 22856,
    "Ġrising": 4354,
    "accustomed": 13155,
    "Ġ66": 24368,
    "Ġlazily": 11379,
    "Ġadjac": 18292,
    "Ġspring": 4122,
    "Ġlodgings": 8312,
    "om": 316,
    "seals": 21816,
    "Ġyou": 366,
    "Ġgour": 21596,
    "Ġhogarth": 25780,
    "ols": 2409,
    "Ġunho": 18245,
    "Ġmoments": 4844,
    "icious": 7380,
    "Ġredundant": 16549,
    "pudding": 17646,
    "Ġchilian": 25563,
    "iffs": 9020,
    "Ġplied": 22596,
    "project": 16423,
    "ressing": 8917,
    "oters": 21797,
    "berish": 22714,
    "Ġhappened": 3713,
    "Ġundivided": 24119,
    "Ġalighted": 18103,
    "Ġimpregn": 26022,
    "Ġextremest": 19193,
    "Ġfilling": 13406,
    "rations": 10722,
    "engagements": 25853,
    "shish": 11790,
    "Ġlatent": 19654,
    "aud": 8521,
    "Ġfaintness": 24569,
    "Ġvor": 15804,
    "lengths": 24846,
    "speak": 5504,
    "Ġmen": 1436,
    "requ": 7148,
    "Ġdelineations": 26058,
    "Ġillustrative": 25066,
    "Ġducks": 25157,
    "indust": 18435,
    "Ġern": 8397,
    "Ġdelightful": 6320,
    "colnett": 19329,
    "Ġinh": 10823,
    "Ġhasty": 10476,
    "Ġliquid": 22407,
    "pay": 10717,
    "Ġpretended": 19313,
    "Ġbetray": 7442,
    "Ġprosecuted": 25293,
    "Ġconfession": 11234,
    "hence": 16623,
    "aced": 2413,
    "Ġchoicest": 24219,
    "Ġleave": 2456,
    "Ġbod": 4579,
    "aye": 3660,
    "Ġabstracted": 17181,
    "Ġperceptible": 18452,
    "izzy": 3093,
    "rocious": 21537,
    "aven": 8210,
    "Ġrele": 2918,
    "Ġcauses": 2562,
    "Ġdoors": 6418,
    "Ġseriously": 7061,
    "Ġfern": 21405,
    "anxiety": 25155,
    "Ġlifting": 10195,
    "Ġwheeling": 18286,
    "Ġunnaturally": 24870,
    "spond": 5566,
    "monkey": 19169,
    "Ġwhereby": 11834,
    "scent": 13017,
    "Ġoff": 902,
    "imet": 21704,
    "'t": 3143,
    "Ġcroquet": 9960,
    "Ġpeas": 8533,
    "wol": 21121,
    "Ġcomrades": 9553,
    "Ġdenied": 8999,
    "Ġstand": 1735,
    "Ġflorida": 20658,
    "warmth": 20051,
    "Ġbalances": 2339,
    "art": 583,
    "Ġsets": 8773,
    "<SOS>": 1,
    "Ġenabling": 1077,
    "cupboards": 25401,
    "Ġvehicle": 20137,
    "Ġdiverted": 14591,
    "Ġperishing": 22396,
    "Ġxerxes": 23409,
    "Ġthrob": 21516,
    "ourably": 14375,
    "gyric": 19109,
    "Ġmed": 3991,
    "Ġdebts": 8036,
    "Ġflourish": 17159,
    "Ġlvi": 21551,
    "Ġpir": 6818,
    "Ġpursuing": 9436,
    "Ġswaths": 23056,
    "Ġexclamations": 11360,
    "Ġinclu": 1097,
    "Ġexecuted": 9470,
    "Ġdisengaged": 12885,
    "Ġattorney": 18620,
    "Ġseals": 11692,
    "Ġrob": 1218,
    "august": 11070,
    "wow": 21120,
    "poke": 18797,
    "Ġfin": 1459,
    "Ġbristol": 14378,
    "Ġnavies": 16899,
    "Ġinexplicable": 12253,
    "wonted": 13491,
    "Ġgipsies": 12405,
    "susp": 10595,
    "crown": 13696,
    "Ġperennial": 22692,
    "Ġunsuccessful": 18257,
    "Ġharb": 7370,
    "Ġ80": 24455,
    "Ġhumming": 12981,
    "centre": 17086,
    "Ġhuman": 1318,
    "circumamb": 26087,
    "Ġthreatening": 16827,
    "Ġpool": 5173,
    "orum": 12586,
    "Ġimpaling": 22385,
    "heaved": 21209,
    "Ġparticular": 2448,
    "sutherland": 21061,
    "Ġriotous": 20543,
    "iv": 430,
    "Ġgrunted": 16169,
    "intellect": 18821,
    "anque": 13886,
    "fluttering": 23970,
    "desirable": 23205,
    "Ġancestry": 25641,
    "Ġnewcom": 16221,
    "Ġflinging": 13583,
    "Ġcheshire": 13087,
    "condite": 23247,
    "Ġnod": 1886,
    "ouched": 4635,
    "as": 302,
    "Ġdetail": 635,
    "Ġgovernor": 16489,
    "plexy": 18567,
    "haz": 17563,
    "Ġ74": 24260,
    "Ġcoun": 4178,
    "Ġservants": 6611,
    "qualities": 25043,
    "Ġgrip": 11625,
    "Ġbrine": 18768,
    "Ġclo": 6043,
    "Ġexception": 11215,
    "supp": 4163,
    "igators": 18045,
    "Ġdegrees": 7294,
    "Ġregrets": 18601,
    "endous": 6850,
    "Ġstudents": 23211,
    "Ġdashing": 8794,
    "aviour": 11004,
    "newsp": 23131,
    "Ġlimping": 23544,
    "Ġconcocted": 26299,
    "mistress": 14903,
    "Ġlaug": 3628,
    "Ġgrand": 3593,
    "keeping": 8634,
    "Ġcollapsed": 15079,
    "aet": 15305,
    "erer": 8731,
    "Ġelev": 5535,
    "Ġrequiring": 2922,
    "Ġmysterious": 7528,
    "Ġgenerations": 10963,
    "stating": 21639,
    "Ġbethink": 12376,
    "arts": 6563,
    ")(": 2981,
    "Ġparties": 7038,
    "Ġdiminishing": 4209,
    "Ġsummers": 23871,
    "undant": 14784,
    "Ġspat": 2666,
    "Ġtotally": 9469,
    "Ġnovel": 6695,
    "Ġdisturbed": 8671,
    "sacrifice": 13490,
    "resolutions": 26164,
    "Ġfully": 6342,
    "Ġanx": 3179,
    "Ġtrousers": 12412,
    "Ġfatig": 6756,
    "Ġstammered": 26199,
    "Ġbacking": 16115,
    "Ġqueequeg": 2012,
    "gate": 12463,
    "works": 6588,
    "stopping": 19348,
    "alluring": 18352,
    "flutterings": 26605,
    "Ġune": 4596,
    "Ġphaeton": 17463,
    "moral": 14799,
    "Ġmig": 13854,
    "Ġundertone": 23235,
    "Ġocean": 3304,
    "Ġtreacherous": 13552,
    "Ġprivacy": 19523,
    "vap": 13801,
    "Ġhappening": 14381,
    "tipt": 25083,
    "Ġnearer": 5301,
    "Ġtenement": 23546,
    "Ġbeef": 6830,
    "Ġpam": 21452,
    "Ġspr": 4028,
    "Ġcharitable": 23268,
    "herself": 4889,
    "concerted": 16670,
    "Ġinvariably": 8064,
    "Ġswimmer": 19457,
    "dart": 20825,
    "Ġinquiries": 5678,
    "====": 1480,
    "Ġicebergs": 23972,
    "ging": 2601,
    "clo": 5612,
    "Ġpuzzle": 11304,
    "Ġsetbacks": 11062,
    "chess": 16571,
    "Ġstudded": 18966,
    "Ġparticip": 16129,
    "Ġhereby": 10356,
    "Ġgoest": 22419,
    "Ġobliter": 14320,
    "Ġwinged": 16994,
    "Ġ87": 19709,
    "ote": 4594,
    "story": 9211,
    "Ġservox": 23868,
    "Ġcelest": 9899,
    "Ġsentimental": 24754,
    "Ġsquire": 16179,
    "thinking": 9012,
    "Ġreality": 7057,
    "narr": 12493,
    "asons": 6015,
    "ency": 3869,
    "Ġdivined": 19441,
    "unhappy": 10236,
    "Ġperv": 15988,
    "Ġspine": 7407,
    "Ġprior": 11317,
    "Ġpredestinated": 18516,
    "particularly": 8340,
    "Ġimparts": 18446,
    "hunt": 20902,
    "Ġanonymous": 26178,
    "tranqu": 14704,
    "Ġascent": 19617,
    "Ġsaws": 23047,
    "Ġhope": 1789,
    "ple": 454,
    "Ġvigilant": 20183,
    "Ġmoral": 6578,
    "Ġpositions": 2058,
    "regularization": 3514,
    "Ġdifferently": 10387,
    "Ġfable": 15574,
    "Ġpromethe": 14466,
    "Ġpract": 1885,
    "dearest": 11732,
    "Ġsleeves": 10659,
    "Ġtallest": 15473,
    "Ġunpardonable": 22058,
    "features": 14803,
    "Ġmere": 2713,
    "Ġunbelief": 22045,
    "our": 534,
    "Ġtraverse": 18891,
    "Ġblemish": 19678,
    "Ġdone": 1818,
    "Ġtriumphant": 12186,
    "Ġclanging": 18422,
    "Ġhoriz": 4725,
    "Ġventure": 7740,
    "xology": 21140,
    "Ġparched": 11724,
    "Ġhertfordshire": 5377,
    "Ġshilling": 18228,
    "Ġintentionally": 24522,
    "Ġtum": 5692,
    "Ġsolitary": 5854,
    "Ġawfulness": 23586,
    "partiality": 13158,
    "Ġ[": 6967,
    "Ġ12": 5483,
    "Ġtitle": 11407,
    "claimed": 9834,
    "oused": 6556,
    "irst": 878,
    "Ġbount": 15565,
    "table": 5795,
    "Ġmu": 17795,
    "Ġshrink": 14801,
    "Ġbarely": 16935,
    "Ġsenses": 8252,
    "Ġmerchant": 6467,
    "Ġexcursion": 26588,
    "tempered": 13444,
    "Ġimpelled": 11779,
    "Ġheiress": 20696,
    "Ġtarpaul": 17729,
    "bl": 4142,
    "Ġactionable": 24558,
    "Ġfugitive": 17325,
    "mutually": 26136,
    "thousand": 5546,
    "intending": 22933,
    "directed": 20403,
    "settle": 16660,
    "Ġinvaluable": 10181,
    "half": 4931,
    "Ġwaylaid": 22870,
    "abeth": 905,
    "Ġwr": 1543,
    "Ġeccentric": 13647,
    "Ġimpul": 7208,
    "Ġsummer": 4789,
    "Ġvest": 8163,
    "mag": 6508,
    "Ġapproximates": 2415,
    "achable": 14136,
    "bug": 17491,
    "chiefly": 14844,
    "Ġviciously": 24403,
    "Ġwaned": 17791,
    "Ġside": 1387,
    "Ġwords": 1325,
    "Ġsaville": 15887,
    "edged": 15628,
    "Ġthom": 21514,
    "Ġfeminine": 15261,
    "hereafter": 19215,
    "Ġrouse": 15819,
    "ĠcÃ¦sar": 20578,
    "best": 6111,
    "Ġadmirable": 8269,
    "mechanical": 25578,
    "Ġsurest": 19054,
    "Ġperfidious": 25666,
    "Ġunseen": 3523,
    "wich": 11542,
    "Ġfor": 340,
    "Ġcrad": 21348,
    "Ġmountain": 3372,
    "pping": 1426,
    "inburgh": 15489,
    "meryton": 10110,
    "Ġclapping": 14201,
    "Ġeager": 3571,
    "Ġpuff": 6526,
    "Ġrecorded": 11292,
    "sory": 17658,
    "Ġadmon": 15866,
    "keep": 3850,
    "Ġdays": 2080,
    "Ġscornful": 24999,
    "Ġlibr": 15998,
    "Ġdescribe": 2764,
    "Ġribbed": 16803,
    "ional": 1081,
    "Ġabed": 22263,
    "responsible": 25763,
    "jol": 20924,
    "fowl": 17548,
    "tar": 8098,
    "Ġcreditable": 19621,
    "hibited": 17425,
    "Ġheathen": 10564,
    "Ġannum": 24202,
    "Ġsuccession": 12098,
    "limbs": 20190,
    "Ġexper": 1277,
    "abounding": 25979,
    "user": 5105,
[...]
