{
  "metadata": {
    "vocab_size": 26615,
    "algorithm": "BPE",
    "created_at": "2026-07-15 04:50:29",
    "special_tokens": [
      "<PAD>",
      "<SOS>",
      "<EOS>",
      "<UNK>",
      "<MASK>"
    ]
  },
  "vocab": {
    "Ġtouched": 6003,
    "eat": 11484,
    "be": 671,
    "Ġpugnacious": 26452,
    "Ġflask": 3036,
    "Ġdevoured": 16140,
    "namely": 23677,
    "Ġtouches": 20573,
    "Ġtranquil": 7310,
    "gage": 13725,
    "Ġcommit": 18656,
    "Ġinterruptions": 24188,
    "conspicuous": 26249,
    "iloquent": 21730,
    "Ġallusion": 7626,
    "Ġfetched": 24567,
    "Ġpiteous": 17918,
    "Ġsail": 1670,
    "this": 1440,
    "preserve": 25304,
    "eyeing": 14948,
    "Ġcit": 10784,
    "wearing": 22691,
    "readiness": 19366,
    "Ġexclaimed": 4684,
    "inkles": 7426,
    "Ġdesk": 11910,
    "succeeded": 15178,
    "Ġfrightful": 7737,
    "Ġremarking": 13127,
    "Ġrumors": 11322,
    "apprehension": 26115,
    "Ġentrance": 7233,
    "Ġarchly": 22775,
    "Ġbrides": 22866,
    "Ġtypewriter": 19099,
    "Ġvoids": 25808,
    "Ġfar": 1450,
    "Ġloops": 8855,
    "irene": 15917,
    "Ġshrouds": 11345,
    "transition": 24509,
    "cle": 3955,
    "Ġmornings": 16240,
    "Ġcapacity": 10441,
    "Ġtropic": 17064,
    "Ġcape": 5146,
    "Ġmortification": 12098,
    "attle": 4469,
    "Ġadie": 8491,
    "Ġsolicit": 22889,
    "Ġimprovements": 14508,
    "Ġeternity": 12282,
    "warrior": 24797,
    "Ġminimax": 5860,
    "Ġfootmen": 23800,
    "duck": 22417,
    "sixty": 24853,
    "Ġshrink": 14806,
    "Ġintroducing": 11978,
    "Ġwalked": 3143,
    "udding": 11868,
    "Ġregard": 3066,
    "instinct": 19546,
    "Ġowl": 20087,
    "Ġden": 3109,
    "Ġflogged": 23626,
    "Ġlikes": 9410,
    "Ġtongue": 6349,
    "Ġburglar": 17356,
    "Ġbulky": 13232,
    "Ġoverwrites": 5033,
    "ench": 21282,
    "Ġstationary": 19697,
    "Ġinclosed": 19541,
    "Ġdin": 3624,
    "pine": 13771,
    "Ġtorment": 8677,
    "Ġmule": 13864,
    "igin": 3655,
    "steam": 23963,
    "raction": 8139,
    "sens": 8097,
    "Ġpleasures": 11143,
    "Ġmounttop": 19981,
    "Ġlakes": 8132,
    "Ġaffidav": 18790,
    "Ġburly": 19252,
    "headers": 23112,
    "Ġhammock": 5768,
    "Ġdomineer": 23662,
    "Ġstigma": 25792,
    "coronet": 16864,
    "Ġcolon": 18766,
    "Ġwilt": 9645,
    "Ġbestowing": 16972,
    "Ġbreathed": 11221,
    "Ġinexper": 16981,
    "Ġdepressions": 25799,
    "Ġmacy": 19358,
    "Ġsubsc": 22793,
    "bedded": 12446,
    "Ġfolk": 10377,
    "onged": 18411,
    "Ġwaggish": 25435,
    "portuguese": 25414,
    "take": 4578,
    "sought": 15429,
    "singular": 12192,
    "pless": 6262,
    "Ġo": 275,
    "Ġcrowding": 13283,
    "Ġmasterless": 23998,
    "Ġextended": 7926,
    "Ġtraged": 9354,
    "rect": 1595,
    "Ġconsiderable": 4004,
    "âĢĿâĢĶ": 5721,
    "Ġlonged": 6437,
    "Ġprofound": 5497,
    "Ġhurling": 19112,
    "Ġjabez": 11769,
    "Ġrespects": 7269,
    "Ġhousemaid": 14466,
    "Ġsolely": 9912,
    "Ġwearing": 12743,
    "Ġunmolested": 15248,
    "Ġlegend": 14575,
    "ena": 11570,
    "Ġrat": 4355,
    "iary": 15373,
    "constable": 24607,
    "Ġyear": 3286,
    "minded": 9039,
    "diss": 17524,
    "voices": 21120,
    "Ġinhuman": 13931,
    "wonders": 17145,
    "Ġplayers": 12041,
    "formation": 22224,
    "Ġglu": 15671,
    "Ġchowders": 18386,
    "entiful": 10837,
    "Ġdiabolical": 20345,
    "Ġequator": 7461,
    "ostentatious": 20654,
    "Ġfixedly": 19250,
    "Ġbeckoned": 25794,
    "used": 3261,
    "building": 17311,
    "ven": 779,
    "quake": 11683,
    "Ġsally": 15504,
    "allowing": 24357,
    "precaution": 23826,
    "Ġwaterproof": 19088,
    "<SOS>": 1,
    "Ġchecking": 23289,
    "Ġcoloss": 11047,
    "Ġours": 4614,
    "Ġcontract": 18476,
    "teen": 6371,
    "Ġprofundity": 20455,
    "gratitude": 16817,
    "chariot": 26480,
    "yramid": 8369,
    "Ġinflu": 4910,
    "'s": 2465,
    "Ġpaying": 9940,
    "limin": 8385,
    "Ġcommodore": 12398,
    "4": 24,
    "rising": 7557,
    "Ġinvestigation": 9044,
    "equal": 14995,
    "Ġchoking": 15937,
    "caus": 11477,
    "ens": 701,
    "Ġcomb": 1089,
    "Ġdisco": 3428,
    "Ġpersuasion": 10500,
    "Ġlitter": 19832,
    "ptember": 10895,
    "Ġmightier": 18731,
    "Ġcig": 6521,
    "Ġsurv": 6083,
    "Ġbearing": 5300,
    "Ġoverlooked": 15974,
    "Ġhart": 17924,
    "Ġdat": 499,
    "Ġrecollections": 10514,
    "drive": 8686,
    "Ġbowled": 23772,
    "Ġhesitate": 16947,
    "ckinridge": 11722,
    "Ġfondness": 16781,
    "Ġloving": 8177,
    "urity": 8144,
    "Ġdeduction": 14901,
    "hoisting": 23719,
    "acies": 14279,
    "tha": 15826,
    "orphans": 26441,
    "Ġphilipses": 24451,
    "histicated": 20903,
    "Ġstick": 6028,
    "Ġtri": 4814,
    "terrible": 8468,
    "Ġpoisonous": 24888,
    "offing": 23338,
    "nect": 664,
    "rity": 13778,
    "Ġaustralia": 15235,
    "Ġarcher": 22184,
    "footman": 17164,
    "Ġsinks": 19552,
    "Ġwondrous": 4736,
    "Ġtener": 21166,
    "Ġmitigates": 3049,
    "Ġsumatra": 15289,
    "ivility": 12791,
    "jury": 15376,
    "height": 21208,
    "Ġnot": 413,
    "Ġmor": 1248,
    "sory": 17660,
    "Ġimaginary": 11187,
    "Ġteased": 18809,
    "Ġwashing": 9707,
    "ilt": 2965,
    "Ġsuppress": 13028,
    "orrow": 2912,
    "Ġsatisfaction": 5667,
    "Ġdinnertime": 16720,
    "Ġtying": 15475,
    "ream": 2704,
    "Ġmedium": 16707,
    "Ġdegener": 14052,
    "reject": 21239,
    "Ġrelease": 19292,
    "ule": 6801,
    "Ġwheeled": 14140,
    "sit": 13782,
    "Ġindispens": 22958,
    "Ġchronicled": 25329,
    "kins": 7345,
    "Ġdependencies": 2311,
    "exception": 9978,
    "copy": 5133,
    "nnight": 20995,
    "compass": 9462,
    "Ġweigh": 10894,
    "Ġslee": 8976,
    "Ġincorrupt": 19236,
    "Ġinconven": 7587,
    "le": 279,
    "Ġdived": 9179,
    "anoke": 21364,
    "ipagos": 22371,
    "Ġmeal": 9699,
    "ê": 171,
    "Ġpen": 1534,
    "Ġminority": 18754,
    "Ġpensive": 21478,
    "Ġohio": 19130,
    "Ġwatched": 6299,
    "Ġniagara": 26459,
    "Ġinnovative": 1496,
    "Ġmuzzle": 21324,
    "abounding": 25980,
    "Ġembeddings": 2110,
    "Ġconsumm": 15157,
    "Ġbarb": 4533,
    "Ġmaid": 5287,
    "inferences": 17740,
    "Ġmatrim": 11061,
    "Ġgreedy": 3051,
    "programming": 10065,
    "Ġwhiskers": 10494,
    "fs": 17536,
    "Ġgrated": 22808,
    "Ġcausal": 3411,
    "Ġventil": 8020,
    "Ġfriends": 2650,
    "Ġcred": 8784,
    "Ġmortified": 14696,
    "youn": 5690,
    "Ġinnocent": 4922,
    "contriv": 19294,
    "assault": 22311,
    "Ġsit": 4218,
    "Ġpuffs": 14978,
    "Ġindel": 13008,
    "pall": 17629,
    "Ġlory": 12656,
    "painting": 17046,
    "computer": 2106,
    "fresh": 13395,
    "Ġloosened": 26003,
    "ĠĠĠĠĠĠĠĠĠĠĠĠĠĠĠĠĠĠĠĠĠĠĠĠĠĠĠĠĠ": 19702,
    "Ġbern": 17860,
    "Ġtendency": 11330,
    "leap": 21370,
    "training": 2512,
    "Ġfolios": 23023,
    "smitten": 23912,
    "Ġslide": 10395,
    "Ġsensations": 5260,
    "Ġsorry": 4212,
    "Ġspoil": 17008,
    "Ġstrung": 22619,
    "Ġhearties": 18967,
    "Ġsofa": 10272,
    "Ġimpelling": 22390,
    "Ġpea": 14319,
    "Ġdromedary": 17441,
    "Ġinfatuation": 25857,
    "rip": 9243,
    "humoredly": 26326,
    "asy": 5296,
    "Ġcatastrophe": 10485,
    "vess": 7354,
    "Ġbennets": 9808,
    "Ġshift": 2281,
    "homage": 25617,
    "ethe": 9678,
    "breeding": 16676,
    "Ġhighness": 22777,
    "Ġmovable": 22438,
    "Ġlonely": 6823,
    "Ġscra": 5842,
    "Ġviolates": 3167,
    "Ġrenders": 13287,
    "Ġmazes": 25941,
    "Ġbelieves": 14409,
    "Ġtumultuous": 10617,
    "Ġcrunched": 19122,
    "Ġlinks": 13957,
    "Ġgodfre": 14530,
    "Ġastronomy": 25927,
    "also": 7852,
    "summoned": 26592,
    "cell": 10688,
    "Ġsticks": 14933,
    "Ġshudderings": 25201,
    "inuating": 16205,
    "Ŀ": 256,
    "Ġinterm": 14270,
    "rough": 591,
    "vast": 10737,
    "charlotte": 6474,
    "Ġcongreg": 8464,
    "ibles": 18787,
    "eded": 9675,
    "okened": 15987,
    "Ġevaporate": 26334,
    "Ġgums": 21615,
    "Ġasylum": 13669,
    "tottenham": 25419,
    "Ġvirtue": 4923,
    "Ġconcluding": 9859,
    "Ġrapid": 1437,
    "Ġumbrella": 15268,
    "relate": 24014,
    "Ġwoods": 5406,
    "Ġfrenzy": 13625,
    "Ġunrestrained": 25555,
    "assertion": 22316,
    "Ġtimorous": 24227,
    "Ġbravely": 23842,
    "Ġninety": 13604,
    "Ġalighted": 18106,
    "Ġstare": 10865,
    "forgetting": 25486,
    "gal": 15358,
    "Ġvehic": 8935,
    "inished": 17735,
    "hind": 20896,
    "Ġlaug": 3626,
    "Ġinduced": 8674,
    "Ġautumn": 14510,
    "Ġupwards": 7634,
    "Ġspecksnyder": 17405,
    "======================================================================": 10070,
    "reputation": 15517,
    "inglass": 21305,
    "library": 13003,
    "Ġemploy": 3614,
    "clings": 23154,
    "Ġstains": 21746,
    "century": 20050,
    "Ġsurmised": 24920,
    "paint": 21020,
    "Ġtrousers": 12418,
    "Ġcoopers": 20525,
    "Ġarguing": 25471,
    "Ġmaj": 3927,
    "Ġstoven": 23177,
    "Ġemboldened": 22966,
    "÷": 184,
    "vinegar": 25421,
    "Ġutilize": 4799,
    "unearthly": 19275,
    "Ġquivers": 22418,
    "/`)": 13663,
    "Ġstating": 15725,
    "masts": 19428,
    "Ġrept": 13985,
    "Ġthousands": 6750,
    "urons": 3134,
    "Ġuses": 1209,
    "nest": 10115,
    "ernsey": 8904,
    "jephro": 26393,
    "Ġsiber": 17756,
    "Ġhaunts": 18199,
    "Ġrescued": 24208,
    "Ġblankness": 24612,
    "Ġfashionable": 19547,
    "oud": 1939,
    "intend": 16227,
    "vocabulary": 25088,
    "Ġheated": 21686,
    "Ġstirs": 14919,
    "Ġpilgr": 12184,
    "Ġslapped": 23173,
    "Ġbecame": 2686,
    "athered": 6973,
    "Ġlightened": 23264,
    "Ġvehicles": 10661,
    "Ġexcurs": 23316,
    "Ġwretchedness": 9028,
    "ood": 962,
    "Ġinjury": 10542,
    "iceland": 21570,
    "Ġbeaver": 18088,
    "Ġindulgence": 11320,
    "Ġattempt": 3487,
    "Ġhorribly": 16344,
    "iel": 11495,
    "Ġ77": 24265,
    "Ġglimp": 6068,
    "Ġroyal": 5601,
    "credit": 12452,
    "throt": 25660,
    "Ġireland": 17337,
    "whiskers": 12314,
    "Ġfurs": 18739,
    "result": 12046,
    "mile": 17598,
    "Ġendured": 6075,
    "Ġ65": 24367,
    "Ġreporting": 24658,
    "cho": 2756,
    "uzz": 4526,
    "Ġcontemptuous": 24677,
    "Ġsubsiding": 23436,
    "Ġqueen": 3215,
    "Ġexponential": 1057,
    "Ġcredulous": 17146,
    "Ġkeeping": 7283,
    "ultaneously": 4196,
    "Ġneutral": 12748,
    "Ġcont": 619,
    "Ġhorn": 6187,
    "Ġhospitable": 17059,
    "said": 4105,
    "Ġbou": 17854,
    "crippled": 26385,
    "Ġce": 3028,
    "Ġpeeling": 22696,
    "Ġknitting": 24220,
    "Ġinteractions": 12907,
    "Ġmercifully": 20181,
    "shot": 2074,
    "elaborate": 21580,
    "Ġorigin": 4121,
    "Ġhimmale": 18335,
    "blue": 13696,
    "Ġworthy": 7241,
    "Ġbade": 9173,
    "Ġnothing": 1363,
    "Ġwides": 17790,
    "depth": 12804,
    "Ġuntutored": 19168,
    "Ġinsatiate": 19272,
    "Ġwing": 6668,
    "Ġtalent": 12300,
    "housekeeper": 24102,
    "Ġcruisings": 25865,
    "inspector": 13649,
    "Ġwheeling": 18289,
    "Ġintend": 12768,
    "Ġcouple": 5423,
    "Ġdisinterested": 16060,
    "Ġregression": 4412,
    "necessarily": 19634,
    "Ġforbidden": 17078,
    "Ġcaroline": 7254,
    "Ġprob": 972,
    "kward": 6958,
    "Ġmutually": 23960,
    "Ġexplanation": 6694,
    "revival": 26163,
    "Ġperfections": 23609,
    "Ġdiary": 24738,
    "lur": 13749,
    "Ġmout": 17800,
    "Ġrise": 5637,
    "Ġbequeathed": 20704,
    "imes": 1300,
    "ieces": 4773,
    "Ġspilling": 22142,
    "Ġcomparatively": 9492,
    "pet": 4868,
    "leeward": 15213,
    "relics": 24018,
    "exam": 10977,
    "ē": 212,
    "wedged": 24558,
    "Ġmagnet": 10391,
    "princip": 17138,
    "bert": 4664,
    "Ġspeedily": 7713,
    "following": 10574,
    "omet": 3076,
    "sheets": 14444,
    "burgh": 6774,
    "Ġblasphemer": 26117,
    "Ġchurch": 4712,
    "Ġneuron": 1808,
    "Ġnoblest": 13245,
    "good": 2896,
    "Ġaccurate": 13246,
    "shipped": 18485,
    "|": 96,
    "Ġverses": 17063,
    "clam": 13059,
    "inioned": 19288,
    "spiracle": 22736,
    "Ġcontest": 18474,
    "ter": 359,
    "Ġmale": 9650,
    "Ġabstract": 17183,
    "rey": 12542,
    "Ġxiii": 25592,
    ":": 30,
    "Ġmethodically": 23195,
    "ra": 314,
    "Ġdaybreak": 18727,
    "/*": 10073,
    "Ġlungless": 24864,
    "ping": 9617,
    "hammad": 23266,
    "Ġtophet": 23574,
    "ina": 21182,
    "Ġmystical": 12136,
    "Ġgenerating": 12853,
    "ache": 8521,
    "Ġevening": 2648,
    "Ġdragging": 14476,
    "Ġconfid": 7688,
    "Ġful": 4299,
    "dz": 4740,
    "bolts": 11421,
    "ĝ": 222,
    "Ġsmile": 4274,
    "(-": 2976,
    "pleasures": 24049,
    "Ġhorner": 8960,
    "Ġpages": 15611,
    "omy": 6250,
    "Ġnephew": 6406,
    "Ġtarget": 2816,
    "atlantic": 15526,
    "broke": 14780,
    "wilful": 25152,
    "Ġimposing": 11784,
    "noble": 7924,
    "teringly": 21828,
    "believe": 8305,
    "Ġdestined": 7976,
    "Ġelapsed": 7653,
    "Ġbright": 3216,
    "story": 9214,
    "n": 82,
    "ulum": 21868,
    "disciple": 16779,
    "Ġtyphoon": 12392,
    "grained": 20885,
    "Ġsperma": 19048,
    "Ġslo": 15508,
    "penet": 11071,
    "functions": 11244,
    "wished": 13807,
    "Ġbestir": 13113,
    "Ġshoe": 14568,
    "Ġbask": 8118,
    "swam": 24256,
    "irection": 2386,
    "commodore": 20628,
    "sell": 13783,
    "Ġgay": 5534,
    "Ġclasping": 20212,
    "Ġseaman": 8642,
    "after": 2892,
    "Ġpreparation": 13531,
    "eds": 6531,
    "Ġindulged": 13420,
    "vius": 23542,
    "blo": 6355,
    "Ġfireplace": 13148,
    "Ġensemble": 1606,
    "Ġpoint": 2054,
    "Ġexpand": 9309,
    "icacy": 15661,
    "Ġlists": 11167,
    "Ġbreeds": 23352,
    "Ġairs": 14512,
    "Ġspark": 6691,
    "itically": 21333,
    "Ġevolve": 2999,
    "nature": 5360,
    "Ġsubt": 11871,
    "Ġtorture": 9067,
    "choice": 21695,
    "Ġowed": 10781,
    "Ġchilian": 25564,
    "mccarthy": 15397,
    "Ġbashaw": 25634,
    "Ġsixpence": 19319,
    "finish": 24383,
    "sound": 6800,
    "Ġlone": 11615,
    "Ġconsists": 11980,
    "Ġbarber": 23792,
    "Ġtalks": 23373,
    "Ġsupposed": 4560,
    "Ġconvert": 11846,
    "chop": 21692,
    "Ġmagnitude": 1941,
    "ps": 4576,
    "method": 17286,
    "Ġcos": 2208,
    "Ġultimately": 17166,
    "guessed": 25873,
    "advanced": 19591,
    "continue": 16862,
    "Ġwiping": 25766,
    "Ġcuvier": 9167,
    "agony": 14071,
    "leading": 15565,
    "Ġgreece": 17069,
    "Ġveil": 7935,
    "Ġfacil": 16963,
    "Ġnorms": 3665,
    "ternatural": 12719,
    "Ġdespondency": 16579,
    "rushed": 10586,
    "Ġpert": 22402,
    "Ġorganization": 7985,
    "Ġgum": 21599,
    "Ġdarts": 16769,
    "extremely": 26265,
    "Ġevolved": 9894,
    "og": 880,
    "Ġpray": 3900,
    "Ġdist": 679,
    "Ġreference": 2559,
    "abashed": 21797,
    "strangers": 20339,
    "ern": 750,
    "consciously": 19628,
    "Ġleader": 14704,
    "separated": 20162,
    "direction": 17525,
    "Ġdisplayed": 10610,
    "Ġeveryday": 22773,
    "thed": 8830,
    "unks": 15778,
    "inian": 21185,
    "Ġpresents": 8246,
    "Ġcheck": 7271,
    "Ġroughs": 19960,
    "Ġwrapping": 19778,
    "Ġdrawback": 23993,
    "Ġadvertisement": 6941,
    "Ġcomfort": 3439,
    "Ġboil": 16107,
    "Ġanew": 11431,
    "shazz": 14241,
    "Ġdeadliest": 14557,
    "retrie": 18926,
    "erated": 21275,
    "Ġhedgehogs": 25395,
    "Ġignor": 4010,
    "stoke": 18025,
    "Ġfidget": 15192,
    "Ġcate": 4110,
    "lives": 12489,
    "Ġyellow": 5302,
    "hs": 8379,
    "bury": 9109,
    "Ġclung": 10958,
    "Ġglens": 18856,
    "squeezing": 25914,
    "Ġrick": 21975,
    "Ġjames": 6420,
    "emin": 8472,
    "Ġassistants": 9454,
    "Ġodd": 6627,
    "·": 120,
    "acquired": 24297,
    "nuts": 15400,
    "shoe": 14969,
    "Ġfinish": 7950,
    "needles": 20317,
    "Ġbarrel": 23794,
    "Ġforesee": 19126,
    "Ġimper": 4504,
    "gast": 20873,
    "Ġex": 361,
    "Ġsmothered": 20722,
    "insurance": 18889,
    "Ġmorality": 22982,
    "Ġundaunted": 24120,
    "op": 660,
    "entimes": 12660,
    "Ġunfav": 14789,
    "ishments": 9275,
    "Ġbab": 5291,
    "ertion": 12042,
    "Ġawed": 23586,
    "Ġample": 11801,
    "umpled": 15879,
    "ates": 519,
    "Ġcour": 1767,
    "friends": 8307,
    "Ġunlikely": 10909,
    "itates": 13871,
    "for": 959,
    "orter": 4258,
    "Ġlabrador": 23335,
    "cull": 20811,
    "Ġhorizontally": 17013,
    "Ġjump": 4506,
    "Ġneighbouring": 12122,
    "Ġtriumph": 5143,
    "Ġembra": 6580,
    "bro": 4033,
    "oury": 22309,
    "Ġhavoc": 15816,
    "Ġlevels": 12702,
    "aract": 17896,
    "Ġsprings": 16687,
    "Ġfriday": 14489,
    "Ġexponentiating": 3447,
    "knowledge": 7478,
    "Ġbrightened": 23832,
    "Ġthin": 4349,
    "Ġpraise": 6487,
    "emic": 18186,
    "Ġices": 21157,
    "Ġmerchant": 6468,
    "Ġstanding": 2996,
    "Ġsemicircle": 26068,
    "indulged": 22380,
    "Ġmanx": 7907,
    "Ġslain": 8955,
    "considering": 12178,
    "among": 6258,
    "Ġbl": 1191,
    "nor": 2736,
    "Ġgolden": 5337,
    "Ġdoxology": 22249,
    "Ġunprepared": 22055,
    "airs": 2221,
    "Ġsplin": 8622,
    "Ġshoved": 23492,
    "Ġpiratical": 24798,
    "Ġmiriam": 25274,
    "Ġweig": 7619,
    "occasion": 7755,
    "aimed": 3952,
    "enances": 10155,
    "Ġrouted": 24908,
    "Ġindicate": 23725,
    "Ġbitten": 21393,
    "Ġcuff": 17831,
    "apers": 3482,
    "assure": 9271,
    "Ġworaciousness": 22933,
    "Ġopera": 23428,
    "arm": 1360,
    "Ġforgiveness": 16658,
    "few": 8204,
    "Ġapprobation": 10985,
    "uneven": 23688,
    "chorus": 19814,
    "Ġplunged": 8696,
    "Ġmalignity": 10558,
    "otion": 4946,
    "proceeded": 25191,
    "inquire": 16933,
    "Ġalas": 5924,
    "Ġmutiny": 13263,
    "Ġmidday": 23634,
    "ase": 1158,
    "Ġinvisible": 7327,
    "Ġpr": 1596,
    "Ġmenaces": 23110,
    "kshire": 13748,
    "Ġsoap": 14135,
    "actually": 14297,
    "Ġrefusal": 10346,
    "Ġrevolut": 3259,
    "Ġhandling": 8915,
    "Ġperforming": 7929,
    "dislike": 23496,
    "Ġaffront": 18789,
    "Ġsuper": 2154,
    "mblings": 19783,
    "arken": 18668,
    "Ġextensive": 12947,
    "Ġsweeter": 23921,
    "Ġmean": 743,
    "pidation": 18890,
    "Ġbegg": 16254,
    "Ġapplies": 11962,
    "Ġextracts": 9367,
    "Ġcarted": 21353,
    "itude": 1418,
    "slee": 17170,
    "Ġmemo": 18119,
    "desire": 14663,
    "Ġconsist": 1932,
    "Ġguardians": 14945,
    "allingly": 22204,
    "Ġcandour": 14674,
    "ductive": 23939,
    "Ġalthough": 4153,
    "Ġanimate": 23425,
    "Ġstoutest": 24630,
    "Ġscornful": 25001,
    "somers": 19371,
    "orative": 21401,
    "Ġsalutations": 25383,
    "Ġinfirmity": 26299,
    "Ġimprovement": 7965,
    "Ġincant": 18569,
    "rell": 11565,
    "Ġroad": 3879,
    "stri": 6251,
    "stump": 21657,
    "amidst": 25653,
    "Ġsneeze": 24698,
    "verty": 8454,
    "Ġemac": 16408,
    "Ġsatisfactory": 11193,
    "ily": 1033,
    "Ġshaping": 22008,
    "Ġblight": 18819,
    "rot": 21536,
    "Ġstrategy": 2240,
    "icha": 11741,
    "Ġscorn": 7903,
    "Ġcharmingly": 24223,
    "Ġhalyards": 21498,
    "Ġpolitely": 8995,
    "Ġprinted": 11952,
    "Ġexamples": 2599,
    "lodged": 25908,
    "itzerland": 9997,
    "Ġshy": 10904,
    "pemberley": 9622,
    "appre": 14372,
    "Ġwreak": 16818,
    "Ġrepositories": 23368,
    "Ġscoundrel": 13673,
    "Ġapprised": 18361,
    "Ġruns": 8598,
    "Ġliar": 22413,
    "family": 7324,
    "Ġwane": 21291,
    "Ġpressed": 6044,
    "Ġexercising": 19909,
    "Ġgain": 4829,
    "Ġ75": 19615,
    "Ġmalay": 24390,
    "ifle": 10892,
    "Ġbery": 13900,
    "itering": 17820,
    "elag": 12662,
    "Ġbacking": 16120,
    "pshaw": 21030,
    "ilted": 21727,
    "cest": 12448,
    "Ġremaining": 6190,
    "Ġstren": 15723,
    "ropout": 1322,
    "case": 5206,
    "Ġlabel": 14518,
    "theories": 18081,
    "thyself": 19299,
    "oyed": 14367,
    "om": 315,
    "urs": 6990,
    "brothers": 17025,
    "Ġstony": 21744,
    "col": 3105,
    "Ġdivine": 6921,
    "Ġstability": 1367,
    "Ġinherent": 4593,
    "Ġquit": 5246,
    "welcome": 10003,
    "peddling": 21034,
    "Ġglare": 13021,
    "Ġnewsp": 9341,
    "compan": 7301,
    "Ġinconsistency": 26184,
    "Ġfates": 15581,
    "Ġinquirer": 24966,
    "strade": 5065,
    "Ġtale": 5142,
    "Ġsemicircular": 26069,
    "Ġsmelling": 16069,
    "const": 5941,
    "crimes": 16685,
    "heavenly": 20048,
    "inable": 11557,
    "Ġpeevish": 26558,
    "Û": 156,
    "hailed": 17566,
    "idity": 8834,
    "Ġeastern": 11631,
    "Ġhanged": 17927,
    "Ġinexplicable": 12260,
    "ise": 708,
    "animated": 14977,
    "Ġpleasantly": 14521,
    "ises": 3653,
    "Ġtraitors": 23081,
    "Ġcattle": 12576,
    "amples": 1822,
    "Ġshoot": 11162,
    "ior": 2038,
    "Ġrotation": 25475,
    "Ġbranch": 8333,
    "mannered": 22855,
    "Ġvillains": 14751,
    "Ġvoices": 7878,
    "Ġact": 690,
    "Ġconvent": 11670,
    "Ġdissimilar": 22536,
    "Ġhandspike": 22700,
    "Ġfour": 2215,
    "Ġill": 2193,
    "Ġid": 1907,
    "Ġwhispering": 14947,
    "Ġshutters": 9939,
    "inhab": 10758,
    "Ġbewil": 11659,
    "rant": 11518,
    "Ġstre": 2108,
    "wling": 11546,
    "Ġschools": 9479,
    "deployment": 26528,
    "Ġethiopian": 26614,
    "Ġmaintenance": 17463,
    "Ġnational": 13944,
    "leaving": 10792,
    "iot": 9602,
    "unwillingness": 25803,
    "Ġarchy": 14348,
    "Ġmeagre": 21815,
    "example": 16016,
    "Ġcast": 3605,
    "ient": 395,
    "udg": 22758,
    "Ġrustic": 14967,
    "string": 15689,
    "disgust": 23498,
    "Ġlig": 21552,
    "ground": 4673,
    "Ġpicking": 11260,
    "Ġcares": 9368,
    "Ġamaz": 5385,
    "Ġsauce": 15893,
    "isher": 2874,
    "ifice": 7198,
    "eldest": 22806,
    "Ġcoverage": 4290,
    "Ġprepare": 8650,
    "uded": 6288,
    "great": 3517,
    "Ġcontrived": 10305,
    "Ġsocial": 7009,
    "immediate": 20097,
    "Ġtransaction": 22468,
    "Ġcomply": 8893,
    "inated": 6805,
    "Ġsiam": 13840,
    "iteous": 14263,
    "ission": 6458,
    "tstone": 21087,
    "Ġprop": 1680,
    "Ġartificial": 780,
    "Ġspokes": 18314,
    "Ġgrasping": 12169,
    "Ġsympathetic": 17361,
    "bul": 6951,
    "Ġparaph": 22125,
    "angled": 6844,
    "Ľ": 254,
    "Ġdefects": 12336,
    "places": 7881,
    "charitable": 23936,
    "Ġconjoined": 21811,
    "romeda": 17264,
    "rable": 11634,
    "interruption": 20115,
    "confid": 14869,
    "times": 8100,
    "lungs": 26136,
    "Ġtowns": 11174,
    "crowded": 20193,
    "Ġcha": 6853,
    "Ġefficient": 1072,
    "erial": 4633,
    "Ġhemp": 9217,
    "Ġgri": 17990,
    "Ġcrutch": 23446,
    "provid": 11150,
    "prodig": 16429,
    "Ġrubber": 22791,
    "Ġreminded": 10001,
    "Ġmarlings": 23038,
    "Ġpoetical": 25059,
    "stave": 21653,
    "evidence": 25522,
    "Ġeasy": 3453,
    "get": 1021,
    "Ġadventurous": 16734,
    "Ġdoubloons": 13437,
    "necess": 4897,
    "Ġhappening": 14385,
    "comfortable": 7320,
    "Ġcurse": 7668,
    "Ġsur": 2182,
    "Ġscience": 1623,
    "Ġpaste": 23421,
    "trick": 19416,
    "moran": 24154,
    "refuge": 24733,
    "en": 271,
    "Ġpossessions": 23828,
    "Ġdrifted": 14626,
    "each": 7335,
    "Ġmen": 1434,
    "Ġwealthy": 18181,
    "come": 2373,
    "over": 1845,
    "ino": 15481,
    "Ġhun": 1495,
    "Ġobliged": 4288,
    "Ġbaronial": 23796,
    "zening": 21151,
    "ositories": 22269,
    "Ć": 199,
    "exped": 16526,
    "Ġcapt": 1290,
    "contin": 16543,
    "eches": 8079,
    "ek": 1906,
    "endom": 15926,
    "iny": 4296,
    "Ġdemoniac": 15069,
    "Ġdiscoverers": 26037,
    "conqu": 14246,
    "Ġcascade": 20584,
    "Ġtomahawk": 7539,
    "dangerous": 20243,
    "dimens": 2314,
    "Ġrefuse": 5739,
    "Ġair": 1835,
    "Ġcrouched": 23441,
    "omed": 13977,
    "erred": 6377,
    "Ġgrowled": 19285,
    "races": 21634,
    "Ġgracious": 8850,
    "Ġsagacious": 14973,
    "Ġhaving": 1880,
    "Ġpour": 13916,
    "Ġjewelled": 20186,
    "Ġyanke": 18100,
    "Ġincommod": 25308,
    "ectual": 21920,
    "Ġdidn": 4365,
    "Ġbegun": 7243,
    "Ġwearisome": 19798,
    "inn": 5364,
    "Ġper": 590,
    "tell": 1382,
    "Ġeduc": 4786,
    "Ġshore": 4836,
    "ain": 343,
    "Ġperson": 2365,
    "Ġardently": 9500,
    "Ġhanding": 16133,
    "onse": 21252,
    "Ġawfulness": 23588,
    "Ġjacket": 6490,
    "Ġgrazed": 15836,
    "Ġbohemian": 17135,
    "Ġcountry": 2526,
    "pl": 402,
    "pict": 8387,
    "Ġforemast": 12008,
    "neat": 22462,
    "Ġbrain": 2086,
    "Ġdiana": 21440,
    "Ġarrived": 3746,
    "Ġetext": 23953,
    "consult": 24171,
    "Ġsunbeam": 23279,
    "Ġfattened": 25950,
    "Ġforeshad": 23453,
    "unctions": 18158,
    "alo": 7588,
    "onian": 17768,
    "Ġsandwic": 24665,
    "Ġsliding": 9365,
    "cre": 4253,
    "Ġplush": 18610,
    "Ġcock": 11000,
    "Ġfrosty": 14937,
    "Ġher": 427,
    "Ġdry": 5624,
    "africa": 26309,
    "eight": 9593,
    "Ġtartar": 17324,
    "paused": 17376,
    "yellow": 9626,
    "oubtedly": 6943,
    "Ġcomprised": 14269,
    "Ġroared": 7025,
    "Ġblowing": 10486,
    "Ġpa": 2985,
    "Ġexpiring": 16098,
    "outh": 2682,
    "Ġglanced": 5954,
    "fired": 20862,
    "Ġaust": 4872,
    "torn": 17683,
    "eng": 1486,
    "Ġgathering": 14980,
    "ouring": 6421,
    "amouch": 21850,
    "Ġhue": 8431,
    "Ġhissed": 15792,
    "Ġsweetly": 23922,
    "Ġgrateful": 7661,
    "Ġthursday": 12648,
    "Ġidle": 8254,
    "astonishment": 10032,
    "Ġlabeled": 3718,
    "Ġcombining": 22880,
    "Ġconfining": 23308,
    "Ġsport": 6690,
    "Ġsystems": 791,
    "terdam": 18132,
    "Ġdictated": 25219,
    "strangely": 17278,
    "Ġsnarled": 25715,
    "deliberated": 26119,
    "Ġlucifers": 16589,
    "isted": 3299,
    "Ġknocked": 9502,
    "Ġopine": 19229,
    "Ġpred": 656,
    "iii": 14778,
    "stranger": 9885,
    "Ġsqu": 1038,
    "Ġmending": 17806,
    "Ġcreated": 2702,
    "habit": 16191,
    "interest": 5421,
    "Ġentered": 2841,
    "Ġbang": 17856,
    "iles": 2858,
    "Ġazores": 20196,
    "Ġsustaining": 25334,
    "Ġquestionable": 19268,
    "happ": 3106,
    "Ġfuture": 1123,
    "Ġwarmth": 6905,
    "billiard": 25335,
    "Ġwill": 678,
    "contact": 23731,
    "Ġentries": 22743,
    "Ġhoisting": 9864,
    "Ġprovision": 14827,
    "Ġhedgehog": 10646,
    "directly": 13711,
    "Ġriotous": 20547,
    "robustness": 26340,
    "Ġawaited": 17074,
    "Ġseparately": 13306,
    "Ġoverflow": 10294,
    "commanding": 24751,
    "gladness": 25195,
    "endeav": 7151,
    "youth": 11878,
    "Ġrevol": 5536,
    "worthy": 7734,
    "Ġundivided": 24121,
    "renadier": 18420,
    "Ġendued": 14079,
    "Ġround": 1372,
    "mathematics": 26305,
    "Ġrachel": 11850,
    "Ġorchard": 22099,
    "Ġclanking": 20614,
    "Ġsqueaking": 26276,
    "ulgences": 21870,
    "âĢĶâĢĺ": 7015,
    "Ġdocumentation": 20557,
    "questions": 16761,
    "Ġlimber": 16479,
    "Ġearning": 23944,
    "Ġcaptioning": 23025,
    "plifted": 9713,
    "lakeman": 13753,
    "Ġdropt": 23679,
    "Ġthoughtfulness": 18774,
    "stalls": 26474,
    "Ġburg": 23653,
    "wil": 8769,
    "Ġbarred": 9004,
    "Ġissues": 9544,
    "Ġemerge": 14930,
    "Ġbolt": 11335,
    "Ġlaud": 17970,
    "Ġshol": 22000,
    "ishing": 1143,
    "Ġtube": 15004,
    "Ġdisappointment": 6629,
    "luyt": 18455,
    "Ġunlab": 3787,
    "queen": 12731,
    "Ġhats": 14620,
    "Ġsevere": 6034,
    "Ġquicker": 16509,
    "Ġbull": 7840,
    "barrels": 15043,
    "Ġassures": 14467,
    "Ġpoultry": 17443,
    "Ġobed": 8538,
    "material": 13132,
    "discoloured": 23500,
    "sub": 4661,
    "monster": 8595,
    "ò": 179,
    "Ġunman": 12778,
    "akers": 9742,
    "Ġsar": 21216,
    "Ġthinker": 22813,
    "Ġcovers": 18597,
    "yt": 17712,
    "Ġanatomical": 15079,
    "doubtful": 24790,
    "Ġports": 10819,
    "nt": 922,
    "Ġsitting": 3604,
    "Ġconsult": 6059,
    "Ġroofs": 16986,
    "Ġopposed": 11189,
    "Ġsepul": 14091,
    "Ġpict": 3499,
    "Ġbrilliant": 11415,
    "Ġcrocodile": 20742,
    "lished": 8384,
    "entials": 22663,
    "Ġsummary": 19406,
    "Ġtennes": 23551,
    "Ġeas": 2349,
    "Ġhearsed": 25042,
    "Ġhereditary": 10666,
    "Ġincensed": 18572,
    "Ġaffinity": 18788,
    "Ġdairy": 20689,
    "copyright": 5278,
    "Ġrolled": 4432,
    "Ġtobacco": 8368,
    "Ġpattered": 19053,
    "Ġsordid": 26423,
    "Ġfits": 8794,
    "ared": 770,
    "laden": 14931,
    "Ġworlds": 11950,
    "Ġlabyrin": 13108,
    "orton": 11759,
    "Ġcommunion": 19009,
    "Ġlongitude": 11012,
    "Ġexord": 21832,
    "Ġburden": 8611,
    "Ġplug": 17149,
    "omnipotent": 25965,
    "Ġlisten": 4675,
    "Ġalleviated": 26205,
    "nineteenth": 26139,
    "Ġdoctor": 5067,
    "Ġscept": 15505,
    "Ġger": 21595,
    "Ġdifficulty": 5770,
    "Ġdemeanour": 17339,
    "Ġinvective": 26183,
    "dial": 20827,
    "pretty": 10623,
    "Ġchestnut": 19675,
    "æ": 167,
    "Ġhing": 11606,
    "Ġoffspring": 16145,
    "Ġaright": 11743,
    "matlock": 23471,
    "¬": 110,
    "pitchpoling": 25725,
    "Ġconfidence": 6592,
    "irr": 12741,
    "Ġrussian": 14352,
    "Ġrecognition": 3289,
    "Ġbeast": 7180,
    "Ġcottage": 4735,
    "Ġnature": 2532,
    "Ġsucked": 14132,
    "Ġship": 1091,
    "introdu": 8939,
    "Ġgrap": 11710,
    "Ġthoroughfares": 26096,
    "largely": 19577,
    "semic": 21825,
    "Ġbed": 2151,
    "ivial": 15863,
    "Ġforefinger": 16442,
    "heav": 5694,
    "omuch": 21644,
    "anche": 10789,
    "absent": 21795,
    "cake": 20806,
    "Ġbul": 3294,
    "warmest": 25030,
    "Ġchains": 8252,
    "Ġrelev": 1714,
    "Ġmoderate": 10939,
    "sideways": 14572,
    "Ġacted": 7422,
    "Ġegg": 8822,
    "Ã¦mon": 7096,
    "barbar": 20241,
    "Ġchurchyard": 16778,
    "Ġenvironment": 4074,
    "Ġblunt": 11897,
    "Ġalb": 14018,
    "arrange": 23769,
    "Ġcal": 1328,
    "Ġaverted": 16255,
    "abode": 21796,
    "Ġthe": 270,
    "Ġnotwithstanding": 9716,
    "Ġdisregard": 22533,
    "Ġgriff": 22810,
    "tails": 21089,
    "Ĩ": 233,
    "Ġjeopardy": 13599,
    "ugging": 23293,
    "ortunities": 15943,
    "glances": 23856,
    "s": 87,
    "leful": 17844,
    "Ġvelv": 10621,
    "arthy": 4824,
    "advise": 24219,
    "Ġstrainings": 24629,
    "D": 40,
    "nervous": 16280,
    "Ġtranspointed": 22469,
    "Ġproduce": 4369,
    "Ġpumps": 8429,
    "Ġbrows": 13304,
    "Ġvalued": 12186,
    "Ġremarkable": 4916,
    "Ġrobustness": 18896,
    "Ġrequesting": 24634,
    "Ġclams": 19992,
    "th": 407,
    "Ġsecretly": 13275,
    "Ġbook": 2697,
    "room": 2178,
    "isition": 11588,
    "Ġowning": 18744,
    "Ġbarely": 16937,
    "fail": 17541,
    "Ġsilently": 6894,
    "Ġstabbed": 25457,
    "Ġninetieth": 25358,
    "Ġunspeakable": 10058,
    "traced": 19648,
    "Ġcopying": 17068,
    "Ġvib": 8166,
    "tormented": 13648,
    "Ġleave": 2453,
    "else": 6535,
    "Ġtyphoons": 20237,
    "Ġtap": 12530,
    "Ġparadigms": 3055,
    "Ġshall": 1142,
    "infidel": 24664,
    "Ġcarrying": 6074,
    "Ġsquires": 16184,
    "adventure": 17235,
    "gledy": 25404,
    "Ġig": 3501,
    "thar": 18218,
    "wanted": 10744,
    "Ġwant": 1117,
    "vict": 11542,
    "ó": 180,
    "Ġraising": 8912,
    "acled": 16084,
    "bedstead": 23935,
    "holloa": 19467,
    "Ġamused": 11802,
    "fright": 9597,
    "Ġthrown": 4641,
    "Ġdraw": 3670,
    "Ġthrees": 23404,
    "Ġpopulation": 16828,
    "disappearing": 23504,
    "bell": 7332,
    "Ġchorus": 10947,
    "Ġgro": 4399,
    "Ġcourtship": 24137,
    "Ġnoise": 1070,
    "rid": 5137,
    "itect": 965,
    "eping": 5834,
    "Ġpope": 11603,
    "Ġhandfuls": 17211,
    "Ġthanks": 6709,
    "Ġmiserably": 12952,
    "itz": 6008,
    "Ġthink": 986,
    "otle": 21802,
    "ellent": 3760,
    "cannot": 5745,
    "Ġencounter": 6630,
    "Ġseats": 14090,
    "elfth": 22374,
    "ees": 13713,
    "Ġpity": 4941,
    "hearth": 15501,
    "urry": 13996,
    "Ġcrony": 23440,
    "Ġunappalled": 22070,
    "beheaded": 22498,
    "rossed": 11013,
    "searching": 25106,
    "Ġoverwhel": 8197,
    "Ġtomb": 8811,
    "Ġskul": 22800,
    "ernal": 4314,
    "Ġpredicted": 2043,
    "Ġunnear": 22033,
    "Ġgoose": 5940,
    "establishment": 26114,
    "ensing": 12900,
    "Ġestimation": 11219,
    "ither": 1547,
    "reach": 17758,
    "Ġprofession": 6209,
    "fights": 20867,
    "Ġtrusty": 24105,
    "spike": 16142,
    "Ġscru": 8193,
    "Ġsob": 12792,
    "Ġgrieved": 8299,
    "vity": 7816,
    "electricity": 26386,
    "Ġvapor": 8703,
    "Ġphantoms": 13489,
    "Ġlecture": 13570,
    "ologist": 22893,
    "pennies": 26287,
    "Ġ103": 24410,
    "fierce": 25256,
    "Ġsimon": 5172,
    "Ġpunishment": 9958,
    "could": 2869,
    "Ġfear": 2276,
    "Ġhouse": 1502,
    "encyclopÃ¦dia": 16665,
    "Ġergo": 25032,
    "Ġgloried": 22991,
    "đ": 210,
    "hemat": 3132,
    "window": 7744,
    "Ġsecured": 6747,
    "Ġcolumn": 9330,
    "Ġendeavour": 4679,
    "eers": 20845,
    "two": 3859,
    "Ġurging": 24501,
    "18": 20753,
    "sake": 13785,
    "Ġflexible": 23778,
    "Ġerskine": 17434,
    "Ġsettee": 22925,
    "olets": 21010,
    "orm": 425,
    "fem": 17538,
    "uled": 11538,
    "Ġchatbots": 11350,
    "Ġlie": 4409,
    "Ġrendering": 16659,
    "Ġcorrection": 5062,
    "Ġphilipp": 23887,
    "Ġfurled": 22816,
    "reshold": 21242,
    "Ġassert": 7122,
    "Ġdeduced": 12211,
    "Ġdais": 24371,
    "uming": 8494,
    "Ġfidel": 12600,
    "Ġworshipping": 22932,
    "Ġpend": 15609,
    "atters": 18500,
    "ishes": 6524,
    "Ġbut": 424,
    "Ġpurse": 12013,
    "presence": 18497,
    "belonged": 25598,
    "unwholesome": 26498,
    "deck": 4503,
    "Ġdiscompose": 25580,
    "linen": 25258,
    "Ġexceed": 1349,
    "Ġaltar": 9230,
    "Ġcontinents": 16850,
    "Ġcarelessness": 13079,
    "mes": 1198,
    "Ġcaucus": 17382,
    "buncle": 13695,
    "alyards": 18786,
    "âĢĶ.": 11758,
    "thread": 15829,
    "Ġwrongfully": 24250,
    "spoutings": 25006,
    "Ġsoftly": 7949,
    "sk": 5521,
    "Ġheel": 9686,
    "Ġdisappoint": 24207,
    "Ġprophet": 7682,
    "Ġconsciousness": 9950,
    "Ġengagements": 9980,
    "tre": 8764,
    "Ġshort": 2225,
    "likely": 9025,
    "Ġtrade": 2541,
    "Ġdegree": 3704,
    "Ġdaint": 15596,
    "Ġoperated": 14547,
    "Ġcork": 12573,
    "Ġsheet": 6264,
    "Ġproportions": 16468,
    "Ġgenerative": 5644,
    "Ġincorpor": 13168,
    "Ġsometimes": 2167,
    "`": 68,
    "Ġbeyond": 2454,
    "Ġevangelical": 25507,
    "Ġpercept": 14226,
    "Ġadvocate": 13679,
    "x": 92,
    "--": 1043,
    "Ġaffirm": 11890,
    "Ġannoyed": 17201,
    "Ġdearer": 14053,
    "Ġcontrast": 2120,
    "Ġpantaloons": 20299,
    "à": 161,
    "Ġdinners": 23985,
    "Ġsne": 6373,
    "Ġheroines": 19754,
    "Ġtowards": 1729,
    "particulars": 11316,
    "Ġpoetry": 15083,
    "playful": 24356,
    "Ġbald": 16208,
    "Ġcell": 6239,
    "Ġsash": 17755,
    "Ġabst": 9268,
    "Ġwaters": 3595,
    "Ġclapped": 9747,
    "Ġhamp": 12634,
    "bingley": 4928,
    "Ě": 219,
    "Ġbrightness": 16578,
    "Ġmajest": 24063,
    "Ġshivered": 14110,
    "meadow": 18677,
    "Ġbremen": 23349,
    "Ġdetained": 18387,
    "Ġliberality": 24376,
    "Ġlongest": 18628,
    "Ġbruised": 25773,
    "repro": 10771,
    "Ġappropriate": 2251,
    "Ġhumming": 12990,
    "ondescript": 22919,
    "pattern": 4102,
    "Ġforward": 1837,
    "circ": 4391,
    "thrasher": 25659,
    "Ġxxiv": 24476,
    "Ġwalk": 1825,
    "Ġcomputes": 4769,
    "Ġprom": 1529,
    "Ġlowerings": 23648,
    "Ġboy": 3019,
    "Ġcleans": 18950,
    "Ġfebruary": 15916,
    "Ġwives": 12559,
    "privilege": 25264,
    "omit": 13976,
    "Ġberries": 13410,
    "Ġacute": 16126,
    "Ġhyster": 16874,
    "Ġsig": 868,
    "farmer": 25900,
    "reluct": 26164,
    "door": 6195,
    "folding": 24928,
    "Ġobserving": 6082,
    "swells": 26149,
    "phantoms": 24680,
    "Ġreaction": 15698,
    "compliment": 11365,
    "Ġgranite": 22812,
    "estinated": 15924,
    "ump": 2283,
    "Ġsuns": 23277,
    "crucible": 24843,
    "merged": 11194,
    "Ġoldest": 12977,
    "months": 9073,
    "Ġroast": 18458,
    "Ġprinces": 23222,
    "Ġhighland": 18712,
    "ounds": 4160,
    "holder": 13286,
    "daughter": 8355,
    "Ġenthr": 22745,
    "Ġtwist": 11854,
    "Ġrelied": 16197,
    "Ġexpressed": 4470,
    "retirement": 23144,
    "recur": 4440,
    "Ġdimens": 3152,
    "grass": 23415,
    "Ġ_": 841,
    "Ġobstacles": 19838,
    "Ġviolence": 5965,
    "grow": 10100,
    "Ġprying": 15612,
    "Ġecstasy": 11632,
    "Ġsewing": 21959,
    "Ġgra": 415,
    "Ġpull": 5152,
    "Ġnovels": 15932,
    "Ġunusually": 15849,
    "Ġunpleasant": 7191,
    "Ġazure": 12377,
    "Ġ131": 24781,
    "spark": 18687,
    "Ġassu": 21902,
    "vult": 21116,
    "calm": 8936,
    "sher": 5217,
    "alongside": 19792,
    "Ġdonkey": 23231,
    "aternity": 21268,
    "Ġinnermost": 12164,
    "Ġthankful": 14740,
    "Ġin": 291,
    "gument": 20887,
    "Ġprevious": 2088,
    "Ġtimor": 24226,
    "Ġcatching": 9480,
    "Ġ126": 24470,
    "Ġpersons": 6182,
    "Ġexterior": 19991,
    "wing": 2514,
    "par": 1863,
    "Ġchace": 14178,
    "Ġwarbling": 26169,
    "Ġbecher": 18880,
    "Ġdespondence": 25870,
    "erman": 5108,
    "Ġdissipate": 13636,
    "Ġdoct": 4458,
    "ĠĠĠĠĠĠĠĠĠĠĠĠĠĠĠĠĠĠĠĠĠĠĠĠĠĠĠĠĠĠĠĠĠĠĠĠĠĠĠĠĠĠĠĠĠĠĠĠĠĠĠ": 20042,
    "opy": 4461,
    "Ġaggregated": 25679,
    "espe": 3500,
    "Ġimpersonal": 17398,
    "narwhale": 17320,
    "Ġturner": 7051,
    "Ġwhim": 14001,
    "contemplated": 20461,
    "fight": 17539,
    "lected": 1634,
    "Ġprovinc": 16743,
    "pray": 5429,
    "burst": 10539,
    "Ġpacked": 9982,
    "Ġreliability": 22883,
    "Ġwaiting": 4325,
    "ĸ": 249,
    "Ġcoleman": 22591,
    "urpation": 16303,
    "Ġbrid": 6292,
    "sisters": 13379,
    "Ġslop": 23164,
    "achalot": 15864,
    "red": 396,
    "shape": 10982,
    "Ġalfred": 21791,
    "Ġsunlight": 13088,
    "destiny": 16700,
    "Ġcontrivances": 12360,
    "Ġvess": 3296,
    "process": 11149,
    "Ġerected": 12237,
    "resh": 8406,
    "Ġevince": 24294,
    "Ġrecogn": 2905,
    "waves": 10743,
    "Ġenormousness": 24511,
    "gloom": 17141,
    "etical": 13960,
    "ishness": 22347,
    "oves": 15405,
    "Ġimplies": 24874,
    "ontory": 10460,
    "Ġperiods": 13307,
    "Ġunfathomably": 25874,
    "Ġcolleague": 17161,
    "ogue": 9789,
    "Ġgouge": 26190,
    "Ġsupernatural": 9875,
    "Ġremove": 7499,
    "access": 11181,
    "arming": 8953,
    "Ġhot": 4260,
    "Ġreceives": 20357,
    "whisper": 17083,
    "ortions": 10949,
    "Ġnail": 9197,
    "Č": 205,
    "Ġtransformers": 1121,
    "knell": 24554,
    "elt": 4116,
    "ivation": 3113,
    "Ġdeject": 10882,
    "Ġrespite": 13157,
    "Ġcheerfully": 12138,
    "pronouncing": 25194,
    "95": 17479,
    "Ġmarshy": 20221,
    "wail": 21128,
    "Ġgroaned": 11267,
    "Ġapologize": 15131,
    "Ġther": 17779,
    "inent": 9630,
    "Ġweighed": 8714,
    "Ġemploying": 23981,
    "tuning": 1579,
    "Ġgrinning": 9055,
    "Ġwag": 10776,
    "Ġafric": 8906,
    "Ġunless": 4090,
    "Ġheedfully": 24520,
    "Ġadvert": 10573,
    "Ġaboard": 6699,
    "itigated": 23051,
    "Ġchild": 2261,
    "Ġfaced": 10809,
    "Ġforegoing": 23450,
    "wild": 8771,
    "Ġcombine": 4418,
    "izer": 2029,
    "Ġskin": 5038,
    "murderer": 13396,
    "Ġbottle": 7490,
    "bted": 7795,
    "neighbourhood": 10027,
    "Ġcalculated": 4478,
    "Ġstoner": 7179,
    "thanking": 24325,
    "Ġedd": 8399,
    "Ġsignificant": 8637,
    "flaming": 23973,
    "view": 5898,
    "Ġwife": 2582,
    "Â": 131,
    "Ġhousehold": 8571,
    "Ġsens": 1852,
    "avating": 18606,
    "utch": 21590,
    "Ġfads": 21420,
    "Ġwretched": 4081,
    "Ġreproof": 24891,
    "wishing": 21131,
    "olic": 14044,
    "Ġvigilant": 20187,
    "Ġthither": 6821,
    "attacked": 23125,
    "Ġgames": 11628,
    "aloons": 20014,
    "Ġspo": 6846,
    "Ġbrains": 2625,
    "Ġconfirmed": 11140,
    "Ġsulk": 15047,
    "Ġidentity": 2518,
    "Ġbasin": 19850,
    "rints": 12506,
    "ronted": 14879,
    "Ġspecimen": 13027,
    "ering": 1266,
    "Ġstyle": 6946,
    "Ġpowdered": 24239,
    "head": 1436,
    "Ġdictating": 20155,
    "Ġcouldn": 7649,
    "Ġdishonor": 25602,
    "Ġreflection": 6441,
    "Ġdaily": 5989,
    "Ġdisinclination": 22541,
    "Ġkrem": 9728,
    "Ġburnwell": 13272,
    "ological": 1884,
    "ories": 4754,
    "Ġowe": 8116,
    "tis": 4106,
    "Ġcoroner": 7510,
    "Ġundertaking": 8577,
    "Ġchaos": 17010,
    "treated": 21097,
    "Ġsnarl": 25714,
    "Ġreassure": 21676,
    "Ġnewcom": 16225,
    "beware": 16043,
    "Ġinev": 10183,
    "Ġbeget": 9227,
    "Ġpossibly": 4516,
    "ourse": 8872,
    "Ġmills": 21314,
    "Ġchord": 22250,
    "Ġdescent": 984,
    "Ġunintelligible": 26515,
    "ede": 21510,
    "ivory": 10271,
    "Ġawait": 17073,
    "Ġpeaking": 22694,
    "bastian": 10675,
    "stooped": 23825,
    "Ġforehead": 5262,
    "ich": 470,
    "standard": 22441,
    "Ġhudson": 15194,
    "Ġcondescend": 19958,
    "solution": 14687,
    "Ġdisconcerted": 18563,
    "fourths": 25510,
    "Ġseer": 21957,
    "low": 654,
    "Ġpit": 3420,
    "Ġstained": 11654,
    "quietude": 24656,
    "Ġpolished": 11183,
    "ta": 13791,
    "Ġblood": 3170,
    "Ġanyways": 22525,
    "Ġstage": 7389,
    "Ġinexperience": 26100,
    "score": 18858,
    "lightning": 16554,
    "Ġplaces": 5390,
    "«": 109,
    "Ġconducting": 16651,
    "Ġnonsensical": 21533,
    "Ġbust": 10169,
    "Ġtrump": 8198,
    "lydia": 6826,
    "Ġlover": 7193,
    "Ġsolemnisation": 24114,
    "Ġexplo": 2284,
    "sharks": 14239,
    "Ġ40": 14770,
    "rumours": 23924,
    "Ġchewing": 23288,
    "Ġ124": 24468,
    "our": 534,
    "Ġth": 299,
    "Ġweaving": 12744,
    "sul": 15423,
    "tail": 8765,
    "sounded": 12270,
    "Ġhor": 1656,
    "Ġbat": 10796,
    "Ġnapole": 15118,
    "Ġindispensable": 11904,
    "ios": 2189,
    "algorith": 3437,
    "Ġflames": 7941,
    "barrow": 15323,
    "shock": 19857,
    "county": 25397,
    "Ġindignant": 12243,
    "Ġsafe": 5103,
    "Ġschoolboys": 24480,
    "Ġtantalizing": 20417,
    "Ġguiltless": 16941,
    "Ġforwards": 12707,
    "Ġfury": 7662,
    "Ġconfronted": 23310,
    "Ġsharpen": 13572,
    "Ġprevailing": 24674,
    "trem": 17682,
    "usage": 12836,
    "Ġnoteworthy": 24164,
    "Ġquadru": 16007,
    "Ġmak": 10779,
    "Ġdiscussing": 5202,
    "Ġrucastles": 18722,
    "Ġknives": 14839,
    "Ġrev": 6989,
    "Ġpack": 5444,
    "Ġel": 797,
    "Ġparched": 11730,
    "Ġemerg": 13427,
    "ezes": 9993,
    "Ġoperation": 12001,
    "Ġgoodge": 22825,
    "Ġclerical": 25569,
    "Ġhist": 2441,
    "Ġpropriet": 9552,
    "Ġdrifting": 19281,
    "Ġhitting": 21491,
    "whales": 5187,
    "Ġstiffest": 24827,
    "Ġcranial": 25593,
    "Ġ46": 19494,
    "uy": 21102,
    "Ġsuffering": 8948,
    "quitted": 21862,
    "tub": 9145,
    "Ġtracing": 18891,
    "Ġambergris": 8709,
    "abst": 21793,
    "Ġtrad": 9830,
    "Ġunderstanding": 1783,
    "streamed": 25967,
    "Ġne": 391,
    "Ġbodiless": 24228,
    "married": 9951,
    "Ġwalton": 14974,
    "Ġavailed": 23955,
    "seventy": 10877,
    "Ġabject": 18392,
    "Ġpursuing": 9440,
    "reat": 618,
    "----âĢĿ": 13310,
    "repressed": 21246,
    "aint": 2535,
    "cock": 12028,
    "lasting": 8012,
    "Ġbenevolence": 9529,
    "Ġgently": 7172,
    "Ġunb": 10908,
    "Ġcoal": 18596,
    "Ġfetch": 7771,
    ".âĢĶâĢľ": 20749,
    "christ": 10212,
    "Ġsharing": 3478,
    "Ġshrouded": 14971,
    "Ġinstant": 2699,
    "ollion": 19718,
    "Ġgirdle": 19160,
    "Ġserpents": 13080,
    "Ġrefuge": 8542,
    "Ġglorious": 11076,
    "Ġstrife": 18615,
    "wondrous": 12341,
    "abular": 4763,
    "Ġpl": 744,
    "Ġamend": 16039,
    "Ġcronies": 23442,
    "Ġcombinations": 22881,
    "otherwise": 7672,
    "Ġjoin": 4855,
    "vessel": 11378,
    "within": 6732,
    "Ġscr": 11764,
    "takes": 21079,
    "late": 11500,
    "Ġlessened": 19087,
    "cont": 2917,
    "Ġdevious": 22728,
    "Ġsubject": 2460,
    "solut": 3365,
    "Ġhove": 17925,
    "Ġrelu": 1047,
    "Ġpublished": 11242,
    "Ġinvoked": 19146,
    "ol": 362,
    "improve": 15715,
    "brevi": 24074,
    "adders": 24399,
    "valued": 2848,
    "Ġjustine": 4970,
    "unction": 10236,
    "Ġsaviour": 20715,
    "othic": 16218,
    "Ġhideousness": 16916,
    "Ġanno": 9669,
    "Ġinspect": 5966,
    "Ġsenses": 8253,
    "Ġinhabitants": 7524,
    "Ġslates": 11107,
    "Ġsperm": 1842,
    "Ġregulations": 18594,
    "Ġmain": 807,
    "sink": 11523,
    "Ġfavour": 3641,
    "Ġmushroom": 13239,
    "Ġsquare": 2394,
    "Ġredden": 15697,
    "forced": 11032,
    "mbles": 23092,
    "elab": 21574,
    "Ġaffright": 9334,
    "marrying": 19550,
    "lake": 13751,
    "Ġga": 4449,
    "Ġtags": 20574,
    "ened": 1390,
    "slo": 17657,
    "Ġsort": 1506,
    "Ġmetropolis": 17276,
    "Ġven": 4649,
    "foundation": 16716,
    "isl": 21378,
    "declaration": 25176,
    "Ġadjust": 2155,
    "infer": 10146,
    "Ġgnarled": 25169,
    "aping": 8195,
    "Ġcanv": 7011,
    "ourselves": 9013,
    "virtue": 20572,
    "Ġthus": 2035,
    "asingly": 17963,
    "unknown": 10891,
    "fugitive": 26132,
    "Ġoriginated": 24123,
    "circumstantial": 24443,
    "fifth": 20149,
    "Ġvalid": 1726,
    "Ġbeat": 4494,
    "Ġwarb": 17789,
    "nailed": 20998,
    "Ġ-": 1942,
    "Ġduly": 13354,
    "Ġforthwith": 16619,
    "unwho": 21882,
    "Ġinflict": 15002,
    "Ġtimidity": 24688,
    "brought": 7285,
    "Ġsuckling": 25998,
    "Ġloom": 7629,
    "Ġ35": 24077,
    "\":": 9583,
    "Ġcanopy": 18323,
    "elves": 2158,
    "attentive": 17191,
    "Ġdespised": 14668,
    "Ġunfeeling": 14121,
    "oar": 12501,
    "cry": 12449,
    "odd": 21816,
    "âĢĶâĢĻ": 8189,
    "lled": 10109,
    "ply": 6367,
    "precedented": 15177,
    "anded": 5925,
    "waistcoat": 17363,
    "Ġponies": 21479,
    "Ġideas": 5494,
    "Ġenvy": 13203,
    "Ġhorns": 11124,
    "Ġsuit": 5725,
    "Ġpetulance": 24229,
    "Ġthoughtless": 16195,
    "Ġlurked": 11292,
    "Ġheavenly": 12088,
    "Ġug": 8142,
    "Ġcruelly": 13378,
    "Ġsalutation": 12400,
    "Ġowen": 15097,
    "Ġsuspicions": 9481,
    "Ġopulent": 23630,
    "Ġpitched": 9446,
    "Ġderbyshire": 6588,
    "Ġpinched": 17035,
    "Ġforgo": 21778,
    "Ġapprovingly": 26253,
    "Ġlatitude": 8330,
    "Ġhandspikes": 12942,
    "permission": 15906,
    "Ġimmut": 13301,
    "veral": 2350,
    "Ġdearly": 10403,
    "rimsh": 17028,
    "Ġcivilized": 8668,
    "Ġeloped": 22647,
    "ompl": 4538,
    "portent": 25413,
    "wife": 8102,
    "acc": 2527,
    "izings": 14046,
    "ĠĠĠĠĠĠĠĠĠĠĠĠĠĠĠĠĠĠĠĠĠĠĠĠĠ": 24441,
    "Ġdisagree": 22537,
    "Ġwhitewashed": 14471,
    "Ġoverl": 18427,
    "Ġdownst": 3559,
    "quer": 11682,
    "cele": 21629,
    "Ġestablish": 9545,
    "remembrance": 25703,
    "Ġterrify": 19364,
    "Ġloth": 17968,
    "Ġresentment": 7530,
    "audible": 17134,
    "conven": 6164,
    "voc": 8395,
    "Ġroses": 11789,
    "Ġpian": 13919,
    "Ġbeer": 10221,
    "Ġstopped": 5959,
    "east": 9117,
    "Ġsymp": 4505,
    "Ġtelesc": 13001,
    "Ġtransparen": 10543,
    "athom": 12943,
    "Ġpertaining": 18452,
    "Ġdressing": 7092,
    "Ġsilver": 7463,
    "ress": 930,
    "Ġczar": 12578,
    "waters": 11334,
    "ostent": 16847,
    "onents": 8781,
    "Ġthrilling": 19751,
    "Ġawa": 7715,
    "Ġrepetition": 8974,
    "aloud": 17943,
    "Ġlar": 765,
    "edded": 8558,
    "Ġwool": 19436,
    "Ġallies": 18235,
    "A": 37,
    "Ġribbons": 24324,
    "Ġescaping": 13138,
    "Ġsweep": 8267,
    "Ġpainter": 19170,
    "Ġeat": 4645,
    "Ġindefinite": 17178,
    "iling": 3094,
    "Ġpacifics": 24372,
    "rad": 2153,
    "examine": 25478,
    "Ġrecognise": 12059,
    "Ġvoyages": 6908,
    "Ġreserves": 19673,
    "ft": 909,
    "isely": 4491,
    "undertaking": 23790,
    "whaler": 20312,
    "vill": 10736,
    "Ġseasons": 9433,
    "speeches": 25240,
    "waste": 21137,
    "Ġvibrated": 25048,
    "Ġ47": 14773,
    "Ġhorses": 6386,
    "Ġarrangements": 16516,
    "frank": 7759,
    "Ġcabal": 23644,
    "embra": 14076,
    "Ġomit": 17817,
    "Ġwaist": 6892,
    "Ġloftiest": 16875,
    "Ġaquiline": 26160,
    "iled": 1764,
    "thrill": 25657,
    "Ġgravesend": 15219,
    "Ġcope": 17832,
    "Ġcabinets": 23865,
    "knives": 14915,
    "pr": 3177,
    "Ġxxi": 24475,
    "itious": 8783,
    "let": 2727,
    "holding": 7740,
    "ursday": 12280,
    "shorn": 22447,
    "Ġpetticoat": 15298,
    "Ġnorthwards": 19549,
    "Ġlat": 5087,
    "Ġanticip": 7507,
    "slackened": 26095,
    "Ġthousandth": 23687,
    "Ġoriginal": 6104,
    "learning": 2852,
    "Ġabout": 633,
    "Ġcucumber": 21359,
    "prot": 6899,
    "seemed": 4306,
    "Ġauger": 21206,
    "Ġliberally": 16831,
    "Ġworkflow": 2397,
    "principal": 20662,
    "letons": 14613,
    "Ġhumorously": 18779,
    "Ġseverely": 14935,
    "Ġcontempt": 6277,
    "apparatus": 26564,
    "Ġpertur": 12856,
    "Ġsentiments": 7962,
    "Ġconjunction": 25103,
    "Ġconvolutional": 2162,
    "animals": 24737,
    "Ġships": 3714,
    "Ġclipping": 2437,
    "Ġoppress": 13175,
    "cr": 4011,
    "Ġcoronation": 13337,
    "reflected": 24732,
    "Ġclimes": 12844,
    "Ġdishon": 12234,
    "iving": 1725,
    "regularly": 13211,
    "include": 23590,
    "Ġswamp": 14438,
    "Ġencouraged": 9357,
    "strong": 6324,
    "Ġcollateral": 20075,
    "Ġlog": 1676,
    "Ġpaddling": 25286,
    "idea": 9303,
    "Ġhay": 11607,
    "Ġbricks": 13565,
    "Ġdrab": 13074,
    "assin": 22310,
    "Ġsea": 1208,
    "Ġcaptain": 1600,
    "Ġconsolation": 6210,
    "Ġ69": 19664,
    "hamlet": 23265,
    "Ġwarring": 16866,
    "Ġresounded": 22549,
    "Ġarchbishop": 18711,
    "fth": 20858,
    "bled": 5469,
    "Ġdiabol": 11454,
    "quired": 21860,
    "Ġdinner": 4247,
    "Ġclamorous": 24910,
    "cun": 20797,
    "Ġdecision": 2671,
    "Ġdignified": 15601,
    "Ġvertical": 16605,
    "Ġmacro": 25940,
    "Ġprofundities": 20456,
    "Ġ1839": 20463,
    "Ġoughts": 23904,
    "originally": 24940,
    "Ġampl": 22485,
    "Ġlicence": 25099,
    "Ġdefiance": 11069,
    "Ġcanterbury": 22172,
    "Ġcolleg": 22857,
    "Ġdood": 22247,
    "Ġunob": 22020,
    "Ġbehaviors": 13258,
    "Ġgown": 10203,
    "Ġtip": 15473,
    "crossing": 19414,
    "crop": 20800,
    "Ġtruce": 24116,
    "watson": 12247,
    "ortment": 22262,
    "cares": 24310,
    "Ġgradual": 20604,
    "by": 1156,
    "Ġexcavating": 23317,
    "ward": 706,
    "getic": 12970,
    "opposing": 24822,
    "Ġthan": 737,
    "fters": 20863,
    "Ġvehement": 16204,
    "Ġwraps": 19779,
    "Ġsagittarius": 24731,
    "shold": 2769,
    "Ġpag": 6013,
    "Ġjog": 18405,
    "Ġes": 8773,
    "hopes": 15372,
    "Ġspake": 18309,
    "infallibly": 26418,
    "Ġcompromised": 22576,
    "unbe": 21877,
    "Ġrains": 24339,
    "Ġsnatching": 10473,
    "Ġculprit": 26173,
    "Ġevid": 3502,
    "arers": 12133,
    "aming": 5829,
    "Ġcoco": 11001,
    "Ġmeadows": 11423,
    "Ġvivid": 8059,
    "Ġbolted": 12248,
    "Ġextinguish": 14338,
    "paying": 25412,
    "||": 4870,
    "rope": 3187,
    "Ġshri": 5375,
    "slow": 7811,
    "extric": 22766,
    "westward": 25425,
    "Ġcor": 1324,
    "gan": 2198,
    "rendered": 22344,
    "Ġchast": 18380,
    "Ġwarm": 2423,
    "Ġwindow": 2995,
    "Ġsab": 10763,
    "Ġfainter": 14916,
    "Ġexultation": 15174,
    "orily": 15576,
    "Ġequilib": 4139,
    "Ġbethink": 12382,
    "Ġhan": 15621,
    "opÃ¦": 12877,
    "arse": 7161,
    "Ġfierceness": 26266,
    "Ġbarbar": 6935,
    "hatred": 24818,
    "Ġoblig": 3446,
    "Ġunrecord": 16622,
    "Ġrejoiced": 8687,
    "oam": 8755,
    "Ġcalculating": 9927,
    "Ġreader": 11937,
    "stern": 7863,
    "upright": 23021,
    "Ġhen": 3503,
    "anywhere": 14683,
    "Ġtransportation": 13645,
    "Ġshelter": 17009,
    "Ġchrysalis": 26539,
    "indispensable": 14211,
    "Ġtwisted": 7228,
    "Ġspe": 819,
    "Ġsighed": 10339,
    "Ġhadn": 9721,
    "Ġadmirer": 16839,
    "plish": 18209,
    "u": 89,
    "button": 10967,
    "Ġblacksmith": 6597,
    "Ġinducement": 16844,
    "Ġderives": 16310,
    "look": 2262,
    "Ġthrowing": 6337,
    "Ġseething": 18202,
    "ondency": 15272,
    "Ġoccurrences": 11051,
    "Ġkelson": 18351,
    "Ġfan": 2034,
    "Ġ36": 14769,
    "enough": 6810,
    "breakfast": 8691,
    "harm": 13737,
    "came": 4572,
    "Ġredu": 1357,
    "mental": 16052,
    "Ġmultiplied": 23693,
    "Ġpartiality": 9400,
    "Ġtasks": 1789,
    "smug": 23911,
    "Ġagain": 812,
    "cleanliness": 25872,
    "Ġinto": 647,
    "spin": 22731,
    "wand": 10739,
    "Ġcuts": 14608,
    "Ġfortunately": 12183,
    "ought": 831,
    "evident": 25521,
    "Ġlawless": 19438,
    "duct": 3507,
    "Ġdownwards": 8532,
    "Ġret": 1383,
    "Ġadam": 2128,
    "sir": 5001,
    "necessities": 24307,
    "Ġescort": 23507,
    "Ġperilously": 24503,
    "hot": 8085,
    "entreat": 17978,
    "tremble": 17143,
    "orers": 14105,
    "Ġsurmis": 23465,
    "Ġbreathes": 13250,
    "Ġwilliam": 3483,
    "Ġuntidy": 23524,
    "spoken": 11863,
    "allies": 14167,
    "attery": 18501,
    "Ġchalk": 15936,
    "progress": 11990,
    "Ġobsequious": 17406,
    "acknowledged": 15205,
    "Ġirresolute": 24917,
    "intercourse": 14639,
    "Ġschemes": 11132,
    "Ġopulence": 23629,
    "tery": 14039,
    "Ġappro": 657,
    "ĠĠĠĠĠĠĠĠĠĠĠĠĠĠĠĠĠĠĠĠĠĠĠĠĠĠĠĠĠĠĠĠĠĠĠĠĠĠĠĠĠĠĠĠĠĠĠĠĠ": 20041,
    "Ġass": 1503,
    "alive": 10828,
    "51": 12434,
    "endous": 6850,
    "?--": 15306,
    "Ġexordium": 26493,
    "Ġprovoking": 16744,
    "Ġcarry": 4780,
    "withdrawn": 23030,
    "hurrying": 14985,
    "Ġborrowed": 17231,
    "Ġcalled": 1969,
    "Ġsavi": 18326,
    "Ġdiffused": 12072,
    "Ġapart": 4747,
    "igner": 21706,
    "Ġoutlaws": 22328,
    "ļ": 253,
    "gave": 7801,
    "blunder": 24131,
    "Ġbaby": 6639,
    "Ġstiffly": 15006,
    "Ġsetbacks": 11064,
    "guarded": 13298,
    "dut": 10089,
    "[": 63,
    "positive": 20570,
    "Ġupdate": 2459,
    "fitted": 17545,
    "tired": 21075,
    "Ġunmindful": 22071,
    "strils": 10459,
    "Ġanne": 1532,
    "Ġpostscript": 14810,
    "Ġineffable": 17334,
    "Ġmonth": 2844,
    "dispute": 23501,
    "Ġcertainly": 2492,
    "tic": 8392,
    "Ġlouis": 8358,
    "binnacle": 20789,
    "Ġsearch": 2585,
    "iteness": 4395,
    "such": 3083,
    "Ġarray": 12813,
    "adequ": 11021,
    "Ġbanking": 19633,
    "Ġthunders": 15641,
    "cous": 8725,
    "Ġinscrut": 10036,
    "hro": 20893,
    "Ġabruptness": 25300,
    "immedi": 8452,
    "Ġwindlass": 7256,
    "boat": 3363,
    "no": 876,
    "mindful": 19602,
    "Ġexpect": 2303,
    "Ġwriggling": 15260,
    "Ġbenefit": 8295,
    "Ġdominant": 12399,
    "Ġhe": 318,
    "ove": 1743,
    "Ġoverbearing": 12846,
    "iew": 2443,
    "Ġrandomly": 1919,
    "earthquakes": 24724,
    "Ġaft": 5737,
    "Ġmisgivings": 15294,
    "Ġupbraided": 26529,
    "derness": 11740,
    "Ġarithmetic": 18339,
    "idirectional": 2419,
    "silence": 8046,
    "vol": 722,
    "Ġirrevocably": 15300,
    "agreeable": 5830,
    "missionary": 24617,
    "continual": 20646,
    "Ġplays": 12040,
    "Ġcomputational": 1621,
    "Ġsl": 1497,
    "pol": 5895,
    "reliable": 21243,
    "Ġfixed": 2680,
    "deformity": 22151,
    "Ġwent": 1538,
    "lacing": 17591,
    "Ġsatur": 1929,
    "Ġwilds": 16510,
    "Ġlane": 5627,
    "Ġunass": 14116,
    "Ġgrown": 5628,
    "introduce": 25187,
    "Ġclout": 22348,
    "bey": 10316,
    "Ġimmortal": 8019,
    "initely": 7568,
    "motives": 26138,
    "Ġ64": 24366,
    "Ġvoluntary": 14801,
    "haw": 6363,
    "Ġswayed": 15049,
    "Ġshar": 9252,
    "unbounded": 21890,
    "Ġdate": 7842,
    "sigma": 3000,
    "Ġlakeman": 6987,
    "cask": 12450,
    "Ġstores": 18071,
    "Ġshaster": 22003,
    "compared": 24036,
    "Ġvoyager": 16513,
    "._]]": 5335,
    "irm": 3110,
    "keen": 12786,
    "requiem": 24857,
    "Ġdigest": 24648,
    "ladyship": 14831,
    "moral": 14804,
    "Ġelegance": 11333,
    "Ġgarnery": 17389,
    "Ġwits": 15534,
    "Ġcreaking": 14329,
    "Ġbesee": 19245,
    "Ġcongregated": 20100,
    "Ġbounding": 19403,
    "surprising": 16920,
    "tan": 4743,
    "Ġarchitect": 970,
    "Ġhated": 7585,
    "gay": 11490,
    "Ġunalterable": 15854,
    "Ġnailing": 21531,
    "Ġir": 1990,
    "Ġjar": 15953,
    "Ġacutely": 14316,
    "occupied": 12307,
    "Ġgrapnels": 25552,
    "apologizing": 26545,
    "Ġremains": 4911,
    "oved": 5215,
    "Ġbachel": 7159,
    "Ġcrews": 8992,
    "Ġonto": 14033,
    "eks": 4729,
    "tling": 9144,
    "Ġthousand": 2777,
    "Ġchanc": 18384,
    "Ġwedge": 24935,
    "Ġ53": 19638,
    "oken": 4309,
    "circle": 16737,
    "Ġadvancing": 6879,
    "strike": 14951,
    "Ġpipes": 9857,
    "Ġabominate": 20068,
    "serve": 13051,
    "Ġasserted": 16950,
    "Ġ1950": 11360,
    "Ġunrest": 11717,
    "Ġmatch": 4531,
    "Ġdre": 1744,
    "Ġconcern": 2580,
    "Ġmisfortune": 5568,
    "Ġexamined": 6336,
    "hence": 16626,
    "Ġdetermined": 2222,
    "Ġstarve": 24627,
    "lanterns": 17431,
    "interests": 19711,
    "eaten": 20347,
    "Ġguided": 10461,
    "Ġacknowledgment": 16958,
    "Ġimpregnable": 26024,
    "Ġgleaming": 24998,
    "Ġwithdra": 6399,
    "Ġsinew": 25432,
    "Ġmal": 5221,
    "Ġchiefly": 5766,
    "Ġbecause": 2211,
    "origin": 7582,
    "Ġhand": 858,
    "Ġcumulative": 4213,
    "Ġbitter": 4175,
    "erce": 6128,
    "Ġunsh": 14117,
    "Ġunremitting": 26219,
    "wives": 15457,
    "Ġclearer": 16314,
    "Ġgrief": 4622,
    "Ġwouldst": 18502,
    "unhesitatingly": 26497,
    "Ġwherein": 14295,
    "visits": 24225,
    "accur": 14594,
    "Ġmild": 4149,
    "his": 1413,
    "Ġstrides": 22618,
    "sue": 2075,
    "Ġmonsieur": 12424,
    "Ġcoffins": 13254,
    "vitality": 20482,
    "Ġrays": 10332,
    "Ġscript": 18400,
    "Ġmot": 2981,
    "Ġtrag": 13044,
    "Ġdevotedly": 24749,
    "Ġearthy": 23715,
    "Ġpoints": 5248,
    "butter": 11788,
    "Ġpaddington": 17095,
    "service": 15038,
    "Ġreadily": 5254,
    "Ġflesh": 5971,
    "Ġeternities": 19946,
    "Ġunreliable": 3929,
    "Ġretrie": 10384,
    "abond": 15744,
    "Ġheinous": 18041,
    "Ġyounge": 16290,
    "latitudes": 17198,
    "was": 1421,
    "Ġdemo": 10881,
    "cas": 20796,
    "Ġaccordance": 19501,
    "Ġtrials": 16790,
    "Ġfunctional": 3046,
    "accomp": 10456,
    "Ġunspeakably": 25173,
    "Ġsundering": 23278,
    "inkling": 16094,
    "Ġdanced": 7843,
    "waited": 24587,
    "Ġouthouse": 22319,
    "Ġembattled": 26290,
    "Ġmadden": 10448,
    "Ġtunnel": 14932,
    "sleepy": 24728,
    "Ġinfluences": 14867,
    "Ġdisliked": 12895,
    "Ġwrist": 8244,
    "imp": 3030,
    "Ġmove": 5107,
    "ubb": 1645,
    "Ġexposed": 8525,
    "N": 50,
    "rious": 11691,
    "inlaid": 21193,
    "Ġarctic": 12814,
    "Ġcomplimented": 14906,
    "Ġwiser": 14732,
    "Ġcensured": 25097,
    "embow": 21936,
    "Ġnameless": 7701,
    "carp": 9112,
    "deserted": 19344,
    "evenings": 19466,
    "rubber": 12815,
    "Ġwer": 12556,
    "Ġtrifling": 10604,
    "staff": 21660,
    "mutually": 26137,
    "suitable": 18636,
    "Ġheedful": 19743,
    "Ġlights": 8962,
    "anguish": 15986,
    "Ġabsent": 7016,
    "Ġslew": 23386,
    "Ġprosecution": 12384,
    "intention": 10369,
    "Ġvial": 10250,
    "Ġulster": 14998,
    "Ġyore": 21783,
    "laz": 15388,
    "table": 5795,
    "Ġsabbee": 17257,
    "Ġtuning": 3073,
    "Ġconfeder": 25708,
    "Ġtranquillity": 7536,
    "Ġstrangled": 24135,
    "Ġorganisation": 23584,
    "voice": 7817,
    "Ġtrifles": 16952,
    "Ġright": 1504,
    "spouter": 22734,
    "Ġvictims": 19807,
    "Ġloitered": 26526,
    "Ġcasual": 11410,
    "Ġnightfall": 23134,
    "Ġdyspepsia": 20645,
    "Ġdecomposes": 5506,
    "Ġtype": 2018,
    "Ġimplicated": 24876,
    "ived": 1535,
    "Ġpractices": 19057,
    "Ġfarther": 5957,
    "ust": 497,
    "albatross": 15633,
    "Ġhebrew": 13990,
    "Ġspile": 22132,
    "unciation": 25983,
    "writer": 14649,
    "Ġodorous": 19569,
    "Ġlasted": 11054,
    "Ġconsecutive": 20705,
    "Ġloved": 4601,
    "Ġsuavely": 26524,
    "street": 6496,
    "growing": 13735,
    "amount": 10885,
    "Ġacknowledged": 7534,
    "beholding": 16044,
    "raise": 18014,
    "Ġexasper": 8469,
    "car": 4214,
    "Ġregularizer": 2336,
    "leisure": 21374,
    "introduced": 15127,
    "Ġstructure": 827,
    "Ġabsor": 8507,
    "Ġhapp": 1090,
    "Ġgor": 9208,
    "Ġargosy": 24275,
    "knew": 9128,
    "chance": 6827,
    "anks": 3917,
    "derment": 22166,
    "Ġsires": 21229,
    "traces": 24335,
    "charge": 9451,
    "Ġpatter": 830,
    "Ġ27": 8618,
    "fixed": 7548,
    "Ġble": 5223,
    "Ġrestrict": 16376,
    "Ġallowance": 14391,
    "Ġantiquity": 15233,
    "Ġsultry": 20291,
    "Ġvigorous": 10568,
    "Ġinsufficient": 9674,
    "Ġpreser": 6043,
    "Ġreason": 1374,
    "oriously": 17876,
    "enge": 21283,
    "Ġexalted": 12415,
    "Ġtent": 15469,
    "Ġrefreshed": 15293,
    "ored": 3896,
    "Ġle": 333,
    "Ġoutlines": 15960,
    "Ġprobed": 18735,
    "Ġunwaning": 24830,
    "topic": 10529,
    "Ġdisappeared": 5645,
    "seas": 14035,
    "Ġlac": 17967,
    "Ġschedules": 3387,
    "inferior": 12397,
    "Ġprompt": 3191,
    "Ġtolerable": 6949,
    "Ġsat": 1131,
    "Ġ55": 24318,
    "insupportable": 21196,
    "bod": 12440,
    "Ġsu": 430,
    "blood": 7781,
    "acific": 4960,
    "Ġcomfor": 14056,
    "Ġobeisance": 19761,
    "Ġinsipid": 26314,
    "threshold": 21992,
    "Ġveracity": 23892,
    "Ġphrenolog": 12337,
    "Ġboarding": 12090,
    "Ġderick": 9366,
    "if": 375,
    "Ġfaces": 6011,
    "Ġcoronet": 6346,
    "Ġdears": 18142,
    "Ġabomin": 8190,
    "Ġgover": 2457,
    "Ġtight": 8109,
    "Ġanybody": 5314,
    "acency": 12912,
    "rets": 12545,
    "Ġ125": 24469,
    "glanced": 19369,
    "Ġunequal": 14844,
    "domestic": 19828,
    "Ġannealing": 1553,
    "vered": 4831,
    "Ġcold": 3029,
    "retired": 11939,
    "Ġmonuments": 22988,
    "Ġforesight": 13130,
    "Ġneighbour": 3807,
    "islands": 21379,
    "seek": 8840,
    "Ġfertile": 20586,
    "Ġcalifornia": 20533,
    "Ġwhe": 439,
    "Ġmans": 15539,
    "Ġdictator": 20156,
    "conceal": 25117,
    "Ġimproved": 7657,
    "Ġundu": 15840,
    "expect": 4770,
    "Ġbalanced": 12993,
    "cious": 6646,
    "thereby": 14449,
    "Ġtubs": 11371,
    "Ġcheerfulness": 10518,
    "Ġsurging": 19135,
    "Ġstripping": 23699,
    "Ġcircum": 8259,
    "Ġwearied": 15796,
    "cripp": 20821,
    "mon": 2306,
    "&": 10,
    "Ġflow": 1237,
    "Ġstrictly": 12288,
    "Ġbouton": 17870,
    "ichever": 13959,
    "eronomy": 15527,
    "Ġmun": 12566,
    "Ġeighty": 19479,
    "Ġfireside": 23532,
    "Ġcomput": 599,
    "Ġcarries": 7675,
    "Ġunwritten": 22039,
    "Ġbeheaded": 11658,
    "Ġacre": 22685,
    "Ġlamb": 8816,
    "lying": 7175,
    "comparison": 25842,
    "Ġcensus": 15099,
    "Ġelect": 10843,
    "Ġlottery": 19890,
    "Ġsquid": 11881,
    "Ġconstables": 19070,
    "appearance": 5334,
    "scap": 22994,
    "Ġpostponed": 20393,
    "Ġdiligence": 17114,
    "Ġstables": 23656,
    "encounter": 20395,
    "Ġpleasurable": 23344,
    "ipl": 20920,
    "lived": 12490,
    "Ġfair": 2833,
    "Ġvices": 14085,
    "irregular": 21916,
    "Ġfobbing": 26442,
    "Ġcrimin": 6901,
    "rowsers": 8698,
    "Ġsings": 15507,
    "iature": 8745,
    "Ġcharges": 23271,
    "satisf": 5781,
    "Ġsword": 6734,
    "Ġobstin": 14955,
    "Ġpint": 17909,
    "Ġcountryside": 23597,
    "Ġarrowy": 25470,
    "Ġemblematical": 25789,
    "Ġduchess": 4800,
    "Ġunfailing": 24112,
    "idly": 12704,
    "Ġbasement": 24701,
    "renew": 24449,
    "Ġhurricane": 16433,
    "Ġstepfather": 7222,
    "Ġmountain": 3373,
    "elter": 21575,
    "above": 8149,
    "jeroboam": 25620,
    "Ġfris": 23258,
    "investigations": 25534,
    "Ġgourmand": 26467,
    "ĠâĢĻ": 3040,
    "ibly": 2993,
    "mystery": 15158,
    "interested": 9508,
    "Ġsquad": 22841,
    "Ġtour": 9149,
    "Ġform": 1024,
    "Ġpunctual": 17139,
    "Ġgods": 6455,
    "û": 188,
    "fortunately": 9453,
    "Ġmadly": 16486,
    "Ġsimplicity": 2920,
    "definition": 23122,
    "Ġcorrespondence": 10596,
    "Ġcircles": 7968,
    "Ġspy": 22128,
    "Ġoftentimes": 20158,
    "conclusion": 25672,
    "Ġrokovoko": 22411,
    "Ġweighted": 2089,
    "Ġdumb": 7844,
    "Ġbrilliancy": 20110,
    "Ġgoblet": 25824,
    "Ġbeak": 18082,
    "Ġconcerns": 12034,
    "coburg": 13601,
    "Ġmuteness": 19420,
    "±": 114,
    "Ġploughing": 26261,
    "ctors": 21594,
    "Ġassociate": 13453,
    "omas": 12675,
    "Ġcongealed": 25982,
    "Ġstranger": 3486,
    "Ġassurances": 10002,
    "Ġspitz": 14150,
    "nett": 16224,
    "Ġstride": 22617,
    "oct": 7554,
    "ex": 622,
    "ted": 787,
    "Ġcongratulations": 10582,
    "Ġdignity": 5704,
    "Ġgood": 1000,
    "poke": 18799,
    "Ġaccusation": 22383,
    "surgeon": 24216,
    "hint": 12479,
    "Ġvacant": 9497,
    "cast": 2924,
    "otics": 10225,
    "Ġmultimodal": 18747,
    "ivering": 7699,
    "54": 15302,
    "rogress": 21540,
    "thinks": 16643,
    "Ġbreathing": 9448,
    "Ġstarvation": 19794,
    "Ġtranced": 18432,
    "hus": 5072,
    "Ġcondemned": 7780,
    "Ġrushed": 4087,
    "Ġacceded": 22381,
    "Ġoscill": 2853,
    "iac": 6227,
    "vers": 1329,
    "Ġreus": 8825,
    "_,âĢĻ": 12436,
    "amongst": 24673,
    "Ġfootmarks": 19339,
    "umber": 5240,
    "Ġallusions": 10907,
    "Ġtr": 556,
    "grave": 16097,
    "Ġsteersman": 13046,
    "Ġsplinters": 15105,
    "Ġwooing": 19437,
    "Ġparac": 12799,
    "Ġpaid": 5015,
    "Ġhatches": 12047,
    "Ġsatire": 22904,
    "Ġdirected": 5578,
    "Ġwhalemen": 3913,
    "Ġunerringly": 18266,
    "Ġtuesday": 9628,
    "ut": 308,
    "pilot": 25909,
    "accustomed": 13160,
    "tained": 4408,
    "ference": 1882,
    "ury": 3313,
    "rew": 3648,
    "Ġshrine": 19534,
    "Ġexhibit": 14958,
    "Ġspinal": 12305,
    "code": 15331,
    "plete": 10920,
    "ster": 1956,
    "warnings": 20354,
    "supplied": 10521,
    "Ġducking": 17148,
    "Ġsets": 8778,
    "england": 18931,
    "Ġinsens": 8278,
    "Ġislets": 21806,
    "Ġmarine": 23035,
    "ilst": 8145,
    "Ġestimates": 3747,
    "Ġclassical": 22626,
    "Ġdisplay": 6429,
    "yes": 985,
    "atches": 13848,
    "Ġinventing": 24862,
    "Ġimpelled": 11785,
    "Ġref": 912,
    "Ġchamounix": 14866,
    "Ġsnake": 12064,
    "ancial": 21365,
    "Ġdarting": 7758,
    "abez": 10224,
    "Ġclimbing": 20073,
    "Ġpaddled": 20204,
    "Ġaudio": 24771,
    "Ġkeys": 11999,
    "niece": 20997,
    "Ġsec": 2073,
    "ĳ": 244,
    "Ġsteadfast": 8682,
    "Ġsolutions": 1944,
    "Ġ181": 23899,
    "Ġthrew": 3973,
    "Ġcriminal": 7537,
    "buffalo": 20566,
    "Ġgriefs": 16772,
    "dining": 13708,
    "Ġdiligent": 25078,
    "Ġfamily": 1962,
    "Ġheadlong": 11891,
    "Ġjumped": 7098,
    "Ġenlivened": 26209,
    "ip": 560,
    "aphys": 15204,
    "Ġuncle": 3194,
    "Ġpeople": 2538,
    "Ġboister": 12923,
    "Ġtwain": 16122,
    "Ġcompunction": 18588,
    "Ġconclusion": 5988,
    "prises": 23817,
    "Ġphilosophy": 7105,
    "watching": 16931,
    "perpendicular": 14164,
    "unk": 4541,
    "Ġpoisoned": 24887,
    "Ġempire": 11145,
    "Ġundeceive": 25553,
    "nue": 15399,
    "Ġswitching": 23061,
    "Ġidea": 2482,
    "Ġslay": 16308,
    "Ġshriek": 6640,
    "Ġschedule": 2368,
    "Ġsubfield": 11872,
    "Ġposture": 24166,
    "Ġtelegra": 11895,
    "Ġbar": 3150,
    "prior": 21035,
    "affording": 23780,
    "inquiry": 15145,
    "week": 12935,
    "baby": 25516,
    "Ġradiance": 13374,
    "Ġsteamer": 17190,
    "Ġchosen": 7201,
    "Ġic": 9627,
    "Ġcomple": 2836,
    "colour": 9905,
    "Ġcosy": 13133,
    "her": 488,
    "itled": 7578,
    "Ġloun": 7167,
    "break": 6103,
    "iring": 1707,
    "clear": 9026,
    "Ġunlim": 18254,
    "iloqu": 11650,
    "Ġscan": 22289,
    "Ġmeet": 2799,
    "Ġpad": 8126,
    "sufficient": 6638,
    "Ġoakshott": 12233,
    "single": 10128,
    "note": 14342,
    "Ġnapkins": 25165,
    "Ġinfiltrated": 23286,
    "Ġconvers": 2903,
    "Ġmayhew": 12954,
    "miles": 10713,
    "0": 20,
    "Ġtwopence": 18661,
    "connect": 1291,
    "Ġfootfalls": 25867,
    "det": 5207,
    "Ġreiter": 21670,
    "surpr": 5999,
    "Ġrevelations": 25224,
    "sweetly": 25137,
    "Ġcoin": 9773,
    "Ġpo": 738,
    "Ġhier": 1893,
    "Ġinspection": 14544,
    "Ġremoving": 12120,
    "Ġalready": 2707,
    "Ġbrut": 18770,
    "Ġuneasy": 8665,
    "andes": 18154,
    "Ġerr": 1323,
    "Ġaccustomed": 6861,
    "trouble": 8297,
    "Ġsage": 17753,
    "future": 13719,
    "Ġcorrespond": 6211,
    "Ġcoincid": 20320,
    "Ġbru": 13897,
    "Ġclergy": 7643,
    "Ġjac": 1896,
    "Ġklan": 23664,
    "Ġdisquiet": 18553,
    "carriage": 9948,
    "Ġflaming": 8567,
    "gazing": 12475,
    "Ġgoblets": 20522,
    "orial": 8419,
    "Ġhospitality": 13515,
    "aneous": 7240,
    "Ġplaintiffs": 13612,
    "Ġpanting": 11604,
    "Ġvalleys": 14921,
    "ores": 2412,
    "held": 3840,
    "vacancies": 25920,
    "Ġbetrayed": 9563,
    "stache": 15693,
    "tish": 17678,
    "Ġdare": 3545,
    "elf": 565,
    "Ġexcel": 3567,
    "Ġinscribed": 24941,
    "Ġenglish": 3613,
    "ann": 5803,
    "placidity": 25989,
    "Ġmalays": 19680,
    "rese": 15510,
    "Ġmis": 917,
    "Ġunwarrant": 19936,
    "Ġindulging": 16905,
    "ere": 6790,
    "Ġselfish": 7272,
    "max": 1684,
    "conceivable": 17132,
    "Ġmeanings": 18608,
    "related": 24016,
    "Ġcondescension": 10620,
    "Ġprovince": 24191,
    "Ġhousekeeper": 7456,
    "Ġtried": 3647,
    "ivance": 22083,
    "ppings": 18179,
    "Ġgrate": 12968,
    "Ġ550": 19639,
    "abled": 12798,
    "dam": 7799,
    "Ġcommonplaces": 16291,
    "regularization": 3515,
    "cra": 6356,
    "Ġprincip": 5599,
    "Ġsweat": 13143,
    "Ġviewed": 10464,
    "Ġdecisive": 18490,
    "irth": 5634,
    "Ġener": 10897,
    "Ġunconcern": 14119,
    "Ġfell": 1975,
    "Ġdedication": 3124,
    "Ġmottled": 20681,
    "Ġounce": 15275,
    "imagination": 13483,
    "Ġbohem": 8529,
    "Ġprinciple": 6771,
    "pipe": 8700,
    "etian": 13961,
    "Ġrejected": 12297,
    "Ġdot": 4822,
    "Ġensuring": 11192,
    "Ġwebster": 20164,
    "slipped": 25530,
    "elect": 20848,
    "Ġspouts": 7731,
    "Ġgreedily": 18966,
    "omin": 4704,
    "Ġcruel": 5121,
    "Ġhackney": 20436,
    "immortal": 21714,
    "Ġplum": 11825,
    "Ġwaiter": 16362,
    "Ġwestmorland": 24389,
    "Ġglitter": 25126,
    "Ġexert": 5722,
    "Ġtall": 4038,
    "Ġsuperstition": 15058,
    "Ġhelp": 1637,
    "german": 11493,
    "sect": 8154,
    "Ġshipmates": 6722,
    "Ġowest": 25094,
    "mixed": 17606,
    "Ġencounters": 19583,
    "elled": 4021,
    "Ġarguments": 8038,
    "Ġsuspicious": 9482,
    "Ġnorthumbria": 24173,
    "Ġblocks": 6323,
    "ended": 1834,
    "prosper": 19102,
    "Ġflourish": 17162,
    "Ġperfidious": 25667,
    "iation": 7343,
    "Ġpassers": 18760,
    "Ġreached": 4022,
    "ameter": 2992,
    "nihil": 9852,
    "Ġsatisfying": 23700,
    "please": 8178,
    "Ġgpt": 4352,
    "ridden": 24361,
    "Ġ5": 4935,
    "ĠĠĠĠĠĠĠĠĠĠĠĠĠĠĠĠĠĠĠĠĠĠĠĠĠĠĠĠĠĠĠĠĠĠĠĠĠĠĠ": 19261,
    "Ġglimpses": 13435,
    "Ġtil": 12528,
    "Ġharrow": 17928,
    "Ġhammers": 13244,
    "nets": 9134,
    "ops": 5247,
    "Ġarsacidean": 20368,
    "sc": 1259,
    "these": 3244,
    "Ġaccounts": 7207,
    "Ġunrem": 18245,
    "Ġshears": 18320,
    "Ġtopmost": 14588,
    "Ġaccomplice": 24375,
    "Ġsuperstitions": 17072,
    "izard": 10880,
    "Ġprocedure": 2804,
    "wered": 2684,
    "Ġbecalmed": 18089,
    "Ġchill": 11755,
    "Ġeigenvalues": 4998,
    "guard": 12132,
    "Ġknot": 7013,
    "Ġtechnique": 2480,
    "Ġadorn": 12794,
    "Ġcontinued": 2919,
    "Ġsimilar": 4918,
    "Ġcrosses": 23066,
    "immediately": 10051,
    "Ġapprehen": 16830,
    "pleasant": 5876,
    "fat": 8080,
    "Ġhem": 8447,
    "Ġum": 10213,
    "Ġtribute": 15477,
    "Ġpassion": 4559,
    "zors": 21150,
    "Ġsubur": 12960,
    "Ġalterations": 19873,
    "Ġinvention": 19956,
    "croquet": 25748,
    "Ġprecipice": 19944,
    "Ġqueequeg": 2010,
    "Ġmail": 17802,
    "attend": 11102,
    "Ġesq": 15111,
    "greatest": 10495,
    "Ġproposed": 7460,
    "Ġcushion": 17835,
    "Ġjoyful": 13225,
    "Ġformations": 18750,
    "kily": 20939,
    "desolation": 20462,
    "concerted": 16673,
    "Ġdecayed": 22827,
    "indef": 17736,
    "Ġsuperhuman": 23454,
    "Ġcrackling": 24963,
    "Ġspec": 1262,
    "ition": 658,
    "Ġborn": 5224,
    "onds": 12999,
    "lan": 15380,
    "Ġlullaby": 20591,
    "nson": 16096,
    "Ġdireful": 11018,
    "Ġcontrol": 13083,
    "esu": 17921,
    "frost": 15109,
    "handkerchief": 14618,
    "aston": 7408,
    "Ġenl": 18190,
    "Ġleaned": 7608,
    "Ġcrowned": 16842,
    "Ġinherit": 25353,
    "Ġorgan": 2497,
    "may": 3679,
    "Ġdrowning": 19906,
    "Ġdata": 520,
    "Ġperturbation": 20444,
    "happiness": 6470,
    "Ġxxxi": 24971,
    "Ġbower": 15570,
    "Ġcomplacency": 19451,
    "liber": 18815,
    "Ġmccarthy": 5145,
    "Ġadroop": 26002,
    "ution": 4351,
    "Ġwidows": 24238,
    "Ġminimize": 7052,
    "everything": 6326,
    "Ġdisgracing": 26257,
    "imens": 1746,
    "Ġlandowner": 23384,
    "hunsford": 24385,
    "ĠĠĠĠĠĠĠĠĠĠĠĠ": 12904,
    "Ġprice": 10404,
    "banked": 25338,
    "gallantry": 15062,
    "Ġsurest": 19056,
    "Ġpastures": 23422,
    "historical": 20469,
    "Ġtreating": 4286,
    "dawson": 26129,
    "cabin": 8364,
    "Ġivory": 4479,
    "Ġmim": 3108,
    "Ġbrew": 23348,
    "ik": 17572,
    "Ġbaleful": 24987,
    "bound": 6222,
    "atics": 15525,
    "Ġfiss": 21416,
    "Ġadequately": 15201,
    "Ġspire": 18307,
    "69": 17476,
    "Ġfooted": 23799,
    "prejud": 11799,
    "Ġregular": 936,
    "Ġchoked": 9266,
    "ĠĠĠĠĠĠĠĠĠĠĠĠĠĠĠĠĠĠĠĠĠĠĠĠĠĠĠĠĠĠĠĠ": 2733,
    "imagine": 19934,
    "tar": 8099,
    "ull": 1431,
    "che": 3173,
    "Ġincidents": 9301,
    "ains": 5094,
    "Ġtink": 9150,
    "Ġinequal": 21501,
    "Ġward": 10157,
    "ĺ": 251,
    "Ġcrawling": 17045,
    "Ġdarling": 12608,
    "Ġruss": 18720,
    "Ġsupper": 4667,
    "Ġhurt": 7702,
    "imin": 1768,
    "Ġairth": 23321,
    "Ġcin": 13877,
    "Ġlaw": 3654,
    "Ġcircumnavigating": 25615,
    "attending": 18918,
    "Ġparish": 8857,
    "Ġsemantics": 2890,
    "points": 14395,
    "placed": 7882,
    "Ġposterity": 17404,
    "comprehens": 16181,
    "kings": 17584,
    "Ġfreer": 23210,
    "hever": 13833,
    "Ġdisposition": 5409,
    "Ġmuskets": 17056,
    "reduced": 15805,
    "Ġharry": 24571,
    "Ġabating": 22272,
    "Ġattendant": 11286,
    "Ġmat": 1147,
    "atch": 674,
    "oky": 8199,
    "oker": 10964,
    "!âĢĶ": 2450,
    "Ġegypt": 9680,
    "Ġprofuse": 23567,
    "Ġaffability": 14389,
    "forgotten": 12419,
    "Ġhackluyt": 25656,
    "impregn": 21718,
    "Ġeventually": 8620,
    "Ġso": 435,
    "Ġadmiral": 17307,
    "onsible": 22566,
    "Ġskill": 6872,
    "Ġconcepts": 4553,
    "unts": 12735,
    "Ġtermination": 16461,
    "ub": 1225,
    "Ġengraving": 17080,
    "Ġprivate": 5346,
    "Ġwhar": 7388,
    "aths": 22703,
    "Ġmurderous": 8317,
    "Ġspurred": 22143,
    "Ġaccomplishments": 13382,
    "Ġdates": 6695,
    "Ġwoof": 14723,
    "Ġelevated": 7318,
    "Ġsubjected": 23573,
    "agos": 21909,
    "Ġimpress": 6862,
    "hav": 20899,
    "\",": 10680,
    "iday": 8833,
    "Ġmungo": 25632,
    "Ġfurrow": 22817,
    "Ġsnaky": 23745,
    "george": 26020,
    "Ġchry": 22251,
    "Ġimposs": 16617,
    "ley": 1816,
    "oot": 13767,
    "Ġphotography": 24684,
    "Ġhaunt": 18198,
    "natured": 7112,
    "bohem": 19002,
    "Ġruth": 14095,
    "maintained": 25023,
    "Ġfoaming": 18992,
    "Ġamazed": 14891,
    "Ġme": 350,
    "Ġcomputing": 2220,
    "shipmates": 11931,
    "Ġentr": 14340,
    "Ġeloquence": 11844,
    "Ġretention": 23075,
    "ouraged": 22861,
    "Ġinner": 9672,
    "cor": 5520,
    "Ġclaims": 13376,
    "Ġgeneral": 1860,
    "gunpowder": 25340,
    "passenger": 24168,
    "Ġdragon": 14946,
    "gd": 3128,
    "Ġgowns": 25360,
    "Ġtyros": 26102,
    "ital": 4819,
    "Ġansw": 2204,
    "Ġtattooings": 24901,
    "Ġprotecting": 24687,
    "Ġ135": 24784,
    "rench": 3967,
    "Ġpublicly": 13326,
    "anter": 9168,
    "Ġbirch": 26175,
    "than": 4088,
    "Ġforked": 11666,
    "Ġeach": 892,
    "Ġoutward": 7906,
    "Ġgaiety": 16750,
    "Ġsund": 8250,
    "Ġdeactivates": 20706,
    "Ġdeliriously": 23232,
    "estruct": 22228,
    "ette": 15662,
    "ode": 1453,
    "Ġahoy": 12188,
    "ivers": 1981,
    "Ġhipp": 21496,
    "Ġaristocratic": 20515,
    "Ġrevived": 11369,
    "Ġdifferently": 10390,
    "Ġtide": 6661,
    "Ġpassed": 2008,
    "horrors": 20544,
    "ograph": 4798,
    "fireside": 24693,
    "Ġreluctant": 20528,
    "Ġhorizon": 6635,
    "Ġdone": 1817,
    "Ġlinear": 3432,
    "thus": 5158,
    "Ġportcull": 23866,
    "Ġlunging": 24994,
    "Ġtraffic": 23087,
    "Ġcoff": 3508,
    "atra": 17772,
    "Ġstrings": 11832,
    "Ġsatan": 14392,
    "Ġburke": 19253,
    "Ġassertions": 19950,
    "Ġheartless": 13076,
    "oh": 1575,
    "Ġsauntering": 18328,
    "Ġw": 272,
    "Ġsolemnly": 8024,
    "hr": 20890,
    "Ġlifelessly": 23054,
    "Ġtro": 7356,
    "frock": 20124,
    "Ġethere": 23954,
    "Ġhindoo": 17177,
    "Ġrippling": 17279,
    "Ġappar": 7411,
    "Ġsabbath": 17256,
    "fork": 20859,
    "fisher": 7547,
    "Ġyelling": 18099,
    "Ġplight": 14283,
    "Ġancho": 15606,
    "Ġpassionately": 16765,
    "Ġepistle": 24905,
    "so": 890,
    "Ġomniscient": 20089,
    "ht": 376,
    "convalescence": 24885,
    "miserable": 8660,
    "Ġwhatsoever": 18456,
    "Ġending": 18924,
    "Ġwail": 21289,
    "Ġtension": 13826,
    "stopping": 19353,
    "strength": 13982,
    "Ġcountless": 16382,
    "Ġlength": 2495,
    "Ġplata": 25120,
    "ateful": 5929,
    "lean": 21368,
    "Ġirr": 10422,
    "Ġkramm": 26235,
    "tim": 13793,
    "Ġat": 397,
    "Ġcontributed": 16012,
    "Ġnewfound": 22936,
    "Ġvertically": 19383,
    "faint": 17546,
    "limp": 20954,
    "unctuous": 21887,
    "Ġmagnified": 23207,
    "Ġperform": 1037,
    "Ġmysterious": 7527,
    "Ġagreeable": 4554,
    "Ġplayfulness": 23639,
    "Ġunfair": 19510,
    "jabez": 20935,
    "Ġcondescended": 19959,
    "Ð": 145,
    "Ġladies": 3195,
    "ay": 355,
    "Ġzeros": 3326,
    "Ġdamn": 11159,
    "Ġrolling": 5977,
    "Ġyour": 634,
    "/": 19,
    "Ġfountain": 7365,
    "Ġperuvian": 18454,
    "ructure": 752,
    "Ġsarat": 21230,
    "Ġrepaired": 13111,
    "noon": 5037,
    "Ġcrowded": 8013,
    "Ġhieroglyphics": 17305,
    "Ġcased": 21349,
    "Ġtamely": 24982,
    "Ġattain": 12754,
    "Ġaddressing": 11165,
    "pointed": 9810,
    "ominy": 13980,
    "Ġchim": 5935,
    "Ġmimic": 3146,
    "enty": 2913,
    "Ġprairies": 20024,
    "Ġnursery": 19753,
    "Ġinjuring": 24270,
    "Ġburn": 3683,
    "surround": 16759,
    "Ġcordage": 19681,
    "Ġbelie": 14408,
    "Ġbetween": 788,
    "Ġalternate": 19989,
    "time": 3149,
    "resent": 10770,
    "lamps": 25261,
    "Ġfacts": 2287,
    "oldened": 22643,
    "Ġbrixton": 13666,
    "semble": 1526,
    "refusal": 24735,
    "taking": 5689,
    "Ġconsp": 10226,
    "Ġextract": 1521,
    "ccarthy": 4889,
    "ì": 173,
    "ach": 434,
    "Ġdread": 3165,
    "Ġdolphin": 17314,
    "Ġgroans": 14826,
    "braid": 17496,
    "thrust": 10263,
    "Ġlandless": 23382,
    "Ġghast": 9211,
    "Ġoblige": 10490,
    "Ġunimag": 12779,
    "persuaded": 15076,
    "infall": 21191,
    "erland": 9642,
    "Ġapply": 1778,
    "Ġinstability": 3812,
    "Ġblock": 2569,
    "Ġrepresents": 4903,
    "libr": 22927,
    "amet": 576,
    "strom": 15687,
    "Ġmeetings": 16534,
    "Ġhitherto": 5882,
    "measure": 10033,
    "restrained": 16338,
    "Ġrider": 24187,
    "Ġcomplet": 4425,
    "Ġnodded": 11972,
    "Ġgladness": 16592,
    "Ġabundant": 17156,
    "Ġretribution": 16284,
    "several": 5543,
    "aped": 3763,
    "Ġpersecut": 16953,
    "consequ": 18507,
    "taller": 26151,
    "Ġheroic": 14910,
    "Ġsmack": 9302,
    "Ġtortoise": 16909,
    "Ġdissuade": 26258,
    "odhead": 18123,
    "Ġintolerable": 8484,
    "sherlock": 5422,
    "from": 1988,
    "Ġbristles": 25845,
    "Ġsomnambul": 26577,
    "sank": 17663,
    "Ġcountries": 13100,
    "Ġmanner": 2196,
    "Ġshell": 11739,
    "request": 21244,
    "Ġ94": 17718,
    "70": 17477,
    "Ġcigaret": 16977,
    "eh": 13712,
    "coll": 23782,
    "cop": 20803,
    "Ġslaughter": 20732,
    "Ġscroll": 14193,
    "ĭ": 238,
    "sal": 8761,
    "Ġmethod": 1528,
    "pped": 1995,
    "onted": 11569,
    "Ġmetaphys": 16421,
    "Ġdauntless": 26338,
    "Ġcoarsely": 25830,
    "ellow": 3874,
    "Ġcharge": 5325,
    "Ġstep": 753,
    "Ġbecome": 3160,
    "Ġpersonages": 23541,
    "Ġenabling": 1079,
    "bene": 6114,
    "Ġtorch": 25033,
    "Ġadoration": 18291,
    "Ġlikelihood": 16502,
    "Ġbehaved": 13257,
    "Ġ102": 24409,
    "mer": 2829,
    "ified": 3228,
    "ture": 7558,
    "Ġorganizations": 12317,
    "rusion": 11324,
    "Ġfairest": 20466,
    "Ġannoy": 17200,
    "Ġjudge": 5502,
    "brilliancy": 26078,
    "urp": 1471,
    "kindly": 14746,
    "ific": 487,
    "Ġcontrivance": 17185,
    "Ġdays": 2076,
    "Ġtypewriting": 16423,
    "Ġferocity": 16872,
    "Ġconnected": 5393,
    "Ġbinnacle": 8120,
    "Ġdummy": 25450,
    "Ġjour": 11767,
    "Ġirre": 7468,
    "public": 17647,
    "Ġwhatever": 3475,
    "Ġturk": 6605,
    "Ġmistake": 6205,
    "scales": 22998,
    "Ġbought": 8418,
    "Ġaud": 6664,
    "rib": 1943,
    "Ġdivulged": 16650,
    "icial": 12659,
    "ob": 1420,
    "Ġcargo": 16292,
    "particularly": 8341,
    "again": 3399,
    "Ġoutbreak": 22322,
    "Ġcheapside": 23291,
    "Ġpredecess": 18510,
    "Ġpathways": 11154,
    "Ġliberty": 7763,
    "Ġblundering": 26285,
    "Ġwinc": 9644,
    "Ġsinister": 8572,
    "felix": 10655,
    "been": 3346,
    "Ġresistance": 13532,
    "Ġimpressive": 15000,
    "comprehensive": 20629,
    "gu": 3957,
    "Ġsubordinate": 18723,
    "marriage": 7746,
    "crews": 15044,
    "Ġfringe": 17273,
    "Ġhunger": 8570,
    "Ġheadache": 22903,
    "Ġmuscle": 14690,
    "Ġsorting": 3236,
    "Ġassailants": 20452,
    "forgot": 11034,
    "Ġmumbled": 17809,
    "Ġbible": 9321,
    "Ġrevolutions": 23845,
    "sloop": 26146,
    "Ġreturned": 2887,
    "Ġunerring": 15850,
    "awed": 10392,
    "Ġblandly": 20326,
    "Ġconverted": 16114,
    "Ġknowingly": 18481,
    "Ġexcellence": 11452,
    "Ġuncles": 23433,
    "Ġshe": 466,
    "Ġreplen": 11115,
    "Ġvague": 6407,
    "Ġfift": 6383,
    "plex": 704,
    "civility": 17514,
    "_.âĢĶ": 23474,
    "Ġcommitted": 7431,
    "Ġdismantled": 20219,
    "Ġconfidential": 9090,
    "ledge": 1332,
    "Ġcloth": 9745,
    "Ġmould": 6520,
    "Ġstave": 11653,
    "Ġsy": 490,
    "Ġforgive": 8011,
    "Ġimped": 18443,
    "Ġbehave": 23302,
    "ariously": 18528,
    "Ġutterance": 14765,
    "mming": 1172,
    "Ġbubble": 13537,
    "Ġground": 2842,
    "Ġloveliness": 13611,
    "Ġheap": 12682,
    "humor": 19455,
    "adventurous": 25362,
    "Ġinward": 11609,
    "Ġbus": 1903,
    "Ġheavily": 6742,
    "Ġpawnbroker": 13661,
    "Ġundet": 16702,
    "Ġeuroc": 14961,
    "Ġdebated": 9042,
    "Ġcherub": 23290,
    "Ġmissing": 6177,
    "Ġdrinks": 24281,
    "Ġprocession": 11778,
    "welt": 12524,
    "glings": 23854,
    "Ġmargin": 11923,
    "Ġrevive": 13482,
    "Ġwonderland": 23427,
    "Ġfow": 6135,
    "pendicular": 6500,
    "Ġsnuffing": 25015,
    "fortune": 4975,
    "Ġcentral": 7729,
    "Ġgiants": 25961,
    "Ġstorm": 4303,
    "Ġweap": 6157,
    "perils": 22192,
    "Ġassisted": 11111,
    "Ġconnections": 973,
    "reserve": 17766,
    "Ġcoast": 4657,
    "Ġmoored": 11795,
    "Ġportraits": 20145,
    "dead": 8181,
    "Ġcourtesy": 9947,
    "Ġcoiled": 11823,
    "Ġmac": 15541,
    "crimin": 17510,
    "asht": 4084,
    "Ç": 136,
    "Ġpeered": 18669,
    "ble": 542,
    "Ġfring": 11128,
    "other": 1315,
    "iful": 2878,
    "Ġpresent": 1638,
    "besides": 8699,
    "Ġiroquois": 26471,
    "ni": 1673,
    "Ġswearing": 16465,
    "Ġautom": 3671,
    "regards": 23468,
    "Ġsupercil": 23455,
    "Ġquaker": 10972,
    "Ġsimpl": 1577,
    "movement": 25578,
    "Ġvengeful": 14892,
    "Ġunlocking": 20708,
    "Ġpreternatural": 12827,
    "Ġsays": 3561,
    "emy": 14075,
    "Ġclassification": 1095,
    "Ġturtles": 19221,
    "Ġunprincipled": 20710,
    "andam": 10889,
    "Ġscales": 4851,
    "pigs": 17142,
    "Ġset": 1176,
    "Ġplates": 11007,
    "Ġinfinitely": 8965,
    "Ġjen": 9269,
    "Ġopening": 5045,
    "Ġacqu": 1417,
    "ged": 1514,
    "Ġknotted": 17020,
    "ousings": 18336,
    "Ġmonarch": 14418,
    "hold": 3981,
    "Ġgallant": 8658,
    "Ġdetain": 14184,
    "Ġpiny": 21473,
    "asher": 15649,
    "Ġshouting": 10524,
    "Ġdeath": 2041,
    "Ġadapts": 3815,
    "but": 593,
    "Ġmo": 628,
    "Ġmeasure": 3593,
    "elihood": 4624,
    "Ġfelicity": 7260,
    "Ġ50": 24314,
    "ishment": 3506,
    "Ġjoist": 19233,
    "evidently": 20348,
    "Ġidol": 7467,
    "Ġsched": 2334,
    "Ġet": 3580,
    "allen": 22201,
    "Ġsanely": 24985,
    "flatter": 23970,
    "admirably": 24947,
    "Ġdisputing": 25825,
    "Ġpers": 1361,
    "Ġsteadily": 8053,
    "distinctive": 25726,
    "Ġnecess": 3477,
    "poss": 4779,
    "Ġslippery": 12170,
    "Ġgodson": 23362,
    "conceive": 16032,
    "echo": 15351,
    "Ġcontinuously": 23209,
    "ittleness": 22384,
    "Ġvocation": 10527,
    "Ġencouragement": 13047,
    "Ġbead": 21755,
    "vice": 15451,
    "willing": 6594,
    "dirty": 20836,
    "Ġsorts": 6887,
    "Ġprev": 6266,
    "urpr": 2286,
    "named": 9892,
    "itated": 4443,
    "loud": 11502,
    "contained": 22475,
    "Ġtierce": 15480,
    "damn": 20027,
    "dropped": 12266,
    "Ġdispleasure": 16055,
    "beating": 22494,
    "Ġcasked": 24496,
    "Ġguardianship": 17422,
    "mag": 6509,
    "intimate": 22941,
    "ctions": 951,
    "Ġcustom": 5078,
    "Ġcurios": 18848,
    "thumb": 18219,
    "Ġfancying": 12116,
    "Ġweeks": 4567,
    "Ġkid": 9727,
    "Ġostent": 13587,
    "Ġcultivated": 17366,
    "Ġleviathan": 3290,
    "Ġtwelvemonth": 12181,
    "Ġrecovering": 11867,
    "Ġbesides": 3514,
    "Ġgazed": 6479,
    "bo": 1690,
    "Ġcautious": 12257,
    "v": 90,
    "Ġbear": 3657,
    "Ġgaieties": 24197,
    "sighted": 19788,
    "Ġbarnacled": 25537,
    "Ġlantern": 7118,
    "Ġrevolutionized": 3368,
    "Ġwired": 17788,
    "Ġpassions": 7931,
    "Ġjoyfully": 19349,
    "Ġcanes": 22168,
    "Ġforebodings": 17306,
    "Ġtwinkled": 14314,
    "Ġcompare": 9304,
    "Ġglove": 14492,
    "!": 5,
    "Ġtrif": 6271,
    "Ġfable": 15580,
    "Ġconcuss": 19046,
    "iners": 4937,
    "Ġdeceive": 12726,
    "achment": 5464,
    "Ġobsolete": 26559,
    "Ġphrensy": 25127,
    "Ġestimate": 19376,
    "Ġfa": 4821,
    "aurs": 20771,
    "egyptians": 25899,
    "Ġtaller": 16688,
    "dred": 2521,
    "Ġearly": 2077,
    "ceive": 3063,
    "Ġtantamount": 25626,
    "Ġcontinual": 6778,
    "Ġcompletion": 12151,
    "alous": 7372,
    "ever": 1076,
    "Ġknow": 632,
    "Ġwithdraw": 16965,
    "Ġboone": 11843,
    "uesday": 8590,
    "Ġdivined": 19446,
    "venison": 22631,
    "Ġprizes": 13077,
    "iferous": 17293,
    "!_âĢĿ": 11377,
    "Ġtons": 11551,
    "×": 152,
    "Ġgraph": 10903,
    "etrics": 21589,
    "vell": 3959,
    "Ġpiqu": 21480,
    "grammar": 6436,
    "way": 764,
    "impotence": 23764,
    "Ġdiscovering": 13361,
    "Ġkilled": 4955,
    "Ġrichness": 19313,
    "piece": 6658,
    "Ġnegatived": 23052,
    "Ġmonogram": 26575,
    "uned": 21876,
    "visitor": 15061,
    "carpenter": 11428,
    "Ġcopies": 24938,
    "Ġrelation": 2142,
    "Ġbelonging": 8309,
    "Ġtrinity": 22368,
    "Ġadaptively": 4130,
    "Ġconsecut": 18114,
    "Ġwelcomed": 9484,
    "Ġunst": 18239,
    "gies": 13728,
    "levi": 7049,
    "Ġsomehow": 4843,
    "isions": 6132,
    "slouched": 24556,
    "Ġfinally": 4668,
    "aded": 3549,
    "Ġenjoined": 18192,
    "Ġincalculable": 17462,
    "Ġpoem": 22593,
    "Ġol": 17816,
    "Ġdisd": 7032,
    "Ġdevouring": 11862,
    "odecimo": 11445,
    "Ġ92": 24592,
    "Ġreveren": 13198,
    "unsupervised": 10890,
    "chambers": 25455,
    "Ġsain": 17751,
    "Ġstem": 15722,
    "ondon": 2701,
    "Ġaugment": 8695,
    "Ġafternoon": 6055,
    "Ġincoherent": 17402,
    "pencil": 18829,
    "Ġenemy": 5604,
    "consolatory": 25307,
    "itar": 15550,
    "Ġlacey": 10199,
    "Ġgemini": 26470,
    "Ġdistribut": 843,
    "Ġdaughters": 4424,
    "Ġperceiving": 8878,
    "Ġoffing": 16143,
    "ulity": 10887,
    "Ġnook": 15931,
    "Ġpicturesqueness": 24479,
    "stra": 4045,
    "Ġtrace": 6183,
    "Ġbloodless": 19341,
    "belt": 24038,
    "Ġeyebrows": 23517,
    "however": 4376,
    "constit": 24606,
    "parsee": 14516,
    "ok": 573,
    "Ġrum": 5926,
    "Ġsciences": 15948,
    "ements": 11108,
    "Ġpoising": 22595,
    "Ġaffirmative": 15225,
    "ten": 1557,
    ");": 7330,
    "Ġbordeaux": 24564,
    "triumph": 15442,
    "Ġintention": 5638,
    "invite": 25091,
    "Ġdishes": 16053,
    "Ġadm": 2400,
    "alizing": 17942,
    "Ġcelebrated": 13597,
    "ols": 2411,
    "keepers": 16661,
    "Ġflutter": 16249,
    "believed": 9935,
    "Ġvessels": 6757,
    "Ġkidnapping": 26358,
    "Ġoverpowering": 15252,
    "Ġuncomp": 15844,
    "Ġincred": 5646,
    "principle": 10652,
    "Ġstalls": 25648,
    "obey": 11511,
    "castle": 3351,
    "Ġintellig": 523,
    "operation": 13503,
    "Ġextremity": 8990,
    "topp": 22570,
    "Ġnarrating": 24350,
    "Ġswe": 2288,
    "Ġdiscretion": 10349,
    "Ġspeculations": 23002,
    "Ġflourished": 15128,
    "Ġnlp": 3061,
    "Ġconsisting": 8973,
    "presume": 25671,
    "Ġgrapp": 14103,
    "Ġvegetables": 15224,
    "Ġsolve": 4199,
    "Ġdirest": 22709,
    "Ġmagistrate": 8235,
    "soled": 14331,
    "Ġdistributing": 22683,
    "inst": 4297,
    "ruct": 681,
    "Ġsolemn": 4100,
    "Ġlowering": 7988,
    "prev": 12871,
    "respectable": 19849,
    "ceived": 1960,
    "Ġidentify": 12016,
    "Ġadvertising": 25390,
    "whis": 7900,
    "Ġyouthful": 16724,
    "Ġspiteful": 19525,
    "Ġpriority": 19765,
    "Ġviews": 7290,
    "Ġnext": 2140,
    "Ġmouths": 7491,
    "Ġpromotion": 23197,
    "heat": 15499,
    "Ġaimed": 20253,
    "obedience": 17412,
    "Ġramble": 9315,
    "Ġradiating": 24330,
    "Ġpatient": 6895,
    "rooms": 10433,
    "Ġasph": 21903,
    "jumping": 20248,
    "acid": 11006,
    "gracechurch": 24581,
    "Ġmemb": 14030,
    "Ġquestioning": 10465,
    "Ġtalked": 4423,
    "Ġtender": 5753,
    "bbed": 6911,
    "Ġoccupations": 9460,
    "pagans": 25526,
    "Ġwhit": 7178,
    "ĠlinnÃ¦us": 15278,
    "bb": 2795,
    "Ġprovoked": 13329,
    "Ġpro": 360,
    "killing": 20944,
    "Ġapproaching": 6285,
    "Ġcarpent": 4468,
    "avo": 8520,
    "sides": 12511,
    "Ġsandwiched": 26611,
    "affectionate": 24922,
    "kers": 7134,
    "Ġcomposedly": 25184,
    "Ġsocks": 14136,
    "Ġgurgling": 17448,
    "Ġcovering": 13259,
    "through": 4023,
    "Ġvapors": 19910,
    "Ġestate": 6318,
    "Ġmillion": 14989,
    "august": 11072,
    "upid": 6584,
    "90": 12435,
    "hob": 20902,
    "Ġgrud": 17998,
    "Ġgoes": 3852,
    "Ġnecks": 18189,
    "Ġintently": 8170,
    "Ġthickets": 24026,
    "repeat": 25155,
    "Ġacquaintance": 4136,
    "fiend": 13664,
    "Ġunfathomable": 20551,
    "cour": 4482,
    "unwillingly": 21889,
    "Ġseam": 3909,
    "medium": 23641,
    "Ġaccents": 14212,
    "anim": 6523,
    "Ġcombing": 22878,
    "Ġindebted": 8711,
    "Ġdoubts": 8583,
    "Ġsweeping": 8987,
    "Ġavoid": 5199,
    "enit": 17780,
    "Ġhollowly": 24525,
    "obvious": 9359,
    "Ġconfine": 14509,
    "completely": 12423,
    "ignific": 11959,
    "ger": 1104,
    "almost": 4943,
    "Ġjamming": 17266,
    "Ġferrule": 24516,
    "oss": 10117,
    "Ġintended": 5547,
    "bone": 5611,
    "Ġirresolution": 24916,
    "Ġfasten": 11133,
    "Ġnormalization": 1242,
    "Ġconstit": 8587,
    "Ġsaith": 14157,
    "Ġinquire": 7721,
    "excitement": 19672,
    "heric": 15914,
    "Ġpremium": 23908,
    "Ġfloat": 12035,
    "Ġdetested": 14185,
    "Ġkilling": 13336,
    "Ġserenity": 10030,
    "Ġmoney": 3418,
    "power": 7138,
    "Ġderivative": 2997,
    "Ġloathed": 15878,
    "grandfather": 25012,
    "Ġfaded": 10810,
    "Ġvaguely": 17368,
    "Ġbroadened": 23988,
    "Ġanalog": 12616,
    "Ġsomebody": 7914,
    "Ġgrace": 5374,
    "Ġnote": 4266,
    "Ġplowdon": 26448,
    "ceased": 21630,
    "Ġbristling": 20530,
    "Ġtreat": 3178,
    "Ġperceived": 4715,
    "Ġstrain": 6026,
    "Ġfairness": 9896,
    "Ġwhisky": 23937,
    "icil": 17974,
    "Ġsunshine": 14495,
    "drab": 23902,
    "sufferable": 12180,
    "Ġbidden": 24647,
    "Ġsky": 3969,
    "lid": 20947,
    "Ġwriter": 11948,
    "Ġgaff": 17996,
    "orus": 10802,
    "rapidly": 15246,
    "bale": 20776,
    "rigible": 24932,
    "Ġskirt": 18730,
    "Ġartistic": 18611,
    "Ġmisery": 3813,
    "Ġtwin": 12932,
    "vedale": 22712,
    "Ġqualifications": 24676,
    "....": 11317,
    "Ġsneezing": 12251,
    "Ġrewards": 10849,
    "spikes": 10342,
    "antly": 1986,
    "typewritten": 26039,
    "brÃ¦": 11176,
    "Ġalice": 1481,
    "xology": 21144,
    "attention": 2111,
    "frankenstein": 11392,
    "Ġstammered": 26201,
    "strang": 11184,
    "Ġreject": 7386,
    "Ġstudents": 23228,
    "added": 11661,
    "Ġbrawn": 10483,
    "Ġjovial": 19235,
    "Ġlestrade": 5826,
    "Ġloosed": 22117,
    "Ġmealy": 18120,
    "Ġheedfulness": 24521,
    "Ġvagueness": 25738,
    "Ġwedged": 24936,
    "Ġheld": 3585,
    "Ġsensitive": 13200,
    "Ġcomplete": 4385,
    "shut": 10980,
    "abby": 14023,
    "Ġdeny": 7488,
    "Ġpain": 2301,
    "Ġthundering": 24292,
    "der": 468,
    "provoke": 26072,
    "Ġvict": 3761,
    "ours": 3427,
    "Ġrichest": 26213,
    "Ġpick": 4259,
    "Ġpredecessor": 26252,
    "Ġlectures": 17180,
    "Ġwound": 4530,
    "Ġpots": 9430,
    "chain": 18042,
    "Ġmainmast": 9781,
    "reading": 12083,
    "Ġunostentatious": 22074,
    "Ġsavor": 23878,
    "themselves": 6542,
    "Ġbil": 15568,
    "Ġreplaced": 13075,
    "Ġnantucketer": 6914,
    "arms": 10175,
    "Ġcontempl": 6703,
    "Ġpalpable": 15208,
    "Ġordering": 18998,
    "jac": 8383,
    "remarkable": 13500,
    "Ġsket": 18729,
    "anxious": 15112,
    "falgar": 26131,
    "iquette": 26133,
    "pot": 10119,
    "inev": 21984,
    "vint": 21117,
    "Ġfruit": 12329,
    "Ġreturns": 11929,
    "ferences": 10328,
    "Ġpreprocess": 22238,
    "Ġ\"": 6121,
    "Ġcalling": 5662,
    "ia": 1258,
    "Ġtoiled": 12646,
    "dock": 16419,
    "Ġsto": 1499,
    "Ġillness": 8593,
    "Ġcourting": 23294,
    "astrop": 3317,
    "Ġdisguise": 10048,
    "bent": 15314,
    "zed": 8105,
    "Ġangular": 19208,
    "kick": 20938,
    "solitary": 14506,
    "Ġcompression": 18148,
    "Ġchall": 10945,
    "mistakable": 20655,
    "Ġfoundling": 22979,
    "Ġstrongest": 11136,
    "Ġsoil": 9257,
    "_.)": 7278,
    "Ġresearch": 3241,
    "Ġinjured": 9041,
    "allah": 5839,
    "ason": 1263,
    "Ġsherlock": 3894,
    "Ġarrested": 9562,
    "Ġconsecrate": 26490,
    "rog": 15643,
    "Ġpushed": 5912,
    "ws": 7355,
    "Ġstolen": 14009,
    "Ġnib": 13942,
    "Ġalways": 1697,
    "ittarius": 22385,
    "noo": 9788,
    "white": 4604,
    "Ġjet": 5309,
    "exclaimed": 11793,
    "Ġblew": 9047,
    "Ġphysical": 7522,
    "Ġallows": 3234,
    "Ġnourishment": 15195,
    "unable": 14061,
    "Ġpurchas": 19876,
    "Ğ": 223,
    "Ġloathing": 15072,
    "Ġwallet": 21301,
    "Ġcarriage": 3950,
    "Ġraptures": 13499,
    "Ġpistols": 17331,
    "Ġrustling": 24714,
    "Ġslipping": 13364,
    "Ġquadrant": 11405,
    "reply": 19725,
    "Ġshank": 22002,
    "Ġassist": 3564,
    "prep": 9761,
    "Ġdeer": 12724,
    "Ġastir": 14641,
    "Ġcook": 3712,
    "Ġpallid": 12302,
    "pens": 17633,
    "Ġhomeless": 23390,
    "Ġdwelt": 12609,
    "Ġblasp": 14403,
    "Ġlodgings": 8313,
    "ax": 693,
    "Ġcovariate": 2347,
    "rougham": 15996,
    "Ġpredictions": 1455,
    "Ġmore": 676,
    "Ġarsacides": 17296,
    "Ġlistening": 6320,
    "Ġ111": 24435,
    "tor": 15434,
    "Ġdecoding": 3082,
    "Ġsketch": 16168,
    "Ġrag": 18641,
    "Ġdisgra": 18550,
    "Ġlucy": 17972,
    "Ġwednesday": 9086,
    "franch": 24285,
    "Ġ32": 19492,
    "Ġringle": 18211,
    "Ġsp": 457,
    "Ġcondescending": 24869,
    "Ġhither": 4760,
    "rut": 8093,
    "Ġhints": 8432,
    "Ġgems": 9210,
    "Ġind": 1221,
    "Ġ83": 24458,
    "orney": 17875,
    "Ġreply": 4517,
    "rically": 15419,
    "appointment": 24062,
    "Ġherring": 14128,
    "Ġpurposely": 10445,
    "found": 4216,
    "Ġcompos": 22574,
    "Ġan": 286,
    "tolerably": 21098,
    "joice": 9604,
    "Ġtimely": 19597,
    "Ġmistaken": 4986,
    "Ġproblem": 1271,
    "ped": 6964,
    "Ġunfolding": 17086,
    "ulled": 14058,
    "d": 72,
    "Ġunacquainted": 12780,
    "Ġbuttons": 12785,
    "Ġtapping": 10753,
    "Ġceasing": 23760,
    "Ī": 235,
    "Ġbunch": 11327,
    "pus": 3415,
    "Ġclothing": 18424,
    "Ġblown": 12089,
    "Ġreconcile": 25292,
    "ooping": 21009,
    "vap": 13805,
    "Ġmodular": 12821,
    "Ġsignificance": 13284,
    "estations": 22229,
    "conda": 18993,
    "brit": 19199,
    "Ġobtained": 7432,
    "Ġpalace": 16690,
    "mut": 17596,
    "Ġimpatiently": 8339,
    "Ġcommunication": 1869,
    "account": 5330,
    "degrees": 22155,
    "Ġregret": 5560,
    "Ġclaws": 15969,
    "pleasanter": 24050,
    "Ġglossy": 15230,
    "Ġpoles": 11004,
    "rior": 12745,
    "Ġsoftness": 18919,
    "ateur": 22011,
    "browed": 25895,
    "Ġporing": 21470,
    "Ġtransitory": 16030,
    "Ġhaste": 9005,
    "Ġthrusting": 10554,
    "Ġmotioned": 19595,
    "Ġfang": 21406,
    "Ġunaccountable": 7889,
    "Ġchanged": 5242,
    "Ġrecommending": 24332,
    "Ġslept": 8260,
    "Ġlingu": 11616,
    "Ġbriskly": 25312,
    "Ġbulwarks": 5591,
    "Ġgrove": 12150,
    "Ġ1000": 3120,
    "71": 20758,
    "Ġmight": 963,
    "Ġsituated": 9450,
    "Ġflag": 7242,
    "inite": 6004,
    "Ġappeals": 16318,
    "Ġascend": 9962,
    "Ġpumping": 25644,
    "pequod": 7054,
    "Ġintensity": 10018,
    "Ġaddress": 2271,
    "Ġpoignant": 22597,
    "Ġlaz": 7378,
    "Ġhieroglyphic": 25588,
    "Ġamph": 18515,
    "pressed": 6590,
    "arp": 2026,
    "fever": 22506,
    "Ġlinked": 15080,
    "rove": 21537,
    "rods": 21542,
    "Ġda": 5150,
    "Ġinasmuch": 10826,
    "Ġmol": 12565,
    "Ġrepresented": 8940,
    "Ġupright": 8496,
    "Ġleak": 2160,
    "bennet": 5353,
    "Ġevidently": 6760,
    "part": 2567,
    "itan": 10161,
    "Ġtradesmen": 17105,
    "Ġstrives": 23698,
    "illating": 22112,
    "Ġalacrity": 15740,
    "oubted": 5861,
    "Ġhag": 12629,
    "ascending": 24706,
    "Ġreminisc": 18726,
    "Ġcollinses": 19131,
    "absurd": 21800,
    "Ġkent": 6693,
    "Ġtower": 8320,
    "Ġgaze": 6932,
    "schoolmaster": 15164,
    "Ġusurpation": 18358,
    "Ġsubst": 4276,
    "Ġadmirers": 19689,
    "Ġtraced": 10385,
    "Ġsquire": 16183,
    "Ġgovernments": 20270,
    "Ġrejoicing": 13424,
    "Ġnum": 1352,
    "Ġentry": 11027,
    "Ġsayest": 22779,
    "Ġirregularity": 25325,
    "Ġinternal": 2247,
    "Ġfare": 5810,
    "Ġshine": 12770,
    "Ġplayed": 9418,
    "Ġ42": 16679,
    "Ġlabor": 10419,
    "Ġinsert": 19907,
    "âĢĿ": 354,
    "Ġmajor": 13295,
    "ldog": 21922,
    "Ġepisode": 26349,
    "rushing": 10020,
    "zz": 4295,
    "Ġostentatiously": 20472,
    "Ġinvulnerable": 19148,
    "Ġtransformer": 2631,
    "il": 329,
    "oysius": 14368,
    "Ġstoke": 10397,
    "ivered": 7007,
    "Ġunw": 7005,
    "ced": 696,
    "kindness": 10507,
    "Ġastonishing": 10503,
    "conversations": 24748,
    "icient": 795,
    "ly": 319,
    "nlp": 8754,
    "Ġshield": 22004,
    "insulting": 26056,
    "Ġadd": 630,
    "Ġmerited": 23734,
    "Ġcollections": 22859,
    "Ġpew": 9317,
    "Ġmorals": 22981,
    "Ġabomination": 22283,
    "Ġbeacon": 21761,
    "Ġpovels": 22596,
    "interesting": 12205,
    "imately": 12692,
    "Ġentertain": 6056,
    "metals": 24765,
    "Ġemma": 20697,
    "hoist": 23716,
    "arned": 21826,
    "Ġdelicate": 6481,
    "Ġsoldier": 16921,
    "Ġindifference": 6727,
    "Ġrich": 2990,
    "Ġinflamed": 13476,
    "lucases": 20213,
    "indirectly": 18438,
    "Ġmoderately": 22227,
    "Ġlydia": 2370,
    "yingly": 23119,
    "Ġtedious": 15270,
    "Ġparted": 5931,
    "Ġinterchange": 16074,
    "Ġbouquet": 20686,
    "Ġgasped": 11373,
    "Ġori": 8411,
    "Ġpossibility": 7458,
    "rubbery": 17344,
    "Ġspan": 11731,
    "Ġcontrad": 9757,
    "Ġbug": 11591,
    "Ġhesitating": 16948,
    "Ġsimilarity": 3169,
    "Ġwarned": 16881,
    "Ġshoulder": 5849,
    "Ġfr": 1695,
    "Ġcorroboration": 26054,
    "function": 4434,
    "Ġexc": 1831,
    "Ġaccompany": 9489,
    "Ġdistinctions": 18533,
    "relu": 17760,
    "Ġhonour": 3923,
    "page": 13773,
    "Ġmillions": 11355,
    "mn": 3576,
    "Ġcases": 3961,
    "Ġepicurean": 20558,
    "giv": 13724,
    "Ġexamine": 7736,
    "Ġjollies": 20373,
    "larking": 17595,
    "Ġcorresponds": 19824,
    "oregressive": 3424,
    "itors": 2911,
    "delightful": 12200,
    "Ġanointing": 25540,
    "orange": 21403,
    "stre": 5451,
    "ropes": 7905,
    "pleasantness": 19773,
    "anging": 3551,
    "Ġnick": 21527,
    "frequented": 25901,
    "Ġslime": 23163,
    "Ġplaster": 16086,
    "Ġbasis": 16962,
    "Ġmilitia": 13321,
    "gard": 7339,
    "Ġmeditations": 25016,
    "regarding": 15074,
    "uther": 8820,
    "comfortableness": 24524,
    "Ġaccuse": 14213,
    "Ġflattening": 26049,
    "ield": 2407,
    "higher": 20410,
    "Ġbrill": 8551,
    "Ġsuggests": 12204,
    "Ġinfirm": 19019,
    "grant": 10428,
    "Ġdescried": 7921,
    "quis": 7872,
    "Ġabridged": 26541,
    "Ġhermits": 22079,
    "Ġincreas": 1693,
    "Ġgenerates": 3663,
    "Ġsearched": 15819,
    "ils": 3184,
    "perpetually": 20516,
    "Ġoverladen": 22365,
    "Ġscenarios": 26543,
    "Ġmexic": 14032,
    "Ġinvest": 4978,
    "Ġbackwards": 12931,
    "Ġsolicitude": 10042,
    "Ġgallop": 19558,
    "somewhat": 11161,
    "compose": 24035,
    "ick": 837,
    "Ġdrags": 16942,
    "Ġafore": 10759,
    "Ġheightened": 8652,
    "000": 2554,
    "sensations": 20054,
    "Ġcelestial": 10069,
    "Ġinconceivable": 17940,
    "Ġslim": 18939,
    "Ġcas": 8413,
    "brous": 19200,
    "Ġnobler": 14175,
    "mund": 13760,
    "Ġtenderness": 12219,
    "Ġluxuries": 25167,
    "Ġfainting": 16898,
    "Ġhumorousness": 25378,
    "Ġadmon": 15871,
    "Ġstole": 7954,
    "Ġtumb": 21172,
    "Ġbreathe": 9014,
    "intended": 11067,
    "atory": 6127,
    "Ġjoosy": 23633,
    "cries": 17512,
    "Ġtrustworthy": 24107,
    "Ġaught": 8777,
    "Ġjapanese": 10634,
    "Ġloop": 14148,
    "Ġriv": 10747,
    "Ġfeet": 2259,
    "Ġglim": 9346,
    "Ġwhistling": 19793,
    "Ġcompany": 3721,
    "Ġindividual": 5744,
    "Ġvillain": 8639,
    "Ġtinker": 15134,
    "K": 47,
    "poled": 22910,
    "neying": 22463,
    "fanc": 20866,
    "ĠĠ": 352,
    "Ġimaginations": 16517,
    "Ġmistaking": 23721,
    "comparatively": 25841,
    "user": 5105,
    "smith": 5669,
    "Ġperry": 22403,
    "ersman": 11704,
    "Ġimagination": 5759,
    "Ġcalves": 13039,
    "Ġwhispered": 5338,
    "enchant": 21286,
    "Ġmistakes": 16542,
    "Ġchatting": 24746,
    "trowsers": 17692,
    "Ġphysi": 9990,
    "empl": 5724,
    "Ġchronic": 9931,
    "Ġwolfish": 25936,
    "oll": 5456,
    "Ġembarkation": 25125,
    "Ġdie": 3962,
    "Ġunattended": 15846,
    "Ġbuttoned": 25369,
    "hopper": 23717,
    "Ġdeliberation": 19972,
    "Ġflank": 8230,
    "Ġtinkling": 25213,
    "Ġro": 601,
    "Ġnowhere": 12890,
    "Ġspectacles": 12101,
    "Ġtempted": 9058,
    "Ġtattooing": 15029,
    "ille": 9221,
    "ieve": 1654,
    "Ġmich": 21308,
    "plenty": 14093,
    "ounder": 11747,
    "Ġfrog": 23925,
    "Ġadventures": 7749,
    "Ġmaiden": 13389,
    "scr": 16244,
    "hyena": 24254,
    "condesc": 18506,
    "Ġsle": 2012,
    "Ġpatchwork": 24143,
    "ĠĠĠĠĠĠĠĠĠĠĠĠĠĠĠĠĠĠĠĠĠĠĠĠĠĠĠ": 14888,
    "erest": 10698,
    "eskye": 21488,
    "Ġpole": 6434,
    "Ġfright": 3795,
    "Ġtransition": 14243,
    "ys": 3960,
    "Ġsymmet": 11750,
    "Ġpainted": 7980,
    "Ġlens": 8440,
    "Ġprecautions": 23730,
    "Ġbounce": 21396,
    "Ġlikely": 3597,
    "Ġunmo": 12777,
    "Ġarmchair": 8272,
    "pervading": 18959,
    "Ġsplash": 16550,
    "uzzle": 19586,
    "Ġcrystals": 20230,
    "wise": 2568,
    "antial": 8490,
    "Ġknock": 9975,
    "Ġaloud": 6254,
    "Ġmarriage": 3190,
    "Ġinvent": 7165,
    "Ġclose": 3033,
    "Ġgardiner": 3240,
    "Ġpref": 14173,
    "Ġmad": 2424,
    "Ġindist": 14410,
    "Ġmess": 7832,
    "Ġhumor": 11052,
    "Ġ70": 11277,
    "Ġpersonality": 16477,
    "Ġten": 2384,
    "Ġanguish": 5582,
    "hig": 12478,
    "Ġdefinition": 14406,
    "tossed": 10997,
    "irmed": 9241,
    "Ġcontour": 18475,
    "Ġ133": 24782,
    "olds": 9313,
    "wooden": 24589,
    "Ġzones": 22821,
    "Ġyears": 1891,
    "®": 111,
    "Ġstocks": 23178,
    "Ġother": 760,
    "Ġextravag": 11254,
    "afric": 19181,
    "companies": 24895,
    ",âĢĻâĢĶ": 23528,
    "Ġletters": 3791,
    "Ġban": 7157,
    "Ġtheory": 5799,
    "Ġhonourable": 10457,
    "af": 2372,
    "whew": 22869,
    "Ġattentive": 9035,
    "Ġcraven": 16470,
    "Ġunmethodically": 22075,
    "velope": 17702,
    "duodecimo": 16005,
    "Ġoppressed": 11190,
    "dun": 17517,
    "Ġ86": 24460,
    "dances": 17522,
    "dug": 18463,
    "safety": 20352,
    "Ġoceans": 7997,
    "Ġmonomaniac": 9570,
    "Ġtask": 1310,
    "wed": 5796,
    "Ġbra": 3256,
    "Ġsnugly": 17111,
    "retion": 9364,
    "Ġoutright": 18414,
    "Ġcoinc": 11002,
    "Ġfeeds": 16435,
    "ids": 21768,
    "hero": 21207,
    "viv": 17699,
    "Ġcare": 1635,
    "Ġsteer": 10388,
    "where": 2091,
    "Ġmurderers": 16812,
    "widely": 25344,
    "Ġremained": 3144,
    "Ġartfully": 22611,
    "Ġabominably": 20069,
    "recover": 24624,
    "isance": 17849,
    "Ġbale": 7839,
    "Ġbill": 4040,
    "Ġprairie": 8716,
    "Ġtechn": 9374,
    "Ġadv": 1140,
    "irc": 1730,
    "Ġchooses": 13350,
    "rents": 5310,
    "Ġpopularly": 12245,
    "Ġwitness": 4623,
    "Ġapprehension": 7115,
    "Ġunlabeled": 3799,
    "Ġunited": 6840,
    "rom": 420,
    "Ġchag": 15934,
    "mand": 3895,
    "temper": 10006,
    "currents": 23848,
    "tit": 11529,
    "Ġthinkings": 22814,
    "Ġcous": 3436,
    "Ġache": 18664,
    "narr": 12500,
    "aco": 12910,
    "Ġvicissitudes": 12422,
    "Ġattract": 11838,
    "Ġconcealment": 16915,
    "Ġwines": 21290,
    "Ġbecomes": 6397,
    "Ġinstantaneously": 23659,
    "Ġjesty": 18406,
    "Ġpresence": 5031,
    "Ġunthink": 18248,
    "Ġandrew": 21511,
    "Ġtremor": 24767,
    "Ġafghan": 22632,
    "king": 3059,
    "recklessly": 25270,
    "Ġkneeling": 12146,
    "required": 17030,
    "Ġbefitting": 15729,
    "Ġannual": 14834,
    "Ġcus": 21346,
    "Ġsuch": 789,
    "Ġveritable": 19384,
    "od": 353,
    "ieved": 3231,
    "abilities": 3238,
    "twist": 23704,
    "Ġremonstrate": 22798,
    "produce": 20285,
    "ivity": 1681,
    "Ġscuff": 15946,
    "Ġreciprocating": 26371,
    "Ġcheery": 16370,
    "Ġmitig": 1340,
    "Ġdanger": 3520,
    "Ġdock": 15933,
    "Ġpreparing": 8651,
    "recollection": 25349,
    "Ġdeact": 18141,
    "Ġslabs": 13065,
    "Ġminutely": 14561,
    "Ġtorrents": 20059,
    "still": 4221,
    "confused": 19642,
    "accidents": 19213,
    "acles": 8522,
    "Ġexplicit": 3588,
    "conviction": 19968,
    "ocean": 12404,
    "assistant": 25568,
    "Ġguar": 23050,
    "Ġbulls": 23861,
    "sadly": 25527,
    "doubt": 6783,
    "Ġesquimaux": 25154,
    "akes": 2219,
    "iterranean": 15553,
    "Ġleading": 7297,
    "hauteur": 26392,
    "Ġholidays": 22926,
    "Ġtepid": 26413,
    "Ġtandem": 26412,
    "greek": 25405,
    "Ġalleg": 14019,
    "opard": 9293,
    "Ġdespair": 4008,
    "circumstance": 7765,
    "remarked": 12291,
    "Ġinqu": 2962,
    "Ġgreeks": 20016,
    "Ġconcluded": 5658,
    "Ġe": 312,
    "Ġshan": 9251,
    "Ġharpoons": 5659,
    "inating": 9155,
    "Ġtipped": 17729,
    "Ġdispirited": 23885,
    "Ġreappearance": 21671,
    "Ġcontr": 1914,
    "ample": 1368,
    "acknowled": 10976,
    "Ġmcc": 21309,
    "ctu": 5088,
    "affect": 13215,
    "Ġsnoo": 21231,
    "ï": 176,
    "achines": 1722,
    "Ġphant": 7057,
    "ľ": 255,
    "ete": 9205,
    "queg": 1769,
    "there": 1424,
    "Ġgarn": 13965,
    "Ġdey": 11677,
    "Ġbelief": 5857,
    "Ġpsal": 15619,
    "sprit": 11383,
    "spee": 9319,
    "pro": 2048,
    "Ġgreatness": 12948,
    "Ġencountered": 8323,
    "Ġhawk": 15176,
    "Ġ128": 24472,
    "Ġtoy": 15637,
    "Ġdifference": 1487,
    "apparent": 11043,
    "Ġryder": 10260,
    "complained": 25840,
    "Ġab": 528,
    "Ġiter": 2948,
    "vag": 8768,
    "Ġdevice": 1927,
    "Ġparlour": 12324,
    "Ġcleaning": 23182,
    "Ġinjunction": 19620,
    "shrugged": 22450,
    "Ġanecd": 20157,
    "Ġbeliever": 25847,
    "Ġfragments": 19028,
    "Ġcommun": 1705,
    "aset": 10833,
    "Ġvolcano": 24149,
    "Ġcostume": 16496,
    "Ġundersampling": 19521,
    "Ġsecuring": 11994,
    "Ġyonder": 7392,
    "Ġclerks": 17297,
    "Ġmountainous": 16600,
    "suit": 18635,
    "airing": 16177,
    "Ġconscientious": 16728,
    "draught": 12094,
    "hester": 9633,
    "Ġtorrent": 17092,
    "Ġallegor": 25546,
    "Ġdeclare": 6617,
    "anite": 17839,
    "bony": 15322,
    "Ġhowever": 1303,
    "Ġtester": 21175,
    "Ġbuffalo": 11430,
    "biqu": 17499,
    "Ġprank": 23218,
    "Ġsobbing": 14138,
    "entreaties": 26187,
    "Ġcommunicating": 16890,
    "reader": 23850,
    "Ġsister": 1473,
    "Ġdepicted": 14286,
    "difference": 13710,
    "Ġnervously": 19186,
    "Ġactive": 7917,
    "endless": 22231,
    "Ġegot": 18010,
    "Ġdevout": 14332,
    "Ġprecise": 7077,
    "Ġlong": 790,
    "Ġstumble": 26483,
    "Ġomens": 21331,
    "Ġhaggerston": 26453,
    "Ġsimpler": 2046,
    "Ġbark": 10799,
    "pile": 17630,
    "Ġsolution": 9807,
    "illar": 5101,
    "Ġroused": 7623,
    "Ġfastidious": 14493,
    "kles": 17585,
    "Ġdetails": 6567,
    "rifice": 12507,
    "Ġparacels": 13670,
    "storm": 9684,
    "of": 767,
    "Ġamerica": 6764,
    "Ġeddying": 17118,
    "Ġrumbling": 18212,
    "slept": 17171,
    "ze": 1309,
    "Ġpip": 1716,
    "ourers": 21453,
    "antediluvian": 24345,
    "Ġinsulated": 23683,
    "Ġblueprints": 13174,
    "Ġstated": 9691,
    "Ġgazette": 19504,
    "eleg": 20851,
    "Ġopium": 8996,
    "Ġunconscious": 9549,
    "tap": 17677,
    "Ġcommission": 6714,
    "on": 267,
    "unned": 21883,
    "melted": 25207,
    "surf": 24214,
    "Ġeleg": 6194,
    "Ġlect": 9224,
    "Ġvenerable": 9096,
    "Ġthrob": 21522,
    "Ġcass": 13881,
    "Ġsatisfy": 6912,
    "osity": 14187,
    "capitals": 25083,
    "Ġmaze": 23834,
    "Ġstupendous": 20504,
    "distinguish": 19575,
    "awk": 23117,
    "Ġtaken": 2522,
    "Ġmeddling": 21323,
    "Ġsprung": 11249,
    "fug": 17544,
    "Ġmanned": 9273,
    "Ġiroqu": 21623,
    "Ġbreed": 19073,
    "ceptible": 10959,
    "opened": 7915,
    "Ġencourage": 10382,
    "feelings": 5674,
    "Ġsteeply": 23726,
    "Ġjealous": 9470,
    "chester": 23809,
    "Ġstumped": 24945,
    "Ġdozing": 22248,
    "Ġbolts": 16944,
    "aker": 3662,
    "Ġrises": 9715,
    "considered": 9582,
    "Ġlads": 8600,
    "Ġdisabled": 18562,
    "patter": 4037,
    "fields": 14654,
    "Ġconfidently": 24960,
    "Ġdelivery": 18976,
    "Ġstranded": 9777,
    "concealed": 25118,
    "Ġpenalties": 10413,
    "ethics": 8881,
    "departed": 24793,
    "Ġcathed": 14548,
    "encountered": 20396,
    "ounix": 14165,
    "burnt": 20083,
    "Ġwhose": 2006,
    "Ġedward": 19153,
    "Ġhartshorn": 26182,
    "Ġfidgeted": 25890,
    "constellation": 24609,
    "Ġconfiding": 19037,
    "Ġbritish": 11338,
    "borough": 20787,
    "Ġresuming": 12897,
    "present": 1135,
    ",âĢĿâĢĶ": 14222,
    "Ġpresumably": 19627,
    "Ġenriched": 26500,
    "Ġbegging": 11080,
    "confirmation": 26090,
    "don": 3544,
    "helmsman": 24288,
    "Ġforbear": 17123,
    "Ġcontinues": 18812,
    "prow": 15413,
    "ĠarchÃ¦": 22776,
    "À": 129,
    "Ġtranslation": 3088,
    "Ġpious": 11600,
    "Ġ": 225,
    "Ġenc": 966,
    "bon": 13687,
    "Ġmultitudinous": 26275,
    "Ġbrah": 19360,
    "Ġisa": 14027,
    "Ġmadame": 13153,
    "enc": 7574,
    "ah": 1832,
    "Ġbomb": 17869,
    "Ġvisiting": 10358,
    "specul": 23946,
    "Ġsource": 6806,
    "Ġwants": 5742,
    "Ġglimmering": 25241,
    "exposure": 19259,
    "Ġchristians": 13312,
    "Ġrele": 2914,
    "Ġcobbler": 25831,
    "Ġretire": 10383,
    "Ġflip": 11915,
    "ature": 525,
    "Ġnest": 10190,
    "cus": 3979,
    "light": 3013,
    "unted": 6999,
    "Ġfishery": 4177,
    "Ġmaking": 1780,
    "Ġblessing": 11264,
    "Ġpolar": 9413,
    "Ġseventy": 7880,
    "want": 8770,
    "tle": 2408,
    "Ġgull": 15673,
    "Ġenlar": 15803,
    "posted": 24637,
    "ego": 4034,
    "Ġberyl": 20493,
    "Ġbled": 17858,
    "green": 7117,
    "ding": 3023,
    "ernation": 8213,
    "Ġarose": 7360,
    "Ġunclad": 22059,
    "Ġnon": 1620,
    "gorith": 551,
    "think": 3608,
    "itatingly": 25278,
    "Ġthick": 3781,
    "complacency": 19916,
    "Ġspitzbergen": 15290,
    "Ġextort": 22737,
    "Ġtreacher": 8607,
    "Ġcontained": 7680,
    "Ġtemptations": 24504,
    "rive": 9709,
    "Ġrand": 1581,
    "loved": 14252,
    "Ġdiscreet": 16483,
    "Ġmuttered": 7088,
    "Ġ74": 24263,
    "Ġannounce": 13342,
    "false": 15357,
    "ura": 1050,
    "Ġgrey": 4515,
    "Ģ": 227,
    "victim": 25531,
    "Ġsupposition": 9819,
    "Ġdoubloon": 6945,
    "Ġrevers": 21668,
    "Ġchurning": 15940,
    "Ġfunction": 584,
    "stars": 18022,
    "Ġnodding": 23340,
    "Ġindividuals": 24545,
    "Ġimmediate": 6091,
    "Ġpossibilities": 18977,
    "Ġlapse": 17122,
    "Ġdine": 7366,
    "whip": 22242,
    "Ġmixing": 24937,
    "rebellum": 26166,
    "Ġnobody": 6160,
    "flight": 15355,
    "Ġmarble": 7670,
    "Ġverd": 6919,
    "Ġhare": 5157,
    "Ġsights": 7472,
    "oftentimes": 19424,
    "Ġremain": 1873,
    "Ġsuitable": 18279,
    "Ġeffeminacy": 20720,
    "Ġparacelsus": 15269,
    "seam": 10875,
    "Ġstruggled": 9907,
    "Ġinverted": 12641,
    "swell": 17664,
    "Ġinform": 997,
    "Ġskewer": 19623,
    "gates": 20874,
    "withstand": 23029,
    "Ġgun": 4703,
    "Ġminiatures": 20324,
    "gainst": 25144,
    "chel": 11208,
    "lleg": 20953,
    "Ġegyptians": 25290,
    "Ġspiral": 14585,
    "Ġadduced": 26525,
    "reference": 13842,
    "Ġdiligently": 11406,
    "Ġmortals": 9918,
    "itig": 1334,
    "Ġoverboard": 6047,
    "blind": 16703,
    "Ġclattered": 22354,
    "Ġmidnight": 5266,
    "erde": 21271,
    "Ġjolly": 6858,
    "Ġaltering": 18105,
    "Ġpierced": 12285,
    "Ġremonstr": 16164,
    "Ġcups": 16883,
    "sprinkling": 24913,
    "cutting": 23787,
    "Ġconstant": 6311,
    "recognised": 15265,
    "Ġtiar": 21170,
    "Ġdoomed": 11343,
    "Ġembraced": 10008,
    "Ġunmingled": 18264,
    "Ġkindest": 23297,
    "Ġlacepede": 20498,
    "Ġinhale": 20303,
    "00": 1608,
    "Ġcrop": 10164,
    "subtle": 24245,
    "usable": 22284,
    "Ġdevils": 7230,
    "commencement": 26350,
    "Ġconspicuous": 13606,
    "Ġvolat": 24146,
    "Ġdistinguishing": 16498,
    "rift": 11521,
    "Ġjer": 6268,
    "gro": 10096,
    "Ġzigzag": 26274,
    "Ġender": 11693,
    "Ġunfrequent": 24110,
    "Ġalmanac": 26486,
    "F": 42,
    "Ġcontradictory": 20400,
    "Ġstart": 3260,
    "fortnight": 13090,
    "Ġweaken": 21926,
    "unken": 10238,
    "ascal": 10194,
    "cord": 8727,
    "Ġrare": 7038,
    "Ġsnapped": 9899,
    "scissors": 20729,
    "Ġallev": 18103,
    "wards": 1276,
    "ade": 882,
    "antique": 18288,
    "Ġsheepfold": 25467,
    "Ġgamb": 18000,
    "Ġach": 2616,
    "vel": 2383,
    "Ġwholly": 4450,
    "Ġpropagating": 20636,
    "Ġignorance": 6621,
    "Ġsuspense": 9420,
    "Ġded": 2570,
    "Ġmurdering": 14813,
    "Ġcheshire": 13093,
    "Ġreads": 23116,
    "Ġhistorical": 3645,
    "face": 3677,
    "R": 54,
    "Ġfragmentary": 25858,
    "bore": 13689,
    "Ġostr": 21328,
    "maybe": 23994,
    "Ġautomation": 13270,
    "Ġmounted": 7833,
    "Ġdescription": 7429,
    "stolidity": 21667,
    "carries": 19530,
    "Ġtol": 6677,
    "uvier": 9070,
    "Ġmaximizing": 3171,
    "Ġuniversally": 12002,
    "prov": 16425,
    "Ġcharted": 22255,
    "barbaric": 26360,
    "enses": 10995,
    "Ġmoves": 14233,
    "Ġcheese": 9379,
    "Ġstript": 23697,
    "Ġtep": 21164,
    "Ġintrodu": 1924,
    "Ġapex": 24341,
    "Ġxlix": 25861,
    "Ġclattering": 22356,
    "Ġberths": 20118,
    "savage": 15078,
    "Ġchis": 11753,
    "Ġdream": 3538,
    "Ġsa": 474,
    "intellig": 5321,
    "adequate": 15206,
    "agon": 7873,
    "Ġrelics": 16198,
    "Ġvillages": 14750,
    "Ġleaning": 5228,
    "whispering": 26104,
    "Ġroyals": 19535,
    "Ġfossiliferous": 25610,
    "Ġtyro": 16995,
    "Ġpainful": 6463,
    "overing": 6308,
    "Ġhempen": 13553,
    "ambition": 13414,
    "Ġimmeasurable": 26231,
    "Ġbrawny": 13616,
    "abern": 21794,
    "Ġsweet": 3466,
    "distraction": 24202,
    "Ġveneration": 25047,
    "ripp": 6405,
    "Ġweighty": 16037,
    "Ġcho": 4549,
    "Ġcorpor": 23045,
    "only": 3309,
    "Ġaspects": 4176,
    "Ġreview": 18033,
    "Ġpeddling": 21485,
    "Ġcandelab": 23852,
    "disgraceful": 26077,
    "Ġturnpike": 23031,
    "irectly": 6940,
    "Ġomnipotent": 13551,
    "Ġlye": 21555,
    "icking": 8913,
    "architect": 22898,
    "Ġdefined": 11901,
    "Ġtransient": 18495,
    "pious": 17634,
    "shud": 18482,
    "Ġstricken": 9778,
    "profitable": 17071,
    "mai": 22917,
    "prophet": 16185,
    "Ġguernsey": 9353,
    "Ġmilitary": 11259,
    "Ġmines": 21311,
    "Ġresidence": 8208,
    "Ġmors": 17803,
    "Ġunexplored": 26519,
    "Ġhighlands": 22778,
    "Ġalgorith": 563,
    "Ġinjurious": 24272,
    "Ġkills": 15909,
    "Ġlance": 4880,
    "oused": 6558,
    "Ġalt": 18101,
    "passion": 11261,
    "Ġjust": 1239,
    "uture": 1114,
    "leton": 5148,
    "_).": 5889,
    "Ġtrembled": 8705,
    "Ġbowsman": 11255,
    "Ġclaret": 22355,
    "Ġall": 422,
    "Ġpronounced": 8352,
    "fere": 10990,
    "asses": 7018,
    "indifferent": 14210,
    "Ġdeigned": 18144,
    "ornament": 23490,
    "Ġworsh": 13004,
    "Ġcau": 13883,
    "Ġcurb": 16236,
    "Ġshowing": 7733,
    "Ġeavesdroppers": 25964,
    "Ġinside": 5448,
    "leaned": 21372,
    "keeping": 8638,
    "tch": 9143,
    "iety": 2813,
    "Ġgib": 13967,
    "Ġobliterated": 17407,
    "legra": 10790,
    "love": 9296,
    "accident": 11182,
    "variance": 2651,
    "taffrail": 15444,
    "illustration": 2282,
    "Ġscold": 10951,
    "gigantic": 15362,
    "ace": 716,
    "forth": 9324,
    "rich": 11519,
    "antic": 1601,
    "Ġfeasible": 22216,
    "Ġord": 3735,
    "Ġgoat": 16009,
    "geese": 22372,
    "iations": 11496,
    "darkness": 9514,
    "entions": 17977,
    "Ġdefray": 22945,
    "Ġshipping": 14106,
    "Ġname": 2081,
    "Ġglided": 7447,
    "Ġinfinity": 23285,
    "ships": 5486,
    "Ġincarnation": 25574,
    "Ġfurnaces": 24008,
    "Ġtransported": 11280,
    "burn": 8372,
    "Ġassuredly": 14824,
    "Ġtwitched": 20447,
    "salesman": 20674,
    "Ġsidel": 9637,
    "Ġshirt": 8852,
    "Ġintroduces": 3270,
    "spell": 22732,
    "Ġphilosophical": 26336,
    "ean": 20842,
    "transom": 19737,
    "izabeth": 907,
    "Ġevermore": 18813,
    "glo": 8741,
    "oquent": 12503,
    "Ġroasted": 18461,
    "marest": 20982,
    "Ġworshipper": 25693,
    "Ġaffect": 1388,
    "Ġestim": 3350,
    "Ġindolent": 13009,
    "bald": 16445,
    "Ġcigar": 9547,
    "Ġnorthern": 7265,
    "Ġdirector": 18922,
    "Ġreproofs": 24893,
    "sculpt": 16247,
    "Ġprovide": 7751,
    "tut": 15436,
    "Ġrights": 10398,
    "Ġplease": 4724,
    "Ġhates": 21490,
    "etw": 408,
    "Ġidentifies": 12017,
    "erative": 21274,
    "Ġxxv": 19720,
    "surface": 10532,
    "securing": 19816,
    "Ġwaking": 11572,
    "Ġconvenience": 11332,
    "Ġprecious": 5760,
    "Ġesteemed": 10590,
    "date": 17518,
    "ds": 4689,
    "apside": 22964,
    "speechless": 25396,
    "ails": 6162,
    "scuttle": 11913,
    "sometimes": 5974,
    "Ġcoral": 11925,
    "olog": 1108,
    "Ġbenefits": 4289,
    "bag": 7542,
    "Ġmonths": 3456,
    "Ġpronouncing": 16970,
    "Ġscenes": 5731,
    "Ġtinted": 13824,
    "ifying": 5252,
    "Ġreverse": 16983,
    "Ġoffering": 3004,
    "Ġrepugnance": 19086,
    "Ġprecip": 7076,
    "sense": 11525,
    "Ġliquid": 22414,
    "Ġbedfellow": 16440,
    "Ġobtruded": 20724,
    "Ġgrope": 17997,
    "Ġstudious": 23227,
    "por": 2149,
    "ccas": 15888,
    "Ġreally": 2159,
    "âĢĻâĢĶ": 12740,
    "allow": 5104,
    "Ġfearful": 6199,
    "seated": 11673,
    "fulfil": 16040,
    "sembled": 7263,
    "Ġzoned": 22822,
    "generative": 4332,
    "Ġsells": 21226,
    "Ġcircumstances": 3926,
    "Ġhath": 12632,
    "Ġaccord": 4025,
    "Ġwonderfully": 10431,
    "Ġpol": 2571,
    "Ġconfessed": 8010,
    "Ġprosper": 10230,
    "drink": 10597,
    "they": 1879,
    "Ġmaw": 15543,
    "explained": 23147,
    "Ġworld": 1594,
    "Ġsociety": 3977,
    "Ġrubbed": 12959,
    "hoped": 20912,
    "Ġwatson": 3596,
    "Ġbackbones": 22665,
    "Ġpresumption": 10547,
    "Ġhangs": 11608,
    "Ġvillainous": 25134,
    "Ġincreased": 2212,
    "Ġbelieved": 4370,
    "Ġtransform": 747,
    "Ġdevelopments": 23250,
    "cupboards": 25402,
    "bour": 2070,
    "Ġafar": 14293,
    "posture": 16928,
    "rice": 13779,
    "Ġheads": 3740,
    "_âĢĶâĢĻ": 13685,
    "Ġelephants": 9866,
    "brated": 12029,
    "Ġunlike": 7006,
    "Ġghosts": 12236,
    "volutions": 16324,
    "Ġelevates": 24499,
    "excepting": 19709,
    "Ġrust": 6409,
    "Ġopens": 23628,
    "Ġmoving": 1677,
    "Ġrepeating": 11214,
    "spread": 8390,
    "presently": 9809,
    "tawn": 21083,
    "anity": 9656,
    "Ġcanoes": 12809,
    "Ġreg": 730,
    "Ġconstitutes": 13555,
    "skin": 10570,
    "eldom": 4416,
    "Ġvalue": 2083,
    "Ġtheir": 643,
    "rian": 10243,
    "even": 3837,
    "Ġdiscerned": 24959,
    "ĉ": 202,
    "Ġaccounted": 10296,
    "commander": 16988,
    "Ġcreditors": 20133,
    "hed": 672,
    "Ġbeaufort": 13571,
    "sch": 21053,
    "Ġvincent": 15286,
    "Ġlend": 17965,
    "iluvian": 18063,
    "Ġcontracting": 16014,
    "rivial": 9436,
    "Ġincome": 7919,
    "Ġnoiseless": 10359,
    "Ġhopelessly": 16378,
    "Ġwhal": 5454,
    "utted": 15664,
    "rying": 3188,
    "Ġdeity": 18140,
    "87": 20759,
    "Ġweights": 897,
    "Ġske": 4816,
    "Ġwhisper": 6207,
    "fatig": 17089,
    "Ġkingdom": 12021,
    "Ġbehav": 3540,
    "oforte": 14288,
    "Ġfrenz": 25447,
    "surely": 10571,
    "Ġpaintings": 15059,
    "mering": 12494,
    "Ġri": 3395,
    "Ġhovering": 10180,
    "Ġimperfectly": 25727,
    "Ġhardest": 18914,
    "Ġhinted": 6014,
    "Ġlanterns": 24577,
    "Ġforfeit": 21780,
    "Ġsuspected": 9064,
    "Ġastonishment": 4795,
    "itying": 21999,
    "Ġspoilt": 24804,
    "Ġgrounds": 6751,
    "sculptured": 26047,
    "ppery": 10893,
    "wantonly": 25153,
    "Ġmemorand": 23461,
    "hall": 8086,
    "smeer": 26148,
    "Ġren": 3845,
    "Ĭ": 237,
    "Ġgregarious": 18965,
    "Ġcompliment": 5673,
    "Ġprovoke": 14828,
    "genteel": 19952,
    "Ġchemistry": 11461,
    "iction": 4271,
    "uish": 5431,
    "dear": 6557,
    "Ġregal": 16075,
    "independent": 26022,
    "Ġbelonged": 6922,
    "Ġdeclaration": 16638,
    "izzy": 3096,
    "inav": 15486,
    "Ġsolitudes": 22888,
    "Ġamazement": 7766,
    "loveliness": 26550,
    "Ġshuddering": 9053,
    "rest": 1629,
    "emper": 18187,
    "Ġdeposition": 18613,
    "awing": 18917,
    "pitch": 13302,
    "Ġdexterity": 25295,
    "Ġauthorities": 11265,
    "Ġknowest": 12867,
    "Ġscramble": 24578,
    "Ġseizure": 21962,
    "race": 11633,
    "Ġwrinkles": 8574,
    "Ġspiritual": 9932,
    "bern": 20777,
    "Ġspaniards": 25556,
    "Ġcoloured": 11046,
    "uck": 1232,
    "Ġmysteriously": 24603,
    "Ġcharger": 19006,
    "arcy": 1274,
    "Ġmetrics": 19098,
    "rified": 15421,
    "Ġsacr": 7194,
    "Ġsepar": 3997,
    "Ġsleepless": 14583,
    "Ġsomewhat": 4898,
    "Ġplaymate": 23640,
    "hunt": 20905,
    "ras": 21039,
    "icted": 5939,
    "Ġheighten": 19532,
    "onement": 21259,
    "difficulty": 12393,
    "Ġfoundation": 4233,
    "ineffectual": 26508,
    "Ġfervently": 25878,
    "Ġemperors": 15162,
    "Ġpraises": 16731,
    "nonsense": 17616,
    "precipitance": 25868,
    "ographical": 16787,
    "Ġspind": 18308,
    "Ġdesigns": 13020,
    "Ġabsolute": 6766,
    "Ġsubaltern": 22795,
    "Ġrobins": 16265,
    "cannibal": 15227,
    "Ġcum": 21345,
    "Ġlessons": 7693,
    "steel": 8300,
    "inch": 10756,
    "Ġsullenly": 17174,
    "palms": 25263,
    "wer": 8397,
    "mun": 20964,
    "gir": 8084,
    "Ġnatives": 17953,
    "Ġweapons": 10595,
    "Ġburtons": 19255,
    "Ġvanquished": 22876,
    "Ġrumours": 24600,
    "knife": 6942,
    "Ġwithdrawn": 10608,
    "Ġeveryone": 8920,
    "ye": 1407,
    "Ġdrought": 19280,
    "fun": 3956,
    "Ġaltered": 7393,
    "Ġhoping": 11104,
    "Ġfant": 9175,
    "Ġstrictest": 17042,
    "ifted": 4497,
    "Ġconsistent": 14529,
    "ubines": 22963,
    "Ġinequalities": 26454,
    "Ġyes": 2683,
    "und": 4119,
    "Ġunlo": 22017,
    "Ġquartered": 20376,
    "Ġrecollected": 8312,
    "Ġpagans": 16923,
    "Ġsluggish": 25891,
    "my": 1316,
    "Ġlad": 2360,
    "800": 17478,
    "Ġcaprice": 14577,
    "Ġscandal": 9083,
    "Ġthre": 2057,
    "Ġtunes": 24621,
    "tumbled": 21093,
    "Ġopinions": 9417,
    "Ġdecent": 10983,
    "Ġpump": 12625,
    "adler": 21767,
    "alleging": 23027,
    "Ġhumiliation": 16201,
    "escaped": 14232,
    "Ġedge": 5189,
    "Ġsevent": 18201,
    "doms": 20837,
    "arman": 11597,
    "Ġdestruction": 6602,
    "Ġcourses": 10412,
    "Ġcertain": 1558,
    "Ġbountiful": 25945,
    "puted": 8849,
    "Ġangrily": 9409,
    "writ": 16555,
    "theless": 4263,
    "scratch": 26045,
    "protest": 24812,
    "irms": 18171,
    "oration": 2209,
    "apprehens": 17408,
    "Ġentra": 18693,
    "Ġcommissionaire": 17001,
    "uerus": 26407,
    "impenet": 18056,
    "idence": 4304,
    "ado": 11660,
    "ll": 1137,
    "osp": 6854,
    "Ġassur": 6076,
    "Ġrecently": 11866,
    "ĠâĢľâĢĺ": 8506,
    "Ġpassage": 3883,
    "Ġtallow": 14781,
    "Ġtenants": 23549,
    "Ġheaviest": 23328,
    "guess": 14763,
    "mare": 17600,
    "Ġoverwhelming": 17102,
    "jug": 17581,
    "Ġwards": 17791,
    "Ġrosings": 4609,
    "wait": 11321,
    "Ġamphitheat": 26255,
    "Ġunh": 9255,
    "Ġfrosts": 19805,
    "Ġneighbours": 8304,
    "living": 7135,
    "lue": 8511,
    "Ġsprout": 24090,
    "Ġarticulated": 24432,
    "Ġplaned": 24058,
    "Ġdiverged": 23595,
    "acrity": 14281,
    "Ġital": 10867,
    "Ġsample": 3180,
    "Ġfrank": 4422,
    "heredit": 21212,
    "Ġorphans": 20207,
    "Ġchisel": 20371,
    "owl": 12687,
    "Ġdecorum": 16027,
    "Ġshutter": 16672,
    "Ġslyness": 25267,
    "tacit": 21101,
    "Ġincluded": 8958,
    "Ġswiftness": 9929,
    "Ġbewitching": 25977,
    "itance": 13870,
    "Y": 61,
    "Ġfren": 10806,
    "Ġcitizens": 25440,
    "Ġsnuffed": 15075,
    "Ġlaugh": 4114,
    "complied": 19915,
    "Ġpool": 5173,
    "Ġest": 2266,
    "Ġdistricts": 20266,
    "tattoo": 21090,
    "ered": 1683,
    "Ġpreyed": 18367,
    "rapt": 13975,
    "Ġgouldings": 26189,
    "Ġlurks": 11291,
    "Ġott": 13868,
    "Ġint": 409,
    "path": 10120,
    "Ġwherefore": 8527,
    "news": 23136,
    "Ġcompared": 2228,
    "Ġfancied": 7326,
    "Ġfifth": 11258,
    "Ġepaulets": 24906,
    "Ġinfinite": 8580,
    "Ġsurmises": 17055,
    "own": 746,
    "Ġcelebrate": 26359,
    "Ġcommands": 16590,
    "Ġrun": 2351,
    "wander": 17710,
    "ditch": 17529,
    "wrinkled": 16556,
    "soon": 4027,
    "hardly": 6492,
    "Ġvivacious": 19818,
    "ā": 194,
    "Ġseverest": 14092,
    "usations": 15945,
    "Ġnoses": 18373,
    "Ġgirth": 13139,
    "Ġbas": 6381,
    "Ġadequ": 10914,
    "Ġdeg": 3282,
    "Ġfrequented": 16587,
    "Ġcalculus": 23986,
    "attered": 4017,
    "arts": 6565,
    "Ġardour": 8044,
    "Ġauthoritative": 19564,
    "Ġwhitney": 11374,
    "Ġbiological": 1931,
    "Ġwarmed": 12026,
    "Ġopenshaw": 7956,
    "Ġforetold": 23452,
    "Ġembellished": 25850,
    "Ġruins": 16161,
    "Ġilliterate": 26595,
    "Ġemptied": 24346,
    "Ġunstructure": 2991,
    "bask": 20778,
    "Ġessentially": 24925,
    "Ġproport": 2296,
    "Ġdespairing": 14775,
    "rees": 5436,
    "fier": 9595,
    "idean": 14264,
    "Ġunreasonable": 12781,
    "Ġdangerously": 23940,
    "abominable": 20597,
    "Ġcasting": 12104,
    "monkey": 19172,
    "Ġforget": 2629,
    "oundered": 14166,
    "Ġlets": 18079,
    "in": 262,
    "onsense": 6432,
    "depart": 12269,
    "tern": 4225,
    "Ġxxxvi": 24974,
    "instead": 14815,
    "Ġcoaxing": 18601,
    "Ġolive": 12569,
    "Ġunsupervised": 2537,
    "Ġhelm": 5276,
    "Ġhers": 7891,
    "abling": 1078,
    "its": 1148,
    "ureau": 10228,
    "Ġdorm": 4823,
    "Ġcontrasting": 11155,
    "Ġabased": 22273,
    "Ġthy": 2508,
    "Ġwhaleboats": 18479,
    "Ġvitality": 15175,
    "extraordinary": 9097,
    "amed": 4451,
    "couldn": 23720,
    "oms": 4595,
    "aunted": 20772,
    "add": 5229,
    "idents": 6152,
    "Ġu": 324,
    "Ġcanst": 8860,
    "ohnson": 16327,
    "involved": 25627,
    "Ġconverse": 11847,
    "kindred": 24052,
    "Ġscatter": 18399,
    "acious": 5561,
    "Ġexercise": 8360,
    "Ġflitting": 13030,
    "Ġerud": 20058,
    "house": 4077,
    "Ġ101": 24408,
    "angle": 22109,
    "Ġfame": 21409,
    "Ġjava": 12315,
    "Ġfurthermore": 1170,
    "piled": 21017,
    "Ġfitting": 21412,
    "cook": 8271,
    "lik": 3916,
    "Ġdecreasing": 2440,
    "Ġgreenland": 5761,
    "Ġcomprehens": 8321,
    "Ġlashing": 11618,
    "Ġsteam": 9355,
    "Ġlet": 1110,
    "Ġripple": 25505,
    "Ġbeau": 9226,
    "Ġsch": 13837,
    "Ġaunts": 21203,
    "Ġtoma": 7373,
    "Ġcords": 14881,
    "Ġsummits": 14684,
    "Ġmiser": 18704,
    "goldsmith": 20150,
    "garity": 17555,
    "Ġcant": 17826,
    "Ġdau": 21429,
    "ö": 183,
    "feature": 4128,
    "Ġnaturalist": 22895,
    "Ġ18": 3407,
    "Ġlevers": 18080,
    "Ġflower": 16234,
    "pride": 11211,
    "Ġpork": 21460,
    "tahit": 17693,
    "Ġformless": 22832,
    "Ġaddition": 1145,
    "Ġsystem": 577,
    "bethink": 25745,
    "ô": 181,
    "Ġloaf": 15875,
    "Ġunlucky": 10052,
    "arrow": 4182,
    "Ġentitled": 8540,
    "Ġaugmented": 15108,
    "Ġgalvan": 21621,
    "Ġheadway": 18794,
    "stumps": 21663,
    "Ġfielding": 16238,
    "Ġcapstan": 9101,
    "congratulations": 20282,
    "gallery": 24694,
    "Ġbreezes": 14871,
    "Ġen": 392,
    "university": 25984,
    "Ġhandy": 12940,
    "Ġodds": 13333,
    "overcome": 19050,
    "Ġagreeing": 20022,
    "ishnoo": 10956,
    "Ġpreposter": 12826,
    "Ġdozen": 8187,
    "Ġfl": 1279,
    "Ġbriefly": 11368,
    "Ġscared": 14191,
    "Ġlawyers": 25249,
    "itical": 5802,
    "Ġdisse": 18549,
    "Ġclicked": 22357,
    "ieves": 4003,
    "Ġappalling": 8501,
    "Ġendeared": 26499,
    "Ġabhor": 5467,
    "Ġfathers": 16298,
    "Ġkindled": 19031,
    "Ġdeformity": 11678,
    "itudes": 3011,
    "Ġinterpretation": 19719,
    "Ġbenjam": 22892,
    "Ġvulgar": 13607,
    "Ġsave": 4051,
    "Ġafrica": 12348,
    "Ġawoke": 7286,
    "Ġpaul": 12065,
    "Ġsigma": 1542,
    "Ġdocks": 14177,
    "'(": 2975,
    "Ġploughed": 22609,
    "Ġwade": 17786,
    "Ġfem": 6136,
    "Ġpenetration": 19919,
    "Ď": 207,
    "scenes": 16246,
    "Ġlearn": 364,
    "Ġundue": 25994,
    "Ġtraits": 23079,
    "Ġstum": 21736,
    "mounting": 25208,
    "testing": 12520,
    "Ġsimilitude": 19211,
    "ications": 4448,
    "bond": 17491,
    "Ġglaring": 11911,
    "archbishop": 22899,
    "ĠĠĠĠĠ": 3527,
    "rugged": 6849,
    "daughters": 13469,
    "Ġtoad": 21514,
    "Ġfact": 1728,
    "apes": 9743,
    "ŀ": 257,
    "ommod": 13979,
    "Ġstra": 2988,
    "penn": 18828,
    "Ġcounting": 13099,
    "za": 13812,
    "Ġmu": 17797,
    "Ġaccept": 4413,
    "Ġboun": 21383,
    "impul": 16558,
    "resum": 17762,
    "Ġwell": 901,
    "tenham": 16323,
    "Ġfulfilment": 20190,
    "tland": 21076,
    "lift": 15387,
    "Ġencoding": 4775,
    "Ġweek": 2821,
    "Ġoppressively": 25711,
    "Ġpeninsula": 23200,
    "Ġhol": 1182,
    "Ġsinusoidal": 4802,
    "Ġay": 15493,
    "pardonable": 17219,
    "raltar": 24235,
    "pressing": 19015,
    "propriety": 14374,
    "ated": 734,
    "Ġincites": 22556,
    "Ġshame": 6411,
    "Ġintegral": 25011,
    "Ġfiled": 15583,
    "Ġpositional": 2592,
    "Ġsmell": 7216,
    "Ġexpression": 4518,
    "macy": 18804,
    "Ġlayers": 814,
    "Ġmental": 21322,
    "Ġcompasses": 11268,
    "Ġslightly": 7293,
    "pire": 9137,
    "Ġkirwin": 8499,
    "brow": 15318,
    "inary": 3275,
    "Ġmeryton": 4441,
    "sou": 12509,
    "rim": 7139,
    "Ġstow": 21735,
    "Ġbolivia": 24668,
    "ready": 2356,
    "é": 170,
    "Ġassent": 12737,
    "Ġhopeful": 19033,
    "Ġslender": 11943,
    "Ġbasket": 9574,
    "Ġstruggles": 16580,
    "Ġfists": 15586,
    "Ġtranqu": 4607,
    "agation": 1255,
    "nowledge": 10291,
    "Ġearthquake": 14629,
    "Ġbraz": 19361,
    "murder": 10566,
    "Ġprosperous": 15173,
    "Ġ107": 24414,
    "insanity": 23072,
    "Ġtottenham": 24144,
    "Ý": 158,
    "Ġcasts": 19429,
    "Ġarrest": 7409,
    "declare": 25174,
    "Ġrashly": 20308,
    "fears": 18529,
    "Ġyourselves": 9030,
    "Ġtie": 10751,
    "Ġdivert": 23594,
    "Ġroof": 6566,
    "Ġdur": 11594,
    "Ġdespite": 19356,
    "crew": 7544,
    "Ġblanched": 26284,
    "injured": 15135,
    "assed": 6422,
    "ccess": 3185,
    "Ġdivinely": 25723,
    "//": 11464,
    "close": 9988,
    "Ġoversampling": 20519,
    "Ġproflig": 23568,
    "Ġdeferred": 18827,
    "cated": 20805,
    "Ġmute": 19419,
    "agre": 18167,
    "Ġaccomplishment": 19668,
    "yonder": 21147,
    "Ġagonising": 25374,
    "trade": 19647,
    "Ġprof": 2456,
    "Ġtickets": 17094,
    "mouthful": 25209,
    "Ġproperly": 7946,
    "Ġafrican": 20140,
    "antage": 3877,
    "Ġnailed": 10191,
    "vengeance": 13360,
    "Ġmeasured": 9806,
    "Ġproprietor": 12376,
    "Ġsatin": 12992,
    "Ġmon": 1251,
    "Ġcrying": 10787,
    "Ġconceal": 5976,
    "atived": 21265,
    "handedness": 24921,
    "expected": 5780,
    "Ġumbrell": 13653,
    "Ġsuccessive": 10502,
    "Ġaglow": 22518,
    "Ġlatter": 3988,
    "Ġstrengthen": 20703,
    "natural": 2382,
    "Ġmoved": 4841,
    "Ġstand": 1735,
    "trap": 24333,
    "ency": 3867,
    "unnatural": 15776,
    "atically": 2807,
    "nikin": 23251,
    "Ġdid": 836,
    "ahit": 9384,
    "alid": 13937,
    "Ġnought": 21526,
    "Ġsphere": 15885,
    "Ġscholar": 26112,
    "Ġ82": 24457,
    "hearty": 14836,
    "Ġstraighten": 24007,
    "Ġjeer": 24124,
    "Ġbigness": 19763,
    "Ġdim": 4758,
    "roots": 15646,
    "Ġmemorable": 16447,
    "ouched": 4638,
    "Ġfle": 3092,
    "uries": 6149,
    "Ġpromote": 23196,
    "calling": 12453,
    "Ġsporting": 17000,
    "Ġtaffrail": 15478,
    "complete": 15036,
    "Ġwires": 21298,
    "laborers": 23919,
    "emporary": 15800,
    "ime": 625,
    "arson": 22750,
    "Ġintelligences": 12834,
    "Ġmud": 11575,
    "Ġcathedral": 17415,
    "Ġdelusion": 18975,
    "comrade": 18749,
    "Ġimpose": 22387,
    "Ġrural": 21972,
    "poor": 6063,
    "Ġdeserves": 13293,
    "Ġfixing": 13159,
    "Ġbuilded": 24718,
    "Ġhalf": 1666,
    "Ġoccupy": 14733,
    "Ġwafted": 14499,
    "Ġscimet": 22298,
    "Ġjane": 1757,
    "Ġtree": 5285,
    "fellow": 6793,
    "Ġpurest": 14941,
    "duchess": 18464,
    "Ġaband": 6563,
    "irable": 5776,
    "fiercely": 25257,
    "Ġcollar": 11882,
    "Ġtrees": 4205,
    "Ġswish": 23057,
    "Ġtools": 11611,
    "woman": 5901,
    "lection": 3652,
    "mount": 9131,
    "Ġtangle": 25761,
    ",âĢĶ": 3172,
    "Ġhowl": 12858,
    "Ġheaven": 3366,
    "cap": 8374,
    "Ġmedit": 8026,
    "Ġdebt": 12171,
    "agery": 21912,
    "acceptable": 25185,
    "Ġassociations": 14965,
    "raham": 18016,
    "Ġlanguid": 14221,
    "Ġstature": 10864,
    "Ġdemands": 19641,
    "Ġlanc": 19767,
    "bud": 10685,
    "Ġheaths": 25973,
    "Ġappeared": 2771,
    "Ġspecies": 5112,
    "skull": 24487,
    "bold": 17489,
    "Ġripp": 11220,
    "Ġpunctually": 17140,
    "Ġhours": 2814,
    "Ġfugitive": 17329,
    "exerc": 16018,
    "person": 7747,
    "esty": 4308,
    "up": 1283,
    "remem": 13071,
    "Ġcurt": 18844,
    "Ġ270": 25133,
    "Ġd": 284,
    "Ġebony": 18011,
    "ensation": 22550,
    "Ġhilarious": 20301,
    "âĢĿ--": 21821,
    "Ġspeech": 4612,
    "Ġstepped": 7053,
    "Ġsay": 932,
    "ailed": 3249,
    "č": 206,
    "Ġsurvive": 9069,
    "Ġjeopardized": 20233,
    "philosophy": 13583,
    "hypothe": 25906,
    "twill": 21077,
    "Ġvectors": 1770,
    "offic": 7466,
    "Ġovertaken": 18429,
    "agings": 18168,
    "accusations": 23600,
    "Ġprep": 4194,
    "Ġproc": 5544,
    "beheld": 11804,
    "Ġblank": 5953,
    "Ġjabbering": 22308,
    "spades": 14334,
    "Ġcetace": 14990,
    "Ġric": 18210,
    "Ġstaring": 8828,
    "Ġdeductions": 19735,
    "Ġmarlingspike": 26580,
    "Ġamput": 16038,
    "Ġkeener": 22918,
    "Ġderision": 16311,
    "Ġpropontis": 17467,
    "smoke": 17224,
    "Ġrecess": 10848,
    "planks": 21965,
    "blubber": 15239,
    "ev": 6952,
    "Ġimperial": 9483,
    "irous": 8842,
    "bran": 23575,
    "suppose": 8648,
    "moored": 22708,
    "Ġprogram": 12997,
    "Ġattempts": 10492,
    "Ġcasement": 25095,
    "tical": 10130,
    "simply": 20673,
    "Ġhateful": 19716,
    "Ġconsent": 5372,
    "uteness": 17988,
    "Ġcorner": 4373,
    "Ġpatch": 4183,
    "Ġinsisted": 12048,
    "emptied": 23638,
    "Ġperiod": 4001,
    "andromeda": 21873,
    "varied": 23186,
    "Ġunspeak": 8853,
    "Ġupd": 946,
    "razor": 21641,
    "Ġ=": 1074,
    "Ġsymbol": 7718,
    "Ġmovement": 9970,
    "Ġbush": 23341,
    "Ġdestitute": 14567,
    "must": 3577,
    "Ġcolonial": 22860,
    "Ġtolland": 24993,
    "into": 3680,
    "Ġbeaches": 18087,
    "tribute": 21091,
    "Ġtiny": 11554,
    "Ġmutual": 8298,
    "Ġisinglass": 21807,
    "reen": 21234,
    "Ġresisted": 22546,
    "Ġbequest": 21758,
    "Ġperplex": 2710,
    "Ġfirmest": 16666,
    "ls": 1289,
    "Ġtradesman": 20076,
    "iscre": 17852,
    "Ġteeth": 4169,
    "Ġranging": 8481,
    "mael": 6724,
    "Ġblot": 9814,
    "acher": 6868,
    "Ġunassuming": 20512,
    "Ġsickened": 16776,
    "sam": 21054,
    "Ġchancing": 22253,
    "Ġimaginative": 19249,
    "chron": 21698,
    "Ġcounsell": 25385,
    "Ġhabit": 6772,
    "title": 17289,
    "Ġstatement": 5255,
    "Ġfierc": 18713,
    "always": 5708,
    "Ġoccasion": 3248,
    "Ġpon": 10177,
    "Ġcautiousness": 19868,
    "Ġwildly": 9416,
    "abouts": 9455,
    "wrapped": 15212,
    "fulfilment": 26026,
    "Ġeconomy": 17202,
    "ows": 1916,
    "Ġsubstitute": 16727,
    "atum": 21262,
    "Ġarchitects": 18734,
    "hun": 5210,
    "Ġslices": 23167,
    "Ġsmallest": 6431,
    "moor": 22706,
    "Ġoutriders": 26544,
    "Ġdowncast": 18653,
    "Ġpreviously": 3920,
    "Ġbegone": 11920,
    "Ġsurp": 9636,
    "sequ": 2399,
    "Ġclasses": 4054,
    "impud": 23763,
    "dreadful": 11422,
    "Ġtransformations": 3485,
    "Ġinferences": 17937,
    "clock": 3933,
    "ppered": 15794,
    "Ġnast": 15642,
    "bearer": 18522,
    "Ġespecial": 26411,
    "Ġfuel": 13906,
    "master": 5687,
    "Ġtwos": 18658,
    "Ġwaxed": 21300,
    "Ġmonotonically": 3833,
    "Ġcanada": 22170,
    "approbation": 11459,
    "Ġproposals": 10615,
    "simple": 13455,
    "Ġtea": 5041,
    "Ġsunken": 14494,
    "Ġadviser": 25313,
    "Ġrig": 4226,
    "Ġfumes": 21422,
    "Ġfresher": 23211,
    "soldiers": 25912,
    "ming": 3600,
    "Ġzealand": 12353,
    "stay": 9683,
    "vere": 4884,
    "spirits": 8056,
    "Ġdelights": 14597,
    "Ġunlocked": 14122,
    "Ġcommentaries": 20163,
    "ont": 2617,
    "Ġlieutenant": 15264,
    "ĠĠĠĠĠĠĠĠĠĠĠĠĠĠĠĠĠĠĠĠĠĠĠĠĠĠĠĠĠĠĠ": 19703,
    "_)": 9104,
    "!_": 7329,
    "invariably": 26417,
    "inking": 6711,
    "Ġanchored": 17442,
    "apparently": 15207,
    "Ġconquest": 15751,
    "Ġcomplaisance": 19452,
    "paws": 21031,
    "Ġmonday": 6129,
    "Ġjets": 10289,
    "Ú": 155,
    "Ġend": 1472,
    "Ġinhospit": 25453,
    "gained": 20883,
    "Ġquoin": 22423,
    "Ġletter": 2197,
    "Ġcrowd": 6338,
    "attempts": 17192,
    "Ġunaccountably": 26516,
    "Ġyoungster": 23181,
    "Ġdeemed": 7615,
    "Ġdissect": 16056,
    "Ġjub": 22300,
    "phil": 7927,
    "Ġengineer": 11977,
    "Ġproficiency": 19194,
    "Ġprudential": 17920,
    "Ġrevelry": 15139,
    "Ġmenacing": 23111,
    "Ġrifled": 21981,
    "congreg": 25399,
    "Ġfad": 17878,
    "Ġversion": 10631,
    "Ġtornado": 24623,
    "author": 9862,
    "Ġthoughtlessness": 16196,
    "urmount": 13998,
    "mayhew": 23995,
    "Ġepit": 18009,
    "Ġmariners": 6070,
    "Ġ20": 8617,
    "Ġduties": 6611,
    "gentle": 5357,
    "spent": 12946,
    "Ġocean": 3305,
    "Ġwatch": 2738,
    "Ġappalled": 22222,
    "Ġpiercing": 13496,
    "Ġfullest": 14816,
    "avenue": 25060,
    "Ġplace": 1648,
    "Ġdistraction": 22510,
    "Ġfires": 16472,
    "Ġgettest": 23235,
    "covered": 11478,
    "getting": 12971,
    "begging": 22502,
    "Ġmaty": 22915,
    "luent": 15999,
    "impenetrable": 26198,
    "onings": 21255,
    "Ġropes": 10749,
    "Ġlevel": 5020,
    "ounding": 22400,
    "pull": 6797,
    "Ġlif": 10197,
    "friend": 3861,
    "Ġclust": 9276,
    "spears": 23945,
    "Ġsilken": 16381,
    "Ġdiscourse": 9800,
    "Ġdisease": 14259,
    "Ġsupport": 6730,
    "Ġerrone": 14432,
    "tort": 17676,
    "Ġmagnetic": 17242,
    "scor": 13024,
    "Ġfevers": 22214,
    "Ġdisturbing": 19949,
    "Ġ$": 21153,
    "oe": 7552,
    "Ġashen": 21904,
    "Ġpetersburgh": 24230,
    "Ġvales": 21951,
    "Ġrock": 5311,
    "smoking": 23914,
    "Ġmoose": 22436,
    "Ġcough": 11583,
    "amped": 12036,
    "swept": 19789,
    "Ġnormal": 1203,
    "ato": 17770,
    "script": 11078,
    "Ġreel": 9215,
    "Ġeyel": 17096,
    "ound": 589,
    "Ġlengthwise": 10453,
    "bermaid": 20792,
    "Ġcompromising": 22578,
    "Ġtough": 13817,
    "Ġhemisphere": 26479,
    "Ġtribes": 20484,
    "Ġsubterraneous": 20268,
    "Ġranged": 10259,
    "Ġselecting": 16682,
    "greenland": 10023,
    "oub": 1630,
    "Ġcompose": 12906,
    "Ġitself": 2516,
    "Ġjetted": 24430,
    "Ġsed": 10762,
    "Ġhabitations": 24788,
    "mits": 13758,
    "Ġaccelerate": 23230,
    "Ġamends": 14247,
    "vulgar": 25919,
    "Ġferguson": 17471,
    "Ġcyl": 15560,
    "cture": 15668,
    "Ġexpress": 2195,
    "Ġgid": 13964,
    "Ġdiscomposed": 25581,
    "numerous": 17433,
    "Ġhenceforth": 19645,
    "ber": 904,
    "Ġservants": 6612,
    "Ġhimmalehs": 26232,
    "Ġpromise": 4201,
    "izers": 18137,
    "Ġkate": 15908,
    "Ġfounded": 8561,
    "Ġindign": 6175,
    "Ġhowled": 12859,
    "Ġpurposed": 23554,
    "brave": 19826,
    "Ġhire": 21489,
    "Ġweariness": 19797,
    "Ġinterrupted": 6345,
    "Ġmister": 22759,
    "Ġstops": 3168,
    "Ġenclosure": 20627,
    "benevolent": 15236,
    "Ġwhip": 8453,
    "Ġyoke": 18098,
    "Ġpleased": 4063,
    "yra": 8104,
    "Ġmantelpiece": 15210,
    "enborough": 21288,
    "Ġtravellers": 11309,
    "Ġ(": 595,
    "execut": 13658,
    "spout": 7925,
    "Ġsignific": 3828,
    "distressed": 24201,
    "somebody": 14566,
    "Ġpotent": 12067,
    "Ġchoosing": 19593,
    "Ġhover": 15623,
    "Ġingen": 9051,
    "whal": 10941,
    "Ġjackets": 19605,
    "Ġhysterical": 26093,
    "Ġjuggler": 26368,
    "uary": 11539,
    "Ġsavann": 14685,
    "Ġexceptionable": 25504,
    "Ġeludes": 26555,
    "Ġ21": 11199,
    "Ġgroping": 13668,
    "Ġdams": 16455,
    "Ġprogramming": 1183,
    "guilty": 19486,
    "Ġalps": 10871,
    "latter": 15385,
    "washed": 13050,
    "Ġcord": 5222,
    "eastern": 17534,
    "Ġcrumbs": 19124,
    "irts": 9240,
    "Ġrepairs": 19083,
    "ravelled": 18017,
    "Ġfundament": 2923,
    "Ġanswers": 7072,
    "Ġplanted": 9776,
    "at": 268,
    "Ġthom": 21520,
    "Ġeffects": 7236,
    "month": 6464,
    "Ġnovel": 6697,
    "Ġcrusad": 23709,
    "Ġdilated": 24703,
    "oblivious": 26583,
    "cheeked": 19342,
    "vices": 21119,
    "Ġties": 12531,
    "Ġorganize": 8993,
    "Ġbend": 9172,
    "Ġshone": 7404,
    "Ġpeev": 22697,
    "school": 10057,
    "Ġtendons": 19811,
    "Ġsleeps": 10447,
    "arus": 13914,
    "Ġtarn": 21161,
    "Ġview": 2757,
    "Ġsooner": 5572,
    "Ġanimation": 11153,
    "Ġserved": 8247,
    "Ġbloss": 19258,
    "Ġblasphemy": 26116,
    "Ġcubic": 20091,
    "Ġgraceful": 11297,
    "not": 908,
    "Ġstreaming": 19676,
    "Ġgetting": 4065,
    "between": 5071,
    "Ġdetaining": 25820,
    "ipher": 18433,
    "unt": 2042,
    "Ġii": 7384,
    "inde": 17732,
    "Ġridge": 14821,
    "ø": 185,
    "Ġcrumpled": 16439,
    "Ġuneasily": 24232,
    "Ġsucc": 12787,
    "Ġvigorously": 11300,
    "txt": 12519,
    "eness": 2289,
    "itement": 7836,
    "dark": 5613,
    "indeed": 4490,
    "Ġmichael": 20682,
    "Ġresemble": 15696,
    "Ġbeadle": 26485,
    "Ġaims": 15498,
    "Ġhuman": 1319,
    "Ġanxiously": 8291,
    "Ġ117": 19700,
    "Ġdecreas": 1644,
    "accepted": 20139,
    "cription": 20820,
    "alone": 10185,
    "Ġlandscape": 12420,
    "consumed": 25676,
    "Ġperil": 5556,
    "Ġramadan": 9577,
    "Ġdust": 5911,
    "Ġsixth": 16561,
    "angible": 22110,
    "Ġsaint": 15509,
    "Ġengland": 3856,
    "Ġunresting": 25554,
    "Ġmarred": 23034,
    "Ġspatial": 2724,
    "Ġbow": 3060,
    "atoes": 17776,
    "Ġpooh": 18604,
    "Ġnorm": 763,
    "message": 17374,
    "Ġcomprising": 16071,
    "Ġfruitless": 25606,
    "Ġrefres": 14345,
    "Ġprodu": 1205,
    "cerem": 15681,
    "headsman": 16698,
    "grew": 17556,
    "atic": 4016,
    "follow": 5680,
    "ists": 3998,
    "Ġadored": 18292,
    "delighted": 10564,
    "Ġnumer": 3638,
    "eliest": 14748,
    "apology": 22338,
    "Ġsuppl": 11079,
    "brew": 11474,
    "Ġasiatic": 20433,
    "Ġtot": 4188,
    "Ġlouder": 13471,
    "Ġpecks": 18670,
    "Ġsoaring": 22091,
    "Ġvehemently": 26040,
    "Ġrhone": 25231,
    "ulties": 12905,
    "Ġsurpasses": 25269,
    "Ġrecollect": 8311,
    "noted": 22751,
    "adopt": 25545,
    "Ġsurm": 7476,
    "lantern": 17430,
    "Ġmorbidness": 20631,
    "Ġderivatives": 2367,
    "Ġapproximates": 2416,
    "Ġfighting": 12201,
    "Ġbulldog": 23862,
    "impatient": 13643,
    "Ġprospect": 4707,
    "Ġplan": 3880,
    "Ġimplac": 24875,
    "momentum": 4991,
    "Ġhes": 6252,
    "ashions": 16418,
    "Ġbluish": 23651,
    "alty": 17941,
    "]": 65,
    "Ġadvise": 7936,
    "Ġalgorithm": 773,
    "Ġsavannah": 17418,
    "Ġfortun": 4982,
    "pton": 15797,
    "ice": 592,
    "whar": 15930,
    "Ġbefell": 14012,
    "elstrom": 17984,
    "slave": 16896,
    "Ġinstruments": 12227,
    "glass": 9911,
    "Ġstrewed": 23424,
    "Ġgaiters": 20464,
    "Ġsuccession": 12105,
    "tastes": 21099,
    "Ġ2026": 12338,
    "Ġsouthampton": 24308,
    "Ġdinah": 9456,
    "atisf": 21266,
    "Ġeaves": 15679,
    "hatchway": 25905,
    "uous": 4147,
    "ifully": 13187,
    "Ġseemed": 1278,
    "Ġleg": 2332,
    "Ġtyrant": 24766,
    "Ġdistribution": 2017,
    "Ġapril": 13665,
    "pherd": 13647,
    "Ġsubterr": 10350,
    "georgiana": 26021,
    "fort": 1748,
    "Ġassaulted": 25321,
    "Ġmarchant": 14787,
    "Ġ132": 19898,
    "Ġmechanisms": 1574,
    "acceptance": 25186,
    "Ġreeds": 15699,
    "Ġwoven": 9928,
    "ĥ": 230,
    "attributed": 23124,
    "Ġgloomily": 14803,
    "Ġafraid": 3530,
    "venth": 9297,
    "Ġkith": 22197,
    "terms": 15754,
    "Ġbash": 12590,
    "Ġbison": 21391,
    "aved": 5475,
    "Ġlighter": 12657,
    "mast": 3601,
    "Ġimag": 2670,
    "Ġswings": 11087,
    "ientiously": 21948,
    "Ġraved": 22654,
    "retrospect": 23143,
    "Ġrequest": 6053,
    "Ġwindings": 18911,
    "ject": 875,
    "aught": 2675,
    "Ġpest": 13915,
    "Ġ15": 9326,
    "borean": 25744,
    "Ġeducated": 16786,
    "Ġtremble": 6906,
    "Ġhaul": 11695,
    "Ġquart": 11790,
    "Ġappropri": 2227,
    "ho": 2854,
    "Ġrods": 9756,
    "Ġpasses": 2674,
    "Ġsumat": 14131,
    "Ġsty": 6253,
    "scotland": 20532,
    "ium": 4865,
    "arian": 10318,
    "enorm": 17782,
    "acquaintance": 6938,
    "Ġlibrary": 6424,
    "chamber": 13628,
    "Ġrel": 1096,
    "gate": 12470,
    "Ġsupre": 10270,
    "Ġrummaged": 16911,
    "Ġregards": 16076,
    "shutters": 20314,
    "phur": 16158,
    "Ġunceasingly": 20362,
    "Ġpitiless": 19391,
    "bearers": 18525,
    "character": 6333,
    "Ġactively": 18655,
    "Ġdomineering": 23663,
    "iliating": 12699,
    "anning": 10166,
    "Ġhurrying": 11997,
    "Ġloo": 22115,
    "innacle": 7519,
    "====": 1480,
    "inence": 15483,
    "Ġclosest": 16764,
    "deeply": 16179,
    "Ġcould": 703,
    "osed": 1957,
    "inisc": 15490,
    "context": 3405,
    "Ġfac": 6382,
    "Ġfight": 5366,
    "Ġoutline": 15957,
    "angling": 14142,
    "sebastian": 21824,
    "enjoy": 10775,
    "Ġwretch": 6379,
    "Ġexe": 3992,
    "Ġdistinguish": 2721,
    "stochastic": 3772,
    "Ġgrosvenor": 17420,
    "Ġconsulted": 13433,
    "Ġunjustly": 17128,
    "Ġconf": 1819,
    "ence": 393,
    "Ġsolitary": 5856,
    "Ġbeatrix": 24206,
    "Ġnarration": 13506,
    "resides": 23674,
    "Ġdiscernible": 15057,
    "Ġgroan": 13328,
    "ĵ": 246,
    "Ġalcoves": 26487,
    "Ġsof": 18283,
    "Ġnets": 21528,
    "Ġdisquis": 22532,
    "Ġbutter": 6842,
    "aggoo": 5130,
    "Ġadvoc": 12996,
    "Ġbehind": 2802,
    "Ġlazily": 11381,
    "Ġboa": 22639,
    "Ġpaling": 21465,
    "ohog": 9845,
    "Ġexerting": 21837,
    "Ġimmedi": 2901,
    "Ġcreditable": 19625,
    "Ġunmanner": 22034,
    "Ġinsol": 10182,
    "Ġrests": 13097,
    "inkers": 22622,
    "piteous": 21036,
    "Ġ26": 10471,
    "Ġemm": 18005,
    "bodily": 17317,
    "Ġhospital": 15041,
    "Ġwitnesses": 9488,
    "prepare": 20215,
    "Ġauto": 23319,
    "fabulous": 20477,
    "Ġvane": 22874,
    "Ġpent": 17903,
    "Ġproble": 1107,
    "ootiful": 17375,
    "society": 9974,
    "Ġgurg": 15676,
    "Ġplunder": 22606,
    "shark": 14238,
    "du": 606,
    "Ġurged": 6782,
    "courageous": 26128,
    "Ġcatherine": 2808,
    "impressed": 12695,
    "abhorred": 17338,
    "aying": 15753,
    "olera": 21838,
    "Ġharpooneers": 4733,
    "Ġalleys": 25979,
    "Ġpictured": 16624,
    "Ġbewitched": 25976,
    "Ġdives": 17892,
    "Ġclin": 14202,
    "Ġstyled": 24672,
    "Ġconducted": 10504,
    "Ġcombines": 1188,
    "beam": 16042,
    "erxes": 21278,
    "Ġwintry": 17436,
    "Ġluckily": 16799,
    "glorious": 19370,
    "Ġconsol": 3814,
    "Ġcleaned": 23184,
    "arter": 17895,
    "Ġtypically": 1537,
    "situ": 9623,
    "Ġfortifications": 23621,
    "Ġguitar": 16273,
    "uncommon": 11684,
    "etween": 774,
    "Ġschedu": 1823,
    "Ġasia": 11685,
    "likewise": 13109,
    "wherefore": 19110,
    "Ġlub": 15652,
    "obscure": 23101,
    "Ġlap": 8439,
    "Ġdisgrace": 7215,
    "Ġdoran": 9181,
    "Ġlun": 7857,
    "Ġmightiest": 12965,
    "Ġmaster": 3681,
    "Ġpompous": 20426,
    "ulia": 18151,
    "Ġaccepted": 7752,
    "highest": 20411,
    "expressive": 24306,
    "Ġtug": 11552,
    "Ġpharaoh": 26586,
    "bies": 15315,
    "Ġborne": 6353,
    "Ġspot": 4157,
    "mysterious": 26053,
    "Ġdrawling": 19440,
    "bular": 15316,
    "Ġinte": 2063,
    "Ġintric": 9248,
    "Ġdegradation": 2626,
    "Ġattempted": 8002,
    "Ġsearching": 13165,
    "Ġformer": 3324,
    "Ġstripped": 10466,
    "uss": 8767,
    "dragged": 16609,
    "reflections": 24734,
    "Ġsaturday": 6453,
    "unw": 14059,
    "possession": 12225,
    "Ġcollins": 2180,
    "Ġless": 1936,
    "row": 1065,
    "Ġprecaution": 11197,
    "Ġrespected": 11956,
    "Ġillum": 9402,
    "Ġla": 5915,
    "Ġtapers": 11553,
    "stop": 11637,
    "transformers": 8718,
    "Ġmeanly": 12913,
    "Ġtattered": 21174,
    "nav": 17613,
    "pertaining": 22193,
    "project": 16427,
    "Ġmarrying": 6179,
    "Ġboot": 11842,
    "Ġgunwale": 7325,
    "osoever": 17345,
    "Ġheavy": 3743,
    "illation": 14143,
    "ty": 1001,
    "Ġthreatens": 24374,
    "Ġinsist": 9893,
    "Ġsailor": 3536,
    "Ġshroud": 6484,
    "Ġsurmise": 12298,
    "Ġtortured": 14926,
    "Ġmales": 17807,
    "icked": 10334,
    "yset": 21148,
    "activity": 22636,
    "Ġwidely": 8034,
    "Ġunnatural": 7190,
    "sorrow": 12512,
    "fthand": 26387,
    "Ġfrightens": 24033,
    "Ġundergone": 18986,
    "Ġsettles": 22924,
    "inferiors": 25347,
    "anyone": 16594,
    "Ġpatches": 4240,
    "gee": 15980,
    "Ġpugn": 21483,
    "Ġsymb": 2586,
    "Ġlangu": 575,
    "mot": 17597,
    "Ġprincess": 23223,
    "Ġcharnel": 22257,
    "Ġbased": 3340,
    "Ġdow": 17888,
    "eternal": 17985,
    "Ġinvolving": 18756,
    "Ġhy": 5625,
    "ouncement": 11748,
    "Ġfactory": 23280,
    "Ġabhorrence": 9054,
    "feed": 9295,
    "hil": 8380,
    "hearted": 6971,
    "Ġdimly": 9490,
    "chair": 5919,
    "Ġswimming": 5507,
    "Ġshells": 20367,
    "Ġprivately": 19526,
    "hound": 20897,
    "Ġbelieving": 8226,
    "fearing": 18530,
    "Ġinter": 728,
    "ary": 987,
    "Ġnorth": 4321,
    "Ġtiles": 17727,
    "Ġprometheus": 15295,
    "peril": 18343,
    "Ġlees": 18078,
    "igation": 5920,
    "Ġmerry": 5870,
    "Ġfordham": 21781,
    "ckles": 22094,
    "Ġball": 3622,
    "ames": 2949,
    "Ġfreshet": 25704,
    "Ġdiab": 10613,
    "track": 24334,
    "Ġincantation": 26259,
    "Ġirregularly": 25324,
    "Ġfergus": 16873,
    "Ġdiscomposure": 20382,
    "Ġtrepidation": 19216,
    "Ġspam": 7631,
    "Ġblades": 11898,
    "Ġirreduc": 5491,
    "Ġpace": 9184,
    "Ġbig": 5806,
    "anely": 17838,
    "mitted": 5213,
    "Ġshoal": 12018,
    "Ġevol": 2810,
    "Ġflatter": 9350,
    "Ġparr": 22124,
    "Ġimpressed": 8200,
    "toss": 22571,
    "figure": 13558,
    "Ġmann": 18417,
    "Ġkitty": 3910,
    "Ġjail": 22299,
    "Ġextend": 18690,
    "Ġcontrari": 23353,
    "Ġcircumnavigation": 20403,
    "Ġlonging": 14299,
    "Ġconver": 802,
    "Ġimpertinence": 11367,
    "odes": 18122,
    "Ġpartner": 6716,
    "notches": 22752,
    "Ġhonor": 5664,
    "Ġfluttered": 16250,
    "Ġgiven": 1622,
    "pump": 21019,
    "Ġgeneration": 2185,
    "Ġorganically": 3008,
    "scores": 22996,
    "farm": 15354,
    "soo": 18683,
    "Ġallured": 14115,
    "Ġirksome": 13115,
    "Ġclubb": 22353,
    "Ġdismal": 11813,
    "Ġdepending": 14300,
    "Ä": 133,
    "entered": 8818,
    "Ġliberated": 19669,
    "Ġmole": 11794,
    "Ġbiases": 2395,
    "Ġcorpusants": 13680,
    "Ġgrievous": 13264,
    "Ġcircumnav": 12429,
    "Ġhos": 4942,
    "mathemat": 19139,
    "Ġcontraction": 16011,
    "Ġemb": 1230,
    "Ġcocked": 12908,
    "Ġpenny": 16316,
    "ellation": 12752,
    "rapid": 12674,
    "Ġtheoretically": 3566,
    "Ġcurric": 22974,
    "Ġwaning": 15536,
    "thousand": 5546,
    "smallest": 23915,
    "lamp": 9610,
    "85": 13684,
    "Ġabruptly": 15153,
    "restoration": 23238,
    "Ġlikewise": 5386,
    "Ġmankind": 6700,
    "rate": 2420,
    "increas": 10455,
    "alk": 1152,
    "Ġadmin": 23555,
    "Ġhelmet": 19690,
    "unusual": 21884,
    "Ġbraced": 16581,
    "Ġugl": 12686,
    "mong": 15392,
    "pocket": 9811,
    "idge": 14016,
    "Ġoptimize": 1624,
    "Ġprocedures": 9414,
    "Ġbitterness": 8025,
    "Ġembark": 8560,
    "became": 10516,
    "li": 1189,
    "Ġcaval": 25770,
    "Ġsuicide": 12790,
    "icherry": 15138,
    "Ġordered": 5833,
    ".": 18,
    "Ġcompares": 20169,
    "Ġstruggle": 3675,
    "Ġinvol": 1031,
    "Ġthereof": 22373,
    "Ġelevation": 14899,
    "jointed": 24013,
    "Ġserpent": 6739,
    "Ġmachinery": 20488,
    "Ġbroker": 23105,
    "agra": 14068,
    "Ġcure": 21343,
    "Ġcontemptuously": 19836,
    "Ġskip": 1844,
    "Ġintelligent": 1342,
    "Ġgeneralization": 983,
    "leviathans": 19941,
    "Ġwars": 17787,
    "Ġpri": 5814,
    "Ġham": 3421,
    "Ġanteced": 26178,
    "sided": 17665,
    "Ġinterpret": 5490,
    "Ġprofoundest": 16861,
    "anges": 1671,
    "hement": 13834,
    "dogs": 25403,
    "irited": 15790,
    "Ġoxford": 11372,
    "Ġdevilish": 11229,
    "Ġtoler": 7589,
    "ship": 1393,
    "Ġcarving": 14445,
    "dry": 13706,
    "attent": 9361,
    "bows": 10083,
    "Ġantiqu": 12148,
    "Ġsound": 2243,
    "ilege": 22261,
    "romising": 18234,
    "Ġamiss": 18516,
    "riet": 18182,
    "garious": 17559,
    "Ġjohn": 5032,
    "Ġinex": 6529,
    "bergen": 14341,
    "Ġarch": 928,
    "Ġcaves": 15557,
    "mospheric": 17091,
    "arying": 9803,
    "Ġscheming": 23273,
    "Ġreside": 22544,
    "Ġadler": 8175,
    "Ġrestraint": 15130,
    "miss": 3176,
    "Ġobey": 9521,
    "athan": 2953,
    "miniature": 16766,
    "Ġinjustice": 9192,
    "ulnerable": 18153,
    "Ġturnkeys": 23032,
    "Ġassuming": 16693,
    "Ġnoble": 3440,
    "Ġdescending": 8905,
    "Ġsuspending": 19246,
    "countenance": 6925,
    "ar": 285,
    "Ġremarkably": 7704,
    "Ġwheelbarrow": 17206,
    "permitted": 18346,
    "giving": 8742,
    "stirring": 20429,
    "Ġusages": 15919,
    "complain": 14362,
    "Ġdescribes": 3125,
    "Ġbon": 8789,
    "Ġpig": 5705,
    "adventures": 20259,
    "Ġlively": 5449,
    "§": 105,
    "Ġtheme": 16021,
    "Ġcalmer": 23048,
    "Ġcoun": 4180,
    "Ġishmael": 7395,
    "stretched": 10209,
    "oded": 11671,
    "pher": 11513,
    "metal": 24764,
    "Ġknees": 6928,
    "Ġbelieve": 2146,
    "Ġdictionary": 15115,
    "rated": 6229,
    "Ġstarbuck": 2194,
    "Ġmaintained": 12938,
    "Ġlivery": 16003,
    "Ġbase": 5013,
    "descried": 11932,
    "Ġbodily": 6108,
    "Ġrooms": 5180,
    "Ġnam": 17951,
    "Ġantiquities": 25599,
    "voyages": 24856,
    "devilish": 17082,
    "pursued": 17283,
    "Ġbanquet": 15243,
    "Ġflamingo": 15103,
    "Ġere": 3685,
    "Ġreplay": 5047,
    "Ġconception": 10315,
    "Ġlirra": 21564,
    "rely": 6125,
    "Ġdesisted": 22984,
    "voy": 7145,
    "Ġprotruded": 19473,
    "hel": 4815,
    "crow": 9592,
    "Ġannouncement": 14835,
    "Ġdescends": 14289,
    "Ġleatherhead": 20017,
    "Ġrecl": 16148,
    "nose": 17611,
    "Ġcasualty": 20344,
    "Ġhosts": 19942,
    "Ġthree": 1373,
    "Ġoverhanging": 22364,
    "å": 166,
    "igning": 12685,
    "Ġhumaneval": 25583,
    "Ġviciss": 11293,
    "Ġexclaiming": 13644,
    "Ġdam": 2216,
    "Ġoutlined": 22325,
    "favourite": 15146,
    "Ġsides": 4581,
    "Ġenderby": 13654,
    "Ġvain": 3629,
    "Ġdegenerated": 20509,
    "Ġfarmhouse": 24989,
    "Ġscattered": 6856,
    "Ġbeauty": 3768,
    "flagged": 23975,
    "Ġcocaine": 20723,
    "Ġvector": 1968,
    "aulding": 11340,
    "Ġobstetrics": 24679,
    "Ġrelating": 2700,
    "meth": 11504,
    "Ġhumanity": 6733,
    "Ġpolitical": 19225,
    "variety": 23187,
    "geneva": 13732,
    "Ġtit": 8401,
    "Ġannoyance": 20664,
    "Ġexhib": 6351,
    "coat": 5407,
    "avering": 24792,
    "Ġhandle": 3140,
    "Ġenergy": 2546,
    "adequately": 20322,
    "intelligent": 16845,
    "five": 6358,
    "Ġinsurg": 23684,
    "Ġapothecary": 13662,
    "stir": 12677,
    "Ġharpooning": 23982,
    "Ġpott": 21471,
    "Ġnorthward": 13325,
    "Ġactiv": 835,
    "Ġency": 21938,
    "Ġsystematically": 4361,
    "Ġextracted": 16315,
    "Ġwre": 5077,
    "hmael": 7342,
    "asets": 2307,
    "queequeg": 4336,
    "Ġwheels": 10913,
    "Ġ1991": 3012,
    "intment": 4721,
    "Ġcond": 3873,
    "Ġsimultaneously": 4313,
    "penetrating": 25491,
    "Ġaccursed": 9447,
    "cup": 10693,
    "Ġcritically": 23445,
    "apple": 22846,
    "Ġobli": 9318,
    "your": 1982,
    "Ġsavage": 4009,
    "Ġlurid": 19684,
    "Ġinsc": 7586,
    "made": 4809,
    "actions": 8909,
    "Ġbedford": 7475,
    "arctic": 12614,
    "Ġphilistines": 26083,
    "Ġbambooz": 26120,
    "mock": 5174,
    "dorff": 15240,
    "ella": 12751,
    "Ġmaids": 19694,
    "ivided": 22086,
    "Ġsupremacy": 20263,
    "inctions": 17733,
    "ĠĠĠĠĠĠĠ": 7633,
    "Ġcle": 1509,
    "passed": 8027,
    "Ġmiserable": 3634,
    "Ġinspiring": 19114,
    "coast": 10450,
    "danger": 10091,
    "Ġcataract": 23430,
    "Ġhaws": 21956,
    "Ġchannel": 26013,
    "ivil": 6412,
    "Ġboom": 9312,
    "ron": 5216,
    "Ġconstraints": 2735,
    "Ġsynthe": 26008,
    "Ġcategor": 4142,
    "Ġdownstairs": 11225,
    "poling": 12223,
    "itative": 13872,
    "Ġlexic": 15727,
    "Ġminim": 1326,
    "ipelagoes": 13674,
    "properly": 24919,
    "Ġfleeting": 19329,
    "Ġsepulchre": 20562,
    "Ġharm": 5017,
    "strange": 6088,
    "Ġsmothe": 18575,
    "Ġwreaths": 25938,
    "Ġbarrens": 25502,
    "ained": 3064,
    "Ġbrand": 16188,
    "Ġnominally": 17233,
    "Ġknighthood": 25298,
    "ruff": 15900,
    "moved": 9786,
    "Ġhorr": 3192,
    "description": 11095,
    "ault": 2304,
    "Ġrifle": 18213,
    "arance": 4699,
    "Ġinvoluntary": 18757,
    "precise": 19354,
    "Ġelev": 5535,
    "Ġmanufact": 22333,
    "Ġbelongs": 8016,
    "Ġtopic": 9408,
    "Ġtook": 1854,
    "ermaid": 14298,
    "truth": 9921,
    "Ġspectre": 16632,
    "Ġfestival": 25446,
    "Ġfibres": 12955,
    "Ġgrammar": 1060,
    "Ġdisguises": 25058,
    "Ġaffected": 5576,
    "uttural": 21593,
    "Ġtransc": 12870,
    "qualified": 17098,
    "os": 526,
    "pulled": 25148,
    "Ġsoph": 1658,
    "Ġwelcome": 5603,
    "Ġ156": 20173,
    "Ġenjoyed": 8009,
    "Ġtwice": 4663,
    "Ġstair": 8457,
    "Ġdiscovered": 4415,
    "Ġun": 423,
    "pip": 6657,
    "Ġlivelihood": 24773,
    "Ġprogressive": 5024,
    "denial": 18716,
    "Ġsocket": 12793,
    "gy": 2096,
    "Ġsparing": 22134,
    "Ġbleak": 10560,
    "oarsman": 25262,
    "Ġneeds": 6607,
    "brother": 7093,
    "Ġelegant": 7532,
    "Ġadditional": 7937,
    "21": 10074,
    "rabb": 15683,
    "Ġdescrib": 2713,
    "Ġauxiliary": 26419,
    "Ġphr": 2676,
    "Ġdemanding": 16806,
    "generosity": 23789,
    "oring": 1859,
    "Ġskirts": 14355,
    "Ġacquaintances": 17352,
    "Ġshyness": 20309,
    "free": 8739,
    "Ġtum": 5692,
    "Ġdefend": 9342,
    "Ġoverjoyed": 17460,
    "hist": 7132,
    "gent": 7131,
    "Ġclutch": 15055,
    "pierced": 26142,
    "Ġ122": 24466,
    "Ġgleams": 17312,
    "Ġfrantically": 23261,
    "Ġsoften": 23127,
    "Ġschooner": 16748,
    "gerine": 22890,
    "Ġtrunks": 15979,
    "partner": 19222,
    "insult": 16282,
    "Ġfro": 3473,
    "Ġvicinity": 7315,
    "Ġtiresome": 26157,
    "pretending": 17041,
    "considerably": 13448,
    "iz": 363,
    "proachable": 23401,
    "Ġcurious": 3362,
    "Ġcircumspection": 25885,
    "Ġhastened": 9006,
    "Ġwaistcoat": 12274,
    "Ġdecanting": 22457,
    "grin": 19107,
    "isen": 10793,
    "stool": 23823,
    "beneath": 9537,
    "attoo": 6808,
    "Ġcaged": 21355,
    "Ġmermaids": 26171,
    "Ġwarmly": 8989,
    "Ġmusical": 23896,
    "Ġindisp": 18835,
    "ascar": 8437,
    "Ġmists": 14631,
    "knows": 19174,
    "fted": 9120,
    "Ġenters": 11026,
    "rably": 21637,
    "Ġgr": 977,
    "Ġexplained": 5938,
    "plainly": 11091,
    "Ġarabian": 9092,
    "Ġtrem": 6662,
    "Ġclaw": 22352,
    "Ġtars": 21167,
    "avings": 12025,
    "Ġconfided": 19036,
    "Ġwrite": 3821,
    "Ġcooking": 16648,
    "picture": 11408,
    "breaths": 25337,
    "Ġtrunk": 7205,
    "Ġdict": 9177,
    "Ġharbor": 10029,
    "Ġchests": 19674,
    "explaining": 23146,
    "Ġmeasureless": 14712,
    "Ġdecency": 18488,
    ",": 16,
    "Ġthr": 5709,
    "Ġruinous": 24635,
    "overhearing": 19052,
    "Ġnarr": 5085,
    "arboard": 7266,
    "Ġopenness": 18958,
    "stating": 21651,
    "yd": 21145,
    "Ġblo": 2728,
    "Ġexploded": 15912,
    "Ġtarred": 23610,
    "Ġfront": 3452,
    "itarian": 21340,
    "Ġdoub": 1836,
    "Ġrepublican": 17414,
    "omon": 10208,
    "hill": 15365,
    "_âĢĶ": 11468,
    "Ġspecially": 12000,
    "uity": 12521,
    "blending": 24130,
    "Ġunimaginable": 15249,
    "trop": 15438,
    "Ġport": 3311,
    "Ġcar": 1419,
    "wore": 21127,
    "hen": 3518,
    "fac": 17542,
    "Ġdistracted": 11806,
    "Ġeyford": 10643,
    "Ġpreced": 6042,
    "Ġdynam": 3207,
    "castles": 14637,
    "isite": 15566,
    "riety": 12747,
    "Ġtawn": 13825,
    "lashed": 20956,
    "Ġtowed": 11266,
    "Ġjug": 12839,
    "oding": 1461,
    "Ġaper": 17744,
    "ount": 1111,
    "Ġtail": 3090,
    "fif": 9118,
    "angular": 11726,
    "Ġjones": 7204,
    "Ġprobability": 1126,
    "Ġbawling": 25946,
    "Ġquestions": 3972,
    "oul": 4700,
    "Ġsemicirc": 16395,
    "Ġmitigating": 1614,
    "Ġinitialized": 3948,
    "Ġinconsiderable": 21499,
    "Ġresponded": 13641,
    "avast": 8899,
    "ited": 1749,
    "Ġrep": 1935,
    "Ġhappy": 2461,
    "Ġnapoleon": 20560,
    "greatly": 16625,
    "blazing": 24133,
    "Ġactual": 3737,
    "Ġturban": 23614,
    "Ġproced": 2574,
    "Ġposition": 1950,
    "Ġvisit": 2578,
    "Ġdaintiest": 25954,
    "âĢĿ)": 21819,
    "creatures": 7517,
    "Ġtrous": 10961,
    "Ġcrater": 16437,
    "aders": 21763,
    "Ġalders": 21789,
    "Ġplanned": 14754,
    "Ġperched": 10301,
    "Ġgasping": 17038,
    "Ġblacksmiths": 19875,
    "Ġwhis": 3505,
    "Ġcorrid": 9826,
    "Ġadmeasure": 18294,
    "emason": 18188,
    "Ġjumping": 13345,
    "Ġinsignificant": 20459,
    "Ġdeeply": 4718,
    "solemn": 19820,
    "Ġforc": 9229,
    "bil": 20773,
    "Ġplatform": 17133,
    "Ġtranslations": 12054,
    "coloured": 7291,
    "sor": 7352,
    "racted": 4777,
    "Ġtame": 17723,
    "rade": 9681,
    "tt": 13792,
    "soc": 5175,
    "Ġabsurdly": 19963,
    "Ġthreats": 13380,
    "Ġrestless": 10414,
    "lings": 8749,
    "Ġbuff": 9174,
    "uberance": 25917,
    "sized": 15430,
    "Ġobstacle": 16956,
    "Ġaffair": 4466,
    "Ġlambton": 10659,
    "Ġstraightened": 12112,
    "Ġentail": 9793,
    "Ġintrusted": 21997,
    "Ġfeigned": 22215,
    "Ġgeneric": 18449,
    "Ġerect": 6145,
    "Ġraven": 16117,
    "Ġchecked": 9378,
    "Ġwounded": 8661,
    "Ġlagged": 21562,
    "Ġwisest": 11233,
    "plac": 15823,
    "Ġhercules": 14129,
    "Ġaddresses": 3767,
    "Ġnom": 21523,
    "Ġputs": 19034,
    "Ġstubb": 1787,
    "structure": 2377,
    "blot": 20785,
    "Ġobservation": 6599,
    "Ġback": 826,
    "grim": 19108,
    "inous": 8776,
    "Ġlasting": 18793,
    "ĠâĢľâĢĻ": 22259,
    "perceive": 12816,
    "tram": 19646,
    "ordered": 8793,
    "Ġrobes": 16264,
    "Ġhatred": 8612,
    "tray": 21080,
    "inburgh": 15492,
    "Ġsunda": 13546,
    "umphed": 23518,
    "Ġspectacle": 10498,
    "Ġtoe": 13938,
    "itch": 10162,
    "biting": 20783,
    "Ġtist": 21165,
    "Ġ90": 24590,
    "Ġsundry": 20077,
    "viating": 14579,
    "Ġscandinavian": 26347,
    "hearts": 13348,
    "heedful": 20576,
    "ton": 1727,
    "Ġvote": 21952,
    "girls": 12322,
    "Ġoccasionally": 5589,
    "Ġeffected": 14356,
    "Ġuncompromised": 20606,
    "Ġridic": 7508,
    "Ġearliest": 9832,
    "hilar": 25084,
    "luckily": 19755,
    "Ġobservable": 25129,
    "Ġunhing": 18242,
    "Ġlightnings": 16355,
    "Ġobsc": 7041,
    "Ġtend": 6122,
    "cold": 9591,
    "Ġapproxim": 1218,
    "aired": 8370,
    "throw": 14100,
    "hug": 17564,
    "Ġcommunity": 19010,
    "Ġsple": 21218,
    "Ġprogeny": 17390,
    "Ġcleat": 18949,
    "plain": 1362,
    "Ġhelps": 9369,
    "Ġfatig": 6758,
    "Ġsoliloqu": 11888,
    "humour": 7498,
    "Ġeleven": 9391,
    "their": 2534,
    "Ġtet": 21160,
    "Ġcuring": 21347,
    "Ġcedar": 15191,
    "itate": 6670,
    "Ġestates": 16460,
    "Ġboughs": 20492,
    "Ġparticularly": 5056,
    "certain": 3676,
    "?âĢĶ": 3469,
    "conquerable": 17401,
    "Ġseason": 5237,
    "aper": 4999,
    "mus": 10112,
    "O": 51,
    "Ġfulf": 6773,
    "Ġessence": 13408,
    "Ġradiant": 16810,
    "Ġhourly": 23304,
    "Ġgamesome": 17291,
    "Ġmachinations": 25768,
    "Ġpond": 13918,
    "ellect": 7381,
    "tur": 5688,
    "Ġdelineate": 26058,
    "Ġtrampling": 25493,
    "Ġanticipating": 17058,
    "supplemental": 25875,
    "source": 11527,
    "Ġmamm": 25093,
    "risonment": 17377,
    "Ġunderstand": 832,
    "Ġrnns": 2392,
    "Ġleviathans": 8283,
    "Ġbos": 4876,
    "Ġstudded": 18974,
    "Ġcarbuncle": 14447,
    "Ġpartial": 2130,
    "morn": 20978,
    "inexplicable": 25810,
    "Ġdetached": 10282,
    "Ġsloping": 11942,
    "unhes": 21880,
    "Ġagrippa": 11809,
    "Ġindu": 5295,
    "Ġoutfits": 22326,
    "upset": 23022,
    "Ġdistinguished": 8274,
    "roy": 7855,
    "nament": 11508,
    "otograph": 5827,
    "Ġpirates": 9075,
    "Ġunimpe": 22077,
    "execution": 20475,
    "arrangement": 17417,
    "raid": 3280,
    "Ġallurements": 22014,
    "destined": 24115,
    "Ġimp": 574,
    "Ġfundamental": 3010,
    "Ġplough": 18609,
    "proud": 9906,
    "Ġhour": 1812,
    "Ġclub": 8876,
    "Ġwickedness": 9528,
    "Ġinterrupt": 4362,
    "Ġregions": 10325,
    "reserved": 13845,
    "Ġ[\"": 19933,
    "Ġungover": 18256,
    "Ġragged": 11849,
    "Ġissu": 6255,
    "Ġcot": 13879,
    "Ġendangered": 16305,
    "Ġclump": 15968,
    "Ġpendulous": 25956,
    "Ġyounger": 5253,
    "altogether": 12643,
    "Ġhairs": 13234,
    "rary": 4577,
    "Ġflights": 24752,
    "droppers": 24758,
    "Ġinfluence": 5515,
    "Ġjerking": 12249,
    "cab": 7333,
    "Ġdecember": 15008,
    "midnight": 14902,
    "Ġflight": 6582,
    "Ġcup": 5697,
    "Ġhoriz": 4727,
    "endeavour": 17031,
    "thodox": 21993,
    "Ġwavering": 23283,
    "Ġcontact": 9283,
    "Ġprettier": 23768,
    "Ġtus": 10750,
    "onet": 12549,
    "Ġdrops": 9034,
    "Ġshouts": 19540,
    "ear": 8734,
    "Ġindoors": 18837,
    "Ġprincely": 24150,
    "Ġhopkins": 23133,
    "Ġresults": 7308,
    "Ġbringing": 5871,
    "fatality": 25022,
    "Ġbree": 5012,
    "Ġfiendish": 13331,
    "Ġreckoning": 14981,
    "Ġrapt": 7225,
    "Ġbrave": 6331,
    "oy": 1029,
    "Ġwh": 328,
    "Ġappe": 1541,
    "stat": 21648,
    "Ġhotels": 19539,
    "critical": 19499,
    "glow": 20876,
    "shell": 16289,
    "Ġsaddest": 16664,
    "bolt": 25138,
    "iner": 2665,
    "resistible": 10645,
    "Ġaccumulation": 2687,
    "ç": 168,
    "Ġsucceed": 4547,
    "balance": 12009,
    "Ġcurls": 22973,
    "Ġpowerful": 1513,
    "Ġmystic": 7503,
    "Ġpapers": 4020,
    "Ġfrayed": 23295,
    "declined": 25175,
    "darkened": 24513,
    "Ġrack": 9314,
    "Ġpeculiarly": 8288,
    "Ġbeware": 8831,
    "iliar": 15717,
    "Ġbeard": 11657,
    "Ġearnestness": 12129,
    "althily": 19362,
    "rily": 7622,
    "Ġrec": 910,
    "Ġad": 441,
    "ulous": 4453,
    "Ġunsounded": 15852,
    "Ġsympathised": 14864,
    "Ġclothes": 4997,
    "Ġjib": 14195,
    "izes": 885,
    "Ġexpectations": 13146,
    "batch": 1980,
    "manners": 16187,
    "Ġwheel": 9720,
    "fetch": 12468,
    "murderers": 25728,
    "easily": 17535,
    "Ġfrost": 6098,
    "Ġforging": 18096,
    "Ġalche": 21788,
    "Ġinduce": 7764,
    "Ġscrupled": 25052,
    "gement": 13730,
    "fishermen": 17061,
    "Ġtarpaulin": 26158,
    "vigorous": 25918,
    "Ġmarvels": 11084,
    "Ġrogue": 22410,
    "all": 485,
    "Ġattempting": 14698,
    "possess": 5986,
    "spersed": 22735,
    "ribly": 8256,
    "Ġappet": 9733,
    "onness": 21257,
    "Ġretreat": 6072,
    "Ġinitialization": 1252,
    "Ġinsomuch": 23686,
    "constant": 11325,
    "Ġcannon": 14155,
    "Ġbureau": 11592,
    "asion": 5714,
    "key": 5462,
    "bourn": 3303,
    "Ġconventional": 25548,
    "Ġwidest": 24236,
    "ificent": 8185,
    "Ġengraved": 17081,
    "este": 15922,
    "ceiving": 3903,
    "Ġdrows": 21439,
    "Ġparading": 23713,
    "ulated": 6032,
    "play": 5099,
    "Ġderived": 8240,
    "Ġentire": 2553,
    "Ġbalances": 2337,
    "shipping": 10308,
    "Ġimpressions": 9555,
    "Ġmurky": 19203,
    "incredible": 16500,
    "Ġmagnificent": 9844,
    "Ġgi": 15669,
    "Ġ79": 24266,
    "response": 25763,
    "forbidding": 25838,
    "Ġradney": 6776,
    "Ġshag": 9253,
    "Ġprevailed": 7779,
    "ee": 1655,
    "Ġeste": 6086,
    "mushroom": 26396,
    "rival": 12746,
    "parlour": 16394,
    "Ġpeep": 6870,
    "Ġfumbled": 17883,
    "Ġpanel": 13375,
    "lev": 1234,
    "Ġworst": 7444,
    "Ġnaval": 16900,
    "published": 26143,
    "Ġnonsense": 6983,
    "Ġwreath": 25937,
    "Ġtitle": 11409,
    "Ġmeantime": 6208,
    "Ġcomplain": 6687,
    "sham": 9759,
    "Ġintrig": 21995,
    "ountain": 2915,
    "Ġengravings": 15070,
    "Ġdrawn": 4278,
    "Ġcharging": 23270,
    "Ġhearts": 4972,
    "Ġaudibly": 24770,
    "Ġbreaching": 23351,
    "informed": 17737,
    "eps": 12795,
    "Ġconnecting": 18630,
    "drawn": 9915,
    "Ġjoke": 8871,
    "itable": 5437,
    "Ġmoonshine": 19600,
    "ifled": 14065,
    "Ġentreat": 4512,
    "Ġcoefficient": 2880,
    "Ġsmoke": 4716,
    "Ġfailure": 13318,
    "started": 10846,
    "untarily": 6314,
    "Ġaccent": 10295,
    "Ġreduced": 11927,
    "Ġunaccount": 22032,
    "forever": 22524,
    "drown": 13707,
    "evening": 7091,
    "ings": 631,
    "northern": 23669,
    "Ġdelighted": 5499,
    "Ġensuing": 12312,
    "hest": 3370,
    "buttons": 22407,
    "eray": 21269,
    "Ġjing": 15952,
    "Ġarrogance": 26233,
    "illa": 12797,
    "hibited": 17429,
    "Ġtending": 17725,
    "Ġaug": 6236,
    "ken": 2796,
    "conjecturing": 20137,
    "Ġinestim": 15627,
    "Ġrashness": 25461,
    "itive": 6671,
    "augmented": 26288,
    "Ġdecks": 6900,
    "Ġnearing": 15801,
    "Ġdepartment": 24243,
    "Ġdisrespect": 18554,
    "Ġthyself": 6604,
    "Ġadmire": 5264,
    "Ġ}": 21156,
    "Ġgrim": 7439,
    "Ġplunge": 13446,
    "Ġresolved": 3796,
    "orious": 6010,
    "Ġpeaked": 2294,
    "Ġacceptance": 14829,
    "province": 26073,
    "Ġinferred": 14501,
    "ignation": 11129,
    "Ġalms": 21785,
    "atched": 6376,
    "Ġfer": 5623,
    "Ġdried": 7367,
    "char": 3504,
    "factories": 19846,
    "Ġpersuasions": 16633,
    "steady": 14711,
    "desol": 13221,
    "thousands": 16871,
    "Ġimmort": 19487,
    "Ġslung": 23170,
    "Ġcats": 8981,
    "Ġwandering": 8657,
    "Ġscrib": 22293,
    "out": 467,
    "orns": 12596,
    "Ġslouched": 13063,
    "Ġgreen": 3050,
    "Ġineffect": 13932,
    "Ġundec": 22024,
    "Ġjurors": 17346,
    "Ġsouls": 6310,
    "Ġentropy": 2030,
    "Ġalteration": 9548,
    "Ġimproving": 1210,
    "end": 503,
    "first": 3934,
    "Ġimpertinent": 9079,
    "Ġworthless": 19568,
    "Ġimpenitent": 26549,
    "Ġreaching": 7303,
    "concerning": 9066,
    "Ġwarrant": 17796,
    "wandering": 20287,
    "aboard": 21799,
    "ogany": 18680,
    "fal": 17537,
    "Ġsand": 6237,
    "Ġthroughout": 8879,
    "Ġliveliest": 24774,
    "erting": 17778,
    "Ġwinking": 17795,
    "Ġ72": 19614,
    "Ġdriver": 16474,
    "Ġjot": 11766,
    "Ġkicked": 10583,
    "Ġcontinental": 19708,
    "Ġenvied": 19304,
    "Ġanomalously": 25639,
    "Ġhandsomer": 20336,
    "Ġhelplessly": 20081,
    "Ġfun": 524,
    "Ġlobes": 22120,
    "Ġphase": 14473,
    "Ġforg": 3786,
    "germ": 15359,
    "Ġdeputation": 21845,
    "Ġsequentially": 4915,
    "finer": 17547,
    "expectations": 24278,
    "Ġusually": 6265,
    "aration": 12611,
    "icle": 10835,
    "Ġcomplement": 23712,
    "Ġjourneys": 19478,
    "address": 14883,
    "Ġbeating": 8146,
    "ĠĠĠĠĠĠĠĠĠĠĠĠĠĠĠĠĠĠĠĠĠĠĠĠĠĠĠĠĠĠĠĠĠ": 12045,
    "Ġdenny": 9003,
    "Ġvelvets": 25394,
    "whence": 23215,
    "did": 3197,
    "Ġghastly": 10062,
    "Ġsinful": 18951,
    "entering": 17979,
    "Ġnorton": 12653,
    "Ġincrust": 22555,
    "foundered": 20869,
    "chors": 11646,
    "receiving": 12547,
    "Ġpasture": 14543,
    "supposed": 13319,
    "Ġadvantages": 9813,
    "Ġsuffoc": 18872,
    "phew": 6369,
    "reds": 12753,
    "reg": 2183,
    "farintosh": 24552,
    "Ġpenalty": 1840,
    "Ġpride": 3823,
    "consid": 4925,
    "Ġanchor": 7368,
    "inqu": 6123,
    "nameless": 19905,
    "tomb": 21096,
    "rested": 13078,
    "Ġrinal": 21982,
    "Ġirrevoc": 15040,
    "Ġwrithed": 17106,
    "shoulder": 16585,
    "possesses": 24618,
    "Ġreasoner": 14441,
    "Ġapprehending": 26092,
    "ring": 1752,
    "Ġfalls": 14645,
    "wondered": 17117,
    "wicked": 24448,
    "anxiety": 25159,
    "Ġrover": 18457,
    "Ġcreative": 9833,
    "Ġentit": 22742,
    "rote": 4594,
    "Ġmonstrous": 7791,
    "governed": 25406,
    "windward": 24162,
    "Ġimprecate": 20521,
    "Ġbeseeching": 26312,
    "period": 15905,
    "jacket": 12295,
    "Ġ28": 19296,
    "Ġquill": 12861,
    "surprise": 9532,
    "Ġwildness": 14604,
    "Ġproximity": 3221,
    "Ġcombined": 8552,
    "tipt": 25086,
    "Ġalternative": 19990,
    "Ġforming": 7044,
    "Ġcognitive": 13637,
    "Ġalabama": 14021,
    "isco": 12585,
    "Ġseams": 12128,
    "Ġindic": 2883,
    "Ġinterval": 4053,
    "Ġcorruption": 15228,
    "Ġparmacetti": 20607,
    "Ġmass": 3779,
    "Ġcared": 8786,
    "Ġalternating": 15032,
    "misfortunes": 16757,
    "dil": 11479,
    "Ġencamped": 22805,
    "Ġ123": 24467,
    "Ġlik": 2517,
    "Ġsom": 1275,
    "Ġsanta": 26421,
    "Ġfasc": 12602,
    "ected": 7875,
    "Ġvacancy": 9046,
    "Ġcet": 6672,
    "ease": 12461,
    "Ġseethings": 26504,
    "Ġreflected": 2906,
    "passing": 14814,
    "âĢĻ": 378,
    "Ġnar": 7375,
    "dron": 17526,
    "Ġrespectively": 23249,
    "mission": 5972,
    "Ġexpands": 25238,
    "Ġmighty": 4231,
    "Ġchanges": 2285,
    "shr": 10979,
    "beat": 10987,
    "Ġconnect": 794,
    "usion": 3301,
    "Ġintercourse": 10999,
    "ynolds": 10038,
    "Ġspanish": 2823,
    "Ġrequ": 815,
    "Ġped": 7846,
    "Ġnice": 6678,
    "Ġ31": 12134,
    "sleet": 20152,
    "can": 1231,
    "urg": 8143,
    "Ġhorseman": 19610,
    "ython": 1030,
    "assisted": 22312,
    "Ġsmiling": 5474,
    "Ġconscience": 6929,
    "Ġbacks": 8531,
    "Ġglobular": 19011,
    "led": 583,
    "Ġgradient": 450,
    "Ġduke": 7757,
    "pread": 7418,
    "drugg": 20840,
    "sand": 21055,
    "Ġilluminate": 17194,
    "Ġdiscover": 4719,
    "inhabited": 13623,
    "Ġwestward": 24388,
    "Ġintending": 11707,
    "Ġacknowled": 6352,
    "Ġintimacy": 8704,
    "value": 18807,
    "pagan": 17287,
    "Ġreven": 18031,
    "Ġslavery": 16309,
    "Ġsequence": 1972,
    "Ġvideos": 13609,
    "Ġburning": 5979,
    "Ġknowledge": 1446,
    "orate": 10801,
    "Ġ59": 24322,
    "Ġbrit": 6291,
    "rosings": 15647,
    "Ġvenetian": 14849,
    "dan": 17516,
    "canst": 22967,
    "Ġnecessitates": 23933,
    "Ġcompiled": 22575,
    "plicable": 10258,
    "Ġstars": 6151,
    "Ġgills": 17995,
    "Ġgloom": 4204,
    "phants": 9322,
    "Ġfee": 7199,
    "Ġjunks": 25116,
    "reel": 21236,
    "###": 3827,
    "ifiable": 18166,
    "olently": 15760,
    "guest": 19485,
    "Ġperv": 15993,
    "ulpt": 10886,
    "ruined": 18341,
    "Ġgene": 15675,
    "Ġattraction": 18626,
    "reduc": 5459,
    "chief": 4646,
    "ending": 1987,
    "Ġresort": 18564,
    "Ġemergencies": 17364,
    "Ġsubstituting": 26328,
    "imper": 13999,
    "Ġruggedness": 26270,
    "orous": 5294,
    "Ġdefection": 22946,
    "Ġglued": 20592,
    "text": 1970,
    "Ġpreposterous": 13672,
    "acceler": 23599,
    "Ġcreases": 22723,
    "abases": 3003,
    "Ġreasons": 6022,
    "Ġsheath": 14153,
    "Ġfronts": 19003,
    "Ġjuncture": 17131,
    "oning": 7572,
    "Ġnominal": 15171,
    "crossed": 16634,
    "Ġheal": 21685,
    "Ġexhibiting": 19841,
    "ris": 9139,
    "Ġwont": 9851,
    "lung": 17592,
    "furnish": 25339,
    "Ġfut": 15578,
    "ders": 8076,
    "ipping": 2207,
    "Ġobliging": 13247,
    "Ġparc": 10921,
    "Ġferocious": 17421,
    "Ġcoat": 4556,
    "Ġask": 1490,
    "icular": 2021,
    "began": 6427,
    "Ġmolasses": 25629,
    "itia": 11581,
    "Ġheavens": 5050,
    "Ġfoam": 6891,
    "Ġrob": 1313,
    "unities": 15774,
    "Ġtissu": 25921,
    "idual": 1560,
    "itiously": 13873,
    "Ġtransom": 22467,
    "Ġchips": 14181,
    "Ġresolve": 13173,
    "Ġexpectation": 6904,
    "idled": 21773,
    "Ġse": 401,
    "Ġswear": 6462,
    "Ġdiversity": 25285,
    "Ġbattering": 13903,
    "whose": 6852,
    "doc": 23379,
    "Ġgl": 1254,
    "Ġguardsmen": 20633,
    "Ġresponses": 23650,
    "Ġautoregressive": 3431,
    "Ġdenoted": 16567,
    "feel": 3811,
    "Ġfloundered": 18863,
    "cc": 471,
    "Ġwillingness": 24911,
    "<EOS>": 2,
    "Ġpained": 19169,
    "Ġpointed": 4774,
    "hereabouts": 23607,
    "ff": 463,
    "Ġaccosted": 13675,
    "Ġsubstant": 14811,
    "Ġblackness": 9395,
    "Ġcaps": 8417,
    "bruary": 15238,
    "social": 11023,
    "magnitude": 17250,
    "mpus": 13759,
    "Ġanatomy": 12323,
    "Ġmachine": 801,
    "Ġoften": 1951,
    "ail": 566,
    "Ġherd": 7890,
    "grampus": 18618,
    "Ġcents": 17830,
    "Ġstairs": 5540,
    "fe": 677,
    "gments": 12473,
    "Ġjumbled": 22302,
    "perhaps": 4123,
    "Ġtrans": 646,
    "Ġmerest": 14031,
    "Ġlurking": 11290,
    "Ġinvoking": 19147,
    "st": 316,
    "Ġcorrespondent": 19825,
    "Ġalien": 14020,
    "Ġweary": 5635,
    "Ġtremendous": 8354,
    "Ġpatted": 16388,
    "gpt": 5356,
    "Ġstroll": 13356,
    "irresist": 21917,
    "erick": 13850,
    "orses": 6054,
    "sail": 3602,
    "Ġpieces": 7369,
    "repent": 15515,
    "Ġpuffed": 14979,
    "Ġgestic": 21612,
    "discover": 10541,
    "exceedingly": 9568,
    "Ġtypewritten": 16424,
    "rit": 21038,
    "merely": 16137,
    "Ġobligation": 13248,
    "Ġgrasped": 8035,
    "bres": 11472,
    "Ġlashed": 9200,
    "belief": 13285,
    "springs": 24912,
    "ipotence": 22370,
    "rocket": 13946,
    "bus": 5355,
    "ashion": 3858,
    "veil": 18045,
    "wishes": 13809,
    "brink": 23577,
    "Ġdoesn": 7438,
    "Ġreserve": 9973,
    "fr": 4805,
    "ul": 371,
    "Ġpinioned": 21486,
    "Ġclinging": 10293,
    "ned": 3493,
    "moment": 3578,
    "Ġcanall": 10929,
    "enched": 10156,
    "Ġmanif": 8873,
    "wa": 5899,
    "Ġoutrid": 22320,
    "chor": 6148,
    "Ġfoolish": 5982,
    "oise": 15406,
    "happily": 14658,
    "waiting": 12224,
    "bacc": 7796,
    "Ġprecipitous": 24836,
    "moil": 22707,
    "Ġrefreshing": 20267,
    "Ġpunctilious": 26355,
    "accessory": 25500,
    "Ġacquiesce": 20332,
    "wrath": 23759,
    "Ġmod": 498,
    "Ġconce": 3422,
    "Ġformed": 3882,
    "Ġefficiently": 3693,
    "Ġkettle": 26234,
    "Ġmurmured": 7480,
    "Ġrattle": 10900,
    "Ġpebbles": 16132,
    "imental": 16535,
    "Ġbethinking": 25280,
    "Ġzig": 18743,
    "Ġwatery": 6298,
    "quickness": 19853,
    "telesc": 22820,
    "Ġscreen": 17207,
    "Ġhigher": 1820,
    "Ġrailway": 15022,
    "ativeness": 15523,
    "Ġceiling": 7998,
    "gryphon": 15361,
    "fear": 8516,
    "Ġinducements": 24970,
    "Ġdreamy": 14705,
    "sen": 21052,
    "Ġwaste": 9236,
    "entieth": 17981,
    "Ġfusion": 21418,
    "Ġhomage": 12358,
    "enormous": 26167,
    "sery": 17662,
    "fourth": 11329,
    "Ġreverence": 12062,
    "Ġgiver": 21609,
    "lay": 5893,
    "Ġsideways": 6184,
    "Ġverily": 16604,
    "Ġsnow": 3707,
    "Ġdrawled": 23992,
    "ance": 478,
    "Ġoxen": 19954,
    "gings": 7549,
    "Ġrecompense": 14840,
    "Ġaids": 12232,
    "Ġfools": 14483,
    "rie": 2782,
    "behind": 6780,
    "bu": 5132,
    "Ġimmensely": 13598,
    "Ġgroups": 3719,
    "se": 357,
    "ideas": 18584,
    "uttle": 6249,
    "ulent": 21867,
    "Ġsubdued": 11031,
    "Ġbroken": 3449,
    "enari": 21284,
    "Ġhardy": 8569,
    "eye": 6226,
    "Ġlust": 9199,
    "Ġtomorrow": 21517,
    "_--": 20764,
    "Ġmovements": 24358,
    "Ġfarthest": 23120,
    "Ġsharkish": 24502,
    "Ġindirectly": 8941,
    "Ġacceler": 1607,
    "Ġtempor": 2363,
    "Ġpink": 12622,
    "glad": 9010,
    "stupid": 12680,
    "Ġundeserving": 18269,
    "Ġstring": 11830,
    "Ġlookest": 22720,
    "clouds": 25497,
    "Ġposit": 1305,
    "hors": 9600,
    "Ġarri": 2547,
    "Ġsitu": 3496,
    "ig": 323,
    "Ġlain": 17964,
    "Ġtoiling": 15638,
    "Ġepicures": 25880,
    "ileries": 18061,
    "Ġneskye": 21535,
    "Ġuttered": 7280,
    "Ġsuggested": 8322,
    "Ġdancing": 5703,
    "Ġins": 2776,
    "Ġinv": 2224,
    "Ġtout": 17720,
    "violent": 14580,
    "Ġmouldy": 14976,
    "Ġcrouching": 23443,
    "Ġsmith": 16067,
    "Ġsophisticated": 1667,
    "Ġclimates": 25053,
    "Ġhence": 4989,
    "Ġwash": 9705,
    "Ġbutt": 14127,
    "remained": 8573,
    "Ġmach": 13859,
    "Ġph": 1548,
    "assembled": 21549,
    "Ġtangled": 13829,
    "Ġdeclares": 16993,
    "Ġscho": 4439,
    "Ġduring": 873,
    "guinea": 16674,
    "Ġperceptible": 18453,
    "Ġlogic": 13081,
    "saved": 15433,
    "Ġapprehended": 26091,
    "Ġwhirled": 14962,
    "fordshire": 4678,
    "Ġst": 332,
    "Ġabund": 8867,
    "aples": 20770,
    "Ġriding": 14096,
    "conclusive": 25674,
    "witness": 10037,
    "ä": 165,
    "increase": 20271,
    "afterwards": 7484,
    "Ġfainted": 8795,
    "Ġamusement": 8057,
    "atmospheric": 17777,
    "Ġpy": 21454,
    "Ġshiver": 12771,
    "Ġtop": 2466,
    "Ġbewit": 15731,
    "corrid": 24483,
    "Ġworn": 6446,
    "self": 617,
    "Ġsegmentation": 17342,
    "cely": 3574,
    "order": 1955,
    "Ġunreserved": 19400,
    "cushion": 20823,
    "Ġmuster": 16125,
    "pillar": 5618,
    "Ġxvi": 19106,
    "Ġencoder": 3635,
    "specific": 10499,
    "Ġglistened": 20175,
    "Ġdashes": 21438,
    "gossip": 23407,
    "holes": 12056,
    "Ġpursue": 6316,
    "aken": 1868,
    "lin": 9605,
    "Ġmedicine": 15209,
    "Ġsaturn": 22905,
    "Ġformula": 2862,
    "Ġsupply": 6069,
    "Ġremembr": 24172,
    "Ġorgies": 18286,
    "Ġbiting": 17863,
    "Ġresume": 18566,
    "Ġsubord": 22792,
    "half": 4932,
    "courage": 17511,
    "Ġthreshold": 2803,
    "Ġthrone": 12217,
    "Ġpatagonian": 20538,
    "Ġregimentals": 19860,
    "Ġubiqu": 18049,
    "Ġdish": 6138,
    "atural": 937,
    "ffy": 18319,
    "Ġtransf": 22466,
    "Ġtranspired": 16785,
    "Ġcommodores": 25375,
    "Ġgas": 8134,
    "ggling": 19096,
    "Ġcreating": 2994,
    "Ġcase": 1938,
    "Ġsatirical": 26281,
    "Ġscraped": 16904,
    "Ġdecay": 1011,
    "condite": 23248,
    "Ġguinea": 8949,
    "Ġaffidavit": 20726,
    "utral": 12667,
    "bering": 18694,
    "Ġassigned": 16313,
    "Ġmorphology": 3007,
    "yielded": 25757,
    "hogs": 20085,
    "Ġlightning": 5750,
    "Ġbressed": 21390,
    "Ġmany": 1102,
    "Ġwigwam": 11429,
    "find": 6954,
    "Ġshelves": 14999,
    "Ġrobinson": 17465,
    "fing": 13715,
    "Ġgener": 582,
    "Ġdisputes": 25826,
    "Ġliterature": 17150,
    "Ġ41": 24080,
    "Ġexception": 11217,
    "Ġintroduced": 7692,
    "faces": 13722,
    "Ġmemoirs": 26206,
    "Ġoutskirts": 17459,
    "Ġirons": 7697,
    "Ġoutwardly": 25003,
    "attempted": 20177,
    "Ġregardless": 19326,
    "fill": 15353,
    "icant": 21566,
    "combe": 7665,
    "Ġsharp": 2413,
    "Ġperman": 10966,
    "Ġhurry": 4914,
    "Ġclosing": 11775,
    "Ġhandwriting": 14321,
    "Ġbr": 1071,
    "ipp": 10104,
    "Ġbrag": 23837,
    "Ġtashtego": 4489,
    "Ġopened": 3513,
    "pe": 1438,
    "succeed": 10331,
    "Ġwil": 4582,
    "commotion": 24914,
    "Ġprocessing": 889,
    "Ġcyn": 13888,
    "Ġsling": 21223,
    "Ġreconc": 9685,
    "Ġtradeoff": 2653,
    "ickory": 22673,
    "Ġpeeped": 10014,
    "Ġpostmark": 16726,
    "Ġfo": 1647,
    "Ġphrase": 11188,
    "answering": 26005,
    "Ġenchant": 7185,
    "Ġmace": 21312,
    "rec": 6006,
    "Ġeyes": 1338,
    "iber": 6507,
    "Ġdreamt": 23942,
    "Ġpau": 17908,
    "laws": 19810,
    "clean": 14762,
    "Ġinvested": 7279,
    "Ġstubbornness": 25380,
    "thoughtfully": 24047,
    "Ġexempl": 21835,
    "vious": 1785,
    "ogrand": 26263,
    "Ġunrel": 14697,
    "Ġdeposited": 25485,
    "pips": 21022,
    "Ġpron": 6452,
    "state": 13981,
    "Ġdoor": 1740,
    "Ġrejo": 5918,
    "Ġskipper": 22802,
    "zor": 15460,
    "Ġcigars": 12256,
    "pudding": 17648,
    "ilated": 18060,
    "Ġfil": 3474,
    "Ġanyhow": 14256,
    "Ġbeggars": 20632,
    "Ġdull": 6385,
    "ability": 717,
    "decease": 25558,
    "Ġrepresent": 1211,
    "lorn": 12491,
    "_,": 2794,
    "Ġsprang": 5064,
    "Ġmechanis": 1214,
    "Ġcoherent": 3264,
    "sails": 7497,
    "Ġdescribe": 2761,
    "Ġsolicited": 20040,
    "went": 6513,
    "parted": 21018,
    "Ġbrack": 23839,
    "loun": 17589,
    "Ġwritten": 4170,
    "angels": 22111,
    "tackles": 25625,
    "Ġpredef": 18508,
    "Ġplausible": 26554,
    "accompl": 9882,
    "Ġmembrane": 20507,
    "Ġprocuring": 16869,
    "azing": 7706,
    "hval": 20900,
    "Ġappo": 8500,
    "Ġparliament": 18303,
    "age": 504,
    "Ġsleepy": 8269,
    "plendent": 21969,
    "Ġapparently": 6779,
    "Ġhooks": 14970,
    "Ġplayfully": 19240,
    "spite": 16141,
    "willingly": 11985,
    "Ġdigging": 14940,
    "Ġit": 339,
    "Ġcardboard": 19982,
    "Ġingenious": 12351,
    "Ġkidn": 20208,
    "Ġperformed": 8550,
    "gree": 10702,
    "Ġhus": 3093,
    "Ġquantization": 19856,
    "Ġblasts": 19999,
    "advent": 10222,
    "flames": 14714,
    "deploy": 22147,
    "endent": 15925,
    "Ġfew": 1192,
    "anders": 18155,
    "ool": 17619,
    "Ġvesture": 20065,
    "Ġends": 8239,
    "Õ": 150,
    "rum": 3471,
    "Ġembodiment": 20531,
    "pre": 648,
    "Ġvariation": 22669,
    "Ġsplend": 9900,
    "inition": 11558,
    "Ġswarming": 16275,
    "mortar": 25409,
    "Ġalco": 21787,
    "Ġdeserts": 10509,
    "Ø": 153,
    "Ġreminiscences": 26271,
    "hers": 7636,
    "bread": 10687,
    "Ġlewis": 15728,
    "Ġcrags": 23529,
    "unalterable": 21891,
    "Ġconjugal": 25104,
    "ems": 5235,
    "thanked": 24326,
    "Ó": 148,
    "ges": 2870,
    "Ġprevented": 5944,
    "Ġchambermaid": 24305,
    "Ġoverhead": 11776,
    "Ġtalk": 1965,
    "Ġquarto": 17298,
    "Ġclings": 15966,
    "Ġbradstreet": 9578,
    "Ġrelentless": 26279,
    "disinterested": 23503,
    "Ġreco": 9795,
    "Ġmonoton": 3636,
    "simon": 16974,
    "onel": 3091,
    "Ġsheer": 14152,
    "Ġpurposes": 11169,
    "wondering": 19847,
    "Ġphysiognomical": 25612,
    "°": 113,
    "neath": 12869,
    "Ġmomentous": 16172,
    "Ġglobe": 6078,
    "Ġvenge": 5420,
    "plexion": 14262,
    "Ġrejoice": 10210,
    "expedition": 26079,
    "huzza": 20915,
    "cork": 20798,
    "iably": 13740,
    "Ġladder": 8601,
    "mortals": 25410,
    "Ġinterconnected": 1343,
    "Ġconstable": 19068,
    "rinted": 21046,
    "Ġdecoyed": 18491,
    "Ġattributed": 11839,
    "Ġfleets": 23777,
    "Ġnetworks": 598,
    "Ġmuch": 923,
    "local": 22514,
    "Ġstands": 5259,
    "nib": 5214,
    "Ġgarden": 3825,
    "Ġubiquitous": 26197,
    "Ġhansom": 13667,
    "Ġlawy": 9457,
    "eties": 10838,
    "Ġsurvey": 13596,
    "saf": 11526,
    "Ġlying": 4828,
    "anel": 21360,
    "fri": 20856,
    "Ġkeenly": 9487,
    "94": 4804,
    "menced": 23148,
    "mrs": 3744,
    "Ġ96": 24594,
    "Ġbehoo": 19035,
    "rigged": 17062,
    "laughed": 20284,
    "Ġpreservation": 24632,
    "dition": 15341,
    "usages": 22285,
    "Ġemployer": 19435,
    "hanging": 10102,
    "Ġsurround": 4619,
    "Ġgrie": 3583,
    "co": 2431,
    "Ġdire": 865,
    "Ġdisc": 943,
    "Ġcommunic": 5751,
    "Ġwardrobe": 17227,
    "Ġdeafened": 25652,
    "imodal": 17449,
    "Ġchar": 1703,
    "Ġcontain": 1552,
    "Ġlieu": 19567,
    "Ġdit": 21424,
    "âĢľâĢĺ": 1482,
    "Ġpreside": 18366,
    "myster": 16266,
    "bib": 17493,
    "observation": 17271,
    "ittered": 18440,
    "Ġunc": 2126,
    "Ġblasphe": 17409,
    "Ġsignals": 10587,
    "Ġbenignity": 18782,
    "Ġerecting": 24653,
    "Ġshaken": 10266,
    "itals": 17822,
    "cen": 17504,
    "magnifying": 25393,
    "luc": 9754,
    "Ġwhirlp": 16964,
    "anything": 5518,
    "Ġthey": 578,
    "ipotent": 10963,
    "lab": 3457,
    "nurse": 15211,
    "thrusting": 20262,
    "asburgh": 15650,
    "Ġscarcity": 23830,
    "Ġfearfully": 23513,
    "Ġswaying": 15048,
    "g": 75,
    "aside": 10193,
    "national": 21000,
    "Ĝ": 221,
    "Ġsubproblems": 12961,
    "Ġplaid": 22604,
    "Ġsnorting": 23744,
    "mess": 13755,
    "Ġindelicacy": 25696,
    "imod": 15713,
    "tempted": 26404,
    "loa": 18534,
    "athies": 22704,
    "Ġpassive": 22845,
    "Ġmam": 8407,
    "roman": 22009,
    "Ġappend": 18360,
    "Ġsignification": 19204,
    "Ġgibberish": 25787,
    "Ġreasoned": 23065,
    "Ġbrigandish": 25488,
    "Ċ": 203,
    "mmet": 10989,
    "Ġreports": 19084,
    "gar": 5614,
    "dishonourable": 26367,
    "ma": 1150,
    "Ġwallowed": 24045,
    "everlasting": 18773,
    "Ġpersian": 11090,
    "aculate": 16085,
    "Ġreligious": 25124,
    "distant": 13338,
    "promontory": 24727,
    "Ġsuspic": 4473,
    "Ġboyhood": 23758,
    "Ġinnocently": 24031,
    "pest": 6965,
    "iences": 6957,
    "wide": 10139,
    "elly": 17982,
    "onious": 15520,
    "Ġexchange": 15757,
    "ackinaw": 22430,
    "homely": 25618,
    "Ġarid": 22181,
    "iable": 3335,
    "data": 2232,
    "Ġunforeseen": 22058,
    "Ġdevelop": 1672,
    "Ġthese": 818,
    "Ġdair": 17891,
    "looks": 12020,
    "standers": 18480,
    "Ġtrout": 22366,
    "Ġaccurately": 3892,
    "sm": 3435,
    "chains": 9687,
    "indian": 11781,
    "Ġrecall": 3855,
    "Ġcrozetts": 19632,
    "Ġfrig": 13084,
    "Ġinsurmountable": 16533,
    "Ġarmitage": 23582,
    "james": 15375,
    "Ġstil": 15721,
    "Ġusefulness": 19411,
    "Ġsakes": 18327,
    "Ġfisheries": 17440,
    "ilty": 6395,
    "magnetic": 20555,
    "Ġdiff": 3118,
    "chat": 21690,
    "Ġdirectly": 2104,
    "start": 7599,
    "yield": 13811,
    "Ġgre": 1580,
    "Ġclos": 4551,
    "Ġgales": 12669,
    "Ġeu": 6391,
    "Ġz": 999,
    "Ġanoint": 25538,
    "subject": 6634,
    "relatively": 24017,
    "Ġdesiring": 14416,
    "tfordshire": 4812,
    "Ġgathers": 24742,
    "Ġbench": 7238,
    "Ġcrane": 23439,
    "sat": 4811,
    "eprints": 12796,
    "astonished": 15034,
    "told": 7812,
    "ousness": 10276,
    "aciousness": 18607,
    "Ġabilities": 8869,
    "concern": 5877,
    "Ġshortly": 6198,
    "Ġcran": 12003,
    "ulus": 21869,
    "afforded": 25866,
    "Ġmelancholy": 5605,
    "rose": 6016,
    "Ġappertaining": 26534,
    "Ġhymn": 24517,
    "Ġconj": 8462,
    "Ġsecrecy": 7316,
    "Ġsooty": 25816,
    "Ġdistension": 22509,
    "Ġbeech": 18085,
    "Ġsympathising": 24298,
    "mighty": 9468,
    "leaped": 17845,
    "Ġparis": 8180,
    "¶": 119,
    "Ġpublisher": 24068,
    "Ġarve": 15896,
    "vine": 10735,
    "Ġincisive": 18571,
    "Ġneighbor": 25806,
    "Ġstaving": 21742,
    "Ġcellar": 8060,
    "Ġintellectual": 11402,
    "Ġsuccour": 20438,
    "Ġintact": 21994,
    "Ġthunder": 4825,
    "Ġconveys": 16856,
    "est": 501,
    "Ġadmiring": 16480,
    "pooh": 18800,
    "Ġ43": 14771,
    "Ġnotions": 14101,
    "Ġattitudes": 16102,
    "Ġyards": 5371,
    "acquainted": 7313,
    "Ġvouch": 15812,
    "Ġconversation": 3331,
    "soundest": 24796,
    "winding": 16721,
    "Ġprevention": 16095,
    "Ġmarshalled": 25316,
    "Ġidentified": 19152,
    "Ġoccasions": 7989,
    "lins": 2025,
    "Ġcompanies": 14558,
    "Ġhammer": 6096,
    "Ġscratching": 20372,
    "Ġmarvel": 23037,
    "Ġpeeled": 14320,
    "Ġdo": 510,
    "Ġmanhandle": 22334,
    "Ġunhe": 22015,
    "Ġcategories": 4480,
    "boiling": 19001,
    "Ġpolicy": 10458,
    "tles": 10731,
    "Ġherb": 15859,
    "Ġencourages": 2059,
    "Ġexpecting": 10437,
    "Ġpurp": 2390,
    "onstr": 12550,
    "poises": 11892,
    "Ġvineyards": 25109,
    "_)âĢĶ": 20147,
    "Ġnavigation": 9995,
    "Ġriddle": 14822,
    "Ġseeming": 8543,
    "Ġinvests": 14870,
    "Ġexists": 14043,
    "throughout": 24089,
    "rence": 5554,
    "diversity": 25898,
    "Ġcouch": 12575,
    "Ġpurses": 23478,
    "included": 19209,
    "Ġlamented": 24996,
    "Ġhastily": 5763,
    "Ġfled": 6673,
    "Ġcomprehended": 11295,
    "Ġpillow": 10040,
    "Ġguido": 2973,
    "Ġsimilarly": 24309,
    "Ġ67": 19663,
    "bright": 8991,
    "Ġdoted": 21437,
    "ld": 385,
    "venty": 6428,
    "Ġteneriffe": 26415,
    "Ġskrimshander": 22803,
    "withstanding": 8947,
    "Ġdoing": 3660,
    "ª": 108,
    "ante": 11724,
    "ouncing": 8497,
    "Ġsymptoms": 8708,
    "Ķ": 247,
    "Ġunivers": 2127,
    "Ġsoup": 7069,
    "dignity": 15348,
    "admire": 24946,
    "Ġmerid": 13196,
    "rel": 3753,
    "rier": 9244,
    "Ġruddy": 17127,
    "Ġparamount": 15881,
    "Ġrugged": 18721,
    "fedallah": 25523,
    "Ġretiring": 16283,
    "game": 11492,
    "sharp": 10307,
    "Ġpunct": 8664,
    "Ġsongs": 13423,
    "ercial": 21277,
    "Ġ44": 16680,
    "Ġway": 1086,
    "Ġfailed": 6674,
    "Ġexchanging": 18134,
    "Ġq": 1085,
    "dependence": 17169,
    "enhall": 13852,
    "Ġministers": 22837,
    "lu": 596,
    "Ġhistories": 14688,
    "hip": 8744,
    "networks": 2404,
    "Ġwal": 6518,
    "Ġkept": 3348,
    "bowing": 24453,
    "Ġembarked": 17136,
    "Ġfitted": 6245,
    "continu": 5501,
    "Ġinsensible": 12328,
    "al": 292,
    "away": 4627,
    "Ġunflinching": 26513,
    "undoubtedly": 13315,
    "Ġdet": 512,
    "Ġdazzling": 15214,
    "Ġconclusions": 10555,
    "below": 12125,
    "Ġpitiful": 13242,
    "idered": 4555,
    "Ġsuffer": 4723,
    "Ġcruelty": 9971,
    "Ġairy": 23320,
    "Ġberm": 21386,
    "who": 2442,
    "Ġwith": 349,
    "Ġantagonist": 26330,
    "turning": 8318,
    "tall": 17674,
    "ike": 5000,
    "wall": 10138,
    "honey": 20907,
    "pond": 21015,
    "Ġagreed": 7031,
    "ched": 1546,
    "Ġbeginning": 4246,
    "Ġclutching": 24954,
    "----âĢĻ": 24099,
    "Ġmind": 1616,
    "bearance": 22499,
    "fro": 8736,
    "Ġprovided": 6578,
    "Ġsufferable": 16258,
    "Ġn": 300,
    "Ġdis": 695,
    "Ġsensibly": 14515,
    "activation": 3232,
    "returning": 12209,
    "gratulation": 24348,
    "Ġfiles": 21417,
    "Ġgateway": 24799,
    "Ġcontinuing": 14399,
    "Ġdolph": 12383,
    "Ġsallies": 21232,
    "Ġoriginate": 24122,
    "infl": 15489,
    "Ġdropped": 4474,
    "Ġadvanced": 1512,
    "Ġnavel": 24576,
    "Ġswell": 8951,
    "Ġwork": 1321,
    "Ġreservo": 16832,
    "Ġcrib": 21351,
    "Ġmathemat": 3204,
    "ergy": 2357,
    "È": 137,
    "Ġstrip": 9423,
    "Ġaccidents": 10297,
    "odious": 21817,
    "houn": 20895,
    "jammed": 25907,
    "jet": 13744,
    "resist": 8277,
    "oof": 15407,
    "work": 1723,
    "Ġporpoises": 13385,
    "ignant": 11130,
    "Ġicicles": 25265,
    "Ġcom": 368,
    "Ġlass": 15651,
    "Ġcontrary": 5261,
    "Ġhysterics": 26094,
    "Ġleast": 2062,
    "Ġcooked": 13273,
    "Ġacquaint": 13049,
    "Ġwarped": 25038,
    "Ġworth": 4419,
    "zas": 17713,
    "Ġtattooed": 11379,
    "trampled": 26335,
    "Ġult": 9076,
    "Ġdeliverance": 15160,
    "cloudless": 20335,
    "itic": 11580,
    "Ġdemanded": 8328,
    "Ġed": 2242,
    "twice": 14622,
    "Ġdisposal": 19379,
    "Ġomen": 11578,
    "gener": 3129,
    "culous": 11141,
    "Ġdecrease": 4203,
    "Ġ121": 24465,
    "independ": 15984,
    "Ġalluded": 7887,
    "Ġfeel": 1261,
    "ads": 5718,
    "closed": 23156,
    "Ġsolar": 22887,
    "Ġfriendly": 9822,
    "Ġamid": 4959,
    "Ġmagnus": 18960,
    "conject": 8882,
    "Ġamply": 22487,
    "Ġunsophisticated": 25993,
    "Ġbeauties": 10446,
    "Ġnursing": 12218,
    "Ġflapped": 23015,
    ")âĢĶ": 20744,
    "Ġuse": 821,
    "Ġchamois": 16801,
    "movable": 14326,
    "determined": 9081,
    "Ĺ": 250,
    "india": 22376,
    "Ġendeavor": 16546,
    "Ġbuild": 6475,
    "boards": 23257,
    "shook": 19858,
    "Ġfurther": 1055,
    "additional": 20467,
    "Ġenter": 4028,
    "Ġabstracted": 17184,
    "Ġshape": 5639,
    "Ġcrimes": 8591,
    "Ġbuckler": 24860,
    "Ġfrolic": 23928,
    "Ġstriving": 8997,
    "inter": 2944,
    "Ġneedlessly": 23631,
    "Ġenergies": 25460,
    "Ġpaces": 13921,
    "Ġdarker": 13123,
    "respectively": 24699,
    "Ġportion": 7492,
    "mountains": 15183,
    "em": 390,
    "Ġseverity": 15820,
    "Ġprior": 11319,
    "Ġune": 4600,
    "asible": 21546,
    "Ġcoming": 2612,
    "Ġrefrained": 14346,
    "han": 12476,
    "ĠâĢľâĢĶ": 9736,
    "Ġintertw": 18589,
    "neither": 9760,
    "inging": 5909,
    "Ġtoast": 21516,
    "Ġlanes": 19768,
    "Ġwhere": 783,
    "H": 44,
    "chess": 16575,
    "Ġinquir": 4245,
    "Ġann": 4492,
    "parameter": 3037,
    "deal": 12803,
    "Ġfins": 9665,
    "Ġspect": 3552,
    "ashtego": 4103,
    "satisfy": 16893,
    "creation": 14808,
    "Ġallegro": 25795,
    "Ġapproximate": 2339,
    "harpoone": 6109,
    "Ġtalker": 23374,
    "Ġwoll": 21296,
    "Ġenergetic": 15200,
    "ois": 9136,
    "wes": 17704,
    "aster": 1866,
    "Ġperpendicular": 7209,
    "ney": 2488,
    "Ġperemptory": 25741,
[...]
