{
  "metadata": {
    "vocab_size": 26613,
    "algorithm": "BPE",
    "created_at": "2026-07-12 05:26:08",
    "special_tokens": [
      "<PAD>",
      "<SOS>",
      "<EOS>",
      "<UNK>",
      "<MASK>"
    ]
  },
  "vocab": {
    "Ġreposing": 23360,
    "verdict": 21727,
    "Ġordin": 16649,
    "float": 19804,
    "Ġelaborate": 18646,
    "Ġdeduced": 12204,
    "mechanically": 17298,
    "Ġpushing": 10818,
    "Ġbeaufort": 13566,
    "underneath": 23787,
    "Ġgrazed": 15830,
    "yourselves": 24958,
    "othed": 16509,
    "negro": 18487,
    "Ġnatures": 16504,
    "Ġoutrid": 22313,
    "ink": 755,
    "heredit": 21208,
    "Ġsnaky": 23741,
    "Ġmight": 963,
    "Ġchisel": 20366,
    "Ġmaintenance": 17460,
    "Ġwithhold": 18115,
    "Ġincognita": 26550,
    "Ġquoin": 22416,
    "Ġplanisphere": 26606,
    "scale": 3534,
    "Ġwhis": 3504,
    "appears": 12057,
    "Ġvictoria": 14871,
    "Ġsolemnly": 8024,
    "Ġfragmentary": 25855,
    "okingly": 22376,
    "Ġexisted": 15749,
    "Ġsecre": 5493,
    "Ġquick": 2582,
    "Ġadjac": 18292,
    "Ġpunctually": 17137,
    "Ġshouts": 19536,
    "Ġrefres": 14340,
    "Ġtopmost": 14586,
    "Ġlaurel": 20653,
    "Ġtopsails": 19193,
    "hever": 13829,
    "cur": 3271,
    "ipp": 10101,
    "Ġours": 4610,
    "detained": 24381,
    "orate": 10799,
    "Ġsalted": 14754,
    "office": 16393,
    "iv": 431,
    "gave": 7800,
    "Ġobservations": 13551,
    "Ġbackbone": 22639,
    "Ġignited": 25069,
    "Ġjerking": 12242,
    "borean": 25743,
    "Ġsquad": 22834,
    "Ġbefell": 14008,
    "Ġstructural": 2800,
    "iftings": 23224,
    "Ġnominally": 17230,
    "Ġextra": 4053,
    "Ġhospit": 7514,
    "Ġhearties": 18967,
    "Ġplying": 17913,
    "Ġsyllables": 25298,
    "hatherley": 17567,
    "Ġpam": 21453,
    "ivided": 22077,
    "Ġindicate": 23722,
    "Ġdetected": 18847,
    "ivory": 10267,
    "Ġports": 10817,
    "Ġsprings": 16686,
    "Ġomit": 17815,
    "Ġcalm": 3447,
    "Ġgenerator": 3382,
    "Ġlongest": 18629,
    "Ġlengthen": 15650,
    "Ġcontrari": 23348,
    "flinging": 20867,
    "detached": 19673,
    "ring": 1752,
    "Ġdocuments": 10021,
    "y": 93,
    "Ġheap": 12674,
    "Ġcous": 3437,
    "dies": 15336,
    "yards": 9622,
    "Ġslavery": 16304,
    "Ġstile": 21730,
    "Ġdiscriminative": 4326,
    "wives": 15453,
    "ething": 1605,
    "Ġtram": 11090,
    "Ġtigers": 25758,
    "Ġnocturnal": 20714,
    "Ġpeninsula": 23194,
    "Ġmasking": 2421,
    "Ġmerged": 19295,
    "Ġsquatted": 25841,
    "com": 973,
    "accurately": 25861,
    "caroline": 24148,
    "tal": 17669,
    "Ġplead": 14453,
    "Ġsust": 7006,
    "Ġunnatural": 7190,
    "reve": 12535,
    "č": 206,
    "Ġprocess": 562,
    "aph": 10953,
    "âĢľ": 344,
    "irting": 11683,
    "Ġalbert": 12702,
    "Ġarise": 7897,
    "Ġcheers": 16363,
    "Ġdefy": 11894,
    "ike": 5000,
    "dick": 11478,
    "acute": 22596,
    "Ġgrud": 17995,
    "Ġformal": 2942,
    "fleet": 15012,
    "chain": 18039,
    "Ġtashtego": 4485,
    "Ġpacific": 5153,
    "adm": 7608,
    "ulated": 6030,
    "Ġcombat": 16180,
    "oubled": 23644,
    "shutters": 20312,
    "qualified": 17097,
    "vy": 21106,
    "did": 3196,
    "projecting": 26073,
    "ie": 728,
    "Ġappals": 22217,
    "Ġe": 312,
    "adagrad": 9689,
    "crack": 19839,
    "streamed": 25966,
    "rates": 21037,
    "ucy": 15442,
    "lish": 1954,
    "against": 5870,
    "Ġneighbours": 8303,
    "adopt": 25544,
    "Ġinstituted": 18701,
    "Ġsporting": 16998,
    "tese": 21082,
    "Ġrock": 5310,
    "Ġcomp": 724,
    "Ġsh": 419,
    "Ġpedro": 14993,
    "Ġrattling": 11394,
    "Ġfilial": 16619,
    "Ġsacrificial": 24871,
    "Ġintercourse": 10997,
    "Ġgives": 5018,
    "Ġdistantly": 18531,
    "Ġvirt": 3907,
    "Ġmoodily": 19833,
    "curiosity": 8623,
    "Ġoblong": 14319,
    "ev": 6952,
    "absolutely": 10644,
    "writhed": 26080,
    "Ġstormy": 16727,
    "yet": 3752,
    "ieve": 1663,
    "Ġflavor": 16248,
    "gunpowder": 25339,
    "Ġh": 290,
    "Ġsleeve": 20139,
    "Ġpython": 1072,
    "break": 6101,
    "Ġdeaden": 23459,
    "Ġstill": 1159,
    "Ġarms": 3965,
    "truck": 15439,
    "eliest": 14744,
    "Ġpointing": 5661,
    "colnett": 19329,
    "Ġwednesday": 9023,
    "Ġmeadow": 17150,
    "Ġreclining": 26033,
    "clifford": 23155,
    "Ġnailing": 21525,
    "Ġenigmatical": 20596,
    "ogn": 2451,
    "Ġmaty": 22911,
    "igms": 3049,
    "Ġbluff": 16515,
    "Ġnow": 691,
    "etrics": 21583,
    "ives": 1411,
    "Ġregularizer": 2343,
    "Ġvenetian": 14845,
    "fortunes": 6332,
    "Ġnervousness": 23555,
    "Ġescaping": 13133,
    "mayhew": 23989,
    "Ġreligious": 25121,
    "Ġtemper": 956,
    "Ġext": 901,
    "pooh": 18801,
    "Ġugl": 12678,
    "Ġshake": 6034,
    "Ġshoving": 23487,
    "Ġattain": 12743,
    "ĠâĢľâĢĺ": 8503,
    "Ġboundary": 11221,
    "Ġcistern": 17379,
    "Ġ1000": 3119,
    "mn": 3576,
    "Ġunfold": 8023,
    "Ġmanoir": 22329,
    "Ġpersian": 11091,
    "Ġpapered": 20129,
    "caves": 20815,
    "luyt": 18454,
    "Ġtechnical": 17190,
    "Ġdelighted": 5499,
    "smeer": 26147,
    "Ġfrig": 13078,
    "detective": 24382,
    "redit": 3876,
    "Ġolfactories": 26171,
    "Ġlog": 1681,
    "Ġshortness": 23480,
    "swiss": 24254,
    "Ġboughs": 20487,
    "Ġmorocc": 22975,
    "Ġstruggles": 16576,
    "Ġbursting": 8655,
    "father": 3775,
    "aborate": 14020,
    "Ġspringing": 10517,
    "Ġconsider": 2569,
    "venison": 22625,
    "wrong": 13204,
    "Ġscared": 14186,
    "rud": 4191,
    "mentioning": 24885,
    "Ġprevents": 2559,
    "multiple": 15105,
    "Ġnour": 10829,
    "eck": 20843,
    "Ġarticles": 7108,
    "itect": 1004,
    "Ġranges": 2885,
    "Ġhearth": 11978,
    "those": 4494,
    "ó": 180,
    "ugal": 19022,
    "Ġo": 275,
    "Ġ34": 16676,
    "Ġfarthing": 14452,
    "horses": 17566,
    "deacon": 22145,
    "Ġventil": 8020,
    "placidity": 25988,
    "Ġpublished": 11241,
    "Ġfrankness": 16745,
    "Ġhood": 10822,
    "Ġdesired": 4662,
    "Ġbloody": 9887,
    "Ġtub": 7146,
    "Ġestablished": 9068,
    "Ġpassage": 3885,
    "Ġdissembling": 26254,
    "Ġimpregn": 26022,
    "Ġrev": 6988,
    "fishermen": 17060,
    "ject": 875,
    "Ġtrophy": 20005,
    "tinted": 17682,
    "Ġstrong": 1785,
    "Ġmiller": 19882,
    "Ġoccur": 1085,
    "Ġcough": 11579,
    "e": 73,
    "Ġloadstone": 25816,
    "wake": 11544,
    "nut": 12491,
    "ê": 171,
    "im": 327,
    "Ġspending": 10922,
    "batt": 20777,
    "Ġdine": 7366,
    "sky": 12507,
    "Ġcelebrate": 26357,
    "Ġbirch": 26174,
    "shavings": 22456,
    "terrors": 25041,
    "izar": 14048,
    "extinguished": 16147,
    "nett": 16218,
    "Ġdur": 11590,
    "Ġbaronial": 23792,
    "spond": 5566,
    "Ġwre": 5077,
    "Ġconnectivity": 3665,
    "Ġtall": 4036,
    "Ġgemini": 26468,
    "ĭ": 238,
    "Ġtest": 1557,
    "Ġphys": 5653,
    "happiest": 19331,
    "Ġstreng": 18070,
    "Ġsetbacks": 11062,
    "Ġcitations": 25437,
    "Ġclerval": 4651,
    "rifle": 21045,
    "Ð": 145,
    "pped": 2000,
    "Ġberth": 8679,
    "idly": 12696,
    "Ġcub": 8414,
    "Ġwilliam": 3483,
    "Ġrevenue": 26194,
    "Ġbehave": 23297,
    "Ġtortures": 14921,
    "Ġgrapnels": 25551,
    "Ġidly": 16402,
    "consum": 12866,
    "Ġamazing": 9975,
    "jol": 20924,
    "pips": 21019,
    "Ġlatterly": 24081,
    "Ġinstrum": 6055,
    "Ġflour": 8943,
    "Ġharpooning": 23976,
    "Ġcomplaisance": 19447,
    "Ġnursery": 19749,
    "Ġwitness": 4619,
    "Ġhedgehog": 10643,
    "Ġseeth": 21951,
    "Ġlooks": 4166,
    "Ġbarrowful": 25595,
    "Ġauxiliary": 26417,
    "firm": 10697,
    "Ġfaintest": 24568,
    "osal": 11756,
    "Ġeffaced": 18542,
    "Ġheed": 5630,
    "ostentatious": 20651,
    "Ġpedestrian": 25879,
    "upwards": 18863,
    "Ġfair": 2839,
    "arpaul": 14535,
    "belt": 24032,
    "Ġseasoned": 24404,
    "ubb": 1654,
    "Ġbrazier": 26320,
    "Ġodor": 12146,
    "...": 24548,
    "enged": 23145,
    "Ġbraz": 19356,
    "keep": 3849,
    "fri": 20853,
    "Ġpurchas": 19873,
    "Ġdiadem": 24741,
    "depart": 12262,
    "Ġboister": 12915,
    "ailing": 7021,
    "outh": 2687,
    "some": 2238,
    "project": 16422,
    "Ġmoved": 4838,
    "Ġmam": 8405,
    "Ġsaf": 4000,
    "maged": 15391,
    "ert": 2632,
    "Ġaccumulated": 11928,
    "perth": 22179,
    "Ġuncont": 14114,
    "join": 12110,
    "Ġsharpen": 13567,
    "justice": 7958,
    "Ġoutset": 15952,
    "Ġindignity": 18832,
    "Ġgasping": 17037,
    "anning": 10163,
    "protected": 19920,
    "Ġcandidate": 16700,
    "Ġsubaltern": 22788,
    "Ġcircumstantial": 14642,
    "rudent": 6482,
    "Ġintegral": 25008,
    "setting": 13282,
    "expressed": 9040,
    "Ġolder": 9325,
    "Ġbulwarks": 5591,
    "looking": 4030,
    "spouting": 25002,
    "output": 4401,
    "narrated": 25621,
    "sies": 21053,
    "previously": 17206,
    "Ġquestioned": 14619,
    "blow": 9102,
    "ributed": 8215,
    "Ġserious": 4321,
    "majesty": 26280,
    "Ġreserves": 19669,
    "Ġmoonshine": 19596,
    "greg": 6647,
    "mission": 5970,
    "Ġalike": 8147,
    "kers": 7132,
    "Ġspreading": 13376,
    "months": 9070,
    "Ġpeculiar": 3154,
    "Ġparagra": 15876,
    "bl": 4140,
    "offer": 19059,
    "Ġhabit": 6771,
    "Ġattributed": 11833,
    "Ġband": 5290,
    "================": 3722,
    "Ġclin": 14199,
    "Ġwager": 17792,
    "Ġundertake": 14478,
    "nial": 20983,
    "Ġthousands": 6748,
    "Ġbeen": 626,
    "england": 18928,
    "Ġenabled": 9294,
    "Ġsangu": 15502,
    "Ġproceeding": 9904,
    "Ġexplored": 23515,
    "Ġprinted": 11946,
    "new": 1467,
    "Ġcovering": 13253,
    "eng": 1487,
    "Ġfingertips": 24014,
    "Ġindistinctly": 26117,
    "fearfully": 25116,
    "Ġman": 544,
    "Ġn": 300,
    "Ġanxious": 4516,
    "po": 1137,
    "Ġlightened": 23260,
    "Ġaffairs": 6877,
    "smo": 10124,
    "Ġgem": 21592,
    "embarrassed": 20595,
    "Ġforenoon": 19126,
    "invite": 25088,
    "Ġwitty": 21291,
    "Ġremonstrate": 22791,
    "Ġdifferences": 18714,
    "Ġcomfortably": 16613,
    "Ġsecurely": 16801,
    "Ġvulgar": 13602,
    "Ġemer": 5959,
    "Ġsuppressing": 22999,
    "Ġyoung": 1505,
    "Ġcont": 621,
    "Ġvigorously": 11298,
    "Ġampl": 22478,
    "resp": 13837,
    "Ġmetal": 9382,
    "earn": 10695,
    "attent": 9357,
    "asable": 21539,
    "pursu": 11391,
    "Ġcircumnavigating": 25614,
    "Ġadoption": 24948,
    "pun": 9616,
    "Ġhoist": 11973,
    "Ġchains": 8251,
    "Ġsubst": 4273,
    "Ġrele": 2918,
    "vict": 11539,
    "meadow": 18677,
    "Ġjan": 11759,
    "rushed": 10583,
    "Ġhandspike": 22696,
    "anged": 3587,
    "Ġass": 1503,
    "Ġwaldman": 11344,
    "Ġcarving": 14441,
    "Ġvirtue": 4922,
    "Ġferocious": 17417,
    "answering": 26004,
    "Ġnatur": 17332,
    "quarried": 24945,
    "Ġsplendour": 20223,
    "Ġyielded": 14870,
    "Ġhimmale": 18334,
    "Ġstories": 10864,
    "Ġimpressive": 14998,
    "Ġamends": 14244,
    "Ġflea": 23772,
    "careful": 14864,
    "Ġvessels": 6755,
    "Ġelud": 22653,
    "Ġhelter": 24022,
    "Ġannihilated": 20251,
    "Ġconducted": 10501,
    "Ġlabourers": 23328,
    "Ġsavannah": 17414,
    "Ġvillainous": 25131,
    "bery": 9786,
    "ahawk": 23313,
    "Ġbacked": 12917,
    "Ġdeportment": 22588,
    "hetically": 21207,
    "Ġcent": 3255,
    "Ġcamp": 9163,
    "varied": 23183,
    "cheeked": 19339,
    "Ġparacels": 13665,
    "Ġaltitude": 26202,
    "Ġsain": 17749,
    "oves": 15401,
    "Ġrheumatic": 20704,
    "Ġpines": 12613,
    "Ġbur": 2698,
    "Ġineffect": 13928,
    "punctual": 26355,
    "Ġgor": 9205,
    "Ġwindlass": 7256,
    "Ġtakings": 20571,
    "gments": 12466,
    "Ġbrink": 18771,
    "Ġhired": 10176,
    "Ġmacy": 19353,
    "laying": 19771,
    "Ġdiv": 3730,
    "Ġstride": 22615,
    "Ġlapse": 17119,
    "Ġfiery": 6871,
    "Ġostent": 13582,
    "bearded": 18522,
    "Ġneatly": 17015,
    "Ġdeb": 4763,
    "}": 97,
    "stave": 21647,
    "Ġoutside": 5553,
    "later": 20952,
    "Ġdisenc": 22524,
    "Ġchancing": 22246,
    "Ġbenefited": 19396,
    "Ġcondescension": 10617,
    "Ġanx": 3182,
    "Ġpear": 11849,
    ".âĢĻâĢĿ": 6739,
    "Ġkid": 9723,
    "itable": 5437,
    "Ġdolphins": 20394,
    "p": 84,
    "Ġepid": 18004,
    "Ġfastidious": 14492,
    "ation": 320,
    "outward": 22158,
    "lasting": 8011,
    "doctor": 19095,
    "Ġbenef": 3489,
    "Ġscrewing": 20207,
    "Ġpivot": 13921,
    "went": 6512,
    "Ġpres": 9730,
    "histicated": 20900,
    "umblings": 23927,
    "inlaid": 21189,
    "neural": 3068,
    "tis": 4104,
    "adventures": 20255,
    "tube": 20409,
    "```": 25893,
    "Ġsmoothed": 23658,
    "Ġinjurious": 24269,
    "erial": 4629,
    "Ġdeficiencies": 26569,
    "well": 1694,
    "Ġbru": 13893,
    "ument": 5239,
    "Ġem": 1925,
    "coming": 3561,
    "Ġexhilar": 19682,
    "Ġsuited": 12781,
    "Ġliveliest": 24775,
    "itated": 4439,
    "Ġvarious": 3509,
    "Ġresp": 2497,
    "scratch": 26044,
    "des": 1569,
    "shelf": 20379,
    "Ġarid": 22185,
    "Ġverdure": 10611,
    "Ġcrimes": 8588,
    "Ġupdate": 2466,
    "street": 6495,
    "tack": 12509,
    "Ġstupid": 7603,
    "]": 65,
    "Ġuneasily": 24229,
    "espe": 3498,
    "Ġdearly": 10400,
    "Ġhundred": 2693,
    "vous": 2254,
    "matlock": 23468,
    "dest": 4102,
    "Ġawaiting": 11389,
    "Ġsame": 1342,
    "painful": 13500,
    "lounged": 26133,
    "super": 5944,
    "faith": 15023,
    "hailed": 17564,
    "Ġshroud": 6483,
    "Ġmultitudinous": 26273,
    "Ġdeadliest": 14555,
    "ached": 2324,
    "Ġobvious": 4964,
    "return": 5489,
    "Ġsole": 3299,
    "Ġstanders": 19018,
    "obey": 11508,
    "Ġsentiments": 7961,
    "fisher": 7547,
    "nings": 9130,
    "Ġse": 401,
    "pleasing": 14740,
    "26": 10071,
    "Ġlow": 1652,
    "Ġvarieties": 14308,
    "Ġexempl": 21828,
    "Ġaround": 3610,
    "Ġsuperior": 2754,
    "Ġfeminine": 15261,
    "Ġperfection": 19217,
    "Ġdod": 6672,
    "forbid": 14345,
    "organ": 15570,
    "unearthly": 19272,
    "Ġvisit": 2584,
    "Ġdiscomposure": 20377,
    "Ġful": 4296,
    "Ġconvince": 14641,
    "Ġundisturbed": 19518,
    "&": 10,
    "gan": 2200,
    "Ġcompact": 2265,
    "Ġfuneral": 10281,
    "ries": 3353,
    "ights": 8475,
    "Ġsumatra": 15284,
    "Ġconcealment": 16913,
    "Ġthoroughfare": 16943,
    "ĠĠĠĠĠĠĠĠĠĠĠĠĠĠĠĠĠĠĠĠĠĠĠĠĠĠĠĠĠĠĠĠĠĠĠĠĠĠĠĠĠĠĠĠĠĠĠĠĠĠĠ": 20037,
    "Ġtantamount": 25625,
    "swaying": 25910,
    "Ġsche": 1707,
    "thinness": 25810,
    "Ġdominic": 25381,
    "Ġharp": 17923,
    "scent": 13017,
    "Ġlizard": 12650,
    "Ġjoking": 12833,
    "Ġmaimed": 21315,
    "such": 3084,
    "Ġpestilent": 25777,
    "Ġcausing": 16355,
    "Ġunshored": 25813,
    "asters": 8434,
    "Ġarve": 15899,
    "Ġswayed": 15046,
    "kerchief": 7525,
    "conc": 3946,
    "Ġburnished": 23995,
    "Ġconcer": 23318,
    "Ġdisdain": 8360,
    "Ġsurmise": 12292,
    "Ġbeatrix": 24203,
    "Ġages": 7027,
    "oder": 2462,
    "Ġinequal": 21495,
    "ipher": 18426,
    "ll": 1139,
    "spirit": 11312,
    "ruin": 22174,
    "knight": 20939,
    "Ġbehavioral": 11395,
    "Ġstrata": 26027,
    "Ġgirdled": 19157,
    "Ġimpious": 15983,
    "Ġrepresents": 4902,
    "Ġleaky": 2350,
    "Ġtul": 21158,
    "Ġluckless": 16796,
    "Ġcontext": 1708,
    "Ġperformed": 8546,
    "voc": 8394,
    "Ġhiding": 9821,
    "Ġoverpowered": 15286,
    "Ġradiance": 13368,
    "Ġfortresses": 23620,
    "necessarily": 19630,
    "tribute": 21087,
    "erest": 10696,
    "boy": 4736,
    "tram": 19634,
    "Ġdrink": 4786,
    "Ġcalculate": 13261,
    "Ġdreadfully": 7726,
    "Ġsublim": 19965,
    "Ġargue": 16782,
    "Ġspanish": 2830,
    "Ġepaulets": 24905,
    "superst": 11324,
    "regularly": 13206,
    "Ġviolin": 16426,
    "Ġspouts": 7730,
    "Ġsembl": 19058,
    "Ġfifteen": 6947,
    "Ġrecent": 7436,
    "ð": 177,
    "Ġdoing": 3659,
    "isons": 17849,
    "ĠĠĠĠĠĠĠ": 7631,
    "raham": 18013,
    "Ġdecreases": 3408,
    "Ġpublic": 4331,
    "atching": 8202,
    "Ġvehemently": 26039,
    "residual": 19261,
    "pinn": 21025,
    "remed": 18952,
    "Ġuncle": 3193,
    "icle": 10833,
    "baby": 25515,
    "Ġexpiring": 16092,
    "Ġclaimed": 14200,
    "Ġhorsham": 10405,
    "iries": 18169,
    "arrangement": 17413,
    "Ġcotton": 17377,
    "Ġblossom": 26312,
    "inioned": 19285,
    "Ġsubord": 22785,
    "Ġcourt": 4169,
    "learning": 2502,
    "Ġexercised": 24803,
    "Ġcheered": 16366,
    "Ġtash": 13818,
    "ĠcÃ¦": 15551,
    "Ġcasualty": 20340,
    "Ġbounty": 26436,
    "Ġunappe": 22014,
    "vision": 5619,
    "Ġamuse": 5940,
    "Ġspecialized": 3920,
    "Ġwonderland": 23423,
    "appearing": 14636,
    "Ġroads": 13285,
    "Ġannounced": 9033,
    "geneva": 13728,
    "final": 19675,
    "monkey": 19169,
    "Ġsense": 3252,
    "Ġpersonality": 16475,
    "Ġbits": 11586,
    "Ġlist": 2369,
    "rougham": 15990,
    "oing": 15399,
    "Ġshakespeare": 20306,
    "Ġforeseen": 16441,
    "trop": 15434,
    "Ġmajest": 24057,
    "Ġdefinite": 11068,
    "Ġbefore": 813,
    "of": 769,
    "Ġagonies": 14250,
    "Ġbethinking": 25279,
    "Ġdisturbance": 15011,
    "sme": 17657,
    "condem": 16341,
    "cripp": 20818,
    "Ġcrazy": 8593,
    "Ġprotectors": 9069,
    "Ġintrusion": 12761,
    "Ġutmost": 5496,
    "Ġbill": 4038,
    "Ġforb": 11661,
    "Ġbehaved": 13251,
    "Ġarising": 10932,
    "Ġbending": 12581,
    "thoroughly": 26507,
    "Ġthursday": 12640,
    "hideous": 25407,
    "Ġunprecedented": 15851,
    "ath": 863,
    "Ġresented": 22541,
    "Ġdeject": 10879,
    "Ġcoincidence": 25483,
    "Ġforgotten": 5679,
    "Ġnorris": 23200,
    "Ġnoiseless": 10356,
    "Ġorgans": 15862,
    "Ġstepdaughter": 22610,
    "Ġlord": 2966,
    "draughts": 20386,
    "Ġbead": 21748,
    "key": 5462,
    "ieves": 4004,
    "Ġchamounix": 14862,
    "hollow": 24037,
    "Ġdodo": 9071,
    "Ġdeeds": 15755,
    "shorn": 22450,
    "Ġmoods": 14949,
    "ster": 1962,
    "cher": 5786,
    "pretending": 17040,
    "Ġthose": 1174,
    "stays": 15685,
    "Ġheire": 18036,
    "Ġtink": 9147,
    "Ġunmolested": 15243,
    "======": 9831,
    "pect": 1256,
    "Ġlistening": 6318,
    "Ġhardship": 18913,
    "Ġend": 1484,
    "Ġchivalry": 25818,
    "Ġstra": 2992,
    "apidated": 22335,
    "Ġmetaphysical": 26067,
    "enjoyment": 17256,
    "Ġmurderers": 16810,
    "Ġweather": 3995,
    "Ġclassical": 22619,
    "Ġflush": 14422,
    "ships": 5486,
    "osite": 4893,
    "Ġrejecting": 17050,
    "Ġirreduc": 5491,
    "Ġcircle": 4977,
    "Ġshovel": 23489,
    "Ġinstant": 2705,
    "traced": 19636,
    "Ġsteadfast": 8678,
    "medical": 23339,
    "Ġcompiled": 22568,
    "Ġpound": 12612,
    "Ġhonorable": 16875,
    "Ġtrapped": 23075,
    "hills": 13734,
    "Ġcarelessness": 13073,
    "pictures": 15088,
    "Ġwits": 15529,
    "),": 1347,
    "mph": 20971,
    "take": 4574,
    "ifford": 15780,
    "interruption": 20110,
    "imate": 4222,
    "european": 26371,
    "Ġvagueness": 25737,
    "Ġforwarded": 19042,
    "Ġletter": 2198,
    "encountered": 20391,
    "Ġhanging": 5447,
    "Ġcompassionate": 24723,
    "produced": 25414,
    "Ġanybody": 5313,
    "Ġtranquo": 14841,
    "Ġsteered": 11092,
    "independ": 15978,
    "Ġterminated": 23507,
    "Ġadmirals": 20383,
    "Ġzone": 14359,
    "speak": 5504,
    "Ġplanks": 5563,
    "Ġcharted": 22248,
    "Ġattitudes": 16096,
    "lat": 9603,
    "Ġresuming": 12889,
    "Ġprovinces": 24189,
    "ilty": 6394,
    "Ġvery": 635,
    "Ġmanual": 14196,
    "Ġwhere": 785,
    "morning": 4858,
    "Ġdanish": 21430,
    "Ġ550": 19640,
    "Ġgrowl": 16536,
    "Ġadventure": 5981,
    "Ġflesh": 5969,
    "olidity": 18132,
    "Ġsuspense": 9416,
    "Ġpacing": 8426,
    "Ġanger": 5442,
    "Ġpronouncing": 16968,
    "feared": 11799,
    "Ġjourney": 3880,
    "Ġevolve": 3003,
    "Ġshattered": 7885,
    "Ġunaware": 22055,
    "Ġobeyed": 12213,
    "Ġmr": 660,
    "Ġgathers": 24743,
    "byshire": 6172,
    "hole": 5585,
    "feeders": 25235,
    "Ġfashion": 4297,
    "Ġfrenzy": 13620,
    "Ġacquaint": 13041,
    "green": 7115,
    "ions": 448,
    "Ġeber": 18003,
    "mbling": 3345,
    "Ġpersecutor": 26096,
    "Ġlionel": 25286,
    "Ġfly": 3870,
    "Ġtottenham": 24141,
    "Ġxlvi": 25590,
    "Ġimbued": 17453,
    "Ġservice": 6471,
    "Ġangels": 11177,
    "Ġcrotch": 9961,
    "forster": 16154,
    "Ġslight": 3121,
    "cares": 24308,
    "Ġsoapstone": 20509,
    "Ġincivility": 18572,
    "Ġassociate": 13448,
    "ediction": 17944,
    "Ġreel": 9212,
    "Ġantichron": 24180,
    "Ġends": 8238,
    "Ġthrees": 23399,
    "Ġstalls": 25647,
    "hue": 20897,
    "Ġsi": 21211,
    "Ġprofession": 6207,
    "rees": 5436,
    "Ġcertainly": 2500,
    "Ġbrooding": 18907,
    "Ġtormenting": 15102,
    "Ġrequest": 6051,
    "ouble": 2660,
    "Ġvineyard": 12327,
    "determination": 19943,
    "ction": 497,
    "crew": 7544,
    "march": 13753,
    "Ġcrept": 11020,
    "Ġgait": 13328,
    "Ġroman": 8323,
    "Ġponder": 6819,
    "Ġconsistence": 23355,
    "Ġblood": 3170,
    "Ġunfit": 14784,
    "lace": 13746,
    "Ġtrifling": 10601,
    "Ġnormalization": 1244,
    "Ġimplicit": 19956,
    "stepfather": 19190,
    "set": 3866,
    "Ġupward": 9719,
    "Ġnibbling": 17383,
    "Ġcases": 3960,
    "inctions": 17731,
    "Ġunp": 12768,
    "Ġfun": 523,
    "Ġeternity": 12275,
    "Ġartic": 5314,
    "Ġtro": 7356,
    "Ġapprehens": 5682,
    "Ġvariants": 1790,
    "Ġlovely": 4707,
    "ortunities": 15937,
    "Ġunrecord": 16620,
    "gpt": 5355,
    "Ġforeboding": 20382,
    "Ġmaintains": 2148,
    "Ġspectacle": 10495,
    "Ġvain": 3628,
    "Ġsmilingly": 22558,
    "hic": 3250,
    "encounter": 20390,
    "ulus": 21862,
    "Ġenters": 11024,
    "Ġatmosphere": 10896,
    "Ġsocial": 7007,
    "Ġunthinkingly": 26220,
    "Ġsalt": 8017,
    "Ġdrinking": 12165,
    "anter": 9165,
    "cket": 3686,
    "Ġwidows": 24235,
    "Ġferocity": 16870,
    "Ġprehens": 22229,
    "Ġaffidavit": 20723,
    "Ġspecific": 2004,
    "fur": 6355,
    "Ġdisinclined": 22527,
    "Ġattacking": 24464,
    "Ġornam": 15861,
    "Ġantip": 24176,
    "Ġaverse": 11079,
    "Ġdat": 493,
    "Ġturkish": 12258,
    "Ġrefreshment": 17238,
    "Ġcontent": 5034,
    "Ġringbolts": 24195,
    "Ġscrape": 14916,
    "fortnight": 13085,
    "gh": 3799,
    "ĠĠĠĠĠĠĠĠĠĠĠĠ": 12896,
    "Ġreward": 6144,
    "Ġtotally": 9469,
    "churning": 21695,
    "mates": 5073,
    "stamp": 21652,
    "Ġintrodu": 1926,
    "mounting": 25207,
    "Ġcongratulate": 9062,
    "=": 33,
    "Ġthe": 270,
    "Ġsheepfold": 25466,
    "wag": 21122,
    "Ġturkey": 19218,
    "ales": 3317,
    "Ġpositively": 13027,
    "Ġspur": 18303,
    "started": 10844,
    "Ġauto": 23340,
    "Ġemerging": 24613,
    "bask": 20775,
    "traces": 24314,
    "Ġglories": 16237,
    "Ġlane": 5627,
    "irious": 15782,
    "Ġcordiality": 24394,
    "Ġflashes": 11912,
    "drawing": 10485,
    "Ġquicker": 16506,
    "Ġexposed": 8522,
    "Ġinherited": 25353,
    "Ġaper": 17742,
    "Ġinns": 17929,
    "Ġpot": 2991,
    "Ġpap": 8796,
    "Ġbuoyant": 13530,
    "ientific": 6547,
    "Ġsupposition": 9815,
    "Ġverily": 16601,
    "Ġingrat": 16839,
    "Ġexample": 5096,
    "quietly": 10591,
    "Ġfry": 17879,
    "cu": 10082,
    "onder": 3778,
    "Ġpays": 13293,
    "circumst": 5348,
    "Ġpetulance": 24226,
    "Ġviews": 7290,
    "Ġrelinqu": 12979,
    "taste": 10128,
    "aan": 20763,
    "Ġsuddenness": 23380,
    "Ġcelerity": 17434,
    "Ġassumed": 9464,
    "Ġexperiences": 13026,
    "Ġele": 1966,
    "iverer": 11713,
    "feel": 3811,
    "itates": 13867,
    "Ġdebated": 9039,
    "Ġvary": 15804,
    "retion": 9360,
    "Ġmowers": 17812,
    "Ġinvestigated": 25386,
    "sings": 4251,
    "Ġaccidental": 16847,
    "Ġbeside": 5192,
    "Ġamateur": 22483,
    "coo": 11169,
    "Ġdelineate": 26057,
    "Ġreservo": 16830,
    "Ġstiffness": 24830,
    "Ġnorthumbria": 24170,
    "Ġsomehow": 4840,
    "Ġapproximates": 2419,
    "sank": 17661,
    "Ġess": 5691,
    "izard": 10882,
    "Ġlomb": 21557,
    "Ġleaned": 7607,
    "promote": 24727,
    "Ġbehoo": 19033,
    "Ġhowled": 12851,
    "azing": 7705,
    "etieth": 21582,
    "bers": 2571,
    "Ġapo": 9629,
    "Ġknitted": 19588,
    "Ġseal": 10253,
    "Ġalche": 21781,
    "successfully": 14989,
    "tone": 8762,
    "backs": 9389,
    "bitious": 16668,
    "anguish": 15980,
    "Ġlesson": 7276,
    "Ġaversion": 18865,
    "Ġcompletion": 12144,
    "Ġunited": 6840,
    "Ġdub": 13907,
    "Ġilluminated": 20174,
    "Ġcurse": 7667,
    "ggling": 19096,
    "raised": 15675,
    "Ġslit": 13053,
    "Ġminimizing": 3465,
    "Ġbestirred": 20450,
    "Ġnorthwards": 19545,
    "ization": 486,
    "Ġbesee": 19241,
    "Ġreceives": 20353,
    "Ġsustained": 13480,
    "precise": 19349,
    "Ġpure": 6137,
    "idation": 5022,
    "Ġconjecture": 9530,
    "william": 4560,
    "imprudence": 16555,
    "Ġprogress": 5023,
    "rents": 5308,
    "Ġcover": 3556,
    "Ġqual": 6274,
    "Ġdeser": 3887,
    "Ġcolony": 18766,
    "Ġintegration": 9866,
    "Ġcontents": 7210,
    "Ġspokes": 18313,
    "15": 12427,
    "star": 12668,
    "web": 18664,
    "band": 3061,
    "Ġdisturb": 7107,
    "Ġdel": 1618,
    "Ġencouragement": 13039,
    "Ġjealousy": 13574,
    "glasses": 11214,
    "Ġglances": 10371,
    "Ġspleen": 26420,
    "Ġspoil": 17006,
    "ustom": 3788,
    "oice": 1385,
    "Ġfeedback": 23431,
    "Ġembodied": 25847,
    "Ġwasn": 6997,
    "departed": 24794,
    "iferous": 17290,
    "Ġrepulses": 26070,
    "Ġbrave": 6329,
    "Ġenvironment": 4176,
    "Ġcordially": 16835,
    "Ġstops": 3168,
    "ined": 1262,
    "Ġbedrooms": 19968,
    "mankind": 14372,
    "Ġmexic": 14029,
    "Ġgeomet": 3192,
    "Ġcontour": 18474,
    "Ġmaterial": 5178,
    "Ġchurned": 18384,
    "socket": 22727,
    "Ġslice": 23158,
    "ishment": 3505,
    "Ġgossip": 18470,
    "Ġdestroying": 14727,
    "Ġap": 5008,
    "preference": 22460,
    "consult": 24168,
    "Ġphilips": 5410,
    "Ġmuzzle": 21319,
    "iffs": 9020,
    "oar": 12494,
    "Ġhemisphere": 26477,
    "colour": 9901,
    "Ġwheels": 10911,
    "Ġshavings": 14108,
    "jointed": 24007,
    "Ġdisappoint": 24204,
    "Ġweakened": 16822,
    "Ġrh": 9242,
    "Ġtoast": 21510,
    "Ġhumbug": 18779,
    "Ġanatomical": 15074,
    "uncommon": 11679,
    "Ġlabours": 8582,
    "Ġinte": 2065,
    "Ġgest": 8134,
    "Ġpremises": 10486,
    "Ġshivered": 14106,
    "Ġcuts": 14606,
    "isation": 13891,
    "Ġbuildings": 24720,
    "Ġsatire": 22900,
    "Ġtra": 1386,
    "Ġalive": 4398,
    "Ġstunsail": 25543,
    "artic": 14220,
    "rod": 10830,
    "Ġdamps": 23473,
    "Ġbackwoods": 22641,
    "Ġrobust": 1384,
    "Ġcents": 17828,
    "inferences": 17738,
    "Ġblunt": 11891,
    "Ġperennial": 22692,
    "Ġprecipices": 12274,
    "reigned": 21241,
    "retreat": 23134,
    "Ġiroqu": 21617,
    "Ġfallen": 5968,
    "O": 51,
    "Ġpract": 1888,
    "Ġdemanding": 16804,
    "Ġsoothing": 8173,
    "consist": 14814,
    "Ġdiscoverers": 26036,
    "Ġdummy": 25449,
    "Ġsadder": 24048,
    "ript": 4151,
    "Ġworking": 5574,
    "Ġbreaks": 13181,
    "Ġswam": 6448,
    "Ġhackney": 20431,
    "Ġguernsey": 9349,
    "bone": 5611,
    "Ġcurb": 16228,
    "say": 3982,
    "Ġfangs": 12593,
    "Ġextracted": 16316,
    "book": 4667,
    "iment": 2818,
    "Ġabrupt": 9736,
    "mpt": 6653,
    "aken": 1870,
    "Ġwhispering": 14943,
    "Ġcasual": 11408,
    "Ġhereditary": 10663,
    "Ġpeered": 18668,
    "Ġcommander": 8624,
    "Ġapoplexy": 25265,
    "endurable": 22214,
    "Ġscholars": 26112,
    "Ġconstitutional": 25125,
    "Ġascertaining": 17202,
    "view": 5896,
    "accepting": 20134,
    "tales": 17685,
    "Ġmaritime": 23036,
    "impl": 21705,
    "chery": 24550,
    "Ġdeliverer": 11948,
    "Ġhatchways": 24989,
    "helping": 23138,
    "Ġresid": 22536,
    "Ġnorthern": 7265,
    "Ġchrist": 4071,
    "Ġsegment": 12753,
    "ksome": 10103,
    "guess": 14759,
    "Ġlistener": 16473,
    "Ġacknowledged": 7534,
    "Ġequinox": 25856,
    "Ġarter": 22186,
    "Ġhudson": 15189,
    "Ġpoetry": 15078,
    "stately": 18021,
    "¨": 106,
    "Ġringing": 13329,
    "Ġincompatible": 25680,
    "ank": 1365,
    "chess": 16571,
    "Ġexhibition": 14955,
    "Ġfrance": 7682,
    "Ġbestowing": 16970,
    "Ġsang": 12531,
    "immed": 9216,
    "Ġforeb": 12000,
    "bber": 4566,
    "Ġadmission": 23554,
    "vap": 13801,
    "Ġdislike": 6048,
    "Ġsaint": 15505,
    "unguarded": 23668,
    "Ġassoc": 6402,
    "Ġmurdering": 14809,
    "eches": 8078,
    "oth": 1186,
    "Ġshabby": 14109,
    "deeply": 16182,
    "murder": 10563,
    "aver": 6785,
    "rigible": 24931,
    "har": 20889,
    "agos": 21902,
    "Ġdepends": 1048,
    "Ġpromethe": 14466,
    "north": 14615,
    "pillar": 5618,
    "Ġpatroness": 13508,
    "Ġmortification": 12090,
    "Ġisa": 14023,
    "awe": 20764,
    "it": 276,
    "ones": 2743,
    "Ġthoughtfully": 12976,
    "attentions": 13572,
    "Ġcharm": 4546,
    "Ġwrinkled": 7264,
    "Ġduring": 873,
    "Ġappearing": 9839,
    "Ġillustrate": 25065,
    "Ġdropping": 7483,
    "richard": 17285,
    "Ġboa": 22633,
    "libra": 22923,
    "Ġevangelical": 25506,
    "wanted": 10742,
    "assault": 22304,
    "Ġconsisting": 8970,
    "Ġtire": 17719,
    "Ġattach": 14291,
    "Ġwilful": 10533,
    "Ġmuteness": 19415,
    "Ġvocabulary": 4995,
    "Ġhell": 5019,
    "Ġretains": 20028,
    "Ġwaning": 15531,
    "Ġrepressed": 21666,
    "Ġhissing": 15786,
    "Ġimbalanced": 18333,
    "Ġaggregate": 25677,
    "Ġjuicy": 25370,
    "Ġbutter": 6842,
    "Ġtumult": 7114,
    "Ġmild": 4145,
    "Ġeasily": 3891,
    "Ġernest": 8716,
    "Ġwounded": 8657,
    "Ġbrilliantly": 25120,
    "facts": 19841,
    "dict": 15337,
    "Ġ7": 4744,
    "Ġparsonage": 7123,
    "nine": 13759,
    "unch": 14056,
    "Ġfrancisco": 26064,
    "Ġchildish": 13135,
    "Ġtransc": 12864,
    "Ġpant": 10816,
    "Ġmoth": 17802,
    "soled": 14329,
    "Ġflask": 3043,
    "suffered": 24333,
    "Ġapothe": 12372,
    "Ġirr": 10420,
    "misfortunes": 16755,
    "Ġinterpre": 1594,
    "Ġalterations": 19870,
    "gre": 5788,
    "Ġachieves": 4378,
    "Ġaffair": 4462,
    "Ġreflections": 5946,
    "ifled": 14061,
    "illating": 22105,
    "limin": 8384,
    "wholly": 10940,
    "Ġcle": 1509,
    "Ġtints": 17726,
    "Ġcharacteristics": 8609,
    "pent": 3493,
    "ushing": 5731,
    "Ġlee": 4223,
    "Ġvintage": 26209,
    "Ġlashed": 9197,
    "Ġillustrious": 17108,
    "Ġlands": 6594,
    "Ġblundering": 26283,
    "Ġobstructed": 24677,
    "Ġindulged": 13415,
    "mant": 20964,
    "Ĝ": 221,
    "Ġthump": 11609,
    "Ġsuppression": 22998,
    "Ġaimed": 20249,
    "Ġdenote": 19332,
    "Ġship": 1093,
    "Ġinevitable": 15165,
    "Ġnodding": 23333,
    "oura": 1063,
    "Ġadmires": 19684,
    "Ġnumer": 3637,
    "Ġcad": 12564,
    "thinks": 16640,
    "Ġhed": 7387,
    "Ġbetrayed": 9560,
    "Ġchilly": 25562,
    "Ġindications": 14631,
    "Ġincul": 22547,
    "Ġtwins": 16117,
    "Ġgunwale": 7325,
    "Ġless": 1942,
    "Ġbark": 10797,
    "Ġearn": 3546,
    "Ì": 141,
    "Ġmerited": 23730,
    "Ġlies": 5295,
    "ending": 1992,
    "Ġmamma": 10046,
    "Ġjost": 23630,
    "older": 15752,
    "swell": 17662,
    "Ġmoles": 22430,
    "Ġanyone": 4458,
    "Ġmir": 9645,
    "inkle": 22612,
    "Ġanne": 1529,
    "terror": 18128,
    "Ġbruised": 25772,
    "teenth": 11871,
    "Ġoblique": 20168,
    "Ġencirc": 18731,
    "claps": 23151,
    "Ġfellow": 2777,
    "vitiated": 25754,
    "Ġthinks": 6169,
    "Ġevidently": 6759,
    "Ġpropont": 16347,
    "_:": 17477,
    "crated": 16695,
    "loun": 17587,
    "Ġsilken": 16376,
    "Ġbleak": 10557,
    "Ġdrive": 5055,
    "ging": 2601,
    "Ġgovern": 10449,
    "umbled": 8492,
    "garn": 20869,
    "stating": 21645,
    "baggage": 24926,
    "Ġunfrequ": 19507,
    "pag": 11509,
    "Ġforest": 9869,
    "Ġinterests": 14568,
    "Ġfervent": 14899,
    "Ġcheering": 11132,
    "Ġtoo": 1167,
    "Ġcrippled": 25278,
    "cob": 10085,
    "Ġframework": 1899,
    "Ġtheology": 21275,
    "Ġtur": 2566,
    "Ġtarn": 21157,
    "great": 3516,
    "Ġhud": 10821,
    "Ġinduce": 7763,
    "Ġcap": 2366,
    "Ġsingers": 23770,
    "este": 15917,
    "Ġimmensities": 25330,
    "Ġdeeps": 16112,
    "Ġbumpkins": 25281,
    "itten": 3441,
    "Ġsprained": 15880,
    "Ġportraits": 20141,
    "thrasher": 25658,
    "Ċ": 203,
    "scra": 13018,
    "Ġgravesend": 15214,
    "Ġcondem": 6338,
    "ationally": 15701,
    "Ġlieu": 19563,
    "Ġdisco": 3428,
    "Ġnoah": 10941,
    "Ġwanting": 6722,
    "Ġcontriv": 9280,
    "Ġgag": 21591,
    "Ġlxi": 21559,
    "Ġparmacetti": 20603,
    "Ġamusements": 16912,
    "Ġunsav": 18251,
    "Ġrobbery": 11917,
    "ĠĠĠĠĠĠĠĠĠĠĠĠĠĠĠĠĠĠĠĠĠĠĠĠĠĠĠĠĠĠĠĠĠĠĠĠĠĠĠ": 19258,
    "entitled": 21566,
    "Ġloss": 825,
    "Ġcaterpillar": 5864,
    "viating": 14578,
    "posture": 16926,
    "Ġlid": 6983,
    "Ġdistillation": 16042,
    "special": 14703,
    "Ġdesponding": 25868,
    "summoned": 26590,
    "Ġamounted": 18512,
    "Ġsailed": 4889,
    "Ġcomprising": 16065,
    "Ġcave": 10784,
    "Ġfemin": 13434,
    "Ġstoper": 14460,
    "gest": 5426,
    "spass": 18687,
    "swimming": 24257,
    "Ġcoleridge": 18767,
    "clu": 20798,
    "Ġlestrade": 5825,
    "Ġartfully": 22608,
    "Ġpince": 21470,
    "Ġdetails": 6565,
    "Ġscreen": 17204,
    "Ġabject": 18396,
    "huzza": 20912,
    "Ġmourn": 8703,
    "Ġcoroner": 7510,
    "pered": 4198,
    "Ġplumage": 17296,
    "Ġforthwith": 16617,
    "lean": 21363,
    "Ġhish": 21911,
    "Ġholy": 6591,
    "Ġfavour": 3640,
    "Ġtechnique": 2144,
    "50": 6784,
    "Ġtranslation": 3088,
    "answ": 15881,
    "Ġinherit": 25352,
    "Ġthunders": 15634,
    "Ġhurled": 10428,
    "Ġjustification": 22969,
    "Ġseizing": 7878,
    "Ġenviron": 4097,
    "ensibility": 22545,
    "oftener": 23962,
    "inea": 7623,
    "Ġunsocial": 18256,
    "Ġdilated": 24704,
    "Ġdirt": 15590,
    "Ġarrang": 2472,
    "accountable": 7109,
    "Ġhark": 8428,
    "icient": 796,
    "Ġskirts": 14351,
    "Ġbordered": 24562,
    "txt": 12512,
    "Ġinsignificance": 20456,
    "Ġglance": 4233,
    "Ġcolt": 11043,
    "ruction": 4356,
    "visual": 24221,
    "puted": 8844,
    "Ġimmovable": 15889,
    "Ġpromise": 4199,
    "scand": 18855,
    "Ġtimes": 2303,
    "Ġcharmingly": 24220,
    "Ġaut": 1910,
    "critical": 19502,
    "Ġflorid": 17134,
    "Ġarranging": 11173,
    "Ġsubterr": 10347,
    "generous": 16566,
    "Ġcrutch": 23445,
    "Ġmatrices": 4969,
    "algorith": 3473,
    "Ġlack": 17963,
    "Ġimpelled": 11779,
    "queg": 1769,
    "Ġsensitive": 13195,
    "Ġobli": 9314,
    "Ġopposing": 12038,
    "Ġwaif": 9373,
    "Ġdrawled": 23986,
    "Ġaspire": 21898,
    "greek": 25404,
    "Ġrespected": 11950,
    "Ġdu": 4582,
    "mered": 8218,
    "solely": 19815,
    "prevent": 11792,
    "Ġdownstairs": 11223,
    "Ġsnorting": 23740,
    "irements": 22210,
    "tch": 9140,
    "Ġeasy": 3452,
    "Ġris": 4886,
    "bold": 17486,
    "Ġpaddle": 20057,
    "Ġsurpr": 2552,
    "author": 9858,
    "ues": 2079,
    "toller": 20671,
    "Ġlances": 6984,
    "Ġbacking": 16104,
    "Ġmutual": 8297,
    "mons": 17599,
    "Ġadorned": 15245,
    "Ġexhilarating": 26337,
    "ued": 7561,
    "voyages": 24855,
    "Ġconcerned": 5331,
    "anean": 7443,
    "scoured": 22991,
    "Ġornamented": 20360,
    "Ġpail": 15603,
    "Ġyawned": 15050,
    "phenomenon": 17647,
    "Ġfretfulness": 25448,
    "whatsoever": 18485,
    "Ġtreacle": 14594,
    "Ġhumiliating": 22882,
    "Ġwhenever": 5166,
    "Ġsteed": 13037,
    "l": 80,
    "Ġrenewed": 9536,
    "Ġcontrols": 1734,
    "Ġcounterpane": 11342,
    "Ġgerman": 6141,
    "inative": 15481,
    "asing": 5912,
    "rist": 10121,
    "stre": 5451,
    "Ġtoils": 10184,
    "incess": 15480,
    "Ġupbraid": 18317,
    "roc": 9673,
    "ara": 12602,
    "Ġ/*": 10138,
    "Ġdeserts": 10506,
    "Ġphant": 7055,
    "ag": 377,
    "ubines": 22957,
    "guessed": 25872,
    "dig": 4929,
    "Ġpew": 9313,
    "remarkable": 13496,
    "Ġblown": 12082,
    "pshire": 21023,
    "Ġconcent": 8250,
    "Ġviciously": 24403,
    "utch": 21584,
    "convers": 6567,
    "arse": 7160,
    "sim": 6510,
    "Ġrat": 4352,
    "Ġethiop": 26155,
    "Ġ43": 14767,
    "Ġgentleman": 3044,
    "affect": 13210,
    "Ġheadache": 22899,
    "sized": 15426,
    "Ġpanel": 13370,
    "walton": 20248,
    "Ġmajesty": 5201,
    "Ġtrotting": 19974,
    "wn": 720,
    "Ġjustine": 4970,
    "col": 3105,
    "Ġconviction": 6326,
    "ready": 2364,
    "allied": 7410,
    "Ġdardanelles": 26442,
    "uiperai": 10662,
    "Ġshorter": 4497,
    "Ġunctuous": 10265,
    "ğ": 224,
    "Ġtrying": 4837,
    "ets": 1163,
    "Ġfearfulness": 23510,
    "Ġconcil": 23319,
    "Ġmichaelmas": 26374,
    "Ġaudible": 19880,
    "Ġperched": 10298,
    "Ġcreation": 6439,
    "Ġthistle": 21914,
    "riers": 18182,
    "chosen": 21693,
    "Ġunb": 10906,
    "rods": 21536,
    "remembrance": 25702,
    "Ġconcisely": 19043,
    "Ġpropose": 9851,
    "Ġfaltering": 17884,
    "Ġsash": 17753,
    "Ġtrampling": 25492,
    "Ġtoad": 21508,
    "mention": 7214,
    "Ġequals": 4725,
    "heavenly": 20043,
    "Ġbeak": 18079,
    "Ġdeliciousness": 24124,
    "directed": 20403,
    "destro": 13307,
    "Ġcrad": 21348,
    "vocabulary": 25085,
    "encouragement": 17421,
    "scr": 16239,
    "Ġdifferen": 935,
    "acca": 23596,
    "anx": 8782,
    "ors": 852,
    "propriety": 14360,
    "Ġshoe": 14566,
    "shroud": 20311,
    "secure": 12232,
    "forth": 9319,
    "quin": 21851,
    "indignation": 18438,
    "Ġattraction": 18626,
    "Ġcalhoun": 23043,
    "Ġphaet": 16315,
    "Ġdegradation": 2631,
    "Ġrestored": 7066,
    "?_âĢĿ": 12313,
    "Ġsing": 3075,
    "Ġfortun": 4982,
    "tell": 1380,
    "Ġreceptive": 1566,
    "esty": 4305,
    "nobody": 16132,
    "Ġjoints": 12032,
    "Ġwisdom": 11233,
    "mis": 4519,
    "Ġrepelled": 19085,
    "rian": 10240,
    "Ġlodging": 24089,
    "Ġgrows": 4985,
    "rested": 13072,
    "Ġpoetical": 25056,
    "fic": 20851,
    "teringly": 21821,
    "harbors": 20147,
    "Ġdundee": 16996,
    "Ġpur": 2218,
    "Ġhereabouts": 12974,
    "wealth": 22686,
    "owe": 15705,
    "Ġmedium": 16680,
    "Ġhopkins": 23129,
    "Ġwatched": 6297,
    "teous": 16171,
    "Ġcolumb": 22857,
    "interview": 19297,
    "Ġrational": 8479,
    "aset": 10831,
    "Ġlightly": 13081,
    "exertion": 16013,
    "Ġoverboard": 6045,
    "escaped": 14229,
    "Ġundoubted": 19513,
    "saturday": 14856,
    "Ġren": 3844,
    "osition": 1373,
    "glory": 23850,
    "Ġcontented": 9754,
    "should": 3263,
    "Ġextant": 18691,
    "ellest": 21572,
    "arled": 21441,
    "queer": 10360,
    "Ġerie": 20052,
    "just": 1701,
    "Ġtransparent": 9487,
    "arris": 13207,
    "Ġcriminals": 19921,
    "instinctively": 26327,
    "Ġchemist": 11133,
    "Ġmem": 2069,
    "Ġban": 7156,
    "Ġventilator": 8713,
    "aly": 1110,
    "miseries": 16756,
    "astrop": 3316,
    "Ġhelplessly": 20076,
    "insult": 16276,
    "pencil": 18827,
    "seen": 2883,
    "cloud": 11104,
    "Ġtouches": 20569,
    "retired": 11933,
    "Ġstrung": 22617,
    "Ġyards": 5371,
    "osen": 6855,
    "Ġprehensile": 26533,
    "Ġgets": 10838,
    "blind": 16704,
    "ructive": 18540,
    "Ġindomitableness": 26570,
    "oat": 13762,
    "benevolent": 15231,
    "alously": 15625,
    "Ġboneless": 19604,
    "coiled": 16484,
    "mathematics": 26304,
    "Ġtruest": 16702,
    "Ġpel": 17904,
    "Ġpanther": 16818,
    "Ġuttered": 7280,
    "Ġindex": 17048,
    "asant": 17958,
    "Ġinjuring": 24267,
    "Ġjiff": 22294,
    "ws": 7355,
    "minutes": 7512,
    "Ġlatest": 16821,
    "Ġofficio": 23813,
    "Ġalgorithms": 870,
    "Ġbran": 5250,
    "Ġtainted": 21169,
    "Ġstrat": 16089,
    "dignity": 15343,
    "vert": 15711,
    "Ġresemblance": 7971,
    "Ġregion": 2274,
    "ning": 949,
    "aunted": 20769,
    "Ġbaleful": 24984,
    "Ġpredomin": 16034,
    "âĢĻ-": 18166,
    "Ġdetailed": 12824,
    "Ġlaughed": 5059,
    "Ġsubsisted": 19117,
    "?âĢĿâĢĶ": 12891,
    "lodged": 25907,
    "Ġbubb": 12580,
    "Ġop": 2603,
    "Ġcabman": 14604,
    "Ġfaces": 6009,
    "erval": 4017,
    "Ġoffending": 22743,
    "Ġsung": 23272,
    "Ġbrightly": 13221,
    "Ġdevils": 7230,
    "sheep": 23084,
    "Ġchall": 10943,
    "anity": 9653,
    "Ġbeaver": 18085,
    "mai": 22913,
    "Ġpleasant": 4170,
    "Ġacknowledgment": 16956,
    "Ġcommentaries": 20159,
    "notches": 22750,
    "Ġmonotonous": 13260,
    "Ġenriched": 26498,
    "batim": 25016,
    "Ġtreble": 16501,
    "Ġtheatre": 21277,
    "tasted": 17686,
    "Ġstudy": 1795,
    "Ġtroublesome": 23999,
    "esteem": 26008,
    "Ġwast": 21858,
    "Ġcorrectly": 9402,
    "case": 5206,
    "Ġsilence": 3269,
    "Ġcourses": 10410,
    "Ġnut": 12642,
    "Ġmarvellous": 7538,
    "Ġblend": 14397,
    "mild": 15389,
    "Ġhelmeted": 19687,
    "Ġ>": 21150,
    "ą": 198,
    "ignominious": 26586,
    "accusations": 23598,
    "Ġapproximate": 2346,
    "Ġineffectual": 17382,
    "utions": 1890,
    "Ġendeavors": 16544,
    "Ġgurglings": 26464,
    "Ġmel": 4815,
    "inex": 14094,
    "leisure": 21369,
    "Ġcarve": 23090,
    "hospit": 25903,
    "Ġbarrow": 12066,
    "ho": 2860,
    "Ġmoral": 6578,
    "Ġrap": 14300,
    "seem": 10226,
    "rose": 6014,
    "bull": 13688,
    "esteemed": 26009,
    "Ġforg": 3786,
    "Ġslid": 7952,
    "Ġhint": 5016,
    "Ġinfluence": 5515,
    "Ġmassa": 19452,
    "Ġsherry": 19449,
    "Ġsofas": 26224,
    "Ġimper": 4500,
    "dl": 20822,
    "Ġxxxix": 24970,
    "discoloured": 23496,
    "Ġearliest": 9829,
    "uel": 6966,
    "benefit": 24642,
    "heed": 15496,
    "tumultuously": 25613,
    "Ġdepicting": 22587,
    "Ġarchitecture": 1148,
    "Ġlikeness": 11178,
    "ŀ": 257,
    "Ġenough": 1761,
    "ø": 185,
    "Ń": 260,
    "Ġsnoring": 23739,
    "Ġoversight": 22357,
    "Ġquest": 2003,
    "eastern": 17532,
    "cturn": 17986,
    "Ġcountry": 2534,
    "Ġparticulars": 5754,
    "Ġbrooks": 25700,
    "Ġcarpenters": 16751,
    "Ġconst": 1912,
    "iss": 2179,
    "Ġdistracted": 11800,
    "Ġcoinc": 11000,
    "Ġclatter": 22342,
    "number": 10113,
    "consolation": 15150,
    "ping": 9614,
    "masculine": 24386,
    "Ġgratifying": 13302,
    "Ġstrangled": 24132,
    "frequently": 9977,
    "Ġshad": 3848,
    "evenings": 19461,
    "Ġmouthful": 16572,
    "carp": 9108,
    "lob": 22504,
    "Ġwarehouses": 20416,
    "Ġnewcomer": 26040,
    "Ġmasoned": 20250,
    "Ġstrugg": 3218,
    "Ġdoubted": 7966,
    "striving": 24669,
    "sto": 3199,
    "certainly": 5339,
    "Ġpersonages": 23540,
    "Ġlitter": 19828,
    "Ġavocation": 23950,
    "Ġenchant": 7185,
    "season": 14032,
    "Ġsyllable": 9727,
    "Ġbags": 24536,
    "Ġdiscussed": 19558,
    "whilst": 18371,
    "aded": 3548,
    "Ě": 219,
    "Ġblasp": 14399,
    "Ġfatigue": 8697,
    "Ġlouis": 8357,
    "Ġresemble": 15689,
    "Ġembodiment": 20526,
    "Ġweedy": 15789,
    "Ġfort": 2579,
    "Ġprinc": 4200,
    "Ġbreathless": 12166,
    "Ġincommod": 25307,
    "writer": 14647,
    "flukes": 25205,
    "Ġignominy": 15083,
    "Ġsuch": 794,
    "Ġstaying": 8284,
    "Ġantiqu": 12141,
    "possession": 12218,
    "icated": 7590,
    "Ġcircum": 8258,
    "Ġreadiness": 13046,
    "Ġjudgment": 5765,
    "Ġdepresses": 25797,
    "Ġfanning": 23388,
    "Ġrequires": 1031,
    "coff": 9107,
    "Ġhusbands": 16641,
    "urs": 6989,
    "Ġbridle": 24681,
    "Ġlangu": 575,
    "Ġsnatched": 10470,
    "Ġnodded": 11966,
    "Ġinject": 2712,
    "amy": 8467,
    "enges": 13050,
    "tut": 15432,
    "Ġinvest": 4978,
    "Ġcleared": 6075,
    "Ġcynicism": 25771,
    "tural": 21065,
    "Ġcash": 9651,
    "Ġannals": 17898,
    "wrath": 23755,
    "atible": 17771,
    "Ġaloud": 6252,
    "Ġgraves": 11705,
    "Ġstammered": 26199,
    "Ġsupper": 4663,
    "abbering": 21794,
    "Ġsimple": 1625,
    "urious": 21701,
    "words": 7983,
    "Ġkins": 22192,
    "Ġinvented": 17036,
    "structure": 2241,
    "Ġdynamic": 5122,
    "Ġfancied": 7326,
    "Ġyellowish": 24429,
    "Ġcrystals": 20226,
    "icit": 3378,
    "stirred": 20423,
    "volutions": 16321,
    "urch": 3992,
    "Ġcircumstance": 4987,
    "Ġexceedingly": 4612,
    "christmas": 20254,
    "scruple": 26045,
    "iew": 2449,
    "Ġheaving": 7600,
    "Ġsimpl": 1584,
    "Ġtell": 1469,
    "_.,": 14560,
    "....": 11315,
    "Ġdeclared": 5594,
    "westward": 25424,
    "Ġindestruct": 22956,
    "Ġintensely": 17016,
    "Ġwriggling": 15255,
    "Ġperverseness": 13652,
    "Ġhurts": 19111,
    "ivity": 1619,
    "Ġadie": 8488,
    "Ġcaval": 25769,
    "Ġhardware": 4904,
    "Ġadvisable": 11441,
    "Ġold": 1059,
    "Ġraft": 16107,
    "Ġemptied": 24346,
    "ill": 447,
    "Ġser": 1676,
    "Ġcanall": 10927,
    "olet": 13764,
    "back": 2018,
    "Ġescape": 2647,
    "avast": 8895,
    "emed": 3380,
    "Ġpractical": 3166,
    "Ġam": 659,
    "Ġbulky": 13226,
    "Ġrepented": 23361,
    "Ġaug": 6234,
    "Ġharrow": 17925,
    "mody": 16181,
    "rush": 7010,
    "Ġhelping": 3268,
    "orter": 4255,
    "cks": 3081,
    "accompan": 11451,
    "Ġensigns": 23688,
    "Ġform": 1023,
    "Ġclothing": 18423,
    "Ġmate": 3706,
    "Ġeddying": 16433,
    "lar": 4482,
    "Ġbetokened": 18798,
    "Ġsummar": 3524,
    "contemplated": 20457,
    "Ġprofusion": 23567,
    "Ġattendant": 11284,
    "heeded": 13832,
    "Ġcoll": 8222,
    "merit": 19280,
    "izer": 2031,
    "Ġtilted": 20411,
    "obst": 11929,
    "Ġadmiring": 16478,
    "Ġlanguid": 14218,
    "inhabited": 13618,
    "Ġinverted": 12633,
    "gypt": 8261,
    "Ġgreedily": 18966,
    "Ġgaze": 6932,
    "Ġcommod": 10332,
    "Ġinsulated": 23679,
    "Ġfurnaces": 24002,
    "Ġfreed": 7267,
    "arpo": 1755,
    "Ġvines": 12745,
    "Ġcarr": 23088,
    "rel": 3753,
    "Ġspind": 18307,
    "gardiner": 12288,
    "Ġcheapside": 23287,
    "Ġmeets": 7396,
    "fury": 17546,
    "Ġderives": 16305,
    "Ġcapable": 5054,
    "Ġfascinating": 17326,
    "Ġjonah": 3481,
    "Ġfacil": 16961,
    "admit": 18090,
    "Ġswain": 18880,
    "comparison": 25840,
    "linging": 16076,
    "b": 70,
    "define": 1525,
    "needles": 20310,
    "ootiful": 17371,
    "Ġwasting": 12724,
    "Ġsufferings": 7513,
    "fen": 20849,
    "Ġoverwhelm": 25052,
    "Ġpropagating": 20632,
    "Ġpled": 17907,
    "Ġheavens": 5050,
    "Ġhercules": 14126,
    "Ġkilled": 4955,
    "Ġopened": 3512,
    "formal": 14169,
    "Ġtechnically": 12363,
    "Ġflow": 1241,
    "Ę": 217,
    "engagements": 25853,
    "Ġflaming": 8563,
    "Ġdecomp": 3810,
    "Ġtasks": 1787,
    "way": 766,
    "Ġpal": 4039,
    "commer": 22802,
    "Ġagrippa": 11803,
    "prejud": 11793,
    "Ġjustly": 11900,
    "persu": 8028,
    "mmed": 7915,
    "remarked": 12285,
    "Ġtakes": 5007,
    "Ġconven": 6151,
    "utherland": 9577,
    "opes": 10309,
    "akened": 7415,
    "skin": 10567,
    "Ġcl": 552,
    "Ġherds": 9714,
    "dz": 4737,
    "Ġsail": 1677,
    "rics": 13033,
    "they": 1880,
    "impenet": 18053,
    "Ġinarticulate": 21498,
    "Ġplun": 6281,
    "tains": 10960,
    "otently": 21798,
    "abomin": 15738,
    "Ġjagged": 18407,
    "Ġlaw": 3653,
    "Ġancestry": 25641,
    "kings": 17582,
    "Ġrage": 5110,
    "mansion": 20982,
    "Ġrocky": 13385,
    "Ġsuggestion": 19706,
    "Ġdull": 6384,
    "Ġstrides": 22616,
    "Ġdropout": 1562,
    "Ġbanish": 15566,
    "deploy": 22141,
    "miserably": 24209,
    "Ġelephant": 8256,
    "Ġagree": 7646,
    "Ġgreenwich": 19320,
    "Ġgoring": 21602,
    "twice": 14620,
    "Ġnocturn": 18374,
    "whenever": 11878,
    "Ġstructures": 2721,
    "alot": 15622,
    "Ġlit": 6246,
    "Ġpassed": 2012,
    "Ġhedges": 19983,
    "Ġencountering": 11268,
    "Ġrides": 21969,
    "Ġwhirl": 13447,
    "pening": 2834,
    "ked": 5615,
    "Ġtusks": 17252,
    "Ġmapple": 11149,
    "Ġguest": 7249,
    "historical": 20464,
    "Ġargu": 10933,
    "Ġstrain": 6024,
    "along": 6013,
    "capitals": 25080,
    "Ġoutrage": 15955,
    "Ġascend": 9958,
    "Ġdeeper": 2083,
    "beings": 12873,
    "Ġimply": 18443,
    "Ġtok": 1246,
    "alarm": 15623,
    "ened": 1389,
    "Ġflogged": 23624,
    "Ġmortifying": 13243,
    "plain": 1358,
    "osh": 18388,
    "oded": 11667,
    "fthand": 26385,
    "Ġsaith": 14154,
    "yingly": 23115,
    "Ġwhisper": 6205,
    "Ġcontemporary": 16009,
    "Ġcharts": 12822,
    "urry": 13991,
    "Ġmiscellaneous": 17461,
    "Ġblade": 11890,
    "Ġacceptance": 14825,
    "Ġconstrain": 2629,
    "Ġsends": 14787,
    "Ġscrewed": 15118,
    "Ġencapsulate": 13672,
    "bermaid": 20789,
    "Ġgrandfather": 19420,
    "Ġutility": 23511,
    "meaning": 2909,
    "Ġcase": 1944,
    "killing": 20941,
    "saw": 5894,
    "ditch": 17527,
    "atus": 21259,
    "Ġsyn": 15909,
    "Ġsensationalism": 26066,
    "goldsmith": 20146,
    "B": 38,
    "Ġkingdom": 12015,
    "regret": 16449,
    "strained": 21656,
    "Ġcongealed": 25981,
    "friends": 8306,
    "save": 13783,
    "Ġskulls": 12956,
    "ient": 394,
    "imately": 12684,
    "form": 502,
    "Ġtriumph": 5143,
    "violets": 23543,
    "Ġcircular": 13108,
    "ested": 3480,
    "pret": 7212,
    "_.)": 7278,
    "Ġcircumst": 2975,
    "Ġsanguinary": 25929,
    "Ġval": 967,
    "preservation": 25305,
    "Ġapproved": 16032,
    "teen": 6370,
    "cnns": 3620,
    "Ġevil": 3804,
    "Ġeconomy": 17199,
    "Ġhos": 4942,
    "Ġrally": 21966,
    "Ġburgled": 23652,
    "Ġcollections": 22858,
    "Ġindividuals": 24545,
    "feed": 9291,
    "Ġgradu": 15829,
    "Ġsealed": 15812,
    "Ġresides": 22538,
    "Ġspont": 22129,
    "Ġsuppose": 2868,
    "charlotte": 6473,
    "Ġfolk": 10374,
    "Ġdescried": 7920,
    "Ġconstable": 19070,
    "Ġread": 1448,
    "Ġaddresses": 3768,
    "Ġimp": 574,
    "amouch": 21849,
    "grin": 19105,
    "Ġsecretary": 19440,
    "beloved": 19459,
    "Ġmorocco": 26572,
    "ogy": 22694,
    "Ġcleaned": 23180,
    "Ġmay": 924,
    "Ġ1807": 26083,
    "Ġstacks": 18074,
    "Ġretreating": 19798,
    "Ġdeified": 18137,
    "Ġsubset": 9868,
    "malice": 17603,
    "Ġstir": 5823,
    "pens": 17631,
    "Ġfile": 13901,
    "iveness": 2470,
    "Ġoutermost": 22317,
    "icting": 12847,
    "Ġplaus": 22600,
    "Ġuncles": 23429,
    "Ġspoon": 22132,
    "blunder": 24127,
    "loath": 22506,
    "arched": 10814,
    "Ġmediocr": 24080,
    "circled": 24186,
    "whale": 2141,
    "allic": 12809,
    "Ġbegrimed": 26577,
    "Ġsigned": 11176,
    "social": 11021,
    "towing": 17688,
    "izz": 7613,
    "Ġcocoanuts": 26362,
    "punishment": 15143,
    "Ġmagnet": 10389,
    "Ġgenerative": 5644,
    "Ġjustified": 11901,
    "Ġkidnapping": 26356,
    "Ġsalad": 19477,
    "ely": 624,
    "Ġ44": 16678,
    "witted": 17706,
    "Ġscript": 18392,
    "enced": 4295,
    "Ġbecause": 2212,
    "oton": 3606,
    "Ġcaress": 16336,
    "shud": 18488,
    "Ġunrival": 22043,
    "eous": 13710,
    "Ġinsens": 8277,
    "Ġcharacteristic": 12045,
    "Ġformless": 22827,
    "pass": 4290,
    "istle": 15867,
    "Ġcalmly": 7734,
    "Ġgang": 9206,
    "Ġern": 8397,
    "Ġmatch": 4527,
    "Ġnantucketer": 6914,
    "Ġfurs": 18738,
    "Ġcalves": 13031,
    "direct": 12453,
    "otted": 14022,
    "Ġvindict": 13603,
    "eyes": 5684,
    "illa": 12789,
    "Ġfoul": 7159,
    "prepared": 13588,
    "Ġenh": 2736,
    "Ġundeniable": 26509,
    "silenced": 24422,
    "Ġmurderer": 4980,
    "aust": 15307,
    "Ġsees": 8841,
    "Ġjollies": 20368,
    "Ġartistic": 18612,
    "Ġparts": 4165,
    "Ġprepared": 5877,
    "afflicted": 23777,
    "Ġpyth": 21460,
    "Ġtidings": 11396,
    "Ġspoils": 24808,
    "Ġbidding": 9535,
    "Ġledger": 19400,
    "Ġbalmy": 22904,
    "Ġrand": 1589,
    "Ġingenuity": 17162,
    "Ġkeeled": 18808,
    "july": 20473,
    "ishness": 22340,
    "Ġproperties": 3120,
    "extensive": 18707,
    "abri": 6682,
    "Ġswinging": 7449,
    "Ġfortunately": 12176,
    "met": 6652,
    "Ġcombination": 22848,
    "Ġunconsciously": 10003,
    "phur": 16150,
    "Ġexordium": 26491,
    "studies": 25166,
    "Ġwhoever": 10974,
    "Ġadopt": 10630,
    "parts": 14600,
    "Ġsource": 6805,
    "Ġevident": 6612,
    "Ġbaggy": 24537,
    "Ġtook": 1854,
    "Ġdrew": 3536,
    "Ġstress": 18066,
    "ē": 212,
    "ledyard": 22389,
    "Ġweltering": 19584,
    "between": 5071,
    "speckled": 23942,
    "determine": 19942,
    "Ġobservant": 20108,
    "Ġhypothe": 4072,
    "ff": 464,
    "Ġmorbidness": 20627,
    "Ġcoffee": 6760,
    "riety": 12740,
    "Ġinstantaneous": 14611,
    "ently": 1450,
    "Ġbuoy": 8004,
    "Ġsple": 21214,
    "Ġsupports": 3053,
    "Ġunrecorded": 17466,
    "Ġaffability": 14386,
    "Ġdistributing": 22677,
    "Ġmaiden": 13384,
    "Ġwalks": 8965,
    "sin": 21047,
    "Ġcorresponds": 19820,
    "Ġzig": 18742,
    "Ġpotency": 14645,
    "Ġnarrowly": 16819,
    "Ġallegor": 25545,
    "ckery": 22088,
    "network": 1917,
    "remains": 10397,
    "Ġcheerless": 16693,
    "atived": 21261,
    "Ġastonishment": 4793,
    "Ġneeds": 6605,
    "Ġomen": 11574,
    "iters": 21327,
    "posterity": 25488,
    "Ġbelonged": 6922,
    "Ġexplained": 5936,
    "lin": 9602,
    "Ġfr": 1698,
    "avers": 17479,
    "invincible": 25089,
    "Ġsteamer": 17187,
    "despatched": 19800,
    "Ġchild": 2263,
    "Ġhandles": 22695,
    "ms": 543,
    "Ġrate": 1065,
    "Ġcran": 11997,
    "hid": 13732,
    "Ġwashed": 15761,
    "Ġdisguises": 25055,
    "Ġhelper": 24023,
    "recol": 10149,
    "Ġvent": 3996,
    "Ġbenevolence": 9525,
    "seam": 10873,
    "Ġjack": 4650,
    "Ġcommunicated": 9060,
    "Ġhandful": 9781,
    "ations": 710,
    "Ġdive": 10171,
    "Ġinteractions": 12899,
    "pierced": 26141,
    "Ġcons": 953,
    "Ġfelicity": 7260,
    "Ġhill": 5626,
    "ilib": 4116,
    "Ġtumble": 16878,
    "miss": 3175,
    "fee": 12876,
    "Ġunnecessary": 8850,
    "Ġinv": 2226,
    "Ġendwise": 23142,
    "respond": 12540,
    "Ġgiddy": 20495,
    "idol": 21764,
    "not": 909,
    "rs": 7808,
    "reasoning": 9474,
    "ah": 1831,
    "Ġbottomless": 12103,
    "Ġparaph": 22118,
    "Ġspeaker": 19148,
    "Ġloggerhead": 13655,
    "iences": 6957,
    "Ġadmiral": 17303,
    "birds": 15142,
    "braid": 17493,
    "garity": 17553,
    "Ġpanting": 11601,
    "Ġjump": 4502,
    "pursued": 17280,
    "burned": 25079,
    "Ġdarling": 12600,
    "Ġsitt": 21216,
    "Ġpinioned": 21481,
    "examined": 17265,
    "Ġweep": 7619,
    "Ġhyp": 3873,
    "ived": 1532,
    "Ġhull": 5446,
    "ĠĠĠĠĠĠĠĠĠĠĠĠĠĠĠĠĠĠĠĠĠĠ": 16224,
    "Ġscaffold": 18394,
    "oregressive": 3423,
    "Ġtried": 3646,
    "ira": 3956,
    "spears": 23939,
    "Ġindoors": 18835,
    ">": 34,
    "Ġsquee": 7929,
    "Ġissu": 6253,
    "Ġguns": 16775,
    "apology": 22332,
    "Ġlining": 13949,
    "Ġped": 6817,
    "Ġdireful": 11018,
    "tarpaulins": 26404,
    "Ġslanting": 23170,
    "ative": 736,
    "Ġthinnest": 24182,
    "fl": 3599,
    "reg": 2186,
    "Ġsplashing": 16548,
    "allies": 14164,
    "Ġseptember": 18205,
    "Ġuncovered": 23430,
    "entiating": 3438,
    "Ġglobe": 6077,
    "ittarius": 22375,
    "Ġascertained": 25296,
    "rential": 22917,
    "leads": 21368,
    "Ġaffectation": 14439,
    "Ġbowing": 10474,
    "shipmates": 11925,
    "arpening": 21442,
    "Ġarmed": 9258,
    "accessible": 13637,
    "Ġsteals": 23082,
    "Ġrecl": 16137,
    "Ġtrust": 4077,
    "mira": 20978,
    "Ġ104": 24411,
    "Ġoaths": 13522,
    "astic": 1869,
    "disposed": 25010,
    "Ġcalf": 16265,
    "cular": 15326,
    "Ġrecording": 24433,
    "Ġemails": 13104,
    "romang": 22003,
    "Ġ51": 24319,
    "uttural": 21587,
    "Ġindicates": 3195,
    "Ġgnashed": 20131,
    "Ġsubsided": 14549,
    "feeling": 6616,
    "amb": 5723,
    "Ġgeneral": 1863,
    "Ġchanges": 2288,
    "reduced": 15802,
    "umst": 2507,
    "Ġwakeful": 24265,
    "Ġlatitude": 8329,
    "Ġac": 845,
    "sche": 13015,
    "nesday": 8702,
    "Ġeditions": 19120,
    "Ġii": 7384,
    "Ġforget": 2634,
    "itoring": 21330,
    "Ġlamb": 8811,
    "receiving": 12539,
    "ual": 945,
    "wickham": 5884,
    "Ġswaths": 23057,
    "Ġperplexity": 2756,
    "ze": 1320,
    "Ġintending": 11702,
    "Ġnervously": 19183,
    "ains": 5094,
    "Ġperdition": 15989,
    "button": 10964,
    "Ġseam": 3908,
    "Ġthreatening": 16827,
    "clo": 5612,
    "orn": 2246,
    "Ġmillar": 13859,
    "Ġintensity": 10014,
    "fiercely": 25256,
    "Ġresult": 4459,
    "lydia": 6826,
    "Ġcontinue": 5398,
    "Ġtistig": 26412,
    "ore": 418,
    "Ġrefuse": 5739,
    "Ġunthink": 18247,
    "Ġfleetness": 20178,
    "oke": 1858,
    "Ġelevation": 14895,
    "Ġsepulchre": 20558,
    "Ġnowadays": 18546,
    "Ġdom": 2699,
    "Ġstumbling": 21740,
    "note": 14338,
    "Ġsolitary": 5854,
    "construction": 19777,
    "lier": 20948,
    "fa": 7336,
    "consideration": 14953,
    "Ġnewsp": 9337,
    "Ġuniversity": 13120,
    "Ġpriests": 15039,
    "machines": 8385,
    "Ġsurve": 9872,
    "Ġincorporate": 20453,
    "Ġdawn": 6816,
    "Ġfestoon": 20293,
    "Ġharriet": 24571,
    "fast": 3072,
    "Ġfro": 3471,
    "_,âĢĻ": 12430,
    "Ġrelease": 19289,
    "Ġ107": 24414,
    "Ġscandinav": 19958,
    "russian": 22177,
    "Ġeuropean": 20044,
    "Ġretort": 23068,
    "Ġ1846": 26084,
    "amed": 4448,
    "ieces": 4771,
    "Ġsuggestions": 24452,
    "affa": 23775,
    "Ġpulled": 5660,
    "Ġfringed": 17271,
    "humor": 19450,
    "icil": 17971,
    "soft": 12506,
    "Ġcasked": 24496,
    "Ġhers": 7890,
    "Ġweb": 9238,
    "Ġard": 5164,
    "Ġpacked": 9978,
    "Ġgas": 8133,
    "many": 5249,
    "assisted": 22305,
    "Ġrealise": 16334,
    "Ġdespair": 4008,
    "more": 1033,
    "Ġseriously": 7061,
    "torm": 11529,
    "Ġtuileries": 24826,
    "Ġoccasionally": 5589,
    "Ġadmir": 12018,
    "vand": 21107,
    "Ġlocal": 1201,
    "Ġsuspicion": 6211,
    "iated": 5890,
    "best": 6111,
    "remental": 21246,
    "named": 9889,
    "Ġbroods": 23100,
    "held": 3839,
    "dening": 22776,
    "Ġbegrim": 23013,
    "abiding": 21791,
    "isely": 4487,
    "jam": 15369,
    "Ġdams": 16454,
    "come": 2381,
    "Ġrange": 9710,
    "Ġcompressed": 21843,
    "steelkilt": 10045,
    "Ġ120": 16857,
    "Ġending": 18189,
    "Ġquietly": 4565,
    "Ġhumble": 8551,
    "Ġwhitting": 18055,
    "lover": 18536,
    "Ġsouth": 4911,
    "fer": 1964,
    "Ġhog": 13922,
    "inv": 8401,
    "Ġtallest": 15472,
    "ission": 6457,
    "Ġsuffering": 8945,
    "Ġphrenologist": 25607,
    "Ġdiabolical": 20341,
    "ounders": 22391,
    "Ġfoes": 11949,
    "flu": 9116,
    "Ġchimer": 24603,
    "Ġfries": 21414,
    "Ġairy": 23315,
    "Ġpositives": 4316,
    "daring": 20828,
    "close": 9984,
    "Ġclung": 10956,
    "Ġuncertain": 4066,
    "Ġfebruary": 15910,
    "idious": 11660,
    "Ġvind": 10248,
    "Ġmelt": 21316,
    "Ġknee": 7093,
    "Ġnameless": 7700,
    "weaving": 18666,
    "Ġdespite": 19351,
    "Ġagreeably": 24952,
    "``": 15304,
    "Ġshoreless": 24294,
    "Ġoverlook": 10959,
    "Ġabsurdities": 24879,
    "Ġprophesied": 26062,
    "Ġrelaps": 18775,
    "ck": 436,
    "Ġtropic": 17063,
    "bowl": 14889,
    "Ġcurses": 13005,
    "Ġapprove": 12869,
    "bloom": 24689,
    "precious": 12069,
    "Ġhoarsely": 26302,
    "Ġsordid": 26421,
    "Ġperiodical": 14770,
    "Ġproduce": 4366,
    "sar": 12501,
    "Ġcomforters": 25800,
    "ampl": 21846,
    "Ġcreamy": 14328,
    "Ġcalam": 13030,
    "ĠĠĠĠĠĠĠĠĠĠĠĠĠĠĠĠĠĠĠĠĠĠĠĠĠĠĠĠĠĠĠĠĠĠĠĠĠĠĠĠĠĠĠ": 12151,
    "idel": 5299,
    "honorable": 19900,
    "Ġardently": 9496,
    "Ġtartar": 17320,
    "unbounded": 21883,
    "Ġchat": 6560,
    "Ġlovers": 9718,
    "inaw": 21182,
    "antage": 3879,
    "Ġexpert": 18868,
    "Ġberry": 19745,
    "higher": 20405,
    "Ġsensible": 4976,
    "âĢĿ--": 21814,
    "Ġtus": 10748,
    "Ġmarrying": 6177,
    "avor": 14275,
    "Ġgent": 7383,
    "Ġhanded": 8217,
    "Ġsebastian": 11693,
    "Ġhor": 1666,
    "Ġmalicious": 10556,
    "Ġabsorb": 25112,
    "Ġemblaz": 16238,
    "squ": 7810,
    "uary": 11536,
    "Ġxxxvi": 24971,
    "ne": 643,
    "Ġsample": 3179,
    "Ġsaws": 23047,
    "Ġremarked": 3694,
    "dough": 15333,
    "sounded": 12263,
    "velling": 14760,
    "Ġug": 8141,
    "Ġtis": 15463,
    "Ġpast": 2099,
    "iday": 8828,
    "Ġdays": 2077,
    "Ġcolossal": 11458,
    "Ġhooped": 23354,
    "Ġstanzas": 21742,
    "Ġhooded": 12403,
    "enari": 21280,
    "reject": 21235,
    "Ġfisherman": 12072,
    "stead": 10845,
    "ineering": 21979,
    "Ġextrem": 2478,
    "enance": 3371,
    "Ġhence": 4989,
    "jaws": 20931,
    "ulties": 12897,
    "Ġfurious": 10352,
    "Ġhail": 7400,
    "Ġoakshott": 12226,
    "Ġzoology": 22819,
    "han": 12469,
    "Ġexerted": 15751,
    "hors": 9597,
    "Ġcoach": 6867,
    "Ġdiscern": 7657,
    "Ġgibberish": 25786,
    "Ġrocks": 6863,
    "peleg": 16291,
    "ost": 5360,
    "Ġriggers": 24155,
    "oran": 8787,
    "threat": 10899,
    "tornadoes": 26153,
    "command": 6576,
    "centred": 25017,
    "governed": 25405,
    "ctor": 13958,
    "Ġsubmerged": 11869,
    "Ġhandsomer": 20332,
    "wel": 6117,
    "Ġdebts": 8036,
    "tempt": 21078,
    "Ġaccomp": 4710,
    "Ġsegmentation": 17338,
    "Ġinquir": 4242,
    "Ġinvention": 19951,
    "apple": 22839,
    "Ġprevailed": 7778,
    "Ġgallantry": 15101,
    "maid": 8553,
    "Ġprominence": 18953,
    "ribed": 7693,
    "ult": 723,
    "endure": 22211,
    "Ġimbalance": 22172,
    "agree": 14065,
    "iature": 8741,
    "Ġfurnishes": 19439,
    "nson": 16088,
    "Ġlaz": 7378,
    "Ġuninterrupted": 22042,
    "Ġbapt": 13894,
    "onged": 18410,
    "Ġcitadel": 25438,
    "Ġfortunes": 12175,
    "agger": 7873,
    "combe": 7660,
    "Ġinspirited": 23419,
    "Ġjaws": 5592,
    "days": 7688,
    "Ġhighland": 18711,
    "Ġinches": 5845,
    "Ġconventional": 25547,
    "anybody": 12079,
    "romising": 18233,
    "appropri": 22840,
    "wrinkles": 16553,
    "reached": 13839,
    "xic": 9144,
    "affectionate": 24921,
    "Ġscheming": 23270,
    "Ġvillage": 5774,
    "Ġdrily": 23539,
    "Ġregimentals": 19857,
    "Ġdraw": 3669,
    "cc": 472,
    "secondly": 16983,
    "obtain": 23091,
    "gd": 3126,
    "Ġaforethought": 25428,
    "Ġangry": 5498,
    "arn": 358,
    "chairs": 21691,
    "Ġaffliction": 25844,
    "Ġother": 760,
    "resent": 10768,
    "Ġlucifers": 16586,
    "rap": 21626,
    "Ġresembles": 25969,
    "cousins": 20116,
    "Ġoverall": 4357,
    "Ġrippling": 17276,
    "Ġsuperglue": 23456,
    "ividual": 5463,
    "whe": 1077,
    "Ġbabes": 24424,
    "rowsers": 8694,
    "Ġsplinter": 23746,
    "Ġreader": 11931,
    "Ġporter": 15607,
    "Ġoutright": 18412,
    "Ġengravings": 15065,
    "Ġcountenances": 11961,
    "Ġmultipl": 2793,
    "salesman": 20670,
    "Ġdominion": 16521,
    "Ġproceeds": 12074,
    "mme": 22498,
    "Ġdesmarest": 22977,
    "Ġfelt": 1746,
    "weaknesses": 26030,
    "Ġexchanged": 10877,
    "Ġfavoring": 2348,
    "Ġholiday": 12994,
    "Ġcomprised": 14266,
    "uit": 8393,
    "Ġcompat": 2938,
    "mine": 5617,
    "epilogue": 22104,
    "hogs": 20080,
    "Ġgentlemanlike": 12063,
    "thur": 7188,
    "Ġ96": 24593,
    "Ġlux": 8812,
    "appalled": 18760,
    "Ġincognit": 22552,
    "tenham": 16320,
    "halfway": 24310,
    "Ġadvertise": 25388,
    "headsman": 16699,
    "Ġinterruptions": 24185,
    "Ġspermaceti": 8966,
    "Ġcaptioning": 23018,
    "Ġwrongfully": 24247,
    "Ġshowed": 4495,
    "mag": 6508,
    "Ġcab": 2633,
    "shame": 16020,
    "Ġconfine": 14507,
    "Ġmutter": 23951,
    "club": 26379,
    "eled": 2362,
    "Ġconvers": 2908,
    "Ġmotion": 4564,
    "Ġprovincial": 20649,
    "Ġscreening": 25299,
    "Ġxi": 16427,
    "resnet": 4068,
    "Ġpractice": 2870,
    "twelvemonth": 25862,
    "settle": 16660,
    "Ġindiam": 22951,
    "Ġinnermost": 12157,
    "Ġlying": 4825,
    "horrible": 14599,
    "Ġshears": 18319,
    "ake": 749,
    "etymology": 14699,
    "Ġneighbouring": 12115,
    "Ġconfusing": 23304,
    "Ġmosses": 20162,
    "Ġreeds": 15692,
    "Ġwisest": 11232,
    "andering": 21865,
    "Ġwil": 4578,
    "Ġdrop": 4343,
    "cooee": 12415,
    "hatred": 24821,
    "so": 891,
    "Ġwad": 13849,
    "prejudiced": 17295,
    "Ġsubtile": 20378,
    "Ġpratt": 23219,
    "Ġshipw": 12975,
    "Ġplease": 4721,
    "Ġomin": 11575,
    "Ġrephr": 21677,
    "Ġyanke": 18097,
    "monograph": 23524,
    "Ġencounter": 6627,
    "dry": 13701,
    "Ġturbid": 23610,
    "yes": 982,
    "atered": 22070,
    "cuniary": 26378,
    "Ġacross": 1331,
    "Ġin": 291,
    "trees": 10730,
    "Ġprovinc": 16741,
    "Ġtechn": 9364,
    "Ġhe": 318,
    "Ġult": 9073,
    "age": 505,
    "Ġengineering": 3029,
    "Ġspire": 18306,
    "Ġbrack": 23833,
    "roads": 17957,
    "anelles": 26433,
    "wandering": 20283,
    "Ġfaded": 10808,
    "ĠĠĠĠĠĠĠĠĠĠĠĠĠĠĠĠĠ": 22947,
    "Ġpurpose": 2709,
    "Ġmitt": 21306,
    "Ġuninjured": 22052,
    "rasing": 21044,
    "Ġthanking": 18603,
    "Ġdepl": 14042,
    "Ġcream": 22722,
    "Ġtransform": 759,
    "Ġexig": 21824,
    "Ġpile": 8424,
    "gers": 8376,
    "Ġbattered": 17862,
    "hunted": 16831,
    "Ġupwards": 7633,
    "event": 8077,
    "Ġenchantment": 24869,
    "adders": 24399,
    "interchange": 23738,
    "Ġterritories": 23843,
    "Ġchap": 5934,
    "Ġtenants": 23546,
    "Ġpace": 9182,
    "Ġimmensely": 13593,
    "situation": 11436,
    "Ġlevers": 18077,
    "Ġhonors": 23600,
    "catch": 17505,
    "Ġsandwiched": 26609,
    "colonel": 8285,
    "rusion": 11322,
    "preced": 10307,
    "Ġmethod": 1447,
    "59": 17472,
    "Ġcoefficient": 2886,
    "Ġprofuse": 23565,
    "Ġinterpreted": 1714,
    "Ġunspeak": 8849,
    "Ġminimize": 7050,
    "Ġsuggest": 5417,
    "Ġunder": 1642,
    "whalebone": 19118,
    "Ġships": 3713,
    "Ġrequesting": 24633,
    "superior": 9523,
    "anced": 1318,
    "ppa": 10238,
    "Ġbulkington": 14676,
    "Ġinsupportable": 13930,
    "cible": 20805,
    "Ġpretend": 7722,
    "Ġent": 904,
    "Ġaunt": 3178,
    "uned": 21869,
    "Ġstudents": 23234,
    "Ġextravagance": 17278,
    "Ġwash": 9701,
    "Ġaware": 5756,
    "Ġincorpor": 13163,
    "volous": 18599,
    "ipelagoes": 13669,
    "Ġregarded": 5762,
    "hard": 4687,
    "Ġmanifested": 17156,
    "Ġground": 2848,
    "Ġresist": 7917,
    "Ġwatching": 4853,
    "Ġross": 2765,
    "Ġdisappears": 18560,
    "giving": 8738,
    "Ġfetch": 7770,
    "Ġstepfather": 7221,
    "Ġlawless": 19433,
    "Ġcareer": 11117,
    "ocr": 10467,
    "stript": 21655,
    "stick": 15681,
    "Ġsurprised": 3829,
    "Ġpork": 21456,
    "cellar": 20276,
    "Ġmeasuring": 22880,
    "Ġsemblance": 20733,
    "Ġopal": 23625,
    "Ġate": 8838,
    "Ġfamous": 5255,
    "zetts": 17713,
    "Ġmant": 9646,
    "Ġthreats": 13375,
    "Ġbob": 22634,
    "Ġpyramid": 8800,
    "fulfilment": 26025,
    "Ġbliss": 12997,
    "Ġrummaged": 16909,
    "urance": 10856,
    "splash": 25209,
    "bru": 12436,
    "Ġdum": 10810,
    "Ġdeliverance": 15155,
    "entials": 22662,
    "Ġlashing": 11614,
    "Ġphenomena": 21482,
    "Ġrapture": 13493,
    "Ġunheard": 22021,
    "reach": 17756,
    "Ġvolition": 14796,
    "Ġchildren": 3767,
    "Ġcalifornian": 25851,
    "Ġalluding": 18236,
    "ens": 701,
    "captains": 12124,
    "arthur": 14828,
    "Ġdick": 3497,
    "model": 4716,
    "Ġcovered": 5171,
    "Ġscene": 3099,
    "terday": 4702,
    "Ġbon": 8784,
    "Ġvibrated": 25045,
    "Ġindef": 9188,
    "allen": 22194,
    ".]": 15296,
    "Ġfilling": 13406,
    "Ġmod": 499,
    "progression": 20380,
    "nals": 16397,
    "Ġplayful": 19235,
    "gged": 3776,
    "q": 85,
    "ards": 2508,
    "Ġfatal": 5871,
    "Ġintentions": 10606,
    "though": 2117,
    "Ġfainted": 8790,
    "Ġeigenvalues": 4998,
    "Ġconvincing": 19306,
    "philosophy": 13578,
    "Ġcalling": 5662,
    "Ġsurprise": 3828,
    "Ġgleamed": 17076,
    "requirements": 24857,
    "Ġindeed": 1684,
    "Ġstony": 21737,
    "Ġtug": 11549,
    "Ġleyden": 21745,
    "opposing": 24825,
    "Ġwestmorland": 24389,
    "Ġegot": 18007,
    "Ġstaving": 21735,
    "example": 16010,
    "Ġorder": 1689,
    "cruet": 17025,
    "Ġxxv": 19716,
    "Ġwharf": 9558,
    "species": 13254,
    "Ġfollies": 16251,
    "Ġprivileged": 20111,
    "Ġshar": 9248,
    "Ġassertions": 19945,
    "rell": 11562,
    "Ġpurses": 23475,
    "chanced": 18803,
    "illum": 15866,
    "Ġhereditarily": 25224,
    "borough": 20784,
    ")": 13,
    "Ġdefection": 22940,
    "Ġintertw": 18586,
    "supers": 22638,
    "Ġexploring": 4304,
    "Ġcapsized": 20088,
    "Ġhabitations": 24789,
    "Ġimposed": 14212,
    "Ġminimizes": 2047,
    "owing": 7601,
    "post": 6062,
    "cut": 3125,
    "Ġvesuvius": 26500,
    "Ġpouch": 21468,
    "Ġlocking": 18298,
    "Ġcrest": 12937,
    "ohnson": 16324,
    "Ġadieus": 25110,
    "lude": 6161,
    "escape": 16004,
    "Ġpatience": 3001,
    "Ġtries": 9149,
    "Ġare": 527,
    "Ġinfiltrated": 23282,
    "Ġsmothered": 20719,
    "Ġinvolves": 1112,
    "lungs": 26135,
    "Ġwiping": 25765,
    "Ġreve": 2933,
    "Ġdescribes": 3123,
    "slanting": 24557,
    "Ġprevented": 5942,
    "Ġmanagement": 8193,
    "moral": 14800,
    "Ġperson": 2372,
    "Ġsixteen": 8283,
    "relapse": 24013,
    "Ġmonosyllable": 20725,
    "Ġrespond": 11175,
    "Ġenem": 4705,
    "Ġhatches": 12042,
    "dering": 5305,
    "newsp": 23133,
    "ogany": 18672,
    "uc": 1877,
    "Ġinexhaustible": 16980,
    "Ġmrs": 1468,
    "Ġheightens": 24153,
    "Ġric": 18209,
    "spr": 7435,
    "Ġjetted": 24430,
    "Ġsolicited": 20035,
    "Ġagonized": 25372,
    "Ġpudding": 17915,
    "Ġmulti": 1044,
    "slipping": 25528,
    "occasional": 19575,
    ",--": 2480,
    "record": 16920,
    "Ġascending": 14852,
    "Ġbount": 15564,
    "Ġcontinual": 6777,
    "Ġreserve": 9969,
    "extra": 8219,
    "Ġgeor": 3387,
    "Ġstone": 4643,
    "Ġgreece": 17068,
    "full": 7420,
    "Ġsurgeons": 23463,
    "lightning": 16550,
    "Ġart": 747,
    "Ġrelationships": 2926,
    "onies": 6806,
    "Ġont": 18116,
    "Ġcaught": 3729,
    "Ġodorous": 19565,
    "Ġgirth": 13134,
    "Ġed": 2146,
    "goodness": 19287,
    "Ġbrighter": 16185,
    "Ġcomplet": 4422,
    "Ġnamed": 6139,
    "Ġcollins": 2183,
    "lotts": 23823,
    "Ġshipping": 14102,
    "Ġeither": 2604,
    "Ġsagacious": 14969,
    "Ġpresuming": 16792,
    "Ġflooded": 24961,
    "Ġgrapes": 15213,
    "Ġtwig": 11847,
    "Ġhoarse": 14525,
    "Ġconclusions": 10552,
    "Ġwarb": 17787,
    "Ġcrevice": 22726,
    "Ġquakers": 22414,
    "Ġbrow": 3987,
    "Ġdemean": 12719,
    "icacy": 15654,
    "Ġanswerable": 23469,
    "iciency": 9573,
    "Ġwhom": 1829,
    "Ġnast": 15635,
    "Ġmitigating": 1621,
    "Ġsecondly": 14516,
    "Ġdeck": 2139,
    "rossed": 11012,
    "irect": 5552,
    "pulled": 25145,
    "dish": 12449,
    "otions": 7180,
    "chor": 6146,
    "Ġobstetrics": 24678,
    "condesc": 18505,
    "Ġraptures": 13494,
    "Ġbar": 3149,
    "Ġroylott": 7305,
    "Ġargemone": 24273,
    "grounds": 11150,
    "ots": 3296,
    "leagued": 26434,
    "Ġselection": 18202,
    "rical": 11517,
    "Ġslee": 8973,
    "Ġcherub": 23286,
    "lux": 14225,
    "Ġthen": 665,
    "Ġspir": 2430,
    "Ġworm": 9161,
    "Ġcollectively": 19966,
    "ail": 565,
    "ĠĠĠĠĠĠĠĠĠĠĠĠĠĠĠĠĠĠĠĠĠĠĠĠĠĠĠĠĠĠĠĠĠ": 12040,
    "gans": 11488,
    "rage": 10842,
    "st": 316,
    "Ġbaboon": 19692,
    "Ġdormouse": 4925,
    "Ġsketch": 16162,
    "supposed": 13313,
    "veral": 2358,
    "Ġsitu": 3495,
    "active": 16100,
    "Ġconverse": 11844,
    "Ġbeheaded": 11654,
    "20": 20752,
    "occupations": 24966,
    "terbury": 21822,
    "Ġinscrut": 10032,
    "Ġswitzerland": 10378,
    "Ġtraversed": 18892,
    "ship": 1394,
    "inkling": 16086,
    "naturalists": 23527,
    "Ġheading": 8934,
    "Ġclap": 10955,
    "Ġremote": 8918,
    "Ġtackle": 9511,
    "Ġgoing": 2066,
    "Ġpitch": 5767,
    "Ġprophet": 7681,
    "iamond": 14589,
    "Ġcelebrated": 13592,
    "Ġsevent": 18200,
    "Ġmonsie": 11446,
    "Ġlieuten": 13324,
    "cross": 3575,
    "Ġinterested": 6458,
    "Ġlists": 11165,
    "shoe": 14965,
    "Ġclattered": 22347,
    "Ġtrod": 15025,
    "Ġcontrast": 2119,
    "Ġmayhew": 12946,
    "Ġcurtain": 14408,
    "altern": 17941,
    "developed": 15262,
    "Ġcanterbury": 22166,
    "narwhale": 17316,
    "auley": 22620,
    "Ġimpossibility": 20646,
    "impatiently": 20469,
    "mem": 10708,
    "Ġimaginations": 16514,
    "Ġturnpike": 23024,
    "atter": 653,
    "mospheric": 17090,
    "verest": 13989,
    "Ġtot": 4186,
    "Ġquant": 6424,
    "Ġsaratoga": 26422,
    "olerable": 7182,
    "Ġdeepest": 8213,
    "Ġambitious": 18513,
    "asible": 21540,
    "ď": 208,
    "ravelled": 18014,
    "caps": 20806,
    "Ġ63": 24365,
    "pleasures": 24043,
    "except": 5383,
    "Ġabund": 8864,
    "horner": 23613,
    "Ġfeigned": 22208,
    "jump": 10102,
    "por": 2153,
    "approb": 11041,
    "Ġmultiple": 1188,
    "Ġshol": 21993,
    "Ġfaster": 3198,
    "Ġaffinity": 18790,
    "Ġfewer": 16222,
    "Ġrejoined": 14925,
    "Ġcouch": 12567,
    "Ġenquired": 21938,
    "Ġattractive": 25575,
    "Ġinaudible": 21497,
    "breeze": 20561,
    "Ġintended": 5547,
    "Ġign": 8295,
    "shooting": 16964,
    "Ġwonderfully": 10429,
    "cial": 2648,
    "Ġpauses": 14813,
    "Ġinferred": 14500,
    "convenient": 12234,
    "Ġdazzling": 15209,
    "Ġgrounds": 6749,
    "arctic": 12606,
    "Ġinoffensive": 21496,
    "Ġtraits": 23073,
    "Ġnot": 413,
    "Ġbrace": 11210,
    "Ġeth": 17715,
    "Ġinterrupt": 4358,
    "ext": 921,
    "Ġvii": 13106,
    "Ġneural": 620,
    "wards": 1276,
    "Ġevap": 19622,
    "Ġproposal": 10017,
    "freely": 16853,
    "Ġposter": 14274,
    "Ġmightiest": 12957,
    "Ġemerge": 14926,
    "impat": 11200,
    "Ġtype": 2021,
    "ç": 168,
    "Ġregulate": 22585,
    "Ġrecept": 1523,
    "Ġpewter": 17184,
    "04": 10678,
    "Ġlub": 15645,
    "stra": 4043,
    "Ġstatue": 23147,
    "particip": 23615,
    "Ġther": 17777,
    "Ġcontemplate": 19891,
    "canoes": 16230,
    "Ġhavoc": 15810,
    "Ġglassy": 19559,
    "Ġbrawny": 13611,
    "Ġtests": 8955,
    "Ġletters": 3791,
    "apothecary": 26544,
    "Ġimprec": 14215,
    "Ġtack": 5620,
    "rene": 5379,
    "Ġdesperately": 24656,
    "rope": 3186,
    "pul": 8753,
    "Ġeliminating": 20618,
    "augmented": 26286,
    "Ġdecayed": 22825,
    "Ġcommendation": 13608,
    "?--": 15301,
    "Ġdeemed": 7612,
    "Ġsolid": 6443,
    "Ġtarts": 10752,
    "Ġeverybody": 4509,
    "ression": 3404,
    "Ġforemost": 12001,
    "Ġmeas": 1098,
    "ses": 3030,
    "Ġbustle": 17226,
    "Ġdut": 2989,
    "Ġbecame": 2691,
    "oology": 21005,
    "Ġshown": 5159,
    "Ġfreshly": 23984,
    "Ġfrench": 4939,
    "Ġyoun": 1409,
    "iod": 3838,
    "Ġtenderly": 11313,
    "Ġdishonor": 25601,
    "blast": 9586,
    "Ġchamois": 16799,
    "Ġcocain": 18592,
    "abulary": 4799,
    "Ġoakum": 16933,
    "leaped": 17843,
    "Ġtroubled": 6615,
    "Ġ47": 14769,
    "Ġex": 361,
    "ú": 187,
    "Ġfibres": 12947,
    "satisf": 5781,
    "Ġeddystone": 25709,
    "painting": 17045,
    "Ġtrades": 8232,
    "fainting": 20471,
    "Ġdeveloped": 16339,
    "Ġhammers": 13238,
    "Ġrelatives": 12978,
    "aciously": 12903,
    "Ġsam": 7569,
    "drunk": 24659,
    "nihil": 9840,
    "ravity": 21633,
    "throw": 14096,
    "Ġfemales": 14935,
    "itering": 17818,
    "Ġinj": 4759,
    "ss": 396,
    "Ġsmacking": 20164,
    "Ġtops": 14585,
    "ittance": 12841,
    "present": 1136,
    "Ġtatters": 21176,
    "aled": 3943,
    "Ġachieve": 3671,
    "ertain": 1209,
    "Ġceased": 6468,
    "Ġprovidence": 18745,
    "Ġstratag": 26028,
    ",--âĢľ": 19196,
    "brilliancy": 26077,
    "Ġseparating": 16684,
    "returning": 12202,
    "Ġfondness": 16779,
    "Ġqualified": 14948,
    "Ġmetallic": 19053,
    "droppers": 24759,
    "Ġclank": 15961,
    "swed": 24252,
    "Ġant": 4344,
    "Ġcler": 11767,
    "osa": 22258,
    "erated": 21270,
    "worm": 15451,
    "Ġpremeditated": 22232,
    "Ġespecially": 3935,
    "ished": 1428,
    "imprudent": 14650,
    "Ġperseverance": 13595,
    "Ġremarkable": 4915,
    "Ġwilderness": 14838,
    "Ġhum": 1099,
    "Ġthoughts": 3139,
    "Ġrevolt": 24500,
    "runs": 25415,
    "whiteness": 18370,
    "Ġf": 283,
    "conv": 7213,
    "Ġconstrued": 26301,
    "uing": 17692,
    "Ġdisplays": 19856,
    "Ġpanelled": 19653,
    "Ġtowed": 11264,
    "rear": 21231,
    "moran": 24151,
    "Ġwhosoever": 21717,
    "telesc": 22816,
    "originally": 24937,
    "collar": 19327,
    "Ġonto": 14026,
    "Ġconquer": 14025,
    "oning": 7572,
    "ccarthy": 4888,
    "beyond": 8881,
    "Ġcoincidences": 26363,
    "Ġfriends": 2654,
    "pudding": 17646,
    "Ġmug": 21311,
    "suspect": 9538,
    "orrow": 2916,
    "Ġhar": 5814,
    "Ġlengthwise": 10451,
    "god": 4863,
    "Ġjohnson": 18409,
    "touched": 15437,
    "\",": 10677,
    "already": 6980,
    "els": 1763,
    "Ġroving": 22401,
    "Ġdog": 4193,
    "try": 7813,
    "Ġconcluding": 9855,
    "Ġkissed": 10043,
    "rug": 18336,
    "Ġprimal": 17106,
    "feelings": 5674,
    "Ġwashes": 21859,
    "Ġseals": 11692,
    "problems": 11433,
    "wilful": 25086,
    "venth": 9293,
    "ish": 551,
    "Ġ130": 24781,
    "Ġsuperfluous": 17412,
    "black": 6768,
    "Ġconcert": 11964,
    "ising": 2257,
    "kshire": 13744,
    "Ġmorphology": 3012,
    "ingham": 21299,
    "Ġrefinement": 18700,
    "boone": 23253,
    "Ġleaders": 16626,
    "Ġguidance": 9415,
    "Ġdisgust": 6705,
    "Ġmedicine": 15203,
    "white": 4600,
    "Ġspirit": 3723,
    "Ġmidst": 7986,
    "interred": 23736,
    "Ġinquest": 16545,
    "Ġassailants": 20447,
    "acetty": 24463,
    "Ġtruth": 3320,
    "Ġbennet": 1579,
    "Ġbus": 1905,
    "Ġlong": 795,
    "Ġprevail": 13440,
    "vanished": 15061,
    "Ġhopes": 4234,
    "spouter": 22732,
    "Ġstirs": 14915,
    "Ġanimating": 23422,
    "Ġdisappointed": 7097,
    "Ġallegro": 25794,
    "Ġhold": 2247,
    "Ġwithdrawn": 10605,
    "oked": 4307,
    "ounder": 11741,
    "Ġimmensity": 25329,
    "even": 3836,
    "ada": 14009,
    "struck": 7863,
    "confidential": 25876,
    "ann": 5802,
    "Ġanonym": 17897,
    "Ġdisplayed": 10607,
    "Ġwishes": 4794,
    "ominy": 13976,
    "istically": 14142,
    "Ġassociates": 24712,
    "Ġoccasional": 7289,
    "ok": 572,
    "ronted": 14875,
    "afric": 19178,
    "Ġunderneath": 16335,
    "Ġimag": 2675,
    "Ġsolicitude": 10038,
    "Ġtravel": 5953,
    "Ġtinkling": 25212,
    "Ġsettles": 22918,
    "scept": 21052,
    "Ġfin": 1461,
    "Ġxiv": 23406,
    "Ġsol": 1105,
    "Ġcomplicated": 14733,
    "Ġwis": 3727,
    "Ġresc": 4505,
    "beaten": 20314,
    "Ġinestimable": 17440,
    "je": 11494,
    "Ġwoven": 9924,
    "Ġsanct": 15063,
    "umer": 9256,
    "Ġpol": 2577,
    "Ġovers": 14203,
    "Ġarrogance": 26231,
    "Ġowners": 7663,
    "adventure": 17232,
    "Ġ74": 24260,
    "Ġmuffled": 10639,
    "ppers": 7617,
    "Ġboat": 1277,
    "Ġinserted": 8356,
    "glit": 23848,
    "Ġfits": 8789,
    "Ġdreading": 23797,
    "marks": 7346,
    "trifling": 19412,
    "Ġsheaves": 22156,
    "Ġseeks": 14303,
    "brothers": 17023,
    "Ġfidel": 12592,
    "Ġdeem": 18133,
    "Åĵ": 10743,
    "Ġanon": 9665,
    "Ġestimation": 11217,
    "indust": 18435,
    "born": 7543,
    "chants": 21690,
    "Ġderanged": 23172,
    "Ġmechanisms": 1580,
    "Ġimpulse": 10022,
    "ferred": 16411,
    "turns": 14904,
    "Ġbump": 9658,
    "joined": 13272,
    "dum": 17517,
    "sound": 6799,
    "Ġdense": 8123,
    "strangers": 20335,
    "disappearing": 23500,
    "Ġascribed": 14853,
    "measure": 10029,
    "Ġwitnessing": 19597,
    "madly": 24419,
    "slept": 17168,
    "Ġassaulted": 25320,
    "Ġabused": 22277,
    "Ġprices": 15608,
    "befriend": 22490,
    "Ġemac": 16404,
    "Ġdisclose": 16153,
    "Ġsolely": 9908,
    "ropol": 10952,
    "Ġvancouver": 26564,
    "Ġclosely": 6488,
    "Ġlavater": 20494,
    "Ġtrait": 23072,
    "Ġcollateral": 20070,
    "Ġprairie": 8712,
    "Ġdoubts": 8579,
    "Ġimpass": 15982,
    "ings": 636,
    "Ġbison": 21386,
    "Ġpremature": 3724,
    "Ġturbulence": 26596,
    "Ġimages": 1604,
    "Ġunsophisticated": 25992,
    "comra": 16164,
    "nns": 1894,
    "Ġpraised": 19552,
    "Ġconnections": 969,
    "drawers": 19384,
    "ineff": 21978,
    "Ġtill": 1823,
    "Ġexclaimed": 4680,
    "Ġfurniture": 6476,
    "private": 13580,
    "Ġwaiter": 16357,
    "Ġfeebly": 24877,
    "Ġcease": 7076,
    "Ġbraved": 23835,
    "Ġadmitted": 8985,
    "Ġgrudge": 20692,
    "ainty": 21785,
    "Ġremorse": 6441,
    "arent": 4249,
    "Ġstings": 21732,
    "Ġrecovered": 5481,
    "gam": 10094,
    "Ġreminisc": 18725,
    "pence": 15407,
    "Ġslippery": 12163,
    "Ġsign": 2498,
    "Ġnam": 17948,
    "personal": 24965,
    "Ġdip": 13905,
    "pires": 13773,
    "Ġhazarded": 25654,
    "explanation": 12355,
    "rig": 7556,
    "icious": 7380,
    "lod": 15376,
    "keeping": 8634,
    "ung": 2746,
    "Ġfathom": 17047,
    "ssible": 2993,
    "Ġduty": 4069,
    "Ġbeholding": 8668,
    "Ġounce": 15270,
    "Ġat": 395,
    "Ġcarpets": 18902,
    "ilingly": 21721,
    "hab": 1081,
    "impart": 21707,
    "Ġopenshaw": 7955,
    "ª": 108,
    "Ġpeev": 22691,
    "dramatic": 19383,
    "Ġdozing": 22241,
    "Ġpick": 4256,
    "Ġnieces": 8433,
    "Ġintervene": 25480,
    "Ġchoking": 15931,
    "spot": 9787,
    "Ġeffective": 1251,
    "allingly": 22197,
    "Ġunknown": 4452,
    "Ġpursuing": 9436,
    "according": 12024,
    "Ġflounders": 23011,
    "Ġpeevish": 26556,
    "Ġsternly": 16708,
    "Ġprejud": 6851,
    "uneasiness": 23686,
    "Ġdear": 1538,
    "seemed": 4303,
    "Ġunfitted": 24105,
    "spirits": 8055,
    "fill": 15348,
    "omely": 21637,
    "Ġjonas": 20608,
    "accidents": 19211,
    "interesting": 12198,
    "Ġchange": 1996,
    "Ġguardian": 14940,
    "answered": 10272,
    "remorse": 14465,
    "Ġcloak": 9532,
    "Ġenergies": 25459,
    "introdu": 8936,
    "Ġassuring": 13060,
    "ublic": 11226,
    "Ġballs": 9013,
    "knowing": 10436,
    "Ġfilled": 4394,
    "Ġtrample": 20326,
    "Ġserpent": 6737,
    "Ġallow": 1127,
    "committed": 18733,
    "Ġfinal": 5400,
    "omnipotent": 25964,
    "Ġchink": 15929,
    "Ġsuspicions": 9477,
    "inion": 2878,
    "¢": 100,
    "lovely": 16043,
    "Ġmorning": 1748,
    "Ġimperson": 14216,
    "Ġcrony": 23439,
    "abash": 18107,
    "Ġpierced": 12278,
    "Ġpartial": 2129,
    "Ġmoby": 3663,
    "Ġfinest": 10391,
    "Ġattested": 22627,
    "Ġsharper": 17178,
    "moments": 19410,
    "Ġcobb": 14270,
    "Ġrates": 1405,
    "leave": 7838,
    "Ġscrews": 25177,
    "somebody": 14564,
    "Ġtheme": 16015,
    "Ġchancery": 20715,
    "Ġobe": 5800,
    "Ġvariously": 18653,
    "Ġced": 10783,
    "rop": 538,
    "Ġworkmen": 23040,
    "Ġtiara": 26414,
    "Ġadvantages": 9809,
    "repid": 11563,
    "Ġdates": 6693,
    "armed": 7252,
    "Ġnote": 4263,
    "Ġjurymen": 16846,
    "Ġanimals": 8977,
    "Ġshould": 865,
    "Ġjogged": 26236,
    "Ġpickle": 16721,
    "Ġsnuff": 7992,
    "Ġdictionary": 15110,
    "duct": 3506,
    "ides": 2164,
    "Ġanimate": 23421,
    "Ġgenerally": 4157,
    "Ġconvict": 23744,
    "frequented": 25900,
    "homely": 25617,
    "Ġbackpropagation": 1219,
    "Ġcountrymen": 23594,
    "Ġfairest": 20461,
    "Ġabsolute": 6765,
    "Ġhung": 4558,
    "ĠĠĠĠĠĠĠĠĠĠĠĠĠĠĠĠĠĠĠĠĠĠĠ": 18831,
    "Ġexasperated": 11411,
    "Ġverse": 16600,
    "waiter": 24587,
    "izon": 18141,
    "Ġreduce": 7943,
    "Ġdetestable": 15096,
    "Ġbreadth": 10562,
    "Ġdeceive": 12718,
    "Ġreb": 15687,
    "niest": 18955,
    "Ġsagittarius": 24732,
    "ificent": 8184,
    "phon": 4126,
    "Ġrags": 18639,
    "pede": 19843,
    "pulous": 15414,
    "Ġmice": 13857,
    "Ġcatherine": 2815,
    "Ġsolitudes": 22887,
    "Ġsteady": 4846,
    "ledge": 1330,
    "omach": 11632,
    "Ġsoc": 3525,
    "Ġfrantically": 23257,
    "rapt": 13971,
    "Ġconceited": 12087,
    "Ġthrown": 4637,
    "Ġelig": 9776,
    "Ġdelightfully": 13156,
    "vag": 8764,
    "upp": 10129,
    "Ġprince": 18972,
    "Ġtwos": 18657,
    "ativeness": 15518,
    "Ġarrangement": 2656,
    "Ġmournful": 12333,
    "udg": 22761,
    "pad": 13766,
    "hot": 8084,
    "source": 11524,
    "bott": 9104,
    ".âĢĿ": 463,
    "itor": 12562,
    "Ġlatent": 19654,
    "limp": 20951,
    "Ġintermediate": 18588,
    "Ġnonsense": 6982,
    "Ġattachment": 6050,
    "Ġpennies": 17269,
    "Ġcharging": 23267,
    "Ġdaily": 5987,
    "converse": 22473,
    "Ġmillions": 11353,
    "Ġperturbed": 20438,
    "Ġoriental": 9095,
    "Ġ121": 24465,
    "Ġpurchases": 24756,
    "Ġsettling": 11061,
    "Ġavert": 14423,
    "exe": 11786,
    "rebellum": 26165,
    "Ġdedication": 3289,
    "ee": 1664,
    "slipped": 25529,
    "orange": 21398,
    "Ġforts": 21770,
    "ĠĠĠĠĠĠĠĠĠĠĠĠĠĠĠĠĠĠĠĠĠĠĠĠĠĠĠĠĠĠĠĠĠĠĠĠ": 23665,
    "Ġdisguise": 10044,
    "Ġcouldn": 7648,
    "antic": 1608,
    "ateral": 19375,
    "Ġacknowled": 6350,
    "Ġborn": 5224,
    "dan": 17514,
    "Ġflame": 7448,
    "Ġsaloon": 24059,
    "Ġnose": 4402,
    "Ġimpetuous": 25570,
    "Ġveins": 8931,
    "Ġvap": 6837,
    "Ġmerchants": 23732,
    "Ġpursuits": 12073,
    "in": 262,
    "Ġadagrad": 2905,
    "cceed": 4141,
    "dee": 11730,
    "£": 101,
    "Ġaudacious": 13458,
    "Ġdr": 2827,
    "Ġeffectually": 16168,
    "Ġeasterly": 25962,
    "Ġprecisely": 6466,
    "Ġxliv": 23407,
    "ĠĠĠĠĠĠĠĠĠĠĠĠĠĠĠĠĠĠĠĠĠĠĠĠĠĠĠĠĠĠĠĠĠĠĠĠĠĠĠĠĠĠĠĠĠĠ": 9951,
    "elop": 1510,
    "Ġpulverize": 23391,
    "Ġagon": 10319,
    "Ġapplies": 11956,
    "mediterranean": 16401,
    "athans": 7434,
    "Ġobscured": 15009,
    "Ġaccounted": 10293,
    "Ġwars": 17785,
    "Ġvul": 10246,
    "grim": 19106,
    "oot": 13763,
    "(": 12,
    "ude": 7562,
    "Ġimpul": 7208,
    "ichever": 13955,
    "isbury": 21375,
    "end": 494,
    "to": 713,
    "Ġwon": 1669,
    "banish": 20781,
    "Ġconfed": 13095,
    "Ġcommunications": 16352,
    "rior": 12738,
    "accomp": 10454,
    "Ġslaughtered": 26583,
    "Ġapprehensions": 13402,
    "Ġbreat": 3460,
    "Ġbounce": 21391,
    "Ġbaffled": 12400,
    "Ġsavages": 9910,
    "Ġatonement": 21940,
    "Ġfood": 5080,
    "Ġtamely": 24979,
    "Ġmarching": 16698,
    "vative": 1546,
    "tempted": 26402,
    "osoever": 17341,
    "distraction": 24199,
    "ay": 355,
    "Ġstre": 2109,
    "ellent": 3761,
    "Ġunembarrassed": 22065,
    "Ġwhites": 21715,
    "silence": 8045,
    "Ġsituations": 10490,
    "Ġextinction": 14334,
    "Ġcolonies": 14373,
    "Ġlaure": 16908,
    "studied": 17148,
    "onist": 21249,
    "Ġgarden": 3825,
    "Ġleghorn": 13144,
    "Ġhereby": 10357,
    "Ġaddress": 2273,
    "Ġsophisticated": 1634,
    "Ġkind": 1783,
    "ĠĠĠĠĠĠĠĠĠĠĠĠĠĠĠĠĠĠĠĠĠĠĠĠ": 5321,
    "Ġquito": 24407,
    "course": 6104,
    "oric": 21394,
    "Ġembal": 11905,
    "de": 460,
    "Ġpar": 456,
    "Ġvivid": 8058,
    "questioning": 16849,
    "Ġflock": 21410,
    "Ġshowing": 7732,
    "nelson": 25620,
    "Ġcommon": 1415,
    "Ġwilson": 6629,
    "Ġnooks": 26011,
    "Ġishmael": 7395,
    "continuance": 19717,
    "Ġsen": 9155,
    "Ġvastly": 23858,
    "Ġdim": 4756,
    "unc": 15765,
    "achine": 610,
    "Ġeffusion": 22518,
    "Ġmouldings": 24737,
    "Ġbrigs": 20321,
    "Ġcalifornia": 20528,
    "ame": 642,
    "Ġdexterity": 25294,
    "Ġquivered": 18467,
    "Ġegypt": 9677,
    "Ġsting": 10860,
    "Ġsomeone": 6703,
    "whom": 8185,
    "Ġresounded": 22542,
    "narrow": 11506,
    "Ý": 158,
    "Ġfruits": 17117,
    "Ġcop": 7579,
    "Ġrevealed": 6751,
    "Ġcows": 15549,
    "Ġdan": 8791,
    "Ġpopularly": 12238,
    "Ġroutine": 13506,
    "Ġtransactions": 18499,
    "ivates": 18276,
    "thyself": 19296,
    "hears": 12529,
    "precision": 4330,
    "Ġrealism": 18984,
    "fo": 5278,
    "Ġappalled": 22218,
    "acquaintance": 6938,
    "Ġprovocation": 24190,
    "Ġgirls": 4279,
    "dinah": 20079,
    "Ġrejoiced": 8683,
    "ishly": 14198,
    "į": 240,
    "Ġinfernal": 11958,
    "gale": 13722,
    "Ġafresh": 18628,
    "----": 4055,
    "Ġcasually": 25093,
    "fits": 13716,
    "are": 637,
    "aven": 8210,
    "Ġfishers": 19352,
    "Ġundeviating": 15215,
    "Ġsabbath": 17253,
    "omp": 2475,
    "clergyman": 20728,
    "Ġpretending": 19314,
    "copyright": 5277,
    "Ġindiscriminately": 20626,
    "Ġinstance": 2547,
    "Ġ45": 14768,
    "spell": 22730,
    "civilities": 24973,
    "Ġahab": 1217,
    "Ġhandwriting": 14317,
    "Ġher": 427,
    "Ġhind": 9187,
    "Ġsled": 21217,
    "Ġrebell": 21667,
    "nel": 11503,
    "Ġgreenness": 23766,
    "Ġrepining": 23359,
    "Ġdeformed": 14045,
    "oned": 4628,
    "Ġqueer": 4477,
    "Ġinsight": 16528,
    "mouth": 9129,
    "Ġrecollecting": 17112,
    "representing": 25271,
    "hinting": 17568,
    "Ġmarshal": 20218,
    "ate": 424,
    "Ġprecautions": 23726,
    "correspond": 13396,
    "Ġrio": 23889,
    "Ġguilty": 7250,
    "Ġscorched": 17100,
    "sentimental": 25681,
    "\\": 64,
    "Ġdoom": 6417,
    "Ġpondering": 17004,
    "sticks": 25965,
    "Ġtraffic": 23081,
    "Ġbelief": 5855,
    "Ġdispatched": 23879,
    "Ġfactory": 23276,
    "Ġcompasses": 11266,
    "Ġlens": 8438,
    "Ġentrance": 7233,
    "conqu": 14243,
    "Ġpoorly": 9853,
    "Ġscotch": 12206,
    "tur": 5688,
    "Ġglancing": 5399,
    "m": 81,
    "descending": 16282,
    "Ġrecursive": 4781,
    "Ġiv": 4042,
    "Ġlaws": 8003,
    "Ġget": 1628,
    "eye": 6224,
    "ë": 172,
    "send": 15420,
    "Ġearning": 23938,
    "Ġsplend": 9896,
    "Ġelemental": 19918,
    "Ġsneer": 13445,
    "Ġappet": 9728,
    "Ġsusp": 2662,
    "Ġhighway": 14344,
    "Ġerr": 1321,
    "kward": 6958,
    "pt": 386,
    "preserver": 20212,
    "rich": 11516,
    "cruise": 24841,
    "Ġfretfully": 25447,
    "kick": 20935,
    "networks": 2407,
    "melancholy": 12350,
    "Ġletting": 10361,
    "gradient": 2276,
    "lamp": 9607,
    "Ġconfide": 13096,
    "flour": 23963,
    "Ġconvenient": 8346,
    "paying": 25411,
    "Ġparm": 15874,
    "Ġhimmalehs": 26230,
    "Ġdrowsiness": 26444,
    "remember": 7262,
    "security": 26206,
    "Ġslappin": 18942,
    "stories": 18023,
    "Ġrandom": 1593,
    "lucky": 24544,
    "Ġphenomenon": 17916,
    "Ġwallowed": 24039,
    "Ġwilled": 21290,
    "still": 4220,
    "Ġsinful": 18948,
    "Ġincrease": 9368,
    "inian": 21181,
    "Ġseer": 21950,
    "fins": 13717,
    "Ġpaddling": 25285,
    "Ġloth": 17965,
    "ental": 7168,
    "Ġprofund": 13151,
    "Ġdress": 4018,
    "scorched": 25697,
    "comm": 7439,
    "rann": 21043,
    "Ġcaptains": 7457,
    "Ġextras": 22742,
    "Ġcolleague": 17158,
    "iates": 13735,
    "anyth": 5438,
    ");": 7330,
    "Ġrelative": 11880,
    "Ġundesired": 12775,
    "tedious": 22631,
    "ugging": 23289,
    "notwithstanding": 22751,
    "Ġrepugnance": 19086,
    "Ġsought": 5010,
    "Ġincreasingly": 9369,
    "stay": 9679,
    "looks": 12014,
    "timidity": 25753,
    "Ġopera": 23424,
    "Ġlace": 13947,
    "Ġweighted": 2089,
    "Ġobed": 8535,
    "Ġagrees": 22513,
    "rine": 21036,
    "Ġbol": 6241,
    "Ġvomit": 21944,
    "Ġinflexibly": 26370,
    "ians": 2363,
    "Ġcolumn": 9326,
    "Ġsufficient": 2005,
    "Ġcried": 1486,
    "bows": 10080,
    "eff": 2536,
    "Ġcasks": 7521,
    "Ġmatrix": 1609,
    "--": 1041,
    "Ġterm": 2269,
    "Ġprosecut": 9696,
    "Ġknew": 2055,
    "endar": 18356,
    "onial": 11565,
    "Ġsignifies": 19203,
    "dial": 20824,
    "Ġsab": 10761,
    "ky": 4518,
    "Ġcluster": 13569,
    "Ġtablets": 13153,
    "Ġseething": 18201,
    "Ġashen": 21897,
    "Ġadmire": 5263,
    "Ġstumped": 24942,
    "pocket": 9807,
    "Ġsizes": 1518,
    "nment": 20989,
    "Ġreports": 19084,
    "Ġtrunk": 7206,
    "Ġcontinu": 1168,
    "Ġlimbs": 5966,
    "Ġparacelsus": 15264,
    "consolatory": 25306,
    "Ġfountain": 7365,
    "Ġcount": 1814,
    "Ġfil": 3472,
    "hemat": 3130,
    "hest": 3369,
    "Ġinflamed": 13471,
    "Ġdeductions": 19731,
    "Ġanalogical": 25640,
    "disapprobation": 19155,
    "possess": 5984,
    "Ġmol": 12557,
    "Ġain": 6969,
    "dient": 440,
    "Ġmarsh": 9819,
    "pshaw": 21027,
    "Ġexists": 14039,
    "Ġpeeped": 10010,
    "lessly": 4554,
    "Ġgaieties": 24194,
    "cabin": 8363,
    "sutherland": 21061,
    "..": 5783,
    "Ġbalances": 2344,
    "Ġseldom": 4627,
    "Ġm": 274,
    "ignity": 4373,
    "Ġcharacter": 2796,
    "Ġdescent": 976,
    "Ġcastle": 14715,
    "ivance": 22074,
    "Ġterrific": 6754,
    "Ġalph": 9693,
    "Ù": 154,
    "Ġagony": 5388,
    "Ġcant": 17824,
    "ality": 2515,
    "ase": 1162,
    "Ġest": 2268,
    "Ġlearns": 2642,
    "Ġmaxim": 3086,
    "Ġmelancholy": 5605,
    "Ġextremest": 19194,
    "Ġrighted": 23176,
    "Ġcombined": 8547,
    "Ġmediocrity": 26607,
    "equ": 6790,
    "paint": 21017,
    "Ġpunch": 9953,
    "Ġguiltless": 16939,
    "Ġfail": 4147,
    "Ġgripping": 26186,
    "positive": 20566,
    "Ġhierarchical": 1930,
    "Ġaudibly": 24771,
    "Ġbones": 4581,
    "complete": 15033,
    "Ġdons": 17888,
    "superiority": 20184,
    "Ġtext": 2270,
    "dark": 5613,
    "Ġpry": 11598,
    "Ġexcuses": 19039,
    "_.": 2214,
    "feet": 6568,
    "accordingly": 19212,
    "nd": 11502,
    "necessary": 5882,
    "Ġtribes": 20479,
    "Ġdesperado": 19818,
    "Ġfing": 3756,
    "Ġran": 3343,
    "superstitious": 17279,
    "Ġindispensable": 11897,
    "Ġengine": 1921,
    "pipe": 8696,
    "une": 2788,
    "ough": 470,
    "Ġentitled": 8538,
    "Ġfifth": 11256,
    "Ġpainted": 7979,
    "Ġgums": 21609,
    "Ġnom": 21517,
    "irra": 15781,
    "Ġcapstan": 9097,
    "Ġcombinations": 22850,
    "Ġdispleased": 18555,
    "contracting": 19292,
    "Ġeat": 4641,
    "ortations": 22256,
    "Ġbloss": 19255,
    "clever": 20812,
    "precipitance": 25867,
    "Ġmadam": 5663,
    "stoke": 18022,
    "Ġbeware": 8826,
    "ers": 406,
    "Ġstrangely": 5677,
    "Ġglim": 9342,
    "Ġproflig": 23566,
    "Ġstraits": 7994,
    "dle": 3249,
    "Ġtrained": 8502,
    "Ġproceedings": 9905,
    "scores": 22990,
    "princ": 8620,
    "Ġimpact": 10295,
    "Ġcordon": 24393,
    "Ġpostp": 12140,
    "Ġwives": 12551,
    "Ġexplain": 545,
    "Ġhesitated": 10000,
    "Ġpreach": 14171,
    "Ġsafety": 6339,
    "mere": 11851,
    "bearing": 9763,
    "Ġjav": 7903,
    "igh": 2030,
    "Ġlegible": 23533,
    "fatig": 17088,
    "Ġicy": 10746,
    "Ġferoc": 14900,
    "Ġinsomuch": 23682,
    "Ġbanished": 10615,
    "erson": 7002,
    "cheon": 23802,
    "aux": 14288,
    "Ġflamingo": 15098,
    "constantinople": 25507,
    "Ġscaramouch": 23825,
    "lished": 8383,
    "Ġpencils": 23193,
    "Ġsucc": 12780,
    "Ġsurface": 5119,
    "Ġtrial": 6634,
    "Ġthis": 382,
    "oline": 6834,
    "Ġbattalions": 25776,
    "strong": 6322,
    "ength": 2316,
    "Ġrecourse": 22737,
    "Ġauthorized": 16734,
    "Ġshadowed": 24042,
    "Ġdirectors": 18921,
    "Ġsea": 1210,
    "Ġconj": 8460,
    "putable": 10900,
    "Ġwalls": 6762,
    "Ġtransaction": 22465,
    "Ġtort": 5902,
    "pike": 11513,
    "Ġrestore": 9378,
    "Ġgallows": 12142,
    "Ġdue": 3843,
    "Ġfired": 16148,
    "squeezing": 25913,
    "Ġhaze": 18196,
    "ax": 693,
    "ĠcÃ¦sar": 20578,
    "Ġexperiment": 11916,
    "level": 2653,
    "mer": 2835,
    "Ġtoiled": 12638,
    "Ġaberde": 22285,
    "Ġtexel": 25923,
    "Ġplug": 17146,
    "Ġrearing": 12673,
    "Ġenterprise": 8641,
    "Ġmounttop": 19976,
    "slight": 10726,
    "ulatory": 15764,
    "Ġpotent": 12061,
    "Ġwink": 11567,
    "Ġhomeless": 23385,
    "pression": 10406,
    "Ġsluggish": 25890,
    "Ġupp": 13990,
    "rifice": 12500,
    "calm": 8933,
    "Ġnotable": 18222,
    "Ġyell": 21775,
    "Ġjewell": 19519,
    "Ġvic": 5236,
    "Ġscound": 12828,
    "tubs": 15128,
    "Ġlengthened": 25958,
    "Ġcommenting": 25228,
    "Ġintelligible": 15938,
    "Ġencoun": 4510,
    "powder": 17644,
    "Ġrans": 21964,
    "Ġimpulsively": 24880,
    "irth": 5634,
    "Ġgraph": 10901,
    "Ġmanxman": 9564,
    "Ġ78": 19612,
    "brace": 16941,
    "Ġauthentic": 20534,
    "elizabeth": 1989,
    "Ġgallop": 19554,
    "oices": 7348,
    "Ġinitial": 824,
    "Ġsullen": 9156,
    "Ġeastern": 11627,
    "surrounded": 26088,
    "Ġinfant": 11957,
    "dam": 7798,
    "mopol": 15394,
    "Ġ132": 19895,
    "Ġscowl": 22269,
    "Ġcottagers": 6761,
    ")âĢĶ": 20741,
    "Ġgranting": 18736,
    "lengths": 24846,
    "painted": 17638,
    "Ġrapturously": 24888,
    "½": 126,
    "Ġundue": 25993,
    "eager": 12456,
    "va": 4742,
    "Ġcatastrophe": 10482,
    "Ġsweet": 3466,
    "Ġloathsome": 13526,
    "Ġpledge": 11599,
    "Ġencamp": 22799,
    "putting": 14098,
    "Ġbequest": 21751,
    "ippi": 20243,
    "Ġautoregressive": 3432,
    "Ġreasonably": 11085,
    "happened": 9431,
    "Ġregard": 3069,
    "Ġdav": 15586,
    "Ġanalyzing": 18802,
    "Ġdeferred": 18825,
    "brushing": 20787,
    "loss": 22505,
    "emph": 21926,
    "Ġsacrificed": 17420,
    "dressed": 10694,
    "Ġmeetings": 16530,
    "Ġexc": 1830,
    "historian": 25735,
    "Ġorigin": 4119,
    "Ġdifficulty": 5770,
    "Ġsharpened": 17363,
    "imaux": 21710,
    "Ġpos": 1011,
    "dense": 18715,
    "Ġcleat": 18946,
    "gin": 4930,
    "Ġrepay": 19081,
    "Ġnarrated": 14869,
    "Ġfacet": 15581,
    "Ġcomra": 7183,
    "eth": 619,
    "ibbald": 18846,
    "torn": 17681,
    "eness": 2292,
    "modern": 1150,
    "Ġarmitage": 23580,
    "ignific": 11952,
    "Ġdrugged": 12598,
    "Ġdrags": 16940,
    "urring": 21703,
    "Ġoar": 6236,
    "univers": 15768,
    "Ġham": 3420,
    "Ġshudderings": 25200,
    "retrie": 18922,
    "Ġthoughtful": 16189,
    "Ġuplifted": 11645,
    "Ġnick": 21521,
    "taining": 7205,
    "domestic": 19824,
    "Ġentities": 11861,
    "Ġbrightness": 16574,
    "Ġinterview": 9768,
    "omeness": 18015,
    "zza": 24166,
    "Ġholmes": 1307,
    "Ġflushed": 13023,
    "Ġstrolled": 16769,
    "brated": 12023,
    "ru": 479,
    "Ġjapan": 7639,
    "Ġoldest": 12970,
    "fiend": 13659,
    "difficult": 10056,
    "Ġcondescended": 19954,
    "Ġentreaty": 10528,
    "Ġringle": 18210,
    "reas": 985,
    "Ġpoured": 8799,
    "#": 7,
    "Ġlaid": 3940,
    "sec": 6152,
    "Q": 53,
    "Ġtons": 11548,
    "Ġcar": 1420,
    "Ġkrus": 18349,
    "Ġunless": 4088,
    "Ġgentlemen": 3641,
    "Ġbrid": 6290,
    "elder": 21570,
    "mystical": 25317,
    "Ġunlucky": 10048,
    "Ġblurred": 22929,
    "Ġlion": 9674,
    "Ġchapter": 2955,
    "sford": 5998,
    "Ġschol": 17375,
    "ograph": 4796,
    "tes": 11527,
    "Ġerad": 25028,
    "mus": 10109,
    "puzz": 17639,
    "ishes": 6523,
    "Ġmad": 2428,
    "john": 11496,
    "rubber": 12805,
    "care": 4928,
    "Ġwee": 21917,
    "Ġsurpasses": 25268,
    "prehend": 14240,
    "Ġsands": 14946,
    "Ġenvirons": 13202,
    "Ġornaments": 17450,
    "Ġvehic": 8932,
    "Ġexclamations": 11360,
    "Ġpolic": 13159,
    "igators": 18045,
    "Ġschoolboys": 24480,
    "here": 2551,
    "Ġclosed": 4602,
    "Ġpe": 850,
    "Ġdisp": 3359,
    "ifted": 4493,
    "knives": 14911,
    "hon": 6793,
    "Ġutilize": 4797,
    "Ġpitched": 9442,
    "ib": 1237,
    "lightened": 12062,
    "early": 20117,
    "Ġcoolness": 16885,
    "believing": 19460,
    "Ġfamed": 16325,
    "ĠĠĠĠĠĠĠĠĠĠĠĠĠĠĠĠĠĠĠĠĠĠĠĠĠĠĠĠĠĠĠĠĠĠĠĠĠĠĠĠĠĠĠĠĠĠĠĠĠ": 20036,
    "Ġdisput": 14254,
    "Ġconvey": 9979,
    "Ġtre": 2538,
    "Ġrestrictions": 20634,
    "prop": 1006,
    "Ġinsect": 12632,
    "Ġtid": 8107,
    "Ġsideways": 6181,
    "emone": 21925,
    "Ġrashly": 20304,
    "find": 6954,
    "expected": 5780,
    "Ġdistrust": 8204,
    "Ġlizz": 21555,
    "Ġredeem": 20498,
    "Ġemir": 23349,
    "Ġunwell": 22013,
    "fine": 10089,
    "Ġplatonian": 25118,
    "Ġaboriginal": 14190,
    "Ġremonstrance": 20621,
    "Ġfrowning": 13621,
    "imet": 21704,
    "Ġesquimaux": 25150,
    "Ġupon": 718,
    "Ġanim": 2114,
    "ired": 1445,
    "circumstantial": 24443,
    "bulkington": 19924,
    "Ġpassengers": 13673,
    "drink": 10594,
    "Ġbier": 22758,
    "Ġflood": 7716,
    "ĠĠĠĠĠĠĠĠĠĠĠĠĠĠĠĠĠĠĠĠĠĠĠĠĠĠ": 13386,
    "cannib": 11899,
    "Ġpilgr": 12177,
    "fashioned": 9569,
    "sad": 11519,
    "Ġundiscovered": 18252,
    "gallantry": 15059,
    "Ġsufficiently": 8972,
    "Ġcliffs": 15964,
    "Ġguise": 14430,
    "Ġpeaceable": 14721,
    "Ġfinite": 2328,
    "Ġrumors": 11320,
    "Ġinnocent": 4921,
    "Ġnoticed": 5548,
    "Ġflashing": 13024,
    "however": 4372,
    "Ġbenediction": 18784,
    "silly": 24421,
    "Ġthereof": 22366,
    "yield": 13807,
    "ralian": 19599,
    "Ġphyset": 23198,
    "hitherto": 17282,
    "liest": 6294,
    "Ġdivined": 19441,
    "Ġceremonious": 24837,
    "Ġrequire": 908,
    "condemned": 26060,
    "Ġexceed": 1345,
    "singular": 12185,
    "Ġgoug": 17990,
    "Ġsuccessful": 9921,
    "Ġpigeon": 9514,
    "Ġriver": 5411,
    "Ġneighbourhood": 5126,
    "spikes": 10339,
    "oquent": 12496,
    "Ġskeleton": 5514,
    "Ġexpression": 4514,
    "Ġhussey": 7725,
    "Ġexcavating": 23312,
    "deed": 1517,
    "Ġmultitud": 18747,
    "Ġcanaan": 22165,
    "Ġline": 1849,
    "Ġapprehensiveness": 16876,
    "ache": 8518,
    "glow": 20873,
    "infallibly": 26416,
    "osop": 4404,
    "Ġnash": 5819,
    "ease": 12454,
    "Ġbeats": 21750,
    "Ġmaintaining": 1507,
    "ĠâĢĶ": 13809,
    "Ġwarming": 23557,
    "Ġghosts": 12229,
    "hess": 4746,
    "Ġcharing": 14177,
    "Ġsermons": 20193,
    "master": 5687,
    "Ġgentleness": 8709,
    "Ġscratch": 25564,
    "Ġcardboard": 19977,
    "Ġincapable": 7423,
    "Ġpat": 1832,
    "Ġfrenz": 25446,
    "Ġcomplexity": 1697,
    "Ġkra": 18348,
    "inked": 12909,
    "streets": 13393,
    "Ġtormented": 8674,
    "Ġlingu": 11612,
    "Ġeul": 21618,
    "Ġduly": 13348,
    "Ġstrict": 7222,
    "shows": 22449,
    "Ġresearches": 13117,
    "Ġjur": 12830,
    "ascribed": 24708,
    "sli": 11521,
    "creat": 20799,
    "Ġprincely": 24147,
    "Ġsickly": 16773,
    "Ġcleaning": 23178,
    "Ġvesture": 20060,
    "Ġrude": 7234,
    "assistant": 25567,
    "expression": 10546,
    "Ġcoat": 4552,
    "ium": 4864,
    "Ġfurnishing": 16644,
    "Ġfleece": 10613,
    "nx": 17606,
    "paid": 15412,
    "gno": 13725,
    "windward": 24159,
    "penet": 11069,
    "hope": 5990,
    "acqu": 4841,
    "Ġbarnacled": 25536,
    "min": 4569,
    "Ġcomplacency": 19446,
    "Ġporpoises": 13380,
    "intercourse": 14637,
    "Ġconsum": 9797,
    "Ġexterm": 21827,
    "promise": 12247,
    "gust": 6360,
    "Ġgrant": 11870,
    "Ġobstinate": 11335,
    "holding": 7739,
    "Ġshared": 10262,
    "Ġorlop": 22091,
    "bestow": 16928,
    "relation": 19445,
    "Ġprinces": 23222,
    "orient": 2881,
    "Ġpull": 5152,
    "Ġimplies": 24873,
    "pil": 15406,
    "Ġreaching": 7303,
    "kinder": 24845,
    "Ġyouthful": 16722,
    "ingly": 2136,
    "Ġunguarded": 15847,
    "Ġliterally": 15114,
    "Ġbears": 6829,
    "Ġwhitish": 24866,
    "utored": 15659,
    "Ġlimping": 23545,
    "neurons": 3136,
    "results": 20385,
    "sales": 17666,
    "Ġbeat": 4490,
    "Ġsecondary": 23334,
    "isition": 11584,
    "Ġmournfully": 20115,
    "Ġtone": 4037,
    "presence": 18494,
    "Ġcrisis": 13125,
    "aker": 3661,
    "trans": 5593,
    "bol": 8717,
    "itation": 1779,
    "Ġjustice": 5111,
    "information": 12390,
    "Ġwarehouse": 20415,
    "Ġgin": 13959,
    "Ġmonarch": 14412,
    "Ġcoop": 14268,
    "Ġungover": 18255,
    "inu": 1118,
    "found": 4215,
    "Ġstopped": 5957,
    "Ġbone": 4692,
    "Ġfuller": 11155,
    "measureless": 20234,
    "iding": 3845,
    "Ġsuperst": 7704,
    "Ġobservable": 25126,
    "intention": 10366,
    "Ġbasics": 13446,
    "stad": 7597,
    "Ġstudded": 18978,
    "Ġgushed": 21605,
    "preading": 18495,
    "theast": 21746,
    "Ġbathed": 17865,
    "Ġagile": 22510,
    "Ġflourish": 17159,
    "Ġappertaining": 26532,
    "mb": 914,
    "Ġtomorrow": 21511,
    "priv": 9618,
    "Ġtrain": 515,
    "Ġelizabeth": 1129,
    "Ġspend": 5304,
    "perpet": 14157,
    "Ġcircus": 19091,
    "Ġsurging": 19133,
    "acknowledging": 25476,
    "Ġgate": 6825,
    "Ġmould": 6519,
    "Ġdecipher": 22439,
    "cific": 10084,
    "Ġnind": 17949,
    "onom": 9157,
    "Ġsatur": 1934,
    "gerine": 22889,
    "Ġhoof": 23352,
    "Ġdrifting": 19278,
    "Ġprovoke": 14824,
    "shop": 14235,
    "Ġfig": 3623,
    "alogies": 25158,
    "Ġharpoons": 5659,
    "ĠâĢĺ_": 11116,
    "Ġ113": 19695,
    "Ġpadd": 9668,
    "Ġengraved": 17080,
    "lights": 13203,
    "Ġadvise": 7935,
    "Ġbounded": 16625,
    "Ġimaginative": 19246,
    "onents": 8776,
    "Ġbass": 17855,
    "sych": 9885,
    "Ġarrange": 3122,
    "fairly": 17218,
    "Ġhorizon": 6632,
    "Ġrollicking": 24450,
    "ca": 20792,
    "Ġswung": 6449,
    "Ġobtaining": 16129,
    "Ġoverhead": 11770,
    "Ġexcited": 5579,
    "Ġumbrell": 13648,
    "resc": 21237,
    "Ġthickest": 16653,
    "Ġwrit": 8242,
    "severe": 21816,
    "Ġrow": 5309,
    "Ġetern": 7085,
    "Ġwinter": 5220,
    "Ġquantization": 19853,
    "Ġpatient": 6895,
    "subst": 12161,
    "Ġmillion": 14985,
    "Ġvirgin": 7328,
    "Ġlive": 2735,
    "Ġenumerating": 15242,
    "_).âĢĶ": 8681,
    "icuous": 10834,
    "makers": 20981,
    "Ġcomprehensive": 15085,
    "each": 7335,
    "ulnerable": 18150,
    "ity": 417,
    "Ġturk": 6603,
    "ĠĠĠĠĠĠĠĠĠĠĠĠĠĠĠĠĠĠĠĠĠĠĠĠĠĠĠĠĠĠĠĠĠĠĠĠĠĠĠĠĠĠĠĠĠĠĠĠĠĠĠĠĠĠĠĠĠĠĠĠ": 19259,
    "Ġsoil": 9253,
    "thodox": 21986,
    "follow": 5680,
    "Ġpleadings": 25852,
    "nay": 7135,
    "restraint": 18980,
    "Ġmince": 22830,
    "Ġtrance": 12840,
    "Ġneared": 14071,
    "Ġhawaiian": 25366,
    "stones": 11634,
    "acter": 2510,
    "Ġolive": 12561,
    "gressive": 2755,
    "popular": 26140,
    "chose": 18040,
    "misery": 13341,
    "Ġwhitney": 11372,
    "Ġtravellers": 11307,
    "trade": 19635,
    "Ġperils": 6272,
    "kes": 3677,
    "Ġspeckled": 14307,
    "Ġcynical": 25770,
    "agery": 21905,
    "left": 6975,
    "Ġrachel": 11841,
    "lee": 11583,
    "Ġburst": 4379,
    "Ġcreases": 22724,
    "Ġnewcomers": 26041,
    "Ġenter": 4027,
    "Ġmenaced": 16290,
    "asol": 21538,
    "simple": 13450,
    "aught": 2680,
    "Ġploughing": 26259,
    "Ġimpending": 22382,
    "Ġplacing": 8899,
    "ece": 17530,
    "Ġpoets": 11818,
    "partner": 19220,
    "ston": 15679,
    "Ġhatch": 7848,
    "Ġdissect": 16050,
    "Ġautonom": 10416,
    "Ġtorn": 6000,
    "Ġtheoretic": 23308,
    "gradu": 18616,
    "Ġfarthest": 23116,
    "istered": 14143,
    "treasures": 26152,
    "Ġturns": 4981,
    "Ġestimates": 3746,
    "lads": 20954,
    "december": 25558,
    "Ġcatches": 23425,
    "Ġgettest": 23232,
    "Ġplunge": 13441,
    "Ġrash": 10897,
    "itory": 12563,
    "Ġrevers": 21662,
    "Ġhideousness": 16914,
    "dorff": 15235,
    "Ġhesitation": 13439,
    "ĠlinnÃ¦us": 15273,
    "Ġprematurely": 24003,
    "Ġdecorum": 16017,
    "asc": 6386,
    "Ġsaturn": 22901,
    "Ġvitality": 15170,
    "algorithm": 3861,
    "Ġ----": 7145,
    "Ġbuff": 9171,
    "Ġjoke": 8867,
    "begged": 18520,
    "(-": 2981,
    "Ġboats": 2637,
    "Ġproduces": 2092,
    "ophisticated": 22476,
    "Ġwings": 9162,
    "instr": 12527,
    "fold": 7546,
    "Ġcolouring": 16750,
    "robustness": 26338,
    "Ġdidn": 4361,
    "Ġoperated": 14546,
    "bantering": 25253,
    "Ġpattering": 18651,
    "namely": 23698,
    "Ġharpooneers": 4730,
    "uneven": 23684,
    "Ġsteeple": 19286,
    "Ġsed": 10760,
    "gain": 8736,
    "Ġaffidav": 18792,
    "dden": 1803,
    "introduce": 25186,
    "quently": 9700,
    "Ġblot": 9810,
    "ieged": 22576,
    "Ġdelivered": 11114,
    "Ġlively": 5449,
    "Ġdistraction": 22503,
    "Ġdiscontented": 16056,
    "Ġdecks": 6900,
    "Ġdistrusting": 25053,
    "Ġevenly": 4128,
    "Ġsport": 6688,
    "beware": 16037,
    "Ġrapt": 7224,
    "fiery": 13579,
    "omist": 21636,
    "Ġreadily": 5253,
    "orton": 11753,
    "Ġdining": 6977,
    "Ġrifle": 18212,
    "Ġsulkily": 25882,
    "Ġlordly": 23743,
    "gon": 17551,
    "mortar": 25408,
    "supervised": 1931,
    "ospit": 22261,
    "Ġtransports": 24276,
    "nue": 15395,
    "Ġwhilst": 9217,
    "tained": 4405,
    "Ġwhaleboats": 18478,
    "Ġperfume": 25665,
    "Ġwick": 2007,
    "avenza": 17103,
    "Ġfortifications": 23619,
    "ics": 3258,
    "Ġuncl": 22012,
    "intending": 22933,
    "Ġvac": 5025,
    "Ġsix": 3047,
    "Ġsmallest": 6430,
    "inople": 13827,
    "rather": 5430,
    "anything": 5518,
    "rove": 21531,
    "sleep": 6511,
    "reat": 614,
    "entimes": 12652,
    "gratitude": 16815,
    "continu": 5501,
    "hat": 6956,
    "Ġtricks": 13482,
    "Ġfossil": 12384,
    "Ġrichest": 26211,
    "Ġabsor": 8504,
    "Ġguessed": 11281,
    "Ĭ": 237,
    "attered": 4016,
    "Ġfrosted": 19802,
    "Ġoutrages": 18414,
    "ighb": 10422,
    "Ġbrides": 22866,
    "Ġlamps": 14788,
    "supp": 4162,
    "Ġprofessors": 14723,
    "seventy": 10875,
    "Ġexcept": 3313,
    "Ġsocially": 22085,
    "Ġnames": 4531,
    "requiem": 24856,
    "compared": 24030,
    "V": 58,
    "Ġsin": 1512,
    "Ġfever": 6558,
    "Ġharvest": 13413,
    "Ġsteadfastly": 10650,
    "Ġvult": 12746,
    "Ġopens": 23626,
    "Ġhiss": 15784,
    "elevating": 20404,
    "<SOS>": 1,
    "ress": 930,
    "appe": 2944,
    "Ġcraft": 4375,
    "Ġstiggs": 25792,
    "Ġpir": 6818,
    "Ġcoff": 3507,
    "athered": 6972,
    "Ġfunctional": 3051,
    "Ġresume": 18565,
    "Ġheartless": 13070,
    "persuaded": 15071,
    "curious": 10481,
    "Ġclay": 7018,
    "te": 991,
    "Ġcolder": 22855,
    "Ġregards": 16074,
    "Ġcontribut": 12855,
    "ura": 1071,
    "Ġremarking": 13123,
    "Ġtherefore": 2243,
    "Ġhovering": 10177,
    "put": 414,
    "Ġgods": 6454,
    "Ġcompan": 2176,
    "Ġ1869": 19382,
    "Ġappal": 18358,
    "Ġriotous": 20543,
    "inkles": 7426,
    "ately": 1678,
    "Ġthrow": 3782,
    "letons": 14612,
    "Ġfootfall": 14660,
    "Ġparaphrasing": 26525,
    "practical": 17220,
    "inkers": 22613,
    "educ": 10827,
    "Ġconfused": 7965,
    "Ġremove": 7499,
    "Ġyarns": 15193,
    "piling": 15413,
    "Ġlima": 10441,
    "value": 18814,
    "Ġspars": 3808,
    "Ġpopulation": 16826,
    "lac": 17588,
    "Ġbale": 7839,
    "faint": 17544,
    "Ġprefers": 20512,
    "Ġcertain": 1561,
    "rock": 15637,
    "likewise": 13102,
    "hy": 4738,
    "agrad": 2747,
    "mediate": 16511,
    "Ġimpenet": 14217,
    "÷": 184,
    "trad": 21075,
    "Ġfierceness": 26264,
    "Ġconvolutional": 2165,
    "_âĢĶâĢĻ": 13680,
    "vapor": 25755,
    "urmount": 13993,
    "loud": 11499,
    "Ġlieutenant": 15259,
    "Ġbended": 21383,
    "Ġdif": 872,
    "Ġcocked": 12900,
    "Ġsocks": 14132,
    "Ġgone": 2108,
    "dat": 1615,
    "Ġlighting": 13080,
    "alt": 12634,
    "Ġcask": 5527,
    "omited": 21639,
    "harmony": 25750,
    "Ġvir": 7001,
    "thine": 15821,
    "weeks": 14314,
    "Ġdodging": 19886,
    "Ġenlist": 21934,
    "Ġbutton": 10266,
    "Ġvalidate": 3101,
    "Ġiter": 2952,
    "unw": 14055,
    "ids": 21761,
    "aspect": 10192,
    "isions": 6130,
    "Ġgliding": 8559,
    "Ġsports": 18310,
    "hurt": 19877,
    "Ġanxiety": 5408,
    "Ġlin": 10832,
    "Ġaccent": 10292,
    "Ġinvade": 19142,
    "Ġfellows": 8257,
    "Ġintroduction": 8969,
    "Ġcounteracted": 19861,
    "Ġbenjam": 22891,
    "Ġimpressed": 8199,
    "Ġpatronage": 17052,
    "Ġperpendicular": 7209,
    "Ġ66": 24368,
    "Ġsurest": 19055,
    "Ġclassification": 1075,
    "disp": 7977,
    "Ġsewing": 21952,
    "atement": 17772,
    "turned": 7306,
    "Ġhumming": 12982,
    "tied": 21069,
    "seat": 18124,
    "Ġeaster": 15671,
    "Ġblended": 16216,
    "Ġanguish": 5582,
    "confl": 22469,
    "iocr": 20922,
    "isance": 17847,
    "Ġlofty": 6217,
    "jephro": 26391,
    "Ġway": 1088,
    "Ġjib": 14192,
    "Ġirene": 8444,
    "Ġmaggie": 26291,
    "+": 15,
    "gered": 9274,
    "Ġfists": 15579,
    "nes": 6961,
    "Ġclouded": 13287,
    "your": 1987,
    "Ġtoller": 9089,
    "Ġdishes": 16047,
    "Ġconting": 18472,
    "Ġresounds": 22540,
    "Ġdisgrace": 7215,
    "Ġprotesting": 14739,
    "captain": 3952,
    "envelope": 17782,
    "ift": 1610,
    "Ġdup": 21426,
    "Ġsaintsbury": 26372,
    "Ġvexation": 10585,
    "omical": 9678,
    "Ġintim": 6838,
    "philosophers": 25252,
    "Ġamazed": 14887,
    "Ġbermud": 26438,
    "Ġmeasured": 9802,
    "Ġmended": 21312,
    "Ġx": 2073,
    "liv": 9606,
    "deaux": 22146,
    "Ġelix": 22654,
    "bu": 5132,
    "compan": 7301,
    "Ġquestions": 3971,
    "Ġsystems": 793,
    "hands": 5967,
    "Ġcanoe": 9721,
    "Ġpreserving": 19795,
    "judges": 19572,
    "acetti": 13394,
    "Ġconsuming": 22789,
    "Ġcomplete": 4381,
    "perse": 15895,
    "oes": 4433,
    "Ġkrempe": 10668,
    "Ġcannib": 6036,
    "o": 83,
    "Ġ30": 10510,
    "Ġzodiac": 16172,
    "Ġemblem": 20496,
    "ountain": 2919,
    "Ġanimal": 2501,
    "Ġforetold": 23450,
    "rigging": 20004,
    "humoured": 11236,
    "Ġattic": 16095,
    "Ġimbib": 22173,
    "Ġcoil": 11815,
    "rus": 5930,
    "onstrate": 17767,
    "Ġdeny": 7488,
    "mmar": 952,
    "Ġblanche": 18819,
    "Ġinvol": 1060,
    "benefact": 24641,
    "Ġtexas": 25922,
    "uther": 8815,
    "ply": 6366,
    "Ġabounding": 12341,
    "ught": 2752,
    "lands": 8241,
    "Ġst": 332,
    "residence": 19262,
    "thousand": 5546,
    "Ġplow": 21458,
    "car": 4213,
    "Ġforesee": 19125,
    "Ġjub": 22293,
    "Ġinterrupted": 6343,
    "Ġunalterable": 15848,
    "pitch": 13295,
    "Ġwilt": 9642,
    "engineer": 23146,
    "©": 107,
    "Ġwidow": 8662,
    "bruary": 15233,
    "54": 15297,
    "clearly": 25195,
    "Ġascended": 8665,
    "âĢĻ,": 14068,
    "Ġlimber": 16477,
    "Ġintentionally": 24522,
    "Ġdrunken": 12047,
    "Ġcogn": 11001,
    "Ġpiqu": 21476,
    "Ġimplement": 3235,
    "Ġunwritten": 22030,
    "Ġlose": 5028,
    "Ġmes": 17796,
    "Ġvillanous": 24051,
    "bare": 12438,
    "rights": 23673,
    "Ġalt": 18098,
    "Ġwearing": 12735,
    "Ġdefendants": 15138,
    "Ġirresolution": 24915,
    "Ġalpha": 13586,
    "Ġsouthampton": 24306,
    "Ġvague": 6406,
    "iting": 2160,
    "hate": 20891,
    "Ġrural": 21965,
    "Ġwho": 613,
    "iless": 10280,
    "Ġbecome": 3159,
    "Ġinhabit": 5782,
    "Ġd": 284,
    "host": 5867,
    "Ġboxed": 24359,
    "Ġyet": 1027,
    "Ġjournal": 15216,
    "inquiry": 15140,
    "Ġincommunicable": 26610,
    "descend": 23083,
    "Ġ57": 24324,
    "Ġlustrous": 20155,
    "apply": 18759,
    "Ġstru": 2173,
    "Ġwhereupon": 14294,
    "Ġopening": 5045,
    "Ġsuperficial": 23455,
    "Ġhesitating": 16946,
    "Ġsuperseded": 26223,
    "Ġmere": 2714,
    "verb": 10215,
    "ography": 13360,
    "dread": 8728,
    "Ġromantic": 8031,
    "Ġnotwithstanding": 9712,
    "mouthed": 12397,
    "Ġhval": 21486,
    "Ġoverlooking": 22356,
    "Ġsn": 2949,
    "beg": 22485,
    ").âĢĿ": 20740,
    "romed": 10904,
    "Ġproved": 4884,
    "Ġupright": 8493,
    "Ġcanallers": 13625,
    "Ġfootman": 8288,
    "Ġimproving": 1212,
    "Ġmishap": 20575,
    "Ġservants": 6610,
    "Ġgills": 17992,
    "text": 1977,
    "birth": 15320,
    "Ġtu": 6968,
    "Ġunremitting": 26217,
    "ercely": 12546,
    "Ġspeculations": 22996,
    "Ġdarkened": 16430,
    "û": 188,
    "Ġhag": 12621,
    "Ġscimet": 22272,
    "Ġsu": 432,
    "Ġob": 861,
    "Ġthieves": 15632,
    "Ġupstairs": 5836,
    "Ġdeploy": 3038,
    "cious": 6643,
    "Ġultimate": 12346,
    "thomas": 18219,
    "Ġparents": 6752,
    "angs": 5833,
    "Ġiteratively": 3060,
    "bow": 5424,
    "Ġmartial": 20290,
    "Ġsentences": 2682,
    "Ġ42": 16677,
    "delivered": 24097,
    "Ġaud": 6661,
    "ources": 2791,
    "Ġtroubling": 26546,
    "odecimo": 11443,
    "Ġmasts": 6465,
    "Ġmocking": 24000,
    "83": 13678,
    "incing": 15483,
    "Ġdemi": 25548,
    "ursday": 12273,
    "Ġcrumbs": 20639,
    "Ġshriek": 6637,
    "Ġcontinued": 2923,
    "Ġbag": 5699,
    "cord": 8723,
    "Ġspell": 8854,
    "lanter": 15385,
    "Ġelucidated": 26029,
    "Ġowing": 6005,
    "Ġflower": 16231,
    "meal": 22699,
    "Ġinquire": 7720,
    "Ġcomment": 9231,
    "ven": 782,
    "Ġspeaks": 11158,
    "Ġrays": 10328,
    "Ġtolerably": 8068,
    "Ġwindows": 4971,
    "â": 163,
    "Ġdesire": 3716,
    "Ġadapts": 3816,
    "Ġmovements": 24358,
    "unbidden": 21892,
    "Ġwithstand": 10224,
    "jah": 17580,
    "Ġimitated": 18329,
    "Ġbarbary": 24215,
    "Ġvoyage": 3057,
    "descried": 11926,
    "Ġalleged": 17289,
    "Ġvernal": 23886,
    "Ġredness": 19310,
    "imens": 1747,
    "Ġinn": 4588,
    "Ġconjoined": 21804,
    "Ġmanaged": 7907,
    "Ġprejudiced": 24809,
    "outs": 7008,
    "Ġconscious": 7744,
    "ascertaining": 26459,
    "Ġgree": 7594,
    "Ġrust": 6408,
    "isticated": 1627,
    "Ġbehavior": 8002,
    "Ġterrier": 23397,
    "Ġsupervised": 3356,
    "Ġconductor": 24004,
    "Ġtuesday": 9625,
    "Ġdespise": 14664,
    "sorting": 17003,
    "racing": 21629,
    "story": 9211,
    "Ġgar": 10837,
    "country": 6103,
    "Ġquartered": 20371,
    "Ġmontan": 22979,
    "Ġwest": 5219,
    "Ġintention": 5638,
    "Ġben": 1109,
    "erranean": 9332,
    "reluct": 26163,
    "Ġspan": 11725,
    "Ġrapidly": 3026,
    "irons": 10237,
    "Ġgot": 2282,
    "Ġoxford": 11370,
    "ier": 1135,
    "Ġ115": 24438,
    "carb": 20809,
    "rings": 10721,
    "-": 17,
    "aggra": 21904,
    "Ġwrig": 13064,
    "Ġcoronation": 13331,
    "Ġuncompromised": 20602,
    "Ġsaucer": 20604,
    "Ġpanted": 21471,
    "Ġunspeakable": 10054,
    "Ġrepairs": 19083,
    "Ġdiscovered": 4412,
    "Ġgladstone": 23867,
    "Ġwalker": 23307,
    "sk": 5521,
    "Ġrobins": 16256,
    "Ġpresumption": 10544,
    "Ġprecious": 5760,
    "jected": 22712,
    "ount": 1114,
    "Ġthink": 983,
    "Ġtravell": 5575,
    "Ġfading": 15580,
    "Ġsm": 704,
    "Ġcovent": 16069,
    "Ġhurrying": 11991,
    "Ġdines": 21422,
    "Ġbasic": 24701,
    "plan": 15815,
    "Ġexplicit": 3588,
    "bearer": 18521,
    "till": 6965,
    "meas": 7433,
    "Ġmagnificent": 9841,
    "Ġrestrain": 8963,
    "Ġblight": 18817,
    "Ġdevice": 1932,
    "Ġperishing": 22395,
    "Ġidentified": 19150,
    "Ġsummit": 7731,
    "Ġstroke": 6936,
    "Ġfrenchman": 11282,
    "Ġflap": 14420,
    "Ġconquered": 14024,
    "living": 7133,
    "Ġassertion": 13487,
    "Ġcomplexion": 8211,
    "ppery": 10891,
    "Ġgroaned": 11265,
    "Ġwrithed": 17105,
    "Ġswelled": 11087,
    "Ġcirclings": 26430,
    "Ġquaff": 22412,
    "Ġstack": 21731,
    "Ġheat": 5453,
    "ess": 410,
    "Ġabatement": 22284,
    "Ġherring": 14125,
    "Ġcocksure": 26258,
    "Ġappointment": 10645,
    "¿": 128,
    "Ġentr": 14337,
    "Ġsupport": 6728,
    "regarding": 15069,
    "Ġleisurely": 24746,
    "H": 44,
    "Ġvacantly": 16814,
    "trunk": 23945,
    "Ġappertain": 22216,
    "Ġreputed": 18035,
    "delay": 16697,
    "Ġdz": 4755,
    "Ġgover": 2464,
    "Ġimmutable": 17356,
    "incible": 16495,
    "Ġscrew": 8862,
    "ages": 828,
    "else": 6533,
    "Ġdiscussion": 17193,
    "breathing": 25335,
    "Ġcheat": 19021,
    "henomen": 10493,
    "Ġvalues": 2651,
    "Ġpreliminaries": 25176,
    "Ġtunnel": 14928,
    "worn": 13804,
    "orting": 9733,
    "Ġperforms": 11874,
    "Ġbottom": 3672,
    "Ġbutler": 18270,
    "suspicious": 25390,
    "Ġmiser": 18703,
    "Ġroofs": 16984,
    "attempts": 17189,
    "Ġmarried": 3407,
    "Ġdignity": 5704,
    "itzerland": 9993,
    "Ġvirtuous": 14753,
    "Ġsponge": 26003,
    "Ġgenerates": 3662,
    "union": 15766,
    "Ġscope": 15940,
    "Ġpon": 10174,
    "ferences": 10325,
    "Ġner": 1651,
    "wandered": 20284,
    "required": 17029,
    "Ġgermans": 25784,
    "sed": 4177,
    "Ġrewards": 10847,
    "exposure": 19256,
    "Ġunspeakably": 25172,
    "ullied": 23102,
    "Ġcompl": 3758,
    "stool": 23817,
    "Ġverdict": 13473,
    "Ġpens": 21459,
    "fig": 8734,
    "clings": 23150,
    "themselves": 6540,
    "Ġconsciousness": 9946,
    "yourself": 6742,
    "Ġindecision": 25781,
    "thouse": 21980,
    "attributed": 23120,
    "Ġpersisting": 18893,
    "Ġblaming": 22928,
    "Ġruggedness": 26268,
    "Ġinsists": 23677,
    "hauteur": 26390,
    "poison": 14391,
    "Ġfinancial": 23128,
    "joy": 3335,
    "itled": 7577,
    "Ġannoyance": 20661,
    "Ġinference": 9670,
    "Ġmien": 17808,
    "amp": 2606,
    "follows": 24527,
    "Ġhunger": 8566,
    "Ġlived": 3989,
    "edmund": 17945,
    "Ġwindigate": 18910,
    "frame": 17115,
    "chariot": 26478,
    "Ġreasons": 6020,
    "Ġadvent": 4355,
    "Ġhut": 15615,
    "Ġseen": 1367,
    "Ġdozen": 8186,
    "nosed": 20991,
    "Ġwriter": 11942,
    "Ġteeth": 4167,
    "give": 4686,
    "Ġexecute": 7505,
    "Ġtrumpet": 9572,
    "Ġlift": 8809,
    "Ġlug": 15648,
    "Ġprogeny": 17386,
    "Ġfactor": 19016,
    "insisted": 23065,
    "Ġcircumvent": 25064,
    "Ġintermission": 18587,
    "hereabouts": 23605,
    "ug": 1766,
    "organic": 25946,
    "tables": 19756,
    "Ġejac": 10202,
    "ison": 3076,
    "Ġdrunk": 9422,
    "Ġbackwater": 18634,
    "Ġoffensive": 18694,
    "gentleman": 7518,
    "Ġcontradict": 12382,
    "Ġscriptures": 26235,
    "Ġcho": 4545,
    "erted": 7361,
    "Ġpenny": 16310,
    "Ġdomains": 6611,
    "Ġtelescopes": 25688,
    "paws": 21028,
    "lan": 15375,
    "lections": 4751,
    "Ġdais": 24371,
    "disaster": 23491,
    "edy": 2861,
    "sne": 10123,
    "achel": 7032,
    "scrape": 25698,
    "Ġmemory": 2277,
    "¾": 127,
    "Ġpave": 8798,
    "Ġbi": 918,
    "Ġbred": 9168,
    "Ġcandidates": 4332,
    "lorn": 12484,
    "readily": 19360,
    "Ġlulled": 17968,
    "ef": 5134,
    "Ġlawyer": 10667,
    "Ġzealand": 12347,
    "Ġtortoise": 16907,
    "Ġthan": 738,
    "stout": 21643,
    "commander": 16986,
    "iosity": 2199,
    "county": 25396,
    "Ġseaman": 8638,
    "Ġcursed": 6726,
    "Ġdank": 21427,
    "Ġtake": 1583,
    "Ġdavy": 25951,
    "Ġlink": 8130,
    "Ġtarpaul": 17729,
    "interval": 7991,
    "Ġsolemnisation": 24111,
    "tremble": 17140,
    "urons": 3132,
    "ety": 3520,
    "Ġdevious": 22719,
    "err": 1141,
    "Ġpads": 21473,
    "Ġanonymous": 26178,
    "lane": 10705,
    "Ġinquis": 19302,
    "endeavoured": 12277,
    "Ġargument": 7098,
    "deadly": 17099,
    "Ġperformer": 18755,
    "Ġmonkey": 8227,
    "savor": 25024,
    "Ġsyrian": 18353,
    "Ġpoison": 7219,
    "et": 307,
    "Ġsmiting": 12894,
    "Ġ131": 24782,
    "covered": 11476,
    "blood": 7780,
    "Ġbreaths": 14855,
    "Ġembarrassment": 10625,
    "Ġhedge": 8364,
    "Ġgorgeous": 20465,
    "Ġweapon": 7776,
    "Ġvow": 10245,
    "Ġpassionately": 16763,
    "Ġsymbols": 2798,
    "Ġinitials": 11013,
    "Ġfriend": 1293,
    "Ġinher": 10178,
    "Ġsnoo": 21227,
    "*": 14,
    "connect": 1290,
    "Ġscarcity": 23824,
    "pping": 1426,
    "Ġbabies": 19691,
    "harpoon": 9489,
    "oughed": 22073,
    "ite": 712,
    "mun": 20961,
    "affair": 14654,
    "Ġspouting": 9437,
    "Ġexhausting": 24710,
    "africa": 26308,
    "doc": 23374,
    "Ġcapering": 21352,
    "Ġoy": 15542,
    "Ġinner": 9669,
    "î": 175,
    "declared": 15116,
    "cures": 20804,
    "drugg": 20837,
    "missed": 11208,
    "loat": 8885,
    "heartedness": 24827,
    "cop": 20800,
    "asp": 3340,
    "Ġpersuaded": 5769,
    "housekeeping": 24099,
    "Ġalleg": 14015,
    "Ġremorselessly": 16966,
    "Ġunicorn": 22053,
    "Ġvictory": 16652,
    "Ġdefiance": 11067,
    "avenue": 25057,
    "rowed": 22861,
    "inging": 5907,
    "Ġperches": 18448,
    "Ġcomparatively": 9488,
    "magnetic": 20551,
    "Ġfac": 6381,
    "Ġconsistent": 14527,
    "gabriel": 15358,
    "Ġmuseum": 15269,
    "nurse": 15206,
    "beh": 5472,
    "sensibility": 25023,
    "Ġintroduce": 3205,
    "Ġunion": 6839,
    "Ġaccursed": 9443,
    "ref": 6515,
    "Ġthey": 577,
    "Ġobsequious": 17402,
    "hump": 12474,
    "Ġhogarth": 25780,
    "Ġpreacher": 18369,
    "Î": 143,
    "Ġobliv": 16130,
    "Ġcolours": 12971,
    "enormous": 26166,
    "highly": 24764,
    "wearing": 22685,
    "Ġranging": 8478,
    "Ġbehold": 5049,
    "Ġunacquainted": 12772,
    "Ġmuttering": 10498,
    "Ġ270": 25130,
    "Ġlump": 21550,
    "quee": 4129,
    "Ġbequeathed": 20700,
    "Ġsubstituting": 26326,
    "Ġenclosure": 20622,
    "Ġtwisting": 18658,
    "Ġconsequ": 6254,
    "Ġlethar": 21744,
    "Ġinstigated": 18702,
    "Ġpreyed": 18366,
    "igated": 15703,
    "Ġoutlandish": 12834,
    "importance": 9987,
    "Ġsunda": 13542,
    "commendation": 26348,
    "Ġdirector": 18920,
    "uding": 16146,
    "eric": 3470,
    "Ġ98": 24594,
    "swelled": 19609,
    "Ġquarrelling": 13497,
    "masters": 16833,
    "Ġdismasted": 15249,
    "crat": 24094,
    "elab": 21568,
    "Ġunholy": 26218,
    "absurd": 21793,
    "Ġbetray": 7442,
    "Ġcore": 13876,
    "ellations": 21946,
    "Ġspeaking": 4024,
    "Ġsanguine": 25928,
    "Ġrefill": 18698,
    "ashions": 16415,
    "Ġbrougham": 17870,
    "gences": 20876,
    "Ġad": 442,
    "Ġconse": 21802,
    "culous": 11140,
    "Ġgrappling": 25812,
    "rowing": 7931,
    "Ġglistened": 20171,
    "Ġplaning": 22602,
    "Ġcaucus": 17378,
    "Ġreason": 1351,
    "Ġfancy": 3744,
    "Ġorph": 9715,
    "Ġhomely": 25219,
    "Ġduchess": 4798,
    "Ġtw": 841,
    "dation": 2614,
    "relatively": 24011,
    "Ġcontinuation": 22916,
    "nostr": 22714,
    "Ġsakes": 18326,
    "Ġinterpreter": 23214,
    "Ġlights": 8959,
    "Ġtarred": 23608,
    "Ġscarcely": 4007,
    "Ġxx": 5492,
    "Ġhapless": 15809,
    "Ġexpand": 9305,
    "Ġappellation": 22219,
    "Ġsumat": 14128,
    "jep": 20925,
    "jolly": 20930,
    "yder": 10137,
    "Ġhug": 6979,
    "arabian": 26445,
    "aff": 3104,
    "Ġesc": 2255,
    "jacket": 12289,
    "oboam": 9356,
    "habit": 16187,
    "Ġretreated": 13431,
    "reast": 17757,
    "vine": 10733,
    "times": 8099,
    "Ġhack": 12752,
    "Ġpods": 17914,
    "coal": 12021,
    "Ġrecklessly": 16982,
    "specimen": 26604,
    "Ġdiscrimination": 23604,
    "Ġpatter": 829,
    "Ġlifetime": 13600,
    "own": 746,
    "Ġbeck": 14007,
    "Ġexagger": 12715,
    "z": 94,
    "partly": 14601,
    "Ġaccount": 2323,
    "peddling": 24696,
    "Ġripples": 25505,
    "ivial": 15856,
    "osque": 22260,
    "Ġmenacing": 23105,
    "courageous": 26127,
    "Ġlinked": 15075,
    "Ġwrecked": 9964,
    "Ġbuilded": 24719,
    "Ġoriginally": 7304,
    "customary": 25895,
    "Ġcontr": 1916,
    "Ġeclips": 20695,
    "Ġwickham": 2207,
    "Ġalbatross": 10870,
    "Ġhem": 8445,
    "Ġstraight": 3701,
    "Ġbull": 7840,
    "Ġplaying": 6909,
    "Ġpomp": 12618,
    "Ġhis": 380,
    "Ġexpost": 18624,
    "Ġunsupplied": 22039,
    "untarily": 6312,
    "beneath": 9533,
    "Ġprofoundest": 16859,
    "Ġpatch": 4181,
    "Ġdaw": 21428,
    "ul": 371,
    "Ġforc": 9226,
    "Ġmates": 4872,
    "Ġthreat": 5154,
    "securer": 25602,
    "Ġten": 2389,
    "ichron": 22161,
    "abhor": 12703,
    "Ġhere": 1091,
    "continually": 11301,
    "Ġincumbent": 16059,
    "Ġforests": 13590,
    "Ġpattern": 1323,
    "emason": 18186,
    "Ġones": 3021,
    "Ġdiscre": 2418,
    "Ġden": 3109,
    "gird": 20878,
    "ak": 539,
    "Ġhumanity": 6731,
    "Ġdistinguishing": 16494,
    "racted": 4775,
    "Ġrear": 6535,
    "beries": 22716,
    "metal": 24765,
    "erate": 7149,
    "counter": 20277,
    "Ġit": 339,
    "Ġgreatest": 4090,
    "Ġjavelin": 26104,
    "Ġconvivial": 16546,
    "Ġunpleasant": 7191,
    "wont": 21131,
    "Ġcircling": 19092,
    "crippled": 26383,
    "derbyshire": 18321,
    "Ġbrilliancy": 20105,
    "orough": 5700,
    "quis": 7871,
    "Ġtoken": 2039,
    "Ġconsole": 8151,
    "handedness": 24920,
    "ulance": 15763,
    "Ġcall": 2074,
    "Ġimperial": 9479,
    "ornament": 23486,
    "visits": 24222,
    "Ġperplex": 2716,
    "Ġomniscient": 20084,
    "Ġdischarged": 15218,
    "rennial": 22339,
    "employ": 10894,
    "Ġdisplay": 6428,
    "ip": 554,
    "sullen": 17668,
    "Ġgoest": 22421,
    "kins": 7345,
    "Ġindefatigable": 17176,
    "Ġfloating": 6604,
    "solitary": 14504,
    "Ġparticular": 2452,
    "Ġmercy": 8997,
    "Ġequ": 1736,
    "Ġunmannerly": 26516,
    "same": 5361,
    "Ġwhir": 6393,
    "Ġrubber": 22784,
    "tw": 2814,
    "Ġtypewriting": 16418,
    "Ġuninter": 18246,
    "Ġpreprocess": 22231,
    "Ġcapacity": 10439,
    "Ġrob": 1303,
    "Ġlandsman": 11349,
    "Ġclang": 15959,
    "Ġviolation": 23404,
    "Ġsunset": 8961,
    "Ġ67": 19659,
    "Ġrobe": 18458,
    "Ġuncounted": 19116,
    "²": 115,
    "Ġpresent": 1647,
    "Ġalready": 2713,
    "mariners": 19547,
    "gracious": 11828,
    "perai": 10274,
    "Ġcolleg": 22856,
    "Ġinvaders": 23479,
    "Ġquadruped": 17457,
    "Ġvengeful": 14888,
    "liness": 8746,
    "Ġcats": 8978,
    "ignorantly": 25189,
    "fering": 17541,
    "igate": 8821,
    "ixed": 4850,
    "Ġexp": 781,
    "sneezes": 11445,
    "Ġsheeted": 19830,
    "Ġcontemplation": 11356,
    "theories": 18078,
    "Ġcorruption": 15223,
    "senses": 25022,
    "Ġfraud": 19005,
    "Ġencl": 16163,
    "Ġweeks": 4563,
    "soldiers": 25911,
    "inhab": 10756,
    "Ġstare": 10863,
    "gown": 9595,
    "Ġcontains": 2795,
    "ssing": 3807,
    "tumult": 12420,
    "Ġhelm": 5275,
    "Ġdisconcerted": 18562,
    "Ġvibrating": 13536,
    "Ġnotion": 7883,
    "through": 4021,
    "composed": 14738,
    "Ġhandsomest": 20333,
    "Ġeast": 5370,
    "Ġgaff": 17993,
    "Ġcontest": 18473,
    "Ġacted": 7422,
    "iminished": 19024,
    "Ġcloudless": 16667,
    "Ġowes": 20083,
    "unavoid": 14060,
    "Ġinspecting": 24614,
    "Ġnoiselessly": 22864,
    "complied": 19912,
    "Ġparr": 22117,
    "Ġbowl": 11203,
    "Ġpondicherry": 20489,
    "rive": 9705,
    "ucumber": 19057,
    "Ġciv": 3309,
    "Ġunfortunate": 5376,
    "Ġjet": 5307,
    "Ġone": 568,
    "Ġerrors": 2597,
    "franch": 24283,
    "Ġdampening": 2897,
    "nical": 20990,
    "Ġabout": 632,
    "oured": 2671,
    "Ġapt": 9154,
    "ittered": 18439,
    "Ġinviting": 19143,
    "Ġcurious": 3361,
    "ke": 429,
    "Ġcalls": 6744,
    "deep": 1056,
    "Ġcommunicate": 10576,
    "Ġinconsistency": 26182,
    "Ġincidentally": 16953,
    "Ġreappeared": 21663,
    "Ġmatrimony": 13633,
    "Ġvulgarity": 25363,
    "elt": 4114,
    "Ġmouth": 3181,
    "Ġincarnate": 20373,
    "Ġagainst": 1700,
    "Ġwollstonecraft": 26424,
    "era": 13845,
    "sides": 12504,
    "deser": 10401,
    "ories": 4752,
    "ls": 1288,
    "Ġpleasurable": 23338,
    "Ġincarnation": 25573,
    "Ġexhausted": 8693,
    "Ġfluctuating": 24416,
    "subs": 14299,
    "ensing": 12892,
    "Ġpursuers": 13223,
    "Ġincorrect": 2729,
    "ĠâĢĶ_": 3458,
    "Ġtyphoon": 12386,
    "suddenly": 6493,
    "Ġapothecary": 13657,
    "Ġday": 957,
    "Ġheeded": 13401,
    "pron": 9004,
    "violence": 16476,
    "Ġdreamy": 14701,
    "Ġmeantime": 6206,
    "Ġjoyously": 19345,
    "Ġplayed": 9414,
    "Ġbarbaric": 10012,
    "slightest": 25416,
    "Ġillinois": 19136,
    "Ġfamil": 4319,
    "Ġcravat": 26307,
    "Ġsolar": 22886,
    "maintained": 25020,
    "overfitting": 13098,
    "rable": 11630,
    "Ġvolumes": 14798,
    "inery": 17732,
    "Ġ1778": 25730,
    "Ġplush": 18610,
    "tired": 21071,
    "Ġsupreme": 13605,
    "expectation": 14854,
    "Ġimprudence": 10296,
    "Ġangel": 4851,
    "cure": 11473,
    "Ġlocks": 11721,
    "volut": 1564,
    "Ġgasfitters": 25038,
    "Ġcomrades": 9553,
    "Ġgraces": 18225,
    "Ġgrosvenor": 17416,
    "carries": 19526,
    "Ġstretching": 10013,
    "Ġsy": 490,
    "Ġswimming": 5507,
    "Ġknocking": 10558,
    "Ġoverheard": 11771,
    "Ġrepel": 23358,
    "reader": 23844,
    "Ġadvertising": 25389,
    "Ġomn": 8410,
    "Ġexaggerated": 25650,
    "pen": 1206,
    "Ġquarters": 8619,
    "meet": 11852,
    "Ġskylight": 24069,
    "Ġheredit": 9215,
    "Ġdangling": 17173,
    "Ġpropos": 7062,
    "ces": 579,
    "entire": 6824,
    "body": 2309,
    "Ġpoising": 22592,
    "horse": 8605,
    "volume": 18600,
    "uttering": 12658,
    "Ġrender": 8305,
    "endeavouring": 15014,
    "Ġbells": 19600,
    "Ġsubterranean": 13609,
    "Ġgodfrey": 15291,
    "Ġdecided": 5471,
    "Ġazores": 20192,
    "Ġgrammar": 1064,
    "etition": 7382,
    "Ġappeal": 16311,
    "resolutions": 26164,
    "Ġheeds": 24519,
    "Ġdexterously": 25295,
    "Ġinitialization": 1255,
    "prints": 23810,
    "Ġdisposal": 19374,
    "consequential": 26249,
    "enjoy": 10773,
    "Ġcredit": 4817,
    "obviously": 25242,
    "Ġadvertised": 17246,
    "Ġimmediately": 3366,
    "anting": 6412,
    "befall": 22493,
    "ineas": 15819,
    "Ġwooing": 19432,
    "Ġbourgh": 5069,
    "Ġape": 21195,
    "Ġedition": 16432,
    "het": 5435,
    "Ġslightest": 6093,
    "Ġbefitting": 15722,
    "Ġhistory": 4006,
    "Ġentered": 2847,
    "Ġcultured": 25154,
    "Ġfloats": 9411,
    "Ġcurrent": 13003,
    "Ġfavoured": 16358,
    "Ġoverflowed": 20261,
    "sus": 6228,
    "Ġunwe": 15835,
    "knot": 13743,
    "ameter": 2972,
    "jumped": 20245,
    "eryton": 4091,
    "umbered": 22115,
    "Ġobjective": 3765,
    "crossed": 16631,
    "Ġmechan": 1160,
    "poises": 11888,
    "Ġnight": 1466,
    "Ġwandered": 6930,
    "benevolently": 25600,
    "Ġlogical": 14485,
    "[": 63,
    "Ġineff": 12630,
    "chance": 6827,
    "Ġchin": 4891,
    "Ġesteemed": 10587,
    "blue": 13691,
    "Ġreeled": 13984,
    "disappeared": 14569,
    "Ġacquies": 11097,
    "Ġhemp": 9214,
    "Ġmich": 21304,
    "Ġergo": 25029,
    "Ġroad": 3881,
    "Ġsplinters": 15100,
    "rot": 21530,
    "Ġty": 6657,
    "sighted": 19784,
    "Ġname": 2082,
    "Ġsymmetry": 20364,
    "indispensable": 14208,
    ".": 18,
    "Ġ20": 8613,
    "admon": 21759,
    "Ġhilarity": 20296,
    "rative": 17651,
    "hammad": 23262,
    "Ġpatagonia": 25858,
    "Ġgarn": 13961,
    "Ġhigh": 931,
    "Ġrats": 21971,
    "Ġmystery": 5509,
    "ascended": 24706,
    "mile": 17596,
    "Ġforming": 7042,
    "Ġabsorbed": 12328,
    "whatever": 6694,
    "Ġje": 4122,
    "arranged": 19318,
    "whereby": 23416,
    "occup": 7753,
    "Ġoverthrown": 18430,
    "Ġtwink": 8216,
    "Ġconsequently": 8060,
    "breat": 10076,
    "suggest": 20374,
    "there": 1425,
    "88": 20757,
    "gives": 15355,
    "Ġclerks": 17293,
    "Ġwounding": 19585,
    "Ġperceptibly": 25821,
    "Ġdepressions": 25798,
    "encoura": 15047,
    "Ġoverwhelming": 17101,
    "Ġgri": 17987,
    "ynolds": 10034,
    "Ġalders": 21782,
    "reflected": 24733,
    "Ġcake": 12566,
    "Ġought": 3418,
    "Ġoccupations": 9456,
    "raid": 3280,
    "hit": 20888,
    "Ġdaintiest": 25953,
    "Ġtemporary": 7981,
    "Ġlass": 15644,
    "Ġislets": 21799,
    "Ġdispelling": 23878,
    "whether": 5319,
    "Ġbath": 9657,
    "utely": 8132,
    "oars": 9613,
    "ts": 959,
    "sembled": 7263,
    "Ġus": 498,
    "scor": 13016,
    "Ġguests": 12284,
    "sets": 17659,
    "uff": 2731,
    "cable": 20796,
    "Ġulster": 14996,
    "Ġcan": 471,
    "Ġresembling": 4095,
    "Ġexhaustion": 14959,
    "Ġoscillations": 2900,
    "ipotent": 10958,
    "thirty": 12758,
    "ra": 314,
    "Ġspec": 1264,
    "Ġlouisa": 13544,
    "plexion": 14259,
    "chair": 5917,
    "Ġturn": 1296,
    "doublo": 24660,
    "pressing": 19017,
    "geor": 15975,
    "Ġacceptable": 16743,
    "Ġcold": 3035,
    "Ġrare": 7035,
    "Ġhop": 1462,
    "otion": 4946,
    "bad": 12433,
    "Ġfluctu": 5267,
    "Ġmightier": 18730,
    "Ġqueequeg": 2014,
    "Ġsheer": 14149,
    "better": 7119,
    "nights": 16447,
    "ulls": 8836,
    "hatches": 19927,
    "Ġdepth": 2440,
    "Ġgib": 13963,
    "Ġsofa": 10269,
    "Ġdefined": 11895,
    "oldened": 22644,
    "olera": 21831,
    "Ġefficiently": 3764,
    "Ġwhether": 2002,
    "Ġsincerely": 7963,
    "Ġcetacean": 25878,
    "Ġmoney": 3417,
    "Ġodious": 12147,
    "Ġpurse": 12007,
    "Ġnegro": 6447,
    "Ġignoble": 19397,
    "Ġsparkled": 13460,
    "Ġpause": 5707,
    "Ġgips": 10840,
    "Ġtrusted": 10516,
    "Ġcet": 6669,
    "Ġmembrane": 20502,
    "Ġfat": 3461,
    "Ġweakness": 9965,
    "Ġperadventure": 22396,
    "build": 12184,
    "Ġvanishing": 1346,
    "deserving": 17240,
    "Ġblacks": 23386,
    "Ġdri": 2367,
    "Ġdig": 6135,
    "Ġmadness": 6601,
    "8": 28,
    "entreaties": 26185,
    "Ġlasted": 11053,
    "Ġgret": 21599,
    "yours": 7695,
    "helmsman": 24286,
    "Ġsumm": 3355,
    "Ġwelcomed": 9480,
    "last": 3801,
    "Ġrecall": 3854,
    "Ġcomposedly": 25183,
    "rub": 15890,
    "Ġcath": 17826,
    "ickering": 22668,
    "Ġaccordingly": 6619,
    "Ġlevelled": 11283,
    "minutely": 19592,
    "Ġresolving": 9417,
    "Ġplanned": 14750,
    "completed": 19992,
    "haz": 17563,
    "Ġascent": 19617,
    "disappo": 8983,
    "Ġproduced": 2455,
    "Ġsteersman": 13038,
    "felt": 5889,
    "plish": 18208,
    "parameter": 3028,
    "Ġusage": 9729,
    "Ġungovernable": 20708,
    "Ġcontention": 22424,
    "Ġuniform": 2228,
    "Ġmaximizing": 3171,
    "Ġdedu": 5584,
    "Ġdelights": 14595,
    "threatened": 25462,
    "vari": 1515,
    "imly": 12683,
    "Ġungenerous": 18266,
    "rate": 2424,
    "Ġimmedi": 2906,
    "Ġamiable": 4269,
    "Ġeighteenth": 14752,
    "Ġdoze": 14173,
    "happ": 3106,
    "Ġservant": 5764,
    "Ġadversarial": 5606,
    "Ġunwonted": 14123,
    "Ġuniverse": 14122,
    "Ġwhaler": 7520,
    "Ġthereby": 7643,
    "moored": 22706,
    "Ġhose": 12623,
    "Ġissues": 9540,
    "smoke": 17221,
    "Ġlayers": 818,
    "een": 726,
    "Ġrubbing": 9320,
    "Ġgeorgiana": 8625,
    "nor": 2742,
    "vigorous": 25917,
    "ct": 309,
    "Ġworthy": 7241,
    "Ġerrone": 14428,
    "Ġmidnight": 5265,
    "attain": 21260,
    "awed": 10390,
    "cal": 1121,
    "Ġpertaining": 18450,
    "Ġirretrie": 23372,
    "Ġstarve": 24626,
    "Ġstow": 21728,
    "be": 671,
    "Ġnarrower": 24353,
    "stream": 15683,
    "stump": 21651,
    "Ġindul": 5856,
    "ropout": 1319,
    "Ġincomplete": 17207,
    "Ġyields": 19655,
    "iger": 8446,
    "Ġsubstantiated": 25875,
    "Ġwh": 328,
    "Ġpsych": 10175,
    "contrivance": 26316,
    "Ġfurthest": 22814,
    "musical": 25340,
    "Ġbelie": 14404,
    "Ġslopes": 18940,
    "breadth": 20275,
    "Ġrabb": 4163,
    "sunlight": 24851,
    "Ġstillness": 12991,
    "Ġourselves": 5127,
    "Ġhesitate": 16945,
    "))": 1514,
    "Ġyoungest": 7954,
    "youth": 11872,
    "yth": 979,
    "shore": 10303,
    "Ġmetropol": 11139,
    "daughters": 13464,
    "Ġnoted": 15827,
    "Ġserenity": 10026,
    "ap": 547,
    "Ġsparks": 22130,
    "ibly": 2996,
    "Ġmortal": 4679,
    "Ġtenderness": 12212,
    "Ġcruellest": 19657,
    "Ġpuffing": 12251,
    "Ġexpressions": 7706,
    "Ġportra": 9007,
    "Ġexec": 19491,
    "terms": 15747,
    "Ġisland": 4046,
    "halloa": 17089,
    "Ġdecap": 16016,
    "Ġsaviour": 20712,
    "protested": 13472,
    "cottagers": 20046,
    "Ġrecur": 1626,
    "igating": 21698,
    "Ġunrest": 11711,
    "Ġestablishment": 13577,
    "sorrows": 17318,
    "Ġgrowth": 14628,
    "Ġelevated": 7318,
    "encies": 4078,
    "companion": 9556,
    "Ġdotted": 16791,
    "Ġabusing": 18398,
    "Ġinnocence": 6477,
    "Ġerskine": 17430,
    "amped": 12030,
    "oup": 2016,
    "hound": 20894,
    "ula": 2828,
    "Ġkey": 2102,
    "Ġforeshadowing": 26591,
    "herald": 22203,
    "Ġprofoundly": 16858,
    "Ġsweatings": 25710,
    "Ġheidelburgh": 11641,
    "Ġsupported": 9816,
    "Ġhart": 17921,
    "Ġweights": 897,
    "Ġwinchester": 10064,
    "Ġhoofs": 14526,
    "Ġknow": 631,
    "Ġmaria": 7124,
    "Ġindu": 5293,
    "Ġglens": 18853,
    "Ġcranial": 25592,
    "Ġagreeable": 4550,
    "Ġrebounds": 25967,
    "Ġpeep": 6870,
    "icest": 21562,
    "Ġmajestic": 8639,
    "Ġmethods": 3162,
    "fra": 8375,
    "larking": 17593,
    "stein": 5505,
    "Ġleast": 2064,
    "unbe": 21870,
    "Ġlancaster": 26340,
    "Ġepicures": 25880,
    "Ġborne": 6351,
    "Ġunreserved": 19395,
    "Ġemma": 20693,
    "tie": 21067,
    "Ġworn": 6445,
    "Ġdownwards": 8529,
    "Ġlar": 767,
    "Ġfloundered": 18861,
    "Ġcontextually": 11954,
    "ature": 522,
    "agre": 18164,
    "Ġpredecessor": 26253,
    "Ġtalked": 4420,
    "Ġmorals": 22973,
    "Ġthirt": 13937,
    "Ġplumber": 16082,
    "Ġoftener": 13563,
    "ivorous": 22078,
    "absolute": 17121,
    "Ġvices": 14081,
    "Ġminim": 1324,
    "article": 22392,
    "beam": 16036,
    "Ġtimely": 19593,
    "bing": 7792,
    "amused": 21850,
    "odings": 4399,
    "discrimin": 19607,
    "Ġclut": 7641,
    "clothed": 19736,
    "civility": 17512,
    "Ġclaims": 13371,
    "Ġreally": 2162,
    "Ġpertin": 18449,
    "Ġchoice": 2168,
    "conscientious": 19625,
    "open": 7025,
    "Ġarea": 14185,
    "dart": 20825,
    "Ġfall": 2988,
    "aching": 5831,
    "stige": 21659,
    "Ġbug": 11587,
    "Ġsentence": 6187,
    "mistress": 14903,
    "iriously": 18171,
    "Ġdarcy": 1343,
    "Ġwhisky": 23931,
    "Ġcashier": 20197,
    "smiles": 14691,
    "Ġcabinets": 23860,
    "Ġtwitching": 25683,
    "Ġblasts": 19994,
    "Ġtornado": 24622,
    "Ġactions": 6278,
    "Ġrashness": 25460,
    "Ġmost": 1020,
    "anct": 21356,
    "Ġwillingly": 8883,
    "Ġsmell": 7216,
    "Ġshed": 8181,
    "Ġlessen": 14531,
    "Ġsensation": 6896,
    "aint": 2544,
    "dwelt": 23869,
    "beds": 16584,
    "Ġwhims": 12688,
    "Ġabide": 14189,
    "Ġ94": 17716,
    "agement": 4189,
    "Ġsuperlatively": 26075,
    "Ġconstrained": 19238,
    "Ġbloodthirsty": 26600,
    "Ġenderby": 13649,
    "Ġlibrary": 6423,
    "Ġamput": 16030,
    "Ġclimb": 15077,
    "Ġsomewhere": 5384,
    "resting": 23236,
    "Ġlimp": 19179,
    "antucket": 2643,
    "Ġcarried": 3692,
    "ever": 1080,
    "Ġfrosts": 19801,
    "family": 7324,
    "ppo": 18175,
    "Ġspat": 2663,
    "king": 3062,
    "Ġauthority": 7749,
    "Ġtags": 20570,
    "Ġcock": 10998,
    "igned": 5656,
    "eat": 11481,
    "ibule": 13007,
    "Ġhoisting": 9860,
    "Ġinsignificant": 20455,
    "wear": 22681,
    "hairs": 20903,
    "Ġpatriot": 23314,
    "Ġexile": 12713,
    "Ġfrosty": 14933,
    "gins": 12465,
    "Ġimprudently": 22384,
    "Ġslyness": 25266,
    "deceptive": 22147,
    "Ġtumbling": 13824,
    "unwholesome": 26496,
    "pair": 21011,
    "Ġfavourites": 16643,
    "ĠĠĠĠĠĠĠĠĠĠĠĠĠĠĠĠĠĠĠĠĠĠĠĠĠĠĠĠĠĠĠĠĠĠĠĠĠĠĠĠĠĠĠĠĠĠĠ": 16754,
    "Ġnaturalist": 22896,
    "Ġdivided": 8631,
    "Ġfuriously": 9800,
    "Ġport": 3310,
    "Ġshooting": 11161,
    "Ġswap": 23051,
    "itude": 1419,
    "uy": 21098,
    "Ġpitchpoling": 14909,
    "Ġsul": 7570,
    "Ġknob": 24406,
    "Ġdiabolism": 25514,
    "Ġmarry": 4417,
    "what": 640,
    "fil": 12459,
    "dock": 16416,
    "Ġjoists": 19231,
    "Ġconjunction": 25100,
    "Ġdrag": 6184,
    "itives": 17819,
    "Ġunprotected": 22063,
    "Ġwithout": 1123,
    "Ġretrogression": 26580,
    "gle": 20868,
    "accident": 11180,
    "pha": 22773,
    "Ġshipmates": 6720,
    "sudden": 5315,
    "ifers": 15778,
    "pread": 7418,
    "returns": 23135,
    "crawling": 16957,
    "Ġstout": 6025,
    "plunging": 25987,
    "Ġdwelt": 12601,
    "Ģ": 227,
    "Ġtempted": 9055,
    "Ġoutbreak": 22315,
    "angel": 5726,
    "Ġoaks": 16932,
    "Ġswords": 19896,
    "Ġhairs": 13228,
    "Ġlooked": 1801,
    "Ġbashaw": 25633,
    "Ġopinion": 3144,
    "Ġbiggest": 24565,
    "pat": 10115,
    "Ġedged": 23435,
    "Ġlottery": 19887,
    "Ġlazily": 11379,
    "bast": 10075,
    "urns": 10212,
    "rivial": 9432,
    "Ġsunshine": 14494,
    "Ġpaternal": 16382,
    "arranted": 19319,
    "Ġpumping": 25643,
    "Ġ4": 3984,
    "rating": 7809,
    "Ġmonoton": 3635,
    "games": 20879,
    "ohog": 9842,
    "uns": 21868,
    "operation": 13499,
    "Ġadvance": 5484,
    "india": 22369,
    "Ġfurn": 3708,
    "amiable": 14052,
    "Ġalchemists": 26486,
    "swe": 5996,
    "Ġintricate": 15135,
    "85": 13679,
    "erting": 17776,
    "Ġfant": 9172,
    "Ġfinding": 3266,
    "Ġscud": 14187,
    "Ġpercept": 14222,
    "cannibal": 15222,
    "atches": 13844,
    "Ġfailed": 6671,
    "Ġpeg": 22687,
    "deformity": 22144,
    "Ġobsc": 7039,
    "Ġsir": 1572,
    "dro": 6644,
    "Ġplates": 11006,
    "Ġdepression": 21838,
    "Ġcategorization": 12133,
    "Ġfavourite": 5270,
    "Ġbedroom": 7277,
    "Ġgates": 10199,
    "unching": 18158,
    "Ġimpudence": 26241,
    "Ġattics": 22626,
    "less": 928,
    "Ġbox": 5109,
    "Ġvexations": 24610,
    "Ġbohem": 8526,
    "Ġdeduce": 8337,
    "tallied": 21088,
    "Ġhertfordshire": 5377,
    "Ġhigher": 1819,
    "orted": 4601,
    "gul": 12462,
    "bee": 16035,
    "Ġezek": 18009,
    "rels": 6664,
    "Ġthigh": 10185,
    "reception": 15512,
    "Ġ13": 6718,
    "alter": 10825,
    "Ġvanished": 6874,
    "waves": 10741,
    "Ġdestination": 19149,
    "Ġthreaten": 24373,
    "profess": 10633,
    "Ġnarrating": 24350,
    "Ġanalogy": 25639,
    "Ġsounds": 5190,
    "Ġexchange": 15750,
    "Ġunlimited": 26222,
    "Ġsticks": 14929,
    "Ġosc": 2837,
    "isles": 15560,
    "Ġgiving": 4083,
    "ining": 3222,
    "itical": 5801,
    "Ġmarking": 16467,
    "Ġsize": 1220,
    "prov": 16420,
    "Ġtransparen": 10540,
    "avo": 8517,
    "Ġhasty": 10476,
    "Ġretiring": 16277,
    "dance": 17518,
    "aulets": 18620,
    "ogr": 18670,
    "Ġdictate": 20150,
    "arman": 11593,
    "âĢĶâĢĶâĢĿ": 15936,
    "bank": 10078,
    "heavily": 24533,
    "Ġsle": 2015,
    "Ġrecede": 25968,
    "rece": 21233,
    "Ġinsip": 19266,
    "Ġfem": 6134,
    "Ġreading": 5114,
    "Ġlect": 9221,
    "Ġunexpectedly": 19908,
    "coast": 10448,
    "Ġfrocks": 23919,
    "Ġlearned": 2025,
    "Ġattempt": 3487,
    "Ġmaintainable": 12931,
    "Ġwatson": 3596,
    "returned": 7766,
    "Ġhorrible": 4905,
    "Ġfitzwilliam": 5771,
    "Ġcongrat": 5827,
    "Ġshame": 6410,
    "advancing": 14834,
    "Ġbandaged": 16841,
    "veil": 18042,
    "Ġeldest": 6571,
    "estruct": 22223,
    "Ġxlix": 25860,
    "Ġrepresenting": 4058,
    "Ġdangers": 12351,
    "articulate": 17396,
    "Ġsnugness": 20075,
    "brÃ¦": 11174,
    "stolen": 13980,
    "giana": 7801,
    "Ġnecessitated": 23925,
    "rucastle": 22176,
    "married": 9947,
    "Ġwhar": 7388,
    "rent": 1172,
    "Ġparched": 11724,
    "Ġshrew": 21998,
    "ü": 189,
    "Ġreflected": 2910,
    "Ġdraws": 19434,
    "Ġembarkation": 25123,
    "Ġcrowder": 19454,
    "Ġdare": 3544,
    "Ġslink": 23161,
    ").": 1272,
    "Ġleviathan": 3290,
    "Ġmisery": 3813,
    "Ġscuff": 15939,
    "Ġj": 533,
    "Ġyankees": 26201,
    "Ġmassive": 9930,
    "Ġwishing": 7831,
    "milk": 20475,
    "destroyed": 15258,
    "Ġlap": 8437,
    "Ġinwards": 15617,
    "Ġdiligent": 25075,
    "Ġpen": 1531,
    "Ġhealed": 21681,
    "Ġbarbar": 6935,
    "sacred": 17027,
    "plendent": 21962,
    "Ġmental": 21318,
    "amidst": 25652,
    "Ġnations": 8808,
    "gall": 6359,
    "Ġtroops": 24898,
    "possessed": 9526,
    "address": 14879,
    "Ġfrequ": 3328,
    "Ġforbade": 15212,
    "Ġappetites": 20205,
    "bacc": 7795,
    "Ġleaps": 14006,
    "fleece": 19946,
    "nonsense": 17614,
    "complacency": 19913,
    "groom": 8739,
    "tumbled": 21089,
    "tol": 17671,
    "Ġgroves": 16739,
    "tering": 3805,
    "despairing": 25074,
    "papers": 12498,
    "Ġdescribed": 6606,
    "Ġtit": 8399,
    "Ġaccumulates": 2892,
    "Ġbaron": 19333,
    "passage": 11260,
    "Ġestate": 6316,
    "Ġchests": 19670,
    "Ġsk": 961,
    "hertfordshire": 10935,
    "Ġalternately": 15030,
    "Ġsavagely": 26323,
    "Ġdaughter": 2872,
    "Ġscandinavian": 26344,
    "n": 82,
    "Ġdo": 510,
    "Ġwhose": 2010,
    "Ġguar": 23044,
    "Ġcompunction": 18585,
    "Ġindelicacy": 25695,
    "Ġstandards": 19019,
    "flames": 14710,
    "animate": 12573,
    "Ġmand": 21303,
    "usually": 10284,
    "uce": 11534,
    "Ġconceive": 8461,
    "Ġluxurious": 17309,
    "distinguished": 10525,
    "Ġpractically": 13103,
    "Ġringed": 16749,
    "Ġtimid": 6345,
    "Ġpebbles": 16126,
    "Ġdownward": 10330,
    "Ġburke": 19250,
    "Ġices": 21153,
    "Ġstript": 23693,
    "Ġattempted": 8001,
    "Ġfrequented": 16583,
    "Ġprinciples": 10009,
    "rugged": 6849,
    "Ġpretence": 13205,
    "seems": 10874,
    "Ġcomely": 21841,
    "people": 7677,
    "Ġcollapsed": 15079,
    "Ġboot": 11836,
    "darker": 24512,
    "Ġrested": 9377,
    "cats": 17511,
    "Ġhunks": 18935,
    "Ġglare": 13013,
    ":--": 5784,
    "allest": 5485,
    "ortunity": 4403,
    "Ġcrew": 2499,
    "?âĢĶ": 3468,
    "deliver": 19503,
    "ri": 390,
    "Ġtelling": 5747,
    "Ġgush": 10201,
    "Ġnuts": 17951,
    "Ġexpressly": 16452,
    "Ġeyelashes": 26106,
    "Ġill": 2194,
    "vate": 21108,
    "Ġfreemason": 23212,
    "Ġrucastles": 18721,
    "Ġdefend": 9338,
    "Ġpersever": 10001,
    "pertaining": 22182,
    "azore": 23461,
    "Ġtroubles": 19437,
    "Ġleft": 1760,
    "rudence": 7092,
    "repairing": 24494,
    "Ġtarget": 2823,
    "Ġspears": 12922,
    "Ġalarming": 14777,
    "Ġlydia": 2378,
    "Ġconv": 2969,
    "Ġhypothesis": 14779,
    "Ġcoun": 4178,
    "Ġgangs": 21607,
    "weekly": 25684,
    "Ġhoops": 9387,
    "Ġdispel": 16594,
    "civilized": 17074,
    "Ġanswer": 2599,
    "marest": 20979,
    "evidence": 25521,
    "mises": 20977,
    "Ġour": 1010,
    "gangway": 20666,
    "Ġdesignated": 19520,
    "bly": 6110,
    "Ġreverie": 13455,
    "anzas": 17840,
    "steak": 14706,
    "Ġpoliceman": 15256,
    "Ġinve": 17928,
    "flag": 14709,
    "Ġadorn": 12786,
    "uctive": 17695,
    "Ġcobweb": 22582,
    "untary": 9865,
    "Ġyarman": 12701,
    "rise": 6226,
    "Ġrecital": 16139,
    "hee": 10759,
    "Ġcure": 21338,
    "yellow": 9623,
    "situ": 9620,
    "Ġ6": 5141,
    "Ġcompanies": 14556,
    "Ġhumorously": 18778,
    "takes": 21074,
    "Ġrecre": 22735,
    "Ġunexplored": 26517,
    "Ġhaste": 9002,
    "istan": 22106,
    "Ġinsufferable": 13929,
    "Ġcamberwell": 25350,
    "incl": 8110,
    "iii": 14772,
    "rip": 9239,
    "opening": 10311,
    "Ġquestion": 2778,
    "Ġholds": 7976,
    "Ġpass": 1039,
    "advice": 12154,
    "ivot": 11715,
    "ricane": 16275,
    "Ġbring": 3324,
    "Ġself": 1777,
    "Ġrecesses": 17259,
    "igin": 3654,
    "Ġallowed": 4056,
    "Ġfra": 1704,
    "Ġviolates": 3167,
    "Ġvoyagings": 19234,
    "fire": 6357,
    "Ġset": 1177,
    "Ġshivering": 10264,
    "uine": 13797,
    "unaffected": 21881,
    "Ġsa": 474,
    "Ġsallied": 12533,
    "Ġsurpass": 13581,
    "ise": 708,
    "Ġaxe": 15062,
    "Ġinterrupting": 19556,
    "Ġhelpless": 8302,
    "Ġfronted": 25854,
    "unity": 4150,
    "Ġcusack": 26432,
    "arken": 18667,
    "gladness": 25194,
    "Ġhands": 1668,
    "Ġwhistles": 24625,
    "Ġpeas": 8533,
    "Ġvoluntary": 14797,
    "Ġchaos": 17008,
    "Ġfreshe": 13067,
    "numerous": 17429,
    "mble": 1408,
    "rity": 13774,
    "Ġemploying": 23975,
    "Ġapprobation": 10984,
    "Ġstrengthen": 20699,
    "Ġforms": 6397,
    "squall": 13520,
    "points": 14392,
    "Ġelev": 5535,
    "Ġbennett": 16323,
    "Ġtwitched": 20442,
    "Ġexpectantly": 23523,
    "uniform": 18157,
    "Ġformed": 3884,
    "Ġsuspicious": 9478,
    "Ġpoliteness": 8274,
    "Ġcoarse": 14272,
    "oy": 1028,
    "Ġallies": 18234,
    "Ġdepending": 14286,
    "berries": 22718,
    "Ġshores": 8846,
    "oise": 15402,
    "Ġprivacy": 19523,
    "Ġ184": 16605,
    "Ġrun": 2359,
    "Ġsymp": 4501,
    "suit": 18631,
    "lording": 24047,
    "Ġsatisfactory": 11191,
    "Ġhearse": 10419,
    "Ġwert": 12552,
    "Ġmean": 744,
    "Ġsincere": 11135,
    "Ġcomprehens": 8320,
    "roses": 17956,
    "Ġduplicates": 17215,
    "nar": 12490,
    "Ġtoy": 15630,
    "Ġpair": 5706,
    "Ġge": 1981,
    "Ġdangerously": 23934,
    "Ġcrav": 19172,
    "Ġweighed": 8710,
    "Ġpsychology": 11447,
    "Ġpublicly": 13320,
    "iem": 20916,
    "Ġborrow": 10169,
    "Ġunfathomably": 25873,
    "Ġlouisiana": 25076,
    "Ġcut": 2641,
    "Ġimbedded": 18332,
    "Ġjutting": 22299,
    "indulged": 22373,
    "Ġautomation": 13305,
    "Ġdesol": 6881,
    "Ġprofane": 13150,
    "Ġcomposition": 1691,
    "Ġbrooded": 23101,
    "dor": 12448,
    "Ġblacksmiths": 19872,
    "bitter": 11240,
    "Ġflung": 8562,
    "Ġtigris": 25759,
    "scar": 9814,
    "Ġunho": 18245,
    "lucifer": 25301,
    "Ġwrought": 11941,
    "Ġmonotonically": 3832,
    "Ġtransl": 2832,
    "Ġwafted": 14498,
    "Ġherd": 7889,
    "Ġhappiness": 2945,
    "live": 7550,
    "fright": 9594,
    "ã": 164,
    "Ġninetieth": 25357,
    "Ġdreaded": 8289,
    "Ġmexico": 15278,
    "Ġdaugh": 2294,
    "Ġauthorities": 11263,
    "Ġmo": 628,
    "Ġgore": 17988,
    "flutter": 23968,
    "Ġpolitics": 19223,
    "let": 2733,
    "Ġdivine": 6921,
    "Ġbusks": 23337,
    "Ġaccommodate": 20515,
    "Ġadmiration": 5328,
    "gling": 10096,
    "Ġpermanently": 25473,
    "Ġperceived": 4711,
    "Ġportcull": 23861,
    "irmed": 9237,
    "irations": 18170,
    "vit": 13799,
    "Ġdescrib": 2719,
    "Ġtaught": 6803,
    "glimmer": 26321,
    "Ġdramatic": 4849,
    "Ġgenerate": 1578,
    "ian": 1240,
    "Ġeh": 6987,
    "specim": 23941,
    "Ġrelevant": 1865,
    "ler": 3491,
    "Ġstarted": 4148,
    "Ġwrench": 12553,
    "bons": 17485,
    "inisc": 15486,
    "point": 6063,
    "Ġorganisation": 23582,
    "gi": 17550,
    "Ġindestructible": 26571,
    "fifth": 20145,
    "artificial": 1001,
    "Ġmizen": 17257,
    "uvier": 9067,
    "Ġcostly": 23583,
    "canst": 22964,
    "Ġsgd": 3131,
    "Ġsquare": 2399,
    "Ġaberdeen": 26541,
    "Ġpastures": 23418,
    "Ġrelapses": 26278,
    "Ġcomb": 1051,
    "Ġpalpit": 16690,
    "_.âĢĻâĢĿ": 17478,
    "Ġretention": 23069,
    "Ġgentle": 1891,
    "Ġbarriers": 23793,
    "Ġtedious": 15265,
    "Ġagitates": 22514,
    "Ġlinen": 12404,
    "neighboring": 20615,
    "Ġlithe": 24668,
    "Ġcheck": 7271,
    "Ġtelegra": 11885,
    "arance": 4695,
    "Ġowl": 20082,
    "Ġbohemian": 17132,
    "luding": 6700,
    "Ġinterval": 4051,
    "Ġpiny": 21469,
    "Ġdisse": 18548,
    "Ġsurf": 19131,
    "Ġbarred": 9001,
    "Ġcommons": 22670,
    "Ġviewing": 19263,
    "pronounced": 12343,
    "america": 17096,
    "boom": 18999,
    "Ġpet": 4584,
    "Ġyoked": 15731,
    "Ġwould": 649,
    "Ġlou": 6822,
    "Đ": 209,
    "Ġcommis": 22669,
    "Ġcooper": 16072,
    "Ġay": 15489,
    "Ġacknowledge": 13400,
    "Ġdefault": 3042,
    "Ġmaketh": 15185,
    "Ġhypotheses": 4386,
    "Ġchimney": 6497,
    "Ġseemed": 1278,
    "lust": 15377,
    "Ġwhile": 606,
    "Ġinvests": 14866,
    "Ġungodly": 26512,
    "Ġflows": 13010,
    "Ġpigs": 19746,
    "Ġbreckinridge": 14522,
    "Ġsurv": 6082,
    "Ġlisten": 4671,
    "binder": 17498,
    "revolver": 25627,
    "Ġimpulses": 19960,
    "Ġantics": 24177,
    "Ġperempt": 13671,
    "idays": 21768,
    "Ġconsecut": 18111,
    "Ġinfinitely": 8962,
    "Ġquill": 12853,
    "Ġsigh": 10335,
    "Ġdisgraceful": 15018,
    "iop": 20918,
    "Ġcared": 8781,
    "Ġimpartial": 15217,
    "kindly": 14742,
    "Ġcircumn": 11980,
    "precedented": 15172,
    "oblivious": 26581,
    "Ġcivilised": 24243,
    "ination": 2914,
    "Ġthought": 1095,
    "Ġinfatuated": 20532,
    "blades": 24128,
    "Ġmomentarily": 22811,
    "Ġresponded": 13636,
    "Ġblackest": 19098,
    "Ġcreates": 2011,
    "iogn": 20920,
    "Ġpersuas": 23944,
    "Ġreads": 23112,
    "illed": 2624,
    "Ġsulk": 15044,
    "Ġpersevering": 20232,
    "hunters": 16832,
    "Ġabutted": 22283,
    "othe": 2615,
    "Ġamidst": 9492,
    "Ġausten": 5881,
    "itations": 17817,
    "Ġdisturbing": 19944,
    "alo": 7587,
    "pole": 9331,
    "Ġnumbers": 2890,
    "activation": 3231,
    "Ġconver": 808,
    "Ġdipping": 15588,
    "Ġcountenance": 3969,
    "Ġstorms": 11261,
    "idually": 21767,
    "Ġweak": 5098,
    "james": 15370,
    "Ġrepute": 18034,
    "uments": 5551,
    "Ġdeputation": 21837,
    "Ġsummons": 13229,
    "ense": 2052,
    "igation": 5918,
    "°": 113,
    "angels": 22103,
    "Ġsuckling": 25997,
    "hearty": 14832,
    "aggo": 5097,
    "Ġgrounded": 23711,
    "Ġattained": 14076,
    "Ġnovel": 6695,
    "Ġinfamous": 16362,
    "Ġtransfer": 2313,
    "Ġsurveying": 25325,
    "Ġretrieval": 10673,
    "eringly": 23001,
    "Ġtying": 15471,
    "Ġfabric": 25947,
    "Ġadvertisement": 6941,
    "Ġobliquely": 12359,
    "Ġimprecations": 25820,
    "Ġtallow": 14775,
    "Ġmagnus": 18957,
    "driven": 19770,
    "Ġincessant": 15095,
    "Ġpray": 3899,
    "Ġstig": 14000,
    "Ġcorrupt": 11920,
    "Ġanointing": 25539,
    "Ġthreshold": 2810,
    "lott": 6650,
    "planted": 11695,
    "olstadt": 7789,
    "Ġbolivia": 24667,
    "Ġabandonment": 25603,
    "Ġhabits": 6926,
    "aguy": 21908,
    "stock": 13219,
    "Ġlegs": 4916,
    "Ġcontradictory": 20395,
    "Ġtrifled": 24674,
    "tail": 8761,
    "Ġstriking": 6089,
    "Ġformation": 2943,
    "sloop": 26145,
    "Ġuninhabited": 22047,
    "Ġmonogram": 26573,
    "ounce": 6557,
    "Ġjoist": 19230,
    "Ġcargo": 16287,
    "uerus": 26405,
    "floor": 14934,
    "Ġfate": 4753,
    "discernible": 20549,
    "Ġprof": 2463,
    "Ġassign": 11108,
    "choice": 21689,
    "Ġorthodox": 22093,
    "oro": 21393,
    "Ġoutskirts": 17455,
    "Ġal": 342,
    "flowing": 14562,
    "Ġnetwork": 451,
    "Ġstaircase": 20094,
    "Ġcommands": 16587,
    "Ġpsalmody": 20583,
    "rec": 6004,
    "ylon": 24977,
    "Ġrespons": 2684,
    "forgetting": 25485,
    "if": 375,
    "bouton": 17500,
    "Ġarab": 7824,
    "Ġpervers": 11780,
    "ertion": 12036,
    "Ġpredef": 18516,
    "september": 14034,
    "smallest": 23909,
    "Ġpitiless": 19386,
    "-------": 20387,
    "ory": 1084,
    "Ġcopying": 17067,
    "Ġpressed": 6042,
    "Ġsidelong": 11437,
    "Ġvolcano": 24146,
    "Ġimportant": 1076,
    "iner": 2669,
    "Ġequator": 7461,
    "Ġconsolidation": 5060,
    "Ġdeceiving": 21835,
    "eral": 9158,
    "Ġexist": 9230,
    "dwell": 15339,
    "Ġcolle": 8922,
    "assemblies": 25956,
    "Ġeffusions": 18543,
    "sadly": 25526,
    "Ġrode": 15996,
    "itudes": 3016,
    "nervous": 16274,
    "always": 5708,
    "thirst": 15822,
    "Ġinclusive": 24162,
    "opic": 22474,
    "Ġvortex": 26208,
    "bordered": 17497,
    "Ġconfined": 7464,
    "Ġ182": 13234,
    "Ġdiscours": 18717,
    "blows": 17164,
    "Ġrepine": 16407,
    "Ġnoticing": 18224,
    "Ġrazors": 22651,
    "Ġmincing": 18751,
    "Ġmoderation": 12816,
    "avating": 18606,
    "Ġearnestly": 5979,
    "Ġpresence": 5031,
    "cater": 20814,
    "tanh": 5204,
    "cking": 4265,
    "police": 10582,
    "atic": 4015,
    "asburgh": 15643,
    "Ġattracted": 8903,
    "Ġliveliness": 13641,
    "Ġaqu": 17741,
    "Ġprofessions": 11231,
    "Ġsearch": 2591,
    "Ġuncivilized": 25498,
    "Ġsable": 15498,
    "Ġlandlady": 10421,
    "deal": 12795,
    "cost": 19185,
    "Ġrevived": 11367,
    "mccarthy": 15393,
    "Ġaway": 1245,
    "Ġunmindful": 22062,
    "Ġerected": 12230,
    "Ġunjust": 8483,
    "Ġjer": 6266,
    "poke": 18800,
    "first": 3933,
    "Ġchiefly": 5766,
    "Ġpermitting": 22397,
    "Ġsteeply": 23723,
    "Ġproudly": 19741,
    "Ġshiver": 12763,
    "Ġdiet": 13908,
    "both": 5785,
    "georgiana": 26020,
    "Ġwhole": 1667,
    "ougher": 18275,
    "Ġsepulchral": 25892,
    "Ġsquall": 7043,
    "Ġtolland": 24990,
    "loveliness": 26548,
    "infidel": 24663,
    "Ġassum": 4062,
    "nostril": 26558,
    "Ġinclination": 6623,
    "Ġkindest": 23292,
    "Ġarchly": 22792,
    "Ġvindication": 25364,
    "ery": 1269,
    "Ġvalidation": 2361,
    "·": 120,
    "unnecessary": 21878,
    "Ġdarts": 16767,
    "ables": 7891,
    "ashing": 4823,
    "Ġinstead": 2792,
    "Ġmyst": 4048,
    "estinated": 15919,
    "Ġloitering": 22114,
    "Ġisol": 8832,
    "know": 2321,
    "rubbed": 22178,
    "oney": 3052,
    "Ġcatching": 9476,
    "mouthful": 25208,
    "batross": 9091,
    "Ġinqu": 2965,
    "Ġsoon": 1229,
    "man": 1057,
    "Ġpumps": 8427,
    "meat": 18676,
    "Ġpregn": 22230,
    "Ġcrystal": 17213,
    "acher": 6868,
    "Ġwhereas": 3853,
    "Ġexcel": 3566,
    "Ġcetacea": 20552,
    "Ġfurther": 1058,
    "Ġencomp": 12959,
    "Ġdial": 10809,
    "Ġbund": 17863,
    "Ġforbe": 8457,
    "innocence": 15181,
    "commission": 22803,
    "Ġsneeze": 24699,
    "sheet": 16283,
    "Ġtargets": 4205,
    "drawn": 9911,
    "Ġunconsc": 6552,
    "ecess": 17531,
    "rinted": 21042,
    "Ġconstantly": 11969,
    "Ġcracks": 12016,
    "Ġcritically": 23444,
    "Ġtinted": 13820,
    "Ġmonarchs": 25846,
    "Ġcrowds": 14737,
    "sufferable": 12173,
    "ousness": 10273,
    "Ġancest": 12610,
    "Ġnay": 5711,
    "yesterday": 10351,
    "look": 2264,
    "Ġgeorge": 3747,
    "Ġgrowing": 6750,
    "anse": 12571,
    "Ġboon": 22635,
    "Ġvan": 1089,
    "swallow": 24256,
    "Ġmund": 21317,
    "Ġbumping": 25280,
    "Ġsquire": 16178,
    "Ġbush": 23335,
    "ojo": 7349,
    "Ġgovernments": 20266,
    "treacle": 25148,
    "Ġsoftness": 18917,
    "Ġtrousers": 12412,
    "Ġstool": 14459,
    "ultural": 22566,
    "overcoat": 19050,
    "apparatus": 26562,
    "Ġundiscernible": 22064,
    "Ġshouting": 10521,
    "Ġperished": 11781,
    "Ġvalid": 1728,
    "Ġassistance": 6333,
    "Ġreport": 6191,
    "Ġcomput": 600,
    "estate": 12817,
    "Ġdecent": 10977,
    "Ġevid": 3501,
    "Ġnigh": 4878,
    "sigma": 3004,
    "heading": 5487,
    "repeat": 25151,
    "ential": 827,
    "Ġheroine": 24542,
    "Ġchemistry": 11459,
    "Ġdy": 2539,
    "marrying": 19546,
    "ments": 1402,
    "Ġpinched": 17034,
    "magnitude": 17247,
    "Ġoffspring": 16142,
    "Ġadmon": 15865,
    "numer": 15397,
    "Ġcome": 1243,
    "Ġglued": 20587,
    "ott": 1873,
    "Ġtestament": 23204,
    "Ġnightfall": 23130,
    "Ġcumberland": 21353,
    "Ġbites": 23742,
    "Ġbreast": 8967,
    "consol": 9760,
    "Ġstricken": 9774,
    "ast": 473,
    "neighbour": 7211,
    "serv": 7451,
    "Ġmasterless": 23992,
    "Ġtwelvemonth": 12174,
    "ulity": 10885,
    "Ġhandy": 12933,
    "Ġrescales": 5068,
    "Ġfuture": 1050,
    "Ġvicinity": 7315,
    "communication": 25881,
    "Ġaristotle": 25817,
    "Ġminus": 18750,
    "baboon": 25516,
    "Ġexcessive": 3892,
    "Ġwed": 3959,
    "Ġwedding": 4857,
    "Ġmagn": 1559,
    "Ġbitter": 4173,
    "Ġmans": 15533,
    "Ġdismantled": 20215,
    "Ġuntrodden": 23519,
    "Ġcurled": 8226,
    "paus": 13771,
    "greatest": 10492,
    "Ġshaded": 14103,
    "Ġunpleasing": 22051,
    "Ġarduous": 26530,
    "injured": 15130,
    "Ġreporting": 24657,
    "Ġstraightened": 12105,
    "Ġready": 3397,
    "buried": 14847,
    "Ġpovels": 22593,
    "Ġemployment": 8628,
    "Ġundulations": 19514,
    "Ġdrowning": 19903,
    "Ġwilfully": 16765,
    "Ġpours": 17911,
    "Ġgreater": 3041,
    "contrast": 25594,
    "Ġhaving": 1881,
    "surv": 24212,
    "instances": 13317,
    "week": 12927,
    "Ą": 197,
    "Ġgreeted": 23213,
    "sing": 5138,
    "constant": 11323,
    "Ġdistributed": 18661,
    "elfare": 11774,
    "Ġmodular": 12814,
    "created": 12447,
    "Ġinestim": 15620,
    "Ġwhit": 7177,
    "Ġgrew": 5182,
    "Ġth": 299,
    "erable": 1918,
    "ateful": 5927,
    "shoulders": 16582,
    "strongly": 24684,
    "third": 8168,
    "Ġexciting": 23309,
    "Ġtaking": 3251,
    "/(": 2983,
    "Ł": 258,
    "Ġnomin": 10189,
    "Ġarrived": 3745,
    "Ġbritain": 16955,
    "geon": 6270,
    "evening": 7089,
    "Ġvaulted": 25167,
    "Ġapiece": 16812,
    "Ġsemantics": 2896,
    "Ġhydraul": 9512,
    "Ġhammock": 5768,
    "ful": 664,
    "Ġparliament": 18302,
    "Ġnurtured": 19748,
    "mid": 5616,
    "Ġ38": 24075,
    "aging": 2242,
    "haps": 1675,
    "Ġindisp": 18833,
    "Ġcivil": 4676,
    "Ġimplicate": 24876,
    "Ġhousekeeper": 7456,
    "Ġidentity": 2526,
    "Ġgreenhorn": 23767,
    "scenes": 16241,
    "Ġalphabetical": 17200,
    "Ġoptimal": 1855,
    "reserve": 17764,
    "Ġpoverty": 9302,
    "Ġproportionate": 17042,
    "igen": 4829,
    "erred": 6376,
    "umbrance": 22116,
    "Ġdraughts": 20220,
    "Ġincorruption": 26309,
    "iece": 3229,
    "Į": 239,
    "Ġsymptom": 13481,
    "Ġvincent": 15281,
    "reen": 21230,
    "Ġimpunity": 14214,
    "Ġbarely": 16935,
    "Ġprepar": 7898,
    "Ġdru": 8422,
    "Ġbase": 5013,
    "oo": 7553,
    "Ġchannels": 26013,
    "ornamented": 26594,
    "Ġzero": 1204,
    "Ġpiece": 5367,
    "Ġfling": 9659,
    "Ġaye": 3352,
    "rolled": 9058,
    "Ġdelay": 5748,
    "Ġfootmen": 23796,
    "Ġforegoing": 23448,
    "aintance": 3568,
    "Ġvoracity": 25986,
    "Ġsubsets": 2349,
    "schoolmaster": 15159,
    "Ġfurled": 22812,
    "Ġalbino": 20501,
    "ated": 729,
    "itional": 22461,
    "hers": 7635,
    "Ġsuccor": 25662,
    "Ġaboard": 6697,
    "copy": 5133,
    "Ġconjectures": 16924,
    "orphans": 26439,
    "inglass": 21301,
    "Ġfolios": 23016,
    "Ġbordering": 17227,
    "Ġlan": 5820,
    "nikin": 23199,
    "Ġmaze": 23828,
    "Ġphysi": 9986,
    "Ġpulley": 2976,
    "Ġfancying": 12109,
    "Ġexalted": 12409,
    "Ġjavan": 24999,
    "Ġtossings": 25356,
    "Ġpleas": 1907,
    "bellies": 19972,
    "Ġcarelessly": 11119,
    "sphere": 22731,
    "shook": 19855,
    "Ġdust": 5909,
    "Ġfeatures": 1433,
    "Ġrewarding": 13435,
    "Ġavail": 11225,
    "Ġresurrection": 12890,
    "Ġsunlight": 13083,
    "Ġunlikely": 10907,
    "widows": 25344,
    "Ġdeserved": 7737,
    "desol": 13065,
    "Ġappl": 1727,
    "Ġreciprocating": 26369,
    "impenetrable": 26196,
    "Ġdivin": 13270,
    "Ġsecure": 4912,
    "repugnance": 16863,
    "shabbily": 26246,
    "idence": 4301,
    "Ġguided": 10459,
    "Ġgaiety": 16748,
    "exceeded": 25001,
    "ald": 15621,
    "stone": 5089,
    "Ġcoachman": 14999,
    "Ġmah": 15537,
    "Ġdeparture": 6490,
    "Ġindians": 14407,
    "Ġrepeat": 8000,
    "creation": 14804,
    "Ġhunters": 6300,
    "gies": 13724,
    "speptic": 23943,
    "Ġmarbank": 23035,
    "izing": 1069,
    "aped": 3763,
    "Ġwhistling": 19789,
    "Ġfolks": 14424,
    "Ġhurricane": 16429,
    "Ġpurest": 14937,
    "particularly": 8340,
    "Ġstruct": 2786,
    "Ġsmut": 22554,
    "Ġalex": 15131,
    "Ġimminent": 11244,
    "Ġindian": 4130,
    "Ġspain": 15877,
    "Ġinterference": 8892,
    "ency": 3869,
    "orus": 10800,
    "Ġcoiled": 11817,
    "Ġbridegroom": 10603,
    "Ġshe": 466,
    "Ġdisappointment": 6626,
    "furn": 10090,
    "Ġreef": 10848,
    "Ġintently": 8169,
    "slide": 24555,
    ":âĢĶ": 4431,
    "Ġreckon": 19869,
    "Ġpecks": 18669,
    "Ġticking": 25033,
    "Ġwheeled": 14137,
    "Ġtiny": 11551,
    "meanwhile": 10608,
    "prow": 15409,
    "Ġre": 317,
    "Ġcompos": 22567,
    "island": 10793,
    "Ġtun": 5999,
    "Ġembark": 8560,
    "Ġast": 2961,
    "Ġunderstanding": 1848,
    "Ġmassachusetts": 24019,
    "Ġbye": 12734,
    "Ġere": 3684,
    "opÃ¦": 12868,
    "fell": 6953,
    "unks": 15771,
    "shadow": 20313,
    "ipt": 12475,
    "----âĢĿ": 13303,
    "entieth": 17978,
    "Ġadhes": 22100,
    "Ġdisconsol": 18557,
    "Ġpilgrimage": 17306,
    "Ġberkshire": 16883,
    "Ġpup": 12615,
    "cad": 17503,
    "kl": 4865,
    "Ġliked": 5264,
    "generations": 23784,
    "Ġmutinous": 23955,
    "Ġclearness": 23181,
    "Ġraise": 6166,
    "Ġable": 3082,
    "Ġtrous": 10961,
    "Ġglide": 22982,
    "became": 10513,
    "Ġinterposed": 20617,
    "menced": 23144,
    "vener": 21110,
    "Ġnobody": 6158,
    "irement": 18355,
    "Ġmeryton": 4437,
    "hampshire": 23263,
    "Ġrobustness": 18888,
    "Ġplu": 8797,
    "tender": 14472,
    "Ġattack": 5478,
    "albatross": 15626,
    "Ġdived": 9176,
    "Ġfe": 491,
    "Ġshag": 9249,
    "Ġover": 555,
    "sorts": 21059,
    "tri": 11528,
    "palms": 25262,
    "Ġillust": 8263,
    "Ġweariness": 19793,
    "Ġbeggars": 20628,
    "Ġfilters": 3927,
    "investigations": 25533,
    "Ġfan": 2036,
    "Ġsuppl": 11077,
    "disinterested": 23499,
    "looked": 6084,
    "Ġfailure": 13312,
    "triumph": 15438,
    "Ġperpetually": 17069,
    "Ġfalls": 14643,
    "Ġquarter": 3975,
    "terdam": 18129,
    "Ġreasoned": 23048,
    "Ġexponentiating": 3446,
    "Ġdelirium": 10404,
    "Ġrejection": 19982,
    "Ġcope": 17830,
    "Ġappro": 661,
    "opard": 9289,
    "pled": 7893,
    "ivation": 3112,
    "Ġinjure": 16780,
    "bes": 6641,
    "Ġrag": 18635,
    "Ġtranquilly": 12287,
    "fights": 20864,
    "ateur": 22069,
    "ridge": 9495,
    "Ġsmith": 16061,
    "Ġbanqu": 12584,
    "Ġrecord": 5316,
    "Ġredu": 1354,
    "Ġperforming": 7928,
    "Ġaccordance": 19496,
    "Ġcarbuncle": 14443,
    "true": 2587,
    "Ġswashing": 23055,
    "ised": 1090,
    "Ġz": 997,
    "Ġeternally": 11368,
    "Ġstowing": 18071,
    "Ġshrieks": 12196,
    "Ġpolar": 9409,
    "jaw": 13741,
    "Ġthroes": 24573,
    "airs": 2222,
    "Ġacquaintance": 4132,
    "Ġplank": 7033,
    "Ġmim": 3108,
    "Ġcomparative": 10541,
    "prot": 6899,
    "Ġsmitten": 12895,
    "Ġmothers": 14539,
    "Ġzer": 1096,
    "Ġreckoned": 24744,
    "shown": 22447,
    "Ġconcise": 23320,
    "Ġkate": 15902,
    "billows": 20235,
    "corrupt": 14893,
    "mastod": 23971,
    "Ġbeasts": 10616,
    "drab": 23895,
    "Ġdeposited": 25484,
    "Ġcontempl": 6701,
    "edged": 15627,
    "Ġwrote": 5011,
    "Ġbawling": 25945,
    "Ġtemperature": 1003,
    "Ġcaprice": 14576,
    "appro": 7044,
    "ifle": 10890,
    "Ġvenerable": 9092,
    "this": 1439,
    "rust": 2581,
    "cheerful": 13573,
    "Ġyoungster": 23177,
    "Ġbalanced": 12986,
    "Ġdoor": 1741,
    "treat": 12510,
    "Ġfondly": 19615,
    "Ġsettled": 3740,
    "Ġtart": 12524,
    "usage": 12829,
    "Ġdictionaries": 12337,
    "ember": 1958,
    "Ġlodger": 24088,
    "Ġsignificant": 8633,
    "before": 3116,
    "sample": 12503,
    "Ġgiver": 21603,
    "ilege": 22254,
    "Ġlazy": 17049,
    "our": 534,
    "vess": 7354,
    "Ġdrow": 21425,
    "Ġtemple": 7654,
    "Ġhearers": 15699,
    "news": 23132,
    "ect": 381,
    "Ġ(_": 3735,
    "Ġpre": 507,
    "Ġwearied": 15790,
    "Ġflint": 23007,
    "Ġrucastle": 5176,
    "ä": 165,
    "falgar": 26130,
    "Ġprovoked": 13323,
    "cooper": 19188,
    "Ġgeometric": 3219,
    "Ġrequested": 14304,
    "Ġindependent": 9014,
    "hes": 1400,
    "Ġalteration": 9544,
    "Ġimpat": 4455,
    "Ġrepose": 6741,
    "Ġropes": 10747,
    "Ġwebster": 20160,
    "cy": 648,
    "iable": 3334,
    "Ġouthouse": 22312,
    "Ġcaulk": 25440,
    "Ġsphy": 18311,
    "Ġfight": 5366,
    "Ġsuggests": 12197,
    "oking": 4604,
    "Ġwherein": 14293,
    "Ġrepublican": 17410,
    "orses": 6052,
    "degra": 22139,
    "Ġsquint": 22835,
    "Ġpeak": 16123,
    "stochastic": 3773,
    "Ġfacetious": 20582,
    "Ġwides": 17788,
    "Ġtale": 5142,
    "Ġrecommence": 16811,
    "Ġchilled": 18381,
    "table": 5795,
    "Ġpelt": 15606,
    "Ġramadans": 25119,
    "distinction": 19570,
    "gracechurch": 24580,
    "Ġvagabond": 20202,
    "boiling": 19001,
    "ady": 992,
    "Ġsenor": 20149,
    "j": 78,
    "Ġhazard": 20430,
    "resemblance": 25933,
    "empty": 23634,
    "Ġslung": 23166,
    "Ġbud": 10167,
    "poled": 22906,
    "Ġsickness": 10537,
    "vent": 682,
    "grasp": 16428,
    "acey": 7649,
    "omically": 13974,
    "Ġtremulous": 14984,
    "Ġsquared": 1383,
    "ceptible": 10957,
    "Ġcem": 17823,
    "Ġagency": 11802,
    "arus": 13910,
    "retaining": 21244,
    "permitted": 18342,
    "Ġbranch": 8332,
    "ogrand": 26261,
    "hib": 15365,
    "Ġcultivated": 17362,
    "aking": 971,
    "rossing": 18649,
    "Ġfishy": 16522,
    "Ġcreated": 2708,
    "Ġtrack": 7450,
    "Ġnapole": 15113,
    "Ġstubbornness": 25380,
    "Ġhusband": 3619,
    "Ġfunction": 586,
    "althily": 19357,
    "Ġplans": 7919,
    "la": 10704,
    "faced": 8080,
    "tra": 4934,
    "ĠĠĠĠĠĠ": 6414,
    "Ġwarbling": 26168,
    "apers": 3482,
    "glad": 9006,
    "Ġunwilling": 7887,
    "Ġfrankly": 16744,
    "Ġscalding": 16314,
    "Ġintruding": 21989,
    "youngest": 19742,
    "Ġvideos": 13604,
    "vessel": 11376,
    "Ġtreading": 16502,
    "Ġgrampus": 21991,
    "--âĢĺ": 22845,
    "sofa": 26146,
    "Ġliberties": 19666,
    "Ġmounts": 17806,
    "Ġperemptorily": 17365,
    "ittingly": 18807,
    "Ġfragments": 19007,
    "Ġsilver": 7463,
    "enet": 10151,
    "Ġenthr": 22747,
    "Ġfins": 9662,
    "brain": 13685,
    "orative": 21396,
    "sebastian": 21817,
    "portuguese": 25413,
    "Ġinside": 5448,
    "Ġhandfuls": 17208,
    "Ġnarrow": 5086,
    "Ġeludes": 26553,
    "ô": 181,
    "alous": 7372,
    "Ġattempts": 10489,
    "Ġlobsters": 13515,
    "requent": 3648,
    "Ġig": 3500,
    "Ġcalcul": 3636,
    "Ġridge": 14817,
    "token": 21081,
    "Ġhitting": 21485,
    "Ġquite": 1742,
    "sought": 15425,
    "knell": 24554,
    "Ġconverts": 2807,
    "Ġactor": 16045,
    "ilt": 2968,
    "endous": 6850,
    "Ġpolitely": 8992,
    "Ġmeanwhile": 5736,
    "Ġuncommon": 5026,
    "Ġcomprehen": 5349,
    "Ġprofessional": 7299,
    "stretch": 13979,
    "Ġharmony": 16813,
    "Ġabandon": 12254,
    "Ġcredited": 25153,
    "apping": 5851,
    "Ġrelig": 8550,
    "ound": 585,
    "odiac": 14030,
    "Ġfaultless": 24539,
    "Ġexposes": 22621,
    "Ġdestroyed": 5271,
    "ocean": 12398,
    "Ġclenched": 14202,
    "Ġmartyr": 26360,
    "Ġlab": 1872,
    "Ġwatch": 2744,
    "eprints": 12788,
    "Ġagatha": 6866,
    "Ġniagara": 26457,
    "aneously": 4057,
    "Ġpilgrim": 25599,
    "Ġmilliner": 19883,
    "Ġalice": 1482,
    "Ġweight": 657,
    "Ġdus": 8423,
    "lemag": 21370,
    "Ġtribute": 15473,
    "Ġyard": 5921,
    "Ġadaptation": 3157,
    "Ġstepped": 7051,
    "lifeless": 24311,
    "Ġtear": 6721,
    "Ġpsal": 15612,
    "Ġmercenary": 17192,
    "riot": 18181,
    "Ġczar": 12570,
    "ti": 8390,
    "Ġacquiescence": 20329,
    "Ġslumbering": 25701,
    "Ġmut": 3582,
    "building": 17307,
    "Ġpark": 5465,
    "Ġflat": 8228,
    "heaving": 21206,
    "Ġjourneys": 19473,
    "riend": 1187,
    "trucks": 25419,
    "Ġlowly": 11120,
    "Ġstowed": 21734,
    "ret": 1475,
    "afterwards": 7484,
    "Ġchivalrous": 20513,
    "Ġricher": 12755,
    "Ġmus": 3396,
    "Ġwretch": 6378,
    "Ġpink": 12614,
    "Á": 130,
    "icket": 22666,
    "Ġcheap": 13087,
    "mockery": 24377,
    "culine": 19064,
    "Ġohio": 19128,
    "Ġwhiskers": 10491,
    "Ġindisposed": 26287,
    "mmet": 10987,
    "Ġdaresay": 14702,
    "Ġeliza": 6437,
    "thou": 4706,
    "erxes": 21274,
    "Ġdey": 11673,
    "procure": 23395,
    "Ġbattery": 21392,
    "Ġphrase": 11186,
    "Ġthreatened": 8330,
    "Ġspoken": 4835,
    "Ġrisen": 9491,
    "Ġhansom": 13662,
    "Ġmag": 1430,
    "Ġpreternatural": 12819,
    "Ġjames": 6419,
    "Ġpurp": 2395,
    "Ġexplore": 15905,
    "wished": 13803,
    "Ġwriters": 13541,
    "landish": 11939,
    "arts": 6563,
    "atherley": 7220,
    "inte": 5144,
    "Ġmoose": 22429,
    "ĺ": 251,
    "Ġelementary": 24814,
    "founded": 16713,
    "Ġsummer": 4789,
    "Ġpliny": 11822,
    "Ġdit": 21419,
    "piled": 21014,
    "frau": 15087,
    "Ġdeserving": 14751,
    "Ġsanctioned": 26349,
    "Ġaugmented": 15103,
    "Ġabundance": 17154,
    "errand": 22910,
    "bottle": 20144,
    "i": 77,
    "Ġfemale": 8345,
    "Ġpan": 5082,
    "Ġaskance": 23148,
    "Ġtransferred": 16466,
    "arned": 21819,
    "Ġorphan": 12380,
    "Ġturnkeys": 23025,
    "Ġcapacious": 19175,
    "spades": 14331,
    "oft": 3590,
    "Ġdavis": 25952,
    "Ġtubs": 11369,
    "Ġencamped": 22800,
    "Ġox": 7153,
    "insufficient": 15487,
    "stranded": 19224,
    "Ġmeditative": 25014,
    "Ġaudio": 24772,
    "onent": 21247,
    "cock": 12022,
    "Ġvanquished": 22876,
    "Ġchili": 25561,
    "Ġexplaining": 15957,
    "Ġneedless": 19228,
    "Ġpatagon": 14508,
    "Ġ118": 19697,
    "Ġfring": 11126,
    "iteness": 4392,
    "gement": 13727,
    "ificial": 608,
    "Ġuntouched": 16463,
    "Ġpag": 6011,
    "Ġexternal": 8365,
    "Ġmedic": 11246,
    "Ġmeet": 2806,
    "agues": 8161,
    "Ġvect": 1226,
    "discoveries": 25385,
    "act": 786,
    "Ġdiscomp": 11863,
    "Ġperf": 12845,
    "mass": 12486,
    "isol": 17846,
    "Ġsleeves": 10659,
    "illity": 18296,
    "Ġstation": 5297,
    "3": 23,
    "Ġlouder": 13466,
    "Ġexpose": 10326,
    "Ġwretched": 4079,
    "Ġdestroy": 5772,
    "abling": 1082,
    "Ġmamm": 25090,
    "Č": 205,
    "Ġtremor": 24768,
    "Ġpiling": 17910,
    "data": 2131,
    "ance": 478,
    "Ġfrancis": 26063,
    "Ġclerical": 25568,
    "Ġgratify": 19501,
    "countenance": 6925,
    "Ġabridged": 26540,
    "Ġmark": 2335,
    "Ġconsequence": 5541,
    "Ġsog": 22082,
    "Ġabiding": 22278,
    "Ġgrate": 12960,
    "Ġgrow": 2862,
    "Ġcott": 3707,
    "Ġacc": 573,
    "Ġreiter": 21664,
    "rudential": 16709,
    "Ġlined": 15646,
    "Ġwooden": 4728,
    "plexy": 18575,
    "Ġwallet": 21297,
    "isting": 5550,
    "Ġsuccess": 3609,
    "Ġwhittingham": 26197,
    "Ġdeaf": 12717,
    "Ġconversation": 3330,
    "Ġsale": 14153,
    "Ġattitude": 8902,
    "Ġdevices": 2941,
    "Ġpathetic": 19041,
    "Ġwaters": 3595,
    "Ġdeceased": 15005,
    "ribute": 7227,
    "Ġnic": 7376,
    "Ġprocedure": 2811,
    "Ġplaintiffs": 13607,
    "pers": 4335,
    "transferred": 24510,
    "Ġ60": 14873,
    "deduction": 23556,
    "Ġunequal": 14840,
    "Ġmast": 2902,
    "Ġrepul": 16406,
    "Ġlanguage": 647,
    "Ġpane": 21462,
    "Ġstranded": 9773,
    "jer": 12477,
    "Ġcourtship": 24134,
    "Ġcaus": 1725,
    "utted": 15657,
    "Ġost": 9648,
    "Ġeffectively": 2774,
    "Ġharpo": 1946,
    "Ġinquirer": 24963,
    "Ġjeer": 24121,
    "Ġperv": 15987,
    "spoken": 11858,
    "imming": 9685,
    "Ġgaped": 13965,
    "Ġdispute": 16053,
    "Ġclosing": 11769,
    "Ġscaled": 2106,
    "Ġunclad": 22050,
    "unk": 4537,
    "Ġbuckskin": 19950,
    "Ġtides": 13819,
    "Ġscaling": 3630,
    "Ġcoronet": 6344,
    "Ġvision": 1495,
    "Ġapprehending": 26090,
    "Ġprovoking": 16742,
    "Ġactively": 18654,
    "ě": 220,
    "Ġdespondency": 16575,
    "Ġhardest": 18912,
    "Ġpriv": 4183,
    "chancing": 22909,
    "Ġbachelors": 24860,
    "Ġassumpt": 5415,
    "Ġprospect": 4703,
    "Ġlambton": 10656,
    "Ġeleven": 9388,
    "idea": 9299,
    "Ġhit": 7163,
    "Ġwanted": 4968,
    "Ġpartner": 6714,
    "unpardonable": 21888,
    "Ġslam": 13054,
    "rail": 10203,
    "Ġsurvive": 9066,
    "Ġexpeditions": 24954,
    "Ġstrasburgh": 18615,
    "Ġunallied": 22028,
    "Ġgrizz": 10350,
    "owards": 4592,
    "Ġexistence": 4704,
    "quered": 11051,
    "heart": 4524,
    "Ġmovement": 9966,
    "Ġnur": 5710,
    "Ġaltering": 18102,
    "Ġplight": 14280,
    "ints": 3416,
    "Ġconvul": 13199,
    "crown": 13696,
    "Ġfeet": 2261,
    "Ġbolts": 16942,
    "Ġchristmas": 6924,
    "rael": 21627,
    "Ġbudge": 15162,
    "Ġjacobians": 2895,
    "Ġthinker": 22809,
    "Ġcompassion": 6487,
    "tart": 21066,
    "Ġasp": 15777,
    "interested": 9504,
    "Ġxviii": 23408,
    "Ġwallow": 19464,
    "Ġattacked": 10566,
    "constantly": 24607,
    "Ġthanks": 6707,
    "discern": 14849,
    "Ġinterior": 8893,
    "Ġrotterdam": 25475,
    "Ġthomson": 26453,
    "Ġverge": 23885,
    "oop": 10714,
    "Ġmeasurement": 19421,
    "Ġfails": 13311,
    "Ġtaste": 5524,
    "bore": 13684,
    "18": 20750,
    "Ġestates": 16457,
    "int": 1199,
    "Ġretrogress": 23071,
    "Ġbengal": 18783,
    "angling": 14139,
    "Ġoverflow": 10291,
    "Ġtwelve": 4963,
    "Ġalternate": 19984,
    "uning": 1311,
    "oding": 1463,
    "tling": 9141,
    "Ġdegra": 2590,
    "onah": 3337,
    "Ġ125": 24469,
    "ivities": 22076,
    "yden": 21142,
    "Ġexperience": 1392,
    "Ġdrought": 19277,
    "sheets": 14440,
    "rippling": 24714,
    "Ġembarr": 7447,
    "neighb": 16019,
    "probability": 17021,
    "berwell": 22717,
    "Ġrept": 13981,
    "Ġcolourless": 19568,
    "ĠĠĠĠĠĠĠĠĠĠĠĠĠĠĠĠĠĠĠĠĠĠĠĠĠĠĠĠĠĠĠĠĠĠĠĠĠĠ": 16524,
    "Ġwhel": 15863,
    "Ġonly": 789,
    "Ġmalay": 24390,
    "Ġsuspended": 5665,
    "bear": 10314,
    "Ġegyptians": 25289,
    "Ġnoises": 18373,
    "lu": 597,
    "likeness": 19476,
    "Ġilleg": 21616,
    "Ġleaving": 3904,
    "eag": 20841,
    "Ġgrove": 12143,
    "Ġmeeting": 5193,
    "quadrille": 20593,
    "================================================================": 9988,
    "Ġunsupp": 22017,
    "Ġboun": 21378,
    "Ġdecide": 9284,
    "Ġembod": 14413,
    "):": 11460,
    "Ġassociation": 24711,
    "why": 2831,
    "posted": 24636,
    "Ġcetology": 10007,
    "ouring": 6420,
    "Ġhogshead": 26367,
    "Ġcharity": 8861,
    "ouses": 5163,
    "unsuitable": 21891,
    "hence": 16623,
    "Ġshrouds": 11343,
    "woman": 5899,
    "Ġlayer": 1012,
    "Ġnominal": 15166,
    "impressions": 20697,
    "Ġfatality": 12091,
    "Ġdidst": 11846,
    "Ġwholly": 4446,
    "Ġtucked": 12389,
    "Ġbuy": 8300,
    "Ġobscure": 9552,
    "amous": 15757,
    "ibank": 6880,
    "Ġoppressive": 20454,
    "boots": 11125,
    "Ġhackluyt": 25655,
    "Ġcontrolled": 23250,
    "Ġnails": 12644,
    "Ġshin": 18227,
    "Ġvehemence": 26565,
    "Ġalone": 2568,
    "bots": 10081,
    "Ġbronze": 22868,
    "Ġenormity": 19694,
    "talked": 14983,
    "Ġimmens": 9937,
    "parsee": 14512,
    "Ġshudder": 9049,
    "attending": 18916,
    "Ġplowdon": 26446,
    "co": 2436,
    "imperturbable": 25790,
    "youn": 5690,
    "zening": 21147,
    "uttle": 6247,
    "ressing": 8917,
    "aby": 18106,
    "Ġundressed": 19512,
    "Ġoversampling": 20514,
    "after": 2898,
    "Ġsires": 21225,
    "vul": 15446,
    "Ġmott": 17803,
    "common": 4127,
    "Ġprofess": 3697,
    "Ġdefilements": 26284,
    "Ġmelted": 19620,
    "inclination": 20056,
    "Ġdistur": 5312,
    "dilig": 17281,
    "Ġtreasure": 9557,
    "Ġmoody": 8201,
    "Ġconsort": 18723,
    "Ġshares": 23246,
    "etite": 21577,
    "adequate": 15201,
    "Ġethiopian": 26612,
    "Ġinsisted": 12043,
    "leaning": 10789,
    "fron": 24280,
    "Ġbakers": 17866,
    "Ġmarbles": 18872,
    "Ġbite": 10796,
    "Ġungod": 22020,
    "Ġpieces": 7369,
    "Ġdelightful": 6320,
    "coloured": 7291,
    "Ġarc": 14159,
    "Ġmerit": 9425,
    "ompl": 4534,
    "ov": 15398,
    "vell": 3957,
    "Ġplants": 22599,
    "Ġtufted": 17013,
    "Ġmet": 1861,
    "Ġserviceable": 24718,
    "itchen": 7788,
    "Ġfain": 5808,
    "Ġtide": 6658,
    "Ġthousandth": 23683,
    "Ġcousins": 9913,
    "bres": 11470,
    "Ġwedge": 24066,
    "Ġdismast": 12884,
    "Ġfierce": 7437,
    "Ġ114": 24437,
    "speeches": 25239,
    "Ġprivately": 19522,
    "brow": 15313,
    "iant": 5427,
    "Ġshelter": 17007,
    "Ġeveryone": 8916,
    "Ġpaunch": 23748,
    "Ġforbidden": 17077,
    "Ġportions": 19367,
    "Ã": 132,
    "Ġmortar": 19391,
    "Ġpharaoh": 26584,
    "enchanted": 26423,
    "starbuck": 6019,
    "Ġharbour": 19978,
    "reputation": 15513,
    "Ġfalsely": 20580,
    "Ġoccurring": 2794,
    "gus": 13723,
    "nered": 18486,
    "Ġtrampled": 20327,
    "Ġeas": 2357,
    "ordinate": 12871,
    "u": 89,
    "Ġsched": 2341,
    "fuller": 22484,
    "quit": 15758,
    "Ġbuffaloes": 25217,
    "springing": 24889,
    "Ġappears": 5402,
    "Ġperuvian": 18452,
    "Ġjust": 1242,
    "lashed": 20953,
    "Ġforbid": 7866,
    "risonment": 17373,
    "ro": 301,
    "Ġcuff": 17829,
    "âĢĶâĢĺ": 7013,
    "Ġusher": 22220,
    "Ġfreedom": 9081,
    "Ġsubstantial": 14808,
    "Ġinquisitive": 26317,
    "Ġintervals": 5597,
    "bbing": 6323,
    "03": 20747,
    "Ġhonestly": 19970,
    "intended": 11065,
    "Ġbingleys": 18996,
    "Ġarisen": 11740,
    "Ġlasting": 18794,
    "Ġrequirements": 9792,
    "Ġvictim": 6098,
    "Ġresentment": 7530,
    "Ġgodfre": 14528,
    "Ġagent": 6277,
    "fork": 20856,
    "Ġrehearsed": 25971,
    "Ġcultivation": 17144,
    "Ġexaggerate": 25649,
    "Ġthickening": 24021,
    "thing": 1479,
    "alliance": 22198,
    "Ġdeserve": 8309,
    "aneous": 7240,
    "Ġperpet": 7644,
    "Ġmagnitude": 1947,
    "Ġkiss": 8183,
    "original": 9083,
    "Ġsucked": 14129,
    "passion": 11259,
    "Ġratio": 5066,
    "valley": 16215,
    "Ġendeavor": 16543,
    "xi": 17709,
    "Ġalien": 14016,
    "been": 3344,
    "Ġbricks": 13560,
    "Ġpaws": 13919,
    "Ġhumbled": 16194,
    "Ġparamet": 607,
    "Ġchanged": 5242,
    "omorrah": 18017,
    "cept": 553,
    "Ġhousehold": 8567,
    "Ġinsensibility": 17109,
    "aul": 6352,
    "Ġdelicately": 24123,
    "Ġverses": 17062,
    "Ġvegetables": 15219,
    "urpation": 16298,
    "Ġsupp": 1266,
    "umns": 14146,
    "roy": 7854,
    "fearing": 18529,
    "elson": 16368,
    "sincere": 16906,
    "Ġcommunicates": 24546,
    "telling": 14438,
    "history": 15013,
    "Ġ112": 24436,
    "Ġix": 12662,
    "Ġdint": 15587,
    "ogne": 12932,
    "tled": 3457,
    "aste": 4599,
    "Ġhulls": 13924,
    "acked": 10972,
    "Ġind": 1223,
    "Ġheroes": 10575,
    "Ġalacrity": 15733,
    "largely": 19573,
    "Ġstagnant": 24654,
    "Ġshalt": 18230,
    "Ġoutlaws": 22321,
    "Ġev": 4827,
    "fain": 13713,
    "Ġskill": 6872,
    "Ġexpon": 966,
    "Ġexclam": 6757,
    "Ġdowry": 20684,
    "byter": 16211,
    "Ġharbor": 10025,
    "Ġadded": 2717,
    "pres": 16024,
    "Ġrepast": 16408,
    "Ġsupposing": 6729,
    "hester": 9630,
    "ond": 1164,
    "Ġvi": 1955,
    "ision": 1853,
    "Ġvalued": 12179,
    "Ġslo": 15504,
    "character": 6331,
    "Ġsli": 4747,
    "unsupervised": 10888,
    "Ġexposure": 16093,
    "Ġhearing": 4760,
    "Ġweigh": 10893,
    "Ġlearn": 365,
    "Ġmodeling": 2096,
    "showed": 16023,
    "Ġrevelation": 25222,
    "Ġjud": 3358,
    "leness": 4688,
    "Ġinsolent": 13598,
    "medium": 23638,
    "girls": 12316,
    "iced": 3900,
    "Ġlosing": 10915,
    "Ġsurvivor": 17361,
    "Ġchest": 5185,
    "Ġunnear": 22024,
    "Ġprep": 4192,
    "ulations": 6029,
    "apolog": 22331,
    "Ġrefined": 18699,
    "Ġdistressed": 8514,
    "dancing": 12451,
    "maker": 12489,
    "Ġbore": 5079,
    "Ġtyp": 1130,
    "Ġpavement": 9576,
    "Â": 131,
    "Ġdecaying": 2250,
    "ole": 9612,
    "aid": 1923,
    "Ġcontingency": 26244,
    "impud": 23759,
    "Ġproductions": 22944,
    "Ġunworthy": 11712,
    "desponding": 26341,
    "Ġcomical": 11675,
    "slack": 16893,
    "unavoidable": 17388,
    "inity": 5693,
    "charles": 14697,
    "listen": 13512,
    "minute": 11273,
    "Ġlake": 5227,
    "roman": 22002,
    "pronounce": 25192,
    "Ġcarpet": 9354,
    "Ġdetermined": 2223,
    "hyena": 24251,
    "ppered": 15787,
    "instrument": 15236,
    "regard": 7974,
    "Ġstop": 2505,
    "abated": 14018,
    "Ġearthy": 23712,
    "exciting": 19667,
    "neat": 22441,
    "qualities": 25043,
    "Ġnovember": 11746,
    "Ġthither": 6821,
    "Ġthroats": 24574,
    "Ġhasn": 12923,
    "Ġowest": 25091,
    "conceive": 16026,
    "Ġpermission": 9277,
    "quitted": 21855,
    "Ġparticip": 16128,
    "Ġbroadened": 23982,
    "Ġeasier": 11164,
    "mixed": 15392,
    "Ġfrightened": 5341,
    "Ġpeaking": 22688,
    "Ġfaced": 10807,
    "seven": 8463,
    "Ġnephew": 6404,
    "day": 1857,
    "Ġunerringly": 18265,
    "Ġdispleasure": 16049,
    "Ġalbertus": 25648,
    "Ġstraining": 11326,
    "into": 3679,
    "fol": 4862,
    "conclusion": 25671,
    "thence": 23398,
    "Ġul": 6828,
    "Ġfamine": 16326,
    "vii": 13146,
    "Ġmoonlight": 9956,
    "tout": 21064,
    "Ġspitz": 14147,
    "chari": 21687,
    "Ġburnwell": 13265,
    "Ġprincip": 5599,
    "Ġhuzza": 12629,
    "happy": 4424,
    "Ġale": 9153,
    "Ġappar": 7411,
    "inarticulate": 21194,
    "cess": 540,
    "Ġshrink": 14802,
    "marry": 13321,
    "Ġdecomposition": 5342,
    "Ġcrash": 11998,
    "Ġpiercing": 13492,
    "ilst": 8144,
    "brows": 17495,
    "Ġdefer": 18822,
    "Ġcutting": 4983,
    "Ġtiller": 8964,
    "oky": 8198,
    "Ġcould": 703,
    "casks": 20401,
    "Ġvice": 6548,
    "¶": 119,
    "ĠâĢľ_": 6696,
    "brad": 20780,
    "Ġstripped": 10464,
    "tackle": 17319,
    "ump": 2286,
    "companions": 15022,
    "Ġrecovering": 11860,
    "!âĢĻâĢĿ": 16590,
    "bo": 1693,
    "earthly": 24724,
    "Ġsmiling": 5474,
    "Ġcemet": 20679,
    "Ġpeeping": 16124,
    "Ġexclude": 19038,
    "Ġfabulous": 25948,
    "Ġpost": 4272,
    "Ġpromontory": 11938,
    "Ġcompliments": 8632,
    "animals": 24738,
    "innocent": 20285,
    "cons": 4308,
    "dep": 6786,
    "Ġcongregated": 20095,
    "romeda": 17261,
    "rically": 15415,
    "Ġstripping": 23695,
    "Ġguardians": 14941,
    "Ġhams": 16610,
    "ling": 737,
    "substance": 15229,
    "Ġoffing": 16140,
    "Ġph": 1548,
    "ope": 4124,
    "que": 1102,
    "sn": 7138,
    "scene": 14418,
    "Ġglasses": 9473,
    "copper": 19187,
    "Ġrumbling": 18211,
    "Ġagonizing": 17237,
    "Ġgracefully": 13389,
    "Ġimplac": 24874,
    ".)": 6783,
    "Ġgemin": 21608,
    "or": 282,
    "supernatural": 19778,
    "Ġfurnished": 6475,
    "quake": 11678,
    "Ġmeaning": 1417,
    "Ġtrembling": 7481,
    "hum": 3777,
    "suspicions": 25391,
    "profitable": 17070,
    "Ġcalculated": 4474,
    "Ġgrand": 3592,
    "Ġinflict": 15000,
    "Ġharem": 9707,
    "ignified": 14490,
    "Ġmankind": 6698,
    "----âĢĻ": 24093,
    "Ġknot": 7011,
    "Ġcontinuous": 1565,
    "Ġcivilized": 8664,
    "Ġblows": 5973,
    "Ġsoftmax": 1692,
    "Ġcondemn": 13442,
    "cer": 6642,
    "Ġeng": 1165,
    "Ġcorporeal": 17358,
    "Ġmechanis": 1182,
    "Ġenslaved": 26314,
    "awned": 19458,
    "transformer": 25015,
    "cas": 20793,
    "Ġcrowned": 16840,
    "Ġsquaring": 22837,
    "È": 137,
    "Ġsl": 1497,
    "Ġstocks": 23174,
    "Ġlull": 15647,
    "Ġripe": 13232,
    "ensed": 10994,
    "hardly": 6491,
    "Ġoffice": 4965,
    "Ġloc": 10913,
    "Ġimpersonal": 17394,
    "Ġchristian": 6479,
    "aternity": 21264,
    "experienced": 15119,
    "Ġproficiency": 19192,
    "imental": 16532,
    "Ġinvoking": 19145,
    "Ġschool": 5512,
    "baden": 25615,
    "Ġspecially": 11994,
    "itheat": 21336,
    "arnel": 18127,
    "ividually": 22079,
    "Ġsatisfaction": 5667,
    "Ġdistinguish": 2727,
    "Ġcalculates": 13262,
    "Ġwherefore": 8524,
    "ulating": 10886,
    "herent": 2531,
    "Ġcoins": 11816,
    "Ġsplin": 8618,
    "Ġnarrations": 24351,
    "Ġdeact": 18135,
    "Ġreverber": 19868,
    "Ġkindling": 19030,
    "Ġclear": 1952,
    "convinced": 10621,
    "Ġinterpret": 5490,
    "Ġhardly": 2435,
    "Ġhoot": 19076,
    "Ġinvent": 7164,
    "Ġfoundations": 11072,
    "Ġhonour": 3922,
    "Ġze": 8545,
    "Ġarriving": 19216,
    "Ġfishery": 4175,
    "/": 19,
    "Ġjohn": 5032,
    "missing": 13216,
    "Ġgeological": 14532,
    "Ġimpossible": 3542,
    "Ġsmoke": 4712,
    "Ġtranspointed": 22466,
    "Ġtheorem": 2329,
    "infant": 19826,
    "Ġv": 398,
    "Ġlatitudes": 9494,
    "Ġafraid": 3529,
    "den": 938,
    "Ġsound": 2245,
    "Ġskirt": 18729,
    "Ġfast": 1718,
    "scap": 22988,
    "Ġsingle": 1695,
    "Ġamid": 4959,
    "ents": 1897,
    "Ġofficially": 24838,
    "Ġidol": 7467,
    "Ġinsufficient": 9671,
    "Ġwintry": 17432,
    "Ġstreaming": 19672,
    "inordinate": 21193,
    "Ġtong": 4870,
    "em": 391,
    "Ġsustaining": 25333,
    "Ġunluck": 8484,
    "Ġbonds": 17869,
    "Ġprivileges": 25132,
    "Ġdigesting": 19808,
    "hurrying": 14981,
    "Ġrussian": 14347,
    "umpled": 15873,
    "urned": 9304,
    "icions": 21561,
    "nuts": 15396,
    "Ġmurmur": 14588,
    "steep": 19417,
    "Ġgratification": 24092,
    "Ġunfeeling": 14117,
    "Ġvillagers": 19472,
    "Ġrevelations": 25223,
    "Ġpocket": 4898,
    "Ġstudies": 7956,
    "Ġpoisoned": 24886,
    "aur": 15306,
    "mselves": 2864,
    "Ġwhalebone": 10976,
    "Ġentropy": 2032,
    "Ġinclemency": 22553,
    "Ġmajor": 13288,
    "Ġsidel": 9634,
    "unhes": 21873,
    "Ġimmemorial": 10509,
    "Ġpanegyric": 26448,
    "Ġnarration": 13502,
    "Ġhover": 15616,
    "Ġbecoming": 4397,
    "Ġseemingly": 9316,
    "Ġsallies": 21228,
    "metals": 24766,
    "Ġsentry": 19026,
    "mort": 10709,
    "arial": 5531,
    "Ġstart": 3260,
    "aviour": 11004,
    "Ġdandy": 17892,
    "chest": 11207,
    "windibank": 24160,
    "isc": 6239,
    "âĢĶâĢĺ_": 24831,
    "Ġposs": 1620,
    "proved": 11983,
    "Ġvictor": 5125,
    "Ġgame": 3627,
    "oken": 4306,
    "Ġmayhap": 18709,
    "Ġmovable": 22431,
    "Ġalley": 15732,
    "ige": 12676,
    "Ġninety": 13599,
    "Ġwhalemen": 3912,
    "resol": 17759,
    "Ġexertion": 8054,
    "Ġhero": 5715,
    "Ġjudging": 16593,
    "Ġbegone": 11913,
    "Ġtap": 12522,
    "Ġmighty": 4230,
    "frock": 20119,
    "Ġcetace": 14986,
    "Ġnought": 21520,
    "Ġbrad": 8785,
    "Ġcolonnades": 26275,
    "icity": 2542,
    "stricken": 9882,
    "conclusive": 25673,
    "Ġusages": 15915,
    "Ġcanopy": 18322,
    "Ġes": 8768,
    "Ġsmack": 9298,
    "Ġpenn": 11110,
    "Ġgrass": 5177,
    "Ġformer": 3323,
    "'m": 9581,
    "speps": 14332,
    "Ġprovid": 1008,
    "Ġbacks": 8527,
    "sil": 5282,
    "bled": 5469,
    "dire": 15334,
    "ersed": 10258,
    "uracy": 1103,
    "ientious": 11688,
    "Ġtradesmen": 17104,
    "tin": 6116,
    "daw": 17521,
    "Ġdisasters": 16051,
    "idity": 8829,
    "behaved": 24462,
    "Ġkindness": 4094,
    "loving": 18537,
    "Ġwaylaid": 22873,
    "Ġsnap": 11199,
    "Ġrepe": 3281,
    "Ġblameless": 19858,
    "Ŀ": 256,
    "ley": 1815,
    "Ġlifting": 10195,
    "Ġgamming": 25542,
    "breaths": 25336,
    "Ġconfirm": 9854,
    "Ġuncomfortable": 8485,
    "Ġclanging": 18422,
    "bunger": 20400,
    "Ġcounted": 12136,
    "Ġ133": 24783,
    "Ġendued": 14075,
    "Ġcru": 2826,
    "Ġfearfully": 23509,
    "Ġextremely": 2667,
    "Ġindulgence": 11318,
    "Ġsyntax": 958,
    "Ġstrand": 11825,
    "Ġhooked": 19079,
    "obvious": 9355,
    "Ġcanal": 8182,
    "Ġamusing": 11797,
    "crews": 15041,
    "Ġformula": 2867,
    "ected": 7874,
    "eenth": 12457,
    "Ġcaused": 5048,
    "Ġitalian": 12407,
    ";âĢĻ": 15300,
    "Ġunden": 22009,
    "Ġholder": 6724,
    "Ġrumpled": 24601,
    "boscombe": 26121,
    "Ġensemble": 1611,
    "Ġstrangers": 8314,
    "Ġconsid": 1812,
    "Ġunwound": 25169,
    "Ġgrievances": 20647,
    "Ġpassionate": 11272,
    "ĠĠĠĠĠĠĠĠĠĠĠĠĠĠĠĠĠĠĠĠĠĠĠĠĠĠĠĠĠĠĠĠĠĠĠĠĠĠĠĠĠ": 19581,
    "sander": 11525,
    "ersman": 11699,
    "Ġslew": 23381,
    "Ġanswering": 7477,
    "Ġimbec": 14155,
    "victim": 25530,
    "Ġmercifully": 20177,
    "Ġcandelab": 23846,
    "Ġunavailing": 26215,
    "deliberated": 26118,
    "Ĉ": 201,
    "Ġdwelling": 7322,
    "Ç": 136,
    "Ġtam": 7822,
    "gely": 10699,
    "Ġpipeline": 2373,
    "crucible": 24842,
    "lorious": 17591,
    "Ġcondu": 18109,
    "very": 501,
    "Ġcoward": 7155,
    "Ġextremity": 8987,
    "Ġauthoritative": 19560,
    "Ġwhipcord": 20093,
    "down": 3469,
    "Ġvaliantly": 22801,
    "Ġclasped": 17205,
    "Ġindependence": 12101,
    "Ġnightgown": 23131,
    "Ġposition": 1956,
    "Ġsurvivors": 25732,
    "Ġboisterously": 25682,
    "Ġremoter": 20104,
    "Ġthundering": 24290,
    "Ġlirra": 21558,
    "polar": 24584,
    "art": 587,
    "inders": 15977,
    "Ġdeg": 3282,
    "Ġfif": 4218,
    "Ġobserv": 8586,
    "Ġvenge": 5420,
    "Ġhouse": 1502,
    "tem": 6369,
    "oriental": 23720,
    "lantic": 6363,
    "Ġstoner": 7178,
    "fulfil": 16033,
    "shot": 2169,
    "share": 14234,
    "Ġguilt": 6179,
    "recked": 17761,
    "Ġsil": 1796,
    "th": 408,
    "language": 5129,
    "fam": 5989,
    "Ġloaded": 8490,
    "jets": 20927,
    "Ġfee": 7199,
    "Ġconflict": 17272,
    "Ġsick": 4690,
    "Ġwhirlwinds": 20463,
    "wins": 21128,
    "Ġthemselves": 3253,
    "got": 6955,
    "Ġabundant": 17153,
    "Ġwelfare": 12555,
    "afraid": 10440,
    "whispering": 26103,
    "Ġconfluent": 19037,
    "practised": 20246,
    "¥": 103,
    "Ġreciproc": 20620,
    "bolt": 25135,
    "Ġvessel": 3797,
    "acknowledged": 15200,
    "Ġtones": 8400,
    "ant": 438,
    "Ġindependently": 4246,
    "Ġcompress": 21842,
    "Ġturing": 7566,
    "cery": 20807,
    "Ġcommun": 1709,
    "itative": 13868,
    "Ġvaried": 11845,
    "Ġinvestigations": 17245,
    "occurred": 13335,
    "Ġafter": 871,
    "fle": 7128,
    "Ġrescued": 24205,
    "av": 740,
    "Ġblotting": 25313,
    "Ġslashing": 23168,
    "Ġneville": 7399,
    "Ġhandspikes": 12935,
    "limping": 26392,
    "Ġnatives": 17950,
    "Ġdeficiency": 14401,
    "Ġspikes": 22134,
    "ana": 15555,
    "Ġsplice": 19307,
    "iastic": 12476,
    "Ġtraps": 23078,
    "Ġbulk": 5590,
    "rown": 2193,
    "Ġpicture": 4855,
    "Ġoffered": 5816,
    "Ġindispens": 22952,
    "Ġvig": 5460,
    "Ġsubtle": 6716,
    "board": 3564,
    "Ġentreating": 24206,
    "distressed": 24198,
    "hur": 6648,
    "Ġappalling": 8498,
    "ux": 7814,
    "Ġclaps": 22344,
    "prosperity": 20734,
    "pleased": 8852,
    "sculptured": 26046,
    "Ġfrom": 434,
    "deliber": 17424,
    "indisc": 22371,
    "Ġang": 2514,
    "officer": 17053,
    "Ġexercising": 19906,
    "Ġignorant": 5343,
    "Ġcrouching": 23442,
    "aways": 15308,
    "Ġlaug": 3626,
    "head": 1436,
    "ating": 663,
    "Ġjulia": 22300,
    "urday": 13992,
    "barrel": 17059,
    "allow": 5104,
    "mil": 13750,
    "Ġcopse": 17066,
    "driver": 14919,
    "Ġunansw": 22054,
    "Ġbarrel": 23790,
    "Ġcomforter": 20505,
    "Ġreliability": 22879,
    "Ġsymptoms": 8704,
    "liber": 18812,
    "Ġschoolmaster": 16861,
    "lost": 8886,
    "Ġhaunts": 18198,
    "Ġopportunity": 4785,
    "Ġhaz": 12751,
    "Ġidiot": 11968,
    "Ġemperors": 15157,
    "apprec": 22841,
    "Ġcirculation": 16414,
    "punct": 20191,
    "Ġselected": 9708,
    "aet": 15305,
    "sey": 5542,
    "Ġruins": 16156,
    "an": 278,
    "Ġdispersed": 16595,
    "Ġstays": 16559,
    "Ġ61": 24363,
    "Ġawaited": 17073,
    "Ġmann": 18416,
    "Ġmutiny": 13257,
    "Ġcircumnavigation": 20398,
    "Ġeaten": 14843,
    "etent": 10198,
    "harrow": 20907,
    "Ġexplanations": 15907,
    "semic": 21818,
    "Ġchoicest": 24219,
    "Ġperplexed": 23660,
    "ches": 2152,
    "entrance": 12653,
    "Ġsoph": 1630,
    "unusual": 21877,
    "Ġcareless": 11118,
    "Ġsultanism": 25888,
    "Ġdiscriminator": 3391,
    "Ġvirginia": 13498,
    "Ġperfect": 2558,
    "Ġhollows": 19740,
    "msman": 9268,
    "repaid": 24490,
    "Ġphantom": 8706,
    "Ġretrie": 10381,
    "Ġsty": 6251,
    "Ġelixir": 26554,
    "Ġsubject": 2467,
    "itary": 4750,
    "Ġpalmed": 24086,
    "Ġspecksnyder": 17401,
    "rying": 3187,
    "Ġstubb": 1784,
    "Ġaright": 11737,
    "phology": 3010,
    "bowsprit": 16852,
    "Ġconcre": 16384,
    "Ġglanced": 5952,
    "Ġsp": 457,
    "vast": 10735,
    "admire": 24943,
    "Ġpreserve": 7529,
    "hand": 2758,
    "somewhere": 12009,
    "Ġspecimens": 18858,
    "utility": 21585,
    "Ġtattooing": 15026,
    "vig": 15444,
    "Ġagreement": 18539,
    "Ġcities": 17827,
    "Ġinsects": 25646,
    "Ġbolted": 12241,
    "Ġclimes": 12836,
    "Ġstr": 762,
    "Ġphysiology": 25332,
    "ieth": 10703,
    "zing": 7821,
    "Ġ58": 24325,
    "Ġscreams": 24604,
    "Ġlightnings": 16350,
    "Ġopportunities": 19248,
    "rabb": 15676,
    "ascertain": 21541,
    "rance": 5994,
    "Ġyes": 2688,
    "Ġclicked": 22350,
    "Ġledge": 19399,
    "terns": 21820,
    "Ġtight": 8108,
    "Ġfath": 7364,
    "them": 3020,
    "Ġquarto": 17294,
    "Ġgleaming": 24995,
    "peace": 13045,
    "Ġbrim": 12973,
    "collected": 13211,
    "Ġwreat": 15528,
    "sooner": 14773,
    "eter": 11619,
    "Ġdraught": 9843,
    "Ġproced": 2580,
    "Ġsavesoul": 26227,
    "Ġinsipid": 26313,
    "fellows": 12270,
    "sequ": 2403,
    "Ġpubl": 3939,
    "Ġbids": 24645,
    "pans": 13768,
    "Ġchallenge": 25471,
    "Ġmultiplied": 23689,
    "Ġliquid": 22407,
    "13": 20749,
    "inav": 15482,
    "Ġvirtual": 11239,
    "Ġlim": 2384,
    "Ġrefrain": 12943,
    "earnestly": 17311,
    "tormented": 13643,
    "Ġcontracting": 16008,
    "widely": 25343,
    "Ġbewil": 11655,
    "Ġcetus": 19884,
    "stayed": 25290,
    "Ġpawnbroker": 13656,
    "Ġfulfil": 9549,
    "vial": 17696,
    "Ġnoon": 6559,
    "Ġnest": 10187,
    "Ġkin": 15901,
    "Ġgrace": 5374,
    "excited": 13378,
    "cott": 8074,
    "Ġbulkhead": 24507,
    "Ġuser": 15914,
    "Ġtasselled": 25921,
    "uck": 1236,
    "Ġserve": 9367,
    "Ġdetained": 18386,
    "Ġelder": 7225,
    "bingley": 4927,
    "emporary": 15794,
    "Ġbeaches": 18084,
    "becoming": 18519,
    "Ġmachine": 792,
    "Ġshow": 3401,
    "ituted": 13871,
    "Ġwaistcoat": 12267,
    "Ġwhirlpool": 20654,
    "Ġseclusion": 18206,
    "heavy": 10573,
    "Ġhighly": 4843,
    "Ġevenness": 22833,
    "Ġreconciled": 13585,
    "butter": 11782,
    "Ġhurst": 5581,
    "pennies": 26285,
    "Ġmistakes": 16539,
    "Ġgrie": 3583,
    "Ġjacob": 1900,
    "Ġunderground": 18985,
    "Ġaddressed": 5262,
    "Ġmoulded": 16974,
    "Ġmischief": 8541,
    "Ġdorm": 4820,
    "Ġobeying": 13412,
[...]
