{
  "metadata": {
    "vocab_size": 26614,
    "algorithm": "BPE",
    "created_at": "2026-09-10 06:59:34",
    "special_tokens": [
      "<PAD>",
      "<SOS>",
      "<EOS>",
      "<UNK>",
      "<MASK>"
    ]
  },
  "vocab": {
    "Ġseven": 4543,
    "humiliation": 24018,
    "misfortunes": 16756,
    "Ġfifth": 11257,
    "Ġdared": 5440,
    "Ġdismantled": 20215,
    "Ġpursuit": 4733,
    "Ġlighting": 13081,
    "hens": 3937,
    "Ġleaping": 8340,
    "Ġmountains": 4427,
    "Ġexpans": 18621,
    "Ġdl": 3375,
    "Ġtide": 6658,
    "Ġhay": 11604,
    "hook": 12051,
    "âĢľ_": 5720,
    "Ġnibbling": 17384,
    "Ġchanges": 2286,
    "Ġwhistled": 24623,
    "Ġtowed": 11265,
    "Ġexeget": 24085,
    "fire": 6357,
    "rics": 13035,
    "Ġinmost": 17930,
    "Ġborders": 15569,
    "Ġtransom": 22435,
    "uend": 21100,
    "Ġwreaths": 25937,
    "Ġord": 3735,
    "Ġhost": 7068,
    "Ġapproximation": 2341,
    "Ġhousekeeper": 7456,
    "silly": 24422,
    "Ġringle": 18210,
    "Ġmonsieur": 12419,
    "Ġcounsell": 25384,
    "ication": 987,
    "Ġmovement": 9967,
    "hoisting": 23715,
    "Ġadapt": 1058,
    "Ġlogits": 3450,
    "Ġintruder": 25991,
    "ectual": 21912,
    "Ġclues": 18421,
    "Ġprom": 1525,
    "dings": 2183,
    "peter": 24298,
    "turns": 14905,
    "ga": 17550,
    "Ġseries": 7060,
    "Ġwhe": 439,
    "Ġproportionate": 17043,
    "Ġsymp": 4504,
    "Ġlavater": 20493,
    "inu": 1114,
    "Ġpresence": 5031,
    "Ġestates": 16458,
    "Ġostlers": 25276,
    "opportunity": 12272,
    "Ġcrockery": 24301,
    "enge": 21279,
    "Ġj": 533,
    "Ġfinish": 7948,
    "everlasting": 18769,
    "Ġcal": 1328,
    "acher": 6868,
    "ences": 1265,
    "row": 1067,
    "Ġsupplies": 20325,
    "ield": 2410,
    "Ġtoiled": 12639,
    "smoke": 17222,
    "happy": 4425,
    "ceremony": 20588,
    "falling": 24361,
    "Ġlonely": 6823,
    "Ġshattered": 7883,
    "Ġoutdone": 22315,
    "Ġproblems": 2850,
    "Ġsalutations": 25382,
    "Ġdissatisfied": 14256,
    "Ġeducated": 16785,
    "Ġsubord": 22786,
    "Ġneglecting": 25007,
    "Ġworsted": 19993,
    "Ġpri": 5813,
    "Ġfully": 6342,
    "Ġstruggled": 9904,
    "Ġstable": 2701,
    "Ġvolat": 24143,
    "unvarying": 21884,
    "crawling": 16958,
    "leaving": 10791,
    "Ġoutputs": 2886,
    "mechanical": 25578,
    "Ġestimates": 3747,
    "Ġstreets": 5863,
    "neying": 22446,
    "itive": 6668,
    "Ġencountering": 11269,
    "courageous": 26127,
    "Ġoversight": 22356,
    "Ġanonymous": 26178,
    "Ġtransports": 24277,
    "Ġ39": 19488,
    "syntax": 5866,
    "Ġdeceive": 12719,
    "playful": 24357,
    "Ġscrib": 22280,
    "Ġbehave": 23294,
    "Ġtaught": 6803,
    "Ġthrusts": 24350,
    "Ġreach": 4047,
    "Ġcondescension": 10618,
    "Ġflashed": 11912,
    "Ġeasiest": 23537,
    "Ġdiscu": 4364,
    "Ġdisappeared": 5645,
    "Ġdecoyed": 18486,
    "Ġslack": 8955,
    "Ġglorious": 11076,
    "ill": 447,
    "Ġpuzzle": 11305,
    "iel": 11493,
    "Ġhyster": 16873,
    "adequ": 11019,
    "affection": 7487,
    "Ġcrib": 21346,
    "Ġnamely": 20688,
    "clearer": 24066,
    "base": 20776,
    "Ġconditions": 8306,
    "Ġpython": 1069,
    "Ġxii": 11989,
    "Ġrose": 3442,
    "Ġsit": 4217,
    "Ġlouder": 13467,
    "Ġwarnings": 16881,
    "countenances": 24151,
    "Ġafternoon": 6052,
    "Ġsummer": 4790,
    "Ġpalmy": 19497,
    "Ġundulations": 19514,
    "Ġliberally": 16830,
    "attle": 4467,
    "Ġpattered": 19023,
    "steelkilt": 10046,
    "adagrad": 9690,
    "Ġensl": 19273,
    "Ġbrooks": 25700,
    "plunging": 25987,
    "allied": 7410,
    "ington": 21300,
    "Ġannouncing": 16754,
    "knell": 24555,
    "queequeg": 4334,
    "Ġpythag": 26448,
    "spr": 7435,
    "Ġpret": 3037,
    "Ġautonom": 10415,
    "Ġpreservative": 24629,
    "itu": 1228,
    "Ġaccident": 5380,
    "Ġwow": 15527,
    "Ġbethinking": 25279,
    "japan": 15373,
    "Ġfilial": 16620,
    "Ġdestruction": 6600,
    "Ġworked": 6583,
    "mblings": 19779,
    "ember": 1956,
    "Ġlatin": 16821,
    "text": 1973,
    "apparent": 11040,
    "Ġdon": 1616,
    "Ġwield": 21289,
    "Ġrepresented": 8938,
    "Ġhark": 8427,
    "rod": 10831,
    "Ġattempted": 8000,
    "Ġeternal": 5975,
    "Ġchurned": 18384,
    "leap": 21365,
    "foremost": 14252,
    "Ġchief": 3380,
    "Ġdomestic": 6906,
    "Ġbackbone": 22645,
    "chan": 1169,
    "ground": 4672,
    "Ġunthinkingly": 26220,
    "Ġcapt": 1291,
    "welcomed": 24644,
    "bride": 19199,
    "Ġheartily": 6890,
    "arers": 12127,
    "Ġcranes": 20381,
    "temper": 10003,
    "voyages": 24855,
    "Ġmaketh": 15186,
    "omorrah": 18017,
    "Ġtag": 15467,
    "Ġapt": 9155,
    "uncle": 8158,
    "Ġunlo": 22007,
    "Ġscare": 18396,
    "Ġstow": 21727,
    "Ġtarred": 23611,
    "iousness": 4899,
    "increased": 20269,
    "cen": 17502,
    "Ġpolitely": 8993,
    "Ġfaithfully": 14886,
    "Ġmotive": 6091,
    "shipped": 18493,
    "necessary": 5881,
    "sample": 12504,
    "scra": 13015,
    "Ġparsee": 6413,
    "_;": 6640,
    "Ġawhile": 13829,
    "Ġbroker": 23099,
    "Ġbuffaloes": 25217,
    "quest": 4539,
    "Ġgulp": 20027,
    "Ġtraversed": 18892,
    "Ġworshipping": 22925,
    "nigh": 13762,
    "Ġfaultless": 24540,
    "Ġespecial": 26410,
    "Ġphilosophers": 10551,
    "Ġpreced": 6039,
    "Ġlod": 4043,
    "larger": 24202,
    "Ġcottage": 4734,
    "ubb": 1651,
    "Ġrestored": 7066,
    "Ġrear": 6535,
    "conversation": 7122,
    "Ġacres": 14312,
    "Ġquadrille": 13540,
    "9": 29,
    "Ġvagu": 13588,
    "helpless": 16790,
    "Ġconfirmed": 11139,
    "Ġfailure": 13313,
    "Ġrelative": 11881,
    "Ġwithdrawing": 11340,
    "Ġscho": 4437,
    "likewise": 13103,
    "atches": 13845,
    "Ġpent": 17901,
    "Ġsacrificed": 17421,
    "Ġmarry": 4418,
    "Ġchoking": 15932,
    "slouched": 24557,
    "north": 14616,
    "Ġgrotes": 19562,
    "Ġzig": 18742,
    "prove": 11147,
    "Ġlottery": 19887,
    "homage": 25616,
    "connections": 14427,
    "umbria": 23928,
    "awned": 19458,
    "elfare": 11775,
    "iam": 2509,
    "Ġtit": 8398,
    "Ġresigned": 9767,
    "Ġexquisite": 12380,
    "worn": 13805,
    "vig": 15445,
    "Ġbru": 13894,
    "Ġfierce": 7437,
    "Ġdews": 21836,
    "Ġunivers": 2124,
    "Ġelev": 5536,
    "Ġosc": 2837,
    "Ġproceedings": 9906,
    "Ġmemoirs": 26205,
    "âĢĿ--": 21813,
    "Ġlandless": 23375,
    "Ġconcealment": 16914,
    "Ġfork": 15729,
    "equal": 14992,
    "Ġcollege": 11424,
    "desperate": 17351,
    "Ġfads": 21414,
    "ries": 3353,
    "Ġbumps": 21390,
    "Ġprotesting": 14740,
    "Ġdrawing": 3918,
    "Ġrepute": 18034,
    "Ġchiselled": 25559,
    "get": 1021,
    "Ġstrove": 9956,
    "method": 17284,
    "Ġphrase": 11187,
    "conceivable": 17130,
    "phr": 18704,
    "Ġemployments": 12100,
    "orange": 21398,
    "Ġwe": 387,
    "sweetly": 25134,
    "maul": 11890,
    "Ġoaken": 13864,
    "appetite": 22844,
    "search": 8464,
    "Ġho": 1932,
    "Ġwet": 6518,
    "Ġmingling": 20196,
    "Ġthirteen": 15273,
    "Ġcomposed": 8892,
    "Ġencourag": 1394,
    "trimmed": 23946,
    "Ġaltern": 7394,
    "teringly": 21820,
    "Ġloosed": 22109,
    "Ġbrightened": 23826,
    "Ġrevolve": 19729,
    "Ġemph": 14524,
    "reputation": 15514,
    "Ġnuptial": 25782,
    "Ġdives": 17890,
    "Ġslippers": 19614,
    "Ġcalling": 5662,
    "Ġassur": 6073,
    "Ġcanopy": 18322,
    "Ġchanced": 8186,
    "Ġsharpen": 13568,
    "wish": 8099,
    "remember": 7262,
    "gainst": 25141,
    "Ġdownward": 10331,
    "ad": 337,
    "Ġheinous": 18038,
    "cad": 17504,
    "Ġbeggars": 20628,
    "mblies": 24608,
    "Ġmace": 21308,
    "offic": 7466,
    "moby": 8536,
    "Ġmale": 9648,
    "after": 2896,
    "Ġsparsity": 4209,
    "Ġtomahawk": 7539,
    "erve": 12546,
    "...": 24549,
    "Ġbrazen": 23837,
    "Ġdisadvantage": 12887,
    "Ġrealising": 18983,
    "Ġsettled": 3741,
    "run": 10721,
    "Ġefforts": 11803,
    "permission": 15894,
    "Ġbab": 5289,
    "Ġimproper": 22745,
    "iferous": 17291,
    "Ġcompan": 2171,
    "oil": 7805,
    "acks": 11786,
    "Ġdisadvantages": 18557,
    "Ġtransformations": 3483,
    "Ġearth": 2852,
    "extreme": 11028,
    "generosity": 23785,
    "rap": 21625,
    "craft": 12244,
    "Ġoutriders": 26543,
    "Ġstays": 16560,
    "Ġentreat": 4511,
    "rebell": 17763,
    "Ġtoes": 10829,
    "Ġbrine": 18767,
    "Ġphilosoph": 19650,
    "Ġincreasing": 8246,
    "Ġleading": 7297,
    "ivates": 18276,
    "Ġvilest": 20099,
    "Ġenvelop": 5587,
    "Ġadver": 5641,
    "800": 17476,
    "jointed": 24007,
    "lines": 6959,
    "Ġtrampling": 25492,
    "emph": 21923,
    "operation": 13500,
    "consent": 18503,
    "Ġglittering": 10052,
    "Ġmuchness": 18706,
    "reflected": 24733,
    "Ġupbra": 22151,
    "disappearing": 23500,
    "Ġelephant": 8255,
    "poise": 6171,
    "Ġexal": 10877,
    "fro": 8732,
    "Ġbreeds": 23343,
    "Ġmayhew": 12946,
    "Ġwithdraw": 16964,
    "fearfully": 25116,
    "Ġbranch": 8331,
    "Ġcrumpled": 16441,
    "Ġtwinkle": 12321,
    "Ġpaces": 13918,
    "Ġprofessors": 14724,
    "Ġnasty": 17442,
    "Ġpenn": 11111,
    "Ġbubble": 13534,
    "irious": 15783,
    "ders": 8074,
    "Ġcombining": 22852,
    "Ġshirr": 18231,
    "Ġmeals": 12708,
    "Ġarguing": 25470,
    "forward": 2189,
    "Ġexamination": 8004,
    "Ġhatherley": 7848,
    "Ġke": 1156,
    "eyeing": 14945,
    "Ġcomput": 601,
    "frank": 7757,
    "Ġbroods": 23100,
    "log": 18534,
    "consternation": 16912,
    "Ġimplac": 24874,
    "aths": 22696,
    "Ġcalms": 23040,
    "riages": 10243,
    "Ġdecreed": 18484,
    "rib": 1945,
    "Ġtossings": 25356,
    "Ġcaused": 5048,
    "ax": 692,
    "browed": 25894,
    "arrange": 23764,
    ",": 16,
    "Ġcanvas": 7783,
    "slackened": 26094,
    "aping": 8193,
    "Ġcourtesy": 9944,
    "Ġbenediction": 18783,
    "Ġfraud": 19071,
    "interests": 19707,
    "Ġintellect": 8169,
    "Ġprivile": 8645,
    "stamp": 21651,
    "Ġtet": 21156,
    "Ġanytime": 12882,
    "û": 188,
    "Ġvivid": 8057,
    "quite": 4647,
    "Ġwonderland": 23423,
    "Ġchristmas": 6924,
    "aring": 1476,
    "Ġappend": 18361,
    "Ġprimitive": 25061,
    "Ġinexperience": 26099,
    "Ġspeeding": 23563,
    "gl": 3292,
    "itters": 10781,
    "Ġdelayed": 9517,
    "Ġamphitheat": 26251,
    "Ġruined": 12951,
    "tains": 10962,
    "Ġcontents": 7210,
    "Ġif": 697,
    "effect": 8603,
    "Ġdetest": 8501,
    "Ġintimacy": 8700,
    "separ": 9230,
    "Ġjerked": 19831,
    "Ġnecks": 18187,
    "estic": 4956,
    "Ġshift": 2282,
    "Q": 53,
    "quickness": 19850,
    "Ġdeem": 18136,
    "Ġspecks": 14307,
    "Ġairy": 23314,
    "onds": 12993,
    "Ġsundry": 20072,
    "Ġbenefited": 19396,
    "departure": 15233,
    "furthest": 19840,
    "isco": 12578,
    "Ġpassion": 4558,
    "pale": 13771,
    "founded": 16713,
    "Ġevenly": 4131,
    "Ġquarters": 8619,
    "Ġchowder": 10279,
    "Ġoakum": 16934,
    "actually": 14296,
    "Ġsires": 21225,
    "Ġmoderate": 10938,
    "Ġthank": 3790,
    "ribes": 23362,
    "Ġnarrow": 5086,
    "Ġfoolscap": 24158,
    "Ġhermit": 15855,
    "Ġalert": 18101,
    "Ġrate": 1065,
    "indignation": 18438,
    "Ġsucceeded": 6105,
    "arthly": 8029,
    "å": 166,
    "Ġlaure": 16909,
    "Ġloaded": 8490,
    "Ġlucases": 9009,
    "Ġbashaw": 25633,
    "Ġgallon": 24184,
    "lovely": 16044,
    "Ġangelic": 19626,
    "Ġspices": 22127,
    "Ġrussia": 26267,
    "Ġhadn": 9718,
    "cun": 20794,
    "wondering": 19844,
    "Ġmodels": 746,
    "Ġexterm": 21826,
    "fts": 18696,
    "Ġimpregnable": 26023,
    "ez": 5683,
    "Ġcheshire": 13088,
    "Ġcommander": 8624,
    "Ġmagnitude": 1943,
    "Ġhiss": 15785,
    "Ġfortifications": 23622,
    "ben": 4926,
    "Ġaqu": 17742,
    "kerchief": 7525,
    "position": 15412,
    "Ġmillions": 11354,
    "running": 6797,
    "avating": 18568,
    "Ġfeet": 2259,
    "Ġmiz": 10777,
    "Ġdaw": 21427,
    "Ġinsignificance": 20456,
    "Ġbacks": 8527,
    "Ġclink": 22342,
    "masters": 16834,
    "Ġloud": 4701,
    "Ġcalifornia": 20528,
    "exper": 8878,
    "Ġextracted": 16315,
    "kins": 7345,
    "Ġare": 527,
    "Ġpatagonian": 20533,
    "ivot": 11716,
    "help": 1477,
    "Ġ*/": 10373,
    "Ġcaprice": 14577,
    "Ġpeculiarly": 8286,
    "Ġbedfellows": 23437,
    "Ġfunctional": 3049,
    "while": 2934,
    "Ġsuckling": 25997,
    "Ġproves": 14037,
    "Ġcens": 8412,
    "ctor": 13959,
    "Ġnonsense": 6982,
    "named": 9889,
    "ceptibly": 22354,
    "Ġimpro": 905,
    "respectable": 19846,
    "rative": 17652,
    "Ġcanallers": 13626,
    "Ġnlp": 3062,
    "ape": 1905,
    "afflicted": 23776,
    "Ġloitering": 22113,
    "Ġopens": 23628,
    "Ġspare": 5102,
    "Ġvineyard": 12328,
    "wis": 12516,
    "rr": 17650,
    "Ġcage": 17825,
    "Ġerect": 6143,
    "ispens": 8335,
    "Ġfascinating": 17327,
    "Ġflooded": 24959,
    "asant": 17958,
    "ages": 829,
    "function": 4477,
    "Ġbrim": 12974,
    "Ġcouch": 12568,
    "Ġtime": 688,
    "Ġobservations": 13552,
    "Ġwithered": 19463,
    "preservation": 25305,
    "blo": 6353,
    "mped": 16647,
    "Ġbutcher": 18271,
    "Ġplank": 7033,
    "umer": 9257,
    "Ġprocedures": 9411,
    "Ġconversation": 3330,
    "Ġellenborough": 26154,
    "Ġdiary": 24739,
    "Ġanointing": 25539,
    "Ġpoured": 8800,
    "Ġfed": 5530,
    "Ġdignity": 5704,
    "Ġaf": 784,
    "Ġextras": 22739,
    "Ġmeditations": 25013,
    "Ġswayed": 15047,
    "sleeping": 13453,
    "Ġentirely": 3432,
    "Ġinterruption": 9472,
    "Ġslime": 23159,
    "Ġadvancement": 24475,
    "Ġevalu": 3437,
    "Ġnamed": 6139,
    "flu": 9117,
    "Ġsomnam": 23004,
    "Ġfif": 4218,
    "ulance": 15764,
    "Ġaperture": 26160,
    "refuge": 24734,
    "Ġhardihood": 23109,
    "separately": 25227,
    "convolutional": 4958,
    "skirted": 24489,
    "Ġhieroglyphic": 25587,
    "Ġsloop": 25930,
    "everywhere": 23697,
    "Ġregard": 3068,
    "Ġinterpretation": 19715,
    "Ġ]": 15458,
    "ateful": 5926,
    "Ġjuly": 17236,
    "Ġlicensing": 20091,
    "Ġmistifying": 23718,
    "Ġfacet": 15582,
    "feed": 9292,
    "Ġregulations": 18599,
    "Ġax": 7822,
    "eu": 17530,
    "Ġflap": 14421,
    "pivot": 21030,
    "Ġsens": 1852,
    "Ġtattooing": 15027,
    "Ġushered": 18357,
    "Ġperpendicularly": 11374,
    "Ġbarred": 9002,
    "Ġsoapstone": 20509,
    "past": 8089,
    "Ġimpersonal": 17395,
    "splice": 17170,
    "merged": 11193,
    "pest": 6964,
    "Ġskrimshander": 22797,
    "Ġtex": 15471,
    "Ġhaste": 9003,
    "waiting": 12218,
    "bles": 7017,
    "dÃ¦mon": 17527,
    "Ġmetrics": 19058,
    "fortune": 4974,
    "Ġinstruments": 12221,
    "Ġexternal": 8364,
    "Ġshores": 8847,
    "Ġknowing": 4458,
    "Ġsuccour": 20433,
    "hip": 8740,
    "playing": 19656,
    "Ġstiffly": 15005,
    "Ġalong": 1978,
    "Ġcrammed": 16470,
    "blast": 9587,
    "gra": 768,
    "Ġdenied": 9000,
    "alog": 8804,
    "Ġrewards": 10848,
    "Ġfore": 2150,
    "Ġtoast": 21509,
    "Ġscuttle": 7414,
    "Ġsanguinary": 25929,
    "Ġkicks": 19767,
    "Ġneighbors": 25806,
    "chers": 11317,
    "alescing": 23864,
    "Ġmuslin": 19381,
    "âĢĿ)": 21811,
    "Ġcolon": 18763,
    "Ġlobster": 11389,
    "Ġrevealing": 3925,
    "Ġdisrespect": 18552,
    "Ġsoftmax": 1692,
    "sp": 894,
    "Ġthousand": 2784,
    "phur": 16149,
    "Ġupset": 22150,
    "another": 5439,
    "Ġgordon": 26467,
    "osop": 4404,
    "Ġbluish": 23651,
    "inburgh": 15489,
    "missionary": 24615,
    "plun": 15817,
    "Ġsolution": 9804,
    "Ġedged": 23435,
    "fleece": 19946,
    "seaman": 25457,
    "Ġpain": 2303,
    "levi": 7047,
    "Ġiron": 3235,
    "rud": 4191,
    "sphere": 22730,
    "Ġeel": 18001,
    "bless": 22309,
    "fl": 3599,
    "incing": 15484,
    "former": 11746,
    "Ġdrab": 13069,
    "Ġinch": 7849,
    "transferred": 24514,
    "woof": 21138,
    "enemy": 15525,
    "Ġfrankenstein": 7095,
    "Ġcapricious": 20537,
    "Ġenlivened": 26207,
    "foreign": 18543,
    "revolver": 25627,
    "impatience": 25500,
    "Ġrack": 9311,
    "Ġdistinctly": 7311,
    "Ġlanc": 19763,
    "known": 3569,
    "Ġaids": 12226,
    "create": 24159,
    "Ġaccidentally": 9504,
    "adv": 4538,
    "Ġassembled": 9235,
    "Ġcommended": 18656,
    "Ġintensely": 17017,
    "Ġgrie": 3584,
    "ound": 585,
    "Ġnervousness": 23555,
    "triumph": 15439,
    "Ġbottle": 7490,
    "Ġreflect": 6575,
    "white": 4603,
    "adieu": 26200,
    "Ġnovels": 15927,
    "Ġordered": 5832,
    "Ġappellation": 22223,
    "tumultuously": 25613,
    "Ġenveloping": 19733,
    "dia": 2132,
    "Ġgrimly": 17052,
    "imately": 12685,
    "Ġtub": 7146,
    "Ġname": 2082,
    "Ġimputed": 12805,
    "Ġannihil": 10174,
    "Ġline": 1848,
    "Ġaccommodate": 20515,
    "city": 15326,
    "Ġhonoured": 9880,
    "kers": 7132,
    "Ġrepe": 3282,
    "Ġchuckled": 10647,
    "Ġwriter": 11943,
    "Ġfondness": 16780,
    "Ġriver": 5411,
    "Ġtemporal": 2616,
    "script": 11078,
    "instrument": 15237,
    "Ġbrawn": 10481,
    "Ġthreat": 5154,
    "Ġthunders": 15635,
    "detective": 24383,
    "posterity": 25488,
    "Ġpriests": 15040,
    "rably": 21630,
    "Ġceiling": 7996,
    "mult": 8747,
    "Ġlass": 15645,
    "Ġconfeder": 25708,
    "poke": 18800,
    "proper": 7471,
    "Ġchord": 22242,
    "hunting": 24385,
    "Ġrelinquish": 17346,
    "Ġslanting": 23170,
    "Ġmissed": 8555,
    "adier": 18089,
    "Ġscrewed": 15119,
    "Ġlee": 4224,
    "Ġgleamed": 17077,
    "encing": 21281,
    "Ġfoiled": 23240,
    "Ġexempt": 21825,
    "Ġdisco": 3427,
    "Ġcramped": 23529,
    "Ġgeneric": 18453,
    "Ġtraces": 7945,
    "flatter": 23964,
    "commanding": 24752,
    "Ġfeat": 10937,
    "consult": 24169,
    "americans": 25042,
    "alluring": 18352,
    "mod": 1052,
    "Ġfeatures": 1431,
    "furn": 10091,
    "Ġwaxed": 21296,
    "cheerful": 13574,
    "//": 11463,
    "injustice": 17737,
    "Ġfrog": 23918,
    "transition": 24513,
    "upper": 11538,
    "Ġwilfully": 16766,
    "untering": 15773,
    "ä": 165,
    "sullenly": 26149,
    "Ġtolland": 24988,
    "derment": 22158,
    "Ġpagan": 7117,
    "Ġnobleman": 19390,
    "Ġinduced": 8670,
    "Ġenchant": 7185,
    "Ġunfor": 15837,
    "relieved": 13275,
    "Ġaction": 5796,
    "Ġinevitable": 15166,
    "Ġmastery": 23990,
    "Ġfirst": 938,
    "Ġcape": 5146,
    "Ġsnuffed": 15071,
    "establishment": 26113,
    "Ġbutterfly": 19909,
    "Ġgrat": 4057,
    "ll": 1138,
    "infidel": 24663,
    "Ġprofession": 6207,
    "venor": 16095,
    "wag": 21122,
    "buoy": 7760,
    "directed": 20403,
    "ache": 8518,
    "Ġpleasing": 6190,
    "ornament": 23486,
    "Ġadequ": 10913,
    "Ġploughing": 26259,
    "Ġforeheads": 23447,
    "Ġreminisc": 18726,
    "behold": 12873,
    "Ġperturbation": 20439,
    "marked": 9048,
    "Ġsweetheart": 19393,
    "tomb": 21092,
    "Ġbristling": 20525,
    "Ġpervading": 20612,
    "Ġbarbarously": 24819,
    "twice": 14621,
    "bermaid": 20789,
    "Ġpoet": 8208,
    "Ġcry": 3494,
    "Ġcivilized": 8664,
    "Ġstupendous": 20499,
    "Ġfaces": 6008,
    "front": 12168,
    "Ġplaced": 3443,
    "Ġdough": 8420,
    "Ġruff": 14346,
    "Ġxerxes": 23409,
    "Ġvehemently": 26039,
    "ologist": 22875,
    "Ġtrad": 9827,
    "Ġeliza": 6437,
    "slipping": 25528,
    "Ġchilled": 18381,
    "adow": 18087,
    "Ġtwentieth": 18659,
    "Ġsinful": 18948,
    "Ġvoyagings": 19235,
    "oe": 7552,
    "Ġinterview": 9769,
    "Ġreligions": 20106,
    "intellig": 5320,
    "rices": 4560,
    "Ġoverthrow": 18431,
    "================================================================": 9989,
    "Ġinferior": 8365,
    "macy": 18805,
    "Ġblubber": 5666,
    "Ġprayers": 12121,
    "shavings": 22460,
    "Ġdefilements": 26284,
    "tes": 11528,
    "Ġfor": 340,
    "Ġduke": 7755,
    "Ġsherry": 19449,
    "numerous": 17430,
    "roded": 17955,
    "H": 44,
    "ĥ": 230,
    "Ġlawless": 19433,
    "Ġbeating": 8144,
    "Ġwatchful": 16526,
    "Ġminister": 18752,
    "asper": 7854,
    "Ġnewsp": 9338,
    "Ġpedro": 14994,
    "Ġinstinct": 6574,
    "Ġslappin": 18942,
    "smiles": 14692,
    "reporting": 24494,
    "axed": 8888,
    "Ġstruggles": 16577,
    "Ġtrousers": 12413,
    "15": 12428,
    "í": 174,
    "Ġrepenting": 25322,
    "gradually": 12912,
    "Ġunrel": 14695,
    "Ġfake": 5810,
    "Ġforetold": 23450,
    "Ġradiant": 16809,
    "elves": 2156,
    "Ġobjects": 5578,
    "Ġrows": 10561,
    "roots": 15640,
    "Ġanaly": 1148,
    "pend": 6367,
    "mit": 4933,
    "naturalist": 23511,
    "Ġlodged": 11252,
    "wishes": 13806,
    "billiard": 25334,
    "Ġcorridor": 10671,
    "Ġsurmis": 23462,
    "Ġfriends": 2657,
    "Ġtropic": 17064,
    "Ġattack": 5478,
    "rates": 21037,
    "Ġsmoked": 10322,
    "Ġbrooding": 18907,
    "Ġharvest": 13414,
    "Ġsoldier": 16920,
    "species": 13255,
    "ocean": 12399,
    "Ġconsented": 11295,
    "Ġcognitive": 13633,
    "Ġsteel": 3887,
    "swe": 5995,
    "Ġabsolutely": 4857,
    "Ġcontest": 18473,
    "Ġpracticable": 19040,
    "Ġcanv": 7009,
    "audible": 17132,
    "Ġstill": 1158,
    "monsters": 19170,
    "Ġflora": 11416,
    "Ġbriefly": 11367,
    "Ġdreamed": 16629,
    "iful": 2882,
    "Ġproblem": 1272,
    "Ġgardiners": 11157,
    "ivorous": 22077,
    "Ġtenth": 13824,
    "Ġwatching": 4854,
    "cooee": 12416,
    "commend": 19991,
    "Ġfriendless": 23023,
    "tranquil": 25870,
    "boy": 4738,
    "Ġassign": 11109,
    "innocence": 15182,
    "osity": 14185,
    "ast": 473,
    "Ġdeaf": 12718,
    "razor": 21634,
    "ig": 322,
    "Ġopenly": 8572,
    "Ġembraced": 10005,
    "entiful": 10836,
    "crown": 13697,
    "Ġthreatened": 8329,
    "ply": 6366,
    "Ġsubmission": 22788,
    "fs": 17535,
    "likeness": 19476,
    "illation": 14141,
    "Ġsprung": 11249,
    "Ġemig": 14523,
    "Ġespecially": 3936,
    "Ġadvantages": 9810,
    "Ġpeleg": 3738,
    "Ġreconciled": 13586,
    "herfield": 3630,
    "Ġcloudless": 16668,
    "Ġwho": 612,
    "Ġelement": 6897,
    "Ġpeeping": 16125,
    "Ġanalyzing": 18803,
    "Ġlowering": 7986,
    "feeder": 12359,
    "Ġfantastic": 10058,
    "knowledge": 7478,
    "Ġevangelist": 20337,
    "Ġhammer": 6093,
    "bestowed": 12223,
    "Ġpassengers": 13674,
    "all": 486,
    "Ġprendergast": 26537,
    "Ġexperiences": 13027,
    "Ġlou": 6822,
    "prit": 19340,
    "conv": 7213,
    "._]]": 5334,
    "Ġsincerely": 7962,
    "Ġpeculiarity": 12930,
    "Ġorganisation": 23582,
    "Ġbliss": 12998,
    "Ġvitality": 15171,
    "Ġhumaneval": 25582,
    "oir": 21001,
    "Ġcrushed": 9422,
    "Ġsavesoul": 26227,
    "Ġcompliment": 5673,
    "Ġtoy": 15631,
    "science": 11908,
    "marks": 7346,
    "Ġsuperlative": 26074,
    "Ġring": 4453,
    "Ġindependent": 9015,
    "Ġwool": 19431,
    "um": 454,
    "Ġcommanded": 6330,
    "Ġasp": 15778,
    "Ġcrystals": 20226,
    "Ġdebated": 9040,
    "Ġlid": 6983,
    "Ġsurplus": 26303,
    "Ġpaternal": 16372,
    "Ġwasn": 6997,
    "ullen": 8234,
    "Ġhotels": 19535,
    "course": 6104,
    "Ġexceeding": 1583,
    "ther": 480,
    "atory": 6125,
    "secured": 16938,
    "Ġcleaving": 23179,
    "Ġstrata": 26027,
    "augment": 18828,
    "bulkington": 19924,
    "shutters": 20312,
    "Ġadvised": 16211,
    "Ġreaped": 18029,
    "sand": 21051,
    "Ġaware": 5756,
    "des": 1568,
    "pal": 9616,
    "slowly": 9088,
    "ithmetic": 18061,
    "Ġkeen": 4614,
    "Ġchas": 18378,
    "Ġat": 395,
    "Ġranges": 2883,
    "Ġjudging": 16594,
    "Ġowned": 11874,
    "icher": 9202,
    "Ġhovered": 12628,
    "stopping": 19348,
    "itted": 2442,
    "ued": 7561,
    "scor": 13013,
    "Ġpod": 15601,
    "Ġindividuality": 14908,
    "Ġdom": 2531,
    "Ġmaker": 15540,
    "Ġcoer": 22577,
    "rench": 3967,
    "Ġaquiline": 26159,
    "fact": 6358,
    "operations": 19973,
    "Ġuneasy": 8661,
    "Ġgunwales": 12238,
    "Ġwallet": 21297,
    "abases": 3009,
    "Ġclamorous": 24909,
    "Ġchr": 3687,
    "duct": 3504,
    "Ġaid": 6122,
    "extremely": 26263,
    "Ġjanuary": 13652,
    "mechan": 11856,
    "Ġbery": 13897,
    "story": 9212,
    "Ġdemi": 25548,
    "enchant": 21282,
    "equally": 19898,
    "Ġcharts": 12823,
    "relations": 14732,
    "ose": 718,
    "Ġforgery": 25977,
    "astonished": 15032,
    "Ġoriginal": 6102,
    "Ġhistorical": 3645,
    "izing": 1068,
    "Ġfretfulness": 25448,
    "pered": 4199,
    "queer": 10362,
    "living": 7133,
    "Ġ30": 10511,
    "Ġbristol": 14379,
    "upid": 6581,
    "Ġderived": 8238,
    "bus": 5354,
    "isen": 10792,
    "Å": 134,
    "Ġestimable": 23870,
    "Ġcorrect": 2433,
    "Ġmatlock": 18802,
    "cery": 20807,
    "Ġsuppression": 22999,
    "Ġmerry": 5868,
    "Ġoverlapping": 26238,
    "discovered": 8324,
    "height": 21204,
    "Ġlived": 3992,
    "Ġnights": 7258,
    "Ġother": 760,
    "Ġgenerates": 3663,
    "queness": 18147,
    "Ġspoke": 2749,
    "out": 467,
    "Ġleaped": 8825,
    "rendered": 22336,
    "Ġhabitations": 24789,
    "Ġpossible": 2589,
    "Ġastronomy": 25926,
    "proportion": 16179,
    "Ġplays": 12035,
    "Ġtierce": 15477,
    "Ġdetaining": 25819,
    "Ġconcerned": 5331,
    "Ġclipping": 2441,
    "repro": 10770,
    "Ġardu": 22181,
    "westward": 25424,
    "rudence": 7092,
    "Ġgems": 9208,
    "avery": 13682,
    "gest": 5426,
    "Ġpet": 4587,
    "94": 4803,
    "Ġcruises": 23704,
    "Ġconveyed": 8334,
    "othing": 6995,
    "Ġdefiance": 11068,
    "aper": 4999,
    "princ": 8620,
    "Ġjing": 15947,
    "Ġhorsey": 24249,
    "diff": 9113,
    "Ġconsistent": 14527,
    "inkling": 16090,
    "Ġgramm": 8170,
    "throw": 14097,
    "fort": 1747,
    "dden": 1802,
    "Ġstud": 1615,
    "Ġabhorrent": 16856,
    "iest": 4037,
    "Ġdemands": 19642,
    "inexplicable": 25809,
    "Ġnailed": 10189,
    "contained": 22469,
    "Ġemac": 16404,
    "erick": 13847,
    "nurtured": 25524,
    "Ġglimmered": 20170,
    "head": 1435,
    "Ġstirring": 10579,
    "Ġunfrequent": 24109,
    "ahab": 4290,
    "forehead": 8515,
    "Ġgoble": 14229,
    "Ġfun": 524,
    "Ġwhiff": 21715,
    "Ġmeanwhile": 5736,
    "Ġbrighter": 16186,
    "Ġsagittarius": 24732,
    "Ġembal": 11905,
    "Ġacknowledgment": 16957,
    "Ġprotruding": 16658,
    "relate": 24008,
    "structure": 2402,
    "Ġlooking": 2474,
    "Ġschoolboys": 24481,
    "Ġjuggler": 26366,
    "Ġpleasure": 2697,
    "Ġfatality": 12092,
    "Ġundressed": 19512,
    "taller": 26150,
    "haust": 5777,
    "Ġsentence": 6187,
    "Ġwater": 1947,
    "ables": 7889,
    "sw": 4741,
    "accept": 8897,
    "fluttering": 23970,
    "Ġ113": 19695,
    "K": 47,
    "Ġorganization": 7983,
    "Ġdisaster": 12884,
    "Ġelectric": 15193,
    "scrape": 25698,
    "fireside": 24692,
    "Ġsleeves": 10660,
    "fashion": 8080,
    "ruck": 6848,
    "Ġclung": 10957,
    "Ġbleak": 10558,
    "Ġunlabeled": 3798,
    "Ġovertook": 18428,
    "critical": 19502,
    "Ġwindigate": 18910,
    "Ġkings": 7197,
    "Ġschoolmasters": 19719,
    "Ġcyp": 21343,
    "sham": 9757,
    "Ġmarks": 6746,
    "Ġcandid": 4100,
    "widows": 25344,
    "spe": 3561,
    "Ġlate": 3376,
    "ju": 13740,
    "iality": 8843,
    "Ġshreds": 12767,
    "deck": 4502,
    "ishnoo": 10955,
    "Ġcomra": 7183,
    "Ġdisput": 14255,
    "Ġromans": 16759,
    "Ġpail": 15604,
    "Ġglut": 18846,
    "Ġholland": 10365,
    "Ġbelongs": 8014,
    "supposing": 24134,
    "neville": 22448,
    "Ġmot": 2988,
    "Ġnoticing": 18224,
    "studied": 17149,
    "Ġcheerfully": 12132,
    "Ġapoplexy": 25265,
    "Ġtwins": 16118,
    "Ġjoist": 19231,
    "Ġwork": 1320,
    "money": 8749,
    "Ġpier": 7162,
    "phenomenon": 17648,
    "Ġblasphe": 17406,
    "Ġdru": 8421,
    "etuous": 21580,
    "Ġpref": 14171,
    "Ġguests": 12285,
    "Ġcongealed": 25981,
    "ouses": 5163,
    "Ġpocket": 4898,
    "Ġoversampling": 20514,
    "angered": 16177,
    "Ġnow": 691,
    "needles": 20310,
    "Ġsubmerged": 11870,
    "Ġsolitary": 5854,
    "prior": 21031,
    "Ġboundary": 11222,
    "Ġcredit": 4818,
    "ul": 371,
    "reated": 10302,
    "Ġwiser": 14729,
    "mile": 17597,
    "september": 14035,
    "Ġresult": 4461,
    "perishing": 22174,
    "Ġstun": 11649,
    "Ġyoungest": 7953,
    "apers": 3480,
    "Ġfronts": 20530,
    "Ġascertain": 9705,
    "Ġduring": 872,
    "shore": 10305,
    "Ġmelt": 21316,
    "Ġrivers": 9441,
    "contrast": 25594,
    "Ġreality": 7058,
    "Ġantarctic": 19551,
    "Ġhumility": 12982,
    "eyed": 11486,
    "Ġdamning": 19139,
    "Ġhospital": 15039,
    "Ġmorocc": 22969,
    "Ġbathing": 20198,
    "Ġfurnishes": 19439,
    "iated": 5889,
    "feit": 16040,
    "races": 21627,
    "cent": 8072,
    "Ġlo": 453,
    "most": 1257,
    "/(": 2985,
    "Ġ132": 19895,
    "confirmed": 19644,
    "Ġcomplied": 14733,
    "Ġminut": 2207,
    "Ġavowal": 19413,
    "Ġholes": 16405,
    "ithing": 11648,
    "spout": 7922,
    "Ġtortoise": 16908,
    "Ġfilled": 4394,
    "Ġoars": 3896,
    "ĠâĢľâĢĺ": 8503,
    "Ġstochastic": 3267,
    "Ġsixpence": 19316,
    "formity": 10278,
    "olstadt": 7788,
    "Ġdata": 517,
    "Ġwhaling": 2786,
    "Ġunc": 2123,
    "Ġstiffest": 24829,
    "Ġfabric": 25947,
    "Ġperilously": 24507,
    "Ġheel": 9683,
    "fitting": 1509,
    "Ġimpertin": 6933,
    "useness": 22289,
    "affold": 16561,
    "Ġdeliverance": 15156,
    "Ġlambton": 10657,
    "pil": 15407,
    "Ġmartin": 25436,
    "agitation": 14067,
    "scru": 16241,
    "plicable": 10256,
    "Ġprocess": 560,
    "Ġgrowl": 16537,
    "surround": 16758,
    "bunger": 20400,
    "Ġsting": 10861,
    "Ġfarthest": 23113,
    "Ġmeditation": 16680,
    "ĠĠĠĠĠĠĠĠĠĠĠĠĠĠĠĠĠĠĠĠĠĠĠĠĠĠĠĠĠĠĠĠĠĠ": 14614,
    "Ġunhe": 22005,
    "Ġsub": 951,
    "Ġhuman": 1319,
    "Ġopened": 3510,
    "Ġfielding": 16231,
    "wedded": 24339,
    "Ġmem": 2068,
    "Ġdispositions": 13231,
    "Ġsunny": 13084,
    "Ġcomfortable": 6094,
    "ilingly": 21720,
    "Ġallowance": 14388,
    "Ġdived": 9177,
    "Ġbald": 16204,
    "Ġacts": 2294,
    "ounix": 14163,
    "hav": 20896,
    "gradu": 18616,
    "Ġcomposedly": 25183,
    "Ġbegged": 8230,
    "Ġcoach": 6867,
    "Ġglades": 19370,
    "Ġglance": 4234,
    "Ġmoluccas": 25629,
    "Ġchronicle": 20227,
    "Ġnevertheless": 5040,
    "turkish": 24533,
    "Ġcalculates": 13264,
    "Ġresolution": 5500,
    "Ġjournal": 15217,
    "acknowledging": 25476,
    "Ġlikely": 3598,
    "au": 778,
    "ezing": 10573,
    "atch": 673,
    "marrying": 19546,
    "Ġbucket": 8787,
    "conside": 9289,
    "hest": 3368,
    "Ġwarn": 5695,
    "akeman": 6267,
    "live": 7550,
    "acquaintance": 6938,
    "Ġsummit": 7730,
    "Ġix": 12663,
    "asions": 12648,
    "Ġapprovingly": 26253,
    "enet": 10152,
    "Ġmultitude": 9324,
    "Ġauthoritative": 19560,
    "Ġcalf": 16264,
    "wonted": 13492,
    "Ġhussey": 7724,
    "Ġreassure": 21669,
    "Ġinferiority": 17115,
    "Ġencouraging": 2264,
    "motion": 17606,
    "Ġwalking": 4323,
    "ricted": 15419,
    "Ġinvite": 14563,
    "osc": 18387,
    "irr": 12734,
    "Ġdiscontented": 16057,
    "Ġplunder": 22599,
    "Ġcol": 1062,
    "olently": 15754,
    "Ġfeelingly": 22991,
    "Ġcontinuation": 22914,
    "met": 6652,
    "Ġcure": 21338,
    "surv": 24213,
    "Ġprejudices": 13468,
    "Ġlard": 13946,
    "writing": 7720,
    "Ġadvers": 4887,
    "understood": 13215,
    "Ġfurnace": 19438,
    "Ġcolonial": 22858,
    "Ġsafely": 9025,
    "Ġaddress": 2271,
    "Ġpierce": 17036,
    "conducted": 25572,
    "parsee": 14511,
    "vis": 4578,
    "Ġfain": 5808,
    "Ġpa": 3007,
    "eye": 6224,
    "Ġactivity": 7919,
    "Ġcrevice": 22724,
    "pleasanter": 24044,
    "Ġglimmering": 25240,
    "Ġtwitching": 25683,
    "Ġnorm": 763,
    "Ġevaluation": 16614,
    "umns": 14147,
    "Ġ21": 11198,
    "Ġpolar": 9410,
    "circumstances": 8046,
    "Ġrequest": 6050,
    "Ġgi": 15663,
    "ent": 305,
    "copper": 19187,
    "Ġimpenetrable": 17396,
    "Ġevol": 2818,
    "clothed": 19737,
    "exceedingly": 9566,
    "mind": 4627,
    "Ġinterpret": 5490,
    "Ġbias": 1192,
    "Ġbanish": 15567,
    "Ġrally": 21965,
    "Ġclimes": 12837,
    "Ġhalls": 19524,
    "Ġworrying": 22924,
    "Ġarom": 15491,
    "desc": 1395,
    "lev": 1237,
    "wards": 1277,
    "definition": 23115,
    "upwards": 18863,
    "Ġethere": 23948,
    "enborough": 21284,
    "Ġpart": 859,
    "elihood": 4623,
    "aloes": 21499,
    "Ġandes": 12638,
    "Ġtricks": 13483,
    "offers": 16392,
    "porary": 14552,
    "Ġprints": 16329,
    "Ġprecisely": 6466,
    "bree": 15313,
    "Ġbranded": 14378,
    "Ġshears": 18319,
    "Ġstir": 5823,
    "iony": 9191,
    "mund": 13757,
    "Ġjurors": 17343,
    "reeable": 3612,
    "landlord": 9839,
    "scenes": 16242,
    "squee": 15429,
    "Ġscuff": 15940,
    "Ġpeculiar": 3154,
    "breeding": 16675,
    "aneously": 4060,
    "staff": 21653,
    "ghan": 19453,
    "nam": 2759,
    "Ġcoffin": 4429,
    "cher": 5786,
    "Ġgreatly": 5849,
    "Ġ23": 13191,
    "Ġadvocate": 13675,
    "Ġeternity": 12276,
    "Ġruthless": 15284,
    "Ġclam": 7416,
    "lat": 9604,
    "Ġlongbourn": 3506,
    "lesc": 11038,
    "Ġtight": 8107,
    "Ġcontemporary": 16010,
    "numbers": 17616,
    "Ġcomputer": 1180,
    "Ġminute": 4279,
    "Ġpreviously": 3919,
    "dial": 20824,
    "empt": 2622,
    "Ġmarines": 16258,
    "bing": 7791,
    "Ġconverts": 2809,
    "Ġvir": 7001,
    "romed": 10905,
    "arranging": 19317,
    "dman": 10088,
    "¾": 127,
    "Ġappalled": 22222,
    "Ġadhering": 14140,
    "Ġacquitted": 18898,
    "Ġgalvan": 21614,
    "ior": 2036,
    "Ġagain": 815,
    "Ġcabal": 23643,
    "boscombe": 26121,
    "Ġcasts": 19424,
    "uttered": 8440,
    "?_": 8069,
    "binder": 17499,
    "Ġjib": 14193,
    "Ġruggedness": 26268,
    "Ġdetermining": 14420,
    "ellect": 7381,
    "weave": 22682,
    "Ġphyseter": 26586,
    "val": 1185,
    "Ġfish": 2712,
    "Ġtrue": 1343,
    "aceti": 7111,
    "Ġworkflow": 2385,
    "separated": 20158,
    "Ġwo": 3650,
    "Ġrumors": 11321,
    "Ġlectures": 17178,
    "presently": 9806,
    "test": 13791,
    "Ġsegment": 12754,
    "Ġsupremacy": 20259,
    "portuguese": 25413,
    "culiar": 2823,
    "relatively": 24011,
    "quer": 11678,
    "Ġneurons": 974,
    "Ġshapeless": 24524,
    "coffin": 10662,
    "Ġsuffered": 5649,
    "stalk": 21647,
    "Ġmonths": 3455,
    "Ġwarden": 17224,
    "belt": 24032,
    "Ġpolynes": 16077,
    "Ġentertainment": 12220,
    "Ġoffer": 4843,
    "gryphon": 15357,
    "Ġty": 6657,
    "doesn": 19819,
    "Ġ24": 13192,
    "solic": 16377,
    "Ġalfred": 21783,
    "Ġprair": 7746,
    "Ġbast": 21377,
    "jep": 20925,
    "Ġcareer": 11118,
    "Ġyouthful": 16723,
    "Ġcock": 11000,
    "Ġtech": 1627,
    "ariously": 18526,
    "trying": 15437,
    "cstasy": 11445,
    "Ġvii": 13107,
    "phere": 21018,
    "³": 116,
    "Ġleather": 7606,
    "Ġcomplex": 748,
    "Ġimpress": 6862,
    "jabez": 20932,
    "cle": 3955,
    "linearity": 1652,
    "ķ": 248,
    "Ġwillingly": 8884,
    "Ġmuse": 13859,
    "Ġnames": 4534,
    "mock": 5174,
    "Ġunsupplied": 22038,
    "Ġnantucketers": 9894,
    "Ġquite": 1740,
    "Ġdevotees": 25376,
    "Ġconfronted": 23303,
    "Ġcoincidence": 25483,
    "Ġmiles": 3802,
    "Ġspark": 6689,
    "fordshire": 4677,
    "ractions": 11632,
    "Ġenticements": 26034,
    "Ġundiscovered": 18249,
    "Ġwick": 2003,
    "nep": 20985,
    "Ġbrisk": 9802,
    "Ġexpected": 3695,
    "across": 10324,
    "Ġimmediately": 3365,
    "oters": 21796,
    "Ġimaginations": 16516,
    "!âĢĿ": 846,
    "above": 8147,
    "Ġcrests": 25685,
    "accessible": 13638,
    "uttering": 12659,
    "Ġsuggests": 12198,
    "glasses": 11215,
    "pair": 21011,
    "mo": 862,
    "makes": 10711,
    "2": 22,
    "Ġimpl": 7195,
    "boom": 18998,
    "Ġuttered": 7280,
    "Ġcontained": 7678,
    "Ġtechnique": 2241,
    "oker": 10963,
    "Ġdespised": 14666,
    "entrance": 12654,
    "Ġmercenary": 17193,
    "Ġpursuers": 13224,
    "bol": 8717,
    "Ġwrites": 23195,
    "countryman": 24639,
    "Ġsaratoga": 26423,
    "pate": 21009,
    "sullen": 17669,
    "Ġanswered": 2853,
    "Ġseasonable": 24406,
    "Ġglit": 8559,
    "Ġdivergence": 2730,
    "shipmates": 11926,
    "Ġthen": 664,
    "Ġnoticed": 5549,
    "Ġclosely": 6488,
    "Ġthickets": 24020,
    "infant": 19826,
    "Ġpest": 13912,
    "slanting": 24558,
    "lads": 20954,
    "Ġtal": 7564,
    "Ġassu": 21894,
    "Ġbodiless": 24226,
    "Ġgrateful": 7660,
    "claimed": 9835,
    "ift": 1610,
    "Ġfab": 15573,
    "Ġloggerhead": 13656,
    "Ġrevolut": 3259,
    "ither": 1547,
    "Ġthing": 1642,
    "Ġflourish": 17160,
    "ographical": 16786,
    "ness": 851,
    "Ġwolfish": 25935,
    "Ġdevoured": 16132,
    "oology": 21005,
    "recollection": 25348,
    "takes": 21074,
    "says": 13298,
    "Ġromantic": 8030,
    "Ġbattering": 13900,
    "appearing": 14637,
    "oam": 8751,
    "Ġlargest": 6282,
    "Ġloc": 10914,
    "Ġkrem": 9725,
    "arity": 1301,
    "Ġspots": 11727,
    "Ġsouthampton": 24307,
    "Ġslender": 11938,
    "Ġeverything": 3156,
    "Ġturns": 4981,
    "tolerably": 21094,
    "ic": 304,
    "Ġcogent": 14273,
    "en": 271,
    "Ġrattle": 10899,
    "fourth": 11328,
    "perfectly": 9085,
    "Ġrejoiced": 8683,
    "Ġgunwale": 7325,
    "owal": 13992,
    "Ġdew": 14044,
    "Ġpled": 17905,
    "Ġanticipation": 17057,
    "cuniary": 26379,
    "ser": 1425,
    "entiating": 3436,
    "alterable": 13623,
    "Ġboarded": 13232,
    "ferred": 16411,
    "impulse": 20644,
    "fisher": 7547,
    "Ġbank": 4877,
    "emptied": 23637,
    "Ġpalmed": 24089,
    "Ġrequested": 14301,
    "Ġdecomposes": 5506,
    "urred": 8449,
    "Ġloathsome": 13527,
    "`": 68,
    "Ġdigest": 24647,
    "Ġpolitics": 19224,
    "Ġsalisbury": 24061,
    "Ġpartly": 6713,
    "Ġbusiness": 2234,
    "Ġfreemason": 23207,
    "Ġsuited": 12784,
    "Ġunclasp": 26511,
    "iards": 17574,
    "Ġungod": 22019,
    "Ġtelescopes": 25690,
    "sive": 4146,
    "Ġoily": 13863,
    "Ġsable": 15499,
    "ĠĠĠ": 2114,
    "Ġsubsequent": 7658,
    "Ġresiding": 16059,
    "Ġabstra": 22268,
    "Ġbildad": 3780,
    "Ġmid": 2619,
    "Ġraft": 16114,
    "Ġnatural": 1125,
    "Ġpausing": 8652,
    "Ġblo": 2736,
    "Ġhousekeeping": 18943,
    "Ġclever": 7054,
    "thoroughly": 26508,
    "Ô": 149,
    "tery": 14036,
    "Ġquestion": 2780,
    "immense": 18052,
    "Ġplaymate": 23639,
    "Ġdif": 871,
    "Ġply": 21450,
    "quod": 2162,
    "Ġfemale": 8344,
    "Ġoverpower": 12839,
    "Ġprevailed": 7777,
    "Ġcircum": 8257,
    "Ġslam": 13055,
    "Ġunkindness": 22037,
    "lue": 8508,
    "recollect": 17223,
    "Ġcoins": 11817,
    "Ġescapes": 23505,
    "van": 7814,
    "Ġcirclings": 26431,
    "tranqu": 14705,
    "Ġexpressing": 12007,
    "quit": 15759,
    "Ġtreble": 16504,
    "Ġabide": 14187,
    "fine": 10090,
    "privilege": 25263,
    "_,âĢĻâĢĿ": 20399,
    "Ġtahiti": 13618,
    "brated": 12025,
    "Ġfast": 1717,
    "acceptable": 25184,
    "Ġarrested": 9560,
    "Ġlashed": 9198,
    "Ġpadded": 25036,
    "pips": 21019,
    "Ġprevent": 758,
    "Ġcorners": 18875,
    "Ġdepl": 14045,
    "penny": 22942,
    "Ġpresuming": 16793,
    "concluded": 11242,
    "engineer": 23145,
    "circumspect": 26086,
    "Ġbrushed": 15568,
    "Ġ14": 9322,
    "Ġways": 5396,
    "Ġmultimodal": 18747,
    "Ġunfrequently": 20738,
    "Ġbearing": 5298,
    "Ġenem": 4708,
    "m": 81,
    "Ġandromeda": 21506,
    "belong": 12120,
    "Ġtem": 805,
    "Ġstables": 23656,
    "Ġceasing": 23755,
    "Ġincommod": 25307,
    "turner": 19540,
    "Ġcritics": 23443,
    "Ġspiteful": 19521,
    "Ġexhaustion": 14960,
    "Ġadieu": 10050,
    "Ġoutstretched": 14195,
    "Ġswords": 19896,
    "Ġspas": 10922,
    "Ġdevote": 10338,
    "Ġspeechless": 13352,
    "tarpaul": 21096,
    "Ġmaintained": 12931,
    "Ġurgent": 16869,
    "Ġglad": 3326,
    "Ġpersonal": 7479,
    "main": 8087,
    "Ġreb": 15688,
    "Ġconjectures": 16925,
    "grew": 17555,
    "interference": 23736,
    "oses": 3946,
    "ep": 440,
    "Ġimprudence": 10297,
    "Ġcreeping": 18684,
    "Ġlivel": 11355,
    "Ġmantle": 25274,
    "Ġpurest": 14938,
    "Ġdoesn": 7438,
    "itative": 13869,
    "unts": 12728,
    "leo": 21362,
    "urities": 18049,
    "ph": 922,
    "clu": 20798,
    "Ġmarling": 23031,
    "touched": 15438,
    "Ġroughs": 19955,
    "Ġsickened": 16775,
    "ĠĠĠĠĠĠĠĠĠĠĠĠĠĠ": 22561,
    "Ġsilk": 11961,
    "occasionally": 13520,
    "Ġremo": 3784,
    "Ġpuzzled": 7317,
    "Ġendwise": 23139,
    "Ġtied": 7357,
    "Ġacknowledges": 24688,
    "Ġhills": 6527,
    "osoever": 17342,
    "agues": 8160,
    "Ġquakers": 22413,
    "Ġcomparatively": 9489,
    "Ġtents": 13817,
    "Ġcomrade": 12281,
    "children": 9055,
    "Ġsled": 21217,
    "chants": 21689,
    "Ġwrecked": 9965,
    "anything": 5518,
    "Ġsolving": 2482,
    "Ġmaze": 23828,
    "cous": 8721,
    "laughing": 15178,
    "Ġsevent": 18200,
    "shell": 16285,
    "Ġintroduced": 7690,
    "Ġovers": 14205,
    "Ġsurmises": 17055,
    "Ġdiscoverer": 26035,
    "Ġhasty": 10477,
    "Ġcre": 887,
    "dy": 3859,
    "Ġcivil": 4679,
    "itting": 1152,
    "hercules": 22201,
    "Ġmr": 660,
    "unalterable": 21883,
    "Ġadhes": 22103,
    "thither": 21980,
    "ste": 3585,
    "Ġgets": 10839,
    "Ġcharming": 6628,
    "Ġpalm": 10513,
    "Ġdavis": 25952,
    "Ġwrought": 11942,
    "Ġhereditarily": 25224,
    "Ġinland": 11607,
    "Ġsitting": 3604,
    "Ġdamp": 8263,
    "Ġneared": 14074,
    "oting": 2746,
    "iable": 3334,
    "battle": 12440,
    "Ġcetacea": 20552,
    "condemned": 26060,
    "Ġshrivelled": 19702,
    "taking": 5689,
    "sudden": 5315,
    "onian": 17767,
    "Ġinstability": 3811,
    "Ġcringed": 25942,
    "Ġwretchedness": 9026,
    "inferiors": 25346,
    "orph": 21397,
    "Ġhunger": 8566,
    "vol": 739,
    "Ġmamma": 10047,
    "Ġbecoming": 4397,
    "Ġgould": 17989,
    "unusually": 15777,
    "igns": 8447,
    "Ġicelandic": 25886,
    "b": 70,
    "Ġbeckoned": 25793,
    "Ġwharf": 9559,
    "Ġwear": 6030,
    "Ġmadness": 6601,
    "Ġair": 1834,
    "Ġbil": 15562,
    "hers": 7635,
    "ex": 622,
    "malice": 17604,
    "number": 10114,
    "Ġric": 18209,
    "ret": 1475,
    "orders": 12870,
    "Ġbled": 17856,
    "Ġimpulsive": 19961,
    "revol": 12537,
    "Ġignominy": 15084,
    "Ġcoinc": 11002,
    "patient": 25342,
    "excitement": 19668,
    "Ġwip": 13852,
    "Ġale": 9154,
    "oding": 1462,
    "Ġdiscol": 12950,
    "Ġthinner": 24182,
    "Ġexcellence": 11451,
    "rebellum": 26165,
    "Ġreligious": 25121,
    "phys": 18705,
    "Ġliberties": 19666,
    "Ġclothing": 18423,
    "eray": 21265,
    "Ġroared": 7023,
    "enth": 6680,
    "Ġalarmed": 6923,
    "ravity": 21632,
    "divided": 25018,
    "places": 7878,
    "Ġcouples": 16852,
    "Ġbricks": 13561,
    "Ġprettier": 23763,
    "Ġabstracted": 17182,
    "Ġleaning": 5228,
    "Ġblotted": 20216,
    "vill": 10735,
    "Ġbusy": 6189,
    "angles": 18290,
    "Ġparamet": 603,
    "Ġamends": 14245,
    "Ġrebounds": 25967,
    "Ġdressed": 5081,
    "Ġisrael": 21800,
    "Ġextinct": 14334,
    "theories": 18078,
    "fourths": 25509,
    "Ġunthink": 18244,
    "ception": 6562,
    "Ġcontrols": 1732,
    "guarded": 13293,
    "Ġzero": 1201,
    "investigations": 25533,
    "Ġslyness": 25266,
    "ouder": 17900,
    "du": 605,
    "Ġstuffed": 13408,
    "Ġsurface": 5119,
    "Ġoverwhel": 8196,
    "Ġvillanous": 24051,
    "ley": 1814,
    "Ġprocession": 11773,
    "rinted": 21042,
    "thorough": 21982,
    "Ġclings": 15961,
    "Ġgratification": 24095,
    "Ġtravels": 11925,
    "Ġkitchen": 8495,
    "drove": 16993,
    "Ġsymptom": 13482,
    "Ġsettee": 22918,
    "Ġopportunities": 19248,
    "<SOS>": 1,
    "Ġgathering": 14977,
    "broad": 8642,
    "Ġbedroom": 7277,
    "possession": 12219,
    "Ġargemone": 24274,
    "Ġexcessive": 3890,
    "Ġslit": 13054,
    "Ġfiends": 14827,
    "Ġlets": 18076,
    "minded": 9037,
    "ĠĠĠĠĠĠĠĠĠĠĠĠĠĠĠĠĠĠĠĠĠĠĠĠĠĠĠĠĠĠĠĠĠĠĠĠĠĠĠĠĠĠĠĠĠĠ": 9952,
    "Ġinhabited": 12183,
    "Ġweak": 5098,
    "Ġsneezes": 24698,
    "Ġjung": 12833,
    "scream": 11077,
    "ieces": 4772,
    "stand": 628,
    "Ġloathing": 15066,
    "Ġlongitudes": 22633,
    "thrusting": 20258,
    "Ġattacking": 24465,
    "Ġmode": 8497,
    "olet": 13765,
    "plenty": 14090,
    "Ġarbit": 4651,
    "Ġexe": 3996,
    "Ġ[\"": 19929,
    "Ġboscombe": 8325,
    "Ġgap": 21596,
    "Ġevening": 2655,
    "Ġrecording": 24434,
    "Ġcustom": 5078,
    "absolute": 17122,
    "Ġ48": 24080,
    "Ġirritated": 17242,
    "Ġporpoise": 7106,
    "Ġinjuring": 24268,
    "dawson": 26128,
    "superiority": 20184,
    "Ġcharmingly": 24221,
    "ishments": 9272,
    "Ġcasually": 25093,
    "Ġbon": 8785,
    "Ġliquid": 22406,
    "Ġdraw": 3670,
    "hauteur": 26391,
    "Ġslopes": 18940,
    "teak": 22815,
    "Ġterr": 3275,
    "lic": 17587,
    "Ġsaluted": 14757,
    "repeated": 12337,
    "Ġmodeling": 2094,
    "Ġpronounce": 16968,
    "Ġincline": 18571,
    "igating": 21696,
    "Ġbodings": 21389,
    "circumst": 5348,
    "lingering": 18601,
    "Ġcensure": 15094,
    "Ġhovel": 8253,
    "Ġdistur": 5312,
    "Ġridiculous": 10628,
    "Ġsarat": 21226,
    "wil": 8395,
    "ifle": 10891,
    "Ġdiscove": 16153,
    "brimming": 23576,
    "reast": 17758,
    "Ġrobust": 1321,
    "rann": 21043,
    "Ġpunctually": 17138,
    "favouring": 24762,
    "Ġfring": 11127,
    "Ġboxed": 24360,
    "Ġpersuasions": 16631,
    "Ġadvisable": 11442,
    "acknowledge": 18468,
    "Ġduration": 20352,
    "Ġhereford": 22874,
    "nui": 20999,
    "Ġburgled": 23655,
    "Ġmarked": 4620,
    "Ġcomprehensiveness": 25072,
    "Ġunresting": 25553,
    "uteness": 17985,
    "Ġcomplain": 6685,
    "aren": 10073,
    "Ġcop": 7579,
    "chorus": 19810,
    "Ġcapital": 7979,
    "gratification": 24348,
    "Ġshipw": 12976,
    "Ġverte": 9440,
    "super": 5942,
    "Ġemblematical": 25788,
    "Ġ134": 24784,
    "itions": 4150,
    "anned": 17839,
    "Ġdisposing": 19373,
    "Ġmonkey": 8225,
    "Ġthoughtless": 16191,
    "beloved": 19459,
    "strang": 11183,
    "Ġdignified": 15595,
    "aul": 6352,
    "crated": 16696,
    "Ġmil": 4255,
    "dancing": 12452,
    "Ġfounded": 8556,
    "Ġdrawn": 4276,
    "Ġbag": 5699,
    "Ġphysical": 7522,
    "Ġperiod": 4005,
    "Ġgen": 5296,
    "Ġaverage": 3140,
    "Ġdust": 5908,
    "mush": 20976,
    "Ġlunging": 24989,
    "itche": 7578,
    "Ġcontemplated": 13463,
    "Ġaffair": 4464,
    "creation": 14805,
    "Ġlocker": 16911,
    "Ġfancy": 3745,
    "Ġnewton": 3532,
    "whe": 1073,
    "Ġthereupon": 18434,
    "Ġnoises": 18373,
    "Ġashamed": 6403,
    "Ġmarlings": 23033,
    "Ġtalker": 23367,
    "Ġeigenvalues": 4998,
    "Ġex": 361,
    "vand": 21107,
    "Ġnewspapers": 17186,
    "Ġlover": 7193,
    "iter": 4391,
    "alo": 7587,
    "Ġdry": 5624,
    "Ġsem": 1876,
    "goldsmith": 20146,
    "Ġvehicle": 20137,
    "Ġbrittle": 22862,
    "Ġindividual": 5744,
    "Ġtattoo": 7359,
    "wretch": 17708,
    "Ġdocile": 19957,
    "Ġxxxi": 24966,
    "Ġdeterminate": 23003,
    "Ġsurprised": 3828,
    "Ġreports": 19084,
    "separation": 25226,
    "Ġscolding": 15199,
    "Ġshoes": 7071,
    "treatment": 20410,
    "Ġplate": 8898,
    "Ġdav": 15587,
    "Ġspaniards": 25555,
    "Ġendeared": 26498,
    "Ġincul": 22547,
    "Ġchewed": 16367,
    "till": 6965,
    "Ġfatal": 5871,
    "Ġfuriously": 9801,
    "Ġstring": 11825,
    "mechanically": 17299,
    "Ġfire": 2333,
    "Ġcomment": 9232,
    "Ġdefined": 11896,
    "Ġhonest": 7287,
    "Ġtrapped": 23075,
    "orte": 14184,
    "Ġungovernable": 20708,
    "Ġ75": 19611,
    "Ġgardiner": 3238,
    "Ġgroup": 2034,
    "intercourse": 14638,
    "Ġeternally": 11369,
    "Ġwhittling": 20698,
    "Ġsmall": 893,
    "Ġgreat": 895,
    "Ġginger": 9210,
    "Ġhideousness": 16915,
    "Ġmounts": 17806,
    "Ġtrumpet": 9573,
    "distraction": 24200,
    "====": 1481,
    "lights": 13204,
    "vius": 23541,
    "Ġexcellent": 4239,
    "Ġcouns": 10520,
    "mad": 5280,
    "oh": 1580,
    "Ġobstin": 14952,
    "Ġanywhere": 8516,
    "admitted": 18091,
    "connect": 1292,
    "Ġpetty": 19594,
    "Ġxiii": 25591,
    "Ġboneless": 19604,
    "observing": 25494,
    "solving": 3100,
    "liament": 16216,
    "drab": 23895,
    "experienced": 15120,
    "poss": 4778,
    "Ġalluding": 18269,
    "Ġdecide": 9285,
    "Ġensemble": 1611,
    "Ġstrenuously": 17447,
    "Ġwoven": 9925,
    "Ġwinds": 5746,
    "gast": 20870,
    "Ġfails": 13312,
    "Ġpaus": 4299,
    "Ġdispose": 23877,
    "anim": 6522,
    "tried": 13793,
    "Ġthrowing": 6335,
    "Ġinjustice": 9190,
    "ock": 15401,
    "vedale": 22707,
    "saddest": 25527,
    "Ġcells": 13884,
    "Ġattorney": 18627,
    "Ġchronicled": 25328,
    "directly": 13708,
    "Ġsitt": 21216,
    "prom": 6509,
    "athy": 14322,
    "Ġserene": 8166,
    "Ġreceiving": 4882,
    "metal": 24765,
    "ittleness": 22376,
    "Ġvesuvius": 26501,
    "still": 4220,
    "Ġencouragement": 13040,
    "Ġcloudy": 19475,
    "Ġglistened": 20171,
    "Ġguns": 16776,
    "firmly": 20279,
    "Ġsensitivity": 3071,
    "finish": 24384,
    "Ġmermaids": 26170,
    "ull": 1430,
    "Ġdepths": 4326,
    "Ġsubsiding": 23432,
    "Ġinto": 649,
    "Ġunfathom": 14787,
    "amid": 12721,
    "rs": 7807,
    "intelligent": 16844,
    "Ġprevention": 16091,
    "hew": 5364,
    "Ġspoken": 4836,
    "sche": 13012,
    "which": 1710,
    "Ġsketches": 26270,
    "Ġnotorious": 18223,
    "Ġdisplayed": 10608,
    "Ġright": 1504,
    "Ġrussian": 14347,
    "Ġconveys": 16855,
    "Ġcust": 11581,
    "belonged": 25597,
    "wished": 13804,
    "Ġausten": 5880,
    "Ġthirty": 4944,
    "Ġmockery": 12105,
    "Ġelias": 18635,
    "Ġgrenadier": 21613,
    "rels": 6664,
    "skinned": 25387,
    "Ġcandelabra": 26602,
    "Ġrecommence": 16812,
    "onsible": 22559,
    "arter": 17893,
    "vigorous": 25917,
    "Ġtrunks": 15968,
    "Ġskeletons": 16791,
    "Ġray": 18644,
    "Ġstrangled": 24133,
    "istical": 8489,
    "aps": 1230,
    "canallers": 22961,
    "Ġremarking": 13123,
    "Ġkindness": 4098,
    "Ġbounds": 9917,
    "Ġointment": 21324,
    "Ġnocturnal": 20714,
    "Ġsleepy": 8267,
    "mblance": 7323,
    "Ġfarewell": 9519,
    "ribbed": 16409,
    "ambition": 13410,
    "Ġinspire": 11994,
    "Ġbudge": 15163,
    "darker": 24516,
    "Ġmat": 1147,
    "Ġfears": 5729,
    "Ġconsecutive": 20701,
    "keel": 14128,
    "Ġgeorgia": 23884,
    "Ġade": 22101,
    "Ġsalad": 19477,
    "excuse": 13380,
    "Ġuntouched": 16464,
    "Ġextort": 22738,
    "Ġpaunch": 23749,
    "========": 2312,
    "handed": 7482,
    "lighter": 20958,
    "Ġgloom": 4203,
    "Ġclothed": 19605,
    "Ġ109": 24416,
    "Ġpeasants": 12330,
    "Ġworkman": 16261,
    "flinging": 20867,
    "ward": 705,
    "Ġwhalers": 8047,
    "Ġhand": 857,
    ",_": 11462,
    "baggage": 24926,
    "Ġintelligences": 12827,
    "Ġunfeeling": 14117,
    "bureau": 20788,
    "Ġsaleve": 17390,
    "near": 5842,
    "Ġseptember": 18205,
    "stirred": 20423,
    "Ġprograms": 7239,
    "aset": 10832,
    "uplifted": 17695,
    "Ġsmothered": 20719,
    "Ġterminated": 23507,
    "W": 59,
    "fish": 3514,
    "Ġsome": 656,
    "prehens": 9288,
    "Ġjav": 7901,
    "Ġextreme": 2515,
    "promise": 12248,
    "acrity": 14278,
    "metals": 24766,
    "Ġmoonshine": 19596,
    "estinated": 15921,
    "Ġbass": 17855,
    "Ġspanish": 2830,
    "engagements": 25853,
    "Ġoun": 13862,
    "Ġsupervised": 3424,
    "Ġpretension": 23762,
    "bab": 11468,
    "Ġabstained": 25231,
    "rid": 5137,
    "Ġloveliness": 13607,
    "ckery": 22087,
    "Ġath": 15799,
    "adr": 6994,
    "iogn": 20920,
    "tem": 6369,
    "promontory": 24728,
    "Ġbenches": 18780,
    "Ġverge": 23885,
    "Ġxxx": 7766,
    "capable": 13700,
    "business": 5610,
    "Ġstability": 1365,
    "Ġeggs": 12340,
    "Ġtusked": 25426,
    "Ġ83": 24459,
    "Ġdiagon": 24740,
    "shabb": 18495,
    "Ġtaken": 2529,
    "Ġfet": 5807,
    "Ġubiqu": 18046,
    "itives": 17819,
    "Ġaries": 21196,
    "Ġsupplication": 25491,
    "swift": 14851,
    "Ġgreeting": 18963,
    "Ġgrapp": 14100,
    "shazz": 14241,
    "ieth": 10704,
    "ston": 15680,
    "Ġres": 695,
    "Ġang": 2511,
    "Ġbustle": 17227,
    "wooden": 24587,
    "Ġfriesland": 26442,
    "Ġsaintly": 25931,
    "Ġintervened": 25481,
    "andering": 21864,
    "idelburgh": 10560,
    "Ġauthentic": 20534,
    "Ġpredecessor": 26252,
    "Ġblasphemy": 26115,
    "Ġoverwhelmed": 11403,
    "Ġofficer": 6753,
    "canoes": 16228,
    "fit": 6645,
    "danced": 20827,
    "Ġreminded": 9998,
    "Ġrely": 8820,
    "mouth": 9130,
    "Ġknocking": 10559,
    "Ġstingy": 25455,
    "Ġgree": 7594,
    "Ġsmote": 18576,
    "wor": 3414,
    "Ġsharply": 9402,
    "Ġrising": 4356,
    "Ġjar": 15948,
    "Ġincorrupt": 19234,
    "Ġequator": 7461,
    "Ġjam": 10951,
    "stir": 12670,
    "Ġasylum": 13665,
    "thirst": 15823,
    "Ġdark": 2111,
    "Ġsounding": 8264,
    "timidity": 25753,
    "Ġdiscompose": 25579,
    "Ġofficers": 4426,
    "Ġbeseeching": 26311,
    "vess": 7354,
    "Ġsells": 21222,
    "Ġresolves": 23649,
    "Ġfragment": 14522,
    "Ġdwell": 5812,
    "clam": 13052,
    "Ġprinc": 4201,
    "Ġbringing": 5869,
    "Ġconflict": 17273,
    "Ġglove": 14491,
    "family": 7324,
    "Ġghosts": 12230,
    "warmest": 25027,
    "Ġtrifled": 24674,
    "Ĵ": 245,
    "Ġvaulted": 25167,
    "Ġhumbled": 16195,
    "dee": 11730,
    "Ġcrosses": 23059,
    "compared": 24030,
    "oke": 1859,
    "Ġtiger": 11554,
    "bow": 5424,
    "malicious": 19901,
    "Ġdinnertime": 16719,
    "lod": 15377,
    "glo": 8737,
    "Ġneglig": 18878,
    "ip": 557,
    "Ġbefall": 8828,
    "Ġblame": 6446,
    "crack": 19839,
    "Ġcork": 12566,
    "Ġparsonage": 7123,
    "Â": 131,
    "Ġunshored": 25813,
    "Ġlob": 7627,
    "win": 6801,
    "Ġ20": 8613,
    "ensation": 22543,
    "speaking": 12096,
    "Ġdisdained": 15009,
    "Ġforcibly": 10060,
    "Ġfeigned": 22206,
    "esu": 17918,
    "Ġscaling": 3631,
    "Ġinfrequent": 3822,
    "Ġsmitten": 12896,
    "ocity": 8277,
    "sufficient": 6635,
    "Ġsucceeding": 16761,
    "dear": 6555,
    "is": 280,
    "Ġdarkened": 16431,
    "Ê": 139,
    "Ġskulls": 12957,
    "instant": 8651,
    "Ġintentions": 10607,
    "Ġdiadem": 24741,
    "braid": 17494,
    "Ġobsequious": 17403,
    "aimed": 3952,
    "Ġservices": 11217,
    "Ġadvance": 5484,
    "ellation": 12747,
    "onness": 21253,
    "roused": 16652,
    "Ġmichigan": 26427,
    "Ġlouisiana": 25076,
    "Ġindomitableness": 26571,
    "Ġdem": 11673,
    "perai": 10275,
    "Ġimport": 1037,
    "Ġobservation": 6597,
    "Ġwarsaw": 26167,
    "eked": 16400,
    "Ġslip": 8954,
    "exc": 5169,
    "Ġpurpose": 2710,
    "Ġcoal": 18591,
    "Ġgilder": 21610,
    "Ġtwo": 1045,
    "#": 7,
    "Ġsystematically": 3911,
    "Ġfugitives": 25634,
    "conquerable": 17398,
    "Ġgovernment": 15175,
    "ediction": 17944,
    "Ġspoil": 17007,
    "Ġhaw": 10251,
    "crossing": 19409,
    "Ġriv": 10746,
    "Ġdespair": 4012,
    "mean": 6438,
    "strained": 21655,
    "Ġtail": 3090,
    "Ġamput": 16031,
    "bethink": 25744,
    "simp": 17665,
    "Ġ62": 24365,
    "Ġworldly": 16328,
    "Ġintroducing": 11974,
    "Ġindoors": 18835,
    "Ġtermination": 16459,
    "Ġdaunt": 19663,
    "Ġropes": 10748,
    "Ġimmut": 13296,
    "darcy": 5208,
    "Ġcocks": 18593,
    "ma": 1151,
    "Ġglobular": 19009,
    "Ġstubbornness": 25380,
    "generous": 16567,
    "moil": 22700,
    "Ġdrawling": 19435,
    "Ġgraph": 10902,
    "mouthful": 25208,
    "Ġtones": 8399,
    "Ġspl": 2987,
    "baden": 25615,
    "Ġfainted": 8791,
    "uded": 6286,
    "Ġincalculable": 17460,
    "ĭ": 238,
    "Ġspasmod": 12412,
    "advantages": 11271,
    "Ġindisposed": 26287,
    "forbidding": 25836,
    "altogether": 12636,
    "Ġinsist": 9890,
    "Ġchaos": 17009,
    "prejud": 11794,
    "Ġknows": 4162,
    "Ġdivide": 12108,
    "estone": 18364,
    "Ġerad": 25028,
    "shoulders": 16583,
    "Ġwalton": 14971,
    "Ġfinds": 6299,
    "Ġrecept": 1521,
    "Ġencl": 16164,
    "Ġmisfortune": 5569,
    "heartedness": 24827,
    "Ġswearing": 16463,
    "turbaned": 24532,
    "Ġdraught": 9843,
    "Ġeh": 6987,
    "Ġfoolish": 5979,
    "ires": 6037,
    "ernity": 18615,
    "Ġmarvelled": 18873,
    "suspected": 12370,
    "Ġsignificance": 13279,
    "Ġbul": 3295,
    "Ġplain": 2820,
    "dist": 4482,
    "dough": 15334,
    "etime": 12656,
    "Ġindisp": 18833,
    "doubtful": 24791,
    "asked": 8911,
    "generations": 23784,
    "Ġ\"": 6119,
    "hated": 17561,
    "toller": 20671,
    "Ġrattling": 11395,
    "Ġtroublesome": 23999,
    "redible": 15802,
    "Ġgoat": 16004,
    "name": 6795,
    "Ġrecom": 4556,
    "oin": 17617,
    "destiny": 16702,
    "Ġimpud": 18445,
    "depths": 25663,
    "Ġforehead": 5261,
    "fashioned": 9570,
    "Ġarrives": 23609,
    "boiling": 19000,
    "Ġarthur": 7196,
    "Ġdress": 4022,
    "Ġhugh": 15004,
    "Ġbounding": 19398,
    "ious": 769,
    "coiled": 16485,
    "Ġdetermine": 3245,
    "Ġnorth": 4319,
    "itioned": 22466,
    "marest": 20979,
    "Ġappeared": 2778,
    "amusement": 15281,
    "rugged": 6849,
    "longer": 8612,
    ".--": 20745,
    "Ġoverhear": 15974,
    "beries": 22717,
    "Ġboys": 5194,
    "Ġdressing": 7090,
    "ok": 573,
    "Ġwapping": 21293,
    "onement": 21255,
    "Ġvanquished": 22873,
    "allic": 12810,
    "Ġ110": 24435,
    "c": 71,
    "Ġdescent": 995,
    "no": 890,
    "Ġopera": 23424,
    "Ġviews": 7290,
    "continuance": 19717,
    "measure": 10030,
    "adding": 21756,
    "Ġguided": 10461,
    "Ġleaks": 16447,
    "Ġrange": 9711,
    "task": 13792,
    ").": 1273,
    "Ġscruple": 25048,
    "Ġpensive": 21472,
    "Ġfight": 5366,
    "Ġunique": 12774,
    "itancy": 21331,
    "urity": 8142,
    "Ġsequence": 1975,
    "Ġvacant": 9494,
    "Ġstrand": 11826,
    "ampled": 18884,
    "Ġunspeakable": 10055,
    "Ġspinning": 15052,
    "Ġcomposure": 7217,
    "Ġerecting": 24652,
    "Ġso": 432,
    "Ġseaman": 8638,
    "Ġcommanding": 16589,
    "Ġpublic": 4332,
    "afterwards": 7484,
    "Ġboldly": 9500,
    "omely": 21636,
    "Ġheightens": 24154,
    "lifeless": 24312,
    "Ġretiring": 16279,
    "Ġsimon": 5172,
    "Ġrevelation": 25222,
    "Ġarguments": 8036,
    "Ġtickets": 17094,
    "Ġinserted": 8355,
    "Ġcheeks": 5957,
    "Ġhit": 7163,
    "somebody": 14565,
    "Ġhabitation": 14802,
    "aming": 5828,
    "cater": 20815,
    "Ġdelight": 2551,
    "Ġbusks": 23334,
    "Ġdetestable": 15097,
    "Ġhudson": 15190,
    "Ġfundament": 2926,
    "Ġgifts": 21609,
    "Ġidly": 16402,
    "drew": 7334,
    "extric": 22752,
    "ileries": 18058,
    "Ġalbatross": 10871,
    "Ġextinction": 14335,
    "orient": 2879,
    "Ġnewfoundland": 26569,
    "acific": 4960,
    "Ġpince": 21468,
    "Ġmile": 7151,
    "Ġyarman": 12702,
    "rivial": 9433,
    "Ġpaling": 21459,
    "Ġund": 4121,
    "locked": 7677,
    "heading": 5487,
    "aby": 18106,
    "Ġexam": 3710,
    "Ġmainland": 22652,
    "Ġsibbald": 21229,
    "Ġvincent": 15282,
    "Ġviolin": 16427,
    "pretend": 24882,
    "unning": 4495,
    "adamite": 20591,
    "antee": 22094,
    "Ġatone": 15800,
    "food": 12461,
    "embra": 14073,
    "Ġuncompromised": 20602,
    "Ġby": 383,
    "Ġconcernment": 23646,
    "Ġebony": 18008,
    "Ġpolynesian": 26026,
    "Ġpigeon": 9515,
    "Ġjewell": 19519,
    "opened": 7912,
    "Ġsaloon": 24060,
    "Ġidea": 2487,
    "Ġearls": 18903,
    "screwed": 17187,
    "Ġnet": 3626,
    "Ġdull": 6384,
    "Ġangle": 8602,
    "Ġcompletely": 4860,
    "hearty": 14833,
    "irectly": 6940,
    "Ġbeware": 8827,
    "Ġpen": 1532,
    "Ġsymbolize": 24960,
    "âĢĻ": 378,
    "Ġlanterns": 24577,
    "Ġundoing": 22030,
    "telesc": 22816,
    "Ġner": 1648,
    "Ġbuffalo": 11429,
    "Ġtradesmen": 17105,
    "anx": 8783,
    "Ġstaying": 8283,
    "Ġemerg": 13423,
    "Ġmean": 741,
    "Ġri": 3393,
    "ured": 1655,
    "Ġinteractions": 12900,
    "ilder": 15710,
    "knows": 19171,
    "fatig": 17089,
    "Ġinquire": 7719,
    "ny": 4017,
    "Ġadmirals": 20383,
    "Ġevery": 926,
    "Ġsulky": 13514,
    "ising": 2255,
    "nered": 18488,
    "Ġseeming": 8539,
    "gether": 1597,
    "Ġgrievous": 13259,
    "eager": 12457,
    "Ġwra": 5905,
    "Ġrephrased": 26477,
    "Ġk": 485,
    "python": 4692,
    "scure": 22982,
    "Ġtow": 4395,
    "Ġbackwoods": 22647,
    "Ġastonishment": 4794,
    "holes": 12052,
    "years": 6883,
    "Ġregards": 16075,
    "Ġfling": 9660,
    "Ġdaring": 8120,
    "Ġchinese": 14181,
    "obed": 14445,
    "continually": 11302,
    "hval": 20898,
    "Ġmustard": 12927,
    "Ġbalances": 2340,
    "Ġ102": 24410,
    "sam": 21050,
    "Ġlabours": 8581,
    "ura": 1005,
    "Ġsunwards": 19010,
    "Ġslabs": 13058,
    "Ġtwitch": 22673,
    "Ġpips": 9850,
    "bennet": 5352,
    "Ġmounting": 19975,
    "Ġcrane": 23438,
    "Ġspecimen": 13020,
    "Ġflush": 14423,
    "Ġseeing": 2885,
    "Ġutensils": 23514,
    "ram": 13971,
    "Ġdestitute": 14566,
    "Ġunaccountable": 7885,
    "not": 909,
    "uring": 820,
    "Ġenrapt": 21936,
    "use": 2537,
    "twist": 23700,
    "Ġjoppa": 12034,
    "Ġsubproblems": 12954,
    "Ġdivision": 19442,
    "177": 20751,
    "Ġrippling": 17277,
    "Ġtract": 21164,
    "throughout": 24086,
    "Ġbrew": 23339,
    "Ġperch": 10298,
    "Ġprobable": 5570,
    "pure": 17626,
    "apping": 5851,
    "Ġceaseless": 13487,
    "Ġbritish": 11337,
    "bered": 4506,
    "Ġeccentric": 13648,
    "Ġmish": 15535,
    "vener": 21110,
    "Ġu": 324,
    "Ġhabitual": 24790,
    "Ġsay": 932,
    "Ġfairly": 6325,
    "Ġringleader": 26212,
    "Ġcleaned": 23180,
    "Ġsluggishly": 25891,
    "inion": 2876,
    "Ġrelief": 6059,
    "Ġimperilled": 19577,
    "Ġwaning": 15532,
    "Ġtackles": 8050,
    "Ġaim": 10145,
    "Ġrouse": 15819,
    "Ġgeomet": 3191,
    "charge": 9447,
    "grin": 19105,
    "Ġresolute": 19244,
    "Ġgovern": 10450,
    "Ġweather": 3998,
    "servant": 15035,
    "Ġrecurrent": 1801,
    "Ġpicked": 6341,
    "Ġorthodox": 22092,
    "Ġmoulton": 17434,
    "Ġ47": 14770,
    "act": 787,
    "Ġindel": 13001,
    "Ġgoring": 21601,
    "Ġincisive": 18572,
    "Ġvisiting": 10356,
    "ric": 1378,
    "awakened": 14452,
    "renched": 7906,
    "Ġfri": 17878,
    "Ġtoma": 7373,
    "chance": 6827,
    "Ġcrony": 23439,
    "Ġcranial": 25592,
    "pers": 4336,
    "ming": 3600,
    "follow": 5680,
    "Ġperiodical": 14771,
    "hark": 15364,
    "ited": 1748,
    "hours": 9124,
    "Ġrhone": 25230,
    "Ġscud": 14190,
    "leg": 2817,
    "Ġsparkling": 11356,
    "Ġbenjamin": 26567,
    "Ġcunning": 6238,
    "Ġcountess": 11962,
    "Ġfren": 10805,
    "partly": 14602,
    "collected": 13212,
    "Ġselect": 4000,
    "Ġeulogy": 26471,
    "road": 6677,
    "service": 15036,
    "Ġedinburgh": 16435,
    "sius": 13787,
    "compan": 7301,
    "Ġenticing": 22743,
    "gallery": 24693,
    "Ġinmates": 15620,
    "Ġdesponding": 25868,
    "ĠlinnÃ¦us": 15274,
    "rences": 9271,
    "Ġlances": 6984,
    "Ġjumped": 7096,
    "convul": 24883,
    "Ġbuoyed": 20039,
    "worthy": 7732,
    "iciency": 9574,
    "Ġundulates": 24118,
    "Ġconversations": 9424,
    "Ġlabour": 7274,
    "omuch": 21637,
    "Ġsheep": 10926,
    "poled": 22905,
    "Ġemper": 9860,
    "ural": 505,
    "Ġrelinqu": 12980,
    "Ġpockets": 8896,
    "Ġunrivalled": 26519,
    "warrant": 21136,
    "Ġrepetition": 8972,
    "spades": 14332,
    "ney": 2493,
    "cc": 468,
    "Ġhumiliation": 16197,
    "Ġspires": 11728,
    "frost": 15105,
    "Ġfo": 1653,
    "Ġcronies": 23441,
    "Ġur": 5540,
    "Ġinsinuating": 19270,
    "elev": 12456,
    "Ġclutching": 24951,
    "musical": 25340,
    "private": 13581,
    "connection": 18868,
    "vint": 21113,
    "Ġceleb": 20224,
    "outer": 9668,
    "Ġconsummate": 25310,
    "bitts": 26122,
    "affected": 10476,
    "Ġtongues": 14862,
    "Ġforbe": 8457,
    "Ġmisty": 16539,
    "dient": 441,
    "Ġwings": 9163,
    "Ġcircumst": 2977,
    "Ġprehensile": 26534,
    "Ġconsequently": 8059,
    "Ġdeactivates": 20702,
    "?âĢĻâĢĿ": 23644,
    "Ġsigns": 2443,
    "thin": 14096,
    "Ġsecured": 6745,
    "Ġfeels": 6882,
    "ickering": 22667,
    "smallest": 23909,
    "isson": 23460,
    "asily": 13945,
    "Ġreverence": 12057,
    "Ġflounders": 23012,
    "Ġcrash": 12000,
    "ters": 1575,
    "royal": 11393,
    "Ġseethe": 21953,
    "boxes": 16888,
    "Ġfem": 6134,
    "inarticulate": 21194,
    "concern": 6099,
    "Ġlamented": 24991,
    "Ġintercepted": 25826,
    "Ġcritic": 19124,
    "Ġsyllable": 9727,
    "Ġoperations": 2298,
    "Ġunluckily": 20100,
    "Ġunreasonable": 12773,
    "cest": 12442,
    "joice": 9602,
    "Ġriding": 14093,
    "Ġmrs": 1467,
    "oes": 4435,
    "Ġexertions": 13409,
    "Ġhanded": 8216,
    "Ġmal": 5221,
    "Ġhonour": 3922,
    "etymology": 14700,
    "Ġproved": 4884,
    "Ġthinkings": 22810,
    "Ġcondition": 6764,
    "Ġboomer": 20166,
    "Ġdying": 2134,
    "unmistakable": 21892,
    "Ġstrategies": 1838,
    "against": 5870,
    "aston": 7408,
    "Ġstaircase": 20094,
    "Ġcontract": 18475,
    "contain": 18502,
    "Ġ96": 24592,
    "Ġsought": 5010,
    "Ġpul": 2037,
    "Ġtell": 1468,
    "mering": 12488,
    "interval": 7990,
    "Ġroarings": 25301,
    "Ġanticipated": 13510,
    "Ġsum": 2702,
    "Ġpostp": 12141,
    "eur": 7545,
    "Ġstockings": 19995,
    "Ġpossessed": 5195,
    "Ġsedentary": 25430,
    "cape": 13696,
    "tps": 11534,
    "Ġleaned": 7607,
    "Ġbelt": 13000,
    "Ġwaiter": 16425,
    "Ġforemost": 12003,
    "involved": 25626,
    "odes": 18116,
    "mend": 20965,
    "fail": 17540,
    "Ġflirt": 14422,
    "Ġmalicious": 10557,
    "Ġbeards": 21748,
    "Ġdoct": 4456,
    "Ġissues": 9541,
    "Ġrejoinder": 24597,
    "Ġinhabitant": 19754,
    "Ġassigned": 16309,
    "Ġslightly": 7293,
    "sence": 3307,
    "Ġdelightfully": 13157,
    "fig": 8734,
    "declined": 25174,
    "Ġdiscl": 9796,
    "Ġheaviest": 23321,
    "iss": 2175,
    "Ġadoration": 18292,
    "Ġthousandth": 23683,
    "tenham": 16320,
    "swept": 19785,
    "soon": 4029,
    "Ġfilling": 13407,
    "asion": 5714,
    "Ġopen": 1550,
    "cleanliness": 25871,
    "Ġclair": 6268,
    "ated": 722,
    "Ġmariner": 7247,
    "treacle": 25148,
    "bowing": 24454,
    "eld": 967,
    "Ġhav": 12751,
    "Ġtransparent": 9488,
    "Ġfanned": 19099,
    "Ġunforgiving": 25995,
    "Ġanticipatingly": 26102,
    "tern": 4225,
    "fool": 9047,
    "ibles": 18784,
    "archbishop": 22891,
    "Æ": 135,
    "idable": 8145,
    "Ġchap": 5933,
    "Ġinconvenience": 9563,
    "ouraged": 22859,
    "wand": 10738,
    "Ġlaughter": 9027,
    "Ġbarrens": 25501,
    "urged": 18048,
    "nowhere": 18418,
    "Ġdense": 8122,
    "Ġtone": 4040,
    "bs": 3750,
    "Ġdaylight": 10350,
    "Ġbraced": 16578,
    "imod": 15707,
    "apologizing": 26544,
    "Ġmuhammad": 26169,
    "Ġprying": 15606,
    "Ġrighted": 23176,
    "Ġmaimed": 21315,
    "ashed": 3783,
    "Ġscheming": 23268,
    "fowl": 17549,
    "Ġpropos": 7062,
    "Ġportcull": 23861,
    "Ġdents": 13910,
    "oub": 1637,
    "Ġshall": 1141,
    "Ġdescribing": 19253,
    "Ġalley": 15733,
    "ething": 1604,
    "Ġdrunken": 12048,
    "Ġunknown": 4454,
    "Ġrever": 6536,
    "Ġconver": 807,
    "Ġsinging": 7723,
    "active": 16101,
    "Ġpleasures": 11143,
    "Ġgoodness": 6058,
    "Ġiterate": 13200,
    "employed": 17261,
    "usable": 22286,
    "Ġreasons": 6019,
    "Ġmoral": 6578,
    "Ġsignifies": 19203,
    "lonely": 20956,
    "would": 2351,
    "rendering": 22337,
    "gir": 8082,
    "examine": 25477,
    "rods": 21535,
    "Ġtalking": 3855,
    "Ġsight": 2110,
    "Ġphara": 23196,
    "Ġregions": 10323,
    "Ġsports": 18310,
    "surprising": 16919,
    "castles": 14636,
    "rength": 4103,
    "Ġeldest": 6571,
    "Ġbreaches": 14519,
    "Ġreigns": 21668,
    "uneasiness": 23686,
    "thought": 3846,
    "vo": 11539,
    "Ġbuilding": 8062,
    "Ġpenalizing": 13089,
    "watches": 14946,
    "Ġunsupp": 22016,
    "Ġbradstreet": 9576,
    "distrustful": 26330,
    "Ġtry": 3135,
    "Ġinvention": 19951,
    "althily": 19357,
    "Ġl": 303,
    "Ġmir": 9646,
    "Ġgomorrah": 21612,
    "Ġobserving": 6080,
    "Ġgreenness": 23765,
    "Ġtouches": 20569,
    "Ġhappiest": 11880,
    "Ġabsolute": 6765,
    "Ġbub": 8117,
    "storm": 9681,
    "anatory": 21361,
    "goes": 10426,
    "Ġsteersman": 13039,
    "Ġgenealogies": 25961,
    "Ġgodlike": 23353,
    "Ġgasp": 7172,
    "Ġisolated": 13558,
    "Ġshade": 6550,
    "follows": 24528,
    "Ġpillar": 21470,
    "Ġafric": 8905,
    "Ġstopping": 2751,
    "Ġfounder": 17883,
    "watch": 6118,
    "flagged": 23969,
    "liking": 22921,
    "Ġcombined": 8547,
    "ipotent": 10961,
    "Ġchurches": 12824,
    "faced": 8079,
    "prejudiced": 17296,
    "Ġtis": 15464,
    "unwittingly": 25801,
    "Ġroyal": 5602,
    "Ġankles": 17899,
    "Ġcand": 3278,
    "Ġmacy": 19353,
    "european": 26371,
    "Ġforked": 11663,
    "ssed": 3734,
    "honor": 19899,
    "Ġrecumbent": 22737,
    "Ġmuseum": 15270,
    "stayed": 25290,
    "Ġbree": 5012,
    "perv": 1555,
    "Ġdreaminess": 23937,
    "bular": 15312,
    "Ġcolds": 23756,
    "ened": 1390,
    "Ġwoke": 21288,
    "commanded": 16988,
    "Ġanimal": 2498,
    "Ġnat": 12642,
    "Ġfasting": 16354,
    "programming": 10062,
    "ogany": 18675,
    "Ġoptimization": 1360,
    "Ġeventually": 8616,
    "Ġoffend": 16142,
    "shut": 10981,
    "perceive": 12806,
    "iltrated": 19305,
    "Ġsilly": 7685,
    "Ġaback": 22263,
    "Ġprosperity": 20256,
    "etical": 13957,
    "Ġwharves": 13505,
    "ada": 14010,
    "Ġevenness": 22833,
    "Ġmud": 11572,
    "tender": 14472,
    "omon": 10206,
    "Ġdistinct": 4610,
    "Ġvictory": 16653,
    "Ġheh": 21677,
    "Ġenquired": 21937,
    "Ġhysterical": 26092,
    "Ġconsumed": 10349,
    "inforcement": 3005,
    "Ġrecital": 16140,
    "Ġdam": 2218,
    "Ġbeings": 2490,
    "Ġimparts": 18446,
    "âĢĶâĢĻ": 8187,
    "histor": 13490,
    "Ġpetrified": 19595,
    "Ġhackney": 20431,
    "Ġstup": 14004,
    "inv": 8400,
    "enc": 7574,
    "Ġconvers": 2907,
    "Ġcoward": 7155,
    "iple": 4806,
    "Ġusual": 3943,
    "Ġottoman": 17377,
    "ruin": 22183,
    "fuller": 22483,
    "Ġmarbles": 18872,
    "bulk": 19923,
    "Ġhoisted": 5959,
    "Ġsummoned": 9910,
    "Ġahab": 1214,
    "Ġfuneral": 10282,
    "Ġcalcul": 3637,
    "vity": 7815,
    "annica": 24561,
    "Ġspaces": 3112,
    "Ġtravell": 5576,
    "nder": 20986,
    "archical": 1926,
    "Ġbabel": 24426,
    "oder": 2460,
    "Ġbounce": 21391,
    "erm": 788,
    "Ġwaistcoat": 12268,
    "desol": 13066,
    "Ġcheck": 7271,
    "Ġbulge": 23855,
    "Ġnods": 19061,
    "Ġpaused": 5416,
    "Ġvisits": 8220,
    "Ġdownright": 16116,
    "Ġsteeple": 19286,
    "Ġperemptorily": 17366,
    "bedded": 13226,
    "Ġretired": 6070,
    "arious": 10317,
    "Ġslumbering": 25701,
    "Ġbravely": 23836,
    "men": 1485,
    "Ġprotested": 9933,
    "Ġactions": 6278,
    "Ġcurrent": 13016,
    "punct": 20191,
    "Ġ91": 24589,
    "isc": 6239,
    "Ġpawnbroker": 13657,
    "asiness": 8128,
    "Ġroaring": 10968,
    "cet": 15324,
    "Ġexpressly": 16453,
    "aud": 8521,
    "contains": 16028,
    "Ġcaw": 13882,
    "intelligence": 5882,
    "consider": 6348,
    "Ġterrier": 23395,
    "lie": 12480,
    "Ġnaturally": 2467,
    "Ġtapers": 11551,
    "```": 25893,
    "const": 5938,
    "Ġastir": 14640,
    "screaming": 20324,
    "Ġconcrete": 20635,
    "Ġrinal": 21974,
    "Ġundesired": 12775,
    "Ġhertfordshire": 5377,
    "nav": 17610,
    "iber": 6506,
    "Ġsnowy": 9017,
    "Ġwanting": 6721,
    "Ġwatch": 2745,
    "ppery": 10892,
    "Ġdisgust": 6705,
    "Ġnose": 4402,
    "Ġpiratical": 24801,
    "decoder": 3644,
    "Ġweary": 5635,
    "Ġmission": 13003,
    "told": 7811,
    "Ġcorrid": 9823,
    "telling": 14438,
    "erial": 4632,
    "Ġforg": 3786,
    "impress": 18051,
    "ends": 6038,
    "Ġsashes": 21224,
    "opence": 18507,
    "Ġhosts": 19937,
    "describe": 1513,
    "Ġhair": 3314,
    "aste": 4602,
    "aside": 10191,
    "carpenter": 11427,
    "Ġinjury": 10540,
    "adie": 18088,
    "urday": 13994,
    "Ġcolour": 4462,
    "Ġautumnal": 19032,
    "Ġintrusion": 12762,
    "tremble": 17141,
    "favourite": 15142,
    "Ġforge": 8456,
    "Ġpeered": 18668,
    "anation": 5803,
    "Ġbestow": 6455,
    "Ġhyper": 19738,
    "data": 2181,
    "Ġgoug": 17990,
    "doub": 6223,
    "pendicular": 6499,
    "Ġricher": 12756,
    "Ġpave": 8799,
    "Ġlabyrin": 13102,
    "perhaps": 4124,
    "prev": 12864,
    "Ġliving": 3063,
    "quely": 10231,
    "enance": 3370,
    "Ġallusions": 10909,
    "Ġhospitable": 17059,
    "Ġstrikes": 13180,
    "bury": 9106,
    "Ġgrows": 4985,
    "Ġforever": 14553,
    "Ġfinery": 23122,
    "Ġintolerable": 8481,
    "addressing": 24401,
    "Ġmeanly": 12906,
    "Ġquarter": 3976,
    "trem": 17681,
    "Ġtuning": 3074,
    "Ġreasonable": 7253,
    "Ġimages": 1603,
    "pictures": 15089,
    "antage": 3876,
    "agree": 14066,
    "Ġnetwork": 452,
    "arising": 17895,
    "of": 767,
    "Ġchisel": 20366,
    "Ġtw": 840,
    "Ġbesides": 3512,
    "Ġcommunion": 19007,
    "hot": 8083,
    "str": 2582,
    "remed": 18952,
    "regular": 3043,
    "unt": 2040,
    "ash": 1990,
    "buck": 17490,
    "ĠĠĠĠĠĠĠĠĠĠĠĠĠĠĠĠĠĠĠĠĠĠĠĠĠĠĠĠĠĠĠĠ": 2740,
    "Ġmaterials": 11288,
    "are": 639,
    "Ġasph": 21895,
    "Ġattentive": 9033,
    "Ġwhether": 1998,
    "Ġkinds": 14503,
    "saf": 11524,
    "Ġdeft": 21834,
    "Ġbattery": 21392,
    "paralleled": 14512,
    "Ġavenue": 13620,
    "Ġturtle": 4205,
    "Ġperpet": 7644,
    "Ġflour": 8944,
    "Ġ200": 19295,
    "tattoo": 21086,
    "Ġfidget": 15188,
    "Ġcapabilities": 4377,
    "Ġsant": 21213,
    "Ġhanover": 20584,
    "Ġasser": 6257,
    "ay": 355,
    "Ġpositional": 2601,
    "match": 15389,
    "Ġstrictest": 17042,
    "apple": 22839,
    "Ġmagnitudes": 3820,
    "Ġvexed": 9993,
    "pondicherry": 26400,
    "three": 5239,
    "Ġgpt": 4351,
    "engines": 18927,
    "Ġstructural": 2802,
    "Ġprotruded": 19468,
    "claims": 25319,
    "Ġaffectation": 14440,
    "iner": 2673,
    "Ġbetrayed": 9561,
    "ineas": 15820,
    "showed": 16025,
    "Ġmaids": 19690,
    "us": 532,
    "Ġconsequences": 11335,
    "Ġattempt": 3485,
    "feeders": 25235,
    "Ġwardrobe": 17225,
    "Ġchiswick": 25560,
    "flour": 23963,
    "Ġreptile": 15276,
    "Ġhaggerston": 26452,
    "Ġeager": 3571,
    "Ġsaturation": 2060,
    "Ġworthless": 19564,
    "Ġsailed": 4889,
    "Ġoptimizer": 5035,
    "boast": 23251,
    "Ġsings": 15504,
    "Ġinherited": 25353,
    "Ġtrees": 4204,
    "used": 3261,
    "Ġgre": 1585,
    "Ġinstruct": 2865,
    "iliation": 10860,
    "assisted": 22304,
    "Ġbedrooms": 19968,
    "extracts": 22755,
    "Ġstout": 6024,
    "Ġquietude": 19358,
    "Ġflatt": 16246,
    "Ġclimate": 9274,
    "kindled": 16660,
    "constantly": 24606,
    "Ġcakes": 13883,
    "stands": 22427,
    "Ġcentre": 5123,
    "Ġoccurs": 1856,
    "odings": 4399,
    "Ġoak": 6128,
    "rushed": 10584,
    "bro": 4035,
    "idirectional": 2422,
    "ace": 716,
    "Ġgripping": 26186,
    "Ġhol": 1181,
    "Ġprudential": 17917,
    "calm": 8934,
    "Ġengine": 1919,
    "Ġreproofs": 24892,
    "Ġphysiogn": 12386,
    "k": 79,
    "Ġwonder": 2116,
    "Ġcrazed": 19174,
    "Ġrebell": 21666,
    "discharging": 26305,
    "eties": 10837,
    "refusal": 24736,
    "Ġdiversion": 17197,
    "Ġwitty": 21291,
    "Ġfalsely": 20580,
    "Ġfastidious": 14492,
    "Ġanswerable": 23469,
    "present": 1136,
    "between": 5071,
    "oul": 4699,
    "sens": 8096,
    "[_": 5131,
    "Ġcustoms": 19651,
    "Ġdireful": 11018,
    "Ġagonies": 14251,
    "belais": 24035,
    "Ġadorned": 15246,
    "Ġwrench": 12554,
    "Ġczar": 12571,
    "Ġgleaming": 24993,
    "civilities": 24971,
    "Ġbordeaux": 24564,
    "Ġactively": 18654,
    "ene": 2167,
    "Ġchatting": 24747,
    "Ġmuttering": 10499,
    "_),": 7125,
    "Ġbequeathed": 20700,
    "Ġintelligently": 4008,
    "utch": 21583,
    "Ġcomputation": 964,
    "burned": 25079,
    "Ġdiffers": 23779,
    "Ġmotion": 4567,
    "Ġadroit": 26000,
    "Ġuplifted": 11646,
    "Ġphr": 2683,
    "Ġpresentiment": 18989,
    "Ġrevived": 11368,
    "youth": 11873,
    "principal": 20659,
    "Ġrefers": 1566,
    "Ġwheelbarrow": 17204,
    "humoredly": 26324,
    "Ġservants": 6611,
    "plain": 1361,
    "Ġcaves": 15551,
    "mil": 13751,
    "Ġengravings": 15064,
    "¤": 102,
    "complete": 15034,
    "Ġsurrender": 16449,
    "idly": 12697,
    "Ġhedges": 19983,
    "ferent": 4196,
    "screen": 22990,
    "zetts": 17714,
    "Ġrevers": 21661,
    "belongs": 25596,
    "Ġvictor": 5125,
    "Ġjackets": 19601,
    "confused": 19643,
    "grace": 5846,
    "petulance": 24299,
    "bb": 2804,
    "Ġsecrecy": 7316,
    "Ġincarnation": 25573,
    "hosmer": 25902,
    "alogue": 25159,
    "antically": 22093,
    "Ġorigin": 4122,
    "Ġdiscomposure": 20377,
    "Ġflights": 24753,
    "Ġdriven": 6198,
    "Ġkneeling": 12140,
    "eldest": 22800,
    "Ġabomin": 8188,
    "punishment": 15144,
    "Ġexciting": 23307,
    "Ġret": 1382,
    "Ġpope": 11600,
    "hement": 13831,
    "Ġdevilish": 11228,
    "disgraceful": 26076,
    "Ġtop": 2471,
    "Ġconsequence": 5542,
    "Ġdepicting": 22604,
    "igms": 3047,
    "Ġcontented": 9755,
    "Ġ67": 19659,
    "inspect": 11558,
    "Ġbrief": 6976,
    "joy": 3335,
    "Ġconceit": 7295,
    "observation": 17269,
    "iors": 9125,
    "Ġpanted": 21469,
    "Ġforemast": 12004,
    "wreck": 21135,
    "Ġyoke": 18095,
    "Ġnoting": 18221,
    "expectant": 24275,
    "Ġsingled": 23770,
    "ientific": 6547,
    "Ġfortunate": 6214,
    "Ġever": 1179,
    "Ġstraps": 19309,
    "Ġtuples": 13476,
    "Ġsurve": 9873,
    "Ġoceans": 7995,
    "sy": 2688,
    "Ġo": 275,
    "filled": 9594,
    "Ġmap": 2393,
    "herds": 22200,
    "Ġcareless": 11119,
    "Ġtorn": 5999,
    "believe": 8303,
    "silver": 19689,
    "Ġconstru": 19068,
    "Ġcont": 619,
    "tumultuous": 20397,
    "Ġpeeped": 10011,
    "Ġdisciple": 22779,
    "Ġseem": 913,
    "ĠĠĠĠĠĠĠĠĠĠĠĠĠĠĠĠĠĠĠĠĠĠĠĠĠĠĠĠĠĠĠĠĠĠĠĠĠĠĠĠĠĠĠĠĠĠĠĠĠ": 20036,
    "Ġcosy": 13130,
    "Ġheroic": 14907,
    "them": 3022,
    "Ġspeaker": 19148,
    "Ġproceeding": 9905,
    "Ġspurned": 12794,
    "fere": 10989,
    "Ġow": 8407,
    "saving": 21058,
    "started": 10845,
    "Ġcottages": 14726,
    "Ġmagnetic": 17240,
    "Ġmounttop": 19976,
    "Ġhemp": 9215,
    "ding": 1232,
    "deli": 15343,
    "_:": 17478,
    "Ġseemed": 1279,
    "finer": 17546,
    "fering": 17542,
    "Ġdeficiencies": 26570,
    "Ġaffect": 1387,
    "Ġboa": 22634,
    "Ġrector": 21673,
    "character": 6331,
    "sharp": 10306,
    "wing": 2520,
    "sch": 21049,
    "ishe": 13890,
    "Ġforbid": 7864,
    "Ġscru": 8190,
    "Ġabased": 22265,
    "ĠĠĠĠĠĠĠĠĠĠĠĠĠĠĠĠĠĠĠĠĠĠĠĠĠĠĠ": 14885,
    "Ġvancou": 22872,
    "Ġharpooning": 23976,
    "safety": 20348,
    "Ġfunction": 586,
    "Ġpaddled": 20200,
    "sympathy": 20541,
    "Ġamazing": 9976,
    "Ġshank": 21994,
    "igators": 18044,
    "Ġbows": 4085,
    "Ġwhich": 502,
    "listen": 13513,
    "ompl": 4537,
    "truck": 15440,
    "Ġlikeness": 11179,
    "Ġsubsisting": 23433,
    "Ġfright": 3795,
    "Ġinev": 10181,
    "Ġdownstream": 3774,
    "Ġgamesome": 17289,
    "Ġregardless": 19323,
    "Ġsmokes": 22557,
    "Ġexceptions": 13228,
    "atious": 10151,
    "Ġpopulous": 16826,
    "Ġsincer": 13063,
    "Ġgrease": 26189,
    "Ġattitude": 8903,
    "ationally": 15702,
    "Ġlevel": 5020,
    "ouncing": 8494,
    "superst": 11325,
    "^": 66,
    "Ġvague": 6406,
    "Ġirene": 8443,
    "ugl": 23284,
    "will": 1968,
    "Ġarri": 2556,
    "Ġswiss": 18882,
    "utarch": 15659,
    "fanning": 20865,
    "Ġrobins": 16238,
    "see": 3048,
    "moon": 10335,
    "ġ": 226,
    "Ġcensus": 15095,
    "Ġfollowing": 4063,
    ",âĢĶ": 3171,
    "Ġsqueezing": 25006,
    "Ġcultured": 25154,
    "Ġtallest": 15473,
    "compliment": 11364,
    "Ġjeroboam": 10600,
    "Ġcellar": 8058,
    "tart": 21066,
    "Ġattractions": 12915,
    "atha": 6572,
    "Ġreasonably": 11091,
    "glue": 17556,
    "repeat": 25151,
    "supplemental": 25874,
    "Ġannouncement": 14832,
    "Ġcrime": 4617,
    "Ġspectacle": 10496,
    "gin": 4930,
    "ella": 12746,
    "Ġpatient": 6893,
    "Ġprec": 2919,
    "persuade": 13532,
    "gal": 15354,
    "rison": 13778,
    "Ġdesperately": 24656,
    "Ġislands": 6766,
    "hint": 12473,
    "Ġthrew": 3973,
    "Ġsl": 1497,
    "agger": 7871,
    "disaster": 23491,
    "Ġsplice": 19308,
    "overing": 6306,
    "!--": 10677,
    "abular": 4762,
    "Ġdisk": 22519,
    "Ġearthy": 23711,
    "aton": 21257,
    "Ġban": 7156,
    "Ġsanctioned": 26349,
    "Ġpitchpoling": 14910,
    "aces": 2067,
    "Ġspectre": 16630,
    "ubl": 3595,
    "Ġmonotonically": 3831,
    "Ġbarrel": 23790,
    "Ġmexico": 15279,
    "Ġcombat": 16184,
    "saturday": 14857,
    "Ġimpetuous": 25570,
    "Ġmoodily": 19833,
    "Ġpoisoned": 24886,
    "presbyter": 20616,
    "Ġobserver": 11987,
    "horner": 23616,
    "occur": 19574,
    "Ġsimpl": 1582,
    "Ġguide": 3215,
    "Ġsink": 4341,
    "kicked": 20942,
    "steering": 16635,
    "Ġiteratively": 3058,
    "Ġceremony": 8360,
    "Ġsolicit": 22884,
    "Ġwhaleboats": 18478,
    "grief": 13730,
    "Ġsent": 1771,
    "Ġinanimate": 13932,
    "granting": 23412,
    "Ġinvestigated": 25386,
    "Ġagencies": 18541,
    "Ġhip": 17920,
    "amples": 1821,
    "Ġwhitting": 18055,
    "Ġfaintly": 14914,
    "Ġexhilarating": 26337,
    "Ġretained": 7173,
    "indispensable": 14212,
    "gress": 2216,
    "forecastle": 10990,
    "Ġpossession": 5589,
    "Ġpositions": 2053,
    "Ġashore": 5351,
    "ado": 11657,
    "Ġinput": 609,
    "Ġdevotion": 22713,
    "slept": 17169,
    "sn": 7138,
    "seamen": 13625,
    "Ġtutored": 20126,
    "ogue": 9784,
    "Ġbrute": 8925,
    "tim": 13790,
    "Ġaver": 1286,
    "Ġthyself": 6602,
    "Ġrender": 8304,
    "flo": 6114,
    "Ġatonement": 21939,
    "wreat": 21126,
    "Ġproportions": 16466,
    "Ġproud": 5654,
    "Ġhanding": 16128,
    "ete": 9203,
    "bat": 8071,
    "Ġbelieving": 8224,
    "Ġ105": 24413,
    "Ġperish": 8874,
    "Ġslaugh": 18937,
    "blu": 12438,
    "Ġexcessively": 9439,
    "Ġapparatus": 24908,
    "Ġdeficient": 18824,
    "Ġmanx": 7904,
    "Ġnovelist": 24777,
    "Ġsurprising": 14597,
    "Ġsingularly": 12146,
    "ject": 875,
    "har": 20889,
    "olerable": 7182,
    "deployment": 26527,
    "Ġstrict": 7221,
    "aire": 10680,
    "estations": 22225,
    "Ġresembles": 25969,
    "Ġerroneous": 17408,
    "depart": 12263,
    "obstructed": 15225,
    "hertfordshire": 10936,
    "Ġdexterously": 25295,
    "Ġjac": 1897,
    "thar": 18217,
    "Ġvoids": 25807,
    "Ġmark": 2330,
    "Ġpend": 15603,
    "Ġenraptured": 26500,
    "Ġpie": 13914,
    "Ġsen": 9156,
    "Ġtobacc": 7852,
    "Ġcooped": 22579,
    "discredit": 24250,
    "athans": 7433,
    "Ġresponsible": 9885,
    "Ġrefusal": 10345,
    "Ġdomes": 23592,
    "Ġpantheistic": 26335,
    "Ġdeploy": 2972,
    "cripp": 20818,
    "Ġintrodu": 1924,
    "spermaceti": 12191,
    "Ġdegenerating": 25799,
    "Ġrum": 5923,
    "Ġecho": 12665,
    "Ġameric": 3851,
    "Ġentropy": 2028,
    "Ġnature": 2540,
    "Ġframed": 19072,
    "Ġsnow": 3705,
    "Ġadvis": 9809,
    "Ġanxiety": 5408,
    "loss": 22504,
    "Ġsalt": 8016,
    "Ġdespondence": 25869,
    "Ġprev": 6264,
    "Ġreiter": 21663,
    "Ġanteced": 26177,
    "Ġsgd": 3131,
    "deepest": 22801,
    "Ġmorphology": 3013,
    "Ġfanny": 23387,
    "ittarius": 22377,
    "perpetually": 20510,
    "bly": 6110,
    "whispered": 20032,
    "Ġharpoon": 3616,
    "Ġdeprec": 15755,
    "Ġcalm": 3447,
    "Ġignorant": 5343,
    "Ġsnatch": 14639,
    "Ġloose": 4649,
    "astrous": 15884,
    "village": 25422,
    "retrie": 18922,
    "!)": 10068,
    "ff": 461,
    "ounder": 11742,
    "dwell": 15340,
    "matic": 4619,
    "Ġecon": 9677,
    "itically": 21328,
    "Ġer": 8104,
    "âĢľâĢĺ": 1483,
    "Ġgardener": 19134,
    "earn": 10696,
    "Ġsemicircular": 26068,
    "utes": 5913,
    "Ġcosmopol": 16454,
    "ref": 6515,
    "rigible": 24931,
    "Ġshouting": 10522,
    "Ġapproved": 16039,
    "ssing": 3807,
    "Ġexclusion": 19394,
    "Ġezek": 18009,
    "Ġfluffy": 19362,
    "Ġunst": 18235,
    "sheet": 16284,
    "aked": 2013,
    "Ġindignantly": 16939,
    "algorithm": 4141,
    "chors": 11643,
    "bitterly": 20336,
    "Ġpairs": 4183,
    "Ġlessen": 14531,
    "rifice": 12501,
    "Ġarmchair": 8270,
    "Ġpicturesqueness": 24480,
    "Ġsnows": 14725,
    "Ġteneriffe": 26414,
    "Ġsimul": 1806,
    "devoted": 20015,
    "Ġcontin": 5382,
    "Ġreeling": 18032,
    "Ġtreatise": 19343,
    "bloom": 24689,
    "Ġsust": 7007,
    "school": 10054,
    "Ġconvolutions": 21804,
    "Ġlye": 21548,
    "Ġspear": 9313,
    "che": 3172,
    "Ġaudibly": 24771,
    "Ġcharley": 19005,
    "Ġvainly": 9923,
    "Ġmary": 3841,
    "icular": 2020,
    "leave": 7837,
    "Ġbir": 17853,
    "Ġsequential": 2130,
    "officers": 10627,
    "ĠĠĠĠĠĠĠĠĠĠĠĠĠ": 22560,
    "Ġtainted": 21169,
    "Ġbewitching": 25976,
    "Ġbars": 13896,
    "hen": 3516,
    "fav": 6646,
    "racing": 21628,
    "metic": 14983,
    "alle": 1293,
    "Ġreservoir": 20650,
    "Ġsheath": 14151,
    "Ġwithout": 1120,
    "stays": 15686,
    "ription": 5676,
    "morn": 20975,
    "Ġpermanent": 13630,
    "Ġfolding": 19726,
    "sleeve": 26108,
    "Ġlucy": 17969,
    "Ġdisordered": 16053,
    "Ġalthough": 4153,
    "Ġunsc": 22009,
    "Ġbuff": 9172,
    "Ġtou": 15465,
    "Ġbanking": 19629,
    "por": 2148,
    "Ġ93": 24591,
    "Ġtimidly": 11338,
    "conduct": 11795,
    "Ġprof": 2461,
    "Ġwine": 6810,
    "Ġaccumulating": 2724,
    "Ġschemes": 11131,
    "Ġconjured": 25099,
    "harpoon": 9490,
    "Ġbulk": 5591,
    "Ġcollections": 22857,
    "Ġmalice": 7152,
    "Ġcongratulations": 10580,
    "Ġthieves": 15633,
    "Ġbade": 9171,
    "Ġcrossing": 7252,
    "accomp": 10456,
    "doms": 20834,
    "Ġ1836": 25721,
    "Ġmarvels": 11084,
    "Ġsally": 15501,
    "Ġnightfall": 23127,
    "Ġmanoir": 22328,
    "young": 7321,
    "Ġpity": 4941,
    "Ġtales": 10141,
    "Ġid": 1909,
    "acked": 10973,
    "Ġseeking": 7035,
    "Ġconfirming": 25321,
    "been": 3344,
    "Ġcommun": 1708,
    "Ġbatt": 13898,
    "Ġthankful": 14737,
    "ye": 1405,
    "Ġwhichever": 13999,
    "Ġsummary": 19402,
    "Ġreel": 9213,
    "Ġdearer": 14050,
    "inaw": 21182,
    "Ġdescription": 7429,
    "ine": 406,
    "Ġsi": 21211,
    "loo": 10319,
    "Ġdat": 497,
    "Ġmoored": 11790,
    "Ġprompted": 23814,
    "Ġbreakfast": 3975,
    "ometer": 19325,
    "Ġgra": 415,
    "want": 8765,
    "Ġmariners": 6067,
    "minutely": 19592,
    "Ġexplaining": 15958,
    "Ġpillows": 24986,
    "Ġdidn": 4363,
    "Ġpromptly": 23815,
    "Ġexisting": 12715,
    "olera": 21831,
    "Ġknock": 9972,
    "same": 5361,
    "Ġpure": 6137,
    "more": 1035,
    "gle": 20868,
    "Ġpoint": 2052,
    "Ġstat": 1491,
    "Ġalbertus": 25648,
    "success": 6710,
    "Ġinspection": 14544,
    "Ġabundance": 17155,
    "Ġoutrid": 22312,
    "Ġjud": 3357,
    "Ġprogram": 12989,
    "Ġtypewritten": 16419,
    "polar": 24583,
    "veil": 18045,
    "Ġinflex": 20633,
    "Ġspectrum": 4475,
    "Ġthroat": 7770,
    "rmsprop": 4523,
    "Ġdrow": 21424,
    "Ġwond": 3939,
    "Ġgryphon": 4300,
    "Ġlysander": 13138,
    "Ġmors": 17801,
    "Ġjapanese": 10632,
    "Ġchamounix": 14863,
    "tw": 2815,
    "Ġdwelling": 7322,
    "midnight": 14901,
    "Ġju": 10286,
    "atiable": 17774,
    "Ġsick": 4693,
    "proceed": 8976,
    "Ġprogressive": 5024,
    "Ġanchors": 12610,
    "ĠcÃ¦": 15552,
    "Ġcrate": 19122,
    "Ġtold": 2186,
    "Ġwreath": 25936,
    "fortun": 3538,
    "urpation": 16299,
    "Ġbeer": 10219,
    "Ġattract": 11832,
    "Ġparallelization": 3429,
    "snatched": 24850,
    "att": 1456,
    "Ġeven": 1028,
    "Ġmagician": 25058,
    "Ġletter": 2200,
    "Ġgrass": 5177,
    "Ġleast": 2063,
    "Ġtangle": 25760,
    "Ġfoss": 9848,
    "leviathans": 19936,
    "represented": 20194,
    "Ġslaves": 23164,
    "£": 101,
    "â": 163,
    "Ġproduces": 2092,
    "Ġ1": 1015,
    "Ġventilator": 8713,
    "Ġseasoned": 24405,
    "Ġvapors": 19907,
    "Ġvane": 22871,
    "copyright": 5277,
    "Ġminus": 18750,
    "Ġbeauty": 3769,
    "self": 616,
    "Ġrejoicing": 13420,
    "ands": 21863,
    "Ġcell": 6237,
    "Ġ77": 24263,
    "Ġbreaks": 13182,
    "ional": 1085,
    "osque": 22259,
    "Ġprogeny": 17387,
    "Ġinvolves": 1146,
    "Ġimprisonment": 22384,
    "Ġprestige": 22233,
    "Ġcompression": 18145,
    "Ġnodding": 23330,
    "Ġtrifle": 10601,
    "Ġunerring": 15845,
    "Ġforgot": 4684,
    "Ġhalloa": 13315,
    "Ġincreas": 1696,
    "Ġcontemplate": 19891,
    "rimsh": 17027,
    "Ġhipp": 21489,
    "doublo": 24660,
    "undertaking": 23786,
    "Ġpred": 666,
    "Ġacknowledged": 7534,
    "impatient": 13639,
    "Ġunimaginable": 15245,
    "holland": 24038,
    "achel": 7032,
    "utmost": 21585,
    "Ġinfirm": 19016,
    "ript": 4155,
    "nes": 6961,
    "Ġbob": 22635,
    "ack": 610,
    "Ġunmanner": 22024,
    "Ġtoo": 1165,
    "Ġhogshead": 26367,
    "Ġfringe": 17271,
    "Ġhasn": 12924,
    "origin": 7581,
    "gressive": 2755,
    "Ġtrop": 7565,
    "Ġdiction": 8794,
    "Ġbecher": 18879,
    "produced": 25414,
    "sorting": 17004,
    "Ġdesolated": 24812,
    "paint": 21017,
    "governed": 25405,
    "bucket": 17493,
    "Ġinferred": 14499,
    "Ġthoughtful": 16190,
    "Ġprocured": 8676,
    "Ġbroke": 5322,
    "Ġlobsters": 13516,
    "Ġthrice": 10575,
    "Ġobstinacy": 17420,
    "odecim": 9831,
    "ility": 624,
    "hilar": 25081,
    "Ġpsychology": 11448,
    "Ġregent": 18597,
    "Ġeveryday": 22769,
    "Ġcontemplative": 19892,
    "Ġwebster": 20160,
    "expose": 23663,
    "Ġidle": 8252,
    "Ġbirds": 5873,
    "Ġsees": 8842,
    "vine": 10734,
    "Ġconsulting": 13428,
    "Ġapplied": 6186,
    "indisc": 22373,
    "Ġcommentaries": 20159,
    "Ġdecks": 6900,
    "Ġcatastrop": 3347,
    "collar": 19327,
    "Ġmonster": 3792,
    "Ġsadly": 7302,
    "Ġhearse": 10420,
    "signed": 21060,
    "alliance": 22197,
    "dozen": 23374,
    "abode": 21788,
    "inform": 10143,
    "Ġirrevoc": 15038,
    "Ġaccurately": 4102,
    "======================================================================": 10067,
    "ilities": 6991,
    "Ġswashing": 23053,
    "possessed": 9527,
    "Ġmorbidness": 20627,
    "Ġgenerously": 22396,
    "aments": 12722,
    "expected": 5780,
    "Ġdeceived": 6544,
    "Ġgenteel": 19979,
    "Ġconvul": 13202,
    "Ġdivulged": 16648,
    "Ġguiltless": 16940,
    "Ġimpossible": 3543,
    "glim": 19363,
    "Ġfinger": 5273,
    "patter": 4337,
    "Ġgentlemanly": 19315,
    "loun": 17588,
    "dipped": 20836,
    "savage": 15074,
    "nin": 17608,
    "Ġshells": 20362,
    "tically": 3391,
    "Ġvernal": 23886,
    "Ġwh": 328,
    "hold": 3983,
    "Ġrepl": 1595,
    "Ġhero": 5715,
    "jo": 3751,
    "attendants": 25495,
    "Ġsuppressing": 23000,
    "Ġlivelihood": 24774,
    "ippi": 20243,
    "ulgent": 18149,
    "il": 329,
    "Ġnameless": 7699,
    "cham": 10853,
    "accomplished": 17211,
    "Ġpurposely": 10444,
    "stool": 23817,
    "Ġweights": 897,
    "loaded": 22508,
    "Ġtahit": 10754,
    "interchange": 23737,
    "Ġpitiable": 9913,
    "Ġcoils": 9303,
    "Ġgrow": 2861,
    "Ġstarbuck": 2197,
    "mediate": 16513,
    "Ġcheerfulness": 10516,
    "allowance": 16824,
    "Ġshaping": 22000,
    "Ġsordid": 26422,
    "angu": 571,
    "Ġdesperado": 19818,
    "verb": 10216,
    "Ġarsacides": 17293,
    "Ġcheerily": 13306,
    "Ġbetokened": 18798,
    "Ġforgiven": 24024,
    "Ġconvincing": 19307,
    "Ġembeddings": 2193,
    "Ġben": 1108,
    "Ġheavenly": 12082,
    "Ġgaining": 9491,
    "vering": 15713,
    "Ġconcluding": 9856,
    "hundreds": 25073,
    "Ġgarden": 3824,
    "possess": 5983,
    "Ġpawn": 12062,
    "Ġlovely": 4710,
    "Ĭ": 237,
    "Ġostent": 13583,
    "Ġwithin": 2160,
    "spoke": 11023,
    "Ġbored": 16103,
    "Ġengaged": 3428,
    "Ġslighted": 16566,
    "Ġprofessor": 11230,
    "Ġhopeless": 7463,
    "Ġimpertinent": 9077,
    "Ġrealised": 18981,
    "interest": 5421,
    "Ġprayed": 16667,
    "Ġstumbling": 21739,
    "Ġket": 18347,
    "Ġracket": 22656,
    "performances": 26006,
    "Ġliberality": 24377,
    "scot": 14415,
    "Ġjacobians": 2893,
    "Ġclosest": 16763,
    "Ġdestroy": 5772,
    "Ġgladness": 16590,
    "bons": 17486,
    "Ġtyp": 1130,
    "Ġsexes": 25168,
    "squ": 7809,
    "Ġcounted": 12137,
    "ravelled": 18014,
    "Ġbountiful": 25944,
    "Ġwhites": 21714,
    "Ġemploying": 23975,
    "Ġdragon": 14943,
    "conclude": 24064,
    "Ġdagger": 21435,
    "tanh": 5204,
    "Ġfid": 10803,
    "ructed": 7030,
    "G": 43,
    "Ġyaw": 18094,
    "aying": 15747,
    "ogr": 18673,
    "frantic": 24283,
    "adel": 15726,
    "olly": 3225,
    "bordered": 17498,
    "unbounded": 21882,
    "Ġmisgiv": 14342,
    "ile": 520,
    "Ġpractised": 23312,
    "Ġmentioned": 4329,
    "Ġdevoutly": 25832,
    "Ġpers": 1357,
    "Ġprophesy": 26061,
    "assault": 22303,
    "Ġpoets": 11819,
    "Ġfarm": 7840,
    "Ġsturgeon": 20590,
    "Ġbiography": 22764,
    "Ġod": 4440,
    "gies": 13725,
    "Ġdistinguishing": 16496,
    "Ġindulgence": 11319,
    "Ġinvolving": 18772,
    "Ġslewed": 23381,
    "umed": 6554,
    "aint": 2544,
    "Ġbrigs": 20321,
    "Ġmould": 6519,
    "rush": 7010,
    "Ġindisc": 16226,
    "Ġcompassion": 6487,
    "Ġgravely": 7882,
    "lengths": 24846,
    "Ġflowing": 14409,
    "Ġiii": 7860,
    "one": 615,
    "liberal": 26281,
    "resum": 17761,
    "Ġbrotherhood": 23669,
    "satisfy": 16892,
    "Ġobliged": 4286,
    "owl": 12680,
    "Ġquenched": 22414,
    "apply": 18759,
    "Ġtows": 19561,
    "day": 1857,
    "Ġframe": 2055,
    "conf": 4957,
    "enced": 4296,
    "Ġintru": 15825,
    "ool": 17618,
    "through": 4025,
    "Ġpauses": 14814,
    "Ġbutler": 18270,
    "forty": 9373,
    "waist": 13417,
    "ns": 752,
    "Ġassented": 17337,
    "lover": 18536,
    "Ġslaught": 23166,
    "istrate": 7406,
    "Ġglided": 7447,
    "Ġadditionally": 1174,
    "oud": 1941,
    "otes": 15741,
    "vation": 4744,
    "Ġpiping": 23247,
    "Ġgamb": 17997,
    "merit": 19280,
    "uccas": 21105,
    "Ġseek": 4510,
    "ierce": 14391,
    "Ġbrick": 8924,
    "Ġbaker": 4696,
    "atement": 17773,
    "Ġdisgrace": 7215,
    "Ġpurporting": 19181,
    "Ġdifferent": 1427,
    "Ġpatted": 16370,
    "equ": 6790,
    "dogs": 25402,
    "twas": 15436,
    "unerative": 21893,
    "Ġesq": 15107,
    "Ġawake": 8271,
    "Ġshoe": 14567,
    "overcome": 19048,
    "etence": 21574,
    "Ġ49": 24081,
    "Ġattributed": 11833,
    "Ġgot": 2280,
    "Ġdate": 7841,
    "plentiful": 21959,
    "Ġpods": 17912,
    "Ġii": 7384,
    "Ġquoted": 22412,
    "Ġblend": 14398,
    "Ġskull": 6288,
    "ĠĠĠĠ": 460,
    "ange": 1017,
    "Ġsitu": 3493,
    "kye": 20937,
    "rad": 2257,
    "emic": 18179,
    "Ġlingering": 11379,
    "Ġwhittingham": 26197,
    "Ġprejudice": 9075,
    "Ġaccidental": 16848,
    "Ġsins": 13836,
    "Ġdepresses": 25797,
    "Ġpliny": 11823,
    "Ġdefile": 18823,
    "forster": 16159,
    "tit": 11527,
    "commodore": 20624,
    "Ġnoon": 6559,
    "Ġtoilet": 13936,
    "Ġwon": 1668,
    "legra": 10789,
    "threaten": 25461,
    "thoughtfully": 24041,
    "igate": 8822,
    "Ġroll": 5381,
    "Ġboot": 11838,
    "Ġobscurely": 20187,
    "Ġbrought": 2516,
    "Ġrespite": 13153,
    "were": 2561,
    "Ġplains": 14623,
    "Ġnotes": 7189,
    "Ġhyp": 3870,
    "Ġsoothe": 7405,
    "Ġthink": 985,
    "Ġbond": 21382,
    "Ġjudiciously": 23876,
    "Ġmercifully": 20177,
    "Ġconcentric": 20073,
    "bers": 2574,
    "Ġextend": 18692,
    "Ġstatement": 5254,
    "Ġlitter": 19828,
    "Ġelizabeth": 1129,
    "Ġthin": 4348,
    "Ġstudded": 18974,
    "town": 7142,
    "Ġtraining": 530,
    "ipt": 12476,
    "pent": 3491,
    "Ġhump": 5853,
    "sequent": 6831,
    "Ġworse": 4719,
    "rus": 5929,
    "Ġnaked": 8126,
    "Ġsuperglue": 23456,
    "sir": 5001,
    "bru": 12437,
    "Ġsuspecting": 14909,
    ";âĢĻ": 15301,
    "Ġarter": 22180,
    "Ġunfortunately": 10908,
    "Ġwipe": 25764,
    "Ġoutlines": 15955,
    "Ġdiffused": 12066,
    "Ġcommence": 6167,
    "Ġexpectations": 13142,
    "ru": 484,
    "chased": 18041,
    "acing": 2719,
    "Ġshortness": 23480,
    "Ġinstrument": 7118,
    "Ġsequel": 14359,
    "antial": 8487,
    "Ġpants": 21462,
    "Ġlifeless": 8948,
    "Ġswimming": 5507,
    "Ġdames": 23472,
    "Ġtimidity": 24687,
    "Ġledge": 19399,
    "Ġdoted": 21431,
    ")(": 2984,
    "Ġplainer": 23703,
    "Ġtoil": 6531,
    "Ġscorched": 17101,
    "Ġdaintiest": 25953,
    "Ġmortar": 19391,
    "Ġincorpor": 13164,
    "balanced": 14555,
    "Ġpresenting": 18988,
    "ĠĠĠĠĠĠĠĠĠĠĠĠĠĠĠĠĠĠĠĠĠĠĠĠĠĠĠĠĠĠĠĠĠĠĠĠĠĠĠ": 19258,
    "Ġhers": 7888,
    "Ġlabeled": 3717,
    "Ġfacilitate": 26098,
    "uv": 6229,
    "Ġaversion": 18866,
    "Ġdrink": 4787,
    "Ġsuspense": 9417,
    "ula": 2828,
    "Ġscrewing": 20207,
    "Ġdissipate": 13632,
    "reckoning": 25270,
    "ā": 194,
    "Ġgradual": 20600,
    "Ġremain": 1872,
    "Ġkills": 15904,
    "Ġdiffidence": 14659,
    "narr": 12494,
    "Ġ89": 19711,
    "Ħ": 231,
    "Ġepisode": 26346,
    "Ġequally": 5257,
    "Ġmappings": 2146,
    "endar": 18359,
    "elve": 4642,
    "iding": 3844,
    "Ġmasoned": 20250,
    "honour": 13466,
    "ildad": 3531,
    "Ġinnermost": 12158,
    "Ġconquest": 15745,
    "nament": 11506,
    "urements": 18124,
    "Ġheight": 4221,
    "Ġplanning": 14750,
    "embers": 21924,
    "Ġarctic": 12808,
    "ologically": 22876,
    "extensive": 18700,
    "Ġformation": 2942,
    "Ġsket": 18728,
    "angible": 22099,
    "uendoes": 26407,
    "Ġdeepest": 8214,
    "arent": 4250,
    "Ġclo": 6042,
    "Ġbarbary": 24216,
    "Ġremorselessly": 16967,
    "ģ": 228,
    "Ġgore": 17988,
    "Ġdescribes": 3122,
    "Ġclearer": 16310,
    "plainly": 11090,
    "Ġbuttoning": 17235,
    "Ġsuppl": 11079,
    "Ġactionable": 24559,
    "Ġescaped": 6459,
    "Ġevangelical": 25506,
    "Ġunconsciously": 10004,
    "Ġshipped": 9714,
    "Ġimper": 4503,
    "Ġpres": 9731,
    "Ġtradeoff": 2661,
    "Ġsignificantly": 4520,
    "Ġperchance": 15989,
    "itable": 5437,
    "Ġagricultural": 26550,
    "lanterns": 17428,
    "Ġrobinson": 17463,
    "Ġinseparable": 20687,
    "hol": 3836,
    "ships": 5486,
    "Ġmetaphysical": 26069,
    "declare": 25173,
    "Ġfleeting": 19326,
    "Ġw": 272,
    "Ġsympathising": 24297,
    "%": 9,
    "thirty": 12759,
    "Ġrevolver": 14899,
    "worm": 15452,
    "Ġsickle": 24245,
    "Ġaberde": 22274,
    "Ġintroduces": 3271,
    "chosen": 21692,
    "tray": 21076,
    "lets": 7836,
    "ustration": 2260,
    "icit": 3377,
    "makers": 20981,
    "Ġslice": 23158,
    "Ġskills": 1837,
    "etah": 12658,
    "Ġrule": 1534,
    "Ġcharted": 22247,
    "Ġheathen": 10565,
    "Ġready": 3396,
    "Ġwest": 5219,
    "Ġdrive": 5055,
    "Ġusually": 6263,
    "Ġsanct": 15062,
    "scale": 3534,
    "guessed": 25872,
    "Ġlowly": 11121,
    "umnal": 18300,
    "Ġcitizens": 25439,
    "Ġjavelins": 26105,
    "lord": 3862,
    "Ġseaport": 20598,
    "Ġskip": 1843,
    "arks": 2846,
    "Ġquiet": 3262,
    "Ġclattered": 22346,
    "Ġtorrent": 17092,
    "ifts": 12732,
    "Ġeyebrows": 23515,
    "Ġboasted": 16104,
    "Ġregret": 5561,
    "Ġplaus": 22596,
    "Ġinjuries": 11277,
    "ditch": 17528,
    "Ġfigure": 4208,
    "Ġsurpr": 2553,
    "Ġgreenwich": 19320,
    "Ġstoutest": 24628,
    "Ġsymmet": 11745,
    "Ġwindibank": 7257,
    "scissors": 20726,
    "blending": 24128,
    "tured": 13794,
    "Ġtempest": 8212,
    "Ġunconcern": 14115,
    "wanted": 10743,
    "Ġfluttered": 16248,
    "Ġol": 17814,
    "apan": 6860,
    "Ġhistory": 4010,
    "Ġvia": 2381,
    "epilogue": 22097,
    "Ġdiamond": 15596,
    "Ġpooh": 18603,
    "Ġforget": 2637,
    "Ġmonstrous": 7789,
    "Ġforms": 6397,
    "Ġdisinclination": 22533,
    "Ġvicious": 24403,
    "Ġgestic": 21605,
    "Ġinquiry": 6484,
    "Ġconsiderable": 4009,
    "Ġprophet": 7680,
    "shot": 2164,
    "sim": 6510,
    "istered": 14144,
    "Ġliv": 6679,
    "ese": 4445,
    "Ġagile": 22510,
    "Ġapproving": 18527,
    "Ġtraged": 9351,
    "Ġespe": 21154,
    "izar": 14041,
    "alleled": 14428,
    "intu": 22930,
    "end": 500,
    "Ġoperation": 11997,
    "borean": 25743,
    "ally": 531,
    "abounding": 25979,
    "missed": 11209,
    "bit": 3932,
    "Ġconvenience": 11331,
    "intments": 18820,
    "scho": 8759,
    "marriage": 7744,
    "summon": 23414,
    "Ġundergo": 23234,
    "irations": 18170,
    "Ġunbounded": 18256,
    "neat": 22445,
    "stall": 21643,
    "Ń": 260,
    "carries": 19526,
    "Ġbunger": 9995,
    "Ġstruck": 3388,
    "Ġchrist": 4075,
    "astrop": 3316,
    "delivered": 24100,
    "Ġhardest": 18912,
    "Ġemploy": 3615,
    "uity": 12515,
    "franch": 24284,
    "Ġhoky": 17926,
    "Ġreturning": 5325,
    "risonment": 17374,
    "beth": 13687,
    "Ġannihilated": 20251,
    "Ġticking": 25033,
    "Ġsystem": 574,
    "corrob": 24485,
    "friend": 3860,
    "Ġtriumphal": 24371,
    "throt": 25659,
    "Ġimbecile": 17391,
    "Ġmassive": 9931,
    "Ġundertake": 14478,
    "77": 15299,
    "Ġ}": 21152,
    "utility": 21584,
    "Ġjets": 10287,
    "Ġlinked": 15076,
    "Ġholder": 6724,
    "Ġscrape": 14917,
    "Ġaccelerating": 1622,
    "Ġdependency": 3486,
    "Ġpleasurable": 23335,
    "Ġsor": 4148,
    "Ġapproach": 873,
    "Ġunwillingly": 15846,
    "date": 17517,
    "rudently": 16710,
    "Ġvenetian": 14846,
    "Ġspring": 4123,
    "inously": 21185,
    "invite": 25088,
    "Ġtemptation": 8677,
    "Ġdismasted": 15250,
    "Ġ19": 6719,
    "bonnet": 25742,
    "reme": 2426,
    "continue": 16861,
    "âĢĶ.": 11753,
    "Ġvib": 8164,
    "Ġsweeping": 8985,
    "Ġhenry": 5197,
    "Ġsulk": 15045,
    "Ġrepresents": 4902,
    "quality": 10232,
    "oubled": 23647,
    "infl": 15486,
    "ugnance": 12365,
    "relation": 19445,
    "Ġsulkily": 25882,
    "Ġreflected": 2909,
    "Ġstark": 7390,
    "Ġintact": 21986,
    "Ġnaught": 8127,
    "Ġterms": 2566,
    "Ġnoah": 10942,
    "Ġaltered": 7393,
    "Ġinsatiate": 19269,
    "Ġpolitical": 19223,
    "added": 11658,
    "Ġmass": 3779,
    "Ġmacey": 12560,
    "Ġesteemed": 10588,
    "Ġflourishing": 25187,
    "Ġlighted": 7063,
    "satisfied": 10578,
    "passed": 8025,
    "Ġfurnishing": 16645,
    "arn": 356,
    "Ġembarkation": 25122,
    "Ġfearfulness": 23510,
    "Ġcompanions": 5865,
    "Ġprometheus": 15291,
    "influence": 13577,
    "ois": 9134,
    "Ġrecognised": 8995,
    "Ġairs": 14510,
    "Ġimprec": 14217,
    "Ġplead": 14454,
    "made": 4808,
    "Ġsigmoid": 2463,
    "penetrate": 20323,
    "Ġinstigated": 18698,
    "easy": 9592,
    "Ġtwee": 22672,
    "Ġfacetious": 20582,
    "Ġholding": 4979,
    "istry": 22106,
    "Ġoriginally": 7304,
    "sincerely": 24584,
    "Ġlounging": 10021,
    "Ġconfounded": 16381,
    "Ġclose": 3038,
    "suffer": 24333,
    "Ġcrowding": 13278,
    "assed": 6421,
    "oundering": 11744,
    "Ġflowery": 16230,
    "scratch": 26043,
    "Ġcorpse": 6638,
    "Ġlangs": 13953,
    "lays": 14921,
    "Ġtedious": 15266,
    "Ġfelix": 4848,
    "omy": 6248,
    "cock": 12024,
    "Ġnapkins": 25161,
    "ability": 717,
    "Ġunwearied": 20601,
    "Ġharpooneer": 3771,
    "Ġstam": 18065,
    "Ġspeed": 2448,
    "application": 12361,
    "Ġcrouched": 23440,
    "care": 4928,
    "leag": 21364,
    "Ġconcer": 23317,
    "Ġcommunicating": 16889,
    "Ġgushed": 21604,
    "Ġintrusted": 21989,
    "lived": 12484,
    "Ġcounty": 9030,
    "lynes": 15701,
    "Ġliveliest": 24775,
    "Ġantelope": 24180,
    "ari": 671,
    "cu": 10083,
    "Ġdaresay": 14703,
    "niest": 18973,
    "Ġpublisher": 24063,
    "Ġinexpressible": 17332,
    "Ġsits": 10768,
    "á": 162,
    "ikes": 8086,
    "Ġabsolut": 3909,
    "Ġdefinitions": 22941,
    "Ġsubt": 11866,
    "experience": 17158,
    "Ġcarter": 18900,
    "Ġwounded": 8657,
    "Ġsnarled": 25716,
    "Ġflowers": 8940,
    "hist": 7130,
    "Ġlxi": 21558,
    "Ġdoubloons": 13433,
    "amous": 15758,
    "Ġknitted": 19588,
    "ilated": 18057,
    "Ġrightly": 13062,
    "Ġlegend": 14575,
    "Ġchoosing": 19589,
    "Ġrenow": 18027,
    "Ġeverybody": 4512,
    "Ġpurposed": 23551,
    "ribute": 7227,
    "handkerchief": 14618,
    "eman": 5636,
    "Ġshipping": 14103,
    "ificial": 613,
    "Ġbegrim": 23014,
    "ony": 3031,
    "Ù": 154,
    "Ġpremeditated": 22231,
    "drive": 8682,
    "wrote": 11546,
    "aries": 6244,
    "Ġattentively": 9949,
    "Ġhen": 3500,
    "lips": 13749,
    "dinah": 20079,
    "Ġregularizer": 2339,
    "Ġkindly": 6077,
    "introduction": 15122,
    "silence": 8044,
    "ighter": 7967,
    "estim": 14169,
    "Ġnets": 21521,
    "Ġtoils": 10185,
    "Ġdiminishing": 4210,
    "alley": 23021,
    "Ġcrush": 9421,
    "z": 94,
    "Ġcurly": 18853,
    "Ġobserve": 4671,
    "Ġunderneath": 16336,
    "Ġsurvivor": 17362,
    "Ġpermit": 9748,
    "Ġcased": 21344,
    "Ġyields": 19655,
    "Ġparadise": 11194,
    "Ġslipper": 24265,
    "Ġobst": 6283,
    "shape": 10983,
    "Ġpistols": 17328,
    "pushed": 21022,
    "Ġpertin": 18449,
    "Ġtelling": 5747,
    "holloa": 19462,
    "Ġtrag": 13037,
    "ople": 2319,
    "ingale": 21298,
    "Ġtechnical": 17191,
    "usual": 5841,
    "Ġday": 958,
    "Ġattacked": 10567,
    "Ġdisappoint": 24205,
    "Ġ64": 24367,
    "Ġlulled": 17968,
    "ceiving": 3901,
    "Ġers": 15459,
    "desired": 8956,
    "gration": 9121,
    "Ġsmacking": 20164,
    "Ġfar": 1449,
    "Ġoutrages": 18415,
    "Ġroast": 18455,
    "Ġblood": 3169,
    "Ġwhirlwinds": 20463,
    "Ġjobs": 24832,
    "'re": 12426,
    "ufactured": 15180,
    "ency": 3866,
    "Ġaccompl": 5167,
    "nose": 17611,
    "Ġabusive": 22270,
    "Ġ32": 19487,
    "Ġindies": 22948,
    "whar": 15925,
    "Ġtechni": 1667,
    "vere": 4883,
    "explaining": 23136,
    "Ġdeacon": 18143,
    "regards": 23465,
    "Ġbrad": 8786,
    "Ġincumbent": 16060,
    "Ġestab": 6315,
    "pha": 22766,
    "clean": 14759,
    "philosophers": 25252,
    "al": 292,
    "Ġhandwriting": 14318,
    "Ġinterposed": 20617,
    "Ġcau": 13880,
    "Ġdoom": 6417,
    "darkness": 9511,
    "enes": 5218,
    "ual": 945,
    "Ġwomanly": 23550,
    "Ġsnuff": 7991,
    "Ġinstrum": 6054,
    "accents": 19210,
    "onet": 12542,
    "icial": 12652,
    "rucastle": 22185,
    "Ġbill": 4041,
    "Ġmadam": 5663,
    "Ġsignal": 5944,
    "Ġfiner": 13050,
    "«": 109,
    "Ġwhip": 8451,
    "Ġbites": 23741,
    "Ġsweatings": 25710,
    "Ġalike": 8146,
    "Ġcaught": 3730,
    "Ġeddystone": 25709,
    "uing": 17693,
    "erate": 7149,
    "Ġenvironmental": 24072,
    "Ġgreedy": 3054,
    "Ġchasing": 11752,
    "Ġsemantic": 1958,
    "Ġcontrivance": 17183,
    "Ġantichronical": 26609,
    "Ġabated": 18390,
    "Ġporthole": 24399,
    "Ġnoisy": 13317,
    "Ġmanxman": 9565,
    "Ġunhinged": 26216,
    "Ġfusion": 21412,
    "Ġsuperstition": 15054,
    "Ġgift": 10840,
    "Ġacquirement": 19254,
    "Ġconsisted": 10419,
    "Ġinequal": 21494,
    "Ġschedu": 1822,
    "complacency": 19913,
    "Ġchowders": 18385,
    "kee": 18273,
    "squall": 13521,
    "Ã¦mon": 7094,
    "ñ": 178,
    "Ġseen": 1370,
    "Ġanno": 9667,
    "meadow": 18680,
    "Ġsc": 529,
    "Ġimmemorially": 25383,
    "Ġpassed": 2008,
    "Ġretribution": 16280,
    "cano": 18838,
    "Ġjacket": 6489,
    "Ġacquired": 13041,
    "Ġhieroglyph": 11969,
    "presume": 25670,
    "Ġouter": 6859,
    "Ġapprobation": 10987,
    "Ġincensed": 18573,
    "Ġremainder": 9857,
    "abominable": 20592,
    "ohog": 9842,
    "supplement": 14795,
    "wheel": 22867,
    "Ġdeformed": 14048,
    "Ġfumbling": 21415,
    "roads": 17957,
    "doctor": 19095,
    "grim": 19106,
    "Ġfullest": 14813,
    "Ġbro": 1429,
    "wilful": 25086,
    "Ġfurther": 1059,
    "sinking": 17668,
    "persecutor": 26529,
    "Ġhoisting": 9861,
    "Ġgrimes": 11035,
    "Ġquantization": 19853,
    "allies": 14165,
    "resistible": 10643,
    "remem": 13064,
    "Ġivory": 4478,
    "parable": 16387,
    "cannibal": 15223,
    "Ġsoc": 3523,
    "Ġrefreshing": 20263,
    "Ġrumpled": 24600,
    "Ġbales": 21387,
    "Ġevermore": 18810,
    "gan": 2201,
    "warn": 11542,
    "network": 1858,
    "approve": 19935,
    "coming": 3563,
    "Ġmind": 1623,
    "sure": 5522,
    "dried": 20826,
    "rom": 420,
    "affectionate": 24921,
    "Ġreasoned": 23071,
    "Ġstatistics": 1686,
    "heredit": 21208,
    "Ġacquainted": 5179,
    "Ġmeddle": 19490,
    "pocket": 9808,
    "toed": 18580,
    "kish": 20933,
    "iration": 4541,
    "Ġsyrian": 18353,
    "softened": 20408,
    "Ġlethar": 21743,
    "Ġvoice": 2192,
    "Ġreplay": 5047,
    "nant": 17609,
    "Ġinfluences": 14864,
    "Ġninetieth": 25357,
    "papers": 12499,
    "speckled": 23942,
    "Ġvows": 15806,
    "Ġinwards": 15618,
    "sey": 5543,
    "Ġbrain": 2087,
    "Ġapproximate": 2342,
    "henry": 16625,
    "real": 10149,
    "Ġtall": 4039,
    "Ġintermission": 18589,
    "Ġravines": 25831,
    "Ġregimentals": 19857,
    "irable": 5776,
    "Ġshroud": 6483,
    "Ġequalled": 13311,
    "Ġexceptional": 19369,
    "Ġmonoton": 3636,
    "itement": 7835,
    "Ġremind": 6057,
    "Ġhandsome": 4906,
    "yder": 10138,
    "Ġspleen": 26421,
    "stick": 15682,
    "Ġriotous": 20543,
    "Ġconvention": 25546,
    "Ġdoctrine": 24197,
    "Ġcheer": 4067,
    "Ġoct": 10158,
    "Ġ180": 16605,
    "theirs": 23604,
    "Ġunicorn": 22052,
    "Ġgates": 10200,
    "ivility": 12780,
    "alike": 17942,
    "Ġparamore": 22119,
    "gage": 13722,
    "struck": 7861,
    "Ġladen": 19176,
    "Ġdissol": 18550,
    "hurt": 19877,
    "iarity": 8743,
    "ni": 1607,
    "keepers": 16659,
    "circuit": 24188,
    "spoutings": 25001,
    "slack": 16894,
    "Ġlimber": 16478,
    "pick": 17634,
    "imate": 4222,
    "Ġprobably": 4314,
    "Ġchag": 15929,
    "Ġverdict": 13474,
    "ictions": 14225,
    "Ġleaders": 16627,
    "Ġwondering": 7970,
    "Ġrepair": 11977,
    "umblings": 23927,
    "Ġhereabouts": 12975,
    "Ġreaches": 18031,
    "rudential": 16709,
    "Ġstubbs": 23291,
    "direful": 25896,
    "hoped": 20909,
    "waiter": 24586,
    "ctive": 11622,
    "record": 16921,
    "unw": 14056,
    "Ġgloss": 11956,
    "rep": 5525,
    "Ġtrance": 12838,
    "formed": 2557,
    "Ġleeward": 6210,
    "iscreet": 20681,
    "tiger": 13796,
    "water": 4868,
    "Ġunrestingly": 20359,
    "Ġscuffle": 20607,
    "Ġarched": 10932,
    "Ġswash": 23052,
    "Ġexamples": 2608,
    "Ġhud": 10822,
    "off": 1885,
    "subject": 6631,
    "Ġgeorge": 3748,
    "Ġresources": 2936,
    "Ġimprovements": 14509,
    "Ġharb": 7370,
    "Ġactivations": 2721,
    "Ġformerly": 7493,
    "opic": 22473,
    "incident": 14591,
    "Ġren": 3843,
    "coronet": 16863,
    "monkey": 19169,
    "request": 21240,
    "umbers": 10918,
    "apprehens": 17405,
    "persons": 24174,
    "Ġplans": 7917,
    "fered": 5560,
    "Ġcaulk": 25440,
    "sicilian": 21062,
    "Ġbernard": 20683,
    "Ġconce": 3420,
    "Ġreverie": 13456,
    "Ġcemet": 20679,
    "Ġcoldly": 14650,
    "system": 4070,
    "Ġtriumphantly": 11287,
    "dared": 13701,
    "Ġbarrels": 9435,
    "Ġthrees": 23397,
    "Ġdances": 10812,
    "Ġhinted": 6011,
    "abetical": 15740,
    "Ġhell": 5019,
    "Ġboldness": 24428,
    "Ġexercising": 19906,
    "Ġsharks": 4499,
    "tempted": 26403,
    "coll": 23777,
    "Ġinquisitive": 26317,
    "jaw": 13742,
    "Ġaccord": 4027,
    "Ġphotograph": 6302,
    "like": 1884,
    "abound": 15737,
    "Ġinnocent": 4921,
    "pre": 650,
    "Ġirresolution": 24915,
    "Ġboil": 16102,
    "deal": 12796,
    "Ġpress": 5931,
    "gods": 13365,
    "Ġblinds": 8006,
    "Ġpositives": 4317,
    "B": 38,
    "Ġpauper": 26179,
    "atiate": 12545,
    "Ġvestibule": 13536,
    "Ġsane": 21220,
    "Ġphotography": 24683,
    "Ġcomplaint": 24776,
    "Ġgri": 17987,
    "tossed": 10997,
    "Ġsund": 8247,
    "Ġmales": 17805,
    "serv": 7451,
    "reve": 12536,
    "fac": 17541,
    "Ġ31": 12128,
    "specimen": 26605,
    "Ġthinks": 6169,
    "ksome": 10104,
    "Ġunderstood": 5655,
    "Ġunlike": 7004,
    "appalling": 22842,
    "Ġresults": 7308,
    "errand": 22907,
    "crooked": 25746,
    "Ġloomed": 12299,
    "Ġbalanced": 12986,
    "nihil": 9845,
    "wickham": 5883,
    "Ġalexander": 17423,
    "rennial": 22338,
    "Ġusing": 715,
    "Ġeats": 15674,
    "apes": 9740,
    "contrary": 23727,
    "rip": 9240,
    "rack": 18010,
    "Ġhairs": 13229,
    "Ġfingertips": 24014,
    "laws": 19806,
    "ision": 1853,
    "acet": 5476,
    "library": 12996,
    "plate": 18207,
    "Ġboast": 7034,
    "Ġappe": 1539,
    "hatchet": 24822,
    "ees": 13710,
    "Ġbiting": 17861,
    "Ġsee": 804,
    "eminence": 20097,
    "Ġ16": 7926,
    "sander": 11526,
    "ograph": 4797,
    "Ġmum": 13857,
    "Ġlightning": 5750,
    "Ġcongratulated": 19765,
    "Ġprocure": 9509,
    "cor": 5520,
    "Ġturbulence": 26597,
    "inted": 2652,
    "arnel": 18121,
    "Ġirregularly": 25323,
    "giving": 8738,
    "ifford": 15781,
    "Ġextrem": 2475,
    "Ġinsomuch": 23682,
    "safe": 10053,
    "troubled": 17112,
    "smitten": 23906,
    "Ġtumultuous": 10615,
    "_?âĢĿ": 15304,
    "Ġoperate": 19115,
    "derstand": 648,
    "Ġaccordingly": 6619,
    "Ġchimney": 6497,
    "Ġboasting": 19934,
    "rugg": 15900,
    "Ġbended": 21383,
    "venty": 6427,
    "Ġconfining": 23301,
    "Ġoughts": 23898,
    "Ġindignation": 8346,
    "Ġsail": 1676,
    "Ġunsupervised": 2382,
    "Ġgorge": 13565,
    "isted": 3300,
    "abern": 21786,
    "Ġdeclining": 23961,
    "Ġnew": 1196,
    "Ġlasted": 11054,
    "benevolent": 15232,
    "Ġresponses": 23650,
    "Ġimpenit": 22385,
    "barr": 15319,
    "cannibals": 25584,
    "Ġadaptively": 3915,
    "answered": 10273,
    "Ġet": 3581,
    "Ġconviction": 6326,
    "Ġdespise": 14665,
    "Ġelij": 8908,
    "vice": 15448,
    "Ġchil": 11749,
    "Ġsteelkilt": 5675,
    "dued": 7908,
    "Ġyourselves": 9028,
    "Ġfalls": 14644,
    "Ġpredicting": 2417,
    "ĠĠĠĠĠĠĠĠĠĠĠĠĠĠĠĠĠĠĠĠĠĠĠĠĠĠĠĠĠĠĠĠĠĠĠĠĠĠĠĠĠĠĠ": 12152,
    "Ġmahogany": 20576,
    ")": 13,
    "Ġglimmer": 15140,
    "riumph": 4919,
    "Ġrepulses": 26070,
    "Ġhilarious": 20297,
    "ĠâĢĶâĢľ_": 17718,
    "Ġobjectionable": 16991,
    "Ġapartment": 6633,
    "Ġcreating": 2998,
    "Ġspectacles": 12095,
    "industrious": 26239,
    "Ġdeigned": 18141,
    "Ġdeployment": 11201,
    "Ġthird": 4188,
    "dition": 15339,
    "Ġexists": 14040,
    "cess": 537,
    "Ġdeclares": 16992,
    "Ġtranquillity": 7536,
    "Ġinfinite": 8575,
    "Ġoffing": 16141,
    "Ġstair": 8455,
    "Ġfrenzy": 13621,
    "Ġfolded": 7767,
    "piling": 15414,
    "Ġpropagating": 20632,
    "poverty": 22906,
    "Ġreproached": 24891,
    "Ġperceptible": 18451,
    "Ġendless": 7053,
    "Ġcommunicates": 24547,
    "Ġequivalent": 4802,
    "decor": 23778,
    "Ġcards": 7580,
    "Ġreaders": 18914,
    "aged": 2610,
    "neighbouring": 19962,
    "Ġcomparable": 24278,
    "committed": 18733,
    "allingly": 22196,
    "Ġentrapped": 26262,
    "reds": 12745,
    "Ġnumbers": 2888,
    "Ġ107": 24415,
    "Ġbutton": 10267,
    "Ġmince": 22830,
    "shoulder": 16582,
    "pertaining": 22176,
    "dropped": 12260,
    "Ġacquiescence": 20329,
    "reserve": 17765,
    "Ġalliance": 18268,
    "alous": 7372,
    "Ġdirect": 1471,
    "Ġembodied": 25846,
    "scruple": 26044,
    "fes": 20850,
    "Ġdebility": 24272,
    "fishers": 24928,
    "Ġhy": 5625,
    "Ġcliffs": 15965,
    "enty": 2916,
    "unhesitatingly": 26496,
    "confusion": 13368,
    "Ġtokens": 1768,
    "spark": 18688,
    "warnings": 20350,
    "Ġadv": 1149,
    "pans": 13769,
    "ousand": 2431,
    "Ġforest": 9870,
    "Ġstains": 21738,
    "Ġwee": 21915,
    "Z": 62,
    "Ġgood": 1000,
    "omical": 9679,
    "Ġpersuading": 19408,
    "Ġprogramming": 1183,
    "irements": 22211,
    "igned": 5656,
    "alously": 15626,
    "arrow": 4181,
    "arth": 4444,
    "Ġtrait": 23072,
    "Ġlearn": 362,
    "Ġdumplings": 15189,
    "Ġburke": 19250,
    "Ġmassa": 19452,
    "Ġcabaco": 13166,
    "Ġsallied": 12534,
    "Ġmoby": 3664,
    "Ġfound": 1247,
    "Ġxxii": 24478,
    "calmed": 16202,
    "Ġbent": 5149,
    "Ġperf": 12846,
    "Ġengraved": 17081,
    "itz": 6005,
    "Ġgamy": 17998,
    "Ġdragging": 14474,
    "Ġantiquities": 25598,
    "Ġadvances": 12990,
    "Ġstores": 18068,
    "Ġtrucks": 19511,
    "Ġent": 904,
    "Ġglaciers": 20172,
    "Ġsatisfaction": 5667,
    "Ġreeled": 13985,
    "Ġjun": 8505,
    "officer": 17054,
    "pointed": 9807,
    "Ġdenny": 9001,
    "Ġfeatureless": 22613,
    "merchant": 10467,
    "Ġsummoning": 23872,
    "Ġimputable": 22170,
    "loveliness": 26549,
    "inger": 6812,
    "Ġsupper": 4666,
    "Ġcompletion": 12145,
    "compasses": 19456,
    "encoura": 15048,
    "eon": 8729,
    "obscure": 23095,
    "Ġcompute": 2906,
    "Ġpoles": 11004,
    "Ġbapt": 13895,
    "Ġlichen": 20090,
    "Ġtreats": 19342,
    "book": 4670,
    "cutting": 23783,
    "Ġestate": 6316,
    "Ġbraz": 19356,
    "oo": 7553,
    "Ġsuitable": 18282,
    "sentence": 2938,
    "monograph": 23525,
    "Ġoarsman": 8637,
    "narrated": 25621,
    "Ġgait": 13329,
    "Ġpierced": 12279,
    "Ġsurpasses": 25268,
    "Ġwaggish": 25434,
    "extending": 22753,
    "Ġharbors": 24901,
    "Ġenlightened": 12743,
    "Ġce": 3033,
    "allet": 11083,
    "Ġinheritance": 25355,
    "perquisites": 26530,
    "Ġbreckinridge": 14521,
    "Ġprovinc": 16742,
    "Ġqueequeg": 2010,
    "Ġg": 310,
    "led": 582,
    "Ġalco": 21779,
    "cain": 15325,
    "akes": 2221,
    "approached": 13484,
    "Ġdomin": 10455,
    "Ġsmiles": 6706,
    "ressing": 8917,
    "Ġbathe": 25443,
    "ber": 884,
    "Ġ2": 2928,
    "Ġleave": 2458,
    "Ġwhatever": 3472,
    "hopes": 15368,
    "....": 11316,
    "Ġattracted": 8904,
    "Ġwand": 4342,
    "Ġswing": 13034,
    "Ġinsolent": 13599,
    "Ġbuying": 23993,
    "Ġwondrous": 4735,
    "oboam": 9357,
    "Ġstudied": 11115,
    "Ġwinc": 9642,
    "Ġramad": 8528,
    "uth": 3021,
    "ption": 7398,
    "bitter": 11240,
    "Ã¦us": 14816,
    "consolation": 15151,
    "luckily": 19751,
    "Ġtashtego": 4488,
    "braces": 24658,
    "Ġvan": 1088,
    "Ġcomforters": 25800,
    "Ġgreenhorn": 23766,
    "adventure": 17233,
    "irited": 15784,
    "electricity": 26385,
    "rich": 11517,
    "pad": 13767,
    "gled": 10699,
    "Ġwretchedly": 19505,
    "Ġrecur": 1625,
    "interview": 19298,
    "Ġhereby": 10358,
    "Ġmental": 21318,
    "zers": 21145,
    "resembling": 25932,
    "buckets": 26123,
    "Ġpresumed": 10544,
    "Ġmusk": 7494,
    "Ġacquisition": 18899,
    "resent": 10769,
    "Ġscrupulous": 20067,
    "meditation": 19065,
    "Ġdanced": 7842,
    "precision": 4331,
    "Ġgraze": 18226,
    "Ġassociations": 14962,
    "ffy": 18316,
    "Ġgourmand": 26466,
    "Ġmak": 10778,
    "Ġlaurel": 20653,
    "Ġpursuing": 9437,
    "Ġcommonest": 23087,
    "Ġeffusions": 18539,
    "Ġaust": 4871,
    "resp": 13838,
    "biqu": 17497,
    "dress": 17520,
    "Ġheaving": 7600,
    "fifty": 12350,
    "Ġmarred": 23029,
    "Ġjabez": 11764,
    "Ġgrasped": 8033,
    "perform": 15892,
    "Ġvariously": 18653,
    "Ġmidway": 14604,
    "Ġ184": 16606,
    "Ġpilgrim": 25599,
    "Ġnorthwards": 19545,
    "ĠdÃ¦mon": 7844,
    "Ġamazed": 14888,
    "irst": 878,
    "Ġnapoleon": 20556,
    "Ġgaze": 6932,
    "Ġkept": 3346,
    "devils": 20031,
    "Ġestimation": 11218,
    "Ġobserv": 8586,
    "Ġsaturn": 22899,
    "oked": 4308,
    "Ġdialogue": 12402,
    "Ġdevices": 2940,
    "within": 6730,
    "Ġbeat": 4493,
    "Ġexasper": 8466,
    "Ġcarpets": 18902,
    "iday": 8829,
    "Ġincompetent": 25679,
    "Ġdir": 21419,
    "Ġfoaming": 18992,
    "50": 6784,
    "Ġpagoda": 19787,
    "Ġthought": 1094,
    "Ġbingley": 1680,
    "Ġquitting": 7645,
    "Ġparticulars": 5754,
    "beds": 16585,
    "Ġdeeps": 16115,
    "georgiana": 26020,
    "Ġcheerless": 16694,
    "Ġnav": 5818,
    "Ġdemocracy": 25458,
    "Ġusages": 15915,
    "Ġlangsdorff": 15275,
    "Ġwedded": 16674,
    "waited": 24585,
    "Ġmilliner": 19883,
    "Ġdistances": 22500,
    "Ġshowed": 4498,
    "Ġcorrob": 16263,
    "upt": 13797,
    "Ġwhiskers": 10492,
    "Ġbourgh": 5069,
    "Ġhushed": 13924,
    "ulnerable": 18150,
    "Ġcruelty": 9968,
    "Ġrelated": 3714,
    "Ġfacil": 16962,
    "Ġeas": 2352,
    "save": 13784,
    "Ġash": 4832,
    "Ġsherlock": 3891,
    "Ġforbearance": 12326,
    "Ġcourse": 2129,
    "Ġident": 2242,
    "Ġsuspending": 19243,
    "Ġtrades": 8231,
    "Ġassociation": 24711,
    "Ġreusable": 13556,
    "grinder": 23413,
    "Ġtexture": 19159,
    "Ġascended": 8665,
    "kily": 20936,
    "harm": 13734,
    "itud": 2930,
    "send": 15422,
    "Ġarsac": 11740,
    "Ġwarned": 16880,
    "grant": 10427,
    "labour": 23912,
    "Ġstag": 6148,
    "progress": 11986,
    "escript": 18471,
    "Ġgasped": 11372,
    "Ġhundred": 2696,
    "swiftly": 20550,
    "barrel": 17060,
    "Ġhose": 12624,
    "Ġhon": 2539,
    "Ġrapt": 7226,
    "Ġriggers": 24156,
    "Ġforeshad": 23451,
    "hur": 6648,
    "incess": 15481,
    "erne": 21268,
    "ieved": 3230,
    "Ġenter": 4031,
    "Ġ7": 4745,
    "Ġcracking": 14574,
    "Ġvagueness": 25737,
    "Ġcommitting": 22670,
    "Ġbaronial": 23792,
    "adequately": 20318,
    "Ġmultiplied": 23689,
    "Ġburly": 19249,
    "brance": 7284,
    "whel": 7664,
    "Ġtid": 8106,
    "Ġreceived": 2951,
    "octial": 20003,
    "Ġabandoned": 8351,
    "Ġremonstrance": 20621,
    "Ġobstetrics": 24678,
    "uber": 15444,
    "topp": 22563,
    "Ġy": 341,
    "Ġmexic": 14031,
    "Ġvehement": 16200,
    "Ġguernsey": 9350,
    "Ġsinews": 20286,
    "Ġbet": 1134,
    "Ġaristotle": 25817,
    "ials": 11704,
    "Ġmedit": 8018,
    "rub": 15897,
    "Ġcathed": 14548,
    "cloud": 11105,
    "Ġlands": 6594,
    "rents": 5308,
    "fork": 20856,
    "ropri": 2178,
    "senses": 25024,
    "Ġsour": 21215,
    "Ġingolstadt": 8332,
    "Ġannihilation": 15164,
    "Ġ11": 5318,
    "Ġhom": 9186,
    "Ġexquisitely": 20201,
    "arance": 4698,
    "ishes": 6523,
    "Ġtrifles": 16951,
    "Ġaccents": 14208,
    "Ġtells": 9360,
    "Ġamel": 18509,
    "Ġquest": 1999,
    "apse": 14198,
    "Ġungover": 18252,
    "chains": 9684,
    "suddenly": 6493,
    "Ġprofanely": 23569,
    "nue": 15396,
    "yramid": 8367,
    "Ġforeb": 12002,
    "Ġsubtle": 6716,
    "Ġaccept": 4410,
    "ĠâĢĶ_": 3458,
    "Ġhealed": 21680,
    "Ġcrows": 24028,
    "Ġpratt": 23214,
    "Ġtrustees": 24107,
    "Ġhoops": 9387,
    "hundred": 8330,
    "Ġdict": 9175,
    "ulgences": 21862,
    "bug": 17492,
    "lung": 17591,
    "Ġclang": 15960,
    "reng": 4004,
    "pos": 15409,
    "Ġmeans": 698,
    "ference": 1881,
    "Ġensued": 11394,
    "Ġengrossed": 12994,
    "maintained": 25020,
    "ĠĠĠĠĠĠĠĠĠĠĠĠĠĠĠĠĠĠĠĠĠĠĠĠĠĠĠĠ": 9974,
    "Ġidentical": 10434,
    "ivil": 6411,
    "Ġanimating": 23422,
    "Ġnoted": 15828,
    "irc": 1729,
    "supervised": 1898,
    "Ġawaited": 17074,
    "Ġfan": 2032,
    "Ġdejection": 15195,
    "Ġdivert": 23595,
    "Ġdoctor": 5067,
    "Ġupdates": 1298,
    "augh": 1779,
    "Ġcanall": 10928,
    "Ġwedged": 24069,
    "Ġlose": 5028,
    "ement": 1501,
    "otograph": 5826,
    "Ġevangel": 11280,
    "often": 6165,
    "ext": 914,
    "Ġemer": 5958,
    "ouring": 6420,
    "Ġconge": 15743,
    "interrupted": 11417,
    "andam": 10888,
    "irted": 14071,
    "Ġwindlass": 7256,
    "iture": 5696,
    "Ġstars": 6149,
    "½": 126,
    "Ġheated": 21679,
    "Ġgoal": 10301,
    "Ġpoky": 21476,
    "lings": 8745,
    "resentment": 15184,
    "imprudent": 14651,
    "strong": 6322,
    "Ġgrammatical": 13538,
    "Ġexhibiting": 19837,
    "caroline": 24149,
    "ix": 1797,
    "rings": 10722,
    "testing": 12514,
    "Ġfortune": 4241,
    "frock": 20119,
    "ures": 837,
    "Ġfine": 1318,
    "Ġnavies": 16900,
    "Ġenhancement": 23782,
    "Ġcord": 5222,
    "Ġdeception": 18142,
    "Ġrecall": 3853,
    "ulations": 6028,
    "Ġbenefactor": 14697,
    "Ġpack": 5444,
    "Ġconfided": 19033,
    "ourers": 21447,
    "Ġinfallibly": 10040,
    "Ġcove": 22578,
    "Ġremnants": 22792,
    "Ġgrating": 14357,
    "Ġbrilliantly": 25120,
    "Ġup": 463,
    "Ġfleets": 23772,
    "games": 20879,
    "gaze": 17557,
    "Ġfollies": 16254,
    "Ġenters": 11025,
    "steaks": 23958,
    "Ġbennets": 9805,
    "etimes": 1986,
    "plans": 21955,
    "Ġcompens": 14264,
    "Ġworsh": 12997,
    "stuff": 15685,
    "Ġcarav": 18901,
    "ish": 550,
    "Ġask": 1493,
    "lude": 6161,
    "Ġportcullis": 26603,
    "kept": 11715,
    "occ": 4486,
    "brad": 20780,
    "Ġtul": 21158,
    "pol": 5892,
    "zen": 5140,
    "Ġpromises": 10400,
    "Ġpresents": 8244,
    "Ġclosing": 11770,
    "Ġinquired": 7485,
    "Ġrise": 5637,
    "Ġinvoluntarily": 8549,
    "Ġneatly": 17016,
    "Ġgarments": 15192,
    "Ġmoving": 1682,
    "Ġpastures": 23418,
    "Ġsounded": 8590,
    "Ġfob": 21407,
    "Ġerie": 20052,
    "know": 2318,
    "Ġransacked": 26504,
    "pict": 8385,
    "stock": 13220,
    "description": 11094,
    "Ġimpute": 18331,
    "hampshire": 23262,
    "Ġplaited": 14282,
    "Ġtiles": 17726,
    "green": 7115,
    "Ġresolved": 3796,
    "Ġharsh": 9520,
    "Ġmoments": 4845,
    "law": 6115,
    "Ġdeserve": 8308,
    "Ġspind": 18307,
    "Ġliable": 14228,
    "distinct": 13334,
    "Ġlunatic": 24990,
    "utted": 15658,
    "Ġchorus": 10946,
    "angel": 5726,
    "Ġimminent": 11244,
    "Ġdragg": 23211,
    "Ġstalls": 25647,
    "Ġpallor": 13515,
    "outon": 12800,
    "Ġdiabol": 11453,
    "Ġpersuasion": 10498,
    "or": 282,
    "Ġentrance": 7233,
    "Ġformless": 22827,
    "seals": 21815,
    "Ġmiscellaneous": 17462,
    "Ġark": 10276,
    "tormented": 13644,
    "Ġseat": 4949,
    "Ġmachine": 790,
    "Ġpanthe": 19652,
    "Ġspake": 18308,
    "Ġaye": 3352,
    "avoiding": 25236,
    "Ġsquee": 7928,
    "Ġabominate": 20063,
    "Ġindolent": 13002,
    "zors": 21146,
    "Ġquote": 18466,
    "Ġexamined": 6334,
    "Ġheart": 1596,
    "Ġexclusiveness": 23924,
    "Ġdependencies": 2314,
    "Ġdeser": 3885,
    "Ġcompl": 3759,
    "prov": 16420,
    "total": 17250,
    "Ġabstraction": 26539,
    "clo": 5613,
    "Ġnich": 21517,
    "infallibly": 26417,
    "Ġserpentine": 11360,
    "Ð": 145,
    "sound": 6799,
    "Ġpreprocess": 22230,
    "Ġintruding": 21988,
    "Ġsquid": 11876,
    "welcome": 10000,
    "Ġdinah": 9453,
    "Ġshook": 4469,
    "Ġrover": 18454,
    "Ġtelegraph": 25583,
    "Ġjourneying": 25565,
    "Ġtamely": 24977,
    "llable": 6878,
    "shelf": 20379,
    "pain": 7350,
    "Ġruins": 16156,
    "mention": 7214,
    "mole": 22698,
    "Ġmule": 13861,
    "shook": 19855,
    "ror": 7351,
    "pretending": 17041,
    "Ġweapons": 10593,
    "Ġburst": 4380,
    "Ġsweetest": 13245,
    "orers": 14102,
    "comp": 3814,
    "Ġrecover": 9790,
    "elius": 13286,
    "Ġadopt": 10631,
    "overed": 2854,
    "madam": 24421,
    "Ġrecognition": 2980,
    "Ġderbyshire": 6586,
    "Ġprovidence": 18745,
    "Ġincredulous": 9986,
    "Ġstarting": 7728,
    "Ġassumed": 9465,
    "Ġexpiration": 22620,
    "Ġentertain": 6053,
    "Ġ35": 24076,
    "consid": 4924,
    "Ġdramatic": 4850,
    "Ġnaval": 16899,
    "Ġadmire": 5263,
    "abated": 14019,
    "Ġinducement": 16843,
    "til": 17671,
    "mble": 1406,
    "Ġfuss": 13904,
    "Ġfuel": 13903,
    "cold": 9589,
    "Ġtinted": 13821,
    "Ġmail": 17800,
    "snow": 10724,
    "Ġlaw": 3654,
    "Ġecstasy": 11629,
    "eyes": 5684,
    "Ġaffinity": 18785,
    "Ġcalled": 1972,
    "mountains": 15179,
    "Ġbewildered": 15212,
    "purpose": 10043,
    "bern": 20774,
    "Ġoverhung": 15973,
    "Ġmonsie": 11447,
    "Ġethiopian": 26613,
    "Ġclasp": 9743,
    "Ġcontrari": 23345,
    "itheat": 21336,
    "support": 9469,
    "Ġfunere": 22256,
    "Ġpudding": 17913,
    "Ġdrove": 4984,
    "Ġpatent": 11960,
    "Ġdism": 9766,
    "cord": 8723,
    "Ġbarbs": 10531,
    "withstanding": 8945,
    "Ġpulling": 5862,
    "ression": 3403,
    "Ġomens": 21326,
    "Ġmachinery": 20483,
    "ĠĠĠĠĠĠĠĠĠĠĠĠĠĠĠĠĠĠĠĠĠĠĠĠĠĠĠĠĠĠĠĠĠĠĠĠĠ": 14615,
    "Ġmemorable": 16426,
    "Ġgpus": 3732,
    "Ġdeclaring": 19418,
    "rumours": 23897,
    "initions": 21186,
    "č": 206,
    "Ġconfidently": 24955,
    "riety": 12740,
    "tumbled": 21089,
    "Ġattempting": 14696,
    "Ġthy": 2513,
    "Ġprivileges": 25132,
    "Ġflapp": 23007,
    "Ġratio": 5066,
    "Ġdownstairs": 11224,
    "aples": 20767,
    "Ġsan": 7824,
    "Ġgerm": 13963,
    "oran": 8788,
    "attachment": 13049,
    "Ġpanic": 11286,
    "prodigious": 17466,
    "arthy": 4822,
    "Ġmonument": 16236,
    "Ġattendant": 11285,
    "Ġmorbid": 16232,
    "Ġresearches": 13129,
    "Ġyielding": 12184,
    "Ġstretched": 5919,
    "Ġm": 274,
    "fields": 14653,
    "gi": 17551,
    "Ġdreading": 23797,
    "pp": 385,
    "Ġsubs": 2128,
    "Ġplow": 21456,
    "ern": 759,
    "unch": 14057,
    "tr": 3580,
    "Ġcetacean": 25878,
    "Ġappar": 7411,
    "Ġcourtiers": 24136,
    "Ġvillain": 8635,
    "Ġpersian": 11086,
    "alling": 6036,
    "Ġformal": 2941,
    "Ġglances": 10372,
    "Ġbushes": 16398,
    "Ġmodular": 12813,
    "Ġword": 1054,
    "Ġupper": 5090,
    "supplementary": 20548,
    "Ġsocial": 7006,
    "Ġpromoting": 3162,
    "Ġstool": 14461,
    "Ġfoundation": 4233,
    "Ġoccas": 2705,
    "Ġ126": 24471,
    "Ġupon": 719,
    "Ġadmiral": 17304,
    "lad": 5991,
    "Ġcoiled": 11818,
    "Ġpractice": 2727,
    "Ġwarming": 23557,
    "Ġreceives": 20353,
    "Ġ124": 24469,
    "Ġsunda": 13543,
    "vellers": 16673,
    "cell": 10685,
    "Ġnavigation": 9992,
    "erest": 10697,
    "Ġilluminate": 17192,
    "Ġunreasonably": 17450,
    "Ġconfiding": 19034,
    "object": 6884,
    "hands": 5966,
    "Ġconvenient": 8345,
    "aborate": 14021,
    "otted": 14023,
    "fate": 17539,
    "Ġbutts": 15853,
    "Ġhundredth": 16518,
    "Ġundoubted": 19513,
    "Ġhumane": 11882,
    "ss": 396,
    "Ġentreaties": 9035,
    "Ġbier": 22763,
    "Ġoccupies": 24005,
    "Ġexult": 10229,
    "appear": 13197,
    "Ġadler": 8173,
    "Ġhailed": 6407,
    "Ġtravellers": 11308,
    "cture": 15662,
    "doom": 23373,
    "Ġsailor": 3535,
    "Ġserpents": 13075,
    "Ġletters": 3791,
    "Ġleech": 24155,
    "Ġeag": 2969,
    "Ġbale": 7838,
    "Ġsluggish": 25890,
    "glit": 23848,
    "Ġfashions": 17885,
    "Ġasserted": 16949,
    "Ġsooner": 5573,
    "advent": 10220,
    "links": 20957,
    "unknown": 10890,
    "Ġrestlessness": 23288,
    "Ġnick": 21520,
    "Ġpassions": 7929,
    "envelope": 17782,
    "solved": 7684,
    "Ġtrivial": 10142,
    "bouton": 17501,
    "unbidden": 21891,
    "Ġphilosophy": 7103,
    "Ġunsub": 22018,
    "Ġhieroglyphics": 17302,
    "Ġhalting": 16273,
    "Ġlength": 2501,
    "oped": 6046,
    "idy": 21761,
    "Ġchristendom": 16695,
    "Ġepid": 18004,
    "mentioning": 24885,
    "Ġtomorrow": 21510,
    "ptic": 21921,
    "Ġsnoring": 23738,
    "Ġfearlessness": 19160,
    "Ġbowsprit": 16559,
    "unction": 10234,
    "Ġhumming": 12983,
    "gold": 9120,
    "Ġbirth": 6524,
    "Ġcopy": 10163,
    "Ġentries": 22742,
    "securer": 25602,
    "bohemia": 20730,
    "ctu": 5088,
    "zed": 8103,
    "decided": 13214,
    "Ġconciliating": 19045,
    "Ġchatbots": 11349,
    "strength": 13979,
    "Ġsilent": 3409,
    "Ġlisten": 4674,
    "Ġenv": 2902,
    "Ġgoose": 5937,
    "Ġ156": 20169,
    "nt": 921,
    "och": 21000,
    "Ġsinking": 7307,
    "Ġinterest": 2249,
    "Ġpedest": 14995,
    "burgh": 6773,
    "Ġconverse": 11842,
    "ever": 1076,
    "Ġdesired": 4665,
    "Ġanomalous": 25637,
    "Ġexploring": 4305,
    "Ġtemper": 957,
    "Ġthoroughly": 8347,
    "Ġhumorous": 10360,
    "mental": 16046,
    "meas": 7434,
    "hump": 12475,
    "mill": 13753,
    "Ġremorse": 6441,
    "Ġdispatched": 23879,
    "ices": 2135,
    "ĠĠĠĠĠĠĠĠĠĠĠĠĠĠĠĠĠĠĠĠĠĠĠĠĠĠĠĠĠĠĠ": 19699,
    "Ġrises": 9712,
    "Ġyojo": 7610,
    "utherland": 9578,
    "Ġjoke": 8868,
    "coarse": 16486,
    "Ġdeadliest": 14556,
    "Ġelbow": 12918,
    "Ġrestore": 9378,
    "Ġpatiently": 19917,
    "Ġbrass": 11047,
    "Ġpaying": 9937,
    "imodal": 17446,
    "dreadful": 11421,
    "Ġmeditative": 25014,
    "elab": 21567,
    "strike": 14948,
    "utterly": 20010,
    "Ġmastiff": 23723,
    "Ġpredictions": 1455,
    "Ġmalacca": 24393,
    "pumps": 21026,
    "uously": 7353,
    "judge": 13335,
    "Ġbarber": 23788,
    "bourgh": 19103,
    "Ġrobbery": 11906,
    "Ġmarried": 3406,
    "attoo": 6807,
    "Ġunceasingly": 20357,
    "Ġscruples": 15077,
    "when": 1593,
    "Ġgreatest": 4094,
    "Ġneedn": 19228,
    "oquence": 11386,
    "exact": 7909,
    "endent": 15917,
    "cul": 1900,
    "Ġunwell": 22012,
    "Ġnor": 1551,
    "Ġrevolutions": 23839,
    "ause": 1315,
    "horrible": 14600,
    "uce": 11535,
    "Ġilliterate": 26594,
    "Ġspilled": 10924,
    "Ġintense": 6157,
    "Ġambiguous": 20163,
    "Ġnineveh": 13388,
    "osen": 6855,
    "acqu": 4842,
    "Ġcruis": 14624,
    "lands": 8240,
    "contact": 23726,
    "ĠĠĠĠĠĠĠĠĠĠĠĠĠĠĠĠĠĠĠĠĠĠĠĠ": 5321,
    "Ġsheer": 14150,
    "Ġamateur": 22482,
    "asted": 4650,
    "Ġattentions": 5877,
    "gaining": 20122,
    "ture": 7558,
    "fug": 17543,
    "larking": 17594,
    "apside": 22957,
    "Ġovercame": 9745,
    "Ġstepfather": 7222,
    "imens": 1745,
    "Ġheredit": 9216,
    "thinness": 25810,
    "Ġwhim": 13998,
    "Ġbol": 6241,
    "ady": 994,
    "Ġwhom": 1829,
    "lege": 17841,
    "Ġirre": 7468,
    "Ġmeasuring": 22879,
    "Ġgold": 3280,
    "dation": 2617,
    "Ġeduc": 4785,
    "Ġmerited": 23729,
    "Ġjoined": 4565,
    "Ġapparent": 5466,
    "ump": 2284,
    "Ġfiend": 4411,
    "Ġadduced": 26524,
    "Ġinside": 5448,
    "Ġsy": 489,
    "apothe": 22331,
    "inal": 15479,
    "Ġquart": 11785,
    "Ġimbued": 17454,
    "whalemen": 10431,
    "Ġdrawer": 13265,
    "Ġthus": 2033,
    "embarrassed": 20595,
    "Ġcaptured": 7245,
    "Ġintelligible": 15939,
    "Ġfiftieth": 24703,
    "pread": 7419,
    "Ġmans": 15534,
    "Ġsearch": 2594,
    "Ġtrip": 16788,
    "Ġinform": 997,
    "police": 10583,
    "Ġsaviour": 20712,
    "Ġnur": 5710,
    "Ġyelled": 9693,
    "Ġhumorously": 18778,
    "Ġstoper": 14462,
    "break": 6101,
    "cary": 10689,
    "Ġdis": 693,
    "Ġheedful": 19739,
    "Ġutterly": 6100,
    "general": 7489,
    "explanation": 12356,
    "Ġimmensity": 25329,
    "Ġdarted": 4758,
    "mant": 20964,
    "Ġunprovided": 18257,
    "opes": 10310,
    "ĠâĢĺ_": 11117,
    "asmuch": 10194,
    "Ġapplication": 2109,
    "Ġpage": 6978,
    "Ġtested": 23242,
    "facts": 19841,
    "Ġdef": 1200,
    "Ġwriting": 4668,
    "ourably": 14376,
    "totally": 25417,
    "urmountable": 15278,
    "Ġruinous": 24633,
    "Ġmostly": 7663,
    "Ġpeddling": 24799,
    "Ġdestabilizing": 5053,
    "voy": 7143,
    "iac": 6225,
    "Ġdiscount": 22777,
    "discrimin": 19607,
    "Ġomn": 8409,
    "lowering": 16029,
    "herself": 4890,
    "dict": 15338,
    "Ġscatter": 18397,
    "Ġconscience": 6929,
    "rane": 17653,
    "Ġdistillation": 16043,
    "Ġappet": 9730,
    "ution": 4350,
    "Ġmending": 17804,
    "mael": 6723,
    "comparatively": 25839,
    "hess": 4747,
    "sheets": 14441,
    "pieces": 8754,
    "Ġpurchas": 19873,
    "inks": 6869,
    "Ġpersonified": 19177,
    "Ġboards": 14300,
    "hy": 4740,
    "Ġramble": 9312,
    "Ġmod": 492,
    "greenland": 10020,
    "Ġwhere": 786,
    "Ġconv": 2971,
    "onom": 9158,
    "mselves": 2863,
    "rent": 1170,
    "communication": 25881,
    "Ġrecollection": 6620,
    "Ġvinc": 14084,
    "Ġpersuade": 5872,
    "Ġmiserably": 12944,
    "brill": 16490,
    "ichever": 13956,
    "Ġlane": 5627,
    "Ġintroduction": 8970,
    "Ġdispute": 16054,
    "Ġbaggy": 24538,
    "Ġvarious": 3507,
    "lower": 8880,
    "Ġtemporary": 7980,
    "Ġcopying": 17068,
    "Ġpalsy": 25778,
    "naught": 20993,
    "knew": 9126,
    "block": 11470,
    "h": 76,
    "Ġdock": 15928,
    "Ġ182": 13235,
    "fifth": 20145,
    "Ġwaste": 9233,
    "pray": 5429,
    "uled": 11536,
    "Ġoccupation": 9930,
    "Ġdomains": 6610,
    "Ġunaccount": 22022,
    "determination": 19943,
    "hither": 11492,
    "Ġorder": 1689,
    "Ġfill": 5701,
    "Ġoffered": 5816,
    "Ġbumping": 25280,
    "gypt": 8260,
    "Ġscratch": 25564,
    "Ġowing": 6004,
    "Ġwoeful": 19618,
    "Ġpolished": 11182,
    "Ġungenerous": 18263,
    "Ġinstructions": 11195,
    "Ġbrill": 8548,
    "Ġcontrived": 10303,
    "abashed": 21789,
    "Ġsplashing": 16549,
    "ribs": 23361,
    "co": 2435,
    "Ġavocation": 23950,
    "Ġcaptivating": 26049,
    "Ġcanvassed": 19933,
    "Ġbullion": 24983,
    "possesses": 24616,
    "Ġmuff": 8113,
    "venth": 9294,
    "jumping": 20244,
    "Ġgas": 8132,
    "rential": 22916,
    "Ġnantucketer": 6914,
    "Ġsimilarly": 24308,
    "Ġappertaining": 26533,
    "Ġvariety": 8530,
    "Ġgraceful": 11296,
    "gammon": 20242,
    "Ġplaything": 19237,
    "Ġpartial": 2127,
    "Ġstream": 5186,
    "Ġperse": 6271,
    "rage": 10843,
    "Ġaggregate": 25677,
    "Ġinward": 11606,
    "robber": 21534,
    "Ġnocturn": 18374,
    "Ġancest": 12611,
    "Ġauthority": 7748,
    "Ġmaps": 2965,
    "Ġfive": 2838,
    "jack": 7344,
    "comfortable": 7320,
    "ict": 594,
    "Ġhel": 3785,
    "manners": 16183,
    "Ġtreasures": 17047,
    "Ġfretfully": 25447,
    "Ġshiver": 12764,
    "hall": 8084,
    "hearth": 15498,
    "curious": 10482,
    "drunk": 24659,
    "asets": 2309,
    "Ġwolves": 25934,
    "oles": 21004,
    "Ġstove": 6733,
    "Ġsenate": 25214,
    "Ġburnt": 9927,
    "south": 8758,
    "Ġsatur": 1930,
    "Ġplump": 14281,
    "feared": 11800,
    "tain": 558,
    "Ġrnns": 2396,
    "www": 17251,
    "Ġcarriages": 11098,
    "Ġblackstone": 23385,
    "Ġserves": 4669,
    "Ġjew": 9467,
    "Ġmovements": 24359,
    "handle": 11190,
    "Ġblank": 5950,
    "Ġfreighted": 16322,
    "Ġvishnoo": 12750,
    "Ġsumm": 3355,
    "Ġadequate": 20307,
    "goodness": 19287,
    "Ġperth": 7022,
    "Ġsecondary": 23331,
    "Ġcombine": 4416,
    "organ": 15571,
    "Ġpleaded": 16297,
    "Ġstorms": 11262,
    "Ġcreditor": 24290,
    "Ġintellectual": 11401,
    "drop": 15336,
    "Ġcigars": 12250,
    "fiercely": 25256,
    "usations": 15945,
    "attempt": 9359,
    "Ġlaborers": 19054,
    "Ġobtruded": 20721,
    "Ġlect": 9222,
    "bold": 17487,
    "Ġimpudence": 26241,
    "travelling": 24317,
    "!_âĢĶ": 19971,
    "happened": 9432,
    "resses": 16151,
    "Ġgiven": 1631,
    "improve": 15709,
    "blister": 24127,
    "ckles": 22086,
    "Ġremonstr": 16160,
    "foundered": 20866,
    "Ġnaut": 13940,
    "Ġunseason": 22047,
    "Ġworried": 22923,
    "Ġ129": 24474,
    "Ġfloor": 4378,
    "Ġimpet": 11777,
    "Ġmustering": 18662,
    "Ġtherefore": 2240,
    "invested": 17117,
    "Ġartistic": 18612,
    "Ġbackbones": 22646,
    "Ġopine": 19227,
    "Ġtombed": 25160,
    "Ġprefer": 6416,
    "finds": 19926,
    "cures": 20804,
    "Ġdetermined": 2224,
    "Ġhiding": 9822,
    "Ġrepulsive": 14529,
    "Ġgeneration": 2153,
    "step": 2457,
    "Ġbeg": 1282,
    "Ġpallet": 21478,
    "meant": 7920,
    "revenge": 13841,
    "Ġgives": 5018,
    "Ġindirectly": 8939,
    "interruption": 20110,
    "Ġinfl": 6892,
    "weaving": 18666,
    "Ġlabel": 14515,
    "uation": 17694,
    "ĠmanÅĵuv": 18417,
    "Ġconvict": 23743,
    "unnecessary": 21877,
    "Ġelevates": 24503,
    "Ġdarkly": 19114,
    "catherine": 7127,
    "velled": 9875,
    "Ġwaves": 3895,
    "Ġescorted": 23504,
    "rough": 590,
    "Ġpush": 9183,
    "Ġseverely": 14932,
    "Ġtouched": 6000,
    "Ġresented": 22540,
    "sequ": 2403,
    "Ġdisgra": 18548,
    "Ġdesolate": 10012,
    "gall": 6359,
    "owers": 12681,
    "Ġtranquil": 7310,
    "Ġbring": 3324,
    "verty": 8452,
    "express": 4895,
    "Ġevidence": 5269,
    "Ġenumerating": 15243,
    "rons": 21038,
    "renadier": 18419,
    "Ġdefray": 22938,
    "ellig": 523,
    "given": 8376,
    "Ġcoop": 14270,
    "ful": 661,
    "immedi": 8450,
    "Ġvector": 1971,
    "Č": 205,
    "Ġexceedingly": 4615,
    "dually": 3285,
    "uted": 7592,
    "Ġsandwiched": 26610,
    "Ġsyn": 15910,
    "Ġscant": 22277,
    "Ġdispleasure": 16050,
    "chard": 21684,
    "covenant": 23561,
    "Ġdevice": 1928,
    "formality": 22214,
    "Ġrewarding": 13436,
    "Ġdeference": 10882,
    "Ġdrives": 14578,
    "Ġanoint": 25537,
    "Ġrim": 21962,
    "awk": 23111,
    "ologies": 18771,
    "Ġappeals": 16314,
    "Ġflo": 2592,
    "currents": 23842,
    "hounds": 20906,
    "lording": 24047,
    "Ġvile": 8472,
    "Ġincred": 5646,
    "glances": 23851,
    "Ġentreating": 24207,
    "Ġharry": 24571,
    "tut": 15433,
    "Ġnobly": 22238,
    "have": 2056,
    "Ġ127": 24472,
    "Ġusurpation": 18358,
    "Ġ235": 25713,
    "Ġstudents": 23223,
    "Ġtilted": 20411,
    "soundest": 24797,
    "duing": 22408,
    "Ġfills": 12591,
    "Ġlocations": 12411,
    "Ġnarrative": 6215,
    "Ġincant": 18570,
    "Ġfinally": 4667,
    "Ġoysters": 20577,
    "Ġsecluded": 11991,
    "Ġpalms": 8643,
    "especially": 3573,
    "Ġflow": 1240,
    "Ġchip": 12821,
    "Ġtrailing": 23077,
    "8": 28,
    "Ġtus": 10749,
    "Ġsword": 6732,
    "Ġhurts": 19111,
    "recover": 24622,
    "Ġinjunctions": 24269,
    "Ġignoble": 19397,
    "sweet": 8685,
    "Ġmasses": 10503,
    "Ġgrappling": 25812,
    "Ġdamn": 11158,
    "locks": 14455,
    "Ġ1890": 23893,
    "Ġmixed": 6974,
    "Ġoverflow": 10292,
    "Ġbillows": 7502,
    "Ġputting": 5326,
    "Ġshare": 1659,
    "whips": 22235,
    "Ġimmediate": 6089,
    "Ġunrecorded": 17467,
    "commun": 15033,
    "Ġinquirer": 24961,
    "yra": 8102,
    "Ġextremity": 8988,
    "Ġexceeded": 14432,
    "Ġpenetration": 19916,
    "Ġgrazed": 15831,
    "questioning": 16850,
    "Ġtire": 17720,
    "undoubtedly": 13310,
    "lose": 12879,
    "sar": 12502,
    "Ġacquaintances": 17349,
    "Ġenvirons": 13186,
    "lighted": 23752,
    "Ġcargo": 16288,
    "Ġbowls": 23768,
    "olstad": 7613,
    "appears": 12058,
    "Ġundertone": 23236,
    "Ġdexterous": 15147,
    "Ġplant": 8899,
    "court": 7511,
    "Ġrefuse": 5739,
    "Ġcorroboration": 26052,
    "Ġunsuccessful": 18254,
    "Ġprison": 5403,
    "elf": 564,
    "etwork": 442,
    "Ġpredicted": 2041,
    "Ġunconcerned": 20508,
    "Ġmistaken": 4986,
    "underneath": 23787,
    "plied": 10255,
    "Ġmonth": 2851,
    "pper": 3209,
    "acency": 12905,
    "Ġadult": 18291,
    "Ġscener": 10949,
    "Ġfath": 7364,
    "sail": 3602,
    "inde": 17731,
    "Ġlecture": 13566,
    "Ġencapsulate": 13673,
    "Ġkeels": 11061,
    "Ġtorpor": 25031,
    "imag": 6990,
    "Ġjabbering": 22300,
    "Ġpricking": 23216,
    "Ġresembling": 4099,
    "Ġindeed": 1684,
    "wol": 21121,
    "na": 13759,
    "Ġlonger": 3359,
    "Ġcomprehen": 5349,
    "Ġfunctions": 1344,
    "zeal": 16270,
    "Ġbarbaric": 10013,
    "Ġmomentum": 1605,
    "Ġsummits": 14683,
    "Ġdi": 6525,
    "eag": 20841,
    "nants": 17613,
    "Ġapologized": 25198,
    "aphs": 22332,
    "Ġpumping": 25643,
    "greek": 25404,
    "Ġinsulted": 14991,
    "Ġscotland": 6639,
    "Ġneutral": 12741,
    "Ġplutarch": 22600,
    "umphed": 23516,
    "Ġobtain": 8914,
    "Ġeagle": 13201,
    "Ġdatasets": 2391,
    "Ġinstituted": 18697,
    "Ġrates": 1404,
    "wholly": 10941,
    "Ġsailors": 4277,
    "Ġencirc": 18731,
    "Ġhor": 1664,
    "choice": 21688,
    "Ġconsists": 11976,
    "Ġ84": 19708,
    "rec": 6003,
    "Ġcomp": 724,
    "itates": 13868,
    "Ġvit": 10245,
    "Ġbagging": 24539,
    "brave": 19822,
    "palms": 25262,
    "xter": 9146,
    "devouring": 24950,
    "Ġrules": 1918,
    "comb": 11034,
    "Ġmild": 4149,
    "Ġthreatening": 16828,
    "circumstantial": 24444,
    "Ġcatastrophe": 10483,
    "whip": 22234,
    "Ġhumph": 22880,
    "Ġdrawled": 23986,
    "Ġfergus": 16867,
    "Ġforts": 21769,
    "Ġcarpenter": 4685,
    "Ġphysiology": 25332,
    "ipher": 18432,
    "keenest": 25661,
    "Ġeyford": 10641,
    "Åĵuv": 15181,
    "Ġprices": 15609,
    "Ġbrothers": 13174,
    "multiple": 15106,
    "Ġbelonging": 8307,
    "perceived": 8858,
    "fill": 15349,
    "Ġcarpenters": 16752,
    "Ġrecklessness": 24745,
    "une": 2789,
    "Ġdigging": 14937,
    "Ġopposition": 16520,
    "Ġcrawling": 17045,
    "Ġawe": 7147,
    "Ġerrone": 14429,
    "isting": 5551,
    "Ġdance": 4443,
    "Ġplight": 14280,
    "Ġweighty": 16030,
    "secure": 12233,
    "justified": 19002,
    "Ġwilled": 21290,
    "Ġmend": 8405,
    "Ġprow": 6684,
    "Ġidiot": 11970,
    "reck": 9636,
    "Ġcredulous": 17144,
    "street": 6495,
    "Ġbraw": 23832,
    "Ġmightiest": 12958,
    "Ġimprecations": 25820,
    "Ġcotton": 17378,
    "Ġsquint": 22835,
    "Ġfishermen": 5970,
    "Ġdishonor": 25601,
    "Ġneedle": 8274,
    "ittered": 18439,
    "Ġtottenham": 24141,
    "Ġconsciousness": 9947,
    "together": 3557,
    "Ġdifferences": 18714,
    "Ġstack": 21730,
    "Ġfreshet": 25704,
    "Ġgenerating": 12848,
    "Ġthrows": 14736,
    "af": 2375,
    "rees": 5436,
    "Ġskylarking": 19485,
    "Ġbrigandish": 25487,
    "doc": 23372,
    "trap": 24313,
    "Ġdependen": 1827,
    "Ġtrans": 638,
    "rippling": 24713,
    "car": 4213,
    "Ġroving": 22400,
    "gracechurch": 24581,
    "dining": 13704,
    "Ġumb": 11645,
    "Ġmassacre": 20546,
    "Ġregularization": 1178,
    "Ġhoney": 12629,
    "Ġeffeminacy": 20717,
    "Ġdeposed": 16084,
    "Ġsand": 6235,
    "icions": 21560,
    "preserve": 25303,
    "humorously": 24017,
    "etch": 9204,
    "onist": 21249,
    "ifled": 14062,
    "dled": 9110,
    "Ġfarmhouse": 24984,
    "stee": 21648,
    "Ġ12": 5483,
    "Ġgurglings": 26465,
    "uther": 8816,
    "Ġrepelled": 19085,
    "Ġsurv": 6081,
    "Ġrespects": 7269,
    "dum": 17518,
    "Ġjustine": 4970,
    "Ġrash": 10898,
    "Ġnails": 12645,
    "postp": 24634,
    "kshire": 13745,
    "Ġcups": 16882,
    "Ġwearer": 21919,
    "Ġrephr": 21676,
    "Ġomin": 11576,
    "putation": 7624,
    "Ġshiny": 14105,
    "high": 6649,
    "boo": 16349,
    "Ġsame": 1345,
    "Ġtwine": 14310,
    "Ġsecretary": 19440,
    "ynolds": 10035,
    "Ġlexic": 15721,
    "Ġfiery": 6871,
    "pudding": 17647,
    "Ġhopeful": 19029,
    "Ġmeasurement": 19421,
    "fo": 5278,
    "Ġvideos": 13605,
    "Ġ25": 13193,
    "Ġ130": 24781,
    "reproach": 15185,
    "Ġintrepidity": 25550,
    "Ġcommentators": 25229,
    "ancy": 4393,
    "Ġfainting": 16897,
    "atoes": 17775,
    "Ġaugment": 8691,
    "sacred": 17028,
    "tumult": 12421,
    "iterranean": 15547,
    "Ġobtained": 7432,
    "Ġevils": 9019,
    "securing": 19812,
    "Ġtissu": 25920,
    "Ġbowing": 10475,
    "Ġsend": 4109,
    "Ġgowns": 25359,
    "Ġexpert": 18864,
    "sm": 3434,
    "Ġconscientious": 16727,
    ".": 18,
    "Ġunsatisfied": 22039,
    "Ġgrasshopper": 24380,
    "pervised": 1587,
    "sul": 15420,
    "000": 2563,
    "Ġhypocr": 19470,
    "assembled": 21542,
    "Ġchimneys": 16972,
    "trampled": 26333,
    "obtain": 23091,
    "Ġmig": 13855,
    "spin": 22728,
    "Ġcondescended": 19954,
    "nuts": 15397,
    "Ġhumanity": 6731,
    "Ġsubstantial": 14809,
    "umberland": 16837,
    "Ġoccasions": 7987,
    "Ġcircumference": 13544,
    "umbered": 22114,
    "something": 4285,
    "liter": 11501,
    "Ġheaped": 18037,
    "Ġsobbing": 14133,
    "Ġcertain": 1558,
    "Ġalternating": 15030,
    "Ġzone": 14361,
    "Ġboiling": 8525,
    "Ġscratches": 22283,
    "cused": 15331,
    "Ġkeeps": 8266,
    "Ġsample": 3178,
    "Ġuppermost": 15277,
    "answer": 11733,
    "Ġharpoone": 2911,
    "camp": 15329,
    "insufficient": 15488,
    "embedding": 20703,
    "Ġvines": 12748,
    "bweb": 20790,
    "Ġgloves": 8574,
    "Ġexulting": 20257,
    "brother": 7091,
    "Ġenjoyment": 7300,
    "Ġhorror": 3772,
    "elstrom": 17981,
    "accuracy": 9878,
    "Ġcharacteristics": 8609,
    "Ġunimpe": 22067,
    "ived": 1533,
    "Ġrevolution": 3306,
    "Ġparamount": 15876,
    "ded": 2423,
    "clump": 23153,
    "Ġcurving": 16245,
    "Ġmelancholy": 5606,
    "distinctive": 25726,
    "crossed": 16632,
    "Ġpersonality": 16476,
    "ob": 1420,
    "size": 15423,
    "Ġnone": 3223,
    "Ġeastward": 13389,
    "machine": 983,
    "Ġviewed": 10463,
    "Ġseethings": 26503,
    "safie": 20347,
    "Ġluxuries": 25163,
    "steep": 19417,
    "Ġruss": 18718,
    "Ġeth": 17716,
    "Ġcondu": 18112,
    "onde": 21250,
    "Ġdisposition": 5409,
    "Ġendangered": 16302,
    "Ġobtru": 18672,
    "amaz": 21841,
    "Ġfam": 1588,
    "Ġlot": 6678,
    "train": 2031,
    "enger": 10773,
    "addressed": 13384,
    "eer": 15346,
    "Ġdeaden": 23459,
    "protected": 19920,
    "Ġapparel": 20434,
    "sion": 8093,
    "ign": 1705,
    "Ġwednesday": 9024,
    "I": 45,
    "tering": 3805,
    "Ġdesigns": 13009,
    "your": 1983,
    "Ġincrease": 9369,
    "Ġbrightly": 13222,
    "dorff": 15236,
    "pun": 9617,
    "flow": 2194,
    "considering": 12172,
    "uctive": 17696,
    "Ġnum": 1351,
    "opinion": 10984,
    "Ġsteak": 9828,
    "Ġtertiary": 15293,
    "opius": 18508,
    "Ġcatholic": 20680,
    "Ġgloomy": 7504,
    "ition": 653,
    "Ġwouldst": 18501,
    "jolly": 20930,
    "Ġminutely": 14561,
    "Ġbreak": 2869,
    "Ġtune": 17725,
    "telescope": 26562,
    "admiration": 11387,
    "Ġallev": 18100,
    "Ġshoved": 23488,
    "Ġinterven": 10998,
    "magistrate": 19862,
    "Ġspeculations": 22997,
    "Ġlamb": 8812,
    "Ġblazing": 11894,
    "archangel": 18788,
    "Ġmoulded": 16975,
    "Ġuntrodden": 23521,
    "impressed": 12688,
    "Ġoutlaws": 22320,
    "Ġgroves": 16740,
    "Ġtarts": 10753,
    "capting": 24036,
    "comprehend": 14355,
    "lashed": 20953,
    "rowed": 22860,
    "Ġcoachman": 15000,
    "Ġneeds": 6605,
    "apidated": 22333,
    "inno": 10756,
    "cri": 17505,
    "Ġsources": 10147,
    "conception": 22471,
    "Ġtour": 9147,
    "Ġeffected": 14358,
    "Ġmizen": 17258,
    "shire": 3024,
    "Ġresemblance": 7973,
    "Ġgeneralize": 3101,
    "Ġsuck": 15860,
    "Ġconsol": 3813,
    "Ġvary": 15805,
    "Ġtransportation": 13641,
    "Ġpretended": 19313,
    "Ġcontour": 18474,
    "Ġlifts": 25358,
    "Ġmagnanimous": 17410,
    "coo": 11170,
    "Ġunabated": 15850,
    "Ġ[_": 15460,
    "Ġtransplanted": 22438,
    "Ġ72": 19610,
    "Ġrushes": 20506,
    "Ġcruellest": 19657,
    "ricade": 13036,
    "gno": 13726,
    "Ġtremulous": 14985,
    "Ġreliability": 22878,
    "Ġoce": 3032,
    "Ġcemeteries": 26375,
    "ë": 172,
    "ints": 3415,
    "elson": 16368,
    "quake": 11679,
    "Ġdepression": 21838,
    "Ġdescending": 8902,
    "stead": 10846,
    "Ġwarmest": 16483,
    "quee": 4132,
    "onents": 8776,
    "province": 26072,
    "Ġthirds": 16708,
    "Ġfour": 2217,
    "Ġlarger": 1402,
    "ster": 1951,
    "frightened": 17195,
    "Ġrespectively": 23246,
    "windibank": 24161,
    "Ġcount": 1813,
    "Ġ97": 19773,
    "hon": 6793,
    "reflection": 13454,
    "Ġ69": 19660,
    "Ġcolony": 18764,
    "Ġtrample": 20326,
    "angry": 18289,
    "Ġreco": 9789,
    "Ġblindly": 12107,
    "intern": 23734,
    "required": 17030,
    "ears": 20844,
    "88": 20757,
    "ories": 4753,
    "Ġconsidering": 4616,
    "Ġrich": 2995,
    "roll": 9196,
    "Ġverbal": 19377,
    "hatchway": 25904,
    "Ġhoriz": 4726,
    "putable": 10901,
    "aract": 17894,
    "pacing": 21020,
    "Ġnot": 413,
    "Ġbeaks": 21752,
    "ca": 20792,
    "increas": 10454,
    "Ġxiv": 23406,
    "ism": 4874,
    "Ġdoleful": 18376,
    "Ġalluded": 7886,
    "Ġgroans": 14823,
    "Ġtakes": 5007,
    "Ġsymph": 22204,
    "sec": 6152,
    "Ġwestmorland": 24390,
    "card": 11475,
    "Ġunfold": 8022,
    "Ġbaboon": 19692,
    "tout": 21064,
    "Ġpia": 21461,
    "gener": 3127,
    "ected": 7872,
    "Ġheath": 15699,
    "!âĢĻ": 3332,
    "Ġhovers": 19078,
    "unsupervised": 10889,
    "Ġboots": 5943,
    "slipped": 25529,
    "op": 657,
    "mix": 20973,
    "Ġhey": 11640,
    "lightened": 12063,
    "Ġplumber": 16082,
    "umbent": 12093,
    "Ġblotting": 25313,
    "Ġannum": 24203,
    "Ġblade": 11891,
    "Ġchicha": 15934,
    "educ": 10828,
    "Ġbraved": 23835,
    "Ġreconsidered": 21670,
    "den": 939,
    "otion": 4946,
    "Ġcigaret": 16976,
    "level": 2656,
    "Ġreinforcement": 3241,
    "M": 49,
    "Ġprognostics": 20557,
    "Ġrecorded": 11293,
    "Ġvocation": 10525,
    "Ġthine": 7374,
    "Ġtendinous": 16931,
    "Ġworry": 18815,
    "Ġghastly": 10059,
    "Ġsammy": 24932,
    "Ġperform": 1038,
    "Ġwonders": 7500,
    "Ġpassers": 18757,
    "barb": 10080,
    "Ġruminated": 24599,
    "Ġhandsomer": 20332,
    "Ġcrippled": 25278,
    "Ġwreck": 7314,
    "condition": 7059,
    "unfearing": 21889,
    "Ġthence": 8881,
    "Ġphilosophical": 26334,
    "nect": 662,
    "Ġemboldened": 22973,
    "deformity": 22142,
    "Ġrollicking": 24451,
    "treas": 17679,
    "Ġther": 17778,
    "love": 9293,
    "Ġsurvive": 9066,
    "Ġchapter": 2955,
    "Ġinvaluable": 10182,
    "Ġext": 898,
    "Ġprincely": 24148,
    "Ġexercised": 24803,
    "abri": 6682,
    "Ġmorality": 22968,
    "Ġburied": 7718,
    "Ġmaintenance": 17461,
    "Ġyelling": 18096,
    "Ġmincing": 18751,
    "Ġsnodhead": 19301,
    "Ġexcel": 3568,
    "Ġmonogram": 26574,
    "chapter": 1403,
    "Y": 61,
    "admire": 24943,
    "Ġafloat": 9307,
    "Ġwinking": 17793,
    "Ġsuppressed": 11910,
    "Ġtap": 12523,
    "Ġsubstitute": 16726,
    "Ġwillow": 18528,
    "Ġunsolved": 22028,
    "jected": 22709,
    "stad": 7597,
    "Ġroar": 9751,
    "Ġpatients": 24813,
    "Ġtwilight": 16119,
    "Ġallures": 22068,
    "Ġsurpassing": 20466,
    "Ġregal": 16074,
    "tol": 17672,
    "Ġbaffled": 12401,
    "ant": 438,
    "Ġuninhabited": 22046,
    "Ġmor": 1249,
    "vessels": 10625,
    "Ġchristian": 6479,
    "Ġmethodically": 23143,
    "Ġadmiring": 16479,
    "Ġyanke": 18097,
    "decl": 8856,
    "Ġexpressed": 4468,
    "Ġseats": 14087,
    "Ġsagacious": 14970,
    "itaries": 21334,
    "Ġcircumspection": 25884,
    "Ġrooms": 5180,
    "Ġmildness": 9943,
    "Ġgeological": 14532,
    "Ġdupl": 9953,
    "Ġshutters": 9936,
    "believed": 9932,
    "got": 6955,
    "Ġsituation": 4074,
    "F": 42,
    "Ġapplying": 13090,
    "Ġcoincid": 20316,
    "Ġfarthing": 14453,
    "Ġweighed": 8710,
    "Ġtortures": 14922,
    "90": 12430,
    "Ġmottled": 20677,
    "Ġnon": 1628,
    "Ġshows": 8482,
    "Ã": 132,
    "Ġrudimental": 25108,
    "Ġpercept": 14222,
    "Ġchannel": 26012,
    "Ġbeats": 21749,
    "----âĢĿ": 13305,
    "Ġdiving": 12598,
    "Ġsunset": 8962,
    "Ġunconnected": 18239,
    "pardon": 10064,
    "Ġrevolt": 24504,
    "Ġbefallen": 12341,
    "Ġwives": 12552,
    "Ġwast": 21857,
    "ization": 483,
    "Ġcare": 1641,
    "Ġfaults": 12210,
    "Ġthrough": 604,
    "moments": 19410,
    "concerted": 16671,
    "ulpt": 10885,
    "Ġcongregation": 12327,
    "Ġwatched": 6297,
    "Ġinvests": 14867,
    "Ġarabian": 9089,
    "Ġ123": 24468,
    "Ġforeboding": 20382,
    "Ġincome": 7916,
    "Ġband": 5290,
    "Ġpoignant": 22591,
    "Ġresign": 18564,
    "Ġimmensities": 25330,
    "Ġcrusad": 23705,
    "Ġvancouver": 26565,
    "Ġuses": 1208,
    "kn": 5791,
    "bearance": 22491,
    "Ġprynne": 25540,
    "mature": 20966,
    "ades": 5631,
    "it": 276,
    "Ġsenior": 17171,
    "Ġsof": 18277,
    "Ġhatchet": 16529,
    "Ġtens": 17723,
    "flag": 14710,
    "Ġmutable": 23952,
    "Ġparson": 6687,
    "Ġgor": 9206,
    "Ġsaid": 579,
    "requ": 7148,
    "otic": 15742,
    "Ġcas": 8410,
    "Ġhundreds": 4328,
    "Ġnois": 4268,
    "Ġtipped": 17728,
    "Ġamuse": 5939,
    "property": 19998,
    "historical": 20464,
    "Ġsupposition": 9816,
    "Ġdromedary": 17438,
    "Ġassault": 9836,
    "Ġscience": 1544,
    "thickness": 25367,
    "esting": 7412,
    "agos": 21901,
    "Ġadversarial": 5607,
    "aust": 15308,
    "throne": 25657,
    "Ġsty": 6251,
    "Ġreported": 11978,
    "hunted": 16832,
    "erted": 7361,
    "Ġclustered": 25233,
    "Ġscale": 1549,
    "Ġdairy": 20685,
    "Ġ73": 24260,
    "Ġpeep": 6870,
    "Ġanimated": 7701,
    "contempt": 13189,
    "Ġdilig": 8349,
    "Ġinher": 10179,
    "Ġampl": 22477,
    "Ġperpetual": 12301,
    "Ġloun": 7166,
    "Ġrooted": 13168,
    "Ġstumped": 24942,
    "Ġquivered": 18467,
    "semicirc": 26491,
    "acters": 9308,
    "muring": 17601,
    "ped": 6365,
    "ger": 1106,
    "Ġlaudanum": 20689,
    "Ġstrasburgh": 18614,
    "Ġted": 13811,
    "Ġaccent": 10293,
    "Ġstrictly": 12283,
    "ara": 12603,
    "poison": 14392,
    "Ġbel": 1215,
    "expense": 22426,
    "Ġordinary": 6096,
    "Ġmutters": 23953,
    "Ġinterrupted": 6343,
    "Ġparacelsus": 15265,
    "Ġanybody": 5313,
    "Ġhumbly": 16196,
    "Ġadoption": 24948,
    "Ġgentleness": 8709,
    "gish": 20872,
    "abs": 11666,
    "Ġbehoo": 19031,
    "constable": 24605,
    "leagued": 26435,
    "87": 20756,
    "encyclopÃ¦dia": 16663,
    "izard": 10879,
    "endering": 21283,
    "Ġreproof": 24890,
    "Ġazure": 12372,
    "Ġheaven": 3364,
    "boat": 3361,
    "Ġstrings": 11827,
    "Ġvindictiveness": 25738,
    "uments": 5552,
    "Ġunhallowed": 17180,
    "Ġcracks": 12018,
    "slave": 16895,
    "ineffectual": 26507,
    "Ġloath": 7890,
    "Ġdangerously": 23934,
    "Ġclouds": 5775,
    "Ġtreat": 3176,
    "Ġscandinavian": 26344,
    "Ġholidays": 22919,
    "Ġauthent": 14507,
    "Ġmoist": 9284,
    "rougham": 15991,
    "Ġsong": 5902,
    "Ġacknowled": 6350,
    "cible": 20805,
    "otherwise": 7670,
    "Ġwhipcord": 20093,
    "Ġtread": 9408,
    "aster": 1866,
    "formal": 14167,
    "nelson": 25620,
    "Ġbeak": 18079,
    "enses": 10995,
    "urer": 18122,
    "Ġadjusts": 8980,
    "aver": 6785,
    "fortunately": 9449,
    "fle": 7128,
    "weep": 22681,
    "Ġbeaut": 2395,
    "Ġabove": 2935,
    "urrection": 12407,
    "Ġwalk": 1824,
    "alf": 4639,
    "aution": 9386,
    "Ġtore": 6530,
    "Ġconvinced": 4207,
    "Ġperceptibly": 25821,
    "Ġnought": 21519,
    "Ġclubs": 25179,
    "Ġwhitewashed": 14468,
    "ĠâĢľ": 516,
    "cceed": 4145,
    "orney": 17873,
    "Ġsweet": 3465,
    "Ġmill": 6666,
    "Ġdeliberately": 10624,
    "Ġelements": 2669,
    "Ġintellig": 525,
    "Ġadding": 2405,
    "Ġtreas": 7358,
    "Ġach": 2624,
    "bacc": 7794,
    "Ġbrimming": 22864,
    "ources": 2792,
    "Ġround": 1371,
    "Ġapo": 9630,
    "utting": 17984,
    "supernatural": 19778,
    "Ġuproar": 22152,
    "Ġclaims": 13372,
    "cupboards": 25401,
    "Ġbelike": 18829,
    "conjecture": 15121,
    "Ġbetter": 1173,
    "severe": 21816,
    "pole": 9332,
    "Ġimpotent": 18447,
    "favour": 9548,
    "mong": 15388,
    "disposed": 25010,
    "Ġsuperior": 2754,
    "Ġunavailing": 26215,
    "Ġepit": 18006,
    "wife": 8100,
    "Ġlubber": 17443,
    "quakes": 21853,
    "Ġunwelcome": 12776,
    "limin": 8383,
    "elope": 14458,
    "ice": 587,
    "renewed": 19703,
    "Ġramadans": 25119,
    "Ġsuperstitious": 13519,
    "Ġunchanging": 22040,
    "shining": 18492,
    "Ġunfit": 14785,
    "Ġforegoing": 23448,
    "Ġchristians": 13307,
    "pistol": 17642,
    "Ġshine": 12763,
    "Ġlurks": 11290,
    "Ġmadden": 10447,
    "entreat": 17975,
    "Ġcomprised": 14268,
    "Ġdiscussion": 17194,
    "?âĢĻ": 2643,
    "grand": 7969,
    "contrivance": 26316,
    "Ġplucked": 15112,
    "Ġlieuten": 13325,
    "Ġstraits": 7993,
    "ordered": 8789,
    "Ġjealous": 9468,
    "ear": 8730,
    "Ġceremonious": 24837,
    "Ġpig": 5705,
    "poster": 11056,
    "faint": 17545,
    "Ġeasiness": 23536,
    "Ġrocked": 12851,
    "instances": 13318,
    "Ġwrinkles": 8570,
    "pool": 16207,
    "Ġpennies": 17270,
    "Ġq": 1086,
    "Ġolfactories": 26171,
    "Ġrobert": 10970,
    "Ġshrew": 21997,
    "Ġsumatra": 15285,
    "Ġrevol": 5537,
    "Ġsepulchre": 20558,
    "lascar": 20959,
    "Ġtestified": 16340,
    "Ġnar": 7375,
    "stairs": 5155,
    "ogy": 22703,
    "tfordshire": 4811,
    "uble": 21101,
    "Ġexagger": 12716,
    "vitality": 20477,
    "Ġfrozen": 9012,
    "baboon": 25516,
    "Ġaerial": 21197,
    "Ġfilthy": 13246,
    "amiable": 14052,
    "eternal": 17982,
    "azing": 7704,
    "Ġlurid": 19680,
    "Ġflukes": 5266,
    "Ġascent": 19617,
    "Ġtwit": 12926,
    "prints": 23810,
    "Ġjury": 5378,
    "Ġsin": 1512,
    "Ġ[": 6967,
    "admon": 21758,
    "ulsive": 10233,
    "Ġsheets": 9721,
    "Ġcomplexion": 8210,
    "Ġpatentee": 25586,
    "Ġimmovable": 15890,
    "reliable": 21239,
    "dwelt": 23869,
    "Ġwarp": 8112,
    "đ": 210,
    "sensible": 20050,
    "Ġaffl": 14385,
    "Ġrepeatedly": 9020,
    "less": 927,
    "bearer": 18520,
    "Ġredundant": 16550,
    "Ġlandscape": 12415,
    "Ġcoefficient": 2884,
    "Ġpraise": 6486,
    "iloquent": 21722,
    "proportions": 22825,
    "Ġperem": 12929,
    "Ġillustrious": 17109,
    "vii": 13147,
    "venant": 22622,
    "Ġmingled": 12375,
    "Ġclasped": 17206,
    "Ġcopse": 17067,
    "ounders": 22390,
    "Ġcharge": 5324,
    "Ġalien": 14017,
    "Ġeat": 4644,
    "disposition": 10041,
    "jar": 17577,
    "Ġcomputations": 15997,
    "é": 170,
    "Ġpick": 4257,
    "Ġstarted": 4152,
    "loved": 14250,
    "pinn": 21025,
    "steam": 23957,
    "Ġcommercial": 22671,
    "Ġrepresentation": 14404,
    "assured": 10952,
    "Ġsquat": 14367,
    "Ġfellow": 2779,
    "whaleman": 23434,
    "Ġglare": 13010,
    "affording": 23775,
    "Ġme": 352,
    "declared": 15117,
    "cloth": 11935,
    "Ġcovers": 18592,
    "Ġfailing": 12135,
    "Ġabsurdities": 24878,
    "rity": 13775,
    "Ġhumorousness": 25377,
    "Ġcurve": 22992,
    "Ġdeserves": 13288,
    "Ġurging": 24505,
    "Ġi": 311,
    "Ġpredef": 18515,
    "irt": 3078,
    "cket": 3686,
    "Ġwarning": 9058,
    "Ġcloth": 9742,
    "Ġenvied": 19288,
    "sa": 8756,
    "thankful": 16806,
    "Ġestimated": 16593,
    "orand": 21395,
    "magnificent": 20273,
    "augmented": 26286,
    "Ġplace": 1654,
    "Ġanatomical": 15075,
    "Ġrheumatic": 20704,
    "captain": 3953,
    "Ġgnawed": 25164,
    "Ġdesk": 11904,
    "propriety": 14363,
    "clut": 23149,
    "bear": 10314,
    "Ġmotionless": 8323,
    "Ġdynam": 3194,
    "Ġlimited": 23544,
    "results": 20385,
    "otics": 10223,
    "Ġappetite": 12382,
    "Ġbrother": 2750,
    "bore": 13685,
    "Ġkilled": 4955,
    "Ġb": 281,
    "Ġprinces": 23217,
    "Ġterritories": 23843,
    "Ġceti": 24773,
    "happen": 19330,
    "Ġsuccession": 12099,
    "Ġindiscriminately": 20626,
    "Ġconcise": 23319,
    "lers": 10106,
    "Ġdrawback": 23987,
    "Ġlapse": 17120,
    "Ġkeenest": 12159,
    "Ġberg": 24536,
    "Ġachieved": 13165,
    "Ġdarkness": 4278,
    "control": 16542,
    "Ġbour": 4876,
    "Ġtended": 21165,
    "Ġpiny": 21467,
    "Ġlays": 15987,
    "Ġcanted": 17831,
    "longing": 23724,
    "Ġappeased": 23194,
    "Ġpropose": 9852,
    "Ġpleasant": 4172,
    "Ġneighbor": 25805,
    "orn": 2244,
    "creatures": 7517,
    "opposing": 24825,
    "Ġenderby": 13650,
    "Ġgilded": 17444,
    "Ġunderground": 18985,
    "Ġarrang": 2469,
    "Ġcontinu": 1166,
    "nobody": 16135,
    "Ġabruptly": 15149,
    "Ġincorporate": 20453,
    "opening": 10312,
    "Ġinstructing": 3123,
    "protest": 24815,
    "!âĢĿâĢĶ": 8532,
    "Ġindia": 10370,
    "Ġprecaution": 11196,
    "apter": 1194,
    "Ġdeliciousness": 24126,
    "Ġschol": 17376,
    "Ġpleasantly": 14518,
    "Ġstripped": 10465,
    "Ġdeceiving": 21835,
    "Ġepis": 19980,
    "Ġliveliness": 13642,
    "empty": 23636,
    "Ġknocked": 9499,
    "Ó": 148,
    "âĢĻ,": 14069,
    "Ġhart": 17921,
    "sell": 13780,
    "Ġchecked": 9374,
    "Ġguardsmen": 20629,
    "Ġlogical": 14486,
    "Ġunfavourable": 17416,
    "warm": 8101,
    "Ġskipper": 22796,
    "lished": 8382,
    "Ġ6": 5141,
    "Ġcrucifix": 26079,
    "Ġmortification": 12091,
    "bent": 15310,
    "dis": 2251,
    "Ġaccelerate": 23221,
    "tallow": 21084,
    "inating": 9153,
    "Ġbluff": 16517,
    "Ġscotch": 12207,
    "Ġnomine": 26456,
    "Ġfold": 5531,
    "preference": 22464,
    "Ġescort": 23503,
    "Ġprejudiced": 24809,
    "Ġranging": 8478,
    "Ġdeftly": 26493,
    "Ġeasy": 3452,
    "Ġobjecting": 18896,
    "Ġbook": 2704,
    "Ġconfused": 7963,
    "oss": 10115,
    "however": 4373,
    "Ġeluc": 16106,
    "ince": 4340,
    "iforn": 14063,
    "Ġquieted": 23840,
    "humour": 7498,
    "dig": 4929,
    "Ġbubb": 12581,
    "âĢĶâĢĿ": 3301,
    "Ġstrokes": 16769,
    "Ġconcentrated": 15082,
    "valued": 2855,
    "Ġsurest": 19053,
    "Ġgodfre": 14528,
    "Ġredu": 1356,
    "Ġforming": 7042,
    "Ġpork": 21454,
    "Ġseemingly": 9317,
    "striving": 24669,
    "(_": 7540,
    "aur": 15307,
    "raid": 3281,
    "Ġappre": 5165,
    "Ġqueerest": 16412,
    "Ġbreach": 11972,
    "derer": 4601,
    "Ġenigmatical": 20596,
    "sent": 761,
    "Ġthickly": 12113,
    "Ġlanding": 11983,
    "Ġsnap": 11200,
    "Ġwint": 15531,
    "Ġkicked": 10581,
    "age": 504,
    "Ġobedience": 11413,
    "negro": 18489,
    "Ġnoble": 3439,
    "Ġjiff": 22293,
    "Ġscores": 2716,
    "ough": 472,
    "Ġpicking": 11259,
    "Ġdit": 21418,
    "Ġchased": 8861,
    "Ġdecreasing": 2444,
    "Ġtranced": 18426,
    "commencement": 26347,
    "Ġresting": 7961,
    "left": 6975,
    "Ġoccasioned": 13225,
    "wl": 17702,
    "considered": 9580,
    "compassion": 12366,
    "ence": 394,
    "Ġstem": 15716,
    "Ġvex": 5948,
    "analy": 17838,
    "Ġabject": 18391,
    "Ġinnoc": 3793,
    "back": 2014,
    "Ġstation": 5297,
    "Ġfeeds": 16432,
    "Ġintending": 11702,
    "lemency": 21372,
    "Ġpursued": 6328,
    "Ġconceived": 8149,
    "Ġcountenance": 3970,
    "Ġori": 8408,
    "Ġcompos": 22567,
    "Ġacquiesce": 20328,
    "Ġrag": 18643,
    "Ġneg": 1336,
    "Ġsqualls": 17020,
    "Ġcross": 1375,
    "Ġgret": 21598,
    "ank": 1367,
    "Ġconvergence": 971,
    "Ġyork": 11664,
    "deliver": 19503,
    "Ġhabits": 6926,
    "Ġbargain": 23791,
    "passing": 14811,
    "dog": 10692,
    "Ġlow": 1649,
    "ounded": 9747,
    "mystery": 15154,
    "Ġjewel": 9941,
    "Ġanalysis": 1954,
    "omics": 21640,
    "ampling": 12723,
    "Ġwarmly": 8987,
    "Ġcapering": 21352,
    "speech": 10666,
    "Ġlongitude": 11011,
    "Ġfool": 4236,
    "Ġchinks": 22248,
    "nett": 16219,
    "contriv": 19292,
    "eldom": 4413,
    "worse": 14690,
    "ieves": 4007,
    "Ġharm": 5017,
    "Ġrope": 4339,
    "Ġmagnificence": 20631,
    "Ġrespected": 11951,
    "Ġresc": 4508,
    "Ġclergyman": 8711,
    "Ġmultitudinous": 26273,
    "strangers": 20335,
    "Ġknowingly": 18480,
    "Ġontario": 26204,
    "Ġum": 10211,
    "Ġca": 21337,
    "Ġerection": 23998,
    "advanced": 19587,
    "Ġfrogs": 23920,
    "Ġcurrents": 13019,
    "Ġdepress": 14047,
    "nson": 16088,
    "Ġbeneath": 3237,
    "Ġwarmer": 19184,
    "ime": 625,
    "pening": 2834,
    "Ġdiffident": 23781,
    "Ġscarlet": 13221,
    "gazing": 12469,
    "horrors": 20540,
    "Ġone": 570,
    "Ġfatt": 15576,
    "Ġshaded": 14104,
    "Ġchina": 8039,
    "meeting": 11020,
    "bounded": 13438,
    "Ġapplies": 11957,
    "Ġevenings": 18754,
    "Ġwhole": 1665,
    "Ġanew": 11430,
    "pl": 402,
    "plutarch": 21960,
    "absurd": 21792,
    "Ġresist": 7915,
    "custom": 15332,
    "Ġweeds": 21920,
    "ooped": 17623,
    "Ġcolle": 8923,
    "Ġsatire": 22898,
    "Ġfiled": 15577,
    "Ġcorresponding": 13437,
    "Ġsunken": 14493,
    "judged": 14830,
    "Ġprecipice": 19939,
    "Ġli": 602,
    "aulding": 11339,
    "Ġexceptionable": 25503,
    "Ġhorr": 3190,
    "Ġbonds": 17869,
    "Ġaugmented": 15104,
    "Ġrelatives": 12979,
    "acity": 5735,
    "clergyman": 20728,
    "garnished": 26388,
    "Ġconsp": 10225,
    "Ġinsect": 12633,
    "Ġfever": 6558,
    "conda": 18993,
    "Ġpushing": 10819,
    "Ġrat": 4354,
    "Ġsettles": 22917,
    "Ġpurses": 23475,
    "Ġmanifold": 13559,
    "Ġbuilt": 8299,
    "ta": 13788,
    "Ġtugged": 17288,
    "Ġcastaways": 19426,
    "Ġcour": 1764,
    "Ġinterested": 6458,
    "Ġcabs": 23642,
    "Ġmasonry": 13598,
    "Ġhandled": 12934,
    "Ġslee": 8974,
    "Ġtransformer": 2639,
    "quiet": 6154,
    "Ġcompacted": 23506,
    "Ġsymb": 2595,
    "exercise": 17459,
    "Ġforbearing": 25098,
    "isle": 13891,
    "igations": 18042,
    "Ġabst": 9265,
    "raged": 9211,
    "Ġsynd": 22203,
    "ospit": 22260,
    "Ġcool": 5734,
    "Ġsimple": 1624,
    "Ġorganizations": 12312,
    "yset": 21144,
    "Ġprivilege": 11419,
    "Ġperson": 2368,
    "Ġdespondency": 16576,
    "cross": 3576,
    "Ġacutely": 14313,
    "heart": 4527,
    "blog": 19838,
    "Ġrelish": 14383,
    "Ġremark": 2144,
    "Ġmerrily": 23730,
    "Ġplunged": 8692,
    "confid": 14866,
    "Ġscowl": 22282,
    "Ġtresses": 21174,
    "continu": 5501,
    "Ġthe": 270,
    "Ġwager": 17792,
    "Ġbatch": 888,
    "Ġrevel": 9214,
    "inev": 21976,
    "Ġninety": 13600,
    "Ġcheap": 13087,
    "Ġfisher": 3222,
    "ulatory": 15765,
    "gans": 11489,
    "Ġrug": 16155,
    "own": 744,
    "Ġhigh": 931,
    "Ġeast": 5370,
    "six": 7141,
    "Ġsignature": 16492,
    "Ġvag": 9707,
    "Ġcivility": 4788,
    "Ġbreadth": 10563,
    "gul": 12463,
    "Ġalleg": 14016,
    "peace": 13046,
    "umes": 10917,
    "Ġdoubted": 7965,
    "Ġeconomy": 17200,
    "skelter": 24490,
    "Ġenchanting": 17039,
    "wicked": 24449,
    "congenial": 25399,
    "Ġdashing": 8795,
    "blue": 13692,
    "unwillingness": 25802,
    "Ġindolence": 16227,
    "Ġmention": 2989,
    "achus": 18283,
    "Ġsubaltern": 22789,
    "Ġfairer": 20460,
    "Ġessence": 13404,
    "heedful": 20572,
    "Ġcomparative": 10542,
    "Ġcellars": 24665,
    "alse": 4186,
    "Ġwore": 6377,
    "bask": 20775,
    "ashions": 16415,
    "Ġtur": 2568,
    "ĉ": 202,
    "Ġhinting": 19648,
    "Ġplumage": 17297,
    "ulia": 18148,
    "Ġshallow": 14394,
    "Ġgrinning": 9053,
    "Ġfaltering": 17884,
    "Ġdet": 513,
    "language": 5129,
    "the": 334,
    "retired": 11934,
    "learning": 2526,
    "itations": 17817,
    "overhearing": 19050,
    "Ġdivided": 8631,
    "Ġeclips": 20695,
    "Ġhearers": 15700,
    "Ġphrenologists": 25608,
    "oglyph": 11017,
    "idual": 1560,
    "lac": 17589,
    "ainted": 3658,
    "Ġdepartment": 24241,
    "killed": 15375,
    "aration": 12604,
    "Ġgratifying": 13304,
    "accompan": 11452,
    "Ġsauc": 15886,
    "Ġtransport": 11278,
    "Ġugliness": 20425,
    "imble": 10858,
    "face": 3676,
    "'t": 3146,
    "Ġpleasanter": 19064,
    "Ġincurable": 22550,
    "Ġkeepers": 23538,
    "allen": 22193,
    "mur": 5428,
    "Ġcylinders": 25943,
    "Ġprayer": 16666,
    "ougher": 18275,
    "Ġmaintainable": 12932,
    "power": 7136,
    "bil": 20770,
    "luck": 5733,
    "glance": 16586,
    "gement": 13727,
    "ont": 2625,
    "Ġinterment": 22572,
    "Ġbroken": 3448,
    "Ġscorn": 7900,
    "command": 6576,
    "Ġsatan": 14389,
    "Ġabrupt": 9735,
    "iour": 4038,
    "Ġpist": 12612,
    "Ġwhisper": 6205,
    "Ġaloysius": 15735,
    "recurrent": 4994,
    "Ġshoulders": 5566,
    "ifference": 5632,
    "Ġaffirmative": 15221,
    "Ġsli": 4748,
    "retched": 3069,
    "Ġsolicited": 20035,
    "phon": 4129,
    "reg": 2185,
    "Ġgathers": 24743,
    "Ġwishing": 7830,
    "²": 115,
    "Ġfleece": 10614,
    "Ġagitation": 6865,
    "Ľ": 254,
    "Ġcocoa": 25482,
    "\",": 10678,
    "Ġen": 392,
    "Ġ90": 24588,
    "Ġscrut": 15943,
    "ensibility": 22545,
    "crucible": 24842,
    "Ġembellish": 25847,
    "Ġ133": 24783,
    "Ġshow": 3400,
    "Ġdissect": 16051,
    "Ġtigris": 25759,
    "Ġjagged": 18407,
    "voice": 7816,
    "indulged": 22375,
    "Ġinstead": 2793,
    "requent": 3649,
    "gins": 12466,
    "civility": 17513,
    "Ġireland": 17334,
    "Ġdeaths": 14536,
    "Ġgestures": 13535,
    "Ġexile": 12714,
    "avenza": 17103,
    "appalled": 18760,
    "ackled": 22417,
    "Ġbarbara": 24818,
    "Ġpaid": 5015,
    "Ġimpropri": 14215,
    "Ġvegetables": 15220,
    "glow": 20873,
    "interrupt": 8615,
    "Ġrepay": 19081,
    "unched": 10235,
    "Ġhus": 3093,
    "Ġnation": 12644,
    "peleg": 16292,
    "bitious": 16669,
    "do": 1993,
    "Ġvirt": 3906,
    "further": 7535,
    "Ġinarticulate": 21497,
    "exceed": 7910,
    "Ġadvantageously": 19544,
    "feeling": 6616,
    "Ġbelfry": 26438,
    "Ġmere": 2715,
    "tin": 6116,
    "Ġreser": 5170,
    "Ġcons": 954,
    "Ġconfirm": 9855,
    "Ġjohnson": 18409,
    "Ġfoam": 6891,
    "jewell": 25523,
    "Ġadagrad": 2904,
    "Ġdecided": 5471,
    "Ġsnake": 12059,
    "Ġcoming": 2621,
    "Ġwire": 13851,
    "Ġus": 495,
    "ident": 3378,
    "boats": 6204,
    "Ġnodes": 1967,
    "Ġkitty": 3908,
    "Ġpresum": 4837,
    "Ġblessing": 11263,
    "Ġcable": 11579,
    "Ġmature": 17799,
    "Ġperemptory": 25740,
    "jonah": 11496,
    "accessory": 25499,
    "Ġcounting": 13093,
    "Ġmaritime": 23035,
    "Ġsqualid": 14368,
    "supposed": 13314,
    "Ġsubdivisions": 26037,
    "Ġannotations": 25954,
    "ouch": 2782,
    "Ġbegin": 3099,
    "caterpillar": 26383,
    "pute": 8844,
    "Ġgained": 4536,
    "Ġwooded": 23519,
    "reasonable": 7751,
    "Ġwithdrew": 9695,
    "gratitude": 16816,
    "Ġoutcast": 18414,
    "Ġuncomfortable": 8485,
    "Ġpence": 17903,
    "Ġgover": 2462,
    "Ġvultures": 25653,
    "fr": 4804,
    "Ġsake": 4093,
    "hour": 7340,
    "peculiar": 6886,
    "Ġoccurred": 4463,
    "transom": 19734,
    "Ġstoop": 16308,
    "Ġgolden": 5336,
    "had": 1949,
    "housekeeper": 24101,
    "Ġessentials": 20001,
    "Ġspile": 22124,
    "orting": 9734,
    "Ġoblong": 14320,
    "Ġdwelt": 12602,
    "Ġenjoy": 3760,
    "Ġpianoforte": 15272,
    "recked": 17762,
    "Ġcredited": 25153,
    "26": 10072,
    "ges": 2874,
    "Ġtheatre": 21277,
    "Ġinsol": 10180,
    "ous": 477,
    "Ġunfolding": 17086,
    "Ġcologne": 12973,
    "apart": 15959,
    "Ġleisure": 6539,
    "Ġrunning": 3951,
    "Ġhoot": 19076,
    "](": 11466,
    "Ġsaves": 18324,
    "Ġleviathan": 3290,
    "Ġtoller": 9090,
    "Ġwilderness": 14839,
    "clergy": 18933,
    "Ġjunks": 25113,
    "oubtedly": 6943,
    "roy": 7853,
    "Ċ": 203,
    "Ġafford": 4366,
    "Ġul": 6828,
    "Ġcalmed": 16265,
    "Ġyounge": 16286,
    "Ġgenerate": 1527,
    "ressed": 3026,
    "Ġmomentarily": 22811,
    "Ġbridegroom": 10604,
    "Ġgods": 6454,
    "his": 1412,
    "Ġplaster": 16081,
    "Ġconstraint": 16514,
    "Ġleathern": 15050,
    "Ġbegrimed": 26578,
    "Ġacquiring": 2768,
    "Ġfeather": 8859,
    "Ġfathom": 17048,
    "Ġpaddles": 15146,
    "Ġprophets": 20449,
    "Ġth": 299,
    "Ġdebar": 24271,
    "ufact": 10733,
    "Ġtunes": 24619,
    "--âĢĺ": 22845,
    "tinted": 17683,
    "Ġdiscoverers": 26036,
    "killer": 20474,
    "impressions": 20697,
    "howling": 18990,
    "returned": 7765,
    "Ġpanting": 11601,
    "Ġguardian": 14941,
    "Ġtypically": 1535,
    "Ġfre": 1573,
    "impregn": 21711,
    "Ġhaze": 18196,
    "Ġblessings": 24176,
    "Ġcompleted": 8997,
    "Ġpriest": 7526,
    "Ġsmell": 7216,
    "umerable": 11723,
    "Ġcosmopolitan": 20640,
    "mercenary": 26315,
    "ible": 1112,
    "speptic": 23943,
    "hyp": 15365,
    "Ġthomas": 17947,
    "Ġinvesting": 19645,
    "itying": 21991,
    "greatly": 16623,
    "distance": 12150,
    "variety": 23183,
    "Ġtist": 21161,
    "Ġvalley": 5850,
    "Ġabaft": 22271,
    "Ġnote": 4264,
    "Ġtame": 17722,
    "Ġspoils": 24808,
    "itors": 2914,
    "Ġobsole": 22695,
    "Ġweighted": 2089,
    "Ġseize": 8165,
    "Ġtallow": 14776,
    "Ġstyle": 6946,
    "drown": 13703,
    "Ġblasphemer": 26116,
    "Ġcheever": 23279,
    "madly": 24420,
    "acknowledged": 15201,
    "Ġmess": 7831,
    "faces": 13719,
    "Ġimmort": 19482,
    "kings": 17583,
    "Ġbesee": 19242,
    "Ġthrust": 5084,
    "sartain": 25622,
    "aet": 15306,
    "Ġadmeasure": 18295,
    "Ġbroadened": 23982,
    "abhorred": 17335,
    "ilet": 12826,
    "Ġrefreshment": 17239,
    "Ġcler": 11768,
    "Ġspaniard": 20361,
    "Ġenemy": 5605,
    "Ġcapture": 3383,
    "Ġchildhood": 13137,
    "lying": 7174,
    "ļ": 253,
    "itage": 17816,
    "Ġazores": 20192,
    "Ġdynamic": 5122,
    "ernation": 8211,
    "icking": 8910,
    "iliating": 12692,
    "distant": 13333,
    "Ġhandles": 22692,
    "sory": 17659,
    "Ġbefell": 14009,
    "itled": 7577,
    "Ġbreathlessly": 24280,
    "Ġrobes": 16237,
    "lane": 10706,
    "Ġshrimp": 24157,
    "Ġ66": 24369,
    "wic": 21119,
    "Ġinfatuated": 20532,
    "Ġinformation": 1050,
    "Ġadapted": 11042,
    "Ġhistorically": 19376,
    "Ġreminiscences": 26269,
    "repe": 8775,
    "Ġsubstit": 19539,
    "Ġstepped": 7051,
    "Ġrespectability": 14484,
    "brilliancy": 26077,
    "Ġefficient": 1048,
    "Ġsnoo": 21227,
    "Ġdiscreet": 16481,
    "organic": 25946,
    "kind": 3861,
    "Ġconfound": 23299,
    "Ġdoxology": 22241,
    "Ġmalays": 19676,
    "politeness": 16906,
    "morrow": 4573,
    "'(": 2982,
    "aggoo": 5130,
    "Ġglories": 16239,
    "Ġnurse": 9516,
    "Ġrepugn": 23359,
    "âĢĶ.âĢĿ": 22252,
    "Ġgracechurch": 12196,
    "Ġaggreg": 12881,
    "Ġunwinding": 22055,
    "Ġpaws": 13920,
    "otent": 8831,
    "attracted": 13048,
    "Ġnaturalists": 10363,
    "Ġverse": 16601,
    "ical": 755,
    "Ġhes": 6250,
    "Ġnewcom": 16220,
    "Ġstripping": 23695,
    "Ġferrule": 24500,
    "flutter": 23968,
    "iteness": 4392,
    "Ġdams": 16455,
    "Ġfriend": 1295,
    "Ġlamps": 14789,
    "stones": 11635,
    "Ġoverspread": 14206,
    "Ġkiss": 8182,
    "Ġsho": 2246,
    "Ġabominably": 20064,
    "Ġheathenish": 13615,
    "Ġcynicism": 25771,
    "Ġepistle": 24904,
    "Ġsmelling": 16064,
    "Ġmachinations": 25767,
    "Ġrecounted": 22735,
    "Ġgurg": 15670,
    "Ġholy": 6591,
    "Ġproverb": 12713,
    "Ġsurely": 6307,
    "resolution": 17766,
    "pling": 8474,
    "flask": 12097,
    "Ġshaking": 6551,
    "Ġcreaking": 14327,
    "ö": 183,
    "from": 1989,
    "Ġdepressions": 25798,
    "Ġarrived": 3746,
    "Ġing": 5283,
    "enched": 10154,
    "yes": 984,
    "Ġaltar": 9228,
    "Ġporus": 24398,
    "grate": 23410,
    "ag": 377,
    "Ġnational": 13941,
    "Ġunattended": 15841,
    "skylight": 25623,
    "Ġpall": 7582,
    "Ġportraits": 20141,
    "idered": 4554,
    "unquiet": 21878,
    "Ġrespective": 16343,
    "Ġyards": 5371,
    "unting": 21871,
    "Ġinvitation": 5189,
    "Ġcongrat": 5827,
    "Ġresume": 18565,
    "Ġsheepfold": 25466,
    "Ġcoco": 11001,
    "Ġprophetic": 20018,
    "abama": 12706,
    "spite": 16136,
    "prehend": 14242,
    "Ġdifficulty": 5770,
    "farintosh": 24553,
    "Ġsog": 22079,
    "Ġimprudent": 12845,
    "Ġheaps": 11641,
    "Ġlungless": 24863,
    "view": 5895,
    "suit": 18629,
    "Ġteacup": 16206,
    "gabriel": 15359,
    "ining": 3221,
    "ox": 9133,
    "Ġcrawford": 24893,
    "Ġinterruptions": 24186,
    "ket": 17582,
    "Ġsucceed": 4546,
    "Ġanswers": 7070,
    "Ġswept": 7977,
    "Ġcelest": 9900,
    "Ġ**": 4721,
    "Ġvehemence": 26566,
    "erns": 8777,
    "imprudence": 16556,
    "istically": 14143,
    "mistakable": 20652,
    "Ġdelicious": 14791,
    "Ġenabling": 1079,
    "Ġfeelings": 2454,
    "bottle": 20144,
    "compose": 24029,
    "Ġpangs": 15612,
    "maj": 18804,
    "amongst": 24672,
    "sided": 17664,
    "Ġnovelty": 13462,
    "Ġtenement": 23547,
    "Ġinherent": 4592,
    "Ġsuffice": 18869,
    "Ġsolar": 22882,
    "Ġapologizing": 25197,
    "things": 6032,
    "Ġprofundities": 20452,
    "Ġobservant": 20108,
    "gardiner": 12289,
    "redit": 3873,
    "Ġparagra": 15877,
    "Ġfamil": 4320,
    "nails": 17614,
    "ocr": 10468,
    "Ġwrap": 24594,
    "Ġbreathed": 11220,
    "Ġproportion": 7281,
    "Ġpeaking": 22687,
    "Ġrestoration": 19025,
    "Ġbillow": 14777,
    "extrem": 18699,
    "dissemble": 23490,
    "Ġimbec": 14156,
    "Ġmaking": 1775,
    "Ġdominant": 12394,
    "Ġmuzzle": 21319,
    "osing": 3688,
    "iring": 1709,
    "Ġtranslations": 12050,
    "Ġhats": 14619,
    "Ġrecompense": 14837,
    "proved": 11985,
    "ondon": 2708,
    "Ġshooting": 11162,
    "Ġsavage": 4013,
    "roses": 17956,
    "Ġshudder": 9050,
    "Ġsignificant": 8633,
    "Ġcatching": 9477,
    "cig": 17503,
    "Ġbumpkins": 25281,
    "Ġnathan": 21523,
    "ideas": 18583,
    "elect": 20845,
    "ha": 3982,
    "ipl": 20917,
    "lan": 15376,
    "Ġtransactions": 18482,
    "Ġmended": 21312,
    "Ġagrees": 22513,
    "Ġgreeks": 20011,
    "Ġkettle": 26232,
    "Ġele": 1963,
    "thence": 23396,
    "proceeded": 25190,
    "ract": 998,
    "Ġpainter": 19167,
    "Ġdistrustful": 25054,
    "remorse": 14466,
    "mish": 17598,
    "othic": 16214,
    "Ġinvoked": 19144,
    "Ġevid": 3499,
    "Ġjoys": 13218,
    "escape": 16005,
    "Ġcorporeally": 25729,
    "Ġdilatory": 24705,
    "Ġanomaly": 25636,
    "linen": 25257,
    "Ġcraven": 16469,
    "isk": 9167,
    "suggested": 17298,
    "Ġ1778": 25730,
    "Ġmar": 1311,
    "Ġgn": 8817,
    "igated": 15704,
    "Ġdungeon": 16996,
    "thanked": 24331,
    "ultaneously": 4195,
    "rug": 18345,
    "Ġrusty": 14963,
    "rederick": 14079,
    "Ġyoungster": 23177,
    "Ġclut": 7641,
    "Ġsevere": 6031,
    "commence": 19990,
    "Ġtraced": 10383,
    "Ġwishes": 4795,
    "Ġtreated": 7080,
    "Ġtechn": 9365,
    "largely": 19573,
    "Ġbachelors": 24860,
    "Ġunsounded": 15847,
    "magn": 10610,
    "Ġchalk": 15931,
    "Ġprojected": 16871,
    "Ġphil": 3384,
    "Ġparmacetti": 20603,
    "Ġexpanding": 25238,
    "Ġrearing": 12674,
    "Ġoutright": 18413,
    "Ġtrappers": 23079,
    "Ġdiff": 3116,
    "Ġne": 391,
    "Ġblending": 14399,
    "Ġdisappearing": 22530,
    "Ġnearing": 15796,
    "Ġincognit": 22552,
    "Ġfrightful": 7735,
    "summit": 23415,
    "Ġaround": 3610,
    "isely": 4490,
    "irms": 18168,
    "Ġsparks": 22129,
    "Ġlawyer": 10668,
    "Ġtumb": 21168,
    "Ġclump": 15963,
    "example": 16011,
    "Ġfixed": 2687,
    "Ġstaggered": 9538,
    "Ġupbraiding": 26226,
    "Ġroundabout": 23058,
    "Ġwaving": 8584,
    "Ġmanipulated": 25178,
    "Ġserving": 14485,
    "ulged": 12727,
    "Ġsalary": 13292,
    "Ġdiscussing": 5202,
    "Ġmorose": 18841,
    "Ġpounds": 5368,
    "Ġjupiter": 17455,
    "Ġextravag": 11254,
    "eli": 3871,
    "Ġtrunk": 7205,
    "Ġcourage": 4634,
    "Ġting": 8397,
    "reduc": 5459,
    "aggo": 5097,
    "Ġuncont": 14114,
    "Ġcoast": 4656,
    "Ġlosing": 10916,
    "Ġindepend": 3667,
    "quently": 9701,
    "disguise": 26306,
    "Ġbeautiful": 3671,
    "Ġexcepting": 14680,
    "wheels": 14380,
    "Ġthom": 21513,
    "Ġworshippers": 25693,
    "Ġdisconsol": 18556,
    "prec": 3202,
    "Ġdisconsolate": 20718,
    "Ġillness": 8589,
    "umbling": 6758,
    "Ġtroops": 24898,
    "Ġsplitting": 4383,
    "Ġcrowd": 6336,
    "Ġignited": 25069,
    "Ġwriters": 13542,
    "onday": 6063,
    "Ġinsists": 23677,
    "Ġval": 948,
    "Ġfalsehood": 10523,
    "Ġ135": 24785,
    "itics": 13871,
    "ĠĠĠĠĠĠĠĠĠĠĠĠĠĠĠĠĠĠĠĠĠĠĠĠĠĠĠĠĠĠĠĠĠĠĠĠĠĠĠĠĠĠĠĠĠĠĠĠĠĠĠ": 20037,
    "xi": 17710,
    "suitable": 18630,
    "Ġpir": 6818,
    "Ġhowling": 8509,
    "Ġmagnanim": 14471,
    "friends": 8305,
    "Ġdusk": 12325,
    "Ġimplicated": 24875,
    "inserted": 18887,
    "finger": 10093,
    "Ġshadow": 5596,
    "Ġsanity": 24979,
    "Ġfundamental": 3017,
    "Ġlink": 8129,
    "empl": 5724,
    "Ġtheoretically": 3567,
    "treasures": 26152,
    "Ġengage": 9334,
    "indifferent": 14211,
    "Ġpinch": 15016,
    "Ġelucidated": 26029,
    "Ġgladly": 14681,
    "lux": 14226,
    "particip": 23618,
    "half": 4931,
    "Ġcorrectly": 9403,
    "blades": 24130,
    "Ġillustration": 19135,
    "Ġrossum": 3016,
    "Ġshar": 9249,
    "ir": 379,
    "Ġdepos": 11007,
    "Ġdilated": 24704,
    "Ġearliest": 9830,
    "dishon": 20402,
    "ieving": 7031,
    "Ġdisease": 14257,
    "ayed": 12709,
    "examined": 17266,
    "Ġapparently": 6778,
    "Ġcleans": 18947,
    "door": 6193,
    "Ġlaug": 3627,
    "loud": 11500,
    "Ġthickness": 13276,
    "Ġloops": 8852,
    "described": 18895,
    "queg": 1766,
    "sin": 21047,
    "Ġaccidents": 10295,
    "Ġexhaled": 19681,
    "Ġbubbles": 11398,
    "deser": 10402,
    "Ġcowardice": 17032,
    "Ġgash": 15668,
    "3": 23,
    "rule": 15898,
    "Ġdispersed": 16596,
    "wail": 21124,
    "Ġforfeit": 21772,
    "stiff": 12672,
    "Ġdiv": 3731,
    "Ġmutually": 23954,
    "Ġstript": 23693,
    "Ġmott": 17803,
    "vable": 10132,
    "Ġnoiseless": 10357,
    "Ġcomb": 1057,
    "Ġvivacity": 14940,
    "Ġfatigue": 8697,
    "Ġshan": 9248,
    "Ġexempl": 21827,
    "murmured": 24455,
    "Ġmin": 1027,
    "Ġconsuming": 22790,
    "Ġsnatching": 10472,
    "Ġvenom": 24238,
    "Ġnash": 5819,
    "entreaties": 26185,
    "Ġoverpowering": 15248,
    "soc": 5175,
    "Ġindication": 22949,
    "Ġbenevolence": 9526,
    "Ġcomputing": 2222,
    "nd": 11503,
    "Ġpower": 1216,
    "moor": 22699,
    "Ġatt": 783,
    "Ġmagnet": 10389,
    "Ġcommons": 22669,
    "Ġalmost": 1658,
    "lovel": 22507,
    "Ġridicule": 13511,
    "truth": 9918,
    "ource": 5244,
    "Ġunchanged": 22026,
    "Ġback": 806,
    "Ġcondemn": 13443,
    "spring": 7231,
    "Ġapiece": 16813,
    "Ġevil": 3804,
    "Ġbay": 9168,
    "ĠâĢĺ": 1635,
    "Ġswims": 12117,
    "Ġcoin": 9770,
    "enances": 10153,
    "ignant": 11129,
    "Ġpolice": 4675,
    "ease": 12455,
    "osition": 1376,
    "elijah": 19471,
    "Ġdanish": 21429,
    "adem": 21754,
    "Ġcut": 2644,
    "Ġincessant": 15096,
    "vously": 23502,
    "Ġaddressing": 11164,
    "Ġasse": 8159,
    "Ġinn": 4591,
    "Ġhindrance": 25220,
    "ruct": 694,
    "Ġdeparture": 6490,
    "Ġunembarrassed": 22064,
    "Ġunwarrantable": 26353,
    "Ġshutter": 16670,
    "valu": 1782,
    "nowadays": 22335,
    "resemblance": 25933,
    "Ġsembl": 19056,
    "Ġherself": 1569,
    "watery": 19825,
    "vital": 17700,
    "Ġdrops": 9032,
    "Ġast": 2963,
    "Ġforesight": 13126,
    "Ġdeclined": 9920,
    "Ġotherwise": 4658,
    "Ġtort": 5901,
    "Ġsupp": 1266,
    "gentlemanlike": 20000,
    "keys": 15856,
    "Ġ275": 20109,
    "Ġsqueeze": 10038,
    "Ġworst": 7444,
    "pleasures": 24043,
    "mists": 17605,
    "tackle": 17320,
    "Ġbequest": 21750,
    "Ġtout": 17719,
    "ignation": 11128,
    "collecting": 26081,
    "french": 9119,
    "Ġdisgraceful": 15019,
    "taining": 7206,
    "Ġpropag": 16346,
    "Ġpenetrate": 12267,
    "Ġ36": 14766,
    "Ġchild": 2261,
    "Ġinattention": 17931,
    "Ġprovocation": 24191,
    "Ġincluded": 8930,
    "Ġsn": 2949,
    "Ġgums": 21608,
    "Ġhasten": 10478,
    "Ġringed": 16750,
    "Ġholiday": 12995,
    "Ġsmiled": 5940,
    "Ġpaw": 12617,
    "Ġskewer": 19619,
    "paws": 21028,
    "Ġdearly": 10401,
    "battering": 20785,
    "Ġall": 423,
    "strangely": 17276,
    "ensions": 14259,
    "histicated": 20900,
    "Ġswap": 23049,
    "uel": 6966,
    "to": 714,
    "Ġhuzza": 12630,
    "Ġvap": 6837,
    "oded": 11668,
    "eding": 7165,
    "northern": 23666,
    "ı": 242,
    "wondered": 17029,
    "ards": 2505,
    "Ġyounger": 5252,
    "otently": 21797,
    "Ġdefend": 9339,
    "game": 11490,
    "ental": 7168,
    "Ġdup": 21425,
    "Ġplaid": 22597,
    "zek": 16269,
    "Ġ1950": 11359,
    "Ġaccuracy": 1043,
    "Ġundec": 22014,
    "backed": 9865,
    "Ġdeposit": 17268,
    "Ġmajesty": 5201,
    "Ġupwards": 7633,
    "Ġ45": 14769,
    "tete": 10732,
    "Ġrehearsed": 25971,
    "Ġdow": 17886,
    "etent": 10199,
    "wont": 21131,
    "Ġcurbstone": 26046,
    "Ġtribute": 15474,
    "Ġcontemptuously": 19832,
    "ntax": 933,
    "Ġvexatious": 19780,
    "rel": 3754,
    "protruding": 24816,
    "impression": 15708,
    "Ġjoes": 19230,
    "Ġbizarre": 17871,
    "Ġdissembling": 26254,
    "ations": 710,
    "ream": 2711,
    "Ġjetted": 24431,
    "Ġskeleton": 5514,
    "ğ": 224,
    "Ġtufted": 17014,
    "Ġdeliverer": 11948,
    "inav": 15482,
    "--------": 14779,
    "Ġconcerning": 4069,
    "Ġhawsers": 26502,
    "fun": 3981,
    "inate": 6233,
    "concerning": 9067,
    "Ġkent": 6691,
    "Ġhemis": 21681,
    "Ġpalace": 16690,
    "ensity": 11811,
    "ĠĠĠĠĠĠĠ": 7632,
    "antucket": 2646,
    "gument": 20884,
    "orous": 5292,
    "Ġendure": 5955,
    "Ġ150": 22824,
    "Ġinasmuch": 10825,
    "Ġcrunched": 19123,
    "Ġlionel": 25286,
    "libr": 22920,
    "Ġflesh": 5968,
    "readiness": 19361,
    "tawn": 21079,
    "taken": 7560,
    "anxiously": 15109,
    "instantly": 7506,
    "Ġgraces": 18225,
    "Ġcolleague": 17159,
    "Ł": 258,
    "ues": 2079,
    "Ġstruggle": 3674,
    "Ġlothario": 26184,
    "âĢĺ": 940,
    "õ": 182,
    "Ġuncl": 22011,
    "Ġbeliefs": 24582,
    "Ġconfid": 7686,
    "Ġjamming": 17264,
    "Ġsticking": 13426,
    "twill": 21073,
    "Ġrazor": 22657,
    "Ġdashed": 6009,
    "Ġtre": 2538,
    "Ġstupid": 7603,
    "Ġjelly": 22297,
    "Ġcomputes": 4768,
    "Ġminuteness": 19138,
    "Ġtranquillize": 24757,
    "wheeler": 16187,
    "restored": 18979,
    "Ġendeavor": 16544,
    "Ġworms": 25216,
    "Ġclerical": 25568,
    "Ġeternities": 19941,
    "'d": 12425,
    "tahit": 17692,
    "Ġrecollecting": 17113,
    "Ġfierceness": 26265,
    "Ġcategories": 4479,
    "ourney": 3554,
    "almost": 4943,
    "tacit": 21097,
    "arbuck": 2022,
    "Ġministers": 22832,
    "based": 2961,
    "owing": 7601,
    "Ġlest": 6395,
    "Ġbowlines": 19321,
    "Ġanyone": 4460,
    "Ġpostscript": 14807,
    "Ġintertw": 18588,
    "sticking": 21657,
    "beware": 16037,
    "ains": 5094,
    "Ġduodecimo": 16767,
    "humoured": 11236,
    "Ġmagnifying": 16319,
    "precip": 14664,
    "Ġflattening": 26048,
    "Ġrags": 18647,
    "Ġelixir": 26555,
    "housekeeping": 24102,
    "Ġyielded": 14871,
    "Ġstead": 5650,
    "Ġpublicly": 13321,
    "utions": 1888,
    "Ġclutch": 15053,
    "list": 7551,
    "ols": 2414,
    "cousins": 20116,
    "Ġgem": 21591,
    "fever": 22498,
    "Ġpattering": 18651,
    "remembrance": 25702,
    "Ġtaffrail": 15475,
    "shark": 14238,
    "sneezes": 11446,
    "peddling": 24696,
    "constantinople": 25507,
    "Ġquiescent": 26242,
    "Ġdel": 1617,
    "dire": 15335,
    "erring": 11057,
    "splash": 25209,
    "usoid": 4767,
    "Ġunnearable": 26516,
    "Ġimpatient": 5603,
    "Ġblast": 7445,
    "Ġbandaged": 16842,
    "tired": 21071,
    "define": 1524,
    "Ġhideous": 5982,
    "Ġintrepid": 11703,
    "Ġsympath": 4861,
    "streets": 13394,
    "Đ": 209,
    "Ġtaller": 16688,
    "Ġproperties": 3119,
    "miles": 10712,
    "Ġvigil": 9506,
    "Ġearthquake": 14628,
    "Ġinns": 17929,
    "Ġagrippa": 11805,
    "Ġsavory": 23874,
    "Ġcarelessly": 11120,
    "avings": 12021,
    "successful": 11358,
    "Ġtremendous": 8352,
    "Ġuncounted": 19116,
    "hatch": 15363,
    ").âĢĿ": 20740,
    "Ġspec": 1264,
    "carpet": 25202,
    "Ġunnear": 22023,
    "ule": 6800,
    "convers": 6567,
    "Ġvigilance": 12369,
    "Ġsauce": 15888,
    "judges": 19572,
    "distrust": 19569,
    "Ġjokes": 18408,
    "Ġsupposing": 6729,
    "Ġken": 22188,
    "Ġimmense": 4952,
    "Ġappl": 1730,
    "fatality": 25019,
    "dies": 15337,
    "Ġabed": 22262,
    "garet": 9597,
    "Ġfigured": 16643,
    "Ġunmindful": 22061,
    "Ġconstraints": 2742,
    "icable": 6388,
    "Ġcrews": 8990,
    "Ġoffice": 4965,
    "Ġmurmur": 14589,
    "Ġponies": 21473,
    "Ġrept": 13982,
    "Ġends": 8237,
    "bub": 15315,
    "fth": 20855,
    "Ġthem": 640,
    "Ġwife": 2591,
    "Ġ131": 24782,
    "opposition": 24823,
    "arms": 10173,
    "Ġoutfits": 22318,
    "Ġmyster": 5925,
    "Ġits": 706,
    "Ġdischarged": 15219,
    "iastic": 12477,
    "Ġsadder": 24048,
    "susp": 10596,
    "Ġste": 1391,
    "bery": 9786,
    "Ġhumans": 8929,
    "Ġreturned": 2891,
    "Ġinvis": 6902,
    "Ġvehem": 22886,
    "withdrawn": 23025,
    "Ġbeth": 9657,
    "Ġlump": 21549,
    "aits": 20765,
    "countenance": 6925,
    "Ġswarming": 16272,
    "Ġheaved": 9381,
    "Ġstruct": 2787,
    "_.âĢĶ": 23471,
    "Ġremarkable": 4915,
    "pin": 13766,
    "Ġexalted": 12410,
    "Ġwhirling": 12246,
    "Ġguise": 14431,
    "Ġinference": 9671,
    "Ġsw": 1358,
    "attered": 4020,
    "Ġstretch": 6993,
    "Ġrefine": 3530,
    "dissatisf": 26129,
    "Ġanoints": 25538,
    "ancho": 4938,
    "Ġinfluence": 5515,
    "Ġplunge": 13442,
    "ink": 757,
    "Ġnobody": 6158,
    "Ġeyelids": 26107,
    "Ġcask": 5527,
    "Ġdischarge": 18555,
    "forgot": 11033,
    "Ġpropensity": 18996,
    "Ġ59": 24327,
    "bering": 18681,
    "Ġwidows": 24236,
    "Ġshore": 4834,
    "Ġguard": 6178,
    "Ġswain": 18881,
    "Ġflee": 7079,
    "soo": 18685,
    "Ġrocky": 13386,
    "Ġhuge": 4700,
    "Ġagatha": 6866,
    "Ġimprobable": 9793,
    "determine": 19942,
    "Ġtrained": 8502,
    "Ġdorm": 4821,
    "parad": 16386,
    "acted": 11010,
    "Ġlibrary": 6423,
    "warning": 25531,
    "Ġsuch": 795,
    "Ġsoliloquized": 17301,
    "Ġniagara": 26458,
    "Ġ(": 595,
    "labours": 16617,
    "swimming": 24258,
    "arned": 21814,
    "unicorn": 21886,
    "Ġcontrast": 2117,
    "Ġstories": 10865,
    "specul": 23940,
    "mbl": 5945,
    "Ġmanners": 3789,
    "Ġconcussion": 26300,
    "anter": 9166,
    "shed": 8094,
    "Ġadventure": 5980,
    "Ġcle": 1510,
    "rushing": 10017,
    "Ġburglar": 17354,
    "erable": 1916,
    "ops": 5247,
    "Ġnominal": 15167,
    "Ġschedules": 3385,
    "promising": 24726,
    "Ġclimb": 15078,
    "Ġwarm": 2427,
    "Ġinternal": 2247,
    "sentimental": 25681,
    "Ġacceler": 1613,
    "und": 4120,
    "Ġve": 1107,
    "rints": 12500,
    "Ġleader": 14701,
    "Ġirresistible": 13111,
    "Ġcouple": 5423,
    "chief": 4645,
    "Ġrighteous": 18945,
    "Ġdeb": 4764,
    "Ġbeliever": 25845,
    "Ġgrizz": 10351,
    "Ġchoose": 5981,
    "Ġsmite": 22555,
    "idean": 14263,
    "Ġriddle": 14819,
    "Ġwaylaid": 22870,
    "Ġeach": 892,
    "arians": 18525,
    "mort": 10710,
    "Ġswelled": 11088,
    "vision": 5620,
    "Ġintentionally": 24523,
    "acled": 16079,
    "Ġoffspring": 16143,
    "Ġwidow": 8662,
    "contents": 12056,
    "Ġgrowled": 19282,
    "Ġacceptance": 14826,
    "asserted": 22306,
    "mody": 16182,
    "Ġraving": 16112,
    "Ġunit": 1847,
    "Ġkindling": 19028,
    "tland": 21072,
    "Ġterminating": 23508,
    "Ġbakers": 17866,
    "Ġphilosop": 5057,
    "databases": 3027,
    "Ġawakened": 10453,
    "Ġarranging": 11174,
    "Ġpremium": 23902,
    "prairies": 20565,
    "prepare": 20211,
    "reposed": 24492,
    "Ġpeace": 3691,
    "Ġexploded": 15907,
    "Ġthumb": 6981,
    "tch": 9141,
    "Ġnervous": 2406,
    "Ĥ": 229,
    "Ġbridges": 24682,
    "Ġhaggard": 17329,
    "Ġtasted": 12526,
    "Ġcomplicated": 14734,
    "Ġconfusion": 7273,
    "Ġsag": 6514,
    "amore": 21840,
    "Ġaccused": 8507,
    "gown": 9596,
    "tubs": 15129,
    "consist": 14815,
    "Ġpouch": 21466,
    "overspreading": 26139,
    "disciple": 16778,
    "ents": 1896,
    "izers": 18133,
    "Ġdescend": 7427,
    "Ġcant": 17824,
    "Ġcynical": 25770,
    "Ġrecurred": 18978,
    "Ġinterior": 8895,
    "Ġvoid": 14085,
    "Ġdread": 3164,
    "iar": 2377,
    "Ġdreary": 10408,
    "Ġpunct": 8660,
    "accusations": 23601,
    "Ġflowed": 10371,
    "Ġtidings": 11397,
    "Ġpeterson": 9482,
    "venge": 4659,
    "german": 11491,
    "Ġafrican": 20136,
    "onsensical": 18578,
    "mou": 10708,
    "itute": 9651,
    "Ġflit": 23005,
    "seat": 18125,
    "gale": 13723,
    "hastily": 19701,
    "Ġimperial": 9480,
    "Ġprecipitate": 19940,
    "Ġartfully": 22608,
    "Ġpreparation": 13528,
    "lay": 5890,
    "immortal": 21707,
    "Ġdeserved": 7736,
    "Ġmouldy": 14973,
    "Ġconfidential": 9087,
    "Ġseldom": 4630,
    "Ġverdant": 15002,
    "Ġcausing": 16356,
    "Ġ103": 24411,
    "Ġwander": 9031,
    "Ġdoran": 9179,
    "Ġnurtured": 19748,
    "Ġoccupied": 5272,
    "draul": 9442,
    "glimmer": 26321,
    "Ġafore": 10758,
    "Ġsleepless": 14582,
    "Ġshetland": 22156,
    "Ġripples": 25505,
    "wal": 10133,
    "Ġhorns": 11123,
    "hailed": 17565,
    "Ġallusion": 7625,
    "aited": 12433,
    "Ġcashier": 20197,
    "ocris": 23707,
    "Ġcorre": 3886,
    "Ġsuggest": 5417,
    "Ġstri": 2807,
    "Ġretrogress": 23070,
    "division": 20047,
    "Ġsweeter": 23915,
    "Ġsweating": 16461,
    "Ġthanks": 6707,
    "rows": 6442,
    "carried": 16711,
    "Ġdinner": 4245,
    "plexion": 14261,
    "ordinate": 12871,
    "aly": 1118,
    "Ġconvulsively": 25717,
    "Ġbeloved": 5572,
    "Ġmystical": 12130,
    "Ġlabels": 3289,
    "cst": 10084,
    "Ġairth": 23315,
    "hil": 8378,
    "feature": 4194,
    "flesh": 13489,
    "Ġunimpeachable": 26522,
    "Ġhighlands": 22772,
    "Ġunforeseen": 22048,
    "Ġsickness": 10538,
    "Ġc": 277,
    "Ġdiscourse": 9797,
    "arp": 2024,
    "Ġfolly": 7940,
    "Ġmic": 17797,
    "Ġlists": 11166,
    "hate": 20891,
    "se": 358,
    "Ġgoblet": 25823,
    "speps": 14333,
    "cules": 12389,
    "bearings": 25371,
    "Ġpedestrian": 25879,
    "Ġcleaning": 23178,
    "icted": 5936,
    "ribution": 14306,
    "lik": 3916,
    "thrill": 25656,
    "mary": 8748,
    "Ġinstruction": 14341,
    "mingled": 14712,
    "Ġrust": 6408,
    "oured": 2674,
    "purposes": 25021,
    "Ġperiodically": 19493,
    "Ġengraving": 17080,
    "Ġqu": 606,
    "thick": 10260,
    "subst": 12162,
    "Ġmccauley": 26426,
    "Ġloss": 824,
    "orton": 11754,
    "tashtego": 9622,
    "Ġperfect": 2559,
    "Ġdoll": 10813,
    "Ġwatery": 6296,
    "Ġneighbours": 8302,
    "Ġblasted": 7937,
    "Ġishmael": 7395,
    "silent": 9973,
    "ozy": 17622,
    "Ġpatronage": 17053,
    "Ġsorry": 4211,
    "Ġdecorum": 16019,
    "Ġbutt": 14125,
    "Ġbursting": 8655,
    "Ġsubterr": 10348,
    "Ġexact": 2545,
    "done": 6500,
    "Ġgerman": 6141,
    "Ġlearnedly": 23382,
    "Ġvulgarity": 25363,
    "Ġladies": 3193,
    "Ġgive": 1714,
    "Ġtired": 9149,
    "ipped": 5790,
    "Ġcombinations": 22853,
    "rose": 6013,
    "achalot": 15861,
    "Ġabating": 22264,
    "simple": 13451,
    "Ü": 157,
    "ative": 737,
    "cares": 24309,
    "Ġascertaining": 17203,
    "Ġstar": 6022,
    "neck": 14234,
    "Ġtimbers": 14838,
    "Ġappointed": 20101,
    "irty": 4050,
    "Ġrachel": 11845,
    "moving": 11016,
    "ibbald": 18840,
    "fulness": 4310,
    "Ġdrags": 16941,
    "Ġmiscell": 16147,
    "female": 20665,
    "possible": 5743,
    "reproof": 25432,
    "lit": 9605,
    "bee": 16035,
    "Ġvirtuous": 14754,
    "Ġtalk": 1969,
    "class": 4097,
    "Ġpresto": 22227,
    "Ġneural": 621,
    "ak": 539,
    "âĢĶâĢľ": 2973,
    "again": 3397,
    "urable": 8921,
    "persuasion": 20042,
    "Ġmatch": 4530,
    "Ġyou": 366,
    "don": 3544,
    "Ġaffording": 14820,
    "mons": 17600,
    "Ġsne": 6372,
    "huzza": 20912,
    "Ġfuture": 1083,
    "Ġstones": 9221,
    "strugg": 21659,
    "oused": 6556,
    "Ġpersuas": 23944,
    "Ġfurthest": 22814,
    "Ġrisen": 9492,
    "Ġvoices": 7875,
    "Ġphaet": 16317,
    "Ġbackgammon": 22649,
    "Ġ*": 1274,
    "Ġcushion": 17833,
    "io": 3800,
    "Ġpallid": 12297,
    "Ġany": 687,
    "joke": 20929,
    "Ġlargely": 14284,
    "Ġency": 21930,
    "Ġcollapsed": 15080,
    "Ġirish": 14533,
    "Ġbeadle": 26484,
    "Ġoppose": 16519,
    "capitals": 25080,
    "irresist": 21909,
    "plings": 11695,
    "Ġant": 4346,
    "Ġfavours": 23276,
    "Ġhunted": 7453,
    "Ġleaving": 3903,
    "Ġfoul": 7159,
    "Ġestim": 3348,
    "dan": 17515,
    "Ġglowed": 24864,
    "mutually": 26136,
    "sincere": 16907,
    "bun": 12436,
    "philips": 20033,
    "turned": 7306,
    "mense": 4780,
    "Ġabuse": 18392,
    "Ġsystematic": 5245,
    "Ġscene": 3098,
    "itzerland": 9994,
    "Ġspace": 1507,
    "arest": 4006,
    "okers": 18441,
    "Ġdisguise": 10045,
    "Ġgrain": 15829,
    "Ġanecdote": 26354,
    "Ġign": 8293,
    "ug": 1763,
    "Ġconjecture": 9531,
    "Ġclerks": 17294,
    "grown": 10099,
    "tooth": 18581,
    "Ġdefendants": 15139,
    "Ġgovernesses": 25127,
    "Ġdeparted": 5564,
    "Ġsphy": 18311,
    "Ġunstructured": 3006,
    "Ġspies": 22125,
    "Ġimplies": 24873,
    "Ġtweezers": 26556,
    "Ġlain": 17961,
    "Ġplata": 25117,
    "suggest": 20374,
    "Ġunexampled": 20358,
    "edily": 17943,
[...]
