{
  "metadata": {
    "vocab_size": 26613,
    "algorithm": "BPE",
    "created_at": "2026-05-02 04:58:04",
    "special_tokens": [
      "<PAD>",
      "<SOS>",
      "<EOS>",
      "<UNK>",
      "<MASK>"
    ]
  },
  "vocab": {
    "Ġfurled": 22812,
    "Ġfeared": 5931,
    "Ġmy": 409,
    "page": 13769,
    "kily": 20936,
    "Ġimproved": 7656,
    "vil": 2732,
    "Ġtreble": 16502,
    "Ġnonce": 23234,
    "pious": 17632,
    "lowering": 16026,
    "Ġrings": 11696,
    "enough": 6809,
    "Ġbordered": 24562,
    "Ġattempting": 14695,
    "wondered": 17028,
    "Ġrat": 4356,
    "Ġspake": 18308,
    "Ġstumped": 24942,
    "Ġidiotic": 25588,
    "Ġobserving": 6081,
    "Ġcloset": 19590,
    "Ġgate": 6825,
    "Ġger": 21589,
    "sil": 5282,
    "Ġinsurgents": 26599,
    "speechless": 25395,
    "Ġspurn": 18309,
    "instinctively": 26327,
    "Ġfree": 3374,
    "Ġweek": 2829,
    "Ġdropped": 4473,
    "Ġdispleased": 18555,
    "Ġquestions": 3975,
    "roof": 17953,
    "Ġmanaging": 22323,
    "Ġpause": 5707,
    "Ġneighbours": 8303,
    "Ġbearded": 15723,
    "masters": 16833,
    "Ġdesk": 11904,
    "Ġleaping": 8341,
    "representation": 20195,
    "Ġvehic": 8932,
    "story": 9211,
    "athies": 22698,
    "q": 85,
    "told": 7812,
    "Ġado": 7626,
    "Ġ221": 25068,
    "squeezing": 25913,
    "Ġpresumed": 10543,
    "Ġimpressions": 9551,
    "Ġhiding": 9821,
    "exception": 9974,
    "kes": 3680,
    "pict": 8386,
    "Ġvocation": 10524,
    "Ġfang": 21401,
    "eldom": 4416,
    "features": 14748,
    "Ġbradstreet": 9575,
    "Ġshift": 2283,
    "Ġkra": 18348,
    "Ġfavourably": 16359,
    "Ġnails": 12644,
    "avers": 17479,
    "lady": 4435,
    "dry": 13701,
    "Ġdisreputable": 22532,
    "Ġdeparture": 6490,
    "Ġsoaked": 15857,
    "spot": 9787,
    "Ġbam": 15562,
    "Ġensued": 11393,
    "bureau": 20788,
    "Ġden": 3105,
    "Ġobtained": 7432,
    "aling": 1034,
    "clut": 23148,
    "Ġinitialized": 3951,
    "ĠÂ£": 5006,
    "daw": 17521,
    "Ġlivid": 14987,
    "Ġimposs": 16615,
    "umbent": 12092,
    "trimmed": 23946,
    "hurt": 19877,
    "Ġannounce": 13336,
    "Ġtowing": 9192,
    "worm": 15451,
    "Ġleaps": 14006,
    "rawling": 21634,
    "erial": 4632,
    "Ġmadly": 16483,
    "Ġglit": 8559,
    "Ġhurry": 4913,
    "Ġblossom": 26312,
    "Ġsorry": 4214,
    "Ġrefers": 1566,
    "Ġtricks": 13482,
    "Ġforetold": 23450,
    "Ġbench": 7238,
    "nearly": 8680,
    "Ġdeceased": 15005,
    "mysterious": 26051,
    "opened": 7913,
    "Ġgenerously": 22392,
    "Ġcliffs": 15965,
    "Ġnut": 12642,
    "ule": 6800,
    "animate": 12573,
    "Ġpermitted": 9276,
    "Ġchained": 16388,
    "Ġtenderly": 11313,
    "Ġwrinkled": 7264,
    "Ġbig": 5805,
    "estone": 18363,
    "Ġsagacious": 14969,
    "read": 3274,
    "Ġvain": 3630,
    "ag": 377,
    "Ġinward": 11605,
    "perv": 1599,
    "construction": 19777,
    "Ġfee": 7198,
    "Ġmappings": 2148,
    "iate": 6505,
    "Ġjub": 22293,
    "mown": 20969,
    "Ġpresented": 5183,
    "Ġleaves": 5021,
    "Ġbroods": 23101,
    "Ġpiece": 5367,
    "imagine": 19930,
    "bered": 4506,
    "Ġsuperiority": 14616,
    "despair": 8344,
    "eyeing": 14944,
    "Ġstates": 1850,
    "oses": 3949,
    "Ġpots": 9426,
    "real": 10148,
    "Ġbalanced": 12985,
    "Ġunsupp": 22019,
    "Ġbills": 17860,
    "ĠĠĠĠĠĠĠĠĠĠĠĠĠĠĠĠĠĠĠĠĠĠĠĠĠĠĠĠĠĠĠĠĠĠĠĠĠĠĠĠĠĠĠĠĠĠĠĠĠ": 20036,
    "Ġrelevance": 5184,
    "Ġallen": 5160,
    "threw": 21982,
    "exceeded": 25001,
    "Ġstat": 1492,
    "lass": 5993,
    "cer": 6642,
    "Ġherein": 16188,
    "prints": 23809,
    "Ġevangelical": 25506,
    "Ġepoch": 26471,
    "Ġsavage": 4013,
    "Ġcarbuncle": 14443,
    "objection": 19914,
    "comprehens": 16168,
    "Ġlent": 21545,
    "hush": 20905,
    "rees": 5436,
    "Ġv": 399,
    "Ġhonestly": 19970,
    "Ġgidd": 25783,
    "Ġpersecutor": 26096,
    "Ġfeel": 1263,
    "Ġowners": 7663,
    "bones": 8372,
    "Ġsens": 1851,
    "Ġplum": 11819,
    "reason": 4417,
    "Ġsinging": 7724,
    "Ġmovable": 22433,
    "Ġplants": 22597,
    "ividual": 5463,
    "Ġscept": 15501,
    "Ġperse": 6272,
    "Ġbeneficial": 23929,
    "ancient": 9654,
    "Ġwarped": 25035,
    "saddest": 25527,
    "olence": 10228,
    "Ġwoodcock": 19162,
    "Ġsuperstitions": 17071,
    "buoy": 7761,
    "Ġfasting": 16353,
    "Ġdarker": 13117,
    "Ġtrades": 8232,
    "Ġnavel": 24575,
    "Ġchemical": 10409,
    "Ġcommunicates": 24546,
    "Ġwedding": 4858,
    "Ġcomfort": 3440,
    "maged": 15391,
    "nurse": 15206,
    "Ġtotal": 4993,
    "Ġbinnacle": 8119,
    "tahit": 17691,
    "Ġsluggishly": 25891,
    "aim": 2756,
    "Ġcompliments": 8632,
    "Ġshoulder": 5848,
    "Ġdolphin": 17310,
    "Ġadjacent": 20710,
    "Ġdot": 4820,
    "modern": 1144,
    "Ġneedle": 8275,
    "Ġvirtue": 4922,
    "Ġdirection": 1791,
    "Ġprim": 8244,
    "meeting": 11019,
    "Ġjavel": 17083,
    "Ġline": 1848,
    "cig": 17502,
    "Ġroll": 5381,
    "Ġgpus": 3734,
    "Ġsul": 7570,
    "Ġdisent": 22521,
    "vis": 4578,
    "ouraged": 22855,
    "Ġfertile": 20581,
    "Ġclimate": 9273,
    "naturally": 14574,
    "Ġyear": 3284,
    "âĢľ": 344,
    "Ġincreases": 3797,
    "Ġword": 1053,
    "Ġblood": 3167,
    "vast": 10735,
    "Ġcocked": 12900,
    "Ġcreation": 6439,
    "Ġknowingly": 18480,
    "connection": 18867,
    "Ġdru": 8422,
    "rig": 7556,
    "bedroom": 14675,
    "beings": 12872,
    "Ġspilling": 22135,
    "soon": 4030,
    "Ġliveliest": 24775,
    "Ġwherever": 8523,
    "Ġswarm": 23053,
    "==": 945,
    "Ġdisobedience": 22533,
    "berg": 11856,
    "Ġbubble": 13533,
    "Ġframework": 2118,
    "comrade": 20623,
    "anc": 6379,
    "Ġbargain": 23790,
    "Ġclap": 10956,
    "Ġsells": 21222,
    "Ġplunging": 14950,
    "exposure": 19256,
    "Ġbashee": 19848,
    "invest": 11558,
    "Ġlegal": 10438,
    "đ": 210,
    "eli": 3876,
    "Ġpictures": 5503,
    "ighted": 8476,
    "waves": 10741,
    "Ġoccupied": 5272,
    "immedi": 8450,
    "plexy": 18575,
    "Ĳ": 243,
    "founded": 16713,
    "ization": 486,
    "imodal": 17445,
    "er": 269,
    "Ġresignation": 18566,
    "Ġbeheading": 21752,
    "thirty": 12758,
    "Ġhateful": 19712,
    "Ġvisibly": 22869,
    "Ġreferences": 21672,
    "Ġreview": 18030,
    "Ġchange": 1994,
    "Ġtrough": 15972,
    "Ġscimet": 22272,
    "Ġthrilling": 19747,
    "pan": 10715,
    "Ġbarrowful": 25595,
    "diligence": 26110,
    "completed": 19992,
    "lers": 10105,
    "appropri": 22840,
    "enchanted": 26423,
    "Ġarithmetic": 18338,
    "Ġtools": 11607,
    "Ġcruelty": 9967,
    "moon": 10334,
    "Ġimpud": 18444,
    "Ġloomings": 24949,
    "follows": 24527,
    "Ġcaptive": 14425,
    "Ġanswering": 7477,
    "Ġsilvery": 13091,
    "doub": 6223,
    "Ġrendering": 16656,
    "Ġdaw": 21428,
    "Ġmaddening": 17242,
    "Ġcongregated": 20095,
    "Ġpreceding": 7528,
    "Ġprediction": 2221,
    "Ġspare": 5102,
    "Ġgrinned": 16856,
    "Ġdisappears": 18560,
    "Ġmeanest": 12906,
    "Ġaccelerating": 1621,
    "Ġcult": 8780,
    "preserving": 25304,
    "Ġblunder": 18818,
    "Ġheroines": 19750,
    "ara": 12602,
    "vers": 1328,
    "Ġoppressed": 11188,
    "Ġdedicated": 19189,
    "Ġfrigates": 25707,
    "Ġpioneer": 17918,
    ";âĢĿ": 7791,
    "arbuck": 2026,
    "Ġbird": 3758,
    "ellig": 525,
    "Ġsyn": 15910,
    "Ġhopelessly": 16376,
    "iates": 13735,
    "waited": 24586,
    "raved": 18012,
    "Ġreceiving": 4882,
    "Ġinflex": 20633,
    "Ġinvoked": 19144,
    "ying": 1370,
    "Ġbuzz": 23994,
    "Ġimpenetrable": 17395,
    "Ġbrit": 6289,
    "ma": 1152,
    "itudes": 3014,
    "drifting": 19823,
    "Ġgener": 586,
    "highly": 24764,
    "Ġeddies": 23436,
    "instinct": 19542,
    "Ġknows": 4164,
    "ensing": 12892,
    "Ġstaves": 21738,
    "determ": 7105,
    "Ġ129": 24473,
    "mangled": 20980,
    "tic": 8391,
    "Ġferule": 24515,
    "Ġdistillation": 16042,
    "Ġfif": 4221,
    "Ġdestroyed": 5271,
    "bitter": 11240,
    "osoever": 17341,
    "Ġbol": 6241,
    "Ġcrowding": 13277,
    "Ġawed": 23584,
    "Ġdisappointing": 19578,
    "Ġrattled": 15066,
    "Ġsounding": 8265,
    "Ġbath": 9657,
    "spoutings": 25003,
    "Ġpop": 5151,
    "forced": 11030,
    "opÃ¦": 12868,
    "Ġask": 1494,
    "Ġcheetah": 14501,
    "Ġappals": 22215,
    "Ġrules": 1917,
    "Ġengravings": 15065,
    "Ġconditions": 8307,
    "Ġresided": 11808,
    "Ġshadowed": 24042,
    "Ġsmote": 18574,
    "Ġexpand": 9305,
    "etieth": 21582,
    "Ġfilm": 23922,
    "Ġcat": 2121,
    "Ġreaction": 15691,
    "Ġdiamond": 15595,
    "mixed": 15392,
    "Ġcivility": 4788,
    "acquaintance": 6938,
    "Ġmatters": 4974,
    "Ġwooded": 23517,
    "icism": 13954,
    "Ġkl": 2736,
    "Ġantagonist": 26328,
    "Ġblankness": 24611,
    "ippers": 17575,
    "Ġgesture": 11398,
    "mond": 20972,
    "Ġpremature": 3727,
    "ence": 394,
    "ulia": 18148,
    "Ġunsocial": 18256,
    "serve": 13043,
    "estation": 15916,
    "Ġjudge": 5502,
    "Ġhung": 4561,
    "Ġmortification": 12090,
    "Ġsubtle": 6716,
    "rossed": 11012,
    "islanders": 25442,
    "acit": 16077,
    "talk": 6656,
    "Ġcigarette": 20655,
    "said": 4107,
    "Ġslashing": 23167,
    "irksome": 18172,
    "Ġbuoyant": 13530,
    "Ġconfronted": 23305,
    "Ġasc": 4765,
    "Ġinev": 10180,
    "Ġthinker": 22807,
    "onsensical": 18576,
    "entiful": 10835,
    "melancholy": 12350,
    "Ġobstacles": 19834,
    "othic": 16213,
    "Ġsighing": 18673,
    "live": 7550,
    "bos": 17482,
    "Ġte": 1149,
    "Ġinsatiate": 19269,
    "Ġreassure": 21670,
    "Ġemm": 18002,
    "Ġtwinkled": 14310,
    "Ġbecalmed": 18086,
    "ourers": 21448,
    "ailing": 7021,
    "Ġinsisted": 12043,
    "oried": 10801,
    "Ġ15": 9322,
    "Ġenvironmental": 24060,
    "industrious": 26239,
    "danish": 20832,
    "Ġlunatic": 24992,
    "evening": 7089,
    "Ġbestow": 6455,
    "saturday": 14856,
    "higher": 20405,
    "Ġmbpp": 21320,
    "Ġblocked": 19222,
    "del": 4080,
    "Ġpossess": 3202,
    "should": 3261,
    "Ġrail": 7223,
    "idel": 5299,
    "Ġpolitic": 23617,
    "Ġcats": 8978,
    "ni": 1633,
    "Ġdetest": 8500,
    "Ġfeminine": 15261,
    "Ġbil": 15561,
    "Ġpreposter": 12818,
    "Ġhumble": 8551,
    "bread": 10683,
    "tornadoes": 26153,
    "miniature": 16764,
    "tural": 21065,
    "infant": 19826,
    "Ġchance": 3316,
    "terror": 18128,
    "lust": 15377,
    "Ġend": 1485,
    "ssip": 14078,
    "Ġincrease": 9368,
    "ender": 9159,
    "retrospect": 23135,
    "Ġcau": 13879,
    "Ġbon": 8784,
    "Ġdante": 21437,
    "Ġfuture": 1100,
    "shroud": 20309,
    "Ġweeds": 21922,
    "Ġattendant": 11284,
    "Ġslung": 23165,
    "Ġabundant": 17153,
    "Ġgoney": 14544,
    "Ġdisaster": 12883,
    "umer": 9256,
    "Ġguardsmen": 20629,
    "Ġconcil": 23319,
    "Ġvortex": 26208,
    "Ġcister": 13880,
    "Ġphilosopher": 12180,
    "Ġrighteous": 18945,
    "dict": 15337,
    "Ġxxx": 7767,
    "fil": 12459,
    "Ġquieted": 23839,
    "indeed": 4489,
    "Ġexistence": 4706,
    "cask": 12443,
    "Ġdropout": 1560,
    "Ġclimbing": 20068,
    "Ġmanly": 22322,
    "Ġbanks": 6814,
    "Ġdivert": 23592,
    "Ġthack": 21515,
    "illum": 15866,
    "Ġlinen": 12404,
    "Ġshoving": 23487,
    "Ġpartly": 6713,
    "Ġabed": 22273,
    "Ġvelocity": 10619,
    "brain": 13685,
    "Ġcities": 17827,
    "Ġblades": 11892,
    "ixed": 4851,
    "thy": 2934,
    "ex": 621,
    "Ġweighed": 8710,
    "Ġcommanded": 6330,
    "Ġsevent": 18202,
    "Ġendeared": 26497,
    "ment": 695,
    "cil": 8720,
    "government": 25406,
    "Ġhushed": 13923,
    "Ġinvol": 1028,
    "Ġgloves": 8574,
    "acey": 7649,
    "narr": 12493,
    "warnings": 20350,
    "Ġribbed": 16803,
    "Ġdrenched": 12599,
    "Ġbaling": 17859,
    "dra": 3414,
    "Ġlouisiana": 25076,
    "different": 6501,
    "Ġbildad": 3783,
    "Ġsleepless": 14581,
    "rigging": 20004,
    "irons": 10237,
    "âĢĶ_": 3198,
    "Ġpenetrate": 12266,
    "Ġarabian": 9088,
    "Ġvines": 12747,
    "thoroughly": 26507,
    "Ġbrixton": 13661,
    "certainly": 5339,
    "Ġhoist": 11973,
    "possession": 12218,
    "Ġuncomfortable": 8485,
    "Ġunkindness": 22040,
    "Ġunfrequent": 24109,
    "Ġseventeen": 26210,
    "Ġconcre": 16387,
    "Ġcopper": 7425,
    "Ġhope": 1788,
    "Ġenglishmen": 19428,
    "artificial": 1050,
    "peculiarity": 23108,
    "Ġcreases": 22724,
    "Ġreckoned": 24744,
    "achusetts": 20709,
    "Ġbosoms": 16794,
    "Ġrefined": 18706,
    "Ġliberty": 7762,
    "urged": 18048,
    "Ġgenerally": 4162,
    "mits": 13754,
    "Ġperceived": 4714,
    "Ġhunters": 6300,
    "omin": 4703,
    "Ġceremonies": 24836,
    "Ġobscurely": 20187,
    "Ġgent": 7383,
    "Ġhunt": 6183,
    "Ġconfidence": 6590,
    "Ġbutler": 18270,
    "Ġmantle": 25274,
    "Ġsutherland": 10147,
    "flood": 19805,
    "ricted": 15418,
    "Ġunspeakably": 25172,
    "Ġordained": 19443,
    "cures": 20804,
    "thou": 4709,
    "omely": 21637,
    "Ġjackets": 19601,
    "consent": 18503,
    "Ġremem": 4316,
    "desirable": 23208,
    "Ġquant": 6424,
    "Ġeaves": 15672,
    "Ġcompetition": 14265,
    "cannibals": 25584,
    "gh": 3802,
    "Ġsurpasses": 25268,
    "attle": 4468,
    "Ġcousin": 3706,
    "Ġfoiled": 23244,
    "Ġhonorable": 16875,
    "Ġreclining": 26033,
    "Ġbegan": 2022,
    "terday": 4705,
    "itaries": 21334,
    "Ġlik": 2523,
    "algorithm": 4075,
    "consum": 12866,
    "sombre": 23851,
    "itives": 17819,
    "Ġtep": 21160,
    "Ġexposed": 8522,
    "osc": 18387,
    "Ġmur": 2489,
    "prospect": 23394,
    "Ġinner": 9669,
    "noise": 14325,
    "Ġmanxman": 9564,
    "Ġinfinite": 8576,
    "itably": 10781,
    "husband": 8042,
    "ion": 296,
    "Ġways": 5396,
    "Ġcondensed": 24050,
    "Ġamb": 9290,
    "Ġdowncast": 18652,
    "Ġbaboon": 19692,
    "cific": 10084,
    "Ġimprinted": 22387,
    "gro": 10093,
    "Ġwiser": 14728,
    "infer": 10143,
    "Ġunjustifiable": 25109,
    "Ġdishonor": 25601,
    "Ġsteepest": 3086,
    "Ġtemperate": 16159,
    "eping": 5834,
    "Ġpatterns": 1214,
    "igate": 8821,
    "ittance": 12841,
    "trip": 21090,
    "Ġsport": 6688,
    "Ġunwonted": 14123,
    "mysteries": 26050,
    "Ġdiscol": 12949,
    "eding": 7165,
    "Ġicicles": 25264,
    "vision": 5619,
    "ultaneous": 18584,
    "nowled": 5470,
    "Ġinconstant": 21494,
    "keepers": 16658,
    "Ġstoutest": 24629,
    "Ġendowed": 18924,
    "Ġmain": 810,
    "Ġmanhood": 22324,
    "ile": 522,
    "Ġsatire": 22898,
    "oting": 2744,
    "Ġinherent": 4592,
    "Ġmarriage": 3186,
    "Ġadvancement": 24474,
    "smooth": 20247,
    "Ġsharks": 4499,
    "ivory": 10269,
    "arse": 7160,
    "women": 15454,
    "Ġmichaelmas": 26374,
    "lightning": 16551,
    "Ġchronicler": 20228,
    "Ġcustomary": 8669,
    "Ġwaxed": 21296,
    "Ġzones": 22817,
    "plish": 18200,
    "bran": 23572,
    "Ġsuffusing": 23028,
    "Ġvillagers": 19472,
    "ast": 472,
    "irresist": 21910,
    "encing": 21281,
    "Ġsuggestions": 24452,
    "cen": 17501,
    "Ġresult": 4462,
    "Ġslighter": 18939,
    "Ġmonuments": 22977,
    "Ġtexas": 25922,
    "Ġrig": 4228,
    "cursed": 23840,
    "Ġparticulars": 5754,
    "Ġmanilla": 15956,
    "riage": 2123,
    "specimen": 26604,
    "Ġtarshish": 12025,
    "Ġsort": 1508,
    "Ġpatches": 4240,
    "Ġspade": 9257,
    "Ġhyena": 24518,
    "Ġdrug": 11409,
    "leave": 7838,
    "Ġquantization": 19853,
    "longing": 23724,
    "shells": 26056,
    "Ġwherein": 14291,
    "Ġ47": 14770,
    "Ġsharply": 9401,
    "Ġcategories": 4479,
    "arily": 4130,
    "urn": 775,
    "Ġattempts": 10489,
    "Ġkeenest": 12158,
    "Ġpharaoh": 26584,
    "neath": 12861,
    "cet": 15323,
    "Ġpiazza": 26449,
    "un": 373,
    "oin": 17616,
    "Ġrush": 5925,
    "aits": 20765,
    "Ġenabled": 9294,
    "pursued": 17280,
    "Ġsecurity": 8976,
    "Ġcologne": 12971,
    "Ġglanced": 5952,
    "kings": 17582,
    "Ġswish": 23052,
    "irted": 14070,
    "Ġreluctant": 20523,
    "Ġpleasantest": 24137,
    "extending": 22755,
    "Ġencourages": 2061,
    "Ġdisturbance": 15011,
    "needle": 20312,
    "Ġpacifics": 24372,
    "Ġmorphology": 3010,
    "splice": 17169,
    "Ġinconveniences": 24939,
    "Ġthreatening": 16827,
    "<SOS>": 1,
    "Ġpreliminary": 10055,
    "castle": 3348,
    "Ġwrong": 4724,
    "Ġxii": 11987,
    "Ġadver": 5641,
    "engthen": 14456,
    "Ġdif": 869,
    "Ġreverence": 12056,
    "Ġfixedly": 19247,
    "Ġnile": 21519,
    "Ġabsence": 4894,
    "Ġmate": 3709,
    "Ġletters": 3794,
    "Ġgamesome": 17288,
    "Ġdrew": 3536,
    "Ġes": 8768,
    "binary": 20783,
    "vellers": 16672,
    "concerted": 16670,
    "topp": 22563,
    "Ġproc": 5544,
    "ĠĠĠĠĠ": 3526,
    "Ġquitting": 7645,
    "Ġsuite": 18279,
    "abomin": 15738,
    "watches": 14945,
    "Ġglide": 22984,
    "Ġhideousness": 16914,
    "leading": 15558,
    "Ġwildest": 16508,
    "itching": 21333,
    "Ġnetwork": 451,
    "unfearing": 21890,
    "Ġquar": 3111,
    "Ġderiv": 1736,
    "Ġbaw": 15565,
    "Ġcrawled": 17043,
    "Ġfriday": 14487,
    "velope": 17700,
    "Ġdeceitfulness": 25734,
    "Ġkrempe": 10668,
    "edy": 2860,
    "design": 18957,
    "Ġstate": 1808,
    "Ġgoat": 16003,
    "onents": 8776,
    "mblance": 7323,
    "kindly": 14742,
    "Ġkeeping": 7283,
    "mas": 5212,
    "ccarthy": 4888,
    "robotics": 11305,
    "ops": 5247,
    "devils": 20031,
    "john": 11496,
    "ari": 673,
    "Ġfirmly": 8014,
    "Ġfought": 12589,
    "Ġdoors": 6418,
    "pus": 3415,
    "Ġclam": 7416,
    "Ġsuggests": 12197,
    "books": 8663,
    "circle": 16735,
    "Ġarchbishop": 18717,
    "Ġclosing": 11769,
    "tack": 12509,
    "Ġelab": 22648,
    "Ġqueen": 3212,
    "Ġadoption": 24948,
    "ission": 6457,
    "Ġmarried": 3407,
    "Ġfloating": 6604,
    "Ġprot": 3849,
    "spersed": 22733,
    "nour": 20987,
    "reeling": 21243,
    "Ġarrives": 23606,
    "Ġmayhap": 18711,
    "Ġattained": 14076,
    "offices": 19061,
    "Ġhighly": 4844,
    "hearts": 13342,
    "Ġtattered": 21170,
    "Ġdomain": 3412,
    "rapt": 13971,
    "Ġkidnapping": 26356,
    "hollow": 24037,
    "Ġpleadings": 25852,
    "Ġattend": 5036,
    "Ġce": 3030,
    "Ġjewell": 19519,
    "Ġguardian": 14940,
    "Ġjac": 1897,
    "oga": 22709,
    "Ġscra": 5840,
    "izure": 21839,
    "announce": 24559,
    "Ġpaying": 9936,
    "Ġinfatuated": 20532,
    "Ġevaluate": 3025,
    "Ġunsounded": 15846,
    "Ġvanquished": 22874,
    "umberland": 16836,
    "acing": 2717,
    "Ġsledge": 8111,
    "Ġreynolds": 10208,
    "hauled": 20667,
    "tribute": 21087,
    "Ġcomfortless": 23910,
    "Ġintegration": 9866,
    "Ġgentlemanlike": 12063,
    "iction": 4271,
    "alley": 23021,
    "Ġheat": 5453,
    "Ġmerrily": 23730,
    "Ġtemple": 7653,
    "Ġphrase": 11186,
    "Ġwilderness": 14838,
    "Ġmel": 4816,
    "Ġneck": 4885,
    "palms": 25262,
    "Ġflanks": 11911,
    "Ġmarred": 23031,
    "drown": 13702,
    "Ġsailing": 5323,
    "Ġunworthy": 11712,
    "shud": 18485,
    "proportions": 22825,
    "ended": 1834,
    "ipt": 12475,
    "grass": 23411,
    "coarse": 16485,
    "fts": 18696,
    "Ġabject": 18396,
    "Ġserpents": 13074,
    "Ġtherein": 11772,
    "anous": 21357,
    "Ġdistracted": 11800,
    "Ġabhorrent": 16855,
    "Ġbeaut": 2395,
    "_.)": 7278,
    "Ġinviting": 19143,
    "Ġtest": 1558,
    "Ġmerely": 3772,
    "sy": 2730,
    "welcome": 9999,
    "invincible": 25089,
    "ans": 459,
    "Ġfierce": 7437,
    "Ġoutdone": 22316,
    "perceived": 8857,
    "concl": 12865,
    "Ġchil": 11748,
    "Ġgrapes": 15213,
    "Ġconceits": 19388,
    "vineyard": 25421,
    "Ġneighbourhood": 5126,
    "prodig": 16424,
    "many": 5250,
    "fork": 20856,
    "Ġfin": 1458,
    "Ġskirt": 18728,
    "Ġmeek": 21807,
    "Ġshores": 8846,
    "Ġconviction": 6326,
    "ontory": 10458,
    "poise": 6171,
    "Ġsincerely": 7963,
    "Ġchased": 8860,
    "Ġthreatens": 24374,
    "Ġtermination": 16459,
    "fact": 6358,
    "Ġcigar": 9543,
    "Ġestates": 16458,
    "carpenter": 11426,
    "dying": 10693,
    "Ġpours": 17911,
    "rior": 12738,
    "Ġcrav": 19172,
    "ho": 2859,
    "Ġstaring": 8823,
    "Ġhabitations": 24789,
    "Ġmassacre": 20546,
    "smeer": 26147,
    "Ġbrill": 8549,
    "Ġabound": 8863,
    "holloa": 19462,
    "approb": 11042,
    "Ġintimate": 6549,
    "spite": 16135,
    "bling": 10077,
    "tell": 1381,
    "Ġliberties": 19666,
    "Ġze": 8545,
    "Ġviolence": 5963,
    "```": 25893,
    "Ġappeals": 16314,
    "narrated": 25621,
    "cture": 15661,
    "Ġvibration": 17098,
    "isive": 10792,
    "Ġadjust": 2154,
    "c": 71,
    "Ġprofounder": 23567,
    "Ġyours": 4128,
    "Ġhideous": 5983,
    "cra": 6354,
    "supposed": 13313,
    "into": 3682,
    "had": 1949,
    "Ġdeliverance": 15155,
    "gate": 12463,
    "Ġcoolness": 16885,
    "Ġcrawford": 24893,
    "Ġsupposition": 9815,
    "weakness": 16121,
    "Ġirregularly": 25323,
    "Ġeyeing": 6460,
    "utored": 15659,
    "Ġisol": 8832,
    "Ġthundering": 24290,
    "featured": 24053,
    "Ġinno": 1365,
    "olds": 9309,
    "done": 6500,
    "Ġcourtiers": 24136,
    "Ġdestiny": 8982,
    "cible": 20805,
    "Ġblind": 3718,
    "Ġdejected": 20303,
    "mpt": 6653,
    "Ġchannel": 26012,
    "Ġunhinged": 26216,
    "Ġpour": 13912,
    "Ġidentity": 2524,
    "Ġsickening": 19603,
    "sleepers": 24730,
    "Ġsill": 10764,
    "Ġabstract": 17180,
    "Ġdreamt": 23936,
    "Ġshapes": 14107,
    "Ġbed": 2144,
    "ä": 165,
    "Ġmonsters": 11073,
    "Ġrespectfully": 18994,
    "bolt": 25135,
    "Ġtrading": 23075,
    "Ġmeasure": 3594,
    "peculiarities": 13469,
    "Ġmunro": 25630,
    "Ġvicissitudes": 12416,
    "Ġperempt": 13671,
    "Ġfrenzy": 13620,
    "erably": 7573,
    "Ġlistener": 16473,
    "Ġcaress": 16337,
    "Ġtranquo": 14841,
    "Ġwashington": 17201,
    "Ġspecksnyder": 17401,
    "Ġevangelists": 20338,
    "Ġfurthermore": 1169,
    "Ġsweeping": 8984,
    "Ġtusks": 17252,
    "Ġcastle": 14715,
    "Ġdefine": 9813,
    "Ą": 197,
    "Ġwhispers": 14698,
    "throw": 14096,
    "covenant": 23560,
    "Ġslides": 18938,
    "throt": 25659,
    "vely": 3869,
    "Ġork": 18284,
    "Ĵ": 245,
    "Ġfasten": 11131,
    "consolatory": 25306,
    "Ġhappens": 2189,
    "Ġox": 7153,
    "Ġprincip": 5599,
    "Ġwarehouse": 20415,
    "Ġ=": 1073,
    "Ġpositive": 2297,
    "Ġpaternal": 16372,
    "teak": 22815,
    "heads": 4098,
    "Ġdeft": 21834,
    "Ġknowledge": 1446,
    "Ġwheelbarrow": 17203,
    "continue": 16860,
    "Ġtrans": 650,
    "Ġnarrower": 24353,
    "Ġunreserved": 19395,
    "Ġprematurely": 24003,
    "Ġours": 4613,
    "Ġgifts": 21610,
    "Ġwants": 5742,
    "Ġeliminating": 20618,
    "rack": 18010,
    "Ġrepelled": 19083,
    "Ġthoughtlessness": 16191,
    "Ġchronicled": 25328,
    "Ġforesight": 13125,
    "Ġsheep": 10925,
    "wond": 8767,
    "ower": 1035,
    "Ġresemble": 15689,
    "Ġhoped": 5488,
    "Ġall": 422,
    "lux": 14224,
    "Ġparc": 10919,
    "Ġwithhold": 18115,
    "Ġdisgra": 18549,
    "Ġcomplied": 14732,
    "Ġdominic": 25381,
    "Ġrephr": 21677,
    "Ġcurse": 7668,
    "cept": 551,
    "Ġtested": 23204,
    "Ġoverwhel": 8196,
    "Ġcloser": 8659,
    "atics": 15520,
    "Ġjumping": 13339,
    "Ġtil": 12520,
    "Ġblasted": 7938,
    "equ": 6790,
    "Ġanywhere": 8516,
    "Ġfatal": 5871,
    "Ġcrazy": 8592,
    "Ġlists": 11165,
    "boards": 23254,
    "Ġdispositions": 13231,
    "Ġthinner": 24181,
    "Ġbegged": 8231,
    "Ġconsolidation": 5060,
    "Ġtinkling": 25212,
    "Ġprisoner": 8672,
    "Ġsighs": 22705,
    "Ġuniform": 2227,
    "Ġeye": 2282,
    "inexplicable": 25809,
    "impregn": 21712,
    "Ġconcerns": 12028,
    "Ġexerted": 15750,
    "Ġtelling": 5747,
    "Ġentrance": 7233,
    "Ġtortures": 14921,
    "furniture": 20241,
    "Ġrescue": 13340,
    "Ġantichronical": 26608,
    "Ġmidway": 14603,
    "Ġdecoding": 3079,
    "Ġnod": 1888,
    "Ġmembrane": 20502,
    "Ġrevelry": 15134,
    "Ġessex": 20125,
    "writ": 16552,
    "investments": 25532,
    "antee": 22095,
    "Ġswelling": 11922,
    "ish": 550,
    "oves": 15401,
    "isol": 17846,
    "irra": 15781,
    "Ġwedged": 24070,
    "Ġadroit": 26000,
    "Ġunembarrassed": 22067,
    "Ġcleat": 18946,
    "shrouded": 26361,
    "orney": 17873,
    "Ġ117": 19696,
    "Ġassum": 4067,
    "Ġflow": 1240,
    "ps": 4575,
    "itute": 9650,
    "heav": 5694,
    "Ġlandsman": 11349,
    "Ġterrific": 6754,
    "Ġvicious": 24402,
    "ic": 304,
    "acc": 2534,
    "Ġguardians": 14941,
    "Ġpartake": 18670,
    "Ġaisle": 21200,
    "Ġprevail": 13440,
    "Ġseriously": 7061,
    "illing": 8175,
    "Ġhome": 2029,
    "Ġruggedness": 26268,
    "Ġhowling": 8509,
    "favour": 9547,
    "disposition": 10040,
    "Ġrepl": 1595,
    "ison": 3072,
    "Ġdismally": 20213,
    "urns": 10212,
    "Ġbutts": 15852,
    "outre": 18320,
    "Ġinhabit": 5782,
    "Ġmasoned": 20250,
    "commander": 16986,
    "Ġstrasburgh": 18615,
    "Ġvertically": 19378,
    "Ġcoherent": 3262,
    "pence": 15407,
    "Ġabide": 14189,
    "Ġcompress": 21847,
    "Ġdelicacy": 6340,
    "Ġ>": 21150,
    "Ġscatter": 18391,
    "Ġrailway": 15019,
    "Ġsignify": 16492,
    "archangel": 18784,
    "Ġrang": 9243,
    "Ġ85": 24459,
    "Ġprincipal": 6496,
    "iscuits": 24666,
    "Ġpier": 7162,
    "Ġdoings": 18376,
    "Ġdistorted": 14248,
    "formality": 22222,
    "innocence": 15181,
    "Ġinconvenient": 20008,
    "Ġminus": 18750,
    "Ġmasked": 3696,
    "\"],": 26120,
    "Ġdesiring": 14412,
    "Ġmarry": 4420,
    "Ġzeal": 9096,
    "Ġrattle": 10898,
    "Ġfiery": 6871,
    "pr": 3173,
    "Ġlobster": 11388,
    "Ġcrisis": 13124,
    "Ġsalary": 13291,
    "Ġcaus": 1725,
    "Ġthickest": 16653,
    "Ġelix": 22650,
    "perth": 22183,
    "ornamented": 26594,
    "Ġdestroy": 5772,
    "Ġcrocodile": 20739,
    "interference": 23736,
    "halloa": 17089,
    "ĩ": 234,
    "Ġroasted": 18460,
    "datasets": 11950,
    "Ġemblaz": 16231,
    "eur": 7545,
    "Ġgovernor": 16488,
    "uments": 5551,
    "Ġwealth": 7620,
    "Ġwisely": 13270,
    "Ġtongue": 6347,
    "®": 111,
    "Ġhorrible": 4905,
    "Ġavenues": 25429,
    "Ġwhip": 8451,
    "Ġsulkily": 25882,
    "isely": 4490,
    "Ġrequisition": 22645,
    "Ġsearch": 2591,
    "accepting": 20134,
    "unsuitable": 21891,
    "tomahawk": 25915,
    "sen": 21048,
    "theories": 18078,
    "Ġpersistence": 3201,
    "wrapped": 15207,
    "Ġburning": 5977,
    "Ġcoarse": 14272,
    "Ġeldest": 6571,
    "Ġpull": 5152,
    "Ġdecomposition": 5342,
    "Ġworked": 6582,
    "ooping": 21006,
    "Ġdrows": 21434,
    "Ġate": 8838,
    "Ġpelt": 15606,
    "Ġlistening": 6318,
    "Ġconcern": 2586,
    "Ġvoid": 14084,
    "Ġdecide": 9284,
    "Ġsucceeding": 16760,
    "Ġalso": 1345,
    "Ġpri": 5813,
    "ishes": 6523,
    "years": 6883,
    "Ġelig": 9776,
    "Ġdisgraceful": 15018,
    "Ġpatient": 6894,
    "stat": 21642,
    "Ġstave": 11649,
    "Ġoutcast": 18413,
    "jury": 15371,
    "Ġdestro": 3724,
    "interesting": 12198,
    "warmly": 25026,
    "Ġbowl": 11203,
    "hun": 5210,
    "Ġfuneral": 10282,
    "laughing": 15177,
    "itated": 4442,
    "Ġretreats": 16927,
    "Ġbarrier": 16568,
    "Ġsupreme": 13605,
    "Ġfools": 14480,
    "Ġincreas": 1696,
    "Ġdiscretion": 10346,
    "ases": 1524,
    "Ġoptimal": 1854,
    "Ġsolicited": 20035,
    "owe": 15704,
    "Ġbitter": 4178,
    "bride": 19199,
    "onel": 3088,
    "Ġgowns": 25359,
    "wel": 6117,
    "Ġascertaining": 17202,
    "stool": 23816,
    "Ġdisappo": 4507,
    "invite": 25088,
    "sentiment": 12910,
    "lacing": 17589,
    "Ġsmiled": 5941,
    "ington": 21300,
    "Ġpend": 15602,
    "Ġinterpreter": 23215,
    "Ġfleeting": 19326,
    "Ġmortar": 19391,
    "Ġupper": 5090,
    "Ġcargo": 16287,
    "ollion": 19714,
    "Ġcalcul": 3638,
    "Ġpervading": 20612,
    "Ġjoke": 8867,
    "sory": 17658,
    "bowed": 10682,
    "Ġ95": 19772,
    "Ġsetbacks": 11062,
    "ille": 9218,
    "Ġspears": 12922,
    "eted": 7591,
    "Ġsy": 490,
    "lott": 6650,
    "Ġgazed": 6478,
    "Ġinexperience": 26099,
    "Ġspir": 2429,
    "Ġwonderful": 4564,
    "Ġalmanac": 26484,
    "Ġjacobian": 2893,
    "Ġprogram": 12987,
    "Ġsearching": 13160,
    "pertaining": 22186,
    "iture": 5696,
    "Ġbid": 6131,
    "civil": 7797,
    "piteous": 21032,
    "introduce": 25186,
    "ica": 10197,
    "Ġgirdled": 19157,
    ".âĢĶ": 4251,
    "frankenstein": 11390,
    "Ġelevating": 19727,
    "Ġscotland": 6639,
    "Ġinsipid": 26313,
    "Ġaffection": 2639,
    "Ġhelp": 1643,
    "Ġaims": 15494,
    "Ġhorner": 8957,
    "happiness": 6469,
    "conceivable": 17129,
    "Ġquaint": 18465,
    "Ġeligible": 10669,
    "utch": 21584,
    "Ġfronts": 20530,
    "geneva": 13728,
    "ustomed": 6099,
    "pole": 9331,
    "splash": 25209,
    "Ġinstantaneously": 23659,
    "Ġchaps": 14178,
    "Ġmyth": 18220,
    "moran": 24151,
    "Ġresidual": 1682,
    "Ġdenominated": 15226,
    "Ġsordid": 26421,
    "ours": 3429,
    "because": 4923,
    "Ġmagician": 25058,
    "Ġclasped": 17205,
    "Ġmodular": 12812,
    "Ġfront": 3452,
    "Ġced": 10783,
    "ications": 4447,
    "Ġfoe": 7680,
    "Ġart": 747,
    "Ġtak": 15468,
    "Ġsymbolize": 24962,
    "rets": 12537,
    "wester": 21137,
    "Ġdair": 17889,
    "Ġbloodshot": 23797,
    "rible": 3227,
    "Ġextremity": 8987,
    "Ġrad": 4961,
    "Ġfifth": 11256,
    "Ġcentre": 5123,
    "prophet": 16176,
    "blocks": 25517,
    "Ġexpands": 25237,
    "prises": 23810,
    "ice": 589,
    "Ġdummy": 25449,
    "Ġtoss": 10183,
    "Ġbrack": 23832,
    "Ġpettic": 14839,
    "Ġapparent": 5466,
    "Ġshowed": 4498,
    "thest": 11652,
    "deceit": 25556,
    "ency": 3871,
    "Ġmedical": 9462,
    "S": 55,
    "ctors": 21588,
    "comra": 16166,
    "Ġmod": 493,
    "entropy": 1439,
    "Ġgard": 2191,
    "Ġcomputational": 1629,
    "Ġriding": 14092,
    "Ġsanctified": 25883,
    "Ġnothing": 1359,
    "worthy": 7733,
    "summoned": 26590,
    "Ġlengthened": 25958,
    "Ġborrow": 10169,
    "Ġperpet": 7644,
    "Ġpauses": 14813,
    "tle": 2410,
    "Ġscaramouch": 23824,
    "ham": 1703,
    "Ġdespised": 14665,
    "Ġpredicted": 2045,
    "Ġequinoctial": 20531,
    "Ġbravery": 23833,
    "ite": 712,
    "Ġadversity": 24302,
    "Ġevils": 9018,
    "Ġinfatuation": 25856,
    "Ġcorre": 3891,
    "Ġexist": 9230,
    "Ġdisdain": 8360,
    "Ġmanufact": 22326,
    "ounix": 14160,
    "wail": 21124,
    "Ġapproximate": 2341,
    "screen": 22994,
    "empl": 5724,
    "great": 3516,
    "rit": 21034,
    "Ġprints": 16330,
    "Ġsadder": 24049,
    "Ġvit": 10244,
    "Ġfixed": 2684,
    "Ġfac": 6381,
    "stout": 21643,
    "Ġcuvier": 9164,
    "sink": 11520,
    "Ġbroom": 18906,
    "Ġshovel": 23489,
    "alice": 3207,
    "Ġjolly": 6858,
    "Ġlandowner": 23379,
    "driven": 19770,
    "Ġsword": 6732,
    "Ġclouded": 13288,
    "Ġholidays": 22920,
    ".}": 20744,
    "Ġconcentrate": 25063,
    "cess": 544,
    "Ġwound": 4529,
    "enter": 7858,
    "necessarily": 19630,
    "Ġcru": 2825,
    "Ġentertained": 9996,
    "Ġproudly": 19741,
    "Ġcarpenter": 4685,
    "Ġimbalanced": 18333,
    "linearity": 1652,
    "Ġguineas": 16269,
    "Ġaud": 6661,
    "Ġcolumn": 9326,
    "letter": 6201,
    "uries": 6147,
    "mews": 22717,
    "Ġhunts": 23155,
    "istics": 1632,
    "Ġpoultry": 17439,
    "Ġchildren": 3769,
    "ores": 2414,
    "iple": 4806,
    "Ġappearance": 3701,
    "Ġgans": 5821,
    "itect": 979,
    "efficient": 2872,
    "Ġprudent": 9184,
    "Ġoakshott": 12226,
    "Ġmassac": 14734,
    "putation": 7624,
    "Ġslavish": 23170,
    "Ġoperation": 11995,
    "contact": 23726,
    "alleled": 14427,
    "bourgh": 19103,
    "inde": 17730,
    "Ġsnapping": 19300,
    "brary": 5755,
    "Ġalco": 21780,
    "bo": 1693,
    "Ġgush": 10201,
    "ements": 11106,
    "vulgar": 25918,
    "ean": 20839,
    "Ġpliny": 11822,
    "after": 2897,
    "Ġdrawing": 3920,
    "Ġlongest": 18629,
    "Ġconflagration": 26364,
    "Ġsuperfluous": 17412,
    "Ġrustic": 14963,
    "etian": 13957,
    "Ġlo": 453,
    "Ġpacing": 8426,
    "Ġburned": 8630,
    "Ġhumorousness": 25377,
    "thouse": 21980,
    "Ġvictory": 16652,
    "Ġinstigated": 18698,
    "Ġvac": 5025,
    "Ġconver": 807,
    "smile": 23903,
    "Ġlantern": 7116,
    "prehens": 9287,
    "unc": 15765,
    "eness": 2291,
    "dle": 3247,
    "Ġship": 1089,
    "Ġsuper": 2153,
    "Ġmotioned": 19591,
    "Ġwel": 4528,
    "endeav": 7150,
    "Ġsomnam": 23003,
    "Ġdispute": 16052,
    "Ġstarvation": 19790,
    "Ġblu": 2685,
    "paused": 17372,
    "idable": 8146,
    "remarks": 23187,
    "Ġatom": 18192,
    "me": 883,
    "Ġjeopardized": 20229,
    "Ġtints": 17726,
    "Ġlined": 15646,
    "Ġfoliage": 18866,
    "Ġessentials": 20001,
    "subjects": 19875,
    "Ġchimer": 24603,
    "Ġebony": 18008,
    "Ġst": 332,
    "hack": 20895,
    "Ġridicule": 13510,
    "Ġpang": 15601,
    "kers": 7132,
    "Ġadapted": 11040,
    "Ġbedfellows": 23437,
    "wing": 2519,
    "Ġregulations": 18593,
    "Ġegyptians": 25289,
    "parted": 21015,
    "iring": 1709,
    "Ġnam": 17948,
    "Ġsharing": 3476,
    "Ġhalting": 16271,
    "infliction": 25924,
    "Ġavail": 11225,
    "intern": 23734,
    "dramatic": 19383,
    "Ġwish": 2096,
    "not": 908,
    "hem": 6663,
    "esu": 17901,
    "{": 95,
    ",--": 2477,
    "Ġrate": 1062,
    "belong": 12119,
    "olstad": 7611,
    "Ġch": 513,
    "ficial": 17547,
    "Ġsingularly": 12145,
    "minutes": 7512,
    "Ġstubb": 1785,
    "oughed": 22073,
    "more": 1032,
    "hetic": 12200,
    "quarter": 11387,
    "grieved": 17315,
    "adem": 21755,
    "Ġprotecting": 24686,
    "Ġheightens": 24153,
    "ane": 1179,
    "Ġvigilant": 20183,
    "unhes": 21873,
    "inching": 21188,
    "cushion": 20820,
    "Ġtransport": 11277,
    "inging": 5907,
    "Ġtravelled": 7772,
    "arent": 4252,
    "Ġwin": 9640,
    "Ġappetites": 20205,
    "hole": 5585,
    "Ġ156": 20169,
    "Ġstri": 2804,
    "Ġsupp": 1266,
    "Ġinheriting": 25354,
    "Ġenig": 15796,
    "Ġsmaller": 1883,
    "Ġdraws": 19434,
    "ained": 3063,
    "Ġshad": 3851,
    "Ġtides": 13819,
    "superiority": 20184,
    "distance": 12149,
    "Ġmean": 743,
    "Ġrepul": 16406,
    "kicked": 20942,
    "Ġvariance": 1168,
    "Ġconflag": 20334,
    "direct": 12453,
    "intim": 22932,
    "bench": 16802,
    "Ġliber": 5168,
    "Ġgathered": 8443,
    "onder": 3781,
    "Ġsystematically": 4127,
    "Ġwhilst": 9217,
    "pivot": 21030,
    "Ġdisgu": 8206,
    "Ġsuddenly": 2645,
    "hurrying": 14981,
    "Ġlest": 6395,
    "Ġdiary": 24739,
    "Ġtropical": 17064,
    "Ġcolours": 12970,
    "Ġpad": 8125,
    "blue": 13691,
    "Ġdome": 15585,
    "gentleman": 7518,
    "Ġanalogical": 25640,
    "gives": 15355,
    "Ġqu": 604,
    "Ġreport": 6191,
    "Ġmysticetus": 24922,
    "iforn": 14062,
    "Ġspray": 7895,
    "Ġslight": 3117,
    "Ġnieces": 8433,
    "Ġhardest": 18912,
    "gely": 10699,
    "gress": 2214,
    "Ġitself": 2522,
    "Ġcurvature": 3573,
    "elius": 13285,
    "Ġsupposed": 4559,
    "Ġdescribe": 2765,
    "oot": 13763,
    "Ġprick": 14477,
    "shook": 19855,
    "reduced": 15802,
    "Ġcompact": 2261,
    "gen": 6503,
    "Ġfedallah": 6108,
    "Ġelapsed": 7652,
    "native": 17610,
    "Ġbirth": 6524,
    "Ġdisput": 14254,
    "ieve": 1660,
    "Ġoverflowing": 17236,
    "rants": 13776,
    "Ġoverthrown": 18430,
    "raised": 15675,
    "Ġplayed": 9414,
    "Ġpl": 744,
    "oice": 1384,
    "Ġsolicitude": 10038,
    "ident": 3378,
    "Ġgrass": 5177,
    "Ġsom": 1275,
    "Ġ45": 14769,
    "Ġconfused": 7964,
    "Ġhieroglyphics": 17301,
    "taffrail": 15440,
    "Ġdirect": 1472,
    "dare": 12450,
    "meas": 7434,
    "Ġeasterly": 25962,
    "Ġfollowed": 1792,
    "conditional": 9077,
    "pleasure": 5978,
    "Ġmarvell": 7248,
    "Ġflorida": 20658,
    "Ġtunnel": 14928,
    "brows": 17495,
    "Ġdiv": 3733,
    "Ġimproves": 22752,
    "heavy": 10573,
    "Ġevalu": 2952,
    "occurred": 13335,
    "Ġsabbath": 17253,
    "provoke": 26071,
    "ined": 1262,
    "Ġcontinuation": 22916,
    "Ġphilips": 5410,
    "seventy": 10875,
    "Ġinvestig": 10548,
    "Ġfreemason": 23211,
    "unfortunate": 15773,
    "serious": 14446,
    "Ġ66": 24368,
    "Ġmorocc": 22972,
    "Ġross": 2764,
    "Ġvulgarity": 25363,
    "green": 7115,
    "Ġclos": 4550,
    "made": 4808,
    "Ġpretensions": 16557,
    "Ġ24": 13191,
    "Ġissuing": 16947,
    "Ġacted": 7422,
    "Ġmarine": 23032,
    "intended": 11065,
    "an": 278,
    "Ġcritically": 23444,
    "Ġtracing": 18889,
    "fif": 9115,
    "mason": 17602,
    "Ġsum": 2700,
    "Ġembarked": 17133,
    "princip": 17135,
    "newsp": 23132,
    "conceive": 16027,
    "otic": 15741,
    "athy": 14321,
    "unconquerable": 21889,
    "Ġinfluenced": 19631,
    "sies": 21053,
    "Ġrounding": 16272,
    "Ġstrove": 9955,
    "Ġexpressions": 7706,
    "americ": 8156,
    "entrance": 12653,
    "strip": 19829,
    "Ġcouldn": 7648,
    "Ġhis": 380,
    "Ġheedfulness": 24521,
    "Ġmoran": 9339,
    "Ġinscriptions": 20007,
    "Ġgreatest": 4096,
    "Ġconting": 18472,
    "ighter": 7968,
    "ive": 426,
    "ă": 196,
    "Ġclassical": 22625,
    "Ġtoiled": 12638,
    "Ġresigned": 9766,
    "Ġunwearied": 20601,
    "Ġvalued": 12179,
    "Ġsatisfactory": 11191,
    "Ġsmoothed": 23658,
    "ĠĠĠĠĠĠĠĠĠĠĠĠĠĠĠĠĠĠĠ": 22948,
    "irresistible": 18173,
    "ension": 6569,
    "Ġsuperstitious": 13518,
    "Ġgrey": 4514,
    "Ġshrivelled": 19702,
    "Ġsenior": 17170,
    "drunk": 24659,
    "Ġundergo": 23238,
    "greatest": 10492,
    "bern": 20774,
    "Ġobviously": 16809,
    "Ġur": 5539,
    "isk": 9166,
    "condite": 23246,
    "Ġflorid": 17134,
    "Ġmouthfuls": 20645,
    "Ġeduc": 4785,
    "anity": 9653,
    "bourine": 9394,
    "Ġunf": 4093,
    "Ġprotect": 6337,
    "dense": 18715,
    "Ġelasticity": 19557,
    "eer": 15345,
    "alescence": 15921,
    "Ġcomprehending": 24444,
    "Ġsymptoms": 8704,
    "cham": 10852,
    "Ġfear": 2277,
    "coff": 9107,
    "Ġcapst": 8595,
    "Ġjohnson": 18409,
    "dripping": 16904,
    "firmly": 20279,
    "acific": 4960,
    "Ġsmart": 11812,
    "rying": 3184,
    "Ġcongeal": 25980,
    "esteem": 26008,
    "Ġbouquet": 20682,
    "Ġamput": 16031,
    "ather": 741,
    "usable": 22287,
    "Ġhopes": 4237,
    "Ġoctavo": 15161,
    "Ġchose": 7413,
    "Ġeng": 1164,
    "Ġsher": 3765,
    "Ġwandered": 6930,
    "Ġoaken": 13863,
    "Ġpia": 21463,
    "Ġimproving": 1210,
    "Ġnine": 5369,
    "able": 452,
    "Ġinfer": 7684,
    "Ġgold": 3277,
    "details": 19674,
    "jewell": 25523,
    "Ġhoof": 23352,
    "let": 2733,
    "dried": 20826,
    "Ġmut": 3582,
    "Ġrouted": 24907,
    "Ġpoker": 13920,
    "Ġyouthful": 16722,
    "Ġhurling": 19110,
    "clearly": 25195,
    "Ġsilk": 11960,
    "Ġweedy": 15789,
    "eld": 964,
    "Ġpeasant": 13549,
    "Ġconnections": 970,
    "apan": 6860,
    "Ġsides": 4580,
    "bing": 7792,
    "Ġslices": 23162,
    "Ġrevisit": 21668,
    "Ġcollateral": 20070,
    "foot": 9045,
    "Ġindication": 22950,
    "og": 874,
    "ir": 379,
    "ansion": 10924,
    "Ġmachinery": 20483,
    "orter": 4258,
    "Ġimmemorial": 10509,
    "Ġencaps": 12958,
    "pede": 19843,
    "Ġdenny": 9000,
    "Ġreceipt": 20354,
    "atible": 17771,
    "sive": 4148,
    "Ġfairness": 9892,
    "Ġopenshaw": 7955,
    "ruck": 6848,
    "remaining": 20219,
    "ogy": 22710,
    "Ġsupplement": 23000,
    "osop": 4407,
    "orus": 10800,
    "Ġvel": 7186,
    "Ġkent": 6691,
    "apprehension": 26114,
    "Ġcurled": 8227,
    "Ġding": 12595,
    "Ġtragedy": 10666,
    "usually": 10284,
    "Ġexasper": 8466,
    "hullo": 17569,
    "lod": 15376,
    "Ġbarbara": 24818,
    "asters": 8434,
    "similar": 13451,
    "Ġpainful": 6462,
    "Ġpagans": 16921,
    "fes": 20850,
    "separately": 25227,
    "lantic": 6363,
    "riors": 18183,
    "Ġorigin": 4123,
    "ived": 1535,
    "Ġdictate": 20150,
    "Ġsupercil": 23453,
    "×": 152,
    "Ġwrecks": 16817,
    "Ġrecompense": 14836,
    "s": 87,
    "Ġrare": 7035,
    "Ġghast": 9208,
    "Ġballasted": 23977,
    "during": 6787,
    "widely": 25343,
    "press": 1731,
    "blow": 9102,
    "dep": 6786,
    "Ġant": 4348,
    "Ġselling": 21223,
    "Ġrem": 954,
    "Ġminima": 3464,
    "Ġunforgiving": 25995,
    "spin": 22729,
    "Ġaddresses": 3770,
    "Ġbias": 1190,
    "Ġpaid": 5015,
    "Ġgone": 2105,
    "Ġsigh": 10335,
    "begging": 22495,
    "inously": 21185,
    "Ġrequesting": 24633,
    "du": 603,
    "sorting": 17003,
    "Ġpanegyric": 26448,
    "Ġvirgin": 7328,
    "Ġschedule": 2373,
    "meditation": 19066,
    "Ġoverheard": 11771,
    "aculate": 16079,
    "Ġber": 5698,
    "Ġallusion": 7625,
    "suspicions": 25391,
    "hunt": 20902,
    "cont": 2920,
    "Ġtraits": 23074,
    "Ġindispens": 22952,
    "Ġthrob": 21516,
    "output": 4404,
    "swinging": 25912,
    "Ġdangerous": 6613,
    "hall": 8085,
    "Ġnaturalist": 22891,
    "Ġethics": 15460,
    "following": 10571,
    "Ġpendulous": 25955,
    "Ġexcuses": 19039,
    "ateness": 15517,
    "determine": 19942,
    "Ġis": 347,
    "Ġmax": 2006,
    "t": 88,
    "board": 3564,
    "Ġepicurean": 20554,
    "Ġangels": 11177,
    "Ġdesist": 16234,
    "Ġupdates": 1297,
    "rapidly": 15241,
    "iracle": 11243,
    "Ġinvective": 26181,
    "bering": 18681,
    "'(": 2980,
    "various": 10396,
    "Ġhor": 1663,
    "Ġdecomp": 3812,
    "ots": 3293,
    "Ġcurb": 16236,
    "fred": 20854,
    "rem": 1523,
    "eskye": 21449,
    "Ġtrifling": 10601,
    "precip": 14663,
    "Ġredeem": 20498,
    "iogn": 20920,
    "ye": 1407,
    "Ġcontrivance": 17182,
    "Ġgirl": 3084,
    "Ġloose": 4649,
    "Ġcorpusants": 13675,
    "Ġray": 18632,
    "Ġsumat": 14134,
    "ascending": 24707,
    "Ġloveliness": 13606,
    "versed": 9823,
    "odecimoes": 25318,
    "Ġconfiding": 19034,
    "bs": 3752,
    "izens": 18143,
    "Ġmessages": 24983,
    "politeness": 16905,
    "ighbour": 3388,
    "Ġkindest": 23292,
    "Ġsupplying": 19797,
    "Ġtemporary": 7981,
    "Ġhermits": 22072,
    "Ġhabitu": 19527,
    "chers": 11316,
    "Ġloadstone": 25816,
    "Ġfail": 4153,
    "astrous": 15883,
    "Ġremorselessly": 16966,
    "Ġseparation": 11247,
    "Ġodor": 12146,
    "Ġknee": 7093,
    "Ġmerchantmen": 19859,
    "Ġemploying": 23975,
    "Ġpredef": 18515,
    "sought": 15425,
    "Ġtime": 689,
    "trifling": 19412,
    "Ġelbow": 12917,
    "Ġtowards": 1729,
    "ğ": 224,
    "Ġcuriously": 13010,
    "offer": 19060,
    "Ġpartially": 13120,
    "ims": 7176,
    "asted": 4650,
    "treatment": 20410,
    "Ġholes": 16405,
    "Ġwane": 21287,
    "Ġcompat": 2938,
    "Ġimpart": 11777,
    "stock": 13219,
    "Ġcharms": 11129,
    "ĠĠĠĠĠĠĠĠĠĠĠĠĠĠĠĠĠĠĠĠĠĠĠĠĠĠĠĠĠĠĠĠĠĠĠĠĠĠĠ": 19258,
    "Ġlingu": 11612,
    "pride": 11209,
    "recover": 24623,
    "Ġallurements": 22007,
    "Ġliberated": 19665,
    "Ġsuffer": 4722,
    "Ġbanker": 8666,
    "zor": 15456,
    "sun": 7139,
    "quis": 7871,
    "Ġfortunes": 12175,
    "curiosity": 8623,
    "Ġtanning": 17728,
    "teen": 6370,
    "Ġunguarded": 15847,
    "Ġshaster": 21996,
    "frisco": 16786,
    "Ġsobbed": 14133,
    "Ġaloysius": 15734,
    "Ġmoisture": 12356,
    "Ġsteer": 10385,
    "Ġmathematical": 3349,
    "Ġannotations": 25954,
    "Ġsubterranean": 13609,
    "Ġhistorical": 3646,
    "Ġkings": 7197,
    "rely": 6123,
    "ĠâĢľâĢĺ_": 25111,
    "Ġstops": 3165,
    "Ġferrule": 24516,
    "retrie": 18922,
    "Ġmad": 2427,
    "large": 6625,
    "Ġfloundering": 16247,
    "Ġsolic": 7933,
    "reas": 989,
    "Ġattent": 4363,
    "enormous": 26166,
    "gins": 12465,
    "Ġorlop": 22091,
    "Ġcumul": 4183,
    "Ġmedit": 8019,
    "quality": 10231,
    "y": 93,
    "incing": 15483,
    "Ġlux": 8812,
    "Ġsurplus": 26303,
    "uten": 11620,
    "Ġcease": 7076,
    "lock": 1471,
    "Ġdismantled": 20215,
    "inj": 9150,
    "Ġaccounting": 14571,
    "yesterday": 10351,
    "Ġsplit": 7993,
    "tured": 13793,
    "asily": 13944,
    "deacon": 22145,
    "Ġunprecedented": 15851,
    "Ġconsisting": 8970,
    "Ġprof": 2460,
    "dil": 11477,
    "Ġaltitude": 26202,
    "Ġunctuous": 10265,
    "spike": 16136,
    "Ġtickets": 17093,
    "Ġthanks": 6707,
    "Ġpressing": 9259,
    "Ġreward": 6144,
    "ory": 1079,
    "Ġhig": 754,
    "Ġrenowned": 26193,
    "ienced": 5685,
    "sue": 2076,
    "Ġpleases": 16296,
    "anging": 3550,
    "Ġow": 8408,
    "rings": 10721,
    "Ġadjusts": 8979,
    "Ġdubious": 17381,
    "Ġcollection": 8222,
    "Ġscene": 3095,
    "Ġforswe": 21772,
    "beth": 13686,
    "Ġcontriv": 9280,
    "sinking": 17667,
    "grounds": 11150,
    "cherish": 24551,
    "ridge": 9495,
    "nowhere": 18418,
    "----": 4060,
    "Ġfavourable": 7959,
    "atical": 10770,
    "Ġbespe": 19241,
    "Ġtenement": 23546,
    "ilib": 4120,
    "buckets": 26123,
    "Ġflitting": 13022,
    "Ġhate": 5445,
    "often": 6165,
    "Ġturing": 7566,
    "Ġprem": 3428,
    "Ġsphy": 18311,
    "Ġtoilet": 13935,
    "÷": 184,
    "Ġconsp": 10223,
    "figures": 20120,
    "ylon": 24977,
    "Ġcoco": 10999,
    "gl": 3289,
    "intense": 22934,
    "braid": 17493,
    "agatha": 21906,
    "Ġprobabilities": 4966,
    "Ġtrample": 20326,
    "Ġbachelors": 24860,
    "feel": 3813,
    "Ġdepresses": 25797,
    "Ġrepulses": 26069,
    "Ġemblematical": 25788,
    "Ġfrogs": 23920,
    "Ġhills": 6527,
    "occasion": 7754,
    "Ġtempest": 8213,
    "Ġinvaders": 23479,
    "Ġabroad": 8865,
    "Ġhonor": 5664,
    "requent": 3650,
    "ð": 177,
    "Ġgoal": 10300,
    "Ġrisen": 9491,
    "Ġblame": 6446,
    "Ġserv": 3327,
    "stand": 628,
    "damp": 15341,
    "Ġtending": 17723,
    "Ġweapon": 7776,
    "Ġhole": 6080,
    "aux": 14286,
    "Ġarchitectures": 2910,
    "Ġbulge": 23854,
    "Ġsing": 3071,
    "ô": 181,
    "unned": 21876,
    "Ġdomes": 23649,
    "Ġutilize": 4798,
    "Ġdeserts": 10506,
    "compan": 7301,
    "Ġmutiny": 13257,
    "Ġfleetness": 20178,
    "shel": 11927,
    "Ġunfit": 14785,
    "Ġclose": 3035,
    "ulated": 6030,
    "Ġtone": 4042,
    "gracious": 11828,
    "rench": 3970,
    "loun": 17587,
    "Ġobtruded": 20721,
    "Ġacknowledgment": 16956,
    "way": 765,
    "Ġamateur": 22483,
    "hit": 20888,
    "queg": 1769,
    "conviction": 19963,
    "Ġasi": 12728,
    "Ġstanders": 19013,
    "Ġdiscovery": 5412,
    "Ġregimentals": 19857,
    "ought": 830,
    "make": 5793,
    "asingly": 17960,
    "supplemental": 25874,
    "ortment": 22254,
    "Ġtitle": 11407,
    "Ġblending": 14398,
    "Ġtechnically": 12363,
    "Ġenlarged": 25985,
    "Ġben": 1108,
    "Ġcity": 4531,
    "Ġlevel": 5020,
    "Ġsaville": 15886,
    "Ġdiscussing": 5202,
    "stupid": 12672,
    "herfield": 3631,
    "Ġkrem": 9724,
    "Ġhunger": 8566,
    "opard": 9289,
    "Ġmarines": 16258,
    "Ġremaining": 6188,
    "umb": 3478,
    "Ġphotography": 24683,
    "Ġbasin": 19847,
    "anim": 6522,
    "pse": 21008,
    "Ġxxii": 24477,
    "Ġautomation": 13259,
    "Ġansw": 2205,
    "Ġintended": 5547,
    "heedful": 20572,
    "strangely": 17275,
    "Ġoars": 3900,
    "Ġexped": 7650,
    "Ġselfish": 7272,
    "Ġhoe": 23350,
    "Ġhogshe": 20490,
    "althily": 19357,
    "Ġtorment": 8673,
    "Ġclattered": 22348,
    "lucases": 20209,
    "scra": 13018,
    "Ġsummoned": 9909,
    "Ġboiling": 8525,
    "âĢĶâĢĻ": 8188,
    "Ġluxury": 20130,
    "Ġcommission": 6712,
    "crucible": 24842,
    "Ġsle": 2014,
    "Ġduplicity": 25331,
    "Ġbrotherly": 16526,
    "gradient": 2274,
    "Ġain": 6969,
    "prep": 9757,
    "honour": 13465,
    "official": 24914,
    "ursday": 12273,
    "Ġsulphur": 24933,
    "Ġembodied": 25846,
    "Ġtearing": 14393,
    "Ġmuse": 13858,
    "opol": 12867,
    "merry": 16535,
    "ais": 8071,
    "rain": 461,
    "Ġoverlooking": 22356,
    "Ġnicely": 8708,
    "Ġexpectantly": 23522,
    "ousings": 18335,
    "Ġambition": 11431,
    "Ġclinging": 10290,
    "Ġrealism": 18984,
    "Ġaffording": 14819,
    "Ġapparatus": 24908,
    "Ġtufted": 17013,
    "Ġwarmth": 6905,
    "Ġsustained": 13480,
    "Ġsavann": 14683,
    "iably": 13736,
    "Ġfrock": 10488,
    "Ġlaz": 7378,
    "Ġdistributing": 22677,
    "total": 17249,
    "given": 8377,
    "Ġrepeated": 3832,
    "whale": 2139,
    "Ġexpert": 18873,
    "claps": 23150,
    "Ġsingular": 4426,
    "unts": 12727,
    "oriously": 17874,
    "Ġintelligible": 15943,
    "hurriedly": 25510,
    "Ġdeduced": 12204,
    "cott": 8074,
    "Ġabutted": 22283,
    "orting": 9733,
    "forth": 9320,
    "Ġsupplication": 25491,
    "ensils": 22546,
    "Ġgradually": 3400,
    "Ġnominal": 15166,
    "Ġrealised": 18981,
    "prevailed": 17343,
    "desolation": 20448,
    "Ġfeasts": 25369,
    "Ġintroducing": 11972,
    "Ġhypocr": 19470,
    "intments": 18820,
    "stories": 18023,
    "Ġadapt": 1033,
    "Ġcomprising": 16065,
    "Ġmidnight": 5265,
    "ates": 519,
    "urer": 18121,
    "Ġbrilliancy": 20105,
    "--------": 14779,
    "Ġthenceforth": 25182,
    "Ġdanced": 7843,
    "Ġembellish": 25847,
    "whiteness": 18370,
    "Ġswells": 9825,
    "Ġcrop": 10161,
    "Ġices": 21153,
    "Ġjames": 6419,
    "bony": 15317,
    "Ġdisconcerted": 18562,
    "approach": 24833,
    "caut": 20811,
    "degrees": 22148,
    "li": 1187,
    "Ġproportional": 2525,
    "Ġamend": 16032,
    "Ġefficient": 1054,
    "hosmer": 25902,
    "Ġencamp": 22799,
    "oded": 11667,
    "Ġcurve": 22979,
    "Ġmil": 4257,
    "eager": 12456,
    "Ġwhy": 1759,
    "Ġshadows": 8013,
    "iz": 364,
    "Ġcondescended": 19954,
    "Ġbrougham": 17870,
    "Ġsnatches": 16542,
    "pass": 4294,
    "Ġplug": 17146,
    "Ġreturns": 11923,
    "Ġrefused": 6715,
    "Ġloathing": 15067,
    "haz": 17563,
    "Ġsusp": 2662,
    "Ġsquaring": 22837,
    "Ġmicrosc": 20675,
    "vember": 10854,
    "Ġpines": 12613,
    "Ġhumaneval": 25582,
    "Ġforge": 8456,
    "histor": 13489,
    "full": 7420,
    "takes": 21074,
    "chapter": 1403,
    "Ġcompan": 2173,
    "Ġslates": 11105,
    "atus": 21259,
    "Ġswandam": 11088,
    "didn": 9005,
    "Ġvacancy": 9043,
    "Ġprepare": 8646,
    "beating": 22487,
    "Ġscore": 9735,
    "Ġraises": 11838,
    "note": 14338,
    "crane": 24098,
    "Ġfrolic": 23921,
    "supp": 4167,
    "Ġstep": 751,
    "remorse": 14465,
    "bble": 17483,
    "Ġtruth": 3318,
    "towns": 24854,
    "hon": 6793,
    "umbers": 10917,
    "Ġsacrilege": 26228,
    "Ġmag": 1431,
    "astrop": 3314,
    "Ġafloat": 9306,
    "Ġsir": 1571,
    "Ġlovely": 4710,
    "Ġsuggestive": 11296,
    "Ġcomprehended": 11293,
    "Ġannals": 17898,
    "surrounded": 26088,
    "Ġgun": 4702,
    "Ġencouragement": 13038,
    "Ġ5": 4935,
    "Ġclanging": 18422,
    "elter": 21569,
    "atious": 10150,
    "Ġinterruption": 9471,
    "anch": 15556,
    "unks": 15771,
    "before": 3112,
    "vib": 21114,
    "Ġthrusting": 10551,
    "Ġtoiling": 15631,
    "suspicious": 25390,
    "Ġimpious": 15983,
    "Ġwatches": 11080,
    "Ġgrec": 18961,
    "Ġdiscussed": 19558,
    "ago": 14063,
    "Ġpowerful": 1530,
    "crated": 16695,
    "phren": 22768,
    "Ġcrib": 21346,
    "Ġpolic": 13159,
    "Ġaltern": 7394,
    "sum": 2086,
    "stricken": 9882,
    "Ġpawnbroker": 13656,
    "igms": 3044,
    "Ġpreyed": 18366,
    "Ġnuptials": 20492,
    "Ġremarkably": 7703,
    "Ġchest": 5185,
    "iom": 20914,
    "Ġresp": 2494,
    "notches": 22748,
    "Ġindicates": 3192,
    "Ġaffectation": 14439,
    "Ġsuit": 5725,
    "maker": 12489,
    "rudently": 16710,
    "Ġeating": 8136,
    "dz": 4739,
    "Ġdusk": 12324,
    "Ġimportance": 4900,
    "apes": 9739,
    "Ġrinal": 21975,
    "Ġblooming": 17211,
    "Ġformation": 2943,
    "Ġintimidated": 24805,
    "onely": 6516,
    "Ġkicks": 19767,
    "fitted": 17543,
    "brÃ¦": 11174,
    "Ġlash": 8439,
    "istan": 22106,
    "tained": 4408,
    "contained": 22468,
    "Ġgodfre": 14528,
    "Ġentering": 6285,
    "Ġshaped": 15831,
    "Ġlascar": 9198,
    "gs": 7338,
    "ourse": 8868,
    "Ġtags": 20570,
    "otam": 21796,
    "Ġloc": 10913,
    "Ġencamped": 22800,
    "Ġquite": 1740,
    "Ġscared": 14186,
    "Ġhauled": 11691,
    "Ġbashful": 20418,
    "rices": 4560,
    "effectually": 25128,
    "Ġslo": 15504,
    "ute": 4643,
    "Ġimage": 3402,
    "Ġdevelopments": 23219,
    "Ġredden": 15690,
    "Ġactor": 16045,
    "Ġdeportment": 22609,
    "Ġcasc": 15552,
    "contents": 12055,
    "Ġwearisome": 19794,
    "Ġcoffin": 4431,
    "Ġcreditable": 19621,
    "Ġcomparison": 7099,
    "Ġfrederick": 15583,
    "Ġflights": 24753,
    "Ġthese": 822,
    "ece": 17530,
    "Ġejaculated": 15167,
    "Ġmistress": 8611,
    "Ġmerry": 5868,
    "Ġsickle": 24244,
    "ĠâĢľâĢĻ": 22252,
    "brilliancy": 26077,
    "nor": 2741,
    "Ġsl": 1498,
    "ė": 216,
    "ī": 236,
    "ich": 469,
    "Ġmankind": 6698,
    "Ġbelted": 22946,
    "Ġrank": 6258,
    "ily": 1031,
    "Ġshaking": 6551,
    "figured": 20121,
    "Ġmonotonous": 13261,
    "Ġrom": 4526,
    "Ġaskance": 23147,
    "Ġcountenance": 3973,
    "gish": 20872,
    "Ġincessantly": 11410,
    "Ġadoration": 18290,
    "promote": 24727,
    "dropout": 3194,
    "Ġvoyager": 16510,
    "Ġnaked": 8127,
    "Ġaspired": 25984,
    "Ġender": 11687,
    "Ġrates": 1404,
    "Ġforeseeing": 23449,
    "Ġslippery": 12163,
    "answered": 10272,
    "Ï": 144,
    "Ġborder": 10168,
    "cription": 20817,
    "romising": 18233,
    "Ġpersuasion": 10497,
    "Ġencourage": 10379,
    "Ġoverwhelm": 25052,
    "Ġmeridians": 17354,
    "Ġfri": 17878,
    "Ġrepresentation": 14403,
    "Ġapologized": 25198,
    "ina": 21178,
    "reast": 17757,
    "Ġwillingness": 24910,
    "Ġruled": 22784,
    "Ġallowance": 14387,
    "Ġinexpress": 12631,
    "vious": 1783,
    "Ġpract": 1864,
    "Ġgrated": 22802,
    "ellent": 3763,
    "Ġturnkeys": 23027,
    "preserver": 20212,
    "Ġjacob": 1898,
    "shall": 4551,
    "heeded": 13832,
    "big": 13683,
    "ocris": 23707,
    "wretched": 10740,
    "apothecary": 26544,
    "ernation": 8212,
    "heaving": 21206,
    "dipped": 20836,
    "whims": 22237,
    "formal": 14169,
    "Ġcorrespondent": 19821,
    "screwed": 17186,
    "nson": 16090,
    "Ġfully": 6342,
    "feit": 16039,
    "Ġcabin": 3301,
    "Ġprocopius": 19729,
    "ĳ": 244,
    "Ġindirect": 18835,
    "Ġsparsity": 4212,
    "Ġannoyance": 20661,
    "Ġapprehensions": 13402,
    "Ġthreatened": 8330,
    "lashed": 20953,
    "Ġshield": 21997,
    "Ġgermany": 25785,
    "recurrent": 4994,
    "Ġtight": 8108,
    "Ġspat": 2663,
    "pton": 15788,
    "desire": 14473,
    "F": 42,
    "path": 10117,
    "Ġleaking": 21743,
    "Ġnasty": 17441,
    "ordered": 8788,
    "charles": 14697,
    "belated": 24034,
    "Ã¦": 4340,
    "Ġhang": 9186,
    "box": 5749,
    "Ĺ": 250,
    "Ġlaws": 8003,
    "Ġaltar": 9227,
    "ogne": 12936,
    "Ġsimilar": 4917,
    "Ġfalse": 4346,
    "Ġshiny": 14104,
    "Ġconjunction": 25100,
    "Ġrespects": 7269,
    "Ġblacksmiths": 19872,
    "Ġlicence": 25096,
    "Ġbeaver": 18085,
    "owner": 18610,
    "Ġxxxix": 24970,
    "both": 5785,
    "clergyman": 20728,
    "Ġtimely": 19593,
    "Ġdiameter": 19866,
    "Ġexhale": 24401,
    "Ġtrembled": 8701,
    "Ġ128": 24472,
    "Ġphantoms": 13484,
    "Ġkilling": 13330,
    "fugitive": 26131,
    "develop": 13516,
    "Ġforbidding": 17078,
    "ithmetic": 18061,
    "Ġtouches": 20569,
    "Ġlimped": 19180,
    "Ġaversion": 18865,
    "enc": 7574,
    "lightened": 12062,
    "Ġdifficulties": 11224,
    "Ġaction": 5796,
    "Ġperseverance": 13595,
    "Ġunfolding": 17085,
    "absolutely": 10644,
    "Ġnecessitates": 23926,
    "Ġcalm": 3448,
    "mis": 4522,
    "quently": 9700,
    "Ġgrammars": 11401,
    "most": 1259,
    "brated": 12023,
    "Ġnightmare": 18919,
    "thrasher": 25658,
    "offing": 23332,
    "Ġdiana": 21435,
    "Ġag": 684,
    "Ġwondering": 7971,
    "Ġoutwardly": 25000,
    "Ġconcernment": 23621,
    "Ġsupply": 6067,
    "hroom": 12473,
    "Ġleaving": 3907,
    "impulse": 20644,
    "plague": 21951,
    "Ġcounting": 13092,
    "Ġdata": 521,
    "Ġwapping": 21293,
    "Ġactivations": 2719,
    "tastes": 21095,
    "Ġbohemian": 17132,
    "Ġwinding": 8236,
    "Ġthoroughly": 8348,
    "Ġep": 7385,
    "Ġclump": 15963,
    "Ġcounters": 24139,
    "Ġinestimable": 17440,
    "triumph": 15438,
    "earnest": 12396,
    "Ġcanoes": 12803,
    "Ġbounding": 19398,
    "Ġshalt": 18230,
    "Ġvill": 3880,
    "relics": 24012,
    "Ġwithdrawing": 11339,
    "Ġconsole": 8151,
    "Ġflatter": 9346,
    "Ġembarrassment": 10625,
    "Ġdesperately": 24656,
    "Ġrelaxed": 12980,
    "Ġpin": 7161,
    "Ġdim": 4757,
    "fect": 2300,
    "Ġunquestion": 18248,
    "stretched": 10206,
    "Ġcharging": 23266,
    "Ġbenef": 3488,
    "Ġdistribut": 841,
    "lined": 12480,
    "regularly": 13206,
    "Ġhadn": 9717,
    "Ġawake": 8272,
    "Ġneighbor": 25803,
    "Ġwhatever": 3473,
    "Ġloss": 825,
    "Ġimpl": 7195,
    "anzas": 17840,
    "omeness": 18015,
    "Ġprelimin": 8859,
    "Ġcouples": 16851,
    "Ġol": 17814,
    "mency": 18925,
    "Ġfatigue": 8697,
    "Ġmoth": 17802,
    "Ġwaterproof": 19088,
    "abounding": 25979,
    "Ġepic": 15028,
    "brance": 7284,
    "face": 3679,
    "Ġhelmet": 19686,
    "Ġulster": 14996,
    "Ġskirting": 22794,
    "lleg": 20950,
    "uel": 6966,
    "Ġestimates": 3749,
    "Ġimpulse": 10022,
    "Ġreliable": 18775,
    "Ġsavoury": 23874,
    "Ġkills": 15903,
    "Ġharris": 13925,
    "Ġdear": 1541,
    "Ġbreathe": 9010,
    "grown": 10098,
    "Ġwhoa": 22420,
    "Ġsalt": 8017,
    "glim": 19363,
    "Ġroy": 4232,
    "Ġsave": 4054,
    "Ġrespecting": 14482,
    "Ġtables": 9876,
    "escaped": 14229,
    "Ġengineering": 3024,
    "Ġland": 1997,
    "abroad": 18108,
    "Ġincrust": 22548,
    "rennial": 22339,
    "Ġxerxes": 23409,
    "Ġpaints": 23521,
    "Ġsemi": 11965,
    "Ġretreat": 6070,
    "Ġperils": 6273,
    "whal": 10939,
    "Ġstudent": 14474,
    "Ġresist": 7917,
    "refusal": 24736,
    "professor": 17248,
    "Ġcomputations": 16001,
    "Ġproportion": 7281,
    "ogue": 9783,
    "Ġrelaps": 18774,
    "Ġembeddings": 2190,
    "save": 13783,
    "Ġpoltroon": 26597,
    "Ġrestricted": 19026,
    "Ġeyel": 17095,
    "Ġtwain": 16116,
    "ony": 3028,
    "adventure": 17232,
    "Ġwrig": 13064,
    "bad": 12433,
    "Ġpockets": 8894,
    "Ġadds": 1804,
    "Ġhorns": 11122,
    "igger": 21699,
    "mortals": 25409,
    "Ġobtain": 8913,
    "rier": 9240,
    "Ġmagic": 8233,
    "Ġsquires": 16179,
    "Ġmustard": 12926,
    "ĠĠĠĠĠĠĠĠĠĠĠĠĠĠĠĠĠĠĠĠĠĠĠĠĠĠĠĠĠĠĠĠĠĠĠĠĠĠĠĠĠĠĠĠĠ": 9950,
    "Ġupp": 13990,
    "Ġlaboratory": 13610,
    "Ġmonday": 6127,
    "impart": 21707,
    "Ġprotruded": 19468,
    "Ġredoubled": 23751,
    "Ġpurport": 14580,
    "Ġinstability": 3814,
    "orate": 10799,
    "Ġspeedily": 7712,
    "Ġinsince": 23678,
    "imate": 4225,
    "Ġalterations": 19870,
    "umps": 6317,
    "Ġintrusion": 12761,
    "Ġsqueezed": 20034,
    "Ġcylinders": 25943,
    "peace": 13045,
    "rent": 1171,
    "rabbit": 20589,
    "Ġstony": 21737,
    "Ġesquimaux": 25150,
    "rary": 4576,
    "Ġforests": 13590,
    "ske": 13780,
    "Ġengraved": 17080,
    "Ġstay": 3092,
    "Ġreconc": 9681,
    "oftener": 23962,
    "Ġdivined": 19441,
    "affect": 13210,
    "Ġhalts": 3158,
    "Ġsinister": 8568,
    "ferred": 16403,
    "Ġspeakest": 23484,
    "nourished": 26397,
    "Ġliter": 8810,
    "Ġgratify": 19501,
    "Ġspark": 6689,
    "ouched": 4637,
    "larking": 17593,
    "Ġmowers": 17812,
    "while": 2935,
    "imson": 12685,
    "Ġmicroscopic": 26373,
    "ibbald": 18841,
    "ord": 667,
    "Ġexpenses": 11830,
    "ĠĠĠĠĠĠĠĠĠĠĠĠĠĠĠĠĠĠĠĠĠĠĠĠĠĠĠĠĠĠĠĠĠĠĠĠĠĠĠĠĠĠĠĠ": 12150,
    "Ġheels": 10849,
    "Ġ27": 8614,
    "Ġmisery": 3815,
    "Ġrese": 2169,
    "Ġlap": 8437,
    "Ġostr": 21323,
    "Ġexposes": 22620,
    "Ġact": 690,
    "Ġdegraded": 19226,
    "Ġtears": 4234,
    "Ġjourney": 3882,
    "Ġpraised": 19552,
    "ny": 4017,
    "lord": 3867,
    "pleasanter": 24044,
    "linging": 16075,
    "ruct": 692,
    "oul": 4699,
    "gravel": 22618,
    "Ġuncounted": 19116,
    "âĢĿ]": 21813,
    "Ġpeaceable": 14721,
    "Ġsalted": 14755,
    "Ġvers": 7563,
    "Ġroughs": 19955,
    "usal": 7638,
    "boat": 3361,
    "Ġlightning": 5750,
    "Ġinsane": 19268,
    "Ġarches": 14159,
    "Ġrubber": 22785,
    "Ġrealise": 16335,
    "Ġmeekly": 26489,
    "usoid": 4767,
    "Ġwithheld": 18114,
    "Ġcape": 5146,
    "Ġscorn": 7901,
    "fall": 5135,
    "Ġadvertise": 25388,
    "transform": 8050,
    "Ġanom": 12607,
    "Ġroast": 18457,
    "Ġforty": 5719,
    "Ġsuav": 22079,
    "terns": 21820,
    "rength": 4104,
    "esty": 4309,
    "Ġed": 2143,
    "Ġlime": 13946,
    "Ġungodly": 26512,
    "soever": 11857,
    "Ġsunny": 13083,
    "Ġpeleg": 3740,
    "whalemen": 10430,
    "Ġindign": 6173,
    "Ġempires": 19073,
    "Ġimpo": 3443,
    "oman": 2018,
    "Ġfanciful": 24788,
    "aug": 1213,
    "Ġfisheries": 17436,
    "Ġbreathing": 9444,
    "itche": 7578,
    "schoolmaster": 15159,
    "Ġunjustly": 17125,
    "joice": 9601,
    "Ġstation": 5297,
    "narrative": 17317,
    "ting": 1334,
    "upid": 6581,
    "Ġmaz": 15538,
    "Ġdesirable": 8940,
    "Ġpills": 21465,
    "allow": 5104,
    "hunted": 16831,
    "Ġwealthy": 18178,
    "Ġfat": 3462,
    "Ġ9": 5901,
    "Ġimpassable": 20611,
    "Ġexpansion": 22622,
    "settle": 16660,
    "Ġcalam": 13030,
    "Ġsite": 17752,
    "madness": 14880,
    "Ġreverse": 16981,
    "shaw": 6864,
    "Ġclearness": 23182,
    "Ġcontains": 2794,
    "Ġtheoretically": 3565,
    "Ġcredited": 25153,
    "neural": 3064,
    "Ġvanity": 7045,
    "Ġperpetually": 17069,
    "Ġexpiration": 22621,
    "Ġabruptness": 25300,
    "furn": 10090,
    "Ġskirts": 14350,
    "ank": 1368,
    "Ġkindly": 6078,
    "mechanically": 17298,
    "Ġfumbling": 21416,
    "withstand": 23024,
    "Ġsubmission": 22788,
    "Ġstreet": 2960,
    "Ġbound": 3518,
    "Ġabhor": 5467,
    "urned": 9304,
    "Ġgour": 21596,
    "Ġliterature": 17147,
    "Ġbustle": 17226,
    "pidation": 18883,
    "Ġmilan": 19534,
    "Ġprocedural": 12027,
    "Ġinquiries": 5678,
    "caus": 11475,
    "flames": 14710,
    "Ġponies": 21475,
    "awn": 3836,
    "Ġquality": 3527,
    "Ġrepent": 9861,
    "Ġsubordinate": 18722,
    "Ġunspeakable": 10054,
    "Ġdun": 6673,
    "Ġgreen": 3050,
    "Ġincluding": 2849,
    "died": 10692,
    "omach": 11632,
    "Ġnailing": 21525,
    "icherry": 15133,
    "Ġgovern": 10449,
    "accessory": 25499,
    "works": 6589,
    "Ġjelly": 22298,
    "eg": 17528,
    "remark": 7261,
    "impropriety": 21711,
    "Ġcolourless": 19568,
    "icha": 11735,
    "Ġcopse": 17066,
    "Ġsh": 419,
    "tallied": 21088,
    "Ġcoiling": 12901,
    "reng": 4005,
    "Ġlooks": 4170,
    "Ġbreathes": 13244,
    "Ġglobal": 2371,
    "Ġdisp": 3358,
    "Ġsket": 18727,
    "Ġattentions": 5878,
    "ĠĠĠĠĠĠĠĠĠĠĠĠĠĠĠĠĠĠĠĠĠĠĠĠĠ": 24441,
    "flinging": 20867,
    "Ġpa": 2990,
    "heum": 17746,
    "Ġpostmark": 16724,
    "Ġromish": 19583,
    "Ġdollars": 11454,
    "violent": 14579,
    "commun": 15032,
    "grie": 12467,
    "Ġbashaw": 25633,
    "Ġmelt": 21316,
    "Ġphant": 7055,
    "apparent": 11041,
    "sweeping": 24619,
    "unknown": 10889,
    "Ġfinishing": 23122,
    "Ġsharp": 2415,
    "Ġblinded": 13268,
    "Ġright": 1506,
    "humoredly": 26324,
    "Ġdexterity": 25294,
    "Ġlances": 6984,
    "ann": 5802,
    "Ġprolong": 6834,
    "gabriel": 15358,
    "Ġtales": 10140,
    "Ġgomorrah": 21613,
    "trouble": 8295,
    "foundered": 20866,
    "umbria": 23928,
    "Ġretrie": 10381,
    "requirements": 24857,
    "cous": 8721,
    "orm": 425,
    "Ġrelics": 16193,
    "Ġsore": 10763,
    "oyed": 14361,
    "uc": 1877,
    "Ġlacey": 10196,
    "88": 20757,
    "Ġcontinuous": 1563,
    "br": 2478,
    "Ġ87": 19709,
    "itous": 13865,
    "Ġrespected": 11949,
    "uch": 877,
    "Ġimbib": 22173,
    "cousin": 10651,
    "Ġlou": 6822,
    "Ġphiladelphia": 26603,
    "Ġminiature": 11038,
    "ler": 3490,
    "Ġinsights": 13177,
    "ildad": 3531,
    "Ġlizard": 12650,
    "Ġaband": 6561,
    "Ġcamel": 25349,
    "Ġfob": 21408,
    "Ġrelu": 1046,
    "Ġtormented": 8674,
    "Ġontario": 26204,
    "Ġdam": 2216,
    "Ġpremises": 10486,
    "control": 16541,
    "Ġfreshness": 23985,
    "Ġaccidents": 10294,
    "Á": 130,
    "nowadays": 22336,
    "Ġacutely": 14312,
    "Ġoccurs": 1855,
    "Ġconsidering": 4616,
    "remote": 23188,
    "Ġdi": 6525,
    "rative": 17651,
    "Ġapprehending": 26090,
    "sledge": 21056,
    "ĠĠĠ": 2113,
    "Ġpled": 17907,
    "Ġinputs": 842,
    "plete": 10918,
    "apidated": 22334,
    "ne": 645,
    "roded": 17955,
    "Ġarguing": 25470,
    "reck": 9635,
    "clouded": 20330,
    "Ġjoosy": 23631,
    "Ġacceptance": 14825,
    "photograph": 16149,
    "Ġdiscredit": 22781,
    "grey": 14910,
    "Ġstop": 2501,
    "Ġvan": 1085,
    "battering": 20785,
    "Ġimper": 4503,
    "pra": 15405,
    "Ġmonstrous": 7790,
    "Ė": 215,
    "Ġhish": 21911,
    "Ġsadly": 7302,
    "Ġpitied": 14690,
    "Ġanalog": 12608,
    "idav": 18092,
    "Ġcomprehensiveness": 25072,
    "wick": 5362,
    "accept": 8896,
    "n": 82,
    "airs": 2222,
    "Ġbeliefs": 24581,
    "Ġviolin": 16426,
    "Ġpersisting": 18894,
    "Ġcarted": 21347,
    "Ġroarings": 25302,
    "Ġshyness": 20305,
    "Ġburn": 3685,
    "morning": 4859,
    "Ġsuccessive": 10499,
    "ves": 688,
    "Ġdeduction": 14897,
    "Ġstores": 18068,
    "Ġsenate": 25214,
    "Ġtens": 17722,
    "Ġdomains": 6611,
    "recogn": 13423,
    "peasant": 23109,
    "Ġfloats": 9411,
    "beries": 22719,
    "ellow": 3879,
    "Ġmic": 17797,
    "Ġactivity": 7921,
    "column": 19328,
    "Ġprofuse": 23564,
    "coun": 10685,
    "ree": 872,
    "Ġwitnessed": 14842,
    "Ġmeasurement": 19421,
    "Ġproduced": 2451,
    "Ġevent": 2951,
    "Ġtransformed": 22617,
    "Ġshivering": 10264,
    "Ġtheore": 1829,
    "Ġsoothed": 10027,
    "Ġvirtual": 11239,
    "non": 9610,
    "confused": 19643,
    "Ġstarboard": 7604,
    "Ġberries": 13405,
    "Ġorthodox": 22093,
    "Ġtenants": 23545,
    "Ġabrupt": 9736,
    "Ġlatin": 16820,
    "slanting": 24557,
    "angered": 16175,
    "ounding": 22390,
    "turtle": 12208,
    "Ġnot": 411,
    "hyp": 15364,
    "Ġerection": 23998,
    "cher": 5786,
    "Ġindiscreet": 22954,
    "Ġinvitation": 5189,
    "Ġfrighten": 13276,
    "Ġmoss": 9282,
    "emorial": 10242,
    "waving": 21130,
    "Ġsane": 21220,
    "dreaded": 25138,
    "Ġshiver": 12763,
    "Ġhanging": 5447,
    "Ġagents": 9764,
    "Ġrio": 23888,
    "Ġquartered": 20371,
    "Ġlarge": 1063,
    "call": 8722,
    "Ġdogs": 7742,
    "Ġfund": 2845,
    "atha": 6572,
    "ividually": 22086,
    "Ġwarmly": 8986,
    "Ġoriginal": 6102,
    "Ġrheum": 18214,
    "ackled": 22418,
    "Ġjustified": 11901,
    "Ġconc": 1841,
    "Ġseren": 7401,
    "Ġpalmed": 24089,
    "innacle": 7519,
    "smote": 23907,
    "Ġmetallic": 19086,
    "Ġroared": 7023,
    "Ġemployed": 5200,
    "usiveness": 22291,
    "Ġchar": 1705,
    "leag": 21364,
    "measureless": 20234,
    "oured": 2670,
    "chain": 18039,
    "Ġprimitive": 25061,
    "Ġcrazed": 19174,
    "Ġthomson": 26453,
    "cheeks": 23805,
    "hend": 13250,
    "Ġsur": 2183,
    "Ġbranded": 14377,
    "Ġcontr": 1913,
    "degra": 22139,
    "zes": 11547,
    "log": 18534,
    "patched": 17642,
    "Ġcivilized": 8664,
    "Ġstreams": 12189,
    "`": 68,
    "Ġwisest": 11232,
    "clerval": 7951,
    "Ġconfusing": 23304,
    "ave": 977,
    "Ġstranded": 9773,
    "Ġmahogany": 20576,
    "ault": 2306,
    "Ġinhaled": 25451,
    "Ġevaporate": 26332,
    "Ġstern": 4192,
    "Ġhas": 826,
    "itting": 1153,
    "Ġhumor": 11050,
    "honor": 19899,
    "puff": 21021,
    "Ġterrors": 6918,
    "Ġinex": 6528,
    "!_": 7329,
    "Ġassert": 7120,
    "helped": 18923,
    "impenetrable": 26196,
    "Ġco": 731,
    "ipper": 13738,
    "heavenly": 20043,
    "Ġhurled": 10428,
    "ench": 21278,
    "minds": 24231,
    "Ġpaling": 21461,
    "Ġunabated": 15849,
    "Ġconstantinople": 19836,
    "sis": 1870,
    "Ġbore": 5079,
    "visitors": 13346,
    "Ġspringing": 10517,
    "Ġmore": 677,
    "Ġbales": 21387,
    "Ġdriver": 16472,
    "Ġwestward": 24388,
    "Ġploughed": 22604,
    "Ġott": 13864,
    "Ġmishap": 20575,
    "Ġasiatic": 20428,
    "account": 5329,
    "tiness": 21070,
    "Ġurgent": 16866,
    "Ġest": 2266,
    "Ġwillow": 18530,
    "dom": 6222,
    "istered": 14143,
    "Ġgloomy": 7504,
    "century": 20045,
    "causes": 20342,
    "Ġshould": 862,
    "Ġhearses": 20058,
    "Ġpeeled": 14316,
    "'re": 12425,
    "Ġdisciple": 22782,
    "hard": 4690,
    "precious": 12069,
    "Ġblush": 14400,
    "azine": 19130,
    "urre": 10855,
    "Ġjenny": 20161,
    "Ġabsorbed": 12328,
    "oke": 1857,
    "overhearing": 19049,
    "judgment": 16752,
    "speaking": 12095,
    "Ġpreferred": 14964,
    "Ġtransitory": 16025,
    "Ġyawned": 15050,
    "Ġprofusion": 23566,
    "Ġplaited": 14281,
    "based": 2962,
    "Ġhackluyt": 25655,
    "Ġboomer": 20166,
    "Ġparliament": 18302,
    "Ġstrong": 1786,
    "making": 2572,
    "Ġdiabolically": 25513,
    "Ġmodels": 763,
    "Ġgrap": 11704,
    "Ġmol": 12557,
    "welcomed": 24644,
    "Ġselves": 21221,
    "osures": 22258,
    "Ġinspired": 2518,
    "Ġlargely": 14283,
    "Ġbambooz": 26119,
    "Ġlevelled": 11283,
    "prick": 19341,
    "mor": 4219,
    "Ġcaptain": 1607,
    "Ġjerked": 19831,
    "unpardonable": 21888,
    "Ġblan": 18816,
    "Ġtwist": 11848,
    "Ġcough": 11579,
    "Ġpursu": 3238,
    "Ġplentiful": 12907,
    "Ġrecords": 12192,
    "Ġlooking": 2473,
    "Ġdespise": 14664,
    "Ġstum": 21729,
    "Ġcheek": 8577,
    "lege": 17841,
    "nx": 17606,
    "Ġstand": 1735,
    "sustained": 20567,
    "Ġlye": 21549,
    "Ġbier": 22764,
    "Ġpostp": 12140,
    "Ġstaggering": 20272,
    "sm": 3437,
    "Ġpratt": 23221,
    "gain": 8736,
    "Ġboth": 1656,
    "Ġdesperado": 19818,
    "Ġmournfully": 20115,
    "Ġcommissionaire": 16999,
    "Ġacquaint": 13041,
    "Ġexplo": 2286,
    "comp": 3817,
    "Ġprofessional": 7299,
    "Ġtackles": 8051,
    "shipmates": 11925,
    "Ġslumbers": 18941,
    "?_": 8070,
    "slee": 17167,
    "Ġwallowed": 24039,
    "Ġbaltic": 18794,
    "task": 13791,
    "settled": 10505,
    "icest": 21562,
    "returning": 12202,
    "Ġcur": 1255,
    "whiskers": 12308,
    "steering": 16634,
    "Ġintrepid": 11702,
    "Ġfacility": 19849,
    "Ġdischarge": 18556,
    "caused": 25519,
    "hic": 3248,
    "Ġstairs": 5540,
    "apers": 3481,
    "Ġlinks": 13953,
    "Ġorange": 8486,
    "Ġactiv": 833,
    "Ġpanic": 11285,
    "Ġcot": 13875,
    "Ġskies": 8919,
    "Ġunfrequ": 19507,
    "Ġzigzag": 26272,
    "¿": 128,
    "aky": 18411,
    "ights": 8475,
    "springing": 24889,
    "ferences": 10325,
    "Ġpumps": 8427,
    "suitable": 18641,
    "Ġwhis": 3503,
    "Ġpoetic": 17102,
    "labour": 23912,
    "acquired": 24295,
    "vicious": 21117,
    "icated": 7590,
    "event": 8077,
    "blooded": 20021,
    "seaman": 25457,
    "Ġtill": 1823,
    "pets": 17635,
    "Ġcircumference": 13543,
    "whether": 5319,
    "Ġgranting": 18736,
    "Ġfeigned": 22202,
    "artic": 14225,
    "Ġmidday": 23632,
    "Ġneville": 7399,
    "drowned": 17367,
    "Ġdoes": 943,
    "liament": 16215,
    "Ġsimilitude": 19209,
    "Ġawfulness": 23586,
    "shaken": 16019,
    "Ġlaughing": 5338,
    "Ġterror": 5124,
    "Ġcant": 17824,
    "Ġmute": 19414,
    "hors": 9597,
    "Ġvoluntarily": 12137,
    "oy": 1014,
    "uneasiness": 23686,
    "accompl": 9878,
    "Ġfestoon": 20293,
    "Ġconcise": 23320,
    "Ġconve": 5455,
    "Ġcleared": 6075,
    "Ġblazing": 11893,
    "Ġdestabilizing": 5053,
    "Ġinclosed": 19537,
    "nial": 20983,
    "Ġstare": 10863,
    "Ġproportions": 16466,
    "anque": 13886,
    "Ġpriest": 7526,
    "ship": 1391,
    "Ġringed": 16749,
    "cas": 20793,
    "Ġadvert": 10570,
    "Ġairy": 23315,
    "anchor": 13887,
    "Ġhasty": 10476,
    "beside": 19876,
    "ifers": 15778,
    "Ġfoes": 11948,
    "ĵ": 246,
    "Ġzodiac": 16172,
    "Ġinsensibility": 17109,
    "Ġhath": 12624,
    "Ġopera": 23424,
    "wes": 17702,
    "along": 6013,
    "Ġ1950": 11358,
    "Ġpossessor": 23820,
    "Ġrot": 10966,
    "Ġgrasped": 8034,
    "Ġmaledictions": 26427,
    "blubber": 15234,
    "Ġsnap": 11200,
    "whosoever": 22238,
    "Ġsubt": 11865,
    "paper": 9135,
    "Ġcorpus": 13028,
    "Ġperennial": 22692,
    "Ġapril": 13660,
    "Ġcustoms": 19651,
    "unavoid": 14060,
    "Ġignor": 4014,
    "whaling": 7900,
    "Ġpouch": 21468,
    "mountain": 10712,
    "ĠĠĠĠĠĠĠĠĠĠĠĠĠĠĠĠĠ": 22947,
    "Ġforefinger": 16442,
    "impetuous": 23761,
    "Ġactions": 6278,
    "Ġrejoice": 10207,
    "Ġtreacle": 14594,
    "Ġunusual": 6553,
    "Ġincarn": 11811,
    "judges": 19572,
    "Ġafrica": 12342,
    "granting": 23412,
    "Ġcauldron": 25441,
    "Ġincorporate": 20453,
    "Ġunalterable": 15848,
    "ching": 5156,
    "Ġpausing": 8652,
    "Ġrh": 9242,
    "Ġmariners": 6068,
    "unwho": 21875,
    "already": 6980,
    "Ġinfl": 6893,
    "2": 22,
    "hamed": 6305,
    "Ġvery": 636,
    "Ġberry": 19745,
    "grant": 10426,
    "malicious": 19901,
    "Ġsquint": 22835,
    "Ġparents": 6752,
    "sequent": 6831,
    "Ġbrawn": 10480,
    "Ġpanelled": 19653,
    "Ġvapory": 17005,
    "Ġthyself": 6602,
    "scenes": 16241,
    "rrh": 26144,
    "Ġdrifting": 19278,
    "helpless": 16789,
    "abound": 15736,
    "Ġgrizzled": 11449,
    "Ġflattering": 13025,
    "Ġmuseum": 15269,
    "supplied": 10518,
    "vess": 7354,
    "Ġbricks": 13560,
    "igner": 21700,
    "Ġdimin": 3874,
    "Ġconstitution": 20107,
    "Ġpresently": 5116,
    "Ġschoolboys": 24480,
    "Ġcoll": 8221,
    "university": 25983,
    "further": 7535,
    "Ġmodest": 15912,
    "woof": 21138,
    "Ġpursuit": 4733,
    "g": 75,
    "Ġblunt": 11891,
    "Ġ(_": 3738,
    "_;": 6640,
    "groom": 8739,
    "Ġfeeble": 12281,
    "scans": 22987,
    "Ġforenoon": 19126,
    "Ġworkflow": 2342,
    "Ġxv": 23405,
    "voyages": 24855,
    "Ġascribed": 14853,
    "Ġhours": 2820,
    "orters": 21399,
    "Ġcorners": 18874,
    "Ġdaft": 19662,
    "Ġunique": 12774,
    "Ġfright": 3798,
    "Ġcelest": 9899,
    "tor": 15430,
    "Ġassertions": 19945,
    "rushed": 10583,
    "proved": 11983,
    "Ġpersu": 3562,
    "Ġflatt": 16243,
    "Ġseamen": 5063,
    "Ġunited": 6840,
    "Ġgoblet": 25823,
    "anse": 12571,
    "Ġbuoyancy": 20040,
    "Ġflank": 8229,
    "cleanliness": 25871,
    "ction": 501,
    "Ġbeside": 5192,
    "Ġtiger": 11553,
    "Ġpapers": 4024,
    "Ġcountenances": 11962,
    "vings": 9749,
    "Ġverdant": 15001,
    "Ġmeans": 699,
    "force": 12957,
    "Ġmanipulation": 10657,
    "meaning": 2908,
    "aiian": 23591,
    "Ġinsult": 6747,
    "Ġpersecut": 16951,
    "Ġgospel": 18000,
    "Ġwails": 21295,
    "Ġinvestigations": 17245,
    "Ġtroublesome": 23999,
    "Ġjury": 5378,
    "bits": 17487,
    "herself": 4890,
    "ulence": 15762,
    "constellation": 24608,
    "etrics": 21583,
    "Ġparadigms": 3055,
    "thomas": 18219,
    "cary": 10688,
    "oblig": 16288,
    "Ġmenaces": 23105,
    "Ġhummed": 18776,
    "Ġliar": 22406,
    "Ġinvade": 19142,
    "Ġeaster": 15671,
    "Ġshipw": 12975,
    "ordinate": 12871,
    "ror": 7351,
    "Ġhandfuls": 17208,
    "Ġmid": 2616,
    "Ġtrunk": 7205,
    "hatch": 15362,
    "Ġpropag": 16345,
    "Ġwounded": 8657,
    "Ġdialogue": 12401,
    "Ġheaviest": 23322,
    "secure": 12232,
    "Ġforms": 6397,
    "any": 3336,
    "Ġscratch": 25564,
    "Ġtypewritten": 16419,
    "Ġmysteriously": 24602,
    "Ġsublim": 19965,
    "Ġprovocation": 24190,
    "Ġdisapprobation": 16054,
    "Ġuttered": 7280,
    "thousands": 16869,
    "Ġlabeled": 3720,
    "Ġbad": 3990,
    "Ġunrest": 11711,
    "Ġwaned": 17791,
    "Ġaided": 17744,
    "%": 9,
    "pray": 5429,
    "Ġsag": 6514,
    "torture": 26151,
    "although": 8804,
    "Ġshoal": 12012,
    "Ġ1807": 26083,
    "oved": 5215,
    "biqu": 17496,
    "Ġblast": 7445,
    "Ġpeg": 22687,
    "Ġexceeded": 14431,
    "diff": 9112,
    "Ġuttering": 16460,
    "Ġindies": 22949,
    "mbly": 9792,
    "Ġjudgment": 5765,
    "Ġnarrowed": 24354,
    "Ġundoubtedly": 8313,
    "Ġfootmarks": 19336,
    "liv": 9606,
    "Ġcontinuing": 14395,
    "Ġshamefully": 24716,
    "Ġlocal": 1199,
    "pure": 17625,
    "orient": 2880,
    "wic": 21119,
    "Ġvulgar": 13602,
    "asserted": 22307,
    "Ġsundry": 20072,
    "hampshire": 23263,
    "Ġgems": 9207,
    "Ġimparts": 18445,
    "king": 3058,
    "presented": 12986,
    "abond": 15737,
    "ping": 9614,
    "Ġinvariable": 13454,
    ",_": 11461,
    "Ġpouring": 12620,
    "vict": 11539,
    "sell": 13779,
    "singing": 24362,
    "Ġpassers": 18759,
    "agra": 14064,
    "delirium": 14783,
    "Ġpetticoat": 15293,
    "doubtless": 17001,
    "Ġlurk": 13381,
    "Ġswaths": 23057,
    "touching": 15089,
    "Ġclum": 8871,
    "nest": 10112,
    "Ġintellect": 8170,
    "Ġnearly": 3362,
    "ksome": 10103,
    "Ġadvers": 4887,
    "kick": 20935,
    "gul": 12462,
    "Ġsomething": 1793,
    "Ġspeculations": 22996,
    "Ġsprain": 18305,
    "Ġplanets": 24055,
    "Ġmuzzle": 21319,
    "Ġkilburn": 18351,
    "Ġagreeably": 24952,
    "Ġpervers": 11780,
    "Ġcompar": 4771,
    "Ġfleets": 23772,
    "Ġelements": 2665,
    "projecting": 26073,
    "completely": 12417,
    "x": 92,
    "Ġwarmup": 3924,
    "Ġconvivial": 16547,
    "cely": 3574,
    "carbuncle": 26381,
    "Ġreceptacle": 23190,
    "Ġreleased": 2979,
    "Ġducking": 17145,
    "Ġevanesc": 24293,
    "utional": 17983,
    "Ġ131": 24782,
    "Ġrachel": 11840,
    "Ġtor": 8106,
    "Ġminut": 2204,
    "procure": 23395,
    "Ġover": 555,
    "mises": 20977,
    "onged": 18410,
    "Ġinsects": 25646,
    "Ġobserver": 11985,
    "Ġlane": 5627,
    "ri": 390,
    "Ġolive": 12561,
    "lorn": 12484,
    "collect": 16562,
    "Ġinterrupting": 19556,
    "Ġbeautiful": 3673,
    "¹": 122,
    "Ġrecoil": 18694,
    "Ġviolently": 6456,
    "Ġlucases": 9008,
    "Ġtempor": 2368,
    "Ġpatagon": 14502,
    "harpooneers": 8689,
    "grampus": 18617,
    "inces": 13826,
    "Ġcultured": 25154,
    "occupations": 24966,
    "feeder": 12358,
    "harm": 13733,
    "Ġrigged": 16716,
    "Ġshouts": 19536,
    "Ġaught": 8772,
    "Ġprophet": 7681,
    "Ġglens": 18854,
    "ĕ": 214,
    "Ġsepar": 4002,
    "cest": 12441,
    "Ġskill": 6872,
    "above": 8148,
    "Ġvillages": 14746,
    "Ġapprehension": 7113,
    "Ġverge": 23884,
    "jo": 3753,
    "Ġbodies": 8032,
    "Ġapply": 1777,
    "Ġdrive": 5055,
    "country": 6103,
    "oubled": 23644,
    "Ġoverhead": 11770,
    "apply": 18761,
    "ahawk": 23314,
    "Ġemphasis": 20535,
    "Ġfemin": 13434,
    "ĥ": 230,
    "Ġhairs": 13228,
    "Ġhumming": 12982,
    "Ġfootpath": 19337,
    "onist": 21249,
    "Ġpresum": 4837,
    "Ġlima": 10441,
    "Ġaspire": 21898,
    "Ġheroic": 14906,
    "ĠĠĠĠĠĠĠĠĠĠĠĠĠĠĠĠĠĠĠĠĠĠĠĠĠĠĠ": 14884,
    "ateg": 1336,
    "Ġunho": 18245,
    "Ġkne": 4269,
    "Ġvengeful": 14888,
    "Ġattribute": 16097,
    "momentum": 4991,
    "Ġgrandfather": 19420,
    "Ġarmchair": 8271,
    "Ġmumbled": 17807,
    "pol": 5893,
    "Ġaccompanying": 11303,
    "Ġenforced": 21936,
    "Ġoldest": 12969,
    "Ġenvironment": 3934,
    "Ġoutriders": 26542,
    "Ġpunch": 9953,
    "iliating": 12691,
    "vapor": 25755,
    "Ġminim": 1325,
    "Ġdressing": 7090,
    "reputation": 15513,
    "ascertaining": 26459,
    "Ġhim": 476,
    "Ġfortun": 4982,
    "epilogue": 22104,
    "Ġbattle": 5908,
    "Ġmillion": 14985,
    "atisf": 21262,
    "Ġbrilliant": 11413,
    "Ġsmoke": 4715,
    "Ġbegun": 7243,
    "Ġbits": 11586,
    "Ġplat": 8520,
    "ass": 536,
    "ain": 343,
    "Ġhaze": 18196,
    "Ġsuperficial": 23455,
    "Ġsuggestion": 19706,
    "Ġdistance": 3483,
    "Ġstagger": 10590,
    "Ġreach": 4049,
    "Ġthoroughfare": 16943,
    "Ġvalid": 1717,
    "Ġpig": 5705,
    "Ġscuff": 15938,
    "Ġlarger": 1401,
    "Ġplumber": 16081,
    "tree": 11532,
    "Ġentities": 11861,
    "Ġdie": 3965,
    "tram": 19634,
    "Ġrepentance": 15158,
    "superstitious": 17279,
    "oboam": 9356,
    "Ġhart": 17921,
    "coo": 11169,
    "mannered": 22849,
    "Ġconsult": 6057,
    "Ġburden": 8607,
    "Ġpau": 17908,
    "Ġactuated": 18544,
    "Ġiceland": 15144,
    "shone": 22441,
    "onah": 3335,
    "Ġsure": 1862,
    "weaknesses": 26030,
    "Ġteacup": 16210,
    "regiment": 16450,
    "baned": 17494,
    "Ġfeet": 2257,
    "Ġimag": 2673,
    "Ġstocks": 23173,
    "Ġnurse": 9515,
    "Ġlimits": 3454,
    "Ġhorrors": 10478,
    "Ġjunk": 15950,
    "usage": 12829,
    "achel": 7032,
    "Ġsleep": 2401,
    "Ġslacked": 25188,
    "inav": 15482,
    "buffalo": 20562,
    "Ġlogs": 16344,
    "Ġinsists": 23677,
    "dirty": 20833,
    "Ġcensured": 25094,
    "Ġrollicking": 24450,
    "Ġbravely": 23835,
    "Ġlabors": 23328,
    "Ġfore": 2152,
    "Ġhun": 1497,
    "eight": 9590,
    "sleeping": 13452,
    "lanter": 15385,
    "Ġexcuse": 5861,
    "obli": 23093,
    "jep": 20925,
    "sion": 8094,
    "Ġperv": 15987,
    "zar": 11546,
    "Ġoutskirts": 17455,
    "Ġmovements": 24358,
    "Ġequinox": 25855,
    "Ġcarriage": 3953,
    "Ġdictionary": 15110,
    "Ġvag": 9706,
    "Ġeastward": 13388,
    "Ġwarsaw": 26167,
    "Ġdireful": 11016,
    "countless": 24149,
    "Ġuntamed": 19163,
    "Ġyarns": 15193,
    "Ġstart": 3258,
    "dawson": 26128,
    "Ġpea": 14315,
    "Ġefficiently": 3714,
    "Ġdilated": 24704,
    "Ġfarther": 5955,
    "Ġindiscriminately": 20626,
    "Ġbilliard": 16688,
    "Ġserving": 14484,
    "Ġda": 5150,
    "winds": 10520,
    "whis": 7899,
    "Ġarrived": 3748,
    "Ġmutinous": 23955,
    "holes": 12051,
    "Ġnuptial": 25782,
    "unalterable": 21884,
    "icy": 6140,
    "Ġjur": 12830,
    "Ġsprung": 11248,
    "Ġtablets": 13153,
    "Ġtur": 2565,
    "Ġgrew": 5182,
    "Ġventing": 19492,
    "Ġprivate": 5345,
    "Ġstartled": 7082,
    "Ġvirtuous": 14754,
    "âĢĻâĢĶ": 12732,
    "Ġgovernesses": 25127,
    "Ġhad": 442,
    "Ġsaviour": 20712,
    "ccess": 3181,
    "Ġlive": 2735,
    "Ġfaultless": 24539,
    "Ġtoy": 15630,
    "turbaned": 24531,
    "...": 24548,
    "steak": 14706,
    "abst": 21786,
    "restoration": 23237,
    "Ġdrank": 16534,
    "Ġtooks": 23323,
    "ality": 2512,
    "gling": 10096,
    "Ġtransparency": 10675,
    "Ġ10": 5249,
    "lesome": 12961,
    "Ġpress": 5932,
    "urpation": 16299,
    "Ġintently": 8169,
    "Ġtempt": 5564,
    "Ġadvanced": 1522,
    "zek": 16262,
    "equally": 19898,
    "Ġcosmopolitan": 20640,
    "ame": 644,
    "mering": 12487,
    "Ġsupervised": 3312,
    "Ġconversing": 14632,
    "Ġsaratoga": 26422,
    "Ġberm": 21381,
    "Ġrattler": 24997,
    "Ġwet": 6518,
    "hertfordshire": 10936,
    "ateral": 19375,
    "50": 6784,
    "Ġhandled": 12933,
    "eter": 11619,
    "socket": 22727,
    "Ġfresher": 23210,
    "Ġsoft": 1457,
    "Ġsoda": 25534,
    "handle": 11189,
    "date": 17516,
    "iastic": 12476,
    "ituted": 13871,
    "teous": 16171,
    "Ġpublisher": 24065,
    "Ġnumerical": 4248,
    "Ġreeled": 13984,
    "Ġrome": 12152,
    "convalescence": 24884,
    "Ġcocaine": 20720,
    "Ġwat": 1285,
    "eagerly": 17314,
    "Ġwillingly": 8883,
    "cor": 5520,
    "Ġxl": 11986,
    "Ġproficiency": 19192,
    "inished": 17733,
    "Ġbulls": 23855,
    "Ġidle": 8253,
    "ificial": 614,
    "Ġexcurs": 23312,
    "Ġunsatisfied": 22042,
    "steps": 9403,
    "Ġwent": 1539,
    "constantinople": 25507,
    "behind": 6779,
    "insurance": 18888,
    "Ġintermediate": 18590,
    "ineffectual": 26506,
    "join": 12110,
    "Ġunlocked": 14118,
    "related": 24009,
    "Ġstruggle": 3676,
    "Ġevinced": 7100,
    "bestow": 16928,
    "Ġstamp": 7865,
    "society": 9970,
    "Ġwhaleman": 4655,
    "Ġrecommend": 7102,
    "nels": 12492,
    "Ġquest": 2001,
    "sister": 5139,
    "Ġshrieks": 12196,
    "Ġreproach": 9555,
    "icacy": 15654,
    "Ġthrusts": 24349,
    "Ġpretending": 19314,
    "Ġconsider": 2568,
    "reported": 24492,
    "Ġcomputing": 2220,
    "harpoons": 24284,
    "ct": 309,
    "Ġtougher": 21175,
    "Ġsquall": 7043,
    "quet": 6835,
    "unting": 21872,
    "Ġpressed": 6042,
    "Ġquiescent": 26242,
    "Ġsurvive": 9066,
    "having": 5211,
    "Ġsickbed": 24245,
    "Ġspire": 18306,
    "Ġexplain": 545,
    "Ġdisobey": 18559,
    "stalls": 26472,
    "Ġshock": 6083,
    "Ġshutting": 14758,
    "Ġmonument": 16235,
    "Ġbenches": 18780,
    "Ġshaken": 10263,
    "Ġinser": 6820,
    "answ": 15881,
    "Ġdeficiencies": 26569,
    "Ġsagaciously": 24731,
    "Ġcomfits": 21850,
    "Ġmarvellous": 7538,
    "Ġclothed": 19605,
    "Ġbast": 21377,
    "rossing": 18650,
    "Ġrepine": 16407,
    "una": 21867,
    "Ġshoreless": 24294,
    "Ġ500": 24327,
    "Ġpillar": 21472,
    "spiracle": 22734,
    "musket": 25341,
    "Ġhesitate": 16945,
    "Ġgrateful": 7660,
    "slave": 16894,
    "eat": 11481,
    "Ġpredictions": 1454,
    "ringle": 21039,
    "Ġwes": 8777,
    "precaution": 23819,
    "swallowed": 14851,
    "&": 10,
    "Ġwashes": 21859,
    "ture": 7558,
    "uttural": 21587,
    "Ġbrass": 11047,
    "Ġbeggar": 9347,
    "remediable": 26294,
    "aggoo": 5130,
    "Ġoffered": 5816,
    "landsmen": 25059,
    "Ġhuggins": 24828,
    "iliar": 15710,
    "dec": 3110,
    "gratification": 24347,
    "leather": 13888,
    "Ġgrave": 5100,
    "Ġpairs": 4186,
    "Ġdiffident": 23781,
    "Ġadventurous": 16732,
    "Ġcheerless": 16693,
    "Ġpeddler": 24800,
    "Ġwilfully": 16765,
    "Ġconfidential": 9086,
    "Ġpatients": 24813,
    "Ġspeak": 2230,
    "Ġwag": 10774,
    "rippling": 24714,
    "Ġvent": 4000,
    "coffin": 10661,
    "Ġcolleague": 17158,
    "Ġtortoise": 16907,
    "ted": 792,
    "idents": 6150,
    "Ġcate": 4112,
    "Ġcompelled": 14264,
    "¼": 125,
    "Ġlocked": 6035,
    "killer": 20474,
    "Ġinfernal": 11958,
    "Ġoffending": 22737,
    "avings": 12019,
    "weeks": 14314,
    "Ġsuppressing": 22999,
    "Ġrelieve": 8224,
    "quin": 21851,
    "Ġchink": 15929,
    "Ġbillow": 14777,
    "Ġoccurred": 4464,
    "go": 2063,
    "Ġspasmodically": 17312,
    "verdict": 21727,
    "Ġwindows": 4971,
    "Ġslept": 8259,
    "Ġmagnific": 16317,
    "Ġenvironments": 24045,
    "Į": 239,
    "Ġencoun": 4513,
    "tranquil": 25870,
    "Ġpump": 12617,
    "Ġjon": 15945,
    "Ġpolar": 9409,
    "Ġindulging": 16903,
    "Ġwelfare": 12555,
    "Ġlayers": 819,
    "ace": 715,
    "ivates": 18282,
    "uming": 8491,
    "Ġsold": 6003,
    "Ġoper": 2120,
    "iscient": 17851,
    "ness": 851,
    "Ġreduces": 2343,
    "Ġfossil": 12384,
    "avo": 8517,
    "Ġgalvan": 21615,
    "idelburgh": 10559,
    "Ġassume": 10514,
    "Ġsolving": 2483,
    "Ġearlier": 9085,
    "Ġseeks": 14304,
    "Ġsupport": 6728,
    "ricane": 16275,
    "Ġminds": 6303,
    "local": 22507,
    "Ġrespectful": 16343,
    "Ġfilial": 16619,
    "pane": 10119,
    "Ġmarsh": 9819,
    "Ġbuckler": 24859,
    "places": 7878,
    "Ġamid": 4959,
    "sword": 10725,
    "Ġdepends": 1099,
    "Ġaccommodate": 20515,
    "piled": 21014,
    "Ġwrecked": 9964,
    "Ġclumsy": 9578,
    "itary": 4751,
    "Ġun": 423,
    "Ġimpatiently": 8338,
    "loops": 12879,
    "upp": 10129,
    "hunters": 16832,
    "Ġfrequent": 3285,
    "Ġquote": 18466,
    "Ġsporty": 19889,
    "Ġinfinitely": 8962,
    "Ġstabilizing": 3658,
    "_,âĢĿ": 6218,
    "Ġgloss": 11955,
    "uccas": 21105,
    "beg": 22485,
    "Ġnorthwards": 19545,
    "Ġtwos": 18657,
    "acency": 12904,
    "Ġancest": 12610,
    "Ġwink": 11567,
    "Ġpuffed": 14975,
    "Ġunwilling": 7887,
    "Ġsmiting": 12894,
    "species": 13254,
    "Ġimprudent": 12843,
    "Ġconfusion": 7273,
    "Ġheart": 1596,
    "vered": 4829,
    "Ġlegitimate": 20641,
    "utely": 8132,
    "ury": 3309,
    "Ġeats": 15673,
    "Ġcooking": 16645,
    "shore": 10303,
    "ediction": 17944,
    "Ġunw": 8848,
    "mens": 20968,
    "rises": 17654,
    "Ġtalker": 23369,
    "unteered": 26494,
    "wedged": 24337,
    "Ġsworn": 14434,
    "Ġmournful": 12333,
    "Ġodds": 13327,
    "Ġgranted": 22805,
    "avail": 18604,
    "Ġconceals": 23901,
    "================================================================": 9988,
    "Ġexperienced": 6583,
    "Ġscener": 10948,
    "delirious": 19504,
    "Ġdetain": 14172,
    "Ġuseless": 7037,
    "Ġsc": 527,
    "Ġbuckets": 17033,
    "Ġfolks": 14424,
    "Ġterminating": 23508,
    "Ġgallons": 14816,
    "Ġtasselled": 25921,
    "Ġplayful": 19236,
    "Ġlifts": 25358,
    "Ġsporting": 16998,
    "Ġcordage": 19677,
    "Ġbuoyed": 20039,
    "Ġsuperhuman": 23452,
    "onsense": 6431,
    "Ġpeace": 3694,
    "Ġscoresby": 10461,
    "enderby": 25215,
    "Ġglu": 15664,
    "elect": 20845,
    "until": 6596,
    "iscreet": 20681,
    "Ġskeletons": 16790,
    "Ġverdict": 13473,
    "Ġattacking": 24464,
    "Ġdears": 18136,
    "bable": 8718,
    "olstadt": 7789,
    "Ġcreamy": 14328,
    "Ġsteward": 6584,
    "venth": 9293,
    "raged": 9210,
    "Ġalarm": 4050,
    "nantucket": 7805,
    "sax": 21055,
    "violence": 16476,
    "Ġstronger": 8578,
    "Ġwhether": 2000,
    "imitably": 21709,
    "Ġ58": 24325,
    ",âĢĻâĢĶ": 23524,
    "Ġbirch": 26174,
    "Ġappearing": 9839,
    "pits": 15410,
    "âĢ": 294,
    "Ġcomplicated": 14733,
    "Ġprograms": 7239,
    "Ġdecency": 18481,
    "carp": 9108,
    "ront": 15416,
    "Ġrequired": 7225,
    "boy": 4738,
    "Ġkentuckian": 26342,
    "acceptance": 25185,
    "apology": 22331,
    "Ġforbear": 17120,
    "Ġpoet": 8208,
    "assured": 10951,
    "Ġbenevolence": 9525,
    "ortunities": 15937,
    "rust": 2580,
    "bacc": 7795,
    "companions": 15022,
    "Ġconfirm": 9854,
    "Ġwindibank": 7257,
    "Ġwallowing": 24040,
    "Ġpinched": 17034,
    "Ġsorrow": 4629,
    "Ġanybody": 5313,
    "Ġcomplexion": 8210,
    "Ġchaise": 9075,
    "Ġreefed": 20301,
    "phant": 6287,
    "Ġshipmates": 6720,
    "Ġexile": 12712,
    "Ġcongealed": 25981,
    "Ġfish": 2710,
    "Ġbowing": 10474,
    "Ġholmes": 1306,
    "Ġflattened": 26047,
    "Ġaccursed": 9439,
    "oment": 921,
    "icle": 10833,
    "Ġscolded": 25472,
    "Ġgout": 21594,
    "Ġhoot": 19074,
    "Ġassailants": 20447,
    "Ġconjure": 17122,
    "Ġdau": 21424,
    "Ġplaned": 24054,
    "Ġrack": 9310,
    "trop": 15434,
    "limping": 26392,
    "Ġgentlemen": 3643,
    "Ġorphan": 12380,
    "Ġtemptations": 24504,
    "Ġfrequ": 3326,
    "trem": 17680,
    "Ġpleasure": 2694,
    "Ġkicked": 10580,
    "Ġreturning": 5325,
    "Ġsleepy": 8268,
    "Ġdifferently": 10387,
    "Ġprecious": 5760,
    "wid": 10133,
    "ĠâĢĻ": 3041,
    "Ġreligions": 20106,
    "william": 4563,
    "oregressive": 3426,
    "Ġbasics": 13446,
    "Ġthursday": 12640,
    "work": 1809,
    "Ġwow": 15526,
    "ellative": 21943,
    "18": 20750,
    "Ġguided": 10459,
    "inity": 5693,
    "Ġgeneralization": 982,
    "worked": 19032,
    "î": 175,
    "Ġbaff": 10798,
    "mut": 17594,
    "yours": 7695,
    "Ġye": 899,
    "Ġpivot": 13921,
    "Ġmemb": 14027,
    "Ġdatasets": 2390,
    "Ġspecimen": 13019,
    "ounced": 4954,
    "gunpowder": 25339,
    "Ġboarding": 12083,
    "Ġ37": 24077,
    "Ġtooth": 9191,
    "horn": 8086,
    "material": 13128,
    "ghost": 20886,
    "Ġphrenologists": 25608,
    "Ġreplenished": 13634,
    "Ġtravelling": 11306,
    "================": 3725,
    "breakfast": 8687,
    "anite": 17837,
    "imp": 3032,
    "Ġninety": 13599,
    "desper": 13066,
    "ulty": 22565,
    "Ġclothes": 4997,
    "¯": 112,
    "Ġpittance": 15613,
    "relative": 24010,
    "ula": 2828,
    "slight": 10726,
    "formity": 10277,
    "Ġcruisers": 25863,
    "Ġsphynx": 20711,
    "Ġshutters": 9935,
    "Ġnodding": 23334,
    "ia": 1260,
    "Ġampl": 22478,
    "Ġlit": 6246,
    "Ġeh": 6987,
    "final": 19675,
    "Ġprognostics": 20557,
    "Ġfiner": 13049,
    "Ġilluminating": 25245,
    "obviously": 25242,
    "rences": 9270,
    "Ġfibres": 12947,
    "national": 20997,
    "bree": 15312,
    "Ġmeditation": 16679,
    "functions": 11229,
    "rumours": 23897,
    "lakeman": 13749,
    "alone": 10182,
    "Ġdemand": 4947,
    "Ġmonomania": 17084,
    "Ġpublic": 4335,
    "en": 271,
    "achalot": 15860,
    "beginning": 13559,
    "rank": 21040,
    "se": 357,
    "Ġcluster": 13569,
    "Ġcolle": 8922,
    "med": 1907,
    "Ġnational": 13940,
    "sembled": 7263,
    "Ġcomment": 9231,
    "Ġstage": 7389,
    "\\": 64,
    "Ġdisputing": 25824,
    "Ġdecember": 15006,
    "Ġpondered": 15164,
    "fem": 17536,
    "Ġscre": 9734,
    "dinner": 11405,
    "Ġglue": 15670,
    "Ġlevers": 18077,
    "Ġbehoo": 19031,
    "limbs": 20190,
    "residence": 19262,
    "vessel": 11376,
    "Ġjackson": 24239,
    "for": 962,
    "necessity": 13365,
    "Ġlonger": 3359,
    "Ġcommended": 18656,
    "nonsense": 17614,
    "ai": 2526,
    "Ġgrin": 5482,
    "Ď": 207,
    "Ġmoved": 4839,
    "Ġstricken": 9774,
    "eronomy": 15522,
    "accidents": 19211,
    "irectly": 6940,
    "Ġsk": 959,
    "Ġrejection": 19982,
    "Ġbennett": 16323,
    "Ġcrooked": 11280,
    "know": 2318,
    "Ġguiding": 19240,
    "anxiety": 25155,
    "Ġswear": 6461,
    "ú": 187,
    "Ġsmothe": 18573,
    "Ġran": 3342,
    "Ġbows": 4087,
    "Ġwear": 6031,
    "southern": 20407,
    "Ġarch": 940,
    "Ġbaby": 6636,
    "hval": 20897,
    "Ġacqu": 1419,
    "Ġfab": 15572,
    "whisper": 17082,
    "nelson": 25620,
    "Ġmould": 6519,
    "izings": 14049,
    "ercial": 21273,
    "enchant": 21282,
    "Ġconciliating": 19044,
    "odious": 21810,
    "Ġincomplete": 17207,
    "Ġabandonment": 25603,
    "fail": 17539,
    "Ġretrogression": 26580,
    "swell": 17662,
    "Ġshears": 18319,
    "Ġprophes": 16346,
    "ades": 5631,
    "et": 307,
    "draught": 12086,
    "Ġforster": 5230,
    "Ġprejudices": 13467,
    "uction": 15441,
    "Ġshoot": 11160,
    "Ġrucastle": 5176,
    "Ġenergy": 2552,
    "Ġricher": 12755,
    "Ġwilds": 16507,
    "Ġomnipotent": 13546,
    "osal": 11756,
    "Ġcommunicative": 24547,
    "Ġauthority": 7749,
    "bation": 9101,
    "Ġsuff": 1301,
    "astes": 11736,
    "flagged": 23969,
    "Ġconceive": 8461,
    "spikes": 10339,
    "Ġrobustness": 18882,
    "Ġspiral": 14583,
    "Ġproved": 4884,
    "Ġfortunate": 6214,
    "protested": 13472,
    "Ġlucifers": 16587,
    "Ġugliness": 20425,
    "Ġpositively": 13026,
    "home": 7341,
    "Ġpiping": 23232,
    "Ġdeath": 2043,
    "Ġcyl": 15553,
    "Ġopposition": 16519,
    "hued": 20910,
    "ifice": 7199,
    "Ġhumiliating": 22880,
    "Ġcomfor": 14052,
    "Ġincident": 6280,
    "Ġintroduced": 7691,
    "'s": 2469,
    "Ġwhole": 1665,
    "sensibility": 25023,
    "Ġmarked": 4620,
    "wrong": 13204,
    "originally": 24937,
    "too": 4509,
    "Ġtouching": 4681,
    "Ġadmirer": 16837,
    "opence": 18507,
    "Ġeat": 4644,
    "inkers": 22616,
    "streamed": 25966,
    "emotions": 15793,
    "Ġthreads": 13115,
    "Ġavalanche": 17431,
    "capable": 13699,
    "sorrows": 17318,
    "Ġretarded": 23071,
    "objects": 13468,
    "Ġnathan": 21524,
    "Ġgratefully": 20443,
    "Ġrendered": 5773,
    "ifted": 4496,
    "Ġaccustomed": 6861,
    "Ġnoiseless": 10355,
    "blu": 12437,
    "Ġfulfilment": 20186,
    "Ġvineyards": 25106,
    "Ġuncontrollable": 25814,
    "Ġinspector": 6498,
    "Ġpopulation": 16826,
    "Ġoriginally": 7304,
    "whence": 23216,
    "Ġfirmest": 16663,
    "Ġenchanted": 9079,
    "Ġpipe": 4324,
    "Ġlanes": 19764,
    "tures": 21068,
    "Ġ61": 24363,
    "Ġdoubloons": 13432,
    "slow": 7811,
    "Ġad": 444,
    "Ġ79": 24263,
    "Ġcapabilities": 4380,
    "Ġconfound": 23301,
    "Ġwind": 1435,
    "Ġautonom": 10414,
    "Ġireland": 17333,
    "Ġhat": 2771,
    "Ġtol": 6675,
    "emotion": 21928,
    "Ġembell": 14411,
    "failed": 20862,
    "Ġinquirer": 24963,
    "Ġmultiplicity": 19274,
    "Ġexaggerate": 25649,
    "oarsman": 25261,
    "B": 38,
    "Ġpen": 1534,
    "bull": 13688,
    "ters": 1574,
    "Ġrepetition": 8971,
    "aited": 12432,
    "Ġattach": 14290,
    "Ġcrust": 21349,
    "Ġoccur": 1080,
    "knight": 20939,
    "bee": 16035,
    "itically": 21328,
    "nin": 17607,
    "redible": 15801,
    "Ġcandelabra": 26601,
    "Ġdarling": 12600,
    "Ġdigesting": 19808,
    "Ġbeggars": 20628,
    "commencement": 26347,
    "Ġ*": 1273,
    "Ġbash": 12582,
    "Ġstoop": 16308,
    "algorithms": 8299,
    "Ġgreat": 896,
    "Ġravine": 18637,
    "Ġshade": 6550,
    "Ġcin": 13873,
    "linen": 25257,
    "anations": 12572,
    "Ġbrighter": 16185,
    "Ġsoothe": 7405,
    "Ġvacantly": 16814,
    "Ġlichen": 20090,
    "Ġquoted": 22413,
    "Ġsally": 15500,
    "frantic": 24282,
    "and": 372,
    "Ġdrowsiness": 26444,
    "thoughts": 9933,
    "isome": 17848,
    "fastened": 19324,
    "Ġgorgeous": 20465,
    "Ġfireplace": 13143,
    "Ġforever": 14552,
    "Ġviii": 16411,
    "Ġsatisfying": 23696,
    "Ġleathern": 15049,
    "Ġindividuals": 24545,
    "confirmed": 19644,
    "Ġharp": 17923,
    "Ġf": 283,
    "Ġconceal": 5974,
    "Ġseedy": 21960,
    "Ġencl": 16163,
    "Ġchap": 5934,
    "Ġboast": 7034,
    "urously": 18050,
    "amb": 5723,
    "hateful": 20908,
    "ornament": 23486,
    "Ġnaught": 8128,
    "athom": 12935,
    "Ġwinking": 17793,
    "Ġbreed": 19071,
    "ha": 3983,
    "stern": 7862,
    "Ġquicker": 16506,
    "Ġbreadth": 10562,
    "Ġdestitute": 14565,
    "Ġfreshly": 23984,
    "Ġassoc": 6402,
    "Ġpremeditated": 22232,
    "Ġsmoothe": 23657,
    "Ġrevelation": 25222,
    "ħ": 232,
    "Ġ122": 24466,
    "Ġwit": 3843,
    "Ġtipt": 21172,
    "Ġwoll": 21292,
    "Ġsatisfaction": 5667,
    "luc": 9750,
    "Ġpresc": 15922,
    "tim": 13789,
    "¬": 110,
    "Ġfifty": 4624,
    "Ġspoutings": 14674,
    "Ġtransl": 2832,
    "Ġmerest": 14028,
    "Ġluxuriant": 20393,
    "Ġrector": 21674,
    "contracting": 19293,
    "phants": 9318,
    "Ġinexhaustible": 16980,
    "isa": 17845,
    "Ġsingled": 23770,
    "infall": 21187,
    "august": 11070,
    "Ġclaret": 22349,
    "Ġshadow": 5595,
    "varied": 23183,
    "Ġpall": 7582,
    "Ġdinner": 4247,
    "adm": 7608,
    "Ġstowed": 21734,
    "ds": 4688,
    "heavily": 24533,
    "odings": 4402,
    "Ġrenegades": 26475,
    "Ġnortheast": 23200,
    "Ġtyphoons": 20233,
    "unable": 14057,
    "cries": 17509,
    "utterly": 20010,
    "Ġident": 2240,
    "Ġsideways": 6181,
    "ensibility": 22545,
    "Ġbrandy": 11048,
    "Ġmoccas": 22434,
    "Ġungod": 22022,
    "Ġleader": 14700,
    "urpr": 2288,
    "Ġaccordance": 19496,
    "Ġseeth": 21958,
    "situ": 9620,
    "Ġwreck": 7314,
    "Ġarea": 14185,
    "Ġrickety": 26504,
    "Ġexclaim": 11220,
    "Ġdreaming": 11222,
    "Ġsmell": 7216,
    "frequently": 9977,
    "Ġgoest": 22421,
    "generative": 4333,
    "ounted": 5030,
    "Ġblackness": 9391,
    "Ġcomparing": 14263,
    "Ġrug": 16154,
    "arding": 22155,
    "Ġforgetfulness": 14605,
    "Ġtie": 10749,
    "hen": 3517,
    "Ġhats": 14618,
    "Ġexclamation": 8698,
    "Ġsub": 950,
    "Ġroses": 11783,
    "carrying": 16712,
    "Ġtear": 6722,
    "rese": 15506,
    "meal": 22716,
    "gang": 17552,
    "Ġravings": 18636,
    "Ġcorpor": 23039,
    "Ġniagara": 26457,
    "Ġallev": 18100,
    "Ġdecaying": 2246,
    "particular": 5757,
    "Ġsequences": 1751,
    "Ġgift": 10839,
    "Ġshank": 21995,
    "Ġindisposed": 26287,
    "brad": 20780,
    "Ġquestioned": 14619,
    "Ġdependency": 3487,
    "Ġsleeves": 10659,
    "Ġwayward": 22870,
    "sir": 5001,
    "inated": 6804,
    "Ġgoethe": 22422,
    "Ġdelay": 5748,
    "Ġdoleful": 18377,
    "Ġenabling": 1078,
    "farewell": 12303,
    "Ġimple": 1832,
    "gr": 2085,
    "Ġbeauty": 3771,
    "Ġinexpressible": 17331,
    "Ġadapts": 3818,
    "Ġsnodhead": 19301,
    "spell": 22730,
    "earn": 10695,
    "Ġadmirable": 8269,
    "Ġaugment": 8691,
    "Ġincom": 9767,
    "hands": 5967,
    "erest": 10696,
    "replied": 11564,
    "token": 21081,
    "Ġ1894": 5196,
    "Ġenticing": 22744,
    "image": 9684,
    "Ġwester": 25152,
    "imper": 13995,
    "Ġcarries": 7674,
    "Ġartful": 22605,
    "Ġdir": 21420,
    "impregnable": 26480,
    "wood": 5898,
    "Ġhandkerchief": 8912,
    "Ġnor": 1553,
    "Ġrifled": 21974,
    "Ġempty": 5353,
    "Ġhay": 11603,
    "Ġsuck": 15858,
    "Ġperman": 10964,
    "Ġswayed": 15046,
    "Ġstrateg": 1337,
    "Ġtows": 19561,
    "anter": 9165,
    "Ġrecord": 5316,
    "Ġbrother": 2748,
    "Ġpark": 5465,
    "Ġretreating": 19798,
    "dient": 441,
    "Ġcrumbs": 20639,
    "tr": 3579,
    "Ġcollections": 22853,
    "strained": 21656,
    "wondering": 19844,
    "Ġtemporarily": 11166,
    "hawks": 24694,
    "Ġdocile": 19957,
    "leg": 2814,
    "conve": 14242,
    "Ġuneasily": 24229,
    "hearty": 14832,
    "Ġcongregation": 12326,
    "ootiful": 17371,
    "alt": 12634,
    "iew": 2446,
    "furnish": 25338,
    "Ġreplacing": 3450,
    "Ġsubsequently": 16157,
    "am": 367,
    "Ġescorted": 23504,
    "Ġmutters": 23953,
    "irregular": 21909,
    "Ġrashly": 20304,
    "Ġsurrounding": 12159,
    "gypt": 8261,
    "Ġsaxon": 25467,
    "ening": 3103,
    "Ġoffic": 3185,
    "Ġactual": 3739,
    "initions": 21186,
    "Ġcontents": 7210,
    "Ġloosed": 22110,
    "Ġdrop": 4347,
    "Ġener": 10895,
    "Ġlodging": 24092,
    "sharp": 10304,
    "merchant": 10466,
    "z": 94,
    "Ġindul": 5856,
    "Ġlar": 766,
    "Ġdelight": 2548,
    "Ġhandsome": 4906,
    "ricity": 23062,
    "Ġconvert": 11843,
    "frank": 7758,
    "Ġoverjoy": 15966,
    "absurd": 21793,
    "fluttering": 23970,
    "Ġforemast": 12002,
    "echo": 15346,
    "tremble": 17140,
    "Ġramad": 8527,
    "Ġbe": 336,
    "cup": 10689,
    "assumed": 22306,
    "Ġemig": 14523,
    "[": 63,
    "Ġnotion": 7883,
    "Ġpruning": 18971,
    "nigh": 13761,
    "Ġscrupled": 25049,
    "fair": 10091,
    "Ġnegro": 6447,
    "Ġchast": 18380,
    "Ġfestival": 25445,
    "O": 51,
    "Ġwreak": 16816,
    "eaten": 20343,
    "fur": 6355,
    "Ġconsoling": 19455,
    "Ġdaring": 8121,
    "mankind": 14372,
    "Ġcanes": 22164,
    "Ġnewcom": 16219,
    "conside": 9288,
    "Ġcompiled": 22568,
    "15": 12427,
    "Ġendwise": 23141,
    "respective": 19845,
    "sperm": 5203,
    "rab": 7596,
    "Ġfainter": 14912,
    "Ġmanage": 7640,
    "Ġbordering": 17227,
    "âĢľâĢĻ": 10220,
    "Ġquickly": 4244,
    "Ġconquer": 14025,
    "Ġchamp": 18381,
    "Ġatonement": 21940,
    "ineering": 21979,
    "Ġtemptation": 8677,
    "ield": 2409,
    "Ġexpense": 7651,
    "market": 16838,
    "resolution": 17765,
    "tis": 4108,
    "milk": 20475,
    "fetch": 12461,
    "Ġlbs": 11613,
    "Ġcondescend": 19953,
    "raction": 8138,
    "thr": 12756,
    "rief": 6202,
    "yellow": 9623,
    "Ġshrouds": 11343,
    "Ġfug": 12591,
    "anything": 5518,
    "Ġfads": 21415,
    "canst": 22959,
    "abern": 21787,
    "Ġupbra": 22152,
    "Ġstyled": 24671,
    "conjectures": 25180,
    "Ġimmensely": 13593,
    "ning": 949,
    "Ġordinarily": 20648,
    "dl": 20822,
    "cloth": 11934,
    "Ġdumb": 7844,
    "Ġwouldst": 18501,
    "Ġeffaced": 18538,
    "Ġomniscient": 20084,
    "Ġrepresenting": 4063,
    "Ġcorpulence": 24505,
    "Ġbamboo": 17435,
    "henomenon": 13612,
    "deaux": 22146,
    "risonment": 17373,
    "uy": 21098,
    "Ġcorresponds": 19820,
    "feeders": 25235,
    "advanced": 19587,
    "Ġclo": 6043,
    "Ġerred": 21155,
    "ole": 9612,
    "Ġbristol": 14378,
    "Ġdangerously": 23934,
    "Ġhooks": 14966,
    "Ġluxuries": 25163,
    "consciously": 19624,
    "safie": 20347,
    "Ġlecture": 13565,
    "bedstead": 23846,
    "itate": 6667,
    "unaffected": 21881,
    "Ġsires": 21225,
    "Ġalighted": 18103,
    "Ġrecommence": 16811,
    "Ġleaders": 16626,
    "Ġfirmness": 11237,
    "Ġaccumulates": 2891,
    "ail": 564,
    "stopping": 19348,
    "Ġescaping": 13133,
    "Ġtraditions": 11442,
    "deduction": 23555,
    "Ġhospitable": 17058,
    "Ġgrooves": 16740,
    "Ġends": 8238,
    "(_": 7540,
    "Ġtantamount": 25625,
    "dislike": 23492,
    "Ġjournal": 15216,
    "Ġclifford": 22352,
    "Ġsending": 8774,
    "restraint": 18980,
    "fleet": 15012,
    "Ġcapric": 14575,
    "Ġswan": 23050,
    "Ġwhal": 5454,
    "Ġenormousness": 24511,
    "Ġnames": 4534,
    "mem": 10708,
    "Ġtheatre": 21277,
    "Ġsplashing": 16549,
    "savage": 15073,
    "Ġviewed": 10462,
    "th": 408,
    "Ġfactor": 19011,
    "Ġmes": 17796,
    "james": 15370,
    "Ġaugmented": 15103,
    "Ġdescribing": 19253,
    "Ġagonized": 25372,
    "pshire": 21023,
    "Ġaffronted": 22892,
    "arp": 2028,
    "Ġforgot": 4684,
    "ised": 1097,
    "Ġinch": 7850,
    "leaves": 12574,
    "Ġwidely": 8033,
    "ale": 506,
    "flour": 23963,
    "lean": 21363,
    "Ġdependencies": 2314,
    "resolved": 9638,
    "Ġimmemorially": 25383,
    "Ġinflict": 15000,
    "volutions": 16321,
    "ik": 17570,
    "ouri": 21446,
    "reflection": 13453,
    "Ġmatlock": 18803,
    "Ġtwee": 22673,
    "reception": 15512,
    "northern": 23666,
    "Ġfacil": 16961,
    "Ġsisters": 3641,
    "wonder": 6371,
    "Ġparallelization": 3432,
    "Ġpinch": 15015,
    "Ġrebounds": 25967,
    "Ġconjecture": 9530,
    "Ġsim": 735,
    "second": 6543,
    "Ġcomplaisance": 19447,
    "around": 12604,
    "aviour": 11003,
    "Ġupon": 718,
    "rod": 10830,
    "Ġlistless": 16474,
    "snowy": 20282,
    "lengthwise": 19948,
    "[_": 5131,
    "unctuous": 21880,
    "Ġroods": 22402,
    "weekly": 25684,
    "Ġstructures": 2720,
    "reve": 12535,
    "iar": 2379,
    "Ġquarto": 17294,
    "Ġunlocking": 20705,
    "Ġindividually": 22955,
    "Ġpul": 2041,
    "Ġtranced": 18432,
    "wn": 720,
    "back": 2017,
    "es": 288,
    "Ġmorocco": 26572,
    "Ġdumplings": 15188,
    "rah": 8137,
    "jerked": 25618,
    "Ġturnpike": 23026,
    "Ġaccomplishment": 19664,
    "Ġpresentation": 14479,
    "Ġremedy": 18724,
    "ę": 218,
    "Ġearliest": 9829,
    "ertips": 23639,
    "Ġtranslation": 3085,
    "Ġnoticing": 18224,
    "Ġloitered": 26524,
    "Ġhugest": 17014,
    "Ġincul": 22547,
    "obed": 14444,
    "âĢĶâĢĺ": 7013,
    "Ġdrowsy": 26443,
    "lit": 9604,
    "Ġsabbee": 17254,
    "Ġinterrupt": 4362,
    "ourselves": 9009,
    "Ġannihilation": 15163,
    "Ġsalutation": 12394,
    "Ġurged": 6781,
    "Ġesc": 2251,
    "Ġcorporeal": 17358,
    "apparently": 15202,
    "Ġquench": 22417,
    "times": 8099,
    "Ġsteals": 23083,
    "Ġswinging": 7449,
    "Ġredundant": 16550,
    "clever": 20812,
    "Ġeven": 1026,
    "Ġimpaling": 22381,
    "scot": 14416,
    "Ġshorter": 4500,
    "Ġemma": 20693,
    "Ġstim": 18063,
    "Ġbroad": 3640,
    "Ġpound": 12612,
    "Ġix": 12662,
    "Ġpaper": 4286,
    "Ġfortnight": 6200,
    "Ġsays": 3560,
    "quar": 7615,
    "Ġecon": 9676,
    "Ġtree": 5284,
    "Ġanecd": 20153,
    "Ġgros": 14821,
    "vitality": 20477,
    "Ġclimates": 25050,
    "mag": 6508,
    "Ġsnuff": 7992,
    "onic": 7828,
    "Ġberkshire": 16883,
    "ougher": 18275,
    "motives": 26137,
    "Ġdromed": 15593,
    "speptic": 23943,
    "wag": 21122,
    "Ġforlorn": 14013,
    "Ġsympathy": 6346,
    "ay": 355,
    "ras": 21035,
    "time": 3146,
    "Ġcoopers": 20520,
    "Ġinsens": 8277,
    "Ġsnatch": 14638,
    "Ġcele": 9898,
    "Ġfert": 15578,
    "puzz": 17639,
    "Ġregularly": 7657,
    "Ġblanched": 26282,
    "shirt": 22446,
    "Ġrepugnance": 19084,
    "Ġ67": 19659,
    "Ġindepend": 3669,
    "countenances": 24150,
    "Ġdest": 2237,
    "Ġit": 339,
    "Ġadvertised": 17246,
    "breeze": 20561,
    "Ġgrove": 12143,
    "beam": 16036,
    "Ġcoop": 14268,
    "scap": 22988,
    "felicity": 25140,
    "Ġimmut": 13295,
    "Ġjohn": 5032,
    "Ġprophesied": 26062,
    "Ġresiding": 16058,
    "Ġunconcerned": 20508,
    "ulgent": 18149,
    "inates": 21179,
    "mend": 20965,
    "Ġcompass": 4411,
    "Ġhave": 443,
    "¥": 103,
    "Ġadvances": 12988,
    "Ġdeterm": 1270,
    "edily": 17943,
    "ical": 753,
    "Ġappointed": 20101,
    "Ġmalacca": 24392,
    "answers": 22138,
    "Ġluc": 3308,
    "Ġdiscount": 22780,
    "Ġstrike": 4855,
    "Ġsubsisting": 23433,
    "Ġgroups": 3721,
    "assisted": 22305,
    "sig": 2876,
    "mad": 5280,
    "miles": 10711,
    "seamen": 13624,
    "Ġtrunks": 15973,
    "Ġsympathised": 14860,
    "elve": 4642,
    "Ġsadness": 13284,
    "Ġincompetent": 25679,
    "Ġjollies": 20368,
    "Ġchestnuts": 24380,
    "adow": 18087,
    "afternoon": 13185,
    "Ġgossip": 18470,
    "lighter": 20958,
    "Ġmitig": 1338,
    "Ġcroquet": 9960,
    "Ġsubsets": 2345,
    "sideways": 14570,
    "Ġ103": 24410,
    "Ġrafters": 22643,
    "accepted": 20135,
    "Ġfugitive": 17325,
    "okes": 9275,
    "Ġscaffold": 18394,
    "Ġmatrices": 4969,
    "shold": 2773,
    "Ġcottage": 4734,
    "aried": 10986,
    "Ġharbour": 19978,
    "Ġcrotch": 9961,
    "floating": 12224,
    "Ġencodings": 4775,
    "etus": 21576,
    "Ġobsole": 22696,
    "of": 768,
    "vener": 21110,
    "Ġmaddened": 17243,
    "Ġtist": 21161,
    "surprising": 16918,
    "Ġrecognition": 3141,
    "Ġcompose": 12898,
    "idol": 21764,
    "Ġbagging": 24538,
    "gentle": 5356,
    "hatred": 24821,
    "Ġinfamy": 14500,
    "Ġunwaning": 25170,
    "mical": 9127,
    "vi": 2376,
    "Ġpenny": 16312,
    "Ġsubsequent": 7659,
    "angels": 22103,
    "Ġpeeling": 22690,
    "Ġwriter": 11942,
    "Ġmilitia": 13315,
    "Ġpantheistic": 26335,
    "may": 3681,
    "Ġintensity": 10014,
    "happily": 14656,
    "Ġclosed": 4605,
    "Ġtendency": 11328,
    "Ġmuchness": 18708,
    "genteel": 19947,
    "Ġbourgh": 5069,
    "Ġalong": 1979,
    "tattoo": 21086,
    "Ġyawn": 7609,
    "ared": 772,
    "Ġsouls": 6308,
    "Ġunfl": 22018,
    "le": 279,
    "wishes": 13805,
    "Ġspaces": 3109,
    "Ġanointing": 25539,
    "Ġaristocratic": 20510,
    "Ġpoliteness": 8274,
    "Ġinnoc": 3796,
    "ral": 4628,
    "Ġparticle": 18671,
    "Ġrazors": 22644,
    "Ġamusements": 16912,
    "Ġfactory": 23275,
    "pires": 13773,
    "Ġinterven": 10996,
    "Ġaccounts": 7207,
    "Ġmelting": 24287,
    "Ġturns": 4981,
    "Ġesq": 15106,
    "object": 6884,
    "Ġthan": 737,
    "Ġlee": 4226,
    "Ġprofoundly": 16858,
    "Ġcautious": 12250,
    "Ġdesertion": 24787,
    "Ġsheet": 6262,
    "Ġcataract": 23426,
    "Ġinvoking": 19145,
    "Ġtarts": 10752,
    "hent": 12530,
    "going": 6313,
    "possibly": 10542,
    "Ġsundering": 23273,
    "violets": 23542,
    "odes": 18119,
    "Ġbethinking": 25279,
    "Ġregard": 3065,
    "Ġgam": 11622,
    "Ġtruest": 16702,
    "oton": 3607,
    "Ġrounded": 14437,
    "Ġstaircase": 20094,
    "Ġconveniently": 20077,
    "Ġeach": 892,
    "Ġdead": 2171,
    "willingness": 24755,
    "Ġexp": 777,
    "wealth": 22686,
    "conscience": 14858,
    "ruding": 9722,
    "Ġfresh": 3671,
    "afflicted": 23776,
    "Ġwoes": 23983,
    "iriously": 18171,
    "Ġisles": 8459,
    "understand": 1124,
    "Ġloggerhead": 13655,
    "##": 2316,
    "Ġlabyrinth": 13677,
    "Ġdeformed": 14045,
    "Ġclaim": 5106,
    "!âĢĻâĢĿ": 16591,
    "Ġgir": 2254,
    "Ġpir": 6818,
    "Ġ1991": 3015,
    "yourself": 6742,
    "Ġsurveying": 25325,
    "itors": 2914,
    "Ġsuperflu": 14553,
    "believe": 8304,
    "Ġli": 601,
    "Ġbackward": 7654,
    "merged": 11193,
    "exerc": 16012,
    "Ġdimensions": 16570,
    "insupportable": 21192,
    "Ġsomewhat": 4897,
    "Ġdense": 8123,
    "chronicle": 26479,
    "Ġcopestone": 24936,
    "Ġdisplay": 6428,
    "Ġsnugness": 20075,
    "bers": 2570,
    "polar": 24584,
    "Ġferoc": 14900,
    "zors": 21146,
    "Ġhy": 5625,
    "Ġflows": 13006,
    "Ġbiographical": 22766,
    "Ġankles": 17899,
    "Ġrains": 24339,
    "Ġdistrusting": 25053,
    "Ġconsume": 12954,
    "Ġabreast": 18399,
    "Ġenslaved": 26314,
    "Ġpoets": 11818,
    "Ġfrosty": 14933,
    "Ġ69": 19660,
    "luxur": 25822,
    "continuing": 24478,
    "Ġgales": 12661,
    "Ġnarr": 5085,
    "Ġknights": 15147,
    "showing": 22449,
    "Ġexclude": 19038,
    "Ġanvil": 11595,
    "Ġassigned": 16309,
    "conjecturing": 20133,
    "Ġ25": 13192,
    "Ġhaw": 10250,
    "ĭ": 238,
    "Ġinvestigated": 25386,
    "exasper": 22425,
    "Ġconfide": 13095,
    "Ġweary": 5635,
    "Ġdonkey": 23228,
    "Ġcontrol": 13077,
    "----âĢĿ": 13304,
    "intelligence": 5883,
    "Ġwrenching": 17321,
    "Ġbubb": 12580,
    "girls": 12316,
    "Ġlounged": 19952,
    "ĠĠĠĠĠĠĠĠĠĠĠĠĠĠĠĠĠĠĠĠĠĠĠĠĠĠĠĠĠĠĠĠĠĠĠĠĠĠĠĠĠĠĠĠĠĠĠĠĠĠĠĠĠ": 20038,
    "Ġpreprocessing": 26535,
    "expressed": 9040,
    "greeting": 24553,
    "stained": 21653,
    "Ġunch": 18239,
    "iment": 2816,
    "Ġrelish": 14382,
    "Ġterrified": 14670,
    "Ġrehears": 15696,
    "Ġgrieved": 8297,
    "dost": 14534,
    "entle": 1738,
    "rayed": 23561,
    "hours": 9123,
    "Ġsuperst": 7704,
    "Ġcordial": 16834,
    "Ġleave": 2457,
    "strugg": 21660,
    "Ġrapid": 1418,
    "Ġarid": 22174,
    "hastening": 24447,
    "soul": 9139,
    "Ġexactly": 2767,
    "estruct": 22219,
    "sust": 15420,
    "else": 6533,
    "Ġbottles": 16569,
    "Ġrowing": 10299,
    "±": 114,
    "Ġsuppose": 2868,
    "bpp": 20771,
    "Ġhemisphere": 26477,
    "Ġtreatment": 12068,
    "Ġappears": 5402,
    "Ġeludes": 26553,
    "Ġdepths": 4329,
    "Ġarrest": 7409,
    "agre": 18164,
    "intment": 4720,
    "phia": 22769,
    "pencil": 18827,
    "wet": 15450,
    "sensations": 20049,
    "Ġmaria": 7124,
    "Ġwickham": 2206,
    "ickering": 22668,
    "onym": 14648,
    "imod": 15706,
    "fluke": 25204,
    "Ġfairer": 20460,
    "Ġagitates": 22515,
    "Ġlivery": 15996,
    "Ġdomineer": 23650,
    "temper": 10002,
    "Ġgeomet": 3189,
    "Ġcondition": 6764,
    "Ġattraction": 18626,
    "Ġuncork": 23428,
    "quid": 18146,
    "ry": 808,
    "Ġdefiance": 11067,
    "Ġvivid": 8058,
    "arch": 1110,
    "Ġsentiment": 6588,
    "Ġconscience": 6929,
    "afterwards": 7484,
    "Ġperforming": 7928,
    "Ġproceed": 3241,
    "Ġmus": 3396,
    "Ġpeels": 22689,
    "Ġpropriety": 10008,
    "Ġneeded": 7718,
    "otes": 15740,
    "Ġconduct": 3735,
    "Ġgrimly": 17051,
    "Ġconstant": 6309,
    "fal": 17535,
    "Ġdams": 16455,
    "Ġdimmed": 24266,
    "painted": 17638,
    "Ġspeaker": 19148,
    "Ġhus": 3090,
    "Ġlxi": 21559,
    "pression": 10406,
    "eon": 8729,
    "leness": 4691,
    "relatively": 24011,
    "dropped": 12259,
    "Ġvehem": 22887,
    "homage": 25616,
    "Ġboy": 3021,
    "Ġthro": 5817,
    "Ġcombines": 1175,
    "Ġfling": 9659,
    "Ġexquisitely": 20201,
    "Ġenemy": 5604,
    "Ġreminiscences": 26269,
    "attentions": 13572,
    "Ġweighing": 20014,
    "Ġpyramids": 15112,
    "da": 17513,
    "Ġswiftly": 5670,
    "mid": 5616,
    "Ġslop": 23159,
    "Ġfelt": 1746,
    "mystery": 15153,
    "Ġgrapnels": 25551,
    "Ġriverside": 25247,
    "hogs": 20080,
    "Ġfundamentals": 14634,
    "Ġhissing": 15786,
    "Ġcurls": 22980,
    "Ġcontingency": 26244,
    "Ġagainst": 1700,
    "Ġroutine": 13506,
    "Ġcounterpart": 24721,
    "Ġassaulted": 25320,
    "Ġprove": 5232,
    "Ġspectators": 19405,
    "Ġvideos": 13604,
    "inc": 2520,
    "power": 7136,
    "Ġsyllable": 9726,
    "Ġdisadvantages": 18558,
    "alizing": 17939,
    "mouth": 9129,
    "Ġkinds": 14503,
    "daylight": 19050,
    "roy": 7854,
    "oran": 8787,
    "Ġhier": 1894,
    "mic": 12485,
    "Ġeloped": 22651,
    "Ġnever": 1018,
    "Ġroanoke": 22405,
    "Ġinjunctions": 24268,
    "Ġterr": 3272,
    "old": 799,
    "aper": 4999,
    "Ġperilous": 7769,
    "Ġnatures": 16504,
    "Ġensue": 18190,
    "friends": 8306,
    "agreeable": 5829,
    "Ġmarvelled": 18872,
    "max": 1688,
    "Ġpenal": 1772,
    "Ġshrine": 19530,
    "uend": 21100,
    "coat": 5407,
    "elopement": 23128,
    "Ġcanal": 8182,
    "luding": 6700,
    "itself": 7835,
    "Ġinvader": 23477,
    "ronted": 14875,
    "Ġpick": 4259,
    "Ġteacher": 22909,
    "Ġcontroverted": 23251,
    "Ġtrusting": 24105,
    "Ġadmon": 15865,
    "Ġstandard": 14495,
    "Ġroman": 8323,
    "Ġ105": 24412,
    "Ġscrewing": 20207,
    "enesis": 24387,
    "Ġthine": 7374,
    "Ġgazing": 5876,
    "Ġnoiselessly": 22861,
    "beauty": 20102,
    "chet": 13215,
    "Ġjiff": 22294,
    "Ġgloom": 4206,
    "kee": 18273,
    "acled": 16078,
    "Ġperpetual": 12300,
    "insensibility": 23068,
    "ceiling": 21625,
    "Ġkn": 4547,
    "Ġmerchant": 6467,
    "phur": 16148,
    "Ġdelights": 14595,
    "ility": 624,
    "Ġsorrows": 13352,
    "Ġmediocr": 24083,
    "unwholesome": 26496,
    "Ġpicturesqueness": 24479,
    "Ġsales": 12802,
    "sunlight": 24851,
    "Ġdemi": 25548,
    "Ġhearken": 21683,
    "Ġsailor": 3535,
    "Ġreliably": 22876,
    "ref": 6515,
    "Ġmoulded": 16974,
    "Ġbracing": 16579,
    "Ġsentry": 19022,
    "Ġash": 4832,
    "Ġchoicest": 24219,
    "Ġweighty": 16029,
    "hom": 12470,
    "71": 20755,
    "Ġhogshead": 26367,
    "ount": 1114,
    "learnt": 23577,
    "sar": 12501,
    "Ġreceive": 4704,
    "Ġscare": 18390,
    "Ġadventure": 5981,
    "Ġbraz": 19356,
    "housekeeping": 24102,
    "ah": 1833,
    "--": 1041,
    "stead": 10845,
    "Ġcommun": 1707,
    ",*": 17470,
    "Ġsickened": 16774,
    "ivot": 11715,
    "Ġsalmon": 24061,
    "Ġ93": 24592,
    "Ġmourn": 8703,
    "Ġsuspense": 9416,
    "Ġforebodings": 17302,
    "self": 617,
    "ories": 4753,
    "poss": 4778,
    "Ġjoined": 4565,
    "Ġbands": 14882,
    "Ġworrying": 22925,
    "Ġlaudanum": 20689,
    "Ġhighland": 18712,
    "Ġafric": 8902,
    "recl": 15508,
    "Ġpeaceful": 9454,
    "bab": 11467,
    "Ġagrees": 22514,
    "ext": 914,
    "barbar": 20237,
    "half": 4931,
    "Ġacquirement": 19254,
    "Ġsupplied": 8942,
    "ned": 3491,
    "Ġpupils": 20419,
    "sweet": 8685,
    "Ġfabulous": 25948,
    "Ý": 158,
    "Ġcap": 2364,
    "untary": 9865,
    "calculation": 25688,
    "Ġassistants": 9450,
    "razor": 21635,
    "Ġhark": 8428,
    "lamp": 9607,
    "Ġcents": 17828,
    "Ġadmires": 19684,
    "twilight": 23701,
    "Ġproceeds": 12074,
    "Ġresentment": 7530,
    "Ġundulated": 19515,
    "iarity": 8743,
    "vid": 916,
    "Þ": 159,
    "Ġessentially": 24924,
    "Ġhundred": 2693,
    "Ġperf": 12846,
    "alously": 15625,
    "fulfil": 16034,
    "vell": 3961,
    "Ġwhe": 439,
    "Ġlikeness": 11178,
    "Ġwad": 13849,
    "Ġdenoted": 16564,
    "pooh": 18798,
    "Ġrestraint": 15125,
    "gno": 13725,
    "Ġheavenly": 12081,
    "Ġliterally": 15114,
    "ctor": 13958,
    "Ġlanding": 11981,
    "Ġsuperlative": 26074,
    "Ġfors": 21769,
    "magnitude": 17247,
    "Ġporthole": 24398,
    "Ġquit": 5246,
    "induce": 22372,
    "tri": 11528,
    "etymology": 14699,
    "ell": 398,
    "later": 20952,
    "initely": 7568,
    "Ġshudder": 9049,
    "ĠdÃ¦mon": 7845,
    "Ġlambton": 10656,
    "Ġchinese": 14182,
    "Ġherself": 1568,
    "wants": 21129,
    "Ġversion": 10628,
    "leisure": 21369,
    "Ġnavy": 14914,
    "veil": 18042,
    "Ġinstinctively": 13457,
    "Ġbern": 17858,
    "Ġintense": 6157,
    "Ġplied": 22596,
    "Ġseventy": 7881,
    "Ġwrenched": 12554,
    "uine": 13797,
    "Ġupset": 22151,
    "ortations": 22255,
    "keen": 12778,
    "neglect": 25667,
    "archbishop": 22890,
    "Ġprop": 1685,
    "antage": 3881,
    "xic": 9144,
    "Ġlovers": 9718,
    "Ġoptimize": 1590,
    "feelings": 5674,
    "setting": 13283,
    "Ġintervene": 25480,
    "ac": 742,
    "Ġmechan": 1174,
    "Ġnewcastle": 16220,
    "Ġstifle": 18073,
    "Ġrichest": 26211,
    "Ġunspeak": 8849,
    "nevertheless": 8286,
    "chest": 11207,
    "Ġembra": 6578,
    "Ġwaldman": 11344,
    "Ġcontented": 9754,
    "mansion": 20982,
    "Ġclung": 10957,
    "Ġsexes": 25168,
    "orum": 12586,
    "iful": 2883,
    "Ġmischief": 8540,
    "atters": 18492,
    "Ġnibbling": 17383,
    "Ġyielded": 14870,
    "Ġrev": 6988,
    "chant": 4261,
    "Ġmixture": 9561,
    "ario": 14246,
    "ruded": 15896,
    "Ġdreamy": 14701,
    "Ġdesc": 773,
    "Ġchagrin": 20606,
    "trad": 21075,
    "furthest": 19840,
    "Ġtren": 17720,
    "learned": 8601,
    "fortun": 3538,
    "Ġ121": 24465,
    "Ġarchly": 22778,
    "aping": 8194,
    "Ġpulverize": 23391,
    "Ġcheerfully": 12131,
    "Ç": 136,
    "Ġdecoyed": 18484,
    "Ġtwilight": 16118,
    "Ġbenchmarks": 15020,
    "Ġreus": 8820,
    "Ġlatitude": 8329,
    "iating": 3205,
    "accountable": 7109,
    "pent": 3492,
    "gaining": 20122,
    "Ġimpartial": 15217,
    "Ġlanguor": 12844,
    "Ġexclusion": 19394,
    "Ġineffable": 17330,
    "Ġattractive": 25575,
    "Ġeffectually": 16164,
    "terdam": 18129,
    "Ġmusky": 19380,
    "Ġarrow": 10930,
    "Ġfacing": 10170,
    "atches": 13844,
    "§": 105,
    "Ġfalsehood": 10522,
    "Ġborders": 15568,
    "Ġforgiveness": 16655,
    "Ġskulls": 12955,
    "Ġutility": 23511,
    "Ġentry": 11025,
    "Ġchocks": 13343,
    "Ġrepute": 18034,
    "Ġdecanting": 22436,
    "Ġlaborious": 13101,
    "Ġdrab": 13068,
    "Ġcrossing": 7253,
    "uded": 6286,
    "Ġmeal": 9695,
    "Ġsensit": 2946,
    "Ġthrill": 24540,
    "merely": 16133,
    "key": 5462,
    "Ġcautiously": 16976,
    "Ġbulkhead": 24507,
    "greg": 6647,
    "Ġrelations": 5852,
    "Ġfix": 2508,
    "Ġspin": 7629,
    "prop": 1022,
    "atmosphere": 21263,
    "attentive": 17188,
    "Ġbarely": 16935,
    "onds": 12992,
    "Ġincensed": 18571,
    "Ġcomprise": 18585,
    "Ġtack": 5620,
    "stra": 4048,
    "orers": 14101,
    "Ġchildhood": 13136,
    "icial": 12651,
    "Ġquantity": 6948,
    "hus": 5072,
    "author": 9858,
    "Ġbrah": 19355,
    "Ġprovide": 7750,
    "Ġswears": 16462,
    "rule": 15893,
    "Ġfonder": 17880,
    "ached": 2321,
    "Ġsympathising": 24296,
    "Ġapolog": 9042,
    "ken": 2802,
    "Ġslumbering": 25701,
    "Ġembedding": 2102,
    "Ġtimor": 24223,
    "Ġfearfully": 23509,
    "Ġfest": 10803,
    "Ġrecital": 16142,
    "Ġspoke": 2747,
    "Ġaffinity": 18787,
    "Ġcircumstances": 3928,
    "dock": 16416,
    "cular": 15326,
    "ĠĠĠĠĠĠĠĠĠĠĠĠĠĠĠĠĠĠĠĠĠĠĠĠĠĠĠĠĠĠĠĠĠĠĠĠ": 23665,
    "Ġreligion": 11414,
    "Ġgrowl": 16536,
    "Ġparticular": 2448,
    "Ġpallor": 13514,
    "Ġwandering": 8653,
    "warmest": 25027,
    "instruct": 19541,
    "distinguish": 19571,
    "Ġpresents": 8245,
    "Ġbuying": 23993,
    "rud": 4195,
    "antic": 1608,
    "exactly": 10635,
    "Ġpeddling": 24799,
    "precise": 19349,
    "Ġcynical": 25770,
    "nlp": 8750,
    "Ġdownstream": 3777,
    "Ġacceptable": 16743,
    "Ġhitherto": 5880,
    "Ġtransformer": 2636,
    "Ġfatality": 12091,
    "Ġprender": 22233,
    "Ġpref": 14170,
    "ause": 1311,
    "Ġuncovered": 23430,
    "Ġwilt": 9642,
    "taught": 17683,
    "Ġoptimizer": 5035,
    "Ġcott": 3710,
    "Ġxxxi": 24968,
    "simple": 13450,
    "Ġdevelopment": 7057,
    "Ġentic": 16143,
    "Ġledgers": 23935,
    "Ġgrunt": 18735,
    "mistake": 24528,
    "Ġmem": 2069,
    "Ġmomentary": 11035,
    "felix": 10652,
    "Ġidler": 16402,
    "Ġlust": 9196,
    "Ġprefer": 6416,
    "Ġobject": 1395,
    "Ġrecesses": 17259,
    "rate": 2423,
    "Ġwhenever": 5166,
    "Ġconsulting": 13427,
    "offic": 7466,
    "lanterns": 17427,
    "sure": 5522,
    "Ġchag": 15928,
    "athan": 2958,
    "Ġdried": 7367,
    "Ġdeg": 3280,
    "behaviour": 11300,
    "Ġagonising": 25373,
    "guest": 19480,
    "Ġturbulence": 26596,
    "Ġsky": 3972,
    "Ġretains": 20028,
    "swe": 5996,
    "Ġtyph": 10006,
    "Ġbeats": 21750,
    "hotel": 20048,
    "Ġferguson": 17468,
    "Ġhovel": 8254,
    "Ġspind": 18307,
    "vices": 21115,
    "Ġpag": 6011,
    "Ġfugitives": 25634,
    "Ġphase": 14469,
    "|": 96,
    "Ġbridal": 14952,
    "Ġpulpit": 7470,
    "Ġdives": 17890,
    "Ġke": 1156,
    "Ġwilled": 21290,
    "ĠâĢľ": 517,
    "Ġlangu": 575,
    "interchange": 23737,
    "vari": 1517,
    "ff": 462,
    "Ġhoary": 23353,
    "Ġdel": 1618,
    "hers": 7635,
    "Ġsafe": 5103,
    "Ġcommunic": 5751,
    "chamber": 13623,
    "mot": 17595,
    "Ġchewing": 23283,
    "Ġfailing": 12134,
    "Ġclergyman": 8711,
    "Ġcreature": 2385,
    "plicable": 10254,
    "Ġheaps": 11640,
    "kitchen": 17584,
    "ulls": 8836,
    "Ġdiscomposed": 25580,
    "roads": 17957,
    "leaped": 17843,
    "Ġyoungest": 7954,
    "Ġxli": 14541,
    "semic": 21818,
    "Ġplumage": 17296,
    "Ġsnows": 14724,
    "Ġrequested": 14302,
    "Ġdrawback": 23987,
    "opposite": 19928,
    "Ġpennies": 17269,
    "vel": 2386,
    "Ġsetting": 7046,
    "Ġdisposing": 19373,
    "oors": 17619,
    "Ġdefile": 18823,
    "party": 8991,
    "Ġthoroughfares": 26095,
    "ton": 1727,
    "string": 15682,
    "Ġsharpened": 17363,
    "calcul": 12983,
    "Ġconclude": 8580,
    "specific": 10496,
    "Ġhand": 857,
    "Ġeducated": 16784,
    "Ġcruising": 6913,
    "Ġscru": 8190,
    "county": 25396,
    "Ġbestowed": 6593,
    "Ġratt": 7882,
    "ro": 301,
    "Ġleagues": 9222,
    "tawn": 21079,
    "Ġcommercial": 22672,
    "Ġdisinclined": 22527,
    "Ġenough": 1761,
    "ampton": 18144,
    "shock": 19854,
    "Ġaffirm": 11884,
    "Ġstabbing": 20302,
    "Ġnay": 5711,
    "Ġtattooing": 15026,
    "Ġpertaining": 18451,
    "Ġliv": 6679,
    "inese": 12876,
    "Ġconstruction": 9383,
    "ifer": 11682,
    "Ġagreeing": 20017,
    "¤": 102,
    "Ġbrix": 12579,
    "ascended": 24706,
    "Ġsleeping": 6319,
    "Ġwhiskers": 10491,
    "Ġtackle": 9511,
    "Ġaffront": 18788,
    "awake": 14450,
    "Ġpam": 21453,
    "Ġdesisted": 22973,
    "herent": 2529,
    "Ġlearned": 2024,
    "worse": 14689,
    "cat": 15322,
    "Ġinterests": 14568,
    "Ġcall": 2074,
    "Ġmagnificent": 9840,
    "Ġsandwic": 24664,
    "arthly": 8030,
    "Ġmostly": 7664,
    "Ġtransition": 14241,
    "Ġstirring": 10578,
    "Ġprincely": 24147,
    "squall": 13520,
    "inous": 8771,
    "considering": 12171,
    "Ġreduced": 11921,
    "Ġhil": 10820,
    "Ġspend": 5304,
    "Ġdict": 9174,
    "butt": 15991,
    "commod": 16167,
    "Ġalluded": 7886,
    "Ġtass": 15467,
    "Ġsounded": 8590,
    "onings": 21251,
    "sharks": 14236,
    "Ġdenomin": 12064,
    "Ġparted": 5929,
    "Ġautonomous": 10674,
    "Ġfearlessness": 19160,
    "treas": 17678,
    "leap": 21365,
    "Ġexceptional": 19369,
    "ority": 8418,
    "Ġbloodthirsty": 26600,
    "Ġanticipating": 17057,
    "shoulder": 16582,
    "Ġtorrents": 20054,
    "meet": 11854,
    "sens": 8096,
    "Ġinside": 5448,
    "Ġuninjured": 22054,
    "stays": 15685,
    "befall": 22493,
    "Ġchall": 10943,
    "Ġthistle": 21914,
    "Ġnocturnal": 20714,
    "Ġattempt": 3486,
    "Ġnephew": 6404,
    "Ġune": 4599,
    "ê": 171,
    "Ġtakings": 20571,
    "Ġoutright": 18412,
    "Ġcruc": 16533,
    "acks": 11785,
    "Ġunusually": 15843,
    "Ġbatt": 13897,
    "Ġbackwards": 12921,
    "Ġrelinqu": 12979,
    "lost": 8886,
    "Ġbod": 4582,
    "Ġunlock": 18243,
    "Ġunassuming": 20507,
    "apothe": 22332,
    "Ġmagnitudes": 3823,
    "Ġman": 543,
    "Ġdivers": 9664,
    "gallery": 24693,
    "entary": 21565,
    "bub": 15314,
    "Ġdwelt": 12601,
    "Ġlower": 2661,
    "unders": 13308,
    "ire": 492,
    "brandy": 19200,
    "Ġprodigies": 19792,
    "Ġrigid": 16715,
    "Ġenters": 11024,
    "aches": 6570,
    "sixty": 24852,
    "Ġbye": 12734,
    "Ġreddening": 25970,
    "ull": 1433,
    "Ġharbor": 10025,
    "Ġharvard": 24572,
    "Ġcomposition": 1691,
    "intervals": 10636,
    "Ġexponentially": 1444,
    "Ġsubst": 4276,
    "henomena": 20271,
    "Ġfurnishes": 19439,
    "Ġdad": 12596,
    ".)": 6783,
    "Ġexordium": 26491,
    "ounder": 11741,
    "scr": 16239,
    "Ġbumpkin": 20199,
    "stige": 21659,
    "Ġvoyage": 3053,
    "Ġinequal": 21495,
    "grew": 17554,
    "izers": 18142,
    "Ġendeav": 2956,
    "falgar": 26130,
    "Ġslee": 8973,
    "**": 4686,
    "shadows": 25479,
    "Ġpursuits": 12073,
    "Ġthoughtless": 16190,
    "Ġcet": 6669,
    "Ġsuspected": 9061,
    "Ġspell": 8854,
    "Ġacquaintance": 4137,
    "belt": 24032,
    "bare": 12438,
    "Ġhysterical": 26092,
    "gre": 5788,
    "Ġimperson": 14216,
    "Ġstigma": 25791,
    "fitters": 24761,
    "Ġdeceit": 13479,
    "preced": 10307,
    "Ġsimilarly": 24307,
    "red": 396,
    "isbury": 21375,
    "Ġrueful": 25581,
    "ientific": 6547,
    "Ġglim": 9342,
    "ĠĠĠĠĠĠĠĠĠĠĠĠĠĠĠĠĠĠĠĠĠĠ": 16224,
    "Ġdisappoint": 24204,
    "Ġeighteen": 11238,
    "kington": 11202,
    "nect": 663,
    "Ġsince": 1794,
    "Ġsermons": 20193,
    "Ġbrightness": 16575,
    "Ġmounted": 7833,
    "Ġresting": 7962,
    "Ġporing": 21466,
    "impossible": 8822,
    "Ġwitty": 21291,
    "silence": 8045,
    "Ġhourly": 23299,
    "Ġcalculate": 13262,
    "Ġwhalebone": 10976,
    "Ġrever": 6536,
    "Ġhands": 1666,
    "84": 15299,
    "Ġirre": 7468,
    "ators": 7830,
    "Ġattract": 11832,
    "âĢĿ": 354,
    "ume": 4835,
    "Ġhappened": 3715,
    "Ġcreditor": 24289,
    "Ġmaintain": 855,
    "Ġpossessed": 5195,
    "upon": 2721,
    "Ġconcentration": 25062,
    "Ġpasses": 2677,
    "itig": 1332,
    "Ġpers": 1393,
    "hatchet": 24822,
    "undoubtedly": 13309,
    "moil": 22701,
    "pain": 7350,
    "uling": 2256,
    "Ġforgive": 8010,
    "Ġcourses": 10410,
    "Ġbedside": 19121,
    "Ġglories": 16238,
    "urred": 8449,
    "leaving": 10790,
    "blame": 14792,
    "Ġguar": 23044,
    "Ġherbage": 25996,
    "Ġwhereupon": 14292,
    "Ġback": 806,
    "idity": 8829,
    "cence": 9587,
    "eliest": 14744,
    "Ġchains": 8251,
    "Ġindoors": 18836,
    "east": 9114,
    "perpendicular": 14163,
    "Ġboister": 12915,
    "Ġenthusiastic": 19964,
    "Ġherds": 9714,
    "Ġchronicle": 20227,
    "Ġturbid": 23610,
    "isson": 23460,
    "Ġxavier": 2856,
    "inguished": 6598,
    "sor": 7352,
    "fere": 10987,
    "Ġwhiteness": 5919,
    "Ġwheeled": 14137,
    "response": 25762,
    "Ġdissatisfied": 14255,
    "Ġsource": 6805,
    "elihood": 4623,
    "Ġdegrees": 7294,
    "heaven": 8053,
    "unbounded": 21883,
    "Ġmuch": 923,
    "Ġspikes": 22134,
    "igning": 12677,
    "used": 3259,
    "Ġassid": 18944,
    "goin": 23401,
    "Ġimmeas": 18330,
    "arded": 5029,
    "wonders": 17142,
    "embarr": 15795,
    "Ġ1820": 25718,
    "Ġfaithfulness": 24445,
    "boil": 18999,
    "Ġswashing": 23055,
    "Ġrespectively": 23247,
    "Ġneg": 1333,
    "Ġmatrimonial": 25489,
    "Ġinvaluable": 10181,
    "Ġencompassed": 15251,
    "Ġflourish": 17159,
    "Ġregretted": 13398,
    "ifling": 15779,
    "suddenly": 6493,
    "Ġdive": 10171,
    "Ġfireside": 23528,
    "aurus": 20559,
    "Ġinspecting": 24614,
    "inburgh": 15488,
    "oky": 8198,
    "Ġvii": 13106,
    "Ġhowled": 12851,
    "Ġrapt": 7224,
    "removing": 17763,
    "Ġcontribut": 12855,
    "Ġgrasshopper": 24379,
    "espe": 3497,
    "Ġsymb": 2592,
    "pleasures": 24043,
    "Ġwaning": 15531,
    "Ġentrapped": 26262,
    "Ġethiop": 26155,
    "Ġbloss": 19255,
    "violently": 23541,
    "Ġfrankenstein": 7095,
    "Ġsplendidly": 25327,
    "bennet": 5352,
    "Ġviewing": 19263,
    "Ġdrawings": 14720,
    "Ġwicked": 5961,
    "throne": 25657,
    "Ġprofit": 14584,
    "istrate": 7406,
    "constit": 24605,
    "honest": 17002,
    "Ġcrimin": 6901,
    "Ġsurrounds": 24230,
    "Ġearned": 19403,
    "Ġamong": 1670,
    "ativeness": 15518,
    "Ġpreference": 9731,
    "Ġevap": 19622,
    "plac": 15813,
    "jackets": 24895,
    "Ġw": 272,
    "Ġhinted": 6012,
    "emberley": 4175,
    "Ġsteered": 11091,
    "fortune": 4975,
    "Ġdetested": 14173,
    "Ġdefinite": 11068,
    "Ġprophecy": 25706,
    "Ġpromontory": 11938,
    "Ġbelrive": 18830,
    "Ġmadden": 10446,
    "Ġmari": 6813,
    "ingale": 21298,
    "Ġwalton": 14970,
    "Ġwintry": 17432,
    "Ġinterpre": 1592,
    "ĠcÃ¦sar": 20578,
    "Ġlodge": 5779,
    "Ġowen": 15092,
    "Ġwide": 4111,
    "headsman": 16699,
    "arthur": 14828,
    "Ġdang": 9173,
    "suited": 22646,
    "Ġundaunted": 24119,
    "untarily": 6312,
    "Ġweeps": 24947,
    "Ġapparition": 8067,
    "except": 5383,
    "mark": 5281,
    "Ġaccurately": 3776,
    "Ġignited": 25069,
    "lect": 1224,
    "neighbouring": 19962,
    "Ġendeavour": 4678,
    "Ġ235": 25713,
    "almost": 4943,
    "Ġbrooding": 18907,
    "judging": 24200,
    "Ġinvented": 17036,
    "Ġ97": 19773,
    "Ġcont": 619,
    "Ġentered": 2847,
    "Ġnewcomer": 26040,
    "Ġcondemned": 7779,
    "Ġas": 374,
    "Ġforbearance": 12325,
    "ipagos": 22355,
    "Ġunfavourable": 17415,
    "Ġdom": 2686,
    "Ġfeathers": 15117,
    "Ġem": 1922,
    "Ġdeliver": 9845,
    "suffer": 24333,
    "yes": 983,
    "Ġpeasants": 12329,
    "laborers": 23913,
    "Ġjoking": 12833,
    "Ġevol": 2815,
    "Ġcountess": 11961,
    "Ġspy": 22121,
    "Ġpainfully": 13140,
    "ap": 546,
    "paradise": 20635,
    "Ġordin": 16649,
    "Ġheidelburgh": 11641,
    "Ġmason": 10156,
    "nament": 11505,
    "Ġkuiperai": 10934,
    "Ġstrikes": 13179,
    "flakes": 23965,
    "Ġkind": 1784,
    "onden": 13842,
    "Ġpocket": 4898,
    "ipher": 18426,
    "istic": 973,
    "Ġhaggard": 17328,
    "Ġprejudice": 9074,
    "relu": 17758,
    "Ġcompos": 22567,
    "Ġnoise": 1069,
    "Ġbo": 797,
    "prepared": 13588,
    "Ġapprobation": 10984,
    "Ġopp": 2697,
    "discoloured": 23496,
    "Ġdiction": 8793,
    "Ġkeener": 22913,
    "meditated": 19067,
    "Ġinfants": 16361,
    "Ġpeered": 18668,
    "Ġscan": 22263,
    "Ġcommunications": 16352,
    "ator": 1921,
    "presbyterian": 26368,
    "Ġwitt": 17783,
    "Ġdoubtful": 19141,
    "Ġver": 3393,
    "Ġemper": 9859,
    "Ġundoubted": 19513,
    "Ġproperties": 3116,
    "asets": 2309,
    "Ġindelicacy": 25695,
    "Ġforbade": 15212,
    "bro": 4037,
    "Ġafford": 4369,
    "Ġsoliloquized": 17300,
    "lift": 15382,
    "motion": 17605,
    "Ġeleg": 6192,
    "Ġbalances": 2339,
    "Ġpy": 21450,
    "Ġfortunately": 12176,
    "seam": 10873,
    "flesh": 13488,
    "Ġthre": 2059,
    "Ġsquat": 14366,
    "pred": 2803,
    "Ġirritation": 20265,
    "dispositions": 25011,
    "Ġhandles": 22693,
    "Ġcommod": 10332,
    "vanished": 15061,
    "Ġslim": 18936,
    "definition": 23116,
    "Ġn": 300,
    "Ġslip": 8953,
    "erate": 7149,
    "my": 1315,
    "Ġcurling": 9341,
    "Ġimmediate": 6090,
    "Ġringle": 18210,
    "Ġmail": 17800,
    "Ġstuffed": 13407,
    "produced": 25414,
    "Ġyour": 633,
    "pleasant": 5874,
    "Ġhotels": 19535,
    "Ġinhabited": 12182,
    "Ġhampshire": 15240,
    "Ġbequest": 21751,
    "Ġkill": 4456,
    "ges": 2875,
    "Ġspect": 3551,
    "ues": 2079,
    "killed": 15374,
    "Ġnerves": 2627,
    "Ġdiscernment": 15053,
    "Ġbub": 8118,
    "ian": 1239,
    "Ġlowering": 7987,
    "sively": 13784,
    "wreat": 21126,
    "Ġspared": 7894,
    "Ġrav": 14300,
    "Ġdownward": 10330,
    "fate": 17538,
    "apped": 5395,
    "è": 169,
    "mand": 3897,
    "anks": 3919,
    "crack": 19839,
    "Ġgrind": 18734,
    "symp": 14611,
    "rowsers": 8694,
    "Ġmalady": 24391,
    "dragging": 16608,
    "Ġappellation": 22217,
    "Ġlightly": 13081,
    "Ġromans": 16758,
    "Ġfreezing": 23880,
    "Ġemerging": 24613,
    "Ġpod": 15600,
    "Ġselecting": 16683,
    "Ġfills": 12590,
    "Ġhieroglyphic": 25587,
    "oters": 21797,
    "plenty": 14086,
    "Ġsensitive": 13197,
    "Ġwaifing": 25243,
    "emin": 8470,
    "Ġthanked": 9457,
    "ittleness": 22374,
    "Ġloop": 14145,
    "floor": 14934,
    "ertain": 1207,
    "addition": 13382,
    "Ġresearches": 13126,
    "Ġgates": 10199,
    "throwing": 11700,
    "....": 11315,
    "âĢľ_": 5720,
    "Ġwe": 387,
    "Ġloses": 15870,
    "tt": 13788,
    "Ġprocess": 570,
    "Ġmolasses": 25628,
    "Ġcucumber": 21354,
    "ouring": 6420,
    "expound": 23662,
    "abriel": 6950,
    "Ġtuileries": 24826,
    "Ġbeech": 18082,
    "Ġgo": 613,
    "murderers": 25728,
    "Ġchiselled": 25559,
    "ake": 749,
    "savor": 25024,
    "Ġspace": 1503,
    "pth": 2383,
    "headers": 23107,
    "distinct": 13333,
    "Ġemblazonings": 26042,
    "Ġdirty": 9177,
    "Ġpersonally": 8598,
    "bantering": 25253,
    "Ġglossy": 15225,
    "fields": 14652,
    "em": 391,
    "Ġsnarl": 25715,
    "pre": 649,
    "Ġominous": 12421,
    "woman": 5899,
    "Ã¦us": 14815,
    "precision": 4334,
    "immediate": 20092,
    "threaten": 25461,
    "Ġbitten": 21388,
    "Ġfeather": 8858,
    "Ġphaeton": 17463,
    "Ġstraining": 11326,
    "stood": 4119,
    "Ġscream": 5935,
    "despond": 19799,
    "mes": 1197,
    "Ġspitz": 14147,
    "Ġremonstrate": 22792,
    "Ġrepe": 3279,
    "verize": 21726,
    "Ġfoundering": 21418,
    "Ġevents": 4474,
    "Ġfairly": 6325,
    "ensation": 22543,
    "shortened": 24748,
    "clean": 14759,
    "Ġerrone": 14428,
    "Ġstil": 15714,
    "Ġponderous": 8355,
    "Ġquivered": 18467,
    "Ġdisguise": 10044,
    "portuguese": 25413,
    "Ġgord": 21598,
    "oles": 21004,
    "beh": 5472,
    "âĢľâĢĺ": 1484,
    "Ġvectors": 1770,
    "inst": 4298,
    "Ġdrags": 16940,
    "Ġwrath": 16315,
    "Ġunerringly": 18265,
    "Ġdecipher": 22439,
    "Ġvishnoo": 12749,
    "Ġmiz": 10776,
    "heed": 15496,
    "Ġencoding": 4774,
    "successful": 11357,
    "Ġweakened": 16822,
    "Ġmons": 10155,
    "Ġtex": 15470,
    "Ġtinker": 15129,
    "Ġexpl": 487,
    "Ġtart": 12524,
    "grateful": 10427,
    "Ġtraced": 10382,
    "Ġhuzza": 12629,
    "Ġafter": 868,
    "Ġbiscuit": 12585,
    "Ġforce": 5092,
    "hammer": 14488,
    "Ġgloomily": 14799,
    "cially": 3489,
    "ĸ": 249,
    "Ġpreposterous": 13667,
    "among": 6256,
    "icting": 12848,
    "Ġgnawed": 25164,
    "Ġnursing": 12211,
    "Ġunimag": 12771,
    "Ġwhistle": 9065,
    "ody": 1478,
    "Ġsuccessfully": 19427,
    "Ġdusty": 14923,
    "Ġapprovingly": 26250,
    "Ġmischie": 22763,
    "Ġagrippa": 11804,
    "lop": 20947,
    "hib": 15365,
    "eling": 6681,
    "Ġsatisf": 2807,
    "Ġdignified": 15594,
    "rian": 10240,
    "Ġgenerations": 10963,
    "twist": 23700,
    "Ġinnocence": 6477,
    "Ġrushing": 7403,
    "Ġcetacean": 25878,
    "Ġausten": 5881,
    "advance": 12153,
    "sle": 9137,
    "Ġadvance": 5484,
    "ino": 15477,
    "tort": 17674,
    "Ġeclips": 20695,
    "attempts": 17189,
    "Ġelementary": 24814,
    "Ġsmelt": 16062,
    "Ġcomplex": 746,
    "Ġgrasp": 4664,
    "enced": 4299,
    "Ġassaults": 15154,
    "Ġbery": 13896,
    "Ġunprofitable": 18267,
    "Ġfo": 1653,
    "alo": 7587,
    "Ġter": 2051,
    "Ġpreserved": 9260,
    "Ġbeaks": 21753,
    "idually": 21767,
    "Ġanimate": 23421,
    "application": 12360,
    "Ġmu": 17795,
    "Ġsound": 2241,
    "Ġsmacking": 20164,
    "Ġnewspapers": 17185,
    "Ġelij": 8908,
    "Ġcane": 10928,
    "swift": 14850,
    "Ġbouton": 17868,
    "Ġcommence": 6167,
    "Ġprivacy": 19523,
    "Ġinsertion": 26343,
    "Ġremembering": 14609,
    "Ġvolition": 14796,
    "ti": 8390,
    "stretch": 13979,
    "Ġgret": 21599,
    "Ġ54": 24321,
    "im": 327,
    "Ġtatters": 21176,
    "itor": 12562,
    "have": 2058,
    "Ġspoken": 4836,
    "conf": 4957,
    "Ġbarriers": 23792,
    "Ġevidently": 6759,
    "Ġhop": 1459,
    "Ġcure": 21338,
    "Ġpractice": 2821,
    "Ġbehavior": 8002,
    "Ġuncivil": 11154,
    "ounds": 4161,
    "Ġwander": 9030,
    "Ġkelson": 18350,
    "Ġsayest": 22774,
    "quired": 21853,
    "Ġpoem": 22587,
    "Ġfrequently": 4680,
    "Ġcondescending": 24868,
    "uation": 17693,
    "Ġconsequent": 18110,
    "Ġbos": 4875,
    "succeeded": 15173,
    "Ġtepid": 26411,
    "Ġsab": 10761,
    "fooled": 24418,
    "Ġ114": 24437,
    "preference": 22460,
    "inlaid": 21189,
    "coach": 23558,
    "Ġam": 661,
    "Ġhistorically": 19376,
    "ren": 549,
    "Ġklan": 23661,
    "Ġrelating": 2705,
    "easily": 17533,
    "Ġclearing": 8240,
    "Ġawkward": 7073,
    "Ġduke": 7756,
    "Ġallowing": 2174,
    "embow": 21929,
    "Ġdissuade": 26256,
    "Ġsympt": 7012,
    "uncommonly": 25549,
    "âĢĻ": 378,
    "breaths": 25336,
    "Ġdisplaying": 16965,
    "Ġpequod": 2322,
    "Ġsequel": 14354,
    "Ġold": 1057,
    "Ġmizen": 17257,
    "Ġproclaim": 18132,
    "Ġglimpse": 6944,
    "div": 8076,
    "enjoyments": 25433,
    "ost": 5360,
    "Ġalleg": 14015,
    "Ġdisgust": 6705,
    "Ġdiscriminative": 4330,
    "ason": 1253,
    "affording": 23775,
    "Ġbesee": 19242,
    "Ġfelony": 18951,
    "fabulous": 20472,
    "Ġstunsail": 25543,
    "Ġmanor": 14195,
    "walton": 20248,
    "Ġlighten": 23258,
    "Ġtoler": 7588,
    "derest": 18314,
    "Ġgrapp": 14099,
    "umblings": 23927,
    "Ġpeering": 8534,
    "ĠĠĠĠĠĠĠĠĠĠĠĠĠĠĠĠĠĠĠĠĠĠĠĠĠĠĠĠĠĠĠĠĠĠĠĠĠĠ": 16524,
    "add": 5229,
    "Ġsuppression": 22998,
    "improve": 15708,
    "ob": 1422,
    "ining": 3221,
    "widows": 25344,
    "Ġretiring": 16277,
    "aint": 2542,
    "Ġneglect": 7942,
    "!âĢĶâĢĻ": 23563,
    "Ġlab": 1872,
    "Ġtable": 2499,
    "illar": 5101,
    "angles": 18295,
    "ohog": 9841,
    "Ġorder": 1689,
    "Ġhailed": 6407,
    "Ġcensus": 15094,
    "Ġernest": 8716,
    "retch": 4374,
    "ollen": 11297,
    "quiet": 6154,
    "Ġunhappiness": 14116,
    "Ġswords": 19896,
    "leagues": 21371,
    "Ġopal": 23625,
    "pil": 15406,
    "Ġwindpipe": 23104,
    "crossed": 16631,
    "Ġseveral": 2671,
    "injustice": 17736,
    "Ġkiller": 19567,
    "Ġmix": 7576,
    "Ġsurve": 9872,
    "©": 107,
    "Ġplus": 3886,
    "Ġoppressively": 25712,
    "Ġrespite": 13152,
    "pents": 11511,
    "apside": 22958,
    "Ġpeev": 22691,
    "Ġartfully": 22606,
    "Ġtumbled": 13404,
    "wished": 13803,
    "clusion": 16303,
    "bergs": 18682,
    "Ġsa": 473,
    "comput": 1952,
    "illa": 12789,
    "sho": 6425,
    "Ġheeded": 13401,
    "cul": 1899,
    "Ġlivelihood": 24774,
    "Ġbraided": 16580,
    "Ġunprotected": 22065,
    "planks": 21952,
    "Ġstre": 2106,
    "Ġcreep": 22723,
    "Ġswallows": 18881,
    "Ġodd": 6624,
    "velled": 9874,
    "Ġthomas": 17947,
    "Ġprotectors": 9069,
    "Ġshattered": 7885,
    "Ġwondrously": 24064,
    "Ġgentleness": 8709,
    "Ġhudson": 15189,
    "Ġoccasioned": 13224,
    "Ġknow": 631,
    "underneath": 23786,
    "Ġcracking": 14572,
    "Ġthrills": 24541,
    "ember": 1955,
    "alleging": 23022,
    "Ġregion": 2272,
    "Ġtongs": 9959,
    "Ġragged": 11839,
    "Ġunfelt": 24110,
    "Ġpavement": 9576,
    "Ġintricate": 15135,
    "Ġadaptively": 4368,
    "Ġused": 2060,
    "evid": 11483,
    "Ġpermit": 9747,
    "Ġdistressed": 8514,
    "rably": 21631,
    "adequately": 20318,
    "Ġlounging": 10020,
    "Ġarmed": 9258,
    "you": 1006,
    "Ġcolonel": 3406,
    "pun": 9616,
    "alled": 5911,
    "Ġsemblance": 20733,
    "Ġattitudes": 16096,
    "ivia": 22082,
    "gpt": 5355,
    "employ": 10894,
    "Ġillustrate": 25065,
    "Ġcurses": 13011,
    "endous": 6850,
    "Ġunman": 12770,
    "disreputable": 23501,
    "aire": 10679,
    "Ġdiversion": 17196,
    "Ġhimself": 1352,
    "):": 11460,
    "monkey": 19169,
    "Ġinferiority": 17114,
    "Ġmult": 1021,
    "Ġresulting": 24197,
    "Ġduchess": 4799,
    "etwork": 440,
    "Ġequal": 4139,
    "Ġlumber": 13950,
    "onies": 6806,
    "aurs": 20768,
    "Ġbattery": 21392,
    "fug": 17542,
    "Ġimpotently": 22388,
    "limin": 8384,
    "worship": 19385,
    "mbl": 5946,
    "!âĢĶ": 2453,
    "Ġaffright": 9330,
    "ele": 9113,
    "Ġniag": 21528,
    "Ġsqu": 1037,
    "doc": 23374,
    "Ġparmacetti": 20603,
    "Ġthousands": 6748,
    "shot": 2115,
    "whar": 15924,
    "brothers": 17023,
    "Ġspoon": 22132,
    "repressed": 21242,
    "Ġflesh": 5969,
    "Ġfoul": 7159,
    "ubbub": 23243,
    "Ġbowlines": 19321,
    "secondly": 16983,
    "Ġwithout": 1121,
    "Ġsatan": 14388,
    "Ġformality": 22828,
    "ries": 3352,
    "Ġdiscipline": 26560,
    "tranquillity": 20545,
    "Ġcustody": 13645,
    "pur": 7807,
    "Ġstudents": 23213,
    "Ġjingling": 26017,
    "ayed": 12708,
    "Ġobserv": 8586,
    "Ġveget": 11883,
    "Ġfettered": 24567,
    "ck": 436,
    "Ġ64": 24366,
    "Ġslugg": 15266,
    "holder": 13280,
    "Ġadding": 2404,
    "Ġprosecution": 12379,
    "indul": 22368,
    "backs": 9389,
    "irious": 15782,
    "Ġtamer": 24978,
    "acrity": 14277,
    "isturbed": 18297,
    "Ġrival": 10484,
    "Ġmartin": 25436,
    "io": 3803,
    "Ġsmallest": 6430,
    "Ġcapstan": 9097,
    "Ġsheaves": 22156,
    "Ġbreeding": 14521,
    "Ġbones": 4584,
    "Ġtract": 21164,
    "Ġassuming": 16692,
    "embraced": 25806,
    "Ġheiress": 20696,
    "Ġtumult": 7114,
    "Ġbadge": 16682,
    "Ġsocially": 22077,
    "Ġcoin": 9769,
    "Ġtiar": 21166,
    "?_âĢĿ": 12313,
    "Ġdeceive": 12718,
    "ffic": 22149,
    "Ġbitterness": 8025,
    "Ġoce": 3029,
    "Ġbreaking": 6310,
    "mble": 1408,
    "Ġdepended": 9775,
    "Ġflask": 3038,
    "corrupt": 14893,
    "Ġrepair": 11975,
    "uss": 8763,
    "Ġamazing": 9975,
    "atural": 936,
    "Ġgodly": 19078,
    "ract": 997,
    "Ġbunch": 11325,
    "Ġlapl": 19776,
    "Ġpillows": 24988,
    "Ġadded": 2716,
    "iii": 14773,
    "Ġlowerings": 23645,
    "Ġecc": 11626,
    "Ġunhappy": 5640,
    "Ġconvey": 9979,
    "iations": 11493,
    "renewed": 19703,
    "ban": 9583,
    "Ġwinds": 5746,
    "rosc": 17954,
    "Ġclout": 22342,
    "Ġasleep": 6836,
    "Ġundulations": 19514,
    "business": 5609,
    "Ġhigh": 931,
    "express": 4895,
    "Ġdetails": 6565,
    "Ġomit": 17815,
    "fthand": 26385,
    "humanity": 24839,
    "Ġsouth": 4911,
    "Ġworthless": 19564,
    "Ġcramped": 23527,
    "Ġfavourites": 16643,
    "ernally": 22610,
    "Ġtended": 21165,
    "Ġout": 541,
    "Ġflap": 14420,
    "Ġdistension": 22502,
    "9": 29,
    "miseries": 16756,
    "Ġhealth": 3906,
    "baggage": 24926,
    "fer": 1914,
    "Ġrepresents": 4902,
    "Ġpressure": 13420,
    "Ġpoisonous": 24887,
    "eral": 9158,
    "Ġvol": 4194,
    "invisible": 17739,
    "Ġjealousy": 13574,
    "Ġuns": 15833,
    "Ġlimping": 23544,
    "Ġasph": 21896,
    "Åĵuv": 15180,
    "Ċ": 203,
    "distressed": 24198,
    "proper": 7471,
    "Ġflashed": 11910,
    "Ġfist": 21402,
    "Ġguest": 7249,
    "Ġwipe": 25764,
    "Ġwager": 17792,
    "Ġinstead": 2791,
    "field": 3069,
    "Ġjobs": 24832,
    "rock": 15637,
    "Ġtick": 8109,
    "Ġfretfully": 25447,
    "saw": 5894,
    "Ġposition": 1953,
    "Ġbusy": 6189,
    "Ġarsacides": 17292,
    "Ġcheery": 16365,
    "Ġsuffoc": 18869,
    "Ġfringe": 17270,
    "ils": 3180,
    "Ġstun": 11648,
    "Ġchristians": 13306,
    "Ġarchy": 14345,
    "geese": 22365,
    "pon": 17624,
    "Ġreappearance": 21665,
    "Ġprendergast": 26536,
    "eminently": 25105,
    "Ġdanish": 21430,
    "Ġplanisp": 24056,
    "Ġexord": 21825,
    "Ġrhyme": 21976,
    "Ġteased": 18801,
    "Ġusage": 9729,
    "Ġconsiderable": 4009,
    "Ġcabinets": 23859,
    "cable": 20796,
    "youth": 11872,
    "westward": 25424,
    "Ġmounts": 17806,
    "Ġpaw": 12616,
    "Ġcounsel": 13613,
    "Ġstraggling": 23749,
    "Ġheaved": 9381,
    "Ġsixteen": 8283,
    "comfortably": 16874,
    "Ġsociable": 19401,
    "Ġminimax": 5858,
    "Ġhoriz": 4726,
    "wand": 10737,
    "Ġretired": 6071,
    "Ġbatch": 890,
    "osy": 11755,
    "Ġdefects": 12330,
    "att": 1455,
    "Ġhard": 1443,
    "Ġdust": 5909,
    "Ġcou": 5286,
    "Ġrepairing": 25589,
    "Ġathirst": 20597,
    "Ġdundee": 16996,
    "Ġburke": 19250,
    "Ġvouch": 15806,
    "Ġabrid": 22280,
    "behaved": 24462,
    "Ġscuttle": 7414,
    "Ġquestion": 2778,
    "Ġexempl": 21828,
    "Ġmasonry": 13597,
    "speps": 14332,
    "xi": 17709,
    "Ġelaborate": 18645,
    "iform": 2201,
    "N": 50,
    "amid": 12720,
    "ating": 665,
    "Ġopenly": 8572,
    "Ġprovides": 1927,
    "shine": 9286,
    "Ġeyelashes": 26106,
    "lotts": 23822,
    "Ġsalesman": 13666,
    "Ġsimilarity": 3166,
    "oundering": 11743,
    "Ġcommonly": 3263,
    "Ġstrata": 26027,
    "Ġaudience": 24769,
    "Ġanimal": 2498,
    "Ġleather": 7606,
    "Ġinsincere": 26598,
    "Ġcoinc": 11000,
    "Ġtread": 9407,
    "nantucketer": 24974,
    "Ġlob": 7627,
    "Ġsine": 10762,
    "Ġabused": 22277,
    "Ġcatching": 9476,
    "Ġconvul": 13201,
    "Ġvague": 6406,
    "cannon": 22960,
    "emph": 21926,
    "Ġfoam": 6891,
    "Ġadler": 8174,
    "Ġscrutiny": 26015,
    "Ġsink": 4343,
    "Ġpurchasing": 19874,
    "thought": 3850,
    "dred": 2527,
    "rad": 2255,
    "recognised": 15260,
    "Ġerrors": 2597,
    "freighted": 14890,
    "Ġexhibiting": 19837,
    "Ġconstitutional": 25125,
    "itates": 13867,
    "centre": 17086,
    "Ġlogits": 3451,
    "positive": 20566,
    "hurst": 19878,
    "vate": 21108,
    "blending": 24128,
    "Ġopine": 19227,
    "Ġgroans": 14822,
    "Ġpedest": 14994,
    "Ġstaid": 21733,
    "Ġcanted": 17831,
    "spouting": 25002,
    "Ġindisp": 18834,
    "ver": 331,
    "concealed": 25115,
    "Ġcolonies": 14373,
    "Ġbounds": 9916,
    "ivery": 17571,
    "Ġanonym": 17897,
    "Ġclair": 6268,
    "humor": 19450,
    "itying": 21992,
    "emic": 18184,
    "ato": 17768,
    "Ġindicate": 23721,
    "extrem": 18699,
    "Ġlistened": 4471,
    "Ġappet": 9728,
    "thanking": 24329,
    "distinguished": 10525,
    "boxes": 16887,
    "absolute": 17121,
    "ately": 1664,
    "Ġintrodu": 1923,
    "Ġcircumnavigation": 20398,
    "entirely": 7782,
    "libra": 22923,
    "Ġassures": 14464,
    "dles": 11479,
    "Ġrag": 18631,
    "Ġprosecut": 9698,
    "Ġwrongfully": 24247,
    "ashions": 16415,
    "Ġprophetic": 20018,
    "Ġlavenza": 17970,
    "Ġlance": 4879,
    "Ġobey": 9517,
    "Ġrelieved": 7666,
    "ider": 21763,
    "Ġcompany": 3723,
    "Ġbeque": 18080,
    "Ġevenly": 4133,
    "children": 9054,
    "oquent": 12496,
    "Ġjerking": 12242,
    "Ġqualifications": 24675,
    "Ġrummaged": 16909,
    "Ġrejoicing": 13419,
    "Ġ12": 5483,
    "Ġsagacity": 16973,
    "confirm": 16806,
    "erpillar": 5797,
    "withstanding": 8944,
    "Ġhastening": 19335,
    "Ġstur": 15713,
    "eth": 623,
    "Ġsouthern": 7689,
    "Ġerror": 1765,
    "ropout": 1321,
    "Ġanatomy": 12317,
    "Ġdeplored": 20503,
    "Ġfable": 15573,
    "Ġjavelins": 26105,
    "ric": 1378,
    "Ġsit": 4220,
    "tumultuously": 25613,
    "Ġsickness": 10537,
    "Ġde": 363,
    "arling": 10813,
    "igan": 21697,
    "Ġunprincipled": 20707,
    "Ġseverest": 14089,
    "Ġdecidedly": 9507,
    "isite": 15559,
    "Ġgoble": 14228,
    "Ġflight": 6580,
    "Ġbind": 12578,
    "Ġaggreg": 12880,
    "testing": 12513,
    "_.âĢĶ": 23471,
    "fatig": 17088,
    "Ġadvis": 9808,
    "Ġtraitors": 23077,
    "Ġloth": 17965,
    "Ġclutch": 15052,
    "Ġmarchant": 14784,
    "Ġtolerably": 8068,
    "Ġjonas": 20608,
    "occ": 4486,
    "Ġblotted": 20216,
    "Ġlaure": 16908,
    "isticated": 1570,
    "hidden": 17369,
    "Ġheavens": 5050,
    "proof": 16421,
    "Ġdivin": 13271,
    "Ġexcite": 11963,
    "Ġcr": 2151,
    "Ġmansion": 17809,
    "Ġfrenz": 25446,
    "Ġbreach": 11970,
    "Ġunlabeled": 3801,
    "Ġteneriffe": 26413,
    "Ġdisorder": 16047,
    "hog": 8380,
    "Ġhanover": 20584,
    "Ġbiggest": 24565,
    "ird": 2428,
    "ethics": 8877,
    "rmsprop": 4523,
    "believed": 9931,
    "clim": 18929,
    "Ġbattalions": 25776,
    "Ġtranquill": 6630,
    "Ġundertone": 23240,
    "ict": 590,
    "Ġornamented": 20360,
    "Ġdick": 3496,
    "Ġunpardonable": 22060,
    "across": 10323,
    "sometimes": 5972,
    "Ġswamp": 14435,
    "Ġclanking": 20610,
    "Ġpest": 13911,
    "asional": 17959,
    "Ġepit": 18006,
    "Ġpoints": 5248,
    "scale": 3534,
    "Ġpulled": 5660,
    "Ġcirc": 1986,
    "useness": 22290,
    "course": 6104,
    "Ġhorizontally": 17011,
    "Ġgrievances": 20647,
    "Ġaffidav": 18789,
    "cellar": 20276,
    "rel": 3756,
    "ipl": 20917,
    "high": 6649,
    "Ġfog": 9660,
    "Ġungovernable": 20708,
    "Ġthirdly": 24142,
    "Ġbun": 6007,
    "Ġtranslations": 12049,
    "ibility": 2391,
    "Ġhitting": 21485,
    "Ġencomp": 12959,
    "Ġrepast": 16408,
    "Ġstarbuck": 2195,
    "Ġspeed": 2447,
    "Ġpunctually": 17137,
    "Ġrepaired": 13105,
    "cement": 2932,
    "Ġveritable": 19379,
    "Ġstarlight": 24627,
    "Ġarticulated": 24432,
    "arrested": 15597,
    "Ġnew": 1195,
    "Ġhilarious": 20297,
    "tawny": 26403,
    "Ġripe": 13233,
    "crimson": 24099,
    "Ġdough": 8421,
    "Ġleaned": 7607,
    "/`": 12426,
    "Ġseasons": 9429,
    "Ġlazily": 11379,
    "Ġtried": 3648,
    "Ġstrangely": 5677,
    "Ġwhales": 1827,
    "Ġfunny": 7637,
    "Ġdetailed": 12820,
    "Ġmount": 7362,
    "Ġclub": 8872,
    "Ġsent": 1774,
    "Ġ60": 14873,
    "ivial": 15859,
    "Ġslammed": 20446,
    "ians": 2361,
    "eringly": 23001,
    "Ġ182": 13235,
    "Ġextremities": 19195,
    "v": 90,
    "Ġinexperienced": 26100,
    "Ġsquad": 22834,
    "Ġmetaphysical": 26070,
    "twig": 23698,
    "Ġnailed": 10188,
    "Ġnum": 1349,
    "Ġepisode": 26346,
    "Ġthrow": 3785,
    "onstr": 12542,
    "list": 7551,
    "Ġcross": 1375,
    "Ġrifts": 21973,
    "tooth": 18579,
    "kov": 17585,
    "Ġenvelopes": 24506,
    "asion": 5714,
    "Ġemotions": 8968,
    "gan": 2199,
    "Ġdines": 21422,
    "Ġcopy": 10162,
    "rimshander": 20656,
    "aswag": 21544,
    "lun": 20945,
    "Ġunhe": 22008,
    "Ġinjustice": 9189,
    "anx": 8782,
    "Ġadequate": 20307,
    "Ġungover": 18255,
    "Ġeffeminacy": 20717,
    "Ġdevoured": 16131,
    "Ġscreamed": 9522,
    "Ġsupers": 18280,
    "Ġraved": 22638,
    "swing": 15427,
    "thar": 18217,
    "enth": 6680,
    "Ġpon": 10174,
    "bushes": 24446,
    "Ġfra": 1871,
    "irited": 15783,
    "Ġbec": 1350,
    "friendship": 24046,
    "Ġverbal": 19377,
    "bohem": 19001,
    "Ġweal": 21918,
    "south": 8758,
    "Ġcannibals": 10586,
    "Ġhosmer": 6774,
    "âĢĻ!âĢĿ": 18167,
    "Ġser": 1675,
    "Ġunseason": 22050,
    "Ġflirt": 14421,
    "Ġmaiden": 13384,
    "parts": 14600,
    "Ġnose": 4405,
    "Ġplaid": 22599,
    "Ġsunken": 14492,
    "Ġcaul": 10786,
    "Ġplayfulness": 23636,
    "Ġcuts": 14606,
    "ograph": 4797,
    "Ġbegin": 3096,
    "Ġendurance": 23142,
    "Ð": 145,
    "Ġerect": 6143,
    "Ġimmensities": 25330,
    "boone": 23253,
    "uttered": 8441,
    "Ġsympath": 4861,
    "on": 267,
    "Ġdistributed": 18661,
    "Ġrequiring": 2921,
    "Ġalbert": 12702,
    "Ġdelic": 4138,
    "interval": 7991,
    "Ġrepeat": 8000,
    "Ġmice": 13857,
    "Ġhired": 10176,
    "Ġmatrix": 1609,
    "pend": 6367,
    "teeth": 10353,
    "Ġtarred": 23608,
    "shelf": 20379,
    "Ġglided": 7447,
    "Ġby": 383,
    "Ġburgled": 23655,
    "plutarch": 21955,
    "Ġtotally": 9469,
    "Ġfluffy": 19362,
    "Ġsouthwards": 19632,
    "Ġinitial": 824,
    "Ġbreakers": 12052,
    "Ġscent": 10283,
    "vain": 15445,
    "asleep": 21542,
    "onial": 11565,
    "Ġah": 5075,
    "Ġperfume": 25665,
    "Ġxliv": 23407,
    "Ġbrains": 2630,
    "Ġpacked": 9978,
    "discredit": 24249,
    "accessible": 13637,
    "beryls": 25309,
    "ignorance": 17160,
    "Ġdented": 17891,
    "brown": 15315,
    "mechanical": 25578,
    "Ġpurses": 23475,
    "Ġvile": 8472,
    "Ġseparately": 13300,
    "Ġeyebrows": 23513,
    "scent": 13017,
    "Ġmerchants": 23731,
    "Ġdint": 15587,
    "Ġfoot": 3161,
    "ias": 6362,
    "val": 1158,
    "expected": 5780,
    "Ġrichness": 19310,
    "))": 1516,
    "Ġplant": 8898,
    "eed": 20840,
    "Ġinfall": 7960,
    "Ġfrantic": 7957,
    "affrail": 11204,
    "Ġicebergs": 23972,
    "Ġvales": 21944,
    "Ġencouraged": 9353,
    "Ġovertaken": 18429,
    "oundered": 14161,
    "Ġawa": 7714,
    "neg": 12860,
    "Ġaerial": 21197,
    "Ġprognost": 15279,
    "Ġbarbed": 14833,
    "vocation": 25084,
    "Ġaberde": 22285,
    "irth": 5634,
    "Ġwounds": 17790,
    "Ġinvolve": 11039,
    "Ġtunnels": 24621,
    "pagan": 17284,
    "pret": 7212,
    "Ġ111": 24435,
    "Ġbranches": 6776,
    "lying": 7174,
    "bes": 6641,
    "Ġmarty": 20289,
    "adamite": 20591,
    "Ġrake": 18633,
    "Ġdiscuss": 9472,
    "olent": 8155,
    "Ġconfounded": 16384,
    "Ġref": 918,
    "Ġpleas": 1905,
    "Ġimmured": 24071,
    "Ġunharmed": 15137,
    "?âĢĻ": 2640,
    "encounter": 20390,
    "Ġcoals": 16072,
    "Ġtransportation": 13640,
    "ercely": 12546,
    "._)": 10479,
    "thinks": 16640,
    "Ġseek": 4510,
    "Ġsake": 4095,
    "zening": 21147,
    "Ġfearing": 12810,
    "aples": 20767,
    "Ġprevailing": 24673,
    "spark": 18688,
    "presumption": 20440,
    "_.,": 14561,
    "Ġacknowledges": 24688,
    "makes": 10710,
    "Ġer": 8105,
    "Ġensigns": 23688,
    "Ġtapering": 8770,
    "Ġbegrim": 23013,
    "Ġbrimming": 22864,
    "overcoat": 19048,
    "ers": 407,
    "least": 8783,
    "Ġoutlined": 22318,
    "Ġbreakfast": 3978,
    "Ġpuffs": 14974,
    "ark": 847,
    "crooked": 25746,
    "Ġspoils": 24808,
    "hum": 3780,
    "Ġgases": 21600,
    "Ġjudged": 12080,
    "Ġstud": 1581,
    "nt": 922,
    "bottom": 11425,
    "Ġmarching": 16698,
    "tier": 12511,
    "idea": 9299,
    "Ġfulf": 6772,
    "Ġbullion": 24985,
    "bles": 7017,
    "Ġplantation": 11422,
    "Ġthirt": 13937,
    "ustom": 3791,
    "Ġtreading": 16503,
    "Ġstripped": 10464,
    "Ġcheever": 23282,
    "attracted": 13047,
    "ash": 1992,
    "glit": 23847,
    "Ġrigger": 19529,
    "Ġscho": 4438,
    "mouthful": 25208,
    "lo": 681,
    "avern": 24792,
    "Ġtail": 3087,
    "orts": 2555,
    "Ġhousekeeping": 18943,
    "Ġsideboard": 10384,
    "aying": 15746,
    "Ġspreading": 13376,
    "Ġmutable": 23952,
    "Ġengagements": 9976,
    "Ġcontentment": 14868,
    "Ġinconsist": 17935,
    "iability": 20919,
    "cc": 471,
    "âĢĶâĢĿ": 3298,
    "acup": 14276,
    "Ġvicinity": 7315,
    "banish": 20781,
    "Ġdodging": 19886,
    "Ġtram": 11090,
    "Ġslaughter": 20729,
    "harpooneer": 8688,
    "understanding": 1148,
    "inkled": 5477,
    "Ġliked": 5264,
    "Ġlibrary": 6423,
    "Ġoutermost": 22317,
    "Ġjustine": 4970,
    "Ġdeception": 18139,
    "#": 7,
    "ther": 480,
    "haw": 6361,
    "Ġvindictive": 20468,
    "ub": 1227,
    "Ġonly": 790,
    "Ġharvest": 13413,
    "ram": 13970,
    "Ġpush": 9183,
    "Ġloathsome": 13526,
    "Ġtedious": 15265,
    "herds": 22204,
    "Ġinterchange": 16068,
    "Ġfrankly": 16744,
    "Ġproportionably": 19969,
    "Ġparties": 7038,
    "attoo": 6807,
    "Ġvital": 9241,
    "bib": 17490,
    "Ġtar": 2564,
    "Ġpor": 5225,
    "acle": 4716,
    "hess": 4747,
    "Ġfrank": 4422,
    "lad": 5992,
    "Ġringleader": 26212,
    "Ġbowled": 23767,
    "will": 1969,
    "dor": 12448,
    "Ġskil": 14349,
    "Ġcircling": 19092,
    "Ġtransparent": 9487,
    "Ġunsupervised": 2531,
    "Ġsequ": 981,
    "Ġmeditative": 25014,
    "enjoyment": 17256,
    "Ġsuperiors": 23454,
    "Ġbrook": 13044,
    "Ġmeat": 8152,
    "ceptible": 10955,
    "Ġspit": 22122,
    "urday": 13993,
    "andam": 10887,
    "Ġliver": 14226,
    "Ġplayers": 12035,
    "Ġpolynes": 16076,
    "transp": 24508,
    "Ġscarce": 8621,
    "Ġflogged": 23624,
    "Ġincommun": 25308,
    "missing": 13216,
    "itted": 2441,
    "nineteenth": 26138,
    "itude": 1420,
    "Ġheathen": 10564,
    "Ġterritories": 23842,
    "anke": 15557,
    "scept": 21052,
    "Ġwonderfully": 10429,
    "track": 24313,
    "Ġexpanse": 14288,
    "allen": 22194,
    "veh": 12675,
    "Ġimpulsively": 24880,
    "ulation": 5458,
    "ĠĠĠĠĠĠĠĠĠĠĠĠĠĠĠĠĠĠĠĠĠĠĠĠĠĠĠĠĠĠ": 24442,
    "Ġbelf": 21379,
    "Ġbold": 5291,
    "Ġstudies": 7956,
    "Ġunstructure": 2995,
    "Ġunmindful": 22064,
    "Ġpreventing": 884,
    "Ġupwards": 7633,
    "Ġbiting": 17861,
    "Ġantiquities": 25598,
    "Ġportcullis": 26602,
    "Ġchurch": 4711,
    "Ġprocured": 8676,
    "Ġeigen": 4881,
    "Ġconcept": 660,
    "Ġspectrum": 4476,
    "Ġcheerfulness": 10515,
    "Ġcharacteristic": 12045,
    "Ġkeepers": 23537,
    "Ġpropri": 6738,
    "niest": 18978,
    "scy": 21054,
    "dering": 5305,
    "Ġlewis": 15721,
    "Ġneglecting": 25007,
    "Ġisolated": 13557,
    "Ġnervous": 2405,
    "Ġunchanged": 22029,
    "eded": 9672,
    "row": 1065,
    "Ġextravag": 11253,
    "Ġflowers": 8939,
    "Ġknock": 9971,
    "Ġowns": 22822,
    "success": 6710,
    "dashing": 20835,
    "Ġmagn": 1556,
    "collected": 13211,
    "Ġhackney": 20431,
    "Ġpompous": 20421,
    "ivility": 12785,
    "Ġvintage": 26209,
    "Ġsixpence": 19316,
    "Ġshame": 6410,
    "Ġprince": 18972,
    "Ġdescried": 7920,
    "chased": 18041,
    "ufactured": 15179,
    "summit": 23415,
    "Ġdesign": 4136,
    "Ġbulk": 5590,
    "Ġquestioning": 10463,
    "Ġveiled": 16198,
    "impotence": 23759,
    "Ġarm": 2492,
    "Ġnuts": 17951,
    "league": 17844,
    "shapes": 22450,
    "Ġartic": 5314,
    "Ġstead": 5650,
    "tumbled": 21089,
    "Ġaddress": 2271,
    "Ġprofanely": 23568,
    "Ġtea": 5041,
    "Ġsprang": 5064,
    "Ġhemp": 9214,
    "Ġgentleman": 3039,
    "better": 7119,
    "Ġprofess": 3700,
    "Ġembarrassed": 11383,
    "Ġelemental": 19918,
    "always": 5708,
    "Ġgilded": 17443,
    "Ġestimate": 19371,
    "nights": 16447,
    "Ġcigaret": 16975,
    "Ġvillage": 5774,
    "volous": 18581,
    "Ġsignificance": 13278,
    "Ġignorance": 6618,
    "Ġsavagely": 26323,
    "Ġrending": 19465,
    "mell": 20963,
    "Ġsire": 15499,
    "Ġenigmatical": 20596,
    "Ġinstruction": 14340,
    "beaten": 20314,
    "Ġreproached": 24891,
    "gences": 20876,
    "chance": 6827,
    "Ġrestrained": 16373,
    "slightest": 25416,
    "Ġscepticism": 25927,
    "itions": 4152,
    "wander": 17708,
    "slouched": 24556,
    "is": 280,
    "Ġillustration": 19135,
    "ruin": 22178,
    "de": 460,
    "Ġshower": 11707,
    "Ġcoward": 7155,
    "Ġwouldn": 6046,
    "Ġmine": 3177,
    "beer": 22486,
    "accordingly": 19212,
    "Ġsubmitted": 11868,
    "ohnson": 16324,
    "Ġstra": 2992,
    "divided": 25018,
    "Ġdelirium": 10404,
    "Ġaccent": 10292,
    "icip": 6389,
    "Ġfronted": 25854,
    "Ġloun": 7166,
    "Ġtink": 9147,
    "Ġeternally": 11368,
    "ressing": 8917,
    "Ġtrifled": 24674,
    "Ġplains": 14622,
    "Ġcitizens": 25439,
    "scream": 11075,
    "Ġab": 528,
    "Ġtem": 805,
    "Ġsunshine": 14493,
    "Ġ84": 19708,
    "u": 89,
    "aps": 1230,
    "Ġdined": 9175,
    "audible": 17131,
    "figure": 13553,
    "Ġcheers": 16363,
    "Ġindisc": 16225,
    "tete": 10731,
    "Ġfamiliarity": 16728,
    "ĠĠĠĠĠĠĠĠĠĠĠĠĠĠĠĠĠĠĠĠĠĠĠĠĠĠĠĠĠĠĠĠĠĠĠĠĠĠĠĠĠĠ": 24208,
    "Ġexaggerated": 25650,
    "rained": 5162,
    "agger": 7873,
    "Ġkindled": 19027,
    "covering": 15332,
    "Ġtrailing": 23078,
    "noble": 7922,
    "star": 12668,
    "Ġprior": 11317,
    "Ġperceive": 6699,
    "aged": 2607,
    "Ġyoung": 1507,
    "Ġunostentatious": 22068,
    "ascar": 8435,
    "Ġerad": 25028,
    "Ġital": 10865,
    "stripped": 16944,
    "wonderful": 16959,
    "Ġante": 17896,
    "Ġreaching": 7303,
    "poor": 6061,
    "Ġcows": 15549,
    "Ġshifting": 12764,
    "planted": 11693,
    "ernsey": 8900,
    "useless": 14593,
    "walk": 5523,
    "separation": 25226,
    "Ġseries": 7060,
    "Ġrugged": 18720,
    "stooped": 23818,
    "Ġbrides": 22863,
    "Ġchapter": 2957,
    "bitterly": 20336,
    "sculpt": 16242,
    "Ġserve": 9367,
    "ĠâĢĶâĢľ_": 17717,
    "Ġfift": 6382,
    "correct": 24482,
    "ents": 1896,
    "pursuit": 20339,
    "erated": 21269,
    "Ġjapanese": 10631,
    "Ġdescrib": 2718,
    "writing": 7721,
    "Ġjug": 12831,
    "ighb": 10422,
    "izer": 2031,
    "Ġasyl": 12730,
    "Ġsignific": 3829,
    "questions": 16759,
    "inferences": 17738,
    "sticking": 21658,
    "Ġnur": 5710,
    "Ġther": 17777,
    "Ġchry": 22244,
    "gradu": 18616,
    "Ġsloping": 11936,
    "Ġtho": 21512,
    "reporting": 24493,
    "Ġguardianship": 17418,
    "outside": 12800,
    "Ġcertainty": 6734,
    "Ġrises": 9711,
    "ieces": 4772,
    "Ġdug": 21429,
    "frock": 20119,
    "gods": 13364,
    "Ġhook": 6453,
    "mouse": 15390,
    "ainted": 3660,
    "Ġtreasures": 17046,
    "Ġintens": 7003,
    "Ġchord": 22243,
    "Ġglared": 13014,
    "Ġable": 3078,
    "Ġindispensable": 11897,
    "ifts": 12731,
    "Ġinclusive": 24162,
    "rather": 5430,
    "pay": 10717,
    "okers": 18441,
    "Ġpersisted": 13039,
    "repairing": 24494,
    "thine": 15821,
    "Ġadmirals": 20383,
    "Ġfootman": 8288,
    "yn": 7820,
    "comparatively": 25839,
    "Ġadditionally": 1177,
    "Ġpattering": 18651,
    "Ġemb": 1249,
    "Ġdeeds": 15755,
    "Ġashamed": 6403,
    "J": 46,
    "Ġrossum": 3012,
    "========": 2312,
    "Ġ125": 24469,
    "collecting": 26081,
    "Ġparameters": 994,
    "uff": 2731,
    "Ġflann": 23010,
    "Ġsevere": 6032,
    "load": 12877,
    "Ġgrizz": 10350,
    "Ġflock": 21410,
    "Ġ124": 24468,
    "Ġswap": 23051,
    "odecimo": 11443,
    "Ġconstructed": 9384,
    "signs": 16537,
    "germ": 15354,
    "Ġhearty": 9844,
    "Ġwidest": 24233,
    "Ġbrutality": 26276,
    "Ġnaval": 16898,
    "Ġswearing": 16463,
    "commanded": 16987,
    "Ġinvention": 19951,
    "Ġstandpoint": 23276,
    "tide": 11531,
    "Ġcarpenters": 16751,
    "Ġdecisions": 6702,
    "Ġfurlong": 18740,
    "Ġrocking": 10968,
    "Ġsplin": 8618,
    "same": 5361,
    "steelkilt": 10045,
    "Ġdependent": 14296,
    "Ġdeck": 2137,
    "Ġplanned": 14751,
    "Ġimpreg": 15984,
    "Ġcommissioned": 19894,
    "lies": 15379,
    "Ġcomprehen": 5349,
    "Ġarray": 12805,
    "Ġentrances": 25834,
    "Ġendeavored": 19302,
    "Ġfiddle": 25444,
    "agitation": 14066,
    "Ġmercifully": 20177,
    "ur": 326,
    "Ġgrand": 3593,
    "Ġrighted": 23175,
    "Ġdeduce": 8337,
    "english": 2775,
    "fashioned": 9569,
    "Ġchorus": 10945,
    "Ġmacro": 25939,
    "Ġinterpretation": 19715,
    "possibility": 13359,
    "Ġreception": 9837,
    "resolutions": 26164,
    "flies": 19422,
    "Ġ57": 24324,
    "Ġfrequented": 16584,
    "semicirc": 26490,
    "Ġtropic": 17063,
    "_âĢĶâĢĻâĢĿ": 25741,
    "Ġdu": 4585,
    "Ġeluc": 16108,
    "Ġobsequ": 14318,
    "Ġformerly": 7493,
    "urities": 18049,
    "Ġemigrant": 25859,
    "Ġenc": 965,
    "Ġresentful": 24632,
    "Ġneat": 6999,
    "Ġinjuries": 11276,
    "Ġaccomp": 4713,
    "Ġhasten": 10477,
    "Ġaspect": 3094,
    "hecy": 21205,
    "Ġhol": 1182,
    "Ġslumber": 13056,
    "Ġdripping": 13145,
    "Ġuses": 1209,
    "Ġmerited": 23729,
    "Ġoutweigh": 22320,
    "Ġtimidity": 24687,
    "Ġexcept": 3310,
    "Ġladies": 3191,
    "Ġwhen": 514,
    "Ġprayed": 16666,
    "never": 3151,
    "single": 10125,
    "Ġimbu": 15888,
    "Ġ": 225,
    "7": 27,
    "committed": 18738,
    "Ġlaid": 3944,
    "Ġdisappearing": 22531,
    "Ġproving": 15753,
    "Ġseverity": 15817,
    "Ġinflexibly": 26370,
    "ascribed": 24708,
    "boots": 11125,
    "gloom": 17138,
    "Ġlocker": 16910,
    "Ġpromethe": 14466,
    "Ġelevation": 14895,
    "Ġgangway": 20157,
    "gorith": 553,
    "opposing": 24825,
    "Ġdisease": 14256,
    "Ġtornado": 24622,
    "Ġdeclaring": 19418,
    "Ġensemble": 1611,
    "Ġvalues": 2650,
    "Ġcongratulations": 10579,
    "Ġhypothe": 4077,
    "produ": 10719,
    "bre": 3981,
    "agged": 9235,
    "Ġlabelled": 23329,
    "icit": 3377,
    "dig": 4929,
    "ĠĠĠĠĠĠĠĠĠĠĠĠĠĠĠĠĠĠĠĠĠĠĠ": 18832,
    "Ġskilfully": 20522,
    "Ġiroqu": 21617,
    "hered": 5622,
    "hereafter": 19215,
    "ortions": 10947,
    "Ġbelieve": 2147,
    "Ġreserves": 19669,
    "Ġcherish": 10588,
    "Ġuniformity": 23482,
    "glass": 9907,
    "Ġcommonplace": 11095,
    "Ġseat": 4949,
    "Ġlizz": 21555,
    "Ġpraying": 19553,
    "Ġdescend": 7427,
    "Ġstructured": 2974,
    "Ġfold": 5530,
    "Ġplanning": 14750,
    "Ġstove": 6733,
    "Ġheathenish": 13614,
    "ad": 337,
    "Ġsyrian": 18354,
    "eteenth": 20156,
    "practical": 17220,
    "Ġcrows": 24028,
    "effort": 19213,
    "Ġscorch": 20063,
    "Ġnar": 7375,
    "Ġtalents": 15043,
    "ented": 4351,
    "Ġdeaden": 23459,
    "Ġnovels": 15926,
    "perquisites": 26530,
    "Ġcloak": 9532,
    "loom": 18535,
    "Ġaffl": 14384,
    "Ġprep": 4196,
    "Ġill": 2194,
    "Ġbred": 9168,
    "Ġimputable": 22171,
    "igation": 5918,
    "Ġnocturn": 18375,
    "sander": 11525,
    "Ġdro": 2770,
    "Ġpretension": 23762,
    "Ġexpect": 2305,
    "Ġclinched": 17392,
    "âĢĶâĢĺ_": 24831,
    "Ġclaims": 13371,
    "Ġconcussion": 26300,
    "act": 786,
    "warmth": 20051,
    "Ġinvolving": 18755,
    "Ġhusbands": 16641,
    "Ġboscombe": 8326,
    "tiest": 21080,
    "Ġsteering": 10386,
    "Ġsurely": 6307,
    "Ġintervening": 17266,
    "Ġdanger": 3519,
    "Ġcoach": 6867,
    "Ġbosom": 6939,
    "left": 6975,
    "gers": 8376,
    "scruple": 26045,
    "Ġcrosswise": 18886,
    "Ġsucc": 12781,
    "Ġtwink": 8216,
    "Ġweep": 7619,
    "catch": 17505,
    "pronounce": 25192,
    "taking": 5689,
    "Ġcopied": 20006,
    "Ġresponded": 13636,
    "Ġvertu": 23887,
    "Ġcourtesy": 9943,
    "Ġbraces": 14668,
    "Ġcruel": 5121,
    "Ġremorse": 6441,
    "kins": 7345,
    "owed": 2270,
    "sme": 17657,
    "Ġlunch": 13524,
    "prov": 16420,
    "Ġenlarge": 21933,
    "axing": 18547,
    "itely": 5365,
    "Ġrural": 21965,
    "Ġbarricade": 14659,
    "Ġpoul": 15609,
    "Ġadmit": 7711,
    "dish": 12449,
    "Ġjuggling": 20437,
    "ders": 8075,
    "Ġrescued": 24205,
    "Ġlargest": 6282,
    "generally": 9433,
    "Ġsmall": 893,
    "hro": 20890,
    "damn": 20022,
    "inu": 1117,
    "ote": 4597,
    "Ġlan": 5820,
    "disguise": 26306,
    "Ġdissect": 16049,
    "Ġridiculous": 10627,
    "becomes": 22494,
    "Ġseize": 8166,
    "ocean": 12398,
    "Ġinferred": 14499,
    "orse": 5806,
    "Ġcoleman": 22585,
    "Ġnursery": 19749,
    "Ġplenty": 6708,
    "Ġimposing": 11778,
    "Ġmingled": 12374,
    "orious": 6008,
    "Ġdiff": 3113,
    "Ġug": 8141,
    "Ġberth": 8679,
    "Ġcontemptuously": 19832,
    "Ġmajority": 13290,
    "alescing": 23863,
    "Ġirreparable": 19997,
    "Ġsticking": 13425,
    "Ġelement": 6898,
    "gether": 1597,
    "Ġnavigation": 9991,
    "Ġarrange": 3118,
    "Ġprov": 4403,
    "Ġabundance": 17154,
    "Ġsteady": 4847,
    "spermaceti": 12190,
    "Ġsnuffed": 15070,
    "stein": 5505,
    "Ġwaterloo": 11977,
    "Ġtissu": 25920,
    "Ġfailure": 13312,
    "Ġprovid": 1008,
    "Ġjove": 9266,
    "Ġbrood": 23099,
    "Ġla": 5913,
    "Ġdiscomposure": 20377,
    "mira": 20978,
    "Ġswam": 6448,
    "Ġinitialization": 1256,
    "Ġquivering": 12854,
    "Ġlory": 12648,
    "Ġengage": 9333,
    "reluct": 26163,
    "Ġworm": 9161,
    "Ġinjunction": 19616,
    "results": 20385,
    "Ġstiffest": 24829,
    "adding": 21757,
    "Ġsecure": 4912,
    "Ġscoundrel": 13668,
    "walls": 25345,
    "heavens": 19744,
    "Ġexposure": 16093,
    "sense": 11522,
    "Ġfleecy": 17022,
    "Ġlumps": 21554,
    "Ġdungeon": 16995,
    "measure": 10029,
    "cadence": 26125,
    "Ġnotes": 7189,
    "mal": 6794,
    "Ġdeductions": 19731,
    "Ġnowhere": 12882,
    "Ġcaval": 25769,
    "striving": 24669,
    "Ġforeheads": 23447,
    "parable": 16381,
    "atch": 674,
    "advancing": 14834,
    "Ġpowder": 11274,
    "Ġmob": 16014,
    "Ġinexper": 16979,
    "Ġcanvas": 7784,
    "Ġbravest": 23837,
    "cou": 13693,
    "Ġwa": 1753,
    "Ġarranged": 9875,
    "uted": 7592,
    "Ġsun": 1721,
    "lat": 9603,
    "ceive": 3062,
    "training": 2517,
    "Ġundoing": 22033,
    "Ġsalisbury": 24063,
    "Ġfound": 1247,
    "inquiries": 13575,
    "Ġregardless": 19323,
    "print": 23808,
    "Ġrevenue": 26194,
    "Ġvertical": 16603,
    "Ġborne": 6351,
    "Ġappar": 7411,
    "Ġshel": 6847,
    "Ġgothic": 17999,
    "``": 15304,
    "vac": 15448,
    "Ġgodson": 23357,
    "Ġfritters": 23256,
    "proceeding": 20140,
    "acles": 8519,
    "Ġroar": 9751,
    "Ġcar": 1421,
    "iard": 9600,
    "asant": 17958,
    "Ġcontour": 18474,
    "Ġflaw": 23008,
    "Ġrepulsive": 14529,
    "Ġfrigate": 13079,
    "Ġvint": 18194,
    "Ġsensibility": 14512,
    "Ġnamed": 6139,
    "hammered": 19003,
    "Ġpoll": 12026,
    "Ġmab": 12556,
    "Ġexerting": 21830,
    "injury": 25213,
    "presently": 9805,
    "Ġvoc": 4453,
    "achus": 18283,
    "Ġlin": 10832,
    "thunder": 10261,
    "Ġimpressed": 8199,
    "bruary": 15233,
    "gu": 3959,
    "Ġlashed": 9197,
    "Ġstopping": 2749,
    "Ġrestless": 10412,
    "Ġbarrels": 9434,
    "ology": 1625,
    "ermost": 7430,
    "Ġbewit": 15724,
    "jac": 8382,
    "Ġlouis": 8357,
    "humour": 7498,
    "urean": 18122,
    "confidence": 16807,
    "swallow": 24256,
    "visited": 13345,
    "Ġcombining": 22859,
    "qu": 369,
    "Ġresume": 18565,
    "Ġtones": 8400,
    "Ġprolonged": 8359,
    "Ġmannish": 26237,
    "reflections": 24735,
    "Ġexceedingly": 4615,
    "Ġprofile": 16486,
    "Ġjunior": 15097,
    "Ġsubstantial": 14808,
    "quent": 2093,
    "Ġsnarled": 25716,
    "Ġkirwin": 8496,
    "Ġcovari": 2337,
    "Ġfourteen": 12006,
    "Ġmyself": 1453,
    "Ġdeaf": 12717,
    "Ġreg": 729,
    "Ġx": 2073,
    "Ġmediterranean": 12312,
    "iod": 3841,
    "Ġoccurrence": 14380,
    "Ġtossing": 8126,
    "Ġflannel": 26576,
    "Ġuntouched": 16464,
    "itu": 1228,
    "res": 2759,
    "Ġalow": 18099,
    "Ġestimable": 23869,
    "erm": 787,
    "Ġadvertisement": 6941,
    "Ġair": 1835,
    "Ġbriskly": 25311,
    "ena": 11566,
    "umbled": 8492,
    "Ġcorrection": 5062,
    "Ġrejo": 5916,
    "Ġscandalous": 24878,
    "Ġpaths": 2569,
    "Ġtuesday": 9625,
    "rods": 21536,
    "Ġchamounix": 14862,
    "oars": 9613,
    "Ġmourning": 13476,
    "Ġclosest": 16762,
    "Ġvindictiveness": 25738,
    "Ġheighten": 19528,
    "followed": 8339,
    "brill": 16489,
    "stones": 11634,
    "etence": 21575,
    "mistaken": 12207,
    "É": 138,
    "Ġcombinations": 22860,
    "off": 1886,
    "where": 2091,
    "Ġopposite": 5120,
    "Ġslid": 7952,
    "Ġorphans": 20203,
    "Ġshouldn": 14323,
    "claim": 9833,
    "Ġstig": 14000,
    "Ġprevent": 756,
    "Ġwatchman": 23667,
    "Ġflies": 13021,
    "Ġangular": 19206,
    "ase": 1161,
    "individual": 18435,
    "Ġsoil": 9253,
    "Ġwisdom": 11233,
    "Ġgirth": 13134,
    "Ġdepicting": 22608,
    "Ġfervently": 25877,
    "Ġsuited": 12782,
    "Ġwalked": 3138,
    "Ġsmiles": 6706,
    "sp": 894,
    "feeling": 6616,
    "barn": 17481,
    "Ġbes": 2659,
    "Ġoriental": 9095,
    "gments": 12466,
    "Ġregions": 10322,
    "fallen": 19658,
    "Ġperplexed": 23660,
    "set": 3868,
    "Ġcompunction": 18587,
    "Ġchowders": 18386,
    "Ġcomplete": 4385,
    "hump": 12474,
    "depart": 12262,
    "Ġstepfather": 7221,
    "Ġvort": 18193,
    "fac": 17540,
    "ĠĠĠĠĠĠĠĠĠĠĠĠĠĠĠĠĠĠĠĠĠĠĠĠĠĠĠĠ": 9973,
    "Ġanytime": 12881,
    "Ġprovoked": 13323,
    "Ġpresuming": 16792,
    "Ġafresh": 18625,
    "Ġdistrust": 8204,
    "Ġbale": 7839,
    "Ġpawn": 12060,
    "ios": 2265,
    "ede": 21504,
    "black": 6768,
    "Ġbuck": 7157,
    "acity": 5735,
    "ignific": 11953,
    "Ġhoars": 19075,
    "Ġplaintiffs": 13607,
    "andes": 18151,
    "lp": 898,
    "Ġsurm": 7476,
    "Ġdisclosed": 15151,
    "trans": 5593,
    "Ġpreternatural": 12819,
    "ips": 2593,
    "Ġcircle": 4977,
    "Ġnearing": 15791,
    "Ġadviser": 25312,
    "Ġenvied": 19283,
    "forest": 22516,
    "Ġboston": 22636,
    "Ġche": 1762,
    "turned": 7306,
    "nant": 17608,
    "µ": 118,
    "Ġfeat": 10935,
    "Ġens": 2789,
    "Ġhappiest": 11879,
    "unct": 18154,
    "Ġgroan": 13322,
    "Ġasylum": 13664,
    "plex": 708,
    "Ġstanding": 2999,
    "Ġhill": 5626,
    "Ġmomentous": 16169,
    "Ġmaintenance": 17460,
    "Ġeleven": 9388,
    "ugging": 23288,
    "Ġbirds": 5873,
    "Ġaf": 782,
    "phon": 4131,
    "lections": 4752,
    "Ġplays": 12034,
    "Ġstiffness": 24830,
    "}": 97,
    "Ġindistinct": 17406,
    "murder": 10563,
    "Ġmoored": 11789,
    "Ġvomit": 21946,
    "Ġsain": 17749,
    "Ġideas": 5494,
    "Ġphilosoph": 19650,
    "Ġboot": 11836,
    "Ġcarrying": 6072,
    "racing": 21629,
    "forecastle": 10989,
    "Ġhuman": 1317,
    "burn": 8371,
    "baboon": 25516,
    "Ġstraightened": 12105,
    "Ġmagnanim": 14470,
    "acceptable": 25184,
    "amaz": 21842,
    "mountains": 15178,
    "Ġheadland": 22895,
    "evil": 11484,
    "Ġmaterially": 12188,
    "twenty": 6607,
    "Ġdoom": 6417,
    "Ġscrew": 8862,
    "Ġcuriosity": 2475,
    "Ġcharm": 4549,
    "Ġnobleman": 19390,
    "Ġfocused": 16339,
    "Ġinvested": 7279,
    "tps": 11533,
    "animation": 16978,
    "flask": 12096,
    "uce": 11534,
    "Ġcrimes": 8588,
    "Ġnarwhales": 24902,
    "Ġinquiring": 8998,
    "insula": 23065,
    "Ġgemini": 26468,
    "held": 3842,
    "Ġethere": 23948,
    "Ġsustenance": 19932,
    "Ġ65": 24367,
    "Ġcoincid": 20316,
    "Ġfinite": 2324,
    "Ġprobability": 1126,
    "heidelburgh": 21210,
    "Ġimagine": 3926,
    "con": 654,
    "relation": 19445,
    "angled": 6844,
    "Ġjam": 10950,
    "Ġgovernment": 15174,
    "Ġpurpose": 2708,
    "Ġfragrant": 13100,
    "Ġalpine": 18105,
    "Ġgodfrey": 15291,
    "tered": 2231,
    "iles": 2863,
    "Ġlif": 10194,
    "angu": 568,
    "trees": 10730,
    "Ġabominably": 20067,
    "Ġundu": 15834,
    "Ġmonica": 22978,
    "Ġred": 3005,
    "dist": 4482,
    "Ġobli": 9314,
    "Ġimparted": 15985,
    "Ġbeating": 8145,
    "Ġsuppress": 13020,
    "Ġclassify": 1600,
    "Ġh": 290,
    "Ġextremest": 19194,
    "rated": 6227,
    "Ġvisited": 5948,
    "Ġverify": 12084,
    "osure": 5306,
    "Ġincognita": 26550,
    "Ġrisks": 9962,
    "Ġpirates": 9072,
    "cost": 19185,
    "complexion": 14358,
    "repeat": 25151,
    "Ġfalsely": 20580,
    "Ġannihilated": 20251,
    "Ġunintellig": 22024,
    "Ġessential": 7523,
    "venor": 16094,
    "gladness": 25194,
    "mblings": 19779,
    "Ġbowditch": 19322,
    "surgeon": 24213,
    "bene": 6112,
    "rusion": 11322,
    "Ġimminent": 11244,
    "plifted": 9708,
    "Ġconversed": 13186,
    "Ġdoc": 7200,
    "Ġlandscape": 12414,
    "ulance": 15763,
    "anel": 21355,
    "Ġsuffers": 2975,
    "Ġpurch": 6599,
    "fuller": 22484,
    "Ġharmless": 9963,
    "Ġrecognised": 8994,
    "Ġtravell": 5575,
    "Ġstubbs": 23294,
    "Ġburnished": 23995,
    "arranted": 19319,
    "Ġhookah": 16969,
    "ises": 3654,
    "Ġpret": 3034,
    "Ġobliquely": 12359,
    "Ġgrappling": 25812,
    "Ġparcels": 25465,
    "Ġdecently": 22435,
    "bordered": 17497,
    "Ġdrops": 9031,
    "Ġfixing": 13154,
    "Ġdews": 21836,
    "Ġargemone": 24273,
    "Ġsprinkled": 19495,
    "Ġbutt": 14124,
    "Ġconnectivity": 3668,
    "ade": 882,
    "lot": 3206,
    "Ġcraggy": 23526,
    "Ġprogeny": 17386,
    "Ġsleeper": 8599,
    "Ġfury": 7662,
    "Ġdaily": 5987,
    "Ġinfirmity": 26298,
    "aan": 20763,
    "rus": 5930,
    "coming": 3561,
    "Ġdorm": 4821,
    "Ġswallowed": 7944,
    "difference": 13706,
    "abulary": 4800,
    "Ġexceed": 1346,
    "Ġleaning": 5228,
    "Ġmathemat": 3200,
    "habit": 16187,
    "gather": 20874,
    "repro": 10769,
    "fearing": 18529,
    "Ġbott": 3148,
    "Ġbewildered": 15211,
    "Ġamidst": 9492,
    "aco": 12902,
    "Ġtoken": 2039,
    "Ġstrings": 11826,
    "Ġvelvet": 12395,
    "Ġglo": 1715,
    "Ġmien": 17808,
    "Ġresol": 2664,
    "Ġlethargy": 26482,
    "last": 3804,
    "Ġnursed": 16884,
    "Ġmarling": 23033,
    "Ġresources": 2937,
    "Ġappertaining": 26532,
    "Ġshudderings": 25200,
    "Ġgallantry": 15101,
    "osed": 1961,
    "pron": 9004,
    "Ġphrensy": 25124,
    "(-": 2981,
    "Ġbully": 23853,
    "watch": 6118,
    "Ġmajor": 13289,
    "llable": 6878,
    "Ġgunw": 6212,
    "Ġvacant": 9493,
    "Ġenjoys": 19448,
    "Ġsensitiveness": 23733,
    "Ġdelineate": 26057,
    "Ġsuperglue": 23456,
    "extent": 22753,
    "hip": 8740,
    "requ": 7148,
    "enstein": 5799,
    "Ġlinked": 15075,
    "Ġtimidly": 11337,
    "Ġcruise": 12046,
    "boilers": 26297,
    "language": 5129,
    "retirement": 23136,
    "Ġcircumstance": 4987,
    "Ġdiscrimination": 23604,
    "thinness": 25810,
    "Ġtomahawk": 7539,
    "Ġwaves": 3921,
    "Ġsplashed": 23746,
    "as": 302,
    "slackened": 26094,
    "Ġnook": 15925,
    "Ġdissip": 10991,
    "ieged": 22578,
    "opy": 4460,
    "Ġchase": 3948,
    "ind": 566,
    "Ġshot": 4545,
    "hap": 17558,
    "reasonable": 7752,
    "Ġsubs": 2129,
    "voy": 7143,
    "Ġpostponed": 20388,
    "den": 939,
    "Ġtrail": 16279,
    "Ġinducements": 24967,
    "Ġhandsom": 11123,
    "uture": 1093,
    "idean": 14261,
    "speak": 5504,
    "Ġreducing": 1956,
    "convenient": 12234,
    "umphed": 23514,
    "ear": 8730,
    "Ġrigging": 5600,
    "might": 4082,
    "Ġmile": 7151,
    "evenings": 19461,
    "Ġcubic": 20086,
    "Ġfired": 16151,
    "Ġinterment": 22572,
    "Ġrecurring": 23231,
    "Ġeddystone": 25709,
    "Ġcreates": 2009,
    "articulate": 17396,
    "Ġstreat": 15717,
    "ont": 2622,
    "Ġwrest": 11569,
    "alive": 10826,
    "benevol": 12223,
    "Ġconnection": 5479,
    "Ġbridge": 8349,
    "Ġmale": 9647,
    "Ġfantastic": 10057,
    "Ġhob": 12625,
    "wearing": 22685,
    "Ġshaggy": 13568,
    "Ġcontrive": 16007,
    "Ġthirst": 7589,
    "exertion": 16013,
    "Ġsteelkilt": 5675,
    "Ġpart": 858,
    "Ġinterference": 8892,
    "Ġmors": 17801,
    "Ġner": 1648,
    "urrection": 12406,
    "Ġlid": 6983,
    "Ġgigantic": 5915,
    "Ġsalutations": 25382,
    "why": 2831,
    "think": 3609,
    "Ġcircumvent": 25064,
    "Ġhandsomer": 20332,
    "Ġsigning": 22704,
    "civilized": 17074,
    "Ġlips": 3994,
    "Ġpope": 11600,
    "Ġaxis": 12304,
    "ging": 2601,
    "mmar": 952,
    "abash": 18107,
    "Ġtormenting": 15102,
    "Ġinterpret": 5490,
    "opotam": 22475,
    "Ġunex": 11710,
    "Ġincorrupt": 19234,
    "Ġplanet": 14749,
    "iously": 2675,
    "Ġgenerous": 6271,
    "frequent": 15351,
    "Ġfinanc": 23125,
    "abilizing": 2924,
    "evidently": 20344,
    "Ġyounge": 16285,
    "Ġsubfield": 11866,
    "Ġperil": 5556,
    "Ġeyford": 10640,
    "Ġepistle": 24904,
    "Ġfears": 5729,
    "Ġcaresses": 26059,
    "owing": 7601,
    "ë": 172,
    "rug": 18340,
    "||": 4869,
    "Ġmeagre": 21808,
    "Ġforward": 1837,
    "Ġmap": 2393,
    ")": 13,
    "comfortableness": 24524,
    "Ġphilosophers": 10550,
    "proceeded": 25190,
    "imin": 1768,
    "derness": 11734,
    "who": 2445,
    "ger": 1106,
    "Ġsolve": 4201,
    "commodore": 20624,
    "Ġadvisable": 11441,
    "build": 12184,
    "Ġcatastrophic": 3541,
    "Ġmoney": 3419,
    "opening": 10311,
    "Ġinstrum": 6055,
    "adv": 4538,
    "necessities": 24305,
    "Ġobedience": 11412,
    "Ġunprejudiced": 18269,
    "Ġeager": 3570,
    "Ġheartfelt": 18967,
    "plain": 1358,
    "intimate": 22935,
    "cating": 20801,
    "weight": 2940,
    "Ġdevils": 7230,
    "Ġinjury": 10539,
    "otle": 21795,
    "promontory": 24728,
    "orders": 12870,
    "Ġprodigiously": 14930,
    "Ġbrahma": 26319,
    "Ġ200": 19295,
    "Ġestim": 3347,
    "erson": 7002,
    "Ġsequential": 2131,
    "Ġcarefully": 6304,
    "lands": 8241,
    "ierce": 14389,
    "Ġfielding": 16230,
    "Ġrelated": 3717,
    "drawers": 19384,
    "elze": 21571,
    "rison": 13777,
    "anguish": 15980,
    "Ġtube": 15002,
    "Ġraw": 3319,
    "Ġexpressed": 4469,
    "islands": 21374,
    "Ġleading": 7297,
    "adventurous": 25361,
    "condemned": 26060,
    "Ġma": 3252,
    "perceive": 12808,
    "Ġtyros": 26101,
    "Ġfell": 1977,
    "char": 3502,
    "Ġpersonality": 16475,
    "ictions": 14223,
    "Ġcoachman": 14999,
    "appin": 18760,
    "Ġprime": 10403,
    "Ġexpressive": 8981,
    "detective": 24382,
    "lounged": 26133,
    "bl": 4146,
    "storm": 9680,
    "Ġgor": 9205,
    "Ġmusical": 23890,
    "Ġinconsiderable": 21493,
    "Ġties": 12523,
    "Ġmoot": 22430,
    "urable": 8923,
    "į": 240,
    "Ġachieved": 13164,
    "ibly": 2996,
    "shorn": 22445,
    "Ġmund": 21317,
    "Ġenduring": 16301,
    "ashing": 4824,
    "Ġtreacherously": 25129,
    "com": 988,
    "Ġev": 4828,
    "Ġsuperl": 16444,
    "cop": 20800,
    "Ġderivatives": 2372,
    "Ġvultures": 25653,
    "Ġacquire": 2723,
    "Ġpotency": 14645,
    "Ġplan": 3885,
    "study": 15115,
    "designated": 26295,
    "Ġsymp": 4504,
    "iamond": 14589,
    "Ġshown": 5159,
    "Ġinferences": 17934,
    "Ġprejudiced": 24809,
    "herald": 22206,
    "itioned": 22477,
    "excellent": 8044,
    "Ġscrape": 14916,
    "Ġ68": 24369,
    "Ġ19": 6719,
    "Ġcurving": 16237,
    "Ġhopkins": 23127,
    "conscientious": 19625,
    "Ġscreen": 17204,
    "Ġcharnel": 22250,
    "Ġsparks": 22130,
    "Ġdiffered": 22707,
    "cock": 12022,
    "Ġconversation": 3328,
    "ect": 381,
    "eneva": 5118,
    "Ġknown": 1645,
    "Ġlicensing": 20091,
    "tailed": 17684,
    "Ġcandidate": 16700,
    "Ġsafie": 6617,
    "Ġtattooings": 24900,
    "Ġsunset": 8961,
    "Ġhen": 3501,
    "Ġtherefore": 2239,
    "Ġ96": 24593,
    "Ġsaves": 18323,
    "Ġunfeeling": 14117,
    "yl": 7819,
    "Ġpolitely": 8992,
    "Ġilluminate": 17191,
    "vice": 15447,
    "persuaded": 15071,
    "Ġstraw": 9427,
    "Ġlegend": 14573,
    "irement": 18355,
    "Ġdragged": 6889,
    "Ġfuel": 13902,
    "rubbed": 22182,
    "Ġmusic": 5268,
    "Ġcreaking": 14327,
    "Ġade": 22098,
    "Ġlids": 12272,
    "Ġpal": 4044,
    "umn": 5835,
    "Ġchoked": 9262,
    "Ġbond": 21382,
    "activation": 3230,
    "Ġdash": 8122,
    "kl": 4865,
    "exercise": 17458,
    "queequeg": 4337,
    "rospect": 11610,
    "cceed": 4147,
    "shown": 22442,
    "proposal": 18748,
    "Ġtattoo": 7359,
    "Ġtemporal": 2613,
    "asked": 8910,
    "Ġacquiesced": 25493,
    "Ġrotterdam": 25475,
    "poling": 12216,
    "uttering": 12658,
    "Ġ130": 24781,
    "mitting": 17601,
    "bearers": 18524,
    "Ú": 155,
    "afford": 14653,
    "Ġcaptiv": 16254,
    "pond": 21012,
    "Ġbro": 1432,
    "tern": 4227,
    "Ġcovers": 18596,
    "oftentimes": 19419,
    "Ġusual": 3946,
    "Ġminutely": 14560,
    "Ġcurved": 18849,
    "Ġpalsied": 25779,
    "Ġmuscle": 14688,
    "Ġshouting": 10521,
    "Ġraging": 14301,
    "Ġdislike": 6048,
    "Ġproximity": 3219,
    "Ġpatience": 2751,
    "Ġdoubtfully": 23476,
    "Ġobjection": 6585,
    "sofa": 26146,
    "armed": 7252,
    "Ġcoats": 16073,
    "Ġending": 18189,
    "Ġwith": 349,
    "Ġoscill": 2858,
    "Ġaut": 1824,
    "Ġchurning": 15934,
    "Ġdenial": 13212,
    "Ġhaunts": 18198,
    "Ġwhitewashed": 14467,
    "Ġtaking": 3249,
    "Ġunceasing": 20356,
    "grasping": 20638,
    "tumultuous": 20397,
    "Ġhomely": 25219,
    "Ġstash": 18067,
    "Ġplun": 6281,
    "derment": 22159,
    "finer": 17545,
    "attached": 11932,
    "inforcement": 3142,
    "Ġdates": 6693,
    "irst": 879,
    "Ġvelv": 10618,
    "slo": 17655,
    "expose": 23663,
    "Ġvillainous": 25131,
    "Ġhempen": 13548,
    "ent": 305,
    "Ġ*/": 10372,
    "away": 4626,
    "rooms": 10431,
    "ead": 2600,
    "irts": 9236,
    "Ġwarrant": 17794,
    "characteristic": 24685,
    "twain": 23699,
    "alog": 8803,
    "Ġsteadfast": 8678,
    "Ġbreathlessly": 24279,
    "Ġpaused": 5416,
    "Ġseer": 21957,
    "Ġnapkins": 25161,
    "Ġfancy": 3747,
    "Ġabounding": 12341,
    "Ġdisse": 18548,
    "Ġconvincing": 19307,
    "subtle": 24242,
    "Ġretrieval": 10673,
    "unte": 21871,
    "Ġbled": 17856,
    "Ġmastery": 23990,
    "·": 120,
    "text": 1974,
    "Ġgeorgiana": 8625,
    "obliged": 20630,
    "comm": 7440,
    "Ġblessing": 11262,
    "ellation": 12746,
    "itud": 2930,
    "Ġanaly": 1139,
    "K": 47,
    "Ġ88": 19710,
    "comfort": 5647,
    "Ġbuild": 6474,
    "isles": 15560,
    "Ġshark": 5549,
    "Ġresearch": 3119,
    "Ġvinegar": 20098,
    "boast": 23252,
    "Ġhereditarily": 25224,
    "Ġmelbourne": 24288,
    "Ġsense": 3250,
    "Ġmiscell": 16147,
    "collar": 19327,
    "circ": 4391,
    "cob": 10085,
    "wharf": 20605,
    "Ġtophet": 23571,
    "Ġsaloon": 24062,
    "Ġramadan": 9574,
    "these": 3240,
    "Ġbeg": 1281,
    "Ġhusband": 3621,
    "suitableness": 26260,
    "Ġspur": 18303,
    "Ġreal": 1637,
    "Ġmiracle": 15091,
    "Ġripple": 25504,
    "ples": 6845,
    "ological": 1884,
    "soles": 18686,
    "Ġvalidate": 3052,
    "Ġgrowing": 6750,
    "istry": 22107,
    "Ġburst": 4383,
    "struck": 7863,
    "Ġninetieth": 25357,
    "Ġdusting": 24597,
    "Ġclaws": 15964,
    "Ġjoin": 4853,
    "trade": 19635,
    "Ġgained": 4536,
    "Ġpunctil": 20112,
    "Ġorbs": 22090,
    "elab": 21568,
    "Ġcommon": 1415,
    "mass": 12486,
    "mental": 16057,
    "ariously": 18527,
    "era": 13845,
    "Ġasia": 11680,
    "riot": 18181,
    "Ġcrowder": 19454,
    "Ġache": 18663,
    "philips": 20033,
    "Ġloath": 7892,
    "lingly": 9771,
    "Ġdames": 23472,
    "Ġ53": 19639,
    "charlotte": 6473,
    "Ġprocesses": 3634,
    "Ġstirs": 14915,
    "Ġfleece": 10613,
    "Ġfault": 5702,
    "vital": 17699,
    "Ġdef": 1201,
    "Ġmarlings": 23035,
    "Ġdefendants": 15138,
    "Ġarising": 10932,
    "surround": 16757,
    "Ġhesitation": 13439,
    "sk": 5521,
    "gigantic": 15357,
    "Ġforesee": 19125,
    "Ġextinction": 14334,
    "Ġimitation": 22169,
    "furthermore": 20002,
    "impatiently": 20469,
    "Ġbrighton": 6470,
    "sprinkling": 24912,
    "Ġceremony": 8361,
    "Ġtrepidation": 19214,
    "pemberley": 9619,
    "Ě": 219,
    "Ġpronouncing": 16968,
    "Ġthee": 2623,
    "Ġprey": 6415,
    "Ġcompacted": 23506,
    "Ġtheir": 642,
    "partner": 19221,
    "soft": 12506,
    "Ġappare": 12815,
    "Ġdev": 878,
    "Ġunass": 14112,
    "carb": 20809,
    "Ġquiet": 3260,
    "slide": 24555,
    "Ġnephews": 24713,
    "favourable": 12260,
    "Ġmachinations": 25767,
    "Ġirreproachable": 24917,
    "ize": 764,
    "Ġult": 9073,
    "Ġgrotesque": 26329,
    "inal": 15478,
    "Ġinference": 9670,
    "fam": 5989,
    "Ġalphabetical": 17200,
    "Ġthinks": 6169,
    "irt": 3074,
    "Ġlakes": 8131,
    "Ġrelationships": 2925,
    "amongst": 24672,
    "Ġplow": 21458,
    "Ġbowls": 23768,
    "$": 8,
    "Ġ270": 25130,
    "Ġboat": 1277,
    "Ġexhibited": 9542,
    "paddington": 20476,
    "Ġdank": 21427,
    "Ġfamiliarly": 11302,
    "Ġproverb": 12715,
    "Ġladyship": 5046,
    "Ġdrought": 19277,
    "Ġinvesting": 19645,
    "Ġbingley": 1679,
    "sincerely": 24585,
    "tar": 8098,
    "ĠâĢĶ": 13809,
    "Ġsteamer": 17187,
    "Ġvenom": 24237,
    "entreat": 17975,
    "Ġdiffused": 12065,
    "forgive": 18730,
    "trucks": 25419,
    "clock": 3936,
    "Ġundo": 15837,
    "imprudence": 16556,
    "Ġpunish": 12156,
    "Ġdrawling": 19435,
    "izar": 14048,
    "Ġfru": 8420,
    "teringly": 21821,
    "Ġmorality": 22971,
    "Ġaccountability": 10437,
    "Ġdefinition": 14402,
    "Ġflat": 8228,
    "aby": 18106,
    "Ġmanner": 2197,
    "arrang": 14651,
    "naught": 20993,
    "Ġcrane": 23438,
    "afer": 17480,
    "Ġcrew": 2496,
    "farm": 15349,
    "Ġoutputs": 2887,
    "guessed": 25872,
    "maltese": 24795,
    "Ġchuckled": 10646,
    "decoder": 3645,
    "ved": 867,
    "Ġbonds": 17869,
    "repaid": 24490,
    "Ġbob": 22634,
    "Ġkeeled": 18807,
    "Ġbeds": 14550,
    "Ġvancouver": 26564,
    "Ġlikelihood": 16499,
    "Ġsauc": 15885,
    "Ġresc": 4508,
    "Ġdances": 10811,
    "asc": 6386,
    "Ġlift": 8809,
    "Ġincessant": 15095,
    "chard": 21685,
    "Ġprogramming": 1183,
    "Ġpossibility": 7458,
    "_.": 2213,
    "Ġdisown": 22522,
    "Ġacquisition": 18899,
    "Ġparty": 3510,
    "previously": 17206,
    "ittered": 18438,
    "vol": 719,
    "Ġaccepted": 7751,
    "Ġwhence": 5839,
    "Ġanticipatingly": 26102,
    "Ć": 199,
    "Ġlead": 3522,
    "Ġsliding": 9361,
    "ċ": 204,
    "Ġastonished": 7087,
    "vengeance": 13354,
    "Ġvary": 15804,
    "Ġshowing": 7732,
    "queens": 22903,
    "Ġenl": 18188,
    "cloudless": 20331,
    "injured": 15130,
    "Ġbland": 11063,
    "barrels": 15040,
    "mathematics": 26304,
    "Ġexhibition": 14955,
    "Ġreinforcement": 3423,
    "Ġnoteworthy": 24161,
    "youn": 5690,
    "town": 7142,
    "Ġlingered": 13503,
    "sized": 15426,
    "pounds": 21024,
    "uity": 12514,
    "Ġplough": 18608,
    "range": 3493,
    "Ġinconvenience": 9562,
    "present": 1136,
    "dron": 17524,
    "Ġperry": 22394,
    "Ġderived": 8239,
    "Ġdesired": 4665,
    "Ġcontinued": 2922,
    "Ġride": 12754,
    "Ġfals": 15577,
    "iday": 8828,
    "theast": 21746,
    "lude": 6161,
    "binder": 17498,
    "Ġfits": 8789,
    "Ġhomage": 12352,
    "Ġmurderer": 4980,
    "his": 1414,
    "apple": 22839,
    "Ġquick": 2581,
    "wers": 12516,
    "Ġhysterics": 26093,
    "landish": 11939,
    "Ġcentral": 7728,
    "pipe": 8696,
    "idate": 21765,
    "Ġinjurious": 24269,
    "fashion": 8081,
    "Ġlikely": 3598,
    "Ġbat": 10794,
    "Ġprosperous": 15169,
    "cks": 3077,
    "orton": 11753,
    "Ġcandelab": 23845,
    "Ġbounty": 26436,
    "Ġroundabout": 23060,
    "Ġglobular": 19009,
    "Ġhoisted": 5960,
    "hurried": 11352,
    "sad": 11519,
    "Ġwhale": 627,
    "Ġnaturally": 2466,
    "itic": 11576,
    "Ġbehavioral": 11395,
    "Ġstrat": 16086,
    "happy": 4427,
    "pless": 6260,
    "Ġpersever": 10001,
    "zza": 24166,
    "Ġrestrict": 16374,
    "Ġabstra": 22279,
    "Ġoceans": 7996,
    "Ġjew": 9466,
    "ounts": 4652,
    "Ġvisiting": 10356,
    "Ġfeeds": 16431,
    "Ġoverflowed": 20261,
    "derer": 4601,
    "ache": 8518,
    "Ġpoignant": 22591,
    "Ġsustaining": 25333,
    "intu": 22931,
    "Ġrelief": 6060,
    "Ġcannibal": 7774,
    "land": 1533,
    "Ġfan": 2036,
    "Ġlaugh": 4116,
    "Ġplate": 8897,
    "Ġwatching": 4854,
    "independ": 15978,
    "magistrate": 19862,
    "Ġhandling": 8911,
    "startled": 24941,
    "camp": 15328,
    "traversed": 19638,
    "dest": 4106,
    "tot": 10727,
    "Ġnormalization": 1244,
    "Ġsecretary": 19440,
    "ints": 3418,
    "Ġjets": 10286,
    "atherley": 7220,
    "Ġexpedite": 24953,
    "Ġinsignificant": 20455,
    "alongside": 19788,
    "effect": 8603,
    "Ġstruggled": 9903,
    "pieces": 8754,
    "strongly": 24684,
    "Ġgobern": 22423,
    "Ġrecre": 22738,
    "Ġsoles": 22075,
    "Ġboun": 21378,
    "iors": 9124,
    "Ġcam": 10160,
    "Ġwomanly": 23549,
    "Ġincor": 2610,
    "etting": 21578,
    "Ġaver": 1284,
    "Ġvibrated": 25045,
    "Ġbook": 2702,
    "lydia": 6826,
    "itten": 3442,
    "danger": 10088,
    "acid": 11004,
    "Ġembarkation": 25122,
    "Ġvehicle": 20137,
    "inisc": 15486,
    "ains": 5094,
    "Ġsnugly": 17110,
    "Ġalleged": 17289,
    "Ġmeryton": 4440,
    "Ġconcer": 23318,
    "Ġamaz": 5385,
    "oura": 1060,
    "Ġrap": 14299,
    "Ġdilatory": 24705,
    "Ġfriendless": 23023,
    "Ġfaint": 5811,
    "Ġwast": 21858,
    "aution": 9385,
    "augmented": 26286,
    "Ġbells": 19600,
    "affections": 17355,
    "Ġworldly": 16328,
    "Ġsteal": 16280,
    "othed": 16509,
    "Ġcircumspection": 25884,
    "Ġtrotting": 19974,
    "esc": 616,
    "<UNK>": 3,
    "cooks": 25067,
    "vag": 8764,
    "Ġjetted": 24430,
    "Ġyork": 11663,
    "overlooked": 23321,
    "Ġproperty": 6450,
    "Ġmotives": 7486,
    "Ġk": 484,
    "Ġhog": 13922,
    "uns": 21868,
    "Ġriv": 10745,
    "oldened": 22637,
    "Ġprinted": 11946,
    "igin": 3657,
    "Ġafraid": 3529,
    "cket": 3689,
    "Ġdifficulty": 5770,
    "trowsers": 17690,
    "Ġharpooneer": 3773,
    "Ġsimpl": 1582,
    "Ġdefect": 8554,
    "eze": 20846,
    "Ġvigorous": 10565,
    "riminately": 16481,
    "irting": 11683,
    "Ġdidn": 4365,
    "Ġdeliriously": 23229,
    "eenth": 12457,
    "Ġut": 2280,
    "Ġappal": 18357,
    "Ġimpending": 22382,
    "Ġinestim": 15620,
    "commence": 19990,
    "Ġbedford": 7473,
    "Ġsell": 7826,
    "brushing": 20787,
    "Ġcosy": 13129,
    "Ġlanyard": 26460,
    "sufficiently": 14979,
    "Ġvictim": 6098,
    "Ġinher": 10178,
    "Ġbru": 13893,
    "consol": 9760,
    "befriend": 22490,
    "Ġpetulance": 24226,
    "Ġseeing": 2886,
    "lotte": 3329,
    "Ġtolerable": 6949,
    "Ġchanging": 11750,
    "tese": 21082,
    "aret": 7417,
    "Ġresumed": 11809,
    "Ġcooper": 16074,
    "Ġfighting": 12194,
    "Ġhooked": 19077,
    "Ġtorch": 25030,
    "Ġdusky": 13547,
    "rified": 15417,
    "Ġcorrect": 2432,
    "Ġdeficiency": 14401,
    "Ġcarve": 23091,
    "Ġcand": 3275,
    "repe": 8775,
    "Ġpay": 3966,
    "bulk": 19923,
    "sprit": 11381,
    "?âĢĿâĢĶ": 12891,
    "moby": 8536,
    "ostent": 16845,
    "Ġdisappeared": 5645,
    "Ġbone": 4695,
    "Ġserves": 4669,
    "Ġloved": 4600,
    "rev": 17755,
    "numer": 15397,
    "Ġmaintaining": 1509,
    "Ġturned": 2132,
    "Ġende": 21930,
    "good": 2900,
    "classes": 12132,
    "Ġgradu": 15829,
    "Ġreduce": 7943,
    "Ġintercept": 14267,
    "Ġvault": 8839,
    "Ġintelligence": 565,
    "Ġplaint": 10324,
    "ospel": 17009,
    "Ġroylott": 7305,
    "Ġflag": 7242,
    "Ġdirecting": 16298,
    "Ġundecided": 22046,
    "Ġinsatiable": 19271,
    "Ġvesu": 21947,
    "previous": 9759,
    "Ġunworth": 22034,
    "Ġbarnacled": 25536,
    "Ġlike": 669,
    "Ġdragging": 14475,
    "problems": 11433,
    "Ġcapacity": 10439,
    "Ġfervour": 19737,
    "Ġunceasingly": 20357,
    "notwithstanding": 22749,
    "Ġ133": 24783,
    "Ġachieve": 3674,
    "ered": 1687,
    "Ġspain": 15877,
    "resembled": 21245,
    "Ġgrant": 11870,
    "window": 7743,
    "Ġpurring": 23474,
    "Ġhousings": 21491,
    "Ġinasmuch": 10824,
    "Ġparsee": 6413,
    "Ġtrappings": 23081,
    "Ġpurchased": 12257,
    "ations": 710,
    "Ġappropriated": 23483,
    "Ġgrowled": 19282,
    "rations": 10722,
    "mighty": 9465,
    "cient": 4570,
    "Ġdisgusting": 19893,
    "mists": 17604,
    "Ġfooted": 23794,
    "imag": 6990,
    "Ġunsavory": 20706,
    "Ġpastures": 23418,
    "Ġuninterrupted": 22044,
    "anders": 18152,
    "Ġwears": 10239,
    "Ġfrankness": 16745,
    "wrath": 23754,
    "bat": 8072,
    "nical": 20990,
    "Ġplunged": 8692,
    "Ġfaults": 12209,
    "Ġungrateful": 14119,
    "tall": 17672,
    "Ġbehaved": 13251,
    "Ġ43": 14768,
    "Ġwhine": 21713,
    "ompl": 4537,
    "escape": 16004,
    "Ġharpoone": 2911,
    "ensical": 18567,
    "indef": 17734,
    "absence": 12704,
    "eler": 1573,
    "pale": 13770,
    "endurable": 22226,
    "Ġattracted": 8904,
    "Ġgaining": 9490,
    "Ġfooting": 14481,
    "Ġboneless": 19604,
    "operation": 13499,
    "Ġrode": 15995,
    "roses": 17956,
    "fre": 5425,
    "wra": 11540,
    "Ġfun": 524,
    "Ġthames": 13936,
    "Ġsurprising": 14596,
    "Ġpromises": 10399,
    "Ġovercome": 6044,
    "Ġhast": 3150,
    "expectant": 24274,
    "Ġjuicy": 25370,
    "Ġsiam": 13836,
    "Ġ21": 11198,
    "Ġverte": 9440,
    "Ġarts": 11006,
    "Ġwarbling": 26168,
    "alas": 8802,
    "'": 11,
    "Ġrequire": 903,
    "Ġcust": 11580,
    "Ġwinc": 9641,
    "incess": 15480,
    "Ġbeer": 10218,
    "Ġaverted": 16250,
    "threatened": 25462,
    "Ġverse": 16601,
    "responsible": 25763,
    "Ġlass": 15644,
    "Ġinsinuating": 19270,
    "enthus": 17977,
    "Ġbutcher": 18271,
    "Ġsummers": 23870,
    "Ġpallet": 21480,
    "entire": 6824,
    "stir": 12669,
    "Ġgenerate": 1489,
    "child": 5537,
    "lim": 9605,
    "Ġdeployment": 11192,
    "atre": 17769,
    "Ġrelates": 12977,
    "Ġrumours": 24599,
    "Ġrol": 3554,
    "prairies": 20565,
    "Ġtease": 18800,
    "blown": 25201,
    "icil": 17971,
    "button": 10965,
    "Ġshepherd": 14151,
    "Ġexplicit": 3588,
    "Ġstumbling": 21740,
    "Ġquivers": 22411,
    "warm": 8102,
    "Ġillustrious": 17108,
    "phantoms": 24679,
    "Ġgover": 2461,
    "Ġrustling": 24715,
    "Ġnewfound": 22930,
    "gaz": 20877,
    "Ġdispleasure": 16048,
    "ue": 1180,
    "Ġriveted": 13616,
    "iveness": 2467,
    "bewil": 22496,
    "itage": 17816,
    "Ġpurporting": 19181,
    "Ġfriesland": 26441,
    "Ġhot": 4260,
    "ordinary": 4410,
    "Ġwork": 1304,
    "Ġconfines": 23302,
    "perils": 22185,
    "atory": 6125,
    "Ġmultitudinous": 26273,
    "Ġsmack": 9298,
    "calm": 8933,
    "Ġfive": 2838,
    "farmer": 25899,
    "Ġdispersed": 16596,
    "Ġconfine": 14508,
    "Ġconsec": 21803,
    "smug": 23905,
    "Ġstout": 6025,
    "sticks": 25965,
    "jammed": 25906,
    "Ġmamm": 25090,
    "bowing": 24453,
    "Ġrocky": 13385,
    "Ġpom": 21451,
    "Ġcoloured": 11044,
    "Ġbites": 23741,
    "condesc": 18505,
    "Ġvariety": 8530,
    "Ġdesmarest": 22974,
    "ital": 4817,
    "standard": 22429,
    "beware": 16037,
    "Ġunfathomably": 25873,
    "Ġoverthrow": 18431,
    "Ġprayers": 12120,
    "Ġtoma": 7373,
    "angs": 5833,
    "Ġanew": 11429,
    "Ġseated": 4542,
    "riv": 3107,
    "Ġinfle": 16360,
    "host": 5867,
    "Ġbestowing": 16970,
    "Ġgravity": 9246,
    "notice": 16144,
    "Ġexercised": 24803,
    "istically": 14142,
    "Ġages": 7027,
    "buff": 15316,
    "av": 740,
    "Ġsucceed": 4546,
    "Ġstrung": 22614,
    "Ġspont": 22129,
    "Ġcuba": 25095,
    "Ġconquered": 14024,
    "Ġsad": 3870,
    "Ġcrater": 16437,
    "Ġhatred": 8608,
    "doors": 19094,
    "Ġoccurring": 2793,
    "Ġmanx": 7906,
    "civilities": 24973,
    "crime": 14781,
    "rendering": 22338,
[...]
