{
  "metadata": {
    "vocab_size": 26616,
    "algorithm": "BPE",
    "created_at": "2026-05-11 05:57:35",
    "special_tokens": [
      "<PAD>",
      "<SOS>",
      "<EOS>",
      "<UNK>",
      "<MASK>"
    ]
  },
  "vocab": {
    "Ġextrem": 2474,
    "Ġphysi": 9991,
    "Ġbosoms": 16797,
    "gained": 20883,
    "Ġhermit": 15861,
    "contriv": 19294,
    "he": 264,
    "Ġmeridian": 25713,
    "Ġbare": 6134,
    "Ġgrappling": 25813,
    "byshire": 6174,
    "glit": 23853,
    "Ġqualified": 14953,
    "liter": 11503,
    "ibid": 18843,
    "Ġbland": 11065,
    "jac": 8382,
    "Ġrejected": 12298,
    "Ġtortoise": 16910,
    "Ġdecanting": 22442,
    "Ġwarning": 9061,
    "Ġseams": 12129,
    "Ġostlers": 25277,
    "threshold": 21991,
    "Ġrich": 2991,
    "follows": 24528,
    "progress": 11992,
    "expressing": 16803,
    "Ġann": 4491,
    "courageous": 26128,
    "Ġdisk": 22526,
    "ginger": 13167,
    "grown": 10102,
    "Ġoutside": 5554,
    "walking": 9985,
    "ake": 749,
    "embra": 14079,
    "Ġmassive": 9935,
    "Ġaway": 1247,
    "Ġfowler": 16939,
    "seam": 10875,
    "imly": 12692,
    "Ġstag": 6150,
    "Ġdocks": 14180,
    "Ġfiends": 14831,
    "Ġmathematical": 3353,
    "Ġexpenses": 11839,
    "Ġawful": 6201,
    ".âĢĻâĢĿ": 6741,
    "Ġste": 1388,
    "Ġabstained": 25232,
    "Ġrim": 21969,
    "Ġrendering": 16660,
    "Ġinches": 5846,
    "Ġairs": 14512,
    "Ġegypt": 9681,
    "Ġfant": 9176,
    "Ġdl": 3378,
    "clearer": 24071,
    "Ġconcise": 23325,
    "dri": 5889,
    "Ġticklish": 25037,
    "nett": 16224,
    "Ġexasperated": 11413,
    "Ġimpute": 18332,
    "ubl": 3596,
    "Ġsadly": 7302,
    "Ġjournal": 15222,
    "Ġendeavour": 4679,
    "Ġsporting": 17001,
    "Ġdelivered": 11117,
    "Ġspot": 4156,
    "Ġimpression": 5732,
    "Ġpersistence": 2945,
    "Ġcompanions": 5867,
    "wart": 17707,
    "ax": 691,
    "note": 14343,
    "Ġgleams": 17313,
    "Ġproxim": 3199,
    "Ġcarpenters": 16754,
    "Ġnominal": 15172,
    "Ġinfinitely": 8966,
    "Ġbarricade": 14662,
    "Ġrustling": 24714,
    "Ġmeanness": 22602,
    "Ġinward": 11609,
    "lott": 6653,
    "Ġroses": 11790,
    "uberance": 25917,
    "Ġfoolscap": 24159,
    "Ġresting": 7962,
    "abomin": 15746,
    "Ġencountering": 11270,
    "Ġinconveniences": 24942,
    "Ġjacket": 6490,
    "Ġkilburn": 18352,
    "influ": 9544,
    "Ġoccasions": 7988,
    "Ġcalling": 5662,
    "Ġproblem": 1271,
    "sho": 6426,
    "satisfaction": 9995,
    "Ġearthquake": 14630,
    "start": 7599,
    "father": 3776,
    "drab": 23902,
    "bank": 10082,
    "Ġsto": 1501,
    "Ġpark": 5465,
    "omination": 21645,
    "bted": 7794,
    "ede": 21509,
    "Ġreigned": 13990,
    "Ġclanging": 18423,
    "Ġhammock": 5768,
    "shame": 16025,
    "Ġissue": 2311,
    "Ġscud": 14190,
    "Ġlock": 5929,
    "Ġmeta": 3270,
    "pher": 11513,
    "Ġanim": 2112,
    "anxious": 15113,
    "Ġrue": 11871,
    "separ": 9233,
    "nay": 7137,
    "Ġlayer": 1013,
    ";âĢĶ": 3749,
    "Ġdoxology": 22248,
    "Ġcrushing": 20179,
    "Ġreser": 5170,
    "Ġpaws": 13924,
    "Ġstacks": 18077,
    "itives": 17821,
    "ping": 9618,
    "quietly": 10595,
    "Ġfourth": 7707,
    "Ġxxxvi": 24972,
    "Ġimpul": 7208,
    "Ġdines": 21426,
    "Ġlulled": 17971,
    "partner": 19223,
    "oun": 482,
    "Ë": 140,
    "Ġissues": 9545,
    "brow": 15319,
    "Ġcolourless": 19572,
    "Ġloc": 10915,
    "slee": 17171,
    "Ġconsoled": 18115,
    "Ġsepulchral": 25893,
    "fen": 20852,
    "pennies": 26287,
    "cred": 9111,
    "Ġdetected": 18833,
    "nantucket": 7804,
    "long": 2912,
    "Ġhides": 16267,
    "Ġburly": 19252,
    "Ġdecorated": 22444,
    "Ġwarehouse": 20420,
    "Ġenvelop": 5588,
    "Ġgenerally": 4159,
    "Ġcrad": 21352,
    "Ġlecture": 13571,
    "Ġdestroy": 5772,
    "Ġcl": 553,
    "Ġowners": 7663,
    "Ġwinter": 5220,
    "Ġunceasingly": 20362,
    "Ġwhir": 6394,
    "Ġlimber": 16481,
    "culous": 11142,
    "Ġburnt": 9931,
    "Ġemployed": 5200,
    "Ġcran": 12005,
    "Ġfrigid": 17355,
    "_?âĢĿ": 15309,
    "hist": 7132,
    "Ġstung": 21743,
    "Ġdepos": 11007,
    "Ġmisgivings": 15294,
    "Ġstudying": 9850,
    "dimensional": 2349,
    "Ġrescales": 5068,
    "circ": 4390,
    "ir": 379,
    "´": 117,
    "Ġalong": 1978,
    "trifling": 19417,
    "Ġsleeping": 6321,
    "Ġmathematics": 12078,
    "Ġpant": 10819,
    "later": 20955,
    "adventurous": 25362,
    "Ġadvantage": 4316,
    "Ġrapid": 1410,
    "Ġenraged": 10247,
    "alarm": 15631,
    "borean": 25744,
    "turned": 7306,
    "agged": 9240,
    "isbury": 21380,
    "Ġtwink": 8216,
    "Ġadvocate": 13680,
    "occur": 19578,
    "time": 3145,
    "pass": 4291,
    "Ġwal": 6518,
    "Ġupstairs": 5837,
    "Ġroused": 7623,
    "Ġbodies": 8032,
    "conceive": 16034,
    "Ġsow": 17751,
    "Ġheroic": 14911,
    "Ġstool": 14465,
    "jam": 15375,
    "enari": 21284,
    "Ġsure": 1863,
    "Ġaband": 6563,
    "ging": 2601,
    "being": 3915,
    "Ġremind": 6059,
    "geneva": 13733,
    "ousness": 10277,
    "flour": 23969,
    "trunk": 23951,
    "Ġrespect": 1669,
    "Ġaccording": 5508,
    "iscient": 17853,
    "Ġextremest": 19196,
    "Ġrepetition": 8975,
    "Ġscrupled": 25052,
    "oking": 4607,
    "Ġmoses": 21318,
    "Ġneared": 14076,
    "happ": 3103,
    "Ġsobbed": 14139,
    "atherley": 7220,
    "onsible": 22567,
    "Ġjerked": 19835,
    "Ġpersuas": 23950,
    "Ġiroquois": 26472,
    "failed": 20865,
    "ispiece": 19728,
    "Ġmusty": 22683,
    "Ġregent": 18599,
    "Ġaforethought": 25429,
    "shop": 14238,
    "Ġerecting": 24653,
    "Ġhovers": 19080,
    "appin": 18760,
    "pred": 2803,
    "Ġledge": 19404,
    "presumption": 20445,
    "ishly": 14202,
    "Ġgills": 17995,
    "adoes": 11663,
    "consciously": 19628,
    "guinea": 16675,
    "icken": 6713,
    "bless": 22316,
    "Ġaunt": 3177,
    "Ġmould": 6520,
    "ificant": 22210,
    "Ġtiara": 26417,
    "Ġstate": 1809,
    "writes": 4988,
    "ß": 160,
    "complied": 19915,
    "Ġgently": 7172,
    "ributed": 8215,
    "Ġtanning": 17731,
    "Ġunflinching": 26514,
    "Ġsuspicions": 9482,
    "Ġoffend": 16148,
    "Ġindies": 22954,
    "Ġtoad": 21513,
    "Ġdishonoured": 20394,
    "Ġconstructed": 9389,
    "Ġ97": 19777,
    "Ġfondness": 16782,
    "Ġgrief": 4621,
    "importance": 9992,
    "Ġmeet": 2805,
    "Ġapt": 9158,
    "Ġdimin": 3871,
    "Ġunparalleled": 15857,
    "Ġchina": 8040,
    "anged": 3589,
    "agree": 14070,
    "property": 20003,
    "vel": 2385,
    "Ġbackbones": 22654,
    "ationally": 15709,
    "Ġ\"": 6121,
    "Ġmysteries": 11323,
    "produced": 25415,
    "concerned": 24639,
    "Ġfurnace": 19443,
    "lucases": 20213,
    "Ġslu": 13839,
    "engineer": 23151,
    "Ġslept": 8259,
    "Ġquill": 12862,
    "coun": 10690,
    "Ġcough": 11583,
    "Ġinvisible": 7327,
    "league": 17846,
    "Ġbouquet": 20686,
    "vings": 9754,
    "Ġcorresponding": 13442,
    "articulate": 17401,
    "Ġgift": 10842,
    "Ġasks": 5115,
    "alterable": 13628,
    "]": 65,
    "Ġtraditions": 11444,
    "dances": 17523,
    "Ġoffences": 18692,
    "Ġe": 312,
    "investigations": 25534,
    "Ġaccumul": 1413,
    "Ġreader": 11938,
    "Ġtherefore": 2241,
    "Ġincline": 18573,
    "ieties": 19025,
    "Ġleatherhead": 20017,
    "Ġexactly": 2769,
    "atched": 6376,
    "Ġchilled": 18383,
    "distinguished": 10529,
    "Ġtwisted": 7228,
    "Ġvoid": 14089,
    "Ġamount": 8514,
    "Ġhop": 1462,
    "Ġmiller": 19885,
    "Ġnantucketer": 6914,
    "Ġgenteel": 19984,
    "Ġartificial": 787,
    "Ġrevered": 23737,
    "Ġestablished": 9072,
    "compl": 6873,
    "Ġsqueezing": 25009,
    "Ġprime": 10406,
    "!âĢĶâĢĻ": 23567,
    "Ġtexture": 19162,
    "Ġretreated": 13437,
    "Ġbohemian": 17136,
    "Ġframework": 2065,
    "Ġcit": 10785,
    "Ġdeserving": 14756,
    "Ġausten": 5882,
    "Ġpharaoh": 26587,
    "Ġbeware": 8832,
    "==": 943,
    "Ġbeneath": 3238,
    "Ġarthur": 7196,
    "search": 8467,
    "within": 6732,
    "ļ": 253,
    "Ġdeclines": 23966,
    "Ġawaiting": 11391,
    "tubes": 25212,
    "Ġoverwhelmed": 11404,
    "Ġtreacle": 14597,
    "neck": 14243,
    "useful": 16504,
    "claimed": 9839,
    "icked": 10335,
    "Ġsurmis": 23465,
    "Ġsnugness": 20080,
    "Ġa": 263,
    "haven": 20914,
    "Ġtrunk": 7205,
    "harpoons": 24287,
    "Ġacquaintance": 4134,
    "yards": 9626,
    "Ġcoloured": 11045,
    "Ġsalt": 8017,
    "Ġlightnings": 16356,
    "poured": 17639,
    "Ġperseus": 10606,
    "Ġaverred": 18867,
    "eager": 12464,
    "Ġsignifies": 19205,
    "Ġhairs": 13235,
    "neighbour": 7211,
    "Ġprotracted": 19472,
    "Ġseason": 5238,
    "Ġaccumulation": 2692,
    "iot": 9603,
    "Ġtribe": 10753,
    "Ġlawyer": 10671,
    "istle": 15874,
    "hark": 15369,
    "Ġmyst": 4052,
    "Ġassembly": 10645,
    "Ġxvi": 19106,
    "bran": 23576,
    "while": 2934,
    "Ġpowerful": 1443,
    "Ġknighthood": 25298,
    "Ġalike": 8147,
    "ov": 15403,
    "ister": 1294,
    "Ġcringing": 25942,
    "Ġunhallowed": 17183,
    "hunsford": 24386,
    "Ġmiss": 1235,
    "Ġbenchmarks": 15024,
    "Ġforswe": 21778,
    "ieved": 3230,
    "lays": 14925,
    "Ġparamore": 22126,
    "osoever": 17346,
    "·": 120,
    "Ġobey": 9522,
    "wharf": 20609,
    "Ġstretched": 5921,
    "pumps": 21029,
    "gno": 13730,
    "Ġje": 4124,
    "disinterested": 23503,
    "obedience": 17413,
    "ateur": 22075,
    "reng": 4002,
    "Ġurgent": 16871,
    "Ġmargin": 11924,
    "Ġintegration": 9871,
    "semicirc": 26493,
    "Ġactivations": 2720,
    "Ġgallop": 19558,
    "Ġhistorical": 3645,
    "Ġformless": 22832,
    "Ġgrenadier": 21619,
    "Ġpredicting": 2413,
    "furn": 10094,
    "Ġnourishment": 15196,
    "Ġhart": 17924,
    "Ġsplitting": 4385,
    "Ġislanders": 19505,
    "Ġrespons": 2683,
    "hidden": 17374,
    "Ġheedfully": 24521,
    "Ġreiter": 21669,
    "ject": 875,
    "Ġhackluyt": 25656,
    "Ġunconquerable": 22065,
    "ration": 2003,
    "ps": 4575,
    "Ġsagacious": 14974,
    "Ġhorsey": 24252,
    "gracechurch": 24582,
    "Ġsoon": 1232,
    "Ġjib": 14196,
    "Ġcautiously": 16979,
    "Ġmississippi": 20727,
    "named": 9898,
    "Ġfullest": 14817,
    "Ġfore": 2153,
    "Ġflood": 7716,
    "looked": 6084,
    "Ġhyper": 19742,
    "creator": 26383,
    "Ġcommands": 16591,
    "Ġspat": 2663,
    "oda": 15753,
    "Ġoverfitting": 1544,
    "cary": 10693,
    "Ġestimable": 23875,
    "Ġmile": 7152,
    "Ġcister": 13885,
    "Ġforeb": 12008,
    "Ġfly": 3869,
    "bottom": 11427,
    "self": 617,
    "Ġlevers": 18080,
    "Ġnineveh": 13393,
    "Ġmeadows": 11423,
    "Ġstoutest": 24629,
    "Ġextraction": 11253,
    "Ġthirty": 4944,
    "Ġdollar": 25284,
    "Ġdistant": 5387,
    "gryphon": 15362,
    "Ġhorizont": 6937,
    "ivering": 7698,
    "Ġob": 860,
    "Ġinquiry": 6485,
    "returns": 23143,
    "Ġtophet": 23575,
    "Ġcronies": 23442,
    "Ġdoors": 6419,
    "Ġlunatic": 24993,
    "Ġstout": 6026,
    "instead": 14816,
    "Ġmightiest": 12965,
    "Ġ104": 24412,
    "fellow": 6793,
    "grampus": 18617,
    "Ġware": 12559,
    "ged": 1515,
    "Ġbrack": 23839,
    "Ġkelson": 18351,
    "Ġlect": 9225,
    "Ġsuburban": 17349,
    "Ġlength": 2499,
    "its": 1150,
    "Ġillustration": 19137,
    "athans": 7433,
    "canonical": 22968,
    "baboon": 25517,
    "gunpowder": 25340,
    "venor": 16104,
    "Ġbegrimed": 26580,
    "Ġanonym": 17899,
    "Ġthrice": 10578,
    "Ġprodigies": 19796,
    "Ġambition": 11433,
    "Ġsound": 2244,
    "Ġrejoiced": 8687,
    "matical": 13133,
    "Ġgambler": 26192,
    "Ġmizzen": 20292,
    "Ġmortar": 19396,
    "veil": 18045,
    "enthus": 17980,
    "Ġundec": 22021,
    "Ġintentionally": 24523,
    "Ġmeryton": 4440,
    "wal": 10136,
    "Ġarbitrary": 4737,
    "Ġmitigating": 1620,
    "Ġmerrily": 23735,
    "Ġdais": 24372,
    "Ġenhancement": 23720,
    "Ġjanuary": 13657,
    "Ġangel": 4854,
    "Ġmanual": 14200,
    "Ġglance": 4234,
    "Ġhug": 6980,
    "Ġelud": 22659,
    "Ġamusing": 11804,
    "Ġmapple": 11151,
    "Ġwick": 2004,
    "Ġtechnically": 12370,
    "labour": 23918,
    "Ġrazors": 22652,
    "ilogue": 21728,
    "Ġstandpoint": 23281,
    "_)âĢĶ": 20147,
    "Ġherein": 16194,
    "Ġswallowed": 7944,
    "Ġdauntless": 26338,
    "Ġalluding": 18237,
    "ples": 6845,
    "Ġweedy": 15797,
    "sighted": 19788,
    "cked": 2763,
    "Ġtak": 15472,
    "directly": 13712,
    "Ġfault": 5702,
    "Ġcomprise": 18587,
    "Ġregal": 16083,
    "Ġflank": 8229,
    "Ġtruck": 19514,
    "Ġaccosted": 13676,
    "Ġlunacy": 20031,
    "throughout": 24090,
    "Ġbedside": 19125,
    "preserver": 20216,
    "Ġrepeated": 3831,
    "Ġswiftly": 5670,
    "Ġnovember": 11753,
    "Ġwhisky": 23937,
    "ion": 296,
    "Ġwhilst": 9221,
    "Ġinspector": 6499,
    "persuaded": 15077,
    "Ġintervening": 17270,
    "Ġweld": 8112,
    "Ġappertaining": 26535,
    "Ġguidance": 9420,
    "oons": 12503,
    "otence": 14026,
    "Ġinhospit": 25453,
    ",âĢĿ": 580,
    "diversity": 25898,
    "Ġxlix": 25861,
    "etch": 9207,
    "adm": 7609,
    "tort": 17677,
    "perceive": 12814,
    "onic": 7827,
    "Ġsimplest": 16337,
    "Ġpeculiarity": 12938,
    "muttered": 13762,
    "Ġvision": 1613,
    "breath": 15166,
    "Ġkiller": 19571,
    "ork": 416,
    "conda": 18994,
    "Ġsharpened": 17368,
    "Ġunfold": 8022,
    "educ": 10830,
    "Ġushered": 18357,
    "onent": 21251,
    "stopping": 19353,
    "Ġseventeen": 26212,
    "Ġshoreless": 24297,
    "learning": 2524,
    "Ġsordid": 26424,
    "urp": 1473,
    "Ġoverspread": 14208,
    "Ġignorant": 5344,
    "approach": 24834,
    "Ġundeniable": 26512,
    "Ġafterwards": 3533,
    "Ġruminated": 24600,
    "Ġcottages": 14730,
    "Ġknots": 15011,
    "black": 6769,
    "adays": 14016,
    "Ġimpet": 11783,
    "xes": 21143,
    "Ġaccidents": 10298,
    "Ġknob": 24407,
    "fowl": 17551,
    "Ġmud": 11575,
    "Ġamazed": 14892,
    "Ġview": 2762,
    "thrasher": 25659,
    "Ġstrained": 10221,
    "Ġbenediction": 18787,
    "achment": 5464,
    "Ġgamesome": 17292,
    "ected": 7873,
    "Ġfiddle": 25445,
    "ivery": 17574,
    "Ġrobbed": 23042,
    "frau": 15093,
    "vener": 21114,
    "accepting": 20138,
    "Ġfevers": 22211,
    "Ġmill": 6669,
    "Ġhonest": 7287,
    "Ġstore": 8455,
    "Ġadmiring": 16482,
    "confirm": 16809,
    "Ġexhausted": 8697,
    "Ġtaffrail": 15479,
    "oquence": 11387,
    "Ġseverely": 14936,
    "complet": 11384,
    "reeable": 3612,
    "Ġtoilet": 13940,
    "allowed": 5728,
    "Ġmount": 7362,
    "Ġenumer": 12750,
    "Ġdodge": 19888,
    "Ġencomp": 12967,
    "lilies": 20963,
    "Ġequinox": 25857,
    "unnatural": 15777,
    "impotence": 23764,
    "Ġunspeak": 8854,
    "95": 17480,
    "creature": 5347,
    "no": 886,
    "Ġlamps": 14794,
    "Ġwigwam": 11429,
    "sailed": 17668,
    "Ġsuit": 5725,
    "Ġspecialized": 3921,
    "._]]": 5335,
    "ċ": 204,
    "thrill": 25657,
    "Ġdistrusted": 13545,
    "Ġtambourine": 9567,
    "notice": 16151,
    "Ġgipsies": 12429,
    "beautiful": 10651,
    "cannot": 5745,
    "ij": 7802,
    "teak": 22818,
    "Ġconjectured": 10000,
    "**": 4687,
    "gypt": 8261,
    "Ġexped": 7651,
    "Ġsharply": 9406,
    "Ġfishing": 9665,
    "Ġhogarth": 25781,
    "Ġattendant": 11286,
    "Ġointment": 21329,
    "Ġfettered": 24569,
    "Ġespe": 21158,
    "Ġdeceit": 13485,
    "ursday": 12281,
    "Ġconfidently": 24958,
    "Ġpredict": 667,
    "Ġnormalizes": 1861,
    "Ġprovoking": 16745,
    "full": 7420,
    "Ġlabyrinth": 13683,
    "Ġdecide": 9289,
    "thousands": 16874,
    "Ġbreaks": 13187,
    "Ġoriginal": 6104,
    "Ġfile": 13906,
    "Ġsurpasses": 25269,
    "Ġtransform": 755,
    "Ġtem": 807,
    "Ġexpanding": 25239,
    "Ġhoars": 19079,
    "@": 36,
    "them": 3016,
    "Ġpersuasions": 16634,
    "ato": 17771,
    "Ġbehooves": 20735,
    "customary": 25896,
    "Ġprinted": 11953,
    "shortly": 12263,
    "Ġcompress": 21860,
    "Ġmien": 17810,
    "crier": 20822,
    "iality": 8848,
    "Ġtis": 15468,
    "ocation": 14628,
    "disaster": 23495,
    "Ġspeech": 4611,
    "company": 9463,
    ")âĢĶâĢľ": 20745,
    "glow": 20876,
    "heed": 15501,
    "per": 479,
    "iloquent": 21729,
    "ens": 701,
    "Ġdedu": 5585,
    "devil": 7895,
    "Ġbrim": 12981,
    "Ġunsavory": 20709,
    "Ġchapter": 2955,
    "Ġrocks": 6863,
    "É": 138,
    "encing": 21285,
    "announce": 24561,
    "irted": 14075,
    "Ġdesignated": 19524,
    "lake": 13752,
    "Ġbeggars": 20632,
    "Ġreceives": 20357,
    "Ġshad": 3849,
    "Ġlungs": 8362,
    "Ġbreathe": 9015,
    "Ġequ": 1733,
    "Ġreplen": 11115,
    "war": 6803,
    "Ġloite": 22115,
    "Ġlacepede": 20499,
    "Ġcleaning": 23184,
    "Ġfielding": 16237,
    "Ġliable": 14231,
    "Ġhogshe": 20495,
    "horse": 8609,
    "desolate": 25717,
    "Ġtea": 5041,
    "Ġpinched": 17036,
    "my": 1316,
    "Ġpond": 13919,
    "Ġblurred": 22934,
    "Ġprogra": 1146,
    "ego": 4037,
    "Ġlets": 18079,
    "Ġcyn": 13889,
    "hunter": 10558,
    "Ġornamented": 20365,
    "Ġunnaturally": 24871,
    "Ġbir": 17855,
    "Ġevolved": 9894,
    "ator": 1923,
    "Ġinfinite": 8579,
    "lodged": 25908,
    "Ġinserted": 8356,
    "asingly": 17963,
    "mock": 5174,
    "Ġlandsman": 11351,
    "osy": 11762,
    "needle": 20316,
    "idays": 21774,
    "Ġunlimited": 26224,
    "marriage": 7745,
    "Ġeffaced": 18542,
    "Ġtrump": 8197,
    "Ġimpressed": 8199,
    "heavy": 10577,
    "Ġsaw": 1349,
    "Ġbleeding": 14883,
    "Ġsurmise": 12299,
    "Ġpays": 13301,
    "seriously": 18906,
    "magnitude": 17251,
    "conjectured": 25182,
    "Ġconsidered": 4612,
    "Ġunche": 23431,
    "Ġarmy": 11745,
    "bit": 3932,
    "po": 1140,
    "Ġtertiary": 15298,
    "Ġinhale": 20303,
    "epilogue": 22104,
    "Ġpretensions": 16560,
    "iam": 2508,
    "Ġspear": 9317,
    "Ġminers": 22836,
    "impart": 21712,
    "Ġranges": 2884,
    "ishness": 22346,
    "madness": 14885,
    "Ġclose": 3034,
    "or": 282,
    "moid": 2450,
    "Ġtour": 9150,
    "Ġharmony": 16816,
    "Ġvillagers": 19477,
    "Ġportraits": 20145,
    "Ġproposals": 10616,
    "conscientious": 19629,
    "Ġshri": 5375,
    "Ġmaz": 15546,
    "mant": 20967,
    "Ġillness": 8593,
    "Ġnearer": 5303,
    "cottagers": 20051,
    "itely": 5365,
    "Ġdilatory": 24704,
    "Ġplat": 8523,
    "oss": 10118,
    "Ġtalked": 4422,
    "Ġmister": 22761,
    "Ġplatform": 17134,
    "Ġchosen": 7201,
    "erval": 4020,
    "itious": 8784,
    "crucible": 24843,
    "Ġhazarded": 25655,
    "Ġresentment": 7530,
    "Ġfaces": 6010,
    "followed": 8339,
    "Ġrecept": 1525,
    "Ġpondered": 15170,
    "subjects": 19878,
    "_âĢĿ": 20763,
    "Ġpointed": 4774,
    "Ġbusier": 23339,
    "Ġbarb": 4532,
    "ĠĠĠĠĠĠĠĠĠĠĠĠĠĠĠĠĠĠĠĠĠĠĠĠĠĠĠĠĠ": 19702,
    "Ġvalleys": 14922,
    "Ġsurest": 19058,
    "resp": 13842,
    "brother": 7093,
    "Ġpivot": 13926,
    "Ġvowed": 14087,
    "Ġdesolated": 24809,
    "Ġglimpses": 13436,
    "Ġfood": 5080,
    "Ġkidnapping": 26358,
    "Ġsimulates": 2739,
    "shows": 22450,
    "rael": 21632,
    "sin": 21051,
    "mentioning": 24886,
    "Ġsetting": 7048,
    "mas": 5212,
    "Ġwall": 3842,
    "Ġtransparen": 10544,
    "Ġbureau": 11592,
    "upset": 23021,
    "parlour": 16394,
    "Ġmerit": 9430,
    "Ġdinner": 4245,
    "±": 114,
    "Ġexclaimed": 4684,
    "astonished": 15035,
    "Ġcomplying": 18588,
    "thread": 15830,
    "Ġencoder": 3635,
    "reinforcement": 7826,
    "Ġorganization": 7984,
    "Ġsecurity": 8980,
    "remember": 7262,
    "elastic": 17983,
    "Ġdurst": 20355,
    "Ġ33": 16678,
    "Ġconversing": 14635,
    "certain": 3675,
    "envelope": 17784,
    "heart": 4527,
    "Ġcordiality": 24395,
    "Ġoffended": 7042,
    "gl": 3291,
    "Ġcobweb": 22589,
    "Ġjumbled": 22301,
    "Ġwrig": 13073,
    "Ġconsumm": 15158,
    "Ġindifference": 6727,
    "utored": 15667,
    "venerable": 26410,
    "Ġdesp": 3215,
    "anke": 15565,
    "izar": 14052,
    "Ġconnecting": 18634,
    "Ġspr": 4026,
    "Ġwalking": 4323,
    "aract": 17896,
    "Ġdiffusion": 23785,
    "Ġfalsehood": 10526,
    "Ġvisits": 8223,
    "Ġallow": 1127,
    "anchor": 13892,
    "Ġhandle": 3135,
    "Ġhyster": 16875,
    "ile": 522,
    "Ġtemptations": 24508,
    "Ġscruples": 15082,
    "skeleton": 17379,
    "[": 63,
    "Ġjur": 12839,
    "performed": 18340,
    "isher": 2879,
    "phenomenon": 17650,
    "Ġaffection": 2639,
    "different": 6502,
    "batim": 25019,
    "Ġimpious": 15990,
    "iii": 14780,
    "Ġeffusion": 22524,
    "subst": 12169,
    "Ġrural": 21971,
    "Ġtrap": 7672,
    "Ġdivide": 12115,
    "1775": 26380,
    "Ġdumbly": 24988,
    "Ġrepublican": 17415,
    "Ġtangles": 25762,
    "Ġsensibility": 14513,
    "rapid": 12675,
    "Ġcask": 5527,
    "Ġcommended": 18657,
    "Ġugliness": 20430,
    "suitableness": 26262,
    "camp": 15333,
    "amp": 2606,
    "Ġdeserve": 8309,
    "Ġgreece": 17070,
    "ium": 4865,
    "constantinople": 25508,
    "springing": 24890,
    "square": 15062,
    "Ġmiserably": 12952,
    "arians": 18526,
    "Ġband": 5292,
    "Ġcataract": 23430,
    "oric": 21399,
    "Ġforbade": 15218,
    "Ġjav": 7902,
    "Ġnupt": 13946,
    "dutch": 17221,
    "Ġeighty": 19479,
    "Ġomit": 17817,
    "sight": 5996,
    "Ġpoorly": 9858,
    "Ġcommentaries": 20163,
    "ruct": 694,
    "mile": 17599,
    "earn": 10698,
    "Ġtimorous": 24228,
    "Ġsimilarity": 3166,
    "Ġconcept": 662,
    "Ġvap": 6837,
    "reserved": 13846,
    "appeared": 4282,
    "Ġcountrymen": 23597,
    "operations": 19978,
    "inburgh": 15493,
    "constellation": 24608,
    "Ġwarped": 25038,
    "ighbour": 3390,
    "collins": 6916,
    "Ġlinguistic": 12428,
    "Ġreasoning": 2010,
    "Ġdesigns": 13017,
    "Ġdisinclination": 22540,
    "Ġrounded": 14442,
    ").": 1272,
    "try": 7812,
    "Ġgiver": 21608,
    "dishon": 20407,
    "dial": 20827,
    "alcul": 15632,
    "Ġobliv": 16137,
    "Ġcautiousness": 19868,
    "Ġclothe": 4713,
    "Ġinsp": 2099,
    "Ġwishing": 7830,
    "osite": 4894,
    "oundered": 14167,
    "Ġrevers": 21667,
    "Ġinto": 649,
    "alse": 4186,
    "Ġfraud": 19040,
    "Ġfix": 2507,
    "Ġanalyze": 1532,
    "determ": 7107,
    "Ġadie": 8491,
    "hearth": 15502,
    "Ġadventures": 7748,
    "Ġher": 427,
    "unearthly": 19275,
    "Ġupwards": 7634,
    "turbaned": 24532,
    "even": 3837,
    "Ġzigzag": 26274,
    "sensations": 20054,
    "Ġobsequious": 17407,
    "Ġcharity": 8866,
    "Ġreceptacle": 23195,
    "Ġmeasured": 9807,
    "Ġclust": 9277,
    "lic": 17589,
    "Ġdru": 8423,
    "Ġdivert": 23595,
    "niest": 18969,
    "Ġbeen": 626,
    "Ġtragedies": 25242,
    "Ġdiab": 10614,
    "Ġbarbara": 24815,
    "adventure": 17236,
    "luded": 4229,
    "Ġconceals": 23907,
    "Ġlegend": 14577,
    "Ġinterchange": 16078,
    "Ġmeasure": 3595,
    "Ġdespondence": 25870,
    "Ġconcert": 11971,
    "obser": 11101,
    "Ġslavish": 23177,
    "Ġfring": 11128,
    "Ġmarry": 4419,
    "Ġlearnt": 7615,
    "ires": 6039,
    "Ġcurvature": 3575,
    "prairies": 20569,
    "Ġundaunted": 24120,
    "Ġparad": 2842,
    "ly": 319,
    "Ġscal": 1565,
    "Ġprodigiously": 14935,
    "medi": 2629,
    "suggest": 20379,
    "Ġoperation": 12003,
    "Ä": 133,
    "alth": 3257,
    "Ġtennessee": 26598,
    "Ġvehicles": 10662,
    "Ġdisturbance": 15015,
    "Ġintens": 7004,
    "Ġunmolested": 15249,
    "Ġmorbidness": 20631,
    "ex": 622,
    "Ġwipe": 25765,
    "Ö": 151,
    "Ġgasp": 7173,
    "Ġk": 484,
    "Ġramadans": 25122,
    "wail": 21128,
    "Ġcontent": 5034,
    "Ľ": 254,
    "Ġpeasant": 13555,
    "mers": 9613,
    "Ġdialogue": 12408,
    "Ġlasted": 11055,
    "pedest": 24823,
    "Ġsne": 6373,
    "Ġwhispered": 5338,
    "Ġbats": 13903,
    "Ġapplied": 6188,
    "irably": 13300,
    "Ġbeauties": 10447,
    "Ġdist": 680,
    "possess": 5985,
    "Ġhaggard": 17333,
    "ina": 21182,
    "rible": 3227,
    "trad": 21078,
    "ant": 438,
    "Ġflavor": 16254,
    "Ġjew": 9470,
    "Ġsimilitude": 19212,
    "announcement": 24563,
    "comprehend": 14362,
    "bury": 9110,
    "chron": 21697,
    "Ġtam": 7821,
    "Ġhalls": 19528,
    "Ġtranslation": 3085,
    "Ġpianoforte": 15277,
    "Ġsparkled": 13466,
    "Ġpalm": 10516,
    "Ġplacid": 11830,
    "mering": 12495,
    "Ġdrunken": 12054,
    "Ġjavel": 17085,
    "Ġathe": 17743,
    "ourers": 21452,
    "Ġsequel": 14359,
    "Ġexult": 10231,
    "Ġexceed": 1344,
    "Ġparticularly": 5056,
    "Ġfilled": 4396,
    "Ġrelated": 3715,
    "Ġtowing": 9196,
    "Ġtranspointed": 22468,
    "which": 1705,
    "animal": 16980,
    "Ġpod": 15608,
    "Ġmaintained": 12939,
    "Ġlocker": 16913,
    "Ġamericans": 14746,
    "indispensable": 14212,
    "deployment": 26529,
    "ushed": 2970,
    "Ġtrip": 16790,
    "bb": 2801,
    "Ġcontextually": 11959,
    "Ġshriek": 6640,
    "Ġparaph": 22124,
    "Ġportentous": 15233,
    "separation": 25227,
    "Ġarchipelagoes": 14351,
    "Ġpetrified": 19599,
    "Ġvalidate": 3161,
    "Ġdiscu": 4365,
    "Ġcastors": 23979,
    "Ġinqu": 2964,
    "conside": 9293,
    "Ġplainly": 4383,
    "ifling": 15787,
    "Ġmadame": 13154,
    "Ġpatches": 4238,
    "pute": 8849,
    "deserving": 17248,
    "biting": 20783,
    "ern": 770,
    "latitude": 25260,
    "Ġ235": 25712,
    "Ġreside": 22543,
    "Ġprepar": 7897,
    "Ġskirt": 18727,
    "Ġundertaken": 18988,
    "Ġconstantly": 11977,
    "Ġmarching": 16698,
    "Ġinjunctions": 24272,
    "Ġfalsely": 20585,
    "consult": 24170,
    "rative": 17654,
    "----": 4059,
    "stupid": 12681,
    "Ġunsafe": 22043,
    "Ġamber": 7028,
    "Ġcontinues": 18811,
    "midnight": 14905,
    "Ġcreativity": 2793,
    "Ġgentlemanlike": 12071,
    "ancholy": 5070,
    "value": 18812,
    "encoun": 12302,
    "mine": 5618,
    "oft": 3592,
    "yours": 7695,
    "Ġsatan": 14394,
    "empl": 5724,
    "Ġdefinite": 11070,
    "Ġlovely": 4711,
    "fatality": 25022,
    "counter": 20281,
    "pronounce": 25193,
    "got": 6955,
    "Ġprecision": 13191,
    "Ġdevoured": 16139,
    "Ġlatin": 16823,
    "Ġcaptain": 1605,
    "br": 2478,
    "ineer": 11705,
    "Ġorganizations": 12318,
    "Ġlogger": 11958,
    "uy": 21102,
    "Ġdiagon": 24739,
    "Ġreservo": 16833,
    "Ġcontains": 2794,
    "Ġbless": 4344,
    "Ġhatty": 19267,
    "Ġlean": 7606,
    "Ġsoo": 15865,
    "Ġincomplete": 17211,
    "Ġsubdued": 11031,
    "Ġmelted": 19624,
    "Ġpacifics": 24373,
    "Ġbetrayed": 9564,
    "books": 8667,
    "dancing": 12459,
    "Ġconnection": 5479,
    "oves": 15407,
    "promote": 24726,
    "Ġtransaction": 22467,
    "Ġvariously": 18654,
    "Ġenchantment": 24870,
    "Ġbash": 12591,
    "ertips": 23641,
    "Ġplead": 14458,
    "bation": 9106,
    "Ġpore": 21460,
    "Ġunseasonable": 26522,
    "Ġtending": 17726,
    "marching": 25753,
    "Ġfurlong": 18739,
    "Ġadvers": 4888,
    "Ġfriendless": 23027,
    "telesc": 22819,
    "est": 500,
    "Ġconsume": 12963,
    "presented": 12996,
    "Ġtablets": 13159,
    "Ġprizes": 13078,
    "ech": 4391,
    "Ġalterations": 19873,
    "Ġlabels": 3289,
    "bering": 18695,
    "Ġtahit": 10756,
    "apologizing": 26546,
    "overcome": 19054,
    "Ġneedles": 11185,
    "Ġhinted": 6013,
    "laug": 10709,
    "Ġlearn": 365,
    "soon": 4029,
    "Ġdiffidence": 14661,
    "andes": 18154,
    "Ġsoul": 2726,
    "osition": 1374,
    "romeda": 17265,
    "amused": 21850,
    "Ġsecluded": 11997,
    "Ġbreathes": 13250,
    "heartedness": 24825,
    "Ġincorpor": 13169,
    "Ġbaleful": 24985,
    "Ġire": 12672,
    "consternation": 16914,
    "Ġnic": 7376,
    "itate": 6670,
    "Ġdiscoverers": 26037,
    "Ġreeled": 13989,
    "cott": 8074,
    "iding": 3846,
    "Ġtransmit": 10311,
    "onah": 3340,
    "green": 7117,
    "Ġdamp": 8264,
    "alo": 7588,
    "Ġsemantics": 2895,
    "encountered": 20396,
    "Ġhob": 12634,
    "Ġscarlet": 13228,
    "Ġhove": 17925,
    "Ġ59": 24323,
    "ard": 464,
    "kin": 7133,
    "Ġprocess": 568,
    "gast": 20873,
    "onday": 6065,
    "Ġbelieves": 14410,
    "pull": 6797,
    "Ġdrag": 6186,
    "naturalist": 23528,
    "Ġrepresentations": 1873,
    "Ġmappings": 2148,
    "Ġalgorithms": 857,
    "Ġdeject": 10881,
    "Ġpromotion": 23197,
    "Ġwatchful": 16528,
    "Ġswaying": 15049,
    "Ġdisadvantage": 12895,
    "Ġheightens": 24155,
    "Ġmarvels": 11084,
    "justified": 19004,
    "Ġspit": 22128,
    "islands": 21379,
    "Ġfritters": 23259,
    "ications": 4447,
    "Ġsupper": 4667,
    "Ġventing": 19496,
    "Ġpolitic": 23620,
    "Ġfrench": 4939,
    "Ġbass": 17857,
    "Ġchaps": 14182,
    "Ġtunnel": 14933,
    "Ġpursuers": 13231,
    "rusion": 11324,
    "neying": 22462,
    "Ġdents": 13914,
    "desirable": 23813,
    "Ġpredestinated": 18516,
    "Ġheal": 21684,
    "Ġnights": 7258,
    "Ġability": 2764,
    "Ġfun": 526,
    "Ġprophe": 13083,
    "Ġmarty": 20293,
    "Ġeels": 21625,
    "tarpaulins": 26407,
    "touch": 8392,
    "germans": 20568,
    "Ġdevious": 22719,
    "desc": 1393,
    "Þ": 159,
    "Ġseparately": 13307,
    "urity": 8143,
    "warm": 8102,
    "herfield": 3630,
    "Ġcalculus": 23986,
    "Ġfreighted": 16327,
    "cle": 3957,
    "meadow": 18680,
    "Ġsummit": 7731,
    "Ġsuperfluous": 17417,
    "malice": 17605,
    "ĠĠĠĠĠĠĠĠĠĠĠĠĠĠĠĠĠĠĠĠĠĠĠĠĠĠĠĠĠĠĠĠĠĠĠĠĠĠĠĠĠĠĠĠĠĠ": 9956,
    "kinson": 10029,
    "Ġdwell": 5813,
    "Ġglorious": 11076,
    "Ġcou": 5288,
    "Ġtreatise": 19348,
    "til": 17673,
    "engaged": 7452,
    "Ġpropont": 16353,
    "Ġbravery": 23840,
    "enterprise": 24995,
    "da": 17516,
    "Ġstumped": 24945,
    "meat": 18679,
    "Ġbequest": 21757,
    "specific": 10500,
    "Ġburgl": 13177,
    "Ġdears": 18138,
    "bery": 9797,
    "Ġmomentarily": 22814,
    "ting": 1334,
    "Ġshameful": 19854,
    "Ġnind": 17952,
    "Ġyield": 5093,
    "nowadays": 22342,
    "Ġpure": 6139,
    "accuracy": 9882,
    "Ġalgorith": 562,
    "Ġcomfortably": 16617,
    "Ġseized": 4835,
    "Ġcoach": 6868,
    "Ġtissu": 25921,
    "Ġsherry": 19454,
    "Ġprefers": 20517,
    "ar": 285,
    "Ġfisherman": 12080,
    "Ġpassengers": 13679,
    "stonecraft": 24356,
    "Ġgrain": 15835,
    "Ġdeceiving": 21840,
    "Ġsnows": 14729,
    "Ġdistinct": 4610,
    "unvarying": 21891,
    "attacked": 23124,
    "Ġclearly": 6896,
    "ines": 668,
    "Ġcontribut": 12864,
    "Ġliberality": 24377,
    "harpooneers": 8693,
    "Ġjung": 12841,
    "Ġconstitutes": 13556,
    "Ġextracted": 16319,
    "Ġhogshead": 26369,
    "Ġell": 17717,
    "Ġshoved": 23492,
    "behaved": 24463,
    "oub": 1636,
    "archangel": 18788,
    "Ġtelescope": 17351,
    "Ġascend": 9963,
    "Ġsee": 806,
    "Ġreap": 18029,
    "Ġcommitted": 7431,
    "Ġideal": 13125,
    "Ġranging": 8481,
    "details": 19678,
    "nearly": 8684,
    "Ġmust": 842,
    "Ġbabes": 24425,
    "Ġaction": 5797,
    "dire": 15339,
    "Ġdivinest": 25722,
    "Ġdelicacy": 6342,
    "Ġaberde": 22291,
    "Ġnecessarily": 13253,
    "Ġundertone": 23243,
    "france": 24284,
    "handedness": 24921,
    "pulous": 15419,
    "iners": 4937,
    "Ġdirected": 5579,
    "akes": 2220,
    "Ġcreating": 2994,
    "Ġentities": 11867,
    "cu": 10086,
    "Ġneurons": 973,
    "shadows": 25480,
    "Ġadopted": 15182,
    "Ġstrengthen": 20703,
    "Ġgenerating": 12857,
    "ĥ": 230,
    "indebted": 26159,
    "programming": 10066,
    "belonged": 25598,
    "Ġforeshad": 23453,
    "Ġlandless": 23380,
    "Ġdoctrine": 24200,
    "Ġcalifornia": 20533,
    "Ġintruder": 25992,
    "Ġarg": 4767,
    "swelled": 19613,
    "Ġvict": 3762,
    "Ġrid": 4356,
    "Ġpostpone": 17310,
    "inguish": 9400,
    "Ġcontact": 9284,
    "etuous": 21586,
    "cks": 3078,
    "Ġdecent": 10979,
    "bold": 17490,
    "Ġfloat": 12036,
    "Ġamph": 18511,
    "sacred": 17030,
    "thunder": 10265,
    "^{": 15308,
    "Ġforgot": 4685,
    "Ġbraced": 16582,
    "painful": 13505,
    "Ġengraved": 17082,
    "Ġholds": 7976,
    "stretch": 13984,
    "Ġinboard": 17935,
    "blog": 19842,
    "adequate": 15207,
    "Ġdefine": 9818,
    "Ġstable": 2698,
    "Ġimpotently": 22394,
    "reflected": 24732,
    "Ġeach": 892,
    "Ġavoid": 5199,
    "Ġelbowed": 16118,
    "Ġfootpaths": 26319,
    "Ġassembled": 9239,
    "/*": 10074,
    "Ġklux": 22199,
    "Ġpen": 1534,
    "Ġvale": 14085,
    "!": 5,
    "frisco": 16789,
    "Ġaffording": 14824,
    "Ġscuff": 15946,
    "battle": 12446,
    "Ġconcluded": 5658,
    "Ġbeque": 18083,
    "Ġdeeps": 16111,
    "ą": 198,
    "therly": 18345,
    "Ġexchanged": 10879,
    "omuch": 21643,
    "eked": 16405,
    "Ġlighter": 12658,
    "immedi": 8452,
    "lakeman": 13754,
    "estinated": 15927,
    "Ġagainst": 1696,
    "Ġbeautiful": 3671,
    "opolising": 25677,
    "Ġlime": 13951,
    "Ġhandkerchief": 8917,
    "Ġinsinuating": 19273,
    "den": 936,
    "ference": 1882,
    "Ġlivers": 18462,
    "Ġjutting": 22305,
    "Ġlab": 1869,
    "Ġtempt": 5565,
    "opes": 10313,
    "84": 15305,
    "Ġsacrilege": 26230,
    "xter": 9149,
    "cushion": 20823,
    "Ġdoor": 1738,
    "Ġoverboard": 6046,
    "Ġsockets": 22092,
    "apt": 718,
    "Ġmoulton": 17438,
    "Ġvide": 10253,
    "orious": 6009,
    "Ġwiser": 14733,
    "Ġwife": 2587,
    "Ġkeel": 6445,
    "Ü": 157,
    "Ġlately": 6388,
    "Ġspaulding": 11735,
    "pain": 7350,
    "Ġlabrador": 23332,
    "Ġweaver": 11691,
    "iliary": 21730,
    "Ġwondrous": 4736,
    "scorn": 22994,
    "Ġancient": 5443,
    "Ġfatigued": 13469,
    "Ġyale": 21783,
    "h": 76,
    "ias": 6364,
    "ord": 669,
    "riages": 10245,
    "Ġscorch": 20068,
    "ĠĠĠĠĠĠĠĠĠĠĠĠĠĠĠĠ": 1224,
    "Ġpoisoned": 24887,
    "eridge": 15529,
    "S": 55,
    "Ġendeavor": 16547,
    "Ġdeficiency": 14406,
    "Ġincluded": 8959,
    "Ġmuzzle": 21324,
    "ser": 1426,
    "Ġjagged": 18408,
    "woods": 13423,
    "Ġdair": 17891,
    "stead": 10847,
    "Ġminimizing": 3464,
    "roll": 9199,
    "Ġstandard": 14499,
    "Ġapproach": 873,
    "Ġseconds": 16397,
    "onely": 6517,
    "Ġsat": 1132,
    "://": 11466,
    "somewhat": 11161,
    "Ġnetherfield": 3931,
    "Ġmoreover": 6165,
    "og": 865,
    "Ġnoblest": 13246,
    "inqu": 6123,
    "venison": 22631,
    "Ġ_": 838,
    "asc": 6387,
    "beg": 22491,
    "liament": 16221,
    "Ġthames": 13941,
    "Ġgroup": 2036,
    "uber": 15448,
    "Ġsavag": 19377,
    "Ġaverages": 2398,
    "Ġroarings": 25303,
    "Ġashamed": 6404,
    "owl": 12688,
    "Ġinsists": 23680,
    "Ġdispleasure": 16055,
    "dred": 2526,
    "popular": 26141,
    "valued": 2853,
    "Ġsof": 18282,
    "Ġimmort": 19487,
    "Ġtap": 12531,
    "struck": 7862,
    "arabian": 26448,
    "Ġharbour": 19983,
    "Ġopinions": 9418,
    "Ġoblique": 20172,
    "lege": 17843,
    "mankind": 14377,
    "Ġexplo": 2285,
    "Ġportcullis": 26605,
    "Ġintrepidity": 25551,
    "earth": 6503,
    "Ġstraighten": 24007,
    "begging": 22501,
    "Ġtexas": 25923,
    "confused": 19642,
    "Ġdishon": 12235,
    "Ġ/*": 10142,
    "Ġunforeseen": 22055,
    "Ġniagara": 26460,
    "ingle": 1039,
    "Ġnorth": 4319,
    "nights": 16449,
    "Ġdoubtfully": 23479,
    "Ġpractically": 13104,
    "Ġessential": 7523,
    "opinion": 10985,
    "osal": 11763,
    "commence": 19995,
    "verest": 13994,
    "Ġadaptive": 1301,
    "Ġafore": 10760,
    "ounder": 11748,
    "out": 467,
    "agger": 7872,
    "Ġcompromised": 22577,
    "advice": 12162,
    "Ġachieves": 4381,
    "Ġworsh": 13005,
    "reporting": 24494,
    "Ġinfamous": 16370,
    "Ġbus": 1903,
    "fro": 8736,
    "Ġobserv": 8589,
    "Ġcounters": 24141,
    "Ġharpooneer": 3771,
    "immortal": 21713,
    "Ġconfeder": 25708,
    "Ġ87": 19713,
    "closed": 23158,
    "Ġtut": 8774,
    "constantly": 24607,
    "mun": 20964,
    "instinct": 19546,
    "Ġacting": 10992,
    "incident": 14593,
    "Ġdeem": 18135,
    "Ġcrimes": 8591,
    "Ġgenerate": 1505,
    "Ġdefinition": 14407,
    "Ġtamer": 24979,
    "Ġpave": 8804,
    "Ġthese": 820,
    "Ġdom": 2744,
    "Ġdominic": 25381,
    "terogene": 21829,
    "Ġwolfish": 25936,
    "Ġorthodox": 22099,
    "arranging": 19319,
    "jolly": 20933,
    "soc": 5175,
    "Ġgarb": 21606,
    "owders": 18050,
    "sweeping": 24619,
    "Ġpeeled": 14321,
    "Ġestim": 3351,
    "Ġregained": 18600,
    "Ġstalls": 25648,
    "animals": 24737,
    "Ġantilles": 24181,
    ";": 31,
    "Ġhaught": 10255,
    "amiable": 14056,
    "electricity": 26387,
    "Ġputs": 19033,
    "Ġrecorded": 11294,
    "Ġwon": 1666,
    "shazzar": 15293,
    "satisfy": 16894,
    "Ġhessian": 3550,
    "ellent": 3761,
    "uzz": 4525,
    "Ġenjoyment": 7300,
    "tland": 21076,
    "glings": 23854,
    "scand": 18857,
    "Ġjudges": 14687,
    "Ġexhale": 24402,
    "Ġbeginning": 4244,
    "54": 15303,
    "oriental": 23724,
    "Ġadmire": 5264,
    "kee": 18274,
    "Ġpil": 5014,
    "À": 129,
    "something": 4285,
    "trip": 21094,
    "Ġrigger": 19533,
    "Ġcategorization": 12141,
    "nne": 20991,
    "Ġrusty": 14967,
    "Ġprayers": 12128,
    "Ġdearly": 10404,
    "Ġhundreds": 4328,
    "christmas": 20258,
    "Ġchurning": 15941,
    "Ġhealthy": 10852,
    "Ġimmense": 4952,
    "Ġglens": 18856,
    "unpardonable": 21894,
    "ize": 754,
    "Ġhabits": 6926,
    "è": 169,
    "Ġdeliver": 9851,
    "Ġsanely": 24983,
    "Ġseeking": 7038,
    "Ġcoarse": 14281,
    "size": 15427,
    "Ġbreaches": 14521,
    "Ġfil": 3472,
    "condem": 16347,
    "Ġjetted": 24431,
    "Ġmansfield": 25939,
    "Ġobtaining": 16136,
    "Ġkindest": 23294,
    "Ġsymph": 22215,
    "Ġmood": 6278,
    "sa": 8760,
    "Ġprodigious": 8057,
    "precise": 19354,
    "Ġachieved": 13170,
    "however": 4375,
    "Ġdu": 4585,
    "Ġbarber": 23792,
    "stocks": 23824,
    "savor": 25025,
    "outward": 22164,
    "Ġmississ": 18841,
    "Ġcastor": 19430,
    "browed": 25895,
    "Ġdeceased": 15008,
    "Ġchristians": 13313,
    "Ġdecapitated": 20619,
    "sit": 13783,
    "oam": 8755,
    "Ġbills": 17862,
    "Ġspl": 2982,
    "scence": 14422,
    "ootiful": 17376,
    "Ġruin": 6057,
    "Ġpreserve": 7529,
    "Ġanybody": 5314,
    "Ġbeds": 14554,
    "Ġpals": 13921,
    "strugg": 21665,
    "ividually": 22084,
    "prim": 23814,
    "Ġincessant": 15101,
    "angling": 14143,
    "uce": 11537,
    "Ġbarn": 11589,
    "ullo": 12734,
    "ł": 259,
    "crimin": 17511,
    "Ġdiverse": 19211,
    "phology": 3006,
    "Ġrejoined": 14930,
    "Ġperplex": 2716,
    "Ġderives": 16311,
    "Ġsubdivisions": 26038,
    "infall": 21191,
    "Ġyielding": 12191,
    "Ġgoal": 10304,
    "Ġself": 1778,
    "Ġjoists": 19234,
    "Ġmischief": 8543,
    "Ġmaintaining": 1511,
    "Ġnotes": 7189,
    "Ġprediction": 2168,
    "Ġencircling": 26273,
    "Ġintrospective": 20603,
    "Ġgover": 2461,
    "Ġcellar": 8059,
    "Ġindirectly": 8942,
    "snapping": 24850,
    "Ġdismantled": 20219,
    "Ġquestioning": 10466,
    "urpr": 2287,
    "choice": 21694,
    "prises": 23817,
    "Ġstrictly": 12289,
    "Ġcheek": 8580,
    "conjecturing": 20137,
    "valley": 16218,
    "Ġastonishing": 10504,
    "anoke": 21364,
    "evening": 7091,
    "culiar": 2821,
    "Ġengine": 1919,
    "bethink": 25745,
    "Ġshop": 9255,
    "Ġgeorgiana": 8629,
    "Ġimple": 1751,
    "Ġcottage": 4735,
    "Ġinfall": 7960,
    "dog": 10696,
    "Ġrumours": 24599,
    "mason": 17604,
    "Ġleg": 2335,
    "rest": 1635,
    "friends": 8306,
    "Ġsupp": 1266,
    "Ġmaintenance": 17464,
    "crossed": 16635,
    "Ġsmooth": 2779,
    "Ġregions": 10327,
    "Ġfull": 2179,
    "Ġinexperienced": 26101,
    "Ġmortal": 4683,
    "quarried": 24948,
    "eling": 6683,
    "Ġuneasily": 24233,
    "windows": 19537,
    "Ġaslant": 21905,
    "Ġgulp": 20032,
    "Ġhanged": 17927,
    "asleep": 21547,
    "Ġshallow": 14398,
    "sorting": 17006,
    "ç": 168,
    "orus": 10803,
    "Ġcompared": 2231,
    "Ġtoler": 7589,
    "Ġ46": 19494,
    "propagation": 1220,
    "Ġoutskirts": 17460,
    "Ġwears": 10243,
    "Ġprevents": 2556,
    "Ġhaw": 10254,
    "Ġunimpeachable": 26524,
    "Ġslew": 23384,
    "Ġdividing": 12116,
    "Ġdz": 4757,
    "mere": 11859,
    "angible": 22109,
    "rann": 21047,
    "Ġapprehension": 7115,
    "ulation": 5458,
    "Ġpartiality": 9401,
    "Ġvehemently": 26040,
    "Ġinsc": 7586,
    "Ġawaken": 23588,
    "exper": 8882,
    "Ġbourgh": 5069,
    "henomen": 10497,
    "Ġfaultless": 24540,
    "elect": 20848,
    "itatingly": 25278,
    "sme": 17660,
    "agon": 7871,
    "Ġmicha": 17813,
    "Ġheedless": 14906,
    "Ġsleet": 8978,
    "spect": 3232,
    "concluded": 11244,
    "Ġcontrived": 10306,
    "13": 20752,
    "Ġgravely": 7883,
    "several": 5544,
    "Ġinterrupted": 6345,
    "perseus": 26006,
    "Ġsummons": 13236,
    "grace": 5847,
    "Ġdecision": 2675,
    "Ġ12": 5483,
    "companies": 24895,
    "made": 4809,
    "Ġmist": 2878,
    "Ġvigil": 9510,
    "conf": 4957,
    "ivened": 22970,
    "ission": 6458,
    "that": 848,
    "Ġdood": 22246,
    "Ġbleached": 24396,
    "Ġjun": 8508,
    "Ġexcl": 3476,
    "condescended": 26250,
    "powers": 25411,
    "Ġexpanse": 14296,
    "sullenly": 26150,
    "Ġmother": 2067,
    "streets": 13399,
    "Ġbegged": 8231,
    "ivities": 22081,
    "Ġvapory": 17008,
    "û": 188,
    "batt": 20780,
    "Ġgro": 4398,
    "Ġminiature": 11041,
    "Ġincrust": 22556,
    "nur": 11507,
    "yonder": 21147,
    "Ġ94": 17719,
    "rane": 17655,
    "Ġthirst": 7590,
    "itters": 10783,
    "cask": 12451,
    "Ġuncont": 14119,
    "ham": 1699,
    "Ġbraces": 14672,
    "Ġunduly": 25995,
    "Ġeither": 2604,
    "Ġclimbing": 20073,
    "Ġunt": 2293,
    "Ġhorseman": 19610,
    "Ġprimal": 17108,
    "Ġassembl": 20064,
    "Ġoutcast": 18415,
    "under": 3130,
    "Ġentrances": 25835,
    "Ġsongs": 13424,
    "Ġbath": 9661,
    "ete": 9206,
    "poke": 18803,
    "Ġentr": 14341,
    "Ġprehensile": 26536,
    "Ġpretence": 13209,
    "Ġshoulder": 5849,
    "Ġstiff": 6993,
    "Ġattractions": 12922,
    "Ġcrazy": 8596,
    "Ġlinn": 13956,
    "pos": 15413,
    "Ġcontemplative": 19895,
    "Ġ56": 24320,
    "Ġtrespass": 23602,
    "Ġconsequences": 11336,
    "Ġpositively": 13036,
    "Ġburtons": 19255,
    "Ġpredomin": 16040,
    "omn": 15686,
    "Ġspar": 10922,
    "tart": 21070,
    "omically": 13979,
    "Ġemerged": 8688,
    "Ġmant": 9650,
    "Ġorgans": 15869,
    "Ġadagrad": 2904,
    "Ġsunrise": 9376,
    "Ġsufficiently": 8976,
    "Ġuninhabited": 22053,
    "Ġparchment": 13656,
    "ailing": 7023,
    "Ġrussian": 14353,
    "whole": 6086,
    "wicked": 24449,
    "Ġgrounded": 23713,
    "Ġslender": 11944,
    "bree": 15318,
    "attery": 18498,
    "Ġdefiance": 11069,
    "ws": 7355,
    "Ġincoherent": 17403,
    "ter": 359,
    "Ġrecognition": 3053,
    "Ġfrown": 10809,
    "jour": 20929,
    "coast": 10451,
    "Ġbranches": 6777,
    "spirited": 19756,
    "zening": 21151,
    "Ġrucastle": 5176,
    "ill": 447,
    "Ġquarto": 17299,
    "solic": 16382,
    "Ġcaptiv": 16260,
    "Ġmornings": 16239,
    "Ġassured": 4374,
    "oms": 4594,
    "ull": 1432,
    "unting": 21878,
    "bildad": 9589,
    "Ġepicures": 25880,
    "iquet": 17577,
    "future": 13720,
    "heat": 15500,
    "Ġwent": 1538,
    "Ġfeeding": 7972,
    "Ġrecollections": 10515,
    "aret": 7417,
    "Ġrehears": 15704,
    "blo": 6355,
    "Ġbonnet": 10658,
    "ance": 478,
    "quered": 11054,
    "Ġ1839": 20463,
    "der": 468,
    "remembered": 17354,
    "post": 6063,
    "Ġbiography": 22768,
    "oline": 6834,
    "Ġtowers": 16740,
    "Ġminimize": 7052,
    "eat": 11484,
    "Ġelementary": 24811,
    "Ġ105": 24413,
    "Ġsloop": 25931,
    "flames": 14715,
    "Ġfogs": 25283,
    "ician": 21568,
    "cou": 13699,
    "Ġvows": 15812,
    "traced": 19648,
    "Ġexile": 12721,
    "Ġdesign": 4133,
    "Ġloading": 15878,
    "acters": 9312,
    "Ġintrospect": 15832,
    "Ġcraggy": 23532,
    "Ġrelaxed": 12989,
    "Ġpaths": 2568,
    "Ġbook": 2701,
    "Ġspite": 4157,
    "told": 7811,
    "examine": 25478,
    "Ġfaire": 13369,
    "Ġtartar": 17325,
    "Ġwails": 21299,
    "Ġanomalous": 25638,
    "Ġsoar": 18283,
    "Ġdiction": 8799,
    "Ġovertook": 18428,
    "Ġren": 3845,
    "ccarthy": 4889,
    "Ġgans": 5822,
    "aux": 14294,
    "Ġpeculiarly": 8287,
    "Ġnib": 13943,
    "Ġalabama": 14022,
    "amb": 5723,
    "Ġmuskets": 17057,
    "ĠâĢĺ_": 11118,
    "Ġbetter": 1174,
    "Ġwis": 3728,
    "Ġcheery": 16373,
    "Ġmetropolis": 17277,
    "Ġdestitute": 14568,
    "Ġpreluding": 18369,
    "Ġwithered": 19468,
    "liking": 22927,
    "ceptive": 15966,
    "Ġdisplayed": 10611,
    "combination": 25487,
    "Ġinvested": 7279,
    "Ġirresolute": 24917,
    "Ġodd": 6627,
    "Ġspaces": 3110,
    "chors": 11647,
    "verted": 10220,
    "umul": 1289,
    "gments": 12474,
    "aurs": 20771,
    "Ġdeposit": 17271,
    "breathing": 25336,
    "Ġshaved": 22006,
    "Ġsurpl": 19134,
    "hide": 10705,
    "stern": 8446,
    "Ġcomplexity": 1693,
    "Ġ89": 19715,
    "rably": 21636,
    "Ġwherefore": 8527,
    "Ġapartments": 19617,
    "isons": 17851,
    "Ġdeficient": 18826,
    "Ġstarbuck": 2195,
    "Ġinclu": 1100,
    "Ġcathedral": 17416,
    "Ġexciting": 23315,
    "deprived": 19900,
    "Ġspy": 22127,
    "Ġstubb": 1786,
    "Ġconstrained": 19241,
    "Ġmathemat": 3202,
    "kerchief": 7525,
    "Ġrent": 11642,
    "Ġhare": 5157,
    "Ġindign": 6175,
    "has": 4014,
    "Ġdead": 2173,
    "Ġpredef": 18515,
    "setting": 13289,
    "Ġprevail": 13446,
    "Ġcopper": 7425,
    "Ġstaircase": 20099,
    "Ġaccurate": 13298,
    "Ġthemselves": 3253,
    "Ġconfronted": 23308,
    "Ġcanvas": 7784,
    "cloth": 11941,
    "useless": 14596,
    "poling": 12224,
    "vell": 3960,
    "shott": 11798,
    "Ġpropagating": 20636,
    "Ġinanimate": 13936,
    "nostril": 26561,
    "Ġinwards": 15625,
    "volut": 1561,
    "Ġdict": 9178,
    "congratulations": 20282,
    "Ġkey": 2100,
    "ry": 809,
    "Ġafresh": 18629,
    "Ġdisgusting": 19896,
    "ll": 1141,
    "rapidly": 15247,
    "Ġvesu": 21953,
    "Ġbalances": 2340,
    "Ġarr": 1798,
    "Ġcaravan": 26292,
    "necessity": 13372,
    "anned": 17841,
    "Ġpeak": 16130,
    "iousness": 4900,
    "comed": 8547,
    "ies": 582,
    "troubled": 17113,
    "Ġsplendidly": 25328,
    "listen": 13517,
    "Ġaspire": 21904,
    "Ġuntouched": 16468,
    "trouble": 8296,
    "Ġeyes": 1335,
    "spond": 5567,
    "scy": 21058,
    "Ġconsequ": 6256,
    "Ġcheers": 16371,
    "least": 8789,
    "itically": 21333,
    "Ġcroquet": 9965,
    "Ġethiopian": 26615,
    "Ġfocused": 16345,
    "Ġcomstock": 21862,
    "Ġpallet": 21483,
    "aimed": 3954,
    "min": 4572,
    "alle": 1293,
    "Ġunder": 1638,
    "Ġ83": 24459,
    "Ġuntrodden": 23523,
    "Ġstaggers": 24654,
    "Ġjob": 7017,
    "Ġpollard": 20389,
    "Ġinfirmity": 26299,
    "Ġreturns": 11930,
    "Ġline": 1848,
    "Ġthomas": 17950,
    "Ġnerves": 2627,
    "Ġfuriously": 9805,
    "Ġscaramouch": 23831,
    "Ġdivined": 19446,
    "Ġunwarrant": 19936,
    "Ġerection": 24004,
    "an": 278,
    "Ġcomprising": 16075,
    "Ġvoluntarily": 12145,
    "Ġintensity": 10019,
    "Ġluxuries": 25167,
    "Ġunmanufactured": 20437,
    "atever": 3077,
    "orough": 5700,
    "lantern": 17431,
    "Ġarrogance": 26233,
    "arying": 9804,
    "Ġhints": 8431,
    "tempest": 16961,
    "companion": 9560,
    "Ġboa": 22641,
    "widows": 25345,
    "Ġcovari": 2338,
    "20": 20755,
    "trap": 24334,
    "Ġjackets": 19605,
    "_.)": 7278,
    "hetic": 12208,
    "Ġeverything": 3153,
    "Ġhinge": 25542,
    "Ġnostrils": 10944,
    "Ġencoura": 1367,
    "isation": 13896,
    "Ġasc": 4766,
    "daugh": 6789,
    "Ġdepended": 9780,
    "Ġwrench": 12562,
    "Ġskeleton": 5514,
    "Ġerected": 12238,
    "Ġmeetings": 16534,
    "Ġaside": 5234,
    "Ġbasket": 9575,
    "Ġspeedily": 7712,
    "Ġheidelburgh": 11646,
    "Ġcus": 21346,
    "pitchpoling": 25725,
    "actions": 8910,
    "b": 70,
    "unt": 2042,
    "tent": 21067,
    "Ġmichaelmas": 26376,
    "feeder": 12365,
    "Ġnap": 8813,
    "Ġlump": 21555,
    "Ġextremities": 19197,
    "locks": 14459,
    "exciting": 19671,
    "ĠĠĠĠĠĠĠĠĠĠĠĠĠĠĠĠĠĠĠĠĠĠĠĠĠĠĠĠĠĠĠĠĠĠ": 14616,
    "during": 6788,
    "enborough": 21288,
    "corrob": 24485,
    "j": 78,
    "levi": 7049,
    "onist": 21253,
    "Ġinvestigated": 25387,
    "Ġtons": 11551,
    "Ġcabman": 14608,
    "Ġprovoked": 13330,
    "Ġaided": 17747,
    "Ġpork": 21459,
    "Ġenabled": 9299,
    "Ġanimating": 23426,
    "Ġravine": 18641,
    "ggy": 13118,
    "tawn": 21083,
    "ff": 465,
    "narrated": 25622,
    "march": 13758,
    "duck": 22416,
    "friendly": 13288,
    "Ġintelligences": 12835,
    "Ġwinking": 17795,
    "Ġmuse": 13863,
    "raint": 18317,
    "Ġswells": 9830,
    "Ġceasing": 23760,
    "Ġxv": 23409,
    "Ġjulia": 22306,
    "Ġnephews": 24712,
    "Ġsail": 1673,
    "Ġclothing": 18424,
    "Ġfrightened": 5342,
    "am": 367,
    "language": 5129,
    "Ġgriff": 22809,
    "P": 52,
    "Ġdebility": 24275,
    "Ġpowder": 11276,
    "tinted": 17685,
    "Ġfangs": 12602,
    "Ġplush": 18609,
    "Ġirreproachable": 24918,
    "degrees": 22154,
    "Ġinh": 10826,
    "riptions": 14798,
    "arily": 4127,
    "open": 7027,
    "inctions": 17734,
    "Ġconstantinople": 19840,
    "bourn": 3302,
    "Ġconversations": 9428,
    "swe": 5997,
    "itch": 10163,
    "Ġbundles": 26176,
    "Ġhuge": 4701,
    "rail": 10207,
    "Ġswarm": 23057,
    "Ġaut": 1804,
    "Ġtou": 15469,
    "Ġforeseeing": 23451,
    "ropout": 1321,
    "Ġpitched": 9447,
    "Ġrefuge": 8544,
    "Ġhaggerston": 26454,
    "spermaceti": 12198,
    "Ġsealed": 15819,
    "®": 111,
    "tails": 21089,
    "apping": 5853,
    "uries": 6149,
    "Ġrelapses": 26280,
    "skylight": 25624,
    "swed": 24256,
    "Ġsnuffed": 15076,
    "Ġoccupied": 5273,
    "Ġindestruct": 22961,
    "Ġpapa": 10659,
    "Ġspurn": 18310,
    "vard": 21113,
    "Ġanswer": 2599,
    "Ġapologized": 25199,
    "Ġdictionary": 15116,
    "accents": 19213,
    "Ġhuman": 1318,
    "Ġsur": 2185,
    "ref": 6516,
    "Ġprovid": 1010,
    "orange": 21403,
    "Ġlim": 2381,
    "ainty": 21791,
    "Ġconvince": 14644,
    "Ġpresc": 15929,
    "Ġguid": 2638,
    "ierce": 14395,
    "genteel": 19952,
    "Ġshooting": 11163,
    "Ġoptimizer": 5035,
    "initely": 7568,
    "Ġreplying": 19584,
    "sies": 21057,
    "Ġturning": 3329,
    "Ġanne": 1531,
    "bly": 6112,
    "dan": 17517,
    "ially": 9250,
    "Ġmonths": 3455,
    "Ġunion": 6839,
    "Ġastir": 14642,
    "Ġcurling": 9346,
    "Ġens": 2788,
    "Ġtrains": 10948,
    "Ġjaws": 5593,
    "Ġfolded": 7768,
    "Ġdecreasing": 2444,
    "Ġsource": 6806,
    "Ġvesture": 20065,
    "eman": 5636,
    "Ġwhom": 1830,
    "Ġinfidel": 13092,
    "Ġsend": 4108,
    "Ġauthority": 7749,
    "Ġmarvelled": 18875,
    "bordered": 17501,
    "Ġperfume": 25666,
    "bingley": 4928,
    "musket": 25342,
    "cursed": 23847,
    "Ġforeign": 9875,
    "pursue": 24976,
    "Ġslim": 18939,
    "Ġwindings": 18911,
    "sails": 7497,
    "Ġsuccessful": 9926,
    "Ġgene": 15676,
    "Ġburke": 19253,
    "uteronomy": 15668,
    "Ġassisted": 11111,
    "Ġbriefly": 11368,
    "Ġdistinguished": 8273,
    "âĢĶ": 518,
    "Ġhanded": 8217,
    "application": 12367,
    "Ġrecommend": 7104,
    "cellar": 20280,
    "haps": 1671,
    "Ġlabourers": 23333,
    "ire": 492,
    "ead": 2600,
    "Ġincorrect": 2729,
    "Ġparamount": 15882,
    "superiority": 20188,
    "Ġwip": 13856,
    "Ġro": 601,
    "Ġexultation": 15174,
    "Ġsteer": 10389,
    "Ġcompact": 2263,
    "ted": 791,
    "raised": 15683,
    "admirably": 24947,
    "Ġhorizontal": 7783,
    "Ġfemin": 13440,
    "sets": 17662,
    "heim": 17748,
    "Ġ8": 5433,
    "entiful": 10838,
    "Ġplaything": 19239,
    "Ġapply": 1776,
    "Ġcategories": 4479,
    "Ġregarding": 13212,
    "Ġfrogs": 23927,
    "Ġaltering": 18105,
    "agonies": 21913,
    "Ġstature": 10864,
    "Ġfren": 10807,
    "wrath": 23759,
    "Ġcherry": 16937,
    "Ġexploded": 15913,
    "Ġmerchants": 23736,
    "Ġpiling": 17911,
    "Ġsheer": 14153,
    "Ġconverted": 16120,
    "Ġmeantime": 6208,
    "flying": 13724,
    "dun": 17518,
    "Ġcircumspection": 25885,
    "Ġcompat": 2937,
    "Ġcitations": 25438,
    "esy": 9188,
    "awned": 19463,
    "rics": 13043,
    "Ġtired": 9152,
    "vul": 15451,
    "arks": 2844,
    "mentioned": 10626,
    "Ġenforced": 21942,
    "err": 1142,
    "bantering": 25254,
    "forming": 15924,
    "Ġdangling": 17177,
    "tormented": 13649,
    "Ġdepend": 777,
    "Ġpines": 12622,
    "evidence": 25522,
    "Ġgladstone": 23872,
    "prosperity": 20737,
    "Ġcorroded": 18877,
    "Ġinconsistency": 26184,
    "Ġprovided": 6579,
    "Ġplow": 21461,
    "Ġaccomplished": 7106,
    "Ġdrowned": 9555,
    "Ġcet": 6672,
    "sofa": 26147,
    "Ġmanned": 9274,
    "Ġrazor": 22650,
    "Ġcontrivances": 12361,
    "university": 25984,
    "Ġpolite": 9886,
    "usual": 5842,
    "Ġfavour": 3641,
    "Ġvehem": 22893,
    "heaved": 21213,
    "Ġvilest": 20104,
    "listener": 24931,
    "Ġadequ": 10914,
    "might": 4079,
    "disciple": 16780,
    "train": 2033,
    "ĠâĢľâĢĻ": 22258,
    "contrad": 19293,
    "Ġhoof": 23354,
    "entions": 17977,
    "Ġroared": 7025,
    "Ġbaggy": 24538,
    "Ġrod": 9283,
    "begged": 18520,
    "ky": 4521,
    "entric": 11621,
    "Ġmoby": 3664,
    "Ġultimately": 17167,
    "Ġcandour": 14675,
    "Ġpromontory": 11945,
    "Ġnumer": 3638,
    "inc": 2519,
    "Ġshadow": 5596,
    "Ġshortly": 6198,
    "Ġintrepid": 11709,
    "Ġexample": 5096,
    "sartain": 25623,
    "watching": 16932,
    "ourselves": 9014,
    "Ġflamingo": 15104,
    "fire": 6359,
    "Ġbuckler": 24860,
    "bet": 6111,
    "Ġextant": 18690,
    "Ġwee": 21923,
    "Ġundone": 24118,
    "retaining": 21248,
    "ou": 287,
    "Ġglow": 7171,
    "incible": 16499,
    "Ċ": 203,
    "Ġdisregard": 22532,
    "ool": 17620,
    "Ġchatbots": 11350,
    "unaffected": 21887,
    "Ġdecreas": 1650,
    "Ġpitiless": 19391,
    "aments": 12730,
    "bruary": 15239,
    "considering": 12179,
    "cob": 10089,
    "ong": 536,
    "Ġpaddling": 25286,
    "Ġpricking": 23224,
    "Ġspending": 10924,
    "Ġimprudence": 10300,
    "Ġprecipices": 12282,
    "iety": 2819,
    "Ġpalpitated": 26086,
    "dispositions": 25014,
    "Ġrepose": 6743,
    "Ġrepeating": 11214,
    "Ġhasten": 10480,
    "abez": 10225,
    "Ġresponded": 13642,
    "months": 9074,
    "Ġbitterness": 8024,
    "ĠĠĠĠĠĠĠĠĠĠĠĠĠĠĠĠĠĠĠĠĠĠĠĠĠĠĠĠĠĠĠĠĠĠĠ": 19260,
    "Ġusual": 3943,
    "p": 84,
    "Ġexpressed": 4469,
    "rapt": 13976,
    "dar": 20826,
    "Ġclinched": 17397,
    "Ġarrant": 23298,
    "force": 12968,
    "Ġarrives": 23609,
    "Ġsides": 4580,
    "Ġradney": 6776,
    "Ġgraph": 10903,
    "!âĢĻ": 3335,
    "prof": 7699,
    "latter": 15386,
    "Ġexposure": 16103,
    "Ġburg": 23653,
    "Ġlightning": 5750,
    "Ġheavier": 13107,
    "swim": 16781,
    "comparatively": 25841,
    "Ġrecompense": 14841,
    "Ġmonsie": 11448,
    "prise": 7727,
    "recol": 10153,
    "profound": 16428,
    "Ġmedium": 16708,
    "Ġadvancement": 24475,
    "Ġpreternatural": 12828,
    "Ġendow": 23139,
    "affect": 13216,
    "Ġfearlessness": 19163,
    "._)": 10483,
    "Ġskills": 1837,
    "laying": 19775,
    "Ġano": 11598,
    "arse": 7161,
    "irty": 4051,
    "tahit": 17694,
    "Ġwill": 679,
    "Ġ72": 19614,
    "eland": 11622,
    "Ġdisquis": 22531,
    "Ġresp": 2493,
    "Ġxxxiv": 24970,
    "Ġplanisp": 24060,
    "itation": 1780,
    "Ġmodest": 15919,
    "wor": 3417,
    "iliation": 10861,
    "400": 20757,
    "pronounced": 12350,
    "Ġpettic": 14844,
    "Ġtru": 4107,
    "Ġlifeless": 8951,
    "Ġboat": 1277,
    "Ġbeheaded": 11659,
    "Ġconj": 8462,
    "punct": 20195,
    "Ġreasonable": 7252,
    "Ġmock": 3690,
    "Ġcrests": 25686,
    "Ġscope": 15947,
    "Ġpatted": 16361,
    "Ġprotectors": 9073,
    "Ġmuch": 923,
    "lands": 8241,
    "Ġcoarsely": 25830,
    "racing": 21634,
    "Ġinforming": 18744,
    "solely": 19819,
    "Ġmajestic": 8643,
    "Ġinnoc": 3794,
    "Ġsweep": 8266,
    "bular": 15317,
    "Ġadjusted": 23459,
    "rained": 5162,
    "stretching": 20502,
    "Ġinject": 2712,
    "Ġdisputes": 25826,
    "Ġmeddling": 21323,
    "stump": 21656,
    "Ġherd": 7888,
    "Ġspasmodic": 20401,
    "Ġdat": 493,
    "Ġending": 18924,
    "disputed": 23502,
    "Ġard": 5164,
    "uding": 16152,
    "Ġsavagely": 26325,
    "Ġdaboll": 25951,
    "gers": 8376,
    "Ġhatchet": 16531,
    "Ġ44": 16681,
    "Ġfinancial": 23131,
    "Ġgorge": 13570,
    "Ġwed": 7575,
    "Ġbeamed": 23725,
    "Ġtransparency": 10679,
    "Ġtells": 9364,
    "Ġsummarization": 3646,
    "Ġundeserving": 18269,
    "Ġgag": 21596,
    "Ġplight": 14285,
    "Ġsuckling": 25998,
    "Ġhasty": 10479,
    "Ġnoisy": 13323,
    "Ġut": 2279,
    "actorily": 25577,
    "closing": 23160,
    "Ġhot": 4258,
    "Ġcircus": 19093,
    "Ġpersian": 11087,
    "Ġtouches": 20573,
    "Ġburns": 16524,
    "atively": 2695,
    "Ġsuccour": 20438,
    "engagement": 14461,
    "nuee": 17433,
    "Ġkings": 7197,
    "¹": 122,
    "str": 2578,
    "Ġemotion": 7690,
    "aff": 3101,
    "Ġresult": 4462,
    "Ġmassac": 14739,
    "interested": 9509,
    "Ġautumn": 14508,
    "Ġcommence": 6169,
    "Ġevent": 2950,
    "scho": 8763,
    "anqu": 4111,
    "countless": 24151,
    "Ġdressing": 7092,
    "9": 29,
    "buried": 14852,
    "83": 13684,
    "Ġdens": 21427,
    "Ġwoes": 23989,
    "avery": 13687,
    "ana": 15563,
    "atiable": 17776,
    "Ġpulling": 5864,
    "Ġmuff": 8114,
    "sh": 641,
    "ours": 3428,
    "hero": 21207,
    "Ġtrack": 7450,
    "oak": 21005,
    "Ġunlock": 18244,
    "Ġdented": 17893,
    "Ġaccompaniments": 24482,
    "Ġfagged": 17884,
    "eting": 7170,
    "write": 14649,
    "Ġoce": 3028,
    "business": 5610,
    "Ġtraversed": 18894,
    "Ġbillows": 7502,
    "Ġlethargy": 26485,
    "stepfather": 19192,
    "Ġexquisitely": 20205,
    "Ġwedding": 4817,
    "eagerly": 17319,
    "hoisted": 19284,
    "izarre": 17392,
    "Ġghastly": 10063,
    "Ġpleasantest": 24138,
    "Ġdaft": 19666,
    "arch": 1113,
    "interchange": 23742,
    "Ġverd": 6919,
    "eminently": 25108,
    "Ġcurls": 22985,
    "cd": 15326,
    "Ġguido": 2975,
    "Ġinsertion": 26345,
    "Ġvexation": 10589,
    "Ġergo": 25032,
    "Ġnovels": 15933,
    "aced": 2414,
    "osis": 18390,
    "Ġevince": 24295,
    "Ġcalamity": 17352,
    "Ġsubaltern": 22791,
    "shore": 10307,
    "Ġslips": 23171,
    "servants": 15040,
    "wick": 5363,
    "Ġdreadfully": 7726,
    "Ġult": 9077,
    "V": 58,
    "Ġreel": 9216,
    "himself": 3972,
    "Ġscaffold": 18395,
    "lected": 1639,
    "Ġclair": 6270,
    "Ġundulating": 19520,
    "Ġmo": 629,
    "vate": 21112,
    "Ġtidy": 17094,
    "Ġjohn": 5032,
    "claps": 23157,
    "Ġcredulous": 17147,
    "Ġviolet": 19092,
    "Ġo": 275,
    "Ġpaddle": 20062,
    "Ġgloves": 8578,
    "igned": 5656,
    "Ġdepose": 22599,
    "Ġ45": 14773,
    "Ġgaiters": 20464,
    "Ġnin": 10190,
    "owners": 16091,
    "Ġaffair": 4465,
    "organ": 15578,
    "Ġsneering": 24696,
    "Ġordered": 5833,
    "Ġdesigned": 7741,
    "pervading": 18956,
    "Ġcandid": 4100,
    "Ġfine": 1317,
    "Ġerrors": 2595,
    "Ġdefection": 22945,
    "Ġdaw": 21432,
    "Ġstepped": 7053,
    "Ġsagittarius": 24731,
    "Ġapprehending": 26092,
    "direful": 25897,
    "²": 115,
    "Ġalice": 1484,
    "Ġyarman": 12710,
    "butter": 11789,
    "Ġswelled": 11089,
    "Ġuntamed": 19166,
    "Ġcellars": 24666,
    "brous": 19200,
    "likelihood": 4992,
    "european": 26373,
    "Ġhearty": 9848,
    "Ġtusked": 25427,
    "england": 18931,
    "Ġhungry": 10535,
    "reader": 23850,
    "pe": 1437,
    "Ġpair": 5706,
    "dignity": 15349,
    "Ġhardened": 14453,
    "Ġform": 1024,
    "Ġhorse": 4726,
    "Ġaux": 21202,
    "Ġbottom": 3673,
    "aker": 3662,
    "Ġthrowing": 6337,
    "Ġflight": 6583,
    "Ġgazette": 19504,
    "benefact": 24642,
    "quick": 6401,
    "Ġ116": 24440,
    "maker": 12497,
    "Ġhappens": 2190,
    "Ġadjusting": 3414,
    "Ġsine": 10765,
    "iably": 13741,
    "perquis": 22185,
    "shabbily": 26248,
    "Ġwhalemen": 3914,
    "utting": 17987,
    "carte": 25401,
    "sequent": 6831,
    "fem": 17539,
    "Ġadieus": 25113,
    "mod": 1072,
    "Ġdocument": 15021,
    "Ġindelible": 25695,
    "Ġaffectation": 14444,
    "asserted": 22313,
    "Ġintelligence": 559,
    "roded": 17958,
    "general": 7489,
    "overspreading": 26140,
    "biscuit": 17503,
    "ignor": 8964,
    "Ġlifting": 10199,
    "dependence": 17170,
    "Ġreducing": 1956,
    "Ġlikes": 9411,
    "inated": 6805,
    "ans": 458,
    "ayed": 12717,
    "Ġassail": 13068,
    "indirect": 22376,
    "urance": 10858,
    "Ġdisgraceful": 15022,
    "Ġecstasy": 11633,
    "Ġlxi": 21564,
    "Ġhistorically": 19381,
    "intend": 16227,
    "Ġsooty": 25816,
    "eu": 17532,
    "Ġi": 311,
    "F": 42,
    "Ġobedient": 20108,
    "col": 3102,
    "Ġ": 225,
    "afraid": 10443,
    "Ġderick": 9367,
    "orate": 10802,
    "Ġdidn": 4364,
    "Ġproportional": 2523,
    "oting": 2745,
    "chamber": 13629,
    "Ġwants": 5742,
    "udding": 11869,
    "Ġexclam": 6759,
    "lat": 9607,
    "Ġconvulsively": 25716,
    "Ġheave": 7600,
    "cure": 11475,
    "ht": 375,
    "Ġgathered": 8444,
    "ishes": 6524,
    "Ġelias": 18646,
    "Ġfurnishing": 16648,
    "Ġfollies": 16259,
    "Ġemma": 20697,
    "acific": 4960,
    "Ġcircumstance": 4987,
    "Ġcreeping": 18683,
    "Ġcolder": 22857,
    "cher": 5786,
    "Ġbestirred": 20454,
    "aye": 3659,
    "Ġbelly": 10372,
    "Ġintolerable": 8484,
    "detective": 24383,
    "Ġblu": 2685,
    "Ġregarded": 5762,
    "Ġserm": 9636,
    "Ġhousings": 21496,
    "teeth": 10357,
    "walls": 25346,
    "Ġbreed": 19075,
    "Ġlandau": 16422,
    "Ġdisenc": 22530,
    "leman": 21371,
    "ĩ": 234,
    "itage": 17818,
    "Ġinsane": 19271,
    "Ġprince": 18973,
    "Ġinduce": 7763,
    "brimmed": 14590,
    "Ġhastened": 9007,
    "break": 6103,
    "Ġrotterdam": 25476,
    "ean": 20842,
    "fee": 12885,
    "Ġ55": 24319,
    "Ġbruited": 25774,
    "Ġdesperate": 7777,
    "Ġthinking": 4032,
    "Ġportrait": 10664,
    "Ġincorporate": 20457,
    "billows": 20239,
    "razor": 21640,
    "Ġbritain": 16958,
    "Ġschedu": 1821,
    "Ġembarkation": 25125,
    "Ġclock": 9536,
    "Ġvictims": 19807,
    "onsense": 6432,
    "Ġreverence": 12063,
    "captains": 12132,
    "penn": 18828,
    "thomas": 18220,
    "Ġdeclaration": 16639,
    "Ġbrotherhood": 23672,
    "Ġvicissitudes": 12422,
    "Ġunfitted": 24109,
    "Ġslanting": 23176,
    "Ġpropag": 16351,
    "Ġrevived": 11369,
    "Ġgot": 2280,
    "charge": 9451,
    "ilar": 10218,
    "Ġoverthrow": 18431,
    "Ġvariants": 1791,
    "âĢľ_": 5720,
    "Ġtragedy": 10670,
    "Ġwired": 17788,
    "Ġstripping": 23698,
    "Ġcarried": 3693,
    "horrible": 14602,
    "Ġdecomp": 3811,
    "Ġapplicable": 19015,
    "ighted": 8479,
    "ager": 6548,
    "Ġabstraction": 26542,
    "Ġtombed": 25164,
    "Ġtortured": 14927,
    "Ġhackney": 20436,
    "Ġferocity": 16868,
    "omnipotent": 25965,
    "imitably": 21714,
    "cousin": 10655,
    "ĠĠĠĠĠĠĠĠĠĠĠĠĠĠĠĠĠĠĠĠĠĠĠĠĠĠĠĠĠĠĠĠĠĠĠĠĠĠĠĠĠĠĠĠĠĠĠ": 16757,
    "furnish": 25339,
    "atics": 15526,
    "sheets": 14445,
    "Ġslavery": 16310,
    "Ġflanks": 11919,
    "Ġmeanwhile": 5736,
    "Ġflourishing": 25188,
    "ibly": 2993,
    "Ġnaturally": 2466,
    "Ġdefects": 12337,
    "weakness": 16128,
    "Ġmasters": 11577,
    "ardy": 22159,
    "Ġlatent": 19658,
    "title": 17290,
    "Ġslammed": 20451,
    "noble": 7922,
    "Ġobliging": 13247,
    "Ġcentral": 7728,
    "Ġoutermost": 22323,
    "Ġforeheads": 23449,
    "Ġlimits": 3453,
    "iverer": 11720,
    "get": 1022,
    "assumed": 22312,
    "Ġmayhew": 12955,
    "Ġinjunction": 19620,
    "terms": 15755,
    "Ġvanish": 8930,
    "Ġaffords": 16736,
    "newsp": 23136,
    "Ġpeevish": 26559,
    "jud": 4483,
    "unicorn": 21893,
    "net": 1196,
    "Ġgrate": 12969,
    "Ġvoids": 25808,
    "Ġinsect": 12641,
    "roman": 22008,
    "Ġfind": 1459,
    "aet": 15311,
    "Ġgladness": 16593,
    "Ġinmates": 15627,
    "Ġhe": 318,
    "bore": 13690,
    "Ġcurtains": 22988,
    "happen": 19333,
    "Ġconsolidation": 5060,
    "Ġsor": 4147,
    "algorithms": 8293,
    "permitted": 18341,
    "Ġisolated": 13563,
    "ext": 915,
    "cherish": 24552,
    "Ġindependently": 4247,
    "Ġsuppl": 11079,
    "Ġsom": 1275,
    "Ġperpendicular": 7209,
    "tea": 18741,
    "Ġaboard": 6699,
    "Ġstochastic": 3267,
    "educated": 17262,
    "Ġsepulchre": 20562,
    "Ġdispatched": 23884,
    "tashtego": 9625,
    "Ġkin": 15908,
    "Ġunfolded": 10641,
    "Ġroundabout": 23065,
    "Ġchief": 3383,
    "Ġsymmetrical": 20370,
    "Ġgodson": 23359,
    "Ġwalks": 8969,
    "Ġpictures": 5503,
    "ach": 435,
    "Ġnightmare": 18921,
    "Ġingratitude": 17471,
    "wondered": 17118,
    "argue": 21447,
    "mathematics": 26305,
    "Ġinclud": 1514,
    "lets": 7836,
    "ĠĠĠĠĠ": 3529,
    "hip": 8744,
    "Ġjen": 9270,
    "Ġnetwork": 452,
    "ache": 8520,
    "ensive": 6281,
    "ommod": 13980,
    "Ġgun": 4703,
    "icial": 12660,
    "Ġpartake": 18671,
    "Ġembattled": 26290,
    "ushing": 5731,
    "Ġconducting": 16652,
    "Ġdivers": 9668,
    "Ġfestival": 25446,
    "Ġprofessions": 11232,
    "Ġweeps": 24950,
    "Ġcloud": 3913,
    "departed": 24793,
    "counterpart": 26361,
    "Ġpadded": 25039,
    "angu": 569,
    "Ġonto": 14031,
    "wickham": 5885,
    "coff": 9112,
    "Ġimpulsively": 24881,
    "amped": 12037,
    "Ġcolumb": 22859,
    "turner": 19544,
    "ĠĠĠĠ": 459,
    "Ġpenetrating": 17013,
    "Ġprove": 5232,
    "bidden": 19740,
    "Ġmowers": 17814,
    "trans": 5594,
    "Ġach": 2621,
    "ste": 3586,
    "Ġallowance": 14392,
    "pillar": 5619,
    "Ġunfortunately": 10910,
    "Ġrambling": 18638,
    "Ġhowled": 12860,
    "¡": 99,
    "Ġbrings": 11884,
    "indifference": 15986,
    "Ġapproximation": 2341,
    "Ġcanes": 22167,
    "Ġsecrets": 9057,
    "ucy": 15447,
    "Ġvacancies": 24345,
    "Ġspectators": 19410,
    "Ġreceived": 2951,
    "Ġfortune": 4241,
    "Ġbough": 13897,
    "Ġcontinent": 14891,
    "Ġupdates": 1298,
    "Ġliterary": 25166,
    "Ġlocket": 22117,
    "cong": 10691,
    "Ġinnumerable": 13356,
    "Ġsouls": 6310,
    "Ġallegor": 25546,
    "wished": 13808,
    "Ġchoicest": 24223,
    "Ġrally": 21972,
    "inev": 21983,
    "Ġfitly": 24002,
    "Ġrare": 7037,
    "Ġdotted": 16794,
    "Ġbull": 7839,
    "converse": 22479,
    "exerc": 16019,
    "surrounded": 26089,
    "ollen": 11299,
    "Ġchaplain": 19914,
    "tempestuous": 26098,
    "Ġhospitable": 17060,
    "matlock": 23471,
    "arth": 4445,
    "Ġsocieties": 20185,
    "xology": 21144,
    "wants": 21133,
    "Ġloath": 7891,
    "profitable": 17072,
    "Ġrespectful": 16349,
    "unusually": 15784,
    "Ġreaders": 18916,
    "Ġpeaked": 2295,
    "Ġindefinite": 17179,
    "Ġfulfil": 9554,
    "Ġconversed": 13190,
    "Ġnile": 21524,
    "za": 13813,
    "Ġdischarged": 15224,
    "tered": 2233,
    "Ġbakers": 17868,
    "south": 8762,
    "emone": 21931,
    "assembled": 21548,
    "tribute": 21091,
    "Ġmental": 21322,
    "Ġprofuse": 23568,
    "Ġpilot": 5986,
    ":âĢĶ": 4434,
    "robust": 19731,
    "Ġal": 342,
    "Ġdisasters": 16057,
    "Ġmanager": 11773,
    "Ġodious": 12155,
    "wheel": 22872,
    "Ġbowditch": 19324,
    "irements": 22216,
    "Ġraises": 11846,
    "Ġtied": 7357,
    "const": 5940,
    "uccas": 21109,
    "Ġchase": 3945,
    "Ġdeference": 10882,
    "merry": 16538,
    "great": 3519,
    "Ġdoubts": 8582,
    "usation": 18402,
    "Ġcirc": 1985,
    "Ġreciproc": 20625,
    "Ġopen": 1552,
    "history": 15017,
    "Ġshamefully": 24715,
    "Ġingolstadt": 8333,
    "Ġsurf": 19133,
    "Ġporing": 21469,
    "Ġconstruction": 9388,
    "Ġoverl": 18427,
    "secure": 12240,
    "lesson": 22773,
    "aths": 22702,
    "uge": 4017,
    "espe": 3502,
    "Ġbloodshed": 23803,
    "Ġ1807": 26084,
    "Ġpositional": 2598,
    "Ġrational": 8482,
    "Ġclutch": 15056,
    "Ġcauses": 2560,
    "Ġsubtlety": 24779,
    "hent": 12539,
    "Ġjumping": 13346,
    "ption": 7398,
    "especially": 3574,
    "Ġneighbourhood": 5126,
    "Ġmetropolitan": 17278,
    "continue": 16863,
    "Ġiceland": 15150,
    "í": 174,
    "awake": 14455,
    "Ġbeatrix": 24207,
    "Ġexerted": 15758,
    "Ġintolerably": 15833,
    "Ġharpooning": 23982,
    "Ġespecially": 3936,
    "Ġcamel": 25350,
    "youth": 11879,
    "acca": 23599,
    "wer": 8396,
    "ous": 477,
    "Ġmottled": 20681,
    "âĢĻ!âĢĿ": 18170,
    "Ġpretend": 7722,
    "harpo": 4806,
    "Ñ": 146,
    "arris": 13211,
    "Ġlux": 8818,
    "burst": 10540,
    "Ġperpendicularly": 11375,
    "Ġconsulted": 13434,
    "Ġresolving": 9422,
    "Ġefficiently": 3692,
    "itably": 10784,
    "Ġcust": 11584,
    "Ġrefine": 3213,
    "Ġabrid": 22286,
    "zas": 17714,
    "ariously": 18527,
    "admiration": 11388,
    "Ġangrily": 9410,
    "Ġcased": 21349,
    "Ġsadder": 24054,
    "ithmetic": 18064,
    "crack": 19843,
    "Ġconnections": 969,
    "Ġbol": 6243,
    "Ġroofs": 16987,
    "alid": 13938,
    "Ġreadily": 5254,
    "idelburgh": 10564,
    "Ġinsomuch": 23685,
    "ĠĠĠĠĠĠĠĠĠĠĠĠĠ": 22568,
    "Ġboundless": 10498,
    "Ġcomplement": 23711,
    "Ġempire": 11146,
    "shire": 3019,
    "Ġblasphemer": 26117,
    "Ġcracked": 8597,
    "cor": 5520,
    "Ġpiratical": 24798,
    "Ġnaturalists": 10367,
    "death": 6263,
    "Ġschemes": 11132,
    "assemblies": 25957,
    "Ġharris": 13930,
    "Ġjig": 15955,
    "Ġamb": 9295,
    "inates": 21183,
    "seaman": 25458,
    "ieged": 22583,
    "exceedingly": 9569,
    "before": 3113,
    "Ġbowsprit": 16562,
    "Ġgurg": 15677,
    "Ġaffronted": 22898,
    "Ġdomin": 10464,
    "Ġshot": 4545,
    "rey": 12543,
    "Ġseparating": 16684,
    "Ġbully": 23859,
    "Ġdilated": 24703,
    "mistaken": 12215,
    "Ġtruce": 24116,
    "Ġconfessed": 8009,
    "Ġcasting": 12105,
    "arm": 1357,
    "Ġpanting": 11604,
    "Ġdrifted": 14627,
    "Ġleakage": 23460,
    "rosc": 17957,
    "Ġfut": 15579,
    "Ġforetold": 23452,
    "Ġsag": 6515,
    "Ġhearse": 10422,
    "slide": 24556,
    "Ġarchangel": 8545,
    "Ġmixing": 24937,
    "Ġhost": 7070,
    "Ġbubbles": 11399,
    "Ġhorizon": 6635,
    "Į": 239,
    "Ġlucifers": 16590,
    "Ġqueerest": 16417,
    "Ġbowels": 9433,
    "99": 1895,
    "greek": 25405,
    "Ġslaugh": 18940,
    "testing": 12521,
    "Ġnearing": 15799,
    "Ġyaw": 18097,
    "Ġwhimsical": 20431,
    "Ġconcentrate": 25066,
    "mense": 4781,
    "Ġload": 14148,
    "Ġidentified": 19152,
    "Ġdarcy": 1342,
    "Ġmists": 14632,
    "Ġbrahma": 26321,
    "Ġsombre": 18861,
    "Ġm": 274,
    "Ġsaving": 15891,
    "plain": 1359,
    "æ": 167,
    "Ġchains": 8251,
    "Ġembedd": 1392,
    "Ġapplying": 13096,
    "sum": 2086,
    "Ġfugitive": 17330,
    "Ġon": 350,
    "Ġobscurely": 20191,
    "Ġeaten": 14848,
    "Ġbutton": 10270,
    "mystery": 15159,
    "pike": 11516,
    "Ġidly": 16406,
    "Ġexcel": 3569,
    "raise": 18014,
    "Ġdreaminess": 23943,
    "umbrance": 22122,
    "cent": 8073,
    "Ġ1894": 5196,
    "Ġhav": 12759,
    "extraordinary": 9098,
    "Ġtempestuous": 20074,
    "acup": 14262,
    "chariot": 26481,
    "Ġchocks": 13350,
    "Ġlose": 5028,
    "Ġforce": 5092,
    "Ġproposed": 7460,
    "Ġslaughtered": 26586,
    "Ġemir": 23351,
    "nor": 2741,
    "burned": 25082,
    "enemy": 15530,
    "Ġdifficulties": 11226,
    "nour": 20990,
    "Ġheadway": 18795,
    "pent": 3496,
    "Ġprominence": 18957,
    "words": 7983,
    "Ġattach": 14293,
    "Ġspatial": 2730,
    "Ġcentre": 5122,
    "executed": 25740,
    "Ġashes": 7617,
    "dece": 11738,
    "Ġutilize": 4799,
    "Ġ24": 13195,
    "lighter": 20961,
    "Ġsafer": 22174,
    "thrown": 8483,
    "boat": 3364,
    "adamite": 20596,
    "Ġbloodshot": 23802,
    "formality": 22225,
    "ener": 561,
    "Ġaddresses": 3768,
    "Ġassume": 10518,
    "Ġsubmitted": 11875,
    "Ġcrockery": 24303,
    "Ġaug": 6236,
    "host": 5869,
    "Ġineffect": 13933,
    "fain": 13718,
    "Ġpane": 21465,
    "athies": 22703,
    "Ġalert": 18104,
    "Ġterrified": 14674,
    "Ġvirt": 3909,
    "dy": 4076,
    "blood": 7780,
    "Ġbanquet": 15244,
    "Ġsuperseded": 26225,
    "Ġdisquiet": 18552,
    "thus": 5158,
    "_:": 17481,
    "Ġclubb": 22353,
    "Ġdemeanour": 17340,
    "Ġequals": 4728,
    "authority": 13595,
    "cas": 20796,
    "Ġunav": 18241,
    "à": 161,
    "Ġchim": 5934,
    "Ġcylinders": 25944,
    "Ġweights": 897,
    "Ġnice": 6678,
    "Ġirons": 7696,
    "Ġconcre": 16389,
    "Ġdoomed": 11343,
    "Ġdepression": 21843,
    "Ġparties": 7040,
    "Ġappointed": 20106,
    "Ġpledge": 11602,
    "ural": 504,
    "Ġorganize": 8994,
    "Ġperempt": 13677,
    "Ġreflect": 6577,
    "Ġlee": 4223,
    "Ġinsist": 9893,
    "reve": 12544,
    "antages": 7192,
    "Ġpermission": 9282,
    "Ġinterior": 8900,
    "buoy": 7761,
    "Ġlullaby": 20591,
    "Ġgracious": 8851,
    "Ġwing": 6668,
    "numer": 15402,
    "Ġloafer": 18300,
    "Ġglac": 9349,
    "lab": 3456,
    "Ġfrankly": 16747,
    "volume": 18611,
    "john": 11499,
    "utions": 1889,
    "Ġrevolve": 19733,
    "Ġhighland": 18711,
    "Ġdirector": 18922,
    "âĢĿ--": 21820,
    "Ġmeasures": 1208,
    "it": 276,
    "dream": 8731,
    "rief": 6204,
    "matic": 4619,
    "Ġquitting": 7646,
    "extensive": 18701,
    "Ġunavailing": 26217,
    "Ġimpelled": 11786,
    "Ġconsternation": 9862,
    "rigging": 20009,
    "Ġshroud": 6484,
    "dissatisf": 26130,
    "Ġsus": 18278,
    "Ġsentry": 19026,
    "backward": 2682,
    "Ġabove": 2935,
    "Ġclang": 15967,
    "commendation": 26351,
    "beef": 18523,
    "Ġperishing": 22401,
    "Ġserv": 3331,
    "arat": 9183,
    "Ġenterprise": 8645,
    "Ġprophecy": 25706,
    "Ġanticipation": 17058,
    "Ġrecur": 1624,
    "Ġsilly": 7686,
    "explanation": 12362,
    "Ġdropt": 23678,
    "alizing": 17942,
    "rem": 1523,
    "Ġdrop": 4346,
    "ues": 2079,
    "Ġchasing": 11758,
    "jane": 4484,
    "Ġapart": 4747,
    "Ġfee": 7199,
    "Ġunlim": 18254,
    "metal": 24764,
    "Ġletters": 3792,
    "Ġnewton": 3535,
    "Ġgovernments": 20270,
    "§": 105,
    "Ġgum": 21598,
    "Ġreproached": 24892,
    "Ġtriumphant": 12194,
    "Ġcaulking": 20296,
    "haired": 14769,
    "Ġrig": 4225,
    "Ġluckless": 16799,
    "through": 4025,
    "ric": 1376,
    "Ġelopement": 10333,
    "Ġpleasurable": 23341,
    "Ġsent": 1774,
    "impressions": 20701,
    "Ġrefreshed": 15295,
    "Ġunaccount": 22029,
    "sk": 5521,
    "xi": 17712,
    "dep": 6787,
    "Ġledger": 19405,
    "ther": 481,
    "Ġcarpets": 18904,
    "Ġhurts": 19113,
    "Ġkno": 5242,
    "Ġramadan": 9578,
    "cil": 8724,
    "sentimental": 25682,
    "leaving": 10793,
    "Ġwaiter": 16430,
    "Ġcondu": 18112,
    "Ġrede": 13987,
    "Ġgallows": 12150,
    "aneously": 4061,
    "becoming": 18519,
    "Ġdowncast": 18653,
    "er": 269,
    "Ġdevoting": 22720,
    "Ġbowed": 6244,
    "cture": 15669,
    "Ġtig": 13816,
    "Ġfiltering": 23930,
    "Ġtruthful": 23870,
    "Ġtrivial": 10145,
    "Ġskilful": 25838,
    "iled": 1764,
    "octavo": 11386,
    "Ġformidable": 8220,
    "Ġ81": 24457,
    "hound": 20897,
    "Ġpickle": 16724,
    "Ġhuzza": 12638,
    "Ġbrush": 17866,
    "Ġstirred": 12222,
    "Ġgardens": 16453,
    "Ġwake": 4750,
    "Ġheh": 21683,
    "Ġnearest": 8472,
    "shavings": 22457,
    "Ġcor": 1323,
    "Ġwelcome": 5604,
    "Ġincess": 8432,
    "hung": 8381,
    "Ġphil": 3387,
    "Ġmisfortunes": 7043,
    "Ġknocked": 9503,
    "Ġplaited": 14287,
    "Ġtwentieth": 18660,
    "Ġmodel": 511,
    "Ġvalues": 2650,
    "Ġdescends": 14290,
    "gammon": 20246,
    "Ġreadiness": 13055,
    "alled": 5912,
    "theories": 18081,
    "Ġanticipatingly": 26103,
    "Ġacceptance": 14830,
    "Ġsincer": 13071,
    "Ġunheard": 22027,
    "oblivious": 26584,
    "Ġxxx": 7767,
    "pits": 15415,
    "Ġplausible": 26555,
    "understood": 13220,
    "Ġweaken": 21926,
    "Ġscrewing": 20211,
    "arding": 22160,
    "independ": 15985,
    "Ġheire": 18039,
    "erpillar": 5798,
    "endless": 22221,
    "sex": 12718,
    "ops": 5248,
    "Ġfluid": 11213,
    "doors": 19096,
    "Ġsleeve": 20143,
    "Ġresembled": 18036,
    "Ġabsence": 4895,
    "daw": 17524,
    "deav": 2673,
    "Ġent": 904,
    "known": 3570,
    "ocity": 8278,
    "Ġblank": 5952,
    "Ġvit": 10248,
    "Ġrefer": 18705,
    "Ġcats": 8982,
    "gul": 12470,
    "Ġassisting": 13262,
    "wr": 3026,
    "Ġrebounds": 25968,
    "arpaul": 14537,
    "treated": 21097,
    "Ġobliter": 14325,
    "Ġtrappings": 23086,
    "carefully": 13373,
    "ivorous": 22083,
    "Ġke": 1155,
    "Ġrippling": 17280,
    "Ġplaid": 22606,
    "Ġasserted": 16951,
    "Ġunusual": 6555,
    "Ġyanke": 18100,
    "Ġactively": 18655,
    "Ġdiscreet": 16484,
    "Ġresiding": 16065,
    "Ġmotionless": 8324,
    "Ġattempts": 10493,
    "Ġwater": 1947,
    "Ġconflagration": 26366,
    "Ġstair": 8457,
    "kept": 11721,
    "Ġincomp": 12905,
    "Ġblessing": 11264,
    "Ġcomprehension": 15090,
    "lop": 20950,
    "ospel": 17012,
    "Ġapparelled": 20440,
    "whale": 2141,
    "Ġindisposed": 26289,
    "Ġtumbled": 13410,
    "dict": 15341,
    "oning": 7572,
    "Ġperformer": 18757,
    "Ġbigot": 24566,
    "Ġvex": 5950,
    "Ġbeneficial": 23934,
    "Ġwonderfully": 10432,
    "persecutor": 26531,
    "Ġcombines": 1143,
    "whereby": 23420,
    "Ġrecol": 4030,
    "Ġsamples": 2961,
    "Ġdataset": 12821,
    "Ġnoises": 18375,
    "Ġpenet": 6888,
    "cated": 20805,
    "Ġanyone": 4461,
    "Ġconscientious": 16729,
    "dressing": 11483,
    "Ġsmaller": 1883,
    "Ġxiv": 23410,
    "uff": 2731,
    "pal": 9619,
    "ume": 4837,
    "Ġimproved": 7657,
    "Ġretired": 6072,
    "Ġrevolved": 9987,
    "Ġextremely": 2667,
    "Ġdecap": 16023,
    "Ġspine": 7407,
    "whales": 5187,
    "arded": 5029,
    "blubber": 15240,
    "Ġharb": 7370,
    "plete": 10920,
    "field": 3070,
    "honour": 13471,
    "Ġfat": 3461,
    "ices": 2138,
    "appropri": 22846,
    "Ġreversed": 15701,
    "Ġminor": 12973,
    "Ġamiable": 4270,
    "Ġnegative": 1465,
    "Ġannoyance": 20664,
    "Ġunbroken": 18251,
    "Ġharem": 9712,
    "tal": 17672,
    "Ġfell": 1976,
    "ees": 13714,
    "story": 9215,
    "liked": 10511,
    "Ġ1000": 3116,
    "Ġbrains": 2630,
    "Ġinjuring": 24271,
    "cies": 1812,
    "close": 9989,
    "Ġug": 8141,
    "Ġcontinue": 5398,
    "Ġvent": 3997,
    "along": 6014,
    "Ġunprepared": 22052,
    "althily": 19362,
    "fall": 5135,
    "Ġplunging": 14955,
    "Ġhorr": 3190,
    "Ġcognitive": 13638,
    "Ġanalytical": 22891,
    "Ġtiller": 8968,
    "Ġbinnacle": 8119,
    "âĢĻâĢĶ": 12741,
    "Ġweaving": 12745,
    "Ġfingertips": 24020,
    "Ġcurbstone": 26044,
    "uiperai": 10666,
    "ks": 3144,
    "Ġdandy": 17894,
    "arthur": 14833,
    "Ġarab": 7823,
    "rubbed": 22194,
    "Ġunnear": 22030,
    "performances": 26007,
    "Ġheat": 5453,
    "buttoned": 13636,
    "mble": 1408,
    "Ġflowery": 16236,
    "Ġbeckoning": 20505,
    "Ġresolute": 19246,
    "Ġeigenvalues": 4998,
    "Ġshow": 3403,
    "Ġtroubles": 19442,
    "Ġbreakfast": 3976,
    "Ġcourse": 2131,
    "Ġwillow": 18531,
    "Ġmention": 2984,
    "ful": 659,
    "ó": 180,
    "dry": 13707,
    "Ġallusions": 10907,
    "crown": 13702,
    "leton": 5148,
    "Ġcrisis": 13130,
    "Ġherself": 1567,
    "andering": 21871,
    "Ġdoubloon": 6945,
    "log": 18535,
    "Ġdominant": 12400,
    "Ġwhar": 7388,
    "moral": 14805,
    "reproach": 15190,
    "Ġstiffness": 24828,
    "Ġfervent": 14899,
    "angs": 5835,
    "Ġfireside": 23535,
    "Ġspire": 18307,
    "amaz": 21848,
    "Ġmace": 21312,
    "Ġdisgust": 6707,
    "Ġaverse": 11081,
    "adventures": 20259,
    "Ġverdant": 15004,
    "leisure": 21374,
    "Ġtufted": 17016,
    "dimens": 2317,
    "Ġgradients": 612,
    "rigible": 24932,
    "Ġcyp": 21348,
    "Ġtopic": 9409,
    "confess": 12180,
    "Ġdesperation": 19821,
    "Ġimprecate": 20521,
    "Ġfatt": 15583,
    "Ġgest": 8134,
    "ously": 2490,
    "remental": 21250,
    "Ġmales": 17807,
    "Ġvast": 3297,
    "civility": 17515,
    "Ġdiscovering": 13362,
    "Ġspake": 18309,
    "Ġmortified": 14697,
    "sensibility": 25028,
    "Ġhousekeeping": 18946,
    "joke": 20932,
    "Ġformality": 22833,
    "food": 12468,
    "Ġignoble": 19402,
    "Ġfirmness": 11239,
    "maintained": 25023,
    "Ġfruits": 17121,
    "================================================================": 9993,
    "Ġhip": 17923,
    "Ġempty": 5354,
    "Ġaudible": 19883,
    "snap": 24849,
    "recogn": 13429,
    "ably": 1846,
    "perishing": 22181,
    "helpless": 16792,
    "Ġproduced": 2452,
    "drink": 10598,
    "vitiated": 25755,
    "Ġgleamed": 17078,
    "Ġprot": 3847,
    "Ġinsens": 8277,
    "constable": 24606,
    "Ġfearless": 9878,
    "Ġge": 1977,
    "Ġwhy": 1759,
    "course": 6106,
    "medical": 23344,
    "attempt": 9363,
    "peculiar": 6886,
    "Ġvoluntary": 14802,
    "Ġmining": 22834,
    "Ġtriumphantly": 11288,
    "Ġperiod": 4003,
    "Ġblasphe": 17410,
    "rendering": 22344,
    "bler": 11473,
    "Ġdirection": 1792,
    "Ġliar": 22412,
    "despond": 19803,
    "vain": 15450,
    "Ġchurch": 4712,
    "gish": 20875,
    "sax": 21059,
    "bald": 16446,
    "velling": 14765,
    "wrinkles": 16557,
    "Ġbloody": 9892,
    "Ġinteraction": 7424,
    "Ġdiddled": 22670,
    "Ġ*/": 10376,
    "Ġinvari": 6530,
    "every": 2811,
    "fulfilment": 26025,
    "Ġdownright": 16122,
    "Ġclumsy": 9582,
    "odhead": 18123,
    "Ġdestiny": 8986,
    "ores": 2411,
    "Ġrevellers": 21681,
    "ough": 471,
    "Ġconcent": 8250,
    "Ġimplicate": 24877,
    "Ġlawyers": 25249,
    "abama": 12714,
    "Ġfacing": 10174,
    "icient": 802,
    "Ġdiscriminator": 3393,
    "Ġdet": 509,
    "isome": 17850,
    "Ġranged": 10260,
    "Ġeloped": 22661,
    "felt": 5890,
    "Ġbund": 17865,
    "Ġhookah": 16972,
    "\\": 64,
    "gy": 2095,
    "Ġballarat": 14722,
    "Ġmoot": 22436,
    "Ġlovers": 9723,
    "reduc": 5459,
    "Ġwollstonecraft": 26427,
    "Ġappals": 22230,
    "Ġtim": 4579,
    "Ġdiscovers": 4429,
    "etics": 21584,
    "ld": 385,
    "Ġswitzerland": 10382,
    "Ġpreserving": 19799,
    "pard": 9621,
    "Ġleaping": 8341,
    "arted": 2202,
    "Ġcelebrated": 13598,
    "hecy": 21209,
    "Ġsufferings": 7513,
    "Ġthro": 5818,
    "eties": 10839,
    "Ġlod": 4044,
    "Ġif": 696,
    "ĠcÃ¦": 15559,
    "Ġgrotes": 19566,
    "Ġaccident": 5380,
    "Ġconsecutive": 20705,
    "Ġmaterial": 5178,
    "Ġbale": 7838,
    "Ġfaults": 12217,
    "Ġchamounix": 14867,
    "Ġunravel": 26216,
    "Ġprecaution": 11197,
    "ibilities": 13013,
    "Ġexecut": 4248,
    "Ġtinkling": 25213,
    "Ġembracing": 14983,
    "Ġshar": 9253,
    "work": 1784,
    "spot": 9793,
    "cur": 3272,
    "Ġprocedure": 2810,
    "carp": 9113,
    "Ġfollowed": 1793,
    "Ġcrammed": 16473,
    "Ġtreating": 4284,
    "Ġbegins": 7244,
    "Ġafrican": 20140,
    "Ġsuperglue": 23458,
    "Ġlug": 15656,
    "isson": 23463,
    "Ġgeomet": 3191,
    "Ġsoothe": 7405,
    "Ġcontinental": 19708,
    "geons": 15983,
    "isk": 9170,
    "Ġdome": 15593,
    "Ġinnocent": 4922,
    "Ġprehens": 22235,
    "Ġhorrors": 10482,
    "ors": 854,
    "ater": 3372,
    "bon": 13688,
    "Ġivory": 4478,
    "bol": 8721,
    "Ġcoding": 8116,
    "Ġattempt": 3487,
    "gled": 10701,
    "take": 4577,
    "Ġtheore": 1827,
    "gen": 6504,
    "phere": 21021,
    "Ġgreyish": 24211,
    "pots": 11515,
    "Ġcaptivating": 26051,
    "Ġrector": 21679,
    "wealth": 22691,
    "watch": 6120,
    "mean": 6439,
    "Ġgallon": 24186,
    "parad": 16392,
    "Ġimmaculate": 19489,
    "Ġcure": 21343,
    "Ġappropriated": 23486,
    "erable": 1916,
    "porpoise": 16437,
    "Ġscream": 5936,
    "Ġoccasion": 3248,
    "Ġillustrative": 25069,
    "sweep": 24618,
    "Ġphilipses": 24452,
    "tural": 21069,
    "Ġcowardice": 17033,
    "ipotence": 22366,
    "morning": 4860,
    "idence": 4302,
    "N": 50,
    "finer": 17548,
    "hearing": 8404,
    "Ġbetokened": 18801,
    "Ġpromptly": 23821,
    "Ġupper": 5090,
    "Ġmonth": 2848,
    "Ġappear": 2484,
    "ceased": 21629,
    "Ġgenius": 8046,
    "appointment": 24062,
    "Ġlikewise": 5386,
    "Ġpout": 17906,
    "Ġarriving": 19219,
    "Ġwilt": 9646,
    "Ġresponsiveness": 2898,
    "Ġribs": 7103,
    "Ġchanges": 2286,
    "Ġking": 2303,
    "breeding": 16677,
    "Ġblackest": 19100,
    "Ġproved": 4885,
    "Ġpopular": 6218,
    "Ġreluctant": 20528,
    "Ġsummer": 4791,
    "recursion": 13333,
    "Ġcath": 17828,
    "Ġromantic": 8031,
    "Ġcurds": 22987,
    "itates": 13872,
    "Ġoccup": 3739,
    "Ġoun": 13866,
    "Ġreported": 11984,
    "Ġpompous": 20426,
    "Ġalighted": 18106,
    "Ġnick": 21526,
    "Ġdepressions": 25799,
    "Ġpromise": 4199,
    "Ġbor": 5805,
    "lue": 8511,
    "inquiries": 13581,
    "Ġseparate": 5778,
    "Ġdraws": 19439,
    "Ġinser": 6820,
    "Ġindisc": 16231,
    "offensive": 16401,
    "Ġalarming": 14785,
    "Ġinclusive": 24164,
    "Ġcord": 5222,
    "searching": 25106,
    "Ġbattle": 5909,
    "Ġlightly": 13088,
    "Ġvancouver": 26567,
    "slipping": 25529,
    "Ġcreep": 22724,
    "Ġbethinking": 25280,
    "unhesitatingly": 26498,
    "Ġgown": 10204,
    "Ġaspects": 4175,
    "edded": 8558,
    "Ġfifth": 11258,
    "Ġmenacing": 23111,
    "tt": 13793,
    "Ġvessels": 6757,
    "Ġstr": 761,
    "Ġsuspended": 5665,
    "Ġchinese": 14186,
    "Ġkindliness": 23295,
    "ediction": 17947,
    "compasses": 19461,
    "Ġtidings": 11398,
    "Ġrind": 21973,
    "Ġbrine": 18769,
    "Ġ3": 3986,
    "nursery": 26401,
    "Ġvocabulary": 4995,
    "Ġmonsters": 11075,
    "Ġreb": 15695,
    "Ġbrazier": 26322,
    "Ġeloquent": 16119,
    "meaning": 2908,
    "Ġcontraction": 16012,
    "Ġunderstand": 843,
    "imming": 9690,
    "Ġshort": 2227,
    "Ġcanall": 10929,
    "breaking": 14767,
    "Ġpunctually": 17141,
    "Ġconceal": 5975,
    "Ġscriptures": 26237,
    "together": 3558,
    "Ġcommonest": 23093,
    "Ġactiv": 832,
    "bbings": 19278,
    "Ġqueer": 4480,
    "possibility": 13366,
    "Ġlover": 7193,
    "Ł": 258,
    "Ġ66": 24369,
    "Ġdelighted": 5499,
    "unte": 21877,
    "phys": 18729,
    "Ġinvent": 7165,
    "albatross": 15634,
    "equally": 19901,
    "achalot": 15867,
    "Ġbridle": 24682,
    "Ġrecip": 16145,
    "Ġshudderings": 25201,
    "Ġrequires": 1005,
    "winds": 10524,
    "Ġcommendation": 13614,
    "thank": 4950,
    "abound": 15744,
    "Ġoverdone": 22361,
    "mortal": 10115,
    "headsman": 16699,
    "Ġprocured": 8680,
    "Ġdrank": 16537,
    "icates": 11619,
    "Ġdissolved": 18554,
    "Ġtechnical": 17194,
    "afforded": 25866,
    "Ġoozy": 21330,
    "Ġmap": 2391,
    "Ġconsec": 21809,
    "Ġcaves": 15558,
    "Ġphilipp": 23887,
    "theirs": 23604,
    "tumultuous": 20402,
    "itative": 13873,
    "Ġcompletion": 12152,
    "Ġflinging": 13589,
    "ada": 14014,
    "Ġleaves": 5021,
    "Ġagonized": 25373,
    "Ġgrassy": 24379,
    "Ġunthinkingly": 26222,
    "Ġalman": 21785,
    "kl": 4866,
    "gies": 13729,
    "Ġappropriate": 2251,
    "luding": 6702,
    "onical": 21256,
    "hed": 672,
    "part": 2572,
    "Ġrode": 16002,
    "Ġcrystall": 20229,
    "Ġtruth": 3322,
    "Ġcandle": 8292,
    "insufferable": 21195,
    "evenings": 19466,
    "Ġ180": 16608,
    "Ġdesire": 3717,
    "granting": 23416,
    "tackle": 17324,
    "inating": 9156,
    "Ġcirclings": 26433,
    "lines": 6959,
    "finish": 24384,
    "Ġkidn": 20208,
    "Ġpemberley": 4589,
    "Ġtightly": 13537,
    "missing": 13224,
    "oran": 8793,
    "Ġjove": 9271,
    "Ġsacrificed": 17425,
    "Ġhangs": 11608,
    "seated": 11675,
    "Ġportable": 19373,
    "Ġcheap": 13093,
    "Ġsevered": 18204,
    "prit": 19345,
    "crane": 24088,
    "clear": 9027,
    "Ġproblems": 2847,
    "Ġtests": 8960,
    "Ġmass": 3780,
    "unwilling": 14064,
    "Ġevangelists": 20342,
    "gings": 7549,
    "derbyshire": 18322,
    "Ġcharted": 22254,
    "Ġpregn": 22236,
    "Ġopenness": 18959,
    "Ġdepends": 1060,
    "Ġplayful": 19238,
    "showing": 22455,
    "Ġdisagreeable": 9301,
    "makes": 10713,
    "Ġimpetus": 25570,
    "bringing": 17169,
    "asmuch": 10197,
    "Ġhushed": 13928,
    "Ġtr": 557,
    "Ġbri": 21381,
    "Ġtendinous": 16933,
    "eded": 9676,
    "chanced": 18806,
    "Ġopinion": 3141,
    "Ġcrawling": 17046,
    "repro": 10772,
    "chance": 6827,
    "Ġimbecile": 17395,
    "phon": 4128,
    "nue": 15400,
    "Ġexception": 11217,
    "Ġeleventh": 23370,
    "kye": 20940,
    "Ġinfatuation": 25858,
    "Ġsuggest": 5417,
    "Ġpur": 2218,
    "Ġrapidity": 11097,
    "Ġphilist": 16603,
    "Ġwept": 7184,
    "gunw": 17223,
    "Ġmoist": 9288,
    "rossing": 18651,
    "Ġ90": 24589,
    "Ġgifted": 17999,
    "Ġthirds": 16710,
    "Ġmariners": 6069,
    "Ġadvisable": 11443,
    "Ġcumulative": 4211,
    "hawk": 7123,
    "Ġoverjoyed": 17461,
    "Ġexclusiveness": 23931,
    "\"],": 26121,
    "Ġloves": 10916,
    "shiver": 16027,
    "belled": 24039,
    "Ġobliquely": 12366,
    "Ġsailors": 4277,
    "geon": 6272,
    "europe": 20668,
    "Ġexperienced": 6582,
    "Ġtransports": 24280,
    "Ġinvaluable": 10185,
    "Ġan": 286,
    "legra": 10791,
    "Ġcondemn": 13448,
    "Ġtransformer": 2636,
    "Ġacquies": 11099,
    "Ġoppose": 16521,
    "in": 262,
    "Ġexploring": 4305,
    "bout": 20775,
    "Ġforger": 15737,
    "(_": 7540,
    "Ġaz": 9632,
    "Ġadvertised": 17250,
    "Ġfumbled": 17883,
    "Ġcatholic": 20684,
    "Ġsequence": 1974,
    "Ġhing": 11606,
    "Ġcourtiers": 24137,
    "perpet": 14161,
    "discovery": 12021,
    "Ġfarthest": 23119,
    "crew": 7544,
    "acetty": 24464,
    "Ġconceive": 8463,
    "Ġconflag": 20338,
    "Ġlit": 6248,
    "Ġdefilements": 26286,
    "Ġbingleys": 18996,
    "Ġtailed": 21171,
    "fell": 6953,
    "means": 9789,
    "Ġdriving": 3617,
    "arson": 22751,
    "Ġcanoes": 12810,
    "Ġyour": 634,
    "Ġdecorum": 16024,
    "Ġelement": 6897,
    "Ġreplace": 14479,
    "writing": 7721,
    "village": 25423,
    "Ġ123": 24468,
    "moderate": 22866,
    "Ġmoonshine": 19600,
    "Ġchace": 14181,
    "Ġspies": 22132,
    "author": 9863,
    "Ġadmirably": 16483,
    "vulgar": 25919,
    "Ġmoment": 988,
    "wander": 17711,
    "Ġexacted": 23605,
    "Ġunch": 18240,
    "coat": 5407,
    "lean": 21368,
    "Ġsharks": 4499,
    "Ġfunctions": 1340,
    "Ġsimpleton": 16338,
    "Ġtext": 2269,
    "Ġclaimed": 14204,
    "Ġ38": 24080,
    "Ġanointing": 25540,
    "Ġembarked": 17137,
    "Ġpraises": 16732,
    "Ġorlop": 22097,
    "Ġenormity": 19698,
    "jected": 22715,
    "Ġmounts": 17808,
    "top": 4487,
    "fo": 5279,
    "Ġyoung": 1509,
    "Ġblemish": 19682,
    "Ġwaldman": 11346,
    "Ġhole": 6080,
    "staring": 18023,
    "finished": 10557,
    "Ġspared": 7893,
    "angled": 6844,
    "Ġtoes": 10831,
    "Ġensued": 11395,
    "Ġconcuss": 19050,
    "Ġbarmaid": 19337,
    "cooee": 12421,
    "Ġposture": 24165,
    "Ġshaster": 22002,
    "Ġbelonging": 8308,
    "Ġtusk": 25426,
    "slowly": 9092,
    "absolutely": 10648,
    "Ġdesolation": 12273,
    "Ġjing": 15953,
    "Ġexamined": 6336,
    "Ġwow": 15532,
    "Ġdreaded": 8289,
    "Ġdire": 866,
    "Ġbrew": 23345,
    "Ġcrocod": 19631,
    "Ġgovernesses": 25130,
    "Ġar": 480,
    "owed": 2271,
    "Ġsparsity": 4208,
    "Ġsavann": 14686,
    "metic": 14987,
    "Ġdesc": 773,
    "merc": 19282,
    "afric": 19181,
    "Ġmaddened": 17246,
    "Ġconclusions": 10556,
    "Ġtumbling": 13828,
    "flinging": 20870,
    "Ġpam": 21456,
    "Ġpruning": 18972,
    "scure": 22991,
    "adem": 21761,
    "Ġanalyzing": 18781,
    "flagged": 23975,
    "arken": 18668,
    "Ġnodding": 23337,
    "Ġblasphemy": 26116,
    "Ġremorse": 6442,
    "rudential": 16711,
    "alas": 8808,
    "Ġinterruption": 9476,
    "Ġemptied": 24347,
    "Ġsullen": 9160,
    "Ġsmoke": 4717,
    "Ġchin": 4892,
    "Ġcried": 1487,
    "Ġforgetfulness": 14609,
    "Ġhad": 443,
    "Ġsublim": 19970,
    "Ġspin": 7630,
    "Ġvill": 3878,
    "ittle": 813,
    "Ġdames": 23475,
    "Ġstript": 23696,
    "Ġlandlord": 5581,
    "Ġpartial": 2128,
    "Ġinvader": 23480,
    "Ġgave": 2219,
    "ñ": 178,
    "e": 73,
    "Ġenglishmen": 19433,
    "ole": 9616,
    "Ġmediocrity": 26610,
    "Ġcrusad": 23708,
    "Ġbehold": 5049,
    "ĠĠĠĠĠĠĠĠĠĠĠĠĠĠĠĠĠĠĠĠĠĠĠĠĠĠĠĠĠĠĠĠĠĠĠĠĠĠĠĠĠĠĠ": 12159,
    "lacing": 17592,
    "desire": 14664,
    "Ġjoy": 3184,
    "roots": 15647,
    "desper": 13223,
    "Ġemphasis": 20539,
    "qualities": 25046,
    "acknowledging": 25477,
    "involuntarily": 20418,
    "shish": 11797,
    "Ġforesaw": 19128,
    "Ġcreated": 2707,
    "Ġprejudices": 13473,
    "Ġfarther": 5956,
    "Ġinnermost": 12165,
    "chose": 18043,
    "bus": 5355,
    "Ġporter": 15615,
    "exertion": 16020,
    "headed": 4318,
    "Ġbenevol": 5963,
    "Ġparallel": 1416,
    "hunted": 16834,
    "itig": 1332,
    "iber": 6507,
    "ologist": 22874,
    "Ġsustaining": 25334,
    "Ġsluggishly": 25892,
    "ohnson": 16329,
    "Ġeligible": 10673,
    "Ġcollected": 2612,
    "Ġskill": 6872,
    "Ġazores": 20196,
    "Ġtant": 12530,
    "Ġsinks": 19552,
    "Ġfamilies": 8027,
    "interview": 19300,
    "Ġsog": 22088,
    "Ġsnowy": 9021,
    "Ġcondemned": 7779,
    "Ġsab": 10764,
    "Ġassu": 21901,
    "Ġlights": 8963,
    "Ġrallied": 14098,
    "Ġterra": 13121,
    "ichron": 22172,
    "Ġmagn": 1556,
    "coal": 12029,
    "antediluvian": 24346,
    "sc": 1261,
    "volous": 18610,
    "Ġgreatness": 12948,
    "Ġearthy": 23714,
    "antled": 18287,
    "Ġencl": 16169,
    "ault": 2306,
    "Ġyounge": 16291,
    "intolerable": 22941,
    "Ġrecommending": 24333,
    "Ġcontrols": 1730,
    "lid": 20947,
    "Ġinstinctively": 13463,
    "ula": 2826,
    "Ġburton": 23654,
    "brilliancy": 26078,
    "Ġhatchway": 13528,
    "Ġtens": 17725,
    "Ġrespectively": 23251,
    "gressive": 2754,
    "Ġmerely": 3770,
    "Ġjost": 23632,
    "Ġlogits": 3450,
    "ernally": 22623,
    "Ġsickness": 10541,
    "sinking": 17670,
    "Ġtart": 12533,
    "nals": 16402,
    "Ġmean": 740,
    "gs": 7338,
    "hence": 16627,
    "ske": 13785,
    "Ġmim": 3105,
    "olence": 10233,
    "Ġgam": 11626,
    "nered": 18493,
    "Ġmurderous": 8316,
    "Ġscho": 4438,
    "madly": 24420,
    "Ġlanguor": 12853,
    "suppose": 8648,
    "Ġbathed": 17867,
    "Ġoverbearing": 12847,
    "Ġfiles": 21416,
    "covenant": 23564,
    "quakes": 21854,
    "Ġtoma": 7373,
    "Ġbelongs": 8015,
    "Ġequalled": 13317,
    "clo": 5613,
    "Ġneedn": 19230,
    "Ġsurvey": 13597,
    "Ġpres": 9735,
    "reflections": 24734,
    "Ġbewitching": 25977,
    "Ġwitnessing": 19601,
    "below": 12126,
    "none": 6962,
    "att": 1458,
    "Ġencourage": 10383,
    "Ġangels": 11179,
    "float": 19808,
    "aven": 8208,
    "Ġprocedural": 12035,
    "Ġweb": 9243,
    "Ġappo": 8501,
    "improve": 15716,
    "Ġsquint": 22841,
    "Ġdynamic": 5124,
    "Ġgreeting": 18964,
    "Ġpresent": 1644,
    "sterdam": 19091,
    "opard": 9294,
    "Ġpursued": 6330,
    "Ġfinery": 23128,
    "Ġafghan": 22632,
    "Ġireland": 17338,
    "Ġmind": 1622,
    "safie": 20351,
    "Ġdisappointing": 19582,
    "enet": 10155,
    "deceptive": 22153,
    "bble": 17487,
    "Ġgrimesby": 11458,
    "Ġsomething": 1794,
    "gather": 20877,
    "Ġmaritime": 23041,
    "asburgh": 15651,
    "Ġvol": 4190,
    "Ġtars": 21167,
    "Ġgrooves": 16743,
    "Ġ-": 1944,
    "Ġindicate": 23726,
    "Ġdomestic": 6910,
    "Ġinflu": 4908,
    "Ġpupella": 20425,
    "impl": 21710,
    "deacon": 22151,
    "Ġjac": 1897,
    "ces": 579,
    "last": 3803,
    "Ġcocaine": 20723,
    "itarian": 21340,
    "Ġthank": 3791,
    "ols": 2410,
    "ascended": 24705,
    "Ġimpetuous": 25571,
    "olera": 21845,
    "Ġjobs": 24833,
    "melancholy": 12357,
    "ler": 3494,
    "Ġconven": 6153,
    "se": 358,
    "Ġmiracle": 15097,
    "aper": 4999,
    "Ġhissed": 15793,
    "Ġscorn": 7900,
    "Ġsaville": 15893,
    "Ġblinding": 14731,
    "embedding": 20360,
    "Ġascribed": 14858,
    "be": 671,
    "Ġhist": 2445,
    "Ġdumplings": 15194,
    "Ġlubber": 17447,
    "opence": 18508,
    "pocket": 9812,
    "lu": 597,
    "barrow": 15324,
    "lynes": 15708,
    "imet": 21709,
    "Ġboneless": 19608,
    "Ġfeels": 6882,
    "Ġforthwith": 16620,
    "Ġpermanently": 25474,
    "obvious": 9360,
    "whispered": 20037,
    "Ġbridge": 8349,
    "agne": 21909,
    "Ġmagnitude": 1943,
    "Ġmince": 22835,
    "spouting": 25003,
    "Ġshine": 12771,
    "Ġfe": 490,
    "Ġprecipice": 19944,
    "Ġcomfortless": 23916,
    "Ġlumps": 21559,
    "Ġdeformed": 14049,
    "Ġignorantly": 19498,
    "prejudice": 25572,
    "Ġerudite": 26353,
    "mor": 4215,
    "Ġprosperous": 15175,
    "plun": 15823,
    "Ġnewcomer": 26041,
    "inhabited": 13624,
    "Ġpantheistic": 26337,
    "Ġdismasted": 15255,
    "Ġerie": 20057,
    "_.": 2214,
    "Ġimbalance": 22178,
    "Ġnorthern": 7265,
    "Ġcrazed": 19177,
    "impatience": 25501,
    "Ġind": 1225,
    "Ġsoldier": 16922,
    "Ġprodigy": 19795,
    "degree": 12806,
    "Ġunseason": 22054,
    "atible": 17774,
    "Ġpoised": 22595,
    "Ġscaling": 3631,
    "Ġsneer": 13451,
    "Ġemble": 13974,
    "Ġobservant": 20113,
    "Ġpierced": 12286,
    "Ġschol": 17380,
    "danger": 10092,
    "treat": 12518,
    "Ġevangelist": 20341,
    "Ġdiminished": 16668,
    "obliged": 20634,
    "Ġproperties": 3117,
    "Ġpadd": 9672,
    "erated": 21274,
    "Ġagrees": 22519,
    "orated": 12596,
    "Ġperiodically": 19497,
    "Ġunperceived": 22039,
    "astic": 1866,
    "Ġstre": 2107,
    "Ġbird": 3756,
    "Ġimpertin": 6933,
    "Ġconver": 808,
    "Ġdrinking": 12173,
    "Ġletting": 10364,
    "ifying": 5235,
    "Ġraft": 16114,
    "Ġresentful": 24632,
    "Ġbeing": 1163,
    "silly": 24422,
    "Ġquar": 3112,
    "Ġbewitched": 25976,
    "irting": 11689,
    "Ġloathsome": 13531,
    "Ġsurgeon": 8984,
    "unct": 18157,
    "gloom": 17142,
    "rabb": 15684,
    "Ġimply": 18444,
    "olidity": 18146,
    "Ġsinned": 18953,
    "Ġtin": 15466,
    "Ġplaced": 3444,
    "brandy": 19202,
    "Ġcous": 3437,
    "Ġunsc": 22016,
    "Ġindefinitely": 25222,
    "Ġstaving": 21741,
    "Ġvilla": 14750,
    "Ġfatal": 5873,
    "Ġrights": 10399,
    "Ġviolates": 3164,
    "condition": 7061,
    "Ġother": 758,
    "judging": 24204,
    "yt": 17713,
    "Ġbrad": 8791,
    "atum": 21262,
    "Ġdissimilar": 22535,
    "elijah": 19476,
    "nical": 20993,
    "Ġyear": 3287,
    "clerval": 7951,
    "Ġpedest": 15067,
    "Ġcontinuously": 23208,
    "Ġreminisc": 18724,
    "Ġguns": 16778,
    "attached": 11939,
    "Ġsequentially": 4915,
    "Ġannesley": 19580,
    "Ġassistant": 7298,
    "Ġproble": 1112,
    "resum": 17763,
    "meditated": 19074,
    "Ġpremises": 10490,
    "avo": 8522,
    "Ġlent": 21550,
    "Ġis": 347,
    "gins": 12473,
    "recklessly": 25270,
    "retirement": 23145,
    "Ġstrat": 16096,
    "Ġbehaviour": 4386,
    "Ġrefrained": 14348,
    "endom": 15923,
    "inconsiderable": 21194,
    "Ġinstituted": 18698,
    "etical": 13961,
    "Ġflukes": 5267,
    "Ġreconc": 9686,
    "possesses": 24617,
    "Ġhymn": 24518,
    "inian": 21185,
    "accurately": 25862,
    "iles": 2861,
    "Ġdifficult": 3573,
    "shout": 22446,
    "rade": 9682,
    "Ġmol": 12566,
    "Ġcompass": 4410,
    "chester": 23809,
    "Ġsurviving": 24637,
    "Ġtemporarily": 11168,
    "emotion": 21934,
    "started": 10846,
    "Ġobsc": 7041,
    "ences": 1265,
    "Ġglad": 3328,
    "mut": 17597,
    "Ġpushed": 5911,
    "Ġentertaining": 16928,
    "uced": 13803,
    "Ġpile": 8425,
    "Ġoff": 903,
    "oqu": 7555,
    "shook": 19858,
    "Ġgrazed": 15837,
    "Ġresources": 2936,
    "Ġdew": 14045,
    "Ġcover": 3559,
    "imens": 1747,
    "Ġreaped": 18032,
    "Ġ1883": 23901,
    "Ġexceeding": 1581,
    "idy": 21768,
    "Ġsettee": 22924,
    "alt": 12643,
    "ressing": 8922,
    "Ġintimately": 24801,
    "Ġsmall": 893,
    "lamp": 9611,
    "Ġhugest": 17017,
    "hammered": 19005,
    "Ġmills": 21314,
    "Ġgoblets": 20522,
    "ital": 4819,
    "Ġdomains": 6614,
    "Ġconceived": 8150,
    "Ġimpulse": 10027,
    "omon": 10209,
    "Ġdeb": 4765,
    "Ġshaped": 15838,
    "Ġprep": 4192,
    "thole": 21990,
    "Ġskewer": 19623,
    "Ġcomparing": 14271,
    "Ġrever": 6538,
    "Ġearliest": 9834,
    "oundering": 11750,
    "Ġprogen": 14043,
    "Ġsurround": 4618,
    "thy": 2933,
    "Ġthomson": 26456,
    "Ġsubur": 12961,
    "Ġstow": 21734,
    "Ġactually": 5389,
    "Ġsprain": 18306,
    ".--": 20748,
    "boxes": 16890,
    "Ġrevolver": 14903,
    "igin": 3655,
    "Ġunsatisfied": 22046,
    "Ġenvironments": 24173,
    "delight": 5345,
    "Ġsplendour": 20227,
    "Ġimprinted": 22393,
    "Ġcarav": 18903,
    "imag": 6991,
    "Ġinseparable": 20691,
    "Ġpenalties": 10414,
    "ĠâĢľ_": 6698,
    "conveyed": 20524,
    "herald": 22209,
    "Ġspade": 9262,
    "ooping": 21009,
    "Ġfurther": 1055,
    "Ġpoles": 11006,
    "clad": 14463,
    "Ġopposite": 5120,
    "Ġpovels": 22597,
    "Ġfoundling": 22973,
    "Ġchannels": 26014,
    "Ġthanking": 18604,
    "Ġwhittingham": 26199,
    "rr": 17652,
    "Ġexponentiating": 3446,
    "Ġgurgling": 17449,
    "Ġcultivated": 17367,
    "iffs": 9025,
    "Ġanalogy": 25640,
    "cess": 543,
    "Ġtails": 9905,
    "Ġreport": 6193,
    "Ġforms": 6398,
    "term": 3758,
    "Ġdisease": 14260,
    "Ġpursu": 3240,
    "else": 6535,
    "Ġtheir": 642,
    "Ġvic": 5237,
    "Ġforbidden": 17079,
    "nder": 20989,
    "Ġspeechless": 13358,
    "Ġsubproblems": 12962,
    "anations": 12581,
    "Ġhussey": 7725,
    "Ġsympathised": 14865,
    "pushed": 21025,
    "orter": 4256,
    "Ġtying": 15476,
    "ub": 1230,
    "Ġgarn": 13966,
    "Ġdestroyed": 5272,
    "inal": 15483,
    "Ġlaw": 3654,
    "side": 2300,
    "Ġjoining": 13168,
    "hval": 20900,
    "Ġdiscerning": 25005,
    "Ġcomprised": 14274,
    "aust": 15313,
    "Ġapprehen": 16831,
    "Ġsteps": 2863,
    "vere": 4884,
    "Ġ1": 1016,
    "contented": 14636,
    "ezes": 9994,
    "hes": 1397,
    "Ġwritten": 4169,
    "ian": 1241,
    "Ġmanufact": 22332,
    "Ġcaptured": 7245,
    "Ġpatient": 6892,
    "Ġtraged": 9355,
    "Ġdistension": 22508,
    "Ġinclinations": 19542,
    "overcoat": 19055,
    "gallant": 7781,
    "Ġslaught": 23172,
    "đ": 210,
    "also": 7851,
    "Ġvoices": 7876,
    "Ġdiffers": 23784,
    "Ġmau": 21313,
    "come": 2378,
    "Ġhut": 15623,
    "fac": 17543,
    "Ġvengeance": 5886,
    "Ġphysiogn": 12392,
    "Ġdozen": 8186,
    "Ġfeeling": 3082,
    "Ġhearers": 15707,
    "narr": 12501,
    "Ġespecial": 26412,
    "Ġbaw": 15573,
    "learned": 8598,
    "Ġmeditating": 20046,
    "Ġh": 290,
    "Ġchrist": 4074,
    "igation": 5919,
    "Ġtoil": 6533,
    "own": 744,
    "Ġstreatham": 17452,
    "Ġuttering": 16464,
    "frantic": 24285,
    "Ġblankness": 24611,
    "orm": 425,
    "Ġthickening": 24027,
    "Ġsil": 1796,
    "Ġoverhung": 15976,
    "Ġbeyond": 2458,
    "Ġcetace": 14991,
    "Ġinterven": 11000,
    "Ġbloom": 9891,
    "cock": 12030,
    "Ġreco": 9794,
    "Ġpope": 11603,
    "frankly": 20025,
    "orse": 5807,
    "Ġaustralia": 15236,
    "obstructed": 15230,
    "Ġwide": 4109,
    "Ġberyl": 20493,
    "Ġapple": 14173,
    "tipt": 25086,
    "Ġcontroverted": 23254,
    "Ġpossession": 5589,
    "bowl": 14894,
    "fes": 20853,
    "night": 2170,
    "hampshire": 23267,
    "brothers": 17026,
    "Ġ108": 19687,
    "late": 11500,
    "isters": 11923,
    "Ġessex": 20130,
    "Ġinsincere": 26601,
    "Ġselects": 4387,
    "Ġmultipl": 2791,
    "clopÃ¦dia": 15260,
    "ocratic": 17247,
    "Ġparents": 6754,
    "narrowly": 20350,
    "Ġrounding": 16279,
    "Ġstreng": 18073,
    "Ġlucy": 17972,
    "Ġseemingly": 9321,
    "ribes": 23367,
    "Ġcushion": 17835,
    "ominy": 13981,
    "fted": 9121,
    "Ġincites": 22557,
    "fluke": 25205,
    "Ġflann": 23016,
    "aried": 10987,
    "ds": 4689,
    "Ġyer": 15738,
    "Ġunansw": 22060,
    "ouncing": 8497,
    "Ġcrane": 23439,
    "Ġclattering": 22356,
    "Ġterrier": 23400,
    "Ġidiotic": 25589,
    "brought": 7285,
    "recovered": 19790,
    "twain": 23702,
    "Ġskiff": 16165,
    "Ġcomplaint": 24775,
    "Ġmistifying": 23723,
    "Ġjourney": 3880,
    "Ġenduring": 16305,
    "oken": 4307,
    "istically": 14146,
    "Ġlanterns": 24578,
    "Ġplay": 2626,
    "hears": 12538,
    "Ġperhaps": 1909,
    "scuttle": 11914,
    "Ġsworn": 14438,
    "ientific": 6549,
    "shining": 18489,
    "asion": 5714,
    "Ġminded": 23234,
    "Ġboxed": 24360,
    "Ġtrembling": 7481,
    "tube": 20414,
    "ieve": 1659,
    "Ġdiscours": 18716,
    "dragged": 16610,
    "adjust": 21763,
    "Ġcommercial": 22677,
    "bad": 12440,
    "Ġantichron": 24183,
    "flu": 9120,
    "over": 1844,
    "Ġmultitudinous": 26275,
    "Ġsilence": 3269,
    "Ġardu": 22188,
    "Ġgarments": 15197,
    "increasing": 20272,
    "Ġretire": 10384,
    "function": 4140,
    "Ġprejudiced": 24806,
    "mblings": 19783,
    "mccarthy": 15398,
    "Ġeleg": 6194,
    "Ġinsip": 19269,
    "Ġalt": 18101,
    "chel": 11208,
    "Ġclothes": 4997,
    "Ġper": 588,
    "igate": 8827,
    "rab": 7597,
    "Ġperusal": 14227,
    "Ġweap": 6157,
    "guarded": 13299,
    "pad": 13771,
    "ortions": 10949,
    "Ġelsewhere": 7713,
    "rmsprop": 4523,
    "Ġstacked": 21747,
    "Ġexclaiming": 13645,
    "Ġopenly": 8576,
    "Ġcomb": 1046,
    "Ġspasmod": 12417,
    "ical": 752,
    "Ġdecidedly": 9512,
    "ciousness": 20819,
    "Ġdeparted": 5563,
    "Ġbub": 8118,
    "peleg": 16297,
    "erce": 6128,
    "orters": 21404,
    "waited": 24586,
    "Ġbride": 6293,
    "Ġmonsieur": 12424,
    "incess": 15485,
    "Ġpropriet": 9553,
    "Ġpurchased": 12265,
    "Ġports": 10820,
    "Ġcontrast": 2117,
    "Ġcorpus": 13037,
    "Ġsmiting": 12906,
    "ado": 11661,
    "Ġget": 1625,
    "Ġelij": 8913,
    "virtue": 20572,
    "Ġemaciated": 20641,
    "Ġthunder": 4825,
    "ostentatious": 20654,
    "Ġclutches": 20021,
    "Ġentrance": 7233,
    "Ġharvest": 13419,
    "Ġrebellion": 26477,
    "Ġno": 510,
    "Ġmodels": 760,
    "idol": 21770,
    "Ġinsanity": 12051,
    "Ġtrem": 6662,
    "Ġwhalers": 8048,
    "ippi": 20247,
    "Ġdedication": 3305,
    "Ġdefer": 18824,
    "Ġqual": 6276,
    "Ġapproving": 18528,
    "Ġreward": 6146,
    "Ġorph": 9720,
    "Ġpuff": 6527,
    "Ġold": 1056,
    "armed": 7251,
    "Ġspikes": 22140,
    "Ġsafie": 6620,
    "whether": 5320,
    "Ġnarrations": 24352,
    "Ġgreeks": 20016,
    "cruet": 17028,
    "peril": 18338,
    "Ġbent": 5149,
    "Ġaccordance": 19501,
    "Ġhyp": 3872,
    "Ġrain": 5005,
    "Ġve": 1110,
    "?âĢĿ": 699,
    "Ġringleader": 26214,
    "Ġ(_": 3736,
    "seas": 14036,
    "Ġterrific": 6756,
    "Ġcaptains": 7457,
    "allen": 22200,
    "ingu": 2118,
    "Ġimmured": 24073,
    "sings": 4252,
    "Ġmagnificent": 9845,
    "voice": 7816,
    "iro": 20916,
    "Ġcollections": 22860,
    "het": 5435,
    "Ġfusion": 21417,
    "spanish": 14334,
    "Ġstatue": 23153,
    "Ġhails": 21954,
    "impe": 21711,
    "Ġdistributions": 1050,
    "Ġ99": 10747,
    "ants": 1389,
    "vari": 1519,
    "Ġhatchways": 24990,
    "piece": 6658,
    "Ġresent": 6050,
    "uzza": 11271,
    "Ġsoldiers": 8690,
    "Ġangry": 5498,
    "Ġkitchen": 8498,
    "Ġtransition": 14244,
    "Ġhandled": 12942,
    "Ġundesired": 12784,
    "pire": 9138,
    "Ġmalays": 19680,
    "lives": 12490,
    "Ġtool": 21514,
    "Ġthinker": 22812,
    "Ġconstant": 6311,
    "inence": 15484,
    "Ġbenef": 3490,
    "Ġstoop": 16313,
    "Ġindian": 4132,
    "would": 2352,
    "Ġfrivolous": 26177,
    "Ġcatch": 4443,
    "fields": 14655,
    "observing": 25495,
    "Ġinjuries": 11278,
    "uttermost": 24943,
    "Ġseasoned": 24405,
    "Ġeurope": 8062,
    "Ġeffectual": 18734,
    "Ġgloried": 22990,
    "twinkle": 23705,
    "ologies": 18772,
    "remaining": 20223,
    "Ġcents": 17830,
    "wondrous": 12342,
    "Ġbegan": 2021,
    "cious": 6646,
    "act": 786,
    "alarmed": 21506,
    "Ġcin": 13878,
    "Ġvenetian": 14850,
    "brown": 15321,
    "Ġconcoct": 19049,
    "aguy": 21914,
    "Ġwedge": 24935,
    "$": 8,
    "Ġminut": 2204,
    "Ġloaded": 8493,
    "etition": 7382,
    "Ġthroughout": 8880,
    "Ġ73": 24263,
    "Ġbriony": 9332,
    "Ġdrive": 5055,
    "Ġfathers": 16299,
    "Ġfrank": 4421,
    "Ġfret": 10808,
    "liness": 8750,
    "lot": 3207,
    "Ġpatriot": 23279,
    "_,âĢĻâĢĿ": 20404,
    "what": 640,
    "Ġhilarity": 20300,
    "Ġ$": 21153,
    "Ġclinch": 18425,
    "Ġsnatching": 10474,
    "Ġaims": 15499,
    "Ġrenewal": 12239,
    "Ġpow": 4639,
    "Ġheadstrong": 14391,
    "Ġrelinquish": 17350,
    "share": 14237,
    "sn": 7140,
    "Ġcorroboration": 26054,
    "Ġthrows": 14740,
    "indifferent": 14211,
    "Ġpervading": 20616,
    "Ġsodden": 25536,
    "willing": 6594,
    "lungs": 26136,
    "Ġconf": 1817,
    "Ġeyebrows": 23517,
    "Ġjeroboam": 10603,
    "Ġharder": 14452,
    "Ġbetween": 792,
    "Ġworsted": 19998,
    "Ġcommod": 10336,
    "paying": 25412,
    "Ġ78": 19616,
    "ĉ": 202,
    "Ġregularly": 7658,
    "stream": 15691,
    "Ġspleen": 26423,
    "Ġextinction": 14338,
    "Ġtroubled": 6618,
    "descending": 16288,
    "Ġglistened": 20175,
    "intern": 23739,
    "Ġpassionate": 11274,
    "Ġnext": 2140,
    "Ġcreator": 7254,
    "tor": 15435,
    "ellect": 7381,
    "accountable": 7111,
    "Ġskirts": 14355,
    "cross": 3577,
    "considerably": 13449,
    "handle": 11191,
    "Ġoutrid": 22319,
    "umbered": 22121,
    "Ġrobustness": 18898,
    "consolatory": 25307,
    "uling": 2258,
    "usion": 3301,
    "buttons": 22406,
    "Ġprison": 5403,
    "Ġshower": 11714,
    "Ġopera": 23428,
    "Ġyou": 366,
    "othed": 16513,
    "Ġpalmy": 19502,
    "pump": 21019,
    "Ġpew": 9318,
    "Ġaught": 8777,
    "Ġanchored": 17443,
    "Ġrum": 5925,
    "ag": 377,
    "ille": 9222,
    "Ġreverber": 19871,
    "urs": 6990,
    "whenever": 11885,
    "jah": 17583,
    "Ġasiatic": 20433,
    "Ġbalancing": 2431,
    "Ġchat": 6562,
    "banish": 20784,
    "Ġreasonably": 11092,
    "obscure": 23101,
    "ads": 5718,
    "otle": 21801,
    "Ġhig": 753,
    "Ġexerc": 6832,
    "proceeding": 20144,
    "client": 18934,
    "Ġsings": 15508,
    "burning": 25081,
    "Ġsiamese": 20486,
    "Ġencourag": 1391,
    "hroom": 12481,
    "ilent": 21723,
    "Ġlimping": 23549,
    "Ġswimming": 5507,
    "Ġtread": 9412,
    "Ġjurymen": 16849,
    "Ġadmirable": 8269,
    "Ġreckless": 13462,
    "Ġhand": 858,
    "Ġpressed": 6043,
    "rical": 11520,
    "Ġpicked": 6343,
    "Ġvoracity": 25987,
    "Ġmoss": 9287,
    "Ġshouldn": 14328,
    "Ġhostile": 19943,
    "Ġquiescent": 26244,
    "shazz": 14242,
    "Ġhealed": 21686,
    "Ġransacked": 26506,
    "mond": 20976,
    "Ġrepast": 16414,
    "pul": 8757,
    "Ġaccord": 4027,
    "fi": 12466,
    "Ġundergo": 23241,
    "dwell": 15345,
    "Ġcuring": 21347,
    "Ġdreadful": 4921,
    "č": 206,
    "waving": 21134,
    "spades": 14335,
    "Ġoutput": 928,
    "Ġgull": 15674,
    "isition": 11588,
    "Ġcivilised": 24247,
    "Ġchip": 12830,
    "Ġtenement": 23551,
    "Ġnovelties": 24777,
    "Ġspreading": 13382,
    "Ġmustard": 12935,
    "Ġtumult": 7116,
    "hs": 8378,
    "acle": 4716,
    "Ġreluct": 14375,
    "Ġshirr": 18232,
    "Ġarrive": 6907,
    "itous": 13870,
    "Ġfreedom": 9085,
    "magnifying": 25393,
    "o": 83,
    "Ġspeak": 2232,
    "Ġconnexion": 11455,
    "Ġbug": 11591,
    "ogue": 9788,
    "Ġu": 324,
    "Ġpersonality": 16479,
    "Ġunmo": 12778,
    "Ġsolitudes": 22889,
    "Ġagreeable": 4553,
    "jaw": 13746,
    "Ġdismay": 11813,
    "Ġextract": 1545,
    "Ġweapon": 7776,
    "acqu": 4844,
    "Ġital": 10867,
    "Ġbusied": 19068,
    "Ġcoldness": 23762,
    "reen": 21234,
    "ancient": 9658,
    "favourable": 12268,
    "pp": 386,
    "Ġdescend": 7427,
    "delightful": 12201,
    "chosen": 21698,
    "explanations": 25235,
    "Ġrefreshment": 17242,
    "mency": 18928,
    "Ġlondon": 2839,
    "Ġcarriage": 3952,
    "inced": 3339,
    "Ġsemicircle": 26068,
    "irresist": 21916,
    "Ġeul": 21623,
    "Ġadvice": 4902,
    "Ġruskin": 25809,
    "chants": 21695,
    "Ġsincerely": 7963,
    ".,": 5989,
    "Ġbead": 21754,
    "Ġguard": 6180,
    "Ġrisks": 9967,
    "Ġdr": 2825,
    "Ġsunk": 5752,
    "stubb": 6019,
    "Ġdetection": 3234,
    "au": 781,
    "herself": 4891,
    "Ġpensive": 21477,
    "steps": 9408,
    "remarkable": 13501,
    "itional": 22472,
    "Ġsled": 21221,
    "distinct": 13340,
    "90": 12436,
    "umer": 9261,
    "Ġtraveller": 8049,
    "urements": 18126,
    "Ġexisting": 12722,
    "Ġemig": 14524,
    "Ġandrew": 21510,
    "Ġimbib": 22179,
    "Ġsurprised": 3830,
    "Ġshadows": 8013,
    "Ġans": 1647,
    "Ġhysterical": 26093,
    "Ġnaturalist": 22910,
    "cheered": 23808,
    "helmsman": 24289,
    "Ġhumans": 8932,
    "Ġcapt": 1291,
    "Ġroughly": 17041,
    "Ġpyth": 21463,
    "barrel": 17061,
    "stamp": 21657,
    "large": 6628,
    "Ġbarrels": 9439,
    "Ġrewarded": 14943,
    "holland": 24044,
    "whar": 15931,
    "Ġfading": 15588,
    "Ġheight": 4220,
    "Ġbeard": 11658,
    "u": 89,
    "Ġforever": 14555,
    "Ġparadigms": 3055,
    "Ġscrewed": 15124,
    "Ġwr": 1546,
    "agings": 18168,
    "roses": 17959,
    "Ġhurtling": 24960,
    "½": 126,
    "Ġunrecord": 16623,
    "Ġpertur": 12855,
    "willingly": 11987,
    "Ġprinciple": 6771,
    "Ġlanc": 19767,
    "Ġindispens": 22957,
    "Ġquite": 1739,
    "Ġcandelab": 23852,
    "rendered": 22343,
    "Ġresidual": 1678,
    "Ġaffairs": 6877,
    "Ġsaxe": 13632,
    "fact": 6360,
    "Ġwool": 19436,
    "itled": 7578,
    "Ġsauce": 15894,
    "exceed": 7911,
    "gi": 17553,
    "Ġworaciousness": 22932,
    "Ġdol": 9667,
    "Ġendeav": 2954,
    "lasting": 8011,
    "Ġdere": 21837,
    "howling": 18991,
    "Ġghosts": 12237,
    "Ġzer": 1096,
    "norm": 20987,
    "Ġrecollecting": 17114,
    "Ġmost": 1021,
    "Ġwrenched": 12563,
    "absence": 12713,
    "Ġcenturies": 8626,
    "Ġspiced": 22137,
    "Ġwrought": 11948,
    "Ġdiscrimination": 23607,
    "Ġtreatment": 12076,
    "Ġclipping": 2440,
    "Ġjudgment": 5765,
    "correct": 24483,
    "timidity": 25754,
    "Ġjunior": 15103,
    "Ġardent": 9973,
    "Ġapp": 501,
    "franch": 24286,
    "Ġrekindled": 21680,
    "Ġunhe": 22012,
    "Ġsnoo": 21231,
    "Ġfossiliferous": 25610,
    "Ġprotesting": 14744,
    "Ġbarred": 9005,
    "Ġovercame": 9749,
    "Ġdro": 2772,
    "Ġrearing": 12682,
    "Ġvisitor": 5331,
    "Ġprognostics": 20561,
    "Ġsearch": 2590,
    "Ġhay": 11607,
    "fun": 3750,
    "Ġurging": 24505,
    "giving": 8742,
    "Ġpublished": 11243,
    "Ġguardians": 14946,
    "----âĢĻ": 24100,
    "lights": 13207,
    "outside": 12809,
    "antucket": 2643,
    "spade": 10342,
    "Ġtelegra": 11894,
    "include": 23591,
    "combe": 7662,
    "Ġdevotion": 22721,
    "swear": 16920,
    "elope": 14462,
    "Ġupd": 945,
    "Ī": 235,
    "discrimin": 19611,
    "rosings": 15648,
    "Ġchinks": 22255,
    "Ġknitting": 24221,
    "Ġrouse": 15825,
    "Ġdecisions": 6704,
    "ospit": 22266,
    "Ġsolemnly": 8023,
    "tuning": 1582,
    "Ġwrap": 24595,
    "Ġjungfrau": 15252,
    "fight": 17540,
    "oll": 5457,
    "comparison": 25842,
    "Ġwreak": 16819,
    "Ġsky": 3970,
    "lydia": 6826,
    "doubt": 6783,
    "Ġcott": 3709,
    "escape": 16011,
    "Ġknows": 4161,
    "Ġfinds": 6301,
    "Ġpound": 12621,
    "gling": 10100,
    "Ġfetch": 7770,
    "regularly": 13210,
    "Ġcurtain": 14419,
    "Ġcentaurs": 23836,
    "Ġconscious": 7744,
    "Ġjot": 11767,
    "Ġanecdote": 26356,
    "Ġfurlongs": 20725,
    "Ġreligions": 20111,
    "non": 9614,
    "Ġret": 1380,
    "ibbald": 18844,
    "Ġsalvation": 14760,
    "Ġbusiness": 2235,
    "the": 334,
    "racts": 14364,
    "actor": 11841,
    "fs": 17537,
    "Ġrestlessness": 23293,
    "Ġclimes": 12845,
    "Ġpalace": 16691,
    "Ġgreeted": 23212,
    "ece": 17533,
    "Ġlonely": 6823,
    "wid": 10137,
    "ĠĠĠĠĠĠĠĠĠĠĠĠĠĠĠĠĠĠĠĠĠĠĠĠĠĠĠĠĠĠĠĠĠĠĠĠĠĠĠĠĠĠ": 24212,
    "Ġfurthest": 22817,
    "hinting": 17571,
    "char": 3506,
    "Ġtales": 10144,
    "ondescript": 22920,
    "Ġincome": 7917,
    "Ġinstrument": 7120,
    "cords": 25139,
    "Ġfloated": 7288,
    "nep": 20988,
    "screaming": 20328,
    "morland": 24154,
    "Ġoptimal": 1854,
    "official": 24915,
    "Ġpeterson": 9486,
    "Ġrecurrent": 1802,
    "ĠĠĠĠĠĠĠĠĠĠĠĠĠĠĠĠĠĠĠĠĠĠĠĠĠĠĠĠĠĠ": 24443,
    "favourite": 15147,
    "Ġbusks": 23340,
    "ancial": 21365,
    "Ġspokes": 18314,
    "neither": 9761,
    "Ġconvent": 11671,
    "ă": 196,
    "á": 162,
    "Ġdanish": 21434,
    "Ġcounsell": 25385,
    "Ġevenings": 18756,
    "waiter": 24587,
    "Ġtestimony": 14477,
    "Ġlaughter": 9030,
    "Ġadoption": 24951,
    "iability": 20922,
    "Ġilluminate": 17195,
    "Ġleaning": 5228,
    "imprudence": 16559,
    "Ġcontemplation": 11358,
    "feel": 3812,
    "Ġenergetic": 15201,
    "ign": 1700,
    "obliv": 23100,
    "talk": 6659,
    "lun": 20948,
    "Ġadvancing": 6879,
    "Ġpods": 17915,
    "Ġpurring": 23477,
    "pistol": 17644,
    "Ġcoun": 4179,
    "relations": 14736,
    "Ġadmin": 23556,
    "Ġcomplex": 747,
    "Ġcens": 8414,
    "Ġtoken": 2037,
    "disp": 7977,
    "ikes": 8087,
    "Ġmistaking": 23722,
    "Ġtold": 2187,
    "contrast": 25595,
    "Ġoutrages": 18416,
    "Ġbrigandish": 25488,
    "Ġweariness": 19797,
    "Ġarctic": 12816,
    "Ġsimil": 2530,
    "quer": 11681,
    "pool": 16212,
    "Ġmightier": 18730,
    "Ġconduct": 3733,
    "Ġmethod": 1474,
    "island": 10796,
    "iors": 9128,
    "Ġnest": 10191,
    "Ġpapers": 4022,
    "response": 25763,
    "tales": 17688,
    "Ġinconvenient": 20013,
    "Ġdistances": 22507,
    "Ġfob": 21412,
    "Ġshone": 7404,
    "sized": 15431,
    "Ġheiress": 20700,
    "uits": 21107,
    "Ġunexampled": 20363,
    "Ġskul": 22795,
    "Ġbarren": 11207,
    "Ġtun": 6000,
    "attest": 23122,
    "Ġattacks": 12209,
    "foundered": 20869,
    "ze": 1281,
    "Ġfolk": 10378,
    "contempl": 13193,
    "Ġput": 1797,
    "glory": 23855,
    "Ġtube": 15005,
    "Ġgrec": 18962,
    "Ġsweat": 13144,
    "Ġplaint": 10328,
    "Ġbes": 2659,
    "Ġdiscre": 2415,
    "Ġjoke": 8872,
    "Ġvigilance": 12375,
    "Ġfolio": 11922,
    "Ġprocure": 9513,
    "enjoy": 10776,
    "Ġaffectionate": 5584,
    "Ġperilously": 24507,
    "Ġcasement": 25095,
    "Ġevap": 19626,
    "whal": 10941,
    "Ġtreated": 7082,
    "Ġheels": 10851,
    "jumped": 20249,
    "Ġsmoothe": 23657,
    "stationed": 25454,
    "limping": 26395,
    "Ġcorrid": 9827,
    "Ġprivacy": 19527,
    "Ġcards": 7581,
    "Ġlower": 2661,
    "complexion": 14363,
    "Ġprincipally": 11310,
    "thin": 14100,
    "sharpening": 22458,
    "plicable": 10259,
    "18": 20753,
    "Ġimprobable": 9798,
    "cused": 15335,
    "gan": 2199,
    "Ġarduous": 26533,
    "earliest": 20123,
    "prevailed": 17348,
    "queen": 12732,
    "Ġwoeful": 19622,
    "mai": 22918,
    "Ġrepul": 16412,
    "Ġnuptials": 20497,
    "ift": 1608,
    "Ġgrows": 4985,
    "Ġglit": 8563,
    "Ġperch": 10301,
    "Ġsharpen": 13573,
    "assured": 10954,
    "shorn": 22451,
    "Ġconfining": 23306,
    "Ġlongest": 18633,
    "reproof": 25433,
    "orted": 4604,
    "white": 4603,
    "Ġgrecian": 26297,
    "Ġformal": 2941,
    "Ġdel": 1616,
    "unned": 21882,
    "Ġargu": 10935,
    "Ġwriter": 11949,
    "inously": 21189,
    "marry": 13328,
    "Ġremnants": 22793,
    "rily": 7622,
    "Ġoriginated": 24123,
    "Ġstudy": 1777,
    "bling": 10685,
    "dense": 18714,
    "estic": 4956,
    "induce": 22378,
    "atives": 2238,
    "devilish": 17083,
    "Ġpermitted": 9281,
    "Ġforgery": 25978,
    "presum": 12873,
    "access": 11181,
    "azz": 8262,
    "Ġmum": 13861,
    "Ġaloysius": 15742,
    "Ġeasterly": 25963,
    "Ġremember": 2677,
    "Ġimmensity": 25330,
    "first": 3934,
    "balance": 12011,
    "Ġburnwell": 13272,
    "Ġprodu": 1207,
    "approached": 13489,
    "Ġlogic": 13082,
    "Ġhue": 8430,
    "Ġblundering": 26285,
    "Ġconfused": 7964,
    "confirmation": 26090,
    "Ġmast": 2901,
    "Ġappeased": 23200,
    "grie": 12475,
    "Ġmothers": 14542,
    "Ġthrusting": 10555,
    "Ġgrated": 22807,
    "Ġintersect": 22581,
    "Ġdesper": 6178,
    "Ġclass": 794,
    "lod": 15382,
    "anced": 1351,
    "Ġconfl": 11138,
    "Ġscandalous": 24879,
    "Ġwane": 21291,
    "Ġaltitude": 26204,
    "Ġparcels": 25466,
    "Ġcolds": 23761,
    "ricane": 16282,
    "ĠĠĠĠĠĠĠĠĠĠĠĠĠĠĠĠĠĠĠĠĠĠĠĠĠĠĠĠĠĠĠ": 19703,
    "Ġheavens": 5050,
    "shark": 14239,
    "59": 17476,
    "luent": 16000,
    "Ġcorpulence": 24509,
    "Ġscowl": 22275,
    "lur": 13750,
    "adier": 18092,
    "gress": 2215,
    "Ġintentions": 10610,
    "readiness": 19366,
    "Ġridges": 16733,
    "Ġexpression": 4517,
    "hereabouts": 23608,
    "bestow": 16931,
    "Ġsuspend": 14611,
    "magnet": 14973,
    "Ġtwig": 11854,
    "Ġcau": 13884,
    "Ġample": 11802,
    "Ġconsecut": 18114,
    "Ġobjecting": 18897,
    "Ġastern": 6091,
    "Ġunostentatious": 22071,
    "Ġprofundity": 20455,
    "Ġtents": 13821,
    "Ġturkish": 12266,
    "Ġfaced": 10810,
    "Ġterms": 2561,
    "leg": 2814,
    "quently": 9705,
    "hug": 17565,
    "Ġfair": 2837,
    "him": 1939,
    "Ġcurse": 7668,
    "Ġbanks": 6815,
    "Ġlifts": 25359,
    "Ġbitten": 21393,
    "Ġforging": 18096,
    "Ġoutdone": 22322,
    "affections": 17359,
    "Ġfaintly": 14918,
    "Ġlucases": 9013,
    "Ġcistern": 17384,
    "Ġpurchase": 12264,
    "Ġdawn": 6817,
    "Ġenhance": 2873,
    "X": 60,
    "Ġpanel": 13376,
    "emb": 11693,
    "Ġsuffoc": 18872,
    "Ġtaught": 6804,
    "Ġstone": 4647,
    "Ġquery": 2479,
    "Ġdock": 15934,
    "Ġtrusted": 10520,
    "Ġstony": 21744,
    "icious": 7380,
    "Ġscruple": 25051,
    "purposes": 25024,
    "Ġimplore": 24873,
    "Ġprofounder": 23571,
    "Ġwonder": 2116,
    "Ġbake": 21385,
    "Ġworking": 5574,
    "Ġfort": 2579,
    "000": 2559,
    "Ġchaff": 18384,
    "Ġboughs": 20492,
    "arranged": 19320,
    "Ġremoved": 5275,
    "Ġattention": 1172,
    "Ġfirmament": 19474,
    "Ġfeathers": 15123,
    "happiness": 6470,
    "tracks": 19649,
    "Ġdeploy": 3093,
    "Ġimmemorial": 10513,
    "warmth": 20056,
    "attoo": 6808,
    "Ġwidower": 24238,
    "ental": 7169,
    "Ġprairie": 8716,
    "Ġsutherland": 10151,
    "avoiding": 25237,
    "eag": 20844,
    "Ġscoresby": 10463,
    "Ġhonestly": 19975,
    "Ġsymmet": 11751,
    "Ġcloth": 9746,
    "Ġloveliness": 13612,
    "Ġimagine": 3924,
    "Ġassurance": 7775,
    "pictures": 15094,
    "fortnight": 13091,
    "gee": 15981,
    "Ġsecrecy": 7316,
    "Ġcherub": 23288,
    "sleepy": 24728,
    "ton": 1725,
    "paradise": 20640,
    "Ġenthusiastic": 19969,
    "Ġlives": 4828,
    "Ġhoofs": 14528,
    "Ġthirt": 13942,
    "Ġloggerhead": 13661,
    "Ġunremitting": 26219,
    "been": 3347,
    "Ġ70": 11277,
    "Ġfund": 2843,
    "fisher": 7547,
    "Ġcoincidences": 26365,
    "hoped": 20912,
    "Ġfolks": 14429,
    "Ġmerciless": 25247,
    "Ġupset": 22156,
    "hated": 17563,
    "towards": 5003,
    "Ġgilder": 21616,
    "Ġwhaleboats": 18479,
    "Ġsgd": 3128,
    "Ġopp": 2696,
    "Ġtren": 17723,
    "Ġst": 332,
    "Ġenslaved": 26315,
    "apter": 1195,
    "Ġdeposited": 25485,
    "Ġabsorbed": 12335,
    "Ġmerryweather": 9525,
    "Ġunworth": 22038,
    "Ġgrievous": 13265,
    "Ġspecial": 2101,
    "Ġreneg": 21678,
    "~": 98,
    "measure": 10034,
    "remains": 10401,
    "ē": 212,
    "fab": 13719,
    "esteem": 26009,
    "africa": 26309,
    "Ġclad": 12844,
    "Ġworldly": 16334,
    "Ġspaniard": 20366,
    "strangers": 20339,
    "Åĵuv": 15186,
    "Ġblood": 3167,
    "Ġpumps": 8428,
    "Ġcig": 6521,
    "tis": 4106,
    "binder": 17502,
    "oring": 1858,
    "ugn": 9380,
    "Ġthe": 270,
    "Ġsupports": 3048,
    "ucket": 2483,
    "master": 5687,
    "Ġjohnson": 18410,
    "Ġuncouth": 14550,
    "exercise": 17462,
    "Ġsolved": 8933,
    "thoughtfully": 24047,
    "Ġtaller": 16689,
    "eps": 12795,
    "Ġstren": 15724,
    "everything": 6326,
    "Ġresist": 7916,
    "wet": 15455,
    "balanced": 14557,
    "bos": 17486,
    "Ġdil": 6384,
    "Ġprecise": 7077,
    "Ġtarn": 21161,
    "count": 4213,
    "Ġattentive": 9036,
    "Ġexponential": 1057,
    "rifle": 21049,
    "ĠĠĠ": 2114,
    "paws": 21031,
    "affold": 16564,
    "toed": 18582,
    "uer": 21103,
    "eyeing": 14949,
    "allow": 5104,
    "Ġlegal": 10441,
    "Ġmutinous": 23961,
    "tps": 11536,
    "aneous": 7240,
    "aration": 12612,
    "Ġadmeasurements": 26227,
    "Ġpestilent": 25778,
    "days": 7688,
    "Ġdolph": 12384,
    "Ġdegraded": 19228,
    "iform": 2201,
    "Ġthis": 382,
    "Ġcope": 17832,
    "darkness": 9515,
    "ifications": 9731,
    "impossible": 8828,
    "Ġgazed": 6479,
    "loved": 14253,
    "Ġredden": 15698,
    "guest": 19485,
    "Ġfru": 8421,
    "Ġmodesty": 12823,
    "elizabeth": 1986,
    "Ġindians": 14413,
    "Ġdarts": 16770,
    "Ġcracking": 14576,
    "Ġq": 1087,
    "Ġplainer": 23706,
    "Ġjolly": 6858,
    "ernal": 4312,
    "Ġfel": 1520,
    "Ġunce": 11715,
    "ident": 3381,
    "Ġthanked": 9461,
    "Ġhooked": 19081,
    "mouth": 9133,
    "Ġwashing": 9708,
    "Ġinteresting": 4325,
    "Ġ71": 24262,
    "Ġadhering": 14142,
    "Ġcivilities": 14851,
    "Ġclimate": 9278,
    "Ġservants": 6612,
    "Ġenh": 2817,
    "Ġreceptive": 1563,
    "Ġterminated": 23511,
    "Ġgrunt": 18736,
    "ouring": 6421,
    "Ġhumiliation": 16202,
    "Ġshape": 5639,
    "progra": 9397,
    "perai": 10278,
    "Ġecon": 9680,
    "inkled": 5477,
    "Ġdistributes": 4196,
    "Ġtransformations": 3485,
    "Ġsteepest": 3086,
    "Ġassert": 7122,
    "Ġvoice": 2192,
    "O": 51,
    "revol": 12545,
    "Ġunrestingly": 20364,
    "abhorred": 17339,
    "bast": 10080,
    "Ġjoking": 12842,
    "Ġgracefully": 13395,
    "ggling": 19098,
    "Ġpredecess": 18517,
    "ructive": 18563,
    "puted": 8850,
    "Ġvindictiveness": 25739,
    "Ġupbraiding": 26228,
    "Ġlicence": 25099,
    "Ġrefrain": 12953,
    "Ġcouple": 5423,
    "Ġswings": 11088,
    "ppery": 10894,
    "enes": 5218,
    "uendoes": 26409,
    "Ġrussia": 26268,
    "quished": 21852,
    "Ġbutter": 6842,
    "Ġrepenting": 25323,
    "Ġadapted": 11036,
    "Ġduplicate": 17218,
    "Ġentranced": 25836,
    "enger": 10775,
    "Ġhappier": 10362,
    "Ġop": 2603,
    "Ġaffront": 18791,
    "Ġunwound": 24829,
    "Ġtestified": 16332,
    "Ġgives": 5018,
    "Ġaqu": 17744,
    "Ġsalutation": 12401,
    "became": 10517,
    "Ġnoticed": 5549,
    "bestowed": 12230,
    "Ġresurrection": 12899,
    "Ġsemantic": 1957,
    "Ġanteced": 26178,
    "Ġwafted": 14541,
    "suspended": 15181,
    "hy": 4741,
    "Ġpre": 507,
    "cer": 6645,
    "Ġmarvell": 7248,
    "Ġuncles": 23433,
    "```": 25894,
    "whaling": 7899,
    "eaten": 20347,
    "Ġgenial": 12199,
    "Ġharp": 17926,
    "Ġfro": 3471,
    "Ġdecency": 18482,
    "Ġcomforters": 25801,
    "endeavour": 17032,
    "Ġbridegroom": 10607,
    "Ġringle": 18211,
    "contained": 22476,
    "Ġpend": 15610,
    "Ġhuddled": 20302,
    "Ġmarvel": 23038,
    "Ġassuring": 13069,
    "Ġstupidity": 15052,
    "ouch": 2780,
    "ivial": 15863,
    "Ġencountered": 8322,
    "races": 21633,
    "Ġcompos": 22575,
    "eneva": 5118,
    "dough": 15338,
    "histor": 13495,
    "Ġglued": 20592,
    "problem": 25244,
    "Ġitself": 2520,
    "Ġdissembling": 26256,
    "Ġalleghan": 25796,
    "neat": 22461,
    "ondency": 15273,
    "aution": 9390,
    "Ġschool": 5512,
    "Ġemboldened": 22963,
    "Ġunseen": 3526,
    "Ġdarkness": 4278,
    "Ġjustify": 11073,
    "Ġattending": 3286,
    "ters": 1574,
    "atig": 13848,
    "Ġphrase": 11188,
    "Ġgroom": 13969,
    "Ġfinding": 3266,
    "unning": 4495,
    "Ġbuoyant": 13535,
    "Ġhumorously": 18779,
    "brit": 19199,
    "ving": 595,
    "yn": 7819,
    "Ġ{": 21155,
    "vex": 21701,
    "Ġocc": 887,
    "Ġwithdraw": 16966,
    "Ġcirculation": 16419,
    "gledy": 25404,
    "Ġunalterable": 15855,
    "Ġplaintiffs": 13613,
    "Ġthigh": 10189,
    "Ġflirt": 14426,
    "pudding": 17649,
    "Ġmerc": 9429,
    "Ġfolios": 23022,
    "robotics": 11307,
    "Ġlegit": 16475,
    "consent": 18504,
    "sne": 10127,
    "Ġburden": 8611,
    "certainly": 5340,
    "turbable": 24531,
    "{": 95,
    "Ġenables": 725,
    "Ġcaterpillar": 5866,
    "attent": 9362,
    "istic": 1035,
    "Ġmoody": 8201,
    "Ġspotted": 12143,
    "Ġsaloon": 24065,
    "Ġsund": 8248,
    "Ġhasn": 12932,
    "Ġglimmer": 15145,
    "Ġsublime": 8066,
    "Ġinfluence": 5515,
    "Ġprogrammed": 11059,
    "Ġhaving": 1880,
    "Ġvect": 1229,
    "Ġtout": 17721,
    "Ġmilitary": 11259,
    "uing": 17695,
    "Ġbounds": 9921,
    "achable": 14140,
    "Ġrecognise": 12046,
    "carry": 19529,
    "Ġcoffee": 6761,
    "gigantic": 15363,
    "Ġdisabled": 18561,
    "Ġclubs": 25180,
    "weeks": 14319,
    "spell": 22731,
    "Ġroylott": 7305,
    "Ġwrecked": 9969,
    "Ġnightfall": 23133,
    "vineyard": 25422,
    "Ġloathing": 15071,
    "Ġclapham": 17268,
    "air": 1006,
    "Ġcauldron": 25442,
    "prehend": 14245,
    "Ġscolding": 15204,
    "Ġpenal": 1772,
    "Ġmistakes": 16543,
    "arest": 4004,
    "Ġcharcoal": 19008,
    "ignorance": 17164,
    "Ġdis": 692,
    "stove": 21655,
    "Ġgratified": 8021,
    "hunt": 20905,
    "Ġinferiority": 17116,
    "Ġarid": 22186,
    "Ġsulphur": 24934,
    "tumult": 12426,
    "Ġaquiline": 26160,
    "indian": 11781,
    "Ġhoisting": 9865,
    "zy": 2668,
    "Ġgoing": 2066,
    "Ġmedical": 9473,
    "ckles": 22093,
    "Ġoperations": 2298,
    "bod": 12441,
    "ials": 11710,
    "pulling": 25149,
    "daring": 20831,
    "Ġrelieve": 8224,
    "spears": 23945,
    "Ġsuspect": 5758,
    "omach": 11637,
    "Ġfuneral": 10286,
    "vac": 15453,
    "purse": 20028,
    "Ġunreasoning": 15849,
    "Ġplowdon": 26449,
    "Ġbefriend": 18084,
    "whis": 7898,
    "hatchet": 24819,
    "imperturbable": 25791,
    "Ġpell": 21458,
    "slanting": 24558,
    "oldened": 22645,
    "Ġcharacters": 9375,
    "Ġproportion": 7281,
    "Ġreverie": 13461,
    "sam": 21054,
    "previously": 17210,
    "tin": 6118,
    "Ġprairies": 20024,
    "Ġwhirlpool": 20657,
    "onden": 13847,
    "Ġcoburg": 18597,
    "abulary": 4801,
    "attributed": 23123,
    "Ġclassify": 1626,
    "sustained": 20571,
    "Ġaffrighted": 13576,
    "Ġfact": 1726,
    "rity": 13779,
    "Ġmarines": 16264,
    "sworn": 24259,
    "privilege": 25264,
    "Ġtangle": 25761,
    "esc": 619,
    "Ġlibr": 16004,
    "measureless": 20238,
    "making": 2571,
    "rer": 3622,
    "Ġheated": 21685,
    "Ê": 139,
    "Ġmonomania": 17086,
    "Ġque": 4160,
    "Ġathirst": 20601,
    "Ġinsolence": 20256,
    "quit": 15766,
    "since": 5896,
    "test": 13795,
    "hib": 15371,
    "Ġabstracted": 17185,
    "Ġmerchantmen": 19862,
    "ice": 587,
    "tanh": 5204,
    "disgu": 19157,
    "Ġswerve": 14440,
    "intentions": 22942,
    "Ġungodly": 26515,
    "lyph": 10853,
    "ivation": 3109,
    "Ġuniversally": 12004,
    "Ġdate": 7841,
    "Ġvisit": 2584,
    "Ġharsh": 9524,
    "sitting": 8387,
    "Ġexplore": 15912,
    "permission": 15900,
    "Ġtrying": 4840,
    "sl": 5794,
    "Ġas": 374,
    "Ġhotels": 19539,
    "reported": 24493,
    "Ġhelmeted": 19691,
    "Ġthoroughfare": 16946,
    "Ġdatasets": 2389,
    "Ġduke": 7756,
    "Ġjabbering": 22307,
    "Ġairth": 23321,
    "contr": 12061,
    "oy": 1032,
    "Ġpri": 5814,
    "accordingly": 19215,
    "Ġsiberia": 26162,
    "Ġval": 967,
    "scorched": 25698,
    "horror": 13163,
    "Ġdirty": 9181,
    "Ġwretchedly": 19509,
    "planted": 11702,
    "Ġcertainly": 2496,
    "Ġsprung": 11249,
    "han": 12477,
    "Ġast": 2960,
    "Ġbashaw": 25634,
    "Ġrevealing": 3925,
    "Ġhypocritical": 20740,
    "Ġhams": 16614,
    "support": 9472,
    "ever": 1077,
    "cest": 12449,
    "won": 8395,
    "Ġdecanter": 22443,
    "Ă": 195,
    "wives": 15458,
    "Ġcy": 13877,
    "lit": 9608,
    "Ġlac": 17967,
    "Ġseize": 8166,
    "Ġcompetent": 11820,
    "Ġreckoned": 24743,
    "Ġsolar": 22888,
    "Ġcongeal": 25981,
    "Ġtranquilly": 12294,
    "Ġcorrupt": 11927,
    "Ġhunts": 23162,
    "Ġintegrated": 13534,
    "Ġheathenish": 13620,
    "Ġwillingly": 8888,
    "Ġmurmuring": 23581,
    "oes": 4436,
    "icy": 6142,
    "Ġbuilding": 8063,
    "le": 279,
    "apprehens": 17409,
    "Ġhypotheses": 4388,
    "Ġmemb": 14032,
    "Ġleathern": 15053,
    ";âĢĻ": 15306,
    "Ġhooded": 12410,
    "Ġinexperience": 26100,
    "Ġcloudless": 16671,
    "jaws": 20934,
    "¾": 127,
    "Ġwert": 12561,
    "sixteen": 24854,
    "Ġjinglers": 26019,
    "Ġrabbit": 4289,
    "*": 14,
    "binnacle": 20789,
    "wes": 17705,
    "button": 10967,
    "hor": 2570,
    "Ġcod": 8413,
    "Ĝ": 221,
    "let": 2733,
    "flutterings": 26608,
    "Ġdizzy": 21435,
    "Ġdeacon": 18142,
    "iony": 9194,
    "Ġdive": 10175,
    "Ġloveliest": 20264,
    "antly": 1988,
    "Ġaccompl": 5167,
    "Ġquaff": 22418,
    "omin": 4704,
    "Ġmiser": 18702,
    "Ø": 153,
    "Ġshining": 8172,
    "imately": 12693,
    "Ġchal": 18379,
    "Ġoriginate": 24122,
    "frock": 20124,
    "Ġclasses": 4056,
    "acrity": 14263,
    "Ġcondescended": 19959,
    "Ġkilled": 4955,
    "government": 25407,
    "cruise": 24842,
    "Ġblocks": 6323,
    "Ġwanting": 6723,
    "Ġingenuity": 17166,
    "Ġplayed": 9419,
    "Ġderiv": 1735,
    "causing": 25519,
    "Ġpalsy": 25779,
    "Ġthing": 1642,
    "Ġgravel": 14105,
    "cold": 9592,
    "Ġexaggerated": 25651,
    "usage": 12838,
    "Ġfumbling": 21420,
    "Ġventure": 7740,
    "Ġpuffs": 14979,
    "Ġprompted": 23820,
    "holder": 13286,
    "Ġfurnished": 6476,
    "inferiors": 25347,
    "Ġimper": 4503,
    "Ġsnaky": 23745,
    "Ġperfection": 19220,
    "ifers": 15786,
    "Ġonset": 12715,
    "Ġstirring": 10582,
    "Ġapprehensiveness": 16879,
    "stalls": 26475,
    "collected": 13217,
    "av": 700,
    "Ġmagnitudes": 3822,
    "Ġshy": 10904,
    "Ġbones": 4584,
    "Ġunrelieved": 20548,
    "Ġpeg": 22692,
    "Ġconcealed": 7495,
    "Ġdetestable": 15102,
    "Ġbloodthirsty": 26603,
    "Ġhearts": 4972,
    "ira": 3959,
    "shooting": 16967,
    "Ġsame": 1341,
    "terrific": 25043,
    "Ġtrag": 13045,
    "Ġsilently": 6894,
    "Ġfrost": 6097,
    "Ġgrapp": 14104,
    "Ġcalam": 13039,
    "z": 94,
    "Ġinvincible": 23481,
    "8": 28,
    "aurus": 20563,
    "Ġsundry": 20077,
    "Ġluxur": 12345,
    "Ġhelmsman": 10507,
    "antage": 3879,
    "Ġwaylaid": 22878,
    "Ġeverybody": 4512,
    "Ġselection": 18203,
    "icing": 9203,
    "ez": 5683,
    "giana": 7801,
    "Ġdownstream": 3774,
    "Ġmomentous": 16173,
    "talked": 14988,
    "Ġparameter": 864,
    "iling": 3091,
    "Ġit": 339,
    "Ġdeadly": 5405,
    "coo": 11171,
    "Ġmatches": 14399,
    "Ġembellish": 25849,
    "Ġrummaged": 16912,
    "Ġbigger": 19764,
    "Ġwhims": 12697,
    "_.âĢĶ": 23474,
    "entirely": 7782,
    "Ġmermaids": 26171,
    "Ġconcerned": 5332,
    "Ġkicks": 19771,
    "reshold": 21242,
    "stands": 22434,
    "Ġaccumulated": 11935,
    "liest": 6296,
    "gg": 1995,
    "udg": 22755,
    "gether": 1595,
    "Ġsundial": 15086,
    "Ġshrunk": 16720,
    "Ġfi": 932,
    "Ġsofas": 26226,
    "Ġdistribut": 840,
    "Ġdispirited": 23885,
    "lux": 14229,
    "Ġspices": 22134,
    "Ġreigns": 21674,
    "Ġpreparing": 8651,
    "Ġplans": 7918,
    "Ġdexterity": 25295,
    "Ġvancou": 22880,
    "sorrows": 17323,
    "Ġbrink": 18770,
    "Ġsingled": 23775,
    "Ġparm": 15881,
    "Ġshears": 18320,
    "Ġpassage": 3886,
    "Ġprometheus": 15296,
    "Ġspe": 821,
    "Ġshirt": 8853,
    "Ġrad": 4962,
    "detached": 19677,
    "Ġfastening": 16360,
    "member": 20977,
    "ignified": 14492,
    "Ġgroans": 14827,
    "Ġfold": 5531,
    "Ġopens": 23628,
    "eted": 7592,
    "Ġmyself": 1456,
    "Ġinscrut": 10037,
    "Ġcrescent": 16141,
    "Ġcontinual": 6778,
    "Ġpresume": 8038,
    "console": 22477,
    "endous": 6850,
    "Ġdong": 17889,
    "orte": 14187,
    "Ġtyros": 26102,
    "nobody": 16140,
    "Ġunderground": 18986,
    "urities": 18052,
    "Ġjune": 10291,
    "simple": 13456,
    "inst": 4295,
    "pat": 10119,
    "Ġwallowing": 24046,
    "join": 12118,
    "Ġtop": 2470,
    "arrested": 15605,
    "Ġbeliever": 25847,
    "Ġmaimed": 21319,
    "Ġgratifying": 13310,
    "Ġsociet": 9452,
    "Ġshops": 22005,
    "aby": 18109,
    "Ġtu": 6969,
    "Ġcongratulated": 19769,
    "Ġtwos": 18658,
    "Ġhonour": 3923,
    "Ġcordon": 24394,
    "ahawk": 23319,
    "Ġrobert": 10971,
    "Ġbattery": 21397,
    "Ġinstance": 2544,
    "Ġclimb": 15083,
    "¦": 104,
    "Ġacts": 2294,
    "Ġfreemason": 23211,
    "Ġsolid": 6444,
    "encyclopÃ¦dia": 16666,
    ",âĢĶâĢľ": 10073,
    "Ġanew": 11431,
    "Ġprecip": 7076,
    "ceptibly": 22347,
    "shrouded": 26363,
    "Ġxxxii": 24973,
    "running": 6798,
    "Ġcell": 6239,
    "libra": 22928,
    "Ġplaguy": 22610,
    "bow": 5424,
    "Ġawfulness": 23589,
    "Ġbows": 4084,
    "Ġplanned": 14755,
    "iforn": 14067,
    "Ġitaly": 10868,
    "ivable": 10911,
    "Ġrefuse": 5739,
    "patient": 25343,
    "Ġalteration": 9549,
    "Ġarabian": 9093,
    "Ġconvey": 9984,
    "gra": 767,
    "Ġlove": 2052,
    "Ġfriend": 1295,
    "acceptable": 25184,
    "Ġcommunicating": 16891,
    "Ġcriminals": 19924,
    "Ġindomit": 22958,
    "Ġcampaign": 20663,
    "reposed": 24492,
    "xic": 9148,
    "Ġsteward": 6586,
    "Ġacknowledge": 13406,
    "pans": 13773,
    "_âĢĶ": 11468,
    "Ġab": 529,
    "Ġcelerity": 17439,
    "Ġsolicited": 20040,
    "Ġexercising": 19909,
    "ornament": 23490,
    "Ġcontribute": 12866,
    "represented": 20198,
    "Ġmedicine": 15210,
    "Ġflurry": 18863,
    "Ġpublic": 4334,
    "Ġoutstretched": 14198,
    "Ġdashes": 21437,
    "ried": 925,
    "Ġtigris": 25760,
    "Ġbrighton": 6471,
    "Ġbushes": 16403,
    "Ġsignal": 5946,
    "Ġdrawback": 23993,
    "Ġwash": 9706,
    "Ġapartment": 6636,
    "Ġcoat": 4555,
    "Ġcease": 7078,
    "blazing": 24132,
    "Ġstepfather": 7221,
    "Ġmuteness": 19420,
    "Ġsuffusing": 23034,
    "Ġconjoined": 21810,
    "Ġviii": 16416,
    "Ġprotruding": 16661,
    "pacing": 21023,
    "Ġinvolving": 18782,
    "Ġmidst": 7986,
    "ante": 11725,
    "Ġrudder": 25110,
    "Ġseveral": 2672,
    "sm": 3436,
    "Ġcontract": 18476,
    "Ġearl": 7676,
    "acceler": 23600,
    "Ġchased": 8865,
    "Ġsustained": 13486,
    "Ġalarm": 4049,
    "Ġlances": 6985,
    "fic": 20854,
    "Ġbelieved": 4370,
    "ĠĠĠĠĠĠĠĠĠĠĠĠĠĠĠĠĠĠĠĠĠĠĠĠĠĠĠĠĠĠĠĠĠĠĠĠĠ": 14617,
    "Ġcargo": 16293,
    "embraces": 25806,
    "ening": 3104,
    "Ġindestructible": 26574,
    "Ġbarely": 16938,
    "Ġpainter": 19170,
    "Ġfork": 15736,
    "Ġdiffer": 18678,
    "Ġdolphin": 17315,
    "Ġsanctified": 25883,
    "Ġtheme": 16022,
    "hertfordshire": 10937,
    "Ġirrevocably": 15301,
    "shrugged": 22454,
    "Ġmastiff": 23728,
    "Ġinev": 10184,
    "loud": 11502,
    "Ġarrested": 9563,
    "thee": 9693,
    "Ġinstructions": 11196,
    "Ġhuff": 21493,
    "uned": 21875,
    "guilty": 19486,
    "boast": 23255,
    "Ġprincip": 5600,
    "Ġtreasures": 17048,
    "Ġphara": 23202,
    "Ġsomebody": 7912,
    "Ġornament": 11724,
    "Ġtheoretic": 23311,
    "Ġfear": 2277,
    "question": 5418,
    "plac": 15824,
    "Ġtraces": 7946,
    "simon": 16975,
    "bingleys": 19637,
    "one": 616,
    "Ġowest": 25094,
    "Ġwait": 4911,
    "unfortunate": 15781,
    "Ġscenari": 22277,
    "Ġpainfully": 13146,
    "quent": 2093,
    "Ġusefulness": 19411,
    "Ġunlocked": 14123,
    "Ġexpired": 18626,
    "Ġlombardy": 26465,
    "Ġexcused": 23316,
    "Ġrecesses": 17263,
    "itche": 7579,
    "Ġremembrance": 8318,
    "Ġboisterously": 25683,
    "resent": 10771,
    "Ġprivate": 5346,
    "other": 1315,
    "onse": 21252,
    "Ġcasc": 15560,
    "ood": 960,
    "Ġhellaswag": 24343,
    "python": 4693,
    "Ġevol": 2815,
    "Ġpatients": 24810,
    "Ġspool": 24803,
    "oot": 13768,
    "Ġdrifting": 19281,
    "Ġshudder": 9053,
    "Ġlamb": 8817,
    "poled": 22912,
    "should": 3263,
    "anguish": 15987,
    "Ġcritically": 23445,
    "Ġpaved": 17913,
    "Ġminima": 3463,
    "Ġconting": 18473,
    "Ġbarrier": 16571,
    "Ġmarsh": 9824,
    "Ġloom": 7629,
    "magistrate": 19865,
    "<PAD>": 0,
    "tacit": 21101,
    "Ġorchard": 22098,
    "Ġz": 1000,
    "Ġmu": 17797,
    "rians": 21929,
    "glasses": 11216,
    "drove": 16995,
    "jep": 20928,
    "op": 657,
    "Ġrely": 8825,
    "Ġadmirals": 20388,
    "itute": 9654,
    "Ġflor": 8565,
    "Ġrepositories": 23365,
    "pour": 17632,
    "Ġthink": 983,
    "Ġvillas": 24056,
    "gus": 13728,
    "ame": 643,
    "precip": 14667,
    "Ġcrowds": 14742,
    "Ġwaif": 9398,
    "Ġpipes": 9853,
    "Ġfrosts": 19805,
    "entreat": 17978,
    "Ġgradient": 449,
    "Ġpeaks": 16132,
    "Ġsher": 3763,
    "kily": 20939,
    "Ġships": 3714,
    "promised": 12256,
    "Ġvaliantly": 22806,
    "Ġdistillation": 16049,
    "Ġsulky": 13518,
    "aying": 15754,
    "Ġlifted": 6986,
    "Ġentreating": 24210,
    "Ġconfession": 11237,
    "Ġstroll": 13357,
    "Ġpomp": 12627,
    "Ġjackal": 24242,
    "otion": 4946,
    "Ġmrs": 1468,
    "Ġimprovement": 7966,
    "Ġgothic": 18002,
    "Ġautomation": 13254,
    "rah": 8137,
    "Ġgarden": 3825,
    "Ġjoyous": 14666,
    "Ġcanals": 22168,
    "Ġimpunity": 14218,
    "Ġdomain": 3492,
    "Ġsuch": 796,
    "Ġdefray": 22944,
    "dashed": 12460,
    "foreseen": 14256,
    "Ġslily": 23168,
    "Ġtremor": 24767,
    "Ġhelplessly": 20081,
    "etrics": 21588,
    "Ġprevailing": 24674,
    "used": 3261,
    "Ġbab": 5291,
    "Ġauthorized": 16737,
    "oa": 9615,
    "allows": 15911,
    "Ġcrowd": 6338,
    "Ġex": 360,
    "Ġstruggles": 16580,
    "Ġbroods": 23106,
    "Ġcontempl": 6703,
    "fere": 10990,
    "Ġsparkling": 11357,
    "Ġoverlook": 10960,
    "whence": 23214,
    "Ġwakeful": 24269,
    "Ġven": 4649,
    "Ġunsupplied": 22045,
    "Ġzodiac": 16178,
    "Ġcannot": 1667,
    "Ġpersist": 16276,
    "Ġcivilly": 19606,
    "communication": 25881,
    "Ġsupplication": 25492,
    "Ġwhole": 1663,
    "Ġnoise": 1071,
    "Ġfactory": 23280,
    "handled": 19263,
    "ger": 1108,
    "Ġbarque": 23793,
    "ve": 322,
    "Ġconcentric": 20078,
    "Ġsuffering": 8949,
    "Ġworrying": 22930,
    "repressed": 21246,
    "room": 2180,
    "oping": 5559,
    "Ġbargain": 23795,
    "ature": 521,
    "simply": 20673,
    "ĠĠĠĠĠĠĠĠĠĠĠĠĠĠĠĠĠĠĠĠĠĠ": 16230,
    "ored": 3896,
    "ipelagoes": 13675,
    "ä": 165,
    "Ġlords": 14643,
    "Ġcapture": 3386,
    "folly": 20864,
    "thinness": 25811,
    "Ġrepresents": 4903,
    "adru": 15735,
    "aches": 6571,
    "Ġii": 7384,
    "Ġcheeks": 5959,
    "rough": 591,
    "Ġwhal": 5454,
    "miserable": 8660,
    "Ġattacking": 24465,
    "Ġropes": 10750,
    "perfectly": 9089,
    "Ġextend": 18691,
    "questioning": 16852,
    "particip": 23618,
    "Ġprofessed": 14727,
    "beheld": 11805,
    "Ġbul": 3294,
    "Ġshakespeare": 20310,
    "Ġhaul": 11696,
    "mody": 16189,
    "Ġju": 10289,
    "Ġdeliber": 7268,
    "Ġpractices": 19043,
    "Ġdetached": 10282,
    "Ġexpectantly": 23526,
    "Ġawaited": 17075,
    "beaten": 20318,
    "Ġgri": 17990,
    "Ġsurpass": 13587,
    "Ġdeferred": 18827,
    "Ġcommissioned": 19897,
    "Ġosc": 2835,
    "remote": 23193,
    "gue": 12472,
    "Ġfresher": 23210,
    "mangled": 20983,
    "Ġquoin": 22422,
    "Ġembalmed": 13660,
    "trying": 15441,
    "Ġsurve": 9877,
    "Ġcheer": 4068,
    "Ġkindness": 4098,
    "Ġsilver": 7464,
    "Ġbearing": 5300,
    "ribs": 23366,
    "low": 653,
    "Ġwhitt": 18057,
    "awk": 23117,
    "attered": 4019,
    "theless": 4261,
    "vis": 4578,
    "Ġchronic": 9932,
    "dron": 17527,
    "erne": 21272,
    "wonders": 17146,
    "Ġsilk": 11967,
    "Ġfemale": 8345,
    "gently": 13732,
    "comprehens": 16177,
    "iogn": 20923,
    "Ġoverhanging": 22363,
    "Ġsize": 1221,
    "Ġgrass": 5177,
    "Ġdecay": 1014,
    "Ġslate": 11942,
    "Ġthrill": 24541,
    "Ġtrue": 1339,
    "eld": 962,
    "range": 3497,
    "Ġinhab": 5083,
    "Ġhaunted": 10256,
    "Ġuntimely": 16469,
    "Ġvictory": 16656,
    "sadly": 25527,
    "Ġsluggish": 25891,
    "spoke": 11024,
    "Ġautonom": 10417,
    "Ġswain": 18883,
    "rossed": 11014,
    "Ġradiating": 24331,
    "prospect": 23397,
    "grounds": 11152,
    "Ġkeeping": 7283,
    "polar": 24584,
    "rust": 2581,
    "Ġfoam": 6891,
    "accomplished": 17214,
    "Ġdisc": 940,
    "employed": 17264,
    "idious": 11665,
    "Ġchuckled": 10650,
    "Ġdepth": 2438,
    "Ġreplay": 5047,
    "Ġins": 2781,
    "import": 5668,
    "arpo": 1755,
    "Ġapprobation": 10988,
    "embraced": 25807,
    "seek": 8841,
    "endar": 18360,
    "anywhere": 14684,
    "Ġcontinents": 16851,
    "Ġwrist": 8243,
    "inks": 6869,
    "atch": 675,
    "Ġpatchwork": 24142,
    "Ġproceedings": 9910,
    "rice": 13780,
    "Ġwhispering": 14948,
    "Ġhandsomer": 20336,
    "utterly": 20015,
    "Ġinfamy": 14503,
    "rets": 12546,
    "Ġevolve": 2999,
    "anges": 1674,
    "Ġwhirlp": 16965,
    "Ġprov": 4402,
    "copy": 5133,
    "Ġtainted": 21173,
    "Ġsket": 18726,
    "Ġstranger": 3486,
    "Ġspecially": 12002,
    "Ġflannel": 26579,
    "otic": 15749,
    "Ġfrequencies": 4790,
    "Ġcontinuing": 14400,
    "finding": 17015,
    "Ġrevealed": 6753,
    "Ġeaglet": 19306,
    "Ġforefinger": 16443,
    "Ġang": 2510,
    "Ġcoals": 16080,
    "Ġceremonious": 24838,
    "Ġgaol": 19570,
    "Ġvan": 1089,
    "Ġchink": 15936,
    "lingly": 9776,
    "significant": 25085,
    "securing": 19816,
    "gaze": 17559,
    "Ġfamine": 16331,
    "Ġrosings": 4608,
    "Ġumbrell": 13654,
    "itary": 4752,
    "Ġfeebly": 24878,
    "Ġcreations": 18682,
    "oured": 2671,
    "drifting": 19827,
    "taught": 17686,
    "Ġelect": 10843,
    "Ġremainder": 9861,
    "trust": 21081,
    "rack": 18013,
    "meantime": 9095,
    "Ġillum": 9403,
    "olently": 15764,
    "Ġbedfellow": 16441,
    "Ġgleam": 12312,
    "Ġchurchyard": 16779,
    "Ġduration": 20356,
    "sion": 8094,
    "ict": 589,
    "Ġcruisers": 25864,
    "Ġgamy": 18001,
    "Ġguardianship": 17423,
    "Ġwhereof": 16106,
    "Ġgums": 21614,
    "Ġtus": 10751,
    "collinses": 19925,
    "Ġahab": 1218,
    "hum": 3778,
    "reject": 21239,
    "Ġtwin": 12933,
    "sufferable": 12181,
    "Ġhemis": 21687,
    "Ġcatches": 23429,
    "unforeseen": 21892,
    "Ġhindrance": 25221,
    "ware": 3935,
    "Ġplanets": 24059,
    "Ġazure": 12378,
    "minute": 11275,
    "Ġpole": 6434,
    "Ġuniformly": 19149,
    "Ġsculpt": 15950,
    "Ġjog": 18405,
    "Ġtaken": 2527,
    "practical": 17224,
    "etween": 776,
    "Ġsale": 14157,
    "Ġrob": 1320,
    "Ġpathways": 11154,
    "Ġhammers": 13245,
    "displeasure": 23497,
    "wh": 508,
    "Ġsnatch": 14641,
    "regiment": 16452,
    "Ġundeviating": 15221,
    "copyright": 5278,
    "Ġprom": 1529,
    "Ġsymp": 4504,
    "Ġargued": 13633,
    "Ġpled": 17907,
    "Ġdiscerned": 25006,
    "Ġsmack": 9304,
    "Ġmidway": 14607,
    "Ġtangled": 13830,
    "Ġthrone": 12218,
    "Ġdot": 4822,
    "big": 13689,
    "nt": 922,
    "like": 1885,
    "Ġ22": 8279,
    "Ġol": 17816,
    "Ġhint": 5016,
    "Ġdisorder": 16054,
    "Ġgap": 21602,
    "Ġdestroyer": 13417,
    "Ġyoked": 15739,
    "Ġnook": 15932,
    "gazing": 12476,
    "birth": 15325,
    "Ġstrangers": 8314,
    "Ġhelplessness": 25074,
    "written": 7995,
    "compass": 9462,
    "Ġnoting": 18222,
    "Ġcoiling": 12913,
    "bab": 11469,
    "Ġpainting": 13145,
    "Ġado": 7627,
    "Ġfolly": 7941,
    "dirty": 20836,
    "Ġ30": 10514,
    "Ġbal": 1133,
    "zar": 11549,
    "Ġvener": 8164,
    "Ġshare": 1658,
    "Ġvexations": 24610,
    "crimes": 16686,
    "Ġparade": 18302,
    "occupations": 24967,
    "Ġexcept": 3315,
    "aired": 8369,
    "Ġswiss": 18884,
    "Ġforehead": 5262,
    "Ġdivinely": 25723,
    "Ġsqueaking": 26276,
    "hon": 6794,
    "Ġstraw": 9432,
    "Ġheightened": 8652,
    "ification": 1026,
    "bourgh": 19105,
    "grim": 19108,
    "Ġwhen": 514,
    "situation": 11438,
    "Ġrock": 5311,
    "Ġredeem": 20503,
    "limin": 8384,
    "Ġcompose": 12910,
    "iliar": 15718,
    "Ġxerxes": 23413,
    "Ġcumberland": 21358,
    "aps": 1233,
    "Ġunhinged": 26218,
    "Ġamusements": 16915,
    "Ġengland": 3856,
    "breckinridge": 24076,
    "Ġtake": 1579,
    "oped": 6048,
    "imagination": 13484,
    "Ġensuring": 11192,
    "Ġexulting": 20260,
    "Ġsinusoidal": 4802,
    "Ġspiral": 14586,
    "Ġdrowsy": 26446,
    "Ġfre": 1572,
    "Ġinspection": 14545,
    "Ġhighway": 14349,
    "Ġtempted": 9059,
    "expectant": 24278,
    "Ġmarket": 7709,
    "Ġparallelization": 3431,
    "unk": 4540,
    "Ġribbed": 16806,
    "Ġshapes": 14112,
    "Ġcalmness": 12098,
    "sufficient": 6638,
    "Ġsimplicity": 2923,
    "Ġconsider": 2567,
    "scattered": 22998,
    "head": 1436,
    "Ġwilson": 6632,
    "definition": 23121,
    "splinter": 25211,
    "Ġextinguish": 14339,
    "10": 17475,
    "Ġimmutable": 17361,
    "liable": 3818,
    "Ġdaggoo": 5441,
    "Ġencapsulate": 13678,
    "Ġunbelief": 22051,
    "Ġbodily": 6108,
    "Ġremorseless": 13455,
    "Ġconjecture": 9535,
    "rese": 15511,
    "iron": 3875,
    "Ġagitates": 22520,
    "Ġsplinter": 23750,
    "etian": 13962,
    "Ġ131": 24781,
    "Ġfiend": 4413,
    "Ġsquall": 7045,
    "Ġbenches": 18784,
    "ĠâĢĶâĢĶ": 25758,
    "prejudiced": 17300,
    "Ġernest": 8720,
    "Ġminiatures": 20324,
    "Ġsaved": 6692,
    "Ġske": 4816,
    "Ġaghast": 16051,
    "Ġferrule": 24500,
    "Ġthoughtfulness": 18774,
    "vess": 7354,
    "instances": 13324,
    "Ġspectacle": 10499,
    "Ġcurving": 16243,
    "belong": 12127,
    "horizon": 23617,
    "ortunity": 4405,
    "alization": 730,
    "Ġcable": 11582,
    "Ġcoopers": 20525,
    ")": 13,
    "alike": 17945,
    "kitchen": 17587,
    "Ġprob": 968,
    "Ġprosper": 10232,
    "Ġwondrously": 24067,
    "altogether": 12644,
    "provided": 13641,
    "Ġlikeness": 11180,
    "Ġdisposed": 7085,
    "Ġshun": 11713,
    "Ġentire": 2558,
    "Ġpropose": 9856,
    "Ġprudent": 9187,
    "Ġchapters": 10475,
    "banked": 25338,
    "Ġlonger": 3362,
    "uous": 4146,
    "Ġdozing": 22247,
    "Ġvertical": 16606,
    "Ġinvitation": 5188,
    "miserably": 24213,
    "Ġinnocence": 6478,
    "Ġunconsciously": 10008,
    "balls": 12309,
    "Ġwhereby": 11840,
    "illity": 18297,
    "Ġpoint": 2054,
    "Ġtrample": 20330,
    "particulars": 11316,
    "sec": 6154,
    "Ġhorrible": 4906,
    "Ġantics": 24180,
    "Ġsupervised": 3245,
    "Ġimparts": 18446,
    "âĢĶ.âĢĿ": 22259,
    "Ġdagger": 21440,
    "izard": 10884,
    "necessities": 24308,
    "Ġoperate": 19117,
    "Ġprophesy": 26062,
    "och": 21003,
    "itioned": 22473,
    "cous": 8725,
    "Ġwindlass": 7256,
    "Ġdeliberate": 15025,
    "Ġwhence": 5840,
    "Ġsect": 17753,
    "Ġmeets": 7396,
    "ding": 3024,
    "Ġdimens": 3148,
    "Ġrobins": 16269,
    "Ġmonstrous": 7790,
    "ulations": 6030,
    "super": 5944,
    "Ġinvaders": 23482,
    "Ġgloom": 4202,
    "Ġbarbary": 24219,
    "Ġartful": 22612,
    "Ġantiquities": 25599,
    "Ġtree": 5285,
    "Ġpel": 17904,
    "pleasures": 24049,
    "sutherland": 21065,
    "Ġnewfoundland": 26571,
    "re": 266,
    "Ġtints": 17729,
    "appl": 9329,
    "press": 1729,
    "ield": 2406,
    "contains": 16035,
    "Ġsleepless": 14584,
    "Ġpriest": 7526,
    "Ġuseful": 3561,
    "Ġperpetually": 17071,
    "nui": 21002,
    "windlass": 16723,
    "Ġtra": 1383,
    "Ġhoriz": 4727,
    "Ġindication": 22955,
    "relatively": 24017,
    "Ġeconomical": 25288,
    "Ġabilities": 8871,
    "Ġnuptial": 25783,
    "Ġdimmed": 24270,
    "Ġ1950": 11360,
    "87": 20759,
    "Ġarisen": 11747,
    "Ġpositive": 2296,
    "Ġwast": 21864,
    "alions": 21504,
    "scores": 22995,
    "Ġdispel": 16598,
    "ost": 5361,
    "Ġfade": 21410,
    "ology": 1569,
    "Ġevenness": 22838,
    "Ġprincess": 23226,
    "Ġimbec": 14159,
    "fitters": 24760,
    "Ġregulate": 22592,
    "Ġname": 2082,
    "Ġconscience": 6929,
    "Ġplot": 14284,
    "thro": 12766,
    "Ġhaunts": 18199,
    "between": 5071,
    "Ġcandidates": 4335,
    "concerted": 16674,
    "Ġmaria": 7126,
    "lucifer": 25302,
    "intments": 18822,
    "Ġremarking": 13128,
    "rights": 23677,
    "plainly": 11091,
    "Ġfertile": 20586,
    "Ġpurchases": 24755,
    "Ġvastly": 23863,
    "Ġwhelmed": 26000,
    "Ġconsisted": 10421,
    "Ġconnivance": 25226,
    "Ġthreatened": 8330,
    "Ġexal": 10878,
    "Ġloose": 4650,
    "Ġ119": 24441,
    "Ġcould": 703,
    "izabeth": 908,
    "Ġcascade": 20584,
    "Ġcordially": 16838,
    "Ġshuddering": 9054,
    "dilig": 17285,
    "Ġarise": 7896,
    "Ġthack": 21520,
    "Ġcomply": 8896,
    "ordingly": 18518,
    "Ġtorrid": 25035,
    "Ġpsalmody": 20588,
    "Ġsweeping": 8988,
    "Ġpleasantly": 14520,
    "hester": 9634,
    "attendants": 25496,
    "hump": 12482,
    "Ġinspiring": 19114,
    "Ġwithdra": 6399,
    "Ġancestors": 25643,
    "afford": 14656,
    "Ġinvesting": 19644,
    "benevolently": 25601,
    "Ġtransfer": 2230,
    "maul": 11896,
    "Ġpossibility": 7458,
    "circumst": 5349,
    "strongly": 24685,
    "Ġatone": 15806,
    "Ġdella": 21442,
    "olog": 1083,
    "Ġunf": 4090,
    "Ġsystems": 825,
    "fordshire": 4678,
    "Ġupbraided": 26530,
    "Ġslaves": 23170,
    "ribution": 14310,
    "Ġdisgu": 8206,
    "Ġse": 401,
    "mblies": 24609,
    "ractions": 11636,
    "div": 8076,
    "Ġdistinguish": 2727,
    "strade": 5065,
    "Ġcivility": 4789,
    "Ġquohog": 10973,
    "Ġadvance": 5484,
    "Ġquality": 3530,
    "izz": 7613,
    "Ġcooking": 16649,
    "Ġsincere": 11137,
    "ingly": 2136,
    "isa": 17847,
    "Ġmout": 17800,
    "ripp": 6406,
    "arian": 10319,
    "distrust": 19573,
    "Ġaskance": 23154,
    ".": 18,
    "Ġreiterating": 26476,
    "Ġdevilish": 11229,
    "Ġdivided": 8635,
    "Ġhooped": 23356,
    "Ġimpertinence": 11367,
    "Ġmeekly": 26492,
    "warks": 5004,
    "Ġmira": 8408,
    "Ġenlarge": 21939,
    "Ġcabaco": 13171,
    "Ġmainly": 22664,
    "Ġdictate": 20154,
    "Ġshilling": 18229,
    "Ġalternating": 15033,
    "Ġaroused": 15902,
    "wouldn": 23539,
    "convinced": 10625,
    "izings": 14053,
    "Ġelusive": 22662,
    "Ġindistinct": 17411,
    "stat": 21647,
    "vil": 2732,
    "Ġhawk": 15177,
    "Ġdiverted": 14594,
    "ppo": 18178,
    "Ġimpulses": 19965,
    "Ġsuperficial": 23457,
    "Ġretain": 7863,
    "Ġstabilizing": 3656,
    "Ġrhine": 12360,
    "Ġapex": 24342,
    "Ġbrittle": 22867,
    "Ġindelicacy": 25696,
    "Ġbeating": 8145,
    "Ġmoccas": 22440,
    "Ġverte": 9444,
    "Ġcommentators": 25230,
    "execution": 20475,
    "Ġintending": 11708,
    "edmund": 17948,
    "Ġchanced": 8187,
    "Ġfool": 4236,
    "Ġslo": 15509,
    "Ġrevolutions": 23845,
    "Ġmeat": 8152,
    "Ġjust": 1244,
    "Ġdiscompose": 25580,
    "osen": 6855,
    "Ġabsolut": 3912,
    "gay": 11490,
    "Ġforemast": 12010,
    "Ġburgled": 23655,
    "Ġfills": 12599,
    "entering": 17979,
    "endering": 21287,
    "Ġstraits": 7994,
    "influence": 13582,
    "Ġdesirous": 8945,
    "enance": 3373,
    "Ġconfusing": 23307,
    "Ġthundering": 24293,
    "forget": 11033,
    "Ġstruggled": 9908,
    "inkling": 16094,
    "Ġstrategy": 2596,
    "vint": 21117,
    "Ġcrust": 21354,
    "Ġhosts": 19942,
    "Ġwaste": 9237,
    "Ġhoisted": 5961,
    "catherine": 7129,
    "Ġjiff": 22300,
    "Ġtranquillize": 24756,
    "vely": 3866,
    "Ġgreatest": 4093,
    "Ġluck": 4881,
    "Ġventil": 8019,
    "roused": 16655,
    "Ġcordial": 16837,
    "Ġunful": 22013,
    "burgh": 6774,
    "Ġrestrict": 16379,
    "scratch": 26045,
    "Ġcombine": 4417,
    "te": 993,
    "Ġdexter": 9703,
    "Ġiterate": 13203,
    "Ġmurder": 4281,
    "Ġancestry": 25642,
    "Ġholiday": 13003,
    "Ġwatches": 11082,
    "Ġbreathing": 9448,
    "Ġcurrent": 13018,
    "Ġexhib": 6351,
    "Ġstruggling": 12079,
    "Ġportents": 14681,
    "are": 637,
    "Ġtriangular": 14862,
    "Ġinsurance": 23684,
    "Ġfumes": 21421,
    "sory": 17661,
    "Ġstro": 4596,
    "Ġupheld": 22155,
    "):": 11462,
    "Ġcham": 4893,
    "Ã¦st": 24177,
    "Ġshrink": 14807,
    "Ġsuggestion": 19710,
    "refusal": 24735,
    "allowance": 16826,
    "Ġsqualls": 17022,
    "Ġexec": 19495,
    "box": 5749,
    "precious": 12077,
    "sleeves": 26110,
    "Ġharbor": 10030,
    "marrying": 19550,
    "Ġtoilette": 20496,
    "Ġwrit": 8242,
    "Ġsick": 4694,
    "Ġfif": 4217,
    "ese": 4446,
    "Ġlibrary": 6424,
    "empty": 23636,
    "dipped": 20839,
    "dissatisfied": 26614,
    "Ġattract": 11836,
    "bons": 17489,
    "flakes": 23971,
    "Ġnote": 4264,
    "Ġcommission": 6714,
    "project": 16427,
    "Ġworshippers": 25694,
    "outs": 7010,
    "vice": 15452,
    "Ġsta": 18065,
    "aze": 10078,
    "laid": 10112,
    "eh": 13713,
    "Ġappearances": 10453,
    "Ġorange": 8489,
    "Ġpublicly": 13327,
    "understanding": 1125,
    "Ġmal": 5221,
    "Ġoutfits": 22325,
    "Ġrenow": 18030,
    "Ġlace": 13953,
    "Ġfit": 3683,
    "Ġcommanders": 23871,
    "Ġhourly": 23302,
    "Ġconjunction": 25103,
    "lac": 17591,
    "acknowledge": 18469,
    "Ġindiscreet": 22959,
    "Ġspring": 4122,
    "finger": 10096,
    "Ġlieuten": 13331,
    "abst": 21792,
    "uting": 15664,
    "Ġleaped": 8830,
    "Ġ79": 24267,
    "Ġcontradictory": 20400,
    "Ġcircle": 4977,
    "nlp": 8754,
    "Ġpoints": 5249,
    "Ġsakes": 18327,
    "Ġexpected": 3696,
    "Ġcop": 7580,
    "conduct": 11801,
    "_âĢĶâĢĻ": 13686,
    "Ġpurp": 2392,
    "duing": 22415,
    "Ġdominion": 16529,
    "Ġascribe": 16784,
    "washed": 13051,
    "Ġwinged": 16997,
    "Ġjoys": 13225,
    "plex": 708,
    "threatened": 25463,
    "forks": 26389,
    "Ġexactness": 23606,
    "neighbouring": 19967,
    "Ġintrig": 21994,
    "embers": 21933,
    "plendent": 21968,
    "Ġungracious": 18259,
    "Ġfists": 15587,
    "curious": 10485,
    "Ġhermits": 22078,
    "fel": 8737,
    "turkish": 24533,
    "decan": 22145,
    "Ġsympt": 7014,
    "Ġprized": 23223,
    "blot": 20785,
    "Ġburn": 3682,
    "Ġaccidentally": 9508,
    "Ġwandering": 8657,
    "ben": 4927,
    "Ġtickets": 17095,
    "fle": 7130,
    "imprisonment": 23765,
    "destined": 24115,
    "acknowledged": 15206,
    "linearity": 1652,
    "killing": 20944,
    "burg": 16775,
    "sad": 11522,
    "studies": 25170,
    "acter": 2505,
    "Ġfaintness": 24571,
    "ondon": 2706,
    "destruction": 11256,
    "Ġnoteworthy": 24163,
    "Ġsailed": 4890,
    "princ": 8624,
    "Ġswaths": 23061,
    "Ġfollow": 1395,
    "kick": 20938,
    "orting": 9738,
    "sherlock": 5422,
    "Ġaustrian": 24302,
    "Ġspecksnyder": 17406,
    "Ġspars": 3810,
    "Ġbrow": 3989,
    "Ġparis": 8179,
    "Ġdetest": 8503,
    "Ġlonged": 6437,
    "Ġperem": 12937,
    "zors": 21150,
    "Ġpaddled": 20204,
    "Ġgree": 7595,
    "Ġexhibit": 14959,
    "Ġserved": 8246,
    "Ġdistrust": 8204,
    "covery": 11172,
    "headers": 23112,
    "Ġpremium": 23908,
    "chairs": 21696,
    "fug": 17545,
    "Ġnast": 15643,
    "Ġrefresh": 10349,
    "Ġlaws": 8003,
    "Ġtet": 21160,
    "accounted": 16503,
    "isl": 21378,
    "Ġrelease": 19292,
    "Ġgi": 15670,
    "Ġmuffled": 10643,
    "iffe": 21906,
    "Ġmaterials": 11289,
    "Ġdespise": 14668,
    "Ġpurpose": 2709,
    "Ġconstitutional": 25128,
    "alescing": 23869,
    "eyes": 5684,
    "attachment": 13057,
    "Ġincredulity": 11312,
    "ently": 1617,
    "ran": 11517,
    "aving": 2405,
    "Ġhonoured": 9884,
    "bun": 12442,
    "Ġluxury": 20135,
    "sterns": 23369,
    "icest": 21567,
    "greatly": 16626,
    "revolver": 25628,
    "Ġindebted": 8711,
    "agery": 21911,
    "powerful": 24848,
    "writer": 14650,
    "Ġwont": 9855,
    "Ġfidgeted": 25890,
    "Ġchilian": 25564,
    "Ġsupercil": 23455,
    "Ġcountries": 13100,
    "Ġarabic": 24981,
    "devouring": 24953,
    "image": 9689,
    "Ġcompanionship": 14923,
    "Ġpag": 6012,
    "Ġparac": 12800,
    "Ġlazily": 11381,
    "Ġimprecations": 25821,
    "Ġirresolution": 24916,
    "ives": 1411,
    "Ġbank": 4878,
    "Ġdowry": 20688,
    "mult": 8751,
    "avenza": 17104,
    "ö": 183,
    "ledge": 1329,
    "Ġrocking": 10970,
    "Ġstill": 1157,
    "Ġwarmup": 3922,
    "Ġwhipcord": 20098,
    "Ġterrible": 5328,
    "Ġpoll": 12034,
    "Ġhazard": 20435,
    "Ġhaunt": 18198,
    ",_": 11463,
    "sweetly": 25137,
    "Ġcoherent": 3264,
    "antically": 22100,
    "Ġnevertheless": 5040,
    "iers": 5992,
    "seat": 18128,
    "Ġexhibiting": 19841,
    "Ġanatomy": 12324,
    "Ġsho": 2247,
    "Ġphenomenon": 17917,
    "Ġwalton": 14975,
    "Ġunderstood": 5655,
    "Ġinsurgents": 26602,
    "tumbled": 21093,
    "impulse": 20647,
    "Ġglobal": 2371,
    "Ġalbatross": 10872,
    "Ġgrinning": 9056,
    "prov": 16425,
    "Ġirksome": 13116,
    "Ġemergency": 25731,
    "Ġconventional": 25548,
    "Ġflora": 11417,
    "Ġsallied": 12542,
    "Ġinvariably": 8064,
    "Ġacquire": 2724,
    "vessel": 11378,
    "mens": 20971,
    "Ġinjurious": 24273,
    "Ġunintellig": 22028,
    "changed": 7176,
    "coffin": 10665,
    "Ġap": 5008,
    "Ġscare": 18391,
    "Ġtexel": 25924,
    "Ġsprang": 5064,
    "Ġoppressive": 20458,
    "Ġaud": 6664,
    "Ġforwards": 12708,
    "Ġmimic": 3142,
    "Ġinn": 4591,
    "Ġexcessively": 9443,
    "ulent": 21866,
    "vocation": 25087,
    "binary": 20786,
    "ornamented": 26597,
    "Ġmam": 8406,
    "Ġdundee": 16999,
    "phants": 9324,
    "Ġhaws": 21955,
    "Ġbenignity": 18785,
    "Ġcopies": 24938,
    "Ġstores": 18071,
    "Ġfounded": 8561,
    "Ġadapt": 975,
    "rut": 8092,
    "ility": 623,
    "fork": 20859,
    "anum": 17837,
    "soldiers": 25912,
    "beds": 16624,
    "Ġreceive": 4705,
    "Ġfuss": 13908,
    "Ğ": 223,
    "Ġwink": 11571,
    "Ġsl": 1499,
    "loss": 22511,
    "Ġmaid": 5287,
    "feren": 765,
    "married": 9952,
    "Ġfought": 12598,
    "Ġcompletely": 4861,
    "Ġinterested": 6459,
    "Ġfancied": 7326,
    "Ġtalks": 23371,
    "ĠmanÅĵuv": 18418,
    "Ġhumanity": 6733,
    "Ġmetropol": 11141,
    "farewell": 12310,
    "enced": 4296,
    "pendicular": 6500,
    "off": 1886,
    "save": 13788,
    "Ġesteem": 7531,
    "Ġfow": 6135,
    "augment": 18830,
    "Ġengravings": 15069,
    "Ġprev": 6266,
    "Ġshould": 863,
    "tarpaul": 21100,
    "Ġstrength": 4260,
    "pointing": 12229,
    "Ġinex": 6529,
    "oat": 13767,
    "Ġtypewritten": 16424,
    "âĢĿ": 354,
    "Ġbell": 4637,
    "harmony": 25751,
    "Ġlitter": 19832,
    "Ġconflict": 17276,
    "dman": 10091,
    "Ġsucceeding": 16763,
    "urday": 13998,
    "max": 1683,
    "Ġretrieval": 10677,
    "Ġperturbation": 20444,
    "oquent": 12504,
    "Ġparched": 11731,
    "somebody": 14567,
    "pit": 3983,
    "Ġalan": 10870,
    "Ġleaky": 2346,
    "thirst": 15829,
    "ippers": 17578,
    "ott": 1870,
    "Ġbits": 11590,
    "Ġallows": 3233,
    "Ġslumbering": 25702,
    "Ġbuttoned": 25369,
    "aunted": 20772,
    "whalebone": 19120,
    "around": 12613,
    "Ġbracelets": 25503,
    "Ġcrozetts": 19632,
    "Ġdied": 4112,
    "Ġodor": 12154,
    "compliment": 11365,
    "kins": 7345,
    "Ġintellect": 8170,
    "skill": 24487,
    "Ġlengthened": 25959,
    "ksome": 10107,
    "Ġembeddings": 2077,
    "Ġtheories": 13852,
    "Ġfeet": 2259,
    "Ġbreaking": 6312,
    "cord": 8727,
    "und": 4119,
    "Ġgrowth": 14631,
    "Ġclaims": 13377,
    "sheet": 16289,
    "Ġris": 4887,
    "Ġcrown": 5289,
    "Ġcalf": 16271,
    "Ġconcentrated": 15087,
    "Ġmisled": 22762,
    "enorm": 17783,
    "Ġplacing": 8904,
    "Ġrefusal": 10348,
    "Ġdimly": 9491,
    "Ġhorner": 8961,
    "Ġapril": 13666,
    "lanter": 15391,
    "Ġaffright": 9335,
    "Ġunclad": 22056,
    "Ġflattened": 26048,
    "Ġmanhat": 22331,
    "neville": 22464,
    "Ġezekiel": 26194,
    "Ġtierce": 15481,
    "Ġlunch": 13529,
    "Ġremoving": 12121,
    "Ġconcussion": 26301,
    "Ġluc": 3313,
    "Ġoutlaws": 22327,
    "dinah": 20084,
    "Ġtheoretically": 3568,
    "Ġlaid": 3941,
    "Ġsally": 15505,
    "Ġbarriers": 23797,
    "Ġbehoo": 19034,
    "Ġforbearance": 12332,
    "Ġafraid": 3532,
    "Ġretreats": 16930,
    "ented": 4350,
    "âĢĻ": 378,
    "loveliness": 26551,
    "Ġseek": 4510,
    "Ġhomely": 25220,
    "otes": 15748,
    "Ġgib": 13968,
    "È": 137,
    "Ġdaily": 5988,
    "Ġdestro": 3722,
    "settled": 10509,
    "yes": 982,
    "Ġod": 4441,
    "Ġchronicler": 20232,
    "Ġeddy": 13550,
    "Ġpens": 21462,
    "equ": 6791,
    "Ġequilib": 4137,
    "Ġshook": 4470,
    "pets": 17638,
    "Ġthen": 666,
    "Ġsandwiched": 26612,
    "Ġassum": 4066,
    "Ġgunwales": 12245,
    "vels": 5432,
    "investments": 25533,
    "Ġscor": 8189,
    "iarity": 8747,
    "Ġexhibition": 14960,
    "produ": 10722,
    "Ġsir": 1571,
    "Ġegg": 8823,
    "Ġqualities": 7533,
    "Ġservices": 11218,
    "Ġconsent": 5372,
    "ress": 929,
    "Ġresource": 10994,
    "Ġrough": 7187,
    "senses": 25027,
    "Ġreflecting": 24750,
    "bill": 10079,
    "Ġimpertinent": 9080,
    "Ġaccompany": 9490,
    "Ġreef": 10850,
    "oriented": 2947,
    "opposing": 24822,
    "Ġconsummate": 25311,
    "Ġassid": 18947,
    "Ġoperated": 14548,
    "Ġintensely": 17019,
    "Ġlowering": 7987,
    "thirty": 12767,
    "Ġobst": 6285,
    "Ġdeployment": 11205,
    "Ġoarsmen": 7738,
    "befriend": 22496,
    "Ġpresentation": 14483,
    "Ġcuriosity": 2475,
    "Ġshrine": 19534,
    "ĠĠĠĠĠĠĠĠĠĠĠĠĠĠĠĠĠĠĠĠĠĠĠ": 18834,
    "shaw": 6864,
    "Ġearth": 2849,
    "Ġsurviv": 13439,
    "Ġvishnoo": 12758,
    "ners": 3273,
    "hereditary": 26421,
    "largely": 19577,
    "Ġ34": 16679,
    "Ġinvoluntarily": 8554,
    "Ġsermons": 20197,
    "ouses": 5163,
    "Ġweltering": 19588,
    "Ġoutright": 18414,
    "severe": 21823,
    "Ġrag": 18635,
    "phren": 22800,
    "Ġmuslin": 19386,
    "Ġlaunched": 14929,
    "slow": 7810,
    "Ġseething": 18202,
    "Ġhelps": 9371,
    "Ġknives": 14840,
    "Ġpicturesque": 14897,
    "Ġbitter": 4174,
    "Ġrepairs": 19085,
    "Ġsheepfold": 25467,
    "Ġ40": 14771,
    "Ġfrayed": 23312,
    "Ġcost": 2504,
    "Ġacid": 22685,
    "ordinary": 4409,
    "Ġsoup": 7069,
    "Ġwithstand": 10228,
    "Ġhim": 476,
    "Ġdecomposes": 5506,
    "Ġhampshire": 15246,
    "Ġprepare": 8650,
    "ě": 220,
    "Ġshaping": 22007,
    "Ġparr": 22123,
    "Ġshapeless": 24524,
    "Ġutterance": 14766,
    "Ġinsulated": 23682,
    "Ġchoking": 15938,
    "Ġumbrella": 15269,
    "nel": 11506,
    "Ġoverwrites": 5033,
    "aky": 18412,
    "tied": 21073,
    "Ġhumility": 12990,
    "Ġethics": 15465,
    "mates": 5073,
    "Ġever": 1180,
    "Ġbuilded": 24718,
    "Ġannihilation": 15169,
    "ulence": 15770,
    "Ġguardian": 14945,
    "Ġblaming": 22933,
    "Ġhopes": 4235,
    "monster": 8595,
    "Ġamounted": 18513,
    "Ġcircling": 19094,
    "impenet": 18056,
    "palms": 25263,
    "Ġagreeing": 20022,
    "Ġblameless": 19861,
    "unks": 15779,
    "Ġpattering": 18652,
    "baron": 24926,
    "Ġsofa": 10273,
    "Ġothers": 2583,
    "rict": 8093,
    "osure": 5308,
    "Ġinfl": 6893,
    "Ġnursed": 16887,
    "comfort": 5647,
    "veh": 12684,
    "foot": 9049,
    "Ġemer": 5960,
    "belt": 24038,
    "Ġrepented": 23363,
    "î": 175,
    "Ġhorrid": 7999,
    "Ġcolonel": 3409,
    "Ġhuggins": 24826,
    "Ġissuing": 16950,
    "aut": 1910,
    "storied": 18027,
    "Ġnursery": 19753,
    "Ġbount": 15572,
    "blooded": 20026,
    "Ġundulates": 24119,
    "perplex": 18339,
    "cousins": 20121,
    "Ġignorance": 6621,
    "bread": 10688,
    "Ġgigantic": 5916,
    "altern": 17944,
    "Ġvenerable": 9097,
    "bureau": 20791,
    "Ġunicorn": 22059,
    "Ġseventh": 18205,
    "Ġceaseless": 13492,
    "imper": 14000,
    "icable": 6389,
    "ander": 6402,
    "Ġhereditary": 10667,
    "Ġerred": 21159,
    "rit": 21038,
    "Ġconse": 21808,
    "Ġsovereign": 10065,
    "Ġterr": 3275,
    "ľ": 255,
    "Ġinter": 727,
    "asp": 3343,
    "Ġnation": 12652,
    "Ġdisputing": 25825,
    "Ġreg": 731,
    "Ġefficient": 1082,
    "consc": 4842,
    "00": 1612,
    "illustration": 2283,
    "Ġdeceitfulness": 25734,
    "moreover": 12974,
    "Ġbennets": 9809,
    "Ġprobabilities": 4966,
    "iar": 2379,
    "threaten": 25462,
    "Ġtiger": 11556,
    "Ġmultiplied": 23692,
    "Ġtransactions": 18496,
    "inition": 11558,
    "Ġfastidious": 14494,
    "Ġsized": 11564,
    "thesize": 24907,
    "Ġrank": 6260,
    "Ġwretchedness": 9029,
    "Ġmad": 2425,
    "Ġmetal": 9386,
    "Ġnam": 17951,
    "bowsprit": 16855,
    "Ġphilosop": 5057,
    "towns": 24855,
    "Ġpray": 3901,
    "Ġimaginary": 11187,
    "ure": 356,
    "zes": 11550,
    "Ġliberal": 12195,
    "Ġbrill": 8551,
    "Ġcompelled": 14272,
    "inkers": 22618,
    "Ġcocoanuts": 26364,
    "Ġwilling": 7421,
    "Ġlet": 1114,
    "Ġrib": 4936,
    "meryton": 10114,
    "Ġungrateful": 14124,
    "Ġhoard": 23353,
    "difficult": 10061,
    "Ġlatitudes": 9499,
    "Ġprograms": 7239,
    "Ġperverseness": 13658,
    "Ġcam": 10164,
    "Ġruff": 14352,
    "clock": 3933,
    "ahead": 12438,
    "rers": 14721,
    "probable": 17023,
    "Ġoverall": 4360,
    "Ġlow": 1649,
    "Ġtattooing": 15030,
    "Ġstrand": 11832,
    "Ġage": 3897,
    "Ġsch": 13838,
    "Ġcaptive": 14430,
    "Ġdictated": 25219,
    "Ġpercept": 14226,
    "Ġhar": 5815,
    "Ġsegmentation": 17343,
    "Ġalso": 1343,
    "Ġcamberwell": 25351,
    "draul": 9446,
    "ess": 413,
    "Ġhandsom": 11125,
    "arer": 3969,
    "heeded": 13837,
    "market": 16841,
    "peculiarity": 23113,
    "Ġmysteriously": 24602,
    "Ġboiling": 8528,
    "track": 24335,
    "ichever": 13960,
    "`": 68,
    "atic": 4018,
    "Ġdetails": 6567,
    "Ġbrows": 13305,
    "inno": 10758,
    "kindness": 10508,
    "gu": 3958,
    "furniture": 20245,
    "Ġassuming": 16694,
    "Ġuncompromised": 20606,
    "ĠĠĠĠĠĠĠĠĠĠĠĠĠĠĠĠĠĠĠ": 22953,
    "desol": 13222,
    "ĠĠĠĠĠĠĠĠĠĠĠĠĠĠĠĠĠĠĠĠĠĠĠĠĠĠĠĠĠĠĠĠĠĠĠĠĠĠĠĠĠĠĠĠĠĠĠĠ": 7989,
    "Ġsales": 12812,
    "Ġet": 3582,
    "Ġsuccessfully": 19432,
    "Ġeuroc": 14962,
    "Ġstreams": 12197,
    "Ġdives": 17892,
    "Ġcatching": 9481,
    "ancy": 4395,
    "Ġtest": 1591,
    "pretend": 24883,
    "Ġwelfare": 12564,
    "circumstantial": 24444,
    "Ġcannib": 6037,
    "Ġturban": 23615,
    "quar": 7616,
    "phr": 18728,
    "ellig": 523,
    "Ġagreement": 18540,
    "Ġsong": 5904,
    "Ġ26": 10472,
    "ý": 190,
    "Ġunra": 18238,
    "Ġuntutored": 19168,
    "Ġabruptly": 15154,
    "Ġhedges": 19988,
    "painted": 17641,
    "impud": 23763,
    "Ġeat": 4645,
    "Ġaunts": 21203,
    "Ġmercenary": 17196,
    "Ġbreckinridge": 14523,
    "Ġcovers": 18594,
    "appro": 7046,
    "fer": 1922,
    "Ġforge": 8458,
    "Ġmighty": 4231,
    "cavity": 26127,
    "ment": 693,
    "aring": 1478,
    "presbyterian": 26370,
    "Ġhours": 2820,
    "Ġtwo": 1043,
    "assed": 6422,
    "Ġbrit": 6291,
    "Ġproposal": 10022,
    "Ġcheat": 19021,
    "rate": 2421,
    ")(": 2979,
    "Ġdeeds": 15761,
    "stricken": 9888,
    "repent": 15516,
    "ation": 320,
    "bye": 5951,
    "Ġunlike": 7006,
    "Ġdinnertime": 16721,
    "Ġpretended": 19315,
    "nineteenth": 26139,
    "Ġslabs": 13066,
    "chers": 11318,
    "Ġengineering": 3023,
    "Ġrecounted": 22737,
    "rel": 3754,
    "idual": 1560,
    "ercial": 21277,
    "omen": 4087,
    "hastened": 16847,
    "Ġhard": 1445,
    "Ġyards": 5371,
    "Ġstatistical": 11105,
    "Ġbaker": 4697,
    "ches": 2149,
    "Ġwearer": 21927,
    "Ġunqualified": 22063,
    "Ġfanned": 19101,
    "aul": 6354,
    "Ġaccounting": 14575,
    "Ġquietude": 19363,
    "Ġswinging": 7449,
    "Ġstamping": 20034,
    "Ġvisage": 18773,
    "Ġscanning": 18394,
    "Ġashore": 5352,
    "Ġaddress": 2272,
    "Ġfabric": 25948,
    "nothing": 3152,
    "emporary": 15802,
    "Ġpassion": 4558,
    "Ġbackwoods": 22655,
    "Ġglistening": 12369,
    "utherland": 9581,
    "pip": 6657,
    "drugg": 20840,
    "Ġclerval": 4655,
    "Ġdisconnected": 22529,
    "Ġeddies": 25089,
    "bulkington": 19927,
    "insisted": 23071,
    "Ġremoval": 12122,
    "Ġindulge": 10585,
    "Ġdearer": 14051,
    "Ġ}": 21156,
    "Ġdenomin": 12072,
    "Ġbee": 21753,
    "Ġtarred": 23611,
    "confidential": 25877,
    "Ġpicture": 4858,
    "yesterday": 10355,
    "Ġconvention": 25547,
    "Ġinverted": 12642,
    "Ġbush": 23338,
    "Ġwisely": 13276,
    "request": 21244,
    "Ġbales": 21392,
    "Ġfable": 15581,
    "Ġponder": 6819,
    "Ġleghorn": 13150,
    "Ġwaning": 15537,
    "Ġits": 706,
    "Ġoxford": 11372,
    "--âĢĺ": 22851,
    "smiles": 14695,
    "ising": 2256,
    "years": 6883,
    "Ġstowing": 18074,
    "Ġdistributing": 22682,
    "Ġflat": 8228,
    "rank": 21044,
    "mystic": 25317,
    "verbally": 25361,
    "Ġcome": 1245,
    "Ġseasonable": 24406,
    "Ġopine": 19229,
    "Ġscrutin": 26015,
    "Ġduplicity": 25332,
    "Ġeffemin": 18544,
    "Ġwerter": 15243,
    "intu": 22936,
    "Ġmidday": 23634,
    "quimaux": 21857,
    "Ġstepdaughter": 22615,
    "Ġbeads": 18086,
    "Ġstirs": 14920,
    "mitted": 5213,
    "Ġrefinement": 18708,
    "strong": 6324,
    "Ġproperly": 7945,
    "Ġflights": 24752,
    "Ġwives": 12560,
    "Ġbumping": 25281,
    "Ġimmortal": 8018,
    "loath": 22512,
    "inaw": 21186,
    "constit": 24605,
    "Ġscroll": 14191,
    "Ġproceeded": 5336,
    "ergy": 2362,
    "Ġly": 2270,
    "weep": 22687,
    "Ġobjectionable": 16993,
    "Ġexig": 21830,
    "Ġprocesses": 3633,
    "exactly": 10639,
    "Ġinvulnerable": 19148,
    "Ġexperiences": 13030,
    "âĢ": 294,
    "Ġmagic": 8233,
    "Ġroyal": 5602,
    "requent": 3649,
    "gracious": 11835,
    "Ġguest": 7249,
    "Ġmarshal": 20222,
    "Ġchairs": 12831,
    "rarely": 21637,
    "inlaid": 21193,
    "Ý": 158,
    "Ġvolumes": 14803,
    "meth": 11504,
    "Ġdarling": 12609,
    "Ġprovoke": 14829,
    "Ġpersu": 3565,
    "Ġprophetic": 20023,
    "Ġresisted": 22545,
    "Ġcollect": 7237,
    "Ġreconcile": 25292,
    "Ġmaledictions": 26430,
    "Ġafternoon": 6054,
    "Ġfejee": 18354,
    "irksome": 18175,
    "Ġdistinctions": 18533,
    "heading": 5487,
    "Ġenchanted": 9083,
    "onents": 8781,
    "Ġsle": 2013,
    "Ġretains": 20033,
    "Ġcomprehens": 8320,
    "Ġmod": 494,
    "Ġmarchant": 14789,
    "mechanical": 25579,
    "content": 11198,
    "Ġanytime": 12890,
    "Ġavenues": 25430,
    "Ġstrives": 23697,
    "inting": 9817,
    "hello": 13368,
    "weave": 22688,
    "elsewhere": 19870,
    "Ġacknowledged": 7534,
    "abb": 15743,
    "Ġbirch": 26175,
    "Ġride": 12763,
    "Ġshocks": 16460,
    "affectionate": 24922,
    "Ġarve": 15901,
    "Ġmaids": 19694,
    "sense": 11525,
    "Ġexhilar": 19686,
    "Ġindignation": 8347,
    "uther": 8821,
    "Ġobjections": 8568,
    "trick": 19416,
    "Ġlot": 6680,
    "Ġscatter": 18392,
    "Ġtruly": 4797,
    "Ġdipped": 15599,
    "Ġxxii": 24478,
    "Ġmild": 4148,
    "Ġharry": 24572,
    "Ġinexhaustible": 16983,
    "baked": 20781,
    "Ġfitting": 21411,
    "Ġpostp": 12148,
    "Ġoriental": 9100,
    "Ġpetulance": 24230,
    "rom": 420,
    "Ġavocation": 23956,
    "Ġchanc": 18385,
    "Ġglades": 19375,
    "Ġdeceived": 6546,
    "itty": 3556,
    "Ġmessage": 13526,
    "Ġunconscious": 9550,
    "Ġfervour": 19729,
    "braid": 17497,
    "Ġpsychology": 11449,
    "cater": 20818,
    "Ġdivulged": 16651,
    "Ġstability": 1364,
    "cry": 12450,
    "Ġregression": 4411,
    "Ġstrive": 23695,
    "Ġbrute": 8929,
    "Ġoscill": 2856,
    "Ġwhite": 1539,
    "Ġconvergence": 970,
    "Ġreject": 7386,
    "Ġreckoning": 14982,
    "Ġrequested": 14302,
    "snow": 10726,
    "Ġdeserves": 13293,
    "Ġchisel": 20371,
    "smart": 23910,
    "flo": 6116,
    "stein": 5505,
    "Ġhur": 2098,
    "dl": 20825,
    "Ġunsophisticated": 25993,
    "Ġtravell": 5576,
    "Ġwonderful": 4564,
    "Ġoverflowing": 17240,
    "Ġsuperiority": 14619,
    "Ġheadsmen": 14735,
    "salis": 25150,
    "ount": 1116,
    "sideways": 14573,
    "bber": 4569,
    "joy": 3338,
    "Ġforbear": 17124,
    "Ġunprinciple": 18255,
    "divided": 25021,
    "Ġvelvets": 25394,
    "Ġxi": 16432,
    "lovely": 16050,
    "Ô": 149,
    "Ġrailway": 15023,
    "near": 5843,
    "Ġwindows": 4971,
    "canst": 22966,
    "ĠĠĠĠĠĠĠĠĠĠĠĠĠĠĠĠĠĠĠĠĠĠĠĠĠĠĠ": 14889,
    "Ġtackles": 8051,
    "disposed": 25013,
    "Ġknown": 1645,
    "Ġcedar": 15192,
    "trade": 19647,
    "Ġreligious": 25124,
    "Ġfeel": 1263,
    "Ġcreditors": 20133,
    "Ġresolved": 3798,
    "lee": 11587,
    "Ġconsisting": 8974,
    "honorable": 19903,
    "our": 534,
    "Ġdavy": 25952,
    "mown": 20972,
    "Ġknot": 7013,
    "stretched": 10210,
    "Ġerad": 25031,
    "Ġrestraint": 15131,
    "card": 11476,
    "ike": 5000,
    "Ġquarrels": 16568,
    "Ġunwritten": 22036,
    "Ġdisconsol": 18557,
    "Ġneat": 7000,
    "ur": 326,
    "Ġdy": 2576,
    "rence": 5555,
    "ers": 406,
    "hur": 6651,
    "Ġchagrin": 20610,
    "Ġvoyagings": 19237,
    "Ġwhispers": 14703,
    "Ġspend": 5306,
    "Ġphilistines": 26083,
    "Ġconsequent": 18113,
    "ivory": 10271,
    "Ġsovere": 9259,
    "Ġpredecessor": 26254,
    "fully": 2203,
    "daughters": 13470,
    "proper": 7471,
    "sound": 6800,
    "Ġcommerce": 11016,
    "elements": 25204,
    "Ġhinting": 19652,
    "begins": 18525,
    "gold": 9123,
    "Ġriver": 5411,
    "Ġappare": 12826,
    "Ġjames": 6420,
    "groom": 8743,
    "boy": 4739,
    "Ġsun": 1715,
    "Ġembal": 11906,
    "Ġmiscellaneous": 17465,
    "Ġchemical": 10412,
    "Ġregiment": 6433,
    "Ġessays": 19747,
    "Ġbowlines": 19323,
    "Ġshrill": 12146,
    "gun": 10099,
    "Ġclubbed": 26548,
    "Ġjunk": 15957,
    "Ġphrenologist": 25608,
    "parts": 14603,
    "Ġpick": 4257,
    "Ġpresumption": 10548,
    "del": 4077,
    "allest": 5485,
    "Ġbordered": 24564,
    "Ġsingular": 4425,
    "mong": 15393,
    "Ġrumpled": 24601,
    "ained": 3063,
    "Ġ129": 24474,
    "Ġcle": 1513,
    "Ġdinners": 23985,
    "msprop": 2625,
    "Ġdiscipline": 26563,
    "vens": 21115,
    "variety": 23189,
    "ulance": 15771,
    "Ġ200": 19297,
    "Ġstruggle": 3674,
    "susceptible": 24662,
    "bug": 17495,
    "Ġdisent": 22527,
    "Ġinterlacing": 22582,
    "Ġadvantageously": 19548,
    "Ġclung": 10959,
    "Ġbespeaking": 26311,
    "dom": 6224,
    "Ġcra": 2331,
    "Ġcolouring": 16753,
    "Ġunprejudiced": 18270,
    "securer": 25603,
    "Ġiceberg": 14719,
    "Ġinspired": 2517,
    "Ġcame": 1299,
    "Ġplum": 11826,
    "Ġfilters": 3928,
    "ela": 21572,
    "Ġnations": 8814,
    "mistake": 24529,
    "Ġrelinqu": 12988,
    "began": 6427,
    "boots": 11127,
    "fishery": 10035,
    "Ġrelentless": 26279,
    "Ġlawy": 9457,
    "kitty": 10108,
    "Ġmug": 21315,
    "tee": 16174,
    "Ġfrighten": 13282,
    "Ġnarrated": 14874,
    "Ġcheetah": 14504,
    "Ġsweating": 16465,
    "Ġpedd": 17910,
    "anger": 2174,
    "Ġcupboard": 16885,
    "é": 170,
    "trees": 10733,
    "Ġgallantry": 15107,
    "conve": 14246,
    "Ġhunger": 8570,
    "Ġmarched": 18873,
    "ynolds": 10039,
    "Ġ183": 13242,
    "band": 3057,
    "Ġappe": 1541,
    "ixed": 4853,
    "offices": 19065,
    "Ġmistake": 6205,
    "Ġsmacking": 20168,
    "Ġimitated": 18330,
    "grand": 7970,
    "Ġconsoling": 19460,
    "cept": 551,
    "intim": 22937,
    "Ġduodecimo": 16769,
    "tured": 13798,
    "prince": 23818,
    "comb": 11039,
    "Ġexplained": 5937,
    "violently": 23546,
    "Ġwave": 7576,
    "overed": 2852,
    "Ġcondense": 21812,
    "illar": 5101,
    "arling": 10816,
    "Ġmeridians": 17358,
    "Ġsting": 10862,
    "Ġfrantic": 7957,
    "Ġarising": 10934,
    "Ġsoutherly": 23336,
    "Ġwedded": 15539,
    "whaleman": 23438,
    "Ġsiam": 13841,
    "umed": 6556,
    "enances": 10156,
    "Ġspasmodically": 17317,
    "Ġvineyards": 25109,
    "delighted": 10565,
    "Ġbreaths": 14860,
    "arrival": 15604,
    "ye": 1406,
    "security": 26208,
    "ain": 343,
    "Ġinvestigations": 17249,
    "subject": 6634,
    "Ġfeared": 5932,
    "Ġdawned": 14997,
    "<": 32,
    "traces": 24336,
    "stun": 18021,
    "ĝ": 222,
    "pleased": 8857,
    "placidity": 25989,
    "Ġrogue": 22409,
    "Ġeyelashes": 26107,
    "ô": 181,
    "Ġkitty": 3911,
    "phew": 6369,
    "Ġbapt": 13899,
    "Ġragged": 11847,
    "amous": 15765,
    "Ġson": 2981,
    "ivot": 11722,
    "Ġgossiping": 26245,
    "Ġasylum": 13670,
    "Ġintend": 12769,
    "Ġoutlast": 22317,
    "Ġextended": 7924,
    "ı": 242,
    "Ġbandages": 24427,
    "Ġvoyage": 3052,
    "Ġposs": 1618,
    "Ġcomprehensive": 15091,
    "Ġadler": 8174,
    "Ġoffence": 12950,
    "Ġincarnate": 20378,
    "invariably": 26418,
    "Ġphantoms": 13490,
    "quest": 4539,
    "mortals": 25410,
    "Ġfris": 23258,
    "kine": 15379,
    "Ġepidemic": 20698,
    "Ġhypocr": 19475,
    "Ġtheirs": 7026,
    "Ġleague": 6540,
    "Ġpattered": 19013,
    "comrade": 18743,
    "fainting": 20476,
    "immediately": 10052,
    "bedroom": 14701,
    "Ġtester": 21175,
    "Ġmember": 8465,
    "quarrel": 20018,
    "Ġangles": 23590,
    "Ġporch": 19683,
    "disappointed": 25192,
    "obed": 14449,
    "throne": 25658,
    "pigs": 17143,
    "Ġbower": 15571,
    "Ġcountenance": 3971,
    ".}": 20747,
    "Ġstructures": 2721,
    "4": 24,
    "Ġuses": 1211,
    "extinguish": 22759,
    "Ġhouse": 1506,
    "Ġsympath": 4862,
    "sooner": 14781,
    "secre": 18130,
    "Ġswamp": 14439,
    "Ġjustified": 11909,
    "Ġsuav": 22086,
    "writ": 16555,
    "Ġsubl": 7235,
    "Ġyours": 4125,
    "fra": 8375,
    "Ġportions": 19372,
    "Ġfrantically": 23261,
    "stranded": 19227,
    "Ġwonders": 7500,
    "Ġsubstantial": 14813,
    "Ġsomeone": 6705,
    "ying": 1368,
    "Ġlicense": 20094,
    "Ġwoke": 21292,
    "Ġrambles": 17187,
    "Ġcheerfulness": 10519,
    "leaning": 10792,
    "she": 1396,
    "Ġbedfellows": 23447,
    "Ġexcitement": 9383,
    "elves": 2159,
    "Ġseated": 4542,
    "Ġhidden": 1375,
    "Ġjuggl": 20441,
    "Ġturing": 7566,
    "Ġsuperflu": 14556,
    "Ġnailed": 10192,
    "Ġprovide": 7750,
    "Ġlaughs": 24117,
    "Ġlinen": 12411,
    "rush": 7012,
    "Ġconcisely": 19048,
    "Ġkeenest": 12166,
    "Ġemigrant": 25860,
    "castles": 14638,
    "Ġcolleg": 22858,
    "Ġtwinkle": 12327,
    "Ġ1671": 25008,
    "Ġobstacle": 16957,
    "Ġstifle": 18076,
    "ignation": 11129,
    "Ġconve": 5455,
    "Ġflock": 21414,
    "occasional": 19579,
    "Ġbradstreet": 9579,
    "Ġlost": 2635,
    "Ġsatisfactory": 11193,
    "Ġdistricts": 20266,
    "Ġmoulded": 16977,
    "Ġgrave": 5100,
    "Ġpreparation": 13532,
    "Ġutmost": 5496,
    "ologically": 22875,
    "Ġdef": 1202,
    "Ġlike": 670,
    "frozen": 25142,
    "pond": 21015,
    "Ġfierc": 18712,
    "Ġgoin": 18470,
    "anx": 8788,
    "aded": 3551,
    "Ġspringing": 10521,
    "Ġteacup": 16209,
    "Ġlexic": 15728,
    "ĠvertebrÃ¦": 11436,
    "Ġtranquo": 14846,
    "Ġperforming": 7928,
    "Ġashen": 21903,
    "fitzwilliam": 11353,
    "pl": 402,
    "Ġelixir": 26557,
    "Ġpoem": 22594,
    "Ġrelative": 11887,
    "fifty": 12356,
    "ames": 2953,
    "warp": 17708,
    "imagine": 19934,
    "Ġsped": 22129,
    "Ġincurable": 22558,
    "think": 3609,
    "Ġsprout": 24091,
    "aped": 3764,
    "itar": 15551,
    "blasted": 20192,
    "Ġlists": 11167,
    "Ġimpatience": 7509,
    "zor": 15461,
    "cring": 20813,
    "Ġthackeray": 26457,
    "Ġoccupations": 9460,
    "Ġoverhear": 15977,
    "Ġasleep": 6836,
    "script": 11078,
    "Ġglo": 1710,
    "fail": 17542,
    "iards": 17576,
    "olet": 13769,
    "Ġwhenever": 5166,
    "handkerchief": 14620,
    "Ġparalle": 1412,
    "Ġclutching": 24954,
    "Ġsurprise": 3829,
    "Ġdistantly": 18532,
    "Ġeyel": 17097,
    "Ġende": 21936,
    "orrow": 2915,
    "Ġthreaten": 24374,
    "Ġtwitching": 25684,
    "older": 15763,
    "Ġasp": 15785,
    "Ġbugs": 13652,
    "carrying": 16714,
    "ome": 535,
    "Ġbutler": 18271,
    "Ġrefused": 6717,
    "Ġreal": 1637,
    "leaped": 17845,
    "Ġlimit": 10445,
    "Ġwield": 21293,
    "Ġask": 1494,
    "Ġsalutations": 25383,
    "Ġstark": 7390,
    "Ġdim": 4758,
    "Ġket": 18348,
    "ought": 829,
    "sto": 3198,
    "Ġmechanisms": 1577,
    "Ġjoppa": 12040,
    "Ġresignation": 18567,
    "cet": 15328,
    "Ġparent": 14648,
    "sincerely": 24585,
    "Ġhaze": 18197,
    "lose": 12887,
    "Ġacute": 16127,
    "Ġcollar": 11883,
    "Ġwhose": 2007,
    "pra": 15410,
    "without": 4848,
    "Ġtimid": 6347,
    "Ġmend": 8407,
    "Ġdependence": 18620,
    "wel": 6119,
    "Ġfree": 3377,
    "gossip": 23405,
    "aste": 4602,
    "Ġadro": 15871,
    "proud": 9907,
    "Ġpallor": 13519,
    "Ġensigns": 23691,
    "Ġapolog": 9046,
    "Ġexists": 14041,
    "Ġboasting": 19939,
    "showed": 16028,
    "reflection": 13459,
    "Ġmors": 17803,
    "employ": 10896,
    "ternatural": 12720,
    "Ġhier": 1894,
    "wat": 6233,
    "establish": 17396,
    "uttle": 6249,
    "abroad": 18111,
    "Ġunkindness": 22044,
    "Ġproperty": 6451,
    "Ġswam": 6449,
    "Ġfallen": 5969,
    "orient": 2880,
    "Ġdeer": 12725,
    "Ġscolded": 25473,
    "Ġwhiskers": 10495,
    "Ġtwit": 12934,
    "instantly": 7506,
    "Ġbomb": 17869,
    "Ġremembr": 24171,
    "icking": 8914,
    "Ġstalk": 12702,
    "Ġantiqu": 12149,
    "Ġprotection": 9464,
    "paddington": 20481,
    "Ġkeys": 12001,
    "Ġriots": 23895,
    "Ġplague": 11828,
    "Ġtropical": 17066,
    "Ġbart": 17859,
    "Ġtowed": 11266,
    "departure": 15238,
    "eight": 9594,
    "saturday": 14861,
    "Ġmilan": 19538,
    "Ġvariation": 22668,
    "Ġrepro": 7275,
    "Ġeagerly": 4990,
    "Ġperdition": 15996,
    "Ġobstinacy": 17424,
    "Ġjewell": 19523,
    "Ġlog": 1676,
    "con": 655,
    "coming": 3564,
    "Ġbravely": 23842,
    "Ġnominally": 17234,
    "Ġlongitudes": 22640,
    "Ġhum": 1099,
    "Ġorigin": 4121,
    "protested": 13478,
    "rison": 13782,
    "baggage": 24927,
    "Ġsafety": 6341,
    "Ġominous": 12427,
    "arned": 21821,
    "Ġmann": 18417,
    "poverty": 22913,
    "Ġvalu": 5039,
    "Ġattempted": 8001,
    "Ġsecure": 4913,
    "Ġshepherd": 14155,
    "Ġperiodical": 14775,
    "Ġgrateful": 7660,
    "brave": 19826,
    "Ġboasted": 16110,
    "arled": 21445,
    "forbearance": 22805,
    "deliberated": 26119,
    "irous": 8843,
    "arranted": 19321,
    "Ġenveloping": 19737,
    "Ġyouthful": 16725,
    "Ġspeaks": 11160,
    "Ġimpo": 3442,
    "umberland": 16839,
    "ensities": 22552,
    "Ġfarm": 7840,
    "Ġmet": 1877,
    "Ġtesting": 23215,
    "Ġincumbent": 16069,
    "Ġtone": 4041,
    "Ġtattoo": 7359,
    "adding": 21765,
    "ce": 313,
    "Ġseldom": 4631,
    "Ġlevels": 12703,
    "omical": 9683,
    "destiny": 16701,
    "visible": 10536,
    "Ġpe": 849,
    "Ġgiant": 13971,
    "Ġattentively": 9953,
    "robber": 21540,
    "Ġhatches": 12049,
    "saw": 5895,
    "james": 15376,
    "âĢĿ)": 21818,
    "Ġindividuality": 14912,
    "Ġdynamically": 4333,
    "accepted": 20139,
    "sunlight": 24852,
    "uracy": 1092,
    "ĭ": 238,
    "Ġpurse": 12015,
    "Ġfashions": 17887,
    "circumamb": 26088,
    "putting": 14103,
    "ulls": 8842,
    "plied": 10258,
    "Ġvapors": 19910,
    "ria": 15800,
    "irmed": 9242,
    "Ġinvisibly": 24814,
    "Ġuncivil": 11156,
    "Ġshreds": 12775,
    "Ġquiver": 16007,
    "ide": 722,
    "iments": 4945,
    "Ġcertainty": 6736,
    "oid": 3125,
    "Ġ16": 7927,
    "disc": 4730,
    "ulatory": 15772,
    "Ġrefined": 18707,
    "Ġknight": 9730,
    "Ġfurn": 3710,
    "Ġexecute": 7505,
    "ows": 1917,
    "scr": 16245,
    "imaux": 21715,
    "Ġapprovingly": 26255,
    "Ġvolcanoes": 24147,
    "Ġdissip": 10993,
    "icult": 3344,
    "Ġinhabit": 5782,
    "Ġanticipating": 17059,
    "Ġdefile": 18825,
    "Ġcaps": 8416,
    "Ġbearded": 15731,
    "surprised": 9534,
    "Ġruddy": 17128,
    "Ġsystematic": 5245,
    "ection": 4948,
    "Ġsighed": 10340,
    "ahit": 9384,
    "housekeeping": 24103,
    "ins": 1377,
    "Ġconclusion": 5987,
    "income": 15489,
    "Ġinconceivable": 17940,
    "Ġforeseen": 16442,
    "Ġassociation": 24710,
    "Ġcultivation": 17148,
    "Ġincarn": 11818,
    "province": 26073,
    "Ġrule": 1536,
    "reat": 615,
    "Ġactual": 3737,
    "Ġprocuring": 16872,
    "structure": 2427,
    "þ": 191,
    "lance": 12486,
    "Ġfulfilment": 20190,
    "Ġscared": 14189,
    "firm": 10700,
    "usations": 15951,
    "bitts": 26123,
    "Ġwaving": 8588,
    "Ġobeyed": 12221,
    "barb": 10083,
    "Ġalders": 21788,
    "Ġovertake": 15974,
    "scene": 14423,
    "Ġinducements": 24968,
    "Ġfin": 1461,
    "vicinity": 20483,
    "Ġle": 333,
    "om": 315,
    "Ġwrapped": 8342,
    "Ġvile": 8475,
    "Ġstrong": 1787,
    "Ġadditionally": 1175,
    "belais": 24041,
    "arcy": 1274,
    "icha": 11742,
    "naturalists": 23529,
    "Ġspinning": 15055,
    "Ġswallows": 18885,
    "Ġcapsized": 20093,
    "Ġecc": 11631,
    "Ġpretending": 19316,
    "eel": 11485,
    "Ġbulk": 5591,
    "Ġlend": 17965,
    "Ġequal": 4136,
    "bing": 7792,
    "ren": 549,
    "Ġfootfalls": 25867,
    "there": 1424,
    "vously": 23506,
    "Ġthrob": 21521,
    "corrupt": 14898,
    "shattered": 22453,
    "domestic": 19828,
    "bl": 4143,
    "supper": 12924,
    "inction": 6663,
    "angles": 18296,
    "Ġunmingled": 18264,
    "Ġclenched": 14206,
    "rifice": 12508,
    "Ġimposed": 14216,
    "Ġbehind": 2808,
    "Ġsubterr": 10351,
    "gentleness": 24845,
    "ribed": 7693,
    "Ġpass": 1040,
    "Ġcab": 2633,
    "Ġjago": 22303,
    "uv": 6231,
    "consideration": 14958,
    "appre": 14374,
    "Ġmutters": 23959,
    "urns": 10216,
    "Ġmach": 13860,
    "Ġpale": 4533,
    "Ġreference": 2564,
    "Ġattitudes": 16100,
    "Ġassociates": 24711,
    "Ġjavan": 25000,
    "Ġpaddles": 15151,
    "Ġextravag": 11254,
    "brim": 23577,
    "Ġblows": 5974,
    "Ġhorns": 11124,
    "Ġb": 281,
    "vishnoo": 21122,
    "mil": 13755,
    "Ġentangled": 10346,
    "Ġtrifled": 24675,
    "Ġhas": 824,
    "centre": 17088,
    "Ġrafters": 22651,
    "Ġinexplicable": 12261,
    "Ġshore": 4836,
    "Ġreach": 4048,
    "Ġcolumn": 9331,
    "Ġderivatives": 2372,
    "Ġrails": 22648,
    "persuade": 13536,
    "Ġslime": 23165,
    "Ġfacil": 16964,
    "Ġcommons": 22675,
    "ication": 1004,
    "Ġmallet": 17812,
    "Ġovercome": 6045,
    "deduction": 23673,
    "Ġowen": 15098,
    "Ġstreaked": 19115,
    "Ġtame": 17724,
    "irc": 1728,
    "absurd": 21799,
    "tro": 15436,
    "umbers": 10919,
    "endeav": 7151,
    "Ġscrawled": 24581,
    "Ġwrath": 16320,
    "Ġsar": 21216,
    "Ġarguments": 8037,
    "illating": 22111,
    "Ġsoil": 9258,
    "Ġpratt": 23222,
    "Ġconsole": 8151,
    "results": 20390,
    "Ġpersecut": 16954,
    "abil": 2006,
    "Ġstrategies": 1838,
    "Ġinterpret": 5490,
    "Ġspind": 18308,
    "shock": 19857,
    "Ġfriesland": 26444,
    "Ġhat": 2773,
    "dispute": 23501,
    "Ġwarn": 5695,
    "names": 16539,
    "Ġremonstr": 16163,
    "Ġtranscend": 25670,
    "Ġresumed": 11816,
    "grees": 20888,
    "shad": 10982,
    "anite": 17839,
    "exclaimed": 11794,
    "Ġpunish": 12164,
    "Ġfortunes": 12183,
    "Ġdetective": 14411,
    "Ġwallow": 19469,
    "Ġcompliance": 12119,
    "Ġdistracted": 11807,
    "Ġmosses": 20166,
    "Ġfastened": 7067,
    "cerem": 15682,
    "Ġhour": 1810,
    "Ġaccomplishments": 13383,
    "Ġread": 1450,
    "foundation": 16716,
    "athan": 2956,
    "ators": 7829,
    "Ġsecurely": 16804,
    "Ġclever": 7056,
    "Ġfootsteps": 16574,
    "Ġshave": 22000,
    "ils": 3182,
    "Ġhead": 1124,
    "Ġwond": 3939,
    "arn": 357,
    "Ġreplete": 15702,
    "Ġtrooped": 24900,
    "Ġenigmatical": 20600,
    "ounds": 4158,
    "Ġnatives": 17953,
    "Ġbottled": 23798,
    "Ġremembering": 14613,
    "Ġcentury": 8291,
    "namely": 23719,
    "Ġdepress": 14048,
    "nd": 11505,
    "throw": 14101,
    "Ġheartily": 6890,
    "Ġsoft": 1460,
    "Ġmason": 10160,
    "warmest": 25030,
    "Ġcollection": 8222,
    "Ġstall": 12701,
    "Ġyojo": 7611,
    "utional": 17986,
    "remained": 8573,
    "Ġwearied": 15798,
    "prejud": 11800,
    "Ġreminding": 19800,
    "Ġrelig": 8552,
    "Ġoutstanding": 22320,
    "Ġcryst": 9920,
    "Ġcousins": 9918,
    "Ġnovelist": 24776,
    "rium": 3131,
    "Ġanom": 12616,
    "Ġboom": 9313,
    "bitterly": 20340,
    "infernal": 24663,
    "Ġlangu": 577,
    "Ġbehave": 23299,
    "Ġ126": 24471,
    "Ġhumiliating": 22887,
    "unexpected": 15782,
    "Ġriggers": 24157,
    "incredible": 16500,
    "Ġspir": 2429,
    "Ġruffled": 25837,
    "ports": 13777,
    "yramid": 8368,
    "Ġruss": 18718,
    "Ġbrougham": 17872,
    "Ġxxxix": 24971,
    "Ġlabors": 23330,
    "Ġconvert": 11850,
    "Ġblacksmiths": 19875,
    "Ġbrut": 18768,
    "Ġfunere": 22268,
    "Ġbigness": 19763,
    "Ġhumbly": 16201,
    "gest": 5426,
    "Ġvice": 6550,
    "aston": 7408,
    "Ġsleek": 23385,
    "Ġfing": 3757,
    "triumph": 15443,
    "Ġjuggler": 26368,
    "co": 2434,
    "Ġpreference": 9736,
    "stock": 13227,
    "clifford": 23161,
    "design": 19343,
    "Ġscrib": 22273,
    "Ġparagraph": 17457,
    "Ġwhale": 627,
    "Ġmort": 3459,
    "fill": 15354,
    "appo": 3916,
    "reme": 2423,
    "Â£": 4813,
    "Ġinsects": 25647,
    "Ġauthent": 14509,
    "Ġautom": 3488,
    "umerable": 11729,
    "Ġbelief": 5857,
    "affection": 7487,
    "regarded": 12012,
    "deserts": 25382,
    "Ġassent": 12738,
    "Ġstuffed": 13413,
    "ipped": 5790,
    "Ġpink": 12623,
    "Ġprospect": 4708,
    "rus": 5931,
    "Ġuncl": 22018,
    "laz": 15389,
    "aphs": 22339,
    "Ġenvy": 13214,
    "tossed": 10999,
    "circum": 16739,
    "istence": 2356,
    "Ġfishe": 15590,
    "unlike": 18159,
    "knew": 9129,
    "Ġpaling": 21464,
    "friend": 3862,
    "Ġaffidav": 18792,
    "cking": 4266,
    "ica": 10201,
    "Ġlaborious": 13108,
    "Ġanswers": 7072,
    "supp": 4163,
    "Ġwatson": 3598,
    "perse": 15897,
    "Ġdisconcerted": 18562,
    "anesc": 21363,
    "Ġwhichever": 14003,
    "Ġcreates": 2008,
    "perfect": 7635,
    "sigma": 3000,
    "Ġhedge": 8364,
    "Ġportly": 14680,
    "Ġabusing": 18399,
    "Ġkeen": 4614,
    "Ġpreservative": 24630,
    "Ġencamp": 22803,
    "Ġsquares": 11170,
    "orses": 6053,
    "oar": 12502,
    "Ġnews": 3819,
    "Ġslink": 23167,
    "Ġpaul": 12067,
    "reach": 17759,
    "Ġuniverse": 14127,
    "colnett": 19332,
    "serv": 7451,
    "length": 7136,
    "Ġsavi": 18326,
    "Ġclink": 22350,
    "kward": 6958,
    "Ġpersonal": 7479,
    "âĢĶ(": 15942,
    "pregn": 18501,
    "Ġbru": 13898,
    "Ġprofound": 5497,
    "ashtego": 4103,
    "urous": 10215,
    "Ġmaster": 3680,
    "Ġbre": 1912,
    "ntax": 933,
    "Ġhunters": 6302,
    "Ġdistorted": 14252,
    "Ġimpenet": 14221,
    "plexy": 18579,
    "Ġadmit": 7711,
    "ø": 185,
    "glass": 9912,
    "vial": 17699,
    "Ġincompatible": 25681,
    "venth": 9298,
    "sisters": 13380,
    "unched": 10238,
    "arnel": 18127,
    "Ġdesk": 11911,
    "Ġintimidated": 24802,
    "Ġdefend": 9343,
    "rising": 7557,
    "Ġpatched": 16362,
    "published": 26143,
    "door": 6195,
    "Ġadrift": 11726,
    "izzy": 3094,
    "cating": 20804,
    "spirits": 8055,
    "Ġdie": 3963,
    "Ġpredicts": 2593,
    "Ġnaut": 13944,
    "Ġred": 3003,
    "welcome": 10004,
    "emptied": 23637,
    "Ġrevolution": 3307,
    "Ġmonosyllable": 20728,
    "heartily": 24218,
    "depth": 12805,
    "Ġcapabilities": 4379,
    "Ġinvestment": 24332,
    "Ġcling": 11775,
    "Ġaccused": 8510,
    "Ġdiligence": 17115,
    "Ġgardener": 19136,
    "trop": 15439,
    "Ġtie": 10752,
    "reigned": 21245,
    "Ġsupplying": 19801,
    "iftings": 23227,
    "Ġand": 295,
    "resses": 16155,
    "Ġmeth": 1444,
    "Ġsubtile": 20383,
    "Ġmatters": 4973,
    "Ġunintermitted": 26221,
    "Ġtreacherously": 25132,
    "Ġbroiled": 18910,
    "Ġeyelids": 26108,
    "Ġphilosopher": 12188,
    "Ġrainy": 24341,
    "emph": 21932,
    "dart": 20828,
    "dining": 13709,
    "Ġcaring": 23095,
    "Ġprevention": 16095,
    "Ġobtain": 8918,
    "false": 15358,
    "Ġepis": 19985,
    "ious": 768,
    "Ġimputation": 22176,
    "Ġeveryone": 8921,
    "Ġprocessing": 896,
    "pious": 17635,
    "Ġnavigators": 19766,
    "Ġpresence": 5031,
    "Ġready": 3399,
    "Ġpeaceful": 9458,
    "eter": 11623,
    "Ġconqueror": 25797,
    "homage": 25617,
    "Ġhanding": 16134,
    "Ġnervousness": 23559,
    "Ġsherlock": 3894,
    "humor": 19455,
    "Ġcaval": 25770,
    "cially": 3491,
    "Ė": 215,
    "Ġsp": 457,
    "Ġdoted": 21436,
    "myst": 9825,
    "Ġele": 1962,
    "Ġcategor": 4141,
    "ineas": 15826,
    "Ġvales": 21950,
    "circuit": 24190,
    "Ġfift": 6383,
    "Ġdungeon": 16998,
    "points": 14397,
    "circumstance": 7764,
    "qual": 8157,
    "Ġneighbours": 8303,
    "lings": 8749,
    "uated": 10134,
    "Ġlestrade": 5826,
    "Ġost": 9652,
    "Ġbag": 5699,
    "Ġaugust": 10600,
    "Ġcolour": 4463,
    "things": 6034,
    "Ġdriver": 16476,
    "icted": 5938,
    "Ġhandspikes": 12943,
    "Ġbrown": 6300,
    "Ġduly": 13355,
    "Ġwithdrew": 9699,
    "Ġsank": 5076,
    "ilty": 6395,
    "Ġdeaden": 23462,
    "boone": 23256,
    "Ġapplication": 2105,
    "Ġwardrobe": 17228,
    "Ġholmes": 1309,
    "Ġrome": 12160,
    "way": 763,
    "Ġunreason": 15846,
    "strikes": 24671,
    "romising": 18234,
    "Ġvain": 3629,
    "Ġgripping": 26188,
    "Ġthere": 563,
    "oles": 21007,
    "Ġartfully": 22613,
    "Ġsucceeded": 6107,
    "Ġmis": 916,
    "Ġsinking": 7307,
    "Ġsisters": 3640,
    "Ġflew": 5587,
    "Ġdescribing": 19256,
    "Ġembraces": 19874,
    "perils": 22182,
    "Ġlids": 12280,
    "Ġspectacles": 12102,
    "asional": 17962,
    "Ġintru": 15831,
    "Ġslop": 23166,
    "Ġgr": 974,
    "Ġsins": 13840,
    "Ġwearily": 18180,
    "doub": 6225,
    "Ġleast": 2063,
    "infer": 10147,
    "Ġcounterbalance": 24721,
    "Ġoblivious": 26033,
    "Ġnarrative": 6217,
    "Ġintricacies": 15142,
    "intended": 11067,
    "Ġchimney": 6498,
    "Ġequatorial": 13513,
    "Ġmule": 13865,
    "eur": 7545,
    "Ġco": 729,
    "Ġdignified": 15602,
    "Ġtatters": 21180,
    "Ġscept": 15506,
    "appe": 2943,
    "fooled": 24419,
    "gates": 20874,
    "Ġplease": 4724,
    "Ġstanders": 19018,
    "Ġsavor": 23878,
    "Ġchanged": 5243,
    "Ġscratch": 25565,
    "Ġstash": 18070,
    "Ġchecking": 23287,
    "fast": 3069,
    "Ġturns": 4981,
    "diminished": 20841,
    "Ġdecl": 3591,
    "bloom": 24690,
    "olen": 9704,
    "wards": 1276,
    "Ġmixed": 6975,
    "Ġbon": 8790,
    "teringly": 21827,
    "Ġbade": 9174,
    "Ġentrapped": 26264,
    "Ġsm": 704,
    "drown": 13708,
    "Ġautonomous": 10678,
    "Ġimmemorially": 25384,
    "Ġink": 8807,
    "Ġpanelled": 19657,
    "valu": 1744,
    "Ġmarriage": 3188,
    "inisc": 15491,
    "impat": 11202,
    "few": 8203,
    "Ġminimum": 23045,
    "Ġneglecting": 25010,
    "Ġavenue": 13625,
    "retched": 3066,
    "charming": 15710,
    "dam": 7798,
    "ellation": 12755,
    "Ġtruest": 16702,
    "complete": 15037,
    "wrong": 13208,
    "fortun": 3541,
    "uture": 1054,
    "Ġsteadfastly": 10654,
    "Ġshades": 9465,
    "Ġperceptibly": 25822,
    "ics": 3258,
    "eddling": 11904,
    "Ġbenefits": 4287,
    "Ġpoisonous": 24888,
    "Ġproceeds": 12082,
    "eprints": 12796,
    "ief": 2044,
    "Ġledgers": 23941,
    "Ġdip": 13910,
    "Ġpreferred": 14969,
    "Ġgovernor": 16492,
    "cleanliness": 25872,
    "Ġdisse": 18548,
    "Ġretarded": 23076,
    "Ġslighter": 18942,
    "Ġassuredly": 14825,
    "Ġspouts": 7730,
    "Ġancest": 12619,
    "Ġsoapstone": 20514,
    "Ġpersuasion": 10501,
    "prevent": 11799,
    "crated": 16685,
    "Ġsharp": 2412,
    "Ġsafe": 5103,
    "fre": 5425,
    "Ġspirit": 3724,
    "jar": 17579,
    "Ġmaker": 15547,
    "unction": 10237,
    "Ġmot": 2983,
    "Ġcontriv": 9285,
    "Ġcoldly": 14652,
    "Ġpurplish": 19142,
    "hos": 15367,
    "achusetts": 20712,
    "Ġpositions": 2055,
    "asting": 12811,
    "too": 4509,
    "Ġmustering": 18663,
    "Ġexert": 5722,
    "hr": 20890,
    "es": 289,
    "backpropagation": 11990,
    "Ġhorrify": 23822,
    "Ġbetake": 22911,
    "Ġdanes": 25160,
    "Ġwester": 25156,
[...]
