{
  "metadata": {
    "vocab_size": 26614,
    "algorithm": "BPE",
    "created_at": "2026-06-20 06:19:49",
    "special_tokens": [
      "<PAD>",
      "<SOS>",
      "<EOS>",
      "<UNK>",
      "<MASK>"
    ]
  },
  "vocab": {
    "glass": 9908,
    "vard": 21109,
    "Ġvint": 18194,
    "iscuits": 24666,
    "wled": 15454,
    "attent": 9358,
    "fe": 679,
    "Ġapproximates": 2418,
    "Ġentail": 9792,
    "floating": 12225,
    "Ġmurderous": 8315,
    "endured": 22222,
    "|": 96,
    "early": 20117,
    "º": 123,
    "Ġheight": 4219,
    "archbishop": 22890,
    "Ġimped": 18443,
    "Ġconsoled": 18115,
    "Ġcountenance": 3970,
    "Ġbec": 1349,
    "Ġreproached": 24891,
    "Ġcommons": 22669,
    "Ġwherefore": 8524,
    "upright": 23015,
    "Ġspears": 12923,
    "dreaded": 25138,
    "een": 727,
    "?âĢĿ": 700,
    "Ġweigh": 10893,
    "Ġpromising": 10399,
    "._]]": 5334,
    "Ġearning": 23938,
    "Ġfiss": 21410,
    "Ġnic": 7376,
    "Ġboisterously": 25682,
    "iluvian": 18060,
    "Ġlinen": 12405,
    "Ġjumping": 13340,
    "Ġaromatic": 25925,
    "Ġnailed": 10189,
    "Ġaccompl": 5167,
    "Ġpaling": 21460,
    "vig": 15446,
    "Ġhorses": 6385,
    "Ġmisty": 16539,
    "port": 10719,
    "Ġdeftly": 26493,
    "Ġexisting": 12715,
    "pervised": 1600,
    "oin": 17617,
    "Ġmar": 1312,
    "Ġreliable": 18777,
    "consp": 18502,
    "Ġdeserts": 10507,
    "Ġdistressing": 12216,
    "Ġsunlight": 13083,
    "wed": 5003,
    "procure": 23395,
    "velling": 14761,
    "Ġcounter": 6481,
    "Ġdaunt": 19663,
    "Ġrover": 18456,
    "Ġmediocrity": 26608,
    "Ġ30": 10511,
    "itary": 4749,
    "belated": 24034,
    "ellent": 3761,
    "Ġbarred": 9002,
    "idean": 14262,
    "Ġshrinking": 14804,
    "Ġswandam": 11089,
    "Ġnupt": 13942,
    "Ġmen": 1435,
    "Ġwelded": 9571,
    "Ġengineering": 3025,
    "Ġabsorbed": 12329,
    "Ġsam": 7569,
    "Ġimproves": 22729,
    "Ġfortresses": 23620,
    "cowardly": 25749,
    "Ġnoisy": 13317,
    "inquiry": 15141,
    "Ġaboard": 6697,
    "Ġdoubloons": 13433,
    "Ġhung": 4559,
    "Ġthreats": 13376,
    "Ġhut": 15617,
    "ix": 1800,
    "und": 4117,
    "Ġre": 317,
    "Ġsucceeding": 16761,
    "istic": 974,
    "changing": 10854,
    "Ġtut": 8769,
    "Ġri": 3394,
    "lightning": 16551,
    "ouncement": 11743,
    "Ġpredicting": 2416,
    "Ġtunnel": 14929,
    "Ġencoding": 4772,
    "Ġdiscovery": 5412,
    "Ġindulged": 13416,
    "ativeness": 15520,
    "Ġjoky": 18406,
    "Ġcumbrous": 26432,
    "Ġnewton": 3531,
    "thankful": 16806,
    "Ġshalt": 18230,
    "Ġourselves": 5127,
    "advance": 12154,
    "Ġmoodily": 19833,
    "Ġbreaths": 14856,
    "alse": 4182,
    "into": 3680,
    "Ġsiam": 13837,
    "Ġexperience": 1387,
    "icating": 15653,
    "mush": 20976,
    "Ġunh": 9252,
    "Ġprejudice": 9075,
    "Ġheighten": 19528,
    "wander": 17709,
    "Ġnose": 4400,
    "Ġumbrell": 13649,
    "Ġrelent": 18775,
    "Ġcompliments": 8632,
    "Ġgrew": 5182,
    "Ġattachment": 6049,
    "Ġand": 295,
    "sp": 894,
    "Ġever": 1183,
    "Ġancestors": 25642,
    "suspected": 12370,
    "Ġtrustworthy": 24106,
    "comple": 7441,
    "Y": 61,
    "reflected": 24733,
    "Ġgales": 12662,
    "Ġsmelling": 16065,
    "herself": 4888,
    "bone": 5612,
    "Ġpalm": 10513,
    "orne": 17872,
    "mil": 13751,
    "Ġcount": 1815,
    "Ġquite": 1741,
    "Ġig": 3498,
    "Ġoffing": 16142,
    "disc": 4727,
    "Ġdiligently": 11405,
    "employ": 10895,
    "Ġbreathe": 9011,
    "Ġsoph": 1583,
    "ince": 4338,
    "buck": 17490,
    "gir": 8082,
    "factories": 19842,
    "Ġsquall": 7043,
    "Ġunfortunate": 5376,
    "Ġforeseen": 16443,
    "Ġwaste": 9233,
    "cal": 1119,
    "ougher": 18279,
    "Ġdrinking": 12166,
    "Ġentrance": 7233,
    "Ġsmoky": 22555,
    "Ġissue": 2312,
    "Ġdiversion": 17197,
    "Ġdistillation": 16044,
    "Ġdistinguish": 2726,
    "Ġinsist": 9889,
    "etency": 21579,
    "na": 13759,
    "pires": 13774,
    "Ġpierce": 17036,
    "Ġinconvenient": 20008,
    "Ġsemicircle": 26067,
    "Ġsurgeon": 8981,
    "oil": 7805,
    "considering": 12172,
    "lessly": 4555,
    "lines": 6959,
    "Ġproduct": 3532,
    "exciting": 19667,
    "Ġmutual": 8295,
    "Ġtrad": 9827,
    "Ġdirect": 1472,
    "Ġfishermen": 5970,
    "sent": 760,
    "Ġcolds": 23756,
    "Ġspies": 22135,
    "izzy": 3093,
    "Ġsatiated": 22900,
    "helped": 18923,
    "Ġpott": 21466,
    "Ġsatisfied": 4170,
    "Ġtime": 690,
    "Ġconfines": 23302,
    "Ġcocain": 18596,
    "Ġflitting": 13023,
    "musical": 25340,
    "Ġshel": 6847,
    "opÃ¦": 12869,
    "Ġconsent": 5372,
    "Ġsearching": 13161,
    "ires": 6037,
    "sample": 12504,
    "Ġentailed": 11027,
    "embers": 21924,
    "Ġarrest": 7409,
    "acceptance": 25185,
    "Ġlooking": 2475,
    "eminently": 25105,
    "Ġsamples": 2963,
    "kye": 20937,
    "Ġevidence": 5269,
    "Ġmember": 8585,
    "ricted": 15420,
    "calabash": 22893,
    "Ġsav": 3357,
    "Ġcombination": 22856,
    "Ġhonourable": 10456,
    "Ġpromotion": 23191,
    "awned": 19458,
    "Ġavocation": 23950,
    "Ġmachinery": 20483,
    "ys": 3959,
    "isle": 13891,
    "Ġnathan": 21523,
    "Ġsacrific": 15017,
    "rical": 11518,
    "Ġstress": 18066,
    "Ġdecent": 10978,
    "misfortunes": 16756,
    "uneasiness": 23685,
    "tch": 9141,
    "efficient": 2873,
    "Ġpoland": 23616,
    "Ġorb": 22088,
    "hever": 13830,
    "pilot": 25908,
    "Ġsmothered": 20719,
    "Ġinject": 2711,
    "Ġrav": 14301,
    "Ġarrival": 4729,
    "trial": 20349,
    "Ġadvertise": 25388,
    "Ġbachel": 7158,
    "longer": 8612,
    "Ġfruit": 12324,
    "Ġbite": 10797,
    "caps": 20806,
    "Â·": 21148,
    "Ġoverflowed": 20261,
    "cig": 17503,
    "Ġreinforcement": 3018,
    "Ġdestiny": 8983,
    "Ġdiscovering": 13356,
    "Ġsow": 17749,
    "Ġwilderness": 14839,
    "Ġships": 3713,
    "Ġcoars": 14270,
    "Ġambition": 11432,
    "Ġguitar": 16270,
    "Ġhovered": 12628,
    "so": 890,
    "appo": 3914,
    "Â": 131,
    "Ġimitation": 22173,
    "Ġactivation": 918,
    "anxious": 15108,
    "Ġentreating": 24207,
    "cop": 20800,
    "Ġsewing": 21951,
    "tanh": 5204,
    "vocabulary": 25085,
    "death": 6261,
    "Ġlangu": 578,
    "ĭ": 238,
    "consist": 14815,
    "Ġpol": 2575,
    "usion": 3303,
    "resolution": 17766,
    "hoist": 23712,
    "Ġbasics": 13447,
    "bound": 6220,
    "Ġix": 12663,
    "planted": 11696,
    "erately": 21272,
    "Ġrespectable": 6736,
    "aper": 4999,
    "Ġserenity": 10027,
    "nett": 16220,
    "Ġyellowish": 24430,
    "Ġscanning": 18393,
    "Ġscheduling": 2349,
    "ording": 9763,
    "Ġtistig": 26413,
    "Ġherself": 1568,
    "pounds": 21024,
    "Ġ57": 24325,
    "power": 7136,
    "Ġpoltroon": 26598,
    "Ġdiscriminative": 4325,
    "oton": 3606,
    "Ġcorn": 9349,
    "Ġairs": 14512,
    "pron": 9005,
    "Ġcircular": 13109,
    "strike": 14948,
    "Ġabsent": 7014,
    "Ġple": 1469,
    "freighted": 14891,
    "Ġinoffensive": 21495,
    "reel": 21232,
    "Ġparticular": 2449,
    "Ġshoulders": 5566,
    "making": 2571,
    "Ġlif": 10195,
    "oded": 11668,
    "seamen": 13625,
    "Ġashamed": 6403,
    "Ġconnectivity": 3665,
    "ļ": 253,
    "Ġsmart": 11813,
    "Ġtypewriter": 19097,
    "Ġhorrid": 7998,
    "ught": 2749,
    "Ġpuffed": 14976,
    "ois": 9134,
    "bewil": 22494,
    "Ġsmells": 8889,
    "Ġcrept": 11021,
    "Ġworm": 9162,
    "ĠĠĠĠĠĠĠĠĠĠĠĠĠĠĠĠĠĠĠĠĠĠĠĠĠĠĠĠĠĠĠĠĠ": 12040,
    "Ġenjoyed": 8007,
    "Ġmoderation": 12815,
    "eration": 10772,
    "eler": 1573,
    "humour": 7498,
    "Ġadvancing": 6878,
    "Ġword": 1052,
    "Ġcontented": 9755,
    "Ġprettier": 23763,
    "estic": 4955,
    "tro": 15433,
    "Ġgrant": 11871,
    "Ġneglect": 7941,
    "Ġterrible": 5327,
    "Ġlords": 14641,
    "Ġdisasters": 16053,
    "orus": 10801,
    "Ġpertin": 18450,
    "Ġornam": 15863,
    "icated": 7590,
    "probably": 10019,
    "Ġmon": 1251,
    "Ġslave": 7454,
    "Ġshoulder": 5848,
    "Ġdejection": 15195,
    "acting": 22628,
    "supportable": 12368,
    "serv": 7451,
    "Ġpreparations": 12308,
    "Ġbenef": 3487,
    "prejud": 11792,
    "Ġsoliloquized": 17301,
    "Ġcrows": 24028,
    "Ġhelmeted": 19687,
    "hook": 12051,
    "Ġmasking": 2420,
    "Ġenvirons": 13186,
    "enes": 5218,
    "Ġbale": 7838,
    "Ġsutherland": 10148,
    "washed": 13043,
    "tiness": 21070,
    "Ġfirmest": 16664,
    "ourse": 8869,
    "Ġbargain": 23791,
    "Ġgrapes": 15214,
    "ature": 521,
    "Ġast": 2962,
    "Ġ109": 24416,
    "Ġjoined": 4563,
    "!": 5,
    "Ġdilatory": 24705,
    "accursed": 20539,
    "aloons": 20009,
    "Ġunsupp": 22018,
    "Ġdetermines": 2369,
    "Ġstaring": 8824,
    "Ġperman": 10965,
    "Ġash": 4830,
    "Ġtou": 15466,
    "Ġscraggy": 24579,
    "Ġthinner": 24182,
    "Ġhumbled": 16196,
    "Ġanybody": 5313,
    "int": 1198,
    "icism": 13955,
    "Ġbreakfast": 3975,
    "buttoned": 13631,
    "ogr": 18673,
    "Ġterms": 2562,
    "ctuous": 9205,
    "Ġhear": 1964,
    "Ġwise": 6811,
    "Ġarmada": 23579,
    "Ġamput": 16033,
    "Ġoverflow": 10292,
    "Ġmagnificence": 20631,
    "spermaceti": 12191,
    "Ġwraps": 19775,
    "aul": 6352,
    "ermost": 7430,
    "Ġfitting": 21406,
    "Ġdenny": 9001,
    "Ġkills": 15905,
    "Ġblessed": 6931,
    "tical": 10128,
    "itiously": 13870,
    "aulets": 18621,
    "Ġresembling": 4097,
    "Ġkirwin": 8496,
    "Ġenorm": 5302,
    "Ġdinnertime": 16719,
    "pence": 15409,
    "Ġpet": 4585,
    "Ġunre": 3476,
    "Ġ1": 1015,
    "Ġscholar": 26111,
    "Ġcomment": 9232,
    "Ġfrolic": 23921,
    "Ġappl": 1714,
    "Ġseek": 4507,
    "Ġfat": 3461,
    "Ġbreadth": 10563,
    "Ġgazed": 6478,
    "Ġdissimilar": 22528,
    "Ġornaments": 17451,
    "murdered": 12200,
    "stopping": 19348,
    "brows": 17496,
    "Ġstoke": 10395,
    "Ġincome": 7916,
    "Ġunderstanding": 1916,
    "Ġlain": 17961,
    "Ġparamount": 15877,
    "Ġassault": 9836,
    "Ġflea": 23771,
    "Ġperiodically": 19493,
    "Ġplaying": 6909,
    "Ġstings": 21731,
    "Ġay": 15491,
    "Ġoffic": 3187,
    "tallow": 21084,
    "grief": 13730,
    "Ġindications": 14632,
    "Ġcarcase": 14443,
    "nor": 2740,
    "Ġexempt": 21825,
    "youn": 5690,
    "suspended": 15176,
    "baggage": 24926,
    "Ġseparating": 16685,
    "column": 19328,
    "ju": 13740,
    "Ġbiography": 22759,
    "Ġcalamities": 25699,
    "ided": 2787,
    "alive": 10827,
    "Ġdistinguished": 8272,
    "Ġname": 2080,
    "usoid": 4765,
    "Ġtelescope": 17347,
    "do": 1993,
    "Ġarchbishop": 18719,
    "Ġeyford": 10641,
    "Ġrepair": 11977,
    "weeks": 14315,
    "Ġmagnified": 23200,
    "Ġsuperseded": 26223,
    "Ġbedford": 7473,
    "infer": 10144,
    "Ġmant": 9647,
    "perai": 10275,
    "Ġphilistines": 26082,
    "critical": 19502,
    "tranquil": 25870,
    "imly": 12684,
    "iffe": 21899,
    "Ġdecayed": 22821,
    "Ġhumbug": 18780,
    "Ġsupplement": 22999,
    "msgate": 18412,
    "anger": 2171,
    "vint": 21113,
    "Ġdism": 9766,
    "acetty": 24464,
    "Ġnarwhales": 24902,
    "Ġisland": 4049,
    "humored": 19451,
    "twelve": 14622,
    "Ġfleecy": 17023,
    "Ġglistening": 12363,
    "Ġwet": 6518,
    "Ġmizzen": 20288,
    "happy": 4422,
    "education": 20300,
    "Ġinverted": 12634,
    "Ġtw": 840,
    "scru": 16241,
    "Ġconjunction": 25100,
    "Ġpugn": 21478,
    "iffs": 9021,
    "Ġcovered": 5171,
    ";âĢĶ": 3748,
    "host": 5867,
    "lone": 11499,
    "Ġembarkation": 25123,
    "Ġoil": 3373,
    "Ġmaybe": 12946,
    "Ġaccomplice": 24376,
    "Ġtrappers": 23078,
    "alling": 6036,
    "Ġnews": 3818,
    "rat": 8755,
    "stating": 21644,
    "omas": 12668,
    "isc": 6239,
    "ladder": 19783,
    "Ġobst": 6284,
    "Ġindefinitely": 25221,
    "force": 12950,
    "Ġhing": 11603,
    "Ġcities": 17827,
    "resting": 23233,
    "ckles": 22086,
    "torn": 17682,
    "Ġmomentarily": 22809,
    "condesc": 18503,
    "Ġfrost": 6095,
    "Ġincognita": 26551,
    "hun": 5210,
    "Ġpen": 1532,
    "brim": 23574,
    "Ġmended": 21312,
    "Ġundet": 16704,
    "Ġemail": 19074,
    "redit": 3876,
    "reasoning": 9475,
    "Ġdimly": 9487,
    "skelter": 24490,
    "Ġtruly": 4794,
    "critters": 14782,
    "truck": 15441,
    "Ġrest": 1782,
    "Ġtrop": 7565,
    "Ġcognitive": 13633,
    "âĢĶ.âĢĿ": 22252,
    "Ġstatistical": 11104,
    "Ġattentive": 9033,
    "turns": 14905,
    "weed": 14314,
    "Ġwarbling": 26168,
    "Ġselling": 21223,
    "Ġsobbed": 14136,
    "Ġcelebrated": 13593,
    "Ġtol": 6675,
    "Ġminimize": 7050,
    "Ġflu": 3280,
    "Ġsidel": 9635,
    "Ġdevious": 22713,
    "Ġlivel": 11355,
    "Ġbluff": 16516,
    "Ġleak": 2159,
    "ien": 10101,
    "nearly": 8680,
    "Ġplanned": 14751,
    "Ġfounder": 17883,
    "Ġbarbara": 24818,
    "10": 17472,
    "gument": 20884,
    "Ġeliza": 6437,
    "Ġviolence": 5962,
    "cence": 9588,
    "tempest": 16959,
    "Ġirksome": 13110,
    "Ġlucky": 7758,
    "Ġsmokes": 22556,
    "Ġaddresses": 3768,
    "Ġsurviv": 13434,
    "iling": 3091,
    "Ġirregularly": 25323,
    "protest": 24815,
    "lay": 5890,
    "Ġwaving": 8575,
    "Ġparacels": 13666,
    "Ġcompetent": 11814,
    "Ġsailed": 4887,
    "Ġtantalizing": 20412,
    "izens": 18135,
    "Ġcommerce": 11015,
    "Ġth": 299,
    "nearer": 22447,
    "Ġexordium": 26492,
    "Ġgroping": 13664,
    "Ġforgive": 8009,
    "Ġsparing": 22136,
    "Ġboldly": 9500,
    "cell": 10685,
    "here": 2549,
    "Ġdinah": 9453,
    "Ġpam": 21452,
    "aren": 10073,
    "ouble": 2661,
    "atious": 10151,
    "twig": 23697,
    "Ġriggers": 24156,
    "Ġdefendants": 15139,
    "Ġattorney": 18620,
    "Ġoverladen": 22362,
    "Ġindignation": 8346,
    "Ġtwitched": 20442,
    "Ġwrench": 12554,
    "sebastian": 21817,
    "Ġmasters": 11574,
    "Ġcounteracted": 19861,
    "riptions": 14793,
    "seized": 14034,
    "itying": 21991,
    "Ġax": 7822,
    "Ġsupers": 18277,
    "speckled": 23942,
    "ricade": 13036,
    "Ġfrequented": 16585,
    "Ġext": 898,
    "Ġwestward": 24389,
    "Ġprofoundly": 16859,
    "falling": 24361,
    "Ġswarming": 16273,
    "Ġpavement": 9577,
    "Ġtissu": 25920,
    "Ġlongitude": 11011,
    "arms": 10173,
    "wl": 17702,
    "Ġxxiv": 24477,
    "Ġredness": 19311,
    "Ġbree": 5012,
    "Ġhed": 7387,
    "uce": 11535,
    "Ġtamer": 24976,
    "Ġseeming": 8540,
    "son": 2329,
    "vember": 10855,
    "teness": 23201,
    "Ġrever": 6536,
    "barn": 17482,
    "Ġbedside": 19121,
    "Ġdispirited": 23880,
    "ivia": 22081,
    "Ġmysticetus": 24922,
    "ineffectual": 26507,
    "notice": 16146,
    "chase": 11644,
    "Ġscrolled": 22267,
    "Ġwarrant": 17794,
    "Ġinevitable": 15166,
    "refuge": 24734,
    "Ġlawn": 7379,
    "Ġpaws": 13920,
    ").âĢĿ": 20740,
    "Ġtriangular": 14858,
    "cturn": 17986,
    "Ġhierarchical": 1928,
    "Ġlvi": 21550,
    "Ġtriumphantly": 11287,
    "Ġmasterly": 23991,
    "Ġcultivated": 17363,
    "Ġdescend": 7427,
    "Ġcrouched": 23440,
    "Ġcontemptible": 16953,
    "Ġprotecting": 24686,
    "Ġadjusts": 8980,
    "arrang": 14652,
    "studied": 17149,
    "draughts": 20386,
    "Ġthrown": 4638,
    "Ġurging": 24505,
    "Ġamericans": 14742,
    "Ġspread": 5161,
    "mysteries": 26051,
    "Ġperpetually": 17070,
    "Ġpul": 2039,
    "Ġteaches": 18808,
    "glimmer": 26321,
    "Ġbelshazzar": 16224,
    "surrounded": 26088,
    "Ġgiants": 25960,
    "Ġsled": 21217,
    "folding": 24927,
    "Ġrhyme": 21975,
    "Ġad": 441,
    "Ġartfully": 22608,
    "Ġjewel": 9941,
    "ers": 406,
    "Ġanalyze": 1519,
    "Ġstigma": 25791,
    "Ġtwist": 11849,
    "tend": 17674,
    "ails": 6160,
    "Ġpostscript": 14807,
    "Ġhinges": 15211,
    "Ġincess": 8430,
    "accounted": 16501,
    "Ġkilled": 4954,
    "Ġwilt": 9643,
    "ripp": 6404,
    "goose": 19101,
    "adjust": 21757,
    "oe": 7552,
    "Ġomens": 21326,
    "Ġbawling": 25945,
    "Ġindefinite": 17176,
    "Ġpersons": 6180,
    "twain": 23698,
    "Ġdiscoverers": 26036,
    "Ġfocused": 16341,
    "ortunity": 4401,
    "Ġloafer": 18299,
    "î": 175,
    "patched": 17643,
    "Ġholds": 7975,
    "lies": 15380,
    "Ġguiltless": 16940,
    "ibility": 2391,
    "Ġsupernatural": 9872,
    "Ġsleeping": 6319,
    "fifty": 12350,
    "heavenly": 20043,
    "Ġanon": 9666,
    "bud": 10682,
    "Ġleaping": 8340,
    "Ġsuffusing": 23028,
    "Ġginger": 9210,
    "foolish": 12345,
    "Ġ41": 24079,
    "Ġheartily": 6890,
    "ball": 7792,
    "aurs": 20768,
    "Ġspring": 4120,
    "Ġch": 513,
    "delights": 19700,
    "natural": 2380,
    "Ġouter": 6859,
    "io": 3800,
    "Ġdownright": 16116,
    "Ġfinds": 6299,
    "Ġflights": 24753,
    "Ġminor": 12965,
    "Ġknotted": 17019,
    "beat": 10986,
    "Ġcongregation": 12327,
    "pursue": 24973,
    "Ġblu": 2685,
    "civilized": 17075,
    "imson": 12686,
    ":âĢĶ": 4429,
    "Ġretiring": 16280,
    "inced": 3337,
    "Ġgpus": 3731,
    "Ġhorizont": 6937,
    "Ġcredited": 25153,
    "Ġblood": 3168,
    "Ġmeant": 3548,
    "Ġdepos": 11005,
    "devoted": 20015,
    "Ġwretched": 4081,
    "comparison": 25840,
    "Ġreplaced": 13070,
    "domestic": 19824,
    "ean": 20839,
    "Ġtrace": 6181,
    "hat": 6956,
    "aft": 9583,
    "Ġconsec": 21802,
    "Ġowed": 10780,
    "Ġstayed": 7997,
    "Ġbuckler": 24859,
    "arthur": 14829,
    "Ġexclude": 19040,
    "isol": 17846,
    "Ġdoxology": 22241,
    "Ġretire": 10381,
    "Ġfolk": 10375,
    "Ġmiracle": 15092,
    "kindly": 14743,
    "Ġankers": 21443,
    "Ġsmothe": 18573,
    "Ġagric": 22511,
    "discovery": 12015,
    "unexpected": 15776,
    "Ġdemoniacal": 20555,
    "Ġtear": 6723,
    "Ġthey": 576,
    "title": 17287,
    "Ġbenjam": 22888,
    "rival": 12739,
    "Ġpenetrate": 12267,
    "Ġital": 10866,
    "ild": 1153,
    "Ġsources": 10147,
    "scr": 16240,
    "Ġcobbler": 25829,
    "Ġalas": 5921,
    "Ġpave": 8799,
    "Ġdetestable": 15097,
    "Ġtub": 7146,
    "Ġimpregn": 26022,
    "Ġbeginning": 4242,
    "library": 12996,
    "arbuck": 2024,
    "Ġmislead": 22754,
    "Ġmercifully": 20177,
    "ulus": 21861,
    "Ġirons": 7695,
    "Ġpropont": 16349,
    "Ġsinned": 18950,
    "cy": 630,
    "Ġvindict": 13604,
    "Ġship": 1094,
    "Ġlowerings": 23645,
    "Ġmig": 13855,
    "impotence": 23759,
    "Ġpredecess": 18517,
    "Ġsuffoc": 18870,
    "kick": 20935,
    "strang": 11183,
    "Ġdescription": 7429,
    "Ġscratch": 25564,
    "Ġgord": 21597,
    "icher": 9202,
    "conce": 8510,
    "Ġcentrally": 23829,
    "Ġdisenc": 22523,
    "Ġniagara": 26458,
    "apology": 22330,
    "Ġoccurrence": 14381,
    "Ġblows": 5972,
    "Ġdesigned": 7740,
    "Ġshakespeare": 20306,
    "lonely": 20956,
    "auley": 22620,
    "Ġtruth": 3321,
    "Ġexcuses": 19041,
    "Ġtom": 15631,
    "hued": 20910,
    "Ġfinery": 23122,
    "Ġsalutations": 25382,
    "Ġgriefs": 16771,
    "Ġeaves": 15674,
    "Ġlaboratory": 13611,
    "mant": 20964,
    "Ġmemorand": 23403,
    "pp": 384,
    "Ġlinks": 13954,
    "Ġaffidavit": 20723,
    "vanity": 24974,
    "Ġvirginia": 13499,
    "Ġclosed": 4603,
    "Ġmusky": 19380,
    "Ġgratify": 19501,
    "Ġphrase": 11187,
    "Ġcirculation": 16416,
    "ics": 3260,
    "Ġhighest": 3527,
    "Ġconstrained": 19239,
    "Ġobligations": 12089,
    "Ġpostponed": 20388,
    "mund": 13757,
    "Ġtransformations": 3483,
    "glow": 20873,
    "Ġcomplying": 18584,
    "\":": 9581,
    "Ġconcuss": 19046,
    "Ġpausing": 8652,
    "Ġinspire": 11994,
    "Ġcharcoal": 19006,
    "fr": 4802,
    "quickly": 14961,
    "displayed": 20735,
    "Ġtimely": 19593,
    "Ġthanked": 9458,
    "Ġwheelbarrow": 17204,
    "Ġfi": 934,
    "Ġarched": 10932,
    "assin": 22302,
    "Ġdecember": 15007,
    "inct": 3295,
    "erval": 4021,
    "Ġfailure": 13313,
    "Ġunlimited": 26222,
    "Ġstem": 15717,
    "ildad": 3530,
    "Ġsomewhat": 4895,
    "Ġlawyers": 25248,
    "Ġmitt": 21306,
    "dz": 4737,
    "Ġaudio": 24772,
    "ignomin": 23264,
    "9": 29,
    "Ġboy": 3022,
    "Ġsavages": 9911,
    "Ġtension": 13823,
    "Ġdramat": 23214,
    "Ġmotions": 8280,
    "Ġcasked": 24497,
    "Ġloaded": 8490,
    "Ġoverwhelming": 17102,
    "bing": 7791,
    "Ġsuper": 2153,
    "Ġheavens": 5050,
    "Ġhates": 21483,
    "Ġclinging": 10291,
    "Ġpouring": 12621,
    "heed": 15498,
    "pate": 21009,
    "delightful": 12194,
    "eldom": 4411,
    "Ġmus": 3396,
    "Ġcommunicated": 9061,
    "fetch": 12462,
    "Ġrecesses": 17260,
    "icked": 10332,
    "Ġsymphony": 26532,
    "Ġunc": 2124,
    "Ġinstructive": 19284,
    "8": 28,
    "dler": 13705,
    "mus": 10110,
    "opp": 6963,
    "Ġmoby": 3663,
    "awakened": 14452,
    "strugg": 21659,
    "midnight": 14901,
    "derment": 22163,
    "mix": 20973,
    "iro": 20913,
    "abated": 14019,
    "Ġinquisitive": 26317,
    "Ġimpossibility": 20646,
    "berwell": 22718,
    "Ġfrenchman": 11283,
    "Ġbolivia": 24667,
    "Ġcups": 16882,
    "Ġlime": 13947,
    "Ġsuccess": 3609,
    "Ġtemporarily": 11167,
    "den": 938,
    "Ġdirectly": 2104,
    "spl": 9139,
    "Ġrefers": 1565,
    "frankly": 20020,
    "Ġevening": 2652,
    "Ġdesolate": 10012,
    "Ġcurses": 13012,
    "Ġsuspicions": 9478,
    "rule": 15891,
    "tt": 13789,
    "Ġsunset": 8962,
    "Ġfry": 17879,
    "Ġswam": 6448,
    "Ġtram": 11091,
    "²": 115,
    "rived": 5373,
    "Ġfriendless": 23022,
    "Ġgroan": 13323,
    "Ġbreezes": 14868,
    "joint": 24006,
    "Ġgovern": 10450,
    "found": 4213,
    "Ġthence": 8881,
    "Ġencouraging": 2263,
    "sideways": 14571,
    "Ġbeggars": 20628,
    "Ġreal": 1635,
    "kept": 11715,
    "Ġstrokes": 16769,
    "Ġbarrow": 12067,
    "Ġconcluded": 5658,
    "Ġtropical": 17065,
    "Ġrendering": 16657,
    "Ġdeputation": 21837,
    "Ġreciproc": 20620,
    "Ġrules": 1917,
    "Ġpulled": 5660,
    "Ġtinker": 15130,
    "irmed": 9238,
    "Ġmatch": 4528,
    "Ġtease": 18806,
    "wretch": 17708,
    "eringly": 23000,
    "Ġsurging": 19133,
    "Ġrecede": 25968,
    "Ġannals": 17898,
    "Ġmazes": 25940,
    "Ġshift": 2284,
    "Ġawe": 7147,
    "miraculous": 26396,
    "Ġapparition": 8066,
    "sometimes": 5971,
    "Ġoutlaws": 22320,
    "Ġfancies": 10424,
    "alid": 13934,
    "Ġsurrounding": 12160,
    "pun": 9617,
    "Ġv": 399,
    "aby": 18106,
    "Ġsails": 5256,
    "abulary": 4798,
    "Ġcommis": 22668,
    "Ġbull": 7839,
    "Ġutter": 3974,
    "Ġopulence": 23626,
    "Ġsale": 14154,
    "Ġhuman": 1318,
    "erring": 11056,
    "Ġconcl": 5095,
    "Ġenjoyments": 24015,
    "calculation": 25688,
    "Ġattendant": 11285,
    "outon": 12801,
    "Ġusage": 9730,
    "Ġasph": 21895,
    "Ġsymbols": 2798,
    "abhorred": 17335,
    "Ġintelligences": 12826,
    "Ġpit": 3420,
    "unalterable": 21883,
    "Ġglobu": 23269,
    "þ": 191,
    "Ġraven": 16107,
    "Ġapplying": 13090,
    "Ġconveyed": 8334,
    "ibule": 13004,
    "iles": 2863,
    "Ġincites": 22548,
    "Ġinitialized": 3948,
    "Ġbursting": 8655,
    "taken": 7560,
    "Ġlively": 5449,
    "Ġchast": 18380,
    "Ġrevolution": 3307,
    "du": 605,
    "Ġdeficiencies": 26570,
    "Ġfasc": 12595,
    "ols": 2413,
    "Ġris": 4884,
    "Ġdoted": 21431,
    "mming": 1174,
    "Ġfol": 1289,
    "Ġsurrey": 14559,
    "Ġelias": 18640,
    "Ġdespondency": 16577,
    "Ġpersever": 10002,
    "oniously": 21256,
    "vell": 3958,
    "Ġpa": 2989,
    "Ġpaints": 23521,
    "rooms": 10432,
    "sugg": 11843,
    "rabb": 15678,
    "monster": 8591,
    "Ġearly": 2076,
    "grasping": 20638,
    "Ġwithered": 19463,
    "Ġcastaway": 16640,
    "Ġthomson": 26454,
    "Ġprejud": 6851,
    "eskye": 21448,
    "Ġrecognition": 3121,
    "achusetts": 20709,
    "Ġalco": 21779,
    "Ġpoison": 7219,
    "verest": 13990,
    "Ġretreating": 19798,
    "connections": 14427,
    "Ġeven": 1028,
    "unders": 13309,
    "arying": 9800,
    "Ġsprout": 24087,
    "Ġesc": 2251,
    "Ġinaccessible": 13933,
    "Ġamiss": 18512,
    "Ġdeacon": 18143,
    "irr": 12734,
    "Ġsixteen": 8282,
    "Ġloops": 8852,
    "Ġspectre": 16630,
    "Ġcommunicates": 24547,
    "Ġbarbs": 10531,
    "cellar": 20276,
    "unctuous": 21879,
    "Ġmak": 10778,
    "Ġforbearing": 25098,
    "listener": 24930,
    "ility": 623,
    "precisely": 6917,
    "Ġmost": 1020,
    "Ġconsecrated": 26488,
    "oted": 4596,
    "Ġhaven": 8473,
    "Ġworse": 4717,
    "Ġoffering": 3006,
    "afric": 19178,
    "drawers": 19384,
    "Ġtemperate": 16162,
    "Ġpopulous": 16826,
    "Ġmerry": 5868,
    "penetrating": 25490,
    "irting": 11684,
    "Ġofficers": 4423,
    "Ġfettered": 24568,
    "said": 4103,
    "X": 60,
    "Ġyankees": 26201,
    "ĠâĢĶâĢĶ": 25757,
    "Ġcumul": 4176,
    "Ġpostmark": 16725,
    "icted": 5936,
    "Ġreappearance": 21664,
    "Ġ83": 24459,
    "infor": 2757,
    "Ġnightfall": 23127,
    "Ġpetty": 19594,
    "gast": 20870,
    "Ġskewer": 19619,
    "Ġconst": 1907,
    "dist": 4479,
    "Ġgazette": 19499,
    "Ġsimilarity": 3167,
    "Ġnearest": 8470,
    "sust": 15422,
    "om": 315,
    "Ġcorresponds": 19820,
    "Ġunreason": 15842,
    "possible": 5743,
    "Ġsalut": 10509,
    "Ġprogressive": 5024,
    "still": 4218,
    "Ġabhorrence": 9052,
    "oriented": 2949,
    "mortals": 25409,
    "fins": 13718,
    "Ġsche": 1704,
    "Ġaid": 6122,
    "mes": 1197,
    "othe": 2612,
    "Ġsubterraneous": 20264,
    "_)": 9101,
    "ject": 875,
    "Ġleave": 2459,
    "wh": 509,
    "Ġbounce": 21391,
    "prim": 23808,
    "ahead": 12432,
    "Ġhissed": 15787,
    "Ġshrew": 21997,
    "Ġordering": 18997,
    "orted": 4602,
    "Ġassurances": 9999,
    "pl": 403,
    "mercenary": 26315,
    "Ġconstit": 8583,
    "Ġdiscourage": 3115,
    "Ġdevotees": 25376,
    "Ġbeen": 625,
    "liter": 11501,
    "Ġmalacca": 24393,
    "bodily": 17314,
    "Ġunche": 23427,
    "Ġincantation": 26257,
    "Ġpattern": 1365,
    "gment": 4388,
    "erranean": 9333,
    "abilizing": 2927,
    "Ġcurly": 18846,
    "Ġrelieve": 8223,
    "Ġbruised": 25772,
    "Ġcasts": 19424,
    "Ġ80": 24456,
    "Ġnois": 4266,
    "Ġpang": 15603,
    "Ġmurmured": 7480,
    "Ġpro": 360,
    "Ġbulkington": 14677,
    "ugnance": 12365,
    "indirectly": 18437,
    "Ġbegan": 2020,
    "Ġwid": 4631,
    "Ġinex": 6528,
    "Ġwheels": 10912,
    "Ġpour": 13913,
    "Ġbarnacled": 25536,
    "Ġperem": 12929,
    "medi": 2628,
    "Ġdorm": 4819,
    "ur": 326,
    "Ġincorpor": 13164,
    "Ġaudacity": 19881,
    "liberal": 26281,
    "Ġscent": 10284,
    "astic": 1866,
    "Ġnetworks": 596,
    "Ġdepresses": 25797,
    "Ġglistened": 20171,
    "repid": 11564,
    "Ġweights": 896,
    "Ġhampshire": 15241,
    "Ġberyls": 25775,
    "Ġuncompromised": 20602,
    "Ġsweetest": 13245,
    "Ġhidden": 1377,
    "forty": 9373,
    "Ġmorcar": 13008,
    "Ġpurchases": 24756,
    "boy": 4736,
    "Ġhers": 7888,
    "aits": 20765,
    "yield": 13808,
    "ª": 108,
    "Ġcoward": 7155,
    "Ġdownwards": 8529,
    "Ġhoofs": 14527,
    "Ġvor": 15805,
    "ditch": 17528,
    "Ġauto": 23314,
    "Ġcherub": 23284,
    "Ġpestilent": 25777,
    "Ġtranquill": 6630,
    "Ġscru": 8189,
    "Ġrel": 1099,
    "done": 6500,
    "Ġmouthful": 16574,
    "Ġbooks": 4674,
    "mbling": 3346,
    "Ġsecluded": 11991,
    "Ġregulations": 18588,
    "this": 1439,
    "Ġbuckets": 17034,
    "upwards": 18863,
    "Ġengaging": 9335,
    "ator": 1922,
    "Ġresume": 18565,
    "Ġpoets": 11819,
    "Ġmainland": 22659,
    "looking": 4034,
    "Ġdome": 15587,
    "Ġgleams": 17309,
    "Ġchina": 8039,
    "trimmed": 23946,
    "phew": 6368,
    "Ġfritters": 23255,
    "Ġjoys": 13218,
    "wins": 21128,
    "sentence": 2941,
    "Ġseeth": 21950,
    "Ġdestroying": 14728,
    "Ġdip": 13906,
    "Ġstarboard": 7604,
    "Ġbount": 15566,
    "atlantic": 15523,
    "grim": 19106,
    "Ġsentin": 16371,
    "Ġsurmised": 24919,
    "Ġte": 1158,
    "iterranean": 15548,
    "germans": 20564,
    "Ġkindliness": 23291,
    "Ġconsol": 3814,
    "Ġcogn": 11002,
    "Ġostentatious": 25736,
    "Ġtennes": 23547,
    "Ġape": 21195,
    "Ġvanquished": 22875,
    "Ġrelieved": 7665,
    "Ġgoblets": 20517,
    "Ġ(âĢľ": 15994,
    "Ġwreck": 7314,
    "ace": 715,
    "Ġraging": 14302,
    "Ġfog": 9661,
    "autumn": 23341,
    "Ġpropose": 9852,
    "Ġplayers": 12036,
    "rem": 1520,
    "oner": 6124,
    "Ġinvective": 26181,
    "Ġexc": 1831,
    "Ġlikely": 3597,
    "constantinople": 25507,
    "telling": 14438,
    "Ġunnaturally": 24870,
    "Ġfails": 13312,
    "Ġwronged": 24247,
    "inqu": 6121,
    "umed": 6554,
    "Ġlombardy": 26463,
    "Ġdeclaration": 16636,
    "Ġcasket": 19723,
    "advantage": 8658,
    "Ġneedle": 8274,
    "Ġknocking": 10559,
    "Ġendowed": 18924,
    "Ġshroud": 6483,
    "regiment": 16452,
    "Ġhymn": 24518,
    "itation": 1781,
    "Ġbroiled": 18908,
    "Ġrobbery": 11919,
    "aving": 2407,
    "Ġwhite": 1538,
    "Ġpigeon": 9515,
    "sleepy": 24729,
    "devouring": 24950,
    "rity": 13775,
    "generative": 4329,
    "onical": 21252,
    "ield": 2409,
    "Ġork": 18284,
    "rocket": 13943,
    "pequod": 7052,
    "Ġmiscellaneous": 17462,
    "Ġwe": 387,
    "Ġproving": 15750,
    "Ġadded": 2716,
    "Ġinflicted": 11365,
    "Ġstuffed": 13408,
    "Ġjump": 4502,
    "------": 12131,
    "Ġforth": 3462,
    "Ġvoice": 2190,
    "Ġbeck": 14008,
    "Ġparsee": 6413,
    "ials": 11704,
    "Ġscrut": 15944,
    "pretend": 24882,
    "Ġfeelingly": 22992,
    "loom": 18536,
    "cul": 1897,
    "love": 9293,
    "gus": 13724,
    "Ġverd": 6919,
    "Ġcomplied": 14733,
    "Ġpretending": 19314,
    "xi": 17710,
    "Ġconstraints": 2739,
    "uming": 8491,
    "arest": 4007,
    "Ġwal": 6517,
    "Ġknee": 7093,
    "Ġdepartment": 24241,
    "Ġostentatiously": 20467,
    "Ġsteepest": 3086,
    "Ġcanst": 8857,
    "Ġsending": 8774,
    "Ġjiff": 22293,
    "Ġincomp": 12894,
    "Ġtormented": 8674,
    "accept": 8897,
    "Ġbeheaded": 11655,
    "Ġslipper": 24265,
    "Ġtertiary": 15293,
    "Ġintrepid": 11703,
    "interview": 19298,
    "Ġutmost": 5496,
    "kered": 18274,
    "roofed": 26183,
    "han": 12470,
    "rene": 5379,
    "superstitiousness": 25508,
    "commendation": 26348,
    "agony": 14068,
    "Ġouthouse": 22311,
    "Ġcells": 13884,
    "Ġwavering": 23277,
    "Ġwasn": 6997,
    "Ġconstantinople": 19836,
    "Ġexacted": 23602,
    "Ġtrump": 8195,
    "marrying": 19546,
    "Ġparc": 10920,
    "Ġincorporated": 25711,
    "pair": 21011,
    "disappointment": 11425,
    "apping": 5851,
    "Ġwaited": 4907,
    "received": 9638,
    "Ġcrush": 9421,
    "Ġholiest": 18812,
    "garious": 17558,
    "cst": 10084,
    "Ġhollows": 19740,
    "Ġserpents": 13075,
    "Ġhabits": 6926,
    "izers": 18134,
    "Ġomnipotent": 13547,
    "number": 10114,
    "Ġmomentum": 1606,
    "Ġattempts": 10490,
    "ostentatious": 20651,
    "strange": 6086,
    "erness": 6434,
    "Ġplates": 11007,
    "Ġbloodthirsty": 26601,
    "Ġtypes": 8936,
    "borean": 25743,
    "Ġhunt": 6183,
    "halloa": 17090,
    "Ġwallet": 21297,
    "Ġvaliant": 9799,
    "prodigious": 17466,
    "Ġeffeminacy": 20717,
    "orious": 6007,
    "Ġlost": 2636,
    "Ġminiature": 11040,
    "Ġexciting": 23309,
    "Ġjeopard": 9942,
    "Ġsquatted": 25841,
    "Ġ180": 16606,
    "Ġavoid": 5199,
    "Ġpresence": 5031,
    "welt": 12518,
    "Ġglory": 6064,
    "Ġarg": 4764,
    "Ġph": 1548,
    "Ġinert": 15620,
    "Ġmountains": 4424,
    "Ġcarving": 14442,
    "Ġreads": 23110,
    "Ġdelayed": 9517,
    "Ġlancaster": 26340,
    "cheon": 23802,
    "Ġsilence": 3271,
    "Ġseamen": 5063,
    "Ġtossing": 8125,
    "Ġmagnet": 10389,
    "Ġdecreasing": 2444,
    "Ġstrands": 25574,
    "Ġcalendar": 18876,
    "Ġgrieved": 8296,
    "Ġthinker": 22807,
    "agon": 7870,
    "Ġmultipl": 2793,
    "Ġfainting": 16897,
    "Ġtastes": 15477,
    "hurried": 11353,
    "Ġpondered": 15165,
    "Ġyojo": 7610,
    "Ġpossessor": 23821,
    "Ġ81": 24457,
    "Ġoptimizers": 18627,
    "Ġwhistled": 24623,
    "Ġinfatuated": 20532,
    "prints": 23810,
    "Ġhis": 380,
    "anthrop": 17381,
    "dug": 18462,
    "thunder": 10262,
    "seem": 10227,
    "otic": 15743,
    "otent": 8831,
    "Ġcatastrophe": 10483,
    "vine": 10734,
    "Ġtattooed": 11378,
    "Ġcyp": 21343,
    "Ġjapanese": 10632,
    "impat": 11201,
    "Ġdecks": 6900,
    "Ġdelicacy": 6340,
    "Ġnursing": 12212,
    "Ġpills": 21464,
    "sar": 12502,
    "Ġpartake": 18670,
    "Ġvult": 12749,
    "Ġscientific": 6857,
    "Ġspiritual": 9929,
    "Ġlament": 7856,
    "Ġapproved": 16032,
    "Ġfaithfully": 14886,
    "tornadoes": 26153,
    "Ġjug": 12832,
    "pet": 4865,
    "Ġunharmed": 15138,
    "Ġcolourless": 19568,
    "Ġking": 2306,
    "Ġvisual": 5741,
    "Ġprofessional": 7299,
    "signs": 16538,
    "Ġunreasoning": 15845,
    "Ġrevol": 5537,
    "Ġunqualified": 22058,
    "Ġrecollections": 10512,
    "Ġthrees": 23399,
    "Ġallen": 5160,
    "Ġstock": 7455,
    "Ġarm": 2493,
    "superst": 11325,
    "Ġdeclines": 23960,
    "ï": 176,
    "stige": 21658,
    "Ġdisputing": 25824,
    "Ġvaliantly": 22801,
    "ynolds": 10035,
    "obstructed": 15225,
    "spikes": 10340,
    "Ġsubjects": 7072,
    "Ġjavel": 17084,
    "thesize": 24906,
    "Ġblunder": 18818,
    "collinses": 19922,
    "Ġpallidness": 25604,
    "Ġprophetic": 20018,
    "Ġber": 5698,
    "onstrate": 17768,
    "ineff": 21977,
    "Ġriv": 10746,
    "Ġsky": 3969,
    "Ġdegenerated": 20504,
    "Ġsolitudes": 22884,
    "rain": 461,
    "Ġclaret": 22347,
    "Ġvertically": 19378,
    "affection": 7487,
    "Ġtooks": 23323,
    "somehow": 12010,
    "asons": 6014,
    "bree": 15313,
    "rising": 7557,
    "trying": 15438,
    "Ġdevouring": 11856,
    "paper": 9136,
    "Ġrestoration": 19024,
    "Ġtrucks": 19511,
    "idents": 6150,
    "Ġsharkish": 24506,
    "Ġdining": 6977,
    "Ġmysteries": 11322,
    "Ġbrows": 13299,
    "Ġdeadly": 5405,
    "Ġhearts": 4971,
    "Ġbegun": 7243,
    "Ġenhance": 2824,
    "va": 4741,
    "Ġamphitheat": 26252,
    "Ġbreaking": 6310,
    "E": 41,
    "Ġhypocr": 19470,
    "Ġworthy": 7241,
    "Ġperseus": 10603,
    "Ġdistingu": 2514,
    "Ġmaintained": 12931,
    "south": 8758,
    "Ġminers": 22831,
    "Ġsou": 1885,
    "secure": 12233,
    "Ġslily": 23162,
    "Ġcompany": 3720,
    "Ġbottles": 16570,
    "Ġbeg": 1284,
    "Ġcontents": 7210,
    "Ġsanction": 20024,
    "Ġsliding": 9362,
    "aging": 2237,
    "electricity": 26385,
    "Ġimpact": 10296,
    "Ġencountering": 11269,
    "M": 49,
    "pra": 15407,
    "mounting": 25207,
    "Ġrestrictions": 20634,
    "scythes": 26402,
    "Ġgallon": 24184,
    "Ġcirclings": 26431,
    "Ġwishes": 4793,
    "Ġbuzz": 23994,
    "rich": 11517,
    "Ġfriesland": 26442,
    "Ġcases": 3961,
    "Ġcombines": 1170,
    "Ġsignificance": 13279,
    "Ġoust": 21322,
    "Ġafghan": 22626,
    "ago": 14064,
    "manifested": 20524,
    "depth": 12794,
    "Ġwith": 348,
    "gue": 12465,
    "Ġkentuck": 19890,
    "Ġaccumulated": 11929,
    "Ġgrievances": 20647,
    "Ġmeddling": 24082,
    "Ġcolour": 4459,
    "Ġupon": 718,
    "hogs": 20080,
    "loud": 11500,
    "Ġshining": 8171,
    "cou": 13694,
    "Ġshort": 2224,
    "Ġbiographical": 22760,
    "Ġchristians": 13307,
    "arrangement": 17414,
    "ultural": 22565,
    "company": 9460,
    "Ġcomplicated": 14734,
    "Ġcass": 13878,
    "Ġgrasped": 8033,
    "respectively": 24700,
    "Ġsaucer": 20604,
    "Ġdesire": 3716,
    "poise": 6171,
    "tenderly": 20529,
    "observed": 7674,
    "Ġegress": 21620,
    "Ġcircumst": 2975,
    "Ġlifetime": 13601,
    "Ġembellish": 25849,
    "Ġinsular": 19267,
    "icken": 6711,
    "Ġbackwater": 18648,
    "Ġsymmetrical": 20365,
    "Ġflaw": 23009,
    "Ġsplash": 16548,
    "Ġmagnifying": 16320,
    "Ġrather": 1495,
    "Ġmerit": 9426,
    "Ġtinkling": 25212,
    "Ġlumber": 13951,
    "elfth": 22366,
    "Ġswiss": 18881,
    "Ġwintry": 17433,
    "Ġstay": 3092,
    "Ġthinkings": 22808,
    "baboon": 25516,
    "lived": 12484,
    "accordingly": 19211,
    "jump": 10103,
    "derest": 18303,
    "Ġcubic": 20086,
    "uteronomy": 15662,
    "Ġportent": 12079,
    "usation": 18401,
    "flame": 16637,
    "Ġpeep": 6870,
    "Ġresponsiveness": 2900,
    "Ġintercepted": 25826,
    "ah": 1832,
    "Ġhummed": 18778,
    "ip": 552,
    "altering": 12637,
    "bring": 9104,
    "Ġrepine": 16410,
    "v": 90,
    "Ġoccurrences": 11050,
    "dishonourable": 26365,
    "Ġmannish": 26237,
    "Ġstain": 18064,
    "Ġinsens": 8276,
    "Ġpainter": 19167,
    "Ġlate": 3377,
    "Ġderivatives": 2372,
    "Ġporch": 19679,
    "sick": 13783,
    "hideous": 25407,
    "Ġmadness": 6601,
    "vol": 733,
    "Ġbraided": 16581,
    "Ġsuspects": 16890,
    "Ġbosoms": 16795,
    "Ġamateur": 22482,
    "contempl": 13190,
    "Ġexceptional": 19369,
    "unusual": 21876,
    "Ġaided": 17745,
    "blooded": 20021,
    "Ġmorose": 18842,
    "Ġfearless": 9874,
    "Ġsneering": 24697,
    "Ġplayful": 19236,
    "oran": 8788,
    "Ġartificial": 789,
    "Ġsand": 6235,
    "elter": 21568,
    "Ġprotruding": 16658,
    "lac": 17589,
    "¡": 99,
    "ricane": 16278,
    "Ġdying": 2135,
    "sided": 17664,
    "groom": 8739,
    "beer": 22484,
    "queequeg": 4333,
    "slowly": 9088,
    "sweet": 8685,
    "similar": 13452,
    "oftener": 23962,
    "amples": 1822,
    "Ġmccarthy": 5145,
    "Ġmention": 2986,
    "irregular": 21908,
    "home": 7341,
    "Ġmeek": 21809,
    "Ġpassage": 3884,
    "Ġkinds": 14504,
    "Ġins": 2783,
    "Ġque": 4157,
    "Ġtorrid": 25032,
    "Ġest": 2265,
    "strikes": 24670,
    "illuminated": 17452,
    "olidity": 18132,
    "Ġinsensibility": 17110,
    "Ġers": 15460,
    "marked": 9048,
    "excepting": 19705,
    "Ġhanging": 5447,
    "Ġlimp": 19179,
    "Ġtendons": 19807,
    "Ġoffspring": 16144,
    "Ġimprudent": 12845,
    "Ġskip": 1844,
    "Ġpaths": 2568,
    "compar": 14360,
    "Ġspas": 10922,
    "Ġvowed": 14083,
    "Ġmod": 492,
    "Ġbarbar": 6935,
    "Ġcastles": 16639,
    "difficulty": 12388,
    "estion": 18363,
    "Ġspermaceti": 8967,
    "Ġderiv": 1736,
    "imitably": 21708,
    "Ġhopes": 4233,
    "6": 26,
    "wants": 21129,
    "wish": 8099,
    "isl": 21373,
    "igning": 12677,
    "Ġdonkey": 23227,
    "uning": 1313,
    "Ġschedu": 1823,
    "Ġdangerously": 23934,
    "Ġscattered": 6856,
    "its": 1148,
    "Ġgrammars": 11402,
    "Ġmam": 8404,
    "Ġbrigs": 20321,
    "bulwarks": 12270,
    "Ġdelight": 2548,
    "Ġviolates": 3165,
    "Ġserpentine": 11360,
    "Ġindiam": 22950,
    "Ġplaces": 5390,
    "ylon": 24975,
    "lement": 10166,
    "iform": 2201,
    "Ġindeed": 1680,
    "secre": 18127,
    "zy": 2669,
    "Ġmoccas": 22431,
    "declared": 15117,
    "arded": 5029,
    "onged": 18410,
    "Ġcocoa": 25482,
    "Ġtrifle": 10601,
    "Ġalternate": 19984,
    "bran": 23573,
    "Ġpracticable": 19056,
    "Ġmultitudinous": 26273,
    "Ġwhisper": 6205,
    "Ġpremature": 3724,
    "rus": 5929,
    "Ġtrumpet": 9573,
    "probable": 17021,
    "Ġbrilliantly": 25120,
    "Ġspell": 8856,
    "Ġinheriting": 25354,
    "Ġsoftware": 18918,
    "Ġoper": 2120,
    "Ġthundering": 24291,
    "hound": 20894,
    "Ġaccorded": 24088,
    "Ġreeled": 13985,
    "Ġvan": 1091,
    "breat": 10077,
    "Ġmodel": 508,
    "Ġdelicate": 6480,
    "bingleys": 19633,
    "Ġanger": 5442,
    "Ġcorruption": 15224,
    "Ġlikelihood": 16500,
    "Ġlarge": 1063,
    "Ġburn": 3683,
    "unctions": 18155,
    "rossing": 18650,
    "adem": 21754,
    "Ġjulia": 22299,
    "Ġreven": 18028,
    "Ġhereabouts": 12975,
    "cheered": 23804,
    "Ġwouldst": 18493,
    "Ġmaiden": 13385,
    "Ġinjurious": 24270,
    "ged": 1511,
    "Ġcraven": 16470,
    "Ġarduous": 26531,
    "Ġattack": 5478,
    "Ġdearest": 5457,
    "speak": 5504,
    "Ġdim": 4755,
    "ips": 2590,
    "Ġwiser": 14729,
    "Ġpresto": 22227,
    "Ġstagnant": 24654,
    "Ġsaintly": 25931,
    "allah": 5838,
    "isp": 5528,
    "Ġbradstreet": 9576,
    "Ġstudies": 7955,
    "st": 316,
    "Ġletting": 10361,
    "Ġmuslin": 19381,
    "solic": 16376,
    "ú": 187,
    "purse": 20023,
    "Ġcit": 10783,
    "ousness": 10274,
    "iamond": 14590,
    "Ġquench": 22416,
    "Ġrinal": 21974,
    "Ġshe": 467,
    "Ġmingling": 20196,
    "Ġspiral": 14584,
    "endering": 21283,
    "lesome": 12962,
    "elephant": 12349,
    "Ġroyal": 5602,
    "Ġ46": 19489,
    "pleasanter": 24044,
    "Ġeddies": 23436,
    "nlp": 8750,
    "for": 941,
    "assumed": 22305,
    "adie": 18088,
    "Ġirretrie": 23372,
    "he": 264,
    "Ġimpulses": 19960,
    "Ġechoed": 20422,
    "get": 1021,
    "meanwhile": 10609,
    "Ġrobes": 16264,
    "Ġhumane": 11882,
    "jam": 15370,
    "Ġrank": 6258,
    "Ġquebec": 24132,
    "Ġdegree": 3703,
    "icip": 6389,
    "Ġlengthen": 15652,
    "alt": 12635,
    "enance": 3371,
    "Ġsympathetic": 17358,
    "Ġwithheld": 18110,
    "Ġdifferently": 10388,
    "spell": 22731,
    "Ġgo": 614,
    "Ġbeau": 9224,
    "wherever": 13117,
    "uteness": 17985,
    "introdu": 8937,
    "coming": 3561,
    "Ġburst": 4378,
    "design": 18957,
    "Ġappalling": 8499,
    "nered": 18488,
    "Ġson": 2983,
    "Ġrecollected": 8310,
    "scattered": 22990,
    "function": 4474,
    "Ġfrontispiece": 23911,
    "Ġchurning": 15936,
    "Ġbrazier": 26320,
    "Ġchildhood": 13137,
    "bbles": 13690,
    "Ġwired": 17786,
    "Ġsealed": 15814,
    "intervals": 10637,
    "Ġillum": 9399,
    "Ġlets": 18076,
    "Ġabreast": 18399,
    "anque": 13887,
    "asserted": 22306,
    "Ġsettee": 22918,
    "Ġtrowsers": 9627,
    "Ġexistence": 4705,
    "Ġdesign": 4131,
    "Ġpage": 6978,
    "Ġamph": 18511,
    "Ġperformance": 1308,
    "Ġseeing": 2888,
    "Ġcommissioned": 19894,
    "Ġantichron": 24181,
    "Ġgraphs": 25463,
    "Ġhell": 5019,
    "Ġdetermined": 2221,
    "Ġpyramids": 15113,
    "Ġungenerous": 18269,
    "Ġunderstand": 852,
    "Ġunfavourable": 17416,
    "Ġescapes": 23505,
    "Ġshaved": 21999,
    "Ġvehemently": 26039,
    "Ġdinner": 4243,
    "Ġcolon": 18762,
    "Ġsheath": 14152,
    "Ġleaped": 8825,
    "sufficient": 6635,
    "Ġherein": 16190,
    "descried": 11927,
    "Ġmoods": 14950,
    "talking": 10006,
    "Ġineffectual": 17383,
    "user": 5105,
    "Ġshun": 11707,
    "ems": 5236,
    "Ġprices": 15610,
    "infliction": 25924,
    "prev": 12864,
    "activity": 22629,
    "¢": 100,
    "murderer": 13392,
    "į": 240,
    "Ġindependently": 4245,
    "Ġcompression": 18144,
    "Ġoutwardly": 24998,
    "charge": 9447,
    "Ġbelongs": 8014,
    "Ġconceit": 7295,
    "accuracy": 9878,
    "ops": 5247,
    "Ġhaz": 12752,
    "Ġtooth": 9192,
    "pistol": 17642,
    "Ġsubdued": 11033,
    "form": 497,
    "Ġpiling": 17910,
    "Ġinsect": 12633,
    "Ġballs": 9014,
    "Ġgn": 8817,
    "ë": 172,
    "Ġcountrymen": 23594,
    "Ġwhereon": 16100,
    "Ġrandom": 1592,
    "lob": 22503,
    "Ġnovels": 15928,
    "Ġandes": 12638,
    "_.)": 7278,
    "Ġfain": 5808,
    "ŀ": 257,
    "Ġbidding": 9536,
    "Ġtorrent": 17092,
    "Ġexpensive": 12915,
    "Ġgames": 11625,
    "Ġjest": 18403,
    "ę": 218,
    "Ġlagged": 21555,
    "Ġpoem": 22586,
    "Ġchoking": 15933,
    "Ġcrosses": 23059,
    "illes": 12691,
    "mouthful": 25208,
    "Ġunique": 12776,
    "Ġ104": 24412,
    "alty": 17938,
    "allest": 5485,
    "ileries": 18058,
    "Ġalready": 2712,
    "sentiment": 12911,
    "Ġcrawl": 11375,
    "Ġstart": 3262,
    "cat": 15323,
    "leading": 15560,
    "Ġpicturesque": 14893,
    "Ġslammed": 20446,
    "around": 12605,
    "eneva": 5118,
    "Ġslippers": 19614,
    "Ġroyals": 19531,
    "Ġhouses": 6138,
    "Ġyet": 1029,
    "street": 6495,
    "alley": 23020,
    "Ġletters": 3791,
    "lake": 13748,
    "metals": 24766,
    "Ġlinguistic": 12423,
    "Ġcultiv": 13555,
    "Ġtre": 2535,
    "comfortable": 7320,
    "Ġeasterly": 25962,
    "Ġcerem": 7077,
    "Ġsalutation": 12395,
    "================": 3722,
    "Ġtrooped": 24899,
    "Ġwipe": 25764,
    "Ġinvested": 7279,
    "iasm": 8060,
    "Ġwag": 10775,
    "Ġdemi": 25548,
    "Ġeagerly": 4990,
    "Ġdeeply": 4715,
    "chants": 21689,
    "Ġoftentimes": 20154,
    "extreme": 11029,
    "Ġprofound": 5497,
    "mor": 4214,
    "riend": 1187,
    "Ġdistrust": 8203,
    "ceptive": 15978,
    "Ġwhirlwinds": 20463,
    "Ġaloud": 6252,
    "Ġclutches": 20016,
    "Ġpike": 12620,
    "Ġreservoir": 20650,
    "Ġappertain": 22213,
    "Ġwarnings": 16881,
    "missing": 13217,
    "intment": 4718,
    "Ġdurst": 20351,
    "Ġperemptorily": 17366,
    "thanking": 24330,
    "unavoid": 14061,
    "Ġturban": 23612,
    "Ġappearances": 10451,
    "Ġunsc": 22011,
    "Ġlucerne": 23862,
    "Ġrobinson": 17463,
    "skirted": 24489,
    "Ġgenus": 24429,
    "Ġspitz": 14148,
    "vict": 11540,
    "Ġconcussion": 26300,
    "broad": 8642,
    "ĠĠĠĠĠĠĠĠĠĠĠĠĠĠĠĠĠĠĠĠĠĠĠĠĠ": 24442,
    "Ġpublicly": 13321,
    "Ġproprietors": 20185,
    "towards": 5002,
    "Ġalternately": 15031,
    "isive": 10793,
    "Ġcocaine": 20720,
    "rise": 6226,
    "Ġgreenwich": 19320,
    "magnetic": 20551,
    "Ġartist": 12909,
    "Ġcom": 367,
    "Ġjokes": 18408,
    "relu": 17759,
    "whalers": 17263,
    "Ġextract": 1534,
    "Ġpawn": 12061,
    "Ġstumped": 24942,
    "Ġimpetus": 25569,
    "Ġoverhanging": 22361,
    "combination": 25486,
    "violent": 14579,
    "Ġtand": 21159,
    "precise": 19349,
    "iably": 13737,
    "claimed": 9835,
    "Ġmagician": 25058,
    "Ġanyhow": 14254,
    "Ġhumming": 12983,
    "Ġugl": 12679,
    "Ġsummoned": 9910,
    "Ġfervour": 19725,
    "daughters": 13465,
    "deser": 10402,
    "Ġcollectively": 19966,
    "Ġsucceed": 4544,
    "Ġseat": 4948,
    "Ġextremities": 19194,
    "Ġmalice": 7152,
    "Ġhealthful": 24055,
    "Ġzone": 14356,
    "desponding": 26341,
    "Ġmonarch": 14412,
    "Ġdistinction": 8885,
    "Ġjoyfully": 19344,
    "Ġtragedy": 10667,
    "ĠĠĠĠĠĠĠĠĠĠĠĠĠĠĠĠĠĠĠĠĠĠĠĠĠĠĠĠĠĠĠĠĠĠĠĠĠ": 14614,
    "Ġidentify": 12012,
    "Ġmanned": 9270,
    "Ġdisinterested": 16056,
    "audible": 17132,
    "Ġdictionary": 15111,
    "occupied": 12302,
    "Ġproviding": 1361,
    "Ġuncertain": 4068,
    "Ġindignant": 12237,
    "lied": 6507,
    "Ġbowels": 9429,
    "coach": 23559,
    "Ġlovel": 10271,
    "Ġan": 286,
    "pregn": 18492,
    "Ġexpand": 9306,
    "afternoon": 13184,
    "alleging": 23021,
    "complet": 11383,
    "Ġremedy": 18725,
    "Ġ69": 19660,
    "Ġstandpoint": 23275,
    "Ġcachalot": 17834,
    "Ġweighing": 20014,
    "A": 37,
    "Ġproved": 4882,
    "Ġsweeter": 23915,
    "Ġhart": 17921,
    "Ġreasonably": 11094,
    "leaving": 10791,
    "despicable": 24636,
    "rob": 5534,
    "quick": 6400,
    "Ġicelandic": 25886,
    "Ġsurviving": 24637,
    "uation": 17694,
    "Ġfortifications": 23619,
    "Ġindelicacy": 25695,
    "ingham": 21299,
    "Ġcompan": 2173,
    "'d": 12425,
    "Ġheap": 12675,
    "Ġdisc": 944,
    "travellers": 24318,
    "Ġconverted": 16114,
    "Ġincapable": 7423,
    "Ġunabated": 15852,
    "gies": 13725,
    "Ġwest": 5219,
    "Ġgeological": 14533,
    "Ġconce": 3422,
    "Ġgreeks": 20011,
    "Ġcoaxing": 18598,
    "Ġknots": 15008,
    "Ġfirst": 937,
    "Ġfrequently": 4678,
    "smith": 5669,
    "Ġpersuade": 5872,
    "Ġprinciples": 10010,
    "Ġquietude": 19358,
    "Ġcausal": 3409,
    "Ġpitchpoling": 14910,
    "Ġenthus": 7232,
    "encoura": 15048,
    "Ġmoderately": 22210,
    "Ġsad": 3867,
    "pardonable": 17217,
    "Ġharem": 9708,
    "hies": 17560,
    "Ġplaintiffs": 13608,
    "Ġunexpectedly": 19909,
    "oftentimes": 19419,
    "Ġflank": 8228,
    "naturalist": 23541,
    "pursuit": 20339,
    "guilt": 24067,
    "Ġcurtain": 14413,
    "Ġpatter": 834,
    "Ġbelly": 10369,
    "Ġerud": 20053,
    "fortnight": 13085,
    "camp": 15329,
    "Ġclump": 15964,
    "Ġdistinguishing": 16496,
    "Ġmeantime": 6206,
    "Ġmaxim": 3083,
    "Ġwhites": 21714,
    "Ġfowls": 8690,
    "Ġdexter": 9700,
    "_": 67,
    "Ġrepelled": 19085,
    "Ġbread": 5404,
    "umbria": 23928,
    "somewhat": 11160,
    "gress": 2213,
    "Ġautumn": 14510,
    "proceed": 8976,
    "ipped": 5790,
    "proper": 7471,
    "del": 4076,
    "Ġatonement": 21941,
    "Ġsecretly": 13270,
    "Ġcircumnavigation": 20398,
    "ators": 7829,
    "ex": 622,
    "informed": 17736,
    "Ġuneasiness": 9483,
    "Ġunion": 6840,
    "Ġsarat": 21226,
    "Ġsplendour": 20223,
    "Ġdomin": 10461,
    "Ġtr": 554,
    "Ġlullaby": 20586,
    "sou": 12503,
    "hmael": 7342,
    "Ġagent": 6277,
    "aphys": 15200,
    "Ġfix": 2508,
    "Ġheinous": 18038,
    "pockets": 16210,
    "Ġtrifled": 24674,
    "Ġtortoise": 16908,
    "Ġphilist": 16601,
    "inction": 6660,
    "asked": 8911,
    "Ġfloor": 4376,
    "fire": 6357,
    "?_âĢĿ": 12314,
    "Ġbowled": 23767,
    "Ġseasoned": 24405,
    "osed": 1960,
    "perfectly": 9085,
    "Ġreign": 13984,
    "doesn": 19819,
    ".âĢĻâĢĿ": 6739,
    "dressed": 10695,
    "bottom": 11426,
    "Ġearthly": 7989,
    "Ġplausible": 26553,
    "ispensable": 9095,
    "bantering": 25253,
    "prior": 21031,
    "Ġmajestic": 8639,
    "Ġstave": 11650,
    "Ġdish": 6136,
    "Ġasking": 5651,
    "Ġmont": 8557,
    "anyone": 16593,
    "Ġactions": 6278,
    "Ġrespectively": 23247,
    "Ġabsor": 8504,
    "Ġconjure": 17123,
    "favouring": 24762,
    "ulgences": 21862,
    "Ġinformed": 6717,
    "Ġway": 1088,
    "Ġfasting": 16355,
    "Ġreserved": 7515,
    "Ġterrify": 19359,
    "Ġbet": 1134,
    "crated": 16696,
    "commun": 15033,
    "Ġcrumpled": 16442,
    "Ġpier": 7162,
    "azing": 7704,
    "Ġeast": 5370,
    "Ġteeth": 4165,
    "ambition": 13410,
    "Ġunmethodically": 22068,
    "page": 13771,
    "subsided": 25831,
    "Ġglaring": 11905,
    "Ġtapers": 11551,
    "Ġintelligent": 1338,
    "Ġlect": 9222,
    "Ġresent": 6048,
    "Ġthrice": 10575,
    "Ġpretty": 3860,
    "Ġsolving": 2483,
    "Ġunit": 1848,
    "Ġdat": 494,
    "Ġstrasburgh": 18614,
    "reasonable": 7751,
    "buncle": 13691,
    "Ġsolar": 22883,
    "Ġintermediate": 18592,
    "Ġcalam": 13031,
    "Ġcorrected": 10448,
    "Ġbritannica": 24680,
    "Ġaccompan": 5513,
    "thomas": 18219,
    "Ġwilled": 21290,
    "anish": 2615,
    "buff": 15317,
    "Ġsembl": 19059,
    "Ġspark": 6689,
    "Ġanguish": 5583,
    "onement": 21255,
    "Ġresearch": 3206,
    "Ġwithdrawing": 11340,
    "evenings": 19461,
    "Ġcracked": 8593,
    "Ġestablished": 9069,
    "Ġimpunity": 14218,
    "emporary": 15794,
    "eted": 7591,
    "Ġstarts": 16582,
    "Ġincrust": 22547,
    "Ġbackpropagation": 1234,
    "lilies": 20960,
    "Ġmarsh": 9820,
    "Ġvineyarder": 25606,
    "ructure": 746,
    "usual": 5841,
    "spark": 18688,
    "Ġdirt": 15592,
    "Ġrephr": 21676,
    "mut": 17595,
    "Ġcirculating": 23371,
    "Ġcem": 17823,
    "Ġfrightens": 24027,
    "Ġindicated": 10469,
    "iastic": 12477,
    "Ġtemporal": 2610,
    "Ġtruce": 24115,
    "themselves": 6540,
    "Ġample": 11796,
    "Ġcontraction": 16007,
    "Ġlurking": 11289,
    "Ġmight": 964,
    "_)âĢĶ": 20143,
    "Ġfergus": 16867,
    "flames": 14711,
    "season": 14033,
    "Ġsnar": 13199,
    "Ġlegendary": 20536,
    "Ġcarrying": 6071,
    "Ġscraps": 16902,
    "Ġcomple": 2843,
    "Ġsighs": 22706,
    "Ġfowler": 16937,
    "Ġlamps": 14789,
    "muring": 17601,
    "Ġeste": 6084,
    "vain": 15447,
    "Ġconting": 18472,
    "Ġovertook": 18429,
    "Ġbressed": 21385,
    "Ġunceasingly": 20357,
    "Ġdl": 3376,
    "Ġcontroverted": 23250,
    "nx": 17607,
    "Ġgestures": 13535,
    "iltrated": 19305,
    "omeness": 18015,
    "breath": 15161,
    "confined": 24332,
    "yea": 23085,
    "Ġe": 312,
    "Ġcurls": 22977,
    "great": 3515,
    "Ġassizes": 11108,
    "nine": 13760,
    "Ġedward": 19119,
    "ixed": 4849,
    "Ġsavage": 4013,
    "Ġharbors": 24901,
    "Ġlevel": 5020,
    "Ġwilds": 16508,
    "richard": 17286,
    "thought": 3848,
    "niest": 18992,
    "Ġbarbary": 24216,
    "Ġdamned": 13131,
    "age": 505,
    "Ġlifelessly": 23047,
    "Ġfra": 1797,
    "Ġscepticism": 25927,
    "Ġcarry": 4777,
    "inquir": 9535,
    "enit": 17779,
    "Ġlovers": 9719,
    "invari": 21183,
    "Ġdishon": 12228,
    "Ġbedfellows": 23437,
    "Ġdripping": 13146,
    "Ġbequest": 21750,
    "rough": 589,
    "Ġrepast": 16411,
    "iousness": 4897,
    "Ġelix": 22646,
    "Ġremove": 7499,
    "Ġreynolds": 10209,
    "consciously": 19624,
    "Ġspire": 18308,
    "Ġdies": 11592,
    "clerval": 7950,
    "wealth": 22685,
    "Ġaccompanied": 6780,
    "Ġmand": 21303,
    "Ġnewfoundland": 26569,
    "Ġmutilated": 23956,
    "prepared": 13589,
    "Ġdocument": 15018,
    "Ġscrib": 22266,
    "eprints": 12789,
    "achine": 611,
    "Ġconc": 1841,
    "hurry": 24763,
    "fer": 1921,
    "conjectured": 25181,
    "Ġmanufact": 22325,
    "desolation": 20448,
    "inese": 12876,
    "iet": 1775,
    "Ġappropriate": 2247,
    "Ġleaves": 5021,
    "Ġbenefits": 4285,
    "Ġtowers": 16738,
    "rested": 13073,
    "Ġcanted": 17831,
    "Ġtea": 5041,
    "Ġmarvellous": 7538,
    "Ġinjuring": 24268,
    "Ġdwell": 5812,
    "Ġinhuman": 13928,
    "Ġsimple": 1624,
    "Ġrenewed": 9537,
    "Ġdetached": 10279,
    "Ġdrows": 21433,
    "Ġcomputational": 1628,
    "Ġvarying": 15809,
    "yourselves": 24956,
    "Ġsoles": 22076,
    "assist": 11765,
    "Ġarabic": 24978,
    "Ġdressed": 5081,
    "Ġlanterns": 24577,
    "gems": 20883,
    "Ġvalid": 1716,
    "wow": 21120,
    "Ġsigns": 2443,
    "Ġloomings": 24949,
    "ering": 1266,
    "shazz": 14242,
    "Ġfootfalls": 25866,
    "akes": 2218,
    "each": 7335,
    "Ġingolstadt": 8332,
    "dwell": 15340,
    "ise": 707,
    "Ġassures": 14465,
    "ont": 2620,
    "vously": 23502,
    "awful": 23112,
    "ough": 472,
    "Ġones": 3020,
    "Ġsquaring": 22837,
    "Ġfathom": 17048,
    "Ġhandy": 12933,
    "Ġknight": 9726,
    "Ġstrongest": 11135,
    "Ġsprinkled": 19495,
    "Ġloath": 7890,
    "Ġretribution": 16281,
    "Ġdominion": 16517,
    "Ġupward": 9720,
    "Ġexecutioner": 12269,
    "Ġnetherfield": 3931,
    "semble": 1523,
    "Ġbeamed": 23720,
    "fol": 4860,
    "adopt": 25544,
    "Ġsurround": 4616,
    "hunsford": 24386,
    "sleeve": 26108,
    "Ġsaddest": 16662,
    "Ġformerly": 7493,
    "summoned": 26591,
    "Ġwharves": 13505,
    "exactly": 10636,
    "Ġconjured": 25099,
    "âĢĶ.": 11753,
    "appears": 12058,
    "Ġnew": 1196,
    "Ġpopular": 6216,
    "Ġhighly": 4842,
    "plumed": 21958,
    "avo": 8517,
    "icing": 9200,
    "ht": 376,
    "akers": 9739,
    "town": 7142,
    "Ġmagnitudes": 3822,
    "Ġhopeless": 7462,
    "Ġlandsc": 11146,
    "ect": 381,
    "resides": 23670,
    "Ġflaming": 8563,
    "ph": 925,
    "jane": 4481,
    "Ġpaced": 7583,
    "ihood": 20921,
    "Ġmogul": 12859,
    "Ġmother": 2065,
    "Ġsaf": 4004,
    "Ġeag": 2968,
    "Ġinvent": 7164,
    "Ġincluded": 8930,
    "puff": 21021,
    "Ġflattening": 26049,
    "Ġexpense": 7651,
    "Ġenraged": 10244,
    "Ġunhe": 22007,
    "Ġanom": 12608,
    "Ġchas": 18379,
    "Ġrecumbent": 22741,
    "Ġfisheries": 17437,
    "Ġfurnishes": 19439,
    "Ġeu": 6390,
    "Ġlikened": 16499,
    "Ġ_": 839,
    "Ġbrooded": 23101,
    "Ġbreakers": 12053,
    "Ġark": 10276,
    "Ġcontained": 7678,
    "Ġtry": 3135,
    "Ġwhosoever": 21716,
    "atmospheric": 17776,
    "Ġplainpalais": 20736,
    "Ġprosper": 10228,
    "Ġrobins": 16265,
    "attering": 7419,
    "Ġsneeze": 24699,
    "Ġfifty": 4622,
    "Ġgar": 10838,
    "boxes": 16888,
    "Ġgordon": 26467,
    "rict": 8092,
    "Ġlonely": 6823,
    "Ġventure": 7739,
    "ribes": 23364,
    "ery": 1269,
    "games": 20879,
    "pacing": 21020,
    "service": 15036,
    "Ġem": 1924,
    "fainting": 20471,
    "tis": 4104,
    "necessity": 13366,
    "Ġclever": 7054,
    "Ġpacket": 14892,
    "Ġthorough": 6245,
    "Ġindel": 13001,
    "Ġengaged": 3429,
    "ref": 6515,
    "Ġimpo": 3441,
    "Ġembarrassment": 10626,
    "oid": 3127,
    "unched": 10235,
    "anchor": 13888,
    "Ġglimpse": 6944,
    "Ġbreed": 19071,
    "Ġacqu": 1419,
    "inlaid": 21189,
    "Ġtowards": 1729,
    "Ġfamiliarity": 16729,
    "Ġgloomily": 14800,
    "eral": 9159,
    "gentle": 5356,
    "ado": 11657,
    "suppose": 8644,
    "comprehend": 14361,
    "Ġashes": 7616,
    "yramid": 8367,
    "Ġeagerness": 6608,
    "ful": 673,
    "Ġpeaceable": 14722,
    "Ġrage": 5110,
    "animated": 14974,
    "icacy": 15656,
    "baby": 25515,
    "Ġexpose": 10327,
    "ried": 926,
    "coff": 9108,
    "tural": 21065,
    "Ġclient": 5556,
    "Ġmortifying": 13243,
    "oric": 21394,
    "Ġinquiring": 8999,
    "Ġmerryweather": 9521,
    "creat": 20799,
    "Ġstep": 754,
    "Ġrept": 13982,
    "Ġmagnus": 18956,
    "Ġeastern": 11628,
    "Ġverse": 16602,
    "Ġinvis": 6902,
    "Ġmastery": 23990,
    "Ġprem": 3426,
    "--âĢľ": 12969,
    "noise": 14327,
    "Ġcannibal": 7773,
    "Ġaqu": 17742,
    "Ġcare": 1640,
    "Ġbath": 9658,
    "Ġentra": 18695,
    "Ġshoving": 23487,
    "requiem": 24856,
    "olet": 13765,
    "Ġwanting": 6721,
    "ā": 194,
    "Ġaudacious": 13459,
    "unnatural": 15771,
    "promised": 12249,
    "iating": 3208,
    "Ġunprinciple": 18257,
    "cil": 8720,
    "Ġtrampling": 25492,
    "Ġmagical": 23096,
    "Ġsight": 2111,
    "Ġtechnical": 17191,
    "inal": 15480,
    "laying": 19771,
    "Ġloitered": 26525,
    "Ġwhel": 15865,
    "Ġprophet": 7680,
    "astrop": 3317,
    "Ġhooded": 12404,
    "Ġwants": 5742,
    "Ġwane": 21287,
    "Ġtender": 5753,
    "genteel": 19947,
    "Ġmitig": 1335,
    "jewell": 25523,
    "Ġtowing": 9193,
    "Ġcheever": 23281,
    "protruding": 24816,
    "Ġdraught": 9844,
    "Ġcocoanuts": 26362,
    "anything": 5518,
    "Ġbildad": 3780,
    "Ġscho": 4434,
    "Ġbroker": 23099,
    "Ġsoul": 2725,
    "Õ": 150,
    "rified": 15419,
    "cousins": 20116,
    "Ġwer": 12549,
    "penetrate": 20323,
    "mselves": 2864,
    "spir": 5738,
    "Ġkissed": 10044,
    "Ġcoffins": 13249,
    "rot": 21529,
    "damp": 15342,
    "Ġcomputation": 966,
    "Ġscheme": 7064,
    "spoken": 11859,
    "Ġconfidential": 9087,
    "Ġdismissed": 12889,
    "Ġreposing": 23359,
    "lower": 8879,
    "Ġinvestment": 24336,
    "Ġloggerhead": 13656,
    "Ġunsupervised": 2542,
    "umerable": 11723,
    "disposed": 25010,
    "Ġinherited": 25353,
    "Ġstrengthen": 20699,
    "Ġmonosy": 18844,
    "ingly": 2134,
    "Ġflashed": 11911,
    "Ġcircumspection": 25884,
    "Ġbeat": 4490,
    "Ġmassac": 14735,
    "Ġdictating": 20151,
    "Ġsaturn": 22899,
    "Ġinestim": 15622,
    "Ġhimself": 1351,
    "Ġautom": 3671,
    "Ġghost": 6142,
    "mean": 6438,
    "extracts": 22765,
    "Ġbird": 3755,
    "Ġinflex": 20633,
    "alarm": 15625,
    "Ġsome": 654,
    "Ġtypewriting": 16420,
    "ullied": 23102,
    "Ġrubbed": 12953,
    "fat": 8078,
    "Ġices": 21153,
    "Ĩ": 233,
    "Ġendeared": 26498,
    "Ġpatagonian": 20533,
    "Ġinhab": 5083,
    "urity": 8142,
    "Ġglances": 10372,
    "isions": 6130,
    "incident": 14591,
    "Ġstraightened": 12106,
    "Ġchrysalis": 26538,
    "desc": 1395,
    "Ġdragging": 14475,
    "Ġfallen": 5967,
    "score": 18855,
    "disappearing": 23500,
    "Ġjumped": 7096,
    "length": 7134,
    "umst": 2504,
    "Ġparcel": 15198,
    "Ġjutting": 22298,
    "Ġ&": 6513,
    "shore": 10306,
    "winds": 10521,
    "dwelt": 23869,
    "Ġattraction": 18619,
    "Ġanimating": 23422,
    "Ġdiscussion": 17194,
    "consequence": 9762,
    "Ġplayed": 9415,
    "rapid": 12667,
    "iza": 6255,
    "oms": 4592,
    "daggoo": 13706,
    "brill": 16491,
    "blunder": 24129,
    "Ġinternal": 2244,
    "beh": 5472,
    "Ġsolicitude": 10039,
    "inspector": 13645,
    "moid": 2450,
    "Ġlucas": 3832,
    "Ġcuba": 25095,
    "Ġonset": 12707,
    "Ġdrugg": 17119,
    "azine": 19130,
    "Ġrightly": 13062,
    "field": 3070,
    "ispens": 8335,
    "myself": 5113,
    "Ġalpha": 13587,
    "iance": 5279,
    "Ġmanip": 8871,
    "doubt": 6782,
    "Ġscriptures": 26235,
    "Ġserm": 9633,
    "Ġvain": 3628,
    "Ġspent": 3964,
    "Ġchannels": 26013,
    "med": 1905,
    "Ġancient": 5443,
    "Ġmaketh": 15186,
    "Ġabund": 8865,
    "nants": 17613,
    "Ġwilliam": 3481,
    "bits": 17488,
    "Ġdaint": 15591,
    "painted": 17639,
    "Ġret": 1382,
    "asleep": 21541,
    "Ġmounted": 7832,
    "cuniary": 26379,
    "fes": 20850,
    "withstanding": 8945,
    "Ġcontinues": 18809,
    "Ġvesu": 21946,
    "Ġreg": 725,
    "Ġarter": 22185,
    "Ġunstructured": 3003,
    "Ġadieu": 10050,
    "passed": 8025,
    "Ġoccurs": 1856,
    "bes": 6641,
    "continue": 16861,
    "Ġeddying": 16435,
    "Ġswiftness": 9926,
    "acknowledge": 18468,
    "ities": 1826,
    "Ġabominable": 12320,
    "Ġgranite": 22806,
    "leviathans": 19936,
    "ego": 4036,
    "Ġsoldier": 16920,
    "Ġscared": 14187,
    "Ġspec": 1261,
    "Ġengra": 7873,
    "functions": 11246,
    "caroline": 24149,
    "cannibals": 25584,
    "merit": 19280,
    "Ġcoppers": 22582,
    "Ġcoiled": 11818,
    "Ġadorn": 12787,
    "Ġacc": 565,
    "Ġmaps": 2964,
    "Ġapiece": 16813,
    "rights": 23673,
    "Ġspectators": 19405,
    "Ġnlp": 3061,
    "Ġapples": 22212,
    "fitzwilliam": 11352,
    "Ġloading": 15873,
    "husband": 8041,
    "heeded": 13833,
    "Ġcompliance": 12112,
    "Ġcivil": 4677,
    "Ġdebated": 9040,
    "Ġicy": 10747,
    "classification": 4385,
    "adier": 18089,
    "antly": 1987,
    "Ġaustral": 12170,
    "Ġinexper": 16980,
    "iability": 20919,
    "harpoons": 24285,
    "Ġspouter": 12798,
    "Ġchapter": 2956,
    "Ġreview": 18030,
    "Ġrestlessness": 23289,
    "Ġweltering": 19584,
    "ifle": 10891,
    "Ġcontinually": 5042,
    "stripped": 16945,
    "Ġundesired": 12777,
    "Ġprobability": 1126,
    "Ġcousins": 9914,
    "ual": 946,
    "loo": 10318,
    "avern": 24792,
    "roded": 17955,
    "Ġwhilst": 9218,
    "Ġtumbled": 13405,
    "Ġlifting": 10196,
    "ipt": 12476,
    "arranted": 19319,
    "otle": 21794,
    "Ġreptile": 15276,
    "bounded": 13438,
    "aged": 2604,
    "ĠdÃ¦mon": 7844,
    "opened": 7912,
    "Ġher": 427,
    "Ġhal": 1362,
    "called": 6292,
    "igan": 21695,
    "mightily": 24103,
    "Ġcour": 1769,
    "model": 4194,
    "Ġinhabitant": 19754,
    "ą": 198,
    "term": 3758,
    "Ġacquiescence": 20329,
    "Ġcrotch": 9962,
    "fabulous": 20472,
    "wol": 21121,
    "Ġgases": 21599,
    "Ġtit": 8398,
    "Ġal": 342,
    "Ġgovernor": 16490,
    "Ġbuilded": 24719,
    "keen": 12779,
    "ologically": 22869,
    "Ġdragon": 14943,
    "Ġcream": 22721,
    "Ġprize": 11946,
    "Ġjoy": 3184,
    "Ġoffend": 16143,
    "Ġunusually": 15846,
    "respond": 12541,
    "Ġchange": 1992,
    "Ġpanic": 11286,
    "Ġdropt": 23674,
    "Ġflo": 2586,
    "Ġguise": 14431,
    "solemn": 19816,
    "approach": 24833,
    "meal": 22709,
    "Ġentreaty": 10529,
    "Ġunbending": 25464,
    "Ġinterrupt": 4358,
    "Ġstars": 6149,
    "Ġprone": 18969,
    "view": 5895,
    "Ġunho": 18248,
    "Ġfinny": 23123,
    "Ġstone": 4644,
    "Ġoccasionally": 5590,
    "Ġresign": 18564,
    "Ġupp": 13991,
    "Ġlacepede": 20493,
    "prot": 6899,
    "bellies": 19972,
    "gage": 13723,
    "Ġwarmer": 19184,
    ");": 7330,
    "retreat": 23133,
    "Ġstartling": 14670,
    "Æ": 135,
    "Ġlichen": 20090,
    "Ġpoul": 15611,
    "Ġquiver": 16002,
    "virt": 15451,
    "Ġineffable": 17331,
    "rudently": 16710,
    "Ġgravesend": 15215,
    "Ġjustly": 11901,
    "xology": 21140,
    "clair": 18932,
    "Ġstrength": 4258,
    "Ġchest": 5185,
    "vap": 13802,
    "Ġshower": 11708,
    "ud": 912,
    "Ġmontan": 22973,
    "Ġmultitud": 18745,
    "Ġisn": 7865,
    "odecimoes": 25318,
    "Ġtribes": 20479,
    "Ġmagnanimous": 17410,
    "idually": 21766,
    "iag": 20915,
    "por": 2150,
    "Ġcrib": 21346,
    "Ġrainy": 24341,
    "knowledge": 7478,
    "Ġarticulated": 24433,
    "formed": 2554,
    "ul": 371,
    "Ġoppressively": 25712,
    "etical": 13957,
    "Ġcreates": 2007,
    "Ġsnake": 12059,
    "aloud": 17940,
    "Ġincluding": 2850,
    "Ġmor": 1249,
    "Ġtrifles": 16951,
    "oky": 8197,
    "attempt": 9359,
    "Ġensl": 19273,
    "stirred": 20423,
    "iation": 7343,
    "proceeding": 20140,
    "Ġwarrior": 24496,
    "Ġis": 347,
    "Ġhammer": 6093,
    "Ġsuitable": 18278,
    "Ġfle": 3089,
    "Ġinitials": 11014,
    "helm": 12169,
    "varieties": 23184,
    "tinted": 17683,
    "tling": 9142,
    "Ġoscillations": 2901,
    "designated": 26295,
    "Ġtransl": 2832,
    "remind": 23185,
    "utral": 12660,
    "felt": 5888,
    "finger": 10093,
    "arking": 16124,
    "tell": 1381,
    "ous": 477,
    "Ġwow": 15528,
    "velled": 9875,
    "istically": 14143,
    "ina": 21178,
    "itchen": 7787,
    "thereby": 14446,
    "Ġevanesc": 24294,
    "Ġcoiling": 12902,
    "Ġesq": 15107,
    "Ġstabilizing": 3655,
    "spirit": 11313,
    "Ġgrave": 5100,
    "Ġcordially": 16836,
    "Ġweighed": 8710,
    "Ġclassifies": 11834,
    "Ġabruptness": 25300,
    "Ġcompelled": 14265,
    "Ġpron": 6451,
    "Ġmoles": 22429,
    "Ġhusband": 3619,
    "lady": 4430,
    "acet": 5476,
    "should": 3265,
    "Ġsing": 3072,
    "Ġawoke": 7286,
    "mured": 6960,
    "Ġflor": 8561,
    "dance": 17519,
    "Ġtobacco": 8366,
    "itives": 17819,
    "Ġleaf": 15721,
    "Ġfade": 21405,
    "Ġtempted": 9056,
    "Ġa": 263,
    "Ġgipsies": 12406,
    "Ġcensure": 15094,
    "Ġturns": 4980,
    "Ġdoom": 6417,
    "thodox": 21985,
    "eties": 10837,
    "ree": 874,
    "Ġrespons": 2683,
    "Ġtell": 1468,
    "pur": 7806,
    "abouts": 9452,
    "Ġheedless": 14902,
    "nel": 11504,
    "Ġsupplied": 8943,
    "Ġgobern": 22422,
    "Ġmilk": 6485,
    "Ġrighteous": 18945,
    "Ġsymb": 2589,
    "remediable": 26294,
    "Ġbeak": 18079,
    "Ġenters": 11025,
    "Ġonly": 788,
    "Ġliveliest": 24775,
    "Ġears": 4489,
    "disappointed": 25191,
    "probability": 17022,
    "Ġsuperficial": 23455,
    "Ġfaultless": 24540,
    "Ġ1991": 3015,
    "Ġneighb": 14075,
    "wich": 11543,
    "rative": 17652,
    "Ġfault": 5702,
    "Ġcathedral": 17412,
    "Ġlivers": 18461,
    "Ġappare": 12817,
    "assault": 22303,
    "nihil": 9850,
    "yl": 7818,
    "bask": 20775,
    "bears": 22486,
    "last": 3801,
    "Ġblasphemer": 26116,
    "Ġpompous": 20421,
    "Ġinterest": 2246,
    "Ġpacifics": 24373,
    "Ġtip": 15471,
    "grounds": 11151,
    "eries": 6808,
    "Ġneedn": 19227,
    "Ġshould": 863,
    "Ġhill": 5626,
    "Ġcrawford": 24893,
    "Ġspecific": 2000,
    "winding": 16720,
    "direful": 25896,
    "board": 3564,
    "Ġprevent": 758,
    "ė": 216,
    "pled": 7891,
    "Ġ\"": 6119,
    "'re": 12426,
    "phon": 4126,
    "december": 25557,
    "Ġdra": 1595,
    "seat": 18125,
    "Ġgamy": 17998,
    "tier": 12512,
    "Ġtransplanted": 22438,
    "Ġscratching": 20367,
    "Ġcring": 15550,
    "Ġthem": 639,
    "gh": 3799,
    "kerchief": 7525,
    "Ġcondem": 6338,
    "limbs": 20190,
    "Ġdelicious": 14791,
    "pulled": 25145,
    "Ġgazing": 5875,
    "Ġcruelty": 9968,
    "Ġshall": 1142,
    "Ġtil": 12521,
    "Ġrecoil": 18692,
    "Ġrare": 7035,
    "hundred": 8330,
    "Ġhy": 5625,
    "Ġfragmentary": 25857,
    "nothing": 3154,
    "Ġscolding": 15199,
    "Ġlandau": 16419,
    "Ġbattalions": 25776,
    "Ġdisembow": 22534,
    "Ġhurricane": 16431,
    "Ġperturbation": 20439,
    "Ġrode": 15998,
    "Ġscrawled": 24580,
    "laid": 10109,
    "Ġscorn": 7899,
    "Ġexecute": 7505,
    "Ġcluster": 13570,
    "Ġsqu": 1037,
    "Ġhoky": 17926,
    "Ġfairest": 20461,
    "paddington": 20476,
    "hour": 7340,
    "Ġvalues": 2651,
    "abama": 12706,
    "Ġblowing": 10484,
    "Ġaccent": 10293,
    "fixed": 7548,
    "Ġdespised": 14666,
    "Ġportion": 7492,
    "Ġwickedness": 9525,
    "Ġgeomet": 3192,
    "Ġequinox": 25855,
    "Ġfantastic": 10058,
    "tot": 10728,
    "Ġtidy": 17093,
    "Ġcheek": 8577,
    "Ġairy": 23315,
    "Ġbrack": 23833,
    "gunw": 17220,
    "Ġeluded": 12918,
    "Ġgallery": 10524,
    "discovered": 8324,
    "next": 5891,
    "ump": 2286,
    "Ġrelationships": 2928,
    "Ġeng": 1162,
    "answ": 15883,
    "Ġ18": 3405,
    "thoughtfully": 24041,
    "bler": 11472,
    "ensing": 12893,
    "cape": 13696,
    "Ġwarmly": 8987,
    "Ġfortitude": 9884,
    "Ġsubsided": 14551,
    "schoolmaster": 15160,
    "Ġlesson": 7276,
    "Ġproportional": 2524,
    "Ġstatements": 7516,
    "Ġsciences": 15943,
    "hosmer": 25902,
    "Ġwhalemen": 3912,
    "}": 97,
    "oundered": 14164,
    "Ġpledge": 11600,
    "peculiar": 6886,
    "Ġdownstream": 3774,
    "Ġundulated": 19515,
    "Ġexpost": 18624,
    "Ġsophisticated": 1589,
    "Ġadequ": 10913,
    "Ġtur": 2564,
    "humanity": 24839,
    "science": 11906,
    "Ġtrans": 640,
    "ll": 1138,
    "Ġxviii": 23408,
    "bable": 8718,
    "aws": 8236,
    "Ġmou": 13854,
    "olets": 21007,
    "sprit": 11382,
    "Ġbarmaid": 19334,
    "Ġbang": 17854,
    "inition": 11556,
    "rons": 21038,
    "Ġsurplus": 26303,
    "Ġsandwiched": 26610,
    "Ġwhoever": 10975,
    "Ġsqualls": 17020,
    "asht": 4084,
    "chor": 6146,
    "instant": 8651,
    "Ġroses": 11784,
    "Ġedged": 23435,
    "generous": 16567,
    "Ġpalaces": 24090,
    "exped": 16525,
    "Ġthose": 1175,
    "Ġcurve": 22976,
    "band": 3058,
    "Ġhoisted": 5959,
    "Ġbending": 12582,
    "Ġhook": 6453,
    "Ġunrelieved": 20544,
    "Ġtwink": 8215,
    "Ġengland": 3856,
    "Ġdang": 9174,
    "Ġbroken": 3447,
    "Ġprovinc": 16742,
    "Ġstand": 1735,
    "Ġob": 860,
    "Ġplayfully": 19238,
    "Ġascended": 8665,
    "presume": 25670,
    "Ġconducted": 10502,
    "Ġtried": 3646,
    "Ġrocks": 6863,
    "idelburgh": 10560,
    "ices": 2136,
    "since": 5894,
    "Ġbony": 12584,
    "Ġpermitting": 22397,
    "Ġhimmalehs": 26229,
    "msman": 9269,
    "rev": 17756,
    "keenest": 25661,
    "Ġpow": 4636,
    "Ġveteran": 17449,
    "Ġimpersonal": 17396,
    "Ġmove": 5107,
    "hom": 12471,
    "Ġpenetrating": 17011,
    "chased": 18041,
    "impart": 21706,
    "Ġhellish": 10550,
    "Ġsustaining": 25333,
    "hemat": 3129,
    "property": 19998,
    "unwho": 21874,
    "Ġsur": 2183,
    "complained": 25838,
    "Ġdecipher": 22443,
    "ophisticated": 22475,
    "Ġsat": 1131,
    "Ġcorrectly": 9403,
    "Ġlighted": 7063,
    "Ġstring": 11825,
    "itor": 12563,
    "Ġteach": 8553,
    "Ġreached": 4024,
    "Ġhaul": 11690,
    "Ġsolomon": 11052,
    "Ġledgers": 23935,
    "isbury": 21375,
    "renew": 24450,
    "igns": 8447,
    "rocious": 21536,
    "vessels": 10625,
    "Ġslumbering": 25701,
    "ull": 1432,
    "Ġtraditions": 11443,
    "unaccountable": 15777,
    "Ġcrocod": 19627,
    "Ġsnugness": 20075,
    "divers": 15341,
    "lording": 24047,
    "Ġergo": 25029,
    "ustom": 3788,
    "Ġyelling": 18096,
    "Ġnegative": 1464,
    "Ġquit": 5246,
    "Ġoutsk": 15955,
    "Ġthreshold": 2811,
    "Ġpump": 12618,
    "Ġchronicle": 20227,
    "Ġassisting": 13256,
    "Ġmockery": 12105,
    "ssible": 2992,
    "Ġinterrupting": 19556,
    "Ġproportions": 16468,
    "Ġpir": 6818,
    "Ġsufferable": 16258,
    "Ġarithmetic": 18345,
    "Ġweig": 7618,
    "Ġmilitary": 11258,
    "Ġunbelief": 22046,
    "Ġinsc": 7585,
    "Ġcadiz": 17324,
    "joice": 9602,
    "leful": 17842,
    "Ġtorpor": 25031,
    "Ġroll": 5381,
    "Ġdrenched": 12600,
    "pond": 21012,
    "Ġaint": 17744,
    "Ġawaken": 23585,
    "Ġfervent": 14895,
    "ray": 2438,
    "cham": 10853,
    "Ġtapped": 11553,
    "penny": 22942,
    "Ġescorted": 23504,
    "Ġoccasions": 7987,
    "ediction": 17944,
    "doc": 23374,
    "uture": 1066,
    "Ġpunch": 9954,
    "hind": 20893,
    "Ġcorresponding": 13437,
    "Ġsuggestions": 24453,
    "ieged": 22577,
    "Ġgoethe": 22421,
    "orns": 12589,
    "Ġinterior": 8894,
    "Ġmatlock": 18800,
    "congenial": 25399,
    "Ġphaeton": 17464,
    "Ġwrought": 11942,
    "Ġdaylight": 10350,
    "hoping": 17566,
    "Ġchaff": 18383,
    "Ġdiff": 3114,
    "Ġlambton": 10657,
    "Ġsituations": 10491,
    "Ġseriously": 7061,
    "Ġnar": 7375,
    "som": 3294,
    "Ġhovers": 19078,
    "Ġrude": 7234,
    "Ġresolve": 13169,
    "prevailed": 17344,
    "Ġtenants": 23545,
    "Ġpanthe": 19652,
    "Ġchronic": 9928,
    "Ġsemi": 11967,
    "appointment": 24056,
    "sense": 11523,
    "Ġwharf": 9559,
    "embarrassed": 20595,
    "ignor": 8961,
    "Ġforefinger": 16444,
    "Ġporpoises": 13381,
    "Ġpainting": 13140,
    "Ġguido": 2977,
    "conda": 18993,
    "obed": 14445,
    "liked": 10508,
    "buffalo": 20562,
    "Ġdoor": 1740,
    "Ġappalled": 22215,
    "Ġfolding": 19726,
    "vellers": 16673,
    "endeav": 7150,
    "Ġdumbly": 24985,
    "reason": 4412,
    "Ġdebt": 12165,
    "Ġsomnambul": 26576,
    "Ġillinois": 19136,
    "return": 5489,
    "Ġsignificantly": 4517,
    "aves": 3598,
    "Ġclipping": 2441,
    "Ġcrooked": 11281,
    "Ġthreaten": 24374,
    "zed": 8103,
    "ga": 17550,
    "Ġblo": 2733,
    "slipped": 25529,
    "Ġfiner": 13050,
    "Ġbrah": 19355,
    "Ġerred": 21155,
    "Ġboxes": 13373,
    "hilar": 25081,
    "Ġdialogue": 12402,
    "Ġutility": 23511,
    "Ġindex": 17049,
    "Ġraw": 3322,
    "Ġtheoretically": 3565,
    "elev": 12456,
    "Ġrevelations": 25223,
    "spect": 3235,
    "Ġminute": 4277,
    "ê": 171,
    "Ġexceeded": 14432,
    "Ġpriests": 15040,
    "Ġforlorn": 14014,
    "Ġcle": 1510,
    "----": 4058,
    "Ġhose": 12624,
    "Ġwarden": 17224,
    "atural": 949,
    "abashed": 21789,
    "m": 81,
    "Ġinformation": 1048,
    "poison": 14391,
    "abash": 18107,
    "Ġnonce": 23232,
    "Ġhideousness": 16915,
    "Ġprocession": 11773,
    "Ġlethar": 21743,
    "rippa": 11341,
    "Ġcontradict": 12383,
    "numbers": 17616,
    "Ġdesperate": 7776,
    "ations": 711,
    "placidity": 25988,
    "century": 20045,
    "Ġalleg": 14016,
    "Ġconcernment": 23643,
    "Ġloungers": 24862,
    "invested": 17117,
    "Ġexception": 11216,
    "weaknesses": 26030,
    "Ġalpine": 18105,
    "Ġinhabitants": 7524,
    "Ġtragedies": 25241,
    "marriage": 7744,
    "Ġslowly": 3617,
    "drifting": 19823,
    "Ġmanhandle": 22326,
    "spades": 14332,
    "odecimo": 11444,
    "instruct": 19541,
    "Ġdey": 11674,
    "Ġdelay": 5748,
    "enough": 6809,
    "Ġcollecting": 12284,
    "roll": 9196,
    "Ġsequences": 1752,
    "Ġcopying": 17068,
    "Ġcivilly": 19602,
    "Ġaffrighted": 13571,
    "Ġvery": 636,
    "plings": 11695,
    "Ġcub": 8413,
    "aken": 1867,
    "directed": 20403,
    "Ġbackbone": 22652,
    "Ġtorrents": 20054,
    "Ġxxii": 24478,
    "Ġmiraculous": 13546,
    "Ġknave": 11272,
    "Ġbleeding": 14879,
    "garity": 17554,
    "come": 2378,
    "Ġploughing": 26259,
    "Ġrecol": 4030,
    "Ġfr": 1695,
    "Ġstricken": 9775,
    "ucumber": 19058,
    "has": 4015,
    "Ġjustice": 5111,
    "Ġsuffers": 2974,
    "Ġexquis": 9698,
    "_âĢĶâĢĿ": 20762,
    "Ġportentous": 15228,
    "Ġsenseless": 12076,
    "whaleman": 23434,
    "Ġgloss": 11955,
    "unable": 14058,
    "mare": 17599,
    "idable": 8145,
    "Ġblades": 11893,
    "Ġplate": 8898,
    "Ġwhipcord": 20093,
    "Ġstrides": 22614,
    "Ġdexterously": 25295,
    "oup": 2012,
    "Ġgums": 21608,
    "Ġmornings": 16234,
    "Ġkeepers": 23535,
    "ins": 1379,
    "Ġinsurg": 23679,
    "lance": 12479,
    "acceler": 23597,
    "Ġsits": 10768,
    "Ġcrav": 19172,
    "Ġrecover": 9791,
    "ruck": 6848,
    "Ġaversion": 18865,
    "Ġadvisable": 11442,
    "Ġringbolts": 24196,
    "Ġlessened": 19087,
    "Ġgenerative": 5644,
    "Ġexclaim": 11221,
    "Ġvehic": 8933,
    "eag": 20841,
    "Ġcommunication": 1868,
    "Ġceases": 19312,
    "atived": 21261,
    "Ġraiment": 22638,
    "Ġpia": 21462,
    "Ġnecess": 3474,
    "Ġduplicate": 17215,
    "Ġbend": 9170,
    "unity": 4150,
    "insufferable": 21191,
    "Ġpresentiment": 18988,
    "Ġbrew": 23342,
    "despair": 8343,
    "Ġhundred": 2693,
    "Ġanalogy": 25639,
    "war": 6802,
    "Ġgreenness": 23765,
    "blending": 24128,
    "Ġexclusiveness": 23924,
    "grand": 7969,
    "Ġinspection": 14545,
    "united": 14059,
    "Ġlibraries": 20613,
    "Ġquakers": 22413,
    "Ġnevertheless": 5040,
    "links": 20957,
    "inously": 21185,
    "Ġabandonment": 25603,
    "Ġthirt": 13938,
    "Ġency": 21930,
    "miseries": 16757,
    "exasper": 22424,
    "inder": 9152,
    "Ġhackluyt": 25655,
    "unw": 14056,
    "Ġpoured": 8800,
    "matlock": 23468,
    "Ġlingu": 11613,
    "insist": 23061,
    "Ġexist": 9231,
    "cold": 9589,
    "Ġpatterns": 1213,
    "Ġgoring": 21601,
    "Ġ66": 24369,
    "Ġraving": 16106,
    "Ġunheard": 22022,
    "torture": 26151,
    "Ġtort": 5901,
    "Ġindulging": 16904,
    "Ġphantom": 8706,
    "Ġpay": 3963,
    "Ġspiracle": 14149,
    "craft": 12244,
    "Ġreturned": 2894,
    "oney": 3047,
    "ni": 1665,
    "Ġperadventure": 22396,
    "Ġheeds": 24520,
    "Ġblossom": 26312,
    "rying": 3186,
    "enial": 17780,
    "ruit": 22169,
    "aguy": 21907,
    "Ġtusked": 25426,
    "ashes": 6015,
    "Ġscre": 9735,
    "Ġbreathlessly": 24280,
    "sharpening": 22463,
    "Ġheads": 3739,
    "Ġsurprised": 3830,
    "ogy": 22704,
    "nerable": 16276,
    "Ġ115": 24439,
    "Ġlaure": 16909,
    "Ġindist": 14407,
    "oked": 4306,
    "win": 6801,
    "Ġsneer": 13446,
    "itche": 7578,
    "Ġcoroner": 7510,
    "hero": 21203,
    "nne": 20988,
    "Ġglitter": 25122,
    "abst": 21785,
    "Ġcapt": 1292,
    "homage": 25616,
    "raint": 18316,
    "Ġdeserves": 13288,
    "iom": 20914,
    "rose": 6013,
    "Ġnorthumbria": 24171,
    "pushed": 21022,
    "infant": 19826,
    "bru": 12437,
    "Ġstruggled": 9904,
    "Ġmajor": 13290,
    "Ġblush": 14401,
    "grie": 12468,
    "Ġroot": 2650,
    "Ġruth": 14092,
    "Ġagency": 11803,
    "acon": 10681,
    "Ġtop": 2472,
    "boats": 6204,
    "Ġordinary": 6096,
    "Ġstepfather": 7221,
    "party": 8992,
    "ustry": 18361,
    "Ġinfatuation": 25856,
    "queg": 1771,
    "ulate": 5233,
    "Ġargu": 10934,
    "ries": 3354,
    "befall": 22491,
    "Ġhoneymoon": 25645,
    "Ġlowest": 11122,
    "Ġcourtship": 24135,
    "hurt": 19877,
    "chie": 21687,
    "Ġlobsters": 13516,
    "Ġtuesday": 9626,
    "Ġlives": 4824,
    "mystic": 25316,
    "Ġimpertinence": 11366,
    "floor": 14935,
    "Ġrestricted": 19025,
    "Ġsust": 7006,
    "Ġcou": 5286,
    "Ġcompar": 4769,
    "Ġrecklessness": 24745,
    "Ġfrozen": 9012,
    "Ġfriends": 2654,
    "sounded": 12264,
    "Ġdrawn": 4274,
    "Ġconsecrate": 26489,
    "ethe": 9676,
    "Ġdimens": 3150,
    "warn": 11542,
    "umns": 14147,
    "Ġprevailed": 7777,
    "alas": 8803,
    "ret": 1476,
    "Ġsailors": 4275,
    "Ġattended": 5391,
    "noble": 7921,
    "Ġcrystals": 20226,
    "Ġbanished": 10616,
    "Ġsanta": 26420,
    "Ġjustified": 11902,
    "more": 1034,
    "instance": 24168,
    "uding": 16147,
    "oring": 1859,
    "melted": 25206,
    "Ġheaving": 7600,
    "Ġpoet": 8207,
    "Ġspringing": 10518,
    "bons": 17486,
    "lux": 14226,
    "Ġindicate": 23721,
    "Ġgentlemen": 3641,
    "Ġtendency": 11329,
    "Ġhaggerston": 26452,
    "Ġhor": 1662,
    "operation": 13500,
    "Ġpeas": 8533,
    "Ġtexture": 19159,
    "adventurous": 25361,
    "Ġflattering": 13026,
    "Ġgratitude": 5599,
    "Ġtrout": 22354,
    "ogrand": 26261,
    "?âĢĿâĢĶ": 12892,
    "agery": 21904,
    "discover": 10539,
    "Ġst": 332,
    "yd": 21141,
    "Ġpassion": 4556,
    "Ġsodden": 25535,
    "Ġbegged": 8230,
    "rints": 12500,
    "Ġthinks": 6169,
    "Ġ150": 22822,
    "el": 306,
    "Ġchiefly": 5766,
    "Ġdecoyed": 18486,
    "Ġdif": 871,
    "dering": 5305,
    "Ġmanhat": 22324,
    "Ġsmilingly": 22557,
    "Ġscreaming": 13422,
    "iff": 3905,
    "Ġcynicism": 25771,
    "sis": 1846,
    "Ġencodings": 4773,
    "bye": 5949,
    "enced": 4294,
    "Ġwalk": 1825,
    "ousings": 18332,
    "Ġcommence": 6167,
    "night": 2167,
    "Ġquiescent": 26242,
    "Ġaffront": 18789,
    "Ġveiled": 16200,
    "Ġsucc": 12780,
    "Ġavenue": 13620,
    "Ġru": 950,
    "Ġadvers": 4885,
    "Ġsimul": 1808,
    "Ġattested": 22619,
    "Ġinducement": 16843,
    "Ġindignantly": 16939,
    "Ġprimitive": 25061,
    "ierce": 14390,
    "Ġwheel": 9717,
    "Ġsociet": 9449,
    "Ġbuy": 8298,
    "Ġlistening": 6318,
    "ĠĠĠĠĠĠĠĠĠĠĠĠĠĠ": 22560,
    ",--": 2478,
    "proble": 9393,
    "easily": 17534,
    "Ġapprove": 12870,
    "Ġcarefully": 6304,
    "ishe": 13890,
    "glancing": 11214,
    "lamp": 9608,
    "Ġcalculus": 23980,
    "Ġrecently": 11860,
    "shame": 16025,
    "scand": 18854,
    "Ġdaggoo": 5441,
    "woman": 5898,
    "Ġunicorn": 22054,
    "isher": 2880,
    "Ġuntoward": 19164,
    "Ġdyspepsia": 20642,
    "Ġclinched": 17393,
    "compl": 6873,
    "Ġhealthcare": 8015,
    "Ġcripple": 11440,
    "Ġschemes": 11131,
    "fulfilment": 26025,
    "Ġlaz": 7378,
    "carpet": 25202,
    "Ġsatisfaction": 5667,
    "Ġfidget": 15188,
    "Ġaltitude": 26202,
    "infl": 15487,
    "regret": 16451,
    "gent": 7129,
    "Ġtiar": 21166,
    "Ġmaterials": 11288,
    "saddest": 25527,
    "Ġshop": 9251,
    "Ġseasonable": 24406,
    "heads": 4094,
    "danced": 20827,
    "Ġbefriend": 18081,
    "thirty": 12759,
    "prophecy": 22826,
    "Ġwildness": 14603,
    "Ġcataract": 23426,
    "morrow": 4571,
    "social": 11022,
    "garn": 20869,
    "Ġdissatisfied": 14256,
    "Ġacid": 22679,
    "Ġnarrowed": 24355,
    "Ġcalcul": 3636,
    "Ġchicha": 15935,
    "tiest": 21080,
    "play": 5099,
    "Ġide": 2122,
    "Ġoak": 6128,
    "Ġcarved": 7946,
    "Ġstruggle": 3675,
    "animals": 24738,
    "Ġtoiling": 15633,
    "Ġacquiesced": 25493,
    "Ġsell": 7825,
    "tips": 13795,
    "Ġsaintsbury": 26372,
    "anesc": 21358,
    "Ġsavannah": 17415,
    "promise": 12248,
    "romeda": 17262,
    "ploy": 2179,
    "Ġmultiple": 1188,
    "Ġappropriated": 23483,
    "future": 13716,
    "Ġwakeful": 24266,
    "Ġlicensing": 20091,
    "Ġinduce": 7762,
    "Ġclean": 5652,
    "Ġfetch": 7769,
    "Ġ53": 19639,
    "Ġtennessee": 26596,
    "Ġhull": 5446,
    "icular": 2022,
    "Ġobli": 9315,
    "Ġinvited": 6903,
    "Ġfather": 1451,
    "Ġepo": 21618,
    "Ġcomrades": 9554,
    "brimmed": 14588,
    "ished": 1428,
    "Ġpanting": 11602,
    "vity": 7815,
    "Ġrecollection": 6620,
    "Ġtempest": 8212,
    "Ġstochastic": 3269,
    "Ġstile": 21729,
    "masters": 16834,
    "nursery": 26399,
    "civilities": 24971,
    "Ġdard": 21420,
    "dies": 15337,
    "Ġkicking": 16901,
    "header": 11931,
    "Ġoverpower": 12840,
    "Ġsanctified": 25883,
    "Ġcompanies": 14558,
    "avast": 8896,
    "Ġpassages": 12967,
    "ishing": 1143,
    "Ġbumping": 25280,
    "iant": 5427,
    "Ġdiabolical": 20341,
    "Ġchimney": 6497,
    "Ġpsych": 10176,
    "wrinkles": 16554,
    "Ġbuffalo": 11429,
    "Ġscraped": 16903,
    "test": 13791,
    "Ġswitching": 23054,
    "remed": 18952,
    "Ġincurable": 22549,
    "Ġbehaved": 13252,
    "cob": 10086,
    "Ġdeterminate": 23003,
    "Ġemaciated": 20637,
    "Ġimmortality": 26325,
    "Ġdined": 9176,
    "Ġallowance": 14388,
    "smooth": 20247,
    "Ġassigned": 16310,
    "haired": 14765,
    "Ġprocessing": 897,
    "Ġportcullis": 26603,
    "Ġgravely": 7882,
    "races": 21627,
    "alous": 7372,
    "Ġdaw": 21427,
    "Ġoverthrown": 18431,
    "Ġpraised": 19552,
    "Ġble": 5223,
    "Ġsnoo": 21227,
    "magnitude": 17248,
    "Ġassented": 17337,
    "Ġlads": 8596,
    "Ġabode": 7900,
    "Ġtwinkled": 14311,
    "Ġconference": 15745,
    "thrown": 8480,
    "pat": 10116,
    "Ġstri": 2805,
    "Ġshaping": 22000,
    "amidst": 25652,
    "Ġspir": 2430,
    "favour": 9548,
    "Ġrect": 18025,
    "Ġstaying": 8283,
    "cially": 3488,
    "Ġraptures": 13495,
    "Ġheaths": 25972,
    "weigh": 18665,
    "Ġworaciousness": 22926,
    "intelligence": 5882,
    "Ġmansion": 17809,
    "commanders": 16989,
    "Ġbuying": 23993,
    "Ġendeavouring": 8034,
    "Ġcompletion": 12145,
    "iece": 3232,
    "Ġdeprived": 8209,
    "Ġdrought": 19277,
    "Ġtwit": 12926,
    "meth": 11502,
    "pyramid": 21029,
    "Ġdint": 15589,
    "Ġfilters": 3928,
    "Ġimmured": 24070,
    "Ġcandelabra": 26602,
    "prob": 7069,
    "beds": 16586,
    "Ġunrivalled": 26519,
    "okened": 15983,
    "Ġorganizations": 12312,
    "Ġvul": 10247,
    "forgive": 18717,
    "sudden": 5315,
    "Ġindiscriminately": 20626,
    "Ġmarvels": 11083,
    "ather": 740,
    "Ġdiabolism": 25514,
    "Ġdifficulties": 11225,
    "Ġputting": 5326,
    "Ġexempl": 21827,
    "Ġpatroness": 13509,
    "Ġsurface": 5119,
    "resembling": 25932,
    "Ġshipwrecked": 25687,
    "wail": 21124,
    "Ġutterly": 6100,
    "Ġanalysis": 1913,
    "usable": 22286,
    "Ġinequalities": 26453,
    "Ġlandowner": 23379,
    "Ġsocks": 14133,
    "Ġsucking": 12782,
    "Ġsufficiently": 8973,
    "Ġoutrage": 15957,
    "Ġexped": 7650,
    "appre": 14370,
    "ainty": 21784,
    "arris": 13208,
    "Ġporing": 21465,
    "degree": 12795,
    "Ġbas": 6380,
    "bingley": 4926,
    "Ġcomfits": 21844,
    "Ġimpass": 15985,
    "archical": 1926,
    "deav": 2673,
    "Ġmaggie": 26291,
    "Ġstript": 23692,
    "perform": 15898,
    "Ġcompacted": 23506,
    "Ġeuroc": 14958,
    "be": 669,
    "Ġsermons": 20193,
    "nonsense": 17615,
    "Ġrecounted": 22739,
    "Ġavert": 14424,
    "Ġutensils": 23512,
    "Ġdownst": 3558,
    "ĠĠĠĠĠĠĠĠĠĠ": 18577,
    "Ġcapacity": 10440,
    "fred": 20854,
    "Ġinstantaneous": 14611,
    "Ġintrospect": 15827,
    "Ġcruises": 23704,
    "Ġfalsehood": 10523,
    "sw": 4739,
    "Ġadhering": 14139,
    "dry": 13702,
    "Ġknives": 14836,
    "Ġdestruction": 6600,
    "portent": 25412,
    "Ġdisput": 14255,
    "neys": 23581,
    "Ġcoldness": 23757,
    "shirt": 22457,
    "Ġheed": 5630,
    "law": 6115,
    "at": 268,
    "Ġhermits": 22071,
    "Ġsneezing": 12245,
    "cull": 20808,
    "invol": 12527,
    "mer": 2836,
    "Ġpersu": 3562,
    "Ġtout": 17719,
    "Ġrogue": 22402,
    "Ġaxis": 12305,
    "Ġrecovery": 11441,
    "Ġcastors": 23973,
    "nest": 10113,
    "õ": 182,
    "Ġemerged": 8684,
    "movement": 25577,
    "Ġpresented": 5183,
    "Ġone": 570,
    "accessible": 13638,
    "Ġslavery": 16306,
    "secondly": 16984,
    "Ġpovelson": 26552,
    "inished": 17734,
    "Ġdie": 3962,
    "Ġsteered": 11092,
    "Ġme": 352,
    "Ġliv": 6679,
    "Ġsaying": 3247,
    "turned": 7306,
    "Ġabide": 14190,
    "sales": 17667,
    "Ġeludes": 26554,
    "Ġbrush": 17864,
    "quarrel": 20013,
    "Ġloose": 4647,
    "Ġinserting": 19905,
    "ootiful": 17372,
    "adventures": 20255,
    "lowering": 16021,
    "Ġseating": 18199,
    "Ġpattered": 19034,
    "Ġnomin": 10190,
    "Ġunprecedented": 15854,
    "Ġdepths": 4324,
    "®": 111,
    "Ġalluded": 7884,
    "Ġmutineer": 19416,
    "eked": 16398,
    "ective": 18174,
    "whalemen": 10431,
    "Ġlatter": 3992,
    "bear": 10314,
    "ĠĠĠĠĠĠĠĠĠĠĠĠĠĠĠĠĠĠĠĠĠĠĠĠĠĠĠĠĠ": 19698,
    "Ġincor": 2607,
    "Ġshark": 5550,
    "Ġtwee": 22672,
    "Ġtoad": 21507,
    "tumult": 12421,
    "Ġhanding": 16129,
    "neither": 9756,
    "phys": 18711,
    "Ġgurgling": 17445,
    "crat": 24097,
    "pitch": 13297,
    "honey": 20904,
    "Ġbru": 13894,
    "slackened": 26094,
    "Ġbrut": 18768,
    "Ġbecoming": 4395,
    "Ġteneriffe": 26414,
    "poled": 22904,
    "Ġshr": 4225,
    "Ġwithal": 18109,
    "inclined": 10639,
    "ete": 9203,
    "fate": 17539,
    "Ġfervently": 25877,
    "Ġput": 1798,
    "dirty": 20833,
    "Ġtimbers": 14838,
    "Ġquestionable": 19265,
    "Ġbeh": 1801,
    "Ġpervers": 11781,
    "Ġpalsied": 25779,
    "Ġgloves": 8574,
    "unvarying": 21884,
    "exerc": 16014,
    "romised": 14111,
    "ling": 735,
    "Ġanchors": 12610,
    "Ġdrags": 16941,
    "attered": 4020,
    "Ġtow": 4393,
    "Ġinde": 7371,
    "some": 2234,
    "ave": 978,
    "Ġpots": 9427,
    "boys": 13358,
    "Ġjabbering": 22300,
    "Ġfund": 2846,
    "greg": 6647,
    "Ġshreds": 12767,
    "merry": 16536,
    "Ġbellies": 13354,
    "Ġrecomm": 4996,
    "various": 10397,
    "Ġfishes": 11590,
    "goodness": 19287,
    "events": 12315,
    "Ġoath": 7833,
    "Ġparchment": 13651,
    "Ġtents": 13817,
    "Ġrejoined": 14926,
    "Ġbasis": 16961,
    "Ġpetulance": 24227,
    "royal": 11393,
    "Ġpad": 8124,
    "Ġgave": 2217,
    "servants": 15037,
    "leave": 7837,
    "Ġunprincipled": 20707,
    "deacon": 22126,
    "Ġdeceit": 13480,
    "Ġnecessary": 4471,
    "Ġbeasts": 10617,
    "Ġactively": 18653,
    "Ġexcl": 3473,
    "Ġspending": 10923,
    "Ġbiases": 2398,
    "Ġyarns": 15194,
    "remental": 21246,
    "wheeler": 16188,
    "Ġconcise": 23320,
    "commander": 16987,
    "avor": 14275,
    "pag": 11510,
    "Ġshaded": 14104,
    "Ġven": 4646,
    "Ġmarch": 4082,
    "Ġ1820": 25718,
    "Ġimprobable": 9788,
    "Ġsuperlatively": 26075,
    "Ġcompanions": 5865,
    "Ġjamming": 17264,
    "Ġfirmly": 8013,
    "Ġinsatiate": 19269,
    "Ġthousandth": 23682,
    "Ġgrie": 3583,
    "Ġplaything": 19237,
    "Ġnumerical": 4244,
    "Ġoscill": 2859,
    "fed": 11487,
    "marry": 13322,
    "bunger": 20400,
    "Ġconnection": 5479,
    "bordered": 17498,
    "Ġoff": 903,
    "ii": 4016,
    "Ġcinque": 20484,
    "calmly": 20138,
    "Ġjogged": 26236,
    "Ġcabaco": 13166,
    "amy": 8467,
    "Ġrolled": 4427,
    "accompanied": 12420,
    "residence": 19262,
    "Ġexpeditions": 24954,
    "Ġshipped": 9714,
    "Ġwednesday": 9024,
    "Ġbarbarously": 24819,
    "Ġprofane": 13151,
    "raid": 3282,
    "gences": 20876,
    "Ġprodigious": 8056,
    "plicable": 10256,
    "bee": 16036,
    "phenomenon": 17648,
    "Ġ110": 24435,
    "Ġnay": 5711,
    "Ġfascinated": 25635,
    "Ġaccursed": 9448,
    "Ġgemini": 26469,
    "urpr": 2289,
    "Ġintellig": 522,
    "lantern": 17427,
    "rolled": 9059,
    "uling": 2256,
    "wise": 2573,
    "Ġalteration": 9545,
    "crippled": 26384,
    "Ġup": 462,
    "Ġ/*": 10139,
    "Ġmetropolis": 17274,
    "Ġsteeply": 23722,
    "Ġspectacle": 10496,
    "ton": 1727,
    "ool": 17618,
    "john": 11497,
    "though": 2116,
    "wid": 10134,
    "Ġtemptations": 24508,
    "Ġilluminate": 17192,
    "riers": 18185,
    "Ġvisiting": 10357,
    "Ġcrammed": 16471,
    "Ġconsume": 12956,
    "pole": 9332,
    "Ġprofessors": 14724,
    "cible": 20805,
    "ghan": 19453,
    "Ġdazzling": 15210,
    "Ġhish": 21910,
    "spin": 22730,
    "Ġabating": 22274,
    "Ġdescribing": 19253,
    "Ġcultivation": 17145,
    "Ġmystery": 5509,
    "itative": 13869,
    "stead": 10846,
    "covenant": 23561,
    "Ġpos": 1011,
    "Ġentropy": 2030,
    "aggo": 5097,
    "Ġcamel": 25349,
    "Ġattain": 12746,
    "danish": 20832,
    "writes": 4987,
    "Ġweep": 7619,
    "Ġsoothing": 8172,
    "Ġwhine": 21712,
    "Ġheavy": 3742,
    "Ġbeth": 9657,
    "ally": 532,
    "contact": 23726,
    "Ġfestival": 25445,
    "ban": 9584,
    "Ġmean": 743,
    "Ġcaulking": 20292,
    "Ġoy": 15544,
    "Ġindian": 4130,
    "imprudence": 16556,
    "Ġwhistle": 9065,
    "Ġclang": 15961,
    "towing": 17689,
    "odecim": 9831,
    "sheet": 16285,
    "ce": 313,
    "Ġhulls": 13925,
    "Ġtongue": 6347,
    "clim": 18929,
    "Ġmo": 628,
    "ĝ": 222,
    "Ġconversing": 14633,
    "Ġsitting": 3604,
    "summit": 23415,
    "Ġfluttered": 16250,
    "Ġbart": 17856,
    "publ": 17638,
    "tracks": 19637,
    "Ġcompens": 14263,
    "Ġappeal": 16315,
    "Ġilluminated": 20174,
    "Ġtroops": 24898,
    "Ġincorporate": 20453,
    "Ġdeparted": 5562,
    "Ġgreatness": 12940,
    "Ġweeks": 4564,
    "Ġloathing": 15066,
    "volous": 18599,
    "itories": 15547,
    "inople": 13828,
    "Ġgeneva": 5450,
    "Ġbranch": 8331,
    "dut": 10087,
    "scans": 22984,
    "Ġchase": 3945,
    "rated": 6227,
    "cart": 10688,
    "blast": 9587,
    "Ġgurglings": 26465,
    "os": 526,
    "Ġappellation": 22216,
    "Ġdriver": 16474,
    "ĠĊ": 12520,
    "âĢĺ": 940,
    "timidity": 25753,
    "Ġfuss": 13904,
    "Ġcomplement": 23708,
    "Ġaccounts": 7207,
    "Ġcate": 4108,
    "rom": 420,
    "Ġexcite": 11964,
    "Ġconfusion": 7273,
    "Ġcro": 4871,
    "ushion": 14719,
    "Ġimmovable": 15896,
    "Ġsweet": 3465,
    "supplementary": 20548,
    "Ġcaused": 5048,
    "Ġadmitted": 8986,
    "Ã": 132,
    "sacrifice": 13491,
    "daughter": 8353,
    "hon": 6793,
    "Ġassemblage": 26351,
    "Ġhears": 8138,
    "acher": 6868,
    "sworn": 24256,
    "Ġevidently": 6759,
    "Ġalleviated": 26203,
    "lovely": 16045,
    "organic": 25946,
    "hatch": 15363,
    "atters": 18505,
    "chancing": 22912,
    "mber": 7803,
    "Ġfireside": 23528,
    "Ġhazarded": 25654,
    "oko": 18440,
    "Ġwilson": 6629,
    "Ġbordering": 17228,
    "Ġevenly": 4128,
    "almost": 4942,
    "Ġsplice": 19308,
    "Ġultimately": 17164,
    "Ġdressing": 7090,
    "Ġprophesy": 26061,
    "inity": 5693,
    "thousand": 5547,
    "Ġintercourse": 10998,
    "Ġingratitude": 17468,
    "Ġuneasily": 24230,
    "Ġderived": 8238,
    "Ġspade": 9258,
    "Ġcontribute": 12858,
    "Ġjoyful": 13219,
    "Ġcobweb": 22583,
    "Ġimplement": 3098,
    "mad": 5280,
    "Ġoutlined": 22317,
    "different": 6501,
    "Ġpredicted": 2043,
    "pane": 10120,
    "progra": 9394,
    "abetical": 15741,
    "av": 739,
    "Ġcharing": 14180,
    "Ġacquitted": 18898,
    "Ġmurmur": 14589,
    ",âĢĶâĢĺ": 23801,
    "ĠĠĠĠĠĠĠĠĠĠĠĠĠĠĠĠĠĠĠĠĠĠĠĠĠĠĠĠĠĠĠĠĠĠĠĠĠĠĠĠĠĠĠĠ": 12151,
    "Ġprejudices": 13468,
    "Ġoverall": 4357,
    "Ġgrat": 4057,
    "etting": 21577,
    "§": 105,
    "Ġdodge": 19885,
    "ast": 473,
    "Ġmushroom": 13234,
    "ivided": 22083,
    "Ġbrixton": 13662,
    "wicked": 24449,
    "Ġgrego": 18963,
    "appin": 18758,
    "loving": 18538,
    "!_": 7329,
    "Ġremarkable": 4914,
    "Ġemperor": 15157,
    "Ġneeds": 6605,
    "Ġallowed": 4059,
    "Ġcurving": 16238,
    "atigable": 15269,
    "idity": 8830,
    "viv": 17698,
    "Ġperpendicular": 7209,
    "Ġsubur": 12954,
    "peril": 18339,
    "Ġadieus": 25110,
    "Ġcrown": 5287,
    "romising": 18233,
    "Ġfossils": 20221,
    "medium": 23637,
    "shaped": 10309,
    "Ġcommon": 1416,
    "sleeping": 13453,
    "created": 12448,
    "Ġshade": 6550,
    "affold": 16561,
    "induce": 22374,
    "import": 5668,
    "Ġdegener": 14049,
    "Ġlashes": 17966,
    "knows": 19171,
    "Ġmalicious": 10557,
    "Ġrecord": 5316,
    "formal": 14168,
    "week": 12928,
    "fear": 8513,
    "Ġrifts": 21972,
    "Ġfringed": 17272,
    "Ġmystical": 12130,
    "Ġshrine": 19530,
    "female": 20665,
    "testing": 12514,
    "Ġbodings": 21389,
    "Ġcornelius": 13572,
    "Ġlined": 15648,
    "Ġseventh": 18204,
    "Ġfortnight": 6200,
    "sight": 5994,
    "Ġlofty": 6217,
    "Ġdisgu": 8205,
    "Ġparamet": 610,
    "van": 7814,
    "Ġmistake": 6203,
    "Ġmyself": 1454,
    "Ġprudential": 17919,
    "sy": 2781,
    "okes": 9276,
    "Ġseap": 15813,
    "Ġattract": 11830,
    "Ġbracing": 16580,
    "Ġforce": 5092,
    "Ġvict": 3762,
    "Ġunduly": 25994,
    "Ġspermacetti": 19049,
    "Ġpliny": 11823,
    "ccas": 15884,
    "mannered": 22846,
    "Ġscenarios": 26539,
    "naturalists": 23542,
    "constit": 24604,
    "Ġmanifold": 13559,
    "Ġpoisonous": 24887,
    "offic": 7466,
    "Ġcrystal": 17214,
    "reposed": 24492,
    "failed": 20862,
    "report": 13398,
    "vener": 21110,
    "Ġlizzy": 3544,
    "Ġpolice": 4673,
    "lorn": 12485,
    "Ġcy": 13873,
    "Ġdevices": 2943,
    "lu": 597,
    "Ġindolence": 16227,
    "anean": 7443,
    "usually": 10285,
    "ñ": 178,
    "Ġyourself": 2591,
    ")âĢĶâĢľ": 20742,
    "Ġpuppy": 12403,
    "Ġcreate": 2090,
    "Ġhope": 1789,
    "Ġexponentiating": 3445,
    "obliged": 20630,
    "lynes": 15702,
    "Ġintense": 6157,
    "Ġsimulation": 2750,
    "istence": 2270,
    "ie": 730,
    "Ġstranger": 3484,
    "Ġmartin": 25436,
    "Ġsallies": 21228,
    "Ġapprehens": 5682,
    "Ġasserted": 16949,
    "Ġgratefully": 20443,
    "âĢĶâĢĺ": 7013,
    "Ġcooking": 16646,
    "Ġbowsprit": 16559,
    "Ġarising": 10933,
    "oard": 4807,
    "Ġdolphin": 17311,
    "Ġobtruded": 20721,
    "aphs": 22332,
    "Ġmostly": 7662,
    "Ġlearnable": 3998,
    "hered": 5623,
    "inate": 6233,
    "raltar": 24233,
    "Ġkrempe": 10669,
    "Ġreproofs": 24892,
    "Ġstatue": 23146,
    "Ġlexicon": 25974,
    "Ġtraffic": 23080,
    "Ġjewels": 12367,
    "Ġcolt": 11043,
    "Ġgeor": 3387,
    "robust": 19727,
    "wouldn": 23532,
    "ĠĠĠĠĠĠĠĠĠĠĠĠĠĠĠĠĠĠĠĠĠĠĠĠĠĠĠĠĠĠĠĠĠĠĠĠĠĠĠĠĠĠĠĠĠ": 9951,
    "Ġdischar": 11806,
    "ackled": 22417,
    "Ġnone": 3225,
    "pleasing": 14741,
    "Ġplant": 8899,
    "ees": 13710,
    "mont": 19168,
    "Ġ8": 5433,
    "sleepers": 24730,
    "pervading": 18959,
    "abling": 1079,
    "lipped": 16216,
    "Ġpoignant": 22590,
    "Ġnames": 4532,
    "pleasantness": 19769,
    "arab": 21439,
    "Ġthrew": 3973,
    "straight": 9939,
    "lift": 15383,
    "yn": 7819,
    "Ġferrule": 24500,
    "Ġmaintenance": 17461,
    "darkness": 9511,
    "Ġfits": 8790,
    "brink": 23575,
    "Ġpractice": 2835,
    "steaks": 23958,
    "awn": 3834,
    "careful": 14865,
    "ning": 951,
    "whaling": 7898,
    "Ġnosegay": 24192,
    "Ġunrival": 22044,
    "Ġinterchange": 16072,
    "Ġprevail": 13441,
    "Ġinfrequent": 3824,
    "Ġunimpe": 22069,
    "parsee": 14519,
    "Ġdeeps": 16117,
    "undoubtedly": 13310,
    "Ġdeduced": 12205,
    "Ġwarring": 16865,
    "Ġdynam": 3569,
    "Ġhilarious": 20297,
    "Ġoutside": 5554,
    "wood": 5897,
    "Ġramsgate": 18638,
    "!âĢĿ": 845,
    "ot": 346,
    "ender": 9160,
    "Ġgained": 4534,
    "Ġvent": 4000,
    "Ġcreatures": 4136,
    "exagger": 22425,
    "Ġsplinters": 15101,
    "ement": 1502,
    "Ġthe": 270,
    "Ġbewit": 15726,
    "oting": 2743,
    "Ġintensity": 10015,
    "uccas": 21105,
    "mod": 1055,
    "Ġrelations": 5852,
    "Ġrecommending": 24337,
    "Ġvivacity": 14940,
    "ved": 869,
    "Ġsurvived": 14933,
    "Ġcertainty": 6734,
    "Ġquadruped": 17458,
    "Ġcrowned": 16841,
    "Ġwriting": 4666,
    "pton": 15792,
    "din": 8373,
    "Ġgretna": 26468,
    "Ġcomprehen": 5349,
    "Ġlump": 21549,
    "weaving": 18666,
    "Ġdue": 3844,
    "lydon": 13988,
    "Ġlomb": 21556,
    "Ġmode": 8497,
    "Ġatom": 18192,
    "abominable": 20592,
    "ficial": 17548,
    "tout": 21064,
    "ver": 331,
    "Ġdisreputable": 22531,
    "Ġadrift": 11720,
    "if": 375,
    "seals": 21815,
    "Ġsuspended": 5665,
    "Ġexterior": 19986,
    "Ġdante": 21436,
    "painter": 24896,
    "Ġman": 544,
    "arious": 10316,
    "nav": 17612,
    "Ġscore": 9736,
    "Ġtwinkle": 12321,
    "ulum": 21860,
    "Ġnote": 4262,
    "Ġlexic": 15722,
    "Ġ131": 24782,
    "Ġstudent": 14474,
    "sheltered": 25585,
    "Ġlimited": 23543,
    "Ġperplexed": 23660,
    "Ġstrife": 18613,
    "Ġamerica": 6763,
    "Ġcomra": 7183,
    "Ġoutskirts": 17456,
    "lik": 3915,
    "cats": 17512,
    "handled": 19260,
    "Ġplump": 14282,
    "constellation": 24607,
    "Ġtreas": 7358,
    "screwed": 17187,
    "Ġmin": 1027,
    "contempt": 13189,
    "evidently": 20344,
    "Ġunprovided": 18263,
    "oforte": 14285,
    "sorrow": 12506,
    "knife": 6942,
    "Ġbou": 17852,
    "Ġpours": 17911,
    "grate": 23410,
    "chamber": 13624,
    "of": 767,
    "Ġding": 12596,
    "many": 5250,
    "Ġcivility": 4786,
    "atching": 8201,
    "decl": 8855,
    "Ġtortured": 14923,
    "Ġvouch": 15808,
    "Ġjav": 7901,
    "dinah": 20079,
    "Ġinjury": 10540,
    "Ġmargaret": 10376,
    "Ġeleventh": 23367,
    "contain": 18500,
    "Ġwaking": 11569,
    "suddenly": 6493,
    "Ġjaw": 3320,
    "confused": 19643,
    "Ġsolutions": 1946,
    "Ġbrimming": 22863,
    "block": 11470,
    "onial": 11566,
    "cleanliness": 25871,
    "Ġgodson": 23356,
    "Ġcards": 7580,
    "redible": 15803,
    "Ġexcluded": 16384,
    "Ġcolonial": 22853,
    "Ġ117": 19696,
    "Ġcoolness": 16886,
    "jumped": 20245,
    "Ġaside": 5234,
    "crews": 15042,
    "quietly": 10592,
    "dischar": 19151,
    "Ġphyset": 23197,
    "experience": 17158,
    "Ġtoilet": 13936,
    "Ġlands": 6594,
    "Ġcaved": 21351,
    "Ġunable": 4950,
    "ingley": 1544,
    "Ġwol": 15529,
    "Ġmusk": 7494,
    "Ġopenly": 8572,
    "Ġdistricts": 20262,
    "Ġbethink": 12377,
    "Ġdismal": 11808,
    "Ġemph": 14525,
    "Ġcharted": 22247,
    "Ġchips": 14181,
    "Ġfiends": 14827,
    "conclusive": 25673,
    "relics": 24012,
    "Ġcollection": 8221,
    "Ġjoker": 22295,
    "Ġtrust": 4079,
    "gard": 7339,
    "Ġsplendid": 17213,
    "Ġbaron": 19333,
    "Ġdamn": 11158,
    "Ġdecapitated": 20614,
    "Ġpronouncing": 16969,
    "taste": 10129,
    "Ġclapped": 9744,
    "lads": 20954,
    "Ġbended": 21383,
    "sutherland": 21061,
    "Ġharpoone": 2914,
    "Ġencourag": 1393,
    "when": 1594,
    "Ġheroes": 10576,
    "Ġtoward": 17946,
    "Ġconnecting": 18630,
    "Ġgrimly": 17052,
    "wheels": 14380,
    "ravelled": 18014,
    "Ġassuredly": 14821,
    "luck": 5733,
    "Ġequ": 1734,
    "Ġconsider": 2567,
    "Ġejaculation": 20253,
    "ceed": 1076,
    "Ġbillows": 7502,
    "Ġuppermost": 15277,
    "lively": 12482,
    "Ġdoubts": 8579,
    "Ġcourting": 23288,
    "warrior": 24798,
    "Ġcrying": 10786,
    "paus": 13772,
    "Ġyielded": 14871,
    "lish": 1950,
    "yond": 2330,
    "Ġhenry": 5197,
    "Ġpersonages": 23537,
    "Ġbaff": 10799,
    "Ġsettle": 6293,
    "Ġburke": 19250,
    "Ġconverse": 11845,
    "charming": 15704,
    "Ġdirty": 9178,
    "Ġboiling": 8525,
    "Ġlavenza": 17970,
    "Ġopal": 23624,
    "invisible": 17740,
    "Ġtools": 11608,
    "include": 23588,
    "Ġtheme": 16017,
    "Ġsheaves": 22160,
    "Ġmusket": 12294,
    "Ġruff": 14349,
    "maker": 12490,
    "Ġrushing": 7403,
    "share": 14237,
    "learned": 8600,
    "rever": 21234,
    "Ġstrangled": 24133,
    "95": 17477,
    "Ġunheeded": 18264,
    "Ġelapsed": 7652,
    "Ġsaw": 1350,
    "Ġbowditch": 19322,
    "gently": 13728,
    "Ġdecidedly": 9508,
    "books": 8663,
    "Ġgills": 17992,
    "Ġbrix": 12580,
    "zers": 21145,
    "Ġnecks": 18187,
    "Ġqual": 6274,
    "Ġdef": 1201,
    "Ġshops": 21998,
    "Ġpenalty": 1840,
    "Ġquarrelling": 13498,
    "Ġpresenting": 18987,
    "ancy": 4391,
    "aisance": 15073,
    "taining": 7206,
    "Ġreceiving": 4880,
    "disgu": 19153,
    "piece": 6655,
    "olerably": 11672,
    "dum": 17518,
    "Ġoperate": 19115,
    "gings": 7549,
    "Ġyounge": 16287,
    "Ġlunatic": 24990,
    "eting": 7169,
    "Ġbalmoral": 16207,
    "Ġenhancement": 23703,
    "suffered": 24335,
    "Ġapprehensions": 13403,
    "Ġcrozetts": 19628,
    "Ġbeings": 2491,
    "olstad": 7611,
    "Ġreceives": 20353,
    "access": 11180,
    "Ġfertile": 20581,
    "paws": 21028,
    "national": 20997,
    "gest": 5426,
    "....": 11316,
    "Ġmac": 15537,
    "Ġdespise": 14665,
    "gged": 3776,
    "Ġsweep": 8265,
    "Ġenigmatical": 20596,
    "Ġunmo": 12771,
    "Ġpapered": 20129,
    "ore": 418,
    "Ġchagrin": 20606,
    "Ġwealth": 7620,
    "Ġconcept": 685,
    "Ġminimizes": 2045,
    "poky": 17644,
    "unbounded": 21882,
    "Ġpronounced": 8350,
    "notches": 22749,
    "nurtured": 25524,
    "Ġanvil": 11596,
    "irectly": 6940,
    "bar": 7541,
    "Ġres": 696,
    "Ġmentioned": 4328,
    "Ġfates": 15576,
    "avoiding": 25236,
    "Ġsculpture": 26016,
    "gee": 15975,
    "oars": 9614,
    "Ġfilling": 13407,
    "Ġrenowned": 26193,
    "Ġsomewhere": 5384,
    "neighbourhood": 10024,
    "umber": 5241,
    "omitted": 18016,
    "Ġespecially": 3936,
    "Ġcomprehension": 15085,
    "Ġlaw": 3653,
    "Ġscorching": 20064,
    "Ġ113": 19695,
    "Ġgunwales": 12238,
    "Ġent": 904,
    "ides": 2160,
    "mist": 5686,
    "Ġstaving": 21734,
    "Ġgesture": 11399,
    "Ġbent": 5149,
    "Ġratio": 5066,
    "mouth": 9130,
    "Ġbrewed": 23344,
    "ilingly": 21720,
    "Ġarist": 14161,
    "F": 42,
    "front": 12168,
    "Ġclimbing": 20068,
    "Ġstack": 21730,
    "Ġcounty": 9030,
    "hast": 5357,
    "cushion": 20820,
    "###": 3827,
    "Ġburden": 8607,
    "Ġhudson": 15190,
    "Ġassembled": 9235,
    "boast": 23251,
    "leg": 2816,
    "onze": 21254,
    "oy": 1040,
    "vy": 21106,
    "lue": 8508,
    "Ġnotable": 18222,
    "Ġsentry": 19023,
    "Ġprompt": 3189,
    "ĠâĢĶâĢľ_": 17718,
    "back": 2015,
    "prevent": 11791,
    "thine": 15823,
    "Ġcross": 1374,
    "complete": 15034,
    "through": 4025,
    "ially": 9246,
    "swelled": 19609,
    "settle": 16661,
    "Ġwire": 13851,
    "wig": 17704,
    "Ġtoma": 7373,
    "rasing": 21044,
    "soon": 4029,
    "Ġbuild": 6474,
    "oker": 10963,
    "Ġgiddy": 20495,
    "pinn": 21025,
    "Ġinvade": 19142,
    "Ġinsp": 2100,
    "Ġsol": 1105,
    "Ġcollins": 2181,
    "Ġsolemnly": 8023,
    "inclination": 20056,
    "succeed": 10330,
    "Ġfreedom": 9082,
    "Ġpreternatural": 12820,
    "Ġprepar": 7896,
    "Ġphaet": 16318,
    "Ġnarrated": 14870,
    "scratch": 26043,
    "Ġupwards": 7633,
    "appalled": 18760,
    "Ġunful": 22008,
    "profitable": 17071,
    "Ġregained": 18587,
    "Ġproperties": 3117,
    "Ġ22": 8278,
    "andes": 18151,
    "ć": 200,
    "Ġreadily": 5253,
    "Ġenticing": 22745,
    "harpoon": 9490,
    "Ġblankness": 24610,
    "cannon": 22959,
    "fortunately": 9450,
    "outh": 2687,
    "aggoo": 5130,
    "Ġunwearied": 20601,
    "Ġabundantly": 17156,
    "Ġthirst": 7589,
    "Ġcapsized": 20088,
    "Ġsympath": 4859,
    "·": 120,
    "enborough": 21284,
    "augh": 1783,
    "desirable": 23204,
    "Ġprocedure": 2812,
    "included": 19206,
    "Ġconducting": 16649,
    "ess": 411,
    "invincible": 25089,
    "Ġlac": 17964,
    "operations": 19973,
    "Ġinfamy": 14501,
    "Ġsundry": 20072,
    "Ġimpro": 892,
    "incredible": 16498,
    "tacit": 21097,
    "heartedness": 24827,
    "Ġinexplicable": 12254,
    "etian": 13958,
    "Ġdank": 21426,
    "Ġdisturbance": 15012,
    "stretching": 20497,
    "Ġlion": 9675,
    "Ġpunct": 8660,
    "Ġpenn": 11111,
    "Ġplaid": 22600,
    "wild": 8766,
    "apidated": 22333,
    "Ġredeemed": 25789,
    "itated": 4438,
    "Ġsurrender": 16450,
    "Ġnecessity": 7296,
    "lass": 5992,
    "earnestly": 17312,
    "ained": 3064,
    "Ġawkwardness": 13486,
    "seventh": 12711,
    "discern": 14850,
    "Ġbetter": 1177,
    "dden": 1804,
    "Ġrestore": 9379,
    "fin": 5209,
    "Ġtestament": 23226,
    "Ġsupreme": 13606,
    "ony": 3028,
    "Ġclasses": 4055,
    "Ġasyl": 12731,
    "grateful": 10428,
    "ĺ": 251,
    "Ġadmeasurements": 26225,
    "Ġreminisc": 18726,
    "ters": 1575,
    "Ġhopelessly": 16375,
    "Ġdefend": 9339,
    "Ġpyth": 21459,
    "Ġcarpet": 9355,
    "pieces": 8754,
    "Ġidol": 7467,
    "Ġdiagon": 24740,
    "Ġcetacean": 25878,
    "charlotte": 6473,
    "Ġimposed": 14216,
    "Ġimmedi": 2908,
    "Ġindef": 9189,
    "dragging": 16609,
    "Ġblasphemy": 26115,
    "Ġchrist": 4073,
    "Ġbible": 9318,
    "Ġinform": 997,
    "tattoo": 21086,
    "Ġgrate": 12961,
    "I": 45,
    "entric": 11618,
    "Ġca": 21337,
    "ckled": 9256,
    "ctions": 953,
    "Ġdawn": 6816,
    "Ġeffects": 7236,
    "Ġpolynes": 16078,
    "ence": 392,
    "Ġarms": 3966,
    "rigging": 20004,
    "feeders": 25235,
    "inte": 5144,
    "acing": 2717,
    "Ġtantamount": 25625,
    "Ġheire": 18036,
    "Ġzeal": 9097,
    "entreaties": 26185,
    "bony": 15318,
    "Ġnot": 413,
    "Ġlonging": 14298,
    "thirds": 25046,
    "Ġsidelong": 11438,
    "ens": 701,
    "Ġbelfry": 26438,
    "Ġinfiltrated": 23280,
    "wered": 2689,
    "slept": 17169,
    "Ġbough": 13893,
    "fact": 6358,
    "ommod": 13976,
    "Ġcister": 13881,
    "anoke": 21359,
    "Ġdoze": 14176,
    "Ġadmon": 15867,
    "Ġturk": 6603,
    "Ġantagonist": 26328,
    "Ġadvertising": 25389,
    "Ġfools": 14481,
    "Ġprincip": 5600,
    "Ġbaked": 21384,
    "Ġcheap": 13087,
    "«": 109,
    "Ġsecondly": 14517,
    "Ġextraordinary": 5414,
    "luent": 15995,
    "stamp": 21651,
    "Ġglu": 15666,
    "Ġmathematics": 12071,
    "Ġfloundered": 18861,
    "hearing": 8402,
    "Ġ77": 24263,
    "Ġexplo": 2287,
    "possessed": 9527,
    "Ġpouch": 21467,
    "on": 267,
    "Ġbruited": 25773,
    "willing": 6592,
    "alions": 21498,
    "Ġswayed": 15047,
    "Ġlid": 6983,
    "Ġreckless": 13457,
    "absent": 21786,
    "Ġmult": 1022,
    "Ġauthor": 4373,
    "Ġproceeded": 5335,
    "Ġextremity": 8988,
    "althily": 19357,
    "Ġmiller": 19882,
    "Ġintegration": 9867,
    "Ġenvy": 13185,
    "Ġtyphoons": 20233,
    "Ġthreading": 23400,
    "Ġbland": 11064,
    "Ġunappe": 22015,
    "Ġmeet": 2806,
    "Ġhereafter": 9329,
    "ily": 1033,
    "doors": 19094,
    "ture": 7558,
    "Ġinvention": 19951,
    "Ġdisdained": 15009,
    "Ġnorm": 763,
    "ardy": 22157,
    "headers": 23106,
    "harbors": 20147,
    "brit": 19196,
    "shout": 22451,
    "empt": 2617,
    "otted": 14023,
    "Ġtahitian": 25427,
    "Ġreceived": 2953,
    "Ġmississippi": 20724,
    "Ġstrain": 6023,
    "button": 10966,
    "acute": 22595,
    "ħ": 232,
    "nour": 20987,
    "Ġveracity": 23887,
    "Ġyore": 21775,
    "Ġwithstand": 10224,
    "nns": 1891,
    "Ġquadrille": 13540,
    "Ġvari": 832,
    "inguish": 9396,
    "Ġrepute": 18034,
    "Ġkeen": 4612,
    "inter": 2950,
    "filled": 9594,
    "interred": 23735,
    "Ġwalker": 23307,
    "Ġterrific": 6754,
    "wearing": 22684,
    "Ġanywhere": 8516,
    "Ġrustic": 14964,
    "400": 20754,
    "Ġbilliard": 16689,
    "Ġtho": 21511,
    "Ġbraw": 23832,
    "Ġjava": 12310,
    "Ġfitly": 23996,
    "Ġproblem": 1271,
    "Ġremarkably": 7702,
    "notwithstanding": 22750,
    "worked": 19016,
    "Ġventured": 7501,
    "Ġvisits": 8222,
    "Ġgenealogies": 25961,
    "Ġfulfilled": 11362,
    "Ġfretfulness": 25448,
    "Ġantiquity": 15229,
    "Ġrevolt": 24504,
    "Ġblameless": 19858,
    "Ġimpression": 5732,
    "Ġretirement": 25378,
    "forster": 16154,
    "Ġporthole": 24399,
    "Ġchr": 3688,
    "Ġholy": 6591,
    "Ġwhereas": 3854,
    "exper": 8878,
    "Ġmightier": 18730,
    "unimportant": 18159,
    "Ġspake": 18310,
    "ography": 13361,
    "Ġforeman": 23446,
    "cripp": 20818,
    "Ġpatiently": 19917,
    "using": 5468,
    "Ġpartiality": 9397,
    "Ġsizes": 1518,
    "Ġtrib": 13818,
    "Ġdisgra": 18549,
    "Ġquantization": 19853,
    "Ġedges": 3825,
    "Ġposition": 1953,
    "Ġdeficient": 18824,
    "idated": 11660,
    "Ġkidn": 20204,
    "inhabited": 13619,
    "pocket": 9810,
    "accountable": 7109,
    "Ġtus": 10749,
    "tern": 4223,
    "Ġrh": 9243,
    "gangway": 20666,
    "separately": 25227,
    "Ġdefinition": 14403,
    "Ġsharper": 17179,
    "rets": 12538,
    "Ġcondescension": 10618,
    "uttural": 21586,
    "pshaw": 21027,
    "Ġsphynx": 20711,
    "explain": 1481,
    "Ġabuse": 18397,
    "bearing": 9764,
    "Ġopening": 5045,
    "Ġblended": 16218,
    "Ġdefines": 1742,
    "Ġoriginate": 24121,
    "Ö": 151,
    "Ġschoolmaster": 16862,
    "Ġfo": 1652,
    "inching": 21188,
    "Ġreversed": 15695,
    "Ġadvantages": 9807,
    "ĠĠĠĠĠĠĠĠĠĠĠĠĠĠĠĠĠĠĠĠĠĠĠĠĠĠĠĠĠĠĠ": 19699,
    "Ġweld": 8111,
    "adding": 21756,
    "Ġdizzy": 21430,
    "Ġstick": 6025,
    "Ġtornado": 24621,
    "Ġsituated": 9446,
    "Ġvictims": 19803,
    "omically": 13975,
    "Ġarctic": 12809,
    "aks": 8506,
    "sius": 13787,
    "Ġsatur": 1931,
    "Ġtuning": 3071,
    "rib": 1945,
    "Ġimmutable": 17357,
    "Ġdisdain": 8359,
    "toes": 22561,
    "Ġnick": 21520,
    "Ġpersecut": 16952,
    "eld": 965,
    "Ġfowl": 11330,
    "drink": 10595,
    "Ġbuttons": 12769,
    "Ġentities": 11862,
    "precipitance": 25867,
    "Ġhanded": 8216,
    "Ġinsepar": 17933,
    "Ġleague": 6538,
    "Ġpassive": 22838,
    "dham": 20829,
    "Ġtranque": 14204,
    "Ġsofa": 10269,
    "vision": 5620,
    "Ġcause": 2411,
    "Ġsoup": 7067,
    "torm": 11530,
    "Ġwhirlpool": 20654,
    "during": 6787,
    "Ġbohemia": 10649,
    "unicorn": 21886,
    "Ġconsulting": 13428,
    "present": 1136,
    "Ġsounded": 8590,
    "gement": 13727,
    "Ġbern": 17858,
    "ilight": 12690,
    "anging": 3550,
    "dropped": 12260,
    "Ġleeward": 6210,
    "ignific": 11953,
    "Ġrestless": 10413,
    "Ġabound": 8864,
    "Ġconvergence": 972,
    "w": 91,
    ")": 13,
    "Ġplug": 17147,
    "Ġthousand": 2784,
    "Ġarrogance": 26231,
    "stee": 21648,
    "onday": 6063,
    "#": 7,
    "Ġmilan": 19534,
    "Ġtransformed": 22609,
    "Ġdiscu": 4362,
    "circumst": 5348,
    "ulity": 10886,
    "Ġassured": 4370,
    "Ġrefer": 18697,
    "Ġharvard": 24573,
    "Ġharbor": 10026,
    "Ġformality": 22828,
    "ulsive": 10233,
    "Ġtarred": 23608,
    "Ġflight": 6581,
    "Ġanalogical": 25640,
    "Ġajar": 21201,
    "ospit": 22260,
    "beam": 16037,
    "Ġfoolishly": 19781,
    "Ġsleek": 23382,
    "lur": 13746,
    "Ġoat": 21321,
    "Ġaffright": 9331,
    "Ġornamented": 20360,
    "ras": 21035,
    "Ġcharley": 19005,
    "wedged": 24338,
    "Ġunansw": 22055,
    "Ġpublic": 4331,
    "rents": 5308,
    "Ġdeliberation": 19967,
    "performed": 18341,
    "thrasher": 25658,
    "Ġeffort": 8204,
    "Ġmast": 2903,
    "Ġamongst": 8959,
    "Ġbulls": 23856,
    "Ġjoints": 12033,
    "Ġcreamy": 14329,
    "voy": 7143,
    "uncontrollable": 20594,
    "Ġpleasures": 11142,
    "monkey": 19169,
    "Ġloosened": 26002,
    "concluded": 11242,
    "Ġstriking": 6088,
    "Ġhorns": 11123,
    "arpening": 21441,
    "Ġenjoy": 3760,
    "conjectures": 25180,
    "tea": 18740,
    "Ġreb": 15689,
    "Ġxli": 14543,
    "immense": 18052,
    "fam": 5988,
    "Ġatmosphere": 10897,
    "anke": 15559,
    "Ġcritical": 7475,
    "soo": 18685,
    "Ġruns": 8594,
    "course": 6104,
    "Ġhorizontally": 17012,
    "Ġinventing": 24861,
    "Ġdealing": 14046,
    "lasting": 8010,
    "mission": 5969,
    "ots": 3297,
    "Ġevalu": 3131,
    "Ġreputation": 11639,
    "iony": 9191,
    "perpetually": 20510,
    "Ġdistraction": 22502,
    "Ġtexas": 25922,
    "log": 18535,
    "iquet": 17575,
    "Ġemblem": 20496,
    "ustration": 2258,
    "Ġsuits": 22073,
    "Ġmajesty": 5201,
    "smeer": 26147,
    "Ġfidelity": 15240,
    "Ġkidnapping": 26356,
    "Ġexterm": 21826,
    "simultaneously": 19863,
    "sway": 15424,
    "Ġripple": 25504,
    "Ġcolonies": 14374,
    "Ġdairy": 20685,
    "Ġskills": 1838,
    "Ġjust": 1240,
    "Ġeel": 18001,
    "Ġinco": 14259,
    "Ġushered": 18359,
    "hospit": 25903,
    "erect": 20847,
    "ascending": 24707,
    "july": 20473,
    "bloom": 24689,
    "Ġbankers": 24302,
    "lection": 3651,
    "converse": 22470,
    "Ġblushed": 12999,
    "Ġdestro": 3721,
    "Ġappeared": 2776,
    "pay": 10718,
    "clo": 5613,
    "Ġlengthwise": 10452,
    "Ġcomparative": 10542,
    "intend": 16223,
    "extensive": 18709,
    "Ġprofuse": 23565,
    "Ġbulwarks": 5592,
    "Ġtwo": 1044,
    "Ġton": 15464,
    "Ġray": 18632,
    "Ġcau": 13880,
    "housekeeping": 24102,
    "Ġsometimes": 2166,
    "pivot": 21030,
    "Ġcomplaint": 24776,
    "joining": 19444,
    "Ġalleys": 25978,
    "Ġtigers": 25758,
    "Ġfortunes": 12176,
    "untarily": 6312,
    "Ġfullest": 14813,
    "oboam": 9357,
    "Ġstory": 2904,
    "Ġhedge": 8363,
    "orange": 21398,
    "Ġgrip": 11626,
    "Ġcables": 15556,
    "Ġrepeated": 3831,
    "bal": 2155,
    "Ġwrecked": 9965,
    "Ġwrenching": 17322,
    "Ġslight": 3118,
    "Ġtok": 1245,
    "Ġintru": 15826,
    "Ġavail": 11226,
    "Ġantique": 19550,
    "Ġwhaleman": 4653,
    "Ġbehave": 23296,
    "Ġconject": 6026,
    "Ġdeposited": 25484,
    "gallantry": 15058,
    "Ġeuropean": 20044,
    "girl": 12316,
    "hullo": 17570,
    "Ġperfect": 2556,
    "Ġdisp": 3359,
    "Ġconcentric": 20073,
    "Ġchal": 18378,
    "ane": 1181,
    "blo": 6353,
    "Ġexclaiming": 13640,
    "puzzling": 26143,
    "Ġbelief": 5855,
    "gered": 9275,
    "engagement": 14457,
    "born": 7543,
    "Ġqualified": 14949,
    "Ġflush": 14423,
    "gang": 17553,
    "uary": 11537,
    "Ġobstinate": 11336,
    "pth": 2383,
    "Ġextracted": 16314,
    "Ġjustinian": 22964,
    "hole": 5586,
    "oles": 21004,
    "Ġnoises": 18374,
    "Ġmoonshine": 19596,
    "aulding": 11339,
    "giv": 13721,
    "Ġinev": 10181,
    "lun": 20945,
    "Ġtossed": 5815,
    "anations": 12573,
    "Ġbest": 1974,
    "Ġinspiring": 19112,
    "capt": 3836,
    "Ġwithdrawn": 10606,
    "Ġkeeps": 8266,
    "Ġproport": 2300,
    "Ġyears": 1890,
    "arled": 21440,
    "hammad": 23261,
    "Ġtasted": 12526,
    "soldiers": 25911,
    "Ġprovision": 14824,
    "Ġ{": 21151,
    "matical": 13128,
    "Ġfeared": 5930,
    "Ġefficiently": 3666,
    "ahab": 4288,
    "itud": 2933,
    "Ġslid": 7951,
    "Ġbeneficial": 23929,
    "bel": 3835,
    "Ġcares": 9365,
    "ß": 160,
    "bs": 3749,
    "Ġsnatch": 14639,
    "Ġcarr": 23088,
    "cer": 6642,
    "akin": 11766,
    "angs": 5834,
    "hold": 3984,
    "apprehension": 26114,
    "represent": 9637,
    "Ġfevers": 22206,
    "Ġfrog": 23918,
    "Ġchooses": 13345,
    "Ġproceed": 3246,
    "mology": 12489,
    "jury": 15372,
    "emotions": 15793,
    "Ġpenetration": 19916,
    "Ġcask": 5527,
    "Ġconvalescence": 23744,
    "Ġ89": 19711,
    "inferiors": 25346,
    "Ġask": 1493,
    "Ġvales": 21943,
    "gazed": 15360,
    "Ġthou": 1810,
    "Ġshoved": 23488,
    "writhed": 26080,
    "Ġappar": 7411,
    "ves": 698,
    "ushing": 5731,
    "Ĥ": 229,
    "Ġwithdraw": 16964,
    "Ġnotwithstanding": 9713,
    "Ġexquisite": 12380,
    "Ġdeliciousness": 24126,
    "Ġliterary": 25162,
    "Ġrnns": 2395,
    "Ġovertake": 15971,
    "Ġreigns": 21668,
    "unavoidable": 17389,
    "Ġelementary": 24814,
    "Ġdaboll": 25950,
    "Ġgeneralization": 982,
    "byshire": 6172,
    "teak": 22813,
    "Ġrefusal": 10344,
    "Ġpays": 13295,
    "our": 534,
    "nails": 17614,
    "Ġspl": 2984,
    "Ġceler": 15549,
    "Ġbrute": 8926,
    "Ġamsterdam": 22481,
    "Ġexotic": 21828,
    "Ġle": 333,
    "Ġwholesome": 16004,
    "Ġmuch": 922,
    "Ġaccept": 4408,
    "Ġdangerous": 6613,
    "Ġmutter": 23951,
    "Ġinv": 2223,
    "Ġuncivil": 11155,
    "ineas": 15821,
    "Ġpeddling": 24799,
    "lacing": 17590,
    "Ġslashing": 23168,
    "irably": 13294,
    "Ġrepulsive": 14530,
    "Ġmultimodal": 18746,
    "surface": 10530,
    "Ġjoyous": 14663,
    "Ġjustify": 11072,
    "{": 95,
    "Ġsemantic": 1957,
    "Ġwithdra": 6398,
    "tick": 17678,
    "Ġswap": 23049,
    "Ġcivilized": 8664,
    "Ġpicked": 6341,
    "Ġjudged": 12081,
    "Ġsh": 419,
    "Ġmanual": 14197,
    "Ġbordeaux": 24564,
    "ugging": 23287,
    "Ġsacred": 10930,
    "Ġleviathan": 3291,
    "Ġfret": 10806,
    "Ġcarav": 18901,
    "conceivable": 17130,
    "Ġlanguage": 650,
    "search": 8464,
    "conviction": 19963,
    "trees": 10731,
    "Ġdazed": 15594,
    "chron": 21691,
    "Ġfrogs": 23920,
    "Ġgermans": 25784,
    "Ġremain": 1872,
    "sloop": 26145,
    "specimen": 26605,
    "\\": 64,
    "orter": 4254,
    "Ġsour": 21215,
    "Ġneskyeuna": 26459,
    "ains": 5094,
    "Ġunrel": 14695,
    "etimes": 1986,
    "Ġobliged": 4284,
    "Ġcave": 10785,
    "pips": 21019,
    "bohemia": 20730,
    "Ġlanes": 19764,
    "Ġgravel": 14101,
    "narrow": 11507,
    "fered": 5560,
    "leads": 21368,
    "onom": 9158,
    "linked": 17593,
    "Ġxxxiv": 24967,
    "Ú": 155,
    "peasant": 23108,
    "whatever": 6694,
    "Ġ43": 14768,
    "pleas": 3851,
    "bastian": 10673,
    "Ġlone": 11612,
    "ol": 362,
    "Ġrescales": 5068,
    "Ġunexampled": 20358,
    "Ġyards": 5371,
    "goodbye": 12054,
    "Ġfacts": 2290,
    "Ġultimate": 12347,
    "proportion": 16180,
    "Ġghastly": 10059,
    "Ġstrictest": 17042,
    "dark": 5614,
    "Ġundec": 22016,
    "Ġnear": 1718,
    "ocratic": 17245,
    "Ġuses": 1209,
    "Ġbir": 17853,
    "inating": 9153,
    "actory": 8907,
    "Ġdepart": 4655,
    "Ġpreced": 6039,
    "Ġscreening": 25299,
    "Ġplumage": 17297,
    "ĠĠĠĠĠĠĠĠĠĠĠĠĠĠĠĠĠĠĠ": 22947,
    "uger": 21102,
    "conscience": 14859,
    "finer": 17546,
    "sky": 12508,
    "christ": 10210,
    "Ġphase": 14470,
    "fted": 9118,
    "Ġzealand": 12348,
    "est": 502,
    "ruding": 9723,
    "Ġhearties": 18967,
    "Ġpeev": 22690,
    "Ġcordial": 16835,
    "Ġepidemic": 20694,
    "Ġforeboding": 20382,
    "Ġcrystall": 20225,
    "Ġm": 274,
    "Ġah": 5075,
    "Ġmainly": 22658,
    "Ġprecipice": 19939,
    "Ġrust": 6408,
    "Ġnom": 21516,
    "Ġcoral": 11920,
    "Ġnocturnal": 20714,
    "folio": 10546,
    "leness": 4689,
    "Ġcrests": 25685,
    "Ġgritted": 22803,
    "Ġ]": 15459,
    "Ġmer": 2932,
    "treas": 17679,
    "Ġ103": 24411,
    "Ġsacrilege": 26228,
    "motives": 26137,
    "Ġtalents": 15044,
    "Ġvest": 8162,
    "Ġfreckled": 18960,
    "Ġsmoothed": 23658,
    "Ġarticles": 7108,
    "Ġglobal": 2371,
    "Ġagents": 9765,
    "Ġsystem": 575,
    "'(": 2979,
    "Ġwallowing": 24040,
    "disapprobation": 19155,
    "Ġheaps": 11641,
    "Ġoily": 13863,
    "Ġlabyrin": 13103,
    "Ġslaughter": 20729,
    "Ġhamp": 12627,
    "Ġstat": 1491,
    "Ġincomplete": 17208,
    "Ġluck": 4878,
    "swallow": 24257,
    "Ġvoyage": 3054,
    "Ġduration": 20352,
    "Ġwallow": 19464,
    "Ġslopes": 18940,
    "opic": 22473,
    "Ġtrains": 10947,
    "Ġanticip": 7507,
    "Ġnumerous": 6920,
    "Ġrobert": 10970,
    "mers": 9610,
    "fem": 17537,
    "Ġgiving": 4085,
    "Ġcongratulations": 10580,
    "rael": 21626,
    "Ġguard": 6178,
    "âĢĶ": 519,
    "Ġsharp": 2415,
    "Ġleast": 2062,
    "Ġanxiously": 8289,
    "author": 9859,
    "Ġrick": 21967,
    "Ġberth": 8679,
    "Ġhundredth": 16518,
    "momentum": 4991,
    "adequately": 20318,
    "Ġdictated": 25218,
    "Ġcolony": 18763,
    "ahawk": 23313,
    "sharp": 10307,
    "ady": 995,
    "hertfordshire": 10936,
    "Ġchances": 9262,
    "explained": 23139,
    "charles": 14698,
    "Ġcondescending": 24868,
    "Ġfiend": 4409,
    "Ġtickets": 17094,
    "Ġperfections": 23607,
    "circled": 24187,
    "Ġinjuries": 11277,
    "Ġgasped": 11372,
    "sander": 11526,
    "Ġunwe": 15838,
    "Ġtones": 8399,
    "strong": 6322,
    "Ġherring": 14126,
    "Ġrecords": 12193,
    "Ġshudder": 9050,
    "Ġdusty": 14924,
    "Ġfaces": 6008,
    "Ġsomehow": 4839,
    "Ġsurvivors": 25732,
    ".": 18,
    "inces": 13827,
    "Ġtot": 4183,
    "Ġforebodings": 17303,
    "breeding": 16675,
    "particularly": 8339,
    "Ġparagraph": 17453,
    "renewed": 19703,
    "pursu": 11392,
    "Ġposture": 24164,
    "Ġpan": 5082,
    "achable": 14137,
    "venty": 6427,
    "onah": 3338,
    "Ġauthoritative": 19560,
    "until": 6596,
    "Ġstair": 8455,
    "&": 10,
    "Ġtypically": 1536,
    "Ġunnearable": 26516,
    "Ġcontrol": 13078,
    "Ġhogarth": 25780,
    "Ġrumbling": 18211,
    "thin": 14096,
    "immed": 9217,
    "Ġfrivolous": 26176,
    "Ġincommunicable": 26611,
    "Ġmurmuring": 23578,
    "Ġtowering": 16739,
    "azore": 23461,
    "Ġill": 2193,
    "adagrad": 9690,
    "ox": 9133,
    "waist": 13417,
    "conspicuous": 26247,
    "Ġgin": 13960,
    "Ġdanish": 21429,
    "Ġvindictive": 20468,
    "Ġredundant": 16550,
    "mockery": 24378,
    "consum": 12867,
    "Ġaffair": 4461,
    "rusted": 16506,
    "compliment": 11364,
    "Ġsurvivor": 17362,
    "eers": 20842,
    "Ġvisitors": 7984,
    "Ġfuriously": 9801,
    "](": 11466,
    "Ġnecessitates": 23926,
    "Ġlatterly": 24084,
    "Ġmurky": 19200,
    "hammer": 14489,
    "Ġcongen": 10873,
    "sullenly": 26149,
    "dece": 11727,
    "Ġpled": 17907,
    "commotion": 24913,
    "learn": 2428,
    "Ġover": 555,
    "atra": 17771,
    "Ġaberdeen": 26542,
    "Ł": 258,
    "dimensional": 2348,
    "Ġafrica": 12343,
    "Ġarchipelagoes": 14348,
    "<UNK>": 3,
    "Ġgrapple": 25811,
    "Ġvirt": 3907,
    "race": 11630,
    "Ġfloating": 6604,
    "Ġsupp": 1264,
    "chet": 13216,
    "Ġdrooping": 9419,
    "Ġresembled": 18033,
    "Ġsignal": 5944,
    "Ġoarsman": 8637,
    "Ġrichness": 19310,
    "Ġbacking": 16113,
    "figured": 20121,
    "sof": 17657,
    "Ġimpressed": 8198,
    "individual": 18436,
    "safie": 20347,
    "Ġnasty": 17442,
    "owers": 12681,
    "supplement": 14795,
    "Ġstrikes": 13180,
    "uvian": 12240,
    "Ġcosmopol": 16455,
    "Ġjuggl": 20436,
    "politeness": 16906,
    "Ġconsisted": 10419,
    "Ġhaunt": 18197,
    "Ġpale": 4531,
    "Ġsigma": 1541,
    "Ġlodger": 24091,
    "Ġserenely": 13506,
    "Ġimpreg": 15987,
    "Ġtartar": 17321,
    "valued": 2855,
    "oology": 21005,
    "Ġjudges": 14685,
    "Ġpleases": 16297,
    "Ġparson": 6687,
    "intim": 22931,
    "Ġdate": 7841,
    "Ġsaville": 15888,
    "Ġcensus": 15095,
    "equally": 19898,
    "Ġgamesome": 17289,
    "liking": 22921,
    "hump": 12475,
    "Ġmakes": 3650,
    "Ġjudiciously": 23876,
    "Ġphara": 23196,
    "Ġfee": 7199,
    "Ġtongues": 14862,
    "Ġforms": 6397,
    "Ġguest": 7249,
    "Ġclust": 9273,
    "sake": 13782,
    "wond": 8767,
    "excitement": 19668,
    "Ġashen": 21896,
    "shott": 11794,
    "15": 12428,
    "Ġpupp": 10820,
    "angry": 18294,
    "sery": 17661,
    "Ġaffectionate": 5585,
    "Ġdevoured": 16134,
    "Ġhaste": 9003,
    "Ġbids": 24645,
    "Ġpin": 7161,
    "Ġmoney": 3418,
    "Ġhil": 10821,
    "Ġhelmet": 19686,
    "Ġspars": 3808,
    "pute": 8844,
    "oyed": 14368,
    "terrors": 25041,
    "Ġadmirer": 16838,
    "killed": 15375,
    "Ġstrata": 26027,
    "Ġerad": 25028,
    "Ġafloat": 9307,
    "dat": 1639,
    "Ġfossiliferous": 25609,
    "Ġbelonged": 6922,
    "Ġgoing": 2064,
    "Ġbanker": 8666,
    "Ġbehalf": 14507,
    "arrived": 12606,
    "Ġcha": 6853,
    "Ġconsequence": 5542,
    "Ġlove": 2052,
    "ology": 1566,
    "Ġcocksure": 26258,
    "bildad": 9586,
    "final": 19675,
    "Ġgi": 15664,
    "singing": 24363,
    "terr": 8153,
    "Ġextravag": 11254,
    "Ġcompos": 22566,
    "utted": 15659,
    "com": 1023,
    "Ġbutchers": 18239,
    "Ġge": 1977,
    "Ġgrimes": 11034,
    "Ġdared": 5440,
    "21": 10071,
    "Ļ": 252,
    "Ġstoper": 14462,
    "ozy": 17622,
    "doubted": 17526,
    "Ġmurderer": 4979,
    "Ġpunctual": 17137,
    "Ġhitherto": 5879,
    "morning": 4857,
    "Ġnought": 21519,
    "Ġstretching": 10014,
    "Ġassuming": 16693,
    "Ġthickly": 12113,
    "Ġsimil": 2530,
    "cour": 4478,
    "thread": 15825,
    "Ġcellar": 8058,
    "Ġoysters": 20577,
    "gust": 6360,
    "Ġmenacing": 23105,
    "Ġhardy": 8565,
    "Ġobjective": 3765,
    "Ġwrinkled": 7264,
    "âĢĶâĢĻ": 8187,
    "majesty": 26280,
    "Ġparacelsus": 15265,
    "sigma": 3002,
    "ust": 498,
    "Ġlosing": 10916,
    "count": 4212,
    "Ġunrecord": 16621,
    "Ġsummer": 4788,
    "bowed": 10683,
    "Ġpatience": 2870,
    "Ġjourney": 3879,
    "ishly": 14199,
    "Ġsulphur": 24933,
    "disgraceful": 26076,
    "Ġunpleasing": 22052,
    "Ġimbec": 14156,
    "surv": 24213,
    "Ġmalignant": 14877,
    "ou": 287,
    "Ġfacilitate": 26098,
    "ojo": 7349,
    "sea": 4761,
    "inion": 2878,
    "Ġjanuary": 13652,
    "Ġfrantic": 7956,
    "dee": 11726,
    "Ġconsistence": 23354,
    "Ġhussey": 7724,
    "Ġdeline": 16332,
    "Ġprovoking": 16743,
    "Ġregion": 2272,
    "Ġpope": 11601,
    "Ġ31": 12128,
    "Ġfossil": 12385,
    "Ġha": 400,
    "Ġmeditate": 16682,
    "jabez": 20932,
    "Ġfired": 16153,
    "Ġchurch": 4709,
    "Ġam": 660,
    "quer": 11678,
    "Ġunexpected": 6842,
    "Ġsteals": 23081,
    "Ġpropos": 7062,
    "Ġshape": 5639,
    "stubb": 6017,
    "88": 20757,
    "name": 6795,
    "Ġjam": 10951,
    "Ġhighway": 14345,
    "Ġdoubled": 19641,
    "ognit": 19214,
    "Ġdozen": 8185,
    "Ġsplashing": 16549,
    "mend": 20965,
    "Ġrib": 4935,
    "Ġdocile": 19957,
    "Ġalders": 21781,
    "Ġtriumphant": 12187,
    "Ġbutter": 6839,
    "Ġvigil": 9506,
    "ogany": 18675,
    ";": 31,
    "ridge": 9496,
    "Ġsnug": 8279,
    "them": 3019,
    "89": 20758,
    "nament": 11506,
    "four": 6113,
    "appl": 9325,
    "Ġshut": 3942,
    "three": 5239,
    "isles": 15562,
    "Ġestimable": 23870,
    "ectual": 21912,
    "Ġfilled": 4392,
    "Ġmid": 2614,
    "objection": 19914,
    "morn": 20975,
    "Ġcurled": 8226,
    "Ġplough": 18609,
    "Ġball": 3622,
    "Ġlig": 21545,
    "Ġjonas": 20608,
    "Ġcontest": 18473,
    "Ġ*/": 10373,
    "Ġdigress": 24648,
    "ingle": 1038,
    "ov": 15400,
    "Ġint": 409,
    "Ġlit": 6246,
    "Ġtoo": 1165,
    "enthusiastic": 20691,
    "Ġacquies": 11098,
    "picture": 11407,
    "Ġchained": 16387,
    "Ġvac": 5025,
    "Ġsocieties": 20181,
    "etieth": 21581,
    "Ġlay": 583,
    "Ġmanly": 22321,
    "ĠĠĠĠĠĠĠĠĠĠĠĠĠĠĠĠĠĠĠĠĠĠĠĠĠĠĠĠĠĠĠĠĠĠĠ": 19257,
    "Ġlan": 5820,
    "ibly": 2995,
    "amount": 10884,
    "Ġdeer": 12717,
    "ansion": 10925,
    "Ġaltering": 18102,
    "Ġindomitableness": 26571,
    "Ġindolent": 13002,
    "Ġimpertinent": 9077,
    "erc": 5904,
    "Ġledge": 19399,
    "Ġbul": 3296,
    "Ġservants": 6610,
    "aces": 2066,
    "ure": 356,
    "Ġcandelab": 23846,
    "Ġapo": 9630,
    "Ġroaring": 10968,
    "Ġhelm": 5275,
    "Ġmace": 21308,
    "Ġunassuming": 20507,
    "woof": 21138,
    "Ġpewter": 17185,
    "Ġrat": 4352,
    "follows": 24528,
    "theirs": 23601,
    "Ġvarieties": 14309,
    "Ġaunts": 21199,
    "Ġorbs": 22089,
    "Ġoccupation": 9930,
    "large": 6625,
    "ets": 1160,
    "Ġbowing": 10475,
    "mews": 22710,
    "Ġembarr": 7447,
    "Ġleaks": 16448,
    "Ġdreamed": 16629,
    "Ġdraughts": 20220,
    "Ġdropping": 7483,
    "ĠĠĠĠĠĠĠĠĠĠĠĠĠĠĠĠĠĠĠĠĠĠĠĠĠĠĠĠĠĠĠĠĠĠĠĠĠĠĠ": 19258,
    "Ġdimension": 3244,
    "Ġspasmod": 12412,
    "Ġwoods": 5406,
    "anks": 3916,
    "Ġvesuvius": 26501,
    "Ġwalking": 4322,
    "supervised": 1969,
    "neighbours": 24881,
    "Ġren": 3845,
    "stop": 11634,
    "Ġsucked": 14130,
    "stooped": 23819,
    "Ġcharging": 23265,
    "``": 15305,
    "ources": 2791,
    "Ġthree": 1371,
    "Ġformation": 2945,
    "intosh": 22937,
    "Ġlashed": 9198,
    "Ġlighter": 12650,
    "Ġportcull": 23861,
    "iod": 3839,
    "Ġirrevocably": 15296,
    "ondescript": 22914,
    "abb": 15737,
    "Ġarriving": 19216,
    "Ġmonsie": 11447,
    "Ġobserved": 3539,
    "chiefly": 14845,
    "sullen": 17669,
    "capitals": 25080,
    "itigated": 23044,
    "Ġwor": 1190,
    "Ġfaults": 12210,
    "nder": 20986,
    "Ġimbedded": 18336,
    "Ġautumnal": 19042,
    "spanish": 14331,
    "Ġ134": 24784,
    "honor": 19899,
    "ffic": 22159,
    "Ġhearses": 20058,
    "elt": 4114,
    "Ġsharply": 9402,
    "mb": 917,
    "Ġpantry": 20294,
    "Ġmake": 1286,
    "Ġharsh": 9520,
    "Ġfists": 15581,
    "Ġhyperborean": 26339,
    "Ġfierceness": 26265,
    "Ġmic": 17797,
    "Ġsurvive": 9066,
    "Ġsubl": 7235,
    "wor": 3416,
    "Ġviolin": 16428,
    "Ġflying": 5413,
    "offended": 16392,
    "Ġpluck": 15612,
    "Ġweeps": 24947,
    "Ġproducing": 11897,
    "oment": 920,
    "Ġleaning": 5228,
    "Ġextinction": 14335,
    "Ġmemb": 14029,
    "tiger": 13796,
    "resh": 8403,
    "Ġunrest": 11712,
    "Ġsenior": 17171,
    "Ġconsequ": 6254,
    "Ġlids": 12273,
    "stricken": 9883,
    "Ġmaintaining": 1508,
    "bacc": 7794,
    "ui": 9144,
    "admit": 18090,
    "Ġda": 5150,
    "Ġworks": 5857,
    "Ġreel": 9213,
    "Ġafar": 14293,
    "Ġalbino": 20501,
    "Ġbalance": 2019,
    "Ġexamine": 7734,
    "shop": 14238,
    "Ġretreated": 13432,
    "iracle": 11243,
    "sue": 2074,
    "Ġsequence": 1975,
    "mense": 4778,
    "erative": 21271,
    "self": 616,
    "Ġgunw": 6212,
    "Ġdum": 10811,
    "Ġderanged": 23172,
    "Ġsickening": 19603,
    "Ġhooks": 14967,
    "crop": 20797,
    "Ġsubsequently": 16160,
    "scor": 13017,
    "Ġstepping": 9353,
    "Ġfrank": 4417,
    "Ġdem": 11673,
    "enary": 12548,
    "Ġamuse": 5939,
    "Ġunattended": 15843,
    "Ġlumps": 21553,
    "were": 2558,
    "Ġensures": 3055,
    "Ġscorch": 20063,
    "Ġinferior": 8365,
    "Ġval": 968,
    "mblance": 7323,
    "Ġgrief": 4619,
    "iters": 21327,
    "Ġuninjured": 22053,
    "Ġnib": 13939,
    "tles": 10730,
    "iteness": 4390,
    "constable": 24605,
    "Ġtread": 9408,
    "Ġcoverage": 4286,
    "ailed": 3250,
    "destiny": 16702,
    "Ġexcited": 5580,
    "gave": 7799,
    "long": 2915,
    "Ġbuilt": 8299,
    "posture": 16927,
    "Ġinsufficient": 9672,
    "emed": 3380,
    "nin": 17608,
    "Ġdismay": 11807,
    "Ġbridge": 8348,
    "Ġvehicles": 10659,
    "ribut": 817,
    "Ġimpertin": 6933,
    "Ġresolving": 9418,
    "forgotten": 12414,
    "Ġdav": 15588,
    "humoredly": 26324,
    "Ġinhospit": 25452,
    "Ġcaution": 11346,
    "ma": 1149,
    "Ġgrounded": 23710,
    "encoun": 12296,
    "Ġrampart": 20317,
    "Ġbask": 8116,
    "Ġstrang": 4159,
    "Ġpatted": 16379,
    "unfort": 21873,
    "ishness": 22339,
    "remained": 8569,
    "Ġmend": 8405,
    "Ġrelate": 6875,
    "li": 1189,
    "Ġseven": 4541,
    "Ġclin": 14200,
    "uncommon": 11680,
    "Ġawed": 23584,
    "Ġsecurity": 8977,
    "sitting": 8386,
    "stained": 21652,
    "Ġon": 351,
    "Ġhumans": 8929,
    "Ġnorthern": 7265,
    "hung": 8380,
    "Ġken": 22188,
    "Ġstop": 2502,
    "Ġskeletons": 16791,
    "Ġrepairs": 19083,
    "unsupervised": 10889,
    "å": 166,
    "Ġorphans": 20203,
    "named": 9902,
    "Ġhoarse": 14526,
    "fth": 20855,
    "Ġinfallible": 15069,
    "governed": 25405,
    "blubber": 15235,
    "Ġthoughtfulness": 18774,
    "rie": 2789,
    "Ġdishonoured": 20389,
    "Ġoverheard": 11772,
    "Ġinwards": 15619,
    "Ġexasperate": 20096,
    "Ġ76": 24262,
    "Ġdefinite": 11069,
    "Ġcav": 13879,
    "Ġremem": 4311,
    "Ġdecay": 1013,
    "fine": 10090,
    "Ġloves": 10915,
    "Ġscold": 10950,
    "izarre": 17388,
    "door": 6193,
    "destined": 24114,
    "you": 1006,
    "Ġcounted": 12137,
    "qu": 369,
    "ckinridge": 11717,
    "Ġscroll": 14189,
    "relatively": 24011,
    "Ġnav": 5818,
    "clad": 14458,
    "Ġhab": 4217,
    "Ġsofas": 26224,
    "composure": 24031,
    "anc": 6379,
    "Ġpanegyric": 26449,
    "Ġheadsman": 13273,
    "Ġrequest": 6050,
    "Ġglens": 18853,
    "hammered": 19003,
    "Ġdivert": 23592,
    "Ġgoodness": 6058,
    "Ġholmes": 1309,
    "Ġdedicated": 19235,
    "Ġbackwoods": 22654,
    "tps": 11534,
    "Ġvillainous": 25131,
    "uit": 8392,
    "Ġblend": 14398,
    "Ġinexperienced": 26100,
    "Ġshaken": 10264,
    "Ġcontinue": 5398,
    "Ġconvert": 11844,
    "----âĢĿ": 13305,
    "Ġhim": 475,
    "Ġfemin": 13435,
    "Ġspices": 22137,
    "silver": 19689,
    "Ġmaids": 19690,
    "coloured": 7291,
    "Ġslavish": 23171,
    "Ġerection": 23998,
    "crime": 14781,
    "Ġexploding": 2109,
    "h": 76,
    "Ġbecause": 2210,
    "rapidly": 15242,
    "ĸ": 249,
    "Ġamiable": 4268,
    "Ġtwitching": 25683,
    "mixed": 15393,
    "Ġshoot": 11161,
    "Ġfalsely": 20580,
    "Ġfeebly": 24877,
    "Ġerected": 12231,
    "Ġinch": 7849,
    "Ġfood": 5080,
    "Ġlascar": 9199,
    "transferred": 24514,
    "Ġnavel": 24576,
    "saving": 21058,
    "riot": 18184,
    "Ġsufferer": 16259,
    "Ġgot": 2282,
    "Ġgodly": 19080,
    "ult": 722,
    "forget": 11031,
    "Ġplane": 11821,
    "Ġonto": 14028,
    "Ġconsummate": 25310,
    "Ġdoub": 1836,
    "knowing": 10437,
    "Ġ112": 24437,
    "Ġarchitecture": 1133,
    "Ġhouse": 1503,
    "Ġsummons": 13230,
    "Ġflapp": 23007,
    "Ġparish": 8854,
    "Ġforesaw": 19127,
    "Ġmincer": 14364,
    "Ġunwillingness": 20030,
    "Ġazure": 12372,
    "urre": 10856,
    "threadbare": 25989,
    "ld": 385,
    "Ġthanking": 18602,
    "commod": 16177,
    "bbed": 6911,
    "bled": 5469,
    "Ġembarked": 17134,
    "Ġindirectly": 8939,
    "Ġpurposely": 10444,
    "Ġlimber": 16479,
    "Ġbreeze": 5681,
    "too": 4506,
    "ength": 2314,
    "59": 17473,
    "Ġpaint": 7707,
    "Ġlabors": 23327,
    "weakness": 16123,
    "Ġpursuits": 12074,
    "Ġselect": 4001,
    "Ġwilfully": 16766,
    "ondon": 2705,
    "Ġsavag": 19372,
    "ledyard": 22380,
    "stolen": 13981,
    "behind": 6779,
    "objects": 13469,
    "Ġamidst": 9493,
    "entimes": 12653,
    "Ġreadability": 2724,
    "Ġacquit": 18897,
    "Ġreader": 11932,
    "terns": 21819,
    "serve": 13044,
    "Ġstopping": 2748,
    "omed": 13974,
    "ourage": 2451,
    "Ġyea": 8915,
    "Ġcomforter": 20505,
    "itious": 8779,
    "Ġsong": 5902,
    "Ġselected": 9709,
    "Ġhatchway": 13524,
    "Ġguar": 23043,
    "itering": 17818,
    "Ġarranged": 9876,
    "gen": 6503,
    "chose": 18040,
    "Ġbill": 4041,
    "Ġantagon": 19549,
    "Ġexploration": 2336,
    "apside": 22957,
    "Ġpalmed": 24089,
    "Ġfires": 16472,
    "Ġcomo": 21839,
    "ĠvertebrÃ¦": 11435,
    "deserts": 25379,
    "Ġcoupled": 16851,
    "Ġsponge": 26003,
    "libr": 22920,
    "Ó": 148,
    "Ġbanners": 24858,
    "stays": 15687,
    "stepfather": 19189,
    "Ġord": 3734,
    "ended": 1834,
    "Ġpoorly": 9854,
    "Ġ1825": 25719,
    "Ġapplication": 2084,
    "icions": 21560,
    "Ġcommunicative": 24548,
    "Ġsoothe": 7405,
    "Ġ36": 14766,
    "west": 10739,
    "Ġphysiology": 25332,
    "promontory": 24728,
    "!âĢĻ": 3333,
    "Ġpowdered": 24237,
    "Ġpurest": 14938,
    "fury": 17547,
    "Ġcongeal": 25980,
    "ux": 7813,
    "published": 26142,
    "Ġfootpaths": 26318,
    "Ġshutters": 9936,
    "uel": 6966,
    "inquiries": 13576,
    "sm": 3435,
    "dÃ¦mon": 17527,
    "Ġomen": 11575,
    "acy": 3954,
    "Ġparch": 11724,
    "Ġapart": 4744,
    "Ġbodily": 6106,
    "Ġfun": 524,
    "Ġnormalizes": 1861,
    "gin": 4929,
    "Ġprot": 3847,
    "Ġnorms": 3664,
    "heaving": 21206,
    "arial": 5532,
    "Ġstifle": 18073,
    "rimshander": 20656,
    "borrowed": 20791,
    "Ġpersuaded": 5769,
    "Ġtwine": 14310,
    "slack": 16894,
    "Ġsalisbury": 24061,
    "Ġenemies": 9038,
    "cest": 12442,
    "Ġrejo": 5915,
    "Ġanimation": 11152,
    "Ġcramped": 23527,
    "Ġrack": 9311,
    "wives": 15455,
    "changed": 7175,
    "particular": 5757,
    "ropout": 1321,
    "else": 6533,
    "Ġintrusted": 21989,
    "Ġdispleasure": 16051,
    "Ġinteresting": 4323,
    "treatment": 20410,
    "Ġhopeful": 19028,
    "Ġchanges": 2288,
    "Ġbrid": 6290,
    "Ġsuddenly": 2646,
    "andy": 8157,
    "zes": 11548,
    "truth": 9918,
    "boscombe": 26121,
    "Ġdeaths": 14538,
    "Ġvers": 7563,
    "ong": 536,
    "Ġthreat": 5154,
    "bern": 20774,
    "Ġstriding": 16092,
    "Ġtor": 8105,
    "Ġacres": 14312,
    "Ġdevoid": 18680,
    "Ġrelu": 1047,
    "ik": 17571,
    "Ġpond": 13915,
    "Ġheadway": 18793,
    "Ġconception": 10321,
    "Ġconjoined": 21803,
    "yt": 17711,
    "Ġconnections": 971,
    "Ġdaughters": 4419,
    "Ġlifted": 6985,
    "Ġiron": 3239,
    "Ġcaptiv": 16257,
    "Ġmonomania": 17085,
    "Ġlamentations": 17076,
    "vely": 3866,
    "Ġtens": 17723,
    "Ġuncouth": 14550,
    "Ġhostile": 19938,
    "clothes": 9057,
    "Ġhoof": 23351,
    "epilogue": 22100,
    "threaten": 25461,
    "intense": 22933,
    "Ġsolace": 16199,
    "Ġrudimental": 25108,
    "swed": 24253,
    "Ġeffusion": 22517,
    "buckets": 26123,
    "Ġswift": 3668,
    "ientific": 6547,
    "georgiana": 26020,
    "Ġkiss": 8182,
    "Ġpresumably": 19623,
    "Ġdefy": 11895,
    "Ġfixedly": 19247,
    "Ġspitzbergen": 15286,
    "Ġstreaming": 19672,
    "unwillingly": 21881,
    "pless": 6260,
    "heredit": 21208,
    "aved": 5475,
    "acters": 9308,
    "Ġaunt": 3176,
    "brated": 12025,
    "Ġexhibited": 9543,
    "agre": 18164,
    "dorff": 15236,
    "Ġmassacre": 20546,
    "speeches": 25239,
    "Ġdarkly": 19114,
    "Ġloosed": 22109,
    "Ġze": 8544,
    "Ġirish": 14534,
    "racts": 14357,
    "omely": 21636,
    "Ġglades": 19370,
    "Ġsubmitted": 11869,
    "Ġgnarled": 25165,
    "fishermen": 17061,
    "Ġimpotent": 18447,
    "Ġsurv": 6081,
    "Ġimparts": 18446,
    "Ġscream": 5934,
    "fairly": 17219,
    "Ġalbert": 12703,
    "indispensable": 14212,
    "cad": 17504,
    "aping": 8193,
    "water": 4866,
    "iana": 7048,
    "Ġregarded": 5762,
    "Ġlab": 1870,
    "Ġroyalty": 19735,
    "Ġnonsense": 6982,
    "ison": 3073,
    "Ġket": 18347,
    "sford": 5997,
    "Ġfreshly": 23984,
    "Ġjane": 1758,
    "attachment": 13049,
    "flukes": 25205,
    "Ġpreprocessing": 26536,
    "Ġrippling": 17277,
    "Ċ": 203,
    "igh": 2028,
    "ĠâĢľâĢĺ_": 25111,
    "eastern": 17533,
    "construction": 19777,
    "Ġghast": 9209,
    "gish": 20872,
    "Ġundulating": 19516,
    "doubtful": 24791,
    "dation": 2611,
    "Ġprofund": 13152,
    "Ġadagrad": 2907,
    "crack": 19839,
    ",_": 11462,
    "Ġoriginally": 7304,
    "Ġdefects": 12331,
    "brought": 7285,
    "Ġshamefully": 24716,
    "Ġboon": 22634,
    "Ġcompleted": 8997,
    "Ġirre": 7468,
    "Ġcigars": 12250,
    "Ġunwound": 25169,
    "Ġwedded": 16674,
    "stuff": 15686,
    "Ġrheumatic": 20704,
    "noo": 9787,
    "nect": 662,
    "rep": 5525,
    "Ġmowers": 17812,
    "ink": 757,
    "Ġshorter": 4497,
    "deadly": 17100,
    "Ġseclusion": 18206,
    "Ġstoried": 18072,
    "thence": 23398,
    "cable": 20796,
    "Ġdepends": 1071,
    "ack": 609,
    "Ġrhone": 25230,
    "Ġcaptioning": 23019,
    "Ġobe": 5800,
    "Ġvillains": 14748,
    "Ġdependency": 3486,
    "Ġbonds": 17869,
    "Ġbulkhead": 24511,
    "Ġnovelty": 13462,
    "Ġfogs": 25282,
    "mediate": 16512,
    "legra": 10789,
    "Ġcapable": 5054,
    "Ġseals": 11693,
    "Ġlengths": 19204,
    "Ġwent": 1537,
    "Ġduchess": 4797,
    "Ġcritics": 23443,
    "cause": 7795,
    "Ġabstraction": 26540,
    "plex": 708,
    "bond": 17489,
    "Ġgrope": 17994,
    "Ġcurse": 7667,
    "Ġfearfully": 23509,
    "tent": 21063,
    "carefully": 13367,
    "Ġceleb": 20224,
    "Ġdestabilizing": 5053,
    "Ġlar": 765,
    "signed": 21060,
    "zza": 24167,
    "Ġskiff": 16164,
    "Ġcovariate": 2350,
    "Ġ124": 24469,
    "Ġpossesses": 19350,
    "Ġarrog": 18344,
    "treat": 12511,
    "say": 3986,
    "Ġcosmetic": 23470,
    "Ġsorely": 17256,
    "Ġrussia": 26267,
    "Ġdoorway": 14497,
    "Ġsenate": 25214,
    "Ġabilities": 8867,
    "forbid": 14346,
    "Ġsweating": 16463,
    "Ġsemicirc": 16389,
    "Ġire": 12664,
    "threatened": 25462,
    "kinson": 10025,
    "elizabeth": 1985,
    "Ġcombined": 8547,
    "depths": 25663,
    "ckets": 6843,
    "ailing": 7021,
    "Ġcontour": 18474,
    "Ġpinched": 17035,
    "Ġinvader": 23477,
    "ports": 13773,
    "Ġtroop": 24897,
    "Ġindication": 22949,
    "Ġleg": 2335,
    "Ġ74": 24261,
    "Ġwin": 9641,
    "succeeded": 15174,
    "Ġoakshott": 12227,
    "Ġreced": 15690,
    "Ġtestimony": 14478,
    "Ġthw": 21512,
    "simple": 13451,
    "Ġdistant": 5387,
    "roused": 16652,
    "Ġsain": 17750,
    "Ġfruits": 17118,
    "Ġbenefactor": 14697,
    "Ġuntimely": 16467,
    "police": 10583,
    "Ġyours": 4123,
    "such": 3081,
    "absolut": 8458,
    "Ġabundant": 17154,
    "Ġintimidated": 24805,
    "ques": 2844,
    "Ġtamely": 24977,
    "skin": 10568,
    "_,âĢĻâĢĿ": 20399,
    "pure": 17626,
    "Ġwindsor": 16887,
    "Ġbased": 3340,
    "Ġaim": 10145,
    "Ġparac": 12792,
    "rance": 5993,
    "Ġupper": 5090,
    "separated": 20158,
    "Ġsample": 3177,
    "Ġmishap": 20575,
    "whole": 6085,
    "Ġwilling": 7421,
    "woe": 21134,
    "Ġmaled": 21313,
    "entered": 8814,
    "Ġfatigued": 13464,
    "shutters": 20312,
    "relative": 24010,
    "scuttle": 11907,
    "farintosh": 24553,
    "frankenstein": 11391,
    "Ġannoyance": 20661,
    "lose": 12879,
    "Ġextravagant": 17278,
    "art": 574,
    "ictions": 14225,
    "embraces": 25803,
    "Ġwaiter": 16359,
    "Ġinher": 10179,
    "approaching": 15011,
    "shaw": 6864,
    "Ġdevotedly": 24750,
    "connection": 18867,
    "Ġemploying": 23975,
    "Ġflow": 1239,
    "Ġcausing": 16357,
    "helpless": 16790,
    "Ġelbow": 12917,
    "Ġsumat": 14129,
    "itement": 7835,
    "Ġmounting": 19975,
    "Ġenh": 2773,
    "persuaded": 15072,
    "kes": 3678,
    "Ġflushed": 13024,
    "baron": 24925,
    "Ġshipwreck": 20444,
    "general": 7489,
    "Ġparsonage": 7123,
    "sip": 10725,
    "İ": 241,
    "Ġpaddington": 17095,
    "well": 1690,
    "glad": 9007,
    "allowance": 16824,
    "poverty": 22905,
    "Ġdipped": 15593,
    "ilated": 18057,
    "hog": 8379,
    "Ġwealthy": 18178,
    "Ġturkey": 19218,
    "popular": 26140,
    "occupation": 15056,
    "Ġplumber": 16084,
    "Ġstrewed": 23420,
    "Ġlurks": 11290,
    "Ġneskye": 21528,
    "accents": 19209,
    "Ġexcel": 3566,
    "Ġliberally": 16830,
    "sole": 6168,
    "Ġaddressed": 5262,
    "Ġtraced": 10383,
    "Ġpreferment": 19852,
    "separ": 9230,
    "Ġprov": 4398,
    "Ġresponsible": 9885,
    "Ġgeneric": 18448,
    "Ġpool": 5173,
    "Ġdiet": 13909,
    "bon": 13683,
    "Ġperilous": 7768,
    "Ġhails": 21947,
    "Ġmerchantmen": 19859,
    "regarding": 15070,
    "Ġvehemence": 26566,
    "Ġauthent": 14511,
    "angling": 14140,
    "Ġcaravan": 26290,
    "orrah": 17875,
    "Ġtal": 7564,
    "Ġfairness": 9892,
    "Ġhams": 16612,
    "shell": 16286,
    "Ġstudy": 1737,
    "conduct": 11795,
    "Ġinsince": 23677,
    "Ġpauses": 14814,
    "Ġgrudge": 20692,
    "reigned": 21241,
    "Ġopposed": 11188,
    "breathing": 25335,
    "Ġloadstone": 25816,
    "indust": 18435,
    "roqu": 21531,
    "Ġseemed": 1279,
    "Ġforge": 8456,
    "Ġclassify": 1609,
    "wreat": 21126,
    "Ġdandy": 17892,
    "recursion": 13327,
    "hypothe": 25905,
    "irious": 15784,
    "sticks": 25965,
    "Ġbarn": 11586,
    "Ġmeanness": 22596,
    "Ġwasting": 12725,
    "Ġvisit": 2582,
    "hastened": 16845,
    "Ġincivility": 18572,
    "ining": 3223,
    "Ġbless": 4341,
    "departed": 24794,
    "Ġreality": 7057,
    "enesis": 24388,
    "whew": 22865,
    "Ġacceler": 1613,
    "Ġresemblance": 7973,
    "Ġstreaked": 19113,
    "sufferable": 12174,
    "Ġslappin": 18942,
    "Ġirregularity": 25324,
    "remes": 21236,
    "Ġxlix": 25860,
    "Ġsimilarly": 24308,
    "tallied": 21088,
    "Ġwars": 17785,
    "brave": 19822,
    "Ġsuavely": 26523,
    "Ġundivided": 24120,
    "Ġunequal": 14841,
    "onel": 3088,
    "Ġpermanently": 25473,
    "Ġquohog": 10972,
    "arboard": 7266,
    "Ġfailing": 12135,
    "Ġcable": 11579,
    "Ġprairies": 20019,
    "Ġshaped": 15833,
    "Ġhorseman": 19606,
    "coarse": 16487,
    "pronouncing": 25193,
    "Ġfamily": 1965,
    "Ġobliter": 14321,
    "fug": 17543,
    "Ġsupported": 9817,
    "Ġpap": 8797,
    "nib": 5214,
    "54": 15298,
    "additional": 20462,
    "imodal": 17446,
    "protested": 13473,
    "Ġemails": 13105,
    "union": 15768,
    "Ġburnwell": 13267,
    "Ġnineveh": 13388,
    "Ġfattened": 25949,
    "Ġfreshe": 13068,
    "Ġperu": 14222,
    "Ġstraits": 7993,
    "Ġvane": 22873,
    "unconquerable": 21888,
    "Ġcobb": 14271,
    "Ġbravery": 23834,
    "olently": 15755,
    "neural": 3065,
    "Ġodds": 13328,
    "Ġreve": 2935,
    "Ġmaddening": 17243,
    "Ġapparel": 20434,
    "Ġsteadfast": 8678,
    "luded": 4227,
    "Ġstanzas": 21741,
    "slow": 7810,
    "Ġmonument": 16236,
    "akened": 7415,
    "Ġarticle": 9501,
    "beg": 22483,
    "Ġtun": 5998,
    "Ġresurrection": 12891,
    "ellow": 3875,
    "relation": 19445,
    "Ġoccasioned": 13225,
    "Ġmule": 13861,
    "Ġimportance": 4899,
    "Ġastr": 15494,
    "Ġexam": 3710,
    "python": 4690,
    "Ġpatagon": 14508,
    "Ġreeling": 18032,
    "Ġdriving": 3616,
    "Ġlogic": 13076,
    "Ġabstained": 25231,
    "Ġ1778": 25730,
    "Ġcalms": 23040,
    "Ġformidable": 8219,
    "Ġfals": 15579,
    "Ġmasses": 10503,
    "Ġmatter": 1733,
    "nuts": 15398,
    "Ġfeatureless": 22606,
    "nowled": 5470,
    "tied": 21069,
    "earth": 6502,
    "Ġmoment": 989,
    "Ġsuited": 12781,
    "À": 129,
    "Ġsauc": 15887,
    "Ġflog": 23621,
    "official": 24914,
    "Ġhousehold": 8567,
    "adays": 14012,
    "Ġadvance": 5484,
    "Ġtasselled": 25921,
    "Ġ45": 14769,
    "Ġbinnacle": 8118,
    "Ġhoney": 12629,
    "Ġcabin": 3305,
    "rudential": 16709,
    "Ġinstability": 3812,
    "Ġplenty": 6708,
    "urry": 13993,
    "Ġspect": 3551,
    "james": 15371,
    "Ġoffence": 12942,
    "Ġsatir": 18794,
    "haustible": 16891,
    "respect": 6374,
    "Ġwhispered": 5337,
    "Ġdeep": 831,
    "says": 13298,
    "inhab": 10757,
    "walton": 20248,
    "Ġfac": 6381,
    "Ġboot": 11837,
    "Ġdeity": 18137,
    "Ġdoubloon": 6945,
    "jur": 17578,
    "Ġdiv": 3730,
    "Ġneedles": 11184,
    "Ġangelic": 19626,
    "phil": 7924,
    "scorched": 25697,
    "Ġelbows": 18641,
    "cules": 12389,
    "hroom": 12474,
    "pride": 11209,
    "Ġcircling": 19092,
    "illustration": 2285,
    "Ġazores": 20192,
    "tumbled": 21089,
    "blind": 16705,
    "Ġrefine": 3007,
    "Ġtwelve": 4962,
    "enormous": 26166,
    "Ġelaborate": 18642,
    "crowning": 25748,
    "Ġopine": 19226,
    "Ġethiop": 26155,
    "ius": 5789,
    "Ġhated": 7584,
    "Ġlived": 3993,
    "Ġoffered": 5816,
    "chers": 11317,
    "Ġcleanse": 24527,
    "Ġjeopardized": 20229,
    "Ġjuggling": 20437,
    "Ġdecreases": 3408,
    "Ġdignity": 5704,
    "Ġrevolutions": 23839,
    "allingly": 22196,
    "Ġagrees": 22512,
    "Ġexpectantly": 23522,
    "mar": 4334,
    "Ġfeasts": 25369,
    "existence": 16013,
    "leader": 25351,
    "Ġawake": 8271,
    "Ġencircling": 26271,
    "Ġtaken": 2527,
    "problems": 11434,
    "oo": 7553,
    "eyes": 5684,
    "Ġlessons": 7691,
    "antarctic": 22096,
    "Ġcrockery": 24301,
    "approb": 11042,
    "Ġpalms": 8643,
    "tons": 7559,
    "dost": 14535,
    "Ġtrif": 6269,
    "Ġelucidated": 26029,
    "Ġcomfortable": 6094,
    "unreasonable": 18162,
    "Ġclouds": 5775,
    "Ġinquire": 7719,
    "artificial": 939,
    "Ġsay": 933,
    "Ġabatement": 22283,
    "Ġflowery": 16230,
    "Ġsoundings": 13132,
    "Ġdart": 4584,
    "Ġlocks": 11722,
    "ored": 3895,
    "Ġcorporeal": 17359,
    "Ġinc": 702,
    "Ġsi": 21211,
    "Ġadmirably": 16481,
    "Ġlizz": 21554,
    "Ġimpart": 11778,
    "Ġgratifying": 13304,
    "angered": 16175,
    "Ġsecuring": 11990,
    "\"]": 17470,
    "Ġscalding": 16312,
    "Ġwhitt": 18054,
    "Ġmatters": 4973,
    "ipper": 13739,
    "Ġverdict": 13474,
    "Ġstare": 10864,
    "jacket": 12290,
    "scale": 3533,
    "Ġelement": 6898,
    "Ġrate": 1062,
    "lives": 12483,
    "drove": 16993,
    "Ġstepmother": 16088,
    "Ġchisel": 20366,
    "Ġtem": 807,
    "Ġtruthful": 23865,
    "holmes": 4428,
    "Ġinsolence": 20252,
    "Ġpride": 3823,
    "shold": 2774,
    "Ġsuppress": 13021,
    "Ġinvestigated": 25386,
    "Ġimplac": 24874,
    "gia": 20875,
    "pull": 6796,
    "wharf": 20605,
    "Ġshivered": 14107,
    "aside": 10191,
    "tone": 8762,
    "Ġluxurious": 17310,
    "Ġchallenge": 25471,
    "tide": 11532,
    "Ġorgan": 2503,
    "Ġgreater": 3036,
    "ish": 550,
    "Ġimmense": 4951,
    "ency": 3868,
    "Ġshame": 6410,
    "ria": 15796,
    "Ġmag": 1430,
    "Ġislets": 21798,
    "aced": 2408,
    "Ġsugg": 4498,
    "ark": 847,
    "els": 1765,
    "ordinary": 4405,
    "nings": 9131,
    "moby": 8536,
    "Ġladyship": 5046,
    "imely": 13997,
    "Ġhurst": 5582,
    "Ġcongenial": 12409,
    "tarpaul": 21096,
    "Ġcheery": 16367,
    "Ġthank": 3790,
    "wretched": 10741,
    "Ġstaggered": 9538,
    "Ġconvey": 9980,
    "Ã¦us": 14816,
    "ancholy": 5070,
    "Ġunholy": 26218,
    "osque": 22259,
    "Ġdespaired": 14668,
    "quar": 7615,
    "punct": 20191,
    "Ġlengthened": 25958,
    "Ġkrem": 9725,
    "Ġfinished": 5044,
    "tit": 11527,
    "fra": 8374,
    "Ġclergyman": 8711,
    "Ġvind": 10249,
    "Ġprinted": 11947,
    "clopÃ¦dia": 15255,
    "Ġauthentic": 20534,
    "Ġradiant": 16809,
    "Ġcontemptuous": 24676,
    "Ġpovels": 22589,
    "kne": 20934,
    "Ġsymph": 22205,
    "mosp": 8088,
    "Ġethiopian": 26613,
    "holloa": 19462,
    "piled": 21014,
    "Ġproudly": 19741,
    "amongst": 24672,
    "Ġdebar": 24271,
    "those": 4494,
    "Ġwaterward": 23365,
    "ordinate": 12872,
    "Ġfulfilment": 20186,
    "Ġcamberwell": 25350,
    "pre": 648,
    "Ġgolden": 5336,
    "Ġcoincidence": 25483,
    "Ġdaintiest": 25953,
    "ohog": 9843,
    "Ġconnect": 796,
    "Ġfreely": 7056,
    "advise": 24217,
    "Ġalone": 2566,
    "Ġchambermaid": 24304,
    "Ġadversary": 12171,
    "ĠâĢľâĢĺ": 8503,
    "Ġwhit": 7177,
    "happened": 9432,
    "Ġsprung": 11249,
    "allions": 22195,
    "heric": 15910,
    "Ġastonishment": 4792,
    "Ġsoftened": 11102,
    "Ġeff": 689,
    "itan": 10159,
    "lod": 15377,
    "Ġpicturesqueness": 24480,
    "own": 745,
    "Ġnapoleons": 25885,
    "end": 500,
    "flu": 9117,
    "Ġlouisa": 13545,
    "shark": 14239,
    "Ġsurrounds": 24231,
    "bers": 2569,
    "Ġfuller": 11156,
    "Ġastern": 6090,
    "ython": 1031,
    "rogress": 21533,
    "ordingly": 18518,
    "reflections": 24735,
    "Ġbal": 1132,
    "ub": 1226,
    "Ġgu": 1328,
    "Ġsequ": 981,
    "*": 14,
    "lakeman": 13750,
    "rifice": 12501,
    "Ġafford": 4364,
    "perhaps": 4121,
    "Ġcalculating": 9924,
    "chain": 18039,
    "Ġmuster": 16121,
    "Ġcuriosities": 26288,
    "pidation": 18883,
    "Ġexhaustion": 14960,
    "plain": 1359,
    "Ġcontortions": 18476,
    "Ġdiver": 2529,
    "Ġyoke": 18095,
    "Ġlightning": 5750,
    "Ġcontemptuously": 19832,
    "Ġunforgiving": 25995,
    "¾": 127,
    "Ġradiance": 13369,
    "Ġspeedily": 7711,
    "Ġsupplies": 20325,
    "bedroom": 14676,
    "slee": 17168,
    "Ġfearlessness": 19160,
    "Ġequin": 14495,
    "nature": 5359,
    "Ġchoke": 22246,
    "ositions": 10283,
    "isome": 17848,
    "Ġperformed": 8546,
    "Ġuntrodden": 23519,
    "Ġtempestuous": 20069,
    "Ġz": 998,
    "wait": 11320,
    "Ġsurpr": 2550,
    "Ġgrinned": 16857,
    "spears": 23939,
    "Ġundeviating": 15216,
    "fi": 12459,
    "Ġwra": 5905,
    "Ġhues": 21486,
    "Ġemig": 14524,
    "ogra": 4572,
    "Ġlulled": 17968,
    "Ġstraggling": 23749,
    "Ġdot": 4818,
    "Ġnour": 10830,
    "Ġpreach": 14172,
    "Ġunquestion": 18251,
    "Ġcheer": 4067,
    "Ġzig": 18742,
    "acc": 2532,
    "Ġgenerously": 22392,
    "Ġaperture": 26160,
    "Ġbrother": 2747,
    "ellest": 21571,
    "Ġrattling": 11395,
    "Ġusually": 6263,
    "bourn": 3304,
    "wishes": 13806,
    "moved": 9783,
    "Ġrepro": 7275,
    "Ġyoung": 1506,
    "Ġnaturalists": 10362,
    "Ġkindling": 19027,
    "Ġdeposit": 17268,
    "Ġcircumstantial": 14643,
    "Ġbrilliancy": 20105,
    "osop": 4402,
    "Ġdragg": 23213,
    "like": 1883,
    "Ġcolours": 12971,
    "Ġsang": 12532,
    "Ġiceberg": 14715,
    "lev": 1236,
    "coll": 23777,
    "resp": 13838,
    "Ġsadder": 24048,
    "data": 2191,
    "evinced": 19925,
    "Ġwaved": 9644,
    "Ġpipeline": 2299,
    "Ġerie": 20052,
    "Ġbutcher": 18238,
    "emberley": 4169,
    "cheerful": 13574,
    "ding": 1231,
    "Ġwardrobe": 17225,
    "Ġspecimen": 13020,
    "relations": 14732,
    "intention": 10367,
    "raised": 15677,
    "Ġproduces": 2092,
    "Ġdesper": 6176,
    "Ġmedic": 11247,
    "Ġaustralia": 15231,
    "step": 2458,
    "Ġbrittle": 22861,
    "Ġcured": 21345,
    "lings": 8745,
    "Ġdut": 2988,
    "Ġpirates": 9073,
    "captains": 12125,
    "rador": 19158,
    "deserted": 18958,
    "Ġgoat": 16005,
    "hering": 12811,
    "Ġaccustomed": 6861,
    "Ġshetland": 22161,
    "Ġpennies": 17270,
    "ene": 2168,
    "Ġhunters": 6300,
    "Ġstro": 4594,
    "antic": 1608,
    "Ġbridal": 14953,
    "uzza": 11270,
    "kinder": 24845,
    "Ġgruff": 21611,
    "Ġvariation": 22662,
    "ware": 3935,
    "stood": 4115,
    "Ġdur": 11591,
    "alk": 1152,
    "Ġcouns": 10520,
    "questions": 16760,
    "fect": 2302,
    "urch": 3996,
    "hyme": 19608,
    "Ġencomp": 12960,
    "herald": 22203,
    "renadier": 18419,
    "Ġeaster": 15673,
    "Ġtacit": 21173,
    "ginger": 13162,
    "Ġfairy": 14627,
    "Ġsundial": 15081,
    "capting": 24036,
    "Ġcheeks": 5957,
    "Ġhelpless": 8301,
    "Ġhabitu": 19527,
    "Ġcroquet": 9961,
    "anged": 3587,
    "Ġmuttered": 7086,
    "Ġwhip": 8451,
    "Ġelegant": 7532,
    "poss": 4776,
    "Ġincessantly": 11411,
    "Ġ56": 24324,
    "Ġeurope": 8061,
    "Ġcompared": 2228,
    "Ġloathsome": 13527,
    "Ġheedful": 19739,
    "Ġstaggering": 20272,
    "Ġreputed": 18035,
    "Ġboard": 3383,
    "Ġhigh": 932,
    "gaining": 20122,
    "Ġwant": 1118,
    "a": 69,
    "ind": 568,
    "Ġspots": 11730,
    "uns": 21867,
    "rubbery": 17341,
    "horrors": 20540,
    "Ġhemis": 21681,
    "Ġcoin": 9770,
    "continuance": 19717,
    "Ġrafters": 22642,
    "reliable": 21239,
    "Ġsavi": 18325,
    "Ġnonsensical": 21526,
    "cking": 4264,
    "Ġcoal": 18593,
    "laden": 14928,
    "Ġmalays": 19676,
    "harpooneer": 8688,
    "urday": 13994,
    "Ġslugg": 15267,
    "Ġor": 437,
    "bearers": 18525,
    "occupations": 24964,
    "Ġrumpled": 24600,
    "Ġcomplex": 749,
    "Ġcar": 1421,
    "Ġsocially": 22078,
    "agger": 7871,
    "Ġwhitting": 18055,
    "Ġcertain": 1556,
    "plish": 18208,
    "Ġbusied": 19064,
    "Ġvindictiveness": 25738,
    "Ġdiscourse": 9797,
    "Ġfrown": 10807,
    "tery": 14036,
    "Ġacquaint": 13042,
    "Ġcruisers": 25863,
    "Ġdup": 21425,
    "Ġtreacle": 14595,
    "Ġinfinite": 8576,
    "Ġfrock": 10489,
    "Ġprairie": 8712,
    "Ġgroup": 2036,
    "remaining": 20219,
    "Ġresort": 18563,
    "Ġenveloping": 19733,
    "Ġsurrounded": 5878,
    "Ġpre": 507,
    "Ġperiodical": 14771,
    "wester": 21137,
    "ppered": 15789,
    "fights": 20864,
    "pherd": 13643,
    "ler": 3489,
    "Ġscholars": 26112,
    "<MASK>": 4,
    "always": 5708,
    "prom": 6509,
    "Ġadroop": 26001,
    "Ġred": 3004,
    "Ġvehem": 22887,
    "ula": 2828,
    "Ġmagg": 18905,
    "Ġcourt": 4167,
    "Ġexult": 10229,
    "inence": 15481,
    "Ġtum": 5692,
    "Ġeclipsed": 26376,
    "Ġknighthood": 25297,
    "Ġnarrow": 5086,
    "hardly": 6491,
    "concl": 12866,
    "nment": 20989,
    "Ġcylinders": 25943,
    "Ġcling": 11769,
    "ele": 9114,
    "Ġglimmered": 20170,
    "Ġsimilitude": 19208,
    "Ġofficious": 19346,
    "Ġneural": 621,
    "Ġjeer": 24123,
    "Ġdeceitfulness": 25734,
    "Ġmorality": 22968,
    "Ġinclination": 6623,
    "to": 714,
    "Ġtilted": 20411,
    "Ġtransactions": 18482,
    "Ġded": 2622,
    "narrated": 25621,
    "ify": 1470,
    "Ġwhelm": 25998,
    "Ġruggedness": 26268,
    "embed": 18182,
    "rush": 7010,
    "Ġunallied": 22029,
    "itch": 10160,
    "Ġshine": 12763,
    "Ġb": 281,
    "ivot": 11716,
    "life": 4931,
    "ropri": 2180,
    "friends": 8305,
    "tribute": 21087,
    "Ġspace": 1524,
    "concern": 6099,
    "wa": 5896,
    "Ġsalted": 14755,
    "Ġspleen": 26421,
    "oved": 5215,
    "rice": 13776,
    "Ġiter": 2954,
    "Ġdock": 15929,
    "parad": 16402,
    "Ġcontains": 2795,
    "Ġpot": 2990,
    "Ġtopic": 9405,
    "Ġequality": 16358,
    "linen": 25257,
    "best": 6111,
    "Å": 134,
    "ruded": 15894,
    "deep": 959,
    "!_âĢĶ": 19971,
    "lock": 1471,
    "Ġgrain": 15830,
    "Ġdire": 865,
    "Ġcreditor": 24290,
    "ggy": 13112,
    "Ġmomentary": 11035,
    "Ġsiber": 17755,
    "Ġexord": 21824,
    "ring": 1753,
    "Ġtriumph": 5143,
    "ades": 5631,
    "big": 13684,
    "Ġpatriot": 23298,
    "undertaking": 23786,
    "ĠâĢĶ": 13810,
    "Ġbegging": 11079,
    "ships": 5486,
    "armon": 23056,
    "manned": 18761,
    "Ã¦": 4336,
    "Ġresponded": 13637,
    "Ġshouted": 5347,
    "Ġparasol": 22118,
    "Ġcivilities": 14847,
    "Ġclustered": 25233,
    "arle": 21438,
    "eling": 6681,
    "Ġcolder": 22849,
    "Ġfiftieth": 24703,
    "Ġsoldiers": 8686,
    "Ġadmits": 23552,
    "ĠĠĠĠĠĠĠĠĠĠĠĠĠĠĠĠĠĠĠĠĠĠĠĠĠĠĠĠĠĠĠĠĠĠĠĠ": 23665,
    "Ġfobbing": 26441,
    "Ġcran": 11999,
    "imble": 10858,
    "Ġdiscours": 18718,
    "irresist": 21909,
    "Ġstorms": 11262,
    "eping": 5833,
    "allies": 14165,
    "Ġneighbourhood": 5126,
    "Ě": 219,
    "Ġfaced": 10808,
    "dig": 4928,
    "Ġmouldings": 24737,
    "vid": 915,
    "grieved": 17316,
    "Ġbeware": 8827,
    "Ġprogress": 5023,
    "Ġabsurd": 7203,
    "Ġlately": 6387,
    "Ġsupercil": 23453,
    "Ġtick": 8108,
    "Ġpresum": 4835,
    "wrath": 23754,
    "Ġgettest": 23231,
    "asy": 5294,
    "watching": 16930,
    "Ġenl": 18188,
    "Ġnaut": 13940,
    "Ġpersonally": 8598,
    "Ġbewitching": 25976,
    "itive": 6668,
    "frau": 15088,
    "Ġrepairing": 25589,
    "Ġmurderers": 16811,
    "Ġrecept": 1522,
    "Ġhath": 12625,
    "Ġhesitate": 16946,
    "Ġsqueaking": 26274,
    "Ġunlocked": 14120,
    "ident": 3379,
    "Ġaux": 21198,
    "Ġnobler": 14175,
    "Ġoutcast": 18414,
    "waves": 10742,
    "Ġgenerator": 3382,
    "Ġcrucial": 9891,
    "work": 1747,
    "Ġentered": 2848,
    "owners": 16086,
    "iloqu": 11647,
    "Ġagain": 816,
    "fab": 13715,
    "change": 6392,
    "Ġrepublican": 17411,
    "Ġhydraulic": 10063,
    "consumed": 25675,
    "Ġapproach": 849,
    "Ġnarratives": 24353,
    "Ġthunders": 15636,
    "Ġlizard": 12651,
    "Ġengravings": 15064,
    "complexion": 14362,
    "dev": 7629,
    "Ġintrospective": 20599,
    "weather": 7229,
    "elled": 3995,
    "ution": 4348,
    "Ġsands": 14947,
    "eye": 6224,
    "Ġopens": 23625,
    "Ġcontrasting": 11154,
    "Ġchurned": 18385,
    "Ġarsacidean": 20363,
    "O": 51,
    "Ġrev": 6988,
    "Ġstead": 5650,
    "Ġsqualid": 14366,
    "Ġstroll": 13351,
    "app": 1042,
    "Ġwaxed": 21296,
    "ener": 561,
    "Ġviciously": 24404,
    "Ġev": 4826,
    "Ġtweed": 22674,
    "stein": 5505,
    "perse": 15897,
    "expression": 10547,
    "Ġtying": 15473,
    "Ġberm": 21381,
    "eks": 4726,
    "R": 54,
    "Ġhurriedly": 11250,
    "barbs": 20236,
    "Ġreluctant": 20523,
    "Ġforcibly": 10060,
    "asper": 7854,
    "rupt": 3212,
    "Ġproductions": 22943,
    "Ġ2": 2931,
    "Ġirresistible": 13111,
    "Ġshowers": 16605,
    "Ġapproximate": 2342,
    "destro": 13308,
    "Ġbroadened": 23982,
    "aloft": 8806,
    "Ġgrowl": 16537,
    "Ġdir": 21419,
    "Ġgangway": 20157,
    "Ġgossiping": 26243,
    "f": 74,
    "appro": 7044,
    "henry": 16625,
    "Ġpractises": 23326,
    "lic": 17587,
    "ractions": 11632,
    "Ġunlikely": 10908,
    "Ġdub": 13908,
    "gers": 8375,
    "Ġyou": 366,
    "Ġnuptial": 25782,
    "Ġbremen": 23343,
    "Ġaccumulates": 2893,
    "Ġowns": 22820,
    "Ġdifficulty": 5770,
    "isons": 17849,
    "_:": 17478,
    "how": 1645,
    "Ġsplinter": 23745,
    "Ġuser": 15915,
    "uated": 10131,
    "offered": 14516,
    "Ġprecipitate": 19940,
    "zors": 21146,
    "illum": 15868,
    "Ġjavelins": 26105,
    "wanderer": 25423,
    "Ġfurlongs": 20722,
    "Ġbirch": 26174,
    "practical": 17221,
    "fatig": 17089,
    "Ġobstructed": 24677,
    "Ġstarvation": 19790,
    "smiled": 16614,
    "Ġcurious": 3361,
    "Ġcurrent": 13010,
    "Ġconcer": 23318,
    "Ġalexander": 17423,
    "Ġdistribut": 841,
    "Ġwindings": 18909,
    "Ġnations": 8809,
    "Ġambergris": 8705,
    "Ġspy": 22130,
    "Ġ47": 14770,
    "Ġdrive": 5055,
    "Ġsanctioned": 26349,
    "Ġfarthing": 14453,
    "Ġfixing": 13155,
    "Ġsentence": 6187,
    "dancing": 12452,
    "meant": 7920,
    "Ġ120": 16858,
    "Ġsquad": 22834,
    "Ġdu": 4583,
    "Ġvap": 6837,
    "Ġagree": 7646,
    "Ġtorm": 5434,
    "malice": 17604,
    "Ġmachines": 1777,
    "consider": 6348,
    "Ġsomething": 1794,
    "izz": 7612,
    "duck": 22409,
    "Ġbands": 14883,
    "í": 174,
    "Ġchoose": 5981,
    "Ġovercome": 6043,
    "ositories": 22261,
    "postp": 24634,
    "Ġinsure": 13177,
    "Ġconfiding": 19037,
    "Ġcomplimented": 14903,
    "Ġfunere": 22254,
    "ubb": 1650,
    "far": 5787,
    "Ġassoc": 6402,
    "unteered": 26495,
    "dron": 17525,
    "itiousness": 21332,
    "77": 15299,
    "gle": 20868,
    "Ġhuddled": 20298,
    "Ġbullion": 24983,
    "Ġenergy": 2552,
    "ceptibly": 22364,
    "Ġcleaned": 23180,
    "Ġcapsizing": 20087,
    "substance": 15230,
    "purpose": 10043,
    "Ġetext": 23947,
    "Ġdecl": 3589,
    "isting": 5551,
    "Ġboards": 14299,
    "ision": 1853,
    "Ġpresc": 15924,
    "Ġinterference": 8893,
    "Ġuniform": 2225,
    "Ġjup": 15951,
    "Ġicebergs": 23972,
    "Ġincensed": 18571,
    "Ġfilial": 16620,
    "Ġglare": 13014,
    "Ġtroublesome": 23999,
    "Ġslow": 2381,
    "Ġwrist": 8242,
    "Ġadmiral": 17304,
    "Ġoct": 10158,
    "gratulation": 24349,
    "Ġhessian": 3546,
    "Ġbattered": 17862,
    "Ġemploy": 3614,
    "Ġsyrian": 18353,
    "noted": 22748,
    "Ġgaunt": 11268,
    "Ġincompetent": 25679,
    "inable": 11555,
    "five": 6356,
    "inno": 10756,
    "Ġgladstone": 23867,
    "sister": 5139,
    "Ġconquest": 15746,
    "Ġdrops": 9032,
    "andromeda": 21865,
    "sig": 2877,
    "brushing": 20787,
    "Ġoppressive": 20454,
    "subject": 6631,
    "Ġentranced": 25833,
    "rows": 6442,
    "Ġreap": 18026,
    "Ġdecently": 22439,
    "Ġepsom": 19981,
    "Ġafresh": 18628,
    "Ġgoest": 22420,
    "Ġwretch": 6378,
    "owards": 4593,
    "pents": 11512,
    "peculiarities": 13470,
    "Ġaudits": 24770,
    "ino": 15479,
    "rubbed": 22172,
    "involved": 25626,
    "Ġapt": 9155,
    "expressing": 16801,
    "?--": 15302,
    "Ġconjectures": 16925,
    "Ď": 207,
    "Ġamaz": 5385,
    "uracy": 1032,
    "north": 14615,
    "thro": 12758,
    "Ġcondense": 21805,
    "Ġund": 4118,
    "Ġcorpus": 13029,
    "Ġservant": 5764,
    "Ġunrecorded": 17467,
    "Ġequalled": 13311,
    "Ġsons": 10766,
    "uck": 1233,
    "Ġestimation": 11218,
    "dozen": 23376,
    "Ġpunctil": 20112,
    "ion": 296,
    "Ġorganically": 3011,
    "Ġearned": 19403,
    "Ġpeering": 8534,
    "izer": 2029,
    "conception": 22469,
    "Ġstamped": 13526,
    "Ġinconveniences": 24939,
    "Ġfangs": 12594,
    "Ġugly": 8715,
    "Ġworld": 1599,
    "uttering": 12659,
    "Ġvindication": 25364,
    "Ġfilm": 23922,
    "Ġplanisphere": 26607,
    "Ġrebounds": 25967,
    "Ġminimax": 5858,
    "pool": 16208,
    "cl": 1494,
    "Ġscarcely": 4011,
    "Ġinterfere": 11815,
    "Ġ235": 25713,
    "Ġspaniard": 20361,
    "Ġhitting": 21484,
    "ime": 624,
    "Ġimpute": 18335,
    "loose": 11802,
    "Ġcompasses": 11267,
    "Ġknowingly": 18480,
    "accomplishments": 25326,
    "Ġlimit": 10443,
    "Ġmerc": 9425,
    "Ġczar": 12571,
    "distance": 12150,
    "Ġtyp": 1130,
    "Ġpersisted": 13033,
    "Ġmagazine": 23097,
    "Ġidiotic": 25588,
    "Ġcleans": 18947,
    "Ġdirecting": 16299,
    "ald": 15623,
    "Ġhat": 2772,
    "Ġrapt": 7224,
    "Ġgreatly": 5849,
    "Ġtheore": 1829,
    "waters": 11333,
    "Ġcarbuncle": 14444,
    "Ġtricks": 13483,
    "Ġpositive": 2298,
    "usal": 7638,
    "Ġbatt": 13898,
    "Ġbestir": 13108,
    "Ġvibration": 17099,
    "Ġberries": 13406,
    "Ġfreshness": 23985,
    "Ġaccidentally": 9504,
    "Ġawaited": 17074,
    "Ġbr": 1073,
    "parable": 16403,
    "Ġbenchmarks": 15021,
    "Ġfetched": 24567,
    "Ġscand": 7202,
    "believing": 19460,
    "Ġcorp": 5575,
    "illating": 22104,
    "hau": 17562,
    "spite": 16137,
    "discrimin": 19607,
    "Ġunacquainted": 12774,
    "affair": 14655,
    "ats": 4252,
    "Ġcritic": 19124,
    "Ġdenial": 13213,
    "ignorantly": 25189,
    "nigh": 13762,
    "Ġspectator": 19404,
    "3": 23,
    ":âĢĶâĢĺ": 24193,
    "eur": 7545,
    "Ġsmote": 18574,
    "Ġcott": 3708,
    "Ġthoroughly": 8347,
    "Ġebb": 21621,
    "Ġfeasible": 22208,
    "Ġantarctic": 19551,
    "cher": 5786,
    "eches": 8077,
    "Ġspans": 18306,
    "measure": 10030,
    "Ġkno": 5242,
    "Ġbrooding": 18907,
    "Ġremembered": 5276,
    "Ġlow": 1648,
    "Ġofficer": 6753,
    "Ġconceits": 19388,
    "Ġdogs": 7741,
    "ving": 594,
    "Ġgradient": 450,
    ".âĢĻ": 1720,
    "Ė": 215,
    "Ġaffability": 14386,
    "`": 68,
    "slight": 10727,
    "ite": 713,
    "vital": 17700,
    "Ġdetermination": 9818,
    "Ġaccused": 8507,
    "quently": 9701,
    "hopeless": 16917,
    "Ġobjection": 6585,
    "Ġcredulous": 17144,
    "Ġsauntering": 18327,
    "Ġmout": 17798,
    "Ġinfancy": 10409,
    "Ġvineyards": 25106,
    "reg": 2184,
    "oug": 431,
    "Ġperpendicularly": 11374,
    "====": 1482,
    "$": 8,
    "east": 9115,
    "Ġundiscernible": 22065,
    "thole": 21983,
    "gallant": 7780,
    "Ġbelieves": 14406,
    "Ġstingy": 25455,
    "Ġsuperfluous": 17413,
    "Ġamerican": 5061,
    "dl": 20822,
    "Ġost": 9649,
    "Ġmadman": 13150,
    "Ġskeleton": 5514,
    "Ġwhisky": 23931,
    "Ġrucastles": 18722,
    "refusal": 24736,
    "Ġdetermining": 14420,
    "Ġextensive": 12941,
    "entions": 17974,
    "Ġporpoise": 7106,
    "tree": 11533,
    "Ġruskin": 25808,
    "guess": 14760,
    "lighted": 23752,
    "licted": 20955,
    "lab": 3456,
    "Ġprendergast": 26537,
    "armed": 7251,
    "Ġpaddling": 25285,
    "Ġpondicherry": 20489,
    "irted": 14071,
    "takes": 21074,
    "shut": 10981,
    "Ġundressed": 19512,
    "rian": 10242,
    "Ġobserver": 11987,
    "uncomfortable": 18160,
    "unpardonable": 21887,
    "daw": 17522,
    "Ġdiminished": 16665,
    "shoe": 14966,
    "entle": 1739,
    "Ġproof": 6153,
    "Ġpettic": 14840,
    ">": 34,
    "distinction": 19570,
    "bted": 7793,
    "flour": 23963,
    "Ġquality": 3526,
    "Ġ129": 24474,
    "strip": 19829,
    "Ġdam": 2215,
    "Ġdismember": 20214,
    "Ġpowder": 11275,
    "Ġdromed": 15595,
    "geese": 22363,
    "Ġraising": 8908,
    "Ġterr": 3276,
    "Ġnorth": 4317,
    "Ġlightened": 23259,
    "icherry": 15134,
    "Ę": 217,
    "lays": 14921,
    "Ġconjecture": 9531,
    "Ġkeel": 6444,
    "Ġsedentary": 25430,
    "Ġsisters": 3639,
    "Ġmanoir": 22328,
    "Ġwatchful": 16527,
    "Ġknowledge": 1446,
    "Ġinstruction": 14343,
    "Ġuns": 15836,
    "Ġmorocco": 26573,
    "Ġdocumentation": 20553,
    "ben": 4925,
    "Ġkeep": 2356,
    "dimly": 15345,
    "Ġbathed": 17865,
    "Ġentries": 22744,
    "Ġsammy": 24932,
    "necess": 4894,
    "ĠâĢĺ": 1632,
    "Ġemblaz": 16244,
    "Ġbolted": 12242,
    "Ġexploded": 15908,
    "Ġport": 3311,
    "crum": 17511,
    "dressing": 11481,
    "bitts": 26122,
    "iber": 6506,
    "Ġcustomary": 8669,
    "Ġwaned": 17791,
    "Ġbast": 21377,
    "rous": 3751,
    "preading": 18491,
    "Ġcreep": 22722,
    "inguished": 6598,
    "Ġcouldn": 7648,
    "iful": 2885,
    "Ġsuccor": 25662,
    "Ġunb": 10907,
    "which": 1707,
    "Ġsimultaneously": 4309,
    "circumstances": 8046,
    "Ġanchored": 17439,
    "Ġaugment": 8691,
    "Ġexplanations": 15909,
    "foremost": 14252,
    "quet": 6835,
    "Ġ179": 19753,
    "Ġconfessor": 24016,
    "Ġallegro": 25794,
    "Ġsustenance": 19932,
    "shabb": 18499,
    "Ġapartments": 19613,
    "wand": 10738,
    "Ġarchitectures": 2913,
    "Ġwhirlp": 16963,
    "banked": 25337,
    "Ġgame": 3627,
    "Ġrefrain": 12944,
    "buttons": 22399,
    "Ġought": 3419,
    "Ġfirm": 3870,
    "including": 23589,
    "Ġjelly": 22297,
    "Ġ25": 13193,
    "Ġcrocodile": 20739,
    "pertaining": 22181,
    "Ġhandles": 22692,
    "chester": 23805,
    "granting": 23412,
    "hark": 15364,
    "Ġindomit": 22952,
    "Ġindies": 22948,
    "Ġevaluate": 3219,
    "Ġanomalous": 25637,
    "Ġtalking": 3857,
    "mountain": 10713,
    "Ġbury": 12039,
    "Ġprayers": 12121,
    "Ġuttered": 7280,
    "Ġlip": 6532,
    "Ġdiscerned": 25003,
    "ufactured": 15180,
    "smote": 23907,
    "Ġgrizz": 10351,
    "height": 21204,
    "Ġdestitute": 14566,
    "dy": 3861,
    "Ġthro": 5817,
    "spirited": 19752,
    "hands": 5966,
    "Ġdecap": 16019,
    "Ġengraving": 17080,
    "Ġpurse": 12009,
    "angible": 22102,
    "Ġdispositions": 13231,
    "piteous": 21032,
    "Ġappeals": 16316,
    "Ġducking": 17146,
    "Ġpolite": 9881,
    "springs": 24911,
    "window": 7742,
    "Ġsob": 12784,
    "Ġcandid": 4098,
    "cils": 20813,
    "Ġpast": 2098,
    "trucks": 25419,
    "tube": 20409,
    "Ġdaughter": 2872,
    "_).": 5886,
    "Ġgent": 7383,
    "Ġgout": 21593,
    "Ġextending": 11024,
    "Ġemboldened": 22995,
    "Ġheaded": 11054,
    "lested": 14882,
    "Ġinstantly": 3591,
    "Ġmarks": 6746,
    "caused": 25519,
    "Ġmajority": 13291,
    "Ġinsects": 25646,
    "Ġmentioning": 9897,
    "Ġalive": 4396,
    "Ġsingular": 4421,
    "Ġfundament": 2929,
    "Ġcannibals": 10587,
    "fates": 20857,
    "Ġvomit": 21945,
    "Ġpiping": 23215,
    "Ġopposite": 5120,
    "Ġapril": 13661,
    "without": 4844,
    "Ġobsolete": 26558,
    "Ġvaulted": 25167,
    "Ġmerited": 23729,
    "Ġafore": 10758,
    "Ġpreser": 6040,
    "Ġprovide": 7749,
    "wantonly": 25149,
    "leviathan": 7784,
    "urons": 3132,
    "corrupt": 14894,
    "vels": 5432,
    "Ġconvulsive": 19306,
    "seen": 2883,
    "Ġain": 6969,
    "Ġglowed": 24864,
    "afterwards": 7484,
    "Ġtwilight": 16120,
    "Ġclamped": 18425,
    "Ġbarrier": 16569,
    "Ġquoin": 22415,
    "Ġwindigate": 18910,
    "Ġbarrowful": 25595,
    "Ġspoon": 22141,
    "Ġhowled": 12852,
    "infidel": 24663,
    "urance": 10857,
    "Ġelab": 22644,
    "Ġpalmy": 19497,
    "raction": 8137,
    "Ġscal": 1528,
    "Ġprotect": 6337,
    "Ġulster": 14997,
    "Ġyesterday": 5332,
    "ivity": 1659,
    "Ġacting": 10991,
    "softened": 20408,
    "gossip": 23402,
    "iel": 11493,
    "ounding": 22381,
    "Ġnegro": 6447,
    "inent": 9628,
    "fore": 686,
    "inger": 6812,
    "Ġhelper": 24023,
    "architect": 22889,
    "Ġimagined": 8606,
    "ming": 3600,
    "nnight": 20992,
    "unk": 4538,
    "urn": 775,
    "Ġstable": 2698,
    "mical": 9128,
    "Ġtreating": 4282,
    "Ġskil": 14351,
    "Ġbut": 423,
    "Ġmortar": 19391,
    "chronicle": 26480,
    "Ġattractions": 12914,
    "âĢľ": 344,
    "conducted": 25572,
    "Ġlegible": 23530,
    "kward": 6958,
    "clock": 3933,
    "Ġlargest": 6282,
    "Ġprove": 5231,
    "eenth": 12458,
    "turn": 4290,
    "Ġspar": 10921,
    "aston": 7408,
    "Ġproble": 1110,
    "Ġshameful": 19851,
    "forbearance": 22777,
    "duodecimo": 16001,
    "Ġpunctures": 25133,
    "Ġ55": 24323,
    "Ġcolle": 8923,
    "Ġpotent": 12062,
    "Ġgrammar": 1060,
    "entrance": 12654,
    "Ġaccusation": 22369,
    "Ġwhalebone": 10977,
    "sinking": 17668,
    "Ġbrig": 11047,
    "ulation": 5458,
    "yellow": 9624,
    "Ġreplete": 15696,
    "receiving": 12540,
    "endless": 22221,
    "ructive": 18519,
    "Ġgroans": 14823,
    "Ġspouting": 9438,
    "Ġlaug": 3626,
    "Ġgaping": 13968,
    "Ġpetersburgh": 24228,
    "Ġhost": 7068,
    "pick": 17634,
    "Ġiii": 7860,
    "Ġunconditional": 15844,
    "aunt": 8369,
    "impropriety": 21710,
    "unct": 18154,
    "Ġlook": 879,
    "_,": 2801,
    "ĠĠĠ": 2115,
    "Ġcomposure": 7217,
    "completed": 19992,
    "Ġchowder": 10280,
    "Ġnail": 9195,
    "mortar": 25408,
    "Ġinqu": 2966,
    "admon": 21758,
    "sh": 651,
    "Ġumb": 11645,
    "write": 14647,
    "spending": 18689,
    "Ġcompare": 9301,
    "happiest": 19331,
    "Ġstrictly": 12283,
    "inside": 23062,
    "coffin": 10662,
    "iforn": 14063,
    "ia": 1257,
    "Ġsk": 962,
    "justine": 7682,
    "what": 642,
    "vings": 9750,
    "Ġmoul": 15542,
    "Ġbro": 1431,
    "Ġmorsel": 20676,
    "eng": 1489,
    "Ġassumptions": 5517,
    "rals": 21041,
    "Ġblotches": 25314,
    "Ġcallest": 17832,
    "Ġworst": 7444,
    "fearfully": 25116,
    "Ġassociates": 24712,
    "xic": 9145,
    "sofa": 26146,
    "Ġbeaches": 18084,
    "Ġ184": 16607,
    "Ġshowing": 7731,
    "Ġmarched": 18871,
    "Ġdisturbed": 8671,
    "Ġrepentance": 15159,
    "Ġenrapt": 21936,
    "neg": 12862,
    "Ġapproxim": 1217,
    "understand": 1124,
    "scar": 9815,
    "adequate": 15202,
    "Ġlabeled": 3717,
    "Ġwreaths": 25937,
    "Ġjackets": 19601,
    "hastily": 19701,
    "Ġimmediately": 3366,
    "Ġbead": 21747,
    "fields": 14653,
    "things": 6032,
    "smo": 10125,
    "/`": 12427,
    "Ġties": 12525,
    "^{": 15303,
    "credit": 12446,
    "caus": 11476,
    "sim": 6510,
    "disgust": 23494,
    "dutch": 17218,
    "Ġsynd": 22204,
    "gging": 7696,
    "eminence": 20097,
    "loved": 14250,
    "Ġquaff": 22411,
    "reduced": 15804,
    "Ġgoose": 5937,
    "Ġgib": 13964,
    "income": 15486,
    "startled": 24941,
    "hauteur": 26391,
    "Ġpaved": 17912,
    "Ġneedlessly": 23628,
    "nuee": 17429,
    "Ġscra": 5840,
    "Ġmates": 4870,
    "S": 55,
    "Ġitem": 12698,
    "Ġincident": 6280,
    "Ġcelebrate": 26357,
    "orers": 14102,
    "Ġinfidel": 13086,
    "Ġcat": 2121,
    "Ġeternity": 12276,
    "jet": 13741,
    "reception": 15514,
    "Ġlat": 5087,
    "Ġvaluable": 5608,
    "Ġforemast": 12004,
    "hereditary": 26419,
    "Ġfluctuating": 24417,
    "Ġperfume": 25665,
    "Ġchoice": 2164,
    "altogether": 12636,
    "astern": 8581,
    "Ġchorus": 10946,
    "Ġtracks": 18890,
    "Ġstreat": 15719,
    "Ġnin": 10187,
    "Ġcanal": 8180,
    "bouton": 17501,
    "deaux": 22127,
    ".)": 6783,
    "spoke": 11023,
    "Ġscaled": 2105,
    "Ġaccidental": 16848,
    "Ġproximity": 3221,
    "Ġgeorgiana": 8625,
    "inj": 9151,
    "Ġdistinctly": 7311,
    "Ġincline": 18569,
    "etrics": 21582,
    "Ġcoincid": 20316,
    "proof": 16423,
    "cigar": 26124,
    "Ġmarred": 23029,
    "Ġaccounted": 10294,
    "low": 645,
    "Ġvelv": 10619,
    "Ġparadigms": 3056,
    "Ġaught": 8772,
    "game": 11490,
    "duing": 22408,
    "Ġassiduous": 26292,
    "Ġdecaying": 2245,
    "Ġmat": 1147,
    "Ġunman": 12772,
    "kindled": 16660,
    "Ġspong": 15880,
    "Ġinsertion": 26343,
    "Ġslouched": 13056,
    "Ġclad": 12836,
    "ir": 379,
    "darkened": 24517,
    "Ġpleasurable": 23338,
    "anse": 12572,
    "Ġsides": 4578,
    "Ġslewed": 23383,
    "iii": 14773,
    "Ġthy": 2513,
    "Ġphrenologists": 25608,
    "brilliancy": 26077,
    "_;": 6640,
    "Ġchat": 6560,
    "screen": 22991,
    "empty": 23633,
    "Ġsaving": 15886,
    "warmest": 25027,
    "Ġrollicking": 24451,
    "Ġstoner": 7178,
    "Ġincommun": 25308,
    "Ġhousekeeping": 18943,
    "Ġsnatched": 10471,
    "Ġissu": 6253,
    "visible": 10533,
    "Ġreverse": 16982,
    "Ġiterate": 13200,
    "despatched": 19800,
    "Ġbidden": 24646,
    "iated": 5889,
    "Ġquartered": 20371,
    "Ġdevout": 14325,
    "Ġsluggish": 25890,
    "Ġearnestness": 12123,
    "ificant": 22199,
    "Ġuniformly": 19147,
    "Ġscotland": 6639,
    "Ġhabitation": 14802,
    "p": 84,
    "Ġhurried": 4033,
    "octavo": 11385,
    "Ġceaseless": 13487,
    ",âĢĻâĢĶ": 23524,
    "itaries": 21334,
    "announcement": 24562,
    "Ġimmaculate": 19484,
    "acey": 7649,
    "Ġappertaining": 26533,
    "Ġflora": 11416,
    "Ġdivision": 19442,
    "Ġalman": 21778,
    "solution": 14686,
    "irst": 878,
    "heavy": 10574,
    "Ġeddy": 13122,
    "Ġrepetition": 8972,
    "Ġrepugnant": 26590,
    "stolidity": 21660,
    "Ġsheep": 10928,
    "Ġvii": 13107,
    "Ġinspirited": 23419,
    "ird": 2429,
    "overcoat": 19051,
    "fingers": 17369,
    "Ġgramm": 8170,
    "Ġjac": 1895,
    "Ġbri": 21376,
    "Ġcontinu": 1166,
    "Ġheroines": 19750,
    "Ġplat": 8520,
    "Ġpredef": 18515,
    "necessarily": 19630,
    "chan": 1155,
    "Ġruinous": 24633,
    "Ġlaunched": 14925,
    "Ġpretence": 13206,
    "Ġhieroglyphic": 25587,
    "Ġcelestial": 10066,
    "Ġguardian": 14941,
    "ugl": 23286,
    "divided": 25018,
    "Ġblackest": 19098,
    "Ġmoral": 6578,
    "Ġcl": 551,
    "uch": 877,
    "Ġpallid": 12297,
    "betrayed": 24640,
    "mangled": 20980,
    "Ġimpulsive": 19961,
    "lished": 8382,
    "Ġfavours": 23278,
    "Ġcheck": 7271,
    "Ġepisode": 26346,
    "phren": 22767,
    "Ġhedgehog": 10644,
    "belais": 24035,
    "Ġdesmarest": 22971,
    "knew": 9126,
    "circumstance": 7763,
    "Ġgiant": 13967,
    "Ġcorrob": 16266,
    "Ġawaiting": 11390,
    "dra": 3413,
    "away": 4624,
    "Ġfedallah": 6108,
    "Ġpure": 6137,
    "Ġneat": 6999,
    "Ġseverely": 14932,
    "Ġresolved": 3796,
    "Ġfortunately": 12177,
    "ĠcÃ¦sar": 20578,
    "Ġjen": 9266,
    "Ġdenoted": 16564,
    "Ġhood": 10823,
    "Ġbelieved": 4366,
    "Ġbermud": 26439,
    "Ġoverhear": 15974,
    "inities": 21184,
    "Ġroasted": 18460,
    "gl": 3293,
    "fro": 8732,
    "ignant": 11129,
    "Ġloft": 5642,
    "sticking": 21657,
    "Ġparliament": 18302,
    "Ġplaited": 14283,
    "Ġroylott": 7305,
    "Ġuncles": 23429,
    "Ġpastures": 23418,
    "Ġflanks": 11912,
    "blown": 25201,
    "task": 13792,
    "biting": 20779,
    "Ġbomb": 17867,
    "Ġsmut": 22553,
    "Ġelephants": 9863,
    "Ġflourishing": 25187,
    "Ġ3": 3987,
    "Ġtreacherously": 25129,
    "Ġprojects": 9510,
    "Ġunfathomable": 20547,
    "Ġawhile": 13829,
    "discoloured": 23496,
    "Ġpaces": 13918,
    "Ġpuffing": 12252,
    "Ġripe": 13233,
    "Ġfound": 1246,
    "Ġair": 1835,
    "Ġauthority": 7748,
    "Ġcompensated": 17400,
    "Ġterribly": 10425,
    "Ġlad": 2365,
    "Ġcomputers": 2645,
    "Ġfrankenstein": 7095,
    "Ġdesertion": 24787,
    "Ġenlar": 15799,
    "Ġcrushed": 9422,
    "Ġwatson": 3596,
    "Ġconfirming": 25321,
    "athered": 6972,
    "pennies": 26285,
    "Ġcommander": 8624,
    "Ġdelighted": 5499,
    "Ġelasticity": 19557,
    "Ġsums": 2906,
    "Ġrecursive": 4780,
    "Ġfresh": 3669,
    "axen": 22518,
    "outs": 7009,
    "Ġroughs": 19955,
    "Ġhabitations": 24789,
    "partly": 14602,
    "Ġcho": 4546,
    "Ġerecting": 24652,
    "stra": 4046,
    "Ġrigger": 19529,
    "cious": 6643,
    "Ġmassive": 9931,
    "Ġvortex": 26208,
    "(": 12,
    "ospel": 17010,
    "yourself": 6742,
    "Ġpairs": 4179,
    "Ġintensely": 17017,
    "ouring": 6420,
    "Ġpicture": 4854,
    "Ġox": 7153,
    "ca": 20792,
    "broker": 13303,
    "Ġassistants": 9451,
    "Ġtending": 17724,
    "ustomed": 6098,
    "Ġpumping": 25643,
    "Ġobed": 8535,
    "Ġsprained": 15882,
    "Ġpupella": 20420,
    "Ġswarm": 23051,
    "Ġflirting": 16251,
    "Ġfreshet": 25704,
    "Ġentrapped": 26262,
    "Ġtie": 10750,
    "shad": 10982,
    "Ġalb": 14015,
    "Ġenormity": 19694,
    "ó": 180,
    "imprudent": 14651,
    "Ġoffended": 7040,
    "Ġ(_": 3735,
    "Ġadequate": 20307,
    "Ġcoleridge": 18764,
    "mysterious": 26052,
    "Ġpod": 15602,
    "Ġcarpets": 18902,
    "ative": 738,
    "Ġnur": 5710,
    "Ġgeneral": 1860,
    "Ġtenderness": 12213,
    "Ġrainbows": 19647,
    "pe": 1437,
    "Ġdeceived": 6544,
    "paying": 25411,
    "invariably": 26416,
    "Ġexpiration": 22622,
    "Ġmagn": 1554,
    "Ġ1839": 20458,
    "Ġbeckoning": 20500,
    "eth": 619,
    "descending": 16284,
    "species": 13255,
    "Ġparmacetti": 20603,
    "elect": 20845,
    "Ġopulent": 23627,
    "âĢĻâĢĶ": 12733,
    "ered": 1683,
    "Ġdusk": 12325,
    "preserver": 20212,
    "ampling": 12723,
    "Ġspite": 4154,
    "Ġdrunk": 9423,
    "increase": 20267,
    "Ġleather": 7606,
    "wedding": 13370,
    "tenham": 16321,
    "ableness": 8148,
    "Ġpalp": 11251,
    "Ġsolution": 9804,
    "0": 20,
    "Ġgradually": 3400,
    "arians": 18527,
    "manner": 6170,
    "Ġaccosted": 13671,
    "Ġlikes": 9407,
    "Ġgreece": 17069,
    "Ġmizen": 17258,
    "Ġla": 5912,
    "Ġsprain": 18307,
    "eter": 11620,
    "apering": 8040,
    "ension": 6569,
    "Ġpoisoned": 24886,
    "Ġsouth": 4910,
    "gans": 11489,
    "Ġdiscreet": 16482,
    "Ġapplicable": 19010,
    "Ġprobed": 18732,
    "Ġcannot": 1667,
    "Ġperf": 12847,
    "Ġfright": 3795,
    "Ġaper": 17743,
    "fork": 20856,
    "rosings": 15642,
    "Ġattendance": 12179,
    "Ġpasture": 14544,
    "adel": 15727,
    "Ġpartner": 6714,
    "Ġwindow": 2997,
    "Ġwigwam": 11428,
    "Ġfame": 21404,
    "Ġstructural": 2800,
    "top": 4484,
    "Ġoverjoy": 15970,
    "Ġapply": 1778,
    "Ġself": 1779,
    "Ġmeal": 9696,
    "Ġviii": 16413,
    "elag": 12655,
    "Ġskirt": 18729,
    "spouter": 22733,
    "Ġaspired": 25984,
    "ired": 1445,
    "Ġitalian": 12408,
    "Ġwife": 2585,
    "Ġbigger": 19760,
    "inordinate": 21193,
    "onde": 21250,
    "Ġdeactivates": 20702,
    "omen": 4086,
    "icirc": 15654,
    "Ġowl": 20082,
    "Ġcuring": 21342,
    "fen": 20849,
    "chairs": 21690,
    "icorn": 15655,
    "Ġdescended": 7428,
    "Ġbackground": 18647,
    "barbaric": 26358,
    "omical": 9679,
    "Ġevinced": 7100,
    "Ġcuts": 14607,
    "mbles": 23086,
    "Ġgrass": 5177,
    "Ġdesperately": 24656,
    "Ġwholly": 4445,
    "Ġpeter": 10535,
    "Ġcease": 7076,
    "Ġcasualty": 20340,
    "indul": 22370,
    "Ġtints": 17727,
    "Ġconsummation": 17424,
    "Ġalien": 14017,
    "windward": 24160,
    "Ġemotion": 7689,
    "tipt": 25083,
    "Ġimproving": 1210,
    "ilburn": 18059,
    "lop": 20947,
    "Ġadaptation": 3156,
    "def": 1452,
    "Ġhue": 8428,
    "ece": 17531,
    "Ġrumors": 11321,
    "Ġrooted": 13168,
    "Ġharry": 24571,
    "remains": 10398,
    "Ġnorris": 23198,
    "Ġmeasured": 9803,
    "Ġentreaties": 9035,
    "Ġeconomically": 25288,
    "Ġarise": 7895,
    "Ġjupiter": 17455,
    "Ġpace": 9183,
    "Ġfishy": 16523,
    "hue": 20898,
    "heavily": 24534,
    "aboard": 21791,
    "Ġelimin": 16109,
    "Ġstraighten": 24001,
    "Ġassent": 12730,
    "depend": 9112,
    "Ġclosing": 11770,
    "coburg": 13597,
    "Ġhorizon": 6632,
    "fordshire": 4675,
    "quickness": 19850,
    "Ġpictures": 5503,
    "Ġbind": 12579,
    "Ġrelapses": 26278,
    "Ġretrie": 10382,
    "clothed": 19737,
    "occasion": 7753,
    "Ġlightnings": 16352,
    "complain": 14359,
    "Ġplunge": 13442,
    "04": 10679,
    "ruined": 18331,
    "âĢĶâĢĻâĢĿ": 20062,
    "proud": 9903,
    "Ġdeparture": 6490,
    "Ġawkward": 7073,
    "Ġhistory": 4010,
    "t": 88,
    "Ġrespite": 13153,
    "Ġsuppressing": 22998,
    "Ġjobs": 24832,
    "!âĢĶâĢĻ": 23564,
    "Ġrefresh": 10345,
    "Ġundulates": 24118,
    "seldom": 13786,
    "iline": 21718,
    "Ġboarders": 16600,
    "ivities": 22082,
    "cott": 8073,
    "Ġflame": 7448,
    "Ġsuperst": 7703,
    "Ġnumbers": 2891,
    "iah": 14414,
    "transition": 24513,
    "Ġtremble": 6906,
    "Ġsegment": 12754,
    "Ġagricultural": 26550,
    "Ġmob": 16016,
    "Ġsafely": 9025,
    "nowadays": 22334,
    "distinguished": 10526,
    "rowing": 7930,
    "Ġtables": 9877,
    "bab": 11468,
    "sax": 21055,
    "Ġrecognise": 12042,
    "Ġgrimesby": 11457,
    "Ġ**": 4719,
    "amuse": 14052,
    "Ġquadr": 8199,
    "Ġwaterproof": 19088,
    "Ġk": 485,
    "Ġsupplying": 19797,
    "obviously": 25242,
    "Ġdiscl": 9796,
    "Ġtang": 13813,
    "painting": 17046,
    "Ġsof": 18280,
    "circumamb": 26087,
    "Ġoverpowering": 15248,
    "raising": 21629,
    "Ġunsur": 22019,
    "Ġgrec": 18962,
    "independ": 15980,
    "thoroughly": 26508,
    "Ġcontinuing": 14396,
    "ouder": 17900,
    "Ġposted": 16724,
    "Ġdelusion": 18974,
    "Ġangel": 4850,
    "Ġunlucky": 10049,
    "Ġsensitivity": 3068,
    "bare": 12439,
    "transp": 24512,
    "touched": 15439,
    "original": 9084,
    "solving": 3097,
    "Ġpredictions": 1455,
    "rent": 1173,
    "Ġboun": 21378,
    "Ġpersist": 16272,
    "rier": 9241,
    "Ġchild": 2259,
    "Ġdetailed": 12821,
    "itance": 13867,
    "Ġeastward": 13389,
    "interference": 23736,
    "zwilliam": 5074,
    "Ġscare": 18390,
    "Ġviolet": 19090,
    "Ġfrom": 434,
    "ms": 541,
    "Ġramadan": 9575,
    "seeing": 7078,
    "Ġsignals": 10585,
    "Ġexh": 5232,
    "cro": 13695,
    "hel": 4812,
    "fireside": 24692,
    "Ġstrand": 11826,
    "companions": 15023,
    "pow": 10717,
    "rift": 11519,
    "Ġsagaciously": 24731,
    "Ġmedit": 8018,
    "Ġpioneer": 17918,
    "etence": 21574,
    "Ġcathed": 14549,
    "Ġpaddock": 25037,
    "Ġembattled": 26289,
    "ay": 355,
    "Ġsink": 4339,
    "Ġmed": 3989,
    "place": 4152,
    "Ġarchangel": 8542,
    "Ġsource": 6805,
    "Ġexhib": 6349,
    "Ġtune": 17725,
    "iality": 8843,
    "itors": 2917,
    "ten": 1555,
    "esley": 17902,
    "Ġirritation": 20265,
    "keys": 15857,
    "Ġgrud": 17995,
    "coal": 12023,
    "Ġhag": 12622,
    "Ġtoilings": 24742,
    "ushed": 2972,
    "Ġfragrant": 13093,
    "o": 83,
    "Ġany": 688,
    "holes": 12052,
    "incom": 21180,
    "Ġpitiable": 9913,
    "Ġdelightfully": 13157,
    "Ġact": 691,
    "erer": 8731,
    "Ġawa": 7713,
    "Ġprojected": 16871,
    "rowed": 22859,
    "affairs": 14656,
    "abs": 11666,
    "Ġduck": 8793,
    "Ġaccuse": 14209,
    "Ġheave": 7599,
    "Ġmeryton": 4436,
    "Ġscar": 3213,
    "Ġfaith": 5350,
    "articulate": 17394,
    "Ġuniformity": 23482,
    "ivation": 3108,
    "Ġanswerable": 23469,
    "devil": 7892,
    "Ġsaint": 15507,
    "jolly": 20930,
    "imes": 1302,
    "5": 25,
    "worshipping": 16610,
    "Ġglimmering": 25240,
    "inctions": 17732,
    "Ġcart": 11582,
    "Ġstreatham": 17448,
    "pale": 13770,
    "Ġundertaking": 8573,
    "Ġimagine": 3923,
    "Ġstool": 14461,
    "isson": 23460,
    "Ġstages": 14003,
    "Ġcomputes": 4766,
    "Ġwrithed": 17106,
    "Ġintelligently": 3819,
    "Ġvapory": 17006,
    "Ġdistributions": 1051,
    "Ġknows": 4158,
    "somewhere": 12011,
    "Ġthoroughfare": 16944,
    "Á": 130,
    "Ġshooting": 11162,
    "Ġindestruct": 22955,
    "Ġencouraged": 9354,
    "Ġdeclared": 5595,
    "Ġprovocation": 24191,
    "tempered": 13445,
    "Ġluckless": 16797,
    "Ġunguarded": 15850,
    "Ġnobly": 22238,
    "Ġscope": 15942,
    "Ġtendinous": 16931,
    "hunt": 20902,
    "Ġshrink": 14803,
    "Ġtransf": 22434,
    "Ġjune": 10288,
    "Ġlearnedly": 23384,
    "asets": 2311,
    "Ġaristocratic": 20511,
    "Ġimport": 1081,
    "Ġobeyed": 12214,
    "Ġ96": 24592,
    "Ġsim": 734,
    "Ġburnished": 23995,
    "Ġinnocently": 24025,
    "ĠĠĠĠĠĠĠĠĠĠĠĠĠĠĠĠĠ": 22946,
    "results": 20385,
    "clopÃ¦": 13053,
    "screaming": 20324,
    "urrection": 12407,
    "Ġdeft": 21834,
    "Ġnumber": 1980,
    "orte": 14184,
    "Ġhatches": 12043,
    "Ā": 193,
    "Ġtreble": 16503,
    "Ġstreets": 5863,
    "Ġgenteel": 19979,
    "Ġgarden": 3826,
    "Ġmoments": 4843,
    "Ġflowers": 8940,
    "Ġtester": 21171,
    "Ġheadsmen": 14731,
    "Ġosc": 2838,
    "Ġapprehended": 26091,
    "Ġunwarrantable": 26353,
    "Ġmonstr": 7666,
    "Ġplay": 2626,
    "Ġbanking": 19629,
    "Ġsays": 3560,
    "Ġvoices": 7875,
    "Ġbeadle": 26484,
    "Ġparlor": 13539,
    "apsed": 6295,
    "Ġdeductions": 19732,
    "Ġpoor": 1708,
    "Ġtig": 13812,
    "aze": 10074,
    "got": 6955,
    "Ġrelied": 16194,
    "Ġravings": 18636,
    "Ġbites": 23741,
    "Ġcistern": 17380,
    "Ġ183": 13236,
    "Ġtwinkling": 12322,
    "liv": 9607,
    "Ġindividuals": 24546,
    "Ġodious": 12148,
    "Ġhawk": 15172,
    "Ġrepaired": 13106,
    "Ġtomb": 8807,
    "Ġscrews": 25177,
    "Ġpie": 13914,
    "growing": 13732,
    "Ġwillingly": 8884,
    "Ġvolcanoes": 24145,
    "worn": 13805,
    "ester": 11597,
    "tisement": 6767,
    "-------": 20387,
    "Ġpleased": 4064,
    "izar": 14042,
    "concerned": 24638,
    "Ġempire": 11145,
    "Ġhieroglyphics": 17302,
    "execution": 20470,
    "Ġrender": 8304,
    "Ġapp": 495,
    "toller": 20671,
    "Ġmors": 17801,
    "male": 15387,
    "Ġunlike": 7004,
    "glue": 17556,
    "strom": 15682,
    "affa": 23774,
    "Ġelegance": 11332,
    "luyt": 18454,
    "Ġfastidious": 14492,
    "iers": 5990,
    "Ġmisfortunes": 7041,
    "Ġwanted": 4967,
    "Ġaforethought": 25428,
    "attacks": 23119,
    "Ġrevelry": 15135,
    "Ġdeg": 3284,
    "cks": 3078,
    "rapt": 13972,
    "venison": 22625,
    "damn": 20022,
    "Ġpained": 19166,
    "Ġfur": 990,
    "pent": 3491,
    "acknowledging": 25476,
    "ologist": 22868,
    "Ġburg": 23653,
    "Ġnarrative": 6215,
    "Ġeleven": 9389,
    "84": 15300,
    "Ġuniversity": 13120,
    "Ġbare": 6132,
    "Ġmountainous": 16599,
    "Ġdepicted": 14276,
    "igated": 15705,
    "ation": 320,
    "carb": 20809,
    "barrels": 15041,
    "Ġbreeding": 14522,
    "christmas": 20254,
    "Ġflannel": 26577,
    "loss": 22504,
    "copy": 5133,
    "disputed": 23498,
    "Ġshuddered": 11300,
    "ils": 3181,
    "Ġdoors": 6418,
    "Ġinside": 5448,
    "Ġadoration": 18290,
    "cook": 8269,
    "open": 7025,
    "Ġhail": 7400,
    "hem": 6663,
    "Ġstoutest": 24628,
    "towns": 24854,
    "ye": 1407,
    "Ġchopping": 24219,
    "Ġvintage": 26209,
    "Ġhaving": 1879,
    "cords": 25136,
    "Ġfulfil": 9550,
    "cho": 2759,
    "Ġtoken": 2037,
    "abri": 6682,
    "Ġgoverning": 2797,
    "Ġtaffrail": 15476,
    "presumption": 20440,
    "Ġhist": 2445,
    "aud": 8521,
    "mid": 5617,
    "Ġpretext": 22226,
    "Ġstud": 1574,
    "Ġcoun": 4175,
    "sensibility": 25023,
    "Ġye": 900,
    "hills": 13735,
    "Ġunfrequ": 19507,
    "Ġeulogy": 26471,
    "Ġacquiring": 2767,
    "Ġstiggs": 25792,
    "ep": 442,
    "Ġlines": 4533,
    "Ġinvari": 6529,
    "ĩ": 234,
    "Ġbarbed": 14834,
    "Ġroots": 11185,
    "Ġconviction": 6326,
    "Ġplans": 7917,
    "parm": 21013,
    "Ġcabinet": 23859,
    "Ġann": 4488,
    "itarian": 21335,
    "batross": 9092,
    "Ġnarrowly": 16820,
    "warmly": 25026,
    "resemblance": 25933,
    "Ġcongregational": 25102,
    "omy": 6248,
    "waistcoat": 17360,
    "Ġbodiless": 24226,
    "Ġconfed": 13096,
    "tures": 21068,
    "aiian": 23591,
    "aint": 2540,
    "Ġcardboard": 19977,
    "Ġbehavioral": 11396,
    "shuff": 18495,
    "glit": 23848,
    "belong": 12120,
    "Ġconsole": 8150,
    "twelvemonth": 25862,
    "Ġextent": 7656,
    "Ġzoned": 22816,
    "Ġtelescopes": 25690,
    "Ġabruptly": 15149,
    "Ġdial": 10810,
    "atherine": 2593,
    "Ġbarrens": 25501,
    "Ġselfishness": 12287,
    "Ġdece": 6996,
    "Ġprotesting": 14740,
    "pread": 7418,
    "Ġac": 844,
    "Ġvexatious": 19780,
    "Ġpromise": 4197,
    "flies": 19422,
    "Ġprivate": 5345,
    "Ġsquires": 16182,
    "Ġdata": 516,
    "myst": 9821,
    "Ġbrace": 11211,
    "swaying": 25910,
    "Ġinclement": 22550,
    "pass": 4289,
    "Ġsatisfy": 6912,
    "lp": 899,
    "Ġpry": 11599,
    "Ġaccomplishment": 19664,
    "Ġdeliver": 9848,
    "Ġvisage": 18773,
    "Ġprecipices": 12275,
    "Ġoblige": 10488,
    "pping": 1426,
    "Ġremotest": 10051,
    "intellig": 5320,
    "father": 3775,
    "Ġbaby": 6636,
    "dread": 8728,
    "Ġtipped": 17728,
    "Ġhorn": 6185,
    "Ġvastly": 23858,
    "sul": 15421,
    "brad": 20780,
    "gods": 13365,
    "franch": 24284,
    "Ġcosine": 2374,
    "hercules": 22202,
    "waving": 21130,
    "Ġcombine": 4413,
    "mering": 12488,
    "Ġprint": 18970,
    "Ġarose": 7360,
    ".]": 15297,
    "Ġbenignity": 18783,
    "rates": 21037,
    "philosop": 9567,
    "Ġthread": 14540,
    "Ġinstruct": 2866,
    "derbyshire": 18322,
    "repeated": 12337,
    "Ġhanged": 17924,
    "interrupted": 11417,
    "lig": 3172,
    "Ġexert": 5722,
    "ounted": 5030,
    "Ġinsip": 19266,
    "Ġfunny": 7637,
    "Ġscratches": 22269,
    "hitherto": 17283,
    "Ġmarlingspike": 26579,
    "Ġproper": 1380,
    "Ġbegone": 11914,
    "ĥ": 230,
    "Ġrefuse": 5739,
    "Ġmetrics": 19073,
    "meas": 7434,
    "Ġsuff": 1304,
    "ivil": 6411,
    "----âĢĻ": 24096,
    "Ġfooted": 23795,
    "easy": 9592,
    "Ġgenerating": 12846,
    "fortune": 4974,
    "Ġmiseries": 10346,
    "Ġmutters": 23953,
    ",âĢĿ": 580,
    "mou": 10708,
    "amouch": 21848,
    "Ġnobody": 6158,
    "Ġabject": 18396,
    "icult": 3342,
    "Ġpar": 456,
    "cru": 7126,
    "Ġlength": 2501,
    "mentioned": 10623,
    "Ġsuccour": 20433,
    "Ġaddison": 14232,
    "Ġgranting": 18736,
    "Ġmanilla": 15958,
    "Ġhereford": 22876,
    "Ġbrighter": 16187,
    "Ġscot": 5643,
    "cream": 15330,
    "Ġproofs": 19813,
    "âĢĻ": 378,
    "Ġduly": 13349,
    "Ġphilips": 5410,
    "Ġperfectly": 3700,
    "inted": 2649,
    "Ġindelible": 25694,
    "Ġmud": 11572,
    "Ġbelieve": 2146,
    "deceiving": 22123,
    "hither": 11492,
    "Ġcruising": 6913,
    "kill": 13743,
    "gence": 876,
    "Ġunwillingly": 15848,
    "Ġoverpowered": 15287,
    "ook": 21003,
    "quee": 4129,
    "Ġverte": 9440,
    "third": 8167,
    "Ġcircumnavigating": 25614,
    "rendered": 22336,
    "rable": 11631,
    "whe": 1074,
    "resnet": 4070,
    "Ġleisurely": 24746,
    "Ġlaborers": 19057,
    "Ġprofession": 6207,
    "Ġcravat": 26307,
    "Ġreciprocating": 26369,
    "Ġensued": 11394,
    "bird": 9585,
    "maybe": 23988,
    "Ġmeadows": 11422,
    "shake": 22454,
    "Ġrods": 9753,
    "Ġunfitted": 24108,
    "Ġmarvel": 23032,
    "Ġmental": 21318,
    "deal": 12793,
    "Ġconcre": 16386,
    "Ġborne": 6351,
    "estation": 15921,
    "Ġoverhung": 15973,
    "Ġcharles": 11954,
    "Ġpythag": 26448,
    "Ġdecomposes": 5506,
    "Ġwiping": 25765,
    "Ġsubproblems": 12955,
    "Ġexpans": 18622,
    "ð": 177,
    "ass": 537,
    "Ġbranded": 14378,
    "Ġ39": 19488,
    "greek": 25404,
    "Ġav": 3581,
    "Ġsult": 10767,
    "Ġsurprising": 14597,
    "arent": 4248,
    "Ġhas": 825,
    "ertain": 1207,
    "alice": 3210,
    "Ġdenied": 9000,
    "Ġnormalization": 1243,
    "dislike": 23492,
    "principle": 10650,
    "Ġundoubted": 19513,
    "Ġwillow": 18529,
    "Ġhydraul": 9513,
    "Ġinquired": 7485,
    "Ġbeneath": 3241,
    "hears": 12530,
    "Ġfast": 1717,
    "preserve": 25303,
    "regular": 3040,
    "Ġxv": 23405,
    "Ġ50": 24319,
    "Ġcatches": 23425,
    "Ġsem": 1876,
    "Ġappo": 8498,
    "apable": 6422,
    "obser": 11100,
    "Ġscreen": 17205,
    "Ġagitated": 7647,
    "Ġsufferings": 7513,
    "ent": 305,
    "mistaken": 12208,
    "Ġinland": 11607,
    "Ġshapeless": 24524,
    "Ġsubstantiated": 25875,
    "Ġfamine": 16327,
    "verize": 21725,
    "Ġjack": 4651,
    "Ġlace": 13948,
    "contents": 12056,
    "ifted": 4493,
    "Ġbelted": 22945,
    "Ġjurymen": 16847,
    "Ġcomp": 724,
    "tumultuous": 20397,
    "usages": 22287,
    "Ġnantucket": 2841,
    "iate": 6505,
    "Ġdiffusion": 23780,
    "Ġmechanis": 1200,
    "readily": 19360,
    "Ġunwaning": 25170,
    "ille": 9219,
    "Ġsuspend": 14608,
    "ential": 826,
    "Ġconsists": 11976,
    "Ġpacing": 8425,
    "wake": 11545,
    "eed": 20840,
    "conv": 7213,
    "ubbub": 23242,
    "Ġbowlines": 19321,
    "frequented": 25900,
    "Ġcoop": 14269,
    "Ġaround": 3610,
    "Ġpapa": 10656,
    "ezing": 10573,
    "Ġstupendous": 20499,
    "Ġvancouver": 26565,
    "book": 4668,
    "Ġviolation": 23404,
    "Ġtrading": 23073,
    "ributed": 8213,
    "Ġwedding": 4856,
    "Ġtranspired": 16784,
    "Ġtoe": 13935,
    "Ġunde": 11710,
    "Ġrider": 24185,
    "ive": 426,
    "69": 17474,
    "Ġapplied": 6186,
    "feature": 4190,
    "Ġliberated": 19665,
    "nels": 12493,
    "Ġvanishing": 1346,
    "receive": 12539,
    "Ġgrim": 7439,
    "Ġknocked": 9499,
    "Ġfanatic": 23390,
    "Ġjudge": 5502,
    "Ġdissolved": 18554,
    "apter": 1194,
    "Ġguiding": 19240,
    "flesh": 13489,
    "Ġshriek": 6637,
    "Ġcoins": 11817,
    "Ġinner": 9670,
    "racting": 10355,
    "blu": 12438,
    "professor": 17249,
    "Ġopposing": 12038,
    "Ġbones": 4582,
    "Ġelizabeth": 1129,
    "Ġsensibility": 14513,
    "Ġexecuted": 9471,
    "Ġfury": 7660,
    "honour": 13466,
    "Ġhissing": 15788,
    "razor": 21634,
    "Ġcountry": 2531,
    "Ġeagle": 13201,
    "involuntarily": 20413,
    "accepting": 20134,
    "anges": 1675,
    "Ġroads": 13287,
    "Ġcooked": 13268,
    "ittarius": 22377,
    "Ġbumpkin": 20199,
    "hair": 9122,
    "Ġlean": 7605,
    "Ġaffecting": 2324,
    "Ġproperly": 7944,
    "chief": 4643,
    "bruary": 15234,
    "Ġbowed": 6242,
    "umn": 5835,
    "Ġexplain": 545,
    "pacific": 17641,
    "Ġtist": 21161,
    "feeling": 6616,
    "doublo": 24660,
    "Ġstriving": 8996,
    "eland": 11619,
    "Ġcloset": 19590,
    "Ġtransient": 18481,
    "Ġwondrous": 4733,
    "Ġbrag": 23831,
    "Ġfascinating": 17327,
    "antial": 8487,
    "Ġillustrations": 17108,
    "Ġparis": 8178,
    "asingly": 17960,
    "Ġminutest": 14560,
    "Ġ135": 24785,
    "Ġglow": 7170,
    "quest": 4537,
    "Ġfatality": 12092,
    "Ġloc": 10914,
    "Ġguarded": 9825,
    "Ġdespondence": 25869,
    "antage": 3878,
    "cery": 20807,
    "surf": 24212,
    "hall": 8084,
    "Ġbringing": 5869,
    "from": 1989,
    "Ġbedfellow": 16437,
    "Ġsuccessfully": 19427,
    "Ġlima": 10442,
    "Ġinferred": 14500,
    "ories": 4751,
    "order": 1959,
    "Ġeasiness": 23533,
    "sure": 5522,
    "travelling": 24317,
    "adventure": 17233,
    "ultaneously": 4191,
    "Ġgrown": 5628,
    "then": 2051,
    "Ġsund": 8248,
    "ateur": 22005,
    "Ġmartial": 20290,
    "erting": 17777,
    "Ġexhilar": 19682,
    "Ġhabitual": 24790,
    "Ġbrass": 11048,
    "unted": 6998,
    "Ġline": 1849,
    "light": 3016,
    "Ġcanes": 22152,
    "Ġtorn": 5999,
    "kings": 17583,
    "Ġvote": 21944,
    "storied": 18024,
    "Ġensigns": 23687,
    "Ġsociety": 3978,
    "Ġintentionally": 24523,
    "Ġrepugn": 23361,
    "Ġfeather": 8859,
    "strangely": 17276,
    "Ġassum": 4065,
    "Ġbehavior": 8001,
    "Ġ1671": 25005,
    "porpoise": 16438,
    "Ġpiazza": 26450,
    "Ġcorpor": 23038,
    "daugh": 6788,
    "W": 59,
    "Ġmelancholy": 5606,
    "lifeless": 24312,
    "Ġrenounce": 19466,
    "rant": 11516,
    "Ġsacrificial": 24871,
    "accur": 14593,
    "size": 15425,
    "Ġfeat": 10937,
    "ates": 520,
    "cheap": 23803,
    "ignity": 4372,
[...]
