{
  "metadata": {
    "vocab_size": 26616,
    "algorithm": "BPE",
    "created_at": "2026-05-14 05:46:44",
    "special_tokens": [
      "<PAD>",
      "<SOS>",
      "<EOS>",
      "<UNK>",
      "<MASK>"
    ]
  },
  "vocab": {
    "rendering": 22344,
    "Ġparameter": 873,
    "Ġtrough": 15974,
    "Ġskills": 1840,
    "Ġpreprocess": 22237,
    "eaten": 20347,
    "Ġrepresentations": 1874,
    "Ġdomineer": 23678,
    "Ġtranspired": 16786,
    "Ġpretext": 22233,
    "Ġtrades": 8232,
    "Ġadorn": 12797,
    "Ġvision": 1586,
    "Ġreus": 8826,
    "etite": 21582,
    "Ġdinners": 23986,
    "chery": 24551,
    "Ġsweeter": 23921,
    "Ġinterven": 11000,
    "Ġignominy": 15089,
    "ĝ": 222,
    "spread": 8389,
    "Ġgent": 7382,
    "Ġmy": 412,
    "Ġdecapitated": 20619,
    "lun": 20948,
    "fluke": 25205,
    "Ġremembrance": 8318,
    "fort": 1749,
    "Ġconcocted": 26300,
    "Ġscheming": 23273,
    "Ġdivers": 9668,
    "games": 20882,
    "Ġflorid": 17138,
    "Ġjewelled": 20186,
    "Ġrequiring": 2924,
    "Ġsinking": 7306,
    "Ġdangling": 17177,
    "Ġcogent": 14279,
    "Ġben": 1107,
    "Ġendeavoured": 4919,
    "itous": 13870,
    "Ġprimitive": 25064,
    "ers": 408,
    "fell": 6952,
    "ceiling": 21630,
    "allow": 5104,
    "Ġcrests": 25686,
    "stones": 11639,
    "Ġtingling": 15096,
    "Ġfetched": 24568,
    "Ġeveryday": 22776,
    "Ġpalsy": 25779,
    "Ġcoincid": 20320,
    "ihood": 20924,
    "murdered": 12207,
    "supper": 12928,
    "Ġfollowed": 1793,
    "Ġwight": 12558,
    "Ġaspect": 3096,
    "Ġtedious": 15271,
    "adier": 18092,
    "sion": 8094,
    "scru": 16249,
    "Ġtents": 13821,
    "Ġbeasts": 10620,
    "Ġyawn": 7609,
    "Ġaccounts": 7206,
    "Ġinfatuation": 25858,
    "Ġscent": 10287,
    "Ġirrespective": 23378,
    "Ġexcavating": 23319,
    "Ġsilently": 6893,
    "Ġgossiping": 26245,
    "Ġwritten": 4167,
    "Ġbeings": 2488,
    "swallowed": 14856,
    "Ġmodified": 14170,
    "Ġstayed": 7998,
    "rated": 6228,
    "grounds": 11153,
    "ible": 1114,
    "oker": 10965,
    "may": 3680,
    "soever": 11864,
    "Ġstubborn": 10416,
    "Ġauthorities": 11266,
    "Ġcapsized": 20093,
    "beaut": 8515,
    "Ġpractically": 13104,
    "Ġ1991": 3016,
    "»": 124,
    "vocabulary": 25088,
    "evinced": 19928,
    "Ġmicroscopic": 26375,
    "Ġmouldy": 14977,
    "Ġanything": 2184,
    "oam": 8755,
    "sle": 9141,
    "Ġplane": 11827,
    "althily": 19362,
    "Ġcomplied": 14738,
    "Ġinvention": 19956,
    "Ġfully": 6343,
    "Ġbaron": 19336,
    "Ġacquired": 13048,
    "Ġsnuff": 7992,
    "opotam": 22483,
    "constable": 24606,
    "mblies": 24609,
    "nine": 13764,
    "Ġextent": 7655,
    "Ġaint": 17746,
    "Ġwrig": 13073,
    "humoured": 11238,
    "ierce": 14395,
    "Ġchoice": 2164,
    "wling": 11547,
    "Ġfired": 16158,
    "possesses": 24617,
    "Ġdom": 2779,
    "tisement": 6767,
    "curiosity": 8627,
    "shed": 8095,
    "Ġtornado": 24622,
    "sl": 5794,
    "Ġark": 10278,
    "across": 10325,
    "Ġcommunicating": 16891,
    "Ġimpregnable": 26024,
    "Ġdeliciousness": 24129,
    "Ġforging": 18096,
    "Ġprairies": 20024,
    "Ġdecorated": 22463,
    "Ġberths": 20118,
    "marked": 9051,
    "Ġdurst": 20355,
    "Ġentries": 22753,
    "Ġwoodcock": 19165,
    "sank": 17664,
    "Ġvisage": 18769,
    "bingley": 4928,
    "Ġenchanted": 9083,
    "Ġstandards": 19020,
    "Ġthews": 21280,
    "limbs": 20194,
    "Ġclasped": 17209,
    "total": 17253,
    "Ġtailed": 21171,
    "Ě": 219,
    "Ġinequalities": 26455,
    "unusually": 15785,
    "roded": 17958,
    "Ġowed": 10782,
    "Ġknowledge": 1445,
    "Ġinfallibly": 10044,
    "Ġsentry": 19028,
    "quered": 11055,
    "Ġpropag": 16352,
    "á": 162,
    "Ġsinners": 18952,
    "Ġskrimshander": 22804,
    "Ġcompact": 2262,
    "Ġviol": 2071,
    "con": 653,
    "Ġlooking": 2473,
    "bingleys": 19637,
    "rim": 7138,
    "Ġsnap": 11202,
    "Ġballarat": 14723,
    "Ġroyal": 5602,
    "bent": 15315,
    "ighbour": 3384,
    "Ġlaws": 8003,
    "Ġshine": 12771,
    "description": 11095,
    "jub": 20931,
    "Ġretrogression": 26583,
    "Ġmultipl": 2791,
    "Ġdegenerating": 25800,
    "lads": 20957,
    "Ġproving": 15757,
    "leader": 25352,
    "Ġmaze": 23834,
    "@": 36,
    "iated": 5890,
    "Ġapt": 9158,
    "Ġindefinite": 17179,
    "Ġraptures": 13500,
    "Ġtrim": 15973,
    "Ġrussian": 14354,
    "ipp": 10105,
    "Ġsolid": 6443,
    "passage": 11263,
    "listen": 13517,
    "Ġmantle": 25275,
    "ulity": 10888,
    "Ġluc": 3306,
    "Ġyards": 5371,
    "oh": 1576,
    "Ġgardiner": 3235,
    "Ġcomb": 1082,
    "Ġthereof": 22372,
    "aggo": 5097,
    "Ġenergetic": 15201,
    "she": 1395,
    "Ġextinguish": 14340,
    "Ġsleepy": 8268,
    "}": 97,
    "cheerfulness": 20183,
    "Ġaddresses": 3767,
    "Ġoperations": 2297,
    "Ġafresh": 18628,
    "Ġfumes": 21421,
    "temper": 10007,
    "gunw": 17223,
    "illed": 2620,
    "Ġens": 2788,
    "ullo": 12734,
    "Ġdependency": 3481,
    "aust": 15313,
    "Ġpallid": 12303,
    "Ġintrude": 25991,
    "northern": 23666,
    "blast": 9590,
    "cham": 10855,
    "despatched": 19804,
    "Ġveter": 15816,
    "Ġunfelt": 24113,
    "Ġuniversal": 2234,
    "Ġshoreless": 24297,
    "Ġcontinuing": 14401,
    "Ġskip": 1846,
    "alloyed": 22199,
    "dirty": 20836,
    "Ġprotecting": 24687,
    "Ġpractised": 23314,
    "Ġmark": 2328,
    "hood": 2658,
    "children": 9058,
    "help": 1476,
    "appre": 14371,
    "Ġsuffoc": 18872,
    "Ġvor": 15811,
    "Ġamends": 14248,
    "mant": 20967,
    "national": 21000,
    "batch": 1983,
    "arthur": 14833,
    "Ġconsequence": 5542,
    "Ġobserving": 6080,
    "Ġfitzwilliam": 5771,
    "Ġmonstrous": 7789,
    "Ġleisurely": 24745,
    "Ġbeh": 1800,
    "Ġgentlemen": 3642,
    "Ġscholar": 26112,
    "Ġacres": 14316,
    "Ġfact": 1730,
    "Ġsouthwards": 19636,
    "Ġscraggy": 24580,
    "murder": 10567,
    "Ġplaintiffs": 13613,
    "alarm": 15632,
    "eyes": 5684,
    "Ġpowder": 11277,
    "Ġdevice": 1929,
    "avail": 18607,
    "'m": 9585,
    "mystic": 25317,
    "Ġvigour": 24462,
    "Ġinvented": 17038,
    "Ġalone": 2561,
    "Ġwarn": 5695,
    "const": 5939,
    "Ġfactor": 19017,
    "ntax": 934,
    "mers": 9613,
    "Ġmisty": 16542,
    "Ġleague": 6539,
    "Ġsong": 5903,
    "Ġdubious": 17386,
    "Ġrecital": 16145,
    "Ġcondem": 6339,
    "Ġconsc": 4273,
    "Ġgermany": 25786,
    "Ġbushes": 16401,
    "Ġoy": 15551,
    "Ġallusions": 10908,
    "Ġdiabolically": 25514,
    "ĠĠĠĠĠĠĠĠĠĠĠĠĠĠĠĠĠĠĠĠĠĠĠĠĠĠĠ": 14889,
    "isms": 12585,
    "Ġones": 3020,
    "Ġfountains": 13506,
    "ignity": 4374,
    "decoder": 3644,
    "ol": 363,
    "Ġundo": 15845,
    "mph": 20973,
    "Ġfielding": 16234,
    "Ġvacancies": 24345,
    "Ġfeatures": 1431,
    "write": 14649,
    "condite": 23250,
    "principle": 10653,
    "Ġaccusations": 22381,
    "Ġfluffy": 19367,
    "opes": 10313,
    "Ġtumbling": 13828,
    "Ġanimate": 23426,
    "Ġmarvels": 11086,
    "Ġsmallest": 6430,
    "fri": 20856,
    "inkling": 16095,
    "ascal": 10195,
    "Ġretribution": 16285,
    "Ġdella": 21442,
    "Ġindistinctly": 26118,
    "Ġinsatiable": 19274,
    "ther": 481,
    "Ġclearer": 16316,
    "Ġadmiral": 17308,
    "misfortunes": 16758,
    "Ġdolphins": 20399,
    "Ġtotally": 9474,
    "interchange": 23741,
    "Ġsacred": 10932,
    "fabulous": 20477,
    "Ġmultiple": 1185,
    "Ġcalam": 13038,
    "Ġohio": 19130,
    "Ġmeets": 7395,
    "Ġxiv": 23411,
    "tiness": 21074,
    "Ġciv": 3304,
    "teeth": 10358,
    "Ġjustine": 4970,
    "ler": 3486,
    "forks": 26389,
    "Ġunrecord": 16623,
    "Ġvacancy": 9047,
    "Ġaugment": 8695,
    "Ġvehic": 8936,
    "proportions": 22850,
    "Ġalfred": 21790,
    "nd": 11506,
    "aying": 15754,
    "confusion": 13374,
    "Ġirritated": 17244,
    "Ġvind": 10252,
    "Ġalps": 10872,
    "Ġcountless": 16384,
    "Ġclattered": 22353,
    "cked": 2761,
    "downstairs": 23923,
    "Ġexplained": 5936,
    "Ġdisgust": 6706,
    "Ġlingering": 11381,
    "Ġfearfulness": 23514,
    "ikes": 8087,
    "Ġaffair": 4465,
    "Ġinserted": 8356,
    "Ġstyled": 24672,
    "Ġdescending": 8906,
    "thick": 10262,
    "Ġfrenchman": 11285,
    "prevent": 11799,
    "Ġtropic": 17065,
    "Ġyanke": 18100,
    "Ġbeggar": 9352,
    "uguese": 20734,
    "Ġprefers": 20517,
    "apping": 5852,
    "included": 19210,
    "Ġtheme": 16024,
    "Ġdates": 6694,
    "Ġbrut": 18770,
    "Ġplayers": 12043,
    "cas": 20796,
    "Ġunaccountable": 7887,
    "Ġshiver": 12772,
    "Ġsheep": 10928,
    "Ġbelief": 5856,
    "aws": 8237,
    "Ġle": 332,
    "sembled": 7262,
    "Ġnonsense": 6982,
    "Ġlizard": 12659,
    "Ġfavourites": 16647,
    "Ġquietude": 19363,
    "Ġmighty": 4229,
    "later": 20955,
    "Ġdisturbance": 15015,
    "Ġenergy": 2547,
    "Ġventured": 7500,
    "Ġflannel": 26579,
    "Ġsweetheart": 19398,
    "Ġroods": 22406,
    "afer": 17484,
    "opposing": 24822,
    "Ġenviron": 3891,
    "Ġinterpreter": 23214,
    "Ġbeech": 18085,
    "thur": 7187,
    "murderer": 13397,
    "Ġdrawback": 23994,
    "Ġtopic": 9409,
    "tall": 17675,
    "Ġevid": 3495,
    "ushion": 14724,
    "urities": 18052,
    "scure": 22993,
    "_).": 5887,
    "Ġhumiliation": 16203,
    "Ġhandle": 3136,
    "sloop": 26146,
    "Ġnasty": 17446,
    "Ġbraz": 19361,
    "torm": 11533,
    "Ġyoun": 1407,
    "Ġtended": 21169,
    "Ġmysterious": 7526,
    "Ġswayed": 15050,
    "missed": 11210,
    "50": 6784,
    "onings": 21255,
    "Ġinflex": 20637,
    "Ġlexic": 15723,
    "¨": 106,
    "ross": 804,
    "ŀ": 257,
    "Ġbites": 23746,
    "rie": 2787,
    "Ġabsence": 4895,
    "Ġsled": 21221,
    "Ġtransc": 12869,
    "Ġfarther": 5955,
    "ithmetic": 18064,
    "Ġaltern": 7393,
    "itatingly": 25278,
    "Ġthrills": 24542,
    "Á": 130,
    "attachment": 13057,
    "Ġche": 1763,
    "while": 2937,
    "Ġopposite": 5120,
    "Ġgush": 10205,
    "Ġsw": 1357,
    "Ġindoors": 18838,
    "eenth": 12465,
    "Ġpedro": 15066,
    "fol": 4863,
    "Ġwriggling": 15261,
    "Ġhorses": 6385,
    "Ġcroquet": 9965,
    "Ġu": 324,
    "turbable": 24531,
    "Ġappare": 12825,
    "Ġcure": 21343,
    "Ġpoker": 13925,
    "Ġtorpor": 25034,
    "Ġpianoforte": 15277,
    "Ġproficiency": 19195,
    "Ġbedrooms": 19973,
    "consequential": 26251,
    "Ġjack": 4654,
    "Ġsighed": 10340,
    "Ġtransom": 22440,
    "Ġg": 310,
    "Ġzoned": 22823,
    "Ġdon": 1613,
    "arling": 10816,
    "occupied": 12308,
    "hated": 17563,
    "mast": 3602,
    "Ġautomatically": 3774,
    "Ġgroans": 14827,
    "raction": 8138,
    "Ġfavours": 23284,
    "anchor": 13892,
    "button": 10971,
    "ipt": 12483,
    "fatal": 17089,
    "intern": 23738,
    "Ġriveted": 13622,
    "miraculous": 26398,
    "hatchet": 24819,
    "Ġconceited": 12096,
    "Ġactually": 5389,
    "Ġsweetest": 13251,
    "Ġtwit": 12934,
    "osop": 4405,
    "Ġpreference": 9736,
    "Ġsitu": 3490,
    "aculate": 16069,
    "iff": 3905,
    "Ġours": 4614,
    "Ġincrust": 22555,
    "Ġplanisphere": 26609,
    "Ġdense": 8123,
    "Ġsaves": 18325,
    "Ġfresh": 3671,
    "Ġsurprised": 3830,
    "Ġken": 22189,
    "Ġsufficiently": 8976,
    "Ġ117": 19700,
    "aloons": 20014,
    "Ġalter": 6543,
    "Ġpage": 6978,
    "Ġwherein": 14298,
    "Ġportcull": 23866,
    "Ġgratify": 19506,
    "Ġfled": 6672,
    "revival": 26163,
    "Ġrapture": 13499,
    "deploy": 22146,
    "Ġringleader": 26214,
    "Ġpap": 8802,
    "Ġawkwardness": 13491,
    "nailed": 20998,
    "Ġfishes": 11594,
    "laughed": 20284,
    "Ġmic": 17799,
    "Ġseating": 18200,
    "rushed": 10587,
    "Ġfe": 490,
    "Ġful": 4296,
    "affection": 7486,
    "Ġapproved": 16041,
    "cated": 20805,
    "itty": 3551,
    "cons": 4308,
    "Ġabounding": 12348,
    "Ġarrows": 18337,
    "affair": 14657,
    "mistake": 24529,
    "Ġnative": 4642,
    "ascending": 24706,
    "Ġtrial": 6636,
    "hate": 20894,
    "eteenth": 20160,
    "Ġyouth": 4260,
    "Ġkidn": 20208,
    "Ġmyth": 18221,
    "Ġcondescending": 24869,
    "Ġsomehow": 4843,
    "scot": 14421,
    "Ġunerring": 15852,
    "window": 7742,
    "anks": 3916,
    "Ġstrainings": 24628,
    "Ġfootsteps": 16575,
    "Ġlapse": 17123,
    "latitude": 25260,
    "Ġoutrage": 15963,
    "Ġrecords": 12200,
    "Ġstraggling": 23754,
    "Ġuncl": 22020,
    "Ġexamine": 7734,
    "Ġbreeds": 23350,
    "Ġhierarchical": 1928,
    "Ġassembled": 9239,
    "py": 17626,
    "Ġdeclined": 9924,
    "mit": 4934,
    "fall": 5135,
    "Ġdus": 8424,
    "Ġshol": 21999,
    "Ġlatitudes": 9499,
    "regular": 3041,
    "profound": 16430,
    "Ġvanquished": 22877,
    "Ġinvoking": 19147,
    "Ġforwarded": 19045,
    "Ġor": 437,
    "ma": 1147,
    "thereby": 14450,
    "Ġsuited": 12792,
    "Ġrenew": 6146,
    "deserted": 19344,
    "Ġhither": 4760,
    "Ġmalays": 19680,
    "Ġmaritime": 23040,
    "betrayed": 24641,
    "weigh": 18666,
    "Ġcapstan": 9102,
    "round": 3363,
    "Ġtopmost": 14589,
    "shrugged": 22454,
    "Ġorder": 1686,
    "Ġloathed": 15880,
    "gling": 10100,
    "Ġboasted": 16111,
    "belonged": 25598,
    "cous": 8725,
    "idable": 8146,
    "uzza": 11272,
    "Ġdraught": 9848,
    "Ġtugged": 17291,
    "Ġregarding": 13214,
    "Ġ18": 3402,
    "ouble": 2661,
    "Ġtombed": 25164,
    "uteronomy": 15669,
    "Ġstirring": 10582,
    "Ġur": 5540,
    "Ġsea": 1209,
    "Ġcomely": 21852,
    "Ġpenal": 1773,
    "Ġcontest": 18474,
    "compass": 9463,
    "accountable": 7110,
    "Ġbulwarks": 5592,
    "reduc": 5459,
    "covering": 15337,
    "watson": 12248,
    "Ġappl": 1751,
    "Ġstabbed": 25457,
    "Ġturkey": 19221,
    "uting": 15665,
    "Ġchoose": 5982,
    "Ġfits": 8795,
    "Ġphren": 8574,
    "snapping": 24850,
    "Ġstaving": 21744,
    "plan": 15823,
    "Ġwhose": 2008,
    "Ġdun": 6675,
    "asses": 7017,
    "madness": 14885,
    "asper": 7855,
    "Ġaccomplish": 14879,
    "Ġpaint": 7707,
    "Ġgroves": 16742,
    "neys": 23584,
    "ground": 4673,
    "ato": 17771,
    "Ġdeference": 10883,
    "pat": 10119,
    "Ġbias": 1190,
    "onness": 21257,
    "Ġtech": 1610,
    "intelligence": 5883,
    "Ġestates": 16463,
    "Ġrolled": 4431,
    "Ġminus": 18751,
    "largely": 19577,
    "Ġpruning": 18971,
    "Ġmagnus": 18959,
    "Ġhoars": 19079,
    "Ġretiring": 16284,
    "Æ": 135,
    "unt": 2043,
    "Ġrele": 2920,
    "Ġmerrily": 23734,
    "attending": 18918,
    "Ġdreadful": 4921,
    "swing": 15433,
    "Ġmum": 13861,
    "Ġwestern": 10657,
    "ipotence": 22363,
    "Ġderision": 16313,
    "Ġcrocodile": 20742,
    "Ġconvert": 11846,
    "Ġplush": 18611,
    "Ġwip": 13856,
    "Ġfinest": 10394,
    "till": 6965,
    "Ġwharves": 13509,
    "Ġsant": 21217,
    "animate": 12582,
    "å": 166,
    "apable": 6422,
    "iop": 20921,
    "feel": 3812,
    "Ġtusk": 25426,
    "ĠĠĠĠĠĠĠĠĠĠĠĠĠĠĠĠĠĠĠĠĠĠĠĠĠĠĠĠĠĠĠĠĠĠĠĠĠĠĠĠĠĠ": 24212,
    "name": 6795,
    "Ġmother": 2067,
    "Ġtorment": 8677,
    "Ġprime": 10406,
    "presbyterian": 26370,
    "Ġinscrut": 10037,
    "Ġsmiles": 6707,
    "Ġderick": 9367,
    "itory": 12572,
    "happened": 9436,
    "Ġvivid": 8058,
    "Ġcarpent": 4467,
    "Ġbetter": 1170,
    "short": 6567,
    "Ġspeaks": 11161,
    "Ġtheorem": 2323,
    "eu": 17532,
    "ib": 1236,
    "Ġvelocity": 10623,
    "observed": 7674,
    "Ġslanting": 23174,
    "mblance": 7322,
    "atics": 15527,
    "Ġcrashes": 13129,
    "Ġinst": 912,
    "Ġlirra": 21563,
    "Ġclothed": 19609,
    "Ġmou": 13858,
    "Ġsaxe": 13632,
    "ack": 615,
    "Ġpacked": 9983,
    "credit": 12453,
    "uling": 2257,
    "isters": 11923,
    "Ġzigzag": 26274,
    "Ġsleep": 2398,
    "pretending": 17042,
    "abounding": 25980,
    "urbed": 15714,
    "execut": 13659,
    "helped": 18927,
    "daughter": 8354,
    "Ġblandly": 20326,
    "Ġkilled": 4955,
    "Ġstamping": 20034,
    "Ġpeculiar": 3152,
    "¥": 103,
    "Ġturbid": 23613,
    "st": 316,
    "Ġever": 1176,
    "sick": 13787,
    "means": 9788,
    "Ġadjust": 2152,
    "Ġoffence": 12950,
    "Ġassumpt": 5415,
    "Ġpurchasing": 19877,
    "ickory": 22671,
    "whal": 10942,
    "pudding": 17649,
    "Ġobliv": 16138,
    "uccas": 21109,
    "lid": 20947,
    "ontory": 10461,
    "Ġlays": 15994,
    "Ġlightness": 23263,
    "Ġlocations": 12417,
    "Ġtasted": 12534,
    "Ġsubsets": 2342,
    "Ġincluding": 2850,
    "Ġsacrificial": 24872,
    "accusations": 23601,
    "empty": 23636,
    "Ġbermud": 26441,
    "Ġnick": 21526,
    "aver": 6785,
    "Ġuntil": 2668,
    "Ġdesired": 4666,
    "Ġ1894": 5196,
    "straw": 24100,
    "Ġmeditative": 25017,
    "Ġhelplessly": 20081,
    "Ġdons": 17890,
    "Ġmagnet": 10392,
    "Ġsketches": 26272,
    "Ġremem": 4312,
    "raint": 18317,
    "Ġglared": 13023,
    "iciously": 17976,
    "Ġlower": 2662,
    "Ġprodu": 1206,
    "Ġerr": 1320,
    "Ġobsc": 7040,
    "Ġlazy": 17051,
    "bless": 22316,
    "Ġfiver": 22775,
    "ria": 15800,
    "Ġwhether": 2000,
    "Ġjove": 9271,
    "thouse": 21986,
    "ipher": 18428,
    "Ġforth": 3457,
    "omn": 15687,
    "ggy": 13118,
    "Ġhorr": 3189,
    "Ġinstability": 3813,
    "Ġpurring": 23477,
    "onies": 6806,
    "queer": 10365,
    "oken": 4306,
    "Ġpil": 5014,
    "footed": 19692,
    "Ġstiffly": 15007,
    "Ġhotels": 19539,
    "positive": 20570,
    "aye": 3659,
    "ge": 560,
    "iscient": 17853,
    "instances": 13324,
    "answer": 11736,
    "Ġimmortality": 26327,
    "Ġscrape": 14921,
    "Ġdemi": 25549,
    "beholding": 16048,
    "nlp": 8754,
    "Ġmistakes": 16543,
    "Ġdeduce": 8337,
    "Ġphysiognomically": 25613,
    "Ġwelcome": 5604,
    "Ġpromised": 5181,
    "eter": 11624,
    "Ġgrapnels": 25552,
    "ap": 547,
    "Ġwinter": 5220,
    "occasionally": 13524,
    "arian": 10319,
    "ory": 1081,
    "Ġdrawn": 4274,
    "Ġax": 7822,
    "testing": 12521,
    "south": 8762,
    "dham": 20832,
    "when": 1589,
    "abil": 2007,
    "Ġheidelburgh": 11646,
    "mariners": 19551,
    "achel": 7032,
    "izard": 10885,
    "Ġfinally": 4668,
    "extinguish": 22773,
    "oftentimes": 19424,
    "Ġnon": 1624,
    "Ġneeded": 7717,
    "posture": 16929,
    "Ġdesolate": 10016,
    "Ġparmacetti": 20607,
    "Ġfluctuating": 24417,
    "Ġmantelpiece": 15211,
    "Ġshy": 10905,
    "Ġdistinguished": 8273,
    "formality": 22218,
    "Ġwaif": 9378,
    "Ġwidely": 8033,
    "horrible": 14602,
    "screen": 23001,
    "Ġincorporate": 20457,
    "Ġsund": 8249,
    "Ġshield": 22003,
    "Ġedges": 3826,
    "Ġpenetrate": 12274,
    "Ġ109": 24416,
    "Ġeverybody": 4513,
    "got": 6954,
    "ament": 2438,
    "fancy": 7336,
    "Ġshrimp": 24160,
    "Ġdeliberately": 10627,
    "Ġ44": 16681,
    "ckled": 9260,
    "mar": 4334,
    "Ġclearing": 8240,
    "attle": 4468,
    "orne": 17874,
    "icacy": 15663,
    "lands": 8241,
    "Ġjiff": 22300,
    "Ġdefray": 22944,
    "Ġnarwhales": 24903,
    "revol": 12545,
    "`": 68,
    "Ġglobal": 2366,
    "Ġdeified": 18140,
    "lifted": 15390,
    "collecting": 26082,
    "Ġripples": 25506,
    "iful": 2884,
    "Ġspe": 818,
    "Ġsemi": 11972,
    "moid": 2449,
    "batim": 25019,
    "Ġdri": 2359,
    "Ġwidower": 24238,
    "desk": 23812,
    "Ġhailed": 6407,
    "Ġimagine": 3923,
    "Ġtrooped": 24900,
    "grasp": 16435,
    "Ġbanker": 8670,
    "Ġthimble": 15642,
    "Ġconsideration": 5191,
    "attain": 21264,
    "Ġmajest": 24065,
    "Ġbottles": 16573,
    "Ġimped": 18443,
    "Ġvale": 14085,
    "Ġdeny": 7487,
    "Ġdoctors": 12156,
    "support": 9472,
    "Ġcarted": 21353,
    "scr": 16248,
    "road": 6678,
    "Ġexecutors": 19536,
    "dening": 22781,
    "Ġpolynes": 16088,
    "Ġfrankness": 16748,
    "Ġdisapprobation": 16063,
    "culous": 11142,
    "Ġrecounted": 22735,
    "presently": 9810,
    "invincible": 25092,
    "int": 1200,
    "stonecraft": 24356,
    "Ġslow": 2375,
    "Ġsheltered": 19913,
    "Ġaccording": 5508,
    "Ġpom": 21454,
    "Ġpalpit": 16692,
    "Ġthrone": 12218,
    "Ġshoes": 7072,
    "axing": 18548,
    "Ġency": 21937,
    "Ġintim": 6837,
    "Ġharpooning": 23983,
    "corners": 17371,
    "cil": 8724,
    "fing": 13716,
    "occurrences": 26333,
    "Ġcapt": 1291,
    "Ġdependence": 18619,
    "Ġdisplayed": 10611,
    "result": 12048,
    "Ġfairest": 20466,
    "ract": 985,
    "Ġmad": 2425,
    "hoisting": 23718,
    "Ġwould": 652,
    "),": 1346,
    "Ġsubl": 7234,
    "trop": 15440,
    "Ġalarm": 4047,
    "Ġhussey": 7724,
    "chants": 21695,
    "Ġshifting": 12773,
    "Ġartic": 5315,
    "queequeg": 4333,
    "Ġshot": 4546,
    "unted": 6998,
    "Ġstrict": 7221,
    "Ġscruples": 15082,
    "interference": 23740,
    "uvian": 12247,
    "Ġintend": 12769,
    "jure": 20926,
    "band": 3058,
    "Ġjulia": 22306,
    "Ġtamely": 24980,
    "civilized": 17076,
    "Ġmemorand": 23408,
    "Ġredden": 15699,
    "learned": 8604,
    "Ġdish": 6137,
    "Ġmaelstrom": 19359,
    "Ġtranspointed": 22442,
    "Ġrambling": 18644,
    "Ġabominably": 20069,
    "sum": 2086,
    "returned": 7765,
    "Ġport": 3305,
    "Ġoarsman": 8641,
    "degree": 12806,
    "Ġoccupation": 9934,
    "Ġactual": 3737,
    "Ġefficiently": 3856,
    "Ġtune": 17727,
    "remes": 21240,
    "Ġconveys": 16857,
    "Ġviolation": 23409,
    "ifers": 15786,
    "Ġlongest": 18630,
    "opic": 22480,
    "Ġph": 1549,
    "frau": 15093,
    "Ġwhitney": 11375,
    "grinder": 23418,
    "physiogn": 26264,
    "ped": 6963,
    "Ġquantization": 19856,
    "Ġrude": 7233,
    "avor": 14283,
    "grant": 10429,
    "ondon": 2705,
    "ited": 1750,
    "Ġspear": 9317,
    "romang": 22009,
    "Ġdaboll": 25951,
    "Ġrev": 6988,
    "Ġeffected": 14357,
    "Ġcosine": 2369,
    "Ġlighting": 13087,
    "Ġwr": 1545,
    "crow": 9593,
    "b": 70,
    "namely": 23745,
    "exe": 11793,
    "Ġpatted": 16407,
    "ouncing": 8496,
    "Ġvib": 8165,
    "infernal": 24663,
    "Ġcaress": 16344,
    "icken": 6712,
    "Ġtall": 4038,
    "Ġinsect": 12641,
    "whispered": 20037,
    "sk": 5521,
    "Ġinsisted": 12050,
    "ounder": 11748,
    "Ġstoop": 16314,
    "Ġeffort": 8204,
    "Ġafter": 871,
    "inkled": 5477,
    "considerably": 13449,
    "hope": 5990,
    "Ġdetails": 6566,
    "Ġdecipher": 22464,
    "Ġgeneration": 2270,
    "Ġstren": 15728,
    "Ġreneg": 21678,
    "Ġharrow": 17928,
    "ladder": 19787,
    "noble": 7922,
    "Ġreconciliation": 25293,
    "network": 1906,
    "Ġlink": 8130,
    "Ġleaving": 3904,
    "Ġhaul": 11696,
    "elter": 21574,
    "Ġallegro": 25795,
    "desp": 6093,
    "giana": 7800,
    "Ġignorance": 6620,
    "Ġdramatic": 4852,
    "Ġblacksmith": 6596,
    "Ġphrenologists": 25609,
    "Ġiterate": 13205,
    "Ġbought": 8417,
    "apothe": 22339,
    "Ġtechnical": 17194,
    "Ġinsc": 7585,
    "Ġjelly": 22304,
    "Ġsoliloquized": 17305,
    "vineyard": 25422,
    "wheel": 22867,
    "Ġcravat": 26308,
    "sutherland": 21065,
    "Ġtract": 21168,
    "Ġclassical": 22624,
    "Ġaccumulated": 11935,
    "Ġglistening": 12369,
    "argue": 21447,
    "Ġfortnight": 6201,
    "Ġdais": 24372,
    "Ġcolleague": 17162,
    "arming": 8954,
    "Ġgestures": 13539,
    "Ġunrelieved": 20548,
    "rmsprop": 4524,
    "design": 19343,
    "bitter": 11242,
    "Ġreligion": 11417,
    "stout": 21648,
    "Ġ=": 1074,
    "diss": 17525,
    "Ġluck": 4881,
    "Ġgifted": 17999,
    "Ġlodgings": 8312,
    "Ġinstrument": 7119,
    "03": 20750,
    "vast": 10738,
    "pencil": 18830,
    "Ġvain": 3629,
    "Ġfeel": 1260,
    "pil": 15412,
    "Ġamsterdam": 22488,
    "eting": 7169,
    "deployment": 26529,
    "Ġcomm": 838,
    "methodically": 20666,
    "Ġelusive": 22647,
    "iar": 2374,
    "Ġeddies": 25089,
    "peculiarity": 23112,
    "Ġpleasanter": 19065,
    "spot": 9794,
    "wretched": 10743,
    "derness": 11742,
    "Ġaxe": 15064,
    "Ġfeed": 2126,
    "Ġcharles": 11960,
    "Ġidle": 8253,
    "ighted": 8477,
    "Ġint": 409,
    "Ġremains": 4911,
    "endurable": 22224,
    "Ġnin": 10190,
    "Ġdoze": 14179,
    "luent": 16003,
    "Ġgrave": 5100,
    "mered": 8218,
    "Ġchival": 14185,
    "Ġtraged": 9355,
    "aling": 1034,
    "ples": 6844,
    "bench": 16805,
    "strugg": 21665,
    "Ġblending": 14403,
    "Ġkinds": 14507,
    "erc": 5905,
    "iscreet": 20685,
    "Ġselfishness": 12293,
    "extremely": 26266,
    "Ġbrimstone": 25687,
    "Ġz": 999,
    "Ġmerchant": 6467,
    "Ġovertaken": 18431,
    "Ġcome": 1242,
    "plain": 1359,
    "Ġtissu": 25921,
    "Ġdrag": 6185,
    "anoke": 21364,
    "usual": 5842,
    "analy": 17840,
    "Ġembarkation": 25125,
    "Ġmuff": 8114,
    "Ġstout": 6025,
    "suffered": 24330,
    "Ġimplement": 3084,
    "Ġmallet": 17812,
    "Ġrudder": 25110,
    "Ġaffectionately": 13172,
    "Ġlie": 4407,
    "Ġcleaving": 23183,
    "Ġfals": 15586,
    "Ġproblems": 2847,
    "edily": 17946,
    "ishe": 13894,
    "Ġvoids": 25808,
    "Ġdrama": 16332,
    "Ġinsights": 13183,
    "shunned": 22459,
    "Ġaddu": 22109,
    "different": 6501,
    "Ġbuilding": 8063,
    "abilities": 3233,
    "els": 1764,
    "Ġecon": 9680,
    "Ġball": 3623,
    "attacks": 23125,
    "Ġcasc": 15561,
    "ged": 1514,
    "urning": 12921,
    "Ġmastery": 23997,
    "bene": 6113,
    "Ġdint": 15596,
    "ude": 7561,
    "innocence": 15187,
    "Ġnet": 3626,
    "Ġresolutely": 14612,
    "Ġtimely": 19597,
    "che": 3170,
    "Ġspotted": 12143,
    "behind": 6779,
    "Ġgasped": 11374,
    "plenty": 14094,
    "Ġbash": 12591,
    "Ġaccordingly": 6621,
    "Ġreynolds": 10212,
    "abated": 14023,
    "Ġcasks": 7520,
    "Ġdisasters": 16059,
    "Ġcounters": 24143,
    "ocr": 10470,
    "ira": 3958,
    "Ġdiscourage": 3115,
    "lascar": 20962,
    "Ġ182": 13241,
    "anum": 17837,
    "Ġdoct": 4456,
    "Ġintentionally": 24523,
    "kinson": 10029,
    "Ġlicensing": 20096,
    "Ġcarcase": 14447,
    "Ġmummy": 25769,
    "Ġcushion": 17835,
    "rise": 6227,
    "deed": 1520,
    "Ġv": 399,
    "regarding": 15075,
    "hurriedly": 25511,
    "Ġdanes": 25160,
    "Ġtawny": 20485,
    "butt": 16001,
    "fully": 2202,
    "tem": 6369,
    "Ġnast": 15644,
    "Ġheadsmen": 14736,
    "Ġoverwrites": 5033,
    "Ġunansw": 22062,
    "beyond": 8886,
    "Ġfrightful": 7735,
    "Ġamply": 22486,
    "Ġavenues": 25430,
    "Ġconvince": 14644,
    "untering": 15781,
    "Ġessentially": 24925,
    "Ġgoethe": 22426,
    "Ġfainting": 16899,
    "Ġaffect": 1385,
    "Ġisn": 7866,
    "signs": 16541,
    "Ġdeem": 18136,
    "Ġbill": 4040,
    "Ġdiffered": 22716,
    "Ġabout": 633,
    "Ġways": 5396,
    "Ġpost": 4271,
    "orters": 21404,
    "Ġinterruption": 9476,
    "Ġdispute": 16061,
    "Ġuttermost": 19491,
    "Ġsatisfied": 4171,
    "©": 107,
    "Ġspas": 10924,
    "ifix": 21902,
    "Ġtendons": 19811,
    "Ġangry": 5498,
    "Ġhellaswag": 24343,
    "Ġpledge": 11603,
    "Ġprudence": 13923,
    "lever": 2934,
    "Ġsparing": 22133,
    "Ġarchangel": 8544,
    "mering": 12495,
    "ald": 15630,
    "nervous": 16279,
    "Ġfate": 4755,
    "Ġart": 748,
    "Ġreplay": 5047,
    "Ġdynam": 3344,
    "Ġro": 592,
    "Ġclink": 22349,
    "Ġpilgr": 12185,
    "Ġdeliver": 9850,
    "ception": 6563,
    "Ġisolation": 17153,
    "Ġgloss": 11961,
    "Ġinterference": 8898,
    "saturday": 14861,
    "Ġjoints": 12040,
    "Ġwhirlp": 16965,
    "Ġacquirement": 19257,
    "cim": 8723,
    "âĢĶâĢĻ": 8188,
    "Ġexplo": 2284,
    "Ġunshored": 25814,
    "level": 2652,
    "Ġconcerning": 4070,
    "Ġlast": 1120,
    "Ġchoking": 15939,
    "Ġpasses": 2679,
    "Ġcentre": 5122,
    "Ġlif": 10198,
    "Ġbreathlessly": 24283,
    "ug": 1767,
    "Ġcreate": 2090,
    "Ġlighten": 23262,
    "imprudence": 16560,
    "Ġadmirably": 16484,
    "Ġscattered": 6855,
    "Ġquietly": 4569,
    "aned": 5147,
    "assisted": 22310,
    "shrouded": 26363,
    "Ġsystematic": 5244,
    "sorrows": 17323,
    "bear": 10318,
    "Ġstrong": 1787,
    "Ġbeing": 1161,
    "oil": 7805,
    "Ġpumps": 8428,
    "Ġdestroying": 14733,
    "gans": 11492,
    "Ġtaste": 5524,
    "Ġimportant": 1080,
    "Ġdreadfully": 7725,
    "taught": 17686,
    "agos": 21908,
    "Ġbennett": 16328,
    "Ġgrop": 12669,
    "Ġrud": 8479,
    "Ġimbedded": 18333,
    "Ġ94": 17719,
    "eration": 10774,
    "sof": 17659,
    "Ġvital": 9246,
    "Ġprodigies": 19796,
    "sorts": 21063,
    "illation": 14144,
    "Ġczar": 12579,
    "arn": 357,
    "mas": 5212,
    "ooping": 21009,
    "Ġsubsequently": 16166,
    "Ġmantel": 11441,
    "Ġindulge": 10585,
    "answered": 10276,
    "Ġaudacity": 19884,
    "ones": 2741,
    "mr": 1898,
    "it": 276,
    "Ġfifth": 11259,
    "âĢĻ-": 18169,
    "Ġingen": 9052,
    "Ġbachel": 7158,
    "except": 5383,
    "active": 16108,
    "Ġdrily": 23540,
    "Ġwishing": 7830,
    "Ġtrappings": 23084,
    "thee": 9693,
    "endom": 15924,
    "Ġvehicles": 10662,
    "gal": 15359,
    "glass": 9912,
    "Ġmulti": 1043,
    "Ġconventional": 25548,
    "hideous": 25408,
    "Ġunfolded": 10641,
    "too": 4510,
    "Ġclasping": 20212,
    "Ġsteer": 10389,
    "Ġcents": 17830,
    "idea": 9304,
    "sp": 895,
    "Ġstaves": 21747,
    "Ġterrible": 5328,
    "Ġcapting": 23024,
    "Ġlayers": 813,
    "Ġsyrian": 18355,
    "ă": 196,
    "pier": 17637,
    "Ġspices": 22134,
    "Ġdeserted": 8640,
    "Ġaustralia": 15236,
    "Ġcyl": 15562,
    "Ġexamination": 8005,
    "Ġriding": 14098,
    "Ġprecious": 5760,
    "Ġringle": 18211,
    "Ġavoid": 5199,
    "hunting": 24385,
    "Ġignorantly": 19498,
    "andy": 8158,
    "Ġsangu": 15508,
    "Ġconsiderable": 4006,
    "Ġspecimens": 18860,
    "sus": 6229,
    "blown": 25202,
    "Ġjeopardy": 13600,
    "voyages": 24856,
    "Ġdiff": 3114,
    "pain": 7349,
    "Ġunprejudiced": 18270,
    "Ġglowing": 12287,
    "anish": 2613,
    "Ġprofessions": 11233,
    "Ġdragging": 14477,
    "Ġpian": 13920,
    "Ġdaint": 15598,
    "Ġcolonial": 22857,
    "Ġhostile": 19943,
    "willingness": 24754,
    "Ġ179": 19757,
    "reast": 17760,
    "Ġdrenched": 12608,
    "ving": 594,
    "a": 69,
    "Ġlithe": 24669,
    "Ġangels": 11180,
    "sweeping": 24619,
    "iarity": 8747,
    "twas": 15441,
    "Z": 62,
    "Ġgentleman": 3040,
    "Ċ": 203,
    "ife": 1025,
    "Ġfitted": 6244,
    "rumours": 23924,
    "exc": 5169,
    "Ġscandalous": 24880,
    "Ġcomprehensive": 15091,
    "Ġnatures": 16508,
    "letter": 6202,
    "Ġgallery": 10527,
    "ulated": 6030,
    "nature": 5360,
    "Ġmien": 17810,
    "ading": 5091,
    "Ġnobleman": 19395,
    "Ġpure": 6138,
    "Ġaberdeen": 26543,
    "Ġpent": 17903,
    "Ġwarnings": 16883,
    "Ġnook": 15933,
    "destroy": 19513,
    "everybody": 8614,
    "fre": 5425,
    "Ġobserve": 4672,
    "Ġsan": 7824,
    "Ġwished": 3729,
    "Ġinfrequent": 3824,
    "Ġmira": 8408,
    "Ġintertw": 18588,
    "Ġconsummation": 17428,
    "por": 2146,
    "shattered": 22453,
    "Ġcrevice": 22731,
    "Ġpapered": 20134,
    "Ġfeeding": 7972,
    "Ġkept": 3341,
    "examined": 17269,
    "prejudiced": 17300,
    "Ġtools": 11612,
    "goin": 23406,
    "Ġgrace": 5374,
    "deliber": 17429,
    "Ġunsettled": 14126,
    "Ġpossessing": 16578,
    "Ġdisconsol": 18558,
    "Ġinquirers": 24965,
    "Ġmemo": 18120,
    "Ġtracing": 18890,
    "Ġsafer": 22174,
    "Ġscrupulous": 20072,
    "Ġinestim": 15629,
    "Ġwarehouses": 20421,
    "late": 11501,
    "ten": 1557,
    "Ġalert": 18104,
    "bu": 5132,
    "Ġchart": 10947,
    "À": 129,
    "gaining": 20127,
    "Ġcolumbus": 26566,
    "declined": 25175,
    "Ġhaving": 1879,
    "Ġparagra": 15884,
    "Ġbeneficial": 23934,
    "Ġsought": 5010,
    "Ġliber": 5168,
    "hilar": 25084,
    "polar": 24584,
    "Ġimprecate": 20521,
    "dress": 17522,
    "Ġsystemat": 18448,
    "Ġunthinkingly": 26222,
    "corrid": 24484,
    "ambition": 13415,
    "lanterns": 17432,
    "backpropagation": 11990,
    "Ġirreproachable": 24918,
    "hy": 4741,
    "Ġcork": 12574,
    "Ġindication": 22955,
    "Ġfurnaces": 24009,
    "pips": 21022,
    "Ġyear": 3280,
    "'t": 3144,
    "Ġconvenient": 8346,
    "Ġconfronted": 23310,
    "hur": 6650,
    "onom": 9161,
    "bewil": 22504,
    "Ġgraces": 18226,
    "Ġhonors": 23603,
    "Ġantichronical": 26611,
    "ink": 756,
    "Ġsally": 15506,
    "Ġdazed": 15601,
    "Ġhails": 21954,
    "Ġdark": 2111,
    "Ġsynthe": 26008,
    "jerked": 25619,
    "ulties": 12909,
    "Ġdifferent": 1427,
    "Ġhoisted": 5960,
    "bons": 17489,
    "Ġrestored": 7067,
    "Ġeldest": 6572,
    "oura": 1063,
    "Ġstrengthen": 20703,
    "sal": 8761,
    "Ġvindictive": 20473,
    "gaffman": 26392,
    "ro": 301,
    "Ġspile": 22131,
    "Ġbliss": 13006,
    "Ġcommendation": 13614,
    "preserver": 20216,
    "Ġboom": 9313,
    "Ġverge": 23890,
    "Ġclin": 14203,
    "Ġhenceforth": 19645,
    "heat": 15501,
    "raise": 18014,
    "acknowledge": 18471,
    "Ġsoften": 23126,
    "arabian": 26448,
    "Ġnecks": 18189,
    "Ġnoisier": 4626,
    "machine": 958,
    "Ġlock": 5928,
    "ino": 15483,
    "Ġinfamous": 16369,
    "Ġvon": 14084,
    "Ġremark": 2142,
    "Ġtelesc": 12993,
    "Ġprogram": 12997,
    "ges": 2874,
    "Ġrosy": 18457,
    "Ġdevils": 7229,
    "notches": 22758,
    "Ġnomine": 26458,
    "Ġratio": 5066,
    "othing": 6995,
    "terdam": 18132,
    "Ġwaggish": 25435,
    "Ġchancing": 22252,
    "nes": 6960,
    "Ġgarnery": 17390,
    "Ġrow": 5245,
    "Ġspectrum": 4476,
    "Ġpaintings": 15058,
    "Ġshunned": 17296,
    "Ġfish": 2710,
    "Ġmich": 21309,
    "Ġprotruding": 16661,
    "Ġwhispers": 14703,
    "continue": 16863,
    "Ġcreditor": 24292,
    "Ġenc": 970,
    "Ġfaith": 5351,
    "ille": 9222,
    "Ġhospitable": 17060,
    "hither": 11495,
    "Ġloadstone": 25817,
    "Ġplunge": 13447,
    "Ġpersever": 10006,
    "Ġcheating": 16371,
    "âĢĿ]": 21816,
    "Ġfamil": 4319,
    "Ġbolts": 16945,
    "larger": 24205,
    "Ġmetropolitan": 17278,
    "Ġparametric": 2393,
    "Ġniece": 5712,
    "Ġcalhoun": 23045,
    "Ġovertook": 18430,
    "vari": 1518,
    "Ġroughly": 17041,
    "Ġdimens": 3149,
    "igns": 8449,
    "Ġsling": 21223,
    "Ġgrip": 11630,
    "Ġsimplest": 16338,
    "icles": 17975,
    ":âĢĶ": 4433,
    "ordingly": 18519,
    "Ġcouples": 16854,
    "Ġdanger": 3514,
    "ldog": 21921,
    "Ġvicissitudes": 12423,
    "Ġincantation": 26259,
    "Ġintimidated": 24802,
    "Ġtraining": 529,
    "Ġsmilingly": 22565,
    "Ġluckily": 16800,
    "000": 2555,
    "Ġnarrated": 14874,
    "alliance": 22198,
    "Ġsuggested": 8321,
    "strangers": 20339,
    "Ġsymbol": 7716,
    "ened": 1387,
    "Ġranging": 8480,
    "Ġfantastic": 10062,
    "oc": 2834,
    "sir": 5001,
    "Ġrecip": 16144,
    "Ġholder": 6725,
    "inu": 1115,
    "Ġvictory": 16656,
    "Ġfollows": 7672,
    "seeking": 17155,
    "Ġapplies": 11963,
    "Ġbewildered": 15217,
    "Ġgenerously": 22411,
    "Ġtipt": 21176,
    "Ġnodes": 1966,
    "Ġproduces": 2092,
    "iners": 4937,
    "izing": 1068,
    "expose": 23663,
    "fters": 20863,
    "Ġbetokened": 18798,
    "Ġmast": 2904,
    "Ġdemands": 19641,
    "Ġteasing": 11893,
    "Ġallusion": 7625,
    "atherley": 7219,
    "pract": 10122,
    "Ġhardware": 4905,
    "nay": 7136,
    "tanh": 5204,
    "Ġboots": 5943,
    "society": 9975,
    "Ġcounterpane": 11345,
    "are": 639,
    "Ġmadame": 13154,
    "hammer": 14491,
    "Ġskin": 5039,
    "ety": 3515,
    "Ġhoarsely": 26303,
    "Ġguilty": 7249,
    "ast": 473,
    "Ġunfit": 14790,
    "Ġpulled": 5660,
    "osity": 14188,
    "Ġsmiling": 5475,
    "Ġdevilish": 11230,
    "prior": 21035,
    "hide": 10705,
    "Ġprove": 5231,
    "Ġdangerously": 23940,
    "Ġsighs": 22712,
    "Ġinfirm": 19022,
    "Ġmood": 6277,
    "proof": 16428,
    "Ġgurg": 15678,
    "spermaceti": 12198,
    "Ġcanvas": 7783,
    "Ġpicked": 6342,
    "Ġscar": 3209,
    "Ġepisode": 26349,
    "Ġmin": 1026,
    "?âĢĻâĢĿ": 23644,
    "bulk": 19926,
    "Ġcities": 17829,
    "persons": 24177,
    "Ġgross": 11628,
    "Ġaltitude": 26204,
    "tent": 21067,
    "Ġprevents": 2552,
    "Ġtumultuous": 10618,
    "Ġrenewed": 9541,
    "Ġ78": 19616,
    "ights": 8476,
    "Ġforbade": 15218,
    "Ġelbows": 18634,
    "indebted": 26159,
    "Ġearning": 23944,
    "extent": 22770,
    "conv": 7212,
    "ogrand": 26263,
    "Ġho": 1933,
    "Ġairth": 23322,
    "cery": 20810,
    "causing": 25519,
    "_.)": 7277,
    "indifference": 15987,
    "seeing": 7079,
    "evenings": 19466,
    "Ġcover": 3555,
    "Ġimpaling": 22387,
    "Ġmosses": 20166,
    "Ġwow": 15533,
    "ued": 7560,
    "erman": 5108,
    "Ġable": 3079,
    "bordered": 17501,
    "yard": 5900,
    "Ġtomahawk": 7538,
    "Ġcigarette": 20658,
    "turner": 19544,
    "Ġcorroded": 18877,
    "Ġrover": 18454,
    "Ġsatisfying": 23699,
    "Ġdiscomp": 11870,
    "carte": 25401,
    "Ġenriched": 26501,
    "ials": 11710,
    "halloa": 17091,
    "mysterious": 26052,
    "restraint": 18979,
    "henry": 16628,
    "Ġscreaming": 13427,
    "Ġdelightful": 6321,
    "Ġsick": 4694,
    "caus": 11478,
    "Ġdesc": 775,
    "Ġcomparison": 7100,
    "Ġestimable": 23875,
    "culine": 19063,
    "Ġinspired": 2515,
    "Ġpages": 15613,
    "Ġferguson": 17472,
    "Ġ177": 13416,
    "Ġuninterrupted": 22050,
    "Ġmorbidness": 20631,
    "Ġconversation": 3325,
    "irted": 14075,
    "spades": 14336,
    "Ġgodlike": 23360,
    "Ġproportionate": 17044,
    "gems": 20886,
    "Ġlust": 9200,
    "report": 13403,
    "Ġanswered": 2851,
    "Ġtension": 13827,
    "Ġnegro": 6447,
    "Ġwherefore": 8526,
    "ď": 208,
    "Ġhal": 1363,
    "ample": 1365,
    "Ġsuspending": 19246,
    "Ġexploding": 2108,
    "Ġhyperborean": 26341,
    "Ġobtruded": 20724,
    "Ġreplete": 15703,
    "Ġbowels": 9433,
    "Ġcompose": 12910,
    "sin": 21051,
    "Ġfrogs": 23927,
    "Ġfacing": 10174,
    "Ġextort": 22744,
    "Ġbelonging": 8308,
    "Ġbeware": 8832,
    "Ġwhiteness": 5919,
    "oe": 7551,
    "Ġlinen": 12411,
    "elsewhere": 19870,
    "Ġcriminal": 7536,
    "Ġaltered": 7392,
    "tremble": 17144,
    "Ġeyeing": 6460,
    "bold": 17490,
    "lott": 6652,
    "Ġmountain": 3367,
    "Ġraise": 6167,
    "hearse": 17750,
    "Ġrepulses": 26071,
    "Ġvexation": 10589,
    "Ġtutored": 20131,
    "pher": 11514,
    "Ġpiling": 17911,
    "Ġkicked": 10584,
    "tap": 17678,
    "Ġcease": 7077,
    "Ġwho": 612,
    "dawson": 26129,
    "Ġidea": 2485,
    "Ġmerry": 5869,
    "covenant": 23563,
    "hotel": 20053,
    "hel": 4815,
    "iving": 1727,
    "Ġslaves": 23171,
    "Ġattentions": 5878,
    "Ġdispleased": 18556,
    "Ġpresent": 1644,
    "Ġinstantaneously": 23659,
    "Ġpainful": 6462,
    "Ġnimble": 21531,
    "urday": 13998,
    "Ġterrify": 19364,
    "suit": 18639,
    "health": 13836,
    "Ġsobs": 14134,
    "Ġskirt": 18730,
    "Ġindolent": 13010,
    "Ġinterlude": 16078,
    "Ġdistinguishing": 16499,
    "addition": 13388,
    "Ġmorphology": 3011,
    "deduction": 23670,
    "Ġfrighted": 24033,
    "Ġclimes": 12845,
    "conclude": 24071,
    "Ġcapricious": 20541,
    "lively": 12489,
    "Ġc": 277,
    "granting": 23417,
    "Ġsings": 15509,
    "Ġturbul": 23614,
    "Ġverify": 12092,
    "Ġfootmarks": 19339,
    "condem": 16348,
    "Ġundu": 15842,
    "Ġperturbation": 20444,
    "Ġrouted": 24908,
    "Ġ92": 24591,
    "Ġoverthrown": 18432,
    "struck": 7862,
    "Ġirons": 7695,
    "Ġunable": 4951,
    "Ġcreases": 22729,
    "Ġblocks": 6322,
    "oce": 10716,
    "Ġlangsdorff": 15280,
    "sterdam": 19091,
    "Ġcrossing": 7251,
    "xi": 17712,
    "ques": 2841,
    "Ġalthough": 4150,
    "significant": 25085,
    "onic": 7827,
    "Ġlbs": 11618,
    "Ġop": 2599,
    "Ġar": 479,
    "Ġregards": 16085,
    "Ġconsolidation": 5060,
    "collinses": 19925,
    "chanced": 18803,
    "Ġpots": 9431,
    "Ġpallidness": 25605,
    "Ġwanted": 4968,
    "considerable": 10551,
    "atus": 21263,
    "Ġaffecting": 2321,
    "asmuch": 10197,
    "Ġuseful": 3557,
    "Ġcontinued": 2925,
    "furthermore": 20007,
    "Ġtantalizing": 20417,
    "Ġner": 1648,
    "Ġdeserves": 13294,
    "Ġreturned": 2894,
    "hair": 9125,
    "Ġabject": 18392,
    "crossing": 19414,
    "by": 1155,
    "abash": 18110,
    "luckily": 19755,
    "indul": 22374,
    "rice": 13780,
    "Ġjobs": 24833,
    "Ġcrust": 21354,
    "Ġundesired": 12784,
    "resides": 23671,
    "rations": 10725,
    "Ġstepping": 9357,
    "retrie": 18926,
    "Ù": 154,
    "Ġirresolute": 24917,
    "Ġdorm": 4823,
    "Ġrobert": 10970,
    "Ġequality": 16363,
    "Ġmeddling": 21323,
    "Ġmillar": 13864,
    "ĵ": 246,
    "atherine": 2590,
    "causes": 20346,
    "Ġdoubloon": 6944,
    "Ġtempest": 8213,
    "fowl": 17551,
    "Ġundeceive": 25553,
    "Ġscound": 12837,
    "Ġforge": 8458,
    "Ġjoint": 12039,
    "Ġcringing": 25942,
    "Ġsince": 1795,
    "ustry": 18356,
    "li": 1187,
    "Ġavowal": 19418,
    "Ġperil": 5557,
    "Ġleast": 2064,
    "Ġaisle": 21204,
    "event": 8077,
    "bow": 5424,
    "Ġif": 697,
    "ither": 1548,
    "Ġhundreds": 4327,
    "orated": 12596,
    "Ġpull": 5152,
    "sec": 6153,
    "Ġshowers": 16607,
    "Ġfort": 2574,
    "Ġdisgraceful": 15022,
    "town": 7143,
    "force": 12959,
    "Ġnoiselessly": 22861,
    "Ġhim": 476,
    "Ġragged": 11850,
    "Ġessentials": 20006,
    "Ġcaterpillar": 5865,
    "Ġmerid": 13199,
    "Ġgrie": 3583,
    "Ġdeaf": 12726,
    "Ġendow": 23137,
    "Ġlunacy": 20031,
    "Ġpredicted": 2044,
    "Ġdiscrimin": 2541,
    "liking": 22927,
    "Ġinscribed": 24941,
    "Ġunfrequently": 20741,
    "Ġopportunity": 4787,
    "Ġconcise": 23326,
    "Ġattach": 14296,
    "points": 14397,
    "Ġspeaker": 19150,
    "Ġflamingo": 15104,
    "Ġtoler": 7588,
    "Ġqueens": 16705,
    "Ġbutton": 10270,
    "difference": 13711,
    "australian": 20564,
    "Ġinvari": 6529,
    "Ġerrone": 14433,
    "Ġrequest": 6051,
    "Ġfrederick": 15592,
    "Ġwick": 2005,
    "language": 5129,
    "Ġtunnel": 14933,
    "Ġmistress": 8615,
    "uments": 5552,
    "bye": 5950,
    "oved": 5215,
    "Ġweight": 657,
    "darcy": 5208,
    "Ġoutlined": 22324,
    "mention": 7213,
    "ufact": 10735,
    "aited": 12439,
    "rating": 7808,
    "banish": 20784,
    "Ġfishermen": 5971,
    "Ġamount": 8513,
    "operations": 19978,
    "Ġreluctant": 20528,
    "ienced": 5685,
    "Ġbinding": 20422,
    "Ġlearn": 362,
    "Ġappropri": 2227,
    "Ġakin": 15499,
    "Ġpeaking": 22693,
    "requent": 3649,
    "ividual": 5463,
    "Ġbreaks": 13187,
    "intentions": 22942,
    "Ġ104": 24412,
    "Ġfair": 2837,
    "umul": 1288,
    "justine": 7682,
    "Ġwondrously": 24069,
    "Ġass": 1505,
    "killer": 20479,
    "Ġtalked": 4421,
    "Ġlamps": 14794,
    "neighbours": 24882,
    "Ġcostly": 23586,
    "Ġgable": 15672,
    "iness": 1281,
    "Ġenraged": 10247,
    "spl": 9142,
    "grampus": 18618,
    "Ġcomparatively": 9493,
    "Ġexal": 10879,
    "izers": 18145,
    "cast": 2930,
    "vable": 10135,
    "Ġremo": 3785,
    "ues": 2079,
    "gon": 17554,
    "Ġinsensibility": 17111,
    "ĠĠĠĠĠĠĠĠĠĠĠĠĠĠĠĠĠĠĠĠĠĠĠĠĠĠĠĠĠĠĠĠĠĠ": 14616,
    "ump": 2283,
    "Ġfolly": 7941,
    "Ġjudged": 12088,
    "Ġwid": 4634,
    "omnipotent": 25965,
    "wards": 1276,
    "Ġhumbled": 16201,
    "Ġclasses": 4055,
    "Ġrenders": 13288,
    "Ġmain": 805,
    "Ġ84": 19712,
    "Ġmaimed": 21319,
    "Ġarea": 14189,
    "Ġadjusting": 3408,
    "Ġstaircase": 20099,
    "Ġconqueror": 25797,
    "assed": 6420,
    "crown": 13702,
    "estion": 18364,
    "Ġintegrated": 13534,
    "step": 2456,
    "Ġfancies": 10426,
    "omet": 3074,
    "Ġclasp": 9747,
    "Ġdiabolism": 25515,
    "tomorrow": 25915,
    "Ġexceptionable": 25504,
    "inities": 21188,
    "hinting": 17571,
    "Ġrocks": 6862,
    "rippa": 11343,
    "Ġpotent": 12068,
    "osc": 18388,
    "Ġdot": 4822,
    "spoutings": 25004,
    "Ġdesolated": 24809,
    "disappointment": 11427,
    "ols": 2410,
    "Ġpride": 3823,
    "Ġcomplet": 4423,
    "Ġob": 861,
    "Ġexpands": 25238,
    "Ġorb": 22095,
    "ct": 309,
    "Ġtops": 14588,
    "Ġwindlass": 7255,
    "wrath": 23759,
    "tranqu": 14710,
    "Ġruin": 6056,
    "Ġbehav": 3536,
    "Ġheartily": 6889,
    "animals": 24737,
    "Ġpeeled": 14321,
    "Ġoughts": 23904,
    "seals": 21822,
    "Ġfishers": 19357,
    "hoped": 20912,
    "cest": 12449,
    "nails": 17616,
    "Ġbutler": 18271,
    "Ġundergone": 18986,
    "Ġingenious": 12352,
    "Ġthank": 3792,
    "Ġdisent": 22527,
    "Ġblowing": 10487,
    "Ġhaze": 18197,
    "ulent": 21866,
    "Ġmarvell": 7247,
    "ĸ": 249,
    "Ġroughs": 19960,
    "imming": 9690,
    "Ġabst": 9269,
    "ploy": 2200,
    "Ġbr": 1072,
    "!)": 10072,
    "begged": 18523,
    "Ġprematurely": 24010,
    "Ġolder": 9330,
    "Ġungodly": 26515,
    "Ġinclusive": 24166,
    "befriend": 22498,
    "Ġbrown": 6299,
    "Ġstricken": 9779,
    "Ġruth": 14097,
    "atter": 651,
    "Ġraging": 14309,
    "azore": 23464,
    "Ġvapory": 17008,
    "bones": 8372,
    "Ġknotted": 17021,
    "Ġunrestrained": 25555,
    "reward": 15513,
    "Ġswearing": 16468,
    "Ġnonce": 23235,
    "Ġcamp": 9167,
    "atural": 933,
    "Ġbits": 11591,
    "Ġshrill": 12146,
    "abbering": 21800,
    "Ġmol": 12566,
    "Ġchace": 14181,
    "Ġsplendidly": 25328,
    "Ġ(_": 3736,
    "Ġtargets": 4204,
    "Ġimpulse": 10027,
    "Ġinner": 9673,
    "romised": 14115,
    "Ġwashes": 21865,
    "Ġvan": 1088,
    "bweb": 20793,
    "Ġadds": 1806,
    "Ġsobbed": 14136,
    "idated": 11664,
    "Ġaccuse": 14214,
    "laughing": 15183,
    "Ġswam": 6448,
    "Ġsauc": 15893,
    "Ġsweetly": 23922,
    "Ġseverest": 14093,
    "Ġtrials": 16791,
    "other": 1313,
    "Ġanalog": 12617,
    "od": 355,
    "Ġincredible": 9518,
    "urean": 18125,
    "Ġsphy": 18312,
    "Ġninety": 13605,
    "Ġsatan": 14394,
    "posterity": 25489,
    "shazzar": 15293,
    "histor": 13495,
    "angling": 14142,
    "Ġlancaster": 26342,
    "descend": 23088,
    "Ġbuffaloes": 25218,
    "Ġwhistled": 24624,
    "endeavouring": 15018,
    "Ġeuropean": 20049,
    "Ġrecept": 1526,
    "Ġdarting": 7756,
    "erred": 6376,
    "pin": 13770,
    "Ġlaunched": 14929,
    "ĠĠĠĠĠĠĠĠĠĠĠĠĠĠĠĠĠĠĠĠĠĠĠĠĠĠĠĠĠĠĠĠĠ": 12047,
    "Ġpropose": 9856,
    "loved": 14253,
    "Ġbreathing": 9448,
    "Ġobligations": 12097,
    "Ġromantic": 8031,
    "Ġfring": 11129,
    "Ġpope": 11604,
    "reply": 19725,
    "whip": 22241,
    "entions": 17977,
    "united": 14063,
    "Ġoverseeing": 22368,
    "Ġreleased": 2980,
    "Ġmildly": 9032,
    "redit": 3876,
    "Ġcorrid": 9827,
    "imental": 16536,
    "Ġapology": 8328,
    "Ġadhes": 22110,
    "<SOS>": 1,
    "Ġhearty": 9849,
    "arthy": 4824,
    "money": 8753,
    "oftener": 23969,
    "Ġsheets": 9725,
    "Ġworst": 7443,
    "countenance": 6924,
    "Ġpropont": 16354,
    "Ġdumplings": 15194,
    "Ġagonizing": 17241,
    "disguise": 26307,
    "dissemble": 23494,
    "Ġfiddle": 25445,
    "aping": 8194,
    "ctors": 21593,
    "Ġarsacidean": 20368,
    "akes": 2218,
    "Ġsounding": 8265,
    "Ġshapeless": 24524,
    "Ġsabbee": 17258,
    "Ġcommunicate": 10580,
    "Ġfathoms": 9086,
    "Ġforced": 4351,
    "Ġopal": 23627,
    "Ġdod": 6674,
    "Ġdeep": 810,
    "M": 49,
    "ton": 1729,
    "Ġprometheus": 15296,
    "acceler": 23600,
    "Ġextend": 18693,
    "Ġterti": 14540,
    "Ġtinker": 15135,
    "Ġparade": 18302,
    "Ġsneering": 24696,
    "Ġbordering": 17231,
    "Ġcorpora": 26582,
    "clouded": 20334,
    "flinging": 20870,
    "wheels": 14384,
    "hammered": 19006,
    "Ġstupidity": 15053,
    "chat": 21689,
    "Ġdecember": 15009,
    "Ġsuff": 1302,
    "Ġcircumnavigating": 25615,
    "Ġexpanse": 14295,
    "Ġgenerate": 1555,
    "fatigue": 20660,
    "Ġnapoleons": 25886,
    "Ġunprecedented": 15859,
    "Ġflowed": 10374,
    "Ġladder": 8601,
    "Ġpoints": 5248,
    "Ġtrif": 6270,
    "Ġpettic": 14844,
    "Ġenhance": 2872,
    "hes": 1396,
    "Ġcreating": 2998,
    "Ġav": 3581,
    "Ġbet": 1130,
    "murmured": 24455,
    "Ġchicha": 15941,
    "Ġacute": 16128,
    "oology": 21008,
    "Ġmapple": 11152,
    "Ġperhaps": 1909,
    "brated": 12031,
    "rium": 3132,
    "specific": 10500,
    "response": 25763,
    "hog": 8380,
    "choice": 21694,
    "Ġcopying": 17069,
    "ouse": 1191,
    "Ġpod": 15609,
    "Ġlongitude": 11013,
    "hind": 20896,
    "elder": 21575,
    "Į": 239,
    "Ġcontinuous": 1562,
    "errand": 22913,
    "_)âĢĶ": 20147,
    "Ġfathers": 16300,
    "Ġcurt": 18845,
    "Ġcurved": 18848,
    "accurately": 25862,
    "Ġmarbank": 23039,
    "Ġunwaning": 24830,
    "Ġtwins": 16125,
    "Ġimpatient": 5603,
    "Ġchanc": 18385,
    "acrity": 14263,
    "greatest": 10496,
    "Ġ112": 24437,
    "Ġvariations": 22668,
    "snap": 24849,
    "Ġcran": 12005,
    "maintained": 25023,
    "twenty": 6608,
    "Ġrephr": 21682,
    "whatever": 6695,
    "Ġsmall": 894,
    "Ġbrix": 12588,
    "Ġpreside": 18366,
    "hob": 20902,
    "impressions": 20701,
    "Ġwhale": 627,
    "Ġahab": 1215,
    "Ġhos": 4942,
    "holland": 24045,
    "Ġfamous": 5256,
    "watch": 6119,
    "Ġdepicted": 14281,
    "Ġfingertips": 24021,
    "shows": 22450,
    "Ġeditions": 19154,
    "Ġestate": 6317,
    "jud": 4484,
    "blunder": 24132,
    "Ġpassions": 7930,
    "construction": 19781,
    "Ġbountiful": 25945,
    "Ġgait": 13335,
    "Ġexploit": 19164,
    "ices": 2135,
    "Ġbond": 21387,
    "gered": 9279,
    "Ġuntidy": 23524,
    "Ġpratt": 23219,
    "fire": 6358,
    "Ġmean": 742,
    "Ġromans": 16761,
    "Ġpreferment": 19855,
    "enstein": 5800,
    "Ġwhaleman": 4656,
    "Ġreverend": 15263,
    "Ġproject": 5546,
    "Ġfollowing": 4064,
    "ĠĠĠĠĠĠĠĠĠĠ": 18578,
    "ches": 2145,
    "leaves": 12583,
    "Ġreserve": 9974,
    "mouse": 15396,
    "Ġremove": 7498,
    "Ġlined": 15655,
    "Ġfist": 21407,
    "Ġdecided": 5471,
    "Ġcolon": 18766,
    "Ġarri": 2548,
    "Ġproportions": 16471,
    "Ġflickering": 23019,
    "Ġfrank": 4420,
    "Ġtexture": 19162,
    "Ġclutch": 15056,
    "Ġsubsisting": 23438,
    "Ġcon": 348,
    "Ġcrab": 13147,
    "Ġe": 311,
    "cible": 20808,
    "Ġclumsy": 9582,
    "Ġgull": 15675,
    "Ġrespecting": 14486,
    "Ġdante": 21441,
    "Ġsho": 2245,
    "Ġprophesied": 26063,
    "tural": 21069,
    "Ġformidable": 8220,
    "Ġcomple": 2840,
    "Ġdeparted": 5563,
    "impud": 23763,
    "winter": 10742,
    "Ġwithhold": 18118,
    "Ġcosmopol": 16456,
    "cleanliness": 25872,
    "Ġautumnal": 19036,
    "deficient": 23120,
    "Ġadoption": 24951,
    "Ġdropped": 4473,
    "Ġswitching": 23060,
    "Ġpainting": 13144,
    "shore": 10308,
    "Ġseeth": 21957,
    "Ġbuttons": 12786,
    "Ġdetermination": 9822,
    "Ġscowl": 22289,
    "Ġburnwell": 13273,
    "Ġmagnanim": 14475,
    "feels": 22492,
    "material": 13133,
    "honour": 13471,
    "inspector": 13650,
    "passenger": 24169,
    "Ġdormouse": 4926,
    "shipping": 10310,
    "Ġair": 1837,
    "Ġattitude": 8907,
    "build": 12192,
    "Ġperu": 14225,
    "Ġpresentiment": 18989,
    "wandered": 20288,
    "Ġmistaking": 23721,
    "Ġmidnight": 5266,
    "copy": 5133,
    "Ġdivin": 13278,
    "Ġimbecile": 17395,
    "Ġtragedy": 10670,
    "Ġsettlement": 19839,
    "âĢĶ.âĢĿ": 22259,
    "theless": 4259,
    "bowsprit": 16855,
    "Ġexternal": 8365,
    "Ġscheme": 7065,
    "Ġimprisonment": 22391,
    "Ġcupidity": 24535,
    "Ġdistrusting": 25056,
    "Ġans": 1647,
    "Ġregard": 3066,
    "Ġastr": 15498,
    "landlord": 9843,
    "Ġwindow": 2999,
    "vate": 21112,
    "±": 114,
    "beginning": 13565,
    "solute": 16600,
    "Ġsteady": 4849,
    "Ġrationally": 18214,
    "Ġprosperity": 20260,
    "frequented": 25901,
    "uted": 7592,
    "Ġrelated": 3715,
    "Ġfootman": 8288,
    "Ġgarden": 3825,
    "Ġpad": 8125,
    "Ġbristol": 14383,
    "iron": 3518,
    "Ġchoked": 9267,
    "----": 4058,
    "Ġalley": 15741,
    "Ġsurrender": 16451,
    "Ġstrongest": 11137,
    "Ġforebodings": 17307,
    "Ġsuperflu": 14556,
    "Ġdisease": 14260,
    "Ġgen": 5298,
    "Ġinconsiderable": 21498,
    "Ġrelates": 12986,
    "Ġtwelfth": 22681,
    "Ġgardiners": 11159,
    "Ġinsertion": 26345,
    "Ġdegrad": 2584,
    "Ġlivers": 18462,
    "izes": 885,
    "jury": 15377,
    "_).âĢĶ": 8685,
    "socket": 22732,
    "expected": 5780,
    "Ġpist": 12620,
    "Ġrhyme": 21985,
    "Ġtrucks": 19515,
    "sheltered": 25586,
    "Ġhates": 21489,
    "Ġbridal": 14957,
    "ck": 436,
    "Ġreefed": 20305,
    "Ġregular": 948,
    "advice": 12162,
    "Ġinhabited": 12190,
    "creator": 26383,
    "footman": 17165,
    "confess": 12180,
    "Ġjer": 6267,
    "beam": 16046,
    "Ġduchess": 4800,
    "setting": 13290,
    "ppings": 18179,
    "Ġheld": 3585,
    "Ġfounded": 8560,
    "vous": 2252,
    "Ġrotterdam": 25476,
    "Ġfore": 2149,
    "Ġdistributes": 4195,
    "Ġrichness": 19313,
    "gratulation": 24349,
    "Ġlack": 17966,
    "Ġwhaler": 7519,
    "complained": 25840,
    "sery": 17663,
    "Ġinno": 1406,
    "indef": 17737,
    "Ġperfidious": 25667,
    "Ġquenched": 22421,
    "masterly": 24530,
    "Ġgate": 6824,
    "Ġvow": 10249,
    "cabinet": 25080,
    "Ġanonymous": 26179,
    "Ġcapabilities": 4377,
    "lording": 24054,
    "Ġwheeled": 14141,
    "dark": 5614,
    "edding": 4368,
    "Ġmemory": 2275,
    "Ġclues": 18422,
    "Ġrepine": 16415,
    "attempts": 17193,
    "Ġcontaining": 2232,
    "Ġbar": 3147,
    "Ġconcept": 669,
    "additional": 20467,
    "beer": 22494,
    "Ġindef": 9192,
    "lengthwise": 19953,
    "Ġnavies": 16902,
    "ipagos": 22364,
    "Ġmarred": 23034,
    "Ġcup": 5697,
    "Ġlistener": 16478,
    "excitement": 19672,
    "Ġgums": 21614,
    "please": 8177,
    "canst": 22966,
    "structure": 2408,
    "Ġknife": 7308,
    "incom": 21184,
    "mir": 20965,
    "Ġguar": 23047,
    "Ġsanction": 20029,
    "Ġcrowd": 6337,
    "Ġunwell": 22021,
    "viv": 17700,
    "Ġslammed": 20451,
    "Ġpause": 5707,
    "Ġexerting": 21836,
    "ary": 986,
    "Ġapproach": 857,
    "Ġscot": 5643,
    "soled": 14334,
    "Ġselects": 4385,
    "Ġgraphs": 25464,
    "Ġunmannerly": 26519,
    "erately": 21276,
    "Ġlacepede": 20498,
    "Ġthoroughfares": 26096,
    "bourgh": 19105,
    "recollection": 25349,
    "Ġbooks": 4677,
    "Ġincalculable": 17463,
    "cc": 469,
    "Ġcomprised": 14273,
    "Ġdiabolical": 20345,
    "Ġbaff": 10801,
    "Ġencl": 16172,
    "Ġcloud": 3911,
    "Ġorgan": 2500,
    "slept": 17172,
    "Ġconvention": 25547,
    "gs": 7337,
    "Ġissue": 2309,
    "nobody": 16141,
    "Ġreject": 7385,
    "Ġrespons": 2684,
    "Ġcrackling": 24961,
    "lier": 20951,
    "|": 96,
    "Ġrobins": 16236,
    "Ġphaeton": 17467,
    "Ġflesh": 5969,
    "Ġquiver": 16008,
    "Ġtooth": 9195,
    "Ġspence": 22130,
    "Ġpuffing": 12259,
    "quarters": 24949,
    "Ġardently": 9501,
    "Ġglare": 13022,
    "ringle": 21043,
    "Ġinsensible": 12329,
    "Ġshoot": 11163,
    "backward": 2683,
    "Ġbranches": 6776,
    "waiting": 12225,
    "Ġausten": 5881,
    "Ġcrucifix": 26080,
    "arrang": 14654,
    "Ġmcc": 21308,
    "masculine": 24387,
    "Ġinstigated": 18701,
    "Ġimpotently": 22394,
    "popular": 26141,
    "Ġprofess": 3699,
    "patched": 17645,
    "Ġca": 21342,
    "Ġonce": 1489,
    "idity": 8835,
    "Ġdomes": 23677,
    "crooked": 25747,
    "Ġexh": 5232,
    "inch": 10757,
    "Ġhunter": 5401,
    "rem": 1524,
    "Ġperfect": 2551,
    "naught": 20996,
    "Ġgordon": 26469,
    "Ġcruellest": 19661,
    "against": 5871,
    "glory": 23855,
    "Ġarrang": 2468,
    "ardy": 22160,
    "doubtful": 24790,
    "proachable": 23401,
    "Ġslaugh": 18940,
    "blending": 24131,
    "presbyter": 20621,
    "Ġgrampus": 21997,
    "street": 6495,
    "Ġrav": 14308,
    "ilations": 21725,
    "Ġbang": 17856,
    "=": 33,
    "rennial": 22345,
    "Ġglitter": 25126,
    "Ġvortex": 26210,
    "Ġtouched": 6001,
    "anesc": 21363,
    "stra": 4045,
    "Ġdeactivates": 20706,
    "Ġpleas": 1904,
    "Ġham": 3416,
    "lets": 7836,
    "Ġcondensed": 24056,
    "Ġagony": 5388,
    "Ġfrighten": 13283,
    "so": 891,
    "entering": 17979,
    "Ġtradesmen": 17106,
    "bulkington": 19927,
    "ench": 21282,
    "thro": 12766,
    "umbent": 12094,
    "shoulder": 16586,
    "gage": 13726,
    "ubines": 22962,
    "Ġaffords": 16736,
    "Ġallies": 18235,
    "Ġremoval": 12122,
    "endent": 15923,
    "Ġabrid": 22276,
    "Ġencourages": 2061,
    "Ġuplifted": 11650,
    "angular": 11726,
    "storm": 9685,
    "arned": 21821,
    "ctuous": 9208,
    "Ġparac": 12800,
    "Ġconsequently": 8060,
    "Ġbales": 21392,
    "Ġrecommence": 16814,
    "Ġentertaining": 16928,
    "Ġcircumspect": 15088,
    "wanted": 10745,
    "raised": 15684,
    "Ġempt": 5051,
    "Ġmetropol": 11147,
    "Ġcompar": 4772,
    "vanity": 24977,
    "Ġacross": 1330,
    "Ġcharacteristic": 12052,
    "Ġleave": 2457,
    "Ġschoolmaster": 16864,
    "manifested": 20529,
    "Ġscrew": 8871,
    "yl": 7818,
    "exertion": 16021,
    "Ġthousand": 2782,
    "dy": 4076,
    "ĠĠĠĠĠĠĠĠĠĠĠĠĠ": 22567,
    "vine": 10736,
    "Ġclutched": 13522,
    "Ġaccompaniments": 24482,
    "suddenly": 6493,
    "compl": 6872,
    "Ġsemblance": 20736,
    "Ġphilosophers": 10554,
    "Ġevinced": 7101,
    "Ġmiscellaneous": 17465,
    "rucastle": 22186,
    "Ġtears": 4230,
    "wise": 2569,
    "Ġtermination": 16464,
    "aggoo": 5130,
    "Ġeight": 3901,
    "Ġstacks": 18080,
    "Ġgulp": 20032,
    "axed": 8892,
    "Ġsecretary": 19445,
    "Ġurged": 6781,
    "Ġchaldee": 26236,
    "Ġslight": 3118,
    "alongside": 19792,
    "benefit": 24643,
    "tled": 3452,
    "Ġbelie": 14410,
    "Ġblast": 7444,
    "Ġextreme": 2512,
    "Ġproceeding": 9909,
    "Ġmand": 21307,
    "Ġshuddering": 9054,
    "Ġinterest": 2248,
    "lasting": 8011,
    "Ġelev": 5536,
    "Ġsurvived": 14937,
    "dling": 15343,
    "Ġcracks": 12024,
    "garn": 20872,
    "aud": 8523,
    "Ġcirc": 1986,
    "Ġtrampling": 25493,
    "bergs": 18683,
    "Ġwoodlands": 23522,
    "Ġferocity": 16868,
    "Ġchancery": 20718,
    "Ġbump": 9662,
    "Ġjapan": 7639,
    "Ġmentioning": 9902,
    "ernity": 18616,
    "Ġtook": 1855,
    "Ġtempted": 9059,
    "Ġjoosy": 23633,
    "Ġfeigned": 22212,
    "Ġanomaly": 25637,
    "Ġglobules": 26590,
    "idate": 21771,
    "Ġthickest": 16657,
    "rict": 8093,
    "Ġmile": 7151,
    "Ġreusable": 13561,
    "Ġseconds": 16392,
    "liked": 10511,
    "achus": 18280,
    "seven": 8465,
    "Ġeyel": 17097,
    "mansion": 20985,
    "particulars": 11317,
    "Ġfur": 990,
    "doubt": 6782,
    "Ġstriding": 16098,
    "scra": 13027,
    "Ġsending": 8779,
    "Ġunmethodically": 22074,
    "whalebone": 19120,
    "Ġhunted": 7452,
    "Ġalliance": 18236,
    "Ġtwitched": 20447,
    "Ġdup": 21430,
    "Ġguineas": 16273,
    "Ġvengeance": 5885,
    "Ġparent": 14647,
    "Ġpill": 7846,
    "Ġvoyagings": 19238,
    "Ġlim": 2376,
    "Ġyounger": 5253,
    "Ġexperiment": 11927,
    "Ġchalk": 15938,
    "urried": 21707,
    "Ġsurv": 6081,
    "Ġsir": 1569,
    "hid": 13737,
    "Ġcommunication": 1869,
    "Ġcatastrophic": 3538,
    "Ġduration": 20356,
    "Ġrect": 18028,
    "Ġchallenge": 25472,
    "Ġlabyrinth": 13683,
    "Ġsavag": 19377,
    "Ġcheetah": 14505,
    "mate": 5359,
    "sat": 4811,
    "Ġoutstretched": 14198,
    "icult": 3336,
    "ences": 1262,
    "Ġpolice": 4676,
    "bony": 15323,
    "Ġrefrain": 12955,
    "Ġparacels": 13671,
    "Ġowns": 22828,
    "Ġbeaten": 10531,
    "Ġcave": 10787,
    "Ġwearily": 18180,
    "Ġrequired": 7226,
    "entle": 1740,
    "Ġwhatever": 3468,
    "Ġunconquerable": 22067,
    "gaz": 20880,
    "icest": 21567,
    "bering": 18682,
    "Ġliberty": 7761,
    "Ġxxxi": 24969,
    "Ġcred": 8785,
    "Ġbul": 3288,
    "Ġsprain": 18306,
    "eman": 5636,
    "umer": 9261,
    "Ġbored": 16110,
    "Ġgathered": 8444,
    "kov": 17588,
    "named": 9900,
    "become": 14249,
    "eds": 6530,
    "forgive": 18719,
    "Ġmended": 21316,
    "Ġrichest": 26213,
    "Ġcontroverted": 23254,
    "forbearance": 22786,
    "Ġpossesses": 19355,
    "friendly": 13289,
    "omit": 13977,
    "Ġquee": 1980,
    "gged": 3777,
    "Ġbolivia": 24668,
    "ience": 828,
    "Ġacquiring": 2766,
    "Ġelizabeth": 1126,
    "hereabouts": 23608,
    "Ġfundamentals": 14637,
    "Ġsuggestive": 11299,
    "Ġdisconcerted": 18563,
    "Ġbarmaid": 19337,
    "Ġwhiskers": 10495,
    "il": 329,
    "Ġoppressive": 20458,
    "harpooneer": 8692,
    "Ġthoroughfare": 16946,
    "Ġretrieval": 10677,
    "Ġsus": 18281,
    "Ġsilken": 16383,
    "Ġordered": 5833,
    "Ġbench": 7237,
    "lass": 5993,
    "Ġslender": 11944,
    "Ġidleness": 11145,
    "oning": 7571,
    "Ġmincer": 14367,
    "Ġclinched": 17397,
    "Ġmax": 2006,
    "Ġzeal": 9101,
    "Ġclutches": 20021,
    "therefore": 5954,
    "Ġlxi": 21564,
    "icism": 13959,
    "Ġfollow": 1394,
    "aret": 7416,
    "Ġsuffering": 8949,
    "Ġclassification": 1099,
    "Ġpatter": 826,
    "asable": 21544,
    "Ġcomplaints": 12269,
    "Ġrotation": 25475,
    "ravity": 21638,
    "Ġbreeze": 5681,
    "Ġ1820": 25718,
    "Ġimprovements": 14506,
    "mathematics": 26305,
    "Ġundet": 16703,
    "tea": 18740,
    "Ġcompression": 18148,
    "unknown": 10892,
    "Ġga": 4447,
    "Ġthreading": 23405,
    "Ġvessel": 3799,
    "naturalists": 23558,
    "Ġpurse": 12015,
    "finished": 10557,
    "Ġstrung": 22621,
    "good": 2903,
    "Ġillustrative": 25069,
    "finds": 19929,
    "ict": 589,
    "iding": 3846,
    "bpp": 20774,
    "Ġwithstand": 10228,
    "looked": 6083,
    "zers": 21149,
    "churning": 21700,
    "tumultuously": 25614,
    "Ġwoollen": 12108,
    "Ġfaithful": 9506,
    "Ġgentlemanly": 19318,
    "Ġgenerative": 5644,
    "embow": 21935,
    "Ġard": 5164,
    "Ġtarshish": 12033,
    "Ġcontent": 5034,
    "weave": 22688,
    "Ġfields": 2140,
    "Ġdrifting": 19281,
    "Ġgeese": 7693,
    "Ġpreventing": 883,
    "bestow": 16931,
    "salis": 25150,
    "Ġcable": 11583,
    "Ġket": 18343,
    "Ġvessels": 6756,
    "Ġ88": 19714,
    "uring": 815,
    "Ġmurderers": 16813,
    "Ġmr": 659,
    "Ġexclaiming": 13645,
    "emed": 3375,
    "Ġseething": 18202,
    "leave": 7837,
    "Ġarcher": 22183,
    "orney": 17875,
    "Ġgrim": 7438,
    "hom": 12478,
    "Ġstrangers": 8314,
    "Ġdefendants": 15144,
    "Ġcrippled": 25279,
    "sorting": 17006,
    "lantern": 17431,
    "spersed": 22742,
    "Ġwiser": 14734,
    "eluded": 21578,
    "Ġcocoanuts": 26364,
    "ilar": 10218,
    "Ġbounded": 16629,
    "Ġpawnbroker": 13662,
    "Ġaccosted": 13676,
    "Ġcentrally": 23835,
    "obst": 11936,
    "worse": 14693,
    "Ġepicures": 25880,
    "orte": 14187,
    "Ġwitnessed": 14847,
    "Ġskylarking": 19490,
    "king": 3059,
    "breathing": 25336,
    "Ġcausal": 3406,
    "Ġbeneath": 3234,
    "Ġcaresses": 26060,
    "Ġthee": 2619,
    "Ġendeav": 2955,
    "mbl": 5946,
    "Ġallowed": 4059,
    "alike": 17945,
    "Ġsubterr": 10351,
    "dimly": 15350,
    "india": 22375,
    "confirm": 16809,
    "Ġspies": 22132,
    "robe": 15647,
    "Ġapologized": 25199,
    "Ġmourning": 13482,
    "Ġtwain": 16124,
    "Ġdolphin": 17315,
    "until": 6597,
    "allowance": 16826,
    "Ġinvestigated": 25387,
    "Ġsiamese": 20486,
    "Ġgreenhorn": 23771,
    "Ġentitled": 8540,
    "poise": 6172,
    "Ġspaces": 3110,
    "woof": 21142,
    "application": 12367,
    "elly": 17982,
    "biting": 20783,
    "Ġscenes": 5730,
    "magnifying": 25393,
    "Ġbrook": 13052,
    "Ġshan": 9252,
    "eted": 7591,
    "Ġloitered": 26527,
    "supportable": 12374,
    "Ġespecial": 26412,
    "Ġattendant": 11287,
    "Ġstirred": 12222,
    "Ġsincer": 13071,
    "Ġspringing": 10521,
    "apering": 8041,
    "Ġcandelab": 23852,
    "Ġsubsiding": 23437,
    "transp": 24512,
    "urons": 3130,
    "Ġdep": 734,
    "Ĳ": 243,
    "meal": 22708,
    "Ġlawy": 9457,
    "Ġdivert": 23595,
    "Ġmuslin": 19386,
    "Ġsiberia": 26162,
    "globe": 25145,
    "second": 6544,
    "leg": 2814,
    "Ġweig": 7618,
    "Ġwatching": 4856,
    "agation": 1263,
    "persuasion": 20047,
    "É": 138,
    "Ġcommodore": 12399,
    "Ġdisreputable": 22538,
    "Ġlub": 15654,
    "Ġfidelity": 15245,
    "reflect": 19867,
    "Ġmassa": 19457,
    "Ġsequential": 2130,
    "Ġlaughter": 9030,
    "Ġcrime": 4618,
    "buttoned": 13636,
    "Ġquote": 18467,
    "Ġfuture": 1053,
    "hence": 16627,
    "Ġscrews": 25178,
    "reng": 4002,
    "original": 9088,
    "educ": 10830,
    "gro": 10097,
    "Ġinsepar": 17936,
    "Ġtist": 21165,
    "Ġrattling": 11397,
    "Ġdeposition": 18603,
    "Ġwound": 4530,
    "Ġlibraries": 20617,
    "dancing": 12459,
    "mat": 2198,
    "tol": 17674,
    "Ġpron": 6451,
    "veral": 2350,
    "Ġchag": 15936,
    "Ġrue": 11871,
    "ad": 337,
    "Ġsor": 4145,
    "younger": 11314,
    "Ġstash": 18073,
    "spect": 3229,
    "elson": 16375,
    "ire": 498,
    "Ġprivately": 19526,
    "arity": 1301,
    "Ġnobody": 6159,
    "jah": 17583,
    "Ġwarmed": 12028,
    "supp": 4162,
    "Ġchemical": 10412,
    "after": 2899,
    "Ġrobinson": 17466,
    "rive": 9710,
    "Ġfond": 4756,
    "affectionate": 24922,
    "Ġheartless": 13077,
    "Ġunwe": 15843,
    "discovery": 12021,
    "ļ": 253,
    "himself": 3971,
    "Ġalas": 5922,
    "Ġpromoting": 3160,
    "Ġannoyance": 20664,
    "dense": 18716,
    "imly": 12692,
    "Ġhastily": 5763,
    "lost": 8891,
    "Ġfavourable": 7959,
    "Ġbalmy": 22907,
    "Ġconsider": 2563,
    "hauteur": 26393,
    "Ġstowing": 18077,
    "dman": 10091,
    "Ġresid": 22542,
    "istic": 954,
    "Ġbunger": 9999,
    "Ġjail": 22298,
    "Ġcrowded": 8012,
    "symp": 14610,
    "captain": 3953,
    "calmly": 20142,
    "bearers": 18527,
    "companies": 24895,
    "onsense": 6431,
    "war": 6802,
    "egypt": 15353,
    "roof": 17956,
    "Ġaugmented": 15109,
    "Ġcheers": 16370,
    "Ġteacher": 22902,
    "Ġfris": 23258,
    "appetite": 22848,
    "repeat": 25155,
    "Ġcanopy": 18321,
    "Ġsketch": 16170,
    "Ġsig": 868,
    "Ġlaborious": 13108,
    "believed": 9936,
    "Ġenric": 21938,
    "Ġrecalled": 8539,
    "Ġbethinking": 25280,
    "ousness": 10277,
    "erns": 8782,
    "icting": 12856,
    "invari": 21187,
    "Ġexhib": 6350,
    "sell": 13784,
    "cannibal": 15228,
    "Ġshun": 11713,
    "Ġincurable": 22557,
    "Ġsentiments": 7961,
    "precip": 14667,
    "order": 1959,
    "Ġblotches": 25315,
    "Ġsails": 5257,
    "Ġscramble": 24579,
    "ferent": 4194,
    "Ġlothario": 26186,
    "acific": 4960,
    "Ġtypewritten": 16426,
    "Ġadam": 2125,
    "Ġwreaths": 25938,
    "Ġjonah": 3474,
    "Ġprovid": 1007,
    "Ġcompletion": 12152,
    "Ġblanched": 26284,
    "separated": 20162,
    "Ġploughed": 22611,
    "Ġempty": 5354,
    "Ġthrowing": 6336,
    "cask": 12451,
    "otted": 14027,
    "imately": 12693,
    "Ġphysical": 7521,
    "Ġliver": 14230,
    "Ġxavier": 2854,
    "mel": 9130,
    "Ġplot": 14284,
    "Ġspilled": 10926,
    "Ġexplanation": 6693,
    "forth": 9324,
    "Ġfreemason": 23211,
    "opement": 10314,
    "Ġsuperstition": 15057,
    "Ġspecies": 5112,
    "Ġveins": 8935,
    "congratulations": 20282,
    "Ġmany": 1104,
    "Ġdespairing": 14777,
    "right": 2768,
    "Ġhumped": 19772,
    "Ġboston": 22641,
    "Ġcoincidences": 26365,
    "Ġbursting": 8659,
    "colonel": 8285,
    "bud": 10686,
    "Ġhoist": 11981,
    "mare": 17601,
    "rowed": 22859,
    "bub": 15320,
    "illings": 14145,
    "kept": 11721,
    "truck": 15445,
    "mou": 10710,
    "Ġbeginning": 4242,
    "Ġgrapple": 25812,
    "Ġdeliberate": 15025,
    "Ġregimentals": 19860,
    "women": 15460,
    "walk": 5523,
    "oping": 5559,
    "announcement": 24563,
    "Ġheadlands": 22900,
    "Ġdisown": 22528,
    "Ġgomorrah": 21618,
    "which": 1709,
    "black": 6768,
    "saving": 21062,
    "happ": 3103,
    "Ġnour": 10832,
    "Ġcoco": 11003,
    "Ġimpossibility": 20649,
    "Ġsmote": 18576,
    "ancho": 4938,
    "emorial": 10246,
    "mess": 13756,
    "Ġix": 12673,
    "Ġchilly": 25563,
    "Ġfidel": 12601,
    "discovered": 8325,
    "quer": 11683,
    "Ġflurry": 18862,
    "Ġspared": 7893,
    "queg": 1770,
    "Ġlantern": 7117,
    "Ġlinked": 15081,
    "Ġsi": 21215,
    "Ġshattered": 7884,
    "ally": 531,
    "Ġconjectures": 16927,
    "Ġspurned": 12802,
    "Ġbucket": 8792,
    "interrupted": 11419,
    "asily": 13949,
    "Ġdivide": 12115,
    "abhorred": 17339,
    "somerset": 26324,
    "scho": 8763,
    "Ġcarav": 18902,
    "liv": 9610,
    "Ġwhirled": 14963,
    "Ġknitted": 19592,
    "besides": 8699,
    "Ġcongeal": 25981,
    "thoroughly": 26510,
    "Ġusages": 15920,
    "Ġtearless": 24785,
    "Ġmurdering": 14814,
    "Ġjumping": 13346,
    "Ġgained": 4537,
    "Ġresponsiveness": 2901,
    "opius": 18509,
    "owners": 16092,
    "Ġlizzy": 3543,
    "Ġireland": 17338,
    "Ġlunging": 24992,
    "Ġmomentary": 11037,
    "Ġafric": 8909,
    "Ġthrill": 24541,
    "desponding": 26343,
    "Ġuninter": 18247,
    "ulance": 15772,
    "ines": 682,
    "Ġrepulsive": 14532,
    "Ġmartyr": 26362,
    "bergen": 14330,
    "Ġsubproblems": 12963,
    "Ġjurors": 17347,
    "ibles": 18786,
    "phia": 22750,
    "Ġsuit": 5725,
    "Ġunclad": 22058,
    "oise": 15408,
    "etieth": 21587,
    "Ġfrancis": 26064,
    "fra": 8375,
    "Ġflattened": 26048,
    "Ġfade": 21410,
    "Ġdock": 15935,
    "Ġple": 1468,
    "ates": 521,
    "dissatisf": 26130,
    "Ġstrait": 23753,
    "girl": 12322,
    "Ġpatron": 7466,
    "Ġwebster": 20164,
    "Ġdeal": 3608,
    "veil": 18048,
    "lingly": 9776,
    "inople": 13832,
    "Ġfifty": 4625,
    "assment": 9742,
    "Ġinvade": 19144,
    "Ġsoda": 25535,
    "Ġspectacle": 10499,
    "genteel": 19952,
    "Ġcatastrop": 3342,
    "do": 1995,
    "Ġdisconsolate": 20721,
    "Ġsubdued": 11035,
    "Ġguardians": 14946,
    "measureless": 20238,
    "Ġheaviest": 23328,
    "Ġkl": 2735,
    "be": 672,
    "Ġintensified": 17020,
    "Ġdynamically": 4427,
    "gast": 20873,
    "ai": 2522,
    "Ġpaused": 5416,
    "nne": 20991,
    "Ġunnearable": 26518,
    "âĢĶ.": 11759,
    "Ġstoven": 23177,
    "Ġmont": 8561,
    "erde": 21271,
    "crippled": 26386,
    "Ġluxurious": 17314,
    "Ġconduct": 3733,
    "Ġforgo": 21777,
    "isticated": 1491,
    "Ġannoyed": 17202,
    "venison": 22630,
    "Ġfitness": 24004,
    "Ġreclining": 26034,
    "deacon": 22151,
    "Ġprivilege": 11421,
    "express": 4896,
    "Ġrefused": 6716,
    "housekeeper": 24104,
    "atiously": 15526,
    "Ġhorizon": 6634,
    "Ġholy": 6592,
    "Ġreceipt": 20358,
    "Ġhawaiian": 25367,
    "Ġsoul": 2725,
    "Ġchast": 18381,
    "Ġislets": 21805,
    "Ġirre": 7467,
    "Ġ-": 1945,
    "pleasures": 24050,
    "Ġbowls": 23773,
    "sue": 2076,
    "Ġrep": 1938,
    "Ġjeopardized": 20233,
    "wear": 22686,
    "Ġstaff": 14010,
    "sample": 12511,
    "roll": 9199,
    "exper": 8882,
    "Ġpump": 12626,
    "Ġce": 3031,
    "itating": 9653,
    "Ġliterature": 17151,
    "Ġtacit": 21177,
    "ascended": 24705,
    "elopement": 23150,
    "ju": 13744,
    "unsupervised": 10891,
    "Ġembarrassed": 11386,
    "Ġchance": 3313,
    "Ġbundle": 13430,
    "leads": 21373,
    "Ġepid": 18007,
    "Ġabundance": 17158,
    "Ġhoe": 23354,
    "Ġrepositories": 23367,
    "Ġindiscreet": 22959,
    "isance": 17849,
    "osa": 22264,
    "quiet": 6155,
    "Ġfloat": 12036,
    "Ġwindings": 18910,
    "Ġtowns": 11175,
    "Ġessential": 7522,
    "Ġexceed": 1344,
    "Ġpoland": 23619,
    "Ġrelics": 16200,
    "Ġwent": 1539,
    "Ġwhereby": 11841,
    "Ġbaling": 17861,
    "shot": 2095,
    "oblig": 16294,
    "wag": 21126,
    "oses": 3945,
    "Ġplayed": 9419,
    "orum": 12595,
    "Ġlimp": 19182,
    "government": 25407,
    "Ġgodfre": 14531,
    "driven": 19774,
    "Ġinsincere": 26601,
    "Ġsurrounding": 12167,
    "Ġtandem": 26413,
    "Ġnightmare": 18921,
    "Ġrushes": 20511,
    "Ġseamen": 5063,
    "hospit": 25904,
    "view": 5896,
    "Ġpole": 6433,
    "fo": 5279,
    "Ġspeaking": 4027,
    "Ġannotations": 25955,
    "Ġunusual": 6554,
    "Ġapparatus": 24909,
    "Ġhudson": 15195,
    "Ġ122": 24467,
    "tahit": 17694,
    "](": 11468,
    "Ġpatent": 11978,
    "Ġwitness": 4623,
    "whe": 1073,
    "Ġpalp": 11252,
    "Ġcoils": 9306,
    "Ġscenery": 11458,
    "Ġstripped": 10467,
    "Ġasking": 5651,
    "Ġcontextual": 3742,
    "Ġmemb": 14032,
    "Ġnought": 21525,
    "Ġleathern": 15052,
    "th": 407,
    "Ġpiping": 23233,
    "Ġenlightened": 12751,
    "orified": 21405,
    "Ġcrying": 10788,
    "dying": 15344,
    "lean": 21368,
    "Ġalgorith": 561,
    "Ġdizzy": 21435,
    "Ġjackets": 19605,
    "Ġpreviously": 3919,
    "Ġfear": 2276,
    "Ġsuddenly": 2643,
    "Ġsummons": 13236,
    "itering": 17820,
    "Ġtrap": 7671,
    "diminished": 20841,
    "Ġemotions": 8972,
    "gi": 17553,
    "gration": 9124,
    "patter": 4290,
    "Ġahead": 6664,
    "kicked": 20945,
    "Ġtyp": 1127,
    "airs": 2220,
    "Ġmeditate": 16709,
    "Ġgazette": 19504,
    "w": 91,
    "Ġaccumulating": 2722,
    "sol": 1790,
    "Ġsometimes": 2165,
    "Ġunden": 22017,
    "main": 8088,
    "mystical": 25318,
    "Ġgeorgiana": 8629,
    "Ġunion": 6838,
    "depart": 12270,
    "miniature": 16767,
    "foundation": 16716,
    "Ġdisposal": 19379,
    "doub": 6224,
    "._": 3217,
    "Ġelixir": 26557,
    "Ġminutely": 14562,
    "Ġreliable": 18777,
    "entieth": 17981,
    "autumn": 23344,
    "Ġarising": 10935,
    "Ġnailing": 21530,
    "compassion": 12372,
    "Ġlogits": 3445,
    "Ġimpute": 18332,
    "Ġlonged": 6436,
    "train": 2034,
    "Ġonly": 788,
    "Ġweights": 899,
    "wol": 21125,
    "Ġfreer": 23209,
    "Ġtypes": 8939,
    "Ġaddison": 14235,
    "magnitude": 17251,
    "Ġtolland": 24991,
    "anges": 1676,
    "abetical": 15748,
    "ready": 2356,
    "gement": 13731,
    "philosophy": 13584,
    "Ġanticipatingly": 26103,
    "Ġerection": 24005,
    "pleasant": 5875,
    "ns": 751,
    "Ġhug": 6979,
    "Ġminded": 23231,
    "Ġtrib": 13822,
    "middle": 11312,
    "leading": 15567,
    "Ġindulged": 13421,
    "painful": 13505,
    "magistrate": 19865,
    "amount": 10886,
    "Ġhar": 5815,
    "stop": 11638,
    "reduced": 15810,
    "Ġimp": 575,
    "secur": 18129,
    "feeling": 6618,
    "Ġ150": 22830,
    "Ġlament": 7857,
    "Ġadequate": 20311,
    "recollect": 17226,
    "Ġdemanding": 16807,
    "Ġgoring": 21607,
    "Ġhover": 15625,
    "brother": 7092,
    "gely": 10702,
    "nants": 17615,
    "canallers": 22969,
    "Ġgarn": 13966,
    "urance": 10859,
    "harpoon": 9494,
    "ĠĠĠĠĠĠĠĠĠĠĠĠĠĠĠĠĠĠĠĠĠĠĠĠĠĠĠĠĠĠĠĠĠĠĠĠĠĠĠĠĠĠĠĠ": 12158,
    "Ġbids": 24646,
    "landed": 18957,
    "tps": 11537,
    "Ġcaved": 21356,
    "Ġwaste": 9237,
    "Ġoutputs": 2889,
    "ments": 1399,
    "hello": 13368,
    "Ġyard": 5921,
    "Ġjurymen": 16849,
    "Ġsound": 2242,
    "anting": 6412,
    "Ġmournfully": 20120,
    "Ġgirdled": 19161,
    "southern": 20412,
    "reading": 12084,
    "Ġdisquiet": 18553,
    "Ġwonderful": 4565,
    "Ġagon": 10323,
    "Ġdeepest": 8214,
    "Ġprompt": 3188,
    "Ġasi": 12738,
    "Ġdong": 17889,
    "Ġproductions": 22949,
    "Ġclutching": 24954,
    "arpening": 21446,
    "unfearing": 21896,
    "Ġmaps": 2966,
    "Ġvowed": 14087,
    "gorith": 552,
    "hogs": 20085,
    "stains": 11640,
    "Ġshoving": 23491,
    "Ġscrut": 15950,
    "Ġevian": 24294,
    "Ġtelling": 5747,
    "Ġscan": 22283,
    "Ġclaimed": 14204,
    "Ġdict": 9178,
    "Ġplace": 1655,
    "Ġread": 1446,
    "Ġendured": 6073,
    "chron": 21697,
    "weaving": 18667,
    "Ò": 147,
    "Ġarose": 7359,
    "Ġwarden": 17227,
    "Ġsable": 15504,
    "number": 10117,
    "Ġportraits": 20145,
    "coll": 23782,
    "Ġgrievous": 13265,
    "ibank": 6879,
    "Ġsouthampton": 24309,
    "Ġfetch": 7769,
    "imen": 12691,
    "Ġresisted": 22545,
    "Ġdue": 3844,
    "iors": 9128,
    "rose": 6014,
    "Ġimpertinent": 9080,
    "Ġhorror": 3771,
    "Ġscience": 1532,
    "broad": 8646,
    "Ġtalker": 23374,
    "Ġrhone": 25231,
    "Ġsharp": 2412,
    "Ġhom": 9189,
    "Ġme": 351,
    "Ġjump": 4506,
    "plied": 10258,
    "Ġtroubling": 26549,
    "Ġinfle": 16367,
    "Ġcanst": 8861,
    "Ġsell": 7825,
    "Ġinferences": 17937,
    "Ġerie": 20057,
    "Ġcopy": 10166,
    "Ġyea": 8919,
    "Ġ**": 4722,
    "promise": 12255,
    "user": 5105,
    "Ġcrusad": 23708,
    "Ġchief": 3376,
    "binder": 17502,
    "necessarily": 19634,
    "inde": 17733,
    "Ġxlvi": 25591,
    "atch": 675,
    "Ġinches": 5846,
    "Ġchased": 8865,
    "Ġnotice": 4545,
    "movable": 14327,
    "Ġconcuss": 19048,
    "quod": 2163,
    "Ġfaltering": 17886,
    "arman": 11598,
    "Ġbu": 3683,
    "levelled": 23645,
    "Ġfighting": 12202,
    "Ġperched": 10302,
    "lin": 9606,
    "nest": 10116,
    "estab": 14173,
    "rowsers": 8698,
    "Ġwear": 6031,
    "_,": 2799,
    "whew": 22866,
    "Ġmute": 19419,
    "completely": 12424,
    "tered": 2231,
    "Ġsuspended": 5665,
    "Ġthunders": 15643,
    "trunk": 23952,
    "Ġcranial": 25593,
    "Ġparish": 8858,
    "Ġmatrix": 1605,
    "speckled": 23949,
    "Ġencoding": 4775,
    "Ġnigh": 4879,
    "hill": 15366,
    "Ġlaug": 3627,
    "correspond": 13402,
    "Ġmurdered": 6464,
    "Ġeigenvalues": 4998,
    "Ġpurchase": 12264,
    "Ġlam": 21552,
    "fulfilment": 26026,
    "acid": 10996,
    "Ġwrinkled": 7263,
    "omen": 4087,
    "Ġxlix": 25861,
    "Ġvideo": 25366,
    "Ġmore": 678,
    "Ġcommon": 1412,
    "Ġtrunks": 15975,
    "gorge": 22336,
    "hem": 6665,
    "Ġcarefully": 6305,
    "ernation": 8212,
    "Ġnose": 4403,
    "Ġdashing": 8800,
    "Ġtexel": 25924,
    "crowning": 25749,
    "Ġbrooding": 18908,
    "Ġ6": 5141,
    "Ġfet": 5808,
    "ker": 5792,
    "hemat": 3128,
    "Ď": 207,
    "Ġsublim": 19970,
    "apped": 5395,
    "Ġblotting": 25314,
    "Ġantagon": 19553,
    "Ġcharted": 22254,
    "solution": 14688,
    "Ġsupposition": 9820,
    "recurrent": 4994,
    "traces": 24336,
    "Ġelevating": 19732,
    "Ġadditional": 7935,
    "feed": 9296,
    "ops": 5247,
    "Ġtheatre": 21281,
    "erect": 20850,
    "Ġplough": 18610,
    "Ġhimmalehs": 26232,
    "ckery": 22094,
    "Ġpours": 17912,
    "Ġfoam": 6890,
    "Ġamericans": 14747,
    "Ġpocket": 4899,
    "Ġab": 528,
    "bildad": 9589,
    "Ġdancing": 5703,
    "Ġcomforters": 25801,
    "Ġjavel": 17085,
    "Ġtelescope": 17351,
    "gold": 9123,
    "Ġenl": 18190,
    "Ġpsychology": 11450,
    "Ġfurnishing": 16648,
    "Ġbaleen": 10040,
    "umbria": 23898,
    "orns": 12597,
    "Ġplaint": 10328,
    "became": 10517,
    "Ġdozing": 22247,
    "Ġperceive": 6700,
    "Ġprice": 10405,
    "Ġstam": 18071,
    "Ġperilously": 24507,
    "Ġhated": 7584,
    "Ġlashings": 25100,
    "orphans": 26442,
    "Ġenvironment": 3954,
    "Ġdrive": 5055,
    "Ġreaches": 18034,
    "Ġrevealed": 6752,
    "Ġspend": 5306,
    "Ġenig": 15804,
    "Ġstrictly": 12289,
    "Ġripple": 25505,
    "Ġcol": 1062,
    "pointed": 9811,
    "shame": 16025,
    "Ġerrand": 11087,
    "Ġminers": 22835,
    "bath": 13693,
    "bowl": 14894,
    "amy": 8469,
    "Ġinsurgents": 26602,
    "Ġearthly": 7990,
    "Ġdiscoursing": 26268,
    "Ġdrowsy": 26446,
    "Ġvehemence": 26568,
    "squall": 13525,
    "tri": 11532,
    "degrees": 22154,
    "ouring": 6421,
    "ella": 12752,
    "interested": 9509,
    "Ġrmsprop": 3350,
    "ured": 1656,
    "last": 3803,
    "etian": 13962,
    "Ġpag": 6011,
    "Ġskipper": 22803,
    "Ġprick": 14479,
    "Ġmach": 13860,
    "Ġfervour": 19729,
    "Ġstag": 6149,
    "Ġmessages": 24984,
    "Ġplayfulness": 23638,
    "miserably": 24213,
    "thanking": 24326,
    "Ġneedles": 11186,
    "Ġflies": 13030,
    "Ġdistinctly": 7310,
    "Ġsteelkilt": 5675,
    "Ġpartner": 6715,
    "Ġbarricade": 14662,
    "regarded": 12012,
    "Ġleviathans": 8282,
    "Ġglittering": 10056,
    "?âĢĻ": 2637,
    "Ġgrosvenor": 17421,
    "dropout": 3195,
    "Ġinheriting": 25355,
    "entirely": 7781,
    "pend": 6367,
    "Ġmeek": 21813,
    "Ġprocessing": 886,
    "where": 2091,
    "cupboards": 25402,
    "suitable": 18640,
    "suggest": 20379,
    "displayed": 20738,
    "Ġdata": 516,
    "regard": 7973,
    "Ġalarming": 14785,
    "isco": 12586,
    "lic": 17589,
    "Ġrisks": 9967,
    "Ġryder": 10261,
    "Ġmomentum": 1600,
    "Ġemotion": 7689,
    "Ġdenote": 19335,
    "Ġallows": 3230,
    "Ġsordid": 26424,
    "Ġproposal": 10022,
    "privilege": 25264,
    "Ġsummary": 19407,
    "confidential": 25877,
    "Ġdetaining": 25819,
    "Ġtoils": 10188,
    "simple": 13456,
    "Ġdifferently": 10391,
    "belongs": 25597,
    "Ġ10": 5249,
    "asional": 17962,
    "Ġaghast": 16052,
    "Ġreb": 15696,
    "Ġeffectively": 2592,
    "Ġanx": 3180,
    "Ġsin": 1515,
    "behaved": 24463,
    "Ġfin": 1459,
    "Ġbristles": 25845,
    "swe": 5996,
    "Ġwhitened": 24868,
    "consid": 4925,
    "tles": 10732,
    "Ġdeprec": 15763,
    "Ġconviction": 6327,
    "Ġtroublesome": 24006,
    "asingly": 17963,
    "destroyed": 15264,
    "having": 5211,
    "contains": 16035,
    "Ġwaist": 6891,
    "Ġunlabeled": 3800,
    "Ġancestors": 25643,
    "more": 1032,
    "Ġtoma": 7372,
    "95": 17480,
    "Ġisol": 8838,
    "Ġstrategy": 2364,
    "Ġexercise": 8359,
    "Ġforegoing": 23451,
    "Ġincumbent": 16070,
    "Ġboot": 11843,
    "Ġstri": 2803,
    "sam": 21054,
    "Ġfingers": 5672,
    "Ġvesture": 20065,
    "fever": 22491,
    "Ġbreath": 4792,
    "Ġfam": 1584,
    "provided": 13641,
    "Ġrelief": 6060,
    "adequ": 11022,
    "Ġdownst": 3556,
    "Ġlandless": 23382,
    "Ġmonuments": 22989,
    "Ġstores": 18074,
    "Ġper": 588,
    "iliary": 21730,
    "eches": 8078,
    "Ġflushed": 13032,
    "Ġbutts": 15860,
    "Ġlegendary": 20540,
    "osure": 5308,
    "Ġtaffrail": 15480,
    "Ġimmedi": 2908,
    "riors": 18185,
    "Ġmerit": 9430,
    "Ġconceivable": 16615,
    "Ġuneasily": 24233,
    "Ġeconomy": 17203,
    "Ġknot": 7012,
    "icil": 17974,
    "parts": 14603,
    "_âĢĶâĢĻâĢĿ": 25742,
    "Ġspeak": 2230,
    "Ġshrieked": 9551,
    "Ġplank": 7034,
    "Ġflu": 3272,
    "Ġcomplacency": 19451,
    "stretching": 20502,
    "Ġinscrutable": 10675,
    "Ġsod": 11564,
    "appin": 18759,
    "'d": 12431,
    "Ġpossession": 5589,
    "gu": 3957,
    "abound": 15745,
    "paws": 21031,
    "87": 20759,
    "Ġsooner": 5573,
    "Ġplantation": 11425,
    "Ġremonstrate": 22798,
    "zz": 4292,
    "Ġenjoys": 19453,
    "scream": 11079,
    "Ġwrought": 11948,
    "Ġhearsed": 25042,
    "Ġkindled": 19031,
    "Ġhandspikes": 12943,
    "Ġproperty": 6450,
    "understood": 13220,
    "pate": 21012,
    "Ġpeterson": 9486,
    "Ġviewing": 19266,
    "Ġawe": 7147,
    "ivers": 1984,
    "7": 27,
    "Ġjoys": 13225,
    "Ġwhit": 7177,
    "Ġtreacle": 14597,
    "Ġlanguages": 1568,
    "Ġhorizont": 6936,
    "Ġnarratives": 24353,
    "ģ": 228,
    "spite": 16146,
    "Ġeloquent": 16115,
    "impress": 18054,
    "oars": 9617,
    "Ġpulverize": 23396,
    "Ġcomprehending": 24445,
    "icted": 5937,
    "Ġheathen": 10568,
    "flight": 15356,
    "Ġparaphrasing": 26528,
    "Ġuses": 1210,
    "Ġthirst": 7589,
    "ws": 7354,
    "Ġrecurred": 18977,
    "Ġtrapped": 23078,
    "handed": 7481,
    "works": 6588,
    "Ġnaturally": 2466,
    "Ġgospel": 18003,
    "Ġenem": 4709,
    "Ġcamberwell": 25351,
    "Ġpaths": 2564,
    "apparently": 15208,
    "roylott": 20030,
    "Ġconnection": 5479,
    "top": 4488,
    "hall": 8085,
    "Ġenormous": 5609,
    "```": 25894,
    "ige": 12684,
    "oniously": 21260,
    "Ġblade": 11897,
    "bran": 23576,
    "istence": 2762,
    "ming": 3601,
    "Ġstreet": 2959,
    "source": 11528,
    "Ġchurchyard": 16779,
    "Ġdirt": 15599,
    "asters": 8435,
    "Ġprogrammed": 11060,
    "Ġay": 15495,
    "biscuit": 17503,
    "neglect": 25669,
    "Ġwig": 9164,
    "Ġsetting": 7047,
    "Ġwhirling": 12253,
    "Ġlashed": 9201,
    "Ġvoluntary": 14802,
    "ien": 10104,
    "lp": 900,
    "civilities": 24974,
    "Ġchained": 16389,
    "labours": 16619,
    "Ġfaults": 12217,
    "Ġleap": 5824,
    "schoolmaster": 15165,
    "tree": 11536,
    "Ġgovernesses": 25130,
    "Ġmemories": 14543,
    "Ġcus": 21346,
    "turtle": 12216,
    "iftings": 23227,
    "Ġgraph": 10904,
    "iety": 2819,
    "Ġlucerne": 23867,
    "ex": 624,
    "Ġvisual": 5741,
    "Ġpresumed": 10547,
    "Ġcoopman": 25829,
    "reinforcement": 7826,
    "Ġindignant": 12244,
    "Ġsevere": 6032,
    "Ġclearly": 6896,
    "Ġrecommendation": 17027,
    "made": 4809,
    "Ġsleeping": 6320,
    "olera": 21837,
    "Ġcath": 17828,
    "Ġrabbit": 4287,
    "**": 4687,
    "Ġhandsome": 4907,
    "myself": 5113,
    "Ġbarriers": 23797,
    "Ġstaid": 21742,
    "Ġstrip": 9424,
    "loose": 11809,
    "ivation": 3109,
    "Ġexcused": 23317,
    "Ġshook": 4470,
    "Ġwriter": 11949,
    "Ġmarvelled": 18875,
    "Ġrepul": 16414,
    "Ġconditions": 8307,
    "Ġnewspaper": 12368,
    "inously": 21189,
    "headed": 4317,
    "pow": 10719,
    "Ġimpropri": 14218,
    "subst": 12169,
    "Ġmounting": 19980,
    "Ġblacks": 23391,
    "Ġdaugh": 2291,
    "Ġunmolested": 15249,
    "Ġtrembled": 8705,
    "Ġmatted": 22916,
    "Ġrings": 11704,
    "Ġtormented": 8678,
    "Ġfries": 21418,
    "Ġnow": 692,
    "disposition": 10045,
    "safe": 10057,
    "Ġsixth": 16562,
    "erative": 21275,
    "whaleman": 23439,
    "Ġsnail": 19302,
    "six": 7142,
    "ism": 4875,
    "Ġcrony": 23441,
    "Ġra": 816,
    "engine": 18929,
    "scept": 21056,
    "Ġemph": 14527,
    "iers": 5991,
    "likely": 9026,
    "Ġrecommended": 8671,
    "Ġdire": 866,
    "spike": 16147,
    "Ġrepaid": 19084,
    "Ġfacetious": 20587,
    "Ġlangs": 13957,
    "shire": 3021,
    "Ġreputation": 11643,
    "Ġpoison": 7218,
    "lection": 3652,
    "Ġrespectable": 6737,
    "Ġimpo": 3437,
    "Ġsy": 491,
    "Ġhonest": 7286,
    "itically": 21333,
    "bation": 9106,
    "hounds": 20909,
    "itheat": 21341,
    "amouch": 21849,
    "Ġpupils": 20424,
    "Ġcounterpart": 24720,
    "ording": 9767,
    "hatchway": 25905,
    "him": 1940,
    "Ġrelation": 2139,
    "Ġfatally": 19397,
    "sleeping": 13458,
    "hastening": 24448,
    "Ġveracity": 23892,
    "pshaw": 21030,
    "task": 13796,
    "Ġmessage": 13526,
    "amongst": 24673,
    "Ġcontrasting": 11156,
    "shapes": 22456,
    "stayed": 25291,
    "Ġsorrowful": 10539,
    ">": 34,
    "Ġhue": 8430,
    "foam": 24418,
    "®": 111,
    "Ġnoises": 18375,
    "noon": 5037,
    "Ġnervous": 2402,
    "stumps": 21662,
    "Ġintuitions": 17344,
    "Ġhogshe": 20495,
    "rayed": 23564,
    "cracy": 24691,
    "Ġpreach": 14175,
    "isure": 6241,
    "used": 3255,
    "fair": 10095,
    "izens": 18146,
    "aled": 3943,
    "Ġmassive": 9935,
    "resp": 13842,
    "binary": 20786,
    "urch": 3993,
    "Ġloomings": 24952,
    "Ġstock": 7454,
    "Ġweakened": 16825,
    "iment": 2816,
    "Ġtrunk": 7204,
    "Ġanimation": 11154,
    "Ġfigured": 16646,
    "Ġelated": 18632,
    "Ġstumbling": 21749,
    "Ġtries": 9153,
    "Ġswerve": 14440,
    "Ġch": 513,
    "Ġfrigates": 25707,
    "Ġcoloured": 11047,
    "Ġblasp": 14404,
    "engthen": 14460,
    "objection": 19917,
    "Ġadventurous": 16735,
    "Ġadroit": 26001,
    "Ġstepfather": 7220,
    "Ġleaves": 5021,
    "exp": 2736,
    "Ġpenetrated": 13476,
    "Ġribbons": 24325,
    "Ġexotic": 21835,
    "Ġ98": 24594,
    "Ġrec": 892,
    "Ġcomprising": 16076,
    "Ġcontextually": 11962,
    "Ġanalogical": 25641,
    "Ġgracechurch": 12203,
    "Ġunintermitted": 26221,
    "Ġcommanding": 16592,
    "thest": 11657,
    "Ġthoughtfully": 12985,
    "Ġcoal": 18591,
    "lone": 11502,
    "Ġungovernable": 20711,
    "Ġ86": 24461,
    "Ġincorruption": 26310,
    "Ġintimately": 24801,
    "throt": 25660,
    "Ġstill": 1154,
    "Â": 131,
    "anations": 12581,
    "erest": 10699,
    "Ġpeasant": 13555,
    "Ġbite": 10799,
    "Ġvisibly": 22860,
    "Ġdispel": 16598,
    "Ġburly": 19252,
    "Ġregression": 4410,
    "countryman": 24640,
    "Ġsway": 7570,
    "Ġwand": 4340,
    "Ġunperceived": 22041,
    "Ġdip": 13910,
    "ccess": 3182,
    "threw": 21988,
    "Ġrecourse": 22736,
    "endeavoured": 12285,
    "ago": 14068,
    "light": 3017,
    "Ġhazarded": 25655,
    "Ġrig": 4224,
    "rit": 21038,
    "Ġprovoked": 13330,
    "Ġbale": 7838,
    "justified": 19004,
    "assist": 11771,
    "Ġbracing": 16583,
    "Ġdamning": 19141,
    "Ġcurly": 18846,
    "Ġtables": 9881,
    "engines": 18930,
    "ilated": 18060,
    "figured": 20126,
    "ineff": 21970,
    "Ġeigen": 4882,
    "gra": 769,
    "izer": 2029,
    "Ġindicate": 23725,
    "Ġaccordance": 19501,
    "Ġcerem": 7078,
    "tuesday": 17692,
    "feet": 6569,
    "nam": 2963,
    "aim": 2754,
    "Ġfinish": 7949,
    "Ġconcentrate": 25066,
    "ouch": 2780,
    "Ġpresc": 15930,
    "Ġafrican": 20140,
    "required": 17031,
    "mews": 22709,
    "furniture": 20245,
    "Ġlaure": 16911,
    "Ġprognostics": 20561,
    "orm": 425,
    "Ġstrat": 16097,
    "fashioned": 9573,
    "est": 501,
    "Ġvaried": 11852,
    "batross": 9096,
    "timidity": 25754,
    "garden": 15028,
    "keeper": 5597,
    "Ġinvest": 4978,
    "Ġwaiting": 4322,
    "circumstance": 7763,
    "Ġclust": 9277,
    "Ġrector": 21679,
    "Ġhumbly": 16202,
    "Ġlodge": 5779,
    "Ġstrenuously": 17451,
    "square": 15062,
    "Ġdrowned": 9555,
    "Ġexclaim": 11223,
    "Ġwriting": 4669,
    "Ġhairs": 13235,
    "Ġskewer": 19623,
    "Ġdestructive": 23488,
    "Ġanswer": 2595,
    "Ġpoint": 2055,
    "Ġdespaired": 14671,
    "uttering": 12667,
    "fortunes": 6333,
    "Ġtimber": 13354,
    "Ġrazor": 22657,
    "Ġhanding": 16135,
    "Ġ550": 19639,
    "Ġtransition": 14236,
    "esy": 9188,
    ".âĢĻâĢĿ": 6740,
    "Ġforget": 2631,
    "Ġextinguished": 10344,
    "Ġstrang": 4160,
    "Ġprofessors": 14729,
    "Ġlaborers": 19057,
    "warning": 25532,
    "Ġgra": 416,
    "Ġcuring": 21347,
    "interred": 23739,
    "Ġgenerations": 10972,
    "action": 3726,
    "racted": 4777,
    "Ġ79": 24267,
    "anke": 15566,
    "Ġagreement": 18543,
    "Ġplaguy": 22610,
    "Ġshining": 8172,
    "Ġindefatigable": 17180,
    "Ġshouts": 19540,
    "owders": 18050,
    "Ġwomen": 4751,
    "Ġassociations": 14966,
    "Ġcoldly": 14652,
    "maker": 12497,
    "rested": 13079,
    "Ġsuperhuman": 23455,
    "Ġbishop": 13905,
    "lections": 4753,
    "Ġrally": 21975,
    "ener": 566,
    "Ġmanufactured": 22334,
    "ening": 3104,
    "Ġwithal": 18116,
    "glancing": 11215,
    "Ġreposing": 23364,
    "elijah": 19476,
    "Ġhandled": 12942,
    "Ġtiger": 11557,
    "Ġconver": 802,
    "Ġwar": 5526,
    "mind": 4628,
    "ip": 555,
    "Ġmo": 628,
    "afraid": 10443,
    "Ġreciprocating": 26371,
    "Ġsenior": 17174,
    "words": 7983,
    "Ġremot": 8545,
    "Ġmermaids": 26171,
    "Ġofficial": 7082,
    "Ġlumps": 21559,
    "Ġflogged": 23626,
    "ssip": 14083,
    "Ġpace": 9185,
    "attention": 2109,
    "Ġbosom": 6938,
    "Ġegypt": 9681,
    "Ġtapped": 11556,
    "income": 15490,
    "Ġdiscoverer": 26036,
    "ancing": 1759,
    "Ġsponge": 26004,
    "Ġsain": 17752,
    "Ġmelt": 21320,
    "Ġbundles": 26176,
    "Ġformations": 18750,
    "ieved": 3227,
    "previously": 17210,
    "Ġspars": 3810,
    "Ġrevellers": 21681,
    "Ġrevolutions": 23845,
    "form": 495,
    "stooped": 23825,
    "Ġamend": 16039,
    "Ġdeformity": 11679,
    "Ġaccent": 10296,
    "determ": 7106,
    "clad": 14463,
    "Ġgame": 3628,
    "lay": 5891,
    "Ġ28": 19297,
    "Ġparson": 6688,
    "fool": 9050,
    "ford": 2823,
    "rior": 12746,
    "Ġcad": 12573,
    "Ġencounters": 19583,
    "Ġwindward": 6884,
    "Ġadmit": 7710,
    "Ġlass": 15653,
    "âĢĿ;": 11672,
    "Ġoblong": 14324,
    "Ġmeat": 8152,
    "Ġel": 799,
    "Ġdiffusion": 23785,
    "nals": 16397,
    "Ġprecisely": 6466,
    "visitors": 13353,
    "urned": 9309,
    "Ġfleecy": 17025,
    "jammed": 25907,
    "between": 5071,
    "Ġtapers": 11554,
    "Ġconstant": 6310,
    "Ġflower": 16238,
    "Ġsympathised": 14865,
    "Ġshell": 11740,
    "-------": 20392,
    "crucible": 24843,
    "Ġline": 1850,
    "Ġwedge": 24935,
    "Ġquoin": 22422,
    "Ġattic": 16103,
    "anything": 5518,
    "Ġbrandy": 11051,
    "Ġsurmise": 12299,
    "irmed": 9242,
    "Ġcryst": 9920,
    "running": 6797,
    "Ġcord": 5222,
    "Ġliberality": 24377,
    "duchess": 18464,
    "str": 2573,
    "Ġconstruct": 23343,
    "Ġultimate": 12353,
    "n": 82,
    "Ġsecrets": 9057,
    "Ġordinarily": 20651,
    "Ġrealised": 18980,
    "Ġfreshe": 13074,
    "time": 3146,
    "nourished": 26400,
    "ress": 930,
    "school": 10058,
    "Ġcreditable": 19625,
    "remind": 23191,
    "Ġpotential": 3619,
    "Ġanimating": 23427,
    "scar": 9819,
    "Ġloom": 7628,
    "ig": 322,
    "dig": 4930,
    "Ġcigar": 9548,
    "Ġpoliteness": 8274,
    "Ġaug": 6235,
    "Ġbor": 5805,
    "Ġtantamount": 25626,
    "Ġstarboard": 7607,
    "course": 6105,
    "ici": 8441,
    "Ġpetty": 19598,
    "business": 5610,
    "slouched": 24557,
    "Ġwandering": 8657,
    "Ġ{": 21155,
    "both": 5785,
    "Ġign": 8294,
    "unders": 13315,
    "Ġdre": 1745,
    "Ġroy": 4227,
    "Ġventing": 19496,
    "Ġduncan": 13465,
    "âĢľâĢĶ": 10874,
    "Ġmoisture": 12363,
    "accordingly": 19215,
    "Ġtimidly": 11340,
    "pitch": 13303,
    "Ġcottagers": 6761,
    "Ġpermission": 9282,
    "cring": 20813,
    "Ġsimilarly": 24310,
    "crated": 16685,
    "appalled": 18761,
    "Ġabstained": 25232,
    "kerchief": 7524,
    "Ġlovely": 4711,
    "loath": 22513,
    "Ġforeboding": 20387,
    "Ġrecurring": 23232,
    "Ġzero": 1203,
    "forest": 22522,
    "D": 40,
    "Ġshores": 8852,
    ",âĢĶâĢľ": 10073,
    "claim": 9838,
    "Ġdiffer": 18680,
    "metals": 24765,
    "Ġcharitable": 23272,
    "Ġident": 2240,
    "Ġargue": 16785,
    "Ġheaving": 7600,
    "Ġquality": 3523,
    "Ġfiends": 14831,
    "folio": 10549,
    "Ġhampshire": 15246,
    "barrel": 17061,
    "Ġcontradicted": 20214,
    "abond": 15746,
    "itled": 7577,
    "Ġlog": 1678,
    "Ġuse": 833,
    "eprints": 12796,
    "kindled": 16663,
    "Ġmarlings": 23038,
    "urer": 18124,
    "fleet": 15016,
    "utions": 1888,
    "progress": 11992,
    "Ġanother": 1739,
    "Ġshrugged": 12774,
    "Ġsteam": 9356,
    "Ġproportionably": 19974,
    "Ġdiscol": 12958,
    "Ġdeserts": 10510,
    "tit": 11530,
    "osp": 6853,
    "repeated": 12343,
    "Ġapiece": 16815,
    "happy": 4425,
    "Ġcrib": 21351,
    "Ġlay": 585,
    "ĠâĢľâĢĶ": 9737,
    "Ġsuperseded": 26226,
    "Ġwith": 349,
    "Ġoptim": 791,
    "ateful": 5927,
    "Ġmaterials": 11290,
    "Ġconsecut": 18114,
    "Ġtradesman": 20076,
    "Ġmoving": 1679,
    "Ġlysander": 13142,
    "news": 23135,
    "Ġopinions": 9418,
    "Ġmelting": 24290,
    "µ": 118,
    "sartain": 25623,
    "Ġtie": 10752,
    "Ġlaz": 7377,
    "Ġwhir": 6393,
    "ĠâĢĶ": 13814,
    "finer": 17548,
    "Ġdiadem": 24740,
    "ox": 9136,
    "Ġlowers": 23245,
    "wis": 12523,
    "Ġsubtle": 6717,
    "kindness": 10508,
    "how": 1646,
    "Ġwall": 3842,
    "cceed": 4142,
    "Ġjourney": 3879,
    "Ġarrives": 23609,
    "itions": 4147,
    "Ġhowled": 12861,
    "houn": 20895,
    "Ġxiii": 25592,
    "verize": 21732,
    "q": 85,
    "Ġdexter": 9704,
    "Ġexcellent": 4236,
    "Ġinit": 814,
    "bedded": 12447,
    "moby": 8538,
    "client": 18934,
    "Ġexactness": 23606,
    "Ġworm": 9165,
    "Ġensemble": 1608,
    "Ġindebted": 8711,
    "Ġsense": 3246,
    "Ġtechniques": 2867,
    "compose": 24036,
    "iger": 8448,
    "gather": 20877,
    "Ġuncompromised": 20606,
    "Ġ80": 24456,
    "Ġincessantly": 11413,
    "Ġyielding": 12191,
    "meet": 11860,
    "Ġlegit": 16476,
    "È": 137,
    "Ġguido": 2979,
    "Ġlard": 13950,
    "Ġresolution": 5500,
    "uded": 6288,
    "hold": 3982,
    "oblivious": 26584,
    "Ġrestrictions": 20638,
    "Ġpiteous": 17918,
    "ash": 1992,
    "Ġbrid": 6291,
    "Ġattempting": 14699,
    "Ġassemblage": 26354,
    "suff": 4961,
    "Ġgallied": 19559,
    "Ġopulent": 23630,
    "pire": 9138,
    "Ġgibraltar": 25788,
    "ix": 1799,
    "Ġincreases": 3796,
    "Ġankers": 21448,
    "Ġmanner": 2194,
    "corpse": 24486,
    "Ġscreams": 24604,
    "Ġrachel": 11851,
    "ted": 792,
    "reposed": 24492,
    "entreaties": 26187,
    "Ġdif": 872,
    "infidel": 24664,
    "moran": 24155,
    "reds": 12755,
    "Ġsuperior": 2751,
    "ources": 2789,
    "Ġwriters": 13546,
    "Ġloitering": 22120,
    "Ġelse": 2479,
    "Ġfamiliarly": 11305,
    "sided": 17666,
    "chard": 21690,
    "Ġinsanity": 12051,
    "utherland": 9581,
    "Ġdress": 4021,
    "stays": 15694,
    "Ġserm": 9636,
    "hearts": 13349,
    "Ġincred": 5646,
    "etw": 406,
    "crazy": 24692,
    "ugging": 23293,
    "Ġreign": 13988,
    "tstone": 21087,
    "Ġunsafe": 22045,
    "Ġobserved": 3537,
    "cong": 10691,
    "cousins": 20121,
    "thrusting": 20262,
    "specim": 23948,
    "Ġhurriedly": 11251,
    "modesty": 22878,
    "Ġ_": 840,
    "Ġrecklessness": 24744,
    "Ġbandages": 24427,
    "Ġunreasoning": 15850,
    "Ġboyhood": 23758,
    "Ġmonsters": 11077,
    "onym": 14651,
    "sych": 9889,
    "herds": 22208,
    "Ġpirates": 9076,
    "Ġlawyer": 10671,
    "Ġunlucky": 10053,
    "modern": 1181,
    "Ġmuseum": 15275,
    "Ġneglect": 7942,
    "eties": 10839,
    "Ġfasting": 16360,
    "Ġimpart": 11784,
    "ominy": 13981,
    "ous": 477,
    "Ġmeant": 3547,
    "Ġvit": 10248,
    "Ġhanded": 8217,
    "august": 11073,
    "Ġsurrounded": 5879,
    "Ġrecess": 10849,
    "Ġpatroness": 13513,
    "Ġlearnable": 3995,
    "Ġfaithfully": 14890,
    "declared": 15122,
    "Ġounce": 15276,
    "spent": 12947,
    "Ġenters": 11027,
    "Ġdut": 2990,
    "Ġpoultry": 17444,
    "ked": 5616,
    "Ġbiography": 22767,
    "Ġemployment": 8632,
    "Ġchamber": 6214,
    "Ġgrowl": 16540,
    "cats": 17514,
    "sively": 13789,
    "Ġoutput": 929,
    "Ü": 157,
    "Ġtracks": 18891,
    "Ġdaughter": 2869,
    "Ġfid": 10805,
    "Ġjanuary": 13657,
    "Ġimprobable": 9795,
    "Ġrods": 9755,
    "whar": 15932,
    "superstitiousness": 25509,
    "stream": 15692,
    "Ġmounts": 17808,
    "der": 472,
    "Ġbrisk": 9806,
    "Ġwalls": 6762,
    "Ġpursuit": 4734,
    "oud": 1942,
    "lungs": 26136,
    "Ġinfat": 14502,
    "z": 94,
    "Ġriver": 5411,
    "bitious": 16672,
    "inexplicable": 25809,
    "Ġfossiliferous": 25610,
    "Ġinvitation": 5188,
    "Ġinnumerable": 13356,
    "dict": 15341,
    "eat": 11485,
    "never": 3151,
    "ob": 1419,
    "Ġtattered": 21174,
    "Ġinterpreted": 1712,
    "responsible": 25764,
    "Ġprodig": 6028,
    "drugg": 20840,
    "infall": 21191,
    "immediate": 20097,
    "adamite": 20596,
    "itement": 7835,
    "Ġlichen": 20095,
    "yes": 983,
    "Ġautoregressive": 3427,
    "Ġyelled": 9697,
    "Ġassiduous": 26294,
    "Ġxxxiv": 24970,
    "enances": 10156,
    "lorn": 12492,
    "turning": 8317,
    "oth": 1182,
    "inions": 8403,
    "Ġpresuming": 16795,
    "othic": 16220,
    "Ġwidest": 24237,
    "Ġterminating": 23512,
    "Ġencaps": 12967,
    "Ġshe": 466,
    "Ġsnaky": 23744,
    "correct": 24483,
    "Ġadie": 8490,
    "intolerable": 22941,
    "Ġconsole": 8151,
    "splash": 25210,
    "Ġhinted": 6012,
    "Ġadv": 1160,
    "Ġstructural": 2798,
    "ilingly": 21727,
    "Ġdomineering": 23679,
    "ures": 837,
    "Ġpurplish": 19142,
    "Ġclergy": 7642,
    "chain": 18042,
    "Ġboarding": 12091,
    "meas": 7433,
    "olets": 21010,
    "whel": 7664,
    "method": 17287,
    "Ġstarry": 16925,
    "iece": 3226,
    "Ġturkish": 12266,
    "portent": 25413,
    "Ġmut": 3582,
    "Ġlines": 4536,
    "Ġspool": 24803,
    "Ġpluck": 15619,
    "glasses": 11216,
    "glances": 23856,
    "Ġheiress": 20700,
    "Ġdiscrete": 2475,
    "shiver": 16027,
    "seemed": 4303,
    "Ġsoftened": 11103,
    "Ġrevisit": 21673,
    "andish": 18156,
    "Ġdedicated": 19225,
    "Ġantics": 24181,
    "Ġexterior": 19991,
    "he": 264,
    "Ġbubb": 12589,
    "Ġtightly": 13537,
    "Ġpeak": 16131,
    "Ġcauses": 2556,
    "Ġexcessively": 9443,
    "Ġfool": 4234,
    "Ġblazing": 11900,
    "is": 280,
    "Ġwealthy": 18181,
    "Ġbur": 2697,
    "Ġaffinity": 18787,
    "Ġguid": 2635,
    "Ġmix": 7576,
    "Ġimprudent": 12853,
    "Ġdoubtful": 19143,
    "furthest": 19844,
    "Ġhats": 14621,
    "ounted": 5030,
    "Ġgroping": 13669,
    "Ġsustaining": 25334,
    "Ġfails": 13318,
    "Ġdreaminess": 23943,
    "usive": 8192,
    "inglass": 21305,
    "Ġscolding": 15204,
    "Ġstaggers": 24654,
    "Ġnaturalist": 22886,
    "Ġselected": 9713,
    "Ġfogs": 25283,
    "Ġroyalty": 19739,
    "naturalist": 23557,
    "degrad": 22147,
    "evil": 11488,
    "Ġcobweb": 22588,
    "Ġinsulated": 23682,
    "pumps": 21029,
    "detective": 24383,
    "supplementary": 20552,
    "apter": 1195,
    "adr": 6994,
    "circuit": 24191,
    "Ġhabitations": 24788,
    "promontory": 24727,
    "Ġaristotle": 25818,
    "Ġfocuses": 8653,
    "hamed": 6306,
    "affrail": 11206,
    "malicious": 19904,
    "Ġeyed": 12672,
    "ellig": 519,
    "mud": 20974,
    "Ġsentence": 6188,
    "ogy": 22715,
    "Ġblameless": 19861,
    "boards": 23257,
    "fa": 7335,
    "Ġrim": 21972,
    "Ġsunken": 14496,
    "Ġoriginally": 7303,
    "Ġcadiz": 17328,
    "towns": 24855,
    "rabbit": 20594,
    "Ġexact": 2538,
    "heum": 17749,
    "led": 582,
    "Ġphantom": 8710,
    "writing": 7720,
    "oted": 4599,
    "Ġgrammars": 11404,
    "Ġex": 361,
    "Ġearl": 7675,
    "deeply": 16181,
    "nuee": 17433,
    "Ġscorch": 20070,
    "Ġwore": 6377,
    "Ġfiles": 21416,
    "Ġutmost": 5496,
    "Ġcommonplace": 11097,
    "Ġremembering": 14613,
    "Ġmissionary": 25697,
    "Ġallev": 18103,
    "Ġinside": 5448,
    "Ġembal": 11910,
    "Ġdumbly": 24988,
    "Ġloses": 15878,
    "Ġinvaluable": 10185,
    "agrad": 2745,
    "Ġdiscre": 2415,
    "Ġlees": 18065,
    "Ġinhabitants": 7523,
    "Ġsurging": 19135,
    "Ġabstract": 17184,
    "ĠĠĠĠĠĠĠĠĠĠĠĠĠĠĠĠĠĠĠĠĠĠĠĠĠĠĠĠĠĠĠĠĠĠĠ": 19260,
    "Ġscand": 7202,
    "forward": 2185,
    "Ġyouthful": 16725,
    "Ġjoes": 19233,
    "Ġconfederate": 17356,
    "Ġpry": 11602,
    "Ġwhole": 1663,
    "screwed": 17190,
    "Ġfacil": 16964,
    "Ġprisoner": 8676,
    "Ġsubject": 2464,
    "Ġelijah": 9103,
    "cripp": 20821,
    "Ġhapless": 15817,
    "Ġstaggered": 9542,
    "Ġstalls": 25648,
    "Ġtrade": 2542,
    "Ġcongratulations": 10583,
    "croquet": 25748,
    "olog": 1109,
    "Ġcoals": 16081,
    "Ġhouses": 6139,
    "Ġtroop": 24898,
    "Ġexpedition": 10636,
    "Ġunfrequ": 19511,
    "Ġarist": 14162,
    "Ġesc": 2253,
    "Ġcocksure": 26260,
    "Ġcloudy": 19480,
    "partner": 19223,
    "carefully": 13373,
    "Ġinterpret": 5490,
    "surprising": 16921,
    "Ġappar": 7410,
    "Ġklan": 23661,
    "ert": 2629,
    "iod": 3839,
    "Ġpunctual": 17140,
    "Ġprinciples": 10014,
    "Ġcharley": 19008,
    "Ġmonths": 3450,
    "Ġcabinet": 23864,
    "conclusion": 25672,
    "Ġabsorbed": 12335,
    "Ġtrag": 13044,
    "Ġdisappearance": 9300,
    "Ġreck": 6538,
    "ckets": 6842,
    "Ġgaiters": 20464,
    "Ġaudience": 24768,
    "Ġbaffled": 12407,
    "Ġconflagration": 26366,
    "bol": 8721,
    "Ġmonoton": 3636,
    "Ġbetween": 793,
    "Ġaccusation": 22382,
    "Ġfelix": 4850,
    "Ġblaming": 22933,
    "Ġilliterate": 26596,
    "terrors": 25044,
    "itative": 13873,
    "Ġfaces": 6009,
    "Ġdirectors": 18923,
    "Ġcough": 11584,
    "Ġsolemnisation": 24116,
    "joined": 13280,
    "Ġmonosyllable": 20728,
    "Ġdifferen": 935,
    "Ġfevers": 22211,
    "Ġrope": 4337,
    "Ġpervers": 11787,
    "Ġenchantment": 24870,
    "Ġtiller": 8968,
    "Ġbuckets": 17035,
    "alescence": 15929,
    "ooped": 17625,
    "Ġun": 423,
    "Ġices": 21157,
    "Ġwatery": 6297,
    "ucumber": 19058,
    "remote": 23193,
    "crawling": 16960,
    "ologies": 18785,
    "verty": 8454,
    "Ġsubstances": 24168,
    "Ġperem": 12937,
    "Ġdictating": 20155,
    "ancies": 11587,
    "Ġjabbering": 22307,
    "Ġsquint": 22839,
    "Ġmitigating": 1617,
    "unaffected": 21887,
    "Ġlegs": 4917,
    "paradise": 20640,
    "twelve": 14624,
    "ef": 5134,
    "dead": 8180,
    "Ġknives": 14840,
    "Ġdeception": 18142,
    "Ġoppress": 13176,
    "Ġvess": 3291,
    "disgraceful": 26077,
    "ellations": 21946,
    "motion": 17608,
    "ensils": 22553,
    "Ġviolin": 16433,
    "Ġalbatross": 10873,
    "eed": 20843,
    "Ġsits": 10770,
    "Ġ12": 5483,
    "Ġstaggering": 20276,
    "Ġmetaphysical": 26070,
    "Ġbriefly": 11369,
    "Ą": 197,
    "orand": 21400,
    "lipped": 16221,
    "Ġwag": 10777,
    "boat": 3357,
    "fen": 20852,
    "increased": 20273,
    "Ġdad": 12605,
    "Ġoblige": 10491,
    "Ġsaved": 6691,
    "Ġpoul": 15618,
    "Ġsincerity": 13682,
    "centre": 17088,
    "ters": 1572,
    "Ġwool": 19436,
    "Ġclusters": 25233,
    "Ġfringed": 17275,
    "Ġnic": 7375,
    "Ġhides": 16267,
    "Ġasse": 8160,
    "gale": 13727,
    "Ġpassages": 12975,
    "Ġlifts": 25359,
    "stamp": 21657,
    "Ġunfailing": 24114,
    "Ġmischie": 22765,
    "appear": 13202,
    "Ġchains": 8251,
    "Ġgallons": 14821,
    "Ġphenomenon": 17917,
    "Ġcolossal": 11461,
    "Ġsoon": 1227,
    "ead": 2596,
    "Ġnearing": 15803,
    "Ġlace": 13952,
    "rippling": 24712,
    "Ġresurrection": 12899,
    "Ġfain": 5809,
    "Ġprofounder": 23571,
    "placed": 7880,
    "Ġfifteen": 6946,
    "Ġdrawled": 23993,
    "hors": 9601,
    "distinctive": 25726,
    "hooked": 23717,
    "Ġcomputations": 16004,
    "Ġirrevocably": 15301,
    "Ġword": 1056,
    "narwhale": 17321,
    "Ġlabourers": 23334,
    "Ġtortoise": 16910,
    "Ġforetold": 23453,
    "allions": 22196,
    "remediable": 26296,
    "oured": 2672,
    "gained": 20883,
    "Ġwages": 13857,
    "Ġretrogress": 23075,
    "Ġtex": 15476,
    "Ġembalmed": 13660,
    "Ġbloom": 9891,
    "Ġprophes": 16353,
    "Ġhysterical": 26093,
    "Ġcapst": 8599,
    "irst": 879,
    "onely": 6516,
    "Ġreasonable": 7252,
    "Ġsickle": 24248,
    "Ġsnar": 13204,
    "Ġflight": 6581,
    "Ġq": 1085,
    "Ġpie": 13918,
    "holder": 13287,
    "monkey": 19172,
    "Ġmeasured": 9807,
    "Ġeaglet": 19307,
    "Ġtepid": 26414,
    "Ġnuts": 17954,
    "body": 2306,
    "Ġepaulets": 24906,
    "whips": 22242,
    "Ġwaterward": 23370,
    "Ġdictated": 25219,
    "Ġcunning": 6239,
    "Ġ1846": 26085,
    "ą": 198,
    "hyme": 19612,
    "indignation": 18439,
    "Ł": 258,
    "ular": 715,
    "Ġbachelors": 24861,
    "Ġdiet": 13913,
    "Ġwithout": 1119,
    "Ġchemist": 11136,
    "Ġalb": 14019,
    "Ġinclinations": 19542,
    "spirit": 11315,
    "Ġafford": 4365,
    "Ġpict": 3493,
    "provoke": 26072,
    "grave": 16099,
    "Ġcrumbs": 19124,
    "pute": 8849,
    "Ġdespair": 4010,
    "touch": 8392,
    "icing": 9203,
    "absolute": 17125,
    "fifty": 12356,
    "Ġoper": 2119,
    "Ġrebell": 21672,
    "[": 63,
    "Ġdignity": 5704,
    "isa": 17847,
    "Ġunful": 22015,
    "Ġjets": 10290,
    "Ġselfish": 7271,
    "Ġcard": 7362,
    "Ġresented": 22547,
    "Ġconnect": 797,
    "Ġresumed": 11816,
    "Ġadventures": 7747,
    "tro": 15437,
    "Ġsentinel": 26066,
    "blow": 9107,
    "gg": 1996,
    "Ġwoke": 21292,
    "hig": 12479,
    "Ġperemptory": 25741,
    "Ġwheel": 9721,
    "Ġfatal": 5872,
    "ureau": 10229,
    "Ġpals": 13921,
    "Ġamelia": 26252,
    "Ġ73": 24263,
    "lung": 17593,
    "Ġhardships": 14454,
    "Ġindepend": 3668,
    "Ġshorter": 4501,
    "è": 169,
    "Ġsheath": 14154,
    "Ġbacks": 8530,
    "Ġflo": 2583,
    "bs": 3775,
    "Ġawfulness": 23589,
    "resistible": 10646,
    "Ġdefinition": 14408,
    "Ġfiftieth": 24702,
    "Ġfamiliarity": 16731,
    "ù": 186,
    "Ġwitnessing": 19601,
    "Ġexchanging": 18134,
    "hand": 2756,
    "Ġresolves": 23649,
    "ription": 5676,
    "tumult": 12427,
    "rugg": 15903,
    "Ġmothers": 14542,
    "Ġconcil": 23325,
    "Ġarrangement": 2656,
    "ves": 696,
    "Ġattributed": 11840,
    "Ġdesigned": 7740,
    "miseries": 16759,
    "Ġbrougham": 17872,
    "Ġhis": 380,
    "Ġretreat": 6070,
    "Ġcentaurs": 23836,
    "het": 5435,
    "Ġnormalization": 1244,
    "Ġrepresents": 4903,
    "haven": 20914,
    "preservation": 25306,
    "Ġ59": 24323,
    "Ġimprecations": 25821,
    "igh": 2028,
    "Ġremarkably": 7702,
    "Ġcalculate": 13268,
    "Ġwast": 21864,
    "dipped": 20839,
    "utility": 21590,
    "ram": 13975,
    "Ġnarrower": 24354,
    "apsed": 6296,
    "employed": 17264,
    "Ġdescended": 7427,
    "Ġwreath": 25937,
    "Ġott": 13869,
    "Ġyarn": 10870,
    "flagged": 23976,
    "Ġnosegay": 24195,
    "cried": 8728,
    "Ġtraces": 7946,
    "impenetrable": 26198,
    "Ġredu": 1354,
    "umphed": 23518,
    "Ġhelping": 3262,
    "Ġdeclines": 23967,
    "Ġhardened": 14453,
    "eck": 20846,
    "caroline": 24152,
    "Ġpalsied": 25780,
    "ante": 11725,
    "retion": 9365,
    "Ġnorthward": 13326,
    "Ġinject": 2711,
    "Ġapproached": 5844,
    "Ġportentous": 15233,
    "binnacle": 20789,
    "s": 87,
    "Ġabsolut": 3910,
    "Ġmagician": 25061,
    "Ġbridge": 8349,
    "mises": 20980,
    "Ġexplaining": 15965,
    "reject": 21239,
    "Ġref": 923,
    "nels": 12500,
    "Ġeaster": 15680,
    "pride": 11211,
    "Ġinjure": 16783,
    "Ġgurgling": 17449,
    "Ġcounty": 9033,
    "herent": 2525,
    "Ġjav": 7902,
    "Ġglistened": 20175,
    "Ġprevious": 2088,
    "Ġgreyish": 24211,
    "Ġvanishing": 1345,
    "Ġteaches": 18795,
    "problem": 25245,
    "Ġhurtling": 24960,
    "Ġrecollected": 8311,
    "Ġscholars": 26113,
    "Ġnever": 1018,
    "Ġjoist": 19234,
    "seek": 8841,
    "nose": 17612,
    "ight": 402,
    "Ġproc": 5545,
    "Ġslappin": 18945,
    "garet": 9600,
    "spirits": 8055,
    "Ġincites": 22556,
    "expectations": 24279,
    "liberal": 26283,
    "otograph": 5827,
    "Ġtrem": 6661,
    "Ġoffend": 16151,
    "Ġjud": 3353,
    "omy": 6249,
    "msprop": 2621,
    "accessible": 13643,
    "Ġcler": 11774,
    "leviathans": 19941,
    "ark": 849,
    "explained": 23146,
    "Ġvibration": 17100,
    "Ġpersu": 3561,
    "Ġafforded": 8029,
    "Ġhaz": 12760,
    "Ġbirth": 6524,
    "ogr": 18677,
    "Ġministers": 22836,
    "Ġwords": 1323,
    "leaning": 10792,
    "Ġvillage": 5774,
    "Ġemerging": 24613,
    "une": 2786,
    "acency": 12902,
    "steel": 8299,
    "Ġslave": 7453,
    "Ġdeserved": 7736,
    "Ġsoap": 14132,
    "Ġascribe": 16784,
    "sheet": 16289,
    "Ġpronouncing": 16971,
    "nep": 20988,
    "uding": 16156,
    "Ġworthy": 7240,
    "Ġorganically": 3012,
    "Ġillustrations": 17109,
    "wore": 21127,
    "Ġsickly": 16776,
    "stre": 5451,
    "ose": 719,
    "Ġmethodic": 23189,
    "Ġappet": 9734,
    "ĩ": 234,
    "frankly": 20025,
    "craft": 12251,
    "Ġcorpulence": 24509,
    "Ġcalling": 5662,
    "urches": 12690,
    "Ġmab": 12565,
    "Ġmelted": 19624,
    "Ġapproxim": 1218,
    "ittleness": 22383,
    "Ġcoop": 14276,
    "Ġtesting": 23224,
    "Ġbal": 1129,
    "Ġkill": 4455,
    "Ġproceedings": 9910,
    "Ġclaims": 13377,
    "dles": 11483,
    "Ġsunk": 5752,
    "yth": 980,
    "Ġaimed": 20253,
    "itably": 10784,
    "tering": 3807,
    "Ġminds": 6304,
    "go": 2063,
    "concluded": 11244,
    "seemingly": 25363,
    "elt": 4115,
    "was": 1421,
    "Ġhush": 13215,
    "Ġincorporated": 25710,
    "ĠĠĠĠĠĠĠĠ": 711,
    "Ġswallowed": 7944,
    "Ġexcitement": 9384,
    "teenth": 11878,
    "Ġcondescended": 19959,
    "Ġsigmoid": 2462,
    "geese": 22371,
    "Ġinterconnected": 1338,
    "Ġdau": 21428,
    "Ġargu": 10936,
    "Ġrese": 2378,
    "Ġcitizens": 25440,
    "Ġworshippers": 25694,
    "Ġmishap": 20579,
    "ipl": 20920,
    "arer": 3968,
    "Ġ120": 16860,
    "Ġswiftness": 9930,
    "ient": 393,
    "esteem": 26009,
    "Ġgrows": 4985,
    "Ġexquisite": 12386,
    "Ġparr": 22123,
    "Ġbumping": 25281,
    "Ġcapture": 3380,
    "Ġdaring": 8121,
    "Ġgradients": 611,
    "painting": 17047,
    "claps": 23155,
    "Ġclay": 7019,
    "importance": 9992,
    "rant": 11519,
    "Ġhuzza": 12638,
    "retched": 3067,
    "Ġunfaltering": 24115,
    "poises": 11895,
    "distinguish": 19575,
    "Ġmechanical": 7937,
    "Ġrecomm": 4996,
    "Ġvacantly": 16817,
    "Ġnerves": 2624,
    "grandfather": 25012,
    "Ġhelplessness": 25074,
    "Ġshark": 5550,
    "Ġdeliberation": 19972,
    "Ġabutted": 22279,
    "tish": 17679,
    "Ġgradient": 450,
    "Ġfuss": 13908,
    "Ġproperly": 7945,
    "ibilities": 13013,
    "Ġsilk": 11966,
    "Ġfinal": 5400,
    "Ġstre": 2107,
    "Ġpleaded": 16303,
    "chased": 18044,
    "Ġbinnacle": 8119,
    "meantime": 9095,
    "range": 3489,
    "playing": 19660,
    "Ġ125": 24470,
    "Ġwednesday": 9087,
    "Ġouter": 6858,
    "Ġprom": 1530,
    "Ġfilters": 3927,
    "Ġchances": 9266,
    "Ġexpectantly": 23526,
    "call": 8726,
    "Ġbarque": 23793,
    "Ġunited": 6839,
    "Ġturning": 3322,
    "Ġlately": 6387,
    "Ġwindows": 4971,
    "Ġshipmate": 8932,
    "Ġbitt": 10798,
    "Ġscarcely": 4009,
    "algorithm": 3952,
    "aunted": 20772,
    "odecim": 9835,
    "Ġdelicately": 24128,
    "Ġwere": 558,
    "Ġadvertisement": 6940,
    "Ġabstra": 22275,
    "thrown": 8482,
    "Ħ": 231,
    "Ġres": 695,
    "monsters": 19173,
    "preserving": 25305,
    "anywhere": 14684,
    "family": 7323,
    "Ġfainted": 8796,
    "Ġdesirous": 8945,
    "unwittingly": 25802,
    "Ġstraps": 19312,
    "Ġlong": 795,
    "Ġexempt": 21832,
    "urpr": 2286,
    "ile": 522,
    "giv": 13725,
    "Ġdimension": 3237,
    "presume": 25671,
    "Ġgrinning": 9056,
    "Ġthreat": 5154,
    "Ġsuicide": 12794,
    "quid": 18149,
    "Ġhowl": 12860,
    "Ġed": 2241,
    "ĠĠĠĠĠĠĠĠĠĠĠĠĠĠĠĠ": 1219,
    "sul": 15425,
    "dutch": 17221,
    "Ġbetrayed": 9564,
    "Ġcontribute": 12866,
    "Ġimmensely": 13599,
    "ationally": 15710,
    "Ġdiary": 24738,
    "Ġtransmit": 10307,
    "happily": 14659,
    "wretchedness": 17255,
    "ileries": 18061,
    "flask": 12104,
    "°": 113,
    "Ġsnowy": 9021,
    "Ġunsophisticated": 25993,
    "..": 5783,
    "Ġcro": 4874,
    "Ġimpunity": 14219,
    "Ġvisitors": 7985,
    "Ġopening": 5045,
    "Ġshudder": 9053,
    "Ġener": 10898,
    "Ġseat": 4949,
    "Ġapparel": 20439,
    "Ġoverlook": 10963,
    "Ġcling": 11775,
    "Ġfeasts": 25370,
    "Ġdisregard": 22532,
    "remembered": 17354,
    "aspect": 10196,
    "Ġ1890": 23900,
    "whilst": 18372,
    "Ġlid": 6983,
    "Ġdick": 3492,
    "Ġinfinitely": 8966,
    "inj": 9154,
    "fishery": 10035,
    "yesterday": 10355,
    "Ġuttered": 7279,
    "Ġfalsehood": 10526,
    "osis": 18390,
    "Ġincorpor": 13169,
    "Ġbeards": 21755,
    "ke": 430,
    "shall": 4552,
    "Ġreeling": 18035,
    "Ġgrant": 11877,
    "Ġgoodge": 22826,
    "grin": 19107,
    "Ġpumping": 25644,
    "Ġtinge": 25090,
    "Ġspermacetti": 19051,
    "Ġregain": 22590,
    "Ġinnocently": 24032,
    "ople": 2317,
    "Ġcollected": 2608,
    "Ġ77": 24266,
    "Ġjoyously": 19350,
    "Ġatone": 15807,
    "Ġsickened": 16777,
    "calcul": 12992,
    "Ġhairy": 23868,
    "Ġcuriously": 13017,
    "Ġunequal": 14845,
    "sulphur": 25910,
    "Ġlanc": 19767,
    "Ġfurthermore": 1166,
    "Ġinclination": 6625,
    "delightful": 12201,
    "pronounced": 12350,
    "Ġunimaginable": 15250,
    "Ġfiery": 6870,
    "Ġjur": 12839,
    "bucket": 17496,
    "Ġliberties": 19670,
    "Ġjuggl": 20441,
    "Ġmadman": 13155,
    "Ġtobacc": 7853,
    "Ġexecutioner": 12276,
    "Ġcollect": 7236,
    "Ġpatchwork": 24144,
    ":--": 5784,
    "Ġcritically": 23446,
    "Ġforms": 6397,
    "Ġlouis": 8357,
    "prejud": 11800,
    "re": 266,
    "sooner": 14781,
    "eskye": 21487,
    "moments": 19415,
    "Ġcrescent": 16142,
    "Ġemploys": 19434,
    "fates": 20860,
    "Ġpreparations": 12314,
    "Ĵ": 245,
    "Ġdemeanour": 17340,
    "Ġsturgeon": 20595,
    "Ġtrust": 4080,
    "ps": 4576,
    "dishonourable": 26367,
    "Ġprop": 1682,
    "Ġscrolled": 22288,
    "Ġdeliverer": 11954,
    "Ġserpentine": 11362,
    "Ġdifficulty": 5770,
    "phr": 18694,
    "Ġwra": 5906,
    "H": 44,
    "member": 20977,
    "Ġcategorization": 12141,
    "Ġameric": 3853,
    "í": 174,
    "Ġ71": 24262,
    "vand": 21111,
    "Ġdistraction": 22510,
    "bolts": 11422,
    "Ġoutlines": 15962,
    "Ġunbecoming": 22068,
    "Ġsteadfast": 8682,
    "Ġarthur": 7195,
    "iber": 6506,
    "cell": 10689,
    "groom": 8743,
    "Ġdreamt": 23942,
    "Ġinjustice": 9193,
    "Ġcathedral": 17416,
    "Ġrecovered": 5481,
    "offices": 19061,
    "etime": 12664,
    "Ġhonor": 5664,
    "Ġnoses": 18374,
    "proportion": 16187,
    "ously": 2489,
    "steps": 9408,
    "laborers": 23919,
    "Ġexecution": 6926,
    "emason": 18188,
    "Ġimpossible": 3539,
    "Ġhorizontal": 7782,
    "Ġuncertain": 4069,
    "augh": 1783,
    "voyage": 7785,
    "Ġmainmast": 9782,
    "been": 3339,
    "Ġdisplays": 19859,
    "Ġshaking": 6552,
    "dually": 3278,
    "Ġyours": 4124,
    "lighted": 23757,
    "Ġsoot": 14131,
    "Ġplainly": 4381,
    "jected": 22717,
    "û": 188,
    "Ġcheering": 11135,
    "balance": 12011,
    "Ġceiling": 7997,
    "Ġgrated": 22807,
    "Ġanim": 2112,
    "ually": 2769,
    "iem": 20919,
    "Ġtrans": 634,
    "Ġcastle": 14721,
    "Ġdisgusting": 19896,
    "Ġlightnings": 16357,
    "Ġmedical": 9473,
    "inquire": 16934,
    "Ġchanges": 2285,
    "accompanied": 12426,
    "otle": 21801,
    "Ġreturns": 11930,
    "commanders": 16991,
    "Ġinsupportable": 13935,
    "Ġray": 18642,
    "âĢĺ": 938,
    "Ġchange": 1994,
    "Ġconsidering": 4617,
    "Ġ52": 24317,
    "Ġsubstance": 5510,
    "Ġuncommonly": 7759,
    "Ġpel": 17904,
    "female": 20669,
    "destro": 13314,
    "Ġgover": 2461,
    "Ġpenalties": 10414,
    "Ġpoltro": 23621,
    "Ġgot": 2279,
    "Ġcaravan": 26292,
    "rus": 5930,
    "Ġconcealed": 7494,
    "Ġdart": 4587,
    "Ġunexplored": 26520,
    "expound": 23662,
    "sy": 2659,
    "daylight": 19055,
    "imprisonment": 23765,
    "94": 4804,
    "returns": 23141,
    "Ġdefence": 11069,
    "ination": 2916,
    "Ġtransported": 11281,
    "Ġlightning": 5750,
    "lo": 681,
    "Ġissu": 6254,
    "Ġilluminated": 20178,
    "Ġevidently": 6759,
    "Ġhues": 21492,
    "Ġmemorable": 16432,
    "Ġelderly": 13498,
    "Ġdrink": 4788,
    "isome": 17850,
    "chorus": 19814,
    "Ġad": 446,
    "aunt": 8370,
    "uneven": 23687,
    "Ġhinges": 15216,
    "endeavour": 17032,
    "Ġrob": 1233,
    "Ġclamorous": 24910,
    "ippers": 17578,
    "Ġclose": 3036,
    "Ġsword": 6733,
    "Ġadjusts": 8983,
    "Ġsyn": 15918,
    "Ġsurmount": 20004,
    "Ġribbed": 16806,
    "Ġreddening": 25971,
    "_:": 17481,
    "af": 2372,
    "chronicle": 26482,
    "rodu": 1819,
    "talking": 10010,
    "U": 57,
    "pray": 5429,
    "future": 13720,
    "Ġmaterially": 12196,
    "Ġknob": 24407,
    "thank": 4950,
    "Ġlives": 4827,
    "Ġtribute": 15479,
    "Ġxl": 11994,
    "tot": 10730,
    "unable": 14062,
    "Ġcan": 467,
    "forever": 22523,
    "itig": 1332,
    "topp": 22570,
    "Ð": 145,
    "Ġunattended": 15848,
    "Ġdismantled": 20219,
    "Ġwindpipe": 23108,
    "Ġgleamed": 17078,
    "ruct": 689,
    "Ġmasterless": 23999,
    "Ġostentatiously": 20472,
    "Ġmaddening": 17245,
    "anth": 13890,
    "charlotte": 6473,
    "youn": 5690,
    "Ġliar": 22412,
    "Ġdividing": 12116,
    "Ġabiding": 22274,
    "awake": 14455,
    "Ġbrazier": 26322,
    "reed": 6373,
    "Ġliked": 5265,
    "sign": 8388,
    "Ġlevelled": 11286,
    "uish": 5431,
    "84": 15305,
    "Ġdisinclined": 22533,
    "string": 15691,
    "Ġintruding": 21995,
    "Ġunconcerned": 20513,
    "quarrel": 20018,
    "rock": 15646,
    "itable": 5437,
    "Ġpresto": 22234,
    "acceptable": 25184,
    "Ġvancouver": 26567,
    "Ġvisible": 4778,
    "large": 6627,
    "Ġhook": 6453,
    "Ġinspecting": 24614,
    "Ġrescue": 13347,
    "Ġdeliriously": 23230,
    "ologically": 22894,
    "Ġdefection": 22945,
    "noise": 14331,
    "Ġunexpl": 22043,
    "quired": 21859,
    "skelter": 24490,
    "Ġsevent": 18201,
    "dr": 6222,
    "sh": 641,
    "Ġtranquill": 6632,
    "chose": 18043,
    "Ġpaddled": 20204,
    "earnest": 12403,
    "Ġbalm": 22906,
    "Ġflaw": 23015,
    "calling": 12454,
    "Ġpurposes": 11170,
    "Ġdried": 7366,
    "Ġcompromised": 22576,
    "Ġfac": 6381,
    "Ġpowdered": 24240,
    "throw": 14101,
    "Ġspam": 7630,
    "cul": 1897,
    "Ġstiff": 6992,
    "cture": 15670,
    "Ġpattern": 1329,
    "Ġrushing": 7402,
    "handkerchief": 14620,
    "_.,": 14563,
    "Ġmoodily": 19837,
    "Ġamaz": 5385,
    "Ġmultimodal": 18749,
    "ckles": 22093,
    "Ġemper": 9864,
    "ython": 1029,
    "Ġinvol": 1058,
    "Ġcircumn": 11988,
    "Ġterm": 2266,
    "Ġ101": 24409,
    "Ġcomplete": 4382,
    "Ġlory": 12657,
    "Ġsurveying": 25326,
    "derer": 4602,
    "sharks": 14241,
    "ommod": 13980,
    "fulness": 4309,
    "sympathy": 20545,
    "Ġholding": 4979,
    "Ġfrigid": 17355,
    "Ġtho": 21517,
    "Ġresearches": 13152,
    "Ġcontinu": 1164,
    "Ġshadow": 5596,
    "Ġdisguises": 25058,
    "theories": 18081,
    "Ġhandsomer": 20336,
    "Ġsacrilege": 26230,
    "Ġwaistcoat": 12275,
    "Ġbend": 9173,
    "Ġadjacent": 20713,
    "Ġunheeded": 18262,
    "prick": 19346,
    "apple": 22843,
    "chess": 16576,
    "pass": 4289,
    "Ġlesson": 7275,
    "ateur": 22012,
    "Ġemployer": 19435,
    "ollen": 11300,
    "Ġmild": 4146,
    "ĠĠĠĠĠĠĠĠĠĠĠĠĠĠĠĠĠĠĠĠĠĠĠĠĠĠĠĠĠĠ": 24443,
    "Ġqualifications": 24676,
    "Ġ133": 24782,
    "Ġunchanged": 22035,
    "semble": 1527,
    "Ġplanisp": 24061,
    "har": 20892,
    "orient": 2879,
    "impressed": 12696,
    "spin": 22738,
    "pit": 3983,
    "progra": 9398,
    "Ġroarings": 25302,
    "Ġunremitting": 26219,
    "Ġnoticed": 5549,
    "Ġcharges": 23271,
    "Ġassurance": 7774,
    "ability": 718,
    "'s": 2469,
    "izzy": 3095,
    "Ġtyrant": 24766,
    "Ġsold": 6003,
    "sort": 6798,
    "pling": 8478,
    "Ġmilitary": 11260,
    "Ġanswerable": 23472,
    "Ġfiner": 13058,
    "useless": 14596,
    "Ē": 211,
    "Ġprevention": 16096,
    "prove": 11149,
    "Ã¦us": 14820,
    "Ġsab": 10764,
    "beside": 19879,
    "sticking": 21663,
    "Ġbackwards": 12932,
    "Ġseldom": 4631,
    "Ġliterary": 25166,
    "Ġimpotent": 18447,
    "local": 22514,
    "Ġrich": 2995,
    "Ġunanswerable": 26523,
    "hearth": 15503,
    "Ġsticking": 13431,
    "Ġporter": 15616,
    "nelson": 25621,
    "lift": 15388,
    "food": 12468,
    "Ġomitted": 12569,
    "remaining": 20223,
    "Ġapproaching": 6284,
    "performances": 26007,
    "taining": 7205,
    "fic": 20854,
    "Ġwits": 15536,
    "Ġlone": 11616,
    "Ġunho": 18246,
    "oes": 4435,
    "Ġoverflowing": 17240,
    "Ġvictims": 19807,
    "ive": 426,
    "Ġlagged": 21561,
    "knew": 9129,
    "riving": 21930,
    "Ġshipmates": 6721,
    "Ġprejud": 6850,
    "vel": 2382,
    "Ġdeaths": 14539,
    "Ġacknowledges": 24689,
    "Ġexistence": 4708,
    "cig": 17506,
    "Ġdisinclination": 22540,
    "Ġcleared": 6075,
    "victim": 25531,
    "Ġbandaged": 16844,
    "Ġthre": 2058,
    "embraced": 25805,
    "collected": 13217,
    "inated": 6804,
    "afforded": 25866,
    "Ġheaps": 11645,
    "Ġtrophy": 20010,
    "Ġstudied": 11119,
    "Ġinc": 702,
    "watery": 19829,
    "Ġdeft": 21840,
    "Ġchamp": 18382,
    "Ġmanoir": 22335,
    "Ġdevices": 2943,
    "Ġbreathes": 13250,
    "Ġpatiently": 19920,
    "Ġdegraded": 19229,
    "forbidding": 25837,
    "nant": 17611,
    "Ġbeliefs": 24583,
    "Ġtwig": 11854,
    "Ġportion": 7491,
    "ases": 1525,
    "Ġtwelvemonth": 12182,
    "scand": 18857,
    "Ġcandles": 9911,
    "Ġhelen": 16658,
    "promised": 12256,
    "Ġdistrust": 8205,
    "Ġappo": 8500,
    "Ġdauntless": 26338,
    "Ġfolio": 11922,
    "ulgent": 18152,
    "chase": 11648,
    "Ġdeeds": 15764,
    "Ġvill": 3877,
    "paralleled": 14520,
    "tranquillity": 20549,
    "Ġhelm": 5276,
    "stri": 6250,
    "accursed": 20543,
    "Ġsinew": 25432,
    "Ġbodies": 8032,
    "fedallah": 25523,
    "Ġpanted": 21474,
    "Ġsombre": 18861,
    "Ġhurst": 5582,
    "prairies": 20569,
    "inter": 2950,
    "Ġpartly": 6714,
    "Ġrearing": 12682,
    "Ġilliter": 23470,
    "wood": 5898,
    "excellent": 8044,
    "Ġcarpenters": 16754,
    "receive": 12547,
    "Ġcomplexion": 8211,
    "fight": 17540,
    "Ġlengths": 19208,
    "Ġmiller": 19885,
    "Ġstrongly": 5657,
    "Ġensl": 19276,
    "dish": 12457,
    "achines": 1724,
    "Ġchis": 11754,
    "inquiry": 15146,
    "gratitude": 16818,
    "Ġhandful": 9785,
    "otes": 15749,
    "Ġmacro": 25940,
    "afterwards": 7483,
    "Ġbodiless": 24229,
    "Ġengagements": 9981,
    "Ġlatter": 3989,
    "occup": 7752,
    "Ġramadans": 25122,
    "Ġalong": 1979,
    "Ġsitt": 21220,
    "Ġupward": 9724,
    "Ġweaving": 12745,
    "Ġextracted": 16317,
    "Ġlounging": 10025,
    "Ġ51": 24316,
    "cro": 13700,
    "carry": 19529,
    "Ġoverpow": 14210,
    "ority": 8419,
    "sis": 1914,
    "Ġiter": 2954,
    "Ġanvil": 11600,
    "upright": 23021,
    "Ġqu": 607,
    "Ġspears": 12929,
    "wedged": 24559,
    "Ġexped": 7650,
    "Ġtyphoons": 20237,
    "irting": 11689,
    "Ġopens": 23628,
    "Ġwake": 4750,
    "thence": 23403,
    "Ġtweezers": 26558,
    "Đ": 209,
    "tossing": 18582,
    "battle": 12446,
    "robust": 19731,
    "Ġsweet": 3460,
    "Ġreserves": 19673,
    "Ġreceiving": 4883,
    "roused": 16655,
    "Ġintrospective": 20603,
    "dis": 2250,
    "Ġdrinks": 24282,
    "departure": 15238,
    "Ġoutskirts": 17460,
    "saved": 15435,
    "faced": 8080,
    "ropol": 10955,
    "felt": 5889,
    "Ġancest": 12619,
    "Ġmurderous": 8316,
    "Ġpreserving": 19799,
    "Ġopened": 3507,
    "Ġsocieties": 20185,
    "cry": 12450,
    "Ġwinking": 17795,
    "Ġslightest": 6092,
    "hour": 7339,
    "reigned": 21245,
    "Ġboasting": 19939,
    "Ġconsiderations": 9413,
    "securer": 25603,
    "sicilian": 21066,
    "feit": 16043,
    "Ġhatchways": 24990,
    "Ġbenevolence": 9530,
    "resembled": 21249,
    "Ġ1000": 3116,
    "Ġrumours": 24599,
    "mble": 1404,
    "lightning": 16555,
    "drab": 23902,
    "urs": 6989,
    "Ġtrains": 10949,
    "Ġscores": 2714,
    "Ġchamois": 16802,
    "Ġexcel": 3566,
    "Ġbecomes": 6396,
    "jam": 15375,
    "Ġdies": 11596,
    "Ġmerits": 13200,
    "tribute": 21091,
    "Ġslay": 16310,
    "Ġgain": 4829,
    "Ġarmies": 16495,
    "Ġtottenham": 24145,
    "cherish": 24552,
    "momentum": 4991,
    "springs": 24912,
    "abst": 21792,
    "education": 20304,
    "Ğ": 223,
    "alth": 3251,
    "Ġrose": 3438,
    "Ġobst": 6285,
    "itself": 7834,
    "Ġelevate": 24502,
    "vib": 21118,
    "Ġhaws": 21955,
    "Ġkent": 6692,
    "burgh": 6773,
    "Ġgirth": 13139,
    "jug": 17582,
    "Ġtrees": 4202,
    "Ġindividual": 5744,
    "tail": 8765,
    "raved": 18015,
    "Ġem": 1925,
    "matical": 13132,
    "Ġdescribes": 3121,
    "Ġtrance": 12846,
    "elfare": 11781,
    "Ġcatholic": 20684,
    "observing": 25495,
    "Ġjourneying": 25566,
    "Ġ67": 19663,
    "alo": 7587,
    "Ġdeuteronomy": 15765,
    "Ġresulting": 24201,
    "Ġconfirming": 25322,
    "thesize": 24907,
    "Ġtorture": 9067,
    "Ġleadenhall": 16631,
    "Ġplied": 22603,
    "Ġhedge": 8364,
    "Ġtusked": 25427,
    "Ġfancy": 3745,
    "tar": 8098,
    "Ġshudderings": 25201,
    "eight": 9594,
    "Ġwitnesses": 9489,
    "concern": 6100,
    "Ġharris": 13930,
    "Ġwrapped": 8342,
    "Ġbake": 21385,
    "ulate": 5233,
    "Ġaglow": 22518,
    "Ġcoffins": 13254,
    "influ": 9544,
    "porary": 14553,
    "penn": 18829,
    "Ġuntouched": 16469,
    "presumption": 20445,
    "gies": 13729,
    "Ġprobably": 4313,
    "Ġcond": 3874,
    "gracechurch": 24582,
    "continuing": 24479,
    "looking": 4033,
    "adays": 14016,
    "Ġcombinations": 22872,
    "ath": 862,
    "Ġdiab": 10614,
    "Ġbrains": 2627,
    "Ġjealously": 24127,
    "Ġmeaning": 1414,
    "Ġnegatived": 23051,
    "Ġdespondence": 25870,
    "xim": 1093,
    "pth": 2379,
    "Ġindomitableness": 26573,
    "nostr": 22726,
    "Ġcoats": 16082,
    "Ġobliter": 14325,
    "Ġloggerhead": 13661,
    "ios": 2223,
    "Ġsane": 21224,
    "Ġelab": 22643,
    "Ġrevealing": 3924,
    "ding": 3026,
    "Ġstyle": 6945,
    "fier": 9596,
    "Ġputs": 19034,
    "Ġopium": 8998,
    "Ġgrowing": 6751,
    "scence": 14422,
    "Ġberries": 13411,
    "Ģ": 227,
    "Ġpledged": 20690,
    "Ġwides": 17790,
    "accomplishment": 20226,
    "iverer": 11720,
    "Ġlayer": 1011,
    "apside": 22963,
    "accuracy": 9882,
    "leep": 4636,
    "Ġrug": 16163,
    "insisted": 23069,
    "tures": 21072,
    "vap": 13806,
    "ensibility": 22552,
    "ocean": 12405,
    "Ġhumorous": 10363,
    "Ġencoder": 3635,
    "Ġprofund": 13157,
    "Ġlurked": 11293,
    "inative": 15487,
    "Ġreel": 9216,
    "knife": 6941,
    "ladyship": 14832,
    "deck": 4503,
    "Ġpermitting": 22403,
    "row": 1067,
    "Ġmish": 15542,
    "ective": 18177,
    "Ġcongenial": 12415,
    "Ġpervading": 20616,
    "Ġshaped": 15839,
    "Ġgabriel": 7595,
    "Ġfilled": 4395,
    "Ġrampart": 20321,
    "drunk": 24660,
    "exercise": 17462,
    "side": 2300,
    "Ġprize": 11952,
    "alions": 21504,
    "Ġgreece": 17070,
    "uracy": 1045,
    "Ġprevent": 757,
    "listened": 15046,
    "ipotent": 10962,
    "Ġrugged": 18722,
    "ool": 17620,
    "Ġeel": 18004,
    "Ġceler": 15556,
    "strange": 6086,
    "Ġru": 947,
    "ifying": 5252,
    "Ġpreceding": 7527,
    "Ġshad": 3849,
    "Ġnoble": 3435,
    "traced": 19648,
    "several": 5544,
    "Ġpa": 2991,
    "estations": 22232,
    "Ġedge": 5189,
    "ctive": 11626,
    "Ġfed": 5530,
    "Ġrepenting": 25323,
    "Ġante": 17898,
    "udg": 22769,
    "V": 58,
    "convers": 6568,
    "Ġthoughtfulness": 18774,
    "Ġsepar": 3999,
    "renewed": 19707,
    "vessels": 10628,
    "Ġwhilst": 9221,
    "Ġsensible": 4976,
    "vices": 21119,
    "piteous": 21036,
    "Ġprominence": 18956,
    "Ġtranslates": 12055,
    "Ġecl": 18008,
    "Ġweariness": 19797,
    "ckinridge": 11723,
    "origin": 7581,
    "ise": 707,
    "Ġbarren": 11207,
    "Ġunique": 12783,
    "Ġfolks": 14429,
    "Ġsoles": 22080,
    "Ġcumbrous": 26434,
    "bourne": 19104,
    "sence": 3302,
    "Ġsenseless": 12083,
    "Ġreside": 22543,
    "Ġtunnels": 24621,
    "Ç": 136,
    "f": 74,
    "Ġresistance": 13533,
    "Ġcaptured": 7244,
    "Ġtusks": 17256,
    "pun": 9620,
    "Ġconsists": 11982,
    "Ġrealities": 18981,
    "Ġarrogance": 26233,
    "Ġswung": 6449,
    "Ġwhite": 1540,
    "onent": 21251,
    "Ġpillow": 10041,
    "third": 8168,
    "sudden": 5316,
    "Ġearnest": 3929,
    "Ġmanhood": 22330,
    "Ġlect": 9223,
    "hammad": 23266,
    "accepted": 20139,
    "Ġended": 7950,
    "convinced": 10625,
    "Ġdetail": 636,
    "Ġcalled": 1972,
    "Ġdispersed": 16599,
    "Ġjac": 1895,
    "Ġmoderation": 12824,
    "Ġadvantageously": 19548,
    "Ġwarmer": 19188,
    "shooting": 16967,
    "verdict": 21733,
    "ister": 1294,
    "Ġheadsman": 13279,
    "engagement": 14461,
    "ieth": 10706,
    "Ġcreated": 2706,
    "Ġexper": 1326,
    "Ġhospital": 15042,
    "Ġbankers": 24304,
    "bles": 7018,
    "Ġtwelve": 4963,
    "Ġpursuits": 12081,
    "Ġpersisting": 18913,
    "Ġstranded": 9778,
    "Ġblanche": 18821,
    "imet": 21709,
    "those": 4498,
    "Ġawaiting": 11392,
    "Ġsucc": 12791,
    "bly": 6111,
    "post": 6062,
    "Ġturtle": 4203,
    "Ġwet": 6518,
    "Ġsleet": 8978,
    "vid": 914,
    "Ġdepartment": 24244,
    "Ġsensit": 2948,
    "Ġring": 4453,
    "Ġarmada": 23582,
    "itation": 1780,
    "feature": 3553,
    "attempt": 9363,
    "Ġnorthumbria": 24174,
    "tempted": 26405,
    "Ġreport": 6192,
    "Ġchecking": 23289,
    "Ġsub": 952,
    "ignorant": 13567,
    "avoid": 9308,
    "ellent": 3760,
    "Ġlifting": 10199,
    "oked": 4307,
    "Ġbleeding": 14883,
    "aggra": 21910,
    "ppo": 18178,
    "Ġhence": 4989,
    "Ġcuriosity": 2430,
    "stirred": 20428,
    "Ġrang": 9248,
    "Ġrecognition": 2900,
    "enced": 4295,
    "peculiar": 6885,
    "Ġtheories": 13852,
    "Ġcrouched": 23442,
    "othe": 2611,
    "Ġmarched": 18873,
    "cart": 10692,
    "Ġbarbara": 24815,
    "Ġclosest": 16765,
    "Ġlandowner": 23384,
    "Ġthereby": 7643,
    "affold": 16565,
    "robber": 21540,
    "Ġarrived": 3746,
    "Ġopposed": 11190,
    "unhes": 21879,
    "Ġfierceness": 26267,
    "han": 12477,
    "uning": 1311,
    "investigations": 25534,
    "ruction": 4356,
    "arking": 16130,
    "Ġcaut": 6521,
    "Ġbreaking": 6311,
    "Ġformal": 2944,
    "fortunately": 9453,
    "Ġcomprise": 18585,
    "Ġstand": 1737,
    "Ġterritories": 23849,
    "finger": 10096,
    "avings": 12027,
    "Ġcarelessly": 11122,
    "Ġcaught": 3730,
    "Ġgreenland": 5761,
    "Ġcanaan": 22167,
    "Ġtub": 7146,
    "Ġdoubtless": 6196,
    "mission": 5970,
    "Ġhonour": 3922,
    "eag": 20844,
    "Ġmasterly": 23998,
    "westward": 25425,
    "conce": 8512,
    "easily": 17536,
    "Ġsticks": 14934,
    "Ġfamily": 1965,
    "Ġ45": 14774,
    "Ġwaned": 17793,
    "Ġunseasonable": 26522,
    "Ġfears": 5729,
    "ĠĠĠĠĠĠĠĠĠĠĠĠĠĠĠĠĠĠĠĠĠĠĠĠĠĠĠĠĠĠĠĠĠĠĠĠĠĠĠ": 19261,
    "Ġclubb": 22352,
    "Ġoccas": 2702,
    "Ġrock": 5311,
    "Ġjustly": 11908,
    "Ġdismally": 20217,
    "Ġirregularity": 25325,
    "Ġrasc": 21981,
    "divers": 15346,
    "Ġresting": 7962,
    "Ġsens": 1853,
    "tomb": 21096,
    "Ġbrazen": 23843,
    "Ġsubjected": 23574,
    ").": 1272,
    "Ġwolfish": 25936,
    "Ġflit": 23011,
    "dependence": 17170,
    "uttural": 21592,
    "Ġshoulder": 5849,
    "spanish": 14335,
    "charmed": 21699,
    "ercely": 12555,
    "Ġdissembling": 26256,
    "Ġsubstituting": 26328,
    "ague": 3906,
    "Ġamounts": 6705,
    "Ġdegenerated": 20509,
    "Ġfrantic": 7957,
    "Ġspin": 7629,
    "Ġtemporarily": 11169,
    "read": 3270,
    "etimes": 1988,
    "Ġcrosswise": 18887,
    "Ġdetermines": 2363,
    "Ġspade": 9262,
    "Ġsuspicions": 9482,
    "church": 8140,
    "Ġpunch": 9958,
    "Ġvalid": 1697,
    "redible": 15809,
    "Ġanchor": 7367,
    "Ġtravel": 5953,
    "Ġdistrusted": 13545,
    "iancy": 13014,
    "Ġvertu": 23893,
    "Ġstrives": 23697,
    "Ġinoffensive": 21501,
    "Ġbestow": 6455,
    "´": 117,
    "Ġattribute": 16105,
    "watching": 16932,
    "Ġforg": 3787,
    "Ġwhist": 6022,
    "osy": 11762,
    "slack": 16896,
    "Ġugly": 8719,
    "using": 5468,
    "Ġconf": 1820,
    "general": 7488,
    "Ġapart": 4747,
    "Ġemployments": 12107,
    "Ġineffectual": 17387,
    "Ġswiss": 18883,
    "respect": 6374,
    "Ġunimportant": 22034,
    "unworthy": 18164,
    "Ġsuspicious": 9483,
    "leman": 21371,
    "known": 3567,
    "Ġfashionable": 19547,
    "ograph": 4798,
    "ony": 3029,
    "Ġdigest": 24648,
    "Ġjames": 6419,
    "Ġvalue": 2084,
    "Ġ93": 24592,
    "na": 13763,
    "Ġrambled": 20171,
    "Ġimmured": 24076,
    "Ġundisturbed": 19522,
    "Ġdemonstrate": 24997,
    "philosophers": 25253,
    "voice": 7816,
    "Ġphotograph": 6303,
    "ield": 2405,
    "introduce": 25187,
    "yder": 10141,
    "Ġcapsizing": 20092,
    "Ġgravel": 14105,
    "penet": 11072,
    "Ġbob": 22639,
    "clifford": 23159,
    "Ġbull": 7839,
    "Ġmagnitudes": 3822,
    "ail": 565,
    "Ġtransient": 18481,
    "Ġmiser": 18702,
    "bbing": 6324,
    "igated": 15712,
    "Ġconnivance": 25226,
    "Ġreturn": 1711,
    "Ġdeposited": 25485,
    "Ġcivilities": 14851,
    "Ġrest": 1781,
    "Ġsealed": 15820,
    "Ġ110": 24435,
    "Ġexpensive": 12922,
    "uns": 21874,
    "Ġencouragement": 13047,
    "Ġapoplexy": 25266,
    "Ġhearken": 21688,
    "Ġhark": 8429,
    "iac": 6226,
    "Ġ130": 24780,
    "Ġkilling": 13337,
    "sings": 4250,
    "wild": 8771,
    "subjects": 19878,
    "fes": 20853,
    "insufficient": 15493,
    "Ġprofuse": 23568,
    "Ġclipping": 2439,
    "Ġreveren": 13201,
    "Ġide": 2121,
    "impl": 21710,
    "Ġmankind": 6699,
    "Ġxxv": 19720,
    "Ġcrew": 2494,
    "Ġtoilet": 13940,
    "resent": 10771,
    "Ġdismissed": 12897,
    "Ġspokes": 18314,
    "Ġblunder": 18820,
    "Ġstir": 5826,
    "Ġvalidation": 2353,
    "cop": 20803,
    "rule": 15901,
    "account": 5330,
    "with": 1296,
    "Ġbade": 9174,
    "entary": 21570,
    "thought": 3848,
    "rote": 4594,
    "ropri": 2178,
    "england": 18931,
    "Ġquadruped": 20618,
    "viii": 12025,
    "prison": 14665,
    "Ġfourth": 7706,
    "Ġhappening": 14386,
    "Ġmortification": 12099,
    "Ġawaken": 23588,
    "e": 73,
    "Ġpersisted": 13054,
    "Ġemploy": 3615,
    "Ġmaintained": 12939,
    "actions": 8910,
    "Ġpearl": 20380,
    "humiliation": 24025,
    "reshold": 21242,
    "Ġintrusted": 21996,
    "Ġpicturesqueness": 24480,
    "ceive": 3063,
    "Ġbrushed": 15576,
    "smiled": 16616,
    "Ġtricks": 13488,
    "Ġphysiology": 25333,
    "lady": 4434,
    "Ġtemporary": 7980,
    "Ġoverthrow": 18433,
    "Ġinconstant": 21499,
    "kne": 20937,
    "fig": 8738,
    "kitty": 10108,
    "splinter": 25211,
    "mrs": 3744,
    "night": 2166,
    "Ġtrip": 16790,
    "Ġvolition": 14801,
    "Ġlatent": 19658,
    "Ġinexpressible": 17336,
    "Ġtri": 4814,
    "Ġprep": 4191,
    "Ġperverseness": 13658,
    "Ġstrokes": 16771,
    "Ġclearness": 23185,
    "geneva": 13733,
    "Ġvinc": 14088,
    "plete": 10921,
    "Ġach": 2617,
    "glings": 23854,
    "Ġallowance": 14393,
    "Ġneskyeuna": 26461,
    "Ġkneeling": 12147,
    "Ġpreservation": 24631,
    "kindred": 24053,
    "Ġprofusion": 23570,
    "Ġproceeds": 12082,
    "article": 22395,
    "Ġtheory": 5799,
    "Ġbeads": 18086,
    "Ġzig": 18745,
    "ruff": 15902,
    "Ġentities": 11868,
    "trade": 19647,
    "Ġoppose": 16522,
    "----âĢĿ": 13311,
    "persu": 8028,
    "Ġclaws": 15971,
    "itional": 22472,
    "_--": 20764,
    "told": 7811,
    "Ġanywhere": 8518,
    "Ġstartled": 7083,
    "muttered": 13762,
    "Ġcode": 1722,
    "Ġ70": 11278,
    "Ġswept": 7977,
    "Ë": 140,
    "Ġgo": 613,
    "pleasure": 5978,
    "duct": 3501,
    "Ġweeps": 24950,
    "Ġoutriders": 26545,
    "Ġcircumstances": 3925,
    "shadow": 20315,
    "rarely": 21637,
    "tort": 17677,
    "dw": 3328,
    "Ġhousemaid": 14468,
    "Ġhell": 5019,
    "ep": 441,
    "Ġmatlock": 18804,
    "conject": 8883,
    "chie": 21693,
    "oak": 21005,
    "Ġsudden": 1999,
    "Ġhereabouts": 12983,
    "urity": 8143,
    "Ġimpressions": 9556,
    "Ġgrooves": 16743,
    "Ġdigress": 24649,
    "Ġpropontis": 17468,
    "slightest": 25417,
    "Ġfreshly": 23991,
    "Ġfatt": 15584,
    "Ġnicely": 8712,
    "Ġembattled": 26290,
    "Ġwhereon": 16106,
    "Ġoblivion": 26032,
    "visible": 10536,
    "Ġdoxology": 22248,
    "Ġeurope": 8062,
    "delighted": 10565,
    "itz": 6006,
    "attered": 4019,
    "ertips": 23641,
    "Ġdropout": 1559,
    "Ġherring": 14129,
    "Ġnibbling": 17388,
    "chance": 6826,
    "Ġoverlooking": 22365,
    "disciple": 16780,
    "Ġconjure": 17126,
    "vers": 1325,
    "rary": 4577,
    "Ġboomer": 20170,
    "Ġalmost": 1658,
    "Ġlanguage": 646,
    "Ġtempered": 12927,
    "Ġmunro": 25631,
    "lives": 12490,
    "cheer": 9440,
    "Ġost": 9652,
    "spe": 3558,
    "Ġporthole": 24399,
    "separation": 25227,
    "Ġmainland": 22650,
    "Ġsteward": 6585,
    "Ġascendency": 20235,
    "Ġindustry": 18839,
    "aces": 2068,
    "Ġgrain": 15836,
    "Ġdecreasing": 2442,
    "contrasted": 17309,
    "esteemed": 26010,
    "Ġtwin": 12933,
    "Ġunche": 23432,
    "warnings": 20354,
    "Ġcomputer": 1184,
    "Ġtok": 1246,
    "giving": 8742,
    "Ġunfold": 8022,
    "Ġanticip": 7506,
    "occasion": 7753,
    "Ġsuits": 22092,
    "Ġsavages": 9915,
    "understand": 1192,
    "Ġadhering": 14143,
    "politeness": 16908,
    "pure": 17628,
    "Ġtranqu": 4607,
    "Ġevap": 19626,
    "rank": 21044,
    "Ġsultanism": 25889,
    "rev": 17758,
    "Ġqual": 6275,
    "Ġprofundity": 20455,
    "Ġendeavouring": 8035,
    "Ġproduct": 3530,
    "Ġconquer": 14030,
    "Ġimpelling": 22389,
    "Ġhorse": 4726,
    "Ġmending": 17806,
    "acquainted": 7312,
    "Ġhooks": 14971,
    "respective": 19848,
    "dripping": 16907,
    "christ": 10213,
    "gazed": 15365,
    "Ġineff": 12639,
    "offensive": 16396,
    "yourself": 6743,
    "Ġconcentric": 20078,
    "Ġsupplied": 8946,
    "ts": 962,
    "Ġsemantic": 1958,
    "Ġscientific": 6856,
    "arers": 12134,
    "Ġtags": 20574,
    "Ġnarrowed": 24355,
    "Ġpatagonian": 20538,
    "gener": 3125,
    "Ġtoday": 12648,
    "Ġandrew": 21510,
    "Ġcredit": 4820,
    "Ġdet": 509,
    "admiration": 11389,
    "Ġsleeps": 10448,
    "Ġhem": 8447,
    "Ġreligions": 20111,
    "Ġbid": 6132,
    "Ġanom": 12616,
    "Ġphysiogn": 12392,
    "husband": 8042,
    "speed": 19412,
    "esu": 17921,
    "Ġnarration": 13507,
    "Ġdistinction": 8889,
    "highest": 20411,
    "that": 850,
    "mag": 6508,
    "whether": 5320,
    "barbar": 20241,
    "agne": 21909,
    "Ġarguments": 8037,
    "Ġagent": 6278,
    "haz": 17566,
    "Ġsurpassing": 20471,
    "Ġbeast": 7179,
    "Ġdecisions": 6703,
    "Ġmistake": 6204,
    "fiery": 13585,
    "Ġlethar": 21735,
    "Ġjig": 15956,
    "Ġgnashed": 20136,
    "pump": 21019,
    "dear": 6556,
    "Ġcynicism": 25772,
    "Ġconvivial": 16551,
    "places": 7879,
    "lanter": 15391,
    "Ġsplinters": 15106,
    "drifting": 19827,
    "pipe": 8700,
    "Ġleaf": 15722,
    "Ġgroan": 13329,
    "Ġerected": 12238,
    "sent": 760,
    "Ġdisturbed": 8675,
    "noted": 22757,
    "prosper": 19102,
    "Ġover": 557,
    "ided": 2785,
    "Ġdevoutly": 25834,
    "Ġanimated": 7701,
    "heavily": 24534,
    "Ġlove": 2053,
    "Ġfirmly": 8014,
    "Ġsample": 3177,
    "Ġlull": 15656,
    "length": 7135,
    "earth": 6502,
    "Ġlamentations": 17077,
    "Ġdutch": 6328,
    "Ġrejoice": 10211,
    "preser": 9763,
    "Ġride": 12763,
    "belais": 24042,
    "pidation": 18897,
    "Ġcorpor": 23041,
    "Ġcalculated": 4477,
    "Ġrags": 18645,
    "gazing": 12476,
    "sacrifice": 13496,
    "Ġtheore": 1831,
    "Ġintroduces": 3264,
    "======================================================================": 10071,
    "Ġ184": 16609,
    "bodily": 17318,
    "consolatory": 25307,
    "Ġshabby": 14114,
    "Ġloads": 22118,
    "chor": 6147,
    "Ġdecrease": 4200,
    "Ġcumulative": 4210,
    "Ġscru": 8191,
    "Ġlashes": 17969,
    "Ġheroes": 10579,
    "Ġuncouth": 14551,
    "urg": 8142,
    "Ġcurric": 22978,
    "Ġchord": 22249,
    "Ġdissimilar": 22535,
    "Ġgoug": 17993,
    "Ġrelent": 18775,
    "Ġunlimited": 26224,
    "Ġarsac": 11746,
    "Ġmysticetus": 24923,
    "chapter": 1401,
    "Ġinclined": 6624,
    "Ġrequested": 14313,
    "Ġdeposit": 17271,
    "ese": 4445,
    "razor": 21640,
    "nder": 20989,
    "Ġflattening": 26049,
    "Ġsulkily": 25882,
    "Ġ}": 21156,
    "Ġsodden": 25536,
    "ical": 754,
    "Ġcarelessness": 13080,
    "Ġextravagant": 17281,
    "pennies": 26287,
    "rann": 21047,
    "kye": 20940,
    "Ġwond": 3938,
    "ance": 478,
    "Ġum": 10214,
    "witness": 10038,
    "Ġassurances": 10003,
    "take": 4578,
    "Ġconveniently": 20082,
    "Ġgoes": 3852,
    "Ġvesuvius": 26503,
    "enged": 23148,
    "Ġgorgeous": 20470,
    "ustomed": 6099,
    "Ġmixed": 6974,
    "Ġtransf": 22439,
    "Ġfaster": 3196,
    "lacing": 17592,
    "interruption": 20115,
    "Ġcheerless": 16695,
    "two": 3860,
    "Ġnotorious": 18224,
    "Ġerud": 20058,
    "Ġsequentially": 4915,
    "behaviour": 11303,
    "play": 5099,
    "Ġreference": 2560,
    "Ġsufficient": 2003,
    "Ġlimb": 9405,
    "close": 9989,
    "arr": 3044,
    "hee": 10762,
    "Ġlargest": 6283,
    "Ġgestic": 21611,
    "union": 15775,
    "ra": 314,
    "vour": 17701,
    "teen": 6370,
    "complacency": 19916,
    "Ġprecision": 13193,
    "Ġmort": 3454,
    "Ġhast": 3150,
    "Ġtougher": 21179,
    "Ġour": 1009,
    "Ġlocal": 1201,
    "Ġstature": 10865,
    "Ġeyebrows": 23517,
    "Ġenlar": 15805,
    "Ġcircumnavigation": 20403,
    "itive": 6670,
    "Ġear": 1422,
    "motives": 26138,
    "Ġobliged": 4284,
    "Ġglimpses": 13436,
    "Ġmoulded": 16977,
    "angels": 22107,
    "Ġslo": 15510,
    "Ġinstant": 2703,
    "Ġblasts": 19999,
    "raham": 18016,
    "queen": 12732,
    "approach": 24834,
    "Ġjoy": 3183,
    "ounts": 4653,
    "tumultuous": 20402,
    "Ġcavity": 20491,
    "Ġtruth": 3315,
    "stalk": 21653,
    "Ġgardener": 19136,
    "stir": 12678,
    "Ġkith": 22190,
    "founded": 16715,
    "Ġworkflow": 2453,
    "Ġexeget": 24088,
    "amused": 21850,
    "Ġoldest": 12978,
    "Ġchink": 15937,
    "Ġsulphur": 24934,
    "Ġlens": 8439,
    "Ġcur": 1248,
    "Ġbuy": 8300,
    "Ġeas": 2349,
    "scornful": 26577,
    "harpoons": 24287,
    "Ġmonoman": 7939,
    "Ġinclement": 22558,
    "Ġingolstadt": 8333,
    "Ġtalks": 23373,
    "punishment": 15149,
    "hack": 20898,
    "Ġstruggles": 16581,
    "utes": 5914,
    "solic": 16381,
    "Ġawa": 7713,
    "brimming": 23579,
    "Ġreiterating": 26476,
    "aster": 1866,
    "undant": 14795,
    "Ġfinishing": 23127,
    "fugitive": 26132,
    "Ġmiserable": 3634,
    "spade": 10342,
    "Ġdesmarest": 22986,
    "Ġsarat": 21230,
    "Ġhateful": 19716,
    "Ġabstraction": 26541,
    "Ġwidth": 16774,
    "Ġwealth": 7620,
    "ension": 6571,
    "Ġbutt": 14128,
    "Ġcorpore": 13405,
    "Ġanalyze": 1695,
    "Ġcontinent": 14891,
    "Ġarise": 7896,
    "Ġphotography": 24684,
    "punct": 20195,
    "Ġstandpoint": 23281,
    "sing": 5138,
    "Ġcleanse": 24527,
    "Ġgas": 8133,
    "Ġcustody": 13651,
    "Ġrapturously": 24889,
    "Ġindist": 14412,
    "rue": 1125,
    "Ġunsounded": 15854,
    "Ġround": 1369,
    "Ġyore": 21782,
    "Ġmeals": 12716,
    "Ġhabitual": 24789,
    "ask": 856,
    "Ġfearlessness": 19163,
    "Ġplentiful": 12916,
    "Ġfisherman": 12080,
    "Ġmathematical": 3346,
    "Ġmicha": 17813,
    "Ġgreatly": 5850,
    "Ġdomestic": 6909,
    "fearing": 18521,
    "Ġobstacle": 16957,
    "Ġassertion": 13493,
    "Ġlearning": 386,
    "ugl": 23292,
    "Ġfeathers": 15123,
    "inement": 11560,
    "Ġfootpath": 19340,
    "Ġinmost": 17933,
    "Ġintu": 12768,
    "they": 1878,
    "Ġruined": 12960,
    "Ġpur": 2216,
    "Ġelbow": 12925,
    "Ġspare": 5102,
    "outon": 12809,
    "\"]": 17473,
    "Ġstagnant": 24655,
    "Ġcordiality": 24395,
    "Ġbehavior": 8002,
    "Ġhempen": 13554,
    "Ġquartered": 20376,
    "Ġinsurg": 23683,
    "<EOS>": 2,
    "possess": 5984,
    "Ġcass": 13882,
    "Ġstrangest": 14799,
    "Ġnevertheless": 5040,
    "Ġintelligent": 1356,
    "Ġcommentaries": 20163,
    "Ġdug": 21433,
    "reproof": 25433,
    "coward": 13704,
    "Ġchowder": 10283,
    "oped": 6047,
    "Ġfiss": 21415,
    "plague": 21963,
    "Ġidentify": 12018,
    "moderate": 22879,
    "Ġwilliam": 3476,
    "Ġwrapt": 24596,
    "roqu": 21537,
    "Ġstepdaughter": 22616,
    "Ġ97": 19777,
    "ĠâĢľâĢĻ": 22258,
    "september": 14039,
    "unearthly": 19275,
    "Ġhun": 1498,
    "Ġmon": 1252,
    "Ġacquaintances": 17353,
    "Ġsuspects": 16892,
    "Ġrobots": 11074,
    "Ġtrailing": 23081,
    "Ġemblazonings": 26043,
    "Ġunjustly": 17129,
    "Ġseas": 3076,
    "Ġent": 905,
    "ĠâĢľ": 517,
    "Ġdisconnected": 22529,
    "Ġsimil": 2527,
    "Ġmeasure": 3593,
    "Ġtumb": 21172,
    "Ġ68": 24370,
    "Ġpeev": 22696,
    "noticed": 14344,
    "Ġnumber": 1981,
    "Ġfew": 1194,
    "Ġstern": 4222,
    "Ġsumatra": 15290,
    "Ġeasily": 3890,
    "Ġmoluccas": 25630,
    "Ġtrampled": 20331,
    "Ġbroom": 18907,
    "Ġblackness": 9396,
    "Ġdeclares": 16994,
    "rier": 9245,
    "Ġpipes": 9852,
    "Ġcouple": 5423,
    "Ġalternate": 19989,
    "Ġbald": 16211,
    "Ġorbs": 22096,
    "Ġelastic": 4360,
    "Ġidol": 7465,
    "aked": 2015,
    "Ġremarked": 3696,
    "geon": 6271,
    "Ġconcl": 5095,
    "Ġresounded": 22548,
    "Ġmiseries": 10347,
    "Ġdescription": 7428,
    "rug": 18340,
    "etition": 7381,
    "Ġdin": 3625,
    "cus": 3979,
    "Ġbarrels": 9439,
    "Ġhoarse": 14528,
    "ird": 2426,
    "Ġdiscipl": 22785,
    "Ġpanegyric": 26451,
    "Ġantilles": 24182,
    "oner": 6125,
    "clean": 14764,
    "Ġradney": 6775,
    "ning": 951,
    "Ġheinous": 18041,
    "Ġdollar": 25284,
    "Ġcomplexity": 1694,
    "Ġwicked": 5961,
    "travellers": 24339,
    "Ġshar": 9253,
    "az": 2180,
    "Ġfurniture": 6476,
    "isles": 15569,
    "Ġcologne": 12980,
    "Ġwithin": 2162,
    "Ġenvironmental": 24073,
    "Ġimpro": 898,
    "Ġbeckoned": 25794,
    "Ġadvances": 13001,
    "Ġprobable": 5570,
    "Ġdelicacy": 6341,
    "Ġ22": 8279,
    "_,âĢĻ": 12437,
    "gunwale": 20665,
    "ifies": 6687,
    "Ġpart": 860,
    "Ġfulf": 6772,
    "float": 19808,
    "wake": 11548,
    "Ġquadru": 16009,
    "Ġpleasures": 11144,
    "Ġthack": 21520,
    "old": 798,
    "Ġconspicuous": 13607,
    "Ġinterior": 8899,
    "ske": 13785,
    "Ġthemselves": 3247,
    "Ġwickham": 2206,
    "iriously": 18174,
    "Ġserving": 14488,
    "establish": 17396,
    "Ġvigilance": 12375,
    "Ġsaleve": 17394,
    "Ġdelineate": 26058,
    "cle": 3956,
    "Ġdis": 694,
    "apprehens": 17409,
    "Ġundoing": 22039,
    "Ġpuzzle": 11307,
    "shutters": 20314,
    "Ġanoint": 25538,
    "Ġskil": 14355,
    "Ġconstraint": 16516,
    "tumbled": 21093,
    "apse": 14201,
    "linen": 25258,
    "resolution": 17768,
    "belated": 24041,
    "Ġconveniences": 19815,
    "bury": 9110,
    "Ġroll": 5381,
    "Ġstabbing": 20306,
    "Ġinsulted": 14995,
    "Ġplow": 21461,
    "Ġglad": 3321,
    "Ġstim": 18069,
    "Ġadduced": 26526,
    "ography": 13367,
    "oquent": 12504,
    "reeable": 3612,
    "attempted": 20177,
    "Ġswe": 2288,
    "invest": 11562,
    "Ġridicule": 13515,
    "Ġinnocent": 4922,
    "rents": 5310,
    "Ġgoat": 16011,
    "shipped": 18487,
    "Ġbehaviour": 4384,
    "Ġdepresses": 25798,
    "russian": 22187,
    "Ġardent": 9973,
    "Ġbattery": 21397,
    "ĠĠĠĠĠĠĠĠĠĠĠĠĠĠĠĠĠĠĠĠĠĠĠĠĠĠĠĠĠĠĠĠĠĠĠĠĠĠĠĠĠĠĠĠĠĠĠĠĠĠĠĠĠ": 20043,
    "Ġthreshold": 2808,
    "Ġneighbourhood": 5126,
    "conc": 3946,
    "Ġphrensy": 25127,
    "atived": 21265,
    "Ġimpelled": 11786,
    "ies": 584,
    "Ġfare": 5810,
    "atively": 2695,
    "Ġbehaved": 13257,
    "Ġmadam": 5663,
    "Ġaquiline": 26160,
    "contain": 18503,
    "pped": 1998,
    "Ġconfinement": 19039,
    "magnet": 14973,
    "edged": 15636,
    "Ġtwinkled": 14315,
    "Ġbalmoral": 16212,
    "Ġcircumst": 2977,
    "rudent": 6482,
    "varieties": 23188,
    "Ġlabrador": 23333,
    "inex": 14095,
    "Ġunsocial": 18257,
    "Ġdramat": 23217,
    "Ġboat": 1277,
    "Ġneighbor": 25806,
    "inburgh": 15494,
    "Ġsaws": 23052,
    "Ġweeds": 21927,
    "Ġoar": 6237,
    "Ġfant": 9176,
    "commun": 15036,
    "Ġbless": 4341,
    "Ġwithheld": 18117,
    "Ġsuperlative": 26075,
    "jewell": 25524,
    "ichever": 13960,
    "ghan": 19458,
    "mantel": 26396,
    "Ġwestward": 24389,
    "Ġwondering": 7971,
    "Ġinanimate": 13936,
    "Ġcomforter": 20510,
    "bies": 15316,
    "opol": 12876,
    "urmountable": 15283,
    "Ġhopeless": 7461,
    "Ġpounds": 5368,
    "Ġmanager": 11773,
    "Ġdefinitions": 22947,
    "itate": 6669,
    "Ġtired": 9152,
    "turned": 7305,
    "Ġrowing": 10303,
    "xible": 13811,
    "Ġhap": 18196,
    "Ġsatire": 22903,
    "Ġetext": 23954,
    "Ġcomply": 8895,
    "arily": 4126,
    "Ġrise": 5637,
    "Ġfather": 1450,
    "ream": 2709,
    "Ġunsupervised": 2663,
    "oice": 1382,
    "Ġlo": 453,
    "circled": 24190,
    "Ġsloping": 11943,
    "04": 10682,
    "valley": 16217,
    "urpation": 16305,
    "Ġtransports": 24280,
    "Ġjunk": 15958,
    "arranging": 19320,
    "certainly": 5340,
    "Ġfold": 5531,
    "invite": 25091,
    "ering": 1266,
    "sac": 7141,
    "Ġhourly": 23304,
    "Ġconstru": 19067,
    "Ġobstacles": 19838,
    "Ġlivery": 16005,
    "Ġgladness": 16593,
    "Ġleaking": 21734,
    "Ġsigned": 11179,
    "Ġperforming": 7928,
    "Ġbennet": 1574,
    "Ġyale": 21783,
    "overcoat": 19053,
    "Ġgaining": 9495,
    "Ġquakers": 22420,
    "Ġbarely": 16938,
    "Ġpresum": 4839,
    "Ġkindness": 4097,
    "Ġwholly": 4448,
    "Ġexpl": 486,
    "imagine": 19934,
    "coun": 10690,
    "un": 373,
    "Ġsockets": 22083,
    "Ġhus": 3092,
    "er": 269,
    "bidden": 19740,
    "Ġdescend": 7426,
    "Ġsigning": 22711,
    "Ġdie": 3962,
    "Ġslopes": 18943,
    "Ġchosen": 7200,
    "mun": 20964,
    "conscientious": 19629,
    "Ġsternly": 16717,
    "aft": 9586,
    "Ġoceans": 7996,
    "arding": 22161,
    "ar": 285,
    "Ġpiny": 21472,
    "prof": 7698,
    "Ġscript": 18399,
    "Ġwaves": 3918,
    "okingly": 22385,
    "hatches": 19930,
    "suspected": 12376,
    "Ġalternately": 15034,
    "Ġpostpone": 17310,
    "grass": 23416,
    "Ġobjects": 5578,
    "Ġlash": 8440,
    "Ġriddle": 14823,
    "Ġhousings": 21496,
    "Ġmotive": 6091,
    "Ġtru": 4106,
    "Ġsize": 1217,
    "Ġawait": 17074,
    "Ġdistillation": 16050,
    "nical": 20993,
    "Ġresolving": 9422,
    "ented": 4347,
    "Ġhosea": 17334,
    "rigible": 24932,
    "Ġdetective": 14406,
    "imagination": 13484,
    "summon": 23419,
    "archbishop": 22912,
    "Ġmun": 12567,
    "Ġeddystone": 25736,
    "Ġoaths": 13527,
    "Ġsn": 2951,
    "Ġasylum": 13670,
    "Ġpip": 1622,
    "Ġinsurmountable": 16534,
    "Ġwe": 387,
    "Ġmansfield": 25939,
    "Ġexcess": 3337,
    "icle": 10836,
    "Ġlig": 21551,
    "Ġregularizer": 2336,
    "Ġspiced": 22137,
    "Ġaudacious": 13464,
    "Ġwelfare": 12564,
    "Ġjonas": 20612,
    "Ġdisp": 3354,
    "Ġmayhap": 18706,
    "Ġsp": 457,
    "Ġevol": 2815,
    "Ġingrat": 16842,
    "Ġgirl": 3086,
    "Ġfortunate": 6215,
    "Ġnile": 21524,
    "Ġaboriginal": 14191,
    "aphys": 15205,
    "roman": 22008,
    "Ġtyro": 16996,
    "Ġbusks": 23341,
    "Ġmonomania": 17086,
    "Ġinferiority": 17116,
    "sufficiently": 14984,
    "thodox": 21992,
    "Ġauthors": 10418,
    "Ġ[\"": 19933,
    "Ġblades": 11899,
    "rap": 21631,
    "Ġcruelly": 13379,
    "actorily": 25577,
    "Ġtight": 8108,
    "Ġproced": 2575,
    "heed": 15502,
    "Ġhistories": 14689,
    "Ġfootmen": 23800,
    "ieves": 4005,
    "bery": 9790,
    "omely": 21642,
    "assured": 10954,
    "Ġir": 1993,
    "Ġpenn": 11114,
    "horses": 17569,
    "idual": 1560,
    "Ġminutest": 14561,
    "erie": 21274,
    "Ġhandspike": 22699,
    "Ï": 144,
    "Ġfemales": 14940,
    "Ġlascar": 9202,
    "onious": 15522,
    "ior": 2039,
    "Ġdinnertime": 16721,
    "Ġregrets": 18602,
    "Ġperiodical": 14776,
    "Ġviolent": 5117,
    "Ġanxiously": 8290,
    "astonished": 15035,
    "Ġvoid": 14089,
    "Ġbel": 1216,
    "Ġimpetuously": 20375,
    "revolver": 25628,
    "goes": 10428,
    "/*": 10074,
    "Ġpersonages": 23541,
    "onde": 21254,
    "partiality": 13164,
    "umberland": 16839,
    "ountain": 2921,
    "ub": 1225,
    "flour": 23970,
    "Ġfordham": 21780,
    "condescended": 26250,
    "\\": 64,
    "amb": 5723,
    "outh": 2687,
    "Ġblanket": 8343,
    "ual": 944,
    "Ġirreducible": 5519,
    "Ġflourishing": 25188,
    "ignation": 11130,
    "Ġanaly": 1175,
    "figures": 20125,
    "Ġshoulders": 5566,
    "Ġprofessional": 7298,
    "Ġrole": 15999,
    "ade": 881,
    "Ġarrive": 6906,
    "Ġdeferred": 18828,
    "long": 2915,
    "Ġdiscovered": 4413,
    "sufficient": 6637,
    "Ġbillow": 14784,
    "Ġample": 11802,
    "sister": 5139,
    "apparent": 11043,
    "Ġlounged": 19957,
    "Ġyour": 635,
    "Ġbottle": 7489,
    "Ġdarkened": 16437,
    "Ġaverted": 16259,
    "Ġstruck": 3385,
    "Ġwings": 9166,
    "cabin": 8363,
    "Ġpatentee": 25589,
    "Ġmoot": 22434,
    "ind": 567,
    "Ġtom": 15638,
    "Ġellenborough": 26155,
    "rints": 12507,
    "Ġmistaken": 4986,
    "Ġshovel": 23493,
    "Ġbefore": 806,
    "Ġcoun": 4178,
    "Ġprem": 3421,
    "arying": 9804,
    "Ġflash": 8230,
    "tubs": 15134,
    "Ġindividuality": 14912,
    "asets": 2308,
    "Ġ72": 19614,
    "extra": 8219,
    "oons": 12503,
    "Ġstagger": 10594,
    "zing": 7820,
    "stating": 21650,
    "hours": 9127,
    "Ġnantucket": 2838,
    "ying": 1448,
    "Ġcous": 3432,
    "Ġoysters": 20582,
    "Ġsingers": 23774,
    "Ġsuppl": 11081,
    "journey": 8748,
    "Ġomniscient": 20089,
    "imper": 14000,
    "Ġdevious": 22719,
    "worth": 8630,
    "pane": 10123,
    "Ġscrupled": 25052,
    "ighter": 7968,
    "als": 2041,
    "Ġcolt": 11046,
    "igating": 21702,
    "hundred": 8331,
    "Ġcrows": 24035,
    "spout": 7923,
    "Ġnoon": 6560,
    "etah": 12666,
    "Ġglance": 4232,
    "habit": 16192,
    "flesh": 13494,
    "Ġprovinces": 24193,
    "Ġimaginative": 19249,
    "drovand": 24759,
    "Ġeager": 3570,
    "Ġadvent": 4355,
    "among": 6257,
    "Ġlegisl": 23535,
    "Ġtrappers": 23083,
    "Ġpleasing": 6191,
    "perishing": 22203,
    "Ġcoldness": 23762,
    "Ġpestilent": 25778,
    "Ġlaughed": 5059,
    "Ġwisely": 13277,
    "Ġbumps": 21395,
    "Ġanticipation": 17058,
    "Ġwearisome": 19798,
    "ophisticated": 22482,
    "odecimo": 11446,
    "surgeon": 24217,
    "Ġgild": 15674,
    "Ġscandal": 9084,
    "enthusiastic": 20695,
    "inable": 11558,
    "represented": 20198,
    "hammock": 16358,
    "Ġcripple": 11442,
    "Ġkrempe": 10672,
    "Ġseats": 14091,
    "ulations": 6029,
    "Ġspont": 22135,
    "Ġbulkington": 14679,
    "Ġpills": 21468,
    "fl": 3600,
    "Ġentertained": 10001,
    "Ġsweating": 16466,
    "k": 79,
    "greenland": 10024,
    "oop": 10717,
    "Ġpurely": 12236,
    "Ġpredict": 666,
    "explaining": 23145,
    "Ġrepeating": 11214,
    "Ġcomparable": 24281,
    "Ġthither": 6820,
    "anct": 21361,
    "Ġhighway": 14349,
    "atmospheric": 17778,
    "uneasiness": 23689,
    "Ġopenly": 8575,
    "Ġdisrespect": 18554,
    "unsuitable": 21897,
    "based": 2962,
    "B": 38,
    "Ġwiping": 25766,
    "Ġshri": 5375,
    "Ġbiscuit": 12594,
    "Ġreflect": 6576,
    "Ġrestrain": 8967,
    "Ġflinging": 13589,
    "woe": 21138,
    "conception": 22478,
    "Ġexasperated": 11414,
    "Ġquant": 6424,
    "itch": 10163,
    "Ġextended": 7924,
    "Ġhours": 2820,
    "Ġannihilated": 20255,
    "Ġwhither": 10217,
    "Ġconception": 10316,
    "Ġbuttoning": 17238,
    "Ġsingle": 1692,
    "oused": 6557,
    "Ġ21": 11200,
    "lifeless": 24314,
    "Ġassign": 11111,
    "ject": 876,
    "pursue": 24976,
    "box": 5749,
    "Ġsign": 2493,
    "Ġweb": 9243,
    "Ġstro": 4597,
    "Ġcolours": 12979,
    "Ġangles": 23590,
    "Ġsledge": 8111,
    "Ġleads": 12101,
    "diligence": 26111,
    "Ġbye": 12743,
    "{": 95,
    "Ġcrimson": 16441,
    "Ġdiana": 21439,
    "Ġwithdraw": 16966,
    "Ġstile": 21739,
    "Ġnat": 12650,
    "Ġhemis": 21687,
    "Ġclicked": 22356,
    "Ġaffronted": 22896,
    "Ġchapel": 9526,
    "faint": 17547,
    "Ġeliza": 6437,
    "ctor": 13963,
    "Ġindications": 14634,
    "Ġsharply": 9406,
    "Ġhushed": 13928,
    "Ġpinched": 17036,
    "properly": 24919,
    "Ġhuddled": 20302,
    "batt": 20780,
    "Ġrestoration": 19029,
    "«": 109,
    "Ġberth": 8683,
    "uzz": 4526,
    "Ġcircus": 19093,
    "wes": 17705,
    "Ġprodigious": 8057,
    "apothecary": 26547,
    "Ġbenjamin": 26569,
    "Ġobeyed": 12221,
    "Ġsteed": 13045,
    ";--": 8069,
    "Ġwarning": 9061,
    "Ġneck": 4886,
    "ĠÂ£": 5006,
    "arrange": 23769,
    "ateness": 15524,
    "volutions": 16326,
    "pag": 11513,
    "ashion": 3859,
    "Ġweedy": 15797,
    "Ġostens": 25276,
    "Ġsymp": 4505,
    "emporary": 15802,
    "Ġneighbour": 3808,
    "Ġco": 729,
    "Ġteneriffe": 26416,
    "rack": 18013,
    "Ġpauper": 26180,
    "Ġforehead": 5262,
    "Ġconstrain": 2625,
    "Ġexploitation": 2344,
    "Ġrid": 4353,
    "ioneer": 15637,
    "Ġsine": 10765,
    "Ġwantest": 18790,
    "Ġunalterable": 15856,
    "alse": 4185,
    "itoring": 21335,
    "Ġgems": 9211,
    "Ġardu": 22182,
    "incl": 8110,
    "Ġpacific": 5153,
    "Ġaverage": 3138,
    "Ġprodigiously": 14935,
    "aming": 5829,
    "Ġgreatness": 12949,
    "Ġunprincipled": 20710,
    "Ġcaw": 13886,
    "^{": 15308,
    "Ġecc": 11631,
    "Ġweaken": 21925,
    "Ġparcel": 15203,
    "Ġforgetfulness": 14608,
    "iocr": 20925,
    "Ġclosing": 11776,
    "Ġsnatch": 14641,
    "Ġancestry": 25642,
    "discharging": 26306,
    "Ġeasiness": 23537,
    "ner": 1371,
    "Ġ126": 24471,
    "Ġentr": 14342,
    "aux": 14293,
    "Ġshalt": 18231,
    "tained": 4406,
    "I": 45,
    "ention": 858,
    "Ġsort": 1508,
    "aried": 10990,
    "Ġcobbler": 25831,
    "ospit": 22267,
    "Ġkindliness": 23297,
    "pardonable": 17220,
    "concerned": 24639,
    "Ġthomas": 17950,
    "Ġconsistence": 23359,
    "Ġhilarious": 20301,
    "asis": 12655,
    "confined": 24328,
    "Ġrussia": 26269,
    "clusion": 16309,
    "pity": 17629,
    "fur": 6356,
    "Ġsilent": 3407,
    "rot": 21535,
    "Ġpolitic": 23620,
    "Ġwilt": 9646,
    "mistress": 14908,
    "sterns": 23371,
    "Ġmess": 7831,
    "Ġpass": 1038,
    "iloquent": 21729,
    "Ġchild": 2260,
    "Ġinnermost": 12165,
    "Ġbegrimed": 26580,
    "uel": 6966,
    "Ġinstruments": 12228,
    "Ġfergus": 16869,
    "Ġpedd": 17910,
    "Ġampl": 22484,
    "impression": 15716,
    "Ġcow": 13879,
    "Ġorganizations": 12318,
    "Ġ116": 24440,
    "Ġstung": 21745,
    "Ġunspeakable": 10059,
    "Ġclos": 4551,
    "ondescript": 22919,
    "Ġhunks": 18938,
    "Ġmott": 17805,
    "Ġconsulted": 13434,
    "ency": 3868,
    "lemag": 21375,
    "uncomfortable": 18163,
    "sherlock": 5422,
    "aisance": 15078,
    "Ġglens": 18856,
    "Ġmaled": 21317,
    "Ġsoph": 1495,
    "heeded": 13837,
    "smitten": 23912,
    "Ġrattle": 10901,
    "Ġting": 8399,
    "Ġsay": 932,
    "bo": 1690,
    "Ġsensations": 5260,
    "idav": 18095,
    "itute": 9654,
    "Ġgaff": 17996,
    "wond": 8772,
    "yet": 3752,
    "Ġanger": 5442,
    "intervals": 10640,
    "Ġscept": 15507,
    "Ġdiscernment": 15072,
    "disappointed": 25192,
    "capable": 13705,
    "ĠvertebrÃ¦": 11437,
    "ieve": 1660,
    "sleepy": 24728,
    "Ġblend": 14402,
    "Ġtahit": 10756,
    "gall": 6360,
    "bethink": 25745,
    "Ġdeclaring": 19423,
    "Ġpouch": 21471,
    "us": 532,
    "Ġoverspread": 14209,
    "Ġencoura": 1367,
    "burn": 8371,
    "iscuits": 24667,
    "Ġevolve": 3003,
    "Ġshower": 11714,
    "irt": 3075,
    "Ġdisgu": 8206,
    "Ġspectacles": 12102,
    "strang": 11185,
    "Ġcompens": 14269,
    "ished": 1426,
    "mystery": 15159,
    "Ġsilence": 3263,
    "breckinridge": 24079,
    "Ġexpectation": 6903,
    "Ġperceived": 4715,
    "Ġsubur": 12962,
    "Ġdominant": 12400,
    "holmes": 4432,
    "Ġplans": 7918,
    "Ġturban": 23615,
    "Ġdiscovery": 5412,
    "Ġupright": 8495,
    "Ġcashier": 20201,
    "Ġsnapping": 19303,
    "Ġrippling": 17280,
    "Ġgor": 9209,
    "Ġbended": 21388,
    "Ġengra": 7874,
    "stepfather": 19193,
    "Ġquieted": 23846,
    "lotts": 23829,
    "stretch": 13984,
    "Ġpall": 7582,
    "Ġell": 17717,
    "Ġelix": 22645,
    "sought": 15431,
    "historical": 20469,
    "Ġmil": 4253,
    "anxiously": 15114,
    "rocious": 21542,
    "Ġmiz": 10779,
    "peril": 18350,
    "aff": 3101,
    "buttons": 22410,
    "Ġtrout": 22358,
    "Ġpetulance": 24230,
    "Ġcourage": 4635,
    "minute": 11276,
    "Ġspitzbergen": 15291,
    "Ġcommunicative": 24548,
    "unned": 21882,
    "Ġverdict": 13479,
    "Ġbuff": 9175,
    "inder": 9155,
    "reputation": 15519,
    "wn": 721,
    "Ġbehaviors": 13258,
    "Ġberry": 19749,
    "Ġpitching": 16613,
    "orial": 8418,
    "Ġsecluded": 11997,
    "Ġgord": 21603,
    "Ġmushroom": 13240,
    "Ġspoutings": 14678,
    "Ġjoky": 18407,
    "Ġsnug": 8280,
    "your": 1985,
    "Ġamid": 4959,
    "Ġdonkey": 23229,
    "Ġawaited": 17075,
    "mosphere": 10046,
    "Ġsciences": 15949,
    "Ġreptile": 15281,
    "oquence": 11388,
    "iet": 1774,
    "eral": 9162,
    "Ġpalace": 16691,
    "ropout": 1319,
    "Ġperf": 12854,
    "Ġeastern": 11632,
    "Ġparaph": 22124,
    "tale": 10130,
    "Ġinsipid": 26314,
    "Ġsplendour": 20227,
    "Ġoverpowered": 15292,
    "Ġ25": 13198,
    "recol": 10153,
    "wandering": 20287,
    "Ġperformance": 1306,
    "Ġairs": 14513,
    "Ġopposition": 16523,
    "Ġhand": 859,
    "nights": 16450,
    "remembrance": 25703,
    "Ġtax": 13819,
    "Ġvoluntarily": 12145,
    "itories": 15554,
    "Ġinherent": 4593,
    "Ġd": 284,
    "somebody": 14566,
    "Ġlists": 11168,
    "Ġdepths": 4325,
    "ax": 693,
    "Ġfir": 17879,
    "Ġrelevance": 5184,
    "Ġimport": 1030,
    "Ġprosper": 10231,
    "yd": 21145,
    "Ġestimation": 11220,
    "Ġgreatest": 4093,
    "Ġapplying": 13097,
    "dischar": 19155,
    "totally": 25418,
    "Ġatom": 18193,
    "Ġuniverse": 14127,
    "Ġnavigators": 19766,
    "find": 6953,
    "Ġdrawling": 19440,
    "Ġarchitectures": 2913,
    "Ġagreeing": 20022,
    "Ġdines": 21426,
    "Ġplead": 14458,
    "Ġcinque": 20489,
    "Ġnaut": 13944,
    "Ġadoration": 18293,
    "Ġtransparency": 10679,
    "Ġbravery": 23840,
    "Ġfrankenstein": 7096,
    "la": 10707,
    "Ġlamented": 24994,
    "Ġtunes": 24620,
    "Ġsends": 14793,
    "Ġpoisoned": 24887,
    "Ġpublicly": 13327,
    "ulates": 14058,
    "Ġtag": 15472,
    "Ġlashing": 11619,
    "Ġpowerful": 1496,
    "Ġforfeit": 21779,
    "Ġopportunities": 19251,
    "Ġdisguise": 10049,
    "Ġrelevant": 1863,
    "Ġconfining": 23308,
    "Ġpore": 21460,
    "Ġflor": 8564,
    "speptic": 23950,
    "ands": 21870,
    "zor": 15462,
    "Ġgangs": 21612,
    "Ġwhen": 515,
    "Ġunsatisfied": 22048,
    "Ġlongitudes": 22637,
    "Ġadmiring": 16483,
    "Ġappals": 22228,
    "Ġnumer": 3638,
    "derest": 18315,
    "entrance": 12662,
    "lake": 13752,
    "meeting": 11019,
    "Ġmamm": 25093,
    "Ġflutter": 16253,
    "shut": 10981,
    "Ġsisters": 3640,
    "Ġcause": 2407,
    "athan": 2957,
    "Ġstacked": 21750,
    "Ġdiscompose": 25580,
    "Ġbeamed": 23724,
    "note": 14343,
    "ure": 356,
    "Ġforefinger": 16445,
    "Ġmiss": 1229,
    "ivil": 6411,
    "Ġgap": 21602,
    "Ġfeasible": 22213,
    "Ġinfants": 16368,
    "Ġrespectfully": 18994,
    "Ġyer": 15739,
    "creat": 20802,
    "lynes": 15709,
    "Ġreader": 11938,
    "shri": 14237,
    "les": 1016,
    "Ġpraised": 19556,
    "ingale": 21302,
    "Ġgreeted": 23212,
    "oubtedly": 6942,
    "Ġplacid": 11830,
    "starbuck": 6019,
    "ault": 2305,
    "Ġavert": 14428,
    "diff": 9116,
    "Ġidolator": 20001,
    "Ġpersecut": 16954,
    "Ġshank": 22001,
    "Ġarabic": 24981,
    "father": 3776,
    "Ġorganization": 7984,
    "stock": 13227,
    "Ġcloset": 19594,
    "¶": 119,
    "Ġinjection": 3461,
    "scene": 14423,
    "Ġhel": 3786,
    "Ġwood": 2290,
    "Ġabsorbing": 17131,
    "Ġsmo": 2700,
    "frame": 17117,
    "Ġendeavored": 19305,
    "Ġunseason": 22056,
    "Ġpurchas": 19876,
    "Ġideal": 13125,
    "Ġappearance": 3700,
    "alive": 10829,
    "Ġconclusion": 5986,
    "Ġocc": 887,
    "succeed": 10332,
    "wers": 12524,
    "ellest": 21577,
    "extraordinary": 9098,
    "Ġcommitting": 22675,
    "Ġphilosopher": 12188,
    "Ġapprehens": 5682,
    "Ġpet": 4588,
    "Ġsuperglue": 23459,
    "Ġjar": 15955,
    "spouting": 25003,
    "Ġdef": 1202,
    "iantly": 13742,
    "Ġrebellion": 26477,
    "Ġturner": 7050,
    "Ġhousehold": 8570,
    "ez": 5683,
    "Ġduring": 874,
    "saf": 11527,
    "Ġpon": 10178,
    "performed": 18352,
    "Ġsailing": 5324,
    "iffs": 9025,
    "cele": 21628,
    "anse": 12580,
    "Ġbecome": 3157,
    "Ġblessings": 24179,
    "Ġconfound": 23306,
    "tackles": 25625,
    "Ġbelted": 22951,
    "wled": 15458,
    "iverse": 13120,
    "99": 1893,
    "illar": 5101,
    "intercourse": 14640,
    "Ġfascinated": 25636,
    "medi": 2626,
    "Ġspind": 18308,
    "metallic": 19882,
    "Ġenthus": 7231,
    "Ġarm": 2490,
    "Ġmysteriously": 24602,
    "fields": 14655,
    "ss": 398,
    "Ġrounding": 16277,
    "blocks": 25518,
    "Ġravine": 18647,
    "Ġunob": 22019,
    "Ġmournful": 12340,
    "conve": 14246,
    "Ġslates": 11108,
    "Ġnights": 7257,
    "professor": 17252,
    "Ġsharpen": 13573,
    "Ġcurving": 16242,
    "Ġadvancement": 24475,
    "Ġser": 1673,
    "Ġ199": 3010,
    "Ġnotable": 18223,
    "rimshander": 20659,
    "Ġmartha": 16265,
    "Ġqueer": 4481,
    "ascribed": 24707,
    "umerable": 11729,
    "rollable": 13948,
    "Ġhermits": 22078,
    "Ġhorseback": 14853,
    "Ġresembles": 25970,
    "Ġwaving": 8578,
    "Ġcrimin": 6900,
    "drove": 16995,
    "stiff": 12680,
    "Ġhoary": 23357,
    "Ġpertaining": 18451,
    "Ġtolerably": 8068,
    "aths": 22702,
    "Ġinevitable": 15171,
    "gird": 20881,
    "merely": 16139,
    "vic": 13805,
    "Ġcurbstone": 26044,
    "blame": 14797,
    "atre": 17772,
    "Ġfuneral": 10285,
    "cely": 3574,
    "Ġincomp": 12905,
    "quely": 10234,
    "erer": 8735,
    "2": 22,
    "condition": 7060,
    "execution": 20475,
    "Ġact": 691,
    "Ġcottages": 14731,
    "Ġcomputing": 2219,
    "cream": 15334,
    "Ġqueen": 3210,
    "dom": 6223,
    "Ġirene": 8445,
    "Ġjury": 5378,
    "Ġdisd": 7031,
    "Ġinterp": 16077,
    "Ġfellows": 8257,
    "opportunity": 12279,
    "ologist": 22893,
    "stoke": 18025,
    "instant": 8655,
    "feather": 16044,
    "Ġsly": 9635,
    "Ġlivelihood": 24773,
    "fam": 5989,
    "Ġescaping": 13138,
    "kindly": 14748,
    "Ġreplying": 19584,
    "daugh": 6788,
    "tube": 20414,
    "Ġrepugn": 23366,
    "kl": 4866,
    "sperm": 5203,
    "Ġhealth": 3903,
    "Ġswish": 23056,
    "Ġcrushing": 20179,
    "Ġpemberley": 4590,
    "!--": 10680,
    "Ġrolling": 5975,
    "Ġdejection": 15200,
    "successively": 24778,
    "Ġanoints": 25539,
    "Ġkitty": 3909,
    "Ġinquired": 7484,
    "ubbub": 23247,
    "believing": 19465,
    "Ġhawsers": 26504,
    "Ġbakers": 17868,
    "5": 25,
    "Ġset": 1172,
    "Ġannoy": 17201,
    "slave": 16897,
    "Ġphil": 3381,
    "qualified": 17099,
    "Ġflexible": 23778,
    "Ġtenants": 23547,
    "Ġhomely": 25220,
    "Ġsheepfold": 25467,
    "rons": 21042,
    "Ġprejudiced": 24806,
    "Ġserve": 9372,
    "abs": 11670,
    "Ġlogical": 14489,
    "farmer": 25900,
    "Ġsure": 1864,
    "extreme": 11031,
    "Ġain": 6969,
    "Ġreser": 5170,
    "Ġsoc": 3520,
    "Ġthroes": 24575,
    "Ġfrenz": 25447,
    "Ġporing": 21469,
    "Ġfoolish": 5980,
    "ccarthy": 4889,
    "agree": 14070,
    "!âĢĻ": 3327,
    "Ġeighty": 19479,
    "copper": 19191,
    "Ġlion": 9678,
    "Ġperpetually": 17071,
    "Ġvague": 6406,
    "gings": 7548,
    "Ġburg": 23653,
    "imprudent": 14653,
    "Ġsting": 10863,
    "Ġice": 3604,
    "Ġrightly": 13070,
    "Ġsatisf": 2806,
    "ilight": 12698,
    "Ġcandidate": 16700,
    "Ġbreathe": 9015,
    "Ġexcursion": 26591,
    "ate": 422,
    "gabriel": 15364,
    "Ġmice": 13862,
    "bec": 4053,
    "Ġgreater": 3037,
    "Ġseethe": 21960,
    "Ġpredictions": 1454,
    "Ġduplicate": 17218,
    "Ġvalu": 5038,
    "ms": 537,
    "rasing": 21048,
    "Ġgases": 21605,
    "rossing": 18638,
    "guilty": 19486,
    "scrape": 25699,
    "Ġdocumentation": 20557,
    "Ġincompatible": 25681,
    "?": 35,
    "Ġcarpenter": 4686,
    "ledge": 1328,
    "Ġunrolled": 22042,
    "print": 23815,
    "Ġfashioned": 13325,
    "!âĢĿâĢĶ": 8534,
    "Ġnatur": 17337,
    "absurd": 21799,
    "rust": 2576,
    "iner": 2671,
    "injured": 15136,
    "Ġmuscles": 12093,
    "Ġundeviating": 15221,
    "Ġpour": 13917,
    "papers": 12506,
    "Ġfee": 7198,
    "Ġanecdote": 26356,
    "Ġunrest": 11718,
    "Ġadding": 2401,
    "Ġfree": 3370,
    "pent": 3488,
    "advantage": 8662,
    "Ġprofited": 19194,
    "Ġfists": 15588,
    "Ġdenied": 9003,
    "Ġvap": 6836,
    "Ġheroines": 19754,
    "Ġdexterity": 25295,
    "incredible": 16501,
    "Ġhinge": 25542,
    "Ġassistant": 7297,
    "Ġdestroy": 5772,
    "intment": 4721,
    "Ġoverjoyed": 17461,
    "Ġpoetic": 17104,
    "Ġstays": 16564,
    "Ġlodging": 24098,
    "echo": 15352,
    "Ġswell": 8952,
    "Ġimplicit": 19961,
    "Ġenter": 4030,
    "belt": 24039,
    "missing": 13224,
    "Ġconfines": 23307,
    "Ġsang": 12540,
    "Ġdefici": 22946,
    "baboon": 25517,
    "hateful": 20911,
    "Ġexcite": 11969,
    "Ġblooming": 17215,
    "Ġreceived": 2953,
    "iating": 3204,
    "Ġshaved": 22006,
    "Ġcaves": 15559,
    "Ġperth": 7023,
    "Ġcoburg": 18595,
    "borrowed": 20794,
    "Ġcritical": 7473,
    "Ġhammock": 5768,
    "Ġdeduced": 12212,
    "antediluvian": 24346,
    "humorously": 24024,
    "aren": 10077,
    "ravelled": 18017,
    "will": 1967,
    "uction": 15447,
    "Ġweal": 21923,
    "parm": 21016,
    "attest": 23122,
    "Ġwheelbarrow": 17207,
    "Ġplan": 3881,
    "aboard": 21798,
    "Ġthe": 270,
    "ulled": 14059,
    "Ġlake": 5227,
    "Ġelements": 2667,
    "discoveries": 25386,
    "Ġiii": 7861,
    "Ġoutermost": 22323,
    "baby": 25516,
    "Ġdeck": 2136,
    "Ġforgiven": 24031,
    "Ġignorant": 5344,
    "contempl": 13195,
    "Ġcurls": 22977,
    "Ġstrand": 11832,
    "flame": 16640,
    "Ġsame": 1341,
    "Ġunmingled": 18264,
    "Ġimpropriety": 17398,
    "humored": 19456,
    "ot": 346,
    "Ġcontribut": 12864,
    "quit": 15767,
    "Ġcoding": 8116,
    "Ġhappier": 10362,
    "ĠĠĠĠĠĠĠĠĠĠĠĠĠĠĠĠĠĠĠĠĠĠĠĠĠĠĠĠĠĠĠĠĠĠĠĠĠĠĠĠĠĠĠĠĠĠĠ": 16757,
    "stem": 571,
    "Ġorthodox": 22099,
    "Ġinflamed": 13477,
    "Ġeffectually": 16171,
    "Ġstarvation": 19794,
    "cont": 2923,
    "possession": 12226,
    "sunlight": 24852,
    "Ġpanel": 13376,
    "ĠĠĠ": 2114,
    "Ġsayest": 22780,
    "Ġton": 15468,
    "Ġrescales": 5068,
    "Ġinvent": 7164,
    "quished": 21858,
    "Ġplunged": 8696,
    "spirited": 19756,
    "Ġdesist": 16245,
    "poverty": 22910,
    "Ġcrow": 3805,
    "gallantry": 15061,
    "Ġequally": 5258,
    "Ġhereditarily": 25225,
    "Ġpoured": 8805,
    "Ġcounting": 13100,
    "spears": 23946,
    "Ġfeeds": 16438,
    "Ġlasting": 18791,
    "brew": 11475,
    "Ġevery": 927,
    "oda": 15755,
    "remarks": 23192,
    "Ġan": 286,
    "Ġhanged": 17927,
    "Ġautonomous": 10678,
    "Ġundec": 22023,
    "Ġ47": 14775,
    "insula": 23068,
    "iana": 7049,
    "snowy": 20286,
    "Ġdeject": 10882,
    "Ġcetology": 10012,
    "Ġtur": 2559,
    "bloom": 24690,
    "Ġuseless": 7038,
    "Ġsurface": 5119,
    "Ġcondition": 6764,
    "Ġpleasantly": 14521,
    "Ġanchored": 17443,
    "Ġlat": 5087,
    "Ġclever": 7055,
    "Ġtongues": 14866,
    "Ġmonsie": 11449,
    "Ġtime": 690,
    "Ġlight": 1701,
    "olerable": 7182,
    "Ġgirls": 4278,
    "flutter": 23975,
    "mblings": 19783,
    "Ġmove": 5107,
    "deep": 1002,
    "Ġconcent": 8250,
    "wrong": 13210,
    "Ġparamount": 15883,
    "Ġplun": 6282,
    "sink": 11524,
    "Ġpenalty": 1842,
    "Ġhunting": 7258,
    "Ġargemone": 24277,
    "Ġpain": 2302,
    "Ġglowed": 24865,
    "Ġstones": 9226,
    "Ġpail": 15612,
    "Ġeff": 676,
    "retired": 11940,
    "Ġescort": 23507,
    "Ġblasphemer": 26117,
    "Ġgradually": 3396,
    "Ġpreparing": 8651,
    "Ġwhe": 439,
    "aset": 10834,
    "Ġbidirectional": 3754,
    "ror": 7350,
    "lege": 17843,
    "didn": 9010,
    "Ġsoothingly": 25050,
    "chariot": 26481,
    "Ġhaw": 10254,
    "suspect": 9543,
    "dev": 7631,
    "Ġstrife": 18614,
    "previous": 9764,
    "Ġtaught": 6803,
    "Ġscaling": 3631,
    "actually": 14300,
    "Ġherd": 7888,
    "spikes": 10343,
    "Ġthanking": 18605,
    "Ġodd": 6626,
    "Ġheard": 1398,
    "uend": 21104,
    "Ġabandonment": 25604,
    "Ġconsist": 1935,
    "oled": 17621,
    "Ġfireplace": 13148,
    "Ġtun": 5999,
    "oward": 6021,
    "Ġlooks": 4165,
    "Ġapartment": 6635,
    "Ġdeploy": 3290,
    "ith": 330,
    "Ġflow": 1240,
    "Ġmoss": 9287,
    "takes": 21079,
    "Ġgeological": 14535,
    "Ġsands": 14951,
    "Ġsim": 735,
    "Ġreversed": 15702,
    "ch": 321,
    "omorrah": 18020,
    "Ġcod": 8413,
    "ieged": 22582,
    "whiskers": 12315,
    "Ġcareless": 11121,
    "Ġ58": 24322,
    "idious": 11665,
    "caut": 20814,
    "value": 18807,
    "ispens": 8336,
    "erringly": 16216,
    "develop": 13521,
    "ĠmanÅĵuv": 18418,
    "ellow": 3875,
    "Ġconceal": 5974,
    "Ġsubstantiated": 25876,
    "Ġlatin": 16823,
    "umbled": 8494,
    "Ġbrew": 23346,
    "Ġoffensive": 18697,
    "poor": 6061,
    "Ġmargin": 11924,
    "Ġgiver": 21608,
    "Ġbol": 6242,
    "Ġblue": 3449,
    "###": 3827,
    "thrill": 25657,
    "Ġornamented": 20365,
    "ists": 4000,
    "Ġcompliance": 12119,
    "<UNK>": 3,
    "ht": 376,
    "revenge": 13845,
    "Ġethere": 23955,
    ":--âĢľ": 24550,
    "Ġmonkey": 8227,
    "idly": 12705,
    "nable": 13765,
    "Ġstood": 2546,
    "hot": 8084,
    "tornadoes": 26154,
    "Ġfrequent": 3281,
    "Ġfors": 21775,
    "Ġinsult": 6748,
    "inger": 6812,
    "Ġrebounds": 25968,
    "Ġsepul": 14092,
    "Ġcoach": 6867,
    "Ġlatest": 16824,
    "Ġpedest": 15067,
    "ĠĠĠĠĠĠĠĠĠĠĠĠĠĠĠĠĠĠĠĠĠĠĠĠĠĠĠĠĠĠĠĠĠĠĠĠĠ": 14617,
    "apt": 730,
    "ylon": 24978,
    "Ġrelinqu": 12988,
    "Ġtraverse": 18892,
    "Ġoverwhelmed": 11405,
    "ĠĠĠĠĠĠĠĠĠĠĠĠĠĠĠĠĠ": 22952,
    "igger": 21703,
    "Ġsettles": 22922,
    "spass": 18689,
    "Ġinvariable": 13460,
    "otics": 10226,
    "warmth": 20056,
    "Ġarc": 14161,
    "Ġrenewing": 19813,
    "Ġtheoretic": 23313,
    "igan": 21701,
    "Ġbloodthirst": 23804,
    "Ġthrice": 10578,
    "ult": 723,
    "Ġwhis": 3499,
    "Ġsphere": 15887,
    "racting": 10356,
    "Ġquench": 22423,
    "condemned": 26061,
    "Ġferoc": 14900,
    "prit": 19345,
    "Ġaggreg": 12889,
    "Ġalternating": 15033,
    "urre": 10858,
    "Ġmislead": 22762,
    "ower": 1023,
    "contr": 12061,
    "Ġcompanions": 5866,
    "Ġbreast": 8971,
    "kingly": 20941,
    "Ġmorose": 18851,
    "þ": 191,
    "Ġcannot": 1668,
    "Ġworthless": 19568,
    "Ġsavi": 18326,
    "Ġrevelry": 15140,
    "tried": 13797,
    "Ġincreas": 1693,
    "Ġunprofitable": 18268,
    "Ġeluc": 16113,
    "Ġbud": 10171,
    "Ġcathed": 14550,
    "inking": 6710,
    "Ġunfathomable": 20551,
    "Ġbuckler": 24860,
    "Ġmathemat": 3201,
    "addressing": 24401,
    "Ġkate": 15906,
    "Ġdare": 3541,
    "mole": 22704,
    "Ġroom": 1462,
    "Ġplant": 8903,
    "Ġconceive": 8463,
    "Ġrevel": 9217,
    "Ġnecessitates": 23933,
    "Ġ>": 21154,
    "Ġpractice": 2707,
    "Ġrested": 9382,
    "Ġargument": 7099,
    "Ġaltering": 18105,
    "bearance": 22500,
    "Ġgir": 2256,
    "quarter": 11390,
    "Ġworshipped": 25692,
    "Ġcalamities": 25700,
    "Ġprot": 3847,
    "eldom": 4414,
    "Ġrear": 6536,
    "Ġobserver": 11993,
    "Ġcrosses": 23064,
    "animated": 14978,
    "puzzling": 26144,
    "astonishment": 10033,
    "Ġperseus": 10606,
    "eastern": 17535,
    "Ġ&": 6513,
    "Ġsupposed": 4560,
    "Ġwild": 2598,
    "cent": 8073,
    "Ġvis": 1070,
    "division": 20052,
    "aternity": 21268,
    "uned": 21875,
    "Ġcruising": 6912,
    "carpenter": 11429,
    "Ġspiral": 14586,
    "Ġexclusiveness": 23931,
    "Ġdood": 22246,
    "Ġpaw": 12625,
    "accidents": 19214,
    "Ġbust": 10170,
    "gent": 7130,
    "Ġinward": 11610,
    "Ġhabits": 6925,
    "Ġtry": 3133,
    "relate": 24015,
    "breeding": 16677,
    "enthus": 17980,
    "mixed": 17607,
    "ulged": 12735,
    "Ġ1828": 25720,
    "Ġapprehension": 7114,
    "Ġslacked": 25189,
    "Ġteach": 8554,
    "Ġmaids": 19694,
    "forget": 11033,
    "Ġwonder": 2116,
    "Ġcrad": 21352,
    "Ġreflected": 2912,
    "Ġhydraul": 9517,
    "severe": 21823,
    "Ġbruised": 25773,
    "Ġnavy": 14919,
    "Ġdeputation": 21843,
    "Ġthereupon": 18435,
    "ortment": 22261,
    "Ġpretension": 23767,
    "Ġadvers": 4888,
    "ation": 320,
    "unwholesome": 26499,
    "Ġignor": 4012,
    "informed": 17738,
    "tired": 21075,
    "Ġpermit": 9752,
    "Ġgret": 21604,
    "Ġcemet": 20683,
    "cut": 3123,
    "Ġpassage": 3884,
    "ution": 4348,
    "Ġscrutiny": 26016,
    "Ġconce": 3417,
    "spiracle": 22743,
    "Ġwill": 679,
    "Ġtanning": 17731,
    "Ġcongrat": 5828,
    "missionary": 24616,
    "ç": 168,
    "elab": 21573,
    "escaped": 14233,
    "Ġmaty": 22915,
    "Ġmultitudinous": 26275,
    "Ġdivineness": 25724,
    "Ġhusbands": 16645,
    "Ġjoyous": 14666,
    "Ġlooked": 1801,
    "savor": 25027,
    "Ġslaughter": 20732,
    "Ġinvis": 6901,
    "Ġnur": 5710,
    "isle": 13895,
    "ula": 2826,
    "Ġreward": 6145,
    "Ġbelf": 21384,
    "Ġhistor": 3386,
    "enemy": 15531,
    "Ġwails": 21299,
    "phur": 16148,
    "simply": 20673,
    "Ġsluggishly": 25892,
    "illes": 12699,
    "risonment": 17378,
    "Ġmister": 22760,
    "hypothe": 25906,
    "meant": 7921,
    "Ġsituated": 9450,
    "Ġowned": 11880,
    "Ġeffemin": 18533,
    "Ġmccarthys": 19665,
    "Ġassid": 18947,
    "Ġsmoky": 22563,
    "Ġexclamation": 8702,
    "Ġfluctu": 5268,
    "supplemental": 25875,
    "Ġmaternal": 11061,
    "Ġinvited": 6902,
    "soundest": 24796,
    "Ġspecksnyder": 17406,
    "Ġdedication": 3120,
    "Ġeduc": 4786,
    "thinness": 25811,
    "Ġseparating": 16684,
    "rig": 7555,
    "battering": 20788,
    "Ġsavann": 14686,
    "Ġgazed": 6478,
    "Ġwarned": 16882,
    "Ġwee": 21922,
    "Ġstatement": 5255,
    "izings": 14054,
    "behold": 12883,
    "Ġcalf": 16269,
    "fere": 10988,
    "Ġblanc": 11067,
    "Ġmen": 1433,
    "Ġsovere": 9259,
    "bonnet": 25743,
    "ifle": 10893,
    "Ġalphabetical": 17204,
    "Ġwithdra": 6398,
    "Ġcaused": 5048,
    "Ġactor": 16054,
    "Ġgaped": 13970,
    "Ġstare": 10866,
    "below": 12126,
    "Ġpavement": 9580,
    "Ġpersecutor": 26097,
    "Ġkindred": 16379,
    "emph": 21932,
    "Ġbrad": 8791,
    "Ġspire": 18307,
    "Ġmanip": 8875,
    "Ġdog": 4192,
    "Ġphyset": 23203,
    "Ġharb": 7369,
    "Ġcontinues": 18811,
    "laz": 15389,
    "Ġkeeps": 8267,
    "som": 3286,
    "Ġvexed": 9997,
    "folly": 20864,
    "Ġconstable": 19066,
    "Ġhoneymoon": 25646,
    "Ġcorrespond": 6210,
    "Ġ82": 24458,
    "asons": 6015,
    "myst": 9825,
    "Ġtorm": 5434,
    "Ġperfections": 23610,
    "blo": 6354,
    "Ġindel": 13009,
    "transformer": 25018,
    "Ġcav": 13883,
    "Ġregret": 5562,
    "Ġpaddock": 25040,
    "over": 1847,
    "Ġfr": 1696,
    "Ġbegg": 16258,
    "law": 6116,
    "Ġleviathanic": 12085,
    "Ġpro": 360,
    "Ġconsciousness": 9951,
    "Ġenlarged": 25986,
    "Ġthrilling": 19751,
    "Ġtempestuous": 20074,
    "outside": 12810,
    "Ġapothecary": 13663,
    "Ġpant": 10819,
    "Ġdexterously": 25296,
    "pointing": 12229,
    "ong": 538,
    "Ġmethodology": 2623,
    "Ġtranscend": 25668,
    "Ġcastors": 23980,
    "Ġaspired": 25985,
    "Ġmercy": 9001,
    "shudder": 26247,
    "Ġposs": 1616,
    "irr": 12742,
    "dum": 17520,
    "Ġaccurately": 4175,
    "incible": 16500,
    "Ġchuckled": 10650,
    "vint": 21117,
    "shirt": 22452,
    "Ġanointing": 25540,
    "uberance": 25917,
    "Ġmajor": 13296,
    "Ġsoapstone": 20514,
    "Ġshipwreck": 20449,
    "ank": 1366,
    "trifling": 19417,
    "usions": 6160,
    "Ġartfully": 22615,
    "Ġrelieve": 8224,
    "otence": 14026,
    "Ġgeneralization": 982,
    "Ġprestige": 22240,
    "Ġsacri": 18329,
    "Ġporpoise": 7107,
    "Ġunquestion": 18249,
    "proper": 7470,
    "pse": 21011,
    "Ġcomical": 11681,
    "Ġspread": 5161,
    "sharpening": 22458,
    "orses": 6052,
    "Ġlow": 1649,
    "Ġfolk": 10378,
    "Ġpaul": 12066,
    "Ġbehooves": 20735,
    "Ġexploring": 4304,
    "Ġmadden": 10449,
    "Ġrushed": 4088,
    "arthly": 8030,
    "Ġflag": 7241,
    "Ġconjoined": 21810,
    "envelope": 17784,
    "Ġseventy": 7878,
    "blooded": 20026,
    "Ġintimate": 6550,
    "Ġemer": 5959,
    "satisfactory": 16895,
    "ric": 1375,
    "Ġomen": 11579,
    "Ġassum": 4066,
    "rib": 1946,
    "changed": 7175,
    "solitary": 14508,
    "Ġacquaintance": 4133,
    "iter": 4392,
    "Ġstorms": 11264,
    "omically": 13979,
    "Ġdiscerning": 25005,
    "Ġfrost": 6096,
    "Ġreverence": 12063,
    "distrust": 19573,
    "Ġpear": 11856,
    "Ġseals": 11699,
    "visit": 7754,
    "Ġforlorn": 14018,
    "Ġexcept": 3308,
    "Ġrevolt": 24504,
    "part": 2568,
    "Ġowe": 8115,
    "skirted": 24489,
    "Ġhumaneval": 25583,
    "Ġscimet": 22292,
    "Ġencapsulate": 13678,
    "arrived": 12614,
    "Ġcoopers": 20525,
    "Ġ63": 24366,
    "prepar": 22471,
    "Ġcrutch": 23447,
    "Ġclinch": 18425,
    "Ġsavage": 4011,
    "Ġindisposed": 26289,
    "Ġsickbed": 24249,
    "upp": 10133,
    "hint": 12480,
    "corner": 13401,
    "Ġboy": 3022,
    "riers": 18184,
    "Ġcorpse": 6640,
    "Ġasiatics": 20434,
    "uncont": 15779,
    "Ġeliminating": 20623,
    "Ġcem": 17825,
    "Ġdisordered": 16060,
    "Ġclerks": 17298,
    "onial": 11569,
    "Ġvocation": 10528,
    "Ġthoroughly": 8348,
    "pect": 1254,
    "Ġway": 1086,
    "Ġgloomy": 7503,
    "Ġmine": 3178,
    "Ġlook": 880,
    "Ġbounce": 21396,
    "Ġembark": 8559,
    "Ġproofs": 19817,
    "Ġincredulous": 9990,
    "Ġpersuasions": 16634,
    "born": 7542,
    "Ġgrin": 5482,
    "emper": 18187,
    "ñ": 178,
    "painter": 24897,
    "Ġdecks": 6899,
    "Ġrelapses": 26280,
    "Ġsail": 1674,
    "simp": 17667,
    "serv": 7450,
    "Ġtrusty": 24107,
    "propagation": 1265,
    "enjoyments": 25434,
    "Ġsalut": 10512,
    "Ġstript": 23696,
    "enari": 21284,
    "intellig": 5321,
    "Ġpeddling": 21484,
    "Ġinexorable": 12260,
    "ury": 3307,
    "Ġwrote": 5011,
    "Ġgasfitters": 25041,
    "owers": 12689,
    "stained": 21658,
    "Ġabund": 8868,
    "begins": 18528,
    "Ġstreams": 12197,
    "Ġswap": 23055,
    "savagery": 25028,
    "Ġworry": 18817,
    "Ġstrata": 26028,
    "alcul": 15633,
    "Ġpilgrim": 25600,
    "Ġcourtiers": 24139,
    "Ġafloat": 9311,
    "Ġforgot": 4685,
    "Ġweep": 7619,
    "umber": 5240,
    "Ġbeef": 6829,
    "Ġmidships": 23635,
    "bit": 3931,
    "Ġactivity": 7920,
    "ze": 1379,
    "Ġcongratulatory": 19770,
    "Ġunrecorded": 17470,
    "memory": 13621,
    "hro": 20893,
    "hoisted": 19284,
    "Ġpred": 660,
    "Ġnaked": 8127,
    "Ġconvolutional": 2161,
    "Ġpeaks": 16133,
    "Ġnearly": 3358,
    "Ġdetected": 18822,
    "Ġfurious": 10357,
    "._)": 10483,
    "purpose": 10047,
    "Ġsorrows": 13359,
    "Ġorders": 5341,
    "Ġdashed": 6010,
    "servant": 15038,
    "Ġdecaying": 2247,
    "allah": 5839,
    "arth": 4444,
    "Ġaffl": 14389,
    "Ġtreacherous": 13558,
    "Ġcap": 2358,
    "rabb": 15685,
    "Ġlabors": 23331,
    "Ġcrystall": 20229,
    "Ġadvantage": 4315,
    "marvell": 24175,
    "contempt": 13194,
    "Ġmost": 1019,
    "pers": 4335,
    "Ġfault": 5702,
    "inian": 21185,
    "clam": 13060,
    "Ġsocially": 22082,
    "Ġprocopius": 19734,
    "Ġdeed": 7868,
    "igate": 8827,
    "rob": 5534,
    "Ġgeneral": 1861,
    "Ġroast": 18455,
    "Ġarchy": 14351,
    "Ġmurderer": 4980,
    "should": 3257,
    "Ġoffences": 18696,
    "Ġappeal": 16319,
    "Ġdocument": 15021,
    "slight": 10729,
    "Ġnarrative": 6216,
    "Ġaugmentation": 20119,
    "Ġadvise": 7936,
    "Ġannounce": 13343,
    "Ġconvincing": 19310,
    "Ġspecific": 2002,
    "Ġresentment": 7529,
    "trial": 20353,
    "Ġrecurrent": 1802,
    "Ġhasten": 10480,
    "ricane": 16280,
    "allic": 12817,
    "Ġflapp": 23013,
    "Ġcoquet": 22586,
    "Ġvenetian": 14850,
    "cr": 4013,
    "ò": 179,
    "itude": 1416,
    "Ġbecalmed": 18089,
    "Ġquadrille": 13544,
    "Ġgroup": 2037,
    "yond": 2327,
    "abode": 21795,
    "Ġmus": 3392,
    "Ġfil": 3467,
    "apidated": 22341,
    "belief": 13286,
    "Ġnominal": 15172,
    "marks": 7345,
    "Ġcarn": 17823,
    "Ġequinoctial": 20535,
    "poured": 17639,
    "Ġpistols": 17332,
    "Ġ31": 12135,
    "forty": 9377,
    "lightened": 12069,
    "chair": 5917,
    "Ġpossessor": 23827,
    "ics": 3252,
    "Ġdiscriminator": 3387,
    "Ġhot": 4256,
    "Ġanalyzing": 18812,
    "final": 19679,
    "ela": 21572,
    "hurrying": 14986,
    "Ġabove": 2938,
    "Ġwad": 13854,
    "Ġencoun": 4514,
    "akin": 11772,
    "Ġethiopian": 26615,
    "solid": 16382,
    "Ġswarming": 16275,
    "Ġinfatuated": 20536,
    "Ġunivers": 2124,
    "Ġirresolution": 24916,
    "Ġraising": 8913,
    "Ġsenses": 8252,
    "Ġlump": 21555,
    "allies": 14166,
    "Ġmau": 21313,
    "Ġsour": 21219,
    "Ġstrings": 11833,
    "thy": 2936,
    "Ġfishing": 9665,
    "Ġroyals": 19535,
    "nings": 9134,
    "Ġcorp": 5574,
    "zed": 8104,
    "cure": 11476,
    "indirectly": 18438,
    "Ġenglishmen": 19433,
    "fixedly": 24930,
    "Ġlikely": 3598,
    "Ġabominable": 12326,
    "Ġmonument": 16246,
    "maid": 8555,
    "Ġnear": 1719,
    "Ġbarbary": 24219,
    "Ġeggs": 12346,
    "Ġextra": 4056,
    "keeping": 8638,
    "begone": 12884,
    "Ġthackeray": 26457,
    "Ġbulb": 23858,
    "Ġbrawny": 13617,
    "ippi": 20247,
    "Ġsovereign": 10065,
    "Ġgouldings": 26189,
    "london": 9612,
    "Ġsizes": 1522,
    "fts": 18699,
    "Ġappointed": 20106,
    "pieces": 8758,
    "ser": 1425,
    "Ġretained": 7173,
    "verd": 21731,
    "Ġbelongs": 8015,
    "hurst": 19881,
    "ĠĠĠĠĠĠĠ": 7632,
    "Ġconveyed": 8335,
    "Ġcapering": 21357,
    "Ġplanted": 9777,
    "Ġcorruption": 15229,
    "desire": 14664,
    "Ġuniversity": 13126,
    "Ġusually": 6264,
    "rapid": 12675,
    "Ġmaria": 7125,
    "Ġgulf": 10638,
    "uced": 13803,
    "Ġshapes": 14112,
    "one": 614,
    "Ġessays": 19747,
    "estate": 12826,
    "Ġotherwise": 4659,
    "surround": 16760,
    "Ġadmitting": 19186,
    "paused": 17377,
    "Ġxviii": 23413,
    "imate": 4220,
    "Ġwhy": 1760,
    "rels": 6666,
    "unbidden": 21898,
    "Ġrap": 14307,
    "ricted": 15424,
    "Ġsagacious": 14974,
    "weakness": 16129,
    "Ġobliging": 13247,
    "Ġhanging": 5447,
    "caves": 20818,
    "amiable": 14056,
    "Ġilluminate": 17195,
    "pus": 3410,
    "Ġsneezes": 24697,
    "Ġbefell": 14013,
    "Ġcreeping": 18685,
    "Ġindependently": 4245,
    "wel": 6118,
    "Ġchal": 18379,
    "Ġsidelong": 11440,
    "Ġfringe": 17274,
    "Ġshowed": 4499,
    "Ġuniform": 2226,
    "home": 7340,
    "Ġpr": 1597,
    "stealthily": 23966,
    "Ġoriginate": 24124,
    "Ġsalvation": 14761,
    "85": 13685,
    "Ġwont": 9855,
    "ccas": 15890,
    "Ġthump": 11614,
    "Ġkingdom": 12023,
    "Ġawkward": 7074,
    "brim": 23577,
    "congreg": 25399,
    "icated": 7590,
    "Ġaloof": 21789,
    "Ġstoried": 18078,
    "Ġfervent": 14899,
    "Ġnantucketers": 9897,
    "Ġbowsprit": 16563,
    "Ġskies": 8924,
    "Ġgradual": 20604,
    "servants": 15040,
    "Ġbronze": 22865,
    "Ġimpudence": 26243,
    "inc": 2517,
    "Ġhelmsman": 10507,
    "tim": 13794,
    "aks": 8508,
    "Ġclo": 6043,
    "Ġtuples": 13481,
    "Ġow": 8409,
    "uesday": 8590,
    "ething": 1599,
    "match": 15394,
    "Ġdirectly": 2104,
    "Ġautomation": 13262,
    "Ġgener": 596,
    "Ġretort": 23072,
    "declare": 25174,
    "Ġmainten": 16117,
    "Ġexpressing": 12013,
    "axen": 22525,
    "Ġconfession": 11237,
    "Ġluxury": 20135,
    "ta": 13792,
    "net": 1196,
    "Ġaccelerating": 1618,
    "Ġcase": 1941,
    "everything": 6325,
    "Ġsteadfastly": 10654,
    "Ġought": 3414,
    "Ġreprehensible": 15704,
    "Ġtack": 5621,
    "limping": 26395,
    "Ġ38": 24083,
    "Ġsubtlety": 24779,
    "?--": 15307,
    "Ġbreakfast": 3975,
    "ceived": 1963,
    "Ġpretty": 3861,
    "Ġmilan": 19538,
    "Ġrain": 5005,
    "Ġhan": 15623,
    "Ġunravel": 26216,
    "Ġhorrify": 23822,
    "Ġrehears": 15705,
    "ises": 3653,
    "Ġwreck": 7313,
    "mitted": 5213,
    "welcomed": 24645,
    "fat": 8079,
    "Ġprocedural": 12035,
    "ender": 9163,
    "Ġinsolence": 20256,
    "bling": 10685,
    "Ġconstruction": 9388,
    "erring": 11059,
    "anatory": 21366,
    "inting": 9817,
    "Ġsnows": 14730,
    "speaking": 12103,
    "Ġproduced": 2451,
    "Ġseasonable": 24406,
    "Ġflourish": 17163,
    "Ġneared": 14078,
    "happiest": 19334,
    "Ġheighten": 19532,
    "successfully": 14994,
    "Ġomnipotent": 13552,
    "Ġcomfor": 14057,
    "iven": 1238,
    "ace": 717,
    "Ġevangel": 11282,
    "Ġfulfil": 9554,
    "overfitting": 13106,
    "Ġgrammar": 1064,
    "Ġrol": 3552,
    "narrated": 25622,
    "Ġbutcher": 18272,
    "Ġfelicity": 7259,
    "success": 6711,
    "Ġindic": 2890,
    "mush": 20979,
    "Ġswallows": 18884,
    "tw": 2812,
    "Ġcluster": 13575,
    "onstrate": 17770,
    "Ġcongregated": 20100,
    "adventurous": 25362,
    "Ġrocky": 13391,
    "sails": 7496,
    "eling": 6682,
    "Ġnich": 21523,
    "Ġequinox": 25857,
    "orable": 8120,
    "Ġspitz": 14151,
    "Ġfriendless": 23028,
    "mist": 5686,
    "Ġassume": 10518,
    "Ġbewit": 15733,
    "Ġprospect": 4707,
    "Ġclum": 8876,
    "ouraged": 22858,
    "Ġauthent": 14511,
    "humoredly": 26326,
    "Ġagricultural": 26552,
    "japan": 15378,
    "Ġpaddle": 20062,
    "fif": 9119,
    "uttermost": 24943,
    "ore": 418,
    "Ġadaptation": 3155,
    "Ġimm": 3965,
    "Ġglow": 7170,
    "Ġprevailing": 24674,
    "Ġinex": 6528,
    "Ġsurviv": 13439,
    "Ġfrequented": 16588,
    "Ġdest": 2237,
    "recklessly": 25270,
    "Ġoil": 3368,
    "Ġreaction": 15700,
    "Ġfurn": 3710,
    "Ġbreathed": 11222,
    "olic": 14045,
    "date": 17519,
    "living": 7134,
    "iest": 4036,
    "Ġtyros": 26102,
    "Ġdiffers": 23784,
    "Ġthose": 1169,
    "Ġperpendicular": 7208,
    "rogress": 21539,
    "Ġfangs": 12602,
    "Ġinve": 17931,
    "Ġsets": 8778,
    "Ġontario": 26206,
    "Ġoftener": 13569,
    "Ġcal": 1324,
    "kered": 18277,
    "Ġsweep": 8266,
    "Ġwretched": 4082,
    "Ġchristendom": 16696,
    "Ġbruited": 25774,
    "iliation": 10862,
    "fordshire": 4678,
    "ornamented": 26597,
    "dÃ¦mon": 17529,
    "Ġashore": 5352,
    "Ġembodiment": 20531,
    "Ġlustre": 15138,
    "Ġdesert": 6728,
    "irium": 8162,
    "Ġconvinced": 4205,
    "Ġclubs": 25180,
    "his": 1411,
    "Ġresolve": 13174,
    "Ġsunwards": 19016,
    "Ġparm": 15882,
    "Ġelevates": 24503,
    "sculptured": 26047,
    "vit": 13804,
    "programming": 10066,
    "Ġregardless": 19326,
    "ü": 189,
    "Ġspy": 22127,
    "Ġbackward": 7654,
    "Åĵuvre": 25888,
    "osing": 3690,
    "Ġbarbs": 10534,
    "Ġwidow": 8666,
    "Ġrevers": 21667,
    "Ġinflu": 4910,
    "Ġnature": 2534,
    "Ġshaping": 22007,
    "copyright": 5278,
    "retaining": 21248,
    "ezing": 10576,
    "detained": 24382,
    "Ġlonely": 6822,
    "Ġnetherfield": 3930,
    "Ġceasing": 23760,
    "hedge": 22505,
    "kee": 18276,
    "talked": 14988,
    "ady": 994,
    "Ġcapacity": 10442,
    "ages": 825,
    "ion": 296,
    "Ġpromising": 10402,
    "Ġmixing": 24937,
    "corrupt": 14898,
    "Ġoblique": 20172,
    "Ġrates": 1402,
    "Ġfaded": 10811,
    "Ġdoted": 21436,
    "summer": 11998,
    "Ġmachines": 1776,
    "Ġimmemorial": 10513,
    "americ": 8156,
    "Ġdischarged": 15224,
    "quet": 6834,
    "Ġchewed": 16374,
    "Ġassisting": 13261,
    "ays": 6684,
    "Ġindecision": 25782,
    "cheon": 23806,
    "laws": 19810,
    "went": 6512,
    "Ġtraits": 23077,
    "Ġfancying": 12117,
    "bes": 6643,
    "Ġbarbar": 6934,
    "Ġspanish": 2828,
    "Ġstooping": 13067,
    "ills": 1629,
    "Ġloo": 22114,
    "Ġworse": 4720,
    "bound": 6221,
    "Ġprofound": 5497,
    "sentence": 2941,
    "Ġdecanter": 22462,
    "direction": 17526,
    "Ġblotted": 20220,
    "sculpt": 16251,
    "Ġuncovered": 23435,
    "Ġhundredth": 16521,
    "Ġpressure": 13426,
    "Ġlav": 13953,
    "Ġself": 1778,
    "Ġburying": 19254,
    "Ġtire": 17722,
    "Ġverily": 16605,
    "Ġviv": 6157,
    "brad": 20782,
    "Ġbene": 2032,
    "Ġdazzling": 15215,
    "oment": 918,
    "Ġwires": 21298,
    "Ġdreaded": 8289,
    "Ġfrosty": 14938,
    "relations": 14737,
    "gressive": 2752,
    "clu": 20801,
    "Ġtrouble": 3691,
    "articulate": 17401,
    "male": 15392,
    "Ġgout": 21599,
    "poster": 11058,
    "inst": 4294,
    "ocation": 14628,
    "Ġmodel": 510,
    "Ġsammy": 24933,
    "ortunity": 4404,
    "angs": 5835,
    "Ġornaments": 17455,
    "bur": 4688,
    "Ġaccounted": 10297,
    "tooth": 18581,
    "Ġproprietor": 12377,
    "Ġfood": 5080,
    "Ġsubsisted": 19119,
    "Ġexquis": 9702,
    "untary": 9870,
    "Ġengaging": 9339,
    "Ġbashee": 19851,
    "mort": 10712,
    "Ġcorresponds": 19824,
    "Ġsashes": 21228,
    "!âĢĻâĢĿ": 16594,
    "Ġshrunk": 16720,
    "Ġease": 5629,
    "Ġheadland": 22899,
    "Ġiv": 4044,
    "happening": 16567,
    "Ġtriumphal": 24371,
    "Ġimmens": 9942,
    "Ġchilian": 25564,
    "Ġscud": 14193,
    "Ġremembered": 5277,
    "Ġaccommod": 14215,
    "Ġcasked": 24497,
    "Ġmout": 17800,
    "Ġmasoned": 20254,
    "ider": 21769,
    "epilogue": 22104,
    "cred": 9111,
    "introdu": 8940,
    "Ġrespectability": 14487,
    "tiest": 21084,
    "Ġashes": 7616,
    "Ġhorrible": 4906,
    "Ġcurses": 13018,
    "Ġcoleman": 22589,
    "judged": 14834,
    "Ġann": 4492,
    "culiarity": 11143,
    "rebell": 17765,
    "Ġinvolved": 8927,
    "sitting": 8387,
    "Ġthroats": 24576,
    "Ġmet": 1932,
    "inqu": 6122,
    "Ġarmchair": 8271,
    "Ġcooper": 16083,
    "isk": 9170,
    "Ġrequirements": 9801,
    "Ġloaded": 8492,
    "virtue": 20572,
    "Ġhellish": 10553,
    "related": 24016,
    "Ġshroud": 6483,
    "Ġlanded": 7468,
    "companions": 15026,
    "arance": 4699,
    "#": 7,
    "Ġmutable": 23959,
    "Ġshade": 6551,
    "ober": 15410,
    "_,âĢĻâĢĿ": 20404,
    "atical": 10773,
    "Ġrepugnant": 26592,
    "Ġinstruction": 14345,
    "Ġincomplete": 17211,
    "sure": 5522,
    "Ġartistic": 18613,
    "rics": 13042,
    "Ġconverse": 11847,
    "Ġshed": 8181,
    "Ġsequences": 1752,
    "¯": 112,
    "Ġbewil": 11660,
    "Ġchronicled": 25329,
    "fr": 4805,
    "parad": 16398,
    "Ġreg": 733,
    "Ġspl": 2986,
    "grown": 10102,
    "tasted": 17689,
    "Ġseal": 10257,
    "Ġdaylight": 10353,
    "jump": 10106,
    "Ġcontraction": 16013,
    "Ġgenerates": 3664,
    "ortal": 6266,
    "Ġhangs": 11609,
    "inted": 2647,
    "Ġsto": 1501,
    "Ġnavel": 24577,
    "Ġinsinuating": 19273,
    "_âĢĶâĢĻ": 13686,
    "Ġx": 2073,
    "Ġscre": 9740,
    "Ġmonosy": 18853,
    "Ġgrasped": 8034,
    "aan": 20766,
    "Ġpitiful": 13243,
    "Ġuniversally": 12004,
    "Ġcape": 5146,
    "unicorn": 21893,
    "Ġclustered": 25234,
    "ordinate": 12880,
    "Ġtried": 3647,
    "Ġproviding": 1362,
    "Ġboisterous": 20446,
    "sher": 5217,
    "Ġcompromising": 22578,
    "stand": 638,
    "Ġsocietal": 11438,
    "Ġoptimization": 1435,
    "Ġhaunts": 18199,
    "Ġhermit": 15862,
    "Ġsquall": 7044,
    "itime": 15553,
    "draul": 9446,
    "Ġinstances": 5568,
    "olly": 3222,
    "Ġsuddenness": 23385,
    "saying": 8644,
    "virt": 15455,
    "Ġnewcastle": 16228,
    "Ġgeorgia": 23889,
    "Ġveneration": 25047,
    "Ġexe": 3994,
    "Ġconceived": 8150,
    "Ġunhallowed": 17183,
    "Ġmappings": 2144,
    "Ġnocturnal": 20717,
    "Ġcedars": 20295,
    "aking": 975,
    "m": 81,
    "Ġunderstanding": 1805,
    "Ġwholesome": 16010,
    "Ġtradeoff": 2657,
    "Ġthom": 21519,
    "ĠĠĠĠĠ": 3522,
    "prev": 12872,
    "Ġaccountability": 10440,
    "Ġhinting": 19652,
    "Ġgall": 4350,
    "Ġreturning": 5326,
    "Ġcautiously": 16979,
    "Ġtiny": 11555,
    "wheeler": 16191,
    "Ġmaiden": 13390,
    "oury": 22315,
    "aby": 18109,
    "Ġquivering": 12863,
    "variance": 2654,
    "Ġpostmark": 16727,
    "Ġrepel": 23362,
    "Ġbradstreet": 9579,
    "Ġexecute": 7504,
    "invisible": 17742,
    "Ġigniting": 25073,
    "rocket": 13947,
    "Ġnaught": 8128,
    "engaged": 7451,
    "Ġbutterfly": 19912,
    "Ġsupplying": 19801,
    "cific": 10088,
    "Ġattract": 11839,
    "Ġwollstonecraft": 26427,
    "Ġbig": 5806,
    "Ġpremium": 23908,
    "Ġmastiff": 23727,
    "Ġsolitude": 6875,
    "Ġexhaustion": 14964,
    "Ġfinds": 6300,
    "quent": 2093,
    "pull": 6796,
    "expressive": 24307,
    "Ġrucastles": 18723,
    "Ġpursued": 6329,
    "Ġjewell": 19523,
    "Ġmuscle": 14691,
    "Ġ156": 20173,
    "ently": 1615,
    "Ġcaprice": 14578,
    "Ġseemed": 1278,
    "Ġasyl": 12740,
    "Ġdenoted": 16568,
    "Ġdamps": 23476,
    "uerus": 26408,
    "Ġforbidding": 17080,
    "wilful": 25152,
    "ting": 1334,
    "strade": 5065,
    "Ġaccidental": 16850,
    "oot": 13768,
    "Ġsolicit": 22889,
    "buoy": 7760,
    "broker": 13309,
    "flowing": 14572,
    "Ġceremony": 8361,
    "Ġutterly": 6101,
    ".}": 20747,
    "Ġcooked": 13274,
    "Ġdepl": 14047,
    "Ġdebility": 24275,
    "Ġlandlessness": 23383,
    "Ġlodger": 24097,
    "Ġcommunity": 19011,
    "Ġbeadle": 26486,
    "Ġfamed": 16330,
    "Ġthreatening": 16830,
    "nowledge": 10292,
    "Ġaudible": 19883,
    "Ġgrec": 18961,
    "Ġabomination": 22282,
    "conspicuous": 26249,
    "Ġhauling": 14090,
    "Ġregal": 16084,
    "Ġwooden": 4731,
    "Ġmanipulation": 10661,
    "Ġbowed": 6243,
    "Ġfavourably": 16366,
    "Ġpresume": 8038,
    "Ġperiod": 4003,
    "rougham": 15998,
    "supposed": 13320,
    "ble": 542,
    "Ġoily": 13867,
[...]
