{
  "metadata": {
    "vocab_size": 26616,
    "algorithm": "BPE",
    "created_at": "2026-09-03 06:50:41",
    "special_tokens": [
      "<PAD>",
      "<SOS>",
      "<EOS>",
      "<UNK>",
      "<MASK>"
    ]
  },
  "vocab": {
    "Ġgallon": 24185,
    "completely": 12424,
    "homage": 25617,
    "Ġvote": 21951,
    "twinkle": 23706,
    "Ġclose": 3035,
    "Ġarab": 7823,
    "Ġloomings": 24952,
    "real": 10152,
    "Ġdisse": 18549,
    "ps": 4575,
    "Ġsallies": 21232,
    "msprop": 2625,
    "Ġboarders": 16602,
    "Ġthin": 4346,
    "Ġreceives": 20357,
    "you": 1003,
    "Ġdoublo": 6079,
    "Ġbetter": 1177,
    "Ġbass": 17857,
    "Ġdeer": 12725,
    "Ġingenuity": 17166,
    "Ġhers": 7889,
    "Ġhart": 17924,
    "Ġcareer": 11120,
    "zek": 16260,
    "Ġfanciful": 24787,
    "lover": 18540,
    "Ġmonarch": 14419,
    "Ġhonoured": 9884,
    "omnipotent": 25965,
    "Ġfaire": 13369,
    "Ġweb": 9243,
    "Ġforeboding": 20387,
    "regularly": 13210,
    "tack": 12517,
    "inching": 21192,
    "Ġsee": 801,
    "har": 20892,
    "urged": 18051,
    "Ġcomp": 724,
    "Ġcarter": 18902,
    "expound": 23665,
    "Ġgenerator": 3384,
    "ë": 172,
    "Ġwarrior": 24496,
    "1775": 26380,
    "Ġsuperior": 2752,
    "nne": 20991,
    "time": 3149,
    "Ġprofile": 16490,
    "Ġconcluding": 9860,
    "thrown": 8483,
    "Ġendeavouring": 8035,
    "Ġsport": 6690,
    "owl": 12688,
    "rying": 3190,
    "Ġenquired": 21944,
    "nib": 5214,
    "permitted": 18341,
    "Ġtongues": 14866,
    "Ġacquirement": 19257,
    "Ġpanegyric": 26451,
    "Ġinsane": 19271,
    "Ġblunt": 11898,
    "Ġfrederick": 15591,
    "icism": 13959,
    "Ġrepresents": 4903,
    "Ġwall": 3841,
    "uns": 21874,
    "Ġagon": 10323,
    "Ġdescription": 7429,
    "Ġtrous": 10963,
    "cutting": 23787,
    "Ġpitied": 14694,
    "Ġcle": 1510,
    "steep": 19422,
    "vously": 23508,
    "Ġfitzwilliam": 5771,
    "Ġmalay": 24391,
    "Ġdab": 15592,
    "nes": 6961,
    "Ġunreason": 15846,
    "¹": 122,
    "Ġlogs": 16350,
    "urn": 775,
    "Ġfinger": 5274,
    "Ġlatin": 16823,
    "Ġcolonies": 14378,
    "Ġsepulch": 15288,
    "Ġoutput": 929,
    "Ġemerg": 13428,
    "Ġundu": 15841,
    "Ġskip": 1844,
    "blocks": 25518,
    "Ġ\"": 6121,
    "Ġfishy": 16526,
    "Ġsallow": 12541,
    "iant": 5427,
    "Ġpapa": 10659,
    "Ġsensitive": 13201,
    "Ġclin": 14206,
    "Ġindifference": 6727,
    "slow": 7810,
    "Ġvolition": 14800,
    "knife": 6942,
    "Ġ84": 19712,
    "frame": 17117,
    "Ġuncomp": 15845,
    "red": 398,
    "Ġfleet": 9435,
    "mechan": 11861,
    "toller": 20675,
    "Ġaries": 21200,
    "ersed": 10262,
    "Ġexcl": 3478,
    "Ġblows": 5974,
    "ount": 1113,
    "gno": 13730,
    "°": 113,
    "Ġeaves": 15680,
    "Ġ181": 23899,
    "Ġasleep": 6836,
    "pard": 9621,
    "Ġnetwork": 451,
    "Ġpierced": 12286,
    "ross": 806,
    "Ġhath": 12633,
    "Ġinducement": 16845,
    "Ġ78": 19616,
    "Ġeaten": 14848,
    "Ġberyls": 25776,
    "Ġcontest": 18474,
    "indifferent": 14211,
    "rad": 2153,
    "aid": 1921,
    "Ġpleased": 4060,
    "Ġvindict": 13609,
    "chard": 21690,
    "gabriel": 15364,
    "Ġconsec": 21809,
    "Ġnam": 17951,
    "ĠcÃ¦sar": 20583,
    "Ġmedd": 15543,
    "mar": 4334,
    "Ġlighter": 12658,
    "Ġmission": 13011,
    "Ġwork": 1316,
    "Ġindifferent": 6176,
    "ĠĠĠĠĠĠĠĠĠĠĠĠĠĠĠĠĠĠĠĠĠĠĠĠĠĠĠĠĠĠ": 24443,
    "rippling": 24712,
    "Ġfisher": 3227,
    "Ġporpoises": 13386,
    "Ġextras": 22763,
    "Ġdecay": 1010,
    "Ġscholar": 26112,
    "Ġthoughtful": 16195,
    "training": 2518,
    "insensibility": 23073,
    "Ġpup": 12624,
    "Ġoutward": 7904,
    "esley": 17904,
    "fashioned": 9573,
    "Ġseeth": 21957,
    "Ġlives": 4827,
    "crippled": 26386,
    "Ġmonth": 2846,
    "riumph": 4920,
    "Ġphenomena": 21487,
    "Ġpoultry": 17444,
    "generosity": 23789,
    "Ġfashion": 4297,
    "Ġchildish": 13140,
    "occur": 19578,
    "Ġfries": 21418,
    "Ġsucking": 12791,
    "buckets": 26124,
    "Ġdz": 4756,
    "unks": 15779,
    "Ġstrength": 4259,
    "Ġlungless": 24864,
    "Ġsemantic": 1957,
    "Ġlest": 6396,
    "Ġfol": 1289,
    "inioned": 19288,
    "Ġbeliefs": 24583,
    "Ġbritain": 16958,
    "Ġencaps": 12967,
    "Ġancho": 15607,
    "kine": 15379,
    "ores": 2414,
    "itt": 571,
    "determ": 7107,
    "Ġdisconnected": 22529,
    "âĢĶ_": 3206,
    "Ġcrystals": 20230,
    "Ġbumpkin": 20203,
    "Ġrumbling": 18212,
    "brave": 19826,
    "Ġreadily": 5254,
    "ik": 17573,
    "Ġbowl": 11206,
    "Ġstung": 21743,
    "Ġmind": 1617,
    "Ġelixir": 26557,
    "ishmael": 18421,
    "nect": 661,
    "Ġdomain": 3438,
    "Ġspend": 5306,
    "eed": 20843,
    "Ġcultiv": 13560,
    "Ġstray": 18072,
    "discover": 10542,
    "Ġalmighty": 18107,
    "reshold": 21242,
    "concerted": 16674,
    "Ġcircumnavigation": 20403,
    "Ġpermanently": 25474,
    "achalot": 15867,
    "Ġass": 1504,
    "simultaneously": 19866,
    "Ġsystematic": 5245,
    "Ġmischief": 8544,
    "Ġconventional": 25548,
    "Ġsymbols": 2795,
    "Ġbank": 4877,
    "expected": 5780,
    "written": 7995,
    "serve": 13052,
    "Ġleave": 2456,
    "pression": 10409,
    "Ġanx": 3185,
    "Ġwisest": 11234,
    "majesty": 26282,
    "Ġimpenetrable": 17401,
    "Ġdiffered": 22712,
    "sequence": 2853,
    "vid": 914,
    "glasses": 11217,
    "Ġeluded": 12927,
    "Ġvolat": 24144,
    "Ġaglow": 22518,
    "ide": 721,
    "Ġprotested": 9937,
    "Ġweigh": 10895,
    "importance": 9992,
    "east": 9118,
    "Ġsample": 3182,
    "sprinkling": 24913,
    "remem": 13072,
    "aul": 6354,
    "ti": 8390,
    "ing": 273,
    "nder": 20989,
    "Ġnast": 15643,
    "Ġlurid": 19684,
    "Ġadventurous": 16735,
    "ulus": 21868,
    "Ġstress": 18069,
    "Ġconsult": 6058,
    "Ġsubst": 4273,
    "Ġestate": 6318,
    "ky": 4521,
    "ure": 356,
    "fishers": 24929,
    "ú": 187,
    "Ġgraves": 11712,
    "Ġbelt": 13008,
    "appointment": 24062,
    "Ġlady": 1585,
    "ee": 1657,
    "esteem": 26009,
    "in": 262,
    "eland": 11623,
    "evidently": 20348,
    "gaff": 20884,
    "alarm": 15631,
    "mag": 6509,
    "Ġresemblance": 7977,
    "tut": 15437,
    "shadows": 25480,
    "clouded": 20334,
    "Ġconcisely": 19046,
    "Ġmorphology": 3009,
    "welcome": 10004,
    "ints": 3420,
    "Ġunlucky": 10053,
    "Ġprepar": 7897,
    "Ġwore": 6378,
    "Ġunseasonable": 26522,
    "Ġsweeter": 23921,
    "shutters": 20316,
    "Ġrnns": 2396,
    "Ġante": 17898,
    "Ġdeterm": 1271,
    "Ġdiff": 3115,
    "Ġfert": 15586,
    "Â·": 21152,
    "Ġcredit": 4819,
    "Ġdictating": 20155,
    "Ġsmooth": 2778,
    "pulled": 25148,
    "iferous": 17294,
    "Ġleakage": 23460,
    "Ġinclinations": 19542,
    "Ġshakes": 10906,
    "ruded": 15905,
    "Ġlurks": 11292,
    "Ġanyhow": 14257,
    "Ġaddison": 14235,
    "feed": 9296,
    "Ġacquaintance": 4130,
    "izon": 18144,
    "grate": 23414,
    "Ġclamped": 18432,
    "oper": 7347,
    "residual": 19264,
    "Ġinterval": 4050,
    "Ġalive": 4398,
    "Ġshetland": 22163,
    "É": 138,
    "Ġclump": 15975,
    "omorrah": 18020,
    "expose": 23666,
    "Ġfamine": 16329,
    "sin": 21051,
    "Ġbrotherhood": 23672,
    "Ġyield": 5093,
    "saved": 15434,
    "rage": 10845,
    "oak": 21005,
    "Ġpruning": 18973,
    "Ġpoints": 5249,
    "Ġslewed": 23386,
    "Ġacquisition": 18901,
    "88": 20760,
    "Ġprometheus": 15296,
    "Ġaverted": 16258,
    "Ġvictoria": 14876,
    "Ġfring": 11129,
    "Ġfrankenstein": 7097,
    "!âĢĻ": 3335,
    "Ġtumbling": 13828,
    "Ġdisenc": 22530,
    "Ġexceed": 1344,
    "Ġcongratulate": 9066,
    "Ġedged": 23491,
    "Ġinstant": 2704,
    "Ġdus": 8424,
    "Ġprodu": 1208,
    "ip": 554,
    "Ġreb": 15695,
    "sailors": 9925,
    "gro": 10097,
    "miserable": 8660,
    "Ġrummaged": 16912,
    "Ġabated": 18391,
    "Ġtrib": 13822,
    "difference": 13711,
    "Ġcommunicate": 10580,
    "Ġsurging": 19135,
    "Ġrem": 956,
    "Ġsledge": 8111,
    "Ġpossibility": 7458,
    "Ġheedful": 19743,
    "Ġultimately": 17167,
    "Ġdecided": 5471,
    "drowned": 17372,
    "thread": 15830,
    "Ġblossom": 26313,
    "leness": 4691,
    "Ġmethodic": 23178,
    "Ġfow": 6135,
    "bring": 9108,
    "aternity": 21268,
    "haired": 14769,
    "omach": 11637,
    "Ġprogrammed": 11060,
    "Ġprimitive": 25064,
    "night": 2168,
    "Ġtreasure": 9561,
    "Ġcanst": 8861,
    "Ġprompt": 3195,
    "Ġgathered": 8444,
    "and": 372,
    "Ġmonstr": 7668,
    "Ġdeactivates": 20706,
    "Ġwherever": 8526,
    "Ġdoubts": 8582,
    "cks": 3078,
    "Ġerudite": 26353,
    "Ġdesirous": 8945,
    "Ġdusky": 13553,
    "Ġtech": 1620,
    "Ġthrough": 604,
    "Ġsutherland": 10151,
    "Ġminimizing": 3468,
    "Ġ67": 19663,
    "Ġrows": 10563,
    "Ġnetherfield": 3929,
    "worship": 19390,
    "ux": 7813,
    "Ġcav": 13883,
    "Ġpractice": 2889,
    "Ġsaucer": 20608,
    "direction": 17526,
    "Ġspermacetti": 19051,
    "Ġdiving": 12606,
    "Ġvap": 6837,
    "instinct": 19546,
    "Ġcomely": 21847,
    "Ġdies": 11596,
    "feature": 4229,
    "Ġfriday": 14490,
    "Ġinfallibly": 10044,
    "snow": 10726,
    "Ġsuits": 22086,
    "Ġundaunted": 24119,
    "Ġhappy": 2464,
    "Ġnodding": 23335,
    "Ġsubjects": 7074,
    "agree": 14070,
    "chel": 11209,
    "Ġprevention": 16095,
    "lightened": 12069,
    "Ġborders": 15576,
    "roy": 7854,
    "countenances": 24151,
    "despairing": 25077,
    "macy": 18808,
    "slept": 17172,
    "Ġpracticable": 19066,
    "Ġmonotonically": 3832,
    "Ġveins": 8935,
    "Ġanalysis": 1929,
    "Ġramble": 9316,
    "Ġsom": 1276,
    "Ġmeta": 3167,
    "Ġpooh": 18604,
    "Ġarticles": 7110,
    "Ġbeth": 9660,
    "Ġguard": 6180,
    "mush": 20979,
    "Ġperiodical": 14775,
    "bildad": 9589,
    "dimly": 15350,
    "Ġexplained": 5937,
    "Ġwreaths": 25938,
    "Ġdazzling": 15215,
    "Ġappeal": 16317,
    "names": 16531,
    "Ġimposing": 11785,
    "anx": 8788,
    "Ġunseason": 22056,
    "cab": 7333,
    "Ġflor": 8565,
    "Ġpar": 456,
    "Ġam": 659,
    "Ġrequisition": 22665,
    "Ġfel": 1518,
    "bergen": 14339,
    "bul": 6951,
    "Ġlid": 6984,
    "Ġsiberia": 26162,
    "twain": 23703,
    "Ġgaining": 9495,
    "Ġmarbank": 23040,
    "Ġhyena": 24519,
    "Ġbenjam": 22894,
    "atch": 673,
    "Ġreligious": 25124,
    "ection": 4948,
    "Ġlithe": 24669,
    "Ġpanel": 13376,
    "Ġext": 918,
    "sheltered": 25586,
    "process": 11150,
    "henomenon": 13618,
    "infidel": 24664,
    "reduced": 15809,
    "Ġdaughter": 2866,
    "Ġdissip": 10994,
    "Ġbecame": 2691,
    "Ġgrunted": 16172,
    "_?âĢĿ": 15309,
    "Ġscramble": 24579,
    "Ġinferiority": 17116,
    "Ġphotography": 24684,
    "alley": 23027,
    "Ġev": 4829,
    "Ġcoasts": 12168,
    "Ġeyeing": 6461,
    "gir": 8083,
    "Ġincorruption": 26310,
    "Ġnecessity": 7296,
    "Ġintrepid": 11709,
    "civility": 17515,
    "ulation": 5458,
    "uerus": 26408,
    "apping": 5853,
    "orough": 5700,
    "Ġhelper": 24029,
    "Ġidler": 16407,
    "act": 784,
    "Ĕ": 213,
    "Ġsweating": 16464,
    "fare": 7799,
    "Ġstrewed": 23424,
    "Ġtimbers": 14842,
    "Ġantarctic": 19555,
    "Ġpersuaded": 5769,
    "rics": 13042,
    "Ġindiscriminately": 20630,
    "Ġstory": 2899,
    "Ġadaptively": 3693,
    "Ġchosen": 7201,
    "94": 4803,
    "Ġconsc": 4274,
    "mming": 1173,
    "Ġmotioned": 19595,
    "pivot": 21033,
    "friendship": 24051,
    "smith": 5669,
    "Ġrobbery": 11921,
    "Ġgpus": 3733,
    "Ġremaining": 6190,
    "tray": 21080,
    "Ġcrawled": 17045,
    "Ġgipsies": 12412,
    "Ġheiress": 20700,
    "verse": 9691,
    "iment": 2815,
    "marvell": 24173,
    "etwork": 440,
    "Ġmight": 964,
    "Ġsuffocated": 20730,
    "maritime": 24174,
    "Ġswaying": 15049,
    "beards": 22494,
    "Ġpeered": 18669,
    "stern": 8446,
    "Ġsurprising": 14599,
    "orate": 10802,
    "Ġquadrille": 13544,
    "Ġoblong": 14324,
    "civilized": 17076,
    "Ġpemberley": 4589,
    "Ġstream": 5186,
    "ighbour": 3390,
    "pious": 17635,
    "Ġ93": 24592,
    "ians": 2360,
    "Ġswears": 16465,
    "apple": 22845,
    "ĠâĢĺ_": 11119,
    "cain": 15329,
    "giving": 8742,
    "kov": 17588,
    "authority": 13595,
    "irectly": 6940,
    "grow": 10101,
    "as": 302,
    "Ġdoubtless": 6197,
    "Ġ183": 13243,
    "Ġattentions": 5879,
    "smo": 10128,
    "derstand": 651,
    "Ġoverpower": 12845,
    "quet": 6835,
    "Ġmemorable": 16448,
    "Ġoverthrow": 18427,
    "Ġmoving": 1676,
    "rove": 21536,
    "pict": 8386,
    "Ġomen": 11579,
    "self": 616,
    "®": 111,
    "avier": 2829,
    "dataset": 23249,
    "Ġjutting": 22305,
    "Ġbrow": 3985,
    "Ġpremises": 10490,
    "glad": 9011,
    "supper": 12925,
    "Ġmagnanim": 14475,
    "Ġsafely": 9028,
    "Ġcircles": 7967,
    "induce": 22378,
    "Ġsomnam": 23009,
    "Ġimitated": 18330,
    "aging": 2238,
    "Ġ134": 24783,
    "Ġcousins": 9918,
    "Ġthither": 6821,
    "U": 57,
    "Ġplenty": 6710,
    "mic": 12493,
    "Ġprim": 8244,
    "Ġrid": 4353,
    "hatchway": 25905,
    "largely": 19577,
    "hurrying": 14986,
    "Ġabsorbed": 12335,
    "Ġfourteen": 12014,
    "Ġblueprints": 13175,
    "Ġpitching": 16613,
    "obtained": 23099,
    "Ġprovoke": 14829,
    "Ġkill": 4454,
    "Ġhailed": 6408,
    "Ġunexpl": 22043,
    "Ġfortnight": 6202,
    "Ġshocked": 9404,
    "omitted": 18019,
    "things": 6034,
    "ribbed": 16414,
    "Ġcrust": 21354,
    "Ġbrute": 8929,
    "Ġav": 3583,
    "nui": 21002,
    "Ġseizing": 7877,
    "Ġuns": 15840,
    "scot": 14421,
    "Ġacquies": 11099,
    "Ġornam": 15868,
    "Ġworldly": 16331,
    "Ġtakings": 20575,
    "scar": 9819,
    "Ġtower": 8319,
    "Ġxl": 11994,
    "erity": 21270,
    "Ġreadability": 2725,
    "Ġgiant": 13971,
    "Ġphysiognomical": 25612,
    "Ġelderly": 13498,
    "Ġlubber": 17447,
    "Ġdelicate": 6481,
    "Ġadmeasurements": 26227,
    "trunk": 23951,
    "Ġcorrid": 9827,
    "Ġvib": 8165,
    "Ġglistened": 20175,
    "yielded": 25757,
    "Ġbecome": 3161,
    "Ġshut": 3940,
    "Ġpitiless": 19391,
    "Ġblankness": 24611,
    "lantern": 17431,
    "Ġmouse": 4694,
    "ciousness": 20819,
    "Ġdol": 9667,
    "fatig": 17090,
    "murdered": 12207,
    "Ġfingertips": 24020,
    "into": 3679,
    "Ġdescribing": 19256,
    "Ġceiling": 7997,
    "Ġstaid": 21739,
    "Ġpreternatural": 12828,
    "Ġpondering": 17007,
    "Ġhow": 597,
    "Ġflounders": 23017,
    "liter": 11504,
    "stop": 11638,
    "draught": 12095,
    "whatever": 6696,
    "Ġbod": 4582,
    "Ġomnipotent": 13552,
    "Ġcolony": 18765,
    "Ġimprecations": 25821,
    "Ġgallows": 12150,
    "conced": 22472,
    "Ġinject": 2711,
    "Ġnorms": 3665,
    "conduct": 11801,
    "Ġloomed": 12305,
    "Ġchin": 4891,
    "Ġsadder": 24054,
    "olstadt": 7789,
    "Ġunit": 1848,
    "Ġclergyman": 8715,
    "countless": 24150,
    "agne": 21909,
    "rin": 10124,
    "unwho": 21881,
    "Ġnose": 4402,
    "chants": 21695,
    "locked": 7678,
    "Ġsqueaking": 26276,
    "Ġlowly": 11123,
    "Ġfabric": 25948,
    "reated": 10305,
    "Ġdistinguish": 2727,
    "Ġpur": 2216,
    "lott": 6653,
    "Ġbitt": 10798,
    "Ġfatally": 19397,
    "suffered": 24330,
    "venge": 4659,
    "consolatory": 25307,
    "Ġcaul": 10789,
    "ĠĠĠĠĠĠĠĠĠĠĠĠĠĠĠĠĠĠĠĠĠĠĠĠĠĠĠĠĠĠĠĠĠĠĠĠĠĠĠĠĠĠĠĠĠĠĠĠĠĠĠĠĠ": 20043,
    "gallantry": 15061,
    "final": 19679,
    "happening": 16567,
    "**:": 4737,
    "instance": 24169,
    "etical": 13961,
    "frequently": 9982,
    "Ġphil": 3387,
    "Ġtawny": 20485,
    "Ġminds": 6305,
    "Ġshores": 8852,
    "Ġrheumatic": 20707,
    "receive": 12547,
    "endless": 22228,
    "Ġholds": 7975,
    "Ġdocile": 19962,
    "amped": 12037,
    "Ġdiv": 3732,
    "Ġfattened": 25950,
    "presently": 9810,
    "Ġsticking": 13431,
    "itives": 17821,
    "opes": 10313,
    "conclude": 24069,
    "Ġagitates": 22521,
    "geneva": 13733,
    "Ġincant": 18571,
    "lighter": 20961,
    "Ġspiral": 14586,
    "Ġour": 1007,
    "Ġtraitors": 23081,
    "Ġopposite": 5120,
    "Ġblow": 3376,
    "Ġindian": 4128,
    "Ġberkshire": 16886,
    "Ġrespons": 2684,
    "Ġco": 730,
    "Ġleaders": 16630,
    "Ġembra": 6580,
    "Ġdeg": 3285,
    "Ġadmiral": 17308,
    "Ġgap": 21602,
    "Ġarchipelagoes": 14351,
    "Ġhighway": 14349,
    "Ġthirst": 7590,
    "bless": 22316,
    "Ġrepair": 11983,
    "Ġcorners": 18876,
    "Ġwatches": 11084,
    "roman": 22008,
    "wreck": 21139,
    "oved": 5215,
    "power": 7138,
    "Ġtouched": 6002,
    "renew": 24450,
    "Ġrouted": 24908,
    "Ġcentral": 7728,
    "Ġwane": 21291,
    "Ġtattoo": 7359,
    "woods": 13423,
    "Ġburns": 16524,
    "earliest": 20123,
    "over": 1845,
    "inated": 6805,
    "Ġacute": 16127,
    "Ġcounters": 24140,
    "agatha": 21912,
    "Ġforever": 14554,
    "raved": 18015,
    "¼": 125,
    "Ġimpulse": 10027,
    "Ġheat": 5453,
    "Ġenveloping": 19737,
    "!âĢĿ": 847,
    "plans": 21962,
    "Ġabruptness": 25300,
    "Ġagonies": 14254,
    "Ġsatiated": 22908,
    "shaken": 16030,
    "op": 658,
    "superstitiousness": 25509,
    "Ġbalmoral": 16210,
    "ces": 580,
    "Ġram": 11015,
    "for": 962,
    "ceived": 1962,
    "bringing": 17169,
    "familiar": 19786,
    "Ġpart": 858,
    "Ġillustrative": 25069,
    "Ġaperture": 26161,
    "Ġsouthwards": 19636,
    "Ġpatagonian": 20538,
    "Ġital": 10868,
    "rences": 9275,
    "Ġgovernments": 20270,
    "orum": 12595,
    "Ġapplicable": 18998,
    "involved": 25627,
    "Ġrestrained": 16375,
    "Ġdetermines": 2368,
    "mal": 6795,
    "ourably": 14380,
    "bell": 7332,
    "Ġcheap": 13093,
    "Ġjoky": 18407,
    "antucket": 2644,
    "Ġissued": 10602,
    "Ġmadame": 13154,
    "Ġchord": 22249,
    "off": 1887,
    "pray": 5429,
    "deal": 12804,
    "Ġcrossed": 6070,
    "Ġfiendish": 13332,
    "bitterly": 20340,
    "Ġjig": 15955,
    "cellar": 20280,
    "uneven": 23688,
    "barn": 17485,
    "Ġbudge": 15168,
    "Ġrare": 7038,
    "din": 8374,
    "Ġbub": 8118,
    "Ġaveraging": 2419,
    "different": 6502,
    "rigged": 17063,
    "Ġease": 5629,
    "Ġsatisfy": 6912,
    "rimin": 2423,
    "Ġsanguinary": 25930,
    "Ġnovelty": 13467,
    "rannical": 26403,
    "masculine": 24387,
    "Ġpillar": 21476,
    "Ġstubborn": 10418,
    "Ġsinew": 25432,
    "aye": 3659,
    "tic": 8391,
    "Ġprendergast": 26539,
    "Ġparamount": 15882,
    "leave": 7837,
    "Ġlash": 8440,
    "Ġchuck": 8504,
    "itioned": 22479,
    "desp": 6094,
    "Ġcasualties": 25513,
    "Ġshock": 6083,
    "thest": 11657,
    "wherever": 13123,
    "slightest": 25417,
    "Ġpeering": 8537,
    "sentimental": 25682,
    "Ġheld": 3587,
    "Ġpleasantly": 14521,
    "?âĢĿ": 699,
    "edding": 4365,
    "Ġrel": 1097,
    "Ġsultanism": 25889,
    "ominy": 13981,
    "romed": 10907,
    "itan": 10162,
    "Ġexpiration": 22626,
    "Ġprospects": 9962,
    "Ġtus": 10751,
    "Ġuncivil": 11157,
    "Ġbeau": 9227,
    "egyptians": 25899,
    "Ġpie": 13918,
    "mature": 20969,
    "els": 1764,
    "Ġafterwards": 3533,
    "Ġshoulders": 5566,
    "Ġcontents": 7210,
    "Ġmiguel": 25767,
    "Ġmathemat": 3208,
    "Ć": 199,
    "nav": 17612,
    "ances": 1337,
    "Ġexhibited": 9547,
    "castles": 14638,
    "Ġcombat": 16188,
    "Ġhills": 6528,
    "opatra": 22481,
    "Ġmanual": 14200,
    "Ġdesperate": 7777,
    "ty": 1000,
    "Ġbolivia": 24668,
    "hurst": 19881,
    "twilight": 23705,
    "Ġstrictly": 12289,
    "undant": 14794,
    "Ġsnatched": 10473,
    "Ġscor": 8191,
    "Ġskirts": 14355,
    "Ġinhab": 5083,
    "Ġangle": 8606,
    "hide": 10705,
    "Ġrequested": 14310,
    "exposure": 19259,
    "quietly": 10595,
    "Ġkeenest": 12166,
    "Ġcommenced": 8534,
    "Ġlunatic": 24993,
    "aken": 1870,
    "Ġpubl": 3938,
    "Ġrelated": 3716,
    "Ġbingley": 1674,
    "Ġnightgown": 23134,
    "scattered": 22998,
    "nant": 17611,
    "Ġguardsmen": 20633,
    "owards": 4595,
    "bots": 10085,
    "ont": 2622,
    "Ġtranscend": 25670,
    "lynes": 15708,
    "P": 52,
    "Ġelaborate": 18637,
    "el": 306,
    "atory": 6127,
    "letters": 13178,
    "Ġintend": 12769,
    "Ġleak": 2160,
    "Ġmortifying": 13250,
    "Ġsporty": 19892,
    "Ġtrivial": 10145,
    "arrival": 15604,
    "uss": 8767,
    "Ġphrenologist": 25608,
    "Ġperhaps": 1911,
    "vicious": 21121,
    "gling": 10100,
    "Ġslain": 8956,
    "living": 7135,
    "ower": 1047,
    "sadly": 25527,
    "Ġprobed": 18734,
    "Ġbutton": 10270,
    "Ġdipping": 15596,
    "Ġarchly": 22784,
    "mark": 5282,
    "dream": 8731,
    "Ġtexel": 25924,
    "endured": 22229,
    "cooper": 19191,
    "Ġpays": 13301,
    "Ġsmelt": 16069,
    "Ġworshippers": 25694,
    "_.âĢĶ": 23474,
    "Ġappals": 22222,
    "Ġadmiring": 16482,
    "Ġdine": 7366,
    "gue": 12472,
    "stairs": 5155,
    "Ġpulley": 2974,
    "Ġeveryday": 22772,
    "mystery": 15159,
    "Ġincivility": 18575,
    "Ġregimentals": 19860,
    "Ġaccent": 10296,
    "Ġprecipitous": 24836,
    "door": 6195,
    "Ġhealthy": 10853,
    "Ġdelay": 5748,
    "Ġswan": 23054,
    "Ġbran": 5252,
    "ios": 2143,
    "Ġglories": 16244,
    "Ġsalutations": 25383,
    "Ġjustly": 11908,
    "Ġlocked": 6036,
    "Ġstops": 3170,
    "Ġcow": 13879,
    "gener": 3127,
    "rated": 6229,
    "avor": 14261,
    "Ġdenny": 9004,
    "Ġounce": 15276,
    "Ġbrought": 2517,
    "entieth": 17981,
    "Ġrelieve": 8224,
    "buried": 14852,
    "save": 13788,
    "Ġdeliber": 7268,
    "penetrate": 20327,
    "aving": 2407,
    "uated": 10134,
    "Ġalley": 15740,
    "intellig": 5321,
    "iet": 1774,
    "Ġansw": 2204,
    "bucket": 17496,
    "(-": 2978,
    "execution": 20475,
    "âĢľâĢĶ": 10874,
    "oppressed": 24821,
    "swell": 17665,
    "Ġincrease": 9373,
    "Ġrifts": 21979,
    "Ġtransf": 22451,
    "Ġconstraints": 2740,
    "arrang": 14654,
    "Ġmerit": 9430,
    "Ġsnuff": 7992,
    "cies": 1815,
    "Ġworshipping": 22931,
    "Ġdere": 21838,
    "Ġimpulsive": 19966,
    "inery": 17735,
    "horses": 17569,
    "appetite": 22850,
    "Ġsaratoga": 26425,
    "embra": 14077,
    "Ġashore": 5352,
    "forgive": 18730,
    "zers": 21149,
    "Ġboldness": 24428,
    "swed": 24256,
    "Ġriddle": 14823,
    "houn": 20895,
    "Ġtragic": 15259,
    "Ġbeginning": 4243,
    "consc": 4841,
    "Ġentry": 11027,
    "Ġsubmitted": 11875,
    "Ġforgery": 25978,
    "Ġstraight": 3703,
    "Ġemble": 13974,
    "Ġindustry": 18840,
    "eternal": 17985,
    "ical": 753,
    "Ġhomeward": 9394,
    "Ġconjured": 25102,
    "Ġinterference": 8898,
    "Ġvindictive": 20473,
    "olence": 10233,
    "Ġapart": 4746,
    "Ġvult": 12757,
    "Ġdepending": 14294,
    "Ġnav": 5819,
    "Ġsavi": 18326,
    "Ġtor": 8106,
    "Ġform": 1019,
    "Ġsickbed": 24249,
    "hedge": 22503,
    "Ġdri": 2364,
    "capitals": 25083,
    "Ġaffright": 9335,
    "Ġstash": 18070,
    "Ġweighty": 16036,
    "Ġslighted": 16570,
    "Ġlane": 5627,
    "Ġincline": 18572,
    "Ġadjacent": 20713,
    "Ġscheduling": 2350,
    "Ġpat": 1812,
    "ubl": 3596,
    "Ġve": 1108,
    "application": 12367,
    "seems": 10877,
    "Ġaccidents": 10298,
    "Ġdear": 1538,
    "religion": 20578,
    "Ġtattooings": 24901,
    "Ġkl": 2736,
    "Ġisle": 8837,
    "Ġstamping": 20034,
    "exerc": 16019,
    "Ġmunro": 25631,
    "ado": 11661,
    "Ġregiment": 6433,
    "gale": 13727,
    "ily": 1029,
    "resses": 16155,
    "Ġnow": 691,
    "chooses": 23676,
    "following": 10575,
    "clock": 3931,
    "<SOS>": 1,
    "Ġtenants": 23550,
    "Ġtennessee": 26598,
    "Ġgrazed": 15837,
    "rib": 1944,
    "Ġalacrity": 15741,
    "Ġinvaders": 23482,
    "Ġwarring": 16867,
    "Ġ112": 24437,
    "icle": 10836,
    "asleep": 21547,
    "forget": 11034,
    "Ġlombardy": 26465,
    "Ġgroom": 13969,
    "Ġ99": 10747,
    "Ġjen": 9270,
    "indul": 22374,
    "Ġlazarus": 15031,
    "Ġsultan": 15188,
    "unicorn": 21893,
    "service": 15039,
    "Ġcrocodile": 20742,
    "Ġhistorically": 19381,
    "Ġpitches": 23905,
    "ex": 622,
    "Ġthrone": 12218,
    "Ġpropriety": 10013,
    "lean": 21368,
    "hearts": 13349,
    "Ġconstantinople": 19840,
    "mn": 3578,
    "think": 3609,
    "bub": 15320,
    "Ġhorrify": 23822,
    "Ġdoran": 9182,
    "Ġpractically": 13110,
    "Ġsevered": 18204,
    "Ġsumatra": 15290,
    "Ġlets": 18079,
    "Ġsearching": 13166,
    "atic": 4015,
    "hoist": 23716,
    "Ġinscrutable": 10675,
    "listened": 15046,
    "scuttle": 11914,
    "Ġseventy": 7878,
    "Ġx": 2074,
    "Ġhardly": 2432,
    "embow": 21935,
    "furnish": 25339,
    "Ġreusability": 13562,
    "visited": 13352,
    "Ġsurest": 19058,
    "placidity": 25989,
    "_)": 9105,
    "appro": 7046,
    "uplifted": 17697,
    "Ġjavan": 25000,
    "cour": 4480,
    "uarded": 21108,
    "ispiece": 19728,
    "Ġtrifle": 10604,
    "gument": 20887,
    "Ġspire": 18307,
    "Ġstripped": 10467,
    "Ġgunwale": 7325,
    "Ġtrains": 10949,
    "elope": 14467,
    "Ġ17": 5740,
    "harm": 13738,
    "alled": 5912,
    "Ġcontinual": 6778,
    "try": 7812,
    ">": 34,
    "Ġrecital": 16146,
    "Ġ124": 24469,
    "Ġshank": 22001,
    "Ġpil": 5014,
    "Ġnois": 4267,
    "flag": 14714,
    "natured": 7112,
    "ended": 1834,
    "Ġloath": 7890,
    "Ġmonosyllable": 20728,
    "Ġfiner": 13058,
    "Ġshowed": 4497,
    "Ġfrosts": 19805,
    "Ġrecept": 1523,
    "uously": 7353,
    "Ġpewter": 17188,
    "hit": 20891,
    "Ġadvantage": 4315,
    "ulous": 4450,
    "Ġjumbled": 22301,
    "Ġextravagance": 17282,
    "alle": 1295,
    "Ġcounted": 12144,
    "Ġjun": 8508,
    "bloom": 24690,
    "Ġcher": 6131,
    "Ġannealing": 1554,
    "Ġmedic": 11258,
    "Ġans": 1643,
    "Ġatonement": 21948,
    "Ġsolve": 4195,
    "Ġbountiful": 25945,
    "posted": 24636,
    "Ġdocumentation": 20557,
    "Ġlionel": 25287,
    "Ġislands": 6767,
    "drive": 8686,
    "Ġslouched": 13064,
    "Ġconceals": 23907,
    "`": 68,
    "Ġsundering": 23277,
    "Ġridiculous": 10631,
    "Ġwaited": 4912,
    "isco": 12586,
    "Ġsubsets": 2346,
    "Ġexultation": 15175,
    "mat": 2199,
    "Ġpunish": 12164,
    "Ġbrowne": 13306,
    "Ġmanxman": 9568,
    "Ġahead": 6665,
    "Ġrenewed": 9541,
    "Ġtougher": 21179,
    "Ġprofited": 19193,
    "dark": 5614,
    "educ": 10830,
    "Ġapo": 9633,
    "Ġhates": 21489,
    "Ġwindow": 2994,
    "Ġboarding": 12091,
    "Ġpaying": 9941,
    "Ġspear": 9317,
    "Ġfates": 15582,
    "Ġishmael": 7395,
    "erative": 21274,
    "Ġnumerical": 4245,
    "Ġvind": 10252,
    "Ġwearied": 15797,
    "Ü": 157,
    "Ġderived": 8239,
    "ulged": 12735,
    "Ġrocked": 12861,
    "Ġmasoned": 20254,
    "Ġinnoc": 3794,
    "cloth": 11941,
    "Ġwander": 9034,
    "Ġeffected": 14357,
    "arthly": 8030,
    "Ġappropriated": 23486,
    "atics": 15526,
    "Ġtrunk": 7205,
    "Ġgovernesses": 25130,
    "Ġjaw": 3322,
    "Ġwings": 9166,
    "Ġobservation": 6599,
    "Ġhoops": 9391,
    "Ġnoisy": 13323,
    "Ġnearer": 5303,
    "Ġcrashes": 13129,
    "Ġcomplexity": 1693,
    "Ġfail": 4146,
    "precaution": 23826,
    "Ġelegance": 11334,
    "Ġvol": 4187,
    "jury": 15377,
    "Ġprosecuted": 25294,
    "Ġven": 4648,
    "Ġstepping": 9357,
    "creat": 20802,
    "european": 26373,
    "Ġrealistic": 5862,
    "Ġshed": 8181,
    "Ġtyrant": 24766,
    "Ġinno": 1362,
    "sol": 1791,
    "concerned": 24639,
    "ology": 1609,
    "jud": 4482,
    "Ġpiled": 8426,
    "Ġwithdrawing": 11342,
    "Ġrationally": 18214,
    "Ġbackground": 18649,
    "kitchen": 17587,
    "Ġkilling": 13337,
    "Ġcrippled": 25279,
    "brary": 5755,
    "Ġcommence": 6169,
    "Ġdolphin": 17315,
    "Ġconversation": 3333,
    "securing": 19816,
    "ierce": 14395,
    "sad": 11523,
    "Ġbreadth": 10566,
    "Ġsenate": 25215,
    "lings": 8749,
    "Ġprofundities": 20456,
    "Ġoblige": 10491,
    "Ġfix": 2507,
    "Ġgrate": 12969,
    "Ġhatchet": 16532,
    "uniform": 18160,
    "erde": 21271,
    "vert": 15719,
    "arts": 6565,
    "Ġmusket": 12300,
    "Ġshould": 863,
    "Ġcounterpart": 24720,
    "arman": 11598,
    "Ġautomation": 13233,
    "Ġtown": 2454,
    "Ġshaded": 14108,
    "Ġowest": 25094,
    "Ġvalleys": 14922,
    "Ġshield": 22003,
    "Ġoperate": 19117,
    "Ġinsignificance": 20460,
    "Ġlegitimate": 20644,
    "Ġtidy": 17094,
    "snatched": 24851,
    "Ġrecovering": 11866,
    "Ġbeaches": 18087,
    "fear": 8516,
    "Ġfellow": 2776,
    "gentlemen": 9507,
    "Ġaverred": 18867,
    "Ġwre": 5077,
    "ices": 2137,
    "Ġwait": 4911,
    "them": 3017,
    "Ġpassion": 4558,
    "Ġsub": 951,
    "Ġunluck": 8487,
    "Ġincorrect": 2729,
    "Ġtelescope": 17351,
    "gates": 20874,
    "Ġeleg": 6194,
    "Ġcrucial": 9896,
    "Ġw": 272,
    "Ġton": 15467,
    "Ġtransformations": 3487,
    "Ġhumorous": 10363,
    "vi": 2377,
    "Ġbushy": 16404,
    "Ġvile": 8475,
    "boast": 23255,
    "arms": 10176,
    "Ġlatterly": 24084,
    "Ġsoftware": 18920,
    "drawers": 19389,
    "Ġdimmed": 24270,
    "Ġlearnt": 7615,
    "lightning": 16555,
    "omin": 4703,
    "Ġreads": 23116,
    "Ġfestival": 25446,
    "Ġrust": 6409,
    "overs": 17623,
    "Ġsuppression": 23003,
    "lude": 6163,
    "imodal": 17450,
    "Ġquitting": 7646,
    "Ġattended": 5391,
    "Ġundulates": 24118,
    "Ġste": 1391,
    "Ġrepine": 16412,
    "Ġelev": 5536,
    "Ġrenewal": 12239,
    "iance": 5280,
    "Ġsized": 11565,
    "Ġsomewhat": 4897,
    "Ġkn": 4547,
    "malice": 17605,
    "Ġincarnate": 20378,
    "Ġbashee": 19851,
    "arrived": 12614,
    "impregnable": 26483,
    "Ġexcellence": 11453,
    "attoo": 6808,
    "ders": 8075,
    "sword": 10728,
    "xim": 1093,
    "Ġscales": 4850,
    "Ġenchantment": 24870,
    "wel": 6119,
    "istic": 1027,
    "Ġmention": 2984,
    "Ġape": 21199,
    "Ġvir": 7002,
    "Ġplan": 3880,
    "Ġhoist": 11981,
    "conce": 8513,
    "Ġtransl": 2828,
    "istics": 1629,
    "Ġgenerative": 5644,
    "Ġsides": 4580,
    "dignity": 15349,
    "oyed": 14367,
    "vill": 10737,
    "Ġinfallible": 15074,
    "Ġguests": 12291,
    "Ġploughing": 26261,
    "Ġremarkably": 7703,
    "suddenly": 6494,
    "gyric": 19111,
    "Ġclearer": 16315,
    "Ġauthentic": 20537,
    "Ġpeople": 2545,
    "Ġpersuasions": 16634,
    "Ġpsal": 15620,
    "Ġapproxim": 1220,
    "Ġappalling": 8502,
    "earn": 10698,
    "Ġsentimental": 24753,
    "Ġrefine": 3192,
    "Ġvapors": 19910,
    "Ġstick": 6027,
    "Ġdrunkard": 20180,
    "Ġdisappearance": 9300,
    "adays": 14016,
    "Ġdestination": 19151,
    "Ġfollow": 1398,
    "Ġdiscoursing": 26267,
    "narrow": 11510,
    "Ġvicissitudes": 12423,
    "missionary": 24616,
    "ureau": 10229,
    "extent": 22767,
    "Ġalpine": 18108,
    "leep": 4635,
    "uncle": 8159,
    "comm": 7440,
    "Ġsemantics": 2892,
    "absolut": 8460,
    "dick": 11481,
    "Ġnotwithstanding": 9717,
    "gging": 7697,
    "Ġcarelessness": 13080,
    "Ġterrier": 23400,
    "Ġhabitu": 19531,
    "Ġresounded": 22548,
    "Ġfilled": 4394,
    "puzzling": 26144,
    "ileries": 18061,
    "Ġcomplement": 23712,
    "ient": 394,
    "covenant": 23564,
    "Ġdevils": 7230,
    "Ġnever": 1015,
    "Ġhind": 9191,
    "wrinkles": 16558,
    "Ġcarpent": 4465,
    "Ġbefallen": 12347,
    "prodigious": 17469,
    "Ġcountries": 13101,
    "pretend": 24883,
    "Ġdetestation": 17130,
    "aneous": 7240,
    "obviously": 25243,
    "ĠâĢĶ": 13814,
    "gave": 7800,
    "Ĺ": 250,
    "colour": 9906,
    "Ġfun": 525,
    "Ġscratching": 20372,
    "Ġoccupant": 16654,
    "Ġembellish": 25848,
    "dimensional": 2349,
    "Ġderision": 16312,
    "degrad": 22147,
    "rative": 17654,
    "tru": 10731,
    "Ġgay": 5535,
    "Ġgrampus": 21997,
    "Ġcab": 2633,
    "Ġluxur": 12345,
    "Ġelusive": 22649,
    "herself": 4890,
    "Ġsword": 6734,
    "omas": 12676,
    ".)": 6784,
    "Ġeloped": 22648,
    "Ġends": 8238,
    "pe": 1436,
    "ford": 2821,
    "ht": 376,
    "odox": 21820,
    "ĠâĢľâĢĺ": 8506,
    "Ġgratefully": 20448,
    "Ġcook": 3713,
    "Ġray": 18642,
    "echo": 15352,
    "Ġ131": 24781,
    "chains": 9688,
    "Ġcust": 11585,
    "Ġjudgment": 5765,
    "approb": 11044,
    "Ġluxurious": 17314,
    "Ġunheard": 22029,
    "Ġopulent": 23630,
    "highest": 20411,
    "Ġmisanthropic": 26562,
    "doing": 8587,
    "Ġbenefit": 8293,
    "Ġpains": 5966,
    "_:": 17481,
    "itself": 7834,
    "Ġable": 3079,
    "Ġtradesman": 20076,
    "Ġviolent": 5117,
    "·": 120,
    "tumult": 12427,
    "Ġshun": 11713,
    "Ġsow": 17751,
    "Ġtooks": 23326,
    "Ġlean": 7606,
    "Ġchatbots": 11351,
    "Ġtemperate": 16166,
    "hated": 17563,
    "uted": 7593,
    "iced": 3899,
    "theories": 18081,
    "message": 17375,
    "Ġinstructed": 19286,
    "Ġconcealment": 16916,
    "preserver": 20216,
    "Ġscaled": 2107,
    "comfortably": 16877,
    "Ġconfirmation": 17213,
    "Ġnerve": 16343,
    "Ġlock": 5929,
    "Ġruinous": 24634,
    ",--âĢľ": 19198,
    "Ġplantation": 11425,
    "hib": 15371,
    "Ġecho": 12671,
    "married": 9952,
    "Ġprofits": 16491,
    "emic": 18186,
    "clusion": 16308,
    "Ġwrote": 5011,
    "Ġsp": 457,
    "ably": 1847,
    "cop": 20803,
    "Ġhyperborean": 26341,
    "Ġdiscerned": 25006,
    "Ġeternity": 12283,
    "Ġjacket": 6490,
    "worthy": 7733,
    "Ġlined": 15654,
    "_,âĢĿ": 6220,
    "thy": 2932,
    "):": 11463,
    "Ġclearing": 8240,
    "Ġunconcerned": 20513,
    "aunted": 20772,
    "Ġnupt": 13946,
    "Ġviewed": 10465,
    "Ġeve": 13973,
    "Ġimped": 18444,
    "Ġmuchness": 18709,
    "Ġguardianship": 17423,
    "Ġtroubles": 19442,
    "Ġnevertheless": 5040,
    "gentleness": 24845,
    "erce": 6128,
    "Ġterra": 13121,
    "Ġspasmodically": 17317,
    "exhibited": 18478,
    "Ġapartment": 6636,
    "Ġconstrained": 19242,
    "Ġregal": 16076,
    "Ġcasc": 15560,
    "Ġflush": 14427,
    "Ġpleasing": 6192,
    "razor": 21640,
    "Ġclasped": 17209,
    "ample": 1364,
    "Ġidentifies": 12019,
    "Ġinjuries": 11279,
    "narr": 12501,
    "host": 5869,
    "Ġinvade": 19144,
    "Ġcircumstances": 3924,
    "Ġsandwic": 24665,
    "Ġpromise": 4197,
    "clothes": 9060,
    "spass": 18686,
    "condition": 7061,
    "ignomin": 23269,
    "Ġforge": 8458,
    "pumps": 21029,
    "85": 13685,
    "solic": 16379,
    "ire": 492,
    "carb": 20812,
    "Ġsupposed": 4559,
    "Ġhundreds": 4327,
    "contained": 22474,
    "included": 19210,
    "Ġexec": 19495,
    "Ġbashful": 20423,
    "Ġemploy": 3615,
    "ursday": 12281,
    "Ġdespaired": 14671,
    "Ġpurport": 14583,
    "Ġstupid": 7604,
    "Ġby": 383,
    "Ġagile": 22517,
    "Ġconsummate": 25311,
    "Ġlass": 15652,
    "Ġlandsman": 11352,
    "growing": 13736,
    "po": 1139,
    "Ġunshored": 25814,
    "enchant": 21286,
    "Ġappears": 5402,
    "particular": 5757,
    "cement": 2914,
    "Ġcollected": 2612,
    "Ġchivalrous": 20518,
    "Ġclimbing": 20073,
    "fering": 17544,
    "Ġhampshire": 15246,
    "ruct": 687,
    "ppered": 15795,
    "Ġlazy": 17051,
    "presented": 12996,
    "langu": 4807,
    "Ġmainz": 22650,
    "Ġbery": 13901,
    "Ġmincing": 18752,
    "Ġclergy": 7643,
    "tum": 11534,
    "Ġcrabs": 19176,
    "Ġgettest": 23236,
    "estic": 4956,
    "Ġclink": 22359,
    "Ġcetacean": 25879,
    "Ġinscriptions": 20012,
    "ane": 1180,
    "Ġmedical": 9473,
    "Ġhead": 1123,
    "Ġbust": 10170,
    "Ġblurred": 22934,
    "latin": 25259,
    "Ġmurky": 19203,
    "Ġtack": 5621,
    "Ġmatch": 4530,
    "Ġbloody": 9892,
    "wish": 8100,
    "elev": 12463,
    "Ġopposing": 12044,
    "Ġutterance": 14766,
    "Ġconstables": 19072,
    "Ġconcerned": 5332,
    "disappointed": 25192,
    "hist": 7132,
    "Ġgermany": 25786,
    "writes": 4988,
    "Ġgiants": 25961,
    "inclined": 10642,
    "ches": 2148,
    "scand": 18857,
    "Ġcoolly": 9775,
    "moment": 3580,
    "useless": 14596,
    "ened": 1390,
    "impat": 11204,
    "Ġcap": 2363,
    "aggo": 5097,
    "Ġgreeks": 20016,
    "thoughtfully": 24047,
    "ishly": 14202,
    "are": 638,
    "Ġpool": 5173,
    "distance": 12157,
    "oors": 17622,
    "Ġthrew": 3970,
    "commanded": 16990,
    "Ġmarlingspike": 26581,
    "pth": 2384,
    "Ġjump": 4504,
    "Ġse": 401,
    "é": 170,
    "occasional": 19579,
    "oss": 10118,
    "slave": 16897,
    "Ġallev": 18103,
    "lives": 12490,
    "Ġisles": 8461,
    "ignantly": 23268,
    "Ġwo": 3650,
    "vap": 13806,
    "Ġbarren": 11208,
    "Ġlandowner": 23382,
    "Ġmany": 1106,
    "Ġsting": 10863,
    "fall": 5135,
    "Ġtorrent": 17093,
    "Ġsto": 1497,
    "Ġrubber": 22787,
    "Ġbennet": 1572,
    "Ġacquiesce": 20332,
    "Ġexquis": 9702,
    "Ġmagnetic": 17243,
    "Ġbrows": 13305,
    "Ġcloudless": 16671,
    "Ġthreads": 13122,
    "Ġ1846": 26085,
    "Ġrake": 18643,
    "lays": 14925,
    "Ġbigot": 24566,
    "Ġlightly": 13088,
    "Ġbeam": 2876,
    "Ġcrawling": 17046,
    "Ġvictory": 16656,
    "Ġankles": 17901,
    "Ġmccauley": 26429,
    "combination": 25487,
    "Ġneeds": 6607,
    "Ġshower": 11714,
    "Ġdirest": 22708,
    "crimson": 24088,
    "Ġcheck": 7271,
    "Ġoutlines": 15961,
    "Ġunharmed": 15143,
    "Ġprem": 3429,
    "Ġgout": 21599,
    "Ġslates": 11108,
    "attempts": 17193,
    "Ġsecretary": 19445,
    "share": 14240,
    "boards": 23257,
    "Ġderbyshire": 6588,
    "Ġthickets": 24026,
    "Ġbrazier": 26322,
    "Ġsheet": 6264,
    "Ġinstruments": 12228,
    "window": 7743,
    "Ġchamois": 16802,
    "uer": 21103,
    "shoulder": 16586,
    "drown": 13708,
    "convinced": 10625,
    "Ġduke": 7756,
    "Ġheaped": 18040,
    "slanting": 24558,
    "point": 6064,
    "sneezes": 11448,
    "Ġprogramming": 1186,
    "Ġpunch": 9958,
    "Ġoverlook": 10960,
    "Ġham": 3424,
    "Ġeddy": 13550,
    "Ġoverpowered": 15292,
    "capital": 15092,
    "mblance": 7323,
    "Ġforlorn": 14018,
    "eprints": 12797,
    "Ġimplies": 24874,
    "Ġbegin": 3098,
    "shattered": 22465,
    "Ġmamma": 10051,
    "Ġrecorded": 11295,
    "elfare": 11781,
    "Ġlit": 6248,
    "Ġshud": 5461,
    "Ġdens": 21427,
    "Ġdeserve": 8309,
    "slight": 10729,
    "arying": 9804,
    "Ġin": 291,
    "Ġburying": 19254,
    "luckily": 19755,
    "Ġjewel": 9945,
    "Ġarrayed": 25665,
    "Ġrespectability": 14487,
    "soles": 18685,
    "raction": 8138,
    "Ġcounting": 13100,
    "itancy": 21336,
    "77": 15304,
    "Õ": 150,
    "professional": 20278,
    "Ġgave": 2217,
    "Ġnearing": 15802,
    "Ġlately": 6388,
    "lected": 1635,
    "somehow": 12016,
    "yder": 10141,
    "Ġdescends": 14290,
    "wicked": 24449,
    "Ġstill": 1158,
    "atisf": 21266,
    "estinated": 15927,
    "Ġ63": 24366,
    "Ġspirit": 3725,
    "Ġboat": 1279,
    "Ġtheatre": 21281,
    "Ġpiercing": 13497,
    "Ġcircling": 19094,
    "lowering": 16035,
    "Ġphilosopher": 12188,
    "Ġjourney": 3878,
    "blending": 24128,
    "Ġperformer": 18757,
    "Ġlobster": 11391,
    "billows": 20239,
    "Ġmodular": 12821,
    "Ġwomen": 4750,
    "Ġboyhood": 23758,
    "Ġfacet": 15589,
    "mises": 20980,
    "solid": 16380,
    "Ġsons": 10768,
    "Ġdaresay": 14707,
    "Ġconvict": 23748,
    "icked": 10335,
    "Ġrephrased": 26479,
    "Ġdiagon": 24739,
    "Ġshameful": 19854,
    "transferred": 24514,
    "Ġwail": 21289,
    "supplementary": 20552,
    "Ġthy": 2513,
    "unable": 14062,
    "Ġsog": 22088,
    "jah": 17583,
    "ieve": 1655,
    "ency": 3867,
    "gress": 2213,
    "Ġrejoined": 14930,
    "Ġcoronet": 6346,
    "appre": 14373,
    "Ġairth": 23319,
    "Ġcho": 4548,
    "vell": 3956,
    "Ġsubord": 22789,
    "greek": 25405,
    "Ġuncork": 23432,
    "unpardonable": 21894,
    "Ġsupposition": 9820,
    "Ġdemonstrate": 24997,
    "Ġtissu": 25921,
    "duck": 22416,
    "Ġmouldy": 14977,
    "Ġeyelids": 26108,
    "murderer": 13397,
    "dwell": 15345,
    "Ġundergo": 23240,
    "diff": 9116,
    "Ġthirds": 16710,
    "Ġkicking": 16903,
    "Ġdevil": 3613,
    "Ġmaggie": 26293,
    "cked": 2762,
    "bingleys": 19637,
    "Ġmariners": 6069,
    "Ġinstituted": 18696,
    "sion": 8094,
    "ergy": 2362,
    "counterpart": 26361,
    "Ġblot": 9815,
    "Ġlabels": 3291,
    "Ġear": 1422,
    "angu": 567,
    "Ġguarded": 9829,
    "Ġarrant": 23299,
    "Ġminuteness": 19140,
    "Ġexult": 10232,
    "Ġlav": 13952,
    "Ġgloried": 22990,
    "vanished": 15063,
    "vit": 13804,
    "Ġaston": 3702,
    "principle": 10653,
    "odecimoes": 25319,
    "corrid": 24484,
    "Ġamph": 18511,
    "Ġintelligent": 1406,
    "rages": 15685,
    "Ġloveliest": 20264,
    "Ġsafe": 5103,
    "Ġincidents": 9303,
    "tossed": 10999,
    "remarked": 12292,
    "Ġhypothesis": 14786,
    "circumstances": 8047,
    "Ġatrocious": 21949,
    "Ġlance": 4879,
    "Ġdesiring": 14418,
    "Ġfairest": 20466,
    "persuaded": 15077,
    "Ġtram": 11093,
    "explained": 23146,
    "Ġloungers": 24863,
    "Ġperadventure": 22403,
    "Ġarsacidean": 20368,
    "Ġjava": 12316,
    "Ġlangsdorff": 15280,
    "Ġhaving": 1881,
    "Ġsoldier": 16922,
    "Ġmiser": 18702,
    "ils": 3186,
    "Ġrising": 4354,
    "Ġmand": 21307,
    "Ġbeget": 9228,
    "Ġdisappo": 4506,
    "aulding": 11341,
    "impetuous": 23766,
    "Ġdisputing": 25825,
    "ake": 749,
    "delightful": 12201,
    "Ġpre": 507,
    "hush": 20908,
    "ravelled": 18017,
    "Ġexh": 5232,
    "Ġrepose": 6743,
    "Ġdescrying": 18619,
    "Ġservant": 5764,
    "eridge": 15529,
    "birth": 15325,
    "Ġpianoforte": 15277,
    "Ġunkindness": 22046,
    "Ġastonishing": 10504,
    "older": 15760,
    "Ġmere": 2713,
    "lads": 20957,
    "enses": 10997,
    "Ġtidings": 11399,
    "Ġhorribly": 16345,
    "borrowed": 20794,
    "Ġcit": 10785,
    "Ġcentury": 8291,
    "orient": 2875,
    "axen": 22525,
    "ouch": 2779,
    "Ġeligible": 10673,
    "likewise": 13109,
    "Ġhaze": 18197,
    "contact": 23730,
    "Ġbuild": 6475,
    "Ġcomfor": 14055,
    "Ġdiscre": 2417,
    "console": 22475,
    "prepar": 22456,
    "dering": 5307,
    "Ġenvelop": 5588,
    "Ġmoulton": 17438,
    "Ġundoing": 22039,
    "Ġhauling": 14090,
    "icil": 17974,
    "Ġdestroyed": 5272,
    "](": 11468,
    "pleasing": 14745,
    "Ġsavag": 19377,
    "Ġimprove": 1809,
    "hump": 12482,
    "Ġsort": 1507,
    "Ġenable": 685,
    "meant": 7921,
    "resolved": 9642,
    "Ġscience": 1582,
    "osa": 22264,
    "Ġilliterate": 26596,
    "somewhere": 12017,
    "Ġcontracting": 16015,
    "allic": 12818,
    "Ġtrifled": 24675,
    "escaped": 14233,
    "building": 17312,
    "Ġsquares": 11171,
    "Ġblanched": 26284,
    "counters": 25398,
    "Ġresources": 2935,
    "really": 6972,
    "Ġsimilitude": 19212,
    "Ġfields": 2142,
    "her": 489,
    "Ġphilosophers": 10554,
    "sharpening": 22470,
    "Ġtops": 14588,
    "Ġnecessitated": 23932,
    "Ġguineas": 16275,
    "Ġhip": 17923,
    "daughter": 8354,
    "Ġdemands": 19641,
    "Ġfixing": 13160,
    "python": 4692,
    "Ġaccommod": 14216,
    "Ġcollinses": 19131,
    "Ġgaff": 17996,
    "Ġhated": 7585,
    "Ġmatrimony": 13639,
    "Ġob": 860,
    "Ġchanging": 11757,
    "affections": 17359,
    "Ġarrows": 18344,
    "rer": 3622,
    "Ġresumed": 11816,
    "Ġdivers": 9668,
    "Ġinconvenience": 9566,
    "persecutor": 26531,
    "Ġconsort": 18722,
    "circ": 4388,
    "ĠĠĠĠĠĠĠĠĠĠĠĠĠĠĠĠĠ": 22954,
    "room": 2178,
    "Ġholy": 6593,
    "Ġethiop": 26156,
    "Ġbald": 16209,
    "loud": 11503,
    "main": 8088,
    "Ġinspiring": 19114,
    "harpooneers": 8693,
    "Ġsagittarius": 24731,
    "momentum": 4991,
    "Ġswallows": 18884,
    "Ġenclosure": 20627,
    "Ġpert": 22400,
    "Ġjerked": 19835,
    "Ġoffending": 22742,
    "situation": 11439,
    "Ġsprung": 11250,
    "Ġsurrey": 14561,
    "marks": 7346,
    "Ġsublimity": 26348,
    "nay": 7137,
    "Ġdeftly": 26495,
    "Ġlees": 18078,
    "extending": 22769,
    "Ġapproving": 18515,
    "allowing": 24358,
    "Ġj": 533,
    "Ġcurtain": 14416,
    "Ġfolded": 7768,
    "Ġwindibank": 7256,
    "quent": 2096,
    "fright": 9598,
    "Ġvast": 3299,
    "offices": 19063,
    "Ġduck": 8798,
    "spermaceti": 12198,
    "der": 469,
    "Ġlent": 21550,
    "Ġunfathomably": 25874,
    "lass": 5994,
    "Ġ26": 10472,
    "Ġpantry": 20298,
    "Æ": 135,
    "Ġshowing": 7732,
    "Ġscenari": 22296,
    "Ġcontent": 5034,
    "stood": 4113,
    "volutions": 16324,
    "Ġsplendidly": 25328,
    "Ġface": 1724,
    "Ġconsequent": 18113,
    "Ġintelligible": 15944,
    "ids": 21767,
    "gaining": 20127,
    "Ġdelic": 4131,
    "Ġjustified": 11909,
    "springing": 24890,
    "Ġtrusted": 10520,
    "Ġevangelical": 25507,
    "nowled": 5470,
    "Ġdun": 6676,
    "Ġscarcity": 23830,
    "Ġpot": 2987,
    "Ġceasing": 23760,
    "know": 2320,
    "Ġhire": 21488,
    "Ġfearfully": 23516,
    "chanced": 18795,
    "reflected": 24732,
    "Ġhaul": 11696,
    "Ġendwise": 23138,
    "Ġfloor": 4377,
    "publ": 17640,
    "ulnerable": 18153,
    "ival": 4226,
    "nical": 20993,
    "Ġmemo": 18119,
    "Ġminister": 18753,
    "fancy": 7337,
    "Ġtheoretic": 23312,
    "Ġchill": 11756,
    "Ġscriptures": 26237,
    "string": 15690,
    "south": 8762,
    "Ġsuffered": 5649,
    "thrasher": 25659,
    "Ġsoothed": 10032,
    "Ġpipeline": 2371,
    "Ġgrapes": 15219,
    "atters": 18487,
    "Ġforged": 12709,
    "Ġpoltro": 23621,
    "Ġlouisa": 13549,
    "Ġlocks": 11728,
    "moreover": 12974,
    "Ġcontrol": 13084,
    "Ġwhaling": 2782,
    "Ġgentleman": 3040,
    "described": 18896,
    "Ġsusp": 2664,
    "Ġmot": 2983,
    "Ġfragment": 14506,
    "adie": 18091,
    "Ġcad": 12573,
    "Ġinexorable": 12260,
    "Ġvariation": 22668,
    "Ġdang": 9177,
    "irt": 3075,
    "Ġartfully": 22613,
    "recollection": 25349,
    "iquet": 17577,
    "Ġoriginated": 24122,
    "Ġchiselled": 25560,
    "Ġmonstrous": 7790,
    "Ġlaud": 17970,
    "eager": 12464,
    "Ġsullenly": 17175,
    "Ġreckon": 19872,
    "weary": 22689,
    "captains": 12132,
    "Ġbranches": 6777,
    "alot": 15630,
    "rent": 1172,
    "Ġcryst": 9920,
    "health": 13836,
    "Ġprovinc": 16744,
    "ision": 1853,
    "Ġtechni": 1660,
    "ourable": 4967,
    "invite": 25091,
    "Ġstumble": 26484,
    "Ġliberties": 19670,
    "bond": 17492,
    "Ġradiance": 13375,
    "surround": 16760,
    "dil": 11480,
    "Ġjost": 23632,
    "lutions": 20952,
    "omist": 21641,
    "Ġpra": 4345,
    "Ġgibberish": 25787,
    "belief": 13286,
    "Ġclerical": 25569,
    "possibly": 10546,
    "til": 17673,
    "Ġbrut": 18768,
    "Ġcaprice": 14579,
    "Ġsufferings": 7513,
    "wol": 21125,
    "Ġdauntless": 26338,
    "wins": 21132,
    "Ġdripping": 13151,
    "Ġassociates": 24711,
    "speed": 19412,
    "letons": 14615,
    "pennies": 26287,
    "Ġliv": 6681,
    "Ġunwonted": 15010,
    "Ġ*/": 10376,
    "Ġhover": 15624,
    "Ġtimidity": 24688,
    "wherein": 19109,
    "ins": 1380,
    "orders": 12879,
    "Ġworsted": 19998,
    "Ġlime": 13951,
    "Ġmounts": 17808,
    "Ġforts": 21776,
    "Ġnumber": 1979,
    "Ġbarricade": 14662,
    "irwin": 8471,
    "Ġofficers": 4426,
    "Ġcocoanuts": 26364,
    "pie": 21013,
    "Ġlecture": 13571,
    "Ġflashing": 13034,
    "Ġinnumerable": 13356,
    "Ġparac": 12800,
    "Ġstronger": 8581,
    "Ġinex": 6529,
    "Ġsums": 2900,
    "Ġbosoms": 16797,
    "Ġintelligently": 4418,
    "Ġhurts": 19113,
    "Ġrender": 8305,
    "Ġimple": 1805,
    "Ġparamore": 22126,
    "iature": 8745,
    "Ġrate": 1060,
    "pleasanter": 24050,
    "Ġirre": 7468,
    "wis": 12523,
    "Ġwhaler": 7520,
    "Ġoozy": 21330,
    "Ġxv": 23409,
    "Ġenl": 18190,
    "Ġattested": 22632,
    "to": 715,
    "objections": 19918,
    "peleg": 16297,
    "Ġsuited": 12790,
    "none": 6962,
    "iem": 20919,
    "ighb": 10425,
    "Ġspinning": 15055,
    "fth": 20858,
    "figured": 20126,
    "Ġbast": 21382,
    "sledge": 21060,
    "icity": 2540,
    "Ġmassive": 9935,
    "Ġscarce": 8625,
    "Ġcathedral": 17416,
    "osing": 3688,
    "ocean": 12405,
    "ns": 751,
    "Ġprime": 10406,
    "iece": 3234,
    "manners": 16187,
    "unknown": 10892,
    "Ġsomebody": 7912,
    "Ġtransition": 14237,
    "Ġextant": 18705,
    "ady": 994,
    "olent": 8155,
    "Ġflutter": 16250,
    "Ġtended": 21169,
    "Ġlod": 4039,
    "Ġhumility": 12990,
    "Ġexter": 7397,
    "Ġvillage": 5774,
    "Ġjacobians": 2891,
    "Ġken": 22195,
    "Ġrue": 11871,
    "Ġquantization": 19856,
    "elze": 21576,
    "greatly": 16626,
    "Ġusing": 713,
    "ogue": 9789,
    "Ġeating": 8136,
    "Ġacceded": 22383,
    "baboon": 25517,
    "yarn": 15460,
    "Ġattack": 5478,
    "Ġmuster": 16126,
    ".âĢĻâĢĿ": 6741,
    "bohemia": 20733,
    "Ġfrigid": 17355,
    "watching": 16932,
    "cking": 4265,
    "Ġperf": 12855,
    "Ġfishing": 9665,
    "Ġhandling": 8916,
    "Ġconveniently": 20082,
    "Ġactivations": 2719,
    "Ġcompressed": 21849,
    "record": 16923,
    "erably": 7573,
    "ashtego": 4098,
    "Ġlatitudes": 9499,
    "Ġsquid": 11882,
    "corrob": 24485,
    "merit": 19283,
    "ertion": 12043,
    "Ġmur": 2488,
    "Ġcoquet": 22588,
    "Ġpanther": 16821,
    "hyme": 19612,
    "Ġproflig": 23569,
    "Ġcashier": 20201,
    "unavoidable": 17393,
    "viii": 12025,
    "Ġaside": 5234,
    "moored": 22707,
    "Ġhasty": 10479,
    "inking": 6711,
    "Ġhummed": 18779,
    "Ġaver": 1287,
    "Ġunrelieved": 20548,
    "Ġcovent": 16078,
    "ancho": 4938,
    "robustness": 26340,
    "Ġlike": 667,
    "amiable": 14057,
    "Ġwallow": 19469,
    "bunger": 20405,
    "Ġsorrowful": 10539,
    "talk": 6659,
    "uncomfortable": 18163,
    "Ġcareful": 2613,
    "Ġgait": 13335,
    "gratification": 24348,
    "Ġbloodthirsty": 26603,
    "pres": 16028,
    "Ġmeditation": 16707,
    "Ġwithdrew": 9699,
    "ollen": 11300,
    "emorial": 10246,
    "Ġunrolled": 22042,
    "ghan": 19458,
    "Ġstudying": 9849,
    "Ġtigers": 25759,
    "precip": 14667,
    "Ġinjury": 10543,
    "drab": 23902,
    "countryman": 24640,
    "Ġcorroded": 18877,
    "Ġrecoil": 18689,
    "Ġthursday": 12649,
    "Ġtranced": 18433,
    "Ġlowering": 7987,
    "Ġtumultuous": 10618,
    "Ġfrozen": 9016,
    "Ġdetestable": 15102,
    "anter": 9169,
    "Ġothers": 2585,
    "Ġallowed": 4055,
    "icha": 11742,
    "Ġpervading": 20616,
    "various": 10400,
    "Ġreference": 2567,
    "Ġadmirals": 20388,
    "mist": 5686,
    "Ġhon": 2538,
    "ine": 405,
    "Ġhauled": 11698,
    "Ġsheeted": 19834,
    "moor": 22705,
    "erland": 9643,
    "aded": 3551,
    "floor": 14939,
    "ken": 2800,
    "Ġassist": 3566,
    "hither": 11495,
    "mand": 3892,
    "fic": 20854,
    "Ġgre": 1580,
    "Ġphysiognomically": 25613,
    "missed": 11211,
    "Ġinev": 10184,
    "Ġstroke": 6936,
    "affa": 23779,
    "Ġdefects": 12337,
    "Ġapt": 9158,
    "ickering": 22673,
    "finally": 9502,
    "gradually": 12920,
    "mort": 10712,
    "Ġeddying": 17119,
    "Ġjing": 15953,
    "disappearing": 23506,
    "Ġsaving": 15891,
    "Ġcomputers": 2645,
    "Ġhanged": 17927,
    "Ġcaliforn": 14434,
    "Ġuniform": 2225,
    "Ġpulling": 5864,
    "Ġhilarity": 20300,
    "Ġpasture": 14544,
    "Ġdesign": 4129,
    "dragging": 16611,
    "surgeon": 24217,
    "Ġhood": 10825,
    "Ġloss": 824,
    "Ġapprehen": 16831,
    "Ġpersever": 10006,
    "Ġsobbed": 14139,
    "Ġspo": 6846,
    "Ġreusable": 13561,
    "Ġfloated": 7288,
    "jacket": 12296,
    "ĠĠĠĠĠĠĠĠĠĠĠĠĠĠĠĠĠĠĠĠĠĠĠ": 18835,
    "phur": 16163,
    "pense": 10371,
    "Ġsize": 1219,
    "Ġmisunderstand": 18703,
    "Ġshared": 10266,
    "detached": 19677,
    "Ġexcessively": 9443,
    "Ġflapp": 23012,
    "Ġtantamount": 25626,
    "Ġpeeling": 22695,
    "ifference": 5632,
    "Ġplaything": 19240,
    "Ġsent": 1775,
    "Ġaccents": 14214,
    "Ġimport": 1037,
    "Ġwhile": 607,
    "Ġgleam": 12312,
    "Ġsuperiority": 14619,
    "shorn": 22463,
    "supernatural": 19782,
    "Ġenhancement": 23738,
    "give": 4689,
    "violets": 23547,
    "Ġimproving": 1213,
    "Ġcreativity": 3142,
    "ivory": 10271,
    "Ġcompass": 4408,
    "atherine": 2597,
    "mason": 17604,
    "Ġthey": 576,
    "Ġlearnable": 3992,
    "Ġfounded": 8561,
    "Ġsparsity": 4207,
    "hair": 9125,
    "Ġalongside": 6313,
    "impossible": 8828,
    "Ġunintellig": 22030,
    "offer": 19062,
    "Ġcircumstantial": 14645,
    "ath": 861,
    "beaten": 20318,
    "Ġsuitable": 18280,
    "yth": 980,
    "darkness": 9515,
    "Ġcomfort": 3443,
    "erest": 10699,
    "promote": 24726,
    "Ġjavelin": 26105,
    "ā": 194,
    "Ġtet": 21160,
    "Ġmirth": 15549,
    "âĢĿ": 353,
    "Ġlima": 10444,
    "Ġquiver": 16007,
    "philosop": 9570,
    "ittingly": 18809,
    "sincerely": 24585,
    "support": 9472,
    "Ġeccentric": 13653,
    "arance": 4698,
    "Ġregretted": 13404,
    "remes": 21240,
    "unciation": 25983,
    "enderby": 25216,
    "icilian": 20694,
    "Ġboast": 7036,
    "Ġstrand": 11832,
    "isite": 15567,
    "droppers": 24758,
    "Ġmeasure": 3595,
    "ething": 1599,
    "Ġswarming": 16276,
    "independ": 15986,
    "Ġdaybreak": 18727,
    "Ġphrenolog": 12338,
    "Ġmississ": 18841,
    "Ġframed": 19028,
    "Ġcurves": 18844,
    "Ġgross": 11628,
    "lizzy": 6654,
    "Ġsweetest": 13252,
    "Ġsnug": 8280,
    "done": 6501,
    "Ġdisputes": 25826,
    "conviction": 19968,
    "Ġabreast": 18395,
    "Ġshears": 18320,
    "Ġharpoone": 2908,
    "sherlock": 5422,
    "speps": 14336,
    "Ġsheath": 14154,
    "Ġalleg": 14020,
    "Ġbeing": 1164,
    "Ġfanc": 6745,
    "Ġasp": 15785,
    "ators": 7829,
    "Ġlashings": 25100,
    "ber": 904,
    "Ġcoincidences": 26365,
    "Ġcannibals": 10590,
    "Ġperdition": 15996,
    "meeting": 11020,
    "oysius": 14368,
    "Ġchink": 15936,
    "Ġgord": 21603,
    "send": 15426,
    "Ġcry": 3499,
    "ertips": 23641,
    "Ġdent": 13909,
    "Ġlimb": 9405,
    "Ġlengthwise": 10454,
    "Ġoccasioned": 13232,
    "Ġmaster": 3680,
    "Ġaloysius": 15742,
    "Ġenjoys": 19453,
    "success": 6712,
    "Ġshortened": 23484,
    "Ġcontains": 2792,
    "Ġworkflow": 2369,
    "Ġmumbled": 17809,
    "agony": 14072,
    "Ġbrief": 6977,
    "Ġwrenched": 12563,
    "Ġostlers": 25277,
    "sit": 13783,
    "lied": 6508,
    "pil": 15411,
    "takes": 21079,
    "anesc": 21363,
    "Ġdrank": 16538,
    "Ġcaught": 3731,
    "Ġwrig": 13073,
    "Ġslim": 18939,
    "silver": 19693,
    ",âĢĻâĢĶ": 23531,
    "published": 26143,
    "Ġreplete": 15702,
    "Ġwithdraw": 16966,
    "Ġeveryone": 8921,
    "avish": 22549,
    "Ġgallop": 19558,
    "Ġincumbent": 16066,
    "qu": 369,
    "Ġtickets": 17095,
    "partner": 19223,
    "Ġembarks": 22949,
    "heartily": 24218,
    "ceremony": 20593,
    "mons": 17602,
    "gallant": 7781,
    "Ġgur": 21595,
    "Ġpreservation": 24631,
    "Ġbiscuit": 12594,
    "ham": 1703,
    "Ġsemicircle": 26069,
    "idence": 4301,
    "sweep": 24618,
    "jumping": 20248,
    "Ġadds": 1806,
    "icorn": 15661,
    "impatience": 25501,
    "according": 12032,
    "destroy": 19513,
    "¿": 128,
    "isher": 2874,
    "ulia": 18151,
    "Ġtemples": 18638,
    "evenings": 19466,
    "Ġtelegra": 11894,
    "hung": 8381,
    "ringle": 21043,
    "wow": 21124,
    "Ġscrape": 14921,
    "murder": 10567,
    "Ġdiligent": 25078,
    "Ġdrought": 19280,
    "onian": 17769,
    "nostr": 22719,
    "Ġobsequ": 14323,
    "Ġtempt": 5565,
    "Ġreduced": 11928,
    "orrow": 2912,
    "Ġscorching": 20071,
    "Ġsomething": 1795,
    "iew": 2446,
    "Ġjur": 12839,
    "Ġcompression": 18147,
    "Ê": 139,
    "Ġinstructions": 11197,
    "esu": 17903,
    "Ġstudious": 23217,
    "Ġsunrise": 9376,
    "Ġsund": 8249,
    "Ġliberated": 19669,
    "peare": 18913,
    "\":": 9584,
    "Ġpushed": 5911,
    "claims": 25320,
    "Ġrepressed": 21671,
    "Ġrough": 7187,
    "uccas": 21109,
    "Ġtrials": 16791,
    "Ġscattered": 6856,
    "Ġscud": 14193,
    "Ġlongest": 18629,
    "Ġdecidedly": 9512,
    "Ġnecessitates": 23933,
    "Ġspec": 1262,
    "Ġdeference": 10883,
    "Ġbeautiful": 3671,
    "Ġsuperb": 16444,
    "strength": 13983,
    "Ġcompose": 12907,
    "Ġstrives": 23698,
    "lasting": 8011,
    "Ġgri": 17990,
    "interest": 5421,
    "Ġmounting": 19980,
    "anish": 2617,
    "hitherto": 17286,
    "mers": 9613,
    "Ġelement": 6897,
    "Ġfitly": 24002,
    "Ġlaure": 16911,
    "Ġlanded": 7469,
    "slee": 17171,
    "Ġsocially": 22091,
    "Ġburn": 3682,
    "Ġresuming": 12898,
    "sleep": 6512,
    "Ġcraft": 4375,
    "attended": 8955,
    "Ġnoted": 15834,
    "Ġjove": 9271,
    "consent": 18504,
    "profound": 16428,
    "Ġfool": 4235,
    "Ġbale": 7838,
    "Ġresolves": 23649,
    "Ġhush": 13213,
    "Ġsoo": 15865,
    "Ġrover": 18456,
    "rat": 8759,
    "Ġattentive": 9036,
    "Ġunduly": 25995,
    "mathemat": 19139,
    "Ġexamined": 6336,
    "Ġacceptable": 16746,
    "Ġindulging": 16906,
    "10": 17475,
    "Ġarchitects": 18740,
    "Ġclicked": 22366,
    "Ġwhiting": 10861,
    "Ġsecuring": 11996,
    "safety": 20352,
    "how": 1642,
    "nament": 11509,
    "minds": 24235,
    "Ġconsternation": 9862,
    "Ġwhitney": 11375,
    "_).": 5888,
    "Ġcalamity": 17352,
    "near": 5843,
    "Ġtravel": 5954,
    "Ġdrop": 4343,
    "nearest": 16025,
    "Ġhistories": 14689,
    "Ġread": 1447,
    "lead": 10168,
    "crowd": 25255,
    "Ġwidespread": 20678,
    "shows": 22462,
    "Ě": 219,
    "bedded": 12447,
    "Ġaz": 9632,
    "Ġkeenly": 9488,
    "Ġwaterproof": 19090,
    "Ġtrain": 515,
    "Ġhisself": 21919,
    "oundering": 11750,
    "irc": 1732,
    "Ġmultiplied": 23693,
    "Ġunnecessary": 8855,
    "sustained": 20571,
    "Ġdistrict": 10321,
    "Ġconverts": 2804,
    "Ġsuggestion": 19710,
    "Ġincess": 8432,
    "©": 107,
    "Ġeffort": 8203,
    "rowing": 7931,
    "erting": 17779,
    "atig": 13848,
    "Ġkrem": 9729,
    "Ġrelinquish": 17350,
    "Ġhindoo": 17178,
    "Ġlust": 9200,
    "Ġsubsisting": 23437,
    "Ġdaylight": 10353,
    "Ġdespondence": 25870,
    "atha": 6574,
    "nar": 12498,
    "theless": 4260,
    "Ġfalls": 14646,
    "mankind": 14377,
    "awake": 14455,
    "----âĢĿ": 13311,
    "ased": 1269,
    "Ġleaning": 5228,
    "disgust": 23500,
    "Ġvancouver": 26567,
    "Ġinter": 727,
    "securer": 25603,
    "sip": 10727,
    "raising": 21635,
    "Ġmay": 925,
    "Ġconcentration": 25065,
    "wers": 12524,
    "Ġmizzen": 20292,
    "wonders": 17146,
    "Ġtand": 21163,
    "Ġsooty": 25816,
    "Ġbonds": 17871,
    "companies": 24895,
    "wilful": 25152,
    "ia": 1258,
    "Ġdrown": 6816,
    "Ġtraverse": 18892,
    "became": 10517,
    "atlantic": 15527,
    "Ġsprawling": 22143,
    "tolerable": 17690,
    "Ġrecollected": 8311,
    "Ġcomponents": 8897,
    "advantage": 8662,
    "Ġcompassionate": 24722,
    "Ġamends": 14248,
    "Ġupbraiding": 26228,
    "Ġirksome": 13116,
    "Ġsinks": 19552,
    "jaw": 13746,
    "Ġattention": 1187,
    "Ġwidow": 8666,
    ",âĢĿ": 581,
    "pling": 8477,
    "Ġrashness": 25461,
    "Ġgreater": 3036,
    "acey": 7650,
    "sent": 759,
    "Ġspile": 22131,
    "Ġrefusing": 11029,
    "chron": 21697,
    "adequate": 15207,
    "Ġembell": 14410,
    "Ġunimaginable": 15250,
    "Ġcompelled": 14269,
    "Ġsecondly": 14519,
    "C": 39,
    "Ġuncompromised": 20606,
    "Ġlocker": 16913,
    "owners": 16091,
    "Ġchain": 1843,
    "special": 14708,
    "Ġwinding": 8236,
    "Ġcarpenter": 4685,
    "reel": 21236,
    "Ġspices": 22134,
    "ermaid": 14301,
    "rosings": 15648,
    "Ġcanoe": 9726,
    "Ġgreenness": 23770,
    "ye": 1407,
    "fier": 9596,
    "wl": 17704,
    "Ġdefy": 11902,
    "Ġlightened": 23264,
    "dued": 7909,
    "tiness": 21074,
    "Ġindoors": 18839,
    "hack": 20898,
    "aired": 8369,
    "mingled": 14716,
    "Ġhelen": 16658,
    "sofa": 26147,
    "xter": 9149,
    "ment": 694,
    "Ġlimped": 19183,
    "Ġpoverty": 9308,
    "Ġdeposited": 25485,
    "om": 315,
    "Ġmonogram": 26576,
    "Ġforesee": 19126,
    "Ġsuffering": 8949,
    "Ġluxuriant": 20398,
    "Ġexample": 5096,
    "Ġsimple": 1618,
    "ials": 11710,
    "Ġprob": 971,
    "chariot": 26481,
    "Ġspas": 10924,
    "aulets": 18620,
    "Ġmarrying": 6179,
    "Ġalexander": 17427,
    "Ġcurv": 3514,
    "Ġcontribut": 12864,
    "scornful": 26577,
    "Ġceaseless": 13492,
    "Ġmagistrate": 8234,
    "ral": 4628,
    "Ġofficial": 7083,
    "Ġleaf": 15727,
    "Ġtreated": 7082,
    "Ġdelights": 14598,
    "Ġtunes": 24620,
    "Ġbutchers": 18273,
    "fiend": 13665,
    "Ġcontempl": 6703,
    "Ġgnarled": 25169,
    "Ġtar": 2565,
    "Ġneglected": 10380,
    "Ġdiminish": 14748,
    "Ġearnestness": 12130,
    "suspect": 9543,
    "arthy": 4823,
    "Ġshavings": 14113,
    "links": 20960,
    "Ġmishap": 20579,
    "ivates": 18276,
    "Ġaugmentation": 20119,
    "sheet": 16289,
    "Ġspecies": 5112,
    "distinct": 13340,
    "Ġcourtesy": 9948,
    "Ġdimensions": 16574,
    "Ġcouns": 10523,
    "han": 12477,
    "Ġpatriot": 23302,
    "eleg": 20851,
    "eon": 8733,
    "choice": 21694,
    "Ġcares": 9370,
    "ends": 6040,
    "Ġassur": 6075,
    "finger": 10096,
    "Ġnuptials": 20497,
    "Ġignoble": 19402,
    "Ġcategorization": 12141,
    "Ġglow": 7171,
    "Ġrods": 9757,
    "began": 6427,
    "Ġhealthcare": 8016,
    "ò": 179,
    "Ġsympathy": 6348,
    "Ġdepart": 4657,
    "Ġsecurely": 16804,
    "history": 15017,
    "Ġstrongly": 5657,
    "Ġextravag": 11255,
    "idy": 21768,
    "Ġascended": 8669,
    "postp": 24635,
    "Ġbland": 11066,
    "Ġfury": 7661,
    "Ġleaks": 16447,
    "aux": 14291,
    "Ġbridges": 24683,
    "lection": 3652,
    "mess": 13756,
    "Ġinvoked": 19146,
    "Ġcaptiv": 16262,
    "Ġpupp": 10822,
    "rically": 15420,
    "que": 1114,
    "vel": 2387,
    "Ġyet": 1024,
    "delighted": 10565,
    "painted": 17641,
    "insisted": 23071,
    "Ġupbraided": 26530,
    "Ġreceipt": 20358,
    "ersampling": 18217,
    "âĢĶâĢľ": 2969,
    "Ġvarying": 15814,
    "ineff": 21984,
    "Ġawaited": 17075,
    "islands": 21379,
    "cular": 15331,
    "Ġindex": 17050,
    "assin": 22309,
    "makes": 10713,
    "tastes": 21099,
    "making": 2574,
    "abling": 1076,
    "Ġsmoking": 6430,
    "Ġminutes": 2998,
    "project": 16427,
    "Ġsuggested": 8321,
    "divers": 15346,
    "Ġportents": 14681,
    "Ġexceeding": 1578,
    "Ġmurmured": 7480,
    "Ġdecreed": 18483,
    "Ġblandly": 20326,
    "Ġfortifications": 23622,
    "Ġanatomical": 15080,
    "Ġsymp": 4503,
    "Ġwise": 6812,
    "apolog": 22337,
    "Ġtraits": 23079,
    "Ġantics": 24179,
    "led": 582,
    "uesday": 8590,
    "Ġacquitted": 18900,
    "told": 7811,
    "Ġpens": 21463,
    "spark": 18687,
    "Ġmichigan": 26428,
    "reng": 3999,
    "Ġkent": 6693,
    "chors": 11647,
    "hurried": 11355,
    "Ġnoisier": 4625,
    "Ġtiresome": 26157,
    "Ġcro": 4873,
    "Ġgermans": 25785,
    "5": 25,
    "tr": 3581,
    "Ġperv": 15994,
    "aco": 12911,
    "Ġhovered": 12636,
    "Ġlimbs": 5967,
    "embarrassed": 20667,
    "Ġperturbed": 20443,
    "Ġautonom": 10412,
    "Ġflatter": 9351,
    "Ġscoundrel": 13674,
    "Ġguido": 2975,
    "Ġaugust": 10600,
    "Ġanxious": 4518,
    "until": 6598,
    "Ġeludes": 26556,
    "wall": 10139,
    "Ġunman": 12779,
    "Ġloite": 22115,
    "thouse": 21986,
    "Ġconsidered": 4612,
    "signs": 16541,
    "Ġoutline": 15958,
    "atical": 10773,
    "Ġwon": 1664,
    "Ġassociation": 24710,
    "Ġmore": 677,
    "Ġchap": 5935,
    "ssing": 3808,
    "Ġtransferred": 16480,
    "entered": 8819,
    "Ġherself": 1565,
    "Ġperiodically": 19497,
    "Ġcleat": 18949,
    "Ġe": 311,
    "Ġclifford": 22367,
    "Ġscrupulous": 20072,
    "Ġtests": 8960,
    "justine": 7683,
    "whalers": 17266,
    "leagues": 21376,
    "ogany": 18680,
    "Ġfreighted": 16325,
    "Ġreleased": 2976,
    "Ġlin": 10835,
    "Ġconsole": 8151,
    "Ġsuccession": 12106,
    "Ġforget": 2634,
    "sche": 13024,
    "Ġbalance": 2020,
    "Ġwrites": 23201,
    "ution": 4348,
    "Ġfossiliferous": 25610,
    "delivered": 24100,
    "Ġregulate": 22584,
    "Ġwast": 21864,
    "garnished": 26390,
    "Ġlabour": 7274,
    "Ġ5": 4935,
    "Ġordin": 16653,
    "Ġdiscoloured": 15256,
    "lim": 9609,
    "iber": 6507,
    "Ġunob": 22019,
    "Ġreconc": 9686,
    "Ġvale": 14085,
    "Ġremove": 7499,
    "atived": 21265,
    "whe": 1070,
    "Ġimprudently": 22391,
    "Ġunwarrantable": 26346,
    "Ġbecomes": 6397,
    "Ġsymmet": 11751,
    "ivility": 12788,
    "itional": 22478,
    "increas": 10456,
    "clever": 20816,
    "pooh": 18805,
    "agers": 5633,
    "Ġshutters": 9940,
    "pool": 16212,
    "jephro": 26394,
    "lad": 5993,
    "oline": 6834,
    "persuasion": 20047,
    "Ġimpassable": 20615,
    "expression": 10550,
    "Ġsoil": 9258,
    "Ġstates": 1851,
    "pip": 6657,
    "Ġdiscern": 7925,
    "request": 21244,
    "Ġchewing": 23286,
    "Ġpap": 8802,
    "hunted": 16834,
    "gy": 2098,
    "arken": 18668,
    "Ġdrunk": 9427,
    "Ġfer": 5529,
    "Ġrep": 1936,
    "Ġintricacies": 15142,
    "cause": 7796,
    "incidentally": 20542,
    "eping": 5835,
    "kindled": 16663,
    "ellation": 12753,
    "urer": 18124,
    "Ġagree": 7647,
    "Ġstage": 7389,
    "Ġforwards": 12708,
    "Ġfolks": 14429,
    "Ġscents": 22291,
    "Ġugly": 8719,
    "moonlight": 25376,
    "Ġboa": 22638,
    "Ġaffidav": 18790,
    "cousins": 20121,
    "Ġfailed": 6674,
    "safe": 10057,
    "even": 3836,
    "slide": 24556,
    "Ġridic": 7508,
    "confusion": 13374,
    "Ġmanor": 14199,
    "Ġtypes": 8939,
    "Ġfingers": 5672,
    "Ġsumm": 3358,
    "Ġrefused": 6717,
    "Ġrecognition": 3067,
    "Ġevils": 9023,
    "phere": 21021,
    "alongside": 19792,
    "Ġteach": 8555,
    "Ġpure": 6139,
    "Ġreferred": 8920,
    "establishment": 26114,
    "Ġlose": 5028,
    "Ġberyl": 20493,
    "Ġroot": 2651,
    "wherefore": 19110,
    "Ġsuperfluous": 17417,
    "Ġadventure": 5982,
    "thinness": 25811,
    "seaman": 25458,
    "Ġconceited": 12096,
    "Ġcl": 556,
    "spanish": 14334,
    "Ġchoosing": 19593,
    "Ġbaffled": 12407,
    "Ġpartaking": 22700,
    "Ġdip": 13910,
    "Ġpresents": 8245,
    "Ġdropt": 23679,
    "akes": 2218,
    "Ġreplying": 19584,
    "sil": 5283,
    "Ġpink": 12623,
    "Ġnarrower": 24354,
    "Ġdiscomp": 11870,
    "Ġadoration": 18291,
    "kinson": 10029,
    "smallest": 23915,
    "Ġfr": 1694,
    "aisance": 15078,
    "Ġdeb": 4764,
    "ituted": 13876,
    "Ġdislike": 6049,
    "Ġrepublic": 14532,
    "plac": 15824,
    "Ġbetrayed": 9564,
    "Ġ34": 16679,
    "Ġwhittling": 20702,
    "Ġpresc": 15929,
    "Ġbeheld": 4493,
    "bone": 5612,
    "Ġsensations": 5260,
    "ojo": 7349,
    "Ġbecalmed": 18089,
    "Ġdined": 9179,
    "Ġentreated": 9954,
    "Ġpurp": 2394,
    "Ġiceberg": 14719,
    "licted": 20958,
    "Ġshattered": 7884,
    "venison": 22629,
    "Ġcane": 10929,
    "Ġder": 1496,
    "Ġuninhabited": 22055,
    "isles": 15568,
    "forehead": 8518,
    "Ġmeanness": 22599,
    "Ġabhorrent": 16858,
    "Ġsalut": 10512,
    "rible": 3232,
    "Ġ1778": 25730,
    "Ġunwearied": 20605,
    "Ġfl": 1281,
    "harpooned": 24288,
    "Ġpower": 1265,
    "Ġsimultaneous": 22592,
    "Ġusurpation": 18358,
    "÷": 184,
    "Ġbrazen": 23843,
    "Ġaccusations": 22384,
    "vely": 3865,
    "shabb": 18501,
    "Ġlunch": 13529,
    "Ġquakers": 22420,
    "outre": 18321,
    "chet": 13221,
    "Ġunfrequent": 24109,
    "penny": 22948,
    "Ġinterp": 16073,
    "jer": 12485,
    "has": 4011,
    "species": 13261,
    "Ġsilver": 7463,
    "iam": 2508,
    "Ġtranspointed": 22454,
    "judging": 24204,
    "Ġjust": 1241,
    "iations": 11497,
    "mb": 878,
    "Ġ113": 19699,
    "ouse": 1195,
    "Ġbricks": 13566,
    "Ġfrankness": 16748,
    "Ġstairs": 5541,
    "Ġskilful": 25838,
    "Ġstories": 10867,
    "Ġreluct": 14375,
    "Ġcomplete": 4381,
    "Ġcontributes": 15254,
    "connect": 1294,
    "sentiment": 12919,
    "ashion": 3858,
    "Ġopens": 23628,
    "remain": 9841,
    "Ġslides": 18941,
    "alid": 13938,
    "Ġcontinually": 5042,
    "Ġexpedite": 24956,
    "Ġmanhood": 22330,
    "Ġsquatted": 25843,
    "Ġgaze": 6932,
    "ition": 655,
    "pan": 10718,
    "dock": 16421,
    "Ġactiv": 834,
    "Ġthoroughfares": 26096,
    "Ġhawaiian": 25367,
    "Ġhanover": 20589,
    "Ġoccupations": 9461,
    "Ġvague": 6407,
    "ylon": 24978,
    "owing": 7602,
    "fordshire": 4677,
    "thinking": 9017,
    "comprehensive": 20629,
    "Ġreminding": 19800,
    "Ġobeyed": 12221,
    "Ġdre": 1745,
    "fr": 4804,
    "Ġskylight": 24074,
    "Ġfaster": 3203,
    "Ġarduous": 26533,
    "Ġoutdone": 22322,
    "Ġbitterness": 8024,
    "Ġpr": 1597,
    "quarrel": 20018,
    "quely": 10234,
    "Ġaffected": 5577,
    "Ġfeebly": 24878,
    "Ġribbed": 16806,
    "Ġleathern": 15053,
    "Ġthe": 270,
    "Ġpile": 8425,
    "Ġenglishman": 11231,
    "Ġwithdrawn": 10609,
    "ph": 955,
    "furthermore": 20007,
    "Ġseverest": 14093,
    "inkling": 16094,
    "Ġcuts": 14609,
    "ior": 2041,
    "Ġstudents": 23218,
    "Ġshipwrecked": 25688,
    "Ġbeer": 10222,
    "Ġreigns": 21674,
    "Ġoffices": 14337,
    "sunlight": 24852,
    "Ġstaple": 26200,
    "sleeping": 13458,
    "tenderly": 20534,
    "Ġpersu": 3565,
    "Ġnobly": 22245,
    "Ġdecreases": 3413,
    "Ġgros": 14826,
    "att": 1456,
    "Ġrascal": 11704,
    "Ġoftentimes": 20158,
    "Ġemperors": 15163,
    "Ġglanced": 5953,
    "ots": 3297,
    "Ġsick": 4693,
    "Ġacross": 1331,
    "Ġabstraction": 26541,
    "Ġheavily": 6742,
    "Ġdozing": 22247,
    "overspreading": 26140,
    "Ġstud": 1594,
    "uction": 15446,
    "ophisticated": 22482,
    "stately": 18024,
    "Ġunallied": 22036,
    "Ġcologne": 12980,
    "Ġvitality": 15176,
    "Ġvictor": 5125,
    "Ġecstasy": 11633,
    "Ġcont": 620,
    "Ġbreaches": 14522,
    "Ġassail": 13068,
    "Ġjudiciously": 23881,
    "Ġafrican": 20140,
    "Ġwrit": 8242,
    "Ġstoutly": 16926,
    "Ġcontrols": 1734,
    "ibbald": 18850,
    "univers": 15776,
    "Ġhast": 3153,
    "Ġperman": 10967,
    "Ġphrensy": 25127,
    "Ġmasts": 6466,
    "Ġsoap": 14135,
    "Ġsung": 23275,
    "Ġunlabeled": 3799,
    "Ġperils": 6275,
    "Ġinvari": 6530,
    "K": 47,
    "Ġare": 527,
    "Ġlooked": 1802,
    "acceptance": 25186,
    "blacksmith": 17003,
    "calcul": 12992,
    "Ġriveted": 13622,
    "Ġdecency": 18482,
    "Ġleadenhall": 16631,
    "Ġdisagreeable": 9301,
    "Ġinducements": 24968,
    "sculpt": 16248,
    "Ġreaders": 18916,
    "Ġpostp": 12148,
    "pillar": 5619,
    "ush": 3631,
    "Ġflavor": 16254,
    "Ġanimation": 11154,
    "broke": 14781,
    "Ġoscill": 2854,
    "sample": 12511,
    "Ġexempl": 21834,
    "unfort": 21880,
    "few": 8204,
    "hanging": 10103,
    "Ġmadam": 5663,
    "representing": 25272,
    "Ġlessened": 19089,
    "Ġpermanent": 13635,
    "Ġrevealing": 3923,
    "Ġaloft": 4302,
    "Ġhumane": 11888,
    "buoy": 7761,
    "sided": 17666,
    "Ġswitzerland": 10382,
    "gold": 9123,
    "Ġins": 2780,
    "mo": 862,
    "Ġadmirable": 8269,
    "Ġmessages": 24984,
    "cob": 10089,
    "circumst": 5349,
    "Ġtubs": 11372,
    "Ġcamp": 9167,
    "impul": 16559,
    "Ġconsid": 1814,
    "Ġsickly": 16776,
    "easily": 17536,
    "Ġnocturnal": 20717,
    "Ġadding": 2404,
    "Ġbra": 3258,
    "Ġsite": 17755,
    "Ġfools": 14484,
    "considered": 9583,
    "anned": 17841,
    "ampl": 21852,
    "Ġassault": 9840,
    "Ġconstruct": 23342,
    "abb": 15743,
    "Ġfinery": 23128,
    "table": 5795,
    "presents": 18803,
    "iguous": 18046,
    "Ġnobody": 6160,
    "Ġsatan": 14393,
    "Ġadmitting": 19185,
    "Ġcedar": 15192,
    "Ġstigma": 25792,
    "fallen": 19662,
    "Ġscroll": 14194,
    "unquiet": 21885,
    "Ġprank": 23220,
    "Ġconsulting": 13433,
    "Ġantique": 19554,
    "Ġroof": 6566,
    "Ġmal": 5221,
    "Ġaccustomed": 6861,
    "Ġwax": 10778,
    "ards": 2504,
    "Ġsimon": 5172,
    "Ġwooded": 23524,
    "Ġclosing": 11778,
    "Ġsurm": 7476,
    "Ġstuck": 9223,
    "india": 22375,
    "Ġforg": 3787,
    "lay": 5892,
    "Ġmutter": 23957,
    "chor": 6148,
    "Ġain": 6970,
    "Ġsummit": 7731,
    "Ġsanctioned": 26352,
    "sne": 10127,
    "Ġhyp": 3871,
    "Ġfervour": 19729,
    "artic": 14217,
    "obscure": 23101,
    "Ġloaded": 8493,
    "lue": 8511,
    "anite": 17839,
    "umbled": 8495,
    "Ġleagues": 9226,
    "kish": 20936,
    "Ġzeal": 9101,
    "Ġcoff": 3510,
    "Ġhieroglyphics": 17306,
    "Ġdevotion": 22722,
    "Ġpreliminary": 10060,
    "Ġshy": 10905,
    "lovel": 22515,
    "Ġimprovements": 14510,
    "rowed": 22863,
    "Ġmccarthy": 5145,
    "Ġannouncing": 16756,
    "linked": 17595,
    "lement": 10169,
    "Ġpharaoh": 26587,
    "Ġlies": 5297,
    "Ġcauldron": 25442,
    "Ġridge": 14822,
    "stoke": 18025,
    "ogra": 4574,
    "Ġsearched": 15820,
    "Ġmodesty": 12822,
    "comfortable": 7320,
    "Ġcorpusants": 13681,
    "ics": 3260,
    "elson": 16373,
    "accursed": 20543,
    "Ġhorn": 6187,
    "likely": 9026,
    "Ġfluttered": 16251,
    "jammed": 25907,
    "impatient": 13644,
    "Ġink": 8807,
    "transp": 24512,
    "Ġdanger": 3522,
    "Ġhastening": 19338,
    "Ġdetect": 1169,
    "ensical": 18570,
    "Ġcareless": 11121,
    "Ġrenow": 18030,
    "Ġvengeful": 14893,
    "bles": 7019,
    "Ġbend": 9173,
    "aits": 20768,
    "Ġshutting": 14762,
    "Ġluckless": 16799,
    "Ġsepulchre": 20562,
    "Ġfreckled": 18961,
    "Ġigniting": 25073,
    "Ġsnaky": 23745,
    "Ġslabs": 13066,
    "Ġexceeded": 14436,
    "Ġgeorgiana": 8629,
    "ents": 1897,
    "Ġneedless": 19232,
    "afric": 19181,
    "feeders": 25236,
    "Ġpand": 21458,
    "Ġruns": 8599,
    "Ġracket": 22656,
    "Ġplead": 14458,
    "Ġindulge": 10585,
    "aciousness": 18607,
    "Ġmans": 15540,
    "Ġbil": 15569,
    "idel": 5301,
    "Ġmercy": 9001,
    "Ġlethar": 21750,
    "abhor": 12712,
    "jub": 20931,
    "Ġexamine": 7735,
    "sleeves": 26110,
    "Ġtenderest": 23553,
    "Ġamateur": 22489,
    "Ġindispens": 22959,
    "Ġlaughing": 5339,
    "Ġceremony": 8361,
    "virtue": 20572,
    "Ġplat": 8523,
    "Ġexercise": 8359,
    "Ġbinding": 20422,
    "rief": 6204,
    "Ġmonomaniac": 9571,
    "swift": 14855,
    "Ġparacels": 13671,
    "Ġsurpl": 19134,
    "Ġju": 10289,
    "Ġpersonally": 8603,
    "Ġcontin": 5382,
    "came": 4571,
    "eties": 10839,
    "Ġliter": 8816,
    "Ġicelandic": 25887,
    "Ġbonnet": 10658,
    "_)âĢĶ": 20147,
    "impenetrable": 26198,
    "Ġholder": 6726,
    "Ġenv": 3109,
    "oin": 17619,
    "igate": 8827,
    "Ġimmediate": 6090,
    "torm": 11533,
    "ĩ": 234,
    "Ġproducts": 5198,
    "Ġscarcely": 4005,
    "Ġ48": 24082,
    "patient": 25343,
    "Ġconsistence": 23357,
    "Ġepid": 18007,
    "Ġuntamed": 19166,
    "vineyard": 25422,
    "Ġdair": 17891,
    "sensible": 20055,
    "sailor": 14718,
    "Ġhushed": 13928,
    "Ġapprobation": 10987,
    "Ġunceasing": 20361,
    "explaining": 23145,
    "prow": 15414,
    "visitors": 13353,
    "ry": 805,
    "izings": 14054,
    "Ġcham": 4892,
    "waiter": 24587,
    "cont": 2918,
    "Ġum": 10214,
    "prove": 11149,
    "Ġpilot": 5986,
    "seeing": 7080,
    "Ġimpunity": 14220,
    "Ġgamming": 25543,
    "accompan": 11454,
    "Ġoutrage": 15962,
    "oning": 7572,
    "Ġslope": 14463,
    "shish": 11799,
    "Ġfringe": 17274,
    "Ġstriving": 8999,
    "okingly": 22382,
    "Ġsoon": 1229,
    "aurs": 20771,
    "Ġdesolation": 12273,
    "Ġreplay": 5047,
    "Ġdevout": 14330,
    "riers": 18184,
    "Ġaffliction": 25846,
    "Ġjuggling": 20442,
    "blister": 24127,
    "future": 13720,
    "Ġdistinct": 4610,
    "bre": 3976,
    "Ġentrance": 7233,
    "Ġreconsidered": 21676,
    "Ġroute": 11383,
    "itud": 2929,
    "Ġshoulder": 5849,
    "passage": 11263,
    "Ġframework": 1974,
    "Ġtiny": 11555,
    "zag": 17715,
    "Ġinterment": 22579,
    "anything": 5518,
    "feather": 16047,
    "Ġchilian": 25564,
    "Ġperfectly": 3701,
    "andering": 21871,
    "Ġhistor": 3393,
    "Ġabound": 8867,
    "vour": 17701,
    "Ġfeminine": 15267,
    "Ġaccumul": 1412,
    "Ġcompleted": 9000,
    "100": 11466,
    "Ġsystemat": 18443,
    "Ġexe": 3991,
    "autions": 20769,
    "whips": 22242,
    "Ġtid": 8107,
    "Ġbacked": 12929,
    "Ġsally": 15505,
    "Ġprovided": 6579,
    "Ġobligation": 13249,
    "usations": 15946,
    "õ": 182,
    "Ġconvincing": 19309,
    "Ġarchitect": 991,
    "Ġstabilizing": 3656,
    "roofed": 26185,
    "Ġpainfully": 13146,
    "ede": 21509,
    "impart": 21712,
    "clopÃ¦dia": 15260,
    "Ġfors": 21775,
    "Ġcommend": 10337,
    "Ġwheelbarrow": 17207,
    "Ġmuseum": 15275,
    "agitation": 14071,
    "conversations": 24748,
    "Ġglue": 15678,
    "oked": 4307,
    "Ġejac": 10206,
    "complied": 19915,
    "Ġdenial": 13216,
    "Ġexplanations": 15914,
    "aze": 10078,
    "Ġepic": 15032,
    "Ġbatch": 889,
    "remarks": 23192,
    "Ġgiddy": 20500,
    "strate": 12679,
    "antee": 22101,
    "Ġwritten": 4165,
    "Ġsuccessive": 10503,
    "Ġclad": 12847,
    "Ġheads": 3741,
    "cu": 10086,
    "Ġpreparations": 12314,
    "rule": 15902,
    "Ġfidelity": 15245,
    "Ġbier": 22764,
    "clean": 14763,
    "Ġbrand": 16189,
    "Ġfanatic": 23393,
    "Ġvisual": 5741,
    "Ġfrancisco": 26065,
    "Ġfle": 3091,
    "Ġestab": 6317,
    "Ġlays": 15993,
    "Ġinvent": 7165,
    "Ġdashes": 21437,
    "Ġlips": 3988,
    "Ġoffice": 4965,
    ")": 13,
    "setting": 13290,
    "Ġtiara": 26417,
    "Ġtobacco": 8367,
    "Ġloom": 7629,
    "aw": 1449,
    "Ġfav": 1753,
    "inferences": 17741,
    "Ġdecide": 9289,
    "Ġoun": 13866,
    "Ġmeditations": 25016,
    "stat": 21647,
    "Ġloo": 22114,
    "hogs": 20085,
    "Ġbridegroom": 10607,
    "prot": 6898,
    "Ġstra": 2988,
    "ivered": 7007,
    "¯": 112,
    "imate": 4220,
    "Ġcreditable": 19625,
    "Ġearthly": 7990,
    "Ġdefence": 11069,
    "Ġapr": 12537,
    "crated": 16685,
    "Ġbishop": 13905,
    "Ġtrophy": 20010,
    "prop": 1031,
    "þ": 191,
    "Ġdecorum": 16024,
    "shell": 16290,
    "Ġinequalities": 26455,
    "Ġtreating": 4283,
    "imly": 12692,
    "osis": 18390,
    "Ġrefinement": 18701,
    "Ġthence": 8885,
    "Ġencl": 16170,
    "Ġhumiliation": 16202,
    "Ġcocksure": 26260,
    "Ġvaguely": 17369,
    "grey": 14915,
    "Ġsqu": 1034,
    "Ġfreely": 7058,
    "Ġslice": 23161,
    "Ġpassenger": 14372,
    "catch": 17509,
    "Ġconvers": 2904,
    "Ġvoices": 7876,
    "vil": 2732,
    "Ġsecretly": 13276,
    "gathered": 13735,
    "wic": 21123,
    "chie": 21693,
    "scorched": 25698,
    "Ġtransplanted": 22455,
    "chased": 18044,
    "beheld": 11805,
    "rights": 23678,
    "ctive": 11626,
    "itig": 1332,
    "Ġcatastrophic": 3544,
    "sperm": 5203,
    "Ġspermaceti": 8970,
    "Ġexal": 10879,
    "Â£": 4812,
    "Ġchisel": 20371,
    "inquir": 9539,
    "Ġtucked": 12396,
    "Ġagric": 22519,
    "iates": 13740,
    "Ġsandwich": 19831,
    "running": 6798,
    "preser": 9762,
    "Ġspeeches": 22666,
    "Ġveteran": 17453,
    "Ġinches": 5846,
    "Ã¦": 4336,
    "Ġembraced": 10009,
    "conjectures": 25181,
    "Ġplaces": 5390,
    "ifer": 11687,
    "Ġrebellion": 26477,
    "distinguish": 19575,
    "Ġdecayed": 22828,
    "Ġheeded": 13407,
    "disgrace": 16460,
    "Ġflattening": 26049,
    "Ġbloodshot": 23802,
    "Ġadversary": 12178,
    "Ġflorid": 17138,
    "orange": 21403,
    "Ġfrenzy": 13626,
    "Ġconfiding": 19040,
    "Ġsunlight": 13089,
    "Ġridges": 16733,
    "Ġbeaut": 2395,
    "Ġgiven": 1625,
    "Ġits": 707,
    "Ġunjustly": 17129,
    "Ġcastor": 19430,
    "haustible": 16893,
    "Ġnail": 9198,
    "Ġoaths": 13527,
    "Ġshel": 6847,
    "cial": 2648,
    "barbs": 20240,
    "Ġrighted": 23182,
    "Ġaffronted": 22896,
    "Ġmates": 4872,
    "Ġgroaned": 11268,
    "Ġthankful": 14741,
    "Ġclap": 10961,
    "Ġentic": 16150,
    "Ġeffect": 969,
    "Ġclock": 9536,
    "apers": 3484,
    "draw": 23903,
    "wond": 8772,
    "Ġconcentrated": 15087,
    "cocks": 23563,
    "Ġfreedom": 9085,
    "Ġorph": 9720,
    "Ġtester": 21175,
    "Ġdispose": 23882,
    "connections": 14431,
    "jointed": 24013,
    "ess": 411,
    "overfitting": 13105,
    "Ġye": 899,
    "condem": 16346,
    "Ġble": 5223,
    "Ġvibration": 17100,
    "ques": 2839,
    "eds": 6531,
    "Ġuneasy": 8665,
    "Ġtragedies": 25242,
    "Ġdecomposition": 5343,
    "Ġtoward": 17949,
    "Ġdiligently": 11407,
    "Ġwhaleboats": 18479,
    "ralian": 19603,
    "Ġtuples": 13481,
    "æ": 167,
    "Ġinclu": 1100,
    "Ġseem": 912,
    "Ġtorrid": 25035,
    "Ġbegun": 7243,
    "Ġmultitudinous": 26275,
    "Ġunfaltering": 24112,
    "flaming": 23973,
    "Ġsalisbury": 24066,
    "Ġadhes": 22106,
    "Ġspleen": 26423,
    "Ġthrows": 14740,
    "Ġdisposal": 19379,
    "Ġcontrived": 10306,
    "Ġcontemplation": 11359,
    "strained": 21661,
    "Ġbethink": 12383,
    "Ġcogent": 14277,
    "burgh": 6774,
    "blown": 25202,
    "movement": 25578,
    "rimsh": 17029,
    "Ġconvivial": 16551,
    "Ġkneel": 14810,
    "âĢľ_": 5720,
    "fat": 8079,
    "Ġgib": 13968,
    "idirection": 2412,
    "extraordinary": 9098,
    "Ġsk": 961,
    "Ġgrip": 11630,
    "ves": 743,
    "trust": 21081,
    "7": 27,
    "Ġcleaned": 23186,
    "Ġforgotten": 5679,
    "trained": 4239,
    "forbearance": 22803,
    "Ġpause": 5707,
    "Ġoce": 3029,
    "Ġsettle": 6295,
    "Ġlinks": 13958,
    "tem": 6370,
    "Ġpropont": 16353,
    "Ġtearless": 24785,
    "ripp": 6405,
    "Ġmonsie": 11449,
    "ery": 1270,
    "Ġpurplish": 19142,
    "Ġvillainous": 25134,
    "Ġtemporary": 7981,
    "fishery": 10035,
    "Ġwalking": 4322,
    "death": 6263,
    "Ġremote": 8923,
    "rev": 17758,
    "calmed": 16207,
    "Ġremotest": 10055,
    "mond": 20976,
    "Ġflowed": 10374,
    "Ġharrow": 17928,
    "Ġostens": 25276,
    "amb": 5723,
    "Ġcategories": 4477,
    "Ġgrowl": 16540,
    "Ġrucastles": 18720,
    "contains": 16034,
    "Ġrattle": 10901,
    "Ġcirc": 1984,
    "Ġunfathom": 14791,
    "introduced": 15128,
    "Ġblasphemy": 26116,
    "Ġcatches": 23429,
    "Ġintent": 6410,
    "Ġmitt": 21310,
    "Ġnlp": 3060,
    "blind": 16704,
    "Ġangular": 19208,
    "Ġenrapt": 21943,
    "Ġmediocrity": 26610,
    "Ġproviding": 1360,
    "natural": 2243,
    "Ġguns": 16778,
    "wich": 11546,
    "dred": 2527,
    "ishop": 9745,
    "Ġruggedness": 26269,
    "Ġunprepared": 22054,
    "Ġthorough": 6247,
    "ang": 443,
    "Ġbeak": 18082,
    "Ġpriest": 7526,
    "brilliancy": 26078,
    "Ġincarnation": 25574,
    "Ġapplying": 13097,
    "Ġlieuten": 13331,
    "Ġheinous": 18041,
    "turning": 8317,
    "entreaties": 26187,
    "Ġdyspepsia": 20645,
    "hands": 5968,
    "Ġming": 9648,
    "Ġwad": 13854,
    "Ġdefect": 8558,
    "Ġsharper": 17182,
    "Ġfulfil": 9554,
    "sweetly": 25137,
    "Ġindecision": 25782,
    "flo": 6116,
    "Ġphysiology": 25333,
    "Ġunimportant": 22034,
    "Ġlie": 4406,
    "oward": 6022,
    "Ġcall": 2075,
    "best": 6113,
    "Ġequilib": 4133,
    "O": 51,
    "contrasted": 17309,
    "Ġconfusing": 23308,
    "Ġsche": 1706,
    "ize": 772,
    "Ġunmingled": 18264,
    "ifford": 15788,
    "aven": 8208,
    "Ġpossesses": 19355,
    "algorithm": 4136,
    "Ġcivilised": 24247,
    "Ġpoltroon": 26600,
    "Ġincreasingly": 9374,
    "Ġcopper": 7425,
    "travellers": 24339,
    "ainted": 3658,
    "Ġcentre": 5123,
    "Ġerecting": 24653,
    "Ġque": 4156,
    "Ġmedit": 8025,
    "Ġcapture": 3386,
    "Ġchanced": 8187,
    "norm": 20987,
    "Ġbucket": 8792,
    "Ġtexas": 25923,
    "urpr": 2289,
    "Ġblew": 9048,
    "Ġproverb": 12721,
    "reply": 19725,
    "edily": 17946,
    "esteemed": 26010,
    "stands": 22439,
    "Ġcompanies": 14559,
    "Ġintru": 15831,
    "Ġconj": 8462,
    "ugues": 19023,
    "Ġmelancholy": 5606,
    ".âĢĻ": 1721,
    "Ġswells": 9830,
    "Ġheighten": 19532,
    "Ġsank": 5076,
    "Ġconfided": 19039,
    "Ġscrutin": 26015,
    "sky": 12515,
    "spersed": 22734,
    "Ġmantle": 25275,
    "stun": 18021,
    "Ġpair": 5706,
    "Ġtracks": 18891,
    "Ġpines": 12622,
    "Ġbraided": 16584,
    "Ġrisk": 8039,
    "ê": 171,
    "atches": 13849,
    "augh": 1783,
    "Ġbet": 1135,
    "Ġslices": 23166,
    "sea": 4763,
    "Ġdestitute": 14568,
    "rumours": 23924,
    "Ġeight": 3900,
    "they": 1880,
    "thumb": 18219,
    "Ġleader": 14705,
    "Ġphysical": 7522,
    "illing": 8175,
    "Ġshow": 3405,
    "Ġanchors": 12618,
    "Ġfashions": 17887,
    "Ġfamily": 1964,
    "Ġtrustees": 24107,
    "oric": 21399,
    "amidst": 25653,
    "it": 276,
    "ansion": 10927,
    "Ġconsoled": 18115,
    "Ġfinest": 10394,
    "Ġevaporate": 26334,
    "Ġknowledge": 1446,
    "Ġdairy": 20689,
    "Ġseizure": 21961,
    "Ġcra": 2333,
    "Ġgazed": 6479,
    "Ġyears": 1892,
    "Ġabsor": 8507,
    "ibank": 6880,
    "ĠdÃ¦mon": 7844,
    "Ä": 133,
    "Ġmou": 13858,
    "ave": 978,
    "Ġ68": 24370,
    "loun": 17590,
    "thirds": 25049,
    "Ġsustained": 13486,
    "Ġstrangest": 14798,
    "Ġsolitudes": 22890,
    "Ġdelusion": 18976,
    "like": 1886,
    "Ġcor": 1324,
    "etime": 12664,
    "ę": 218,
    "Ġpatron": 7464,
    "Ġadjac": 18293,
    "expressed": 9044,
    "Ġdiverse": 19211,
    "Ġori": 8410,
    "Ġcoil": 11822,
    "mortal": 10115,
    "Ġpuff": 6527,
    "Ġduplicates": 17219,
    "Ġchoke": 22253,
    "Ġstrategy": 2442,
    "Ġchiswick": 25561,
    "coronet": 16865,
    "advanced": 19591,
    "Ġlull": 15655,
    "Ġbirch": 26175,
    "Ġdamn": 11160,
    "smiled": 16616,
    "Ġbefall": 8833,
    "hampshire": 23267,
    "Ġchopping": 24222,
    "Ġaccountability": 10440,
    "Ġcowardice": 17033,
    "âĢĿ)": 21815,
    "Ġscale": 1548,
    "contain": 18503,
    "approve": 19940,
    "astonishment": 10033,
    "Ġdistress": 5845,
    "salis": 25150,
    "Ġsubmit": 11874,
    "Ġyork": 11668,
    "stone": 5089,
    "Ġcountryside": 23598,
    "Ġgroups": 3720,
    "Ġentra": 18692,
    "Ġfacilitate": 26099,
    "attached": 11939,
    "imod": 15714,
    "Ġrequire": 913,
    "darker": 24516,
    "eers": 20845,
    ";--": 8069,
    "Ġrepul": 16411,
    "Ġthousand": 2781,
    "iom": 20917,
    "confidence": 16810,
    "Ġvirtues": 9939,
    "Ġcedars": 20295,
    "Ġsoothe": 7405,
    "perform": 15898,
    "erick": 13851,
    "dz": 4739,
    "Ġup": 463,
    "Ġchivalry": 25820,
    "Ġdeceive": 12727,
    "Ġpatient": 6894,
    "rarely": 21637,
    "softened": 20413,
    "iences": 6957,
    "whenever": 11885,
    "Ġgemini": 26471,
    "Ġspan": 11732,
    "ordinate": 12880,
    "sitting": 8387,
    "Ġcarries": 7674,
    "opius": 18509,
    "Ġantagon": 19553,
    "Ġprevented": 5943,
    "Ġinspector": 6499,
    "Ġcrutch": 23446,
    "oing": 15404,
    "Ġwhichever": 14003,
    "Ġregions": 10326,
    "Ġbrewed": 23347,
    "Ġloaf": 15876,
    "impulse": 20647,
    "altern": 17944,
    "Ġobey": 9522,
    "Ġtap": 12531,
    "Ġliveliest": 24774,
    "Ġinvader": 23480,
    "/(": 2980,
    "Ġrevelation": 25223,
    "Ġinfinity": 23282,
    "Ġhistory": 4004,
    "Ġstrife": 18614,
    "Ġbul": 3296,
    "aloud": 17943,
    "unned": 21882,
    "Ġclosed": 4605,
    "cheon": 23806,
    "Ġdiscussed": 19562,
    "Ġstrange": 2274,
    "ieved": 3235,
    "iscuit": 10601,
    "tled": 3461,
    "priv": 9622,
    "Ġhesitated": 10005,
    "Ġchag": 15935,
    "Ġquadr": 8200,
    "Ġexhilarating": 26339,
    "Ġexcuses": 19044,
    "Ġrepute": 18037,
    "Ġbeauties": 10447,
    "ternatural": 12720,
    "Ġrusty": 14967,
    "rote": 4593,
    "Ġcoffins": 13255,
    "Ġdinn": 23984,
    "Ġvillages": 14751,
    "Ġacceptance": 14830,
    "quod": 2165,
    "Ġneur": 811,
    "odhead": 18123,
    "anxiety": 25159,
    "Ġcelestial": 10070,
    "Ġwrapping": 19778,
    "Ġanom": 12616,
    "rear": 21235,
    "Ġflinging": 13589,
    "matical": 13132,
    "pets": 17638,
    "Ġinitialization": 1254,
    "Ġunwritten": 22038,
    "Ġcontortions": 18477,
    "conscience": 14863,
    "olly": 3230,
    "ium": 4864,
    "situ": 9624,
    "Ġfiltering": 23930,
    "jected": 22717,
    "Ġseethings": 26505,
    "Ġvent": 3994,
    "Ġconcept": 672,
    "portent": 25413,
    ".]": 15302,
    "Ġappet": 9734,
    "ent": 305,
    "Ġuntidy": 23527,
    "Ġunderneath": 16340,
    "Ġaerial": 21201,
    "Ġpennies": 17273,
    "passenger": 24167,
    "Ġsphere": 15886,
    "Ġter": 2052,
    "Ġcontinuation": 22921,
    "Ġmorals": 22980,
    "Ġextrem": 2475,
    "Ġassented": 17341,
    "Ġsurvive": 9069,
    "hies": 17562,
    "Ġcheek": 8580,
    "Ġcreep": 22724,
    "Ġseal": 10257,
    "Ġtribe": 10753,
    "Ġsavagely": 26325,
    "Ġmortals": 9919,
    "Ġfleece": 10617,
    "physiogn": 26270,
    "Ġactuated": 18546,
    "respectively": 24699,
    "Ġcrystall": 20229,
    "Ġconsecutive": 20705,
    "Ġscientific": 6857,
    "Ġdup": 21430,
    "Ġcandid": 4095,
    "Ġaccurately": 4206,
    "Ġpraying": 19557,
    "Ġegg": 8823,
    "begins": 18526,
    "Ġdock": 15934,
    "et": 307,
    "Ġcravat": 26308,
    "Ġconsolidation": 5060,
    "Ġtaurus": 21181,
    "Ġplum": 11826,
    "Ġcongen": 10875,
    "ign": 1704,
    "//": 11465,
    "urning": 12921,
    "Ġindulgence": 11321,
    "Ġswords": 19899,
    "cool": 19189,
    "Ġhier": 1895,
    "Ġwillingly": 8888,
    "caus": 11478,
    "Ġred": 3003,
    "Ġhulls": 13929,
    "Ġdeceived": 6546,
    "purp": 8091,
    "Ġbent": 5149,
    "Ġtrees": 4201,
    "Ġprints": 16332,
    "Ġsmiting": 12903,
    "Ġinhaled": 25452,
    "ription": 5676,
    "tub": 9146,
    "impregn": 21717,
    "grand": 7970,
    "sme": 17660,
    "Ġblessing": 11265,
    "Ġancles": 21449,
    "consid": 4925,
    "Ġshutter": 16673,
    "Ġpaddock": 25040,
    "Ġattent": 4359,
    "ager": 6548,
    "Ġapologized": 25199,
    "thur": 7188,
    "Ġrubbed": 12960,
    "stir": 12678,
    "Ġjealous": 9471,
    "Ġsturgeon": 20595,
    "commission": 22826,
    "Ġdelightful": 6322,
    "hau": 17564,
    "infer": 10147,
    "youth": 11879,
    "Ġhemis": 21687,
    "velled": 9879,
    "Ġrepugnance": 19088,
    "Ġren": 3844,
    "converse": 22477,
    "Ġdelicately": 24125,
    "Ġoverheard": 11775,
    "Ġcoals": 16079,
    "Ġegotistical": 26193,
    "Ġroy": 4228,
    "attain": 21264,
    "figures": 20125,
    "Ġinsertion": 26345,
    "Ġeliza": 6438,
    "Ġdrops": 9035,
    "pushed": 21025,
    "injured": 15136,
    "Ġxxxii": 24973,
    "rebell": 17765,
    "mere": 11859,
    "wed": 5796,
    "itled": 7578,
    "),": 1346,
    "Ġjar": 15954,
    "supers": 22644,
    "Ġisolated": 13563,
    "Ġcaves": 15558,
    "uel": 6967,
    "key": 5462,
    "Ġcoincidence": 25484,
    "Ġchaff": 18384,
    "Ġringed": 16752,
    "gradient": 2275,
    "Ġgratify": 19506,
    "dance": 17521,
    "Ġprovidence": 18747,
    "Ġgladness": 16593,
    "shr": 10982,
    ".}": 20747,
    "Ġugliness": 20430,
    "ould": 428,
    "Ġcent": 3257,
    "Ġflu": 3281,
    "arth": 4443,
    "Ġseized": 4834,
    "Ġdirections": 1968,
    "Ġmutual": 8296,
    "Ġinstantaneous": 14614,
    "windward": 24161,
    "ented": 4347,
    "99": 1896,
    "Ġwhe": 439,
    "insufficient": 15492,
    "Ġprevent": 756,
    "Ġblindly": 12114,
    "Ġhark": 8429,
    "starbuck": 6020,
    "Ġincluding": 2848,
    "magnificent": 20277,
    "ensive": 6281,
    "Ġcatastrophe": 10486,
    "Ġdiscernment": 15072,
    "Ġexhaust": 6400,
    "Ġimperfectly": 25727,
    "ply": 6367,
    "Ġcasts": 19429,
    "Ġrefresh": 10347,
    "Ġjug": 12840,
    "Ġborrowed": 17232,
    "appearance": 5334,
    "Ġoffing": 16147,
    "drawn": 9916,
    "Ġimpertin": 6933,
    "Ġthread": 14540,
    "stains": 11640,
    "itary": 4751,
    "Ġlaug": 3627,
    "Ġpurest": 14942,
    "erie": 21273,
    "Ġsinned": 18953,
    "roqu": 21537,
    "Ġdevelopments": 23243,
    "Ġpossessor": 23827,
    "ourse": 8873,
    "Ġassociate": 13454,
    "Ġstump": 7603,
    "Ġorchard": 22098,
    "lee": 11588,
    "Ġworsh": 13005,
    "Ġspirits": 3698,
    "Ġincomp": 12902,
    "Ġdons": 17890,
    "Ġgrammars": 11404,
    "Ġnarrowly": 16822,
    "Ġmicha": 17813,
    "Ġunperceived": 22041,
    "Ġof": 298,
    "althy": 8433,
    "bright": 8992,
    "Ġrepel": 23360,
    "woof": 21142,
    "Ġcet": 6672,
    "Ġ59": 24323,
    "Ġspread": 5161,
    "Ġinve": 17931,
    "Ġsailor": 3538,
    "half": 4932,
    "Ġdomestic": 6910,
    "Ġwrought": 11948,
    "Ġdick": 3500,
    "evening": 7091,
    "enance": 3373,
    "Ġfrank": 4420,
    "Ġquiet": 3264,
    "Ġemperor": 15162,
    "hug": 17565,
    "block": 11472,
    "Ġinforming": 18742,
    "Ħ": 231,
    "ice": 591,
    "vation": 4744,
    "below": 12126,
    "elius": 13292,
    "Ġhosmer": 6775,
    "irregular": 21916,
    "iscreet": 20685,
    "Ġarrested": 9563,
    "itheat": 21341,
    "Ġlux": 8818,
    "akness": 14197,
    "Ġdiversion": 17200,
    "Ġremained": 3144,
    "Ġtusk": 25426,
    "Ġpreserve": 7529,
    "Ġstorm": 4300,
    "Ġfict": 21408,
    "outward": 22164,
    "Ġacting": 10993,
    "Ġrenders": 13288,
    "Ġdraws": 19439,
    "_;": 6643,
    "Ġunearthly": 9039,
    "Ġdelirium": 10407,
    "Ġgodson": 23359,
    "Ġstole": 7953,
    "Ġgown": 10204,
    "Ġlakeman": 6987,
    "Ġshaken": 10267,
    "would": 2352,
    "Ġhollow": 5648,
    "Ġlife": 1352,
    "saturday": 14861,
    "becoming": 18520,
    "Ġcomparing": 14268,
    "entitled": 21571,
    "Ġmaintains": 2144,
    "Ġintensity": 10019,
    "Ġsher": 3763,
    "alk": 1154,
    "Ġastonishment": 4794,
    "Ġprair": 7747,
    "Ġwires": 21298,
    "Ġpumps": 8428,
    "tfordshire": 4811,
    "Ġcoleridge": 18766,
    "Ġben": 1109,
    "Ġhoisted": 5961,
    "eteenth": 20160,
    "Ġvibrated": 25048,
    "Ġotherwise": 4658,
    "Ġorgies": 18286,
    "Ġevolved": 9895,
    "Ġspecks": 14311,
    "Ġinarticulate": 21503,
    "orus": 10803,
    "Ġgenerating": 12854,
    "ignorant": 13567,
    "Ġtested": 23228,
    "ds": 4688,
    "Ġ(`": 12858,
    "Ġminutest": 14562,
    "Ġarbit": 4651,
    "Ġhare": 5157,
    "Ġshift": 2284,
    "Ġpine": 8801,
    "Ġmassacre": 20550,
    "Ġwhirling": 12253,
    "Ġextending": 11030,
    "Ġpyramid": 8806,
    "Ġwilled": 21294,
    "worn": 13809,
    "miseries": 16759,
    "bod": 12441,
    "only": 3311,
    "Ġattempting": 14699,
    "garious": 17560,
    "Ď": 207,
    "Ġdrink": 4787,
    "'m": 9585,
    "Ġdated": 10941,
    "Ġerected": 12238,
    "Ġaccelerate": 23230,
    "vapor": 25756,
    "Ġtrampling": 25493,
    "wreat": 21130,
    "cooee": 12422,
    "Ġrighteous": 18948,
    "Ġrespectful": 16349,
    "Ġnar": 7375,
    "Ġstrangled": 24133,
    "?âĢĻâĢĿ": 23644,
    "Ġpaddington": 17096,
    "Ġspecksnyder": 17406,
    "Ġvestige": 20066,
    "Ġregarded": 5762,
    "Ġinside": 5448,
    "Ġcaulk": 25441,
    "Ġdistricts": 20266,
    "killing": 20944,
    "oglyph": 11021,
    "prior": 21035,
    "blooded": 20026,
    "sleepy": 24728,
    "Ġeclips": 20699,
    "rederick": 14083,
    "Ġbene": 2033,
    "fred": 20857,
    "requ": 7149,
    "Ġshriek": 6640,
    "progra": 9397,
    "Ġcharles": 11961,
    "Ġhair": 3317,
    "Ġentities": 11867,
    "alliance": 22204,
    "stall": 21649,
    "Ġoppressively": 25711,
    "izers": 18145,
    "Ġpeg": 22692,
    "composed": 14743,
    "gorge": 22336,
    "zeal": 16261,
    "Ġgangs": 21612,
    "Ġaccusation": 22385,
    "middle": 11312,
    "Ġstagnant": 24655,
    "Ġreproofs": 24893,
    "Ġoscillations": 2896,
    "Ġagreeable": 4553,
    "Ġbal": 1132,
    "purse": 20028,
    "paradise": 20640,
    "circled": 24189,
    "Ġgpt": 4349,
    "Ġarchitecture": 1134,
    "Ġoutrid": 22319,
    "aught": 2680,
    "Ġspam": 7631,
    "Ġattacked": 10570,
    "Ġfaintness": 24571,
    "}": 97,
    "Ġrejoice": 10211,
    "Ġsame": 1341,
    "repaid": 24491,
    "maintained": 25023,
    "Ġsimilarity": 3171,
    "Ġbennett": 16326,
    "Ġprovide": 7750,
    "Ġgrasped": 8034,
    "Ġexploring": 4304,
    "Ġlovely": 4710,
    "Ġparlor": 13543,
    "cil": 8724,
    "Ġleading": 7297,
    "five": 6358,
    "Ġopened": 3515,
    "Ġlengthened": 25959,
    "Ġcarted": 21353,
    "ondency": 15273,
    "Ġendurance": 23139,
    "royal": 11395,
    "Ġarticle": 9505,
    "Ġerskine": 17435,
    "compass": 9463,
    "Ġrowing": 10303,
    "warp": 17708,
    "Ġstiffness": 24828,
    "ifice": 7198,
    "Ġdispleased": 18556,
    "Ġbows": 4079,
    "Ġalex": 15137,
    "Ġjesty": 18406,
    "Ġtoe": 13939,
    "Ġcomplex": 739,
    "anyth": 5438,
    "fashion": 8081,
    "Ġglass": 4368,
    "squeezing": 25914,
    "weaknesses": 26031,
    "elling": 5831,
    "Ġhereafter": 9333,
    "Ġintact": 21993,
    "Ġprivate": 5346,
    "depend": 9115,
    "Ġperpendicular": 7209,
    "Ġlastly": 16208,
    "duct": 3509,
    "Ġsaintly": 25932,
    "Ġtax": 13819,
    "Ġcruisers": 25864,
    "Ġli": 603,
    "tling": 9145,
    "Ġunfavourable": 17420,
    "Ġfor": 340,
    "Ġunfortunate": 5376,
    "Ġapartments": 19617,
    "Ġteacup": 16211,
    "Ġindolence": 16232,
    "Ġtex": 15475,
    "scissors": 20729,
    "Ġpreyed": 18367,
    "several": 5544,
    "Ġsplashed": 23751,
    "lod": 15382,
    "Ġdur": 11595,
    "Ġelegant": 7532,
    "Ġchilly": 25563,
    "Ġwaiting": 4323,
    "onents": 8781,
    "Ġbrains": 2630,
    "bonnet": 25743,
    "gryphon": 15362,
    "Ġreducing": 1956,
    "Ġfogs": 25283,
    "whalebone": 19120,
    "Ġsatirical": 26281,
    "stooped": 23825,
    "Ġpalace": 16691,
    "Ġobligations": 12097,
    "Ġcompetition": 14270,
    "Ġhazarded": 25655,
    "Ġincapable": 7423,
    "vib": 21118,
    "narwhale": 17321,
    "Ġmonday": 6129,
    "Ġfrog": 23925,
    "Ġconflict": 17276,
    "less": 928,
    "Ġadver": 5641,
    "Ġpalaces": 24093,
    "Ġryder": 10261,
    "Ġnaked": 8127,
    "aloes": 21505,
    "Ġreplen": 11115,
    "joined": 13280,
    "Ġwarning": 9061,
    "turned": 7306,
    "Ġbargain": 23795,
    "Ġprices": 15616,
    "conspicuous": 26249,
    "flames": 14715,
    "Ġsway": 7571,
    "ras": 21039,
    "Ġleather": 7607,
    "imet": 21709,
    "Ġendeavored": 19304,
    "Ġnone": 3228,
    "Ġcalms": 23046,
    "Ġannounce": 13343,
    "Ġrending": 19470,
    "Ġanticipatingly": 26103,
    "Ġimprudence": 10300,
    "teak": 22818,
    "Ġdependence": 18625,
    "Ġdrives": 14580,
    "Ġep": 7384,
    "Ġassaults": 15160,
    "ears": 20847,
    "police": 10586,
    "fell": 6953,
    "finish": 24384,
    "Ġreck": 6539,
    "Ġsuddenness": 23383,
    "condesc": 18506,
    "ental": 7169,
    "Ġsammy": 24933,
    "tried": 13797,
    "Ġcrisis": 13130,
    "Ġghastly": 10063,
    "Ġencouraging": 2265,
    "nuee": 17433,
    "ster": 1950,
    "Ġunappe": 22022,
    "Ġnet": 3626,
    "Ġnails": 12653,
    "Ġ16": 7927,
    "Ġsliding": 9366,
    "Ġharpooneers": 4732,
    "Ġinequal": 21500,
    "abated": 14023,
    "een": 726,
    "Ġlogger": 11958,
    "away": 4626,
    "Ġresemble": 15697,
    "zing": 7820,
    "pal": 9619,
    "condescended": 26250,
    "Ġdodo": 9075,
    "Ġsakes": 18327,
    "clam": 13060,
    "Ġquadruped": 20618,
    "ink": 755,
    "limp": 20954,
    "Ġsubordinate": 18721,
    "tormented": 13649,
    "Ġgentleness": 8713,
    "Ġpenetrated": 13476,
    "circum": 16739,
    "oned": 4631,
    "Ġhessian": 3550,
    "Ġpertin": 18451,
    "stupid": 12681,
    "joice": 9605,
    "Ġwired": 17788,
    "undoubtedly": 13316,
    "noon": 5037,
    "wolf": 26411,
    "Ġpresume": 8038,
    "tart": 21070,
    "afer": 17484,
    "oner": 6126,
    "..": 5783,
    "anity": 9657,
    "Ġfunctional": 3047,
    "Ġwilderness": 14843,
    "earthquakes": 24724,
    "Ġtoast": 21515,
    "Ġoppressive": 20458,
    "Ġunde": 11716,
    "Ġperchance": 15995,
    "Ġcomo": 21846,
    "ascar": 8436,
    "allet": 11085,
    "ocratic": 17247,
    "kes": 3677,
    "Ġplush": 18610,
    "Ġresnet": 5473,
    "Ġmusk": 7494,
    "magistrate": 19865,
    "Ġexpenses": 11837,
    "Ġregion": 2273,
    "Ġpass": 1036,
    "Ġjuly": 17239,
    "Ġsweet": 3469,
    "Ġbeauty": 3769,
    "punishment": 15149,
    "Ġfishers": 19357,
    "benevol": 12231,
    "Ġpalsied": 25780,
    "ouses": 5163,
    "heavy": 10577,
    "Ġgenteel": 19984,
    "scy": 21058,
    "pyramid": 21032,
    "disciple": 16780,
    "Ġplaced": 3448,
    "Ġchurchyard": 16779,
    "ipelagoes": 13675,
    "spade": 10342,
    "unt": 2045,
    "guessed": 25873,
    "tall": 17675,
    "Ĩ": 233,
    "consum": 12875,
    "Ġimm": 3962,
    "naught": 20996,
    "ange": 1014,
    "Ġrevive": 13483,
    "Ġhighness": 22774,
    "Ġemblaz": 16228,
    "icking": 8914,
    "Ġinstruction": 14342,
    "gentlemanlike": 20005,
    "live": 7550,
    "Ġaided": 17747,
    "uned": 21875,
    "Ġrapid": 1443,
    "Ġdiary": 24738,
    "Ġtempest": 8213,
    "Ġtreacherous": 13558,
    "Ġunless": 4086,
    "Ġvices": 14086,
    "vain": 15450,
    "actorily": 25577,
    "Ġsource": 6806,
    "Ġarchy": 14350,
    "Ġhastily": 5763,
    "dening": 22779,
    "whis": 7898,
    "bpp": 20774,
    "mant": 20967,
    "immortal": 21713,
    "Ġmomentary": 11037,
    "mistak": 16880,
    "ving": 593,
    "derment": 22170,
    "Ġcant": 17826,
    "Ġvelvet": 12402,
    "shortened": 24747,
    "riot": 18183,
    "fisher": 7547,
    "suppose": 8648,
    "mmar": 953,
    "admiration": 11389,
    "Ġcontemptuous": 24677,
    "informed": 17738,
    "Ġhunsford": 6303,
    "Ġtreble": 16506,
    "cible": 20808,
    "suff": 4961,
    "Ġattaining": 15807,
    "dial": 20827,
    "Ġwails": 21299,
    "Ġspiritual": 9933,
    "Ġhigher": 1821,
    "Ġskeletons": 16793,
    "Ġaccordance": 19501,
    "Ġdesired": 4665,
    "Ġfift": 6383,
    "Ġgrim": 7439,
    "Ġraven": 16118,
    "eck": 20846,
    "exactly": 10639,
    "Ġlibraries": 20617,
    "Ġdiscretion": 10350,
    "Ġlacepede": 20499,
    "Ġunaccount": 22031,
    "Ġtype": 2019,
    "Ġburton": 23654,
    "prepare": 20215,
    "Ġundeviating": 15221,
    "Ġincident": 6282,
    "vent": 683,
    "Ġhimself": 1351,
    "Ġfervent": 14899,
    "Ġaffront": 18789,
    "Ġgnashed": 20136,
    "Ġwildness": 14605,
    "Ġunbelief": 22053,
    "Ġhypothe": 4070,
    "Ġexamples": 2606,
    "Ġfunny": 7638,
    "score": 18858,
    "Ġencourag": 1394,
    "Ġhappiest": 11886,
    "ifle": 10893,
    "Ġvindication": 25365,
    "Ġilluminate": 17195,
    "Ġchasing": 11758,
    "yed": 3276,
    "because": 4924,
    "idable": 8146,
    "Ġdrinks": 24282,
    "Ġdifferently": 10391,
    "Ġannum": 24206,
    "Ġsays": 3563,
    "Ġroll": 5381,
    "reliable": 21243,
    "J": 46,
    "Ġlads": 8601,
    "Ġstudied": 11116,
    "Ġcount": 1816,
    "Ġinduce": 7763,
    "mention": 7215,
    "unctions": 18158,
    "Ġcarved": 7947,
    "iqu": 7803,
    "Ġcorrupt": 11927,
    "Ġl": 303,
    "Ġfarmhouse": 24987,
    "Ġpickle": 16724,
    "Ġtrusty": 24104,
    "Ġpunctilious": 26355,
    "Ġinconveniences": 24942,
    "Ġdestroy": 5772,
    "inarticulate": 21198,
    "athies": 22703,
    "Ġgrec": 18962,
    "bat": 8072,
    "Ġmetropolis": 17277,
    "Ġfondness": 16782,
    "Ġmajestic": 8643,
    "Ġvacantly": 16817,
    "etency": 21585,
    "Ġstupidity": 15052,
    "Ġtogether": 1879,
    "Ġcommand": 3325,
    "completed": 19997,
    "Ġnursing": 12219,
    "sher": 5217,
    "oblivious": 26584,
    "Ġauthor": 4374,
    "odecimo": 11446,
    "Ġmerchants": 23735,
    "Ġrally": 21972,
    "invested": 17120,
    "Ġinfatuation": 25857,
    "Ġintermix": 25827,
    "coll": 23782,
    "Ġperusal": 14227,
    "Ġhish": 21918,
    "Ġglades": 19375,
    "motives": 26138,
    "Ġunconnected": 18243,
    "Ġintegr": 7969,
    "wled": 15457,
    "Ġknocking": 10562,
    "ashing": 4825,
    "Ġspine": 7407,
    "noble": 7922,
    "Ġplunder": 22605,
    "greatest": 10496,
    "Ġfetching": 16898,
    "Ġdebar": 24274,
    "party": 8995,
    "Ġreaped": 18032,
    "Ġswarm": 23057,
    "probability": 17024,
    "always": 5708,
    "Ġgospel": 18003,
    "Ġabominable": 12326,
    "skill": 24487,
    "former": 11752,
    "Ġcamel": 25350,
    "Ġvolcano": 24147,
    "Ġshook": 4468,
    "Ġcontinuously": 23208,
    "Ġcreature": 2386,
    "unearthly": 19275,
    "Ġvenerable": 9097,
    "Ġplug": 17150,
    "Ġdeadly": 5405,
    "Ġservants": 6612,
    "Ġstumbling": 21746,
    "wart": 17707,
    "Ġintense": 6159,
    "Ġwretchedness": 9029,
    "Ġmarred": 23035,
    "aration": 12612,
    "interrupted": 11419,
    "steaks": 23964,
    "Ġimitate": 14160,
    "Ġfins": 9666,
    "Ġclaw": 22361,
    "Ġportcull": 23866,
    "Ġmustard": 12935,
    "swaying": 25911,
    "level": 2654,
    "Ġmoderate": 10940,
    "important": 7114,
    "Ġgregarious": 18965,
    "ativeness": 15524,
    "Ġencounter": 6630,
    "spl": 9142,
    "Ġclaims": 13377,
    "Ġgreeting": 18964,
    "Ġmacro": 25940,
    "Ġdrawn": 4275,
    "ortion": 11761,
    "Ġcourting": 23292,
    "Ġgreenwich": 19322,
    "accomp": 10457,
    "Ġgaieties": 24197,
    "Ġnature": 2539,
    "Ġ73": 24263,
    "Ġhappier": 10362,
    "sn": 7140,
    "Ġcom": 367,
    "itying": 21998,
    "amouch": 21855,
    "Ġsaying": 3248,
    "ethics": 8881,
    "riors": 18185,
    "cherries": 19759,
    "ounder": 11748,
    "cheerfulness": 20183,
    "enty": 2913,
    "Ġturkish": 12266,
    "Ġpatent": 11967,
    "Ġvectors": 1771,
    "prints": 23816,
    "Ġboots": 5944,
    "puted": 8850,
    "abominable": 20597,
    "Ġdistant": 5387,
    "Ġcore": 13881,
    "youn": 5690,
    "Ġglu": 15672,
    "game": 11493,
    "Ġimbalance": 22178,
    "Ġmaj": 3925,
    "Ġrehearsed": 25972,
    "Ġrestrictions": 20638,
    "Ġxxx": 7767,
    "furn": 10094,
    "prophecy": 22839,
    "Ġshiny": 14109,
    "Ġunrem": 18245,
    "Ġsparkled": 13466,
    "Ġinhabited": 12190,
    "Ġcocks": 18598,
    "Ġaltitude": 26204,
    "venerable": 26410,
    "Ġshabby": 14114,
    "ror": 7351,
    "Ġslept": 8259,
    "Ġsidelong": 11440,
    "Ġyielded": 14875,
    "Ġtufted": 17016,
    "Ġmagnitudes": 3821,
    "rinted": 21046,
    "Ġspikes": 22140,
    "Ġmaketh": 15191,
    "caps": 20809,
    "Ġindefinite": 17179,
    "apt": 722,
    "onde": 21254,
    "Ġscheming": 23273,
    "Ġorigin": 4117,
    "abode": 21795,
    "Ġhumming": 12991,
    "Ġdolphins": 20399,
    "band": 3057,
    "uctive": 17698,
    "Ġsimpler": 2049,
    "Ġpieces": 7369,
    "<PAD>": 0,
    "Ġstructure": 849,
    "cru": 7128,
    ");": 7330,
    "sies": 21057,
    "fifty": 12356,
    "inal": 15483,
    "Ġpatagon": 14511,
    "wake": 11548,
    "sole": 6170,
    "peculiarities": 13475,
    "Ġlascar": 9202,
    "barrow": 15324,
    "prom": 6510,
    "Ġintervening": 17270,
    "Ġsheep": 10928,
    "Ġfearful": 6199,
    "Ġsign": 2494,
    "Ġvisibly": 22864,
    "helped": 18927,
    "Ġ129": 24474,
    "ĠâĢĻ": 3042,
    "Ġunctuousness": 17237,
    "Ġvintage": 26211,
    "awe": 20767,
    "Ġmundane": 26431,
    "Ġbravest": 23844,
    "surrounded": 26089,
    "Ġconcil": 23322,
    "qualified": 17099,
    "Ġmalice": 7153,
    "propriety": 14369,
    "Ġcontrad": 9758,
    "oured": 2672,
    "Ġconvulsively": 25716,
    "igated": 15711,
    "plate": 18208,
    "Ġsulphur": 24934,
    "Ġnews": 3818,
    "representation": 20199,
    "Ġoccur": 1080,
    "luding": 6702,
    "accept": 8901,
    "Ġpsych": 10179,
    "itar": 15551,
    "redible": 15808,
    "duodecimo": 16006,
    "Ġcarriage": 3948,
    "Ġpods": 17917,
    "Ġtackle": 9516,
    "imaux": 21715,
    "Ġtime": 689,
    "Ġbreeding": 14523,
    "Ġround": 1370,
    "narrated": 25622,
    "Ġoffence": 12949,
    "ohog": 9846,
    "Ġgazette": 19504,
    "Ġirresistible": 13117,
    "fitted": 17546,
    "Ġson": 2981,
    "Ġices": 21157,
    "Ġsmilingly": 22565,
    "Ġporthole": 24399,
    "Ġengravings": 15069,
    "xible": 13811,
    "shipped": 18499,
    "Ġbefitting": 15730,
    "Ġcrate": 19121,
    "Ġmultitud": 18748,
    "Ġdispelling": 23883,
    "Ġdetected": 18813,
    "Ġclothed": 19609,
    "Ġinvention": 19956,
    "fowl": 17551,
    "Ġrepositories": 23365,
    "whisper": 17084,
    "Ġprojects": 9514,
    "numbers": 17618,
    "Ġsnapped": 9900,
    "ter": 359,
    "Ġboughs": 20492,
    "flesh": 13494,
    "Ġambiguous": 20167,
    "Ġdazed": 15600,
    "Ġhiding": 9826,
    "racting": 10358,
    "Ġsane": 21224,
    "slo": 17658,
    "zwilliam": 5074,
    "Ġhugh": 15006,
    "day": 1857,
    "Ġalike": 8147,
    "Ġexcepting": 14682,
    "character": 6333,
    "tracks": 19649,
    "pacing": 21023,
    "Ġmarshy": 20221,
    "nings": 9134,
    "Ġdivulged": 16651,
    "Ġethiopian": 26615,
    "Ġpocket": 4898,
    "Ġproficiency": 19194,
    "snapping": 24850,
    "Ġshakespeare": 20310,
    "Ġcoat": 4555,
    "coburg": 13602,
    "Ġtaking": 3253,
    "Ġtangled": 13830,
    "Ġprovides": 1928,
    "Ġclo": 6046,
    "Ġlydia": 2376,
    "Ġenjoyments": 24021,
    "Ġpossess": 3209,
    "Ġsovere": 9259,
    "Ġconnection": 5479,
    "Ġmessage": 13526,
    "yingly": 23063,
    "Ġcanal": 8182,
    "Ġmadman": 13155,
    "Ġfavourable": 7959,
    "Ġtreasures": 17048,
    "vac": 15453,
    "contin": 16544,
    "Ġcombines": 1171,
    "Ġbride": 6293,
    "Ġcontinents": 16851,
    "ep": 446,
    "Ġbourgh": 5069,
    "Ġblended": 16222,
    "shine": 9292,
    "Ġtherefore": 2239,
    "Ġreckoned": 24743,
    "Ġmenaces": 23110,
    "Ġnieces": 8434,
    "lesome": 12970,
    "Ġguided": 10462,
    "Ġhammered": 13245,
    "Ġshell": 11740,
    "Ġinaudible": 21502,
    "Ġviolence": 5964,
    "Ġtransparency": 10679,
    "boots": 11128,
    "Ġdisinclined": 22533,
    "Ġsubsequent": 7659,
    "Ġsin": 1514,
    "Ġequals": 4727,
    "Ġunquestion": 18249,
    "urday": 13998,
    "Ġbosom": 6939,
    "Ġfragrant": 13096,
    "Ġvolumes": 14802,
    "Ġgardiner": 3243,
    "Ġcostly": 23586,
    "topp": 22570,
    "cheered": 23808,
    "Ġcowards": 12578,
    "Ġadvocate": 13680,
    "Ġknots": 15011,
    "Ġinvincible": 23481,
    "Ġshooting": 11164,
    "Ġindefatigable": 17180,
    "Ġfet": 5808,
    "gris": 8260,
    "Ġjuggl": 20441,
    "Ġwrest": 11574,
    "ribut": 814,
    "Ġstilly": 25974,
    "argue": 21447,
    "edy": 2856,
    "Ġrevelry": 15140,
    "Ġchoking": 15938,
    "desolation": 20462,
    "orting": 9738,
    "Ġfrosty": 14938,
    "distrust": 19573,
    "Ġbeat": 4492,
    "Ø": 153,
    "Ġassume": 10518,
    "Ġrejected": 12298,
    "lone": 11502,
    "Ġcorner": 4369,
    "st": 316,
    "Ġrun": 2356,
    "christmas": 20258,
    "Ġimpressed": 8199,
    "Ġwarming": 23560,
    "Ġruins": 16160,
    "centred": 25020,
    "Ġprocopius": 19734,
    "Ġinsepar": 17936,
    "lilies": 20963,
    "Ġstrike": 4856,
    "Ġnight": 1464,
    "Ġembedding": 2105,
    "Ġcautiously": 16979,
    "Ġplanisphere": 26609,
    "Ġhappen": 5571,
    "Ġexpanding": 25239,
    "ied": 940,
    "Ġscorn": 7901,
    "Ġsympathies": 14864,
    "digger": 24312,
    "Ġattitude": 8908,
    "Ġsinews": 20290,
    "Ġcomprehension": 15090,
    "Ġlanc": 19767,
    "Ġderanged": 23175,
    "uity": 12522,
    "Ġcynical": 25771,
    "bodily": 17318,
    "Ġjenkinson": 11433,
    "philosophy": 13584,
    "Ġnugent": 26459,
    "som": 3294,
    "isance": 17849,
    "early": 20122,
    "lan": 15381,
    "Ġsummary": 19406,
    "Ġgirl": 3085,
    "Ġcounty": 9033,
    "Ġbeg": 1284,
    "afflicted": 23781,
    "Ġalps": 10872,
    "Ġrainbows": 19651,
    "threshold": 21991,
    "Ġentangled": 10345,
    "inqu": 6123,
    "Ġboy": 3020,
    "hroom": 12481,
    "Ġpauses": 14818,
    "Ġfamilies": 8027,
    "Ġlat": 5087,
    "comput": 2000,
    "precision": 4330,
    "clinging": 20824,
    "perai": 10278,
    "Ġgazing": 5877,
    "Ġnamed": 6141,
    "Ġfals": 15585,
    "Ġaffinity": 18788,
    "head": 1434,
    "ulating": 10889,
    "Ġfog": 9664,
    "likes": 18817,
    "Ġungod": 22028,
    "Ġoctober": 17229,
    "Ġdecember": 15009,
    "subjects": 19878,
    "Ġhatchways": 24990,
    "tural": 21069,
    "Ġofficer": 6755,
    "Ġdishes": 16053,
    "olog": 1102,
    "Ġpressing": 9264,
    "ot": 346,
    "hinting": 17571,
    "Ġatom": 18193,
    "Ġvertebra": 20184,
    "tail": 8765,
    "doubtless": 17004,
    "Ġpeninsula": 23199,
    "Ġnavigation": 9996,
    "phantoms": 24680,
    "Ġchagrin": 20610,
    "Ġfleecy": 17025,
    "breat": 10081,
    "shall": 4551,
    "didst": 19352,
    "Ġded": 2578,
    "nut": 12499,
    "riminately": 16485,
    "gence": 876,
    "Ġboone": 11844,
    "Ġsofas": 26226,
    "breath": 15166,
    "Ġobstructed": 24678,
    "Ġinflex": 20637,
    "Ġunappalled": 22069,
    "Ġulster": 14999,
    "Ġimpulsively": 24881,
    "Ġbar": 3150,
    "Ġsteelkilt": 5675,
    "ivity": 1697,
    "globe": 25145,
    "Ġproperty": 6451,
    "Ġpaste": 23421,
    "Ġaberde": 22281,
    "abhorred": 17339,
    "clothed": 19741,
    "dog": 10696,
    "Ġelementary": 24811,
    "estone": 18365,
    "Ġshifting": 12773,
    "yourselves": 24959,
    "Ġoutbreak": 22321,
    "pervading": 18958,
    "compliment": 11366,
    "Ġineff": 12639,
    "upright": 23022,
    "ois": 9137,
    "Ġgeneralization": 982,
    "bull": 13694,
    "Ġcentaurs": 23836,
    "be": 668,
    "Ġcolossal": 11461,
    "Ġoffensive": 18691,
    "tuning": 1579,
    "ief": 2047,
    "Ġplanning": 14754,
    "tempestuous": 26098,
    "Ġseeks": 14305,
    "ucumber": 19060,
    "Ġoxen": 19954,
    "Ġupward": 9724,
    "Ġpuzz": 5533,
    "Ġcrouched": 23441,
    "Ġpleasantness": 24138,
    "Ġsmall": 893,
    "Ġspies": 22132,
    "Ġbigger": 19764,
    "holland": 24044,
    "b": 70,
    "Ġpolicy": 10459,
    "Ġrobe": 18458,
    "Ġtheme": 16022,
    "relig": 15515,
    "Ġdoxology": 22248,
    "Ġ69": 19664,
    "achines": 1725,
    "Ġmaids": 19694,
    "Ġaudio": 24771,
    "Ġdaniel": 15115,
    "Ġbleeding": 14883,
    "Ġturks": 14600,
    "inously": 21189,
    "Ġletting": 10365,
    "Ô": 149,
    "Ġcreeping": 18683,
    "vinegar": 25421,
    "fen": 20852,
    "Ġiceland": 15150,
    "Ġfoss": 9854,
    "want": 8770,
    "mock": 5174,
    "Ġretained": 7174,
    "ou": 287,
    "bes": 6644,
    "Ġtea": 5041,
    "Ġgurgling": 17449,
    "Ġdoubt": 2222,
    "Ġsnodhead": 19303,
    "eliest": 14749,
    "Ġcruellest": 19661,
    "Ġears": 4491,
    "rely": 6125,
    "Ġroundabout": 23064,
    "Ġapothecary": 13663,
    "Ġcoward": 7156,
    "Ġcrawford": 24894,
    "Ġevid": 3503,
    "neighboring": 20620,
    "Ġdowry": 20688,
    "analysis": 26174,
    "Ġswiftly": 5670,
    "Ġfierce": 7437,
    "Ġdesist": 16242,
    "Ġmermaids": 26171,
    "lipped": 16220,
    "Ġextraordinary": 5414,
    "Ġsailing": 5324,
    "accomplished": 17214,
    "etian": 13962,
    "commence": 19995,
    "Ġecc": 11631,
    "Ġinsurg": 23684,
    "Ġknotted": 17021,
    "caves": 20815,
    "Ġcontaining": 2231,
    "Ġdining": 6978,
    "professor": 17252,
    "Ġhinting": 19652,
    "Ġadd": 631,
    "motion": 17608,
    "/*": 10074,
    "heavenly": 20048,
    "Ġrule": 1533,
    "Ġinsensibility": 17111,
    "reat": 618,
    "hauled": 20671,
    "Ġsentry": 19026,
    "Ġmbpp": 21325,
    "allows": 15911,
    "llable": 6878,
    "Ġgle": 7859,
    "Ġbritannica": 24681,
    "dying": 15344,
    "customary": 25896,
    "Ġpigs": 19750,
    "mentioning": 24886,
    "back": 2016,
    "sorts": 21063,
    "Ġtravellers": 11310,
    "absence": 12713,
    "officers": 10630,
    "Ġtelesc": 12995,
    "yden": 21146,
    "Ġhail": 7400,
    "Ġdimension": 3245,
    "Ġdoubted": 7966,
    "imagine": 19934,
    "Ġmalady": 24392,
    "unders": 13315,
    "Ġdense": 8123,
    "lucky": 24545,
    "Ġbec": 1349,
    "infl": 15490,
    "Ġlucy": 17972,
    "Ġallegro": 25795,
    "Ġgallied": 19559,
    "Ġderick": 9367,
    "Ġxlvi": 25591,
    "erc": 5906,
    "vult": 21116,
    "Ġperry": 22401,
    "Ġpovels": 22596,
    "Ġshadowed": 24048,
    "carte": 25401,
    "noted": 22752,
    "ugnance": 12371,
    "Ġtiar": 21170,
    "Ġsunshine": 14496,
    "Ġoverfitting": 1541,
    "Ġexpressed": 4467,
    "Ġstability": 1363,
    "rates": 21041,
    "Ġmarty": 20293,
    "Ġsecluded": 11997,
    "Ġproud": 5654,
    "Ġattentively": 9953,
    "Ġnaturalist": 22886,
    "Ġchoose": 5983,
    "Ġprognost": 15285,
    "Ġflaming": 8567,
    "adv": 4538,
    "stra": 4042,
    "Ġapproximation": 2342,
    "resh": 8405,
    "Ġtinker": 15135,
    "dough": 15338,
    "Ġdescribes": 3122,
    "Ġdiscoverers": 26037,
    "igned": 5656,
    "Ġjuggler": 26368,
    "Ġemigrant": 25860,
    "Ġprosperous": 15174,
    "Ġintolerable": 8484,
    "sm": 3440,
    "dorff": 15241,
    "Ġfeast": 10280,
    "Ġethere": 23954,
    "Ġsnarled": 25715,
    "powers": 25411,
    "ildad": 3534,
    "Ġbunger": 9999,
    "Ġbrick": 8928,
    "Ġshag": 9254,
    "Ġrags": 18645,
    "Ġenh": 2879,
    "nur": 11508,
    "projecting": 26074,
    "Ġcondesc": 7182,
    "Ġties": 12533,
    "Ġwrists": 11114,
    "Ġho": 1931,
    "Ġacquaint": 13050,
    "maker": 12497,
    "Ġshocking": 10437,
    "rugged": 6849,
    "probably": 10023,
    "Ġfi": 935,
    "Ġmatted": 22917,
    "Ġbrahma": 26321,
    "Ġlids": 12280,
    "ogene": 18679,
    "apside": 22965,
    "opportunity": 12279,
    "Ġvanished": 6874,
    "dry": 13707,
    "Ġdamning": 19141,
    "Ġoccup": 3740,
    "odd": 21818,
    "somers": 19371,
    "Ġcontrolled": 23253,
    "Ġhelmet": 19690,
    "Ġpersuade": 5874,
    "Ġadviser": 25313,
    "Ġclerval": 4654,
    "Ġlooking": 2474,
    "Ġneighbor": 25806,
    "ev": 6952,
    "Ġtracing": 18890,
    "Ġsmoothe": 23660,
    "Ġresurrection": 12899,
    "Ġcramped": 23534,
    "Ġtotally": 9474,
    "Ġlightning": 5750,
    "Ġimportance": 4900,
    "Ġglimmered": 20174,
    "Ġincurable": 22557,
    "ured": 1651,
    "Ġfraud": 19027,
    "say": 3981,
    "12": 20751,
    "Ġhapless": 15816,
    "Ġmud": 11576,
    "Ġturbul": 23614,
    "doubted": 17528,
    "Ġsnail": 19301,
    "Ġune": 4599,
    "xology": 21144,
    "Ġomitted": 12569,
    "Ġurging": 24505,
    "Ġcurrents": 13015,
    "Ġcirculating": 23374,
    "Ġcasks": 7521,
    "Ġreciproc": 20625,
    "Ġpride": 3822,
    "activity": 22634,
    "Ġconquest": 15752,
    "ote": 4597,
    "ĠĠĠĠĠĠĠĠĠĠĠĠĠĠĠĠĠĠĠĠĠĠĠĠĠĠĠĠĠĠĠĠĠĠĠĠĠĠĠĠĠĠĠ": 12159,
    "comb": 11039,
    "Ġtale": 5142,
    "Ġsparks": 22136,
    "thoroughly": 26510,
    "Ġjustify": 11074,
    "Ġsuspected": 9065,
    "lestrade": 9659,
    "ă": 196,
    "Ġmole": 11795,
    "ated": 734,
    "consequ": 18507,
    "beholding": 16044,
    "ele": 9117,
    "uries": 6149,
    "exam": 10978,
    "Ġcreatures": 4134,
    "Ġassum": 4061,
    "calm": 8937,
    "Ġthroughout": 8880,
    "Ġposture": 24165,
    "Ġdisown": 22528,
    "glorious": 19370,
    "Ġunerringly": 18266,
    "Ġtakes": 5007,
    "Ġexped": 7651,
    "Ġresults": 7308,
    "Ġscrolled": 22293,
    "ationally": 15709,
    "island": 10796,
    "Ġconsecut": 18114,
    "animate": 12582,
    "<": 32,
    "Ġarmy": 11745,
    "Ġguitar": 16274,
    "Ġforeign": 9875,
    "igations": 18045,
    "your": 1983,
    "consider": 6350,
    "Ġquest": 1999,
    "nuts": 15401,
    "Ġsordid": 26424,
    "Ġcurved": 18845,
    "Ġniagara": 26460,
    "Ġsolutions": 1945,
    "Ġoriginally": 7304,
    "disputed": 23504,
    "Ġbraz": 19361,
    "Ġconfederate": 17356,
    "vessels": 10628,
    "idered": 4554,
    "Ġmol": 12566,
    "Ġenraptured": 26502,
    "Ġsnow": 3707,
    "variety": 23189,
    "Ġ15": 9327,
    "atmosphere": 21267,
    "aguy": 21914,
    "oro": 21398,
    "Ġpecks": 18670,
    "Ġislanders": 19505,
    "influences": 25251,
    "winding": 16722,
    "spout": 7923,
    "steak": 14711,
    "Ġsurrounds": 24234,
    "Ġskirt": 18729,
    "Ġabandonment": 25604,
    "Ġblasp": 14405,
    "loops": 12888,
    "Ġferry": 24498,
    "iag": 20918,
    "Ġhidden": 1378,
    "oses": 3944,
    "Ġinfat": 14500,
    "Ġnewfoundland": 26571,
    "anch": 15564,
    "Ġvan": 1088,
    "Ġtransformed": 22615,
    "Ġascend": 9963,
    "Ġcasement": 25095,
    "supportable": 12374,
    "Ġchis": 11754,
    "aren": 10077,
    "Ġcontributed": 16013,
    "without": 4847,
    "Ġwoods": 5406,
    "ernsey": 8905,
    "Ġdisappointed": 7099,
    "icts": 22406,
    "question": 5418,
    "Ġrequires": 1039,
    "Ġshudder": 9053,
    "make": 5793,
    "Ġbone": 4695,
    "Ġgreatness": 12948,
    "Ġhackluyt": 25656,
    "geor": 15982,
    "Ġintegrated": 13534,
    "Ġungracious": 18259,
    "Ġdreadfully": 7726,
    "Ġaccumulating": 2723,
    "cess": 536,
    "Ġbreed": 19075,
    "Ġfulf": 6773,
    "ffic": 22155,
    "Ġprudence": 13923,
    "meditated": 19074,
    "rogress": 21539,
    "Ġbump": 9662,
    "Ġanimate": 23425,
    "blog": 19842,
    "Ġcountenance": 3967,
    "Ġcheerful": 6624,
    "mael": 6725,
    "Ġpeddler": 26181,
    "works": 6589,
    "offing": 23333,
    "Ġfeel": 1261,
    "±": 114,
    "around": 12613,
    "Ġgravity": 9251,
    "exe": 11793,
    "intercourse": 14640,
    "Ġjingling": 26018,
    "Ġsignals": 10588,
    "maid": 8556,
    "bidden": 19740,
    "gul": 12470,
    "Ġfavoured": 16363,
    "house": 4073,
    "expl": 9286,
    "Ġbraved": 23841,
    "vy": 21110,
    "onial": 11569,
    "inspect": 11561,
    "spades": 14335,
    "Ġrelations": 5854,
    "Ġnights": 7258,
    "Ġmorrow": 9346,
    "bellies": 19977,
    "crimin": 17511,
    "Ġadvances": 12997,
    "Ġscaramouch": 23831,
    "Ġwinter": 5220,
    "smooth": 20251,
    "dogs": 25403,
    "Ġch": 513,
    "Ġprophet": 7681,
    "Ġaggreg": 12889,
    "Ġscare": 18398,
    "Ġpanic": 11288,
    "Ġsupernatural": 9876,
    "Ġexamination": 8005,
    "dispute": 23503,
    "lengths": 24847,
    "Ġcommons": 22675,
    "Ġmabel": 17327,
    "Ġhaunt": 18198,
    "Ġattic": 16102,
    "breathing": 25336,
    "Ġboneless": 19608,
    "Ġengaged": 3432,
    "Ġchapters": 10475,
    "Ġdistinction": 8889,
    "Ġsufferable": 16263,
    "Ġundeserving": 18269,
    "Ġboot": 11843,
    "code": 15332,
    "Ġxx": 5492,
    "horrible": 14602,
    "compar": 14362,
    "weave": 22688,
    "Ġsled": 21221,
    "hunting": 24385,
    "Ė": 215,
    "Ġdispirited": 23885,
    "Ġappe": 1539,
    "hent": 12539,
    "Ġspat": 2665,
    "Ġsubtlety": 24779,
    "Ġfilling": 13412,
    "Ġentreating": 24210,
    "threat": 10902,
    "rets": 12546,
    "Ġthomas": 17950,
    "Ġke": 1156,
    "Ġlestrade": 5826,
    "anke": 15565,
    "miles": 10714,
    "Ġrouse": 15825,
    "Ġbomb": 17869,
    "Ġsigh": 10339,
    "discern": 14854,
    "Ġtrem": 6662,
    "Ġtottenham": 24142,
    "ries": 3356,
    "ideas": 18584,
    "Ġwhole": 1661,
    "Ġfully": 6344,
    "Ġtrusting": 24105,
    "Ġreckless": 13462,
    "alloyed": 22205,
    "Ġrush": 5926,
    "Ġpursuers": 13231,
    "affrail": 11207,
    "assumed": 22312,
    "Ġpurse": 12015,
    "Ġdisc": 942,
    "Ġlook": 881,
    "Ġsettling": 11064,
    "Ġcents": 17830,
    "Ġresponsiveness": 2895,
    "surface": 10533,
    "Ġhorseback": 14853,
    "derest": 18315,
    "Û": 156,
    "Ġsinking": 7307,
    "Ġxli": 14543,
    "cul": 1901,
    "coo": 11172,
    "ribe": 1225,
    "fug": 17545,
    "Ġsymptom": 13487,
    "aware": 16298,
    "Ġgenerate": 1437,
    "inj": 9154,
    "fted": 9121,
    "Ġcosmetic": 23473,
    "capt": 3835,
    "Ġenjoyed": 8008,
    "ĠĠĠĠĠĠĠĠĠĠĠĠĠĠĠĠĠĠĠĠĠĠĠĠĠĠĠĠĠĠĠĠĠĠĠĠĠĠĠĠĠĠĠĠĠĠĠ": 16757,
    "Ġaffl": 14389,
    "Ġcurvature": 3575,
    "races": 21633,
    "Ġnoting": 18222,
    "Ġwitness": 4622,
    "Ġreverber": 19871,
    "Ġvigil": 9510,
    "Ġaffairs": 6877,
    "Ġshepherd": 14155,
    "Ġsuperflu": 14555,
    "science": 11913,
    "&": 10,
    "Ġemail": 19076,
    "Ġling": 7377,
    "na": 13763,
    "adventure": 17236,
    "Ġpince": 21474,
    "Ġdownright": 16122,
    "Ġsickness": 10541,
    "browed": 25895,
    "sleet": 20152,
    "Ġberries": 13411,
    "ª": 108,
    "approach": 24834,
    "itting": 1153,
    "bitt": 17488,
    "ay": 354,
    "imely": 14001,
    "Ġpaling": 21465,
    "oters": 21803,
    "stiff": 12680,
    "Ġhousings": 21496,
    "ivery": 17574,
    "Ġknave": 11274,
    "ight": 403,
    "Ġtestimony": 14481,
    "Ġadmirer": 16840,
    "Ġsorts": 6887,
    "cloudless": 20335,
    "prolong": 23396,
    "ari": 671,
    "Ġrounds": 18886,
    "Ġwaves": 3895,
    "Ġherring": 14129,
    "welcomed": 24645,
    "Ġincor": 2611,
    "ax": 692,
    "Ġduplicity": 25332,
    "Ġdespite": 19356,
    "Ġturns": 4981,
    "Ġmodeling": 2097,
    "nel": 11507,
    "frightened": 17198,
    "....": 11318,
    "ana": 15563,
    "augmented": 26289,
    "Ġnarrated": 14874,
    "Ġimplement": 3083,
    "Ġtarn": 21161,
    "Ġfighting": 12202,
    "tossing": 18583,
    "idol": 21770,
    "Ġmost": 1016,
    "liberal": 26283,
    "Ġpangs": 15619,
    "ultural": 22573,
    "Ġ100": 14365,
    "ocris": 23711,
    "Ġindignantly": 16941,
    "Ġstarbuck": 2193,
    "Ġjacob": 1900,
    "Ġreciprocating": 26371,
    "Ġcongratulations": 10583,
    "Ġposs": 1614,
    "n": 82,
    "ü": 189,
    "Ġemails": 13111,
    "Ġanaly": 1119,
    "ublic": 11229,
    "Ġjustine": 4970,
    "actions": 8910,
    "Ġenhance": 2946,
    "Ġstoner": 7179,
    "Ġalders": 21788,
    "orative": 21401,
    "Ġintensified": 17020,
    "Ġenigmatical": 20600,
    "angels": 22109,
    "windlass": 16723,
    "T": 56,
    "Ġintrusion": 12770,
    "Ġstrangers": 8314,
    "Ġsail": 1672,
    "Ġoakum": 16936,
    "engine": 18929,
    "Ġpew": 9318,
    "Ġident": 2242,
    "introdu": 8940,
    "Ġaccidental": 16850,
    "aan": 20766,
    "Ġfret": 10808,
    "provided": 13641,
    "planted": 11702,
    "Ġmyth": 18221,
    "Ġheadlong": 11892,
    "Ġchildren": 3767,
    "iating": 3212,
    "turner": 19544,
    "Ġcrew": 2495,
    "Ġgaiety": 16751,
    "Ġzoology": 22822,
    "asily": 13949,
    "Ġhears": 8139,
    "Ġobjects": 5578,
    "Ġhereabouts": 12983,
    "Ġparaph": 22124,
    "vast": 10738,
    "Ġadaptation": 3159,
    "imp": 3032,
    "Ġbroiled": 18910,
    "Ġme": 350,
    "Ġadversarial": 5607,
    "Ġperiod": 4000,
    "Ġameric": 3852,
    "descried": 11933,
    "Ġdemocracy": 25459,
    "Ġamendment": 26025,
    "convers": 6569,
    "Ġprinciple": 6771,
    "Ġrede": 13987,
    "Ġbubb": 12589,
    "Ġcommission": 6714,
    "Ġfriends": 2655,
    "Ġornamented": 20365,
    "Ġmuscle": 14691,
    "W": 59,
    "Ġoriginal": 6104,
    "Ġretention": 23075,
    "means": 9788,
    "Ġfavourably": 16364,
    "Ġbesides": 3516,
    "Ġdrama": 16330,
    "provoke": 26072,
    "Ġwishing": 7830,
    "followed": 8339,
    "io": 3801,
    "iers": 5992,
    "forecastle": 10992,
    "Ġpia": 21467,
    "Ġfifty": 4624,
    "despond": 19803,
    "Ġexplanatory": 22207,
    "Ġdevious": 22720,
    "Ġrational": 8482,
    "eminence": 20102,
    "arming": 8954,
    "Ġspilling": 22141,
    "Ġdiscipl": 22783,
    "Ġassent": 12738,
    "inclination": 20061,
    "Ġtints": 17729,
    "Ġcordial": 16837,
    "startled": 24944,
    "Ġorb": 22095,
    "Ġgifts": 21615,
    "Ġsworn": 14438,
    "Ġjournal": 15222,
    "Ġtheore": 1830,
    "Ġsleek": 23385,
    "calmly": 20142,
    "andam": 10890,
    "erately": 21276,
    "shooting": 16967,
    "nourished": 26400,
    "Ġsquint": 22841,
    "determination": 19948,
    "Ġthought": 1094,
    "deceit": 25557,
    "asets": 2311,
    "declined": 25175,
    "melted": 25207,
    "Ġallows": 3238,
    "Ġresting": 7962,
    "eyeing": 14949,
    "Ġnarratives": 24353,
    "Ġreminiscences": 26271,
    "passion": 11262,
    "Ġunwell": 22021,
    "Ġeverybody": 4511,
    "operation": 13504,
    "Ġdeact": 18138,
    "Ġouter": 6859,
    "inconsiderable": 21194,
    "Ġwith": 349,
    "Ġtint": 13820,
    "les": 1013,
    "breakfast": 8691,
    "Ġkid": 9728,
    "Ġview": 2761,
    "Ġabsorbing": 17131,
    "Ġsmell": 7216,
    "Ġdevoutly": 25834,
    "Ġjury": 5378,
    "chose": 18043,
    "Ġ-": 1943,
    "representativeness": 25273,
    "standard": 22440,
    "Ġincomplete": 17211,
    "Ġserene": 8167,
    "Ġdummy": 25450,
    "Ġpebbles": 16133,
    "Ġconfess": 3766,
    "confidential": 25877,
    "Ġparliament": 18303,
    "Ġentrapped": 26264,
    "oment": 921,
    "Ġpours": 17914,
    "etah": 12666,
    "isted": 3301,
    "proved": 11991,
    "Ġpossibilities": 18978,
    "imming": 9690,
    "Ġ71": 24262,
    "Ġkneeling": 12147,
    "Ġinspired": 2519,
    "ark": 850,
    "Ġunw": 7005,
    "Ġvesture": 20065,
    "aurus": 20563,
    "ifts": 12740,
    "Ġprop": 1680,
    "-": 17,
    "Ġjets": 10290,
    "guilt": 24072,
    "Ġdreams": 7496,
    "Ġunflinching": 26514,
    "stones": 11639,
    "ingle": 1035,
    "Ġshrieks": 12204,
    "Ġwrecked": 9969,
    "neither": 9760,
    "learnt": 23515,
    "unched": 10238,
    "bies": 15316,
    "glimmer": 26323,
    "Ġblacksmith": 6597,
    ":--": 5784,
    "istle": 15874,
    "_.": 2212,
    "_),": 7127,
    "Ġmisery": 3813,
    "imony": 12695,
    "Ġbethinking": 25280,
    "Ġinhabit": 5782,
    "Ġbeaks": 21759,
    "Ġportion": 7492,
    "Ġunprovided": 18261,
    "Ġgeor": 3389,
    "Ġrecre": 22736,
    "Ġaffair": 4463,
    "meryton": 10114,
    "Ġawa": 7714,
    "Ġexhale": 24402,
    "civilities": 24974,
    "Ġmakest": 25436,
    "Ġepicurean": 20558,
    "Ġsuffer": 4722,
    "Ġcapsized": 20093,
    "shock": 19857,
    "Ġscent": 10288,
    "problem": 25244,
    "Ġstreaked": 19115,
    "Ġobtain": 8918,
    "education": 20304,
    "Ġdefe": 21839,
    "scr": 16245,
    "Ġtrough": 15979,
    "Ġincludes": 2010,
    "Ġartistic": 18613,
    "cific": 10088,
    "Ġbeckoned": 25794,
    "burning": 25081,
    "rever": 21238,
    "Ġreasonable": 7252,
    "acquired": 24298,
    "Ġwaiter": 16430,
    "Ġbeheading": 21758,
    "Ġtra": 1386,
    "Ġcompliance": 12119,
    "Ġfusion": 21417,
    "Ġtiger": 11557,
    "Ġallusion": 7626,
    "eding": 7166,
    "Ġsupports": 3049,
    "Ġpenalties": 10416,
    "Ġappend": 18361,
    "Ġthreaten": 24374,
    "Ġplanets": 24059,
    "inforcement": 3124,
    "Ġparting": 9786,
    "Ġbelonging": 8308,
    "Ġreg": 729,
    "ding": 3025,
    "Ġeigen": 4881,
    "Ġgeneration": 2240,
    "invisible": 17742,
    "Ġgreeted": 23212,
    "ener": 561,
    "Ġoccupation": 9934,
    "iloqu": 11651,
    "Ġ121": 24466,
    "Ġflannel": 26579,
    "Ġenvelopes": 24510,
    "Ġinterruption": 9476,
    "Ġcontextual": 3743,
    "Ġredeem": 20503,
    "Ġglimpse": 6944,
    "Ġbusiness": 2233,
    "Ġstart": 3262,
    "Ġm": 274,
    "inkles": 7426,
    "urbed": 15713,
    "Ġtass": 15473,
    "Ġattach": 14297,
    "Ġgin": 13964,
    "succeed": 10331,
    "impropriety": 21716,
    "points": 14397,
    "Ġgould": 17992,
    "Ġ275": 20114,
    "Ġmechan": 1147,
    "Ġbuilded": 24718,
    "Ġimagination": 5759,
    "Ġoffences": 18690,
    "Ġthrice": 10578,
    "Ġcame": 1301,
    "uc": 1877,
    "Ġintently": 8169,
    "Ġpave": 8804,
    "umn": 5836,
    "Ġmuskets": 17057,
    "Ġaccounting": 14575,
    "Ġignorantly": 19498,
    "mates": 5073,
    "learned": 8595,
    "hammered": 19006,
    "Ġcolours": 12979,
    "Ġassuming": 16694,
    "Ġvigorously": 11301,
    "Ġwar": 5526,
    "Ġresource": 10995,
    "Ġforwarded": 19045,
    "Ġwat": 1288,
    "Ġeurope": 8062,
    "Ġmadness": 6603,
    "Ġrendered": 5773,
    "Ġtasks": 1789,
    "dismay": 19156,
    "Ġsetbacks": 11065,
    "Ġstraps": 19311,
    "è": 169,
    "thr": 12765,
    "Ġjustice": 5111,
    "Ġinterconnected": 1338,
    "iscient": 17853,
    "battle": 12446,
    "Ġgladly": 14683,
    "Ġhansom": 13668,
    "Ġvillains": 14752,
    "Ġwrapt": 24596,
    "stave": 21652,
    "Ġcrazy": 8597,
    "Ġwater": 1946,
    "Ġgifted": 17999,
    "Ġshelter": 17010,
    "Ġremarking": 13128,
    "control": 16545,
    "Ġmealy": 18120,
    "solving": 3099,
    "thereby": 14450,
    "Ġpatroness": 13513,
    "Ġnonce": 23237,
    "Ġdisobey": 18560,
    "Ġpregnant": 26537,
    "Ġimproves": 22741,
    "Ġ182": 13242,
    "Ġcross": 1376,
    "Ġcontain": 1552,
    "atoes": 17777,
    "banish": 20784,
    "Ġpresided": 20210,
    "Ġchil": 11755,
    "abilities": 3241,
    "Ġshrugged": 12774,
    "begging": 22500,
    "Ġjogged": 26238,
    "Ġmanif": 8874,
    "Ġbiography": 22765,
    "bennet": 5353,
    "Ġvegetables": 15225,
    "note": 14340,
    "ised": 1075,
    "Ġperu": 14225,
    "ensation": 22550,
    "Ġgrimes": 11036,
    "footed": 19692,
    "Ġrevolt": 24504,
    "inary": 3278,
    "Ġsuperlatively": 26076,
    "hood": 2660,
    "Ġprosecution": 12385,
    "Ġadvice": 4902,
    "Ġexpired": 18622,
    "Ġinestimable": 17445,
    "Ġchalk": 15937,
    "degree": 12806,
    "Ġ72": 19614,
    "Ġchron": 19441,
    "Ġscaffold": 18402,
    "Ġmatrices": 4969,
    "betrayed": 24641,
    "romised": 14115,
    "Ġfundamental": 3012,
    "Ġunmethodically": 22074,
    "kinder": 24846,
    "Ġhitherto": 5881,
    "Ġreturned": 2888,
    "Ġdivine": 6921,
    "Ġdeclares": 16994,
    "Ġsoup": 7069,
    "conclusions": 25673,
    "Ġclassification": 1111,
    "Ġdau": 21428,
    "iceland": 21569,
    "Ġpacked": 9983,
    "damn": 20027,
    "ifying": 5235,
    "Ġvaliant": 9802,
    "downstairs": 23923,
    "luded": 4227,
    "Ġspitz": 14151,
    "se": 358,
    "Ġunsolved": 22037,
    "Ġrelative": 11887,
    "Ġtrout": 22368,
    "ced": 695,
    "Ġfolding": 19730,
    "transom": 19738,
    "oon": 6366,
    "Ġdivergence": 2728,
    "mology": 12496,
    "Ġliar": 22412,
    "Ġrealise": 16339,
    "Ġswash": 23058,
    "Ġfault": 5702,
    "surf": 24215,
    "Ġinglorious": 24424,
    "daring": 20831,
    "Ġsolution": 9808,
    "fury": 17549,
    "acies": 14280,
    "pacific": 17643,
    "Ġaccosted": 13676,
    ")âĢĶ": 20744,
    "cap": 8373,
    "Ġguar": 23049,
    "Ġreclining": 26034,
    "Ġhabitation": 14805,
    "national": 21000,
    "run": 10723,
    "âĢĶâĢĻâĢĿ": 20067,
    "Ġgems": 9211,
    "Ġenables": 725,
    "Ġregarding": 13212,
    "tuesday": 17692,
    "Ġwhirled": 14963,
    "Ġdin": 3625,
    "century": 20050,
    "antarctic": 22103,
    "Ġgraces": 18226,
    "Ġcontinuous": 1561,
    "Ġberry": 19749,
    "Ġtwos": 18658,
    "Ġscho": 4436,
    "Ġboards": 14303,
    "promontory": 24727,
    "Ġpaces": 13922,
    "Ġminiatures": 20324,
    "Ġmeantime": 6208,
    "Ġalbatross": 10873,
    "ome": 535,
    "Ġlaurel": 20656,
    "Ġwhereupon": 14299,
    "Ġperches": 18450,
    "command": 6578,
    "Ġpatched": 16383,
    "Ġkne": 4266,
    "Ġunhappily": 18263,
    "Ġantiqu": 12149,
    "Ġtranslation": 3086,
    "revealed": 20419,
    "Ġstock": 7455,
    "requirements": 24858,
    "atever": 3077,
    "Ġweeds": 21927,
    "elag": 12663,
    "Ġrepelled": 19087,
    "ending": 1988,
    "================": 3724,
    "Ġmemoirs": 26206,
    "arn": 357,
    "Ġsweep": 8266,
    "Ġimmured": 24073,
    "gloomy": 25147,
    "yet": 3753,
    "transition": 24513,
    "Ġknock": 9976,
    "Ġunre": 3481,
    "Ġdependent": 14295,
    "Ġmethods": 3163,
    "Ġlexicon": 25975,
    "Ġexposes": 22625,
    "Ġcharged": 9857,
    "Ġprevents": 2559,
    "Ġrecently": 11865,
    "author": 9863,
    "Ġpikes": 21481,
    "Ġcorrespondent": 19825,
    "Ġabraham": 18396,
    "Ġclasses": 4051,
    "Ġsombre": 18862,
    "Ġhearty": 9848,
    "Ġlowerings": 23648,
    "Ġvalid": 1659,
    "covering": 15337,
    "upwards": 18866,
    "athans": 7433,
    "attest": 23122,
    "Ġpractises": 23337,
    "track": 24335,
    "Ġlegible": 23537,
    "Ġgracious": 8851,
    "ires": 6039,
    "Ġsurvey": 13597,
    "Ġinconsistency": 26184,
    "refuge": 24733,
    "Ġtransformer": 2636,
    "Ġassuring": 13069,
    "ssian": 3403,
    "Ġindestruct": 22963,
    "Ġconvolutions": 21811,
    "Ġsaintsbury": 26374,
    "Ġunworthy": 11719,
    "Ġcour": 1768,
    "!âĢĻâĢĿ": 16594,
    "Ġpersuasion": 10501,
    "honest": 17005,
    "hab": 1074,
    "daugh": 6789,
    "unbidden": 21898,
    "Ġwhirlwinds": 20468,
    "Ġsqueeze": 10042,
    "Ġramadans": 25122,
    "Ġhurling": 19112,
    "giv": 13725,
    "Ġvariations": 22669,
    "Ġmicrosc": 20679,
    "Ġcirclings": 26433,
    "Ġscores": 2714,
    "sicilian": 21066,
    "ression": 3409,
    "Ġperished": 11788,
    "modern": 1181,
    "scap": 22993,
    "reduc": 5459,
    "Ġpale": 4533,
    "Ġplaster": 16087,
    "Ġdeclaration": 16639,
    "Ġfinish": 7949,
    "Ġyelled": 9697,
    "Ġbended": 21388,
    "regret": 16451,
    "Ġshrunk": 16720,
    "account": 5330,
    "ray": 2436,
    "Ġmaterials": 11290,
    "Ġaffirmative": 15226,
    "Ġhemisphere": 26480,
    "ap": 547,
    "aling": 1032,
    "Ġanno": 9670,
    "conve": 14246,
    "overcoat": 19053,
    "Ġnecess": 3479,
    "christian": 17235,
    "exped": 16527,
    "Ġsmart": 11819,
    "Ġfemin": 13440,
    "Ġfatigued": 13469,
    "Ġimmensely": 13599,
    "Ġcrusad": 23709,
    "produced": 25415,
    "anelles": 26436,
    "Ġpol": 2579,
    "ella": 12752,
    "Ġmantel": 11441,
    "Ġoutskirts": 17460,
    "convalescence": 24885,
    "suggest": 20379,
    "leap": 21370,
    "Ġwidth": 16774,
    "quarter": 11390,
    "asiness": 8129,
    "osc": 18388,
    "alty": 17941,
    "Ġdoll": 10815,
    "Ġstormy": 16730,
    "press": 1733,
    "Ġwhitt": 18057,
    "mou": 10710,
    "Ġsurprise": 3828,
    "Ġsizes": 1520,
    "Ġcongratulated": 19769,
    "Ġevanesc": 24296,
    "Ġexposed": 8525,
    "Ġabhor": 5467,
    "Ġslashing": 23171,
    "tier": 12519,
    "Ġaback": 22270,
    "Ġann": 4490,
    "ensed": 10998,
    "Ġfootman": 8288,
    "Ġindign": 6175,
    "Ġlordly": 23747,
    "Ġor": 437,
    "Ġchip": 12830,
    "rice": 13780,
    "Ġweek": 2825,
    "Ġdis": 693,
    "Ġwhy": 1760,
    "Ġautoregressive": 3434,
    "Ġpredecessor": 26255,
    "Ġdistributed": 18662,
    "Ġlet": 1112,
    "Ġdom": 2698,
    "th": 408,
    "uttural": 21592,
    "Ġprotesting": 14744,
    "eyed": 11489,
    "Ġscrewing": 20211,
    "Ġglim": 9347,
    "Ġhelplessly": 20081,
    "Ġtrip": 16790,
    "adventures": 20259,
    "Ġottoman": 17381,
    "Ġsurpassed": 25268,
    "Ġmarched": 18873,
    "Ġconfession": 11237,
    "onious": 15521,
    "Ġcolleague": 17162,
    "rious": 11692,
    "noticed": 14341,
    "Ġlayer": 1009,
    "Ġago": 3137,
    "Ġgive": 1715,
    "rig": 7556,
    "Ġfixedly": 19250,
    "charmed": 21699,
    "Ġcrockery": 24303,
    "moral": 14804,
    "sham": 9764,
    "Ġreminded": 10002,
    "solution": 14688,
    "alions": 21504,
    "Ġintersect": 22580,
    "Ġlurked": 11293,
    "dist": 4481,
    "Ġmexico": 15284,
    "tranquillity": 20549,
    "Ġspurred": 22142,
    "Ġinclemency": 22560,
    "Ġpropontis": 17468,
    "Ġcalculus": 23986,
    "15": 12434,
    "possess": 5985,
    "Ġstudded": 18969,
    "mody": 16193,
    "Ġconcl": 5095,
    "Ġcabin": 3306,
    "Ġsaturation": 2063,
    "ploy": 2084,
    "iform": 2200,
    "apprehension": 26115,
    "Ġcommanders": 23871,
    "âĢĿâĢĶ": 5721,
    "ckinridge": 11723,
    "Ġtruthful": 23870,
    "Ġstile": 21736,
    "Ġgoes": 3851,
    "oons": 12503,
    "ingly": 2135,
    "Ġdownward": 10334,
    "swiss": 24258,
    "Ġupdates": 1300,
    "Ġemploying": 23981,
    "====": 1481,
    "balls": 12309,
    "bern": 20777,
    "trip": 21094,
    "observation": 17272,
    "Ġclinging": 10295,
    "Ġfoiled": 23247,
    "Ġimpenet": 14223,
    "roar": 17955,
    "tiest": 21084,
    "infant": 19830,
    "Ġprettier": 23768,
    "ography": 13367,
    "mblies": 24609,
    "first": 3932,
    "Ġdecently": 22441,
    "Ġassertion": 13493,
    "Ġtruly": 4796,
    "Ġvigilance": 12375,
    "Ġkith": 22196,
    "Ġlancaster": 26342,
    "Ġeuropean": 20049,
    "Ġrespond": 11178,
    "undertaking": 23790,
    "cy": 646,
    "staff": 21659,
    "Ġdeaf": 12726,
    "Ġtake": 1576,
    "Ġarranging": 11176,
    "Ġentity": 10344,
    "Ġminority": 18754,
    "Ġtormented": 8678,
    "mouse": 15396,
    "abash": 18110,
    "Ġunfathomable": 20551,
    "anges": 1673,
    "matters": 14877,
    "Ġwitty": 21295,
    "Ġlandau": 16422,
    "suffer": 24329,
    "tattoo": 21090,
    "Ġmar": 1312,
    "Ġcream": 22723,
    "Ġdesires": 9460,
    "Ġgrimesby": 11459,
    "Ġcased": 21349,
    "Ġdigesting": 19812,
    "chant": 4258,
    "Ġprejud": 6851,
    "eldom": 4413,
    "Ġburly": 19252,
    "eld": 968,
    "Ġshipw": 12984,
    "Ġmazes": 25941,
    "Ġbasic": 24700,
    "Ġgorgeous": 20470,
    "Ġbeard": 11658,
    "constant": 11326,
    "Ġbeaufort": 13572,
    "secondly": 16986,
    "Ġsupplication": 25492,
    "unity": 4149,
    "Ġresembling": 4093,
    "Ġassaulted": 25321,
    "Ġclings": 15973,
    "recogn": 13429,
    "Ġhemp": 9218,
    "Ġinjuring": 24271,
    "hur": 6651,
    "Ġreverse": 16984,
    "Ġrout": 7402,
    "?_": 8070,
    "Ġfeet": 2260,
    "Ġencourages": 2062,
    "overlooked": 23324,
    "Ġprizes": 13078,
    "Ġgen": 5298,
    "free": 8739,
    "anxious": 15113,
    "Ġfragments": 19029,
    "grad": 2569,
    "cur": 3274,
    "Ġfrolic": 23928,
    "ience": 802,
    "Ġwitt": 17785,
    "fair": 10095,
    "Ġtart": 12532,
    "Ġhasten": 10480,
    "Ġvortex": 26210,
    "whence": 23214,
    "Ġmeth": 1472,
    "neath": 12870,
    "Ġorganize": 8994,
    "Ġcanes": 22165,
    "Ġspence": 22130,
    "Ġamphitheat": 26253,
    "Ġminut": 2203,
    "Ġglassy": 19563,
    "Ġelse": 2480,
    "Ġforesaw": 19128,
    "nervous": 16280,
    "forgotten": 12420,
    "Ġteneriffe": 26416,
    "Ġbu": 3681,
    "Ġdisplaying": 16968,
    "Ġsympathised": 14865,
    "whispering": 26104,
    "Ġinvestigation": 9045,
    "Ġarri": 2555,
    "Ġdisorder": 16054,
    "Ġcommodores": 25375,
    "enchanted": 26426,
    "vers": 1328,
    "87": 20759,
    "Ġtapering": 8775,
    "Ġsmaller": 1884,
    "Ġhailing": 11697,
    "Ġbillow": 14783,
    "Ġprevious": 2091,
    "Ġfair": 2835,
    "Ġreproachfully": 25252,
    "Ġargemone": 24277,
    "Ġcatching": 9481,
    "Ġvernal": 23891,
    "Ġhails": 21954,
    "Ġsucceeded": 6107,
    "Ġmoodily": 19837,
    "Ġemerging": 24613,
    "Ġlif": 10198,
    "ipped": 5790,
    "individual": 18437,
    "Ġmisgiv": 14345,
    "rified": 15422,
    "Ġnearest": 8473,
    "Ġimpl": 7195,
    "Ġconjoined": 21810,
    "oke": 1858,
    "serpent": 16295,
    "needle": 20313,
    "word": 2487,
    "Ġveracity": 23892,
    "Ġterribly": 10427,
    "Ġcage": 17827,
    "Ġmrs": 1466,
    "Ġattendance": 12186,
    "col": 3102,
    "Ġindividuality": 14912,
    "ositions": 10286,
    "Ġnumerous": 6920,
    "Ġlungs": 8362,
    "era": 13850,
    "Ġhungry": 10535,
    "Ġstrangeness": 16706,
    "Ġ101": 24409,
    "Ġperson": 2370,
    "oup": 2014,
    "Ġamong": 1667,
    "Ġbelieved": 4367,
    "Ġstars": 6151,
    "Ġships": 3715,
    "Ġaccomplished": 7106,
    "summoned": 26593,
    "Ġcomplexion": 8210,
    "Ġlamp": 4111,
    "Ġvessel": 3798,
    "Ġtransp": 4770,
    "vellers": 16676,
    "allowed": 5728,
    "ni": 1595,
    "Ġboiling": 8528,
    "igin": 3655,
    "Ġunch": 18240,
    "lace": 13751,
    "Ġexpon": 967,
    "rs": 7807,
    "Ġsurgeon": 8984,
    "fooled": 24419,
    "daughters": 13470,
    "Ġgiving": 4081,
    "Ġbathing": 20202,
    "Ġbest": 1972,
    "housekeeping": 24102,
    "Ġfad": 17878,
    "herfield": 3630,
    "Ġedges": 3825,
    "ben": 4927,
    "Ġdesper": 6178,
    "negro": 18490,
    "Ġfut": 15579,
    "oused": 6558,
    "Ġgam": 11627,
    "Ġunnear": 22032,
    "Ġclapham": 17268,
    "Ġdetained": 18371,
    "detained": 24382,
    "swells": 26149,
    "must": 3579,
    "Ġcut": 2642,
    "temper": 10007,
    "Ġbachelor": 7787,
    "Ġcause": 2411,
    "urry": 13997,
    "Ġratt": 7881,
    "Ġcorn": 9353,
    "ique": 8746,
    "isturbed": 18298,
    "Ġlavenza": 17973,
    "Ġambition": 11434,
    "generous": 16571,
    "fters": 20863,
    "Ġinterchange": 16075,
    "Ġgoblet": 25824,
    "Ġillustration": 19137,
    "Ġflip": 11917,
    "resolutions": 26165,
    "Ġimpious": 15990,
    "Ġdigging": 14941,
    "Ġgrandfather": 19425,
    "Ġfaculties": 14961,
    "restraint": 18981,
    "Ġstepmother": 16093,
    "severe": 21823,
    "Ġitalian": 12414,
    "touch": 8392,
    "braid": 17497,
    "Ġedd": 8398,
    "Ġcruisings": 25865,
    "Ġpunctual": 17140,
    "Ġskilfully": 20527,
    "Ġtelescopes": 25691,
    "Ġlived": 3987,
    "haut": 20904,
    "resc": 21241,
    "enth": 6682,
    "beds": 16624,
    "Ġflickering": 23018,
    "Ġresponded": 13642,
    "Ġdisastrous": 16063,
    "fact": 6360,
    "Ġsimplicity": 2921,
    "stretch": 13984,
    "Ġreigning": 15705,
    "Ġviolation": 23408,
    "Ġmanilla": 15963,
    "Ġolder": 9330,
    "arrant": 10476,
    "Ġcheerfully": 12139,
    "Ġopulence": 23629,
    "Ġparsee": 6414,
    "Ġdoing": 3660,
    "[": 63,
    "Ġcumberland": 21358,
    "Ġdarkness": 4277,
    "although": 8810,
    "Ġhabitations": 24788,
    "dutch": 17221,
    "lemagne": 26438,
    "Ġfluctuating": 24417,
    "iantly": 13742,
    "oration": 2208,
    "henomena": 20275,
    "Ġcarefully": 6306,
    "Ġregularization": 1176,
    "Ġunsafe": 22045,
    "assist": 11772,
    "merry": 16539,
    "ickory": 22672,
    "Ġbes": 2661,
    "Ġdeclining": 23967,
    "settled": 10509,
    "angular": 11727,
    "investments": 25533,
    "Ġinsatiate": 19272,
    "carpet": 25203,
    "facts": 19845,
    "Ġoverladen": 22356,
    "Ġlobes": 22119,
    "Ġceases": 19314,
    "Ġlighting": 13087,
    "urmount": 13999,
    "Ġhorrors": 10482,
    "Ġumbrella": 15269,
    "Ġvehicle": 20141,
    "bald": 16446,
    "ired": 1445,
    "material": 13133,
    "Ġclean": 5652,
    "Ġagencies": 18542,
    "Ġinstrument": 7120,
    "Ġhardy": 8569,
    "unnecessary": 21884,
    "ban": 9587,
    "Ã¦st": 24176,
    "stranded": 19228,
    "Ġdeck": 2138,
    "windows": 19537,
    "Ġdiscovery": 5412,
    "lig": 3177,
    "Ġzealand": 12354,
    "Ġimmovable": 15896,
    "ind": 568,
    "reluct": 26164,
    "Ġcurb": 16234,
    "ina": 21182,
    "Ġthief": 11613,
    "Ġrenew": 6147,
    "Ġglorious": 11077,
    "Ġbattalions": 25777,
    "ascal": 10195,
    "dress": 17522,
    "Ġlaid": 3939,
    "ernity": 18616,
    "Ġfurled": 22815,
    "Ġeconomy": 17203,
    "Ġrueful": 25582,
    "separated": 20162,
    "Ġflank": 8229,
    "Ġflexible": 23778,
    "Ġrag": 18641,
    "Ġ1000": 3117,
    "Ġasser": 6259,
    "Ġutilize": 4798,
    "Ï": 144,
    "lance": 12486,
    "Ġsermon": 12380,
    "Ġlimber": 16481,
    "Ġpang": 15609,
    "Ġchestnut": 19675,
    "narrowly": 20350,
    "und": 4115,
    "harpoons": 24287,
    "Ġproceed": 3247,
    "advance": 12161,
    "Ġcrevice": 22727,
    "earnest": 12403,
    "Ġpane": 21466,
    "landish": 11946,
    "Ġawed": 23587,
    "Ġrim": 21969,
    ",âĢĶâĢĺ": 23805,
    "Ġhairy": 23868,
    "braces": 24659,
    "Ġovertake": 15968,
    "ining": 3226,
    "generally": 9438,
    "wag": 21126,
    "Ġbliss": 13006,
    "Ġlawyers": 25249,
    "Ġfisheries": 17441,
    "built": 16827,
    "Ġbarrens": 25502,
    "Ġmilitia": 13322,
    "Ġcomply": 8895,
    "Ġcracking": 14576,
    "Ġdeposit": 17271,
    "Ġloading": 15878,
    "Ġemerge": 14931,
    "Ġformer": 3326,
    "Ġremoved": 5275,
    "Ġupper": 5090,
    "pun": 9620,
    "Ġendowed": 18925,
    "ern": 762,
    "Ġcarbuncle": 14448,
    "anchor": 13892,
    "sooner": 14780,
    "acid": 11007,
    "irious": 15790,
    "ß": 160,
    "Ġcoin": 9774,
    "Ġfountain": 7365,
    "Ġheavenly": 12089,
    "Ġprovid": 1006,
    "Ġcordon": 24394,
    "rown": 2191,
    "Ġstrictest": 17043,
    "Ġmisfortunes": 7043,
    "ator": 1922,
    "Ġalfred": 21790,
    "weigh": 18666,
    "Ġcomposing": 16071,
    "address": 14884,
    "drove": 16995,
    "property": 20003,
    ")âĢĶâĢľ": 20745,
    "spent": 12947,
    "ĠĠĠĠĠĠĠĠĠĠĠĠĠĠĠĠĠĠĠĠĠĠĠĠĠĠĠĠĠĠĠĠĠĠĠĠĠ": 14617,
    "osque": 22266,
    "Ġtip": 15474,
    "parted": 21018,
    "brows": 17499,
    "urities": 18052,
    "Ġharry": 24572,
    "Ġfails": 13318,
    "Ġovertook": 18424,
    "anean": 7443,
    "supplement": 14799,
    "Ġrepresentations": 1876,
    "seldom": 13790,
    "continue": 16863,
    "Ġsult": 10769,
    "Ġcable": 11583,
    "Ġpig": 5705,
    "entering": 17979,
    "shire": 3019,
    "Ġmatches": 14400,
    "Ġavalanche": 17436,
    "disposition": 10045,
    "brous": 19200,
    "Ġrefreshed": 15294,
    "Ġcurve": 22966,
    "Ġdirected": 5579,
    "Ġcomposedly": 25184,
    "Ġlucky": 7759,
    "Ġentreat": 4510,
    "Ġlovel": 10274,
    "Ġaccounted": 10297,
    "Ġlinn": 13956,
    "Ġexhibition": 14960,
    "Ġdejected": 20307,
    "Ġagainst": 1698,
    "Ġash": 4833,
    "Ġshorter": 4499,
    "cooks": 25070,
    "gle": 20871,
    "Ġirreproachable": 24918,
    "agation": 1240,
    "istrate": 7406,
    "Ġpresum": 4838,
    "ctions": 952,
    "Ġevol": 2814,
    "striving": 24670,
    "descend": 23089,
    "uding": 16152,
    "wonderful": 16962,
    "illuminated": 17456,
    "Ġpilgr": 12185,
    "rived": 5373,
    "Ġdisadvantages": 18559,
    "taffrail": 15445,
    "?": 35,
    "Ġlaughs": 24116,
    "silent": 9977,
    "Ġabomination": 22282,
    "Ġburnished": 24001,
    "Ġconcise": 23323,
    "Ġsperma": 19050,
    "Ġpaus": 4298,
    "Ġheroism": 24544,
    "Ġunconscious": 9550,
    "rec": 6005,
    "rese": 15511,
    "uteronomy": 15668,
    "Ġoutlandish": 12843,
    "Ġbrimstone": 25687,
    "berish": 22747,
    "unctuous": 21886,
    "riages": 10245,
    "okened": 15988,
    "!--": 10680,
    "Ġstraightened": 12113,
    "medium": 23640,
    "Ġyes": 2688,
    "Ġclassical": 22636,
    "Ġramad": 8530,
    "runs": 25416,
    "Ġabusing": 18394,
    "Ġforty": 5719,
    "appe": 2942,
    "pequod": 7054,
    "Ġestim": 3351,
    "Ġcircus": 19093,
    "Ġteaching": 10367,
    "pleasant": 5876,
    "ometer": 19327,
    "through": 4021,
    "Ġrabbit": 4288,
    "Ġenem": 4708,
    "agreeable": 5830,
    "urous": 10215,
    "Ġtom": 15637,
    "limping": 26395,
    "Ġswaths": 23061,
    "Ġbits": 11591,
    "Ġ1807": 26084,
    "Ġimpenit": 22393,
    "Ġpointing": 5661,
    "withstand": 23030,
    "Ġspain": 15884,
    "Ġgradual": 20604,
    "Ġsuff": 1304,
    "comed": 8548,
    "Ġpreference": 9736,
    "Ġpersonified": 19180,
    "¸": 121,
    "Ġsend": 4104,
    "changed": 7176,
    "Ġattraction": 18627,
    "flukes": 25206,
    "Ġculprit": 26173,
    "Ġadorned": 15251,
    "Ġeyes": 1335,
    "Ġfrigates": 25707,
    "Ġstatue": 23150,
    "Ġbordeaux": 24565,
    "floated": 24644,
    "Ġdread": 3166,
    "ason": 1263,
    "washed": 13051,
    "Ġopt": 794,
    "Ġanswer": 2600,
    "Ġhagger": 21494,
    "unmistakable": 21899,
    "Ġnin": 10190,
    "Ġunconcern": 14120,
    "Ġtimid": 6347,
    "mund": 13761,
    "Ġelud": 22646,
    "Ġexpatiate": 18624,
    "Ġheavier": 13106,
    "Ġwages": 13857,
    "Ġjeopardy": 13600,
    "Ġrelevant": 1862,
    "vener": 21114,
    "pest": 6965,
    "Ġdoesn": 7438,
    "Ġspiracle": 14152,
    "Ġuniversally": 12004,
    "Ġah": 5075,
    "tumultuous": 20402,
    "Ġexceptions": 13235,
    "Ġmanners": 3790,
    "Ġwoof": 14724,
    "Ġheight": 4219,
    "Ġpinioned": 21486,
    "consol": 9765,
    "Ġresented": 22547,
    "'(": 2977,
    "onder": 3779,
    "Ġwhistled": 24624,
    "Ġpoets": 11825,
    "Ġgazes": 24096,
    "Ġmax": 2005,
    "manner": 6172,
    "fab": 13719,
    "Ġaversion": 18868,
    "Ġraiment": 22654,
    "parlour": 16395,
    "andy": 8158,
    "Ġfainter": 14917,
    "carriage": 9949,
    "Ġwhalemen": 3912,
    "Ġpresentiment": 18990,
    "Ġyour": 634,
    "Ġaxe": 15064,
    "Ġheel": 9687,
    "Ġpushing": 10821,
    "prodig": 16429,
    "Ġvolley": 24145,
    "Ġpry": 11603,
    "Ġseparated": 9467,
    "Ġfeedforward": 2328,
    "isely": 4489,
    "Ġtestified": 16333,
    "Ġdilated": 24703,
    "Ġdedu": 5584,
    "Ġsubfield": 11873,
    "interested": 9509,
    "connection": 18870,
    "eps": 12796,
    "acter": 2506,
    "Ġchances": 9266,
    "Ġslavish": 23174,
    "Ġto": 297,
    "Ġcapsizing": 20092,
    "Ġbroker": 23105,
    "Ġmovements": 24359,
    "grammar": 6436,
    "fortunes": 6334,
    "Ġendeavoured": 4919,
    "Ġsleepy": 8268,
    "Ġanimal": 2497,
    "estate": 12826,
    "eastern": 17535,
    "Ġchooses": 13351,
    "Ġgestures": 13539,
    "spin": 22730,
    "Ġ7": 4745,
    "Ġplays": 12041,
    "ĠĠĠĠĠĠĠĠĠĠĠĠĠĠĠĠĠĠĠĠĠĠĠĠĠĠĠĠĠĠĠĠĠĠĠĠĠĠĠĠĠĠĠĠ": 12158,
    "Ġ1991": 3014,
    "Ġinclud": 1511,
    "Ġplaint": 10328,
    "Ġfable": 15581,
    "Ġannihilated": 20255,
    "ignominious": 26589,
    "Ġfinancial": 23131,
    "21": 10075,
    "Ġplaymate": 23639,
    "Ġcoupled": 16853,
    "Ġoverhear": 15971,
    "Ġtrag": 13044,
    "Ġresembles": 25970,
    "Ġinsipid": 26314,
    "Ġconfl": 11139,
    "Ġamaze": 22487,
    "Ġcondemned": 7779,
    "well": 1690,
    "Ġensigns": 23692,
    "worth": 8630,
    "Ġdancing": 5703,
    "Ġbaked": 21389,
    "summer": 11998,
    "Ġrejoicing": 13425,
    "ha": 3978,
    "balance": 12011,
    "Ġbloodless": 19341,
    "Ġslid": 7952,
    "Ġdecoding": 3080,
    "rol": 5713,
    "master": 5687,
    "ivities": 22081,
    "Ġpittance": 15621,
    "Ġpole": 6434,
    "rab": 7597,
    "Ġcharger": 19007,
    "Ġinvolving": 18772,
    "Ġstraw": 9432,
    "Ġswart": 14437,
    "Ġdressed": 5081,
    "im": 327,
    "neying": 22448,
    "ofs": 11834,
    "Ġunst": 18239,
    "ogrand": 26263,
    "Ġcocoan": 20319,
    "pleasantness": 19773,
    "acit": 16084,
    "port": 10721,
    "Ġfeedback": 23435,
    "Ġsneezing": 12252,
    "accepted": 20139,
    "stead": 10848,
    "Ġmale": 9651,
    "Ġaccuracy": 1105,
    "Ġimputable": 22177,
    "Ġpacifics": 24373,
    "Ġcanvas": 7784,
    "Ġtrooped": 24900,
    "Ġquiescent": 26244,
    "charlotte": 6474,
    "Ġ106": 24414,
    "ssed": 3735,
    "instant": 8655,
    "Ġsqualls": 17022,
    "spite": 16142,
    "Ġquarrels": 16569,
    "indignation": 18439,
    "Ġbad": 3984,
    "rough": 589,
    "Ġendeavor": 16548,
    "Ġbarmaid": 19337,
    "Ġengagements": 9981,
    "Ġdeny": 7488,
    "Ġgradually": 3404,
    "belated": 24040,
    "Ġrecent": 7436,
    "Ġabatement": 22280,
    "Ġtransparent": 9492,
    "relations": 14736,
    "Ġinmost": 17933,
    "Ġsepul": 14092,
    "Ġapprehension": 7115,
    "Ġsevent": 18201,
    "wishes": 13810,
    "Ġcorpus": 13037,
    "ain": 343,
    "Ġer": 8105,
    "Ġreceptive": 1562,
    "Ġavoid": 5199,
    "Ġstructured": 2971,
    "Ġcommunion": 19010,
    "Ġsickle": 24248,
    "Ġhardihood": 23115,
    "Ġenvelope": 7319,
    "Ġsocial": 7009,
    "Ġmachinery": 20488,
    "Ġmightier": 18731,
    "should": 3265,
    "Ġleviathans": 8282,
    "soup": 21061,
    "coward": 13704,
    "unk": 4540,
    "orns": 12597,
    "Ġengage": 9338,
    "hever": 13834,
    "blame": 14796,
    "Ġcourse": 2131,
    "Ġtwisted": 7228,
    "acknowledging": 25477,
    "rivial": 9437,
    "Ġunspeakably": 25173,
    "additional": 20467,
    "itters": 10783,
    "public": 17648,
    "Ġanticip": 7507,
    "Ġserve": 9372,
    "thrusting": 20262,
    "Ġfixed": 2685,
    "stige": 21664,
    "Ġcunning": 6240,
    "Ġunlimited": 26224,
    "Ġearly": 2079,
    "Ġconscientious": 16729,
    "Ġkeeps": 8267,
    "ĠĠĠĠĠĠĠĠĠĠ": 18580,
    "somewhat": 11162,
    "une": 2785,
    "dw": 3336,
    "Ġgranite": 22811,
    "Ġmeditating": 20046,
    "Ġrandom": 1586,
    "Ġdevilish": 11230,
    "thomas": 18220,
    "Ġspectators": 19410,
    "Ġrepresenting": 4057,
    "Ġul": 6828,
    "Ġlottery": 19890,
    "Ġoppressed": 11191,
    "inu": 1116,
    "appearing": 14639,
    "Ġdrooping": 9423,
    "careful": 14869,
    "Ġblo": 2734,
    "Ġers": 15463,
    "ensils": 22553,
    "Ġparameter": 890,
    "Ġfreshet": 25704,
    "iction": 4268,
    "13": 20752,
    "Ġpam": 21457,
    "ade": 883,
    "Ġsinusoid": 4781,
    "Ġprofession": 6209,
    "Ġexord": 21831,
    "mean": 6439,
    "Ġmaritime": 23041,
    "fluttering": 23976,
    "favouring": 24761,
    "ouri": 21450,
    "was": 1421,
    "Ġshortness": 23483,
    "Ġintrude": 25991,
    "Ġforked": 11667,
    "Ġphysiognomy": 25611,
    "Ġaffrighted": 13576,
    "wife": 8101,
    "gossip": 23405,
    "Ġshoving": 23493,
    "Ġdeduced": 12212,
    "osures": 22265,
    "Ġassid": 18947,
    "Ġattempts": 10493,
    "circle": 16738,
    "Ġflee": 7081,
    "Ġencounters": 19583,
    "leading": 15566,
    "collar": 19329,
    "Ġhump": 5855,
    "tale": 10130,
    "Ġjoist": 19234,
    "admire": 24946,
    "elfth": 22373,
    "Ġglaring": 11912,
    "mediterranean": 16408,
    "âĢ": 294,
    "Ġelasticity": 19561,
    "Ġsli": 4748,
    "Ġriver": 5411,
    "awful": 23118,
    "farintosh": 24553,
    "privilege": 25264,
    "ker": 5792,
    "tempered": 13450,
    "Ġpomp": 12627,
    "may": 3678,
    "ram": 13975,
    "ishment": 3508,
    "meanwhile": 10612,
    "Ġtwisting": 18659,
    "ģ": 228,
    "Ġparagra": 15883,
    "Ġtight": 8108,
    "keenest": 25662,
    "'s": 2469,
    "ipelag": 12844,
    "handsome": 13180,
    "yesterday": 10355,
    "Ġtomorrow": 21516,
    "Ġvisitor": 5331,
    "Ġstarted": 4147,
    "urp": 1471,
    "sam": 21054,
    "Ġwillow": 18532,
    "resembled": 21249,
    "Ġeluc": 16112,
    "copy": 5133,
    "Ġendued": 14080,
    ".âĢĶ": 4248,
    "Ġpitch": 5767,
    "iled": 1765,
    "Ġpor": 5225,
    "Ġentranced": 25835,
    "robust": 19731,
    "Ġmoderation": 12823,
    "Ġimpregnable": 26024,
    "Ġbrush": 17866,
    "Ġintercepted": 25828,
    "billiard": 25335,
    "Ġvow": 10249,
    "Ġ31": 12135,
    "american": 11402,
    "Ġmomentarily": 22814,
    "ĠâĢĶ_": 3462,
    "Ġthemselves": 3255,
    "franch": 24286,
    "flitted": 23972,
    "southern": 20412,
    "reve": 12544,
    "atiously": 15525,
    "Ġpictured": 16625,
    "Ġlambton": 10660,
    "truck": 15444,
    "Ġbedford": 7475,
    "acrity": 14282,
    "piled": 21017,
    "Ġsore": 10766,
    "voice": 7816,
    "miserably": 24213,
    "Ġoutstanding": 22320,
    "Ġflamingo": 15104,
    "performances": 26007,
    "horner": 23616,
    "Ġflesh": 5970,
    "Ġprogra": 1148,
    "meat": 18676,
    "Ă": 195,
    "Ġdispersed": 16599,
    "Ġdecanter": 22443,
    "Ġoldest": 12978,
    "Ġmonosy": 18853,
    "am": 368,
    "Åĵ": 10746,
    "Ġsteward": 6586,
    "car": 4211,
    "neighbours": 24882,
    "Ġjamming": 17267,
    "Ġsurmises": 17056,
    "Ġnought": 21525,
    "header": 11937,
    "Ġfuss": 13908,
    "Ġmagnific": 16321,
    "gives": 15361,
    "pipe": 8700,
    "Ġdotted": 16794,
    "lounged": 26134,
    "susp": 10599,
    "Ġchuckled": 10650,
    "Ġgrunt": 18736,
    "Ġced": 10786,
    "believe": 8304,
    "Ġequator": 7461,
    "Ġintroduces": 3273,
    "enjoyment": 17260,
    "Ġpeev": 22696,
    "thanking": 24326,
    "Ġindiscreet": 22961,
    "breaths": 25337,
    "Ġjewelled": 20186,
    "µ": 118,
    "Ġadvancement": 24475,
    "Ġtraps": 23084,
    "sive": 4141,
    "covery": 11173,
    "ular": 714,
    "Ġwearer": 21926,
    "Ġberth": 8683,
    "etition": 7382,
    "Ġdisk": 22526,
    "progress": 11992,
    "Ġfrantic": 7957,
    "Ġentreaties": 9038,
    "eted": 7592,
    "otograph": 5827,
    "pet": 4867,
    "Ġmembrane": 20507,
    "beh": 5472,
    "ographical": 16788,
    "Ġkicks": 19771,
    "impressions": 20701,
    "Ġexp": 777,
    "asburgh": 15651,
    "Ġget": 1621,
    "Ġcarve": 23096,
    "Ġlangs": 13957,
    "Ġdecomp": 3810,
    "Ġterrors": 6918,
    "Ġocc": 887,
    "Ġincl": 4270,
    "Ġpeak": 16130,
    "Ġoccasion": 3250,
    "minute": 11276,
    "Ġhandsome": 4907,
    "Ġtwitched": 20447,
    "Ġmajor": 13296,
    "horror": 13163,
    "Ġhookah": 16972,
    "Ġbraces": 14672,
    "Ġchronic": 9932,
    "influ": 9544,
    "Ġabsurdities": 24879,
    "Ġchained": 16390,
    "Ġbalm": 22909,
    "Ġ41": 24081,
    "Ġbermud": 26441,
    "Ġfevers": 22213,
    "dawson": 26129,
    "Ġpresentation": 14483,
    "shelf": 20384,
    "ullo": 12734,
    "iciously": 17976,
    "wig": 17706,
    "Ġcases": 3958,
    "down": 3472,
    "Ġgained": 4536,
    "âĢĻ!âĢĿ": 18170,
    "Ġapprehended": 26091,
    "Ġexpanded": 14292,
    "Ġliterary": 25166,
    "ble": 542,
    "dreaded": 25141,
    "Ġsubtile": 20383,
    "gunw": 17223,
    "Ġpostscript": 14811,
    "arling": 10816,
    "Ġ1883": 23901,
    "Ġarg": 4766,
    "absolute": 17125,
    "oy": 1026,
    "Ġone": 569,
    "ication": 973,
    "chief": 4645,
    "Ġaw": 2509,
    "Ġlung": 7168,
    "Ġmetrics": 19056,
    "itic": 11581,
    "immediate": 20097,
    "Ġglided": 7447,
    "ulatory": 15772,
    "Ġessentially": 24925,
    "Ġsolemnity": 9944,
    "Ġstriking": 6089,
    "modesty": 22875,
    "Ġobli": 9319,
    "Ġfig": 3624,
    "cr": 4009,
    "rations": 10725,
    "Ġplates": 11008,
    "arest": 4001,
    "Ġeighteen": 11240,
    "Ġviciously": 24404,
    "Ġ61": 24364,
    "Ġpattering": 18652,
    "season": 14037,
    "Ġmouth": 3184,
    "Ġabstained": 25232,
    "Ġinfant": 11964,
    "Ġsalt": 8017,
    "âĢĶ.": 11759,
    "protested": 13478,
    "aloft": 8811,
    "Ġlodge": 5779,
    "Ġgrosvenor": 17421,
    "Ġslaughtered": 26586,
    "Ġpromotion": 23197,
    "fever": 22506,
    "ident": 3381,
    "Ġraw": 3324,
    "Ġhearsed": 25042,
    "Ġhysterical": 26093,
    "ineas": 15826,
    "anous": 21362,
    "Ġpron": 6452,
    "Ġbony": 12592,
    "iries": 18173,
    "Ġsneering": 24696,
    "Ġopen": 1550,
    "Ġrestlessness": 23294,
    "contrast": 25595,
    "confid": 14870,
    "ech": 4389,
    "Ġcounsell": 25385,
    "Ġvault": 8845,
    "Ġrealising": 18984,
    "warm": 8102,
    "uming": 8494,
    "Ġadaptive": 1355,
    "wanderer": 25424,
    "Ġris": 4886,
    "Ġeye": 2282,
    "Ġimplac": 24875,
    "Ġnephew": 6406,
    "Ġusual": 3941,
    "Ġimmensity": 25330,
    "Ġwilds": 16511,
    "preserving": 25305,
    "Ġanybody": 5314,
    "Ġenabling": 1077,
    "spiracle": 22735,
    "ascended": 24705,
    "Ġbravely": 23842,
    "Ġwarmup": 3920,
    "Ġradiant": 16811,
    "Ġfolly": 7941,
    "Ġstrict": 7222,
    "Ġmeas": 1098,
    "Ġdyspeps": 16498,
    "Ġhole": 6080,
    "Ġembalmed": 13660,
    "Ġobstacle": 16957,
    "Ġsymb": 2593,
    "Ġresol": 2666,
    "Ġneedn": 19231,
    "Ġalleys": 25979,
    "Ġenormous": 5609,
    "Ġfamous": 5256,
    "Ġinadequate": 17939,
    "Ġpartiality": 9401,
    "Ġloves": 10917,
    "Ġsurp": 9637,
    "Ġdesigned": 7741,
    "hid": 13737,
    "Ġadmitted": 8989,
    "Ġprofund": 13157,
    "atra": 17773,
    "Ġunprotected": 22071,
    "Ġ128": 24473,
    "Ġhurrah": 9872,
    "ried": 926,
    "Ġbegged": 8231,
    "Ġblackest": 19100,
    "Ġuppermost": 15282,
    "sey": 5543,
    "Ġbats": 13903,
    "aire": 10683,
    "Ġemployed": 5200,
    "Ġscript": 18400,
    "ĠĠĠĠĠĠĠĠĠĠĠĠĠĠĠĠĠĠĠĠĠĠĠĠĠĠĠĠĠĠĠĠ": 2738,
    "oring": 1859,
    "Ò": 147,
    "Ġmourning": 13482,
    "presume": 25671,
    "Ġrecord": 5317,
    "highly": 24763,
    "beating": 22492,
    "Ġaqu": 17744,
    "Ġmachinations": 25768,
    "provid": 11151,
    "Ġbeating": 8145,
    "Ġslee": 8977,
    "Ġprone": 18971,
    "Ġmutineer": 19421,
    "Ġlapse": 17123,
    "rope": 3189,
    "Ġcows": 15557,
    "devoted": 20020,
    "Ġscrutiny": 26016,
    "Ġapprehensions": 13408,
    "Ġtall": 4035,
    "Ġdepths": 4325,
    "occasionally": 13524,
    "Ġrapidity": 11102,
    "depart": 12270,
    "ĠâĢľâĢĻ": 22258,
    "ons": 709,
    "akin": 11771,
    "velope": 17703,
    "non": 9614,
    "Ġthrilling": 19751,
    "lect": 1224,
    "Ġparalle": 1411,
    "simon": 16975,
    "Ġsolid": 6444,
    "Ġpanting": 11606,
    "Ġdilatory": 24704,
    "ł": 259,
    "isive": 10795,
    "Ġcertainty": 6736,
    "Ġdue": 3843,
    "Ġconveniences": 19815,
    "Ġleaned": 7608,
    "ory": 1078,
    "chapter": 1404,
    "Ġresided": 11815,
    "Ġeditions": 19154,
    "Ġpotent": 12066,
    "Ġfascinated": 25636,
    "Ġangelic": 19630,
    "str": 2580,
    "Ġrings": 11703,
    "Ġware": 12559,
    "airs": 2220,
    "Ġrefrained": 14344,
    "Ġmarshalled": 25316,
    "Ġquicker": 16510,
    "Ġoverseeing": 22354,
    "Ġheire": 18039,
    "tch": 9144,
    "illation": 14144,
    "Ġshelf": 12272,
    "Ġbless": 4341,
    "kovoko": 20672,
    "Ġleaping": 8341,
    "Ġunmolested": 15249,
    "Ġreligions": 20111,
    "Ġdoings": 18377,
    "Ġabund": 8868,
    "Ġnooks": 26012,
    "cure": 11476,
    "thus": 5158,
    "Ġpetrified": 19599,
    "ulsive": 10236,
    "uits": 21107,
    "Ġresolute": 19247,
    "vitality": 20482,
    "Ġmiles": 3803,
    "Ġshown": 5159,
    "ality": 2512,
    "Ġdivert": 23595,
    "Ġlens": 8439,
    "Ġzig": 18743,
    "Ġseeing": 2882,
    "Ġnicely": 8712,
    "childhood": 16870,
    "Ġbehaviors": 13259,
    "Ġelix": 22647,
    "Ġfirmament": 19474,
    "Ġstowing": 18074,
    "Ġdumb": 7843,
    "Ġfastening": 16360,
    "Ġtattooing": 15030,
    "Ġpiping": 23231,
    "Ġresigned": 9771,
    "Ġsanct": 15065,
    "Ġpeasant": 13555,
    "Ġtendinous": 16933,
    "Ġcommonplaces": 16292,
    "itigated": 23050,
    "Ġinner": 9673,
    "Ġweighing": 20019,
    "ordered": 8794,
    "Ġdevotees": 25377,
    "Ġcompens": 14267,
    "Ġdivide": 12115,
    "Ġspoon": 22138,
    "Ġsatisf": 2805,
    "Ġperforms": 11881,
    "Ġsixpence": 19318,
    "ã": 164,
    "Ġabstra": 22275,
    "orified": 21405,
    "Ġridicule": 13515,
    "terr": 8154,
    "Ġhavoc": 15817,
    "Ġparametric": 2397,
    "pits": 15415,
    "Ġresulting": 24200,
    "Ġpolite": 9885,
    "Ġimpotent": 18448,
    "Ġaccompan": 5513,
    "Ġshowers": 16607,
    "Ġpermitted": 9281,
    "irresist": 21917,
    "Ġesteem": 7531,
    "Ġrumours": 24599,
    "broker": 13309,
    "Ġadmission": 23558,
    "ą": 198,
    "mense": 4780,
    "obedience": 17413,
    "Ġprophets": 20453,
    "Ġdistraction": 22510,
    "Ġcrotch": 9966,
    "Ġunnaturally": 24871,
    "behind": 6780,
    "Ġexcess": 3345,
    "Ġexcellent": 4238,
    "safie": 20351,
    "Ġintroduce": 3210,
    "Ġshaped": 15838,
    "sebastian": 21824,
    "ius": 5789,
    "Ġhumour": 7932,
    "Ġcarpet": 9359,
    "illed": 2624,
    "Ġdeeds": 15763,
    "Ġaromatic": 25926,
    "Ġdrenched": 12608,
    "deployment": 26529,
    "Ġinsensibly": 20079,
    "groom": 8743,
    "Ġahab": 1217,
    "threaten": 25462,
    "inger": 6813,
    "Ġmisunderstood": 18704,
    "aintance": 3571,
    "Ġweeping": 11690,
    "Ġattribute": 16104,
    "Ġnook": 15932,
    "Ġdismissed": 12897,
    "erval": 4017,
    "Ġinexperience": 26100,
    "vigorous": 25918,
    "aloons": 20014,
    "Ġnursed": 16887,
    "?âĢĶ": 3471,
    "oub": 1632,
    "Ġane": 9184,
    "Ġrattling": 11397,
    "Ġwords": 1326,
    "Ġack": 5622,
    "Ġ[_": 15464,
    "beg": 22490,
    "Ġviews": 7290,
    "Ġcrane": 23439,
    "Ġaudacity": 19884,
    "Ġalleviated": 26205,
    "Ġsigned": 11179,
    "clut": 23152,
    "malicious": 19904,
    "Ġplutarch": 22606,
    "ufactured": 15185,
    "fingers": 17373,
    "pleased": 8857,
    "Ġmarriage": 3194,
    "Ġpore": 21461,
    "Ġhomeless": 23388,
    "qual": 8157,
    "Ġimpatiently": 8338,
    "Ġdomin": 10463,
    "ric": 1379,
    "Ġobstinate": 11338,
    "tort": 17677,
    "Ġmultipl": 2790,
    "Ġunremitting": 26219,
    "Ġprofessional": 7299,
    "look": 2263,
    "furthest": 19844,
    "Ġrelied": 16198,
    "long": 2909,
    "putable": 10903,
    "inctions": 17734,
    "Ġrefreshing": 20267,
    "======": 9836,
    "age": 503,
    "Ġmist": 2873,
    "Ġvic": 5237,
    "Ġforgo": 21777,
    "Ġthre": 2060,
    "mortar": 25409,
    "Ġsec": 2076,
    "Ġglitter": 25126,
    "Ġinsolent": 13604,
    "Ġkeep": 2357,
    "Ġthine": 7374,
    "Ġledgers": 23941,
    "Ġadmirers": 19689,
    "servant": 15038,
    "prejudice": 25572,
    "shoulders": 16587,
    "draughts": 20391,
    "Ġinstinct": 6576,
    "Ġscrew": 8871,
    "tre": 8764,
    "sticking": 21663,
    "Ġwealthy": 18181,
    "apering": 8041,
    "fing": 13716,
    "oken": 4306,
    "Ġmaddened": 17246,
    "wr": 3027,
    "shirt": 22464,
    "speak": 5504,
    "Ġdesp": 3220,
    "Ġplentiful": 12916,
    "Ġprocesses": 3633,
    "sar": 12509,
    "Ġstanding": 2996,
    "Ġemper": 9864,
    "Ġnosegay": 24194,
    "Ġpacing": 8427,
    "rubber": 12815,
    "Ġcategor": 4137,
    "visits": 24226,
    "ivorous": 22083,
    "erring": 11059,
    "Ġbrig": 11048,
    "Ġclimb": 15083,
    "alf": 4639,
    "Ġchannels": 26014,
    "gled": 10701,
    "Ġspin": 7630,
    "Ġcontemplate": 19894,
    "lemency": 21377,
    "Ġskirting": 22800,
    "recover": 24623,
    "Ġceti": 24772,
    "Ġpasses": 2679,
    "Ġchimneys": 16974,
    "Ġ88": 19714,
    "Ġshrine": 19534,
    "ault": 2308,
    "Ġhapp": 1090,
    "impl": 21710,
    "asp": 3343,
    "quired": 21859,
    "apothecary": 26547,
    "vig": 15449,
    "Ġmoul": 15548,
    "Ġsearch": 2592,
    "advancing": 14839,
    "Ġperplex": 2715,
    "Ġde": 363,
    "erson": 7003,
    "ond": 1162,
    "Ġnor": 1551,
    "mot": 17598,
    "mechanically": 17303,
    "ucy": 15447,
    "Ġbolted": 12249,
    "asserted": 22313,
    "represent": 9640,
    "Ġgets": 10841,
    "Ġwager": 17794,
    "grief": 13734,
    "Ġpanted": 21475,
    "poise": 6173,
    "Ġmanage": 7641,
    "Ġaccomp": 4713,
    "irms": 18172,
    "Ġannot": 15606,
    "Ġguernsey": 9354,
    "Ġsell": 7825,
    "Ġsecured": 6747,
    "Ġdu": 4585,
    "ists": 3997,
    "thyself": 19299,
    "Ġdesigns": 13021,
    "Ġchased": 8865,
    "riet": 18182,
    "Ġloosed": 22116,
    "Ġflashed": 11918,
    "elt": 4112,
    "Ġadvisable": 11444,
    "È": 137,
    "delight": 5345,
    "Ġcarr": 23094,
    "azine": 19132,
    "Ġphenomenon": 17919,
    "E": 41,
    "chat": 21689,
    "Ġfancying": 12117,
    "Ġopening": 5045,
    "Ġweig": 7619,
    "Ġretreats": 16930,
    "olerably": 11676,
    "umerable": 11729,
    "Ġwake": 4749,
    "ceptibly": 22347,
    "Ġsloop": 25931,
    "called": 6294,
    "------": 12138,
    "ditch": 17530,
    "Ġnuptial": 25783,
    "agra": 14069,
    "Ġportentous": 15233,
    "Ġaddresses": 3768,
    "Ġanalyze": 1549,
    "Ġlesson": 7276,
    "Ġreappeared": 21668,
    "Ġcrooked": 11283,
    "Ġad": 442,
    "canonical": 22973,
    "Ġwelfare": 12564,
    "rather": 5430,
    "Ġgibe": 25960,
    "play": 5099,
    "Ġknelt": 12163,
    "Ġtypewriting": 16423,
    "Ġbison": 21391,
    "oud": 1940,
    "Ġcompre": 4448,
    "Ġinspirited": 23423,
    "Ġrelapses": 26280,
    "Ġcate": 4106,
    "Ġindeed": 1679,
    "ċ": 204,
    "Ġcontradicted": 20214,
    "Ġblinded": 13275,
    "Ġprofessor": 11232,
    "Ġsubur": 12961,
    "ivial": 15863,
    "Ġburke": 19253,
    "measure": 10034,
    "Ġringleader": 26214,
    "Ġports": 10820,
    "Ġredu": 1353,
    "manif": 14376,
    "chemical": 23811,
    "dashing": 20838,
    "Ġthreatens": 24375,
    "va": 4743,
    "abbering": 21800,
    "Ġobstin": 14956,
    "pulous": 15419,
    "separation": 25227,
    "xi": 17712,
    "Ġwonders": 7500,
    "Ġsplendour": 20227,
    "Ġuse": 831,
    "Ġmoments": 4846,
    "Ġathe": 17743,
    "Ġcommunication": 1871,
    "Ġremnants": 22797,
    "Ġwhiteness": 5920,
    "leaning": 10792,
    "ostent": 16848,
    "Ġmatter": 1735,
    "inridge": 11563,
    "Ġpublisher": 24068,
    "Ġtendency": 11331,
    "arched": 10817,
    "Ġfan": 2037,
    "Ġmanaged": 7906,
    "Ġstrong": 1787,
    "sought": 15430,
    "Ġimaginary": 11188,
    "when": 1588,
    "Ġdears": 18139,
    "reported": 24493,
    "Ġlodger": 24094,
    "Ġexpert": 18861,
    "life": 4933,
    "deck": 4501,
    "avating": 18569,
    "Ġsmut": 22561,
    "treacle": 25151,
    "Ġbackward": 7655,
    "Ġcrunched": 19122,
    "Ġevangelists": 20342,
    "Ġpretty": 3860,
    "volous": 18605,
    "Ġrelevance": 5184,
    "relation": 19450,
    "ician": 21568,
    "Ġtooth": 9195,
    "Ġgood": 998,
    "Ġwheels": 10914,
    "Ġfatality": 12100,
    "Ġant": 4344,
    "Ġ97": 19777,
    "pro": 2051,
    "Ġqualified": 14953,
    "Ġhurried": 4029,
    "Ġbands": 14887,
    "Ġinquirers": 24965,
    "behaviour": 11303,
    "Ġpeaked": 2298,
    "Ġasyl": 12739,
    "Ġparcels": 25466,
    "Ġfresh": 3669,
    "Ġsystematically": 4191,
    "Ġvaults": 17156,
    "Ġwed": 7575,
    "Ġblotches": 25315,
    "fully": 2202,
    "Ġwildly": 9417,
    "Ġbegins": 7244,
    "Ġproclaim": 18133,
    "rew": 3648,
    "Ġsettles": 22923,
    "Ġis": 347,
    "longer": 8616,
    "Ġmatters": 4974,
    "Ġaslant": 21905,
    "Ġinferior": 8366,
    "feet": 6570,
    "Ġauthoritative": 19564,
    "toes": 22569,
    "Ġland": 1995,
    "Ġtied": 7357,
    "Ġunhe": 22014,
    "rapt": 13976,
    "elly": 17982,
    "Ġmyself": 1454,
    "Ġret": 1383,
    "thither": 21987,
    "reigned": 21245,
    "Ġcachalot": 17836,
    "chambers": 25455,
    "Ġscraping": 13420,
    "Ġhoneymoon": 25646,
    "Ġnasty": 17446,
    "enances": 10156,
    "Ġinevitable": 15171,
    "client": 18934,
    "Ġposition": 1953,
    "zar": 11550,
    "Ġflower": 16237,
    "Ġcand": 3280,
    "gall": 6361,
    "Ġbohem": 8529,
    "if": 375,
    "soo": 18684,
    "liness": 8750,
    "Ġhus": 3092,
    "Ġconsequ": 6256,
    "ckled": 9260,
    "\"]": 17473,
    "Ġhighest": 3531,
    "naturally": 14569,
    "flour": 23969,
    "Ġswing": 13041,
    "agonies": 21913,
    "Ġobjections": 8568,
    "Ġcontrary": 5261,
    "moran": 24152,
    "Ġunh": 9256,
    "ğ": 224,
    "Ġmeekly": 26492,
    "Ġhumorousness": 25378,
    "Ġexpressive": 8985,
    "fered": 5560,
    "Ġmoluccas": 25630,
    "Ġanticipation": 17058,
    "Ġsuperficial": 23457,
    "Ġdoze": 14179,
    "Ġcharacters": 9375,
    "merely": 16138,
    "Ġenergetic": 15201,
    "Ġdeliriously": 23233,
    "Ġexhaustion": 14964,
    "school": 10058,
    "Ġactions": 6280,
    "Ġnecessarily": 13254,
    "haw": 6363,
    "immense": 18055,
    "Ġcleansed": 26295,
    "announcement": 24563,
    "ommod": 13980,
    "leisure": 21374,
    "Ġshouldn": 14328,
    "Ġbible": 9322,
    "Ġapprehens": 5682,
    "Ġarms": 3963,
    "allah": 5839,
    "Ġchilled": 18383,
    "Ġchimer": 24603,
    "engaged": 7452,
    "merchant": 10469,
    "thirty": 12767,
    "Ġconjure": 17126,
    "Ġanxiously": 8290,
    "Ġsucked": 14133,
    "market": 16841,
    "foreign": 18544,
    "Ġpinched": 17036,
    "rot": 21535,
    "Ġflights": 24752,
    "Ġtorn": 6001,
    "Ġportrait": 10664,
    "Ġmagnus": 18960,
    "humiliation": 24024,
    "Ġshrimp": 24157,
    "cig": 17506,
    "Ġpromontory": 11945,
    "feit": 16046,
    "iards": 17576,
    "Ġfigures": 8633,
    "Ġlamps": 14793,
    "istan": 22112,
    "Ġstruggling": 12079,
    "benevolently": 25601,
    "Ġhumaneval": 25583,
    "Ġclimax": 25055,
    "white": 4603,
    "Ġscandinav": 19964,
    "Ġsc": 532,
    "Ġgriev": 16637,
    "ump": 2286,
    "Ġze": 8547,
    "Ġanimating": 23426,
    "Ġincensed": 18574,
    "Ġdistantly": 18535,
    "Ġvancou": 22878,
    "magnetic": 20555,
    "Ġapprove": 12878,
    "Ġhands": 1663,
    "supervised": 1952,
    "Ġequin": 14497,
    "<EOS>": 2,
    "Ġbuttoning": 17238,
    "Ġsympat": 13345,
    "Ġsecre": 5493,
    "Ġdoct": 4455,
    "Ġdampening": 2893,
    "elevating": 20409,
    "Ġmeadows": 11424,
    "Ġpit": 3423,
    "Ġimpressions": 9556,
    "Ġplaintiffs": 13613,
    "aky": 18412,
    "Ġper": 588,
    "Ġlocal": 1202,
    "Ġconscience": 6929,
    "experienced": 15125,
    "ources": 2788,
    "Ġbelieving": 8225,
    "Ġsplintered": 11420,
    "Ġat": 396,
    "Ġdisturbed": 8675,
    "raise": 18014,
    "inence": 15484,
    "Ġdeliver": 9853,
    "Ġcanted": 17833,
    "claim": 9838,
    "nades": 20999,
    "eray": 21269,
    "Ġsubterranean": 13615,
    "subtle": 24246,
    "atum": 21262,
    "Ġneither": 3685,
    "sequ": 2402,
    "Ġhall": 4182,
    "Ġcells": 13888,
    "existence": 16018,
    "inity": 5693,
    "Ġfreshe": 13074,
    "Ġdrawer": 13270,
    "Ġemblazonings": 26043,
    "beat": 10988,
    "Ġclattering": 22365,
    "Ġwarped": 25038,
    "bour": 2073,
    "aud": 8524,
    "Ġtread": 9412,
    "Ġwillingness": 24911,
    "Ġacknowledged": 7534,
    "Ġinsert": 19907,
    "Ġhaunts": 18199,
    "Ġdisgusting": 19896,
    "Ġconsequence": 5542,
    "riv": 3108,
    "on": 267,
    "gown": 9599,
    "Ġmanipulation": 10661,
    "Ġpresumed": 10547,
    "says": 13304,
    "ained": 3063,
    "Ġbeliever": 25850,
    "rodden": 21538,
    "Ġcondescending": 24869,
    "itive": 6671,
    "Ġquietly": 4568,
    "Ġthank": 3791,
    "Ġfavours": 23281,
    "cer": 6645,
    "hil": 8379,
    "Ġcomplacency": 19451,
    "Ġdet": 508,
    "hued": 20913,
    "Ġattractions": 12923,
    "ogy": 22716,
    "Ġcheers": 16368,
    "ation": 320,
    "Ġmutters": 23959,
    "Ġown": 1005,
    "Ġfurnishes": 19444,
    "Ġrasc": 21978,
    "Ġrider": 24186,
    "Ġ2": 2927,
    "Ġunaccountably": 26517,
    "ercial": 21277,
    "iated": 5891,
    "Ġschol": 17380,
    "umed": 6556,
    "ste": 3586,
    "glance": 16589,
    "Ġingratitude": 17471,
    "Ġgrasping": 12170,
    "Ġinterlacing": 22581,
    "Ġswiftness": 9930,
    "lady": 4433,
    "Ġturing": 7566,
    "wick": 5363,
    "Ġsem": 1878,
    "Ġextinct": 14346,
    "pled": 7892,
    "Ġdisappoint": 24208,
    "Ġconsidering": 4616,
    "Ġterr": 3277,
    "Ġpleasanter": 19069,
    "Ġwatching": 4855,
    "gledy": 25404,
    "cake": 20806,
    "Ġbehaviour": 4384,
    "Ġexpiring": 16099,
    "izard": 10885,
    "Ġfootmarks": 19339,
    "Ġeverlasting": 9340,
    "Ġmechanically": 14399,
    "gird": 20881,
    "Ġgradients": 611,
    "cannibal": 15228,
    "Ġpeevish": 26559,
    "Ġanomalously": 25639,
    "Ġlub": 15653,
    "cous": 8725,
    "Ġferocity": 16868,
    "been": 3347,
    "Ġbelted": 22953,
    "Ġreduces": 2344,
    "uff": 2731,
    "Ġsickening": 19607,
    "Ġclasp": 9748,
    "Ġinn": 4591,
    "Ġharris": 13930,
    "image": 9689,
    "ust": 495,
    "Ġcurse": 7667,
    "camp": 15333,
    "Ġmast": 2898,
    "greater": 13256,
    "entiating": 3442,
    "Ġplot": 14283,
    "Ġrats": 21977,
    "Ġventured": 7501,
    "Ġrigger": 19533,
    "Ġkirwin": 8499,
    "Ġdisinclination": 22540,
    "Ġcolonial": 22857,
    "osed": 1959,
    "Ġvia": 2385,
    "umer": 9261,
    "Ġjoining": 13168,
    "cook": 8270,
    "Ġerr": 1323,
    "biqu": 17500,
    "Ġdiab": 10614,
    "Ġcustom": 5078,
    "irect": 5553,
    "Ġprofounder": 23571,
    "Ġamaz": 5385,
    "ted": 788,
    "unities": 15775,
    "alleled": 14432,
    "opposite": 19931,
    "Ġostr": 21328,
    "Ġkicked": 10584,
    "đ": 210,
    "Ġlearns": 2643,
    "Ġabridged": 26542,
    "archbishop": 22905,
    "Ġdaboll": 25951,
    "Ġperilously": 24507,
    "repe": 8780,
    "Ġwarmer": 19187,
    "Ġkeepers": 23542,
    "Ġbetake": 22912,
    "Ġfiercely": 12957,
    "Ġcumul": 4177,
    "Ġnightmare": 18921,
    "tie": 21071,
    "Ġunassuming": 20512,
    "Ġramsgate": 18648,
    "ority": 8419,
    "Ġchace": 14181,
    "name": 6796,
    "Ġaccost": 12852,
    "Ġsplash": 16552,
    "introduce": 25187,
    "Ġwester": 25156,
    "Ġindelicacy": 25696,
    "derer": 4601,
    "Ġconge": 15750,
    "Ġexpand": 9310,
    "charming": 15710,
    "Ġhut": 15623,
    "engthen": 14460,
    "Ġdevelop": 1641,
    "Ġinaccessible": 13937,
    "Ġinfl": 6892,
    "Ġtraced": 10386,
    "Ġunattended": 15847,
    "Ġperem": 12937,
    "gunpowder": 25340,
    "Ġexperienced": 6582,
    "ece": 17533,
    "hum": 3778,
    "ester": 11601,
    "causing": 25519,
    "Ġmills": 21314,
    "k": 79,
    "Ġeyford": 10644,
    "Ġunderstood": 5655,
    "other": 1315,
    "oise": 15406,
    "Ġrol": 3557,
    "distinction": 19574,
    "Ġfaults": 12217,
    "Ġlost": 2635,
    "Ġwallowed": 24045,
    "Ġ25": 13196,
    "Ġbraced": 16582,
    "hic": 3252,
    "Ġoverwhelm": 25053,
    "Ġliked": 5265,
    "Ġinsol": 10183,
    "now": 548,
    "Ġpagoda": 19791,
    "Ġthoughtfulness": 18775,
    "Ġcarcase": 14447,
    "Ġdon": 1611,
    "uring": 819,
    "Ġgoney": 14546,
    "inition": 11559,
    "invest": 11562,
    "Ġcrack": 7710,
    "Ġking": 2306,
    "Ġyarn": 10870,
    "Ġgreedily": 18966,
    "orse": 5807,
    "Ġamidst": 9497,
    "pierced": 26142,
    "Ġgarden": 3824,
    "Ġmutiny": 13264,
    "jabez": 20935,
    "Ġtempestuous": 20074,
    "Ġdiligence": 17115,
    "Ġrick": 21974,
    "Ġadventures": 7748,
    "Ġresponses": 23650,
    "ails": 6162,
    "pron": 9009,
    "Ġelevates": 24503,
    "Ġivory": 4476,
    "honorable": 19903,
    "composure": 24037,
    "going": 6315,
    "Ġful": 4296,
    "Ġexponential": 1055,
    "Ġasks": 5115,
    "Ġcasual": 11411,
    "Ġgoodge": 22824,
    "uing": 17695,
    "brothers": 17026,
    "Ġpoky": 21482,
    "eks": 4728,
    "barbar": 20241,
    "Ġey": 8135,
    "Ġmowers": 17814,
    "cet": 15328,
    "Ġtotal": 4993,
    "holloa": 19467,
    "europe": 20668,
    "hement": 13835,
    "thole": 21990,
    "Ġcrosswise": 18887,
    "actor": 11841,
    "canallers": 22974,
    "err": 1142,
    "neville": 22450,
    "Ġredden": 15698,
    "Ġfactory": 23279,
    "amet": 590,
    "Ġcomforter": 20510,
    "Ġcop": 7580,
    "Ġisolation": 17153,
    "Ġadroit": 26001,
    "Ġhypocritical": 20740,
    "§": 105,
    "Ġparadigms": 3055,
    "Ġsynd": 22211,
    "russian": 22189,
    "Ġmil": 4254,
    "Ġbark": 10800,
    "Ġleap": 5825,
    "savagery": 25026,
    "Ġrefers": 1564,
    "Ġkrusenstern": 26379,
    "ria": 15799,
    "thankful": 16808,
    "ench": 21282,
    "âĢĿ]": 21816,
    "Ġesc": 2255,
    "ceiling": 21630,
    "osity": 14188,
    "Ġcopies": 24938,
    "Ġcherry": 16937,
    "shoals": 24716,
    "Ġpeasants": 12336,
    "along": 6014,
    "Ġmaled": 21317,
    "Ġconvulsive": 19308,
    "gish": 20875,
    "Ġflattering": 13035,
    "Ġsensitiveness": 23737,
    "ocations": 23710,
    "phil": 7926,
    "eting": 7170,
    "âĢĺ": 939,
    "relieved": 13281,
    "Ġreasoning": 2025,
    "standing": 5558,
    "swelled": 19613,
    "Ġezekiel": 26194,
    "idirectional": 2421,
    "Ġearning": 23944,
    "Ġconfused": 7965,
    "vulgar": 25919,
    "Ġuntil": 2668,
    "quar": 7616,
    "alas": 8808,
    "Ġdegenerating": 25800,
    "Ġfloat": 12036,
    "dining": 13709,
    "Ġwrithed": 17107,
    "mixed": 17607,
    "Ġwriggling": 15261,
    "stad": 7598,
    "ington": 21304,
    "desired": 9008,
    "Ġcivilly": 19606,
    "Ġforbidden": 17079,
    "rity": 13779,
    "irs": 14074,
    "escript": 18472,
    "Ġkindling": 19033,
    "Ġcling": 11777,
    "Ġfoundling": 22978,
    "Ġstartling": 14673,
    "Ġcollapsed": 15085,
    "hammad": 23266,
    "ige": 12684,
    "Ġirretrie": 23375,
    "Ġblood": 3172,
    "ĠĠĠĠĠ": 3529,
    "Ġsentinel": 26066,
    "Ġtheorem": 2327,
    "Ġtries": 9153,
    "ancies": 11587,
    "Ġduty": 4067,
    "Ġtennes": 23552,
    "pursue": 24976,
    "Ġarsacides": 17297,
    "Ġmixing": 24937,
    "Ġenjoy": 3760,
    "Ġswore": 10381,
    "Ġearned": 19408,
    "Ġlodges": 19503,
    "Ġgods": 6455,
    "usually": 10287,
    "Ġscandalous": 24880,
    "Ġpunchbowl": 20234,
    "sighted": 19788,
    "Ġunlikely": 10910,
    "Ġinstrum": 6056,
    "@": 36,
    "Ġelapsed": 7653,
    "Ġboard": 3385,
    "Ġmetaphysical": 26067,
    "Ġporus": 24398,
    "Ġunsupervised": 2501,
    "Ġunseen": 3526,
    "plutarch": 21967,
    "eskye": 21453,
    "Ġrecourse": 22738,
    "brushing": 20790,
    "unted": 6999,
    "orted": 4604,
    "Ġhes": 6252,
    "rrh": 26145,
    "Ġseats": 14091,
    "Ġcobweb": 22590,
    "Ġphotograph": 6304,
    "Ġfaces": 6010,
    "atching": 8202,
    "ĝ": 222,
    "whiteness": 18372,
    "Ġlouis": 8357,
    "Ġpraised": 19556,
    "Ġcaution": 11348,
    "Ġlatitude": 8329,
    "Ġdisclose": 16158,
    "Ġsul": 7570,
    "bet": 6111,
    "Ġworry": 18818,
    "Ġnice": 6678,
    "mystic": 25317,
    "Ġharvest": 13419,
    "Ġalleged": 17293,
    "ĠĠĠĠĠĠĠĠĠĠĠĠĠĠĠĠĠĠĠĠĠĠĠĠĠĠĠĠĠĠĠĠĠĠĠĠĠĠĠ": 19261,
    "Ġliable": 14231,
    "lips": 13753,
    "inted": 2650,
    "Ġfreezing": 23886,
    "Ġafraid": 3532,
    "Ġcannib": 6037,
    "Ġesq": 15112,
    "Ġmarbles": 18874,
    "Ġthreading": 23403,
    "Ġcape": 5146,
    "Ġwinchester": 10069,
    "Ġinterposed": 20622,
    "straight": 9943,
    "itch": 10163,
    "ij": 7802,
    "Ġstranded": 9778,
    "rocious": 21542,
    "Ġenthr": 22746,
    "Ġexploit": 19164,
    "Ġarches": 14165,
    "Ġblessings": 24177,
    "Ġa": 263,
    "ė": 216,
    "Ġevermore": 18814,
    "Ġsurmise": 12299,
    "dle": 3309,
    "Ġcherish": 10592,
    "Ġtheories": 13852,
    "adier": 18092,
    "Ġrebounds": 25968,
    "Ġhappily": 9334,
    "Ġmixed": 6975,
    "Ġasc": 4765,
    "thanked": 24327,
    "Ġclair": 6270,
    "hastening": 24448,
    "Ġlaws": 8003,
    "arat": 9183,
    "breast": 11247,
    "Ġimpaling": 22388,
    "Ġgreenhorn": 23771,
    "Ġstubb": 1786,
    "Ġstudy": 1757,
    "carefully": 13373,
    "izzy": 3095,
    "zza": 24168,
    "Ġapproximate": 2343,
    "Ġpoem": 22593,
    "Ġsix": 3043,
    "Ġdiscount": 22780,
    "Ġdeft": 21840,
    "Ġwayward": 22873,
    "Ġroving": 22407,
    "Ġenforced": 21942,
    "Ġblind": 3717,
    "express": 4895,
    "Ġbeings": 2489,
    "Ġtrifles": 16953,
    "Ġwhispers": 14703,
    "intend": 16227,
    "ips": 2594,
    "fl": 3600,
    "Ġ120": 16860,
    "Ġlany": 21557,
    "Ġtransports": 24280,
    "ship": 1393,
    "aiian": 23594,
    "Ġdrive": 5055,
    "arent": 4249,
    "Ġwas": 370,
    "177": 20754,
    "pid": 1396,
    "aet": 15311,
    "expectant": 24278,
    "Ġantiquities": 25599,
    "Ġstillness": 13000,
    "Ġstores": 18071,
    "Ġlabrador": 23330,
    "Ġconfusion": 7273,
    "ases": 1522,
    "ĠĠĠĠĠĠĠĠĠĠĠĠĠĠĠĠĠĠĠĠĠĠĠĠĠĠĠĠĠĠĠĠĠĠĠĠĠĠĠĠĠĠĠĠĠ": 9955,
    "concluding": 19484,
    "Ġromantic": 8031,
    "frozen": 25142,
    "consult": 24170,
    "Ġprocuring": 16872,
    "bony": 15323,
    "reputable": 15520,
    "Ġhairs": 13236,
    "Ġcargo": 16293,
    "Ġinfluences": 14868,
    "Ġdrawers": 12110,
    "Ġcalled": 1970,
    "Ġpeddling": 21485,
    "Ġeffemin": 18531,
    "Ġfugitive": 17330,
    "lifeless": 24314,
    "Ġdispel": 16598,
    "therefore": 5955,
    "Ġschoolmaster": 16864,
    "Ġuntoward": 19167,
    "Ġrecovered": 5481,
    "knives": 14916,
    "Ġbustle": 17230,
    "ctu": 5088,
    "ppa": 10242,
    "inion": 2872,
    "Ġdil": 6384,
    "Ġtuning": 3071,
    "Ġfatt": 15583,
    "lying": 7175,
    "bweb": 20793,
    "Ġexponentiating": 3450,
    "offended": 16400,
    "bit": 3930,
    "Ġcringed": 25943,
    "Ġflourished": 15129,
    "liked": 10511,
    "Ġnaturally": 2465,
    "deepest": 22837,
    "Ġviciss": 11294,
    "Ġcyp": 21348,
    "Ġezek": 18012,
    "Ġcourt": 4166,
    "Ġpulse": 13119,
    "Ġobjecting": 18898,
    "Ġpack": 5444,
    "Ġrefer": 18698,
    "nd": 11506,
    "Ġschemes": 11133,
    "ersman": 11706,
    "assertion": 22315,
    "Ġequival": 4784,
    "Ġauthority": 7749,
    "Ġgrimly": 17053,
    "bushes": 24447,
    "given": 8377,
    "Ġpettiness": 24232,
    ",)": 9104,
    "Ġtranquo": 14846,
    "instruct": 19545,
    "Ġusually": 6265,
    "bold": 17490,
    "Ġnum": 1348,
    "iony": 9194,
    "Ġra": 813,
    "porary": 14552,
    "rael": 21632,
    "Ġgrapnels": 25552,
    "Ġmajest": 24063,
    "Ġhieroglyphic": 25588,
    "weight": 2938,
    "Ġsecrets": 9057,
    "Ġrehears": 15704,
    "Ġuninterrupted": 22050,
    "eyes": 5684,
    "Ġexcessive": 3890,
    "ary": 985,
    "Ġexaggerated": 25651,
    "sp": 894,
    "Ġoccupies": 24011,
    "erer": 8735,
    "screw": 9350,
    "Ġscre": 9740,
    "Ġindisc": 16231,
    "Ġbleeds": 24397,
    "Ġscan": 22288,
    "unavoid": 14065,
    "librarian": 26570,
    "objection": 19917,
    "Ġberths": 20118,
    "sartain": 25623,
    "Ġthink": 984,
    "Ġbasket": 9575,
    "hatchet": 24819,
    "orers": 14106,
    "Ġmun": 12567,
    "dling": 15343,
    "Ġresignation": 18567,
    "½": 126,
    "Ġpolished": 11184,
    "Ġwantonly": 22897,
    "Ġrepaid": 19084,
    "aset": 10834,
    "Ġeighteenth": 14757,
    "Ġbeneath": 3242,
    "aking": 975,
    "Ġunwaning": 24830,
    "Ġdungeon": 16998,
    "Ġbl": 1193,
    "Ġbreakers": 12059,
    "horse": 8609,
    "Ġdeception": 18142,
    "Ġconvergence": 974,
    "Ġperceived": 4714,
    "Ġcarving": 14446,
    "Ġmum": 13861,
    "itable": 5437,
    "musket": 25342,
    "Ġrely": 8825,
    "shabbily": 26248,
    "ubines": 22964,
    "Ġepicures": 25880,
    "Ġxxxvi": 24972,
    "Ġexile": 12722,
    "Ġinsight": 16533,
    "Ġpitchpoling": 14914,
    "Ġklux": 22199,
    "introduction": 15127,
    "omically": 13979,
    "nals": 16402,
    "Ġreflecting": 24750,
    "islanders": 25443,
    "Ġilluminated": 20178,
    "Ġcountry": 2532,
    "fro": 8736,
    "rmsprop": 4523,
    "Ġdictionaries": 12344,
    "nurtured": 25525,
    "Ġthrob": 21521,
    "ors": 854,
    "Ġgossiping": 26245,
    "itably": 10784,
    "Ġmonoton": 3636,
    "Ġprocedure": 2809,
    "Ġdull": 6385,
    "Ġver": 3396,
    "illes": 12699,
    "Ġprove": 5231,
    "Ġtens": 17725,
    "osely": 9268,
    "wear": 22686,
    "Ġshape": 5639,
    "Ġtingling": 15096,
    "û": 188,
    "Ġbelfry": 26440,
    "shold": 2773,
    "Ġrashly": 20308,
    "etrics": 21588,
    "Ġwink": 11572,
    "Ġhob": 12634,
    "Ġmeal": 9700,
    "Ġtravelling": 11309,
    "Ġcaptain": 1601,
    "Ġhumped": 19772,
    "Ġadult": 18290,
    "Ġchamp": 18382,
    "Ġduplicate": 17218,
    "Ġethics": 15465,
    "Ġvehemence": 26568,
    "doublo": 24661,
    "front": 12175,
    "kind": 3862,
    "endurable": 22230,
    "Ġblinding": 14731,
    "nothing": 3157,
    "Ġruminated": 24600,
    "Ġdigress": 24649,
    "Ġspeculations": 23001,
    "Ġviolet": 19092,
    "iamond": 14592,
    "Ġbestow": 6456,
    "crack": 19843,
    "hamlet": 23265,
    "==": 943,
    "named": 9893,
    "guess": 14764,
    "usable": 22283,
    "Ġdived": 9180,
    "Ġcogn": 11005,
    "Ġshoes": 7073,
    "Ġveil": 7934,
    "Ġharpoons": 5659,
    "Ġhints": 8431,
    "Ġdevelopment": 7060,
    "rob": 5534,
    "tram": 19646,
    "Ġtaffrail": 15479,
    "wedding": 12526,
    "Ġmisfortune": 5569,
    "Ġinvoluntarily": 8552,
    "Ġalarming": 14784,
    "Ġingrat": 16842,
    "alously": 15633,
    "swallow": 24260,
    "inable": 11558,
    "Ġinconven": 7587,
    "canst": 22971,
    "Ġunfulfilled": 26511,
    "vess": 7354,
    "Ġtraffic": 23087,
    "Ġunsupp": 22025,
    "Ġ56": 24320,
    "Ġtantalizing": 20417,
    "seeking": 17155,
    "Ġalgorithm": 771,
    "Ġfirmness": 11239,
    "rusion": 11325,
    "rons": 21042,
    "Ġtypewriter": 19099,
    "ineffectual": 26509,
    "Ġthrust": 5084,
    "asper": 7855,
    "Ġexplicit": 3590,
    "Ġflirting": 16252,
    "Ġlast": 1122,
    "dimens": 2319,
    "Ġthinks": 6171,
    "Ġcommissioned": 19897,
    "sailed": 17668,
    "Ġrecklessly": 16985,
    "Ġharmony": 16816,
    "cst": 10087,
    "Ġmainland": 22652,
    "Ġsnatching": 10474,
    "Ġnantucketer": 6914,
    "initely": 7568,
    "Ġway": 1085,
    "Ġinfinite": 8579,
    "Ġuniverse": 14127,
    "scrape": 25699,
    "Ġcrime": 4617,
    "nam": 2768,
    "Ġretarded": 23076,
    "Ġflushed": 13033,
    "Ġjudges": 14687,
    "cun": 20797,
    "Ġcharitable": 23272,
    "Ġpromised": 5181,
    "Ġlatent": 19658,
    "illum": 15873,
    "rows": 6443,
    "iple": 4806,
    "Ġdomes": 23656,
    "ron": 5216,
    "Ġoverlooking": 22351,
    "lose": 12887,
    "Ġclattered": 22363,
    "Ġexpeditions": 24957,
    "opposing": 24822,
    "Ġinanimate": 13936,
    "Ġgratification": 24098,
    "Ġpillows": 24989,
    "gate": 12471,
    "Ġtyphoons": 20237,
    "listener": 24931,
    "omen": 4082,
    "keepers": 16662,
    "Ġwrap": 24595,
    "Ġtailed": 21171,
    "Ġleatherhead": 20017,
    "covered": 11479,
    "Ġoutsk": 15960,
    "Ġwish": 2099,
    "noise": 14329,
    "taking": 5689,
    "Ġexpensive": 12922,
    "Ġenvironments": 24188,
    "instrument": 15242,
    "Ġsighing": 18674,
    "Ġcalculating": 9928,
    "ob": 1420,
    "Ġfootfalls": 25867,
    "Ġindomit": 22960,
    "Ġmovable": 22437,
    "sence": 3310,
    "Ġstrat": 16096,
    "no": 882,
    "Ġundertake": 14482,
    "Ġlength": 2499,
    "Ġlabours": 8585,
    "harbors": 20151,
    "Ġhoisting": 9865,
    "Ġprev": 6266,
    "Ġadmit": 7711,
    "Ġsour": 21219,
    "awakened": 14456,
    "Ġdaw": 21432,
    "Ġbite": 10799,
    "Ġplight": 14284,
    "pinn": 21028,
    "Ġsedentary": 25431,
    "sphere": 22732,
    "Ġlomb": 21562,
    "fold": 7546,
    "Ġcouch": 12576,
    "Ġhearse": 10422,
    "arian": 10318,
    "Ġpleas": 1907,
    "Ġhastened": 9007,
    "uses": 11764,
    "alescing": 23869,
    "Ġtable": 2498,
    "Ġworrying": 22930,
    "hest": 3371,
    "practical": 17224,
    "Ġsacrifice": 9558,
    "contemplated": 20461,
    "Ġbattery": 21397,
    "Ġbarriers": 23797,
    "rench": 3964,
    "Ġspouting": 9442,
    "Ġbring": 3327,
    "Ġnocturn": 18376,
    "Ġbengal": 18785,
    "Ġunlock": 18244,
    "Ġmince": 22833,
    "Ġmaintainable": 12940,
    "Ġcolle": 8926,
    "Ġcauses": 2563,
    "superstitious": 17283,
    "Ġchambermaid": 24306,
    "Ġmin": 1021,
    "Ġseventeen": 26212,
    "Ġhunted": 7453,
    "token": 21085,
    "hereabouts": 23608,
    "Ġlac": 17967,
    "Ġarguing": 25471,
    "Ġdependency": 3490,
    "Ġbid": 6133,
    "Ġcloser": 8663,
    "Ġaffectionately": 13172,
    "Ġsuffice": 18871,
    "Ġcalamities": 25700,
    "Ġwarehouse": 20420,
    "Ġwear": 6032,
    "george": 26020,
    "Ġbelief": 5857,
    "Ġmargaret": 10379,
    "Ġsnuffed": 15076,
    "Ġenergy": 2554,
    "lp": 898,
    "ate": 421,
    "ling": 735,
    "Ġscrews": 25178,
    "ifled": 14066,
    "Ġcapital": 7980,
    "underneath": 23791,
    "metic": 14987,
    "Ġflood": 7716,
    "Ġmathematics": 12078,
    "cott": 8074,
    "Ġcircle": 4977,
    "Ġdischarge": 18557,
    "lop": 20950,
    "Ġmoist": 9288,
    "Ġbasics": 13452,
    "Ġchrysalis": 26540,
    "arrested": 15605,
    "Ġbashaw": 25634,
    "rict": 8093,
    "coarse": 16489,
    "Ġgoodness": 6060,
    "Ġinterests": 14572,
    "idea": 9305,
    "conside": 9293,
    "blades": 24130,
    "cannib": 11907,
    "Ġcaulking": 20296,
    "Ġmanufact": 22332,
    "Ġfrequent": 3290,
    "Ġmason": 10160,
    "wrong": 13208,
    "dependence": 17170,
    "Ġma": 3256,
    "Ġglimpses": 13436,
    "Ġrecede": 25969,
    "Ġfate": 4754,
    "elijah": 19476,
    "Ġmelbourne": 24291,
    "possibility": 13366,
    "ilities": 6992,
    "Ġshaster": 22002,
    "Ġdisdained": 15012,
    "Ġintelligence": 552,
    "Ġoctavo": 15167,
    "cient": 4570,
    "Ġwealth": 7621,
    "Ġunclasp": 26513,
    "Ġbaw": 15573,
    "lacing": 17592,
    "ĠĠĠĠĠĠĠĠĠĠĠĠĠĠĠĠĠĠĠĠĠĠĠĠĠĠĠĠĠĠĠĠĠĠĠĠ": 23668,
    "Ġbehalf": 14509,
    "Ġconc": 1841,
    "Ġroanoke": 22411,
    "Ġnominal": 15172,
    "Ġrector": 21679,
    "coloured": 7291,
    "eric": 3474,
    "Ġweakened": 16825,
    "R": 54,
    "Ġscorch": 20070,
    "Ġfrom": 433,
    "Ġeas": 2354,
    "proof": 16426,
    "osh": 18389,
    "Ġremorse": 6442,
    "Ġtertiary": 15298,
    "Ġoaks": 16935,
    "fleece": 19951,
    "transformers": 8718,
    "Ġsmo": 2701,
    "Ġcolourless": 19572,
    "Ġuneasily": 24233,
    "meas": 7434,
    "Ġvagu": 13593,
    "bearings": 25372,
    "cerem": 15682,
    "resum": 17763,
    "Ġunrestingly": 20364,
    "Ġbeque": 18083,
    "quimaux": 21863,
    "Ġrecol": 4026,
    "otle": 21801,
    "abez": 10225,
    "igation": 5919,
    "Ġwoody": 23523,
    "cut": 3125,
    "Ġinconsiderable": 21498,
    "borough": 20787,
    "Ġmorning": 1748,
    "yard": 5901,
    "Ġhas": 826,
    "Ġsqualid": 14371,
    "Ġattachment": 6051,
    "Ġundecided": 22052,
    "liking": 22927,
    "shaw": 6864,
    "Ġostrich": 26432,
    "Ġmistifying": 23722,
    "airing": 16180,
    "pure": 17628,
    "Ġunfit": 14789,
    "icken": 6713,
    "gard": 7339,
    "arb": 1563,
    "Ġdespatched": 23833,
    "laughing": 15183,
    "Ġzoned": 22821,
    "oundered": 14167,
    "barrel": 17061,
    "itime": 15552,
    "Ġextensive": 12953,
    "Ġclearly": 6896,
    "Ġunicorn": 22061,
    "rushing": 10021,
    "Ġbehoo": 19036,
    "Ġroman": 8323,
    "Ġcorresponding": 13442,
    "bantering": 25254,
    "Ġinclude": 1875,
    "Ġsir": 1567,
    "Ġfren": 10807,
    "Ġoverflowed": 20265,
    "glanced": 19369,
    "Ġaf": 781,
    "alling": 6038,
    "unsupervised": 10891,
    "deliver": 19507,
    "ateness": 15523,
    "favour": 9552,
    "aying": 15753,
    "dun": 17518,
    "okes": 9280,
    "execut": 13659,
    "Ġoutputs": 2883,
    "embarr": 17295,
    "Ġwisely": 13277,
    "Ġimpossible": 3545,
    "Ġplying": 17916,
    "Ġsy": 490,
    "hew": 5286,
    "oga": 22715,
    "sullen": 17671,
    "Ġblubber": 5666,
    "Ġponder": 6819,
    "Ġwild": 2603,
    "Ġponderous": 8355,
    "Ġbreaths": 14860,
    "Ġunexpectedly": 19911,
    "Ġpict": 3502,
    "Ġoffering": 3006,
    "breadth": 20279,
    "Ġbilliard": 16690,
    "Ġcontinuing": 14401,
    "Ġrainy": 24341,
    "Ġhebrew": 13991,
    "Ġrose": 3447,
    "Ġhoriz": 4726,
    "Ġexhib": 6351,
    "Ġlustre": 15138,
    "Ġaccount": 2322,
    "declaration": 25176,
    "Ġcredulous": 17147,
    "Ġdiggings": 24650,
    "resentment": 15189,
    "Ġnewfound": 22935,
    "Ġshivering": 10268,
    "Ġforeseen": 16442,
    "inguished": 6600,
    "cell": 10689,
    "h": 76,
    "Ġreluctant": 20528,
    "Ġdesolate": 10016,
    "Ġpettic": 14844,
    "oking": 4607,
    "erranean": 9337,
    "Ġpersuading": 19413,
    "Ġcolonel": 3411,
    "Ġbeadle": 26486,
    "Ġmenacing": 23111,
    "Ġubiquitous": 26197,
    "Ġunpleasant": 7191,
    "Ġpredicted": 2046,
    "enged": 23148,
    "revol": 12545,
    "Ġmill": 6669,
    "Ġoblivious": 26033,
    "regards": 23468,
    "Ġtusked": 25427,
    "appeared": 4281,
    "Ġgrieved": 8297,
    "Ġevolve": 2999,
    "Ġmitigating": 1615,
    "improve": 15716,
    "Ġwallowing": 24046,
    "iriously": 18175,
    "Ġcivility": 4788,
    "Ġfurlongs": 20725,
    "Ġinspire": 12000,
    "Ġvagueness": 25738,
    "aming": 5829,
    "Ġjustification": 22976,
    "Ġfearlessness": 19163,
    "Ġbusks": 23340,
    "Ġhydraul": 9517,
    "Ġepidemic": 20698,
    "Ġintermediate": 18591,
    "Ġdiddled": 22670,
    "Ġplu": 8803,
    "Ġhats": 14621,
    "Ġlug": 15656,
    "Ġsteals": 23088,
    "Ġtechn": 9368,
    "allied": 7410,
    "Ġretort": 23074,
    "ouement": 21451,
    "ivers": 1982,
    "Ġclim": 8196,
    "excitement": 19672,
    "Ġanger": 5442,
    "Ġsteersman": 13047,
    "Ġleisurely": 24745,
    "uzza": 11272,
    "quin": 21857,
    "Ġbower": 15571,
    "min": 4572,
    "Ġswearing": 16466,
    "Ġpalp": 11252,
    "Ġbeheaded": 11659,
    "lingering": 18602,
    "Ġgovernor": 16492,
    "necessities": 24308,
    "Ġaround": 3611,
    "forest": 22522,
    "terrors": 25044,
    "Ġdivinely": 25723,
    "Ġfearing": 12820,
    "also": 7851,
    "Ġunlike": 7006,
    "Ġgates": 10203,
    "%": 9,
    "Ġasi": 12737,
    "----": 4054,
    "charm": 13993,
    "Ġhopkins": 23132,
    "omeness": 18018,
    "Ġhereditarily": 25225,
    "Ġpitiful": 13244,
    "icide": 11621,
    "Ġcondition": 6765,
    "Ġwindings": 18911,
    "Ġtwilight": 16125,
    "Ġcatholic": 20684,
    "*": 14,
    "Ġwhich": 504,
    "Ġurgent": 16871,
    "Ġcock": 11002,
    "Ġ(": 595,
    "haust": 5777,
    "Ġobstinacy": 17424,
    "Ġforc": 9230,
    "Ġward": 10158,
    "Ġconfluent": 19042,
    "Ġfrenchman": 11285,
    "Ġundulations": 19518,
    "Ġearlier": 9090,
    "Ġturn": 1299,
    "Ġhypotheses": 4386,
    "rasing": 21048,
    "Ġagonising": 25374,
    "ibilities": 13017,
    "recl": 15513,
    "Ġglit": 8563,
    "Ġdistrustful": 25057,
    "troubled": 17113,
    "Ġslay": 16309,
    "gl": 3293,
    "fearfully": 25119,
    "acled": 16085,
    "Ġsummons": 13237,
    "Ġcuring": 21347,
    "Ġmicroscopic": 26375,
    "ref": 6516,
    "Ġfumes": 21421,
    "ze": 1292,
    "Ġnuts": 17954,
    "bber": 4569,
    "Ġpursuits": 12081,
    "Ġcoding": 8116,
    "Ġpaddled": 20204,
    "Ġgilder": 21616,
    "Ġ51": 24316,
    "Ġcr": 2150,
    "Ġardu": 22193,
    "row": 1063,
    "pocket": 9812,
    "Ġplanted": 9777,
    "Ġgripping": 26188,
    "Ġdisgra": 18550,
    "plague": 21963,
    "Ġexpands": 25238,
    "ource": 5244,
    "Ġwhims": 12697,
    "Ġchristendom": 16696,
    "Ġhardware": 4905,
    "augment": 18832,
    "Ġbremen": 23346,
    "iger": 8448,
    "Ġxiii": 25592,
    "Ġmizen": 17261,
    "Ġwest": 5219,
    "sacrifice": 13496,
    "Ġexcuse": 5863,
    "Ġvictim": 6099,
    "rospect": 11615,
    "ord": 665,
    "Ġmorbidness": 20631,
    "Ġquestionable": 19268,
    "ien": 10104,
    "Ġunsounded": 15853,
    "Ġdanced": 7842,
    "--âĢĺ": 22851,
    "bourne": 19104,
    "evil": 11488,
    "Ġphrenologists": 25609,
    "Ġflooring": 23625,
    "Ġspouts": 7730,
    "Ġmuff": 8114,
    "spect": 3237,
    "perpendicular": 14162,
    "pede": 19932,
    "Ġdoubloon": 6945,
    "smile": 23909,
    "Ġdiffident": 23786,
    "struck": 7862,
    "hend": 13257,
    "Ġhurriedly": 11251,
    "Ġcomputational": 1624,
    "Ġluggage": 25958,
    "Ġtraditions": 11445,
    "trap": 24334,
    "unusual": 21883,
    "Ġ156": 20173,
    "Ġestablish": 9546,
    "utility": 21590,
    "Ġfuel": 13907,
    "Ġdanes": 25160,
    "af": 2379,
    "mounting": 25208,
    "ject": 875,
    "exclaimed": 11794,
    "lled": 10110,
    "Ġquite": 1742,
    "Ġchurch": 4711,
    "Ġpliny": 11829,
    "Ġbelie": 14412,
    "Ġbeamed": 23724,
    "Ġsweat": 13144,
    "Ġflooded": 24962,
    "etite": 21582,
    "lid": 20947,
    "staring": 18023,
    "Ġopenly": 8576,
    "Ġkeen": 4614,
    "Ġappeared": 2775,
    "Ġmountains": 4427,
    "Ġevents": 4472,
    "Ġnautical": 17389,
    "Ġtickled": 20060,
    "Ġz": 997,
    "Ġunique": 12783,
    "Ġobstetrics": 24679,
    "Ġvicinity": 7315,
    "Ġlabors": 23328,
    "old": 796,
    "Ġshudderings": 25201,
    "Ġlanterns": 24578,
    "Ġbefore": 808,
    "ching": 5156,
    "acceler": 23600,
    "enched": 10157,
    "Ġax": 7822,
    "Ġwrath": 16319,
    "Ġretirement": 25379,
    "brace": 16944,
    "Ġur": 5540,
    "onstr": 12551,
    "Ġcourtship": 24135,
    "invol": 12535,
    "Ġhumiliating": 22885,
    "Ġbury": 12045,
    "ego": 4032,
    "Ġover": 555,
    "Ġtashtego": 4487,
    "departed": 24793,
    "Ġpunctures": 25136,
    "Ġdistended": 16048,
    "Ġassailants": 20452,
    "Ġimpatience": 7509,
    "Ġsuspense": 9421,
    "watson": 12248,
    "Ġstamped": 13530,
    "Ġhill": 5626,
    "received": 9641,
    "Ġkin": 15908,
    "laws": 19810,
    "Ġbarbara": 24815,
    "armed": 7251,
    "mbles": 23092,
    "ohnson": 16327,
    "Ġvalued": 12187,
    "Ġevap": 19626,
    "Ġwollstonecraft": 26427,
    "Ġseren": 7401,
    "Ġlowest": 11124,
    "Ġmis": 916,
    "Ġexasperated": 11414,
    "showing": 22467,
    "Ġprecise": 7077,
    "Ġaccompl": 5167,
    "Ġcakes": 13887,
    "stays": 15693,
    "olerable": 7183,
    "Ġhan": 15622,
    "Ġaisle": 21204,
    "onom": 9161,
    "9": 29,
    "relatively": 24017,
    "weed": 14318,
    "Ġhudson": 15195,
    "Ġelevating": 19732,
    "known": 3570,
    "ilty": 6395,
    "Ġguardians": 14946,
    "merged": 11195,
    "Ġunostentatious": 22073,
    "Ġhaven": 8476,
    "Ġcharges": 23271,
    "Ġsatisfying": 23700,
    "Ġdedicated": 19225,
    "59": 17476,
    "ub": 1227,
    "Ġstreets": 5865,
    "choose": 23675,
    "devils": 20036,
    "Ġpaused": 5416,
    "Ġjustinian": 22977,
    "Ġ14": 9326,
    "three": 5239,
    "Ġcruc": 16537,
    "Ġend": 1473,
    "fitzwilliam": 11354,
    "Ġdiverged": 23596,
    "Ġprecipice": 19944,
    "Ġpipes": 9852,
    "Ġdelineations": 26059,
    "Ġcontempt": 6277,
    "Ġexact": 2543,
[...]
