{
  "metadata": {
    "vocab_size": 26613,
    "algorithm": "BPE",
    "created_at": "2026-08-02 05:25:31",
    "special_tokens": [
      "<PAD>",
      "<SOS>",
      "<EOS>",
      "<UNK>",
      "<MASK>"
    ]
  },
  "vocab": {
    "Ġwickham": 2209,
    "Ġdemon": 7870,
    "teenth": 11871,
    "Ġmelting": 24287,
    "Ġqual": 6274,
    "strike": 14947,
    "Ġpilot": 5985,
    "Ġmanxman": 9564,
    "seems": 10874,
    "Ġlac": 17964,
    "silver": 19689,
    "Q": 53,
    "plexion": 14259,
    "frost": 15104,
    "Ġsoap": 14129,
    "Ġmatlock": 18800,
    "lers": 10105,
    "Ġwoollen": 12100,
    "cific": 10084,
    "Ġprefer": 6416,
    "ge": 559,
    "Ġsmith": 16062,
    "Ġstruct": 2787,
    "interference": 23736,
    "Ġrags": 18644,
    "bring": 9103,
    "Ġelsewhere": 7713,
    "ables": 7891,
    "Ġerad": 25028,
    "ring": 1752,
    "Ġemployed": 5200,
    "Ġmuff": 8114,
    "indirectly": 18437,
    "ager": 6546,
    "Ġdeep": 813,
    "Ġbehalf": 14506,
    "tail": 8761,
    "brace": 16941,
    "Ġcontingency": 26244,
    "Ġrug": 16156,
    "cest": 12441,
    "geons": 15977,
    "mical": 9127,
    "Ġpassions": 7930,
    "rot": 21530,
    "anthrop": 17380,
    "Ġaud": 6661,
    "hands": 5967,
    "Ġsoothingly": 25047,
    "Ġlaughing": 5338,
    "Ġspaces": 3109,
    "solut": 3364,
    "Ġpositions": 2058,
    "teen": 6370,
    "Ġcherish": 10588,
    "during": 6787,
    "Ġprecipitate": 19940,
    "ners": 3269,
    "reserve": 17764,
    "girl": 12315,
    "Ġconsistent": 14527,
    "Ġaffrighted": 13570,
    "darcy": 5208,
    "fireside": 24692,
    "monograph": 23525,
    "rub": 15889,
    "Ġgrew": 5182,
    "Ġmon": 1249,
    "omitted": 18023,
    "Ġtwentieth": 18659,
    "Ġlustre": 15132,
    "Ġbalancing": 2432,
    "Ġnames": 4531,
    "Ġextravag": 11252,
    "Ġtide": 6658,
    "liest": 6294,
    "cart": 10687,
    "address": 14879,
    "¤": 102,
    "Ġholder": 6724,
    "Ġameric": 3853,
    "Ġsister": 1474,
    "Ġreplacing": 3449,
    "Ġdelighted": 5499,
    "Ġflea": 23772,
    "proposal": 18761,
    "Ġzealand": 12347,
    "mastod": 23971,
    "Ġparting": 9781,
    "apart": 15959,
    "Ġspr": 4025,
    "plainly": 11088,
    "Ġcountess": 11961,
    "Ġconsequence": 5541,
    "Ġchorus": 10945,
    "bacc": 7795,
    "Ġtertiary": 15292,
    "Ġimplac": 24874,
    "any": 3335,
    "Ġincensed": 18571,
    "Ġinstantly": 3591,
    "Ġdon": 1615,
    "Ġcomplied": 14732,
    "Ġ60": 14873,
    "Ġtrials": 16788,
    "Ġprophetic": 20018,
    "Ġanaly": 1151,
    "Ġreadily": 5253,
    "Ġtempered": 12919,
    "Ġsunshine": 14494,
    "Ġmutable": 23952,
    "Ġapplied": 6186,
    "igned": 5656,
    "something": 4284,
    "Ġaccumulates": 2895,
    "Ġathe": 17740,
    "Ġslackened": 15124,
    "tone": 8762,
    "Ġconstruct": 23341,
    "Ġsaw": 1351,
    "therly": 18346,
    "Ġfrig": 13078,
    "Ġhuge": 4699,
    "prim": 23808,
    "Ġchil": 11748,
    "Ġmax": 2007,
    "Ġsalutations": 25382,
    "gangway": 20666,
    "Ġglorious": 11074,
    "ß": 160,
    "Ġpreparation": 13527,
    "Ġeveryone": 8916,
    "Ġgroup": 2038,
    "Ġfinite": 2326,
    "coo": 11169,
    "Ġmim": 3104,
    "Ġtokens": 1772,
    "Ġaveraging": 2419,
    "ignation": 11127,
    "Ġexquisitely": 20201,
    "Ġnegative": 1463,
    "Ġmod": 493,
    "Ġadaptive": 1334,
    "wond": 8767,
    "Ġthinner": 24181,
    "Ġdictated": 25218,
    "Ġhideous": 5983,
    "Ġfranc": 16350,
    "itable": 5437,
    "created": 12447,
    "Ġtrack": 7450,
    "recogn": 13423,
    "Ġbravely": 23836,
    "Ġfinish": 7949,
    "Ġconclude": 8580,
    "returned": 7766,
    "Ġsmoothe": 23657,
    "Ġcontrasting": 11153,
    "stays": 15685,
    "Ġsunk": 5752,
    "clad": 14457,
    "police": 10582,
    "Ġwantest": 18789,
    "Ġaband": 6561,
    "springs": 24911,
    "Ġsmoky": 22556,
    "rants": 13776,
    "Ġbre": 1914,
    "comfortable": 7320,
    "Ġchag": 15929,
    "iliar": 15711,
    "Ġprotectors": 9069,
    "herfield": 3630,
    "Ġknelt": 12155,
    "4": 24,
    "Ġjury": 5378,
    "apprehension": 26114,
    "compared": 24030,
    "Ġintegrated": 13529,
    "Ġsan": 7825,
    "phr": 18700,
    "same": 5361,
    "Ġpollard": 20384,
    "Ġduration": 20352,
    "or": 282,
    "Ġspake": 18308,
    "Ġhackluyt": 25655,
    "walton": 20248,
    "Ġcategorization": 12133,
    "ops": 5247,
    "Ġmemories": 14541,
    "anced": 1280,
    "Ġbridal": 14952,
    "Ġsmelling": 16064,
    "entimes": 12652,
    "vable": 10131,
    "itering": 17818,
    "Ġdampening": 2900,
    "Ġstatistical": 11104,
    "Ġrestraint": 15125,
    "bery": 9785,
    "Ġcompress": 21854,
    "Ġconnivance": 25225,
    "Ġtragedy": 10666,
    "Ġhighway": 14346,
    "Ġperish": 8873,
    "acies": 14275,
    "Ġorlop": 22089,
    "visitors": 13346,
    "Ġrecording": 24433,
    "Ġgloomily": 14799,
    "Ġscowl": 22288,
    "Ġnerve": 16339,
    "Ġbands": 14882,
    "Ġdisk": 22520,
    "sighted": 19784,
    "asmuch": 10193,
    "mselves": 2867,
    "Ġprincipally": 11308,
    "bid": 5610,
    "Ġindifferent": 6174,
    "<": 32,
    "Ġdecrease": 4201,
    "ulations": 6029,
    "orange": 21398,
    "Ġscepticism": 25927,
    "Ġaccomplishment": 19664,
    "Ġfolly": 7941,
    "suff": 4961,
    "Ġtraits": 23074,
    "Ġrifled": 21974,
    "Ġunstructured": 3006,
    "Ġswash": 23051,
    "Ġnear": 1717,
    "obtain": 23092,
    "iger": 8446,
    "]": 65,
    "Ġpeople": 2544,
    "Ġdeduced": 12204,
    "Ġhidden": 1377,
    "Ġclerical": 25568,
    "afforded": 25865,
    "Ġanalytical": 22911,
    "formed": 2555,
    "Ġdreamed": 16628,
    "dually": 3282,
    "Ġendeavors": 16544,
    "Ġdeftly": 26492,
    "knives": 14911,
    "crowning": 25748,
    "Ġmanaged": 7907,
    "Ġdeveloped": 16334,
    "Ġsecurely": 16801,
    "Ġshilling": 18228,
    "Ġinnocent": 4921,
    "Ġboast": 7034,
    "salesman": 20670,
    "apt": 725,
    "Ġjing": 15947,
    "attracted": 13047,
    "cripp": 20818,
    "tre": 8760,
    "Ġdived": 9176,
    "Ġappetites": 20205,
    "resc": 21237,
    "Ġcollect": 7237,
    "Ġway": 1082,
    "Ġhandwriting": 14317,
    "Ġpremature": 3726,
    "purp": 8091,
    "ult": 723,
    "Ġdifferently": 10387,
    "Ġcare": 1639,
    "Ġcontour": 18474,
    "nical": 20990,
    "Ġaghast": 16045,
    "alth": 3254,
    "tarpaulins": 26404,
    "Ġgaz": 4043,
    "Ġdisappointing": 19578,
    "Ġstaring": 8823,
    "Ġcombines": 1174,
    "comple": 7441,
    "Ġinsc": 7586,
    "Ġshouldn": 14323,
    "requiem": 24856,
    "speechless": 25395,
    "Ġsundry": 20072,
    "disappeared": 14570,
    "Ġxxxiv": 24969,
    "Ġmassachusetts": 24019,
    "Ġguilty": 7250,
    "leman": 21366,
    "Ġwater": 1948,
    "erative": 21271,
    "z": 94,
    "mar": 4334,
    "brew": 11472,
    "Ġwhisker": 23932,
    "Ġconfirm": 9854,
    "ishness": 22339,
    "ledyard": 22380,
    "Ġcaptioning": 23021,
    "Ġnursed": 16884,
    "Ġslappin": 18942,
    "Ġdoctor": 5067,
    "drovand": 24760,
    "Ġcrunched": 19123,
    "Ġswims": 12116,
    "Ġflies": 13022,
    "ores": 2414,
    "idav": 18092,
    "Ġcataract": 23426,
    "Ġfifth": 11256,
    "Ġvigil": 9505,
    "presently": 9807,
    "Ġgnawed": 25164,
    "Ġrepeat": 8000,
    "Ġmortified": 14693,
    "Ġfixed": 2686,
    "Ġconvers": 2912,
    "Ġprospect": 4705,
    "Ġbouton": 17868,
    "lever": 2937,
    "bout": 20772,
    "Ġnephew": 6404,
    "Ġdie": 3963,
    "Ġtickled": 20055,
    "Ġpurple": 10432,
    "amongst": 24672,
    "Ġunfolding": 17085,
    "Ġmild": 4148,
    "interruption": 20110,
    "Ġtinged": 20081,
    "Ġvesture": 20060,
    "uncomfortable": 18160,
    "Ġhabits": 6926,
    "Ġspanish": 2831,
    "Ġrecollection": 6620,
    "piece": 6655,
    "thinking": 9012,
    "hro": 20890,
    "irting": 11683,
    "ore": 418,
    "dig": 4929,
    "Ġ11": 5318,
    "Ġnib": 13938,
    "Ġdiab": 10610,
    "Ġstrasburgh": 18615,
    "Ġadventurous": 16732,
    "hing": 980,
    "unbe": 21870,
    "Ġcommunion": 19008,
    "lies": 15379,
    "Ġsurvivors": 25732,
    "Ġgrotesque": 26329,
    "eers": 20842,
    "Ġpanted": 21471,
    "compliment": 11363,
    "Ġintend": 12760,
    "Ġtash": 13818,
    "object": 6884,
    "Ġcirculating": 23371,
    "Ġchoosing": 19589,
    "Ġkinds": 14503,
    "Ġstains": 21739,
    "Ġimparted": 15987,
    "give": 4688,
    "acknowledged": 15200,
    "Ġisle": 8831,
    "Ġbrimstone": 25686,
    "Ġunharmed": 15137,
    "Ġsurpassed": 25267,
    "Ġwhiteness": 5919,
    "Ġsurest": 19054,
    "Ġsystem": 570,
    "Ġgemin": 21608,
    "rs": 7808,
    "Ġsecurity": 8976,
    "Ġmoody": 8201,
    "Ġcalf": 16262,
    "prospect": 23394,
    "mish": 17597,
    "Ġmerit": 9425,
    "Ġintroducing": 11972,
    "ect": 381,
    "Ġturbid": 23610,
    "Ġinsinuating": 19270,
    "thinks": 16640,
    "cheeked": 19339,
    "Ġanecd": 20153,
    "Ġbutt": 14124,
    "Ġdistinctions": 18536,
    "Ġassiduous": 26292,
    "oding": 1460,
    "road": 6677,
    "wretchedness": 17251,
    "preference": 22459,
    "oise": 15403,
    "Ġgrotes": 19562,
    "rem": 1524,
    "Ġthroes": 24573,
    "regarding": 15069,
    "Ġbristles": 25843,
    "Ġswings": 11085,
    "Ġsteps": 2868,
    "Ġtransport": 11277,
    "attacked": 23119,
    "oing": 15400,
    "Ġfairer": 20460,
    "else": 6533,
    "undoubtedly": 13308,
    "Ġagainst": 1697,
    "stock": 13219,
    "Ġidea": 2486,
    "Ġfertile": 20581,
    "Ġorgan": 2501,
    "Ġheedful": 19739,
    "Ġbang": 17854,
    "Ġoutstanding": 22314,
    "Ġmending": 17804,
    "Ġwindow": 3000,
    "drifting": 19823,
    "lection": 3652,
    "Ġadmeasurements": 26225,
    "Ġdeadliest": 14556,
    "Ġenough": 1761,
    "ĠĠĠĠĠĠĠĠĠĠĠĠĠĠĠĠĠĠĠĠĠĠĠĠĠĠĠĠĠĠĠĠĠĠĠĠĠĠĠĠĠĠĠĠ": 12150,
    "Ġlimping": 23544,
    "Ġvicious": 24402,
    "severe": 21816,
    "Ġcogent": 14271,
    "Ġirksome": 13109,
    "Ġprosperity": 20256,
    "mr": 1901,
    "Ġxviii": 23408,
    "cnns": 3621,
    "gul": 12462,
    "ĠĠĠĠĠĠĠĠĠĠĠĠĠĠĠĠĠĠĠĠĠĠĠĠ": 5321,
    "circle": 16735,
    "gument": 20884,
    "Ġwarp": 8113,
    "Ġvinegar": 20098,
    "Ġappertaining": 26532,
    "Ġcontribut": 12855,
    "Ġloosened": 26002,
    "Ġattentive": 9032,
    "Ġlou": 6822,
    "Ġimpet": 11776,
    "Ġcents": 17828,
    "Ġreduces": 2345,
    "splash": 25209,
    "Ġcurrents": 13010,
    "Ġharsh": 9519,
    "wishes": 13805,
    "itig": 1332,
    "Ġ37": 24076,
    "Ġfun": 522,
    "Ġscrawled": 24579,
    "Ġsuggested": 8321,
    "tps": 11533,
    "Ġmoot": 22430,
    "surd": 6934,
    "Ġg": 310,
    "conclusion": 25671,
    "Ġmissionary": 25696,
    "Ġimper": 4500,
    "Ġsim": 734,
    "latitude": 25259,
    "Ġsucc": 12782,
    "Ġdecorum": 16018,
    "Ġtemperate": 16161,
    "Ġdrug": 11409,
    "Ġyea": 8915,
    "Ġdatasets": 2390,
    "rict": 8093,
    "Ġringbolts": 24195,
    "Ġclassifies": 11835,
    "Ġlingered": 13503,
    "Ġcretan": 22727,
    "Ġscornful": 24998,
    "most": 1253,
    "sham": 9755,
    "Ġbargain": 23791,
    "Ġswish": 23049,
    "Ġintrig": 21988,
    "isure": 6240,
    "mology": 12488,
    "Ġeasily": 3891,
    "Ġtesting": 23191,
    "Ġadditional": 7936,
    "Ġcircumspect": 15082,
    "pherd": 13642,
    "Ġes": 8768,
    "persecutor": 26529,
    "goose": 19101,
    "Ġlaud": 17967,
    "Ġhatty": 19264,
    "Ġroyals": 19531,
    "theless": 4260,
    "Ġtobacc": 7853,
    "Ġinfidel": 13086,
    "Ġvacantly": 16814,
    "Ġdriver": 16472,
    "Ġjoke": 8867,
    "orney": 17873,
    "government": 25406,
    "Ġ235": 25713,
    "symp": 14610,
    "Ġenvironmental": 24085,
    "Ġthorough": 6245,
    "Ġsmall": 895,
    "roused": 16651,
    "Ġcouple": 5423,
    "Ġdams": 16455,
    "Ġapprehension": 7113,
    "Ġbosom": 6939,
    "Ġaccountability": 10437,
    "aver": 6785,
    "Ġseizure": 21962,
    "Ġfar": 1448,
    "Ġagitation": 6865,
    "Ġfict": 21403,
    "ferent": 4195,
    "Ġsatir": 18793,
    "pendicular": 6499,
    "ghost": 20886,
    "Ġestablished": 9068,
    "Ġrachel": 11844,
    "Ġabsorbing": 17127,
    "Ġcargo": 16288,
    "Ġdimension": 3239,
    "ouder": 17900,
    "ga": 17549,
    "anum": 17835,
    "bodily": 17313,
    "iage": 17572,
    "Ġrubber": 22786,
    "hors": 9597,
    "Ġstandpoint": 23276,
    "Ġfrivolous": 26176,
    "Ġfireboard": 23531,
    "Ġknowingly": 18480,
    "shud": 18485,
    "idays": 21768,
    "expanded": 23664,
    "Ġdodo": 9071,
    "Ġbuckler": 24859,
    "Ġimprecations": 25820,
    "Ġover": 553,
    "Ġcucumber": 21354,
    "perceive": 12808,
    "wed": 5003,
    "falling": 24360,
    "lively": 12481,
    "nihil": 9849,
    "ads": 5718,
    "superstitious": 17279,
    "Ġplying": 17913,
    "Ġ81": 24456,
    "ately": 1712,
    "Ġconstables": 19070,
    "inting": 9812,
    "Ġrumbling": 18213,
    "Ġrepaid": 19082,
    "Ġpreliminaries": 25176,
    "trampled": 26333,
    "Ġbetrayed": 9560,
    "chambers": 25454,
    "Ġmary": 3843,
    "Ġhind": 9187,
    "arab": 21440,
    "Ġpotency": 14645,
    "Ġfelt": 1745,
    "Ġbody": 2437,
    "Ġpausing": 8652,
    "Ġlabour": 7274,
    "ergy": 2362,
    "Ġshan": 9247,
    "intellig": 5320,
    "Ġdesigns": 13012,
    "Ġhandle": 3135,
    "Ġopposed": 11187,
    "Ġseasoned": 24404,
    "Ġsen": 9155,
    "Ġinsight": 16529,
    "Ġnonsensical": 21527,
    "oses": 3946,
    "Ġanxiously": 8290,
    "Ġaugmented": 15103,
    "Ġknife": 7309,
    "Ġtatters": 21176,
    "Ġmight": 964,
    "pivot": 21030,
    "carry": 19525,
    "Ġpalm": 10512,
    "steam": 23957,
    "Ġfoot": 3159,
    "thunder": 10261,
    "Ġsinks": 19548,
    "Ġpil": 5014,
    "Ġvoid": 14084,
    "Ġdespite": 19351,
    "ribbed": 16410,
    "Ġpossesses": 19350,
    "Ġcracks": 12016,
    "deemed": 18315,
    "Ġevanesc": 24293,
    "Ġprolong": 6832,
    "Ġunfathom": 14788,
    "Ġboasting": 19934,
    "Ġunclasp": 26510,
    "knowledge": 7479,
    "ted": 791,
    "Ġbegone": 11914,
    "Ġhereby": 10357,
    "Ġencompassed": 15251,
    "Ġcharm": 4546,
    "Ġusual": 3943,
    "endous": 6850,
    "Ġsped": 22123,
    "Ġalien": 14016,
    "Ġslime": 23158,
    "sets": 17659,
    "occasionally": 13519,
    "duck": 22405,
    "Ġreduce": 7943,
    "Ġmystery": 5509,
    "xible": 13806,
    "Ġcoverage": 4287,
    "prepar": 22460,
    "cull": 20808,
    "abouts": 9450,
    "arrival": 15597,
    "metal": 24765,
    "Ġpawnbroker": 13656,
    "anzas": 17840,
    "Ġconjure": 17122,
    "amous": 15758,
    "Ġthief": 11608,
    "uments": 5551,
    "Ġforbidden": 17077,
    "notches": 22752,
    "Ġangels": 11177,
    "Ġscenery": 11455,
    "Ġpretension": 23763,
    "Ġdepth": 2439,
    "Ġsought": 5010,
    "Ġgilt": 21604,
    "atig": 13843,
    "Ġfasc": 12594,
    "Ġreduced": 11920,
    "Ġdisordered": 16053,
    "iers": 5991,
    "modern": 1133,
    "igation": 5918,
    "written": 7995,
    "Ġcrystal": 17213,
    "âĢĶâĢĻ": 8188,
    "lady": 4432,
    "Ġbelieving": 8225,
    "pointing": 12221,
    "unknown": 10889,
    "Ġdreadfully": 7726,
    "Ġgrapes": 15213,
    "Ġwouldst": 18497,
    "sinking": 17667,
    "Ġgrasp": 4662,
    "hy": 4740,
    "Ġassociate": 13448,
    "Ġencouragement": 13039,
    "does": 6194,
    "Ġconsummation": 17423,
    "Ġmother": 2069,
    "Ġhut": 15616,
    "Ġuseful": 3557,
    "raged": 9210,
    "mouth": 9129,
    "Ġprotect": 6337,
    "Ġmotion": 4564,
    "Ġbleeding": 14878,
    "yl": 7819,
    "latter": 15380,
    "aret": 7417,
    "Ġmoluccas": 25629,
    "gue": 12464,
    "Ġmutiny": 13256,
    "Ġtour": 9146,
    "Ġhappening": 14381,
    "Ġuttermost": 19486,
    "cowardly": 25749,
    "clean": 14759,
    "shipped": 18488,
    "Ġr": 405,
    "x": 92,
    "Ġfishe": 15583,
    "Ġreplaced": 13069,
    "dling": 9110,
    "casks": 20401,
    "Ġdestroyed": 5271,
    "Ġenriched": 26498,
    "Ġhair": 3311,
    "che": 3168,
    "Ġtheology": 21275,
    "deepest": 22824,
    "Ġbloom": 9886,
    "Ġorganically": 3013,
    "Ġtot": 4186,
    "take": 4574,
    "Ġtemporal": 2614,
    "ready": 2361,
    "Ġmoonshine": 19596,
    "Ġbegged": 8231,
    "Ġontario": 26204,
    "Ġdesire": 3718,
    "Ġwidow": 8662,
    "Ġgall": 4350,
    "Ġretreated": 13431,
    "af": 2378,
    "Ġhamp": 12626,
    "Ġinfallible": 15068,
    "Ġdelineate": 26057,
    "Ġheave": 7600,
    "Ġsacrilege": 26228,
    "Ġwrapping": 19774,
    "Ġactivity": 7921,
    "rum": 3416,
    "Ġbaleen": 10035,
    "quarter": 11387,
    "phantoms": 24679,
    "Ġuncovered": 23430,
    "henry": 16624,
    "Ġadvice": 4901,
    "Ġchrist": 4072,
    "Ġfa": 4819,
    "roy": 7854,
    "ool": 17617,
    "aired": 8369,
    "Ġnoses": 18372,
    "whales": 5187,
    "Ġvault": 8839,
    "Ġdismember": 20214,
    "Ġglancing": 5399,
    "Ġmiseries": 10345,
    "Ġnowadays": 18546,
    "venison": 22626,
    "Ġenlivened": 26207,
    "parad": 16401,
    "Ġfinishing": 23122,
    "ences": 1261,
    "âĢľâĢĺ": 1483,
    "caroline": 24148,
    "Ġdro": 2774,
    "Ġgaiters": 20459,
    "Ġproduct": 3533,
    "Ġcritical": 7476,
    "Ġrestore": 9378,
    "Ġtrouble": 3689,
    "Ġrattled": 15066,
    "Ġdisconsolate": 20718,
    "Ġcompares": 20165,
    "Ġadopt": 10631,
    "zwilliam": 5074,
    "Ġrelatives": 12978,
    "iven": 1234,
    "Ġexterm": 21827,
    "Ġtherein": 11773,
    "Ġtrace": 6181,
    "Ġnone": 3223,
    "Ġliked": 5264,
    "Ġtepid": 26411,
    "Ġgame": 3628,
    "Ġiter": 2957,
    "Ġshortly": 6196,
    "Ġmighty": 4230,
    "chains": 9683,
    "dee": 11729,
    "Ġfir": 17877,
    "coffin": 10661,
    "deserted": 18959,
    "Ġtrembled": 8701,
    "Ġproceed": 3241,
    "Ġdeterminate": 23002,
    "Ġcompl": 3760,
    "chastic": 2336,
    "Ġweeps": 24947,
    "Ġsensational": 16387,
    "Ġautonom": 10414,
    "pre": 650,
    "Ġvap": 6837,
    "Ġdisdain": 8360,
    "Ġconviction": 6326,
    "Ġfurnaces": 24002,
    "onious": 15517,
    "confidence": 16807,
    "Ġunconditional": 15842,
    "ram": 13970,
    "Ġgenerally": 4159,
    "Ġminers": 22830,
    "Ġexcited": 5579,
    "pike": 11513,
    "Ġlaudanum": 20689,
    "keel": 14127,
    "recollection": 25348,
    "Ġincreas": 1692,
    "commendation": 26348,
    "espe": 3497,
    "ouse": 1193,
    "Ġvanishing": 1347,
    "Ġdebar": 24270,
    "annica": 24560,
    "Ġbalmy": 22902,
    "ortions": 10947,
    "Ġsoft": 1457,
    "Ġboarding": 12083,
    "Ġleaking": 21743,
    "Ġwhispering": 14943,
    "Ġfrogs": 23920,
    "Ġcausal": 3411,
    "Ġloos": 15869,
    "Ġsnowy": 9016,
    "Ġlapl": 19776,
    "Ġtenement": 23546,
    "Ġcrown": 5287,
    "Ġpri": 5813,
    "Ġbeth": 9656,
    "beloved": 19459,
    "causes": 20342,
    "Ġreputed": 18035,
    "Ġbaltic": 18794,
    "coarse": 16486,
    "roded": 17955,
    "Ġfloating": 6604,
    "those": 4494,
    "Ġhydraulic": 10062,
    "Ġtrooped": 24899,
    "Ġneatly": 17015,
    "infliction": 25924,
    "Ġreus": 8820,
    "Ġserve": 9366,
    "Ġintellect": 8170,
    "range": 3493,
    ";âĢĻ": 15300,
    "mentioning": 24885,
    "Ġtemporarily": 11166,
    "isis": 12575,
    "icuous": 10834,
    "Ġsavoury": 23875,
    "Ġfiner": 13049,
    "oin": 17616,
    "Ġtenderest": 23548,
    "Ġloving": 8176,
    "Ġsickening": 19603,
    "wife": 8101,
    "civility": 17512,
    "dor": 12448,
    "against": 5870,
    "appeared": 4281,
    "christ": 10209,
    "Ġtrial": 6634,
    "Ġrespond": 11175,
    "Ġblacksmith": 6595,
    "riors": 18187,
    "eleg": 20848,
    "swell": 17662,
    "Ġembod": 14417,
    "Ġma": 3251,
    "Ġwester": 25152,
    "Ġinvest": 4978,
    "Ġobstetrics": 24678,
    "sheets": 14440,
    "Ġkicking": 16900,
    "Ġsi": 21211,
    "Ġchace": 14177,
    "Ġ72": 19610,
    "ieties": 19025,
    "Ġneutral": 12737,
    "Ġsoda": 25534,
    "Ġapo": 9629,
    "Ġmorbidness": 20627,
    "Ġprivileged": 20111,
    "Ġconnected": 5393,
    "Ġjove": 9266,
    "Ġve": 1108,
    "scap": 22986,
    ")âĢĶâĢľ": 20742,
    "ware": 3935,
    "andam": 10887,
    "swelled": 19609,
    "continually": 11301,
    "Ġpistol": 7847,
    "Ġpersuas": 23944,
    "aneously": 4059,
    "official": 24914,
    "Ġbern": 17858,
    "magn": 10609,
    "Ġnavies": 16899,
    "heum": 17746,
    "Ġmerchantmen": 19859,
    "Ġrepent": 9861,
    "Ġstun": 11648,
    "miserable": 8656,
    "Ġbeams": 14630,
    "dawson": 26128,
    "ott": 1872,
    "Ġimprove": 1868,
    "Ġexp": 779,
    "reated": 10300,
    "dismay": 19152,
    "ilburn": 18059,
    "tor": 15431,
    "gentlemen": 9502,
    "Ġcrowded": 8012,
    "Ġtangles": 25761,
    "Ġstanders": 19017,
    "Ġrepresenting": 4060,
    "Ġdimensions": 16569,
    "Ġbored": 16103,
    "Ġincluding": 2852,
    "ugues": 19023,
    "ribute": 7227,
    "Ġlikelihood": 16499,
    "30": 20753,
    ".*": 7331,
    "ling": 735,
    "Ġhumaneval": 25582,
    "Ġmoth": 17802,
    "iling": 3092,
    "story": 9211,
    "Ġinput": 609,
    "Ġdisgra": 18549,
    "emason": 18181,
    "Ġbreathlessly": 24279,
    "Ġcommod": 10332,
    "tide": 11531,
    "Ġreco": 9789,
    "Ġeyel": 17095,
    "Ġtested": 23192,
    "Ġbarnacled": 25536,
    "money": 8749,
    "icles": 17972,
    "Ġnote": 4263,
    "Ġgodly": 19080,
    "shoe": 14965,
    "legra": 10788,
    "batross": 9091,
    "strongly": 24684,
    "critters": 14782,
    "Ġobjects": 5577,
    "Ġreusable": 13555,
    "leep": 4633,
    "Ġdomain": 3348,
    "sho": 6425,
    "okingly": 22376,
    "Ġremnants": 22792,
    "Ġdimmed": 24266,
    "ositions": 10282,
    "Ġrashly": 20304,
    "verted": 10216,
    "Ġsphy": 18311,
    "bethink": 25744,
    "Ġserved": 8246,
    "Ġquohog": 10967,
    "Ġveil": 7934,
    "itions": 4149,
    "Ġplainpal": 19276,
    "Ġlicence": 25096,
    "Ġpestilent": 25777,
    "scene": 14416,
    "compan": 7301,
    "Ġbanish": 15567,
    "enthusiastic": 20691,
    "Ġcass": 13877,
    "bat": 8072,
    "Ġwaist": 6892,
    "ĠlinnÃ¦us": 15273,
    "Ġintroduced": 7692,
    "Ġtwelvemonth": 12174,
    "trip": 21090,
    "anite": 17837,
    "Ġattendance": 12178,
    "Ġplay": 2627,
    "Ġvindictiveness": 25738,
    "pursu": 11391,
    "Ġattraction": 18619,
    "ten": 1558,
    "Ġlevel": 5020,
    "Ġmartha": 16258,
    "Ġtedious": 15265,
    "Ġprocession": 11772,
    "Ġalacrity": 15734,
    "Ġbarrel": 23790,
    "Ġlump": 21550,
    "inks": 6869,
    "Ġexample": 5096,
    "bur": 4686,
    "Ġgretna": 26467,
    "alas": 8802,
    "nelson": 25620,
    "Ġcentury": 8291,
    "publ": 17637,
    "A": 37,
    "Ġsuggest": 5417,
    "ckinridge": 11717,
    "Ġorganisation": 23582,
    "Ġstructures": 2722,
    "Ġtrees": 4203,
    "Ġenrolled": 21935,
    "Ġraved": 22646,
    "Ġ150": 22825,
    "Ġconclusions": 10552,
    "Ġhow": 598,
    "impatient": 13638,
    "Ġperplexed": 23660,
    "lives": 12482,
    "imen": 12682,
    "Ġthrilling": 19747,
    "54": 15297,
    "Ġlodge": 5779,
    "nui": 20999,
    "Ġsoar": 18277,
    "bab": 11467,
    "Ġplain": 2820,
    "iters": 21327,
    "Ġah": 5075,
    "Ġsouls": 6308,
    "pressing": 19016,
    "Ġix": 12664,
    "Ġintegrity": 12310,
    "Ġwhipping": 21714,
    "Ġexchanging": 18131,
    "Ġhastily": 5763,
    "masters": 16833,
    "Ġshin": 18227,
    "Ġextremities": 19194,
    "Ġgentlemen": 3642,
    "Ġaglow": 22512,
    "Ġscorn": 7902,
    "Ġlabeled": 3719,
    "Ġsymp": 4501,
    "Ġcauses": 2563,
    "Ġdismast": 12884,
    "ezing": 10572,
    "Ġcheapside": 23286,
    "achines": 1722,
    "screen": 22992,
    "feels": 22499,
    "Ġcard": 7363,
    "Ġmons": 10155,
    "island": 10793,
    "tling": 9141,
    "Ġcollected": 2612,
    "Ġtwilight": 16119,
    "Ò": 147,
    "asp": 3337,
    "Ġwhirl": 13447,
    "assertion": 22309,
    "icit": 3379,
    "Ġrus": 14090,
    "Ġgriev": 16633,
    "Ġaltitude": 26202,
    "assumed": 22306,
    "Ġranged": 10257,
    "destroyed": 15258,
    "Ġhand": 857,
    "Ġmood": 6276,
    "Â": 131,
    "tubes": 25211,
    "Ġaltogether": 4831,
    "Ġcirculation": 16415,
    "Ġmallet": 17810,
    "Ġcontracted": 12856,
    "Ġarithmetic": 18340,
    "Ġsec": 2077,
    "az": 2181,
    "ught": 2755,
    "Ġcompletion": 12144,
    "Ġlanguages": 1571,
    "Ġcoleman": 22585,
    "Ġtwine": 14309,
    "Ġsoo": 15858,
    "spirit": 11312,
    "Ġvacancies": 24344,
    "ques": 2845,
    "!--": 10676,
    "arth": 4442,
    "ended": 1835,
    "Ġpraying": 19553,
    "·": 120,
    "sensibility": 25023,
    "Ġabhorred": 9506,
    "è": 169,
    "Ġimpression": 5732,
    "isters": 11916,
    "ulation": 5458,
    "irements": 22210,
    "explanations": 25234,
    "Ġdeclaration": 16635,
    "Ġhated": 7585,
    "ancholy": 5070,
    "embarrassed": 20595,
    "intolerable": 22936,
    "Ġeye": 2284,
    "rodu": 1819,
    "Ġkeenest": 12158,
    "Ġhooked": 19079,
    "Ġwaving": 8575,
    "ends": 6039,
    "Ġpalp": 11249,
    "Ġwhistling": 19789,
    "Â£": 4812,
    "Ġif": 697,
    "carriage": 9944,
    "--------": 14779,
    "bulk": 19923,
    "Ġspiral": 14583,
    "disapprobation": 19155,
    "grie": 12467,
    "venth": 9293,
    "Ġperceive": 6699,
    "Ġclutched": 13517,
    "thank": 4950,
    "serpent": 16290,
    "talking": 10005,
    "es": 288,
    "ales": 3314,
    "Ġzer": 1093,
    "Ġkrusenstern": 20713,
    "customary": 25895,
    "Ġvapors": 19907,
    "approve": 19935,
    "shri": 14232,
    "Ġderive": 10393,
    "doom": 23375,
    "ide": 721,
    "Ġcraven": 16468,
    "Ġminimax": 5858,
    "itably": 10781,
    "Ġalpha": 13586,
    "Ġstab": 10861,
    "semble": 1527,
    "dance": 17518,
    "Ġiterate": 13199,
    "Ġshave": 21994,
    "orting": 9733,
    "Ġunprepared": 22046,
    "aborate": 14020,
    "icy": 6140,
    "etian": 13957,
    "Ġinevitable": 15165,
    "Ġimp": 586,
    "discern": 14849,
    "Ġalb": 14014,
    "Ġdomineering": 23645,
    "Ġemigrant": 25859,
    "orph": 21397,
    "Ġhatchway": 13523,
    "Ġunjust": 8483,
    "simp": 17664,
    "Ġabutted": 22273,
    "Ġevils": 9018,
    "weeks": 14314,
    "sharks": 14236,
    "Ġjub": 22293,
    "punctual": 26355,
    "Ġaristocratic": 20510,
    "Ġyour": 633,
    "confirmation": 26089,
    "Ġshrew": 21998,
    "ppers": 7618,
    "Ġindulge": 10581,
    "Ġaccept": 4408,
    "relate": 24008,
    "onged": 18410,
    "ception": 6562,
    "Ġwarmest": 16483,
    "Ġslaugh": 18937,
    "Ġheels": 10849,
    "Ġhonoured": 9879,
    "Ġenglishman": 11228,
    "Ġserv": 3326,
    "nerable": 16275,
    "Ġadvertisement": 6941,
    "ificent": 8184,
    "harpo": 4805,
    "Ġrewarding": 13435,
    "Ġexponentially": 1443,
    "missed": 11208,
    "committed": 18738,
    "Ġbonds": 17869,
    "Ġmichael": 20678,
    "Ġwarnings": 16880,
    "Ġdiscernment": 15053,
    "otions": 7180,
    "Ġdealing": 14045,
    "Ġsebastian": 11695,
    "Ġcomprehen": 5349,
    "lead": 10164,
    "ustration": 2263,
    "eye": 6224,
    "Ġpipes": 9846,
    "Ġdetest": 8500,
    "Ġequals": 4726,
    "doubtless": 17001,
    "Ġcooking": 16645,
    "befall": 22492,
    "Ġdin": 3625,
    "Ġske": 4815,
    "Ġstrand": 11825,
    "Ġphantom": 8706,
    "Ġpickle": 16721,
    "past": 8090,
    "Ġexcuses": 19042,
    "gan": 2200,
    "Ġflash": 8230,
    "eler": 1574,
    "Ġfearlessness": 19160,
    "Ġ*": 1270,
    "rets": 12537,
    "Ġgeor": 3388,
    "reduced": 15803,
    "grass": 23411,
    "oton": 3607,
    "Ġscre": 9735,
    "Ġbuckle": 17032,
    "Ġpave": 8798,
    "Ġprovides": 1930,
    "Ġorganizations": 12311,
    "paint": 21017,
    "Ġhighly": 4844,
    "izure": 21832,
    "Ġtolerably": 8068,
    "Ġlabrador": 23330,
    "Ġeternities": 19941,
    "Ġclosely": 6488,
    "Ġinfl": 6893,
    "spot": 9788,
    "Ġstowing": 18071,
    "Ġsaloon": 24060,
    "Ġborders": 15569,
    "Ġjutting": 22299,
    "Ġirons": 7697,
    "Ġpossessed": 5195,
    "hew": 5364,
    "Ġtapping": 10751,
    "Ġtrampling": 25492,
    "Ġboughs": 20487,
    "Ġconceit": 7295,
    "Ġcoldly": 14649,
    "miseries": 16756,
    "oused": 6556,
    "Ġstudy": 1723,
    "Ġpowdered": 24236,
    "Ġrabbit": 4288,
    "ascertain": 21541,
    "ule": 6800,
    "shipping": 10305,
    "Ġdrove": 4984,
    "Ġrepresent": 1212,
    "Ġtormenting": 15102,
    "pect": 1251,
    "Ġforefinger": 16443,
    "laying": 19771,
    "sens": 8096,
    "sa": 8756,
    "Ġhedgehogs": 25394,
    "Ġneat": 6999,
    "Ġdistant": 5387,
    "expound": 23662,
    "frank": 7758,
    "aloft": 8805,
    "pier": 17634,
    "patient": 25342,
    "Ġtex": 15471,
    "Ġseptember": 18207,
    "Ġaccount": 2322,
    "Ġburst": 4378,
    "oir": 21001,
    "perfectly": 9084,
    "lour": 15378,
    "Ġprospects": 9957,
    "oder": 2460,
    "Ġsund": 8248,
    "Ġlatin": 16820,
    "iracle": 11242,
    "Ġpharaoh": 26584,
    "properly": 24918,
    "Ġ122": 24466,
    "Ġconsolidation": 5060,
    "Ġfug": 12591,
    "Ġrue": 11864,
    "Ġwool": 19431,
    "Ġfangs": 12593,
    "dishonourable": 26365,
    "Ġenthr": 22745,
    "Ġwrath": 16317,
    "Ġvivacity": 14939,
    "Ġtraitors": 23077,
    "Ġrecommended": 8667,
    "urous": 10211,
    "soo": 18687,
    "Ġworld": 1597,
    "Ġmeditation": 16679,
    "ultaneous": 18582,
    "noted": 22751,
    "Ġbloody": 9887,
    "got": 6955,
    "Ġnautical": 17384,
    "Ġgrimes": 11033,
    "english": 2777,
    "Ġantichron": 24180,
    "Ġimprovements": 14513,
    "Ġsocially": 22082,
    "pretending": 17040,
    "asse": 15642,
    "Ġopinion": 3140,
    "lean": 21363,
    "Ġpasture": 14543,
    "Ġmagician": 25058,
    "ory": 1078,
    "counter": 20277,
    "lar": 4482,
    "dances": 17520,
    "er": 269,
    "Ġhenry": 5197,
    "Ġstories": 10864,
    "Ġabstra": 22269,
    "Ġfevers": 22206,
    "Ġfamil": 4319,
    "Ġmonsters": 11073,
    "uzz": 4522,
    "Ġpennies": 17269,
    "meant": 7922,
    "sequ": 2402,
    "unteered": 26494,
    "Ġi": 312,
    "scra": 13018,
    "lasting": 8011,
    "saying": 8640,
    "Ġstandard": 14496,
    "Ġrespecting": 14482,
    "Ġundulating": 19516,
    "ulates": 14053,
    "fail": 17539,
    "Ġers": 15459,
    "elling": 5830,
    "Ġvalu": 5039,
    "Ġshr": 4226,
    "retrie": 18922,
    "Ġcomforters": 25800,
    "Ġinform": 998,
    "ments": 1401,
    "Ġseaward": 22945,
    "Ġoutsk": 15954,
    "individual": 18436,
    "Ġgrud": 17995,
    "Ġnimble": 21526,
    "conced": 22466,
    "der": 467,
    "Ġneatness": 19931,
    "Ġcringed": 25942,
    "necessary": 5882,
    "Ġpaused": 5416,
    "Ġevalu": 3277,
    "Ġbrig": 11046,
    "Ġhonor": 5664,
    "ities": 1827,
    "Ġunfor": 15837,
    "Ġallude": 12767,
    "Ġgrecian": 26296,
    "Ġgenerations": 10964,
    "Ġsutherland": 10147,
    "Ġreck": 6537,
    "piling": 15414,
    "grin": 19105,
    "Ġexercised": 24803,
    "Ġlightly": 13081,
    "sharp": 10304,
    "Ġretrogression": 26580,
    "Ġroutine": 13506,
    "Ġ35": 24075,
    "Ġcondense": 21806,
    "Ġbenevolent": 7773,
    "Ġfinanc": 23125,
    "Ġstreet": 2961,
    "Ġaright": 11737,
    "Ġ]": 15458,
    "Ġantiqu": 12141,
    "Ł": 258,
    "Ġconcernment": 23621,
    "Ġfailure": 13312,
    "arched": 10814,
    "Ġcroquet": 9960,
    "ę": 218,
    "Ġfished": 21409,
    "Ġcontains": 2796,
    "omp": 2472,
    "Ġobliquely": 12359,
    "Ġwithdraw": 16963,
    "Ġextreme": 2514,
    "Ġdanish": 21430,
    "curiosity": 8623,
    "arms": 10172,
    "ensions": 14257,
    "Ġlxi": 21559,
    "dorff": 15235,
    "wishing": 21127,
    "tumult": 12420,
    "jammed": 25906,
    "Ġcrest": 12938,
    "ph": 906,
    "barn": 17481,
    "quin": 21845,
    "orus": 10800,
    "Ġdazed": 15593,
    "Ġverdant": 15001,
    "Ġsord": 21218,
    "dissatisf": 26129,
    ".âĢĿ": 464,
    "ell": 398,
    "Ġhovel": 8254,
    "Ġstatements": 7517,
    "Ġtren": 17720,
    "robotics": 11305,
    "steps": 9403,
    "Ġinquirers": 24964,
    "coloured": 7291,
    "isco": 12577,
    "ahawk": 23315,
    "outer": 9667,
    "considerably": 13443,
    "exasper": 22427,
    "below": 12118,
    "elder": 21570,
    "figure": 13553,
    "mean": 6438,
    "ially": 9244,
    "Ġcrowds": 14737,
    "Ġstick": 6026,
    "Ġprobable": 5569,
    "Ġimpass": 15984,
    "Ġsand": 6235,
    "bec": 4052,
    "Ġreser": 5170,
    "hounds": 20906,
    "Ġcrawl": 11374,
    "Ġrushed": 4087,
    "Ġmining": 22828,
    "Ġmingled": 12374,
    "Ġmisunderstood": 18707,
    "Ġexcessively": 9438,
    "Ġhiding": 9821,
    "Ġoriginate": 24121,
    "intern": 23734,
    "arily": 4126,
    "ating": 663,
    "country": 6103,
    "Ġgeneva": 5450,
    "ich": 470,
    "Ġwithhold": 18115,
    "Ġtart": 12524,
    "Ġregain": 22577,
    "Ġresolves": 23649,
    "ieces": 4772,
    "Ġre": 317,
    "Ġempt": 5051,
    "Ġrevellers": 21676,
    "ote": 4594,
    "Ġsunbeam": 23274,
    "Ġbewildered": 15211,
    "Ġoverflowed": 20261,
    "Ġpatter": 835,
    "elements": 25203,
    "orand": 21395,
    "Ġfavour": 3641,
    "Ġglistened": 20171,
    "eenth": 12457,
    "uture": 1084,
    "cket": 3686,
    "Ġuncork": 23428,
    "continuance": 19717,
    "89": 20758,
    "unforeseen": 21886,
    "soon": 4028,
    "Ġlinn": 13951,
    "Ġevaporate": 26332,
    "Ġrow": 5310,
    "bearded": 18522,
    "Ġuntutored": 19165,
    "itely": 5365,
    "Ġsw": 1356,
    "Ġpersonally": 8598,
    "Ġvigorously": 11298,
    "Ġpublished": 11240,
    "Ġ119": 24440,
    "Ġcourage": 4632,
    "Ġfirm": 3871,
    "Ġprender": 22233,
    "ket": 17581,
    "ability": 717,
    "Ġdownwards": 8529,
    "Ġmoderation": 12814,
    "Ġearliest": 9829,
    "Ġsallies": 21228,
    "Ġruefully": 17299,
    "resum": 17760,
    "Ġcompar": 4771,
    "plexy": 18575,
    "Ġaccumulation": 2693,
    "Ġterm": 2270,
    "eager": 12456,
    "Ġquit": 5246,
    "Ġleaps": 14006,
    "Ġrobes": 16273,
    "Ġruskin": 25808,
    "deserving": 17240,
    "sky": 12507,
    "itional": 22472,
    "Ġunexampled": 20358,
    "Ġopposition": 16520,
    "Ġattached": 5392,
    "Ġpressing": 9259,
    "seas": 14031,
    "Ġfarewell": 9518,
    "Ġtenderly": 11313,
    "Ġsearch": 2591,
    "computer": 1974,
    "Ġelevating": 19727,
    "ature": 517,
    "Ġwant": 1122,
    "Ġspeaks": 11158,
    "Ġcorroded": 18875,
    "halfway": 24310,
    "Ġhuggins": 24828,
    "Ġencouraged": 9353,
    "Ġdirector": 18920,
    "Ġtorrid": 25032,
    "helping": 23136,
    "far": 5787,
    "allow": 5104,
    "tender": 14472,
    "Ġcountryside": 23595,
    "Ġadvancing": 6878,
    "heart": 4524,
    "Ġinvari": 6529,
    "ines": 680,
    "Ġlan": 5820,
    "D": 40,
    "Ġintrospect": 15826,
    "loud": 11499,
    "Ġpolar": 9409,
    "Ġarranged": 9875,
    "Ġattaining": 15801,
    "Ġembarrassed": 11383,
    "Ġkey": 2103,
    "needle": 20312,
    "lightning": 16550,
    "Ġoutput": 931,
    "mort": 10709,
    "ogy": 22711,
    "rin": 10120,
    "Ġdissuade": 26256,
    "Ġconvention": 25546,
    "Ġlun": 7856,
    "Ġsharkish": 24502,
    "riptions": 14793,
    "Ġcheerless": 16693,
    "Ġinnoc": 3794,
    "Ġpitiful": 13236,
    "ital": 4817,
    "Ġpanting": 11601,
    "leagued": 26434,
    "Ġloathing": 15067,
    "Ġperished": 11781,
    "Ġlacepede": 20493,
    "kl": 4865,
    "Ġsuppressed": 11908,
    "ounding": 22381,
    "accursed": 20539,
    "ailed": 3245,
    "Ġvoyage": 3053,
    "Ġmiss": 1228,
    "rip": 9239,
    "dil": 11477,
    "Ġroods": 22414,
    "Ġwrap": 24595,
    "Ġitaly": 10866,
    "heading": 5487,
    "Ġtop": 2471,
    "Ġprisoner": 8672,
    "water": 4868,
    "rees": 5436,
    "Ġremark": 2148,
    "Ġgroves": 16739,
    "ulnerable": 18150,
    "Ġprotracted": 19467,
    "mechanical": 25577,
    "Ġfit": 3683,
    "twinkle": 23702,
    "Ġunfulfilled": 26508,
    "|": 96,
    "separ": 9229,
    "Ġcandelab": 23846,
    "arpening": 21442,
    "els": 1763,
    "Ġfugitive": 17325,
    "Ġdynamic": 5124,
    "Ġtigers": 25758,
    "outre": 18321,
    "Ġaccost": 12842,
    "Ġbracing": 16578,
    "bolt": 25135,
    "Ġcharted": 22248,
    "Ġgreeks": 20011,
    "Ġseaman": 8638,
    "sigma": 3005,
    "yours": 7696,
    "generations": 23784,
    "Ġundeceive": 25552,
    "brushing": 20787,
    "old": 800,
    "Ġtig": 13811,
    "Ġtim": 4576,
    "Ġexped": 7651,
    "would": 2353,
    "creat": 20799,
    "Ġgalvan": 21615,
    "attery": 18508,
    "Ġcontradict": 12382,
    "count": 4214,
    "life": 4932,
    "Ġvicissitudes": 12416,
    "Ġprotesting": 14739,
    "Ġgover": 2462,
    "Ġembellished": 25850,
    "Ġfeelingly": 22995,
    "adler": 21760,
    "cially": 3489,
    "spoke": 11023,
    "stripped": 16944,
    "Ġastern": 6091,
    "Ġsemicirc": 16388,
    "reputable": 15516,
    "Ġrekindled": 21675,
    "Ġgems": 9207,
    "excellent": 8044,
    "Ġsuffered": 5649,
    "artificial": 989,
    "Ġbloodthirst": 23800,
    "Ġminister": 18751,
    "shattered": 22447,
    "Ġgree": 7595,
    "Ġbehaves": 23299,
    "pale": 13770,
    "Ġcategories": 4476,
    "opes": 10309,
    "Ġdivinest": 25722,
    "Ġbased": 3336,
    "abs": 11665,
    "Ġdavy": 25951,
    "autumn": 23342,
    "Ġkid": 9723,
    "Ġlandsmen": 11350,
    "Ġjen": 9265,
    "heav": 5694,
    "Ġram": 11011,
    "Ġdarling": 12600,
    "restraint": 18979,
    "visited": 13345,
    "Ġoverwhelming": 17101,
    "suffered": 24333,
    "Ġawkwardness": 13485,
    "Ġpreposter": 12818,
    "outs": 7008,
    "acey": 7650,
    "Ġcalifornia": 20528,
    "iogn": 20920,
    "Ġdishon": 12227,
    "Ġinscrut": 10032,
    "Ġansw": 2208,
    "bones": 8372,
    "Ġmalay": 24390,
    "Ġindex": 17048,
    "Ġelse": 2480,
    "Ġrippling": 17276,
    "Ġauthority": 7749,
    "enari": 21280,
    "Ġcoats": 16074,
    "by": 1158,
    "Ġqu": 604,
    "pertaining": 22186,
    "Ġcrash": 11998,
    "Ġentrance": 7233,
    "hatch": 15362,
    "Ġquiver": 15999,
    "Ġforster": 5230,
    "london": 9608,
    "akened": 7415,
    "despatched": 19800,
    "Ġhunted": 7453,
    "grace": 5846,
    "Ġilliterate": 26593,
    "regards": 23465,
    "esty": 4305,
    "ource": 5244,
    "Ġyoke": 18095,
    "brilliancy": 26077,
    "Ġhid": 1318,
    "herds": 22203,
    "Ġenergy": 2553,
    "call": 8722,
    "Ġdeed": 7869,
    "Ġplowdon": 26446,
    "Ġcontr": 1915,
    "Ġunaccount": 22023,
    "share": 14233,
    "bble": 17483,
    "Ġkiss": 8183,
    "nns": 1893,
    "Ġear": 1421,
    "Ġeliminating": 20618,
    "Ġbordering": 17227,
    "Ġsof": 18276,
    "drugg": 20837,
    "Ġcompos": 22567,
    "vill": 10734,
    "Ġbritain": 16955,
    "rmsprop": 4520,
    "threat": 10899,
    "ards": 2503,
    "houses": 9598,
    "Ġwee": 21916,
    "isk": 9166,
    "insanity": 23067,
    "ohog": 9842,
    "Ġrabb": 4165,
    "Ġdefile": 18823,
    "sartain": 25622,
    "atter": 658,
    "Ġprone": 18968,
    "ural": 502,
    "erity": 21266,
    "Ġinglorious": 24423,
    "Ġcircumference": 13543,
    "Ġ199": 3011,
    "Ġliberated": 19665,
    "stopping": 19348,
    "Ġbred": 9168,
    "Ġestim": 3346,
    "Ġboundless": 10494,
    "Ġdoubloon": 6945,
    "âĢĿ--": 21814,
    "Ġnav": 5818,
    "decided": 13213,
    "philosophers": 25252,
    "da": 17513,
    "Ġrebell": 21667,
    "Ġce": 3031,
    "Ġmortally": 23914,
    "Ġmari": 6813,
    "ino": 15478,
    "Ġcontrols": 1731,
    "Ġspace": 1521,
    "Ġther": 17777,
    "Ġeconomical": 25287,
    "Ġexcite": 11963,
    "scoured": 22989,
    "beh": 5472,
    "ogn": 2513,
    "gether": 1596,
    "Ġconsp": 10223,
    "Ġnorth": 4318,
    "Ġfarthest": 23114,
    "Ġalexander": 17422,
    "heartily": 24214,
    "cold": 9588,
    "iries": 18169,
    "Ġsucking": 12784,
    "urre": 10855,
    "Ġbind": 12578,
    "Ġxlix": 25860,
    "alog": 8803,
    "etting": 21578,
    "illings": 14141,
    "Ġruminated": 24600,
    "Ġpicturesqueness": 24479,
    "ostent": 16845,
    "Ġappearances": 10450,
    "married": 9947,
    "Ġtailed": 21167,
    "Ġren": 3845,
    "Ġinward": 11605,
    "Ġpatent": 11959,
    "Ġhogshead": 26367,
    "Ġnicely": 8708,
    "Ġpeculiarities": 12067,
    "Ġspin": 7630,
    "Ġson": 2986,
    "beef": 18523,
    "mary": 8748,
    "Ġwander": 9030,
    "Ġuneasy": 8661,
    "Ġcharcoal": 19007,
    "Ġob": 859,
    "Ġcustom": 5078,
    "Ġscarlet": 13220,
    "Ġtrough": 15973,
    "Ġdiscredit": 22781,
    "Ġbachel": 7158,
    "main": 8088,
    "eminence": 20097,
    "Ġneuron": 1808,
    "Ġpauper": 26179,
    "your": 1986,
    "icherry": 15133,
    "Ġpretty": 3861,
    "Ġfollies": 16253,
    "Ġmicrosc": 20675,
    "parlour": 16403,
    "drew": 7334,
    "Ġlatitude": 8329,
    "Ġguest": 7249,
    "Ġadequately": 15196,
    "Ġfrocks": 23919,
    "habit": 16188,
    "iating": 3204,
    "conducted": 25572,
    "Ġcelebrate": 26357,
    "cav": 17506,
    "Ġorder": 1685,
    "Ġmad": 2427,
    "Ġtram": 11091,
    "express": 4895,
    "Ġdistillation": 16043,
    "Ġsituated": 9445,
    "Ġsofa": 10268,
    "Ġreaped": 18029,
    "Ġlanyard": 26460,
    "83": 13678,
    "trying": 15437,
    "Ġvisitors": 7985,
    "yt": 17710,
    "Ġconv": 2973,
    "Ġbacked": 12922,
    "network": 1885,
    "Ġactive": 7916,
    "Ġequinoctial": 20531,
    "anous": 21357,
    "ertips": 23639,
    "Ġsteak": 9828,
    "ientious": 11688,
    "whalebone": 19118,
    "course": 6104,
    "Ġconciliating": 19047,
    "Ġcarpent": 4464,
    "Ġsepar": 4000,
    "Ġkeeps": 8267,
    "Ġsteadfast": 8678,
    "Ġtimor": 24223,
    "precision": 4330,
    "Ġmanhood": 22324,
    "Ġpersons": 6178,
    "Ġeaten": 14843,
    "Ġspectacle": 10495,
    "Ġeste": 6085,
    "Ġadmire": 5263,
    "regarded": 12004,
    "Ġrenew": 6145,
    "ondescript": 22915,
    "Ġcuvier": 9164,
    "Ġhermit": 15855,
    "Ġy": 341,
    "Ġgeneralization": 984,
    "Ġmurdering": 14809,
    "Ġdiscomposure": 20377,
    "moments": 19410,
    "mon": 2310,
    "Ġassign": 11109,
    "Ġmiserably": 12944,
    "Ġfanning": 23388,
    "opinion": 10983,
    "Ġbrittle": 22862,
    "Ġexerting": 21830,
    "Ġsilken": 16380,
    "Ġthunders": 15635,
    "speed": 19407,
    "Ġphilosophy": 7103,
    "affold": 16560,
    "Ġwonderfully": 10429,
    "oled": 17618,
    "favouring": 24762,
    "Ġneglecting": 25007,
    "prodigious": 17465,
    "Ġapparatus": 24908,
    "amid": 12720,
    "Ġtacit": 21173,
    "Ġgrounds": 6749,
    "loom": 18539,
    "church": 8140,
    "shadow": 20311,
    "Ġincul": 22547,
    "Ġprovidence": 18745,
    "Ġsurgeons": 23463,
    "Ġbrill": 8549,
    "meditation": 19066,
    "Ġexperience": 1353,
    "Ġsuspicious": 9478,
    "Ġdocuments": 10021,
    "Ġfollows": 7674,
    "treasures": 26152,
    "izers": 18134,
    "Ġdisquis": 22525,
    "Ġbert": 4580,
    "ĠĠĠĠĠĠĠĠĠĠĠĠĠĠĠĠĠĠĠ": 22948,
    "eyeing": 14944,
    "volume": 18600,
    "Ġhammer": 6094,
    "Ġshoving": 23489,
    "Ġcensure": 15093,
    "Ġunhing": 18241,
    "Ġimperial": 9479,
    "ivered": 7005,
    "Ġout": 542,
    "Ġmatrices": 4969,
    "Ġgi": 15663,
    "fish": 3514,
    "earthly": 24724,
    "plumed": 21953,
    "onel": 3088,
    "uniform": 18157,
    "Ġbringing": 5869,
    "cock": 12022,
    "Ġmelted": 19620,
    "Ġintermix": 22575,
    "Ġxi": 16428,
    "Ġterrific": 6754,
    "repugnance": 16863,
    "Ġbade": 9170,
    "contained": 22468,
    "Ġunerring": 15845,
    "Ġecon": 9676,
    "fishery": 10030,
    "Ġidleness": 11142,
    "Ġdrows": 21434,
    "mbling": 3342,
    "direct": 12453,
    "Ġwhaling": 2786,
    "Ġwilled": 21290,
    "Ġadjusted": 23457,
    "Ġtravell": 5575,
    "Ġincarnate": 20373,
    "Ġagrippa": 11804,
    "Ġsli": 4748,
    "Ġcake": 12566,
    "Ġlimits": 3454,
    "Ġsettling": 11061,
    "Ġcabman": 14604,
    "Ġqualifications": 24675,
    "Ġcheer": 4066,
    "prove": 11146,
    "Ġjinglers": 26018,
    "disposed": 25010,
    "ounds": 4158,
    "att": 1455,
    "violent": 14579,
    "Ġmach": 13855,
    "Ġexclude": 19041,
    "ton": 1726,
    "andish": 18153,
    "Ġcorrespondent": 19821,
    "Ġaccess": 9745,
    "Ġke": 1156,
    "inspect": 11557,
    "Ġignorantly": 19494,
    "Ġcoarse": 14272,
    "Ġvolat": 24143,
    "Ġyawned": 15050,
    "Ġworker": 23005,
    "Ġpoul": 15610,
    "urp": 1471,
    "rary": 4573,
    "Ġrepine": 16408,
    "Ġ10": 5249,
    "Ġpresence": 5031,
    "ppa": 10238,
    "betrayed": 24640,
    "Ġhandspike": 22694,
    "norm": 20984,
    "bearance": 22491,
    "fit": 6645,
    "Ġaustrian": 24299,
    "Ġsam": 7570,
    "Ġprogen": 14037,
    "pious": 17632,
    "Ġhandsom": 11123,
    "Ġthirteen": 15272,
    "previously": 17206,
    "description": 11093,
    "ourable": 4967,
    "Ġrooms": 5180,
    "embra": 14072,
    "Ġess": 5691,
    "aly": 1125,
    "halloa": 17089,
    "Ġcharacteristically": 23690,
    "Ġnaturally": 2467,
    "Ġclimes": 12837,
    "deliber": 17424,
    "Ġventured": 7502,
    "ruding": 9722,
    "Ġlawn": 7379,
    "mong": 15387,
    "Ġseemed": 1277,
    "fitzwilliam": 11351,
    "Ġperil": 5556,
    "conclude": 24064,
    "mistak": 16877,
    "reliable": 21239,
    ";--": 8069,
    "aper": 4999,
    "Ġnext": 2141,
    "Ġblue": 3455,
    "Ġstalked": 20427,
    "ublic": 11226,
    "Ġlike": 668,
    "separation": 25226,
    "Ġannounced": 9033,
    "Ġflights": 24753,
    "Ġhedge": 8364,
    "Ġpens": 21459,
    "Ġcontemplation": 11356,
    "Ġrowing": 10299,
    "Ġdepicting": 22606,
    "Ġsings": 15504,
    "guilt": 24067,
    "anish": 2618,
    "osely": 9263,
    "Ġtroub": 22363,
    "elter": 21569,
    "Ġcolumb": 22852,
    "Ġbride": 6291,
    "odiac": 14026,
    "Ġpretending": 19314,
    "Ġanomaly": 25636,
    "doors": 19094,
    "fancy": 7337,
    "fooled": 24418,
    "Ġvows": 15806,
    "bering": 18683,
    "Ġperchance": 15989,
    "Ġcan": 469,
    "rived": 5373,
    "Ġconsistence": 23355,
    "hood": 2660,
    "shriek": 20518,
    "Ġtoils": 10184,
    "Ġsentry": 19026,
    "Ġbennet": 1577,
    "Ġhaving": 1880,
    "gradient": 2277,
    "ause": 1313,
    "Ġchallenges": 13628,
    "?--": 15301,
    "knife": 6942,
    "Ġpan": 5082,
    "uarded": 21104,
    "Ġamazing": 9975,
    "Ġworried": 22924,
    "Ġwintry": 17432,
    "absolut": 8458,
    "Ġsk": 961,
    "ar": 285,
    "drawers": 19384,
    "Ġringed": 16749,
    "Ġbaffled": 12400,
    "swam": 24253,
    "ject": 875,
    "Ġshipmates": 6720,
    "enance": 3372,
    "Ġsolitudes": 22884,
    "Ġelated": 18632,
    "lat": 9603,
    "Ġcottagers": 6761,
    "Ġbewit": 15725,
    "Ġsymbols": 2800,
    "rule": 15890,
    "Ġhammers": 13238,
    "nnight": 20992,
    "Ġprodigious": 8057,
    "discoveries": 25385,
    "Ġprimal": 17106,
    "Ġcod": 8412,
    "Ġsealed": 15816,
    "Ġpred": 661,
    "dham": 20829,
    "Ġsolely": 9908,
    "Ġrejoicing": 13419,
    "Ġtwee": 22673,
    "Ġsalt": 8017,
    "Ġshed": 8181,
    "Ġsill": 10764,
    "Ġcultured": 25154,
    "Ġengland": 3857,
    "pon": 17624,
    "Ġpremises": 10486,
    "Ġcustoms": 19651,
    "ĠâĢĻ": 3042,
    "Ġpresumably": 19623,
    "mbly": 9793,
    "has": 4014,
    "Ġlegend": 14574,
    "Ġecc": 11626,
    "utted": 15658,
    "Ġoppressively": 25712,
    "jolly": 20930,
    "Ġshows": 8482,
    "iring": 1706,
    "ĠĠĠĠĠĠĠĠĠĠĠĠĠĠĠĠĠĠĠĠĠĠĠĠĠĠĠĠĠĠĠĠĠĠĠĠĠĠĠĠĠĠĠĠĠĠĠĠĠĠĠĠĠĠĠĠĠĠĠĠ": 19259,
    "Ġcolt": 11042,
    "Ġrepairing": 25589,
    "Ġkne": 4266,
    "Ġequally": 5257,
    "Ġplacing": 8899,
    "Ġmoves": 14230,
    "Ġcry": 3495,
    "Ġinfiltrated": 23281,
    "earliest": 20118,
    "Ġrender": 8305,
    "Ġinn": 4588,
    "Ġcompetent": 11813,
    "Ġsimply": 7218,
    "Ġcalls": 6744,
    "Ġprosecution": 12378,
    "stories": 18020,
    "Ġrights": 10395,
    "peddling": 24696,
    "Ġ120": 16857,
    "Ġprejudices": 13467,
    "rods": 21536,
    "Ġrenders": 13281,
    "audible": 17131,
    "Ġunfaltering": 24112,
    "Ġt": 261,
    "Ġsailors": 4276,
    "bath": 13687,
    "Ġflying": 5413,
    "hamed": 6305,
    "Ġfeathers": 15117,
    "Ġenvironment": 4013,
    "unted": 6998,
    "Ġaboriginal": 14187,
    "Ġboom": 9308,
    "peleg": 16292,
    "Ġhoist": 11973,
    "Ġmorals": 22973,
    "Ġgraces": 18225,
    "Ġdecided": 5471,
    "Ġrejo": 5916,
    "Ġsnarled": 25716,
    "odecim": 9830,
    "Ġmincer": 14364,
    "plied": 10253,
    "scorched": 25697,
    "î": 175,
    "Ġaccompl": 5167,
    "Ġseldom": 4628,
    "Ġcylinders": 25943,
    "Ġaccounted": 10293,
    "Ġdam": 2219,
    "Ġseat": 4949,
    "Ġscraggy": 24578,
    "Ġneeded": 7718,
    "terday": 4704,
    "Ġsheep": 10925,
    "Ġenglish": 3614,
    "arling": 10813,
    "Ġkindliness": 23293,
    "Ġknave": 11271,
    "supervised": 1970,
    "read": 3273,
    "ensed": 10994,
    "Ġeas": 2354,
    "Ġunmannerly": 26516,
    "vil": 2735,
    "mare": 17598,
    "Ġprovided": 6577,
    "Ġghostly": 24650,
    "prit": 19340,
    "eland": 11618,
    "ming": 3601,
    "infor": 2826,
    "pth": 2383,
    "Ġjunk": 15951,
    "arken": 18667,
    "Ġcocoanuts": 26362,
    "Ġrescued": 24205,
    "dick": 11478,
    "Ġrapidly": 3185,
    "hatches": 19927,
    "Ġrele": 2922,
    "Ġaffinity": 18786,
    "Ġtiar": 21166,
    "Ġdisclose": 16154,
    "Ġsubst": 4273,
    "voices": 21116,
    "Ġdebt": 12164,
    "aspect": 10192,
    "Ġshaking": 6551,
    "Ġjoist": 19230,
    "Ġaffl": 14384,
    "iance": 5279,
    "hour": 7340,
    "yed": 3270,
    "shone": 22441,
    "Ġparson": 6687,
    "Ġpine": 8795,
    "oles": 21004,
    "Ġcust": 11580,
    "entials": 22657,
    "Ġcharley": 19006,
    "night": 2168,
    "Ġunsupervised": 2543,
    "Ġbelief": 5855,
    "Ġfl": 1281,
    "cloudless": 20331,
    "Ġcrav": 19172,
    "Ġunrel": 14694,
    "Ġdestruction": 6600,
    "Ġattent": 4359,
    "Ġspeculations": 22996,
    "Ġembrace": 16989,
    "Ġlid": 6983,
    "mir": 20962,
    "Ġorph": 9715,
    "Ġavocation": 23950,
    "Ġoutfits": 22319,
    "gno": 13725,
    "Ġpint": 17909,
    "Ġmonomaniac": 9567,
    "cake": 20803,
    "Ġcl": 552,
    "worse": 14689,
    "Ġceti": 24773,
    "Ġseeks": 14300,
    "Ġsho": 2249,
    "Ġswerve": 14435,
    "Ġmir": 9645,
    "Ġnewspaper": 12361,
    "Ġsemi": 11965,
    "Ġsubterraneous": 20264,
    "Ġdevils": 7230,
    "Ġreflecting": 24751,
    "Ġfreedom": 9081,
    "Ġparlor": 13538,
    "Ġquarrel": 7292,
    "Ġattacks": 12201,
    "gown": 9595,
    "/": 19,
    "contr": 12054,
    "lovel": 22509,
    "cig": 17502,
    "Ġ179": 19753,
    "Ġdaybreak": 18727,
    "const": 5939,
    "Ġlucas": 3832,
    "Ġdef": 1202,
    "zz": 4292,
    "momentum": 4991,
    "Ġgamy": 17998,
    "contrasted": 17304,
    "Ġantip": 24176,
    "Ġpersuading": 19408,
    "Ġvial": 10247,
    "Ġtell": 1467,
    "Ġclerks": 17293,
    "covered": 11476,
    "Ġaisle": 21200,
    "Ġassertions": 19945,
    "Ġgips": 10840,
    "Ġexplain": 545,
    "favourite": 15141,
    "Ġunreasonable": 12773,
    "Ġinjured": 9038,
    "Ġformations": 18748,
    "ded": 2422,
    "axing": 18547,
    "ade": 881,
    "Ġfeasts": 25369,
    "Ġformula": 2870,
    "anging": 3550,
    "athed": 7829,
    "page": 13769,
    "Ġahab": 1215,
    "oquence": 11385,
    "Ġhumiliating": 22880,
    "Ġlimited": 23543,
    "Ġsickly": 16773,
    "par": 1916,
    "orily": 15570,
    "haps": 1671,
    "once": 5904,
    "Ġjapan": 7640,
    "Ġagreeing": 20017,
    "itory": 12563,
    "Ġvictoria": 14871,
    "Ġservices": 11216,
    "Ġpermitted": 9276,
    "Ġstarts": 16580,
    "Ġeh": 6987,
    "humor": 19450,
    "Ġexploding": 2110,
    "Ġdecayed": 22823,
    "Ġquietude": 19358,
    "Ġasks": 5115,
    "Ġpunctual": 17136,
    "Ġneedle": 8275,
    "Ġblandly": 20322,
    "strangers": 20335,
    "relative": 24010,
    "Ġrans": 21964,
    "Ġunconnected": 18242,
    "Ġgrow": 2865,
    "Ġtiger": 11553,
    "Ġrecital": 16140,
    "Ġnorm": 763,
    "Ġforest": 9869,
    "gives": 15355,
    "protruding": 24816,
    "Ġbuttoning": 17234,
    "Ġornamented": 20360,
    "Ġdescription": 7429,
    "court": 7512,
    "Ġfabulous": 25948,
    "Ġchoked": 9262,
    "Ġshare": 1657,
    "plague": 21951,
    "walking": 9980,
    "orously": 8419,
    "Ġenduring": 16302,
    "pos": 15409,
    "Ġprom": 1531,
    "receive": 12538,
    "Ġspite": 4157,
    "Ġpublisher": 24063,
    "iod": 3839,
    "Ġrepelled": 19085,
    "Ġcompassionate": 24723,
    "Ġbart": 17857,
    "Ġmethods": 3157,
    "Ġmabel": 17322,
    "ears": 20844,
    "female": 20665,
    "ary": 987,
    "Ġrom": 4523,
    "Ġinsignificant": 20455,
    "Ġdepartments": 24241,
    "Ġleak": 2161,
    "southern": 20407,
    "Ġmaled": 21313,
    "Ġbrightened": 23826,
    "Ġperch": 10297,
    "Ġpulverize": 23391,
    "Ġtale": 5142,
    "âĢĶâĢĺ_": 24831,
    "Ġactiv": 834,
    "Ġsilver": 7464,
    "Ġquicker": 16506,
    "Ġforswe": 21772,
    "Ġglitter": 25122,
    "Ġawa": 7714,
    "plenty": 14086,
    "Ġbland": 11063,
    "Ġmostly": 7665,
    "Ġjohn": 5032,
    "Ġblank": 5951,
    "oriented": 2952,
    "Ġcombined": 8548,
    "Ġcaval": 25769,
    "league": 17844,
    "Ġguido": 2980,
    "eted": 7592,
    "Ġpallid": 12296,
    "school": 10053,
    "Ġshivered": 14106,
    "Ġaccents": 14209,
    "Ġpractised": 23326,
    "crossed": 16631,
    "Ġexponential": 1055,
    "Ġfern": 21405,
    "alcul": 15625,
    "Ġreception": 9837,
    "Ġallow": 1130,
    "Ġfur": 992,
    "henomen": 10493,
    "Ġsitu": 3494,
    "Ġenlightened": 12742,
    "Ġ200": 19295,
    "pardon": 10063,
    "Ġshud": 5461,
    "Ġencamp": 22798,
    "Ġstaying": 8284,
    "Ġap": 5008,
    "ó": 180,
    "Ġindomit": 22953,
    "Ġpeterson": 9481,
    "continual": 20643,
    "Ġgrief": 4618,
    "vest": 6230,
    "bowl": 14889,
    "Ġexcel": 3566,
    "Ġtoast": 21510,
    "Ġpostp": 12140,
    "their": 2540,
    "Ġappo": 8498,
    "aceti": 7111,
    "Ġfable": 15574,
    "Ġvacuous": 24343,
    "Ġinsatiate": 19269,
    "Ġtragedies": 25241,
    "Ġtube": 15002,
    "Ġdistension": 22503,
    "hard": 4689,
    "important": 7112,
    "moderate": 22834,
    "Ġeyeing": 6460,
    "Ġtheore": 1830,
    "others": 7671,
    "Ġfre": 1573,
    "Ġborder": 10168,
    "Ġrheum": 18216,
    "Ġconcentrated": 15081,
    "Ġmadman": 13149,
    "Ġproducing": 11896,
    "willing": 6592,
    "Ġfirmness": 11236,
    "Ġimaginative": 19245,
    "ellect": 7381,
    "Ġmat": 1149,
    "Ġmisconduct": 22759,
    "Ġselects": 4383,
    "Ġsuggests": 12197,
    "Ġoverhead": 11770,
    "Ġopenshaw": 7955,
    "eli": 3874,
    "Ġcollection": 8222,
    "observing": 25494,
    "Ġpeace": 3693,
    "Ġinsp": 2101,
    "rifled": 21046,
    "intments": 18820,
    "Ġcharmed": 16761,
    "Ġhemp": 9214,
    "churning": 21695,
    "employed": 17260,
    "dening": 22779,
    "Ġgestic": 21606,
    "Ġmemo": 18119,
    "gabriel": 15358,
    "Ġveins": 8931,
    "inqu": 6121,
    "rawling": 21634,
    "Ġshamefully": 24716,
    "Ġmorass": 22972,
    "sper": 4434,
    "vous": 2255,
    "explained": 23138,
    "Ġanim": 2114,
    "counterpart": 26359,
    "ouch": 2783,
    "zeal": 16269,
    "stricken": 9882,
    "ading": 5091,
    "Ġtrue": 1341,
    "Ġlibr": 15996,
    "wn": 720,
    "Ġcapabilities": 4375,
    "Ġchildhood": 13136,
    "fiery": 13579,
    "Ġexploring": 4304,
    "attending": 18916,
    "influ": 9539,
    "Ġingenuity": 17162,
    "Ġyojo": 7611,
    "Ġdifficulties": 11224,
    "perv": 1613,
    "wished": 13803,
    "Ġhats": 14618,
    "Ġprepar": 7898,
    "Ġhooped": 23354,
    "Ġblasts": 19994,
    "solitary": 14505,
    "avoiding": 25236,
    "Ġsche": 1703,
    "Ġyears": 1892,
    "Ġmaritime": 23036,
    "Ġstrings": 11826,
    "youth": 11872,
    "Ġresided": 11808,
    "Ġdetestation": 17126,
    "Ġupd": 947,
    "yingly": 23056,
    "mend": 20965,
    "Ġdizzy": 21431,
    "Ġinexperience": 26099,
    "Ġfalling": 6915,
    "Ġsignifies": 19202,
    "Ġgangs": 21607,
    "Ġferry": 24514,
    "Ġsore": 10763,
    "Ġunheeded": 18261,
    "collinses": 19922,
    "god": 4863,
    "represented": 20194,
    "solitude": 23296,
    "speps": 14335,
    "Ġinequal": 21495,
    "dipped": 20836,
    "deceptive": 22146,
    "Ġterr": 3271,
    "data": 2531,
    "Ġdearer": 14049,
    "Ġreceive": 4703,
    "leader": 25351,
    "Ġwired": 17786,
    "Ġintens": 7003,
    "rubbery": 17340,
    "Ġlength": 2499,
    "ulate": 5233,
    "remaining": 20219,
    "Ġloves": 10914,
    "myster": 16259,
    "Ġattacking": 24464,
    "Ġcovent": 16072,
    "Ġdedu": 5584,
    "Ġindignation": 8347,
    "Ġjunior": 15097,
    "stream": 15683,
    "excited": 13378,
    "Ġstoop": 16309,
    "Ġfru": 8420,
    "Ġtasselled": 25921,
    "irresist": 21910,
    "Ġsnatching": 10471,
    "fort": 1749,
    "figures": 20120,
    "lev": 1233,
    "ters": 1575,
    "inence": 15480,
    "âĢĿ)": 21812,
    "wrong": 13204,
    "Ġlock": 5928,
    "insisted": 23066,
    "care": 4928,
    "Ġfunere": 22255,
    ":--": 5784,
    "jumping": 20244,
    "bert": 4661,
    "humored": 19451,
    "Ġlam": 21547,
    "Ġbrine": 18768,
    "Ġimmured": 24070,
    "Ġnightmare": 18919,
    "Ġsnuff": 7992,
    "Ġcover": 3556,
    "Ġvent": 3998,
    "isely": 4487,
    "Ġcheering": 11132,
    "Ġsquad": 22835,
    "omach": 11635,
    "Ġbeasts": 10616,
    "Ġcocks": 18595,
    "Ġblew": 9044,
    "Ġjoes": 19229,
    "Ġbald": 16205,
    "Ġdestabilizing": 5053,
    "ets": 1162,
    "Ġwondrously": 24062,
    "Ġfortune": 4240,
    "mem": 10708,
    "Ġformless": 22826,
    "benevolently": 25600,
    "Ġvideo": 25365,
    "efficient": 2875,
    "Ġdegenerated": 20504,
    "pall": 17627,
    "Ġheedfulness": 24521,
    "Ġimmovable": 15895,
    "Ġdecomposes": 5506,
    "Ġvaulted": 25167,
    "reen": 21230,
    "Ġdoran": 9178,
    "Ġcontemporary": 16010,
    "Ġarab": 7824,
    "Ġdaily": 5987,
    "Ġbenef": 3488,
    "Ġconsecrated": 26487,
    "Ġuninhabited": 22047,
    "ë": 172,
    "Ġsecure": 4912,
    "gin": 4930,
    "Ġnuptial": 25782,
    "occurred": 13335,
    "Ġstamping": 20029,
    "Ġpul": 2041,
    "Ġuncont": 14114,
    "Ġabsorbed": 12328,
    "Ġimpulsively": 24880,
    "Ġcontented": 9754,
    "Ġmuchness": 18708,
    "Ġlocked": 6035,
    "Ġdecide": 9284,
    "majesty": 26280,
    "enter": 7858,
    "general": 7490,
    "you": 1004,
    "mates": 5073,
    "level": 2655,
    "Ġhump": 5853,
    "noo": 9786,
    "ladder": 19783,
    "empl": 5724,
    "Ġsoothing": 8173,
    "cad": 17503,
    "Ġwidest": 24233,
    "Ġmichigan": 26425,
    "strange": 6087,
    "Ġpiling": 17910,
    "Ġoutermost": 22317,
    "ĠĠĠĠĠĠĠĠĠĠĠĠĠĠĠĠĠĠĠĠĠĠĠĠĠĠĠĠĠ": 19698,
    "soup": 21057,
    "Ġmccarthys": 19661,
    "Ġbat": 10794,
    "Ġchristianity": 19860,
    "Ġfowl": 11329,
    "Ġtur": 2566,
    "Ġoughts": 23898,
    "Ġprejudice": 9074,
    "Ġgrooves": 16740,
    "ta": 13787,
    "imagine": 19930,
    "commod": 16168,
    "together": 3555,
    "Ġdev": 885,
    "Ġterra": 13114,
    "Ġvishnoo": 12749,
    "Ġhearsed": 25039,
    "neural": 3064,
    "Ġmistake": 6203,
    "Ġdictator": 20152,
    "Ġcrashes": 13123,
    "Ġesquimaux": 25150,
    "Ġdoubloons": 13432,
    "Ġspending": 10922,
    "ssing": 3809,
    "comparison": 25840,
    "$": 8,
    "emotion": 21926,
    "Ġfrequented": 16584,
    "mering": 12487,
    "Ġjabez": 11763,
    "Ġindiam": 22951,
    "opy": 4457,
    "Ġoars": 3897,
    "Ġquiet": 3259,
    "tete": 10731,
    "Ġhealthcare": 8016,
    "wondrous": 12335,
    "Ġpit": 3421,
    "Ġloc": 10913,
    "Ġfigures": 8629,
    "Ġmysteriously": 24602,
    "Ġrag": 18640,
    "Ġheedless": 14901,
    "choice": 21689,
    "Ġloft": 5642,
    "Ġafric": 8904,
    "Ġessex": 20125,
    "Ġvow": 10245,
    "Ġrejoice": 10207,
    "Ġspermaceti": 8966,
    "Ġabiding": 22268,
    "gate": 12463,
    "Ġfills": 12590,
    "shortened": 24748,
    "Ġasph": 21896,
    "Ġunexpectedly": 19908,
    "fabulous": 20472,
    "Ġrep": 1937,
    "osures": 22259,
    "Ġpraises": 16729,
    "ridge": 9495,
    "ilt": 2972,
    "Ġresembles": 25969,
    "Ġbud": 10167,
    "Ġgreece": 17069,
    "bil": 20770,
    "Ġcour": 1768,
    "Ġcapt": 1293,
    "terms": 15748,
    "Ġremorselessly": 16966,
    "Ġendurance": 23141,
    "line": 1438,
    "Ġmeasuring": 22878,
    "Ġoverbearing": 12839,
    "aws": 8237,
    "Ġsiam": 13836,
    "axen": 22519,
    "body": 2309,
    "Ġushered": 18358,
    "Ġsanely": 24982,
    "Ġjuggl": 20436,
    "baned": 17494,
    "Ġtechnically": 12363,
    "U": 57,
    "Ġenigmatical": 20596,
    "Ġinvaluable": 10181,
    "arded": 5029,
    "Ġconfided": 19037,
    "orton": 11753,
    "feeder": 12358,
    "Ġconsternation": 9857,
    "Ġcronies": 23441,
    "books": 8663,
    "Ġhideousness": 16914,
    "Ġarrived": 3747,
    "Ġslink": 23160,
    "arers": 12126,
    "Ġpartake": 18670,
    "Ġregimentals": 19857,
    "inst": 4294,
    "Ġdiscours": 18718,
    "Ġmanners": 3790,
    "Ġlub": 15646,
    "Ġhas": 825,
    "Ġcomparison": 7099,
    "Ġscuffle": 20607,
    "erval": 4020,
    "riety": 12740,
    "Ġbenefactor": 14696,
    "Ġcalhoun": 23041,
    "pressed": 6588,
    "Ġcommentaries": 20159,
    "Ġbucket": 8786,
    "weed": 14313,
    "irksome": 18172,
    "Ġdevouring": 11855,
    "death": 6261,
    "Ġshocks": 16456,
    "Ġcheap": 13087,
    "Ġselected": 9709,
    "yd": 21141,
    "orious": 6008,
    "Ġfellows": 8257,
    "Ġph": 1550,
    "Ġcircumnavigating": 25614,
    "#": 7,
    "Ġsteward": 6584,
    "rospect": 11610,
    "Ġstammered": 26199,
    "Ġevinced": 7100,
    "persuade": 13531,
    "pronounce": 25192,
    "rodden": 21533,
    "Ġsearched": 15817,
    "Ġunreasonably": 17449,
    "Ġlurking": 11288,
    "Ġuntil": 2668,
    "appetite": 22845,
    "Ġbabes": 24424,
    "accept": 8896,
    "Ġsoliloqu": 11882,
    "penetrating": 25490,
    "Ġdramatic": 4850,
    "magnificent": 20273,
    "wanderer": 25423,
    "Ġmultitudinous": 26273,
    "Ġtrunks": 15974,
    "ass": 539,
    "Ġasiatic": 20428,
    "least": 8783,
    "ripp": 6405,
    "very": 496,
    "Ġvic": 5237,
    "Ġright": 1508,
    "Ġdaint": 15590,
    "hastily": 19701,
    "Ġflounders": 23014,
    "Ġinvincible": 23480,
    "ressing": 8917,
    "astern": 8581,
    "ivory": 10267,
    "drove": 16992,
    "Ġknowest": 12859,
    "Ġhumour": 7932,
    "Ġretarded": 23071,
    "conversation": 7122,
    "exclaimed": 11787,
    "Ġruns": 8594,
    "Ġenvied": 19290,
    "dropping": 14980,
    "Ġscarcity": 23824,
    "driver": 14919,
    "Ġuses": 1210,
    "Ġyawn": 7610,
    "Ġwarmly": 8986,
    "Ġcheck": 7271,
    "Ġming": 9644,
    "owed": 2273,
    "regularly": 13206,
    "Ġarrang": 2469,
    "Ġresounds": 22540,
    "Ġoverjoyed": 17456,
    "Ġtwin": 12924,
    "pute": 8843,
    "Ġpenetrated": 13470,
    "Ġchann": 15933,
    "Ġmultipl": 2794,
    "Ġsubsequent": 7660,
    "ented": 4347,
    "contact": 23726,
    "Ġtri": 4813,
    "Ġevenings": 18753,
    "Ġaverred": 18865,
    "Ġhosts": 19937,
    "Ġhailing": 11690,
    "high": 6649,
    "_.âĢĿ": 5886,
    "Ġagreeably": 24952,
    "Ġsideboard": 10384,
    "Ġcamberwell": 25350,
    "sisters": 13374,
    "Ġchewed": 16368,
    "Ġsharper": 17178,
    "idled": 21766,
    "Ġyer": 15731,
    "Ġrel": 1096,
    "mistake": 24528,
    "hullo": 17569,
    "Ġembedding": 2105,
    "Ġgrammar": 1061,
    "Ġtinge": 25087,
    "Ġhell": 5019,
    "spee": 9315,
    "Ġprints": 16330,
    "Ġperempt": 13671,
    "Ġmanned": 9269,
    "Ġconfidently": 24957,
    "Ġimplore": 24872,
    "Ġsanguinary": 25929,
    "ertion": 12036,
    "Ġsuck": 15860,
    "Ġn": 300,
    "Ġscraps": 16901,
    "lob": 22505,
    "famous": 16915,
    "Ġdeliberate": 15021,
    "streets": 13393,
    "guinea": 16671,
    "Ġmur": 2488,
    "coward": 13698,
    "Ġverify": 12084,
    "Ġhawk": 15171,
    "Ġmaybe": 12945,
    "iscient": 17851,
    "Ġclapping": 14201,
    "Ġdispleased": 18555,
    "Ġconquest": 15745,
    "studies": 25166,
    "Ġscandinav": 19959,
    "Ġsullen": 9156,
    "Ġwast": 21858,
    "Ġfeelings": 2453,
    "Ġseap": 15815,
    "Ġmincing": 18750,
    "Ġmeddle": 19490,
    "following": 10571,
    "presbyter": 20616,
    "Ġreiterating": 26473,
    "Ġmahogany": 20576,
    "Ġclutch": 15052,
    "Ġendure": 5956,
    "tears": 11036,
    "Ġcommendation": 13608,
    "Ġprice": 10402,
    "grant": 10426,
    "Ġabominably": 20064,
    "recollect": 17222,
    "Ġnever": 1021,
    "Ġdecap": 16017,
    "Ġhaggerston": 26451,
    "Ġnormalizes": 1861,
    "Ġtypewriter": 19097,
    "Ġthou": 1809,
    "Ġdetermining": 14419,
    "Ġintention": 5638,
    "Ġwow": 15527,
    "strugg": 21654,
    "Ġthough": 993,
    "Ġvexatious": 19780,
    "Ġunb": 10906,
    "inde": 17730,
    "unwillingness": 25802,
    "public": 17645,
    "cater": 20814,
    "Ġengage": 9333,
    "Ġnortheast": 23203,
    "C": 39,
    "Ġstifle": 18073,
    "ernsey": 8900,
    "Ġoverlooking": 22355,
    "Ġpuff": 6526,
    "Ġoppression": 23652,
    "Ġtumble": 16878,
    "difficult": 10056,
    "Ġmutually": 23954,
    "Ġdistress": 5844,
    "Ġsprang": 5064,
    "Ġbrotherhood": 23669,
    "gy": 2097,
    "balls": 12302,
    "val": 1181,
    "laborers": 23913,
    "intosh": 22938,
    "inter": 2953,
    "reduc": 5459,
    "Ġaffability": 14385,
    "b": 70,
    "Ġdiscu": 4362,
    "Ġdistributes": 4196,
    "iana": 7048,
    "Ġtheoretically": 3565,
    "Ġcovered": 5171,
    "vengeance": 13354,
    "Ġsource": 6805,
    "Ġyork": 11663,
    "Ġnormal": 1204,
    "Ġhasten": 10477,
    "covenant": 23561,
    "Ġbeale": 12695,
    "Ġwid": 4631,
    "ers": 404,
    "Ġoffend": 16142,
    "Ġattentively": 9948,
    "rimsh": 17026,
    "Ġdegrees": 7294,
    "Ġanytime": 12881,
    "Ġhartshorn": 26180,
    "pleas": 3851,
    "pennies": 26285,
    "Ġbrist": 14376,
    "ires": 6038,
    "hearts": 13342,
    "consternation": 16911,
    "Ġwhelmed": 25999,
    "Ġarchly": 22771,
    "izing": 1065,
    "strate": 12669,
    "irm": 3106,
    "icha": 11735,
    "Ġsanguine": 25928,
    "Ġrobert": 10971,
    "Ġsepulchre": 20558,
    "Ġking": 2306,
    "pest": 6964,
    "Ġbefriend": 18081,
    "venerable": 26407,
    "Ġsires": 21225,
    "hampshire": 23262,
    "advantage": 8658,
    "Ġrevolutions": 23839,
    "Ġpeaceable": 14721,
    "Ġincredible": 9513,
    "withstand": 23025,
    "Ġconsult": 6057,
    "Ġuniversity": 13119,
    "Ġpersuasions": 16630,
    "never": 3149,
    "pulled": 25145,
    "lections": 4752,
    "renadier": 18419,
    "Ġformidable": 8220,
    "Ġsanctified": 25883,
    "duty": 20238,
    "Ġpreservative": 24630,
    "Ġourselves": 5127,
    "haust": 5777,
    "Ġscript": 18399,
    "Ġdank": 21427,
    "Ġmethodology": 2548,
    "ir": 379,
    "flowing": 14539,
    "sne": 10123,
    "suitable": 18637,
    "landish": 11939,
    "Ġscrewed": 15118,
    "Ġwails": 21295,
    "Ġrout": 7402,
    "Ġcoin": 9769,
    "Ġhandspikes": 12934,
    "Ġpage": 6978,
    "Ġscholars": 26112,
    "Ġjoining": 13162,
    "Ġchurches": 12824,
    "vult": 21112,
    "Ġphant": 7055,
    "Ġlascar": 9198,
    "Ġtransformers": 1112,
    "Ġappal": 18360,
    "Ġstrong": 1789,
    "gentle": 5356,
    "paus": 13771,
    "Ġanointing": 25539,
    "Ġspe": 822,
    "drop": 15335,
    "Ġburke": 19249,
    "Ġsmart": 11812,
    "Ġrelinqu": 12979,
    "races": 21628,
    "Ġfuss": 13903,
    "phew": 6368,
    "Ġostent": 13582,
    "arpaul": 14535,
    "lier": 20948,
    "Ġcongeal": 25980,
    "Ġaccomplished": 7104,
    "Ġswimming": 5507,
    "Ġjoints": 12032,
    "Ġengine": 1920,
    "Ġillustrious": 17108,
    "Ġsubjected": 23571,
    "Ġsubstances": 24164,
    "Ġelaborate": 18635,
    "kinson": 10024,
    "Ġpreaching": 15924,
    "rubbed": 22173,
    "oms": 4591,
    "aging": 2243,
    "Ġstud": 1561,
    "Ġfurniture": 6476,
    "estruct": 22213,
    "Ġaught": 8772,
    "Ġcultiv": 13554,
    "Ġaccurate": 13266,
    "Ġhears": 8139,
    "Ġdeceit": 13479,
    "Ġgripping": 26186,
    "subsided": 25830,
    "along": 6013,
    "consc": 4840,
    "Ġdecapitated": 20614,
    "Ġconsulting": 13427,
    "Ġlet": 1113,
    "Ġantics": 24177,
    "Ġsash": 17753,
    "Ġhauling": 14085,
    "velling": 14761,
    "tawn": 21079,
    "ingham": 21299,
    "Ġfriendless": 23024,
    "Ġretained": 7173,
    "Ġstren": 15717,
    "leag": 21364,
    "hearing": 8403,
    "fifth": 20145,
    "fordshire": 4675,
    "Ġrapturously": 24888,
    "Ġqueens": 16705,
    "dutch": 17217,
    "Ġget": 1624,
    "Ġsupper": 4664,
    "mme": 22500,
    "ixed": 4851,
    "Ġcanoes": 12801,
    "command": 6576,
    "Ġundergo": 23237,
    "ç": 168,
    "circumst": 5348,
    "Ġrepulsive": 14529,
    "Ġshy": 10902,
    "Ġgene": 15669,
    "Ġsuperior": 2757,
    "destroy": 19509,
    "Ġshoal": 12012,
    "Ġalbino": 20501,
    "Ġsaints": 20673,
    "Ġgnarled": 25165,
    "Ġunman": 12770,
    "Ġ53": 19639,
    "specimen": 26604,
    "Ġpurposed": 23550,
    "Ġgods": 6454,
    "loved": 14249,
    "oard": 4809,
    "odes": 18116,
    "aloes": 21500,
    "Ġforeboding": 20382,
    "aven": 8209,
    "Ġstarlight": 24627,
    "scho": 8759,
    "Ġprogra": 1146,
    "Ġponies": 21475,
    "Ġliberally": 16829,
    "Ġ108": 19683,
    "ai": 2525,
    "Ġbulge": 23855,
    "Ġpluck": 15611,
    "Ġbarricade": 14659,
    "gged": 3777,
    "Ġmuslin": 19381,
    "intended": 11065,
    "perseus": 26005,
    "Ġfest": 10803,
    "Ġamaz": 5385,
    "Ġshunned": 17291,
    "sensations": 20049,
    "osy": 11755,
    "Ġmockery": 12104,
    "Ġvolumes": 14798,
    "Ġclimb": 15077,
    "Ġshower": 11707,
    "Ġmonsieur": 12418,
    "ectual": 21913,
    "Ġprofessional": 7299,
    "Ġpossibility": 7458,
    "Ġconfession": 11234,
    "blades": 24130,
    "Ġasyl": 12730,
    "Ġfort": 2579,
    "Ġuninjured": 22052,
    "ostentatious": 20651,
    "Ġinaudible": 21497,
    "Ġteeth": 4168,
    "Ġtambourine": 9563,
    "ter": 359,
    "Ġhug": 6979,
    "Ġseparation": 11246,
    "Ġcontinual": 6777,
    "Ġwoe": 4793,
    "Ġlayers": 818,
    "Ġspacious": 18312,
    "Ġshalt": 18230,
    "Ġform": 1025,
    "Ġdeterm": 1267,
    "Ġinvoking": 19145,
    "Ġsold": 6003,
    "bearings": 25371,
    "ille": 9218,
    "minds": 24231,
    "Ġdispatched": 23879,
    "pot": 10116,
    "Ġsallow": 12532,
    "fac": 17540,
    "pilot": 25908,
    ">": 34,
    "Ġunsophisticated": 25992,
    "useness": 22280,
    "ateur": 22069,
    "Ġblocked": 19221,
    "Ġbrides": 22863,
    "heat": 15496,
    "Ġsumat": 14134,
    "Ġalche": 21781,
    "fully": 2206,
    "Ġstarbuck": 2196,
    "crated": 16695,
    "Ġoutward": 7905,
    "Ġaddition": 1147,
    "rice": 13775,
    "Ġexpose": 10326,
    "Ġtoken": 2039,
    "gered": 9274,
    "Ġde": 364,
    "atching": 8202,
    "Ġcountry": 2532,
    "Ġcad": 12564,
    "Ġselves": 21221,
    "Ġlocal": 1199,
    "Ġmeek": 21810,
    "Ġconnections": 972,
    "Ġwafted": 14498,
    "Ġfishes": 11589,
    "Ġunion": 6839,
    "Ġvalid": 1783,
    "Ġwhit": 7177,
    "Ġunworthy": 11712,
    "atters": 18507,
    "oriental": 23719,
    "original": 9083,
    "Ġtwinkle": 12320,
    "Ġlegible": 23532,
    "Ġtwisting": 18658,
    "Ġmischief": 8541,
    "Ġslashing": 23167,
    "Ġphys": 5653,
    "Ġdaugh": 2295,
    "Ġspecially": 11994,
    "Ġinevitably": 17229,
    "Ġarist": 14158,
    "Ġfi": 936,
    "Ġlobsters": 13515,
    "Ġthom": 21514,
    "Ġreach": 4046,
    "orm": 425,
    "Ġchurch": 4710,
    "Ġinquisitive": 26317,
    "s": 87,
    "Ġobstacle": 16954,
    "Ġdeposition": 18611,
    "Ġcircus": 19091,
    "observation": 17268,
    "Ġsimpler": 2048,
    "Ġroaring": 10969,
    "ustom": 3789,
    "Ġcows": 15550,
    "hug": 17562,
    "Ġspouter": 12794,
    "iony": 9190,
    "ficial": 17547,
    "Ġroundabout": 23058,
    "ĠĊ": 12519,
    "apped": 5395,
    "blind": 16704,
    "dignity": 15343,
    "Ġlaure": 16908,
    "acid": 11004,
    "Ġlick": 21548,
    "Ġcred": 8779,
    "Ġundu": 15835,
    "speech": 10665,
    "Ġfrightened": 5341,
    "Ġlearnt": 7615,
    "Ġconveniences": 19811,
    "Ġbrings": 11877,
    "Ġmaterials": 11287,
    "Ġdoings": 18375,
    "tains": 10960,
    "upid": 6583,
    "Ġslighter": 18939,
    "Ġlanterns": 24576,
    "Ġsixty": 7723,
    "Ġcoars": 14269,
    "Ġalman": 21779,
    "Ġbecoming": 4395,
    "Ġimpelled": 11779,
    "Ġsprings": 16686,
    "virtue": 20568,
    "Ġfame": 21404,
    "Ġfaced": 10807,
    "Ġcompacted": 23508,
    "Ġdeliverer": 11947,
    "consult": 24168,
    "Ġwhiff": 21716,
    "Ġhired": 10176,
    "proper": 7472,
    "Ġcrate": 19122,
    "Ġerrand": 11083,
    "Ġsticks": 14929,
    "Ġresemble": 15690,
    "Ġfirmest": 16663,
    "formality": 22217,
    "langu": 4807,
    "Ġbowsman": 11253,
    "enderby": 25215,
    "Ġarriving": 19216,
    "atory": 6125,
    "anque": 13886,
    "nur": 11504,
    "Ġungenerous": 18266,
    "Ġowned": 11873,
    "respectively": 24700,
    "Ġtemperature": 1003,
    "Ġbreaking": 6310,
    "ĠĠĠĠĠĠĠĠĠĠĠĠĠĠĠĠ": 1219,
    "try": 7813,
    "character": 6331,
    "Ġsociable": 19401,
    "twain": 23699,
    "Ġexcluded": 16383,
    "Ġluxuriant": 20393,
    "hetically": 21207,
    "Ġpricking": 23222,
    "cabinet": 25077,
    "Ġquarrelling": 13497,
    "vac": 15449,
    "Ġparsee": 6413,
    "Ġcol": 1057,
    "perquisites": 26530,
    "angels": 22104,
    "rible": 3227,
    "Ġbathe": 25443,
    "erson": 7002,
    "smallest": 23909,
    "Ġsurpl": 19132,
    "prehensible": 12357,
    "into": 3679,
    "Ġholes": 16406,
    "Ġeduc": 4785,
    "Ġtribute": 15474,
    "Ġliveliest": 24775,
    "Ġintelligible": 15939,
    "currents": 23842,
    "inguish": 9395,
    "Ġtap": 12522,
    "superst": 11324,
    "Ġconstraint": 16513,
    "Ġacute": 16121,
    "Ġpious": 11597,
    "Ġguiltless": 16939,
    "blooded": 20021,
    "ersman": 11696,
    "Ġweld": 8112,
    "Ġunprejudiced": 18269,
    "Ġspec": 1260,
    "Ġrange": 9710,
    "Ġdaresay": 14702,
    "Ġmiscellaneous": 17461,
    "Ġvint": 18194,
    "Ġcatastrop": 3345,
    "swed": 24252,
    "Ġroom": 1461,
    "Ġsingularly": 12145,
    "Ġdashes": 21433,
    "Ġcurv": 3510,
    "}": 97,
    "Ġglare": 13013,
    "Ġesc": 2256,
    "Ġglide": 22982,
    "Ġstare": 10863,
    "intend": 16222,
    "served": 5043,
    "lesome": 12961,
    "-------": 20387,
    "uish": 5431,
    "Ġlooked": 1803,
    "ceptible": 10959,
    "Ġreckoning": 14977,
    "cring": 20810,
    "Ġlect": 9221,
    "Ġrecovery": 11440,
    "cry": 12442,
    "supplemental": 25874,
    "Ġruff": 14348,
    "endeavouring": 15014,
    "Ġcru": 2827,
    "clopÃ¦": 13052,
    "Ġshri": 5375,
    "Ġvind": 10248,
    "enhall": 13848,
    "Ġcandour": 14671,
    "Ġincorporate": 20453,
    "Ġincorrect": 2732,
    "ĸ": 249,
    "û": 188,
    "Ġdesisted": 22976,
    "Ġcommunity": 19009,
    "Ġvinc": 14083,
    "urning": 12913,
    "Ġpath": 2115,
    "ivities": 22075,
    "final": 19675,
    "Ġreflections": 5946,
    ".âĢĶâĢľ": 20746,
    "Ġsocietal": 11435,
    "Ġsequential": 2133,
    "protested": 13472,
    "Ġdesol": 6881,
    "Ġtantalizing": 20412,
    "Ġuncles": 23429,
    "gaff": 20881,
    "Ġhighlands": 22775,
    "cherish": 24551,
    "Ġinformation": 1046,
    "Ġmetal": 9386,
    "erate": 7149,
    "Ġaccompany": 9485,
    "apable": 6422,
    "melancholy": 12350,
    "Ġsave": 4051,
    "centred": 25017,
    "Ġquaff": 22407,
    "Ġdrunk": 9422,
    "brows": 17495,
    "more": 1033,
    "idual": 1562,
    "Ġdecisions": 6702,
    "suffer": 24332,
    "Ĝ": 221,
    "Ġcannibals": 10586,
    "Ġcrucial": 9890,
    "bulkington": 19924,
    "Ġpatiently": 19917,
    "Ġspain": 15878,
    "ades": 5631,
    "Ġchoicest": 24219,
    "Ġon": 351,
    "Ġheroism": 24543,
    "Ġirresistible": 13110,
    "Ġpeeling": 22690,
    "exertion": 16014,
    "penetrate": 20323,
    "iature": 8741,
    "Ġbehoo": 19035,
    "Ġenem": 4707,
    "Ġscheme": 7064,
    "Ġlastly": 16204,
    "Ġgirl": 3084,
    "Ġprove": 5231,
    "ius": 5789,
    "hoping": 17565,
    "Ġconcentration": 25062,
    "Ġsleeve": 20139,
    "Ġframe": 1811,
    "Ġspile": 22125,
    "Ġsmite": 22555,
    "iest": 4036,
    "Ġblowing": 10483,
    "Ġspeaking": 4027,
    "Ġequilib": 4137,
    "Ġdevelopment": 7057,
    "pow": 10716,
    "¡": 99,
    "jonah": 11495,
    "ĠĠĠĠĠĠĠĠĠĠĠĠĠĠĠĠĠ": 22947,
    "user": 5105,
    "Ġtaking": 3248,
    "Ġobliging": 13240,
    "Ġfrank": 4418,
    "Ġcannot": 1666,
    "Ġtyros": 26101,
    "Ġanswers": 7070,
    "Ġ99": 10744,
    "Ġrevolut": 3256,
    "sullen": 17668,
    "breakfast": 8687,
    "Ġ113": 19695,
    "Ġstatue": 23145,
    "hound": 20894,
    "pointed": 9808,
    "Ġproductions": 22944,
    "moral": 14800,
    "cks": 3078,
    "ister": 1296,
    "Ġprogram": 12989,
    "Ġyellow": 5300,
    "Ġgenealogies": 25961,
    "Ġsmiting": 12894,
    "Ġoffers": 12943,
    "conf": 4957,
    "Ġoccupations": 9456,
    "scornful": 26574,
    "imet": 21704,
    "Ġcontention": 22424,
    "unting": 21872,
    "Ġprophe": 13076,
    "Ġcenturies": 8622,
    "Ġawkward": 7073,
    "asets": 2311,
    "Ġmultiplication": 2876,
    "athom": 12935,
    "Ġcocoa": 25482,
    "Ġshreds": 12766,
    "Ġperry": 22394,
    "Ġcurly": 18843,
    "greg": 6647,
    "Ġbounty": 26436,
    "leaned": 21367,
    "Ġgrowl": 16536,
    "Ġappeased": 23198,
    "braces": 24658,
    "window": 7743,
    "Ġcapsizing": 20087,
    "meditated": 19067,
    "arian": 10314,
    "Ġthither": 6821,
    "Ġartic": 5314,
    "plan": 15812,
    "Ġpicking": 11258,
    "Ġperennial": 22692,
    "Ġstool": 14460,
    "ogrand": 26261,
    "/`)": 13658,
    "Ġ-": 1944,
    "Ġforbearing": 25098,
    "ethe": 9675,
    "Ġinspect": 5964,
    "Ġbetokened": 18795,
    "Ġtoes": 10828,
    "Ġhaul": 11689,
    "Ġmuch": 924,
    "conc": 3947,
    "Ġcreatures": 4138,
    "gest": 5426,
    "period": 15900,
    "feared": 11799,
    "Ġhomeless": 23385,
    "whel": 7666,
    ").": 1269,
    "Ġvilla": 14746,
    "chant": 4258,
    "Ġstumbling": 21740,
    "Ġunquestionable": 26221,
    "Ġfinds": 6299,
    "Ġoptimal": 1855,
    "Ġscan": 22282,
    "Ġplanisp": 24055,
    "Ġshouting": 10521,
    "vius": 23540,
    "Ġsickbed": 24245,
    "Ġloosed": 22110,
    "Ġjur": 12830,
    "Ġrenounce": 19466,
    "oters": 21797,
    "Ġinscribed": 24938,
    "Ġmisled": 22757,
    "Ġtra": 1386,
    "Ġmeantime": 6206,
    "acetty": 24463,
    "quake": 11677,
    "Ġpail": 15604,
    "Ġinstrum": 6055,
    "Ġdependen": 1829,
    "minutes": 7513,
    "Ġeventually": 8616,
    "Ġcumberland": 21353,
    "Ġexceeded": 14431,
    "Ġbund": 17863,
    "Ġdepend": 784,
    "Ġbeaver": 18085,
    "cies": 1814,
    "rippling": 24714,
    "onsense": 6431,
    "wins": 21128,
    "dripping": 16904,
    "Ġassembled": 9234,
    "Ġsurmises": 17055,
    "Ġunspeakably": 25172,
    "Ġbarred": 9001,
    "state": 13972,
    "Ġproximity": 3219,
    "Ġxl": 11986,
    "Ġcanallers": 13625,
    "Ġsullenly": 17171,
    "Ġkra": 18348,
    "Ġcorresponding": 13436,
    "ipping": 2210,
    "Ġburton": 23654,
    "Ġwail": 21285,
    "Ġindulgence": 11318,
    "Ġbr": 1069,
    "baron": 24925,
    "Ġblinds": 8007,
    "Ġvect": 1223,
    "Ġround": 1371,
    "Ġbeg": 1283,
    "²": 115,
    "Ġant": 4344,
    "butt": 15992,
    "wonted": 13491,
    "Ġremembered": 5276,
    "Ġduties": 6609,
    "marked": 9047,
    "ivity": 1610,
    "back": 2017,
    "Ġhanging": 5447,
    "Ġwane": 21287,
    "Ġcourt": 4170,
    "Ġcaged": 21350,
    "Ġpeels": 22689,
    "Ġcontemptible": 16952,
    "Ġ43": 14768,
    "abil": 2008,
    "Ġadmon": 15866,
    "Ġoverspread": 14204,
    "Ġcuff": 17829,
    "ospel": 17009,
    "wooden": 24588,
    "Ġnamed": 6139,
    "urons": 3128,
    "za": 13808,
    "Ġliberal": 12187,
    "acency": 12904,
    "kles": 17583,
    "Ġplausible": 26552,
    "conside": 9288,
    "Ġeffectually": 16164,
    "Ġattempts": 10489,
    "Ġcosmopolitan": 20640,
    "manners": 16181,
    "feelings": 5674,
    "usual": 5840,
    "Ġlonger": 3360,
    "Ġpol": 2577,
    "Ġrendering": 16656,
    "leagues": 21371,
    "Ġjustine": 4970,
    "Ġultimate": 12346,
    "whip": 22235,
    "Ġpreacher": 18369,
    "Ġteacher": 22914,
    "Ġexhib": 6349,
    "Ġburgl": 13171,
    "addition": 13382,
    "Ġblock": 2576,
    "elop": 1493,
    "Ġagent": 6277,
    "Ġcranes": 20381,
    "star": 12667,
    "desired": 8956,
    "stript": 21649,
    "phia": 22748,
    "Ġtreat": 3172,
    "beautiful": 10647,
    "Ġmuteness": 19415,
    "Ġdistributed": 18661,
    "Ġindulged": 13415,
    "Ġexhilarating": 26337,
    "_,âĢĻâĢĿ": 20399,
    "angible": 22103,
    "Ġprinc": 4200,
    "Ġunfavourable": 17415,
    "Ġpained": 19166,
    "several": 5543,
    "Ġgourmand": 26465,
    "Ġoperate": 19115,
    "Ġinfluenced": 19631,
    "Ġrearing": 12673,
    "lun": 20945,
    "oken": 4306,
    "presbyterian": 26368,
    "icted": 5937,
    "Ġelizabeth": 1132,
    "Ġadditionally": 1177,
    "heaving": 21206,
    "aud": 8521,
    "Ġconfine": 14509,
    "Ġdesirous": 8941,
    "extent": 22765,
    "Ġdelirium": 10404,
    "Ġdif": 871,
    "Ġdispel": 16595,
    "Ġproblem": 1268,
    "Ġmetallic": 19072,
    "roots": 15640,
    "Ġsubmitted": 11868,
    "Ġmermaid": 17813,
    "mess": 13751,
    "Ġstrained": 10217,
    "Ġchivalry": 25819,
    "Ġassistants": 9449,
    "Ġadrift": 11719,
    "ls": 1292,
    "spending": 18691,
    "Ġentertaining": 16925,
    "lanter": 15385,
    "Ġamidst": 9492,
    "Ġhad": 445,
    "Ġyale": 21777,
    "come": 2379,
    "Ġindications": 14631,
    "frame": 17115,
    "Ġgenerously": 22398,
    "marrying": 19546,
    "Ġlove": 2055,
    "patched": 17642,
    "telling": 14438,
    "Ġdeafened": 25651,
    "Ġcamp": 9163,
    "Ġlingering": 11378,
    "Ġting": 8398,
    "fanc": 20863,
    "Ġapproach": 869,
    "Ġtoe": 13934,
    "known": 3567,
    "fate": 17538,
    "witness": 10033,
    "Ġmaterially": 12188,
    "albatross": 15627,
    "Ġflattered": 10373,
    "cape": 13695,
    "Ġbi": 920,
    "Ġruled": 22785,
    "Ġostentatiously": 20467,
    "Ġpip": 1607,
    "hill": 15360,
    "Ġevidence": 5269,
    "september": 14034,
    "Ġeligible": 10669,
    "remark": 7261,
    "Ġexamination": 8005,
    "Ġsafie": 6617,
    "Ġincomp": 12893,
    "Ġtearless": 24786,
    "uneven": 23684,
    "Ġjoy": 3180,
    "Ġvit": 10244,
    "twist": 23700,
    "Ġmuse": 13858,
    "esu": 17901,
    "atigable": 15268,
    "Ġprick": 14477,
    "Ġconflag": 20334,
    "Ġpurposes": 11167,
    "Ġschoolmasters": 19719,
    "Ġsmitten": 12895,
    "prolong": 23393,
    "Ġfrancisco": 26064,
    "decan": 22139,
    "finger": 10092,
    "sprinkling": 24912,
    "revival": 26162,
    "Ġnecessarily": 13246,
    "holder": 13280,
    "Ġfashion": 4297,
    "ifies": 6686,
    "Ġredress": 23751,
    "ician": 21563,
    "Ġmystic": 7504,
    "Ġrainy": 24340,
    "Ġdav": 15587,
    "Ġintelligences": 12827,
    "Ġextracted": 16300,
    "Ġslipped": 6492,
    "Ġsa": 474,
    "genteel": 19947,
    "itaries": 21334,
    "dared": 13700,
    "Ġmartial": 20290,
    "suspected": 12369,
    "Ġheadlong": 11885,
    "Ġclum": 8871,
    "Ġbeef": 6830,
    "success": 6710,
    "uy": 21098,
    "impressions": 20697,
    "Ġshield": 21997,
    "ces": 578,
    "Ġaltar": 9227,
    "rote": 4590,
    "extreme": 11028,
    "Ġunostentatious": 22066,
    "gia": 20875,
    "Ġsnows": 14724,
    "abb": 15736,
    "Ġsimplest": 16332,
    "Ġinex": 6528,
    "Ġ82": 24457,
    "lotts": 23823,
    "Ġlies": 5295,
    "disappointed": 25191,
    "transferred": 24510,
    "Ġswore": 10377,
    "Ġdemo": 10879,
    "Ġparallelization": 3431,
    "formation": 22216,
    "Ġstricken": 9774,
    "ights": 8475,
    "shaw": 6864,
    "``": 15304,
    "Ġcleaning": 23179,
    "uther": 8815,
    "Ġinexpress": 12631,
    "Ġhabitation": 14801,
    "olds": 9309,
    "stumps": 21651,
    "congenial": 25399,
    "Ġdeposed": 16085,
    "Ġdivineness": 25724,
    "Ġdifferent": 1427,
    "Ġasserted": 16948,
    "Ġ52": 24320,
    "Ġreversed": 15694,
    "oped": 6047,
    "Ġraw": 3318,
    "Ġabsolute": 6765,
    "ct": 309,
    "Ġindul": 5856,
    "Ġunfeeling": 14117,
    "Ġcircumst": 2978,
    "only": 3305,
    "killed": 15374,
    "Ġ166": 25004,
    "utarch": 15659,
    "Ġcrystall": 20225,
    "conqu": 14243,
    "singular": 12185,
    "happiest": 19331,
    "Ġjuncture": 17128,
    "rested": 13072,
    "arthy": 4822,
    "Ġpoet": 8208,
    "calculation": 25688,
    "Ġpince": 21470,
    "Ġabsurdities": 24878,
    "illustration": 2286,
    "Ġouter": 6859,
    "man": 1051,
    "Ġjudged": 12080,
    "rene": 5379,
    "Ġparagraph": 17452,
    "brothers": 17023,
    "Ġbran": 5251,
    "Ġsteal": 16282,
    "Ġrugged": 18721,
    "pronounced": 12343,
    "Ġquote": 18461,
    ",--âĢľ": 19195,
    "Ġprep": 4192,
    "ĩ": 234,
    "Ġsurgeon": 8980,
    "Ġholmes": 1308,
    "brevi": 24072,
    "Ġhateful": 19712,
    "Ġattributed": 11830,
    "Ġchapter": 2959,
    "scept": 21052,
    "Ġsagacious": 14969,
    "Ġobsole": 22696,
    "Ġsurvive": 9066,
    "isol": 17846,
    "Ġmississ": 18837,
    "Ġremoter": 20104,
    "grinder": 23413,
    "Ġtaurus": 21177,
    "Ġ100": 14361,
    "Ġgrizz": 10351,
    "Ġproperty": 6450,
    "shaped": 10306,
    "Ġpushed": 5910,
    "suppose": 8644,
    "phren": 22747,
    "instead": 14811,
    "ĠĠĠĠĠĠĠĠĠĠĠĠĠĠĠĠĠĠĠĠĠĠĠ": 18831,
    "Ġsolving": 2482,
    "oman": 2018,
    "incredible": 16497,
    "rig": 7557,
    "irited": 15784,
    "networks": 2406,
    "Ġnarrowed": 24354,
    "Ġreleased": 2981,
    "Ġstraw": 9427,
    "Ġcetacea": 20552,
    "Ġthomson": 26453,
    "manif": 14370,
    "Ġunde": 11709,
    "obvious": 9355,
    "Ġble": 5223,
    "Ġmuttering": 10498,
    "encing": 21281,
    "itect": 965,
    "detained": 24381,
    "Ġres": 696,
    "infidel": 24663,
    "Ġgroaned": 11265,
    "Ġleviathanic": 12077,
    "shake": 22443,
    "open": 7025,
    "libr": 22921,
    "boilers": 26297,
    "Ġfrayed": 23269,
    "eprints": 12788,
    "Ġcomes": 3424,
    "Ġcalmness": 12089,
    "urday": 13993,
    "urned": 9304,
    "Ġblood": 3165,
    "Ġsatin": 12986,
    "war": 6802,
    "Ġvehemently": 26039,
    "Ġbecame": 2692,
    "Ġtemporary": 7981,
    "estim": 14166,
    "(-": 2983,
    "gaz": 20877,
    "Ġexclusion": 19394,
    "v": 90,
    "nephew": 26396,
    "Ġmaketh": 15185,
    "Ġseamen": 5063,
    "Ġrusty": 14962,
    "Ġsemicircle": 26067,
    "Ġnumer": 3638,
    "afric": 19178,
    "Ġmechan": 1166,
    "benevol": 12223,
    "Ġ111": 24435,
    "Ġreneg": 21673,
    "Ġjourneying": 25565,
    "nantucketer": 24974,
    "atered": 22070,
    "gentleman": 7519,
    "Ġtremble": 6906,
    "Ġindication": 22950,
    "Ġtet": 21156,
    "arying": 9799,
    "Ġdrop": 4343,
    "claim": 9833,
    "vely": 3867,
    "Ġgeneral": 1860,
    "Ġregiment": 6432,
    "icions": 21561,
    "eskye": 21449,
    "owe": 15705,
    "Ġinvade": 19142,
    "Ġtouched": 6001,
    "Ġrent": 11637,
    "estab": 14167,
    "Ġpaddled": 20200,
    "Ġdisgraceful": 15018,
    "Ġcran": 11997,
    "ugl": 23288,
    "Ġdetection": 3213,
    "Ġmagistrate": 8234,
    "Ġcoming": 2619,
    "securer": 25602,
    "Ġspecialized": 3920,
    "Ġirresolute": 24916,
    "acks": 11785,
    "Ġbott": 3146,
    "innacle": 7520,
    "thirst": 15823,
    "Ġphilosop": 5057,
    "Ġpitch": 5767,
    "Ġimpart": 11777,
    "sub": 4658,
    "kicked": 20942,
    "aces": 2070,
    "worth": 8626,
    "boys": 13357,
    "ium": 4864,
    "_,âĢĻ": 12430,
    "Ġbeque": 18080,
    "Ġthen": 664,
    "Ġcountrymen": 23594,
    "Ġdrama": 16328,
    "shaken": 16020,
    "Ġslumbers": 18941,
    "Ġcombat": 16184,
    "afterwards": 7485,
    "tails": 21085,
    "Ġimple": 1834,
    "Ġclung": 10957,
    "ordingly": 18517,
    "Ġhides": 16260,
    "Ġbeeches": 9225,
    "Ġhoarsely": 26302,
    "Ġstaving": 21735,
    "Ġprudence": 13918,
    "difference": 13706,
    "usage": 12828,
    "am": 367,
    "Ġdamn": 11157,
    "Ġfumes": 21417,
    "downstairs": 23917,
    "invol": 12526,
    "zag": 17712,
    "Ġajar": 21201,
    "ront": 15417,
    "Ġjiff": 22294,
    "Ġrecol": 4029,
    "Ġexpans": 18622,
    "Ġbuildings": 24720,
    "Ġjabbering": 22301,
    "Ġbeen": 627,
    "Ġheat": 5453,
    "Ġsorts": 6887,
    "Ġtreacher": 8604,
    "Ġleaning": 5228,
    "aby": 18106,
    "Ġlatest": 16821,
    "getting": 12963,
    "ion": 296,
    "Ġsch": 13833,
    "Ġinhospit": 25452,
    "Ġroofs": 16984,
    "Ġpin": 7161,
    "Ġbriony": 9327,
    "Ġimpossible": 3542,
    "Ġleaks": 16447,
    "avish": 22592,
    "Ġmend": 8406,
    "Ġold": 1054,
    "Ġglaring": 11904,
    "atch": 673,
    "Ġdisconnected": 22523,
    "vii": 13146,
    "Ġimmortality": 26325,
    "Ġgiant": 13966,
    "Ġpredef": 18514,
    "Ġreproach": 9555,
    "ching": 5156,
    "Ġasser": 6257,
    "estion": 18356,
    "te": 996,
    "Ġintervals": 5597,
    "buckets": 26123,
    "Ġfrederick": 15584,
    "ert": 2634,
    "Ġsurprising": 14596,
    "caps": 20806,
    "Ġcommonplace": 11095,
    "Ġarrangements": 16515,
    "Ġlimit": 10442,
    "poison": 14390,
    "Ġsenate": 25214,
    "fears": 18528,
    "ouncing": 8494,
    "Ġcompassion": 6487,
    "Ġroared": 7023,
    "use": 2535,
    "arb": 1566,
    "lifeless": 24311,
    "ints": 3418,
    "Ġprobably": 4313,
    "Ġdish": 6136,
    "Ġspiracle": 14148,
    "fow": 20852,
    "tain": 557,
    "stately": 18018,
    "impulse": 20644,
    "Ġsant": 21213,
    "Ġwithdrawn": 10605,
    "Ġhonest": 7287,
    "Ġperdition": 15990,
    "waiter": 24587,
    "cord": 8723,
    "acted": 11009,
    "Ġsling": 21219,
    "Ġmab": 12556,
    "restored": 18978,
    "merely": 16132,
    "Ġdrinking": 12165,
    "Ġreflect": 6574,
    "aunted": 20769,
    "Ġindefinitely": 25221,
    "Ġminimizing": 3465,
    "Ġ94": 17716,
    "Ġshrink": 14802,
    "Ġdramat": 23218,
    "lac": 17588,
    "uts": 8814,
    "Ġrhine": 12353,
    "developed": 15262,
    "july": 20473,
    "Ġdisgusting": 19893,
    "Ġcough": 11579,
    "Ġcopying": 17068,
    "ache": 8518,
    "Ġunidirectional": 3426,
    "ĠâĢĺ": 1633,
    "uvier": 9067,
    "Ġwrung": 14469,
    "compar": 14357,
    "delivered": 24100,
    "kerchief": 7526,
    "antucket": 2645,
    "Ġfullest": 14812,
    "Ġperturbed": 20438,
    "common": 4128,
    "touched": 15438,
    "Ġwarehouse": 20415,
    "happ": 3102,
    "Ġcruis": 14623,
    "Ġcryst": 9915,
    "protected": 19920,
    "Ġoccurrence": 14380,
    "Ġclimate": 9273,
    "Ġlast": 1126,
    "Ġshortness": 23482,
    "Ġnlp": 3060,
    "Ġcatholic": 20680,
    "Ġcompasses": 11266,
    "found": 4215,
    "Ġpupils": 20419,
    "architect": 22890,
    "Ġwaylaid": 22871,
    "kingly": 20938,
    "Ġaffront": 18787,
    "Ġasia": 11680,
    "Ġundaunted": 24119,
    "illes": 12690,
    "Ġpod": 15601,
    "then": 2053,
    "breeze": 20561,
    "isite": 15560,
    "Ġinasmuch": 10824,
    "Ġbingleys": 18996,
    "abode": 21789,
    "on": 267,
    "Ġfilled": 4392,
    "Ġstring": 11824,
    "ghan": 19453,
    "maker": 12489,
    "isle": 13890,
    "especially": 3571,
    "rennial": 22338,
    "Ġhold": 2248,
    "Ġnamely": 20688,
    "itancy": 21331,
    "africa": 26308,
    "ittarius": 22375,
    "stiff": 12670,
    "Ġaffectionate": 5583,
    "ras": 21035,
    "composure": 24031,
    "Ġtroubles": 19437,
    "Ġarisen": 11740,
    "thr": 12756,
    "Ġdoesn": 7438,
    "Ġcompression": 18147,
    "Ġwhitney": 11372,
    "Ġcarved": 7947,
    "Ġextort": 22714,
    "ange": 1019,
    "Ġthews": 21276,
    "Ġspur": 18303,
    "Ġlocking": 18298,
    "paper": 9135,
    "sugg": 11839,
    "Ġfoolish": 5980,
    "lik": 3915,
    "Ġginger": 9209,
    "evenings": 19461,
    "armon": 23055,
    "beating": 22486,
    "omn": 15687,
    "lace": 13746,
    "Ġrider": 24184,
    "Ġgradients": 610,
    "Ġgate": 6825,
    "Ġpatch": 4181,
    "missionary": 24616,
    "bet": 6109,
    "Ġcatch": 4440,
    "dimensional": 2350,
    "bowing": 24453,
    "aunt": 8370,
    "ingle": 1037,
    "Ġflogged": 23624,
    "ips": 2593,
    "aan": 20763,
    "diss": 17522,
    "bourgh": 19103,
    "Ġshaved": 22000,
    "amb": 5723,
    "Ġshank": 21995,
    "help": 1477,
    "Ġcalamities": 25699,
    "Ġmoulton": 17433,
    "Ġegyptian": 13584,
    "Ġrepositories": 23363,
    "tables": 19756,
    "morrow": 4570,
    "emptied": 23635,
    "rougham": 15991,
    "Ġchristian": 6479,
    "Ġskirts": 14351,
    "Ġwatson": 3596,
    "Ġliber": 5168,
    "Ġmisery": 3814,
    "rant": 11515,
    "clo": 5612,
    "Ġkeel": 6444,
    "Ġcontortions": 18476,
    "irc": 1729,
    "lantic": 6363,
    "Ġheavenly": 12081,
    "afflicted": 23777,
    "Ġhesitation": 13439,
    "belled": 24033,
    "alliance": 22198,
    "Ġredoubled": 23752,
    "Ġfiendish": 13325,
    "Ġapproximate": 2344,
    "itarian": 21335,
    "noise": 14329,
    "Ġeither": 2605,
    "Ġunbounded": 18259,
    "Ġregression": 4407,
    "Ġimpotent": 18447,
    "cheerfulness": 20179,
    "Ġresearches": 13126,
    "Ġpermit": 9747,
    "usable": 22277,
    "Ġexpectations": 13141,
    "isticated": 1496,
    "Ġted": 13810,
    "alescence": 15922,
    "slack": 16893,
    "Ġextravagant": 17277,
    "Ġmurderers": 16810,
    "plings": 11692,
    "Ġshoes": 7071,
    "conve": 14242,
    "Ġaid": 6122,
    "unctions": 18155,
    "Ġequival": 4783,
    "Ġlistening": 6318,
    "Ġframed": 19011,
    "moored": 22704,
    "cloth": 11934,
    "housekeeper": 24101,
    "âĢĿ;": 11668,
    "Ġrosings": 4605,
    "Ġdens": 21423,
    "Ġkettle": 26232,
    "fa": 7336,
    "Ġbarely": 16935,
    "Ġconstruction": 9383,
    "Ġspiced": 22131,
    "Ġsubsided": 14550,
    "Ġun": 422,
    "mix": 20973,
    "ĵ": 246,
    "Ġjun": 8505,
    "ĠâĢĶâĢĶ": 25757,
    "wedding": 13369,
    "Ġyouthful": 16722,
    "ocations": 23706,
    "Ġexpiration": 22623,
    "vanity": 24976,
    "bul": 6951,
    "Ġenjoyments": 24015,
    "Ġinstructed": 19283,
    "Ġpreach": 14171,
    "hroom": 12473,
    "Ġoutbreak": 22315,
    "Ġparticulars": 5754,
    "Ġbigger": 19760,
    "Ġirr": 10420,
    "itically": 21328,
    "Ġmultitude": 9323,
    "Ġlaughs": 24116,
    "eze": 20846,
    "Ġacceptance": 14825,
    "sm": 3436,
    "Ġdaunt": 19663,
    "Ġliterary": 25162,
    "Ġbowsprit": 16558,
    "Ġrestrict": 16372,
    "invariably": 26415,
    "petulance": 24298,
    "Ġasleep": 6836,
    "Ġvaults": 17152,
    "Ġcareless": 11118,
    "bl": 4142,
    "Ġpains": 5965,
    "Ġenthus": 7232,
    "Ġ1991": 3017,
    "Ġrelaps": 18774,
    "Ġmeditating": 20041,
    "move": 11854,
    "Ġdetermine": 3243,
    "Ġinvesting": 19645,
    "ctors": 21588,
    "obtained": 23094,
    "fore": 687,
    "Ġavert": 14423,
    "Ġdepending": 14291,
    "wic": 21119,
    "Ġmapple": 11149,
    "Ġodor": 12146,
    "Ġvacant": 9493,
    "Ġfires": 16470,
    "Ġreappeared": 21663,
    "Ġhelpless": 8302,
    "Ġprincip": 5599,
    "confid": 14865,
    "Ġrear": 6535,
    "Ġfacetious": 20582,
    "solute": 16597,
    "islands": 21374,
    "sed": 4177,
    "Ġextinguished": 10337,
    "Ġramad": 8527,
    "su": 804,
    "Ġmob": 16015,
    "cra": 6354,
    "humanity": 24839,
    "ad": 337,
    "Ġfist": 21402,
    "Ġcautiousness": 19865,
    "conversations": 24749,
    "Ġending": 18189,
    "Ġingratitude": 17467,
    "Ġhandful": 9780,
    "Ġjavel": 17083,
    "pence": 15408,
    "Ġisolated": 13557,
    "iasm": 8061,
    "con": 653,
    "Ġdesp": 3214,
    "tar": 8098,
    "Ġemm": 18002,
    "nx": 17606,
    "quely": 10230,
    "supernatural": 19778,
    "Ġcomplying": 18584,
    "awed": 10389,
    "Ġages": 7028,
    "Ġdetails": 6565,
    "Ġless": 1938,
    "Ġrefresh": 10342,
    "iocr": 20922,
    "Ġincidents": 9297,
    "arity": 1303,
    "ival": 4227,
    "og": 872,
    "Ġwre": 5077,
    "Ġshrunk": 16717,
    "idirection": 2412,
    "Ġsurviving": 24638,
    "draul": 9441,
    "Ġboldly": 9499,
    "Ġarabian": 9088,
    "terror": 18128,
    "sue": 2078,
    "ashes": 6016,
    "Ġsugg": 4498,
    "avo": 8517,
    "countenances": 24150,
    "Ġcore": 13876,
    "Ġcriminals": 19921,
    "Ġrespons": 2685,
    "Ġfrenz": 25446,
    "Ġdwelling": 7322,
    "Ġhumorousness": 25377,
    "Ġlittle": 865,
    "Ġoverwhelmed": 11402,
    "Ġenglishmen": 19428,
    "Ġcovari": 2340,
    "wers": 12516,
    "Ġcredulous": 17143,
    "hammer": 14488,
    "impregnable": 26480,
    "uel": 6966,
    "Ġenjoy": 3761,
    "derick": 22159,
    "archical": 1927,
    "Ġdem": 11672,
    "Ġoceans": 7996,
    "Ġextract": 1472,
    "Ġarmchair": 8271,
    "zing": 7821,
    "watches": 14945,
    "Ġyoung": 1509,
    "rential": 22917,
    "Ġflowers": 8939,
    "Ġrending": 19465,
    "Ġdistrusted": 13540,
    "Ġlofty": 6217,
    "Ġboundary": 11221,
    "Ġpaul": 12059,
    "Ġdid": 836,
    "Ġcritically": 23444,
    "Ġreserved": 7516,
    "gallant": 7781,
    "Ġresp": 2493,
    "finished": 10553,
    "Ġcrimson": 16440,
    "ilder": 15710,
    "Ġcondesc": 7181,
    "Ġpane": 21462,
    "Ġdocumentation": 20553,
    "Ġfourteen": 12006,
    "alous": 7372,
    "Ġtransfer": 2368,
    "obliged": 20630,
    "secur": 18125,
    "Ġthreatening": 16827,
    "Ġturkey": 19218,
    "wrinkled": 16552,
    "Ġhabit": 6771,
    "absent": 21788,
    "Ġeffects": 7236,
    "Ġtask": 1310,
    "imper": 13995,
    "Ġfisherman": 12072,
    "ivable": 10909,
    "Ġplaint": 10324,
    "Ġloitered": 26524,
    "ocr": 10467,
    "appro": 7044,
    "Ġcontaining": 2237,
    "Ġbranches": 6776,
    "Ġpomp": 12618,
    "Ġburied": 7719,
    "Ġcontents": 7210,
    "rals": 21041,
    "Ġhunch": 18934,
    "Ġfrontispiece": 23911,
    "behaviour": 11300,
    "Ġinclude": 1874,
    "Ġbawling": 25945,
    "conclusions": 25672,
    "Ġgri": 17987,
    "Ġbending": 12581,
    "ĠĠĠĠĠĠĠĠĠĠĠĠĠĠĠĠĠĠĠĠĠĠĠĠĠĠĠĠĠĠĠĠĠĠĠ": 19257,
    "boil": 19000,
    "degra": 22138,
    "Ġunsounded": 15847,
    "Ġgoose": 5938,
    "remained": 8569,
    "Ġflow": 1236,
    "antly": 1990,
    "vell": 3959,
    "endeav": 7150,
    "introduce": 25186,
    "befriend": 22489,
    "Ġclusters": 25232,
    "Ġleatherhead": 20012,
    "Ġadmiring": 16479,
    "Ġapprehensions": 13402,
    "Ġplow": 21458,
    "Ġnuptials": 20492,
    "avenue": 25057,
    "rily": 7622,
    "Ġdesertion": 24787,
    "ard": 465,
    "_âĢĶâĢĻ": 13680,
    "Ġagonized": 25372,
    "Ġphrases": 2801,
    "measureless": 20234,
    "accomp": 10454,
    "Ġdialogue": 12401,
    "Ġappropriated": 23485,
    "Ġwarned": 16879,
    "Ġelegance": 11331,
    "place": 4155,
    "garious": 17557,
    "Ġnewcastle": 16221,
    "Ġunfav": 14787,
    "Ġacross": 1331,
    "Ġjour": 11761,
    "queen": 12723,
    "theories": 18078,
    "Ġannual": 14830,
    "Ġprosecuted": 25293,
    "iday": 8828,
    "judgment": 16752,
    "Ġforbearance": 12325,
    "Ġexile": 12713,
    "vol": 733,
    "Ġrallied": 14093,
    "Ġsour": 21215,
    "anywhere": 14681,
    "Ġbelie": 14404,
    "returns": 23133,
    "withstanding": 8944,
    "Ġbounding": 19398,
    "Ġaf": 782,
    "Ġbus": 1904,
    "savage": 15073,
    "Ġhouses": 6138,
    "fastened": 19324,
    "Ġweariness": 19793,
    "Ġsavannah": 17414,
    "Ġparticularly": 5056,
    "officer": 17053,
    "ime": 626,
    "Ġpurpose": 2710,
    "Ġast": 2965,
    "pression": 10406,
    "Ġincor": 2611,
    "washed": 13042,
    "Ġphysiognomically": 25612,
    "anche": 10787,
    "Ġident": 2245,
    "Ġdiligently": 11404,
    "Ġmaze": 23828,
    "Ġbanks": 6814,
    "Ġunlimited": 26222,
    "Ġjollity": 25566,
    "Ġmarchant": 14784,
    "Ġtro": 7356,
    "mount": 9128,
    "Ġmortar": 19391,
    "Ġdwell": 5812,
    "sweetly": 25134,
    "Ġstile": 21730,
    "garity": 17553,
    "aw": 1447,
    "Ġberth": 8679,
    "morn": 20975,
    "rudential": 16709,
    "Ġperadventure": 22396,
    "Ġstrolled": 16769,
    "Ġvanquished": 22874,
    "Ġapprovingly": 26253,
    "seemingly": 25362,
    "Ġgrated": 22801,
    "Ġgrass": 5177,
    "houn": 20892,
    "Ġaforethought": 25428,
    "Ġdisastrous": 16058,
    "Ġenvelope": 7319,
    "Ġpoetry": 15078,
    "Ġpleasurable": 23339,
    "Ġcoach": 6867,
    "Ġonce": 1490,
    "Ġass": 1507,
    "henomena": 20271,
    "Ġhonestly": 19970,
    "riving": 21929,
    "Ġcounting": 13093,
    "Ġcrimin": 6901,
    "Ġbadge": 16682,
    "eding": 7165,
    "Ġpounds": 5368,
    "Ġens": 2791,
    "ny": 4016,
    "Ġusher": 22215,
    "Ġrascal": 11698,
    "Ġevenly": 4130,
    "Ġfamine": 16327,
    "buncle": 13690,
    "Ġdisrespect": 18553,
    "Ġwatching": 4854,
    "Ġmechanism": 2190,
    "egyptians": 25898,
    "Ġrooted": 13167,
    "Ġgrapnels": 25551,
    "derer": 4598,
    "Ġminimizes": 2047,
    "Ġmeryton": 4437,
    "appalling": 22843,
    "tw": 2815,
    "Ġoccas": 2704,
    "Ġliberality": 24376,
    "mut": 17594,
    "Ġbreezes": 14867,
    "earth": 6502,
    "late": 11497,
    "Ġiv": 4044,
    "Ġservox": 23868,
    "engagement": 14456,
    "Ġcrutch": 23445,
    "adieu": 26200,
    "accessible": 13637,
    "Ġmonoman": 7939,
    "Ġemployments": 12099,
    "Ġbrotherly": 16527,
    "travelling": 24316,
    "Ġincreasingly": 9368,
    "wrinkles": 16553,
    "Ġbeaut": 2394,
    "windows": 19533,
    "Ġmacy": 19353,
    "Ġmarched": 18871,
    "Ġweather": 3997,
    "Ġmaternal": 11058,
    "Ġpreventing": 884,
    "sound": 6799,
    "ersed": 10256,
    "Ġtorment": 8673,
    "Ġgulp": 20027,
    "fifty": 12349,
    "Ġfootman": 8288,
    "Ġutensils": 23514,
    "ray": 2438,
    "Ġrephrased": 26476,
    "Ġtranquill": 6630,
    "Ġamuse": 5940,
    "Ġprairies": 20019,
    "Ġwreat": 15529,
    "grained": 20882,
    "Ġdaintiest": 25953,
    "Ġwondering": 7971,
    "muring": 17600,
    "Ġsurrounding": 12159,
    "windward": 24159,
    "Ġexasperate": 20096,
    "Ġseek": 4507,
    "Ġpossibly": 4512,
    "Ġupward": 9719,
    "Ġuneasily": 24229,
    "remes": 21236,
    "condescended": 26248,
    "Ġeffaced": 18531,
    "Ġpossess": 3200,
    "top": 4484,
    "valley": 16213,
    "peculiar": 6886,
    "gard": 7339,
    "Ġbill": 4040,
    "Ġplatform": 17130,
    "Ġcalling": 5662,
    "examined": 17265,
    "ated": 716,
    "Ġsit": 4217,
    "Ġdrown": 6815,
    "Ġdoxology": 22242,
    "Ġdisappeared": 5645,
    "ection": 4948,
    "Ġcoachman": 14999,
    "Ġlandlessness": 23378,
    "extrem": 18710,
    "Ġviciously": 24403,
    "Ġretrogress": 23072,
    "Ġrates": 1405,
    "Ġper": 587,
    "Ġpositional": 2598,
    "Ġmalice": 7152,
    "pin": 13765,
    "ĠĠĠĠĠĠĠĠĠĠĠĠĠĠĠĠĠĠĠĠĠĠĠĠĠĠĠĠĠĠĠĠĠĠĠĠĠĠĠĠĠĠĠĠĠĠĠĠĠĠĠĠĠ": 20038,
    "osa": 22258,
    "Ġfrown": 10806,
    "ish": 549,
    "Ġord": 3736,
    "Ġsighs": 22707,
    "Ġscreen": 17204,
    "arpo": 1755,
    "Ġlikely": 3598,
    "Ġtropical": 17065,
    "Ġendeavoured": 4918,
    "Ġmany": 1106,
    "Ġearnestness": 12122,
    "Ġhumped": 19768,
    "Ġeyelids": 26107,
    "Ġoverpowering": 15247,
    "Ġdol": 9663,
    "Ġsuffice": 18869,
    "Ġtwisted": 7228,
    "Ġrecoil": 18692,
    "iamond": 14589,
    "Ġcovering": 13252,
    "striving": 24669,
    "Ġsome": 655,
    "Ġcur": 1240,
    "Ġwalrus": 14971,
    "Ġkick": 5837,
    "Ġphysi": 9986,
    "Ġp": 289,
    "Ġri": 3395,
    "Ġhatches": 12042,
    "Ġabide": 14186,
    "Ġhelplessness": 25071,
    "rannical": 26400,
    "Ġovercome": 6044,
    "Ġsparkled": 13460,
    "Ġmount": 7362,
    "rity": 13774,
    "Ġsocket": 12781,
    "Ġinjure": 16780,
    "Ġchaps": 14178,
    "civilized": 17074,
    "Ġtravels": 11924,
    "scarcely": 12383,
    "aware": 16293,
    "real": 10148,
    "Ġurgent": 16866,
    "Ġlanguor": 12843,
    "Ġparacelsus": 15264,
    "favourable": 12260,
    "Ġhen": 3501,
    "Ġinducements": 24967,
    "Ġcongregation": 12326,
    "treat": 12509,
    "Ġillustrations": 17107,
    "Ġch": 513,
    "as": 302,
    "Ġforcing": 3224,
    "innocence": 15181,
    "reluct": 26163,
    "Ġmeals": 12707,
    "bene": 6112,
    "Ġonset": 12706,
    "Ġconsol": 3815,
    "ef": 5134,
    "enses": 10993,
    "Ġadmeasure": 18293,
    "Ġmedical": 9462,
    "Ġmisfortune": 5568,
    "Ġnods": 19062,
    "urry": 13992,
    "Ġfelicity": 7260,
    "Ġungover": 18255,
    "corner": 13395,
    "Ġsub": 951,
    "po": 1140,
    "Ġmyself": 1453,
    "lone": 11498,
    "while": 2940,
    "Ġergo": 25029,
    "Ġsnuffing": 25012,
    "hack": 20895,
    "Ġgraph": 10901,
    "Ġimmeas": 18334,
    "Ġnaturalist": 22889,
    "Ġlouisa": 13544,
    "gypt": 8261,
    "relu": 17758,
    "ignific": 11951,
    "Ġsoc": 3524,
    "geese": 22365,
    "borrowed": 20791,
    "Ġdismantled": 20215,
    "Ġdomin": 10460,
    "ounced": 4954,
    "Ġempty": 5353,
    "Ġswept": 7978,
    "turner": 19540,
    "shabb": 18490,
    "ogr": 18677,
    "Ġmastiff": 23723,
    "eagerly": 17314,
    "Ġbrahma": 26319,
    "Ġeasiest": 23536,
    "Ġunqualified": 22057,
    "Ġ33": 16675,
    ",âĢĶ": 3167,
    "Ġsubdivisions": 26037,
    "Ġlights": 8959,
    "bles": 7017,
    "Ġawaited": 17073,
    "Ġoriginally": 7304,
    "imprudence": 16555,
    "Ġmistakes": 16539,
    "dered": 2473,
    "ells": 5303,
    "Ġaffairs": 6877,
    "Ġbare": 6132,
    "Ġfrigates": 25707,
    "row": 1064,
    "Ġmutineer": 19416,
    "likewise": 13103,
    "Ġjud": 3358,
    "ings": 636,
    "no": 888,
    "Ġunwillingness": 20030,
    "uous": 4146,
    "narr": 12493,
    "Ġmotionless": 8324,
    "attempt": 9358,
    "Ġgleamed": 17076,
    "Ġadieus": 25110,
    "Ġgravely": 7884,
    "Ġdive": 10171,
    "Ġpressure": 13420,
    "ems": 5236,
    "Ġnoah": 10941,
    "Ġscared": 14188,
    "Ġgrapple": 25811,
    "wolf": 26408,
    "Ġaffidavit": 20723,
    "Ġxerxes": 23409,
    "Ġbreak": 2873,
    "Ġrescue": 13340,
    "naturedly": 24840,
    "Ġcomple": 2846,
    "Ġvis": 1077,
    "nurse": 15206,
    "Ġserene": 8167,
    "Ġinterconnected": 1340,
    "Ġcontempl": 6701,
    "Ġcommotion": 9778,
    "Ġtidings": 11396,
    "Ġsod": 11560,
    "Ġreligion": 11414,
    "Ġaxe": 15062,
    "Ġsweetness": 9444,
    "Ġeu": 6390,
    "Ġagitates": 22515,
    "Ġwings": 9162,
    "iner": 2671,
    "Ġjulia": 22300,
    "Ġannot": 15599,
    "roofed": 26183,
    "Ġbenefited": 19396,
    "Ġhorizont": 6937,
    "Ġsu": 433,
    "barr": 15318,
    "Ġlightened": 23259,
    "Ġliv": 6679,
    "Ġdisown": 22522,
    "Ġrefinement": 18696,
    "iber": 6506,
    "Ġreceptive": 1565,
    "self": 617,
    "Ġxxii": 24477,
    "Ġbroadway": 23981,
    "Ġpropose": 9851,
    "Ġhorrid": 7999,
    "etus": 21576,
    "Ġremove": 7500,
    "Ġamply": 22480,
    "Ġpainfully": 13140,
    "Ġprocedural": 12027,
    "Ġstation": 5297,
    "Ġworks": 5857,
    "anations": 12572,
    "gment": 4388,
    "Ġenters": 11025,
    "itten": 3441,
    "blown": 25201,
    "Ġpartaking": 22695,
    "Ġsaintsbury": 26372,
    "Ġcompan": 2173,
    "Ġcared": 8781,
    "Ġeats": 15674,
    "Ġranging": 8478,
    "reader": 23844,
    "Ġlouder": 13466,
    "Ġpriest": 7527,
    "Ġeth": 17715,
    "wicked": 24448,
    "elius": 13285,
    "Ġdays": 2079,
    "trained": 4239,
    "rises": 17654,
    "Ġblasted": 7938,
    "!âĢĿ": 846,
    "onday": 6064,
    "Ġbedrooms": 19968,
    "ographical": 16785,
    "ense": 2052,
    "fth": 20855,
    "Ġhapp": 1087,
    "results": 20385,
    "Ġencounter": 6627,
    "widely": 25343,
    "ifled": 14061,
    "cain": 15324,
    "heidelburgh": 21210,
    "Ġinconsistency": 26182,
    "Ġaudacious": 13458,
    "Ġcordon": 24393,
    "Ġhellaswag": 24342,
    "Ġstride": 22611,
    "shells": 26056,
    "waiting": 12217,
    "Ġengraved": 17080,
    "izarre": 17387,
    "Ġthre": 2060,
    "Ġboats": 2639,
    "Ġhol": 1183,
    "Ġpaunch": 23748,
    "pane": 10119,
    "Ġinvariably": 8064,
    "Ġopposite": 5120,
    "Ġslop": 23159,
    "ier": 1138,
    "Ġundulated": 19515,
    "ounders": 22382,
    "Ġblaze": 16218,
    "appearance": 5333,
    "Ġexpressed": 4466,
    "pleasanter": 24044,
    "Ġfaded": 10808,
    "izar": 14041,
    "Ġsneezing": 12244,
    "Ġcontrad": 9753,
    "Ġinadequate": 17936,
    "Ġmixture": 9561,
    "lingly": 9771,
    "silenced": 24422,
    "Ġcabinets": 23860,
    "Ġ30": 10510,
    "Ġhearth": 11978,
    "Ġhugest": 17014,
    "after": 2901,
    "Ġvesuvius": 26500,
    "Ġsequence": 1977,
    "Ġvision": 1605,
    "bbings": 19275,
    "Ġstruggled": 9903,
    "Ġyankees": 26201,
    "entering": 17976,
    "ual": 946,
    "Ġevangelical": 25506,
    "Ġsandwic": 24664,
    "spersed": 22735,
    "tracks": 19637,
    "Ġmyth": 18220,
    "Ġaltern": 7394,
    "Ġtoss": 10183,
    "Ġhandsome": 4906,
    "Ġharb": 7370,
    "Ġstupid": 7604,
    "Ġnich": 21518,
    "Ġavoid": 5199,
    "Ġmusic": 5268,
    "Ġfresher": 23212,
    "Ġpuzzle": 11304,
    "Ġgeneralize": 3099,
    "rogress": 21534,
    "Ġbrushed": 15568,
    "Ġargu": 10933,
    "Ġencourages": 2062,
    "warm": 8102,
    "Ġbrave": 6329,
    "intelligent": 16843,
    "unavoid": 14060,
    "Ġsed": 10760,
    "rel": 3755,
    "vit": 13799,
    "Ġindian": 4132,
    "Ġbridge": 8349,
    "undant": 14785,
    "Ġstowed": 21734,
    "sters": 6391,
    "ihood": 20921,
    "Ġsubsisting": 23433,
    "shed": 8095,
    "mbles": 23087,
    "Ġdeser": 3887,
    "Ġagreeable": 4550,
    "Ġberyls": 25775,
    "Ġcombinations": 22860,
    "Ġaspects": 4175,
    "likelihood": 4992,
    "Ġjoined": 4562,
    "Ġperv": 15988,
    "Ġcyn": 13884,
    "Ġfrenzy": 13620,
    "Ġmechanisms": 1578,
    "pl": 401,
    "Ġordin": 16649,
    "Ġancles": 21445,
    "ainty": 21785,
    "Ġuntoward": 19164,
    "example": 16011,
    "Ġconcuss": 19046,
    "Ġabandoned": 8352,
    "Ġruins": 16157,
    "convul": 24883,
    "itar": 15544,
    "Ġproviding": 1360,
    "Ġgaining": 9490,
    "Ġrogue": 22415,
    "evade": 24820,
    "cular": 15326,
    "Ġabusing": 18393,
    "recol": 10149,
    "xes": 21139,
    "Ġslay": 16305,
    "Ġhogarth": 25780,
    "generosity": 23785,
    "Ġstumped": 24942,
    "responsible": 25763,
    "Ġdecl": 3589,
    "girdling": 26388,
    "sou": 12502,
    "instant": 8651,
    "ther": 482,
    "ske": 13780,
    "Ġeyes": 1336,
    "title": 17286,
    "Ġabrid": 22270,
    "Ġhus": 3090,
    "Ġhatchways": 24989,
    "T": 56,
    "Ġpreface": 18367,
    "umbled": 8492,
    "dish": 12449,
    "supposed": 13313,
    "chat": 21684,
    "Ġbloodshed": 23799,
    "Ġgoverness": 8601,
    "Ġescapes": 23507,
    "corners": 17366,
    "safie": 20347,
    "Ġimplements": 2485,
    "Ġaver": 1287,
    "comprehend": 14358,
    "Ġwithout": 1124,
    "allers": 22195,
    "Ġdenoted": 16563,
    "icity": 2539,
    "Ġingenious": 12345,
    "Ġdisobey": 18559,
    "Ġtimid": 6345,
    "Ġcourtesy": 9943,
    "Ġstanding": 3001,
    "Ġseconds": 16393,
    "Ġbanners": 24858,
    "Ġceler": 15548,
    "Ġserving": 14484,
    "Ġstalk": 12693,
    "Ġconcern": 2586,
    "Ġconvince": 14641,
    "vis": 4575,
    "Ġmouthful": 16572,
    "refuge": 24734,
    "Ġstranger": 3484,
    "etymology": 14699,
    "an": 278,
    "frequented": 25900,
    "gar": 5614,
    "Ġfour": 2218,
    "jewel": 20345,
    "Ġdestro": 3723,
    "Ġevermore": 18811,
    "mayhew": 23989,
    "touch": 8392,
    "Ġrhone": 25230,
    "Ġinforming": 18742,
    "Ġdeployment": 11195,
    "Ġdistributing": 22677,
    "Ġsurveying": 25325,
    "Ġextinction": 14325,
    "Ġarrested": 9559,
    "Ġincisive": 18570,
    "Ġwindigate": 18909,
    "strade": 5065,
    "Ġhoars": 19077,
    "Ġdiffer": 18676,
    "Ġflatter": 9346,
    "freighted": 14890,
    "Ġkins": 22192,
    "Ġkicks": 19767,
    "Ġinclosed": 19537,
    "Ġgleam": 12305,
    "Åĵuvre": 25887,
    "places": 7878,
    "Ġuninter": 18246,
    "Ġcask": 5527,
    "adventure": 17232,
    "Ġgentlemanly": 19315,
    "Ġerudite": 26350,
    "Ġunguarded": 15848,
    "inctions": 17731,
    "Ġexcused": 23312,
    "Ġeating": 8136,
    "Ġconstru": 19069,
    "Ġformality": 22827,
    "Ġvor": 15804,
    "Ġgovernment": 15174,
    "expect": 4769,
    "Ġcommentators": 25229,
    "hedge": 22497,
    "Ġpag": 6011,
    "balanced": 14555,
    "fortnight": 13085,
    "Ġdollars": 11454,
    "Ġrokovoko": 22416,
    "ving": 594,
    "Ġhum": 1098,
    "Ġawaiting": 11389,
    "Ġgaiety": 16748,
    "coiled": 16485,
    "Ġtalents": 15043,
    "Ġworaciousness": 22927,
    "shapes": 22450,
    "darkness": 9510,
    "still": 4220,
    "Ġpregnant": 26534,
    "Ġdivers": 9664,
    "Ġinjuring": 24267,
    "Ġfab": 15573,
    "air": 1002,
    "Ġpredicting": 2416,
    "Ġneglected": 10376,
    "Ġburns": 16522,
    "Ġreb": 15688,
    "concern": 5875,
    "Ġnug": 21523,
    "Ġcatching": 9476,
    "Ġworshipper": 25692,
    "articulate": 17393,
    "yonder": 21143,
    "Ġassuredly": 14820,
    "Ġreciprocating": 26369,
    "Ġinsensible": 12322,
    "phon": 4127,
    "Ġpreposterous": 13667,
    "Ġfrightful": 7736,
    "Ġinvestment": 24335,
    "yramid": 8368,
    "Ġpropriet": 9548,
    "Ġfiver": 22777,
    "although": 8804,
    "Ġblazing": 11893,
    "Ġran": 3340,
    "Ġdeceitfulness": 25734,
    "emper": 18180,
    "Ġanxiety": 5408,
    "Ġabomin": 8189,
    "itic": 11576,
    "Ġquitting": 7646,
    "Ġaccent": 10292,
    "vener": 21110,
    "offing": 23332,
    "Ġwondered": 11124,
    "Ġrests": 13091,
    "!âĢĻ": 3329,
    "Ġloses": 15871,
    "Ġannounce": 13336,
    "gorge": 22340,
    "ientific": 6547,
    "Ġconfidence": 6590,
    "Ġbrad": 8785,
    "Ġgown": 10200,
    "crat": 24097,
    "urmountable": 15277,
    "prudently": 21033,
    "Ġmixed": 6974,
    "Ġbent": 5149,
    "Ġagric": 22513,
    "Ġfixing": 13154,
    "Ġalarming": 14778,
    "Ġwishing": 7831,
    "Ġboomer": 20166,
    "Ġaspect": 3095,
    "ropri": 2179,
    "felix": 10652,
    "germans": 20564,
    "Ġtow": 4393,
    "Ġjoyously": 19345,
    "Ġunh": 9251,
    "Ġcoast": 4654,
    "sheep": 23085,
    "Ġblack": 2034,
    "Ġrecognition": 3067,
    "Ġtout": 17718,
    "Ġsigning": 22706,
    "prosper": 19100,
    "Ġcomputers": 2646,
    "Ġspasmodically": 17312,
    "uncommon": 11679,
    "Ġlearn": 365,
    "Ġask": 1491,
    "tum": 11530,
    "Ġwidely": 8033,
    "Ġwapping": 21293,
    "event": 8077,
    "Ġmetrics": 19073,
    "Ġimpenit": 22390,
    "Ġhawaiian": 25366,
    "Ġgenerates": 3663,
    "plex": 708,
    "Ġangle": 8602,
    "Ġceleb": 20224,
    "Ġbachelor": 7787,
    "Ġfigure": 4207,
    "igations": 18043,
    "Ġnewcomers": 26041,
    "Ġreaders": 18913,
    "rese": 15507,
    "idate": 21765,
    "unnatural": 15770,
    "see": 3046,
    "itation": 1780,
    "Ġstraits": 7994,
    "Ġair": 1836,
    "possesses": 24617,
    "Ġprofane": 13150,
    "sleeves": 26109,
    "Ñ": 146,
    "Ġbulldog": 23857,
    "Ġdishes": 16048,
    "long": 2917,
    "Ġderived": 8239,
    "Ġdiminish": 14744,
    "Ġcirclings": 26430,
    "oop": 10714,
    "Ġhumbug": 18778,
    "inisc": 15487,
    "Ġsuccor": 25662,
    "riet": 18184,
    "Ġambitious": 18513,
    "Ġproxim": 3196,
    "Ġpangs": 15612,
    "Ġdownward": 10330,
    "Ġharpooned": 13259,
    "Ġfolding": 19725,
    "Ġireland": 17333,
    "Ġtalker": 23369,
    "Ġyet": 1029,
    "settled": 10505,
    "ula": 2829,
    "Ġbishop": 13900,
    "strikes": 24670,
    "complain": 14356,
    "_.)": 7278,
    "Ġfif": 4218,
    "Ġconversation": 3327,
    "rusted": 16505,
    "ue": 1180,
    "Ġclue": 7019,
    "duodecimo": 15998,
    "planks": 21952,
    "Ġmilitary": 11257,
    "Ġtrample": 20326,
    "Ġinf": 1756,
    "Ġcushion": 17833,
    "Ġstrata": 26027,
    "Ġshirt": 8847,
    "ober": 15405,
    "Ġproject": 5545,
    "Ġmeta": 3452,
    "Ġsinusoid": 4781,
    "ceased": 21624,
    "Ġsupposition": 9815,
    "positive": 20566,
    "Ġbrawny": 13611,
    "met": 6652,
    "Ġperfect": 2557,
    "Ġinvestig": 10548,
    "thoughtfully": 24041,
    "Ġcleared": 6075,
    "Ġfortitude": 9883,
    "Ġstr": 752,
    "Ġthrust": 5084,
    "Ġgallantry": 15101,
    "Ġidentified": 19150,
    "fits": 13716,
    "vishnoo": 21118,
    "Ġinterruption": 9471,
    "Ġinnovative": 1583,
    "Ġbrowne": 13299,
    "disaster": 23493,
    "Ġremains": 4910,
    "Ġinterpreter": 23215,
    "Ġcreate": 2092,
    "crawling": 16957,
    "Ġimpotently": 22392,
    "Ġadequ": 10912,
    "Ġlanguid": 14212,
    "altogether": 12635,
    "Ġdischarge": 18556,
    "Ġduncan": 13459,
    "umul": 1291,
    "raction": 8138,
    "Ġcoer": 22579,
    "Ġmidday": 23632,
    "Ġimaginary": 11185,
    "sufficiently": 14979,
    "Ġexerted": 15752,
    "Ġinclemency": 22553,
    "Ġefforts": 11800,
    "Ġamours": 22479,
    "agre": 18164,
    "Ġbreathes": 13243,
    "mel": 9126,
    "Ġcanvassed": 19933,
    "mitted": 5213,
    "named": 9895,
    "dissatisfied": 26611,
    "Ġobst": 6283,
    "Ġtea": 5041,
    "Ġeber": 18003,
    "bird": 9584,
    "À": 129,
    "splinter": 25210,
    "uc": 1876,
    "look": 2265,
    "Ġlitter": 19828,
    "Ġexploration": 2338,
    "dz": 4739,
    "Ġpowder": 11274,
    "Ġrouse": 15819,
    "Ġstrang": 4162,
    "Ġdespair": 4010,
    "hered": 5622,
    "Ġconge": 15743,
    "Ġauxiliary": 26417,
    "Ġsammy": 24932,
    "manned": 18760,
    "commend": 19991,
    "Ġland": 1998,
    "Ġfootfalls": 25866,
    "Ġbefall": 8827,
    "Ġhall": 4184,
    "Ġdrugg": 17118,
    "Ġtablets": 13153,
    "bar": 7542,
    "Ġdo": 511,
    "suspicious": 25390,
    "Ġwave": 7576,
    "chron": 21692,
    "Ġtimber": 13347,
    "tormented": 13643,
    "Ġfancied": 7326,
    "Ġshipwrecked": 25687,
    "Ġhorrors": 10478,
    "Ġ32": 19487,
    "consideration": 14953,
    "hopes": 15367,
    "Ġresign": 18564,
    "itated": 4439,
    "Ġinsolent": 13598,
    "`": 68,
    "anxiously": 15108,
    "Ġxavier": 2859,
    "Ġalighted": 18103,
    "Ġcane": 10926,
    "Ġflourished": 15123,
    "Ġfret": 10805,
    "charlotte": 6473,
    "Ġweig": 7619,
    "Ġconvict": 23744,
    "Ġpursuing": 9436,
    "Ġpersonified": 19177,
    "Ġsinister": 8568,
    "elsewhere": 19867,
    "Ġadmired": 7982,
    "german": 11490,
    "ing": 273,
    "cod": 12440,
    "inery": 17732,
    "feet": 6568,
    "rob": 5533,
    "Ġtable": 2498,
    "ensical": 18567,
    "Ġhempen": 13548,
    "finds": 19926,
    "imony": 12686,
    "Ġcomputer": 1201,
    "iled": 1764,
    "Ġparaphrasing": 26525,
    "sign": 8388,
    "distraction": 24199,
    "seek": 8835,
    "Ġlubber": 17442,
    "wait": 11319,
    "Ġhazarded": 25654,
    "ording": 9762,
    "complete": 15033,
    "Ġvide": 10249,
    "irms": 18168,
    "Ġglory": 6065,
    "sorts": 21059,
    "Ġlombardy": 26462,
    "Ġdress": 4021,
    "Ġspect": 3551,
    "_)": 9100,
    "Ġvile": 8472,
    "ollen": 11297,
    "Ġlodges": 19498,
    "oh": 1579,
    "bug": 17491,
    "Ġeurope": 8062,
    "Ġsociet": 9447,
    "istol": 6259,
    "Ġobservable": 25126,
    "Ġconcealing": 23900,
    "aloud": 17940,
    "mason": 17602,
    "delight": 5344,
    ",_": 11461,
    "Ġfaltering": 17884,
    "Ġabsence": 4894,
    "Ġ91": 24590,
    "nson": 16091,
    "Ġceased": 6468,
    "mont": 19168,
    "Ġalphabetical": 17200,
    "prosperity": 20734,
    "Ġstated": 9687,
    "Ġminiature": 11039,
    "elect": 20845,
    "Ġgeometric": 3218,
    "Ġshrinking": 14803,
    "Ġmutters": 23953,
    "Ġcave": 10784,
    "oky": 8198,
    "Ġprotested": 9932,
    "active": 16101,
    "Ġpillar": 21472,
    "direction": 17523,
    "han": 12469,
    "Ġunobserved": 18249,
    "pper": 3207,
    "Ġabout": 632,
    "Ġrepresentations": 1875,
    "Ġcommonest": 23088,
    "Ġleeward": 6210,
    "Ġinfluence": 5515,
    "ā": 194,
    "Ġthack": 21515,
    "Ġproud": 5654,
    "Ġecl": 18005,
    "Ġbennets": 9804,
    "ty": 1001,
    "[_": 5131,
    "gentleness": 24844,
    "gor": 550,
    "Ġpat": 1787,
    "swift": 14850,
    "respond": 12540,
    "Ġbig": 5805,
    "otam": 21796,
    "Ġunche": 23427,
    "Ġbutler": 18270,
    "Ġprocessing": 879,
    "Ġfeels": 6882,
    "^{": 15302,
    "castles": 14635,
    "Ġlexic": 15721,
    "ome": 535,
    "given": 8377,
    "Ġmovements": 24358,
    "ender": 9159,
    "sand": 21051,
    "Ġsadly": 7302,
    "Ġgpt": 4349,
    "ractions": 11631,
    "Ġtartar": 17320,
    "understand": 1091,
    "Ġretreating": 19798,
    "Ġworsted": 19993,
    "tisement": 6767,
    "Ġbison": 21386,
    "Ġslack": 8954,
    "Ġcast": 3606,
    "Ġbumpkins": 25281,
    "exceed": 7912,
    "Ġlids": 12272,
    "Ġcow": 13874,
    "crop": 20797,
    "from": 1992,
    "Ġxiii": 25591,
    "Ġrevolver": 14896,
    "honorable": 19900,
    "**:": 4737,
    "bru": 12436,
    "Ġword": 1050,
    "antage": 3879,
    "Ġpoints": 5248,
    "Ġdescrib": 2721,
    "Ġ1828": 25720,
    "mists": 17604,
    "cient": 4567,
    "Ġunwarrantable": 26353,
    "erick": 13846,
    "sander": 11525,
    "Ġspat": 2665,
    "imately": 12684,
    "accusations": 23598,
    "oping": 5558,
    "Ġduck": 8792,
    "Ġmuseum": 15269,
    "Ġbelfry": 26437,
    "Ġsuited": 12783,
    "Ġregretted": 13398,
    "ear": 8730,
    "recursion": 13326,
    "Ġcom": 369,
    "affairs": 14655,
    "Ġmen": 1433,
    "Ġenabling": 1076,
    "Ġmurky": 19200,
    "Ġcompliance": 12111,
    "Ġdeeper": 2085,
    "ksome": 10103,
    "Ġimm": 3966,
    "aration": 12603,
    "Ġthreatened": 8330,
    "âĢľ_": 5720,
    "maged": 15391,
    "Ġrobustness": 18915,
    "Ġsecond": 1891,
    "slanting": 24557,
    "Ġunclad": 22050,
    "ffic": 22149,
    "oves": 15402,
    "Ġdiff": 3113,
    "evident": 25520,
    "superiority": 20184,
    "Ġcausing": 16356,
    "buried": 14847,
    "Ġdiscoursing": 26266,
    "Ġstuff": 5717,
    "Ġhessian": 3547,
    "Ġtrophy": 20005,
    "Ġferocity": 16870,
    "enjoy": 10773,
    "Ġignor": 4012,
    "cab": 7333,
    "Ġuncivilized": 25498,
    "warp": 17705,
    "Ġblind": 3717,
    "Ġdogs": 7742,
    "excepting": 19705,
    "Ġfamiliarly": 11302,
    "Ġdistances": 22502,
    "iform": 2203,
    "astrop": 3313,
    "Ġutterance": 14762,
    "Ġmaz": 15539,
    "77": 15298,
    "ineas": 15820,
    "Ġnavigation": 9991,
    "Ġwreak": 16816,
    "Ġmeanwhile": 5736,
    "Ġwalking": 4323,
    "whaleman": 23434,
    "Ġrept": 13981,
    "Ġoverpower": 12838,
    "whispered": 20032,
    "Ġswain": 18880,
    "Ġced": 10783,
    "Ġsavor": 23873,
    "nuts": 15397,
    "near": 5842,
    "intu": 22931,
    "Ġperson": 2371,
    "Ġoccupation": 9929,
    "dearest": 11731,
    "Ġsystematic": 5245,
    "ean": 20839,
    "Ġfinished": 5044,
    "Ġscotch": 12206,
    "Ġtranquillity": 7537,
    "ufactured": 15179,
    "inv": 8401,
    "squee": 15429,
    "Ġroot": 2652,
    "Ġungovernable": 20708,
    "###": 3827,
    "oke": 1858,
    "Ġmansfield": 25938,
    "Ġthrough": 601,
    "include": 23588,
    "Ġslugg": 15266,
    "occasion": 7754,
    "topp": 22563,
    "devils": 20031,
    "within": 6730,
    "couldn": 23716,
    "Ġagonies": 14250,
    "ibbald": 18840,
    "Ġexcitement": 9379,
    "Ġdances": 10811,
    "commander": 16986,
    "Ġtackles": 8051,
    "Ġpop": 5151,
    "Ġwhittingham": 26197,
    "eked": 16397,
    "Ġchiefly": 5766,
    "gates": 20871,
    "Ġpush": 9183,
    "Ġpeddler": 24800,
    "angel": 5726,
    "Ġprofoundly": 16858,
    "olera": 21831,
    "screw": 9345,
    "Ġgeorge": 3749,
    "Ġgoat": 16004,
    "flesh": 13488,
    "Ġbears": 6829,
    "Ġrobinson": 17462,
    "melted": 25206,
    "key": 5463,
    "dragged": 16607,
    "Ġbraided": 16579,
    "hangs": 15366,
    "orne": 17872,
    "Ġsporty": 19889,
    "Ġcircumstance": 4987,
    "uses": 11757,
    "Ġreigned": 13985,
    "Ġwife": 2588,
    "Ġencoun": 4510,
    "._]]": 5334,
    "jug": 17579,
    "ications": 4444,
    "uendoes": 26406,
    "iar": 2380,
    "crooked": 25746,
    "Ġreplen": 11114,
    "Ġwra": 5906,
    "Ġenvironments": 24065,
    "Ġpointing": 5661,
    "Ġsudden": 2000,
    "engthen": 14455,
    "Ġwhiting": 10858,
    "Ġdealer": 23974,
    "Ġpalsy": 25778,
    "mockery": 24377,
    "Ġjacobians": 2898,
    "Ġschools": 9475,
    "Ġcost": 2504,
    "few": 8203,
    "Ġlaid": 3941,
    "..": 5783,
    "finer": 17545,
    "Ġbenjam": 22888,
    "Ġradney": 6775,
    "Ġdreadful": 4920,
    "saturday": 14856,
    "Ġtranced": 18432,
    "commence": 19990,
    "chariot": 26478,
    "21": 10070,
    "antled": 18287,
    "ball": 7793,
    "Ġpiping": 23225,
    "Ġno": 510,
    "Ġsleepless": 14581,
    "-": 17,
    "Ġdreaminess": 23937,
    "Ġpasseng": 12967,
    "Ġjerking": 12242,
    "Ġsmallest": 6430,
    "other": 1314,
    "Ġboat": 1276,
    "Ġdisturbance": 15011,
    "Ġdetested": 14176,
    "iration": 4538,
    "Ġhack": 12752,
    "Ġaromatic": 25925,
    "material": 13128,
    "Ġdeficiency": 14401,
    "thy": 2939,
    "Ġbeloved": 5571,
    "malicious": 19901,
    "Ġjar": 15948,
    "Ġactually": 5389,
    ",*": 17470,
    "attacks": 23120,
    "Ġamsterdam": 22482,
    "Ġcalmer": 23040,
    "Ġcontemplated": 13462,
    "explanation": 12355,
    "horn": 8086,
    "Ġconfeder": 25708,
    "Ġinsufficient": 9671,
    "Ġexcessive": 3892,
    "Ġstatement": 5254,
    "Ġmales": 17805,
    "Ġresource": 10992,
    "Ġcables": 15555,
    "Ġgallop": 19554,
    "Ġinferior": 8366,
    "ascended": 24706,
    "Ġalternating": 15029,
    "Ġminut": 2207,
    "Ġsuffering": 8945,
    "ocris": 23707,
    "Ġsunrise": 9371,
    "Ġoppress": 13170,
    "waited": 24586,
    "upon": 2725,
    "dden": 1805,
    "Ġgord": 21598,
    "Ġsplashed": 23747,
    "ploy": 2054,
    "tim": 13789,
    "bride": 19198,
    "Ġpropri": 6738,
    "Ġgodlike": 23356,
    "clusion": 16304,
    "stooped": 23819,
    "Ġreminded": 9997,
    "Ġimbec": 14155,
    "Ġvelvets": 25393,
    "Ġvigour": 24461,
    "stump": 21645,
    "arial": 5531,
    "vered": 4829,
    "Ġsplitting": 4381,
    "rubber": 12804,
    "Ġflight": 6582,
    "Ġdegraded": 19225,
    "Ġblaming": 22928,
    "clearer": 24066,
    "Ġhandsomest": 20333,
    "Ġhimmale": 18329,
    "Ġetext": 23947,
    "hook": 12050,
    "este": 15914,
    "Ġfemin": 13434,
    "Ġtasted": 12525,
    "Ġtarts": 10752,
    "ceiling": 21625,
    "Ġcomforts": 14692,
    "ħ": 232,
    "Ġrope": 4337,
    "thankful": 16805,
    "Ġclaws": 15964,
    "instruct": 19541,
    "Ġgood": 1000,
    "Ġunavailing": 26215,
    "Ġcynicism": 25771,
    "Ġincome": 7918,
    "Ġtempor": 2369,
    "k": 79,
    "Ġphrensy": 25124,
    "Ġconsid": 1813,
    "abez": 10221,
    "Ġ75": 19611,
    "Ġperched": 10298,
    "Ġpyth": 21460,
    "Ġremoving": 12113,
    "delightful": 12193,
    "bern": 20774,
    "danger": 10088,
    "skeleton": 17374,
    "Ġcrows": 24028,
    "Ġinterest": 2252,
    "Ġjeopard": 9941,
    "Ġchr": 3687,
    "Ġwants": 5742,
    "Ġmunro": 25630,
    "Ġheaded": 11053,
    "Ġstriking": 6089,
    "Ġjust": 1238,
    "revealed": 20414,
    "caught": 8726,
    "Ġsensitive": 13197,
    "amouch": 21843,
    "Ġscold": 10949,
    "Ġridges": 16730,
    "one": 616,
    "Ġvictims": 19803,
    "Ġrefres": 14336,
    "Ġsensibly": 14512,
    "Ġtreble": 16502,
    "Ġscreamed": 9522,
    "imental": 16532,
    "Ġslumbering": 25701,
    "odecimo": 11443,
    "Ġimbalance": 22177,
    "child": 5537,
    "Ġbo": 798,
    "inal": 15479,
    "Ġpermanent": 13629,
    "acle": 4715,
    "Ġchance": 3315,
    "Ġvaguely": 17364,
    "Ġmis": 918,
    "âĢľâĢĻ": 10220,
    "Ġloveliness": 13606,
    "inkle": 22615,
    "Ġglaciers": 20172,
    "button": 10965,
    "Ġhinting": 19648,
    "Ġthrew": 3974,
    "followed": 8339,
    "lamp": 9607,
    "Ġoverfitting": 1544,
    "Ġroasted": 18467,
    "Ġdecanter": 22437,
    "Ġimprobable": 9792,
    "threatened": 25462,
    "Ġweaving": 12736,
    "Ġwrongfully": 24247,
    "Ġobed": 8535,
    "Ġrocks": 6863,
    "Ġfurthest": 22814,
    "Ġperpendicularly": 11373,
    "spades": 14334,
    "Ġsitting": 3605,
    "Ġwent": 1539,
    "Ġloun": 7166,
    "shown": 22442,
    "Ġchanged": 5243,
    "animate": 12573,
    "Ġsize": 1217,
    "ĠĠĠĠĠĠĠĠĠĠĠĠĠĠĠĠĠĠĠĠĠĠĠĠĠĠĠĠĠĠĠĠĠĠĠĠĠĠĠĠĠĠĠĠĠĠĠĠ": 7989,
    "arp": 2028,
    "tuesday": 17689,
    "Ġinvolved": 8923,
    "Ġfeeds": 16432,
    "Ġkilburn": 18351,
    "izon": 18133,
    "content": 11197,
    "'": 11,
    "Ġsummits": 14682,
    "Ġhoriz": 4725,
    "avery": 13681,
    "Ġreligious": 25121,
    "fugitive": 26131,
    "Ġclass": 793,
    "Ġcrockery": 24300,
    "Ġcanaller": 25467,
    "hated": 17560,
    "abilizing": 2930,
    "Ġpipe": 4320,
    "Ġseverest": 14089,
    "mortal": 10111,
    "Ġseason": 5238,
    "Ġquite": 1739,
    "indignation": 18438,
    "Ġominous": 12421,
    "Ġdrowned": 9550,
    "Ġreverend": 15257,
    "Ġwat": 1288,
    "Ġluxurious": 17309,
    "Ġworst": 7444,
    "wor": 3417,
    "culous": 11139,
    "Ġdelights": 14595,
    "Ġtied": 7357,
    "Ġcalms": 23039,
    "Ġeditions": 19120,
    "iguous": 18044,
    "Ġsignature": 16492,
    "ins": 1380,
    "Ġsatisfy": 6912,
    "Ġobjection": 6585,
    "Ġmans": 15534,
    "bran": 23573,
    "shipmates": 11925,
    "Ġdreamy": 14701,
    "Ġmythologies": 26213,
    "thence": 23398,
    "looks": 12014,
    "east": 9114,
    "france": 24281,
    "iac": 6225,
    "pshire": 21023,
    "Ġpalmed": 24089,
    "Ġspinning": 15051,
    "Ġwell": 903,
    "Ġcomfort": 3439,
    "stating": 21639,
    "eastern": 17532,
    "Ġfisheries": 17436,
    "ķ": 248,
    "Ġcher": 6129,
    "hump": 12474,
    "Ġastonished": 7087,
    "mental": 16047,
    "Ġgranted": 22804,
    "Ġsaxon": 25468,
    "Ġlargely": 14283,
    "Ġfob": 21408,
    "fitters": 24761,
    "ilst": 8144,
    "Ġstrangest": 14794,
    "phant": 6286,
    "Ġtransported": 11278,
    "Ġislanders": 19500,
    "Ġlongitude": 11010,
    "Ġjane": 1757,
    "chest": 11207,
    "wretch": 17707,
    "Ġplantation": 11422,
    "march": 13753,
    "Ġalthough": 4152,
    "agatha": 21906,
    "desc": 1394,
    "Ġmoreover": 6163,
    "orient": 2883,
    "Ġreptile": 15275,
    "embow": 21927,
    "onents": 8776,
    "Ġpreliminary": 10055,
    "Ġard": 5164,
    "tinted": 17682,
    "devoted": 20015,
    "bon": 13682,
    "mit": 4933,
    "herself": 4890,
    "Ġsteam": 9351,
    "Ġineffect": 13928,
    "Ġbellies": 13353,
    "sery": 17660,
    "Ġdispleasure": 16050,
    "thoroughly": 26507,
    "Ġwhipcord": 20093,
    "shoals": 24717,
    "Ġsurp": 9633,
    "Ġstand": 1734,
    "Ġartist": 12908,
    "Ġimpartial": 15217,
    "Ġallures": 22004,
    "Ġfebruary": 15911,
    "pie": 21010,
    "Ġtransformer": 2638,
    "Ġinhuman": 13927,
    "sufferable": 12173,
    "ying": 1367,
    "ological": 1883,
    "ibank": 6880,
    "ulled": 14054,
    "iosity": 2279,
    "Ġgazette": 19499,
    "etical": 13956,
    "Ġbear": 3657,
    "Ġsimilar": 4917,
    "lp": 900,
    "Ġunderneath": 16337,
    "Ġprinciple": 6770,
    "Ġpet": 4584,
    "Ġdetect": 1237,
    "ricity": 23062,
    "stirring": 20424,
    "Ġrank": 6258,
    "vent": 684,
    "Ġthink": 986,
    "Ġsur": 2182,
    "arranged": 19318,
    "Ġswandam": 11087,
    "Ġforgive": 8010,
    "ouement": 21447,
    "blacksmith": 17000,
    "Ġignoble": 19397,
    "chie": 21688,
    "kindness": 10504,
    "Ġestates": 16458,
    "improve": 15709,
    "Ġdir": 21420,
    "Ġtropic": 17064,
    "Ġcrisp": 11999,
    "Ġceremonious": 24837,
    "Ġeuroclydon": 15294,
    "Ġgraves": 11705,
    "pped": 1999,
    "Ġcolony": 18763,
    "Ġfeat": 10936,
    "Ġwoman": 2388,
    "Ġaware": 5756,
    "ordinary": 4405,
    "Ġacqu": 1416,
    "serv": 7451,
    "Ġtickets": 17093,
    "Ġcareful": 2613,
    "additional": 20462,
    "Ġdifficulty": 5770,
    "ifice": 7199,
    "Ġagents": 9764,
    "horizon": 23614,
    "unpardonable": 21888,
    "deliberated": 26118,
    "Ġturnkeys": 23028,
    "Ġturbulence": 26596,
    "ig": 323,
    "Ġabsolutely": 4857,
    "Ġstirring": 10578,
    "Ġ130": 24781,
    "flame": 16636,
    "Ġgeological": 14532,
    "Ġchallenge": 25471,
    "Ġodds": 13327,
    ",--": 2477,
    "Ġegot": 18007,
    "attering": 7419,
    "abetical": 15740,
    "Ġweighty": 16030,
    "Ġmich": 21304,
    "idea": 9299,
    "Ġmurder": 4280,
    "Ġharvest": 13413,
    "Ġloo": 22108,
    "Ġnormalization": 1241,
    "Ġreconc": 9681,
    "Ġscolded": 25472,
    "Ġdyspeps": 16509,
    "Ġforever": 14553,
    "Ġincom": 9767,
    "increasing": 20268,
    "Ġplatonian": 25118,
    "backs": 9389,
    "Ġejaculation": 20253,
    "Ġclerval": 4652,
    "Ġhunger": 8566,
    "Ġbedfellows": 23437,
    "Ġcomprehend": 6494,
    "wester": 21137,
    "Ġemph": 14524,
    "Ġschoolmaster": 16861,
    "Ġfoundation": 4232,
    "Ġturk": 6603,
    "hau": 17561,
    "matlock": 23470,
    "numerous": 17429,
    "Ġslabs": 13057,
    "Ġrafters": 22651,
    "Ġmonstr": 7669,
    ".âĢĶ": 4248,
    "Ġbanker": 8666,
    "hastening": 24447,
    "seemed": 4303,
    "hall": 8085,
    "oked": 4307,
    "oyed": 14362,
    "Ġenable": 686,
    "castle": 3350,
    "Ġneedles": 11183,
    "cannon": 22960,
    "Ġern": 8397,
    "Ġsenior": 17170,
    "Ġdivision": 19442,
    "Ġunceasingly": 20357,
    "haw": 6361,
    "Ġbegg": 16251,
    "Ġincommunicable": 26610,
    "idirectional": 2421,
    "ff": 462,
    "razor": 21635,
    "Ġgliding": 8559,
    "Ġelect": 10841,
    "anchor": 13887,
    "Ġfloundered": 18862,
    "Ġperpet": 7645,
    "Ġsubsisted": 19117,
    "Ġye": 902,
    "Ġdiscre": 2417,
    "Ġexplanations": 15909,
    "ahead": 12431,
    "ribution": 14305,
    "Ġdiggings": 24649,
    "Ġadjacent": 20710,
    "Ġfortunately": 12176,
    "_.âĢĶ": 23473,
    "answering": 26004,
    "Ġstrongly": 5657,
    "Ġmorocc": 22975,
    "Ġhousekeeping": 18943,
    "first": 3934,
    "Ġviol": 2073,
    "Ġbaleful": 24984,
    "mond": 20972,
    "Ġimpl": 7195,
    "Ġlatitudes": 9494,
    "Ġembodied": 25848,
    "opement": 10310,
    "Ġ55": 24322,
    "Ġbar": 3145,
    "Ġfountains": 13501,
    "belong": 12119,
    "precisely": 6917,
    "affa": 23775,
    "composed": 14738,
    "wit": 7818,
    "Ġoccupant": 16650,
    "Ġcraggy": 23528,
    "Ġepidemic": 20694,
    "diff": 9112,
    "Ġporpoises": 13380,
    "berish": 22719,
    "Ġbrightness": 16574,
    "punishment": 15143,
    "because": 4923,
    "Ġcats": 8978,
    "Ġguessed": 11281,
    "ply": 6366,
    "gent": 7129,
    "Ġflapped": 23012,
    "Ġfluke": 14672,
    "Ġcumul": 4179,
    "timidity": 25753,
    "anning": 10163,
    "Ġverdure": 10611,
    "bear": 10313,
    "without": 4846,
    "Ġmaj": 3926,
    "Ġsleeves": 10659,
    "flow": 2064,
    "professor": 17248,
    "dirty": 20833,
    "latitudes": 17195,
    "Ġcleansed": 26293,
    "meat": 18673,
    "goldsmith": 20146,
    "weaknesses": 26030,
    "catherine": 7127,
    "Ġwouldn": 6046,
    "pad": 13766,
    "pursue": 24975,
    "Ġslide": 10392,
    "Ġannihilated": 20251,
    "Ġplayfulness": 23636,
    "Ġfoundering": 21418,
    "Ġum": 10210,
    "benefact": 24641,
    "Ġsensible": 4976,
    "Ġmitt": 21306,
    "Ġresentful": 24632,
    "iantly": 13737,
    "Ġwhitish": 24866,
    "Ġwhirlpool": 20654,
    "Ġdark": 2113,
    "Ġpunchbowl": 20230,
    "placidity": 25988,
    "Ġpsych": 10175,
    "Ġsuavely": 26522,
    "Ġcelest": 9899,
    "Ġindistinctly": 26117,
    "Ġpass": 1038,
    "unte": 21871,
    "Ġsingled": 23771,
    "ayed": 12708,
    "ill": 447,
    "completed": 19992,
    "Ġmarried": 3409,
    "Ġscratches": 22289,
    "convenient": 12234,
    "Ġzone": 14360,
    "Ġopenly": 8572,
    "condem": 16342,
    "Ġcome": 1239,
    "¶": 119,
    "Ġrelative": 11880,
    "Ġwood": 2294,
    "aped": 3765,
    "me": 861,
    "social": 11022,
    "clim": 18929,
    "Ġinhabitants": 7525,
    "Ġwaste": 9232,
    "deprived": 19897,
    "didst": 19347,
    "Ġproble": 1110,
    "Ġsoup": 7067,
    "intense": 22934,
    "Ġchaff": 18383,
    "output": 4399,
    "enesis": 24387,
    "Ġspo": 6846,
    "Ġlion": 9674,
    "etics": 21579,
    "Ġugliness": 20425,
    "Ġdisappo": 4504,
    "Ġtumult": 7114,
    "Ġtossed": 5815,
    "iah": 14413,
    "again": 3399,
    "Ġ66": 24368,
    "----âĢĻ": 24096,
    "Ġrosy": 18466,
    "narrative": 17317,
    "Ġpubl": 3940,
    "Ġflann": 23013,
    "Ġkindness": 4097,
    "lived": 12483,
    "Ġfrighten": 13276,
    "Ġknitted": 19588,
    "Ġperseverance": 13595,
    "Ġimpropriety": 17394,
    "Ġgale": 5822,
    "¾": 127,
    "Ġmounts": 17806,
    "digger": 24309,
    "Ġstaple": 26198,
    "bearers": 18524,
    "horses": 17566,
    "Ġboneless": 19604,
    "Ġwelcome": 5603,
    "unts": 12727,
    "Ġfields": 2144,
    "Ġworth": 4415,
    "Ġkilled": 4955,
    "Ġstings": 21732,
    "Ġhermits": 22072,
    "Ġcommunicated": 9060,
    "Ġpouring": 12620,
    "nonsense": 17614,
    "ingale": 21298,
    "Ġwidth": 16771,
    "Ġtrad": 9827,
    "Ġ79": 24263,
    "Ġcreases": 22726,
    "baby": 25515,
    "etwork": 442,
    "Ġnorms": 3665,
    "fellow": 6792,
    "Ġexploded": 15908,
    "Ġunnecessary": 8850,
    "Ġwhisper": 6205,
    "warks": 5004,
    "cence": 9587,
    "Ġintroduction": 8969,
    "neurons": 3133,
    "Ġwoods": 5406,
    "arranted": 19319,
    "Ġphrenolog": 12331,
    "Ġreplete": 15695,
    "matters": 14872,
    "Ġundergone": 18985,
    "tes": 11527,
    "Ġflavor": 16250,
    "Ġatonement": 21940,
    "outside": 12800,
    "stochastic": 3774,
    "immediate": 20092,
    "Ġhearty": 9844,
    "deploy": 22140,
    "Ġplunge": 13441,
    "blending": 24128,
    "Ġpres": 9730,
    "thickness": 25367,
    "commission": 22810,
    "Ġextant": 18680,
    "Ġtracks": 18890,
    "Ġfancying": 12109,
    "Ġannotations": 25954,
    "hearted": 6970,
    "Ġsubtile": 20378,
    "actually": 14295,
    "Ġworn": 6445,
    "Ġchamp": 18381,
    "belonged": 25597,
    "meas": 7434,
    "Ġforgiven": 24024,
    "itiously": 13869,
    "Ġprosper": 10227,
    "Ġthackeray": 26454,
    "Ġunfit": 14786,
    "Ġinfirm": 19020,
    "Ġmarshalled": 25315,
    "Ġgrate": 12960,
    "Ġtrivial": 10141,
    "Ġfogs": 25282,
    "mistaken": 12207,
    "Ġtaste": 5524,
    "consciously": 19624,
    "Ġbodiless": 24225,
    "Ġpleasantness": 24138,
    "various": 10396,
    "Ġrh": 9242,
    "Ġaye": 3353,
    "Ġcalculate": 13261,
    "<UNK>": 3,
    "Ġdiscerning": 24955,
    "vice": 15448,
    "Ġowning": 18744,
    "Ġunhe": 22006,
    "Ġtremendous": 8353,
    "handkerchief": 14617,
    "Ġnecessity": 7296,
    "jour": 20926,
    "coil": 23558,
    "collect": 16561,
    "Ġjustly": 11900,
    "quadr": 15761,
    "Ġsakes": 18326,
    "Ġtoilings": 24742,
    "Ġvess": 3294,
    "unities": 15768,
    "Ġintact": 21987,
    "Ġbudge": 15162,
    "Ġconject": 6027,
    "tha": 15821,
    "Ġempires": 19075,
    "Ġnought": 21520,
    "captains": 12124,
    "may": 3678,
    "Ġprofessors": 14723,
    "osis": 18389,
    "Ġslyness": 25266,
    "Ġcontain": 1554,
    "Ġnotable": 18222,
    "Ġderick": 9363,
    "Ġsteadfastly": 10650,
    "Ġvexations": 24610,
    "Ġamericans": 14741,
    "Ġsor": 4147,
    "Ġunable": 4951,
    "Ġhumbly": 16196,
    "Ġleghorn": 13144,
    "duchess": 18458,
    "sprang": 19989,
    "plate": 18199,
    "Ġhither": 4759,
    "hus": 5072,
    "Ġhissed": 15786,
    "Ġmisanthropic": 26559,
    "sol": 1792,
    "property": 19998,
    "kily": 20936,
    "elfth": 22367,
    "Ġprynne": 25540,
    "0": 20,
    "suspect": 9538,
    "Ġhish": 21911,
    "ickory": 22667,
    "allah": 5838,
    "Ġdigging": 14936,
    "Ġbowed": 6242,
    "Ġexpanded": 14288,
    "Ġsque": 18755,
    "Ġcreates": 2010,
    "Ġencaps": 12958,
    "recover": 24623,
    "cup": 10689,
    "Ġrotation": 25474,
    "shazz": 14238,
    "Ġregulate": 22578,
    "Ġnest": 10187,
    "Ġresolution": 5500,
    "Ġlifted": 6985,
    "ourers": 21448,
    "Ġcapacious": 19175,
    "Ġ1869": 19382,
    "Ġbul": 3292,
    "Ġclutching": 24951,
    "Ġbluff": 16517,
    "ò": 179,
    "Ġdyspepsia": 20642,
    "Ġcried": 1486,
    "Ġexcell": 10416,
    "crossing": 19409,
    "Ġpsychology": 11447,
    "Ġchick": 22245,
    "Ġcordially": 16835,
    "suit": 18636,
    "generous": 16566,
    "motion": 17605,
    "Ġmutter": 23951,
    "Ġlately": 6387,
    "Ġsnapped": 9894,
    "Ġ101": 24408,
    "wind": 4252,
    "pedest": 24695,
    "wrath": 23755,
    "Ġartfully": 22610,
    "Ġdisse": 18548,
    "Ġnod": 1888,
    "Ġmeditate": 16681,
    "Ġvine": 8471,
    "awn": 3834,
    "Ġpassionately": 16763,
    "Ġpartner": 6714,
    "apse": 14197,
    "qualities": 25043,
    "activation": 3230,
    "sooner": 14774,
    "search": 8464,
    "fitting": 1513,
    "uing": 17692,
    "reading": 12076,
    "Ġapologized": 25198,
    "them": 3020,
    "Ġshakespeare": 20306,
    "Ġdur": 11590,
    "Ġbracelets": 25502,
    "calabash": 22894,
    "meal": 22699,
    "downward": 16618,
    "Ġromish": 19583,
    "Ġimputable": 22176,
    "Ġpantheistic": 26335,
    "Ġprocopius": 19729,
    "Ġplaited": 14281,
    "Ġchron": 19436,
    "Ġaddressed": 5262,
    "Ġscorching": 20066,
    "Ġaccomplishments": 13377,
    "august": 11070,
    "valu": 1747,
    "stir": 12668,
    "sacrifice": 13490,
    "Ġapplications": 4784,
    "Ġfragments": 19012,
    "Ġwa": 1753,
    "Ġoblique": 20168,
    "Ġkate": 15903,
    "fill": 15348,
    "trunk": 23945,
    "Ġlin": 10832,
    "Ġet": 3579,
    "blazing": 24131,
    "inction": 6660,
    "Ġfaint": 5811,
    "Ġmerryweather": 9520,
    "know": 2320,
    "Ġmarvell": 7248,
    "Ġpoor": 1708,
    "Ġdisplayed": 10607,
    "ulity": 10885,
    "Ġveneration": 25044,
    "Ġpermission": 9277,
    "Ġidle": 8253,
    "Ġnet": 3626,
    "Ġshrugged": 12765,
    "Ġmoon": 4606,
    "Ġsnorting": 23739,
    "thirds": 25046,
    "Ġwhoever": 10972,
    "particular": 5757,
    "ullen": 8235,
    "Ġthoughtful": 16190,
    "Ġrecurring": 23231,
    "Ġcruise": 12046,
    "repid": 11563,
    "gely": 10699,
    "Ġreadiness": 13046,
    "yielded": 25756,
    "bourn": 3300,
    "lit": 9604,
    "Ġque": 4160,
    "profound": 16424,
    "Ġtrappers": 23080,
    "shine": 9286,
    "Ġcomfortless": 23910,
    "Ġham": 3422,
    "Ġterritories": 23843,
    "Ġpistols": 17327,
    "Ġsomehow": 4841,
    "Ġfettered": 24567,
    "Ġfreed": 7267,
    "elve": 4640,
    "Ġimpressive": 14998,
    "Ġobligations": 12088,
    "verse": 9686,
    "Ġmoment": 991,
    "alo": 7588,
    "Ġbeards": 21749,
    "grew": 17554,
    "Ġori": 8409,
    "Ġpack": 5444,
    "Ġabsurd": 7202,
    "Ġdamp": 8264,
    "Ġofficially": 24838,
    "included": 19207,
    "Ġremem": 4312,
    "Ġarthur": 7196,
    "tastes": 21095,
    "hospit": 25903,
    "Ġmaps": 2967,
    "Ġmilliner": 19883,
    "Ġrecesses": 17259,
    "lay": 5891,
    "bedded": 13225,
    "Ġtelegram": 15221,
    "Ġpettiness": 24228,
    "ustry": 18363,
    "Ġtorrent": 17091,
    "Ġskeletons": 16790,
    "favour": 9547,
    "Ġrocked": 12854,
    "Ġdepends": 1094,
    "Ġcigar": 9543,
    "Ġtransparent": 9487,
    "Ġreasoning": 2023,
    "Ġrepeated": 3831,
    "Ġgradu": 15830,
    "ugnance": 12364,
    "rowsers": 8694,
    "deception": 22142,
    "Ġfireplace": 13143,
    "ething": 1601,
    "Ġarranging": 11173,
    "Ġrequest": 6051,
    "Ġforge": 8456,
    "Ġostentatious": 25736,
    "Ġsacrific": 15016,
    "delay": 16697,
    "Ġrods": 9752,
    "flour": 23963,
    "Ġcareer": 11117,
    "altern": 17941,
    "Ġwipe": 25764,
    "Ġvort": 18193,
    "itics": 13870,
    "Ġresides": 22538,
    "fork": 20856,
    "Ġaffliction": 25844,
    "amusement": 15280,
    "Ġmatter": 1732,
    "Ġqualified": 14948,
    "Ġresolute": 19243,
    "uber": 15444,
    "hills": 13734,
    "Ġsympathetic": 17357,
    "Ġfretfulness": 25448,
    "Ġglasses": 9473,
    "tattoo": 21086,
    "Ġstrewed": 23420,
    "ism": 4874,
    "Ġingrat": 16839,
    "circumstance": 7764,
    "Ġproceeded": 5335,
    "ompl": 4534,
    "Ġmachinations": 25767,
    "Ġbandages": 24426,
    "Ġtin": 15462,
    "Ġomens": 21326,
    "Ġcell": 6237,
    "Ġharbor": 10025,
    "Ġmemorand": 23403,
    "ylon": 24977,
    "Ġcasement": 25092,
    "Ġbook": 2703,
    "deployment": 26526,
    "persuaded": 15071,
    "Ġtasks": 1790,
    "mysterious": 26051,
    "Ġinclination": 6623,
    "haz": 17563,
    "Ġacknowled": 6350,
    "friends": 8306,
    "Ġangelic": 19626,
    "Ġbuying": 23993,
    "Ġoutweigh": 22320,
    "Ġdirection": 1794,
    "thes": 7391,
    "sn": 7138,
    "Ġrand": 1586,
    "Ġcathed": 14548,
    "reg": 2183,
    "Ġdiver": 2529,
    "Ġtep": 21160,
    "ols": 2413,
    "Ġdevelop": 1631,
    "Ġ77": 24262,
    "jaws": 20931,
    "apsed": 6295,
    "porary": 14552,
    "leap": 21365,
    "Ġencourage": 10379,
    "Ġadvers": 4887,
    "Ġwithheld": 18114,
    "advance": 12153,
    "minutely": 19592,
    "beer": 22485,
    "ĠĠĠĠĠĠĠĠĠĠĠĠĠĠĠĠĠĠĠĠĠĠĠĠĠĠĠĠĠĠĠĠĠĠĠĠĠĠ": 16525,
    "Ġsting": 10860,
    "pool": 16207,
    "Ġcombing": 22857,
    "untering": 15773,
    "Ġmout": 17798,
    "Ġsweeping": 8984,
    "Ġmassacre": 20546,
    "Ġsharing": 3476,
    "amount": 10883,
    "Ġhyperborean": 26339,
    "Ġaltering": 18102,
    "Ġfair": 2842,
    "chair": 5917,
    "hear": 10145,
    "Ġdinners": 23979,
    "Ġpulpit": 7470,
    "Ġwo": 3650,
    "Ġverdict": 13473,
    "Ġdeploy": 2907,
    "successful": 11357,
    "Ġterrify": 19359,
    "procure": 23395,
    "legs": 13180,
    "canallers": 22962,
    "woes": 21132,
    "Ġmistress": 8611,
    "with": 1298,
    "company": 9459,
    "Ġknees": 6928,
    "cool": 19186,
    "white": 4600,
    "kindred": 24047,
    "Ġmovement": 9966,
    "gaining": 20122,
    ".]": 15296,
    "cheered": 23804,
    "Ġ102": 24409,
    "Ġleads": 12093,
    "Ġflower": 16229,
    "Ġpitied": 14690,
    "ied": 942,
    "Ġale": 9153,
    "ppery": 10891,
    "Ġequ": 1733,
    "rium": 3130,
    "Ġconfound": 23303,
    "Ġremarkably": 7703,
    "Ġhole": 6080,
    "ognit": 19206,
    "Ġsouthwards": 19632,
    "Ġhalls": 19524,
    "Ġbatt": 13897,
    "Ġquiescent": 26242,
    "Ġreflection": 6440,
    "Ġsqueezing": 25006,
    "Ġcoffin": 4428,
    "Ġthird": 4187,
    "atum": 21258,
    "fif": 9115,
    "european": 26371,
    "Ġtradesman": 20071,
    "wling": 11543,
    "anybody": 12079,
    "Ġdecanting": 22436,
    "Ġsteepest": 3086,
    "arn": 358,
    "Ġchinks": 22249,
    "apprehens": 17404,
    "Ġsedentary": 25430,
    "hope": 5990,
    "Ġimplies": 24873,
    "Ġadhes": 22100,
    "Ġroar": 9751,
    "Ġtal": 7565,
    "âĢĻ!âĢĿ": 18167,
    "Ġstir": 5823,
    "Ġtargets": 4205,
    "lacings": 26134,
    "Ġsheer": 14149,
    "pires": 13773,
    "accur": 14592,
    "isbury": 21375,
    "Ġtops": 14585,
    "Ġconjured": 25099,
    "letters": 13172,
    "Ġshowing": 7732,
    "utility": 21585,
    "resolved": 9638,
    "Ġorbs": 22088,
    "originally": 24937,
    "Ġpillows": 24988,
    "Ġrepe": 3279,
    "Ġfluctu": 5267,
    "inconsiderable": 21190,
    "Ġart": 750,
    "Ġpatagon": 14504,
    "sounded": 12263,
    "Ġdenial": 13212,
    "Ġmisunderstand": 18706,
    "reward": 15508,
    "Ġxxxii": 24972,
    "á": 162,
    "divers": 15340,
    "zealand": 26054,
    "Ġreliability": 22877,
    "Ġcalm": 3447,
    "Ġwedded": 16673,
    "Ġlandlady": 10421,
    "Ġprime": 10403,
    "scream": 11075,
    "Ġintolerable": 8481,
    "months": 9070,
    "eg": 17528,
    "Ġsurmise": 12292,
    "sails": 7498,
    "respective": 19845,
    "Ġaverage": 3137,
    "Ġembeddings": 2236,
    "vineyard": 25421,
    "soft": 12506,
    "Ġvanished": 6874,
    "iour": 4037,
    "Ġwestmorland": 24389,
    "arious": 10315,
    "Ġtablet": 19203,
    "circumstantial": 24443,
    "mccarthy": 15393,
    "Ġsentin": 16370,
    "Ġbru": 13893,
    "Ġequivalent": 4802,
    "hatchet": 24822,
    "Ġrouted": 24907,
    "oce": 10713,
    "Ġlancaster": 26340,
    "×": 152,
    "Ġcommissionaire": 16999,
    "dining": 13703,
    "tri": 11528,
    "Ġbingley": 1675,
    "Ġunallied": 22028,
    "concerns": 24582,
    "Ġ58": 24325,
    "Ġcrusad": 23705,
    "ishe": 13889,
    "ackled": 22422,
    "header": 11930,
    "Ġpacked": 9978,
    "Ġinsanity": 12044,
    "Ġsettee": 22919,
    "Ġunex": 11710,
    "years": 6883,
    "Ġweave": 21918,
    "tan": 4742,
    "Ġconduct": 3734,
    "sullenly": 26149,
    "ateral": 19375,
    "offic": 7466,
    "Ġleaders": 16626,
    "Ġcreature": 2385,
    "Ġcorp": 5574,
    "Ġbed": 2146,
    "Ġwor": 1190,
    "Ġdown": 832,
    "Ġpartners": 11850,
    "crews": 15041,
    "rance": 5994,
    "catch": 17505,
    "unaffected": 21881,
    "abounding": 25979,
    "Ġup": 463,
    "Ġverbal": 19377,
    "olerably": 11671,
    "rels": 6664,
    "Ġaffords": 16733,
    "india": 22369,
    "ella": 12745,
    "Ġarrogance": 26231,
    "Ġinstances": 5567,
    "Ġornament": 11716,
    "bre": 3979,
    "significant": 25082,
    "guessed": 25872,
    "watch": 6118,
    "Ġveracity": 23887,
    "Ġsaturn": 22899,
    "Ġaven": 10758,
    "Ġarrows": 18338,
    "Ġviewed": 10462,
    "<SOS>": 1,
    "Ġcaptivating": 26049,
    "Ġfreshness": 23985,
    "Ġparad": 2847,
    "Ġsibbald": 21229,
    "windlass": 16720,
    "Ġtuck": 10139,
    "Ġsaintly": 25931,
    "Ġliberty": 7762,
    "secure": 12232,
    "esy": 9181,
    "Ġembra": 6579,
    "Ġchasing": 11751,
    "Ġstung": 21736,
    "Ġthroat": 7771,
    "Ġreconsidered": 21671,
    "Ġball": 3623,
    "10": 17471,
    "Ġretirement": 25378,
    "Ġjackal": 24238,
    "sequently": 14582,
    "olstad": 7612,
    "omely": 21657,
    "nants": 17612,
    "Ġindic": 2892,
    "useless": 14593,
    "Ġrestrained": 16371,
    "Ġpolluted": 25593,
    "Ġpunctures": 25133,
    "terns": 21820,
    "Ġappetite": 12381,
    "hunt": 20902,
    "Ġgul": 7860,
    "Ġisolation": 17149,
    "Ġcaught": 3731,
    "eh": 13708,
    "Ġpanic": 11285,
    "Ġgarb": 21601,
    "Ġbritish": 11336,
    "Ġbaw": 15566,
    "Ġmatrim": 11059,
    "Ġclang": 15960,
    "Ġproved": 4884,
    "Ġstreamed": 14546,
    "Ġbitt": 10795,
    "Ġconnectivity": 3666,
    "Ġflinging": 13583,
    "Ġalley": 15733,
    "Ġresignation": 18566,
    "Ġcrests": 25685,
    "Ġcurtain": 14410,
    "mblance": 7323,
    "Ġenterprise": 8641,
    "_.âĢĻâĢĿ": 17478,
    "lance": 12478,
    "fro": 8732,
    "Ġhoneymoon": 25645,
    "midnight": 14898,
    "Ġvillages": 14747,
    "floor": 14934,
    "Ġincline": 18569,
    "justified": 19003,
    "Ġbrooded": 23102,
    "Ġtul": 21158,
    "Ġshock": 6083,
    "Ġcont": 620,
    "heric": 15910,
    "Ġsepulch": 15282,
    "Ġscheduling": 2351,
    "pict": 8386,
    "Ġaggregate": 25677,
    "narwhale": 17316,
    "Ġinto": 649,
    "ribed": 7694,
    "Ġinsane": 19268,
    "Ġoaken": 13863,
    "Ġshrouded": 14967,
    "Ġencirc": 18732,
    "Ġeddies": 23436,
    "surgeon": 24213,
    "ror": 7351,
    "Ġsocieties": 20181,
    "owing": 7602,
    "Ġreplenished": 13634,
    "Ġreproof": 24890,
    "ailing": 7021,
    "Ġcomo": 21852,
    "Ġintimacy": 8700,
    "onies": 6806,
    "Ġgrunted": 16166,
    "orns": 12588,
    "£": 101,
    "Ġshoreless": 24294,
    "Ġunsupp": 22017,
    "Ġalt": 18098,
    "cet": 15323,
    "etimes": 1989,
    "Ġidly": 16399,
    "char": 3502,
    "pistol": 17641,
    "Ġnarrowly": 16819,
    "Ġhelter": 24022,
    "Ġgurg": 15670,
    "furnished": 20240,
    "Ġpebbles": 16127,
    "Ġthread": 14538,
    "Ġboarders": 16599,
    "chorus": 19810,
    "Ġnot": 413,
    "tstone": 21083,
    "Ġprocess": 561,
    "Ġyelled": 9692,
    "ston": 15679,
    "utored": 15660,
    "consum": 12866,
    "mor": 4216,
    "Ġentic": 16144,
    "Ġpoliteness": 8274,
    "admiration": 11386,
    "Ġhemis": 21682,
    "Ġnewcomer": 26040,
    "Ġresigned": 9766,
    "semicirc": 26490,
    "Ġapprehensiveness": 16876,
    "Ġfig": 3624,
    "Ġpertur": 12846,
    "Ġdifficult": 3570,
    "Ġhydraul": 9512,
    "Ġhistories": 14686,
    "Ġcobbler": 25829,
    "Ġprows": 19888,
    "Ġcoco": 10999,
    "Ġunimpe": 22068,
    "Ġashen": 21897,
    "Ġblessing": 11262,
    "Ġstem": 15716,
    "Ġnathan": 21524,
    "Ġdiscrimin": 2546,
    "Ġver": 3394,
    "regular": 3041,
    "Ġunlab": 3788,
    "Ġledger": 19400,
    "Ġgladness": 16590,
    "intim": 22932,
    "Ġinmost": 17930,
    "Ġhazard": 20430,
    "Ġbackstays": 22661,
    "ster": 1959,
    "Ġminima": 3464,
    "hatherley": 17567,
    "Ġherring": 14125,
    "yard": 5900,
    "Ġemotion": 7691,
    "since": 5895,
    "inferences": 17738,
    "Ġsty": 6251,
    "d": 72,
    "Ġtheatre": 21277,
    "Ġrejoinder": 24598,
    "sweet": 8685,
    "vacancies": 25919,
    "remed": 18952,
    "ran": 11514,
    "Ġexpressions": 7706,
    "Ġcommenced": 8531,
    "ulence": 15763,
    "Ġhandy": 12932,
    "print": 23809,
    "Ġunaware": 22055,
    "steaks": 23958,
    "Ġeloped": 22642,
    "Ġardu": 22181,
    "Ġstroll": 13350,
    "Ġprecautions": 23725,
    "Ġtranslations": 12049,
    "Ġarchitects": 18733,
    "lingering": 18601,
    "Ġlabelled": 23329,
    "ull": 1430,
    "Ġnantucketer": 6914,
    "Ġmultiplicity": 19274,
    "ber": 886,
    "Ġatrocious": 21941,
    "st": 315,
    "Ġserpent": 6737,
    "Ġportentous": 15227,
    "Ġsuburban": 17344,
    "Ġcongrat": 5827,
    "lucifer": 25301,
    "Ġtopsails": 19192,
    "Ġdandy": 17892,
    "Ġshutters": 9935,
    "Ġvaliant": 9798,
    "adagrad": 9689,
    "Ġchambermaid": 24303,
    "aring": 1476,
    ":--âĢľ": 24549,
    "unusually": 15777,
    "Ġhunks": 18935,
    "Ġdeline": 16331,
    "Ġtre": 2536,
    "bulwarks": 12269,
    "Ġunlocking": 20705,
    "âĢĶâĢľ": 2974,
    "Ġswap": 23048,
    "Ġindians": 14407,
    "Ġjonas": 20608,
    "kov": 17585,
    "aswag": 21544,
    "oice": 1385,
    "Ġclubs": 25179,
    "Ġticklish": 25034,
    "Ġbackgammon": 22662,
    "able": 451,
    "Ġcompens": 14262,
    "Ġgifted": 17996,
    "Ġsunday": 7270,
    "Ġitalian": 12407,
    "ape": 1905,
    "Ġdisembow": 22535,
    "Ġblubber": 5666,
    "Ġrelief": 6060,
    "Ġearly": 2080,
    "Ġforbidding": 17078,
    "Ġpersistence": 2752,
    "unearthly": 19272,
    "voyages": 24855,
    "Ġswayed": 15046,
    "Ġcommonplaces": 16287,
    "¯": 112,
    "Ġobtain": 8913,
    "Ġstomach": 11651,
    "Ġrude": 7234,
    "peaceful": 20445,
    "Ġswimmer": 19457,
    ",âĢĿâĢĶ": 14213,
    "Ġazores": 20192,
    "swallowed": 14851,
    "acet": 5476,
    "record": 16920,
    "Ġcasualties": 25512,
    "hours": 9123,
    "Ġtrades": 8232,
    "Ġvolume": 6769,
    "irst": 878,
    "Ġspare": 5102,
    "Ġstartled": 7082,
    "Ġdollar": 25283,
    "Ġcruisers": 25863,
    "tray": 21076,
    "Ġdeceased": 15005,
    "Ġroof": 6564,
    "Ġmill": 6666,
    "gressive": 2758,
    "Ġdocile": 19957,
    "ĠĠĠĠĠĠĠĠĠĠĠĠĠĠĠĠĠĠĠĠĠĠĠĠĠĠĠĠĠĠĠĠĠĠĠĠĠĠĠĠĠĠĠ": 12151,
    "Ġprefers": 20512,
    "Ġbiases": 2398,
    "faced": 8080,
    "change": 6392,
    "Ġglued": 20587,
    "pudding": 17646,
    "Ġsophisticated": 1505,
    "ologically": 22882,
    "Ġmanip": 8870,
    "Ġriots": 23890,
    "Ġunacquainted": 12772,
    "ease": 12454,
    "iations": 11493,
    "Ġinterrupt": 4358,
    "Ġarrog": 18339,
    "Ġrigged": 16716,
    "Ġchristians": 13306,
    "Ġwreath": 25936,
    "Ġhonourable": 10455,
    "vanished": 15061,
    "ophisticated": 22476,
    "plete": 10918,
    "ju": 13739,
    "tiest": 21080,
    "ensing": 12892,
    "Ġshaft": 18229,
    "emorial": 10240,
    "Ġproving": 15749,
    "eon": 8729,
    "Ġfork": 15729,
    "Ġmagnus": 18956,
    ".;": 20743,
    "Ġobscured": 15009,
    "Ġskilfully": 20522,
    "forth": 9319,
    "reflection": 13453,
    "Ġfluttered": 16247,
    "wherever": 13116,
    "educated": 17258,
    "Ġlistless": 16474,
    "Ġwatches": 11080,
    "Ġprevailed": 7778,
    "itia": 11577,
    "Ġinquest": 16545,
    "opÃ¦": 12868,
    "Ġthirds": 16707,
    "Ġadie": 8488,
    "Ġpromethe": 14467,
    "resp": 13837,
    "ias": 6362,
    "marching": 25752,
    "pet": 4867,
    "hinting": 17568,
    "Ġplate": 8897,
    "Ġolfactories": 26171,
    "prevailed": 17343,
    "Ġhieroglyph": 11967,
    "Ġclearer": 16311,
    "bu": 5132,
    "ider": 21763,
    "rah": 8137,
    "Ġvacancy": 9043,
    "ifully": 13182,
    "masculine": 24386,
    "division": 20047,
    "Ġfergus": 16871,
    "abern": 21787,
    "recurring": 24193,
    "clear": 9022,
    "Ġstiffest": 24829,
    "Ġmel": 4816,
    "Ġepistle": 24904,
    "Ġdevoting": 22717,
    "cruise": 24841,
    "Ġpractises": 23327,
    "Ġdishonoured": 20389,
    "begin": 8882,
    "Ġcream": 22724,
    "Ġfly": 3870,
    "Ġmembrane": 20502,
    "load": 12877,
    "Ġwhel": 15864,
    "damn": 20022,
    "Ġnile": 21519,
    "gratification": 24347,
    "bonnet": 25742,
    "Ġvote": 21945,
    "relics": 24012,
    "fil": 12459,
    "Ġeasiness": 23535,
    "Ġbarber": 23788,
    "surface": 10529,
    "Ġswift": 3668,
    "fron": 24280,
    "Ġwrecked": 9964,
    "footman": 17161,
    "anted": 5027,
    "Ġpun": 4585,
    "residual": 19261,
    "Ġlakeman": 6986,
    "dead": 8180,
    "son": 2331,
    "Ġweeks": 4563,
    "Ġcased": 21344,
    "Ġtriumphant": 12186,
    "elevating": 20404,
    "absence": 12704,
    "appe": 2949,
    "Ġmeanness": 22594,
    "Ġrequiring": 2927,
    "Ġpawn": 12060,
    "Ġinsurance": 23681,
    "Ġcommander": 8624,
    "Ġevil": 3806,
    "Ġforecastle": 5495,
    "Ġpatched": 16375,
    "Ġhobbling": 25644,
    "Ġdisinterested": 16055,
    "bitt": 17484,
    "influence": 13576,
    "Ġputs": 19034,
    "sailed": 17665,
    "Ġrigid": 16715,
    "Ġextended": 7923,
    "overspreading": 26139,
    "Ġbarbs": 10530,
    "twice": 14620,
    "Ġstig": 14000,
    "Ġtarpaul": 17729,
    "ccess": 3179,
    "Ġcompatibility": 2962,
    "large": 6625,
    "ado": 11656,
    "Ġsplinters": 15100,
    "leg": 2817,
    "Ġunbecoming": 22060,
    "dressing": 11480,
    "whalers": 17262,
    "Ġlain": 17961,
    "mush": 20976,
    "Ġsidelong": 11437,
    "boards": 23253,
    "billiard": 25334,
    "stirred": 20423,
    "Ġsobbed": 14133,
    "Ġsalisbury": 24061,
    "Ġinfatuation": 25857,
    "elled": 3993,
    "mown": 20969,
    "Ġparmacetti": 20603,
    "keep": 3850,
    "Ġtightly": 13532,
    "Ġdi": 6525,
    "oded": 11667,
    "Ġcommunicative": 24547,
    "andromeda": 21866,
    "Ġdependent": 14292,
    "Ġsagacity": 16973,
    "heed": 15497,
    "Ġlucases": 9008,
    "scale": 3534,
    "Ġcontext": 1715,
    "bable": 8718,
    "Ġhenceforth": 19646,
    "Ġpyramids": 15112,
    "uded": 6287,
    "thrown": 8480,
    "subject": 6631,
    "Ġhoard": 23351,
    "blister": 24127,
    "mat": 2202,
    "85": 13679,
    "Ġcoincidences": 26363,
    "Ġtending": 17723,
    "Ġperfume": 25665,
    "Ġalarm": 4047,
    "performances": 26006,
    "Ġchest": 5185,
    "Ġardently": 9496,
    "privilege": 25263,
    "assault": 22304,
    "Ġsilk": 11960,
    "Ġjeroboam": 10599,
    "simultaneously": 19863,
    "Ġdrawback": 23987,
    "alterable": 13622,
    "Ġarrowy": 25469,
    "Ġfurther": 1053,
    "ounts": 4650,
    "Ġcorroborated": 26053,
    "olidity": 18132,
    "Ġbarn": 11585,
    "accessory": 25499,
    "hatchway": 25904,
    "Ġottoman": 17376,
    "Ġeffectively": 2561,
    "biscuit": 17499,
    "Ġrage": 5110,
    "Ġshol": 21993,
    "endless": 22224,
    "Ġtw": 841,
    "Ġsupplies": 20325,
    "Ġstrangeness": 16706,
    "Ġapprised": 18362,
    "Ġsworn": 14433,
    "animals": 24738,
    "ivation": 3108,
    "charmed": 21694,
    "Ġtingling": 15090,
    "Ġforgo": 21771,
    "Ġavenues": 25429,
    "Ġshar": 9248,
    "butter": 11782,
    "Ġenig": 15797,
    "Ġimprovement": 7966,
    "Ġevidently": 6759,
    "ained": 3063,
    "chants": 21690,
    "Ġunra": 18237,
    ".": 18,
    "Ġdepended": 9775,
    "Ġmountains": 4426,
    "Ġriveted": 13616,
    "athies": 22698,
    "Ġrelied": 16193,
    "Ġletter": 2199,
    "Ġbreaths": 14855,
    "Ġmalady": 24391,
    "Ġmoist": 9283,
    "Ġuncertain": 4067,
    "Ġindolent": 13001,
    "71": 20755,
    "tenham": 16321,
    "unk": 4537,
    "Ġcruelly": 13373,
    ",": 16,
    "Ġlungs": 8362,
    "train": 2035,
    "asingly": 17960,
    "Ġscrew": 8866,
    "Ġconscientious": 16726,
    "tribute": 21087,
    "jump": 10102,
    "Ġcherub": 23285,
    "cking": 4265,
    "iloqu": 11646,
    "icing": 9199,
    "Ġsend": 4108,
    "Ġmusical": 23891,
    "Ġjudge": 5502,
    "farmer": 25899,
    "Ġlany": 21552,
    "Ġwindows": 4971,
    "wish": 8100,
    "itary": 4751,
    "ention": 850,
    "berries": 22722,
    "shining": 18487,
    "Ġreliance": 14383,
    "Ġcoward": 7155,
    "esteem": 26008,
    "Ġconnexion": 11453,
    "ario": 14246,
    "Ġbewitching": 25976,
    "Ġhoot": 19076,
    "Ġquaker": 10966,
    "Ġconvinced": 4206,
    "Ġscandal": 9080,
    "nect": 662,
    "olent": 8155,
    "cery": 20807,
    "Ġperforming": 7928,
    "ina": 21178,
    "Ġbigness": 19759,
    "ances": 1339,
    "Ġadmits": 23552,
    "Ġmurmur": 14588,
    "Ġallusions": 10905,
    "weekly": 25684,
    "Ġthroughout": 8875,
    "Ġme": 352,
    "cream": 15329,
    "Ġvalued": 12179,
    "Ġire": 12665,
    "iverse": 13113,
    "slow": 7811,
    "Ġpretended": 19313,
    "Ġfacility": 19849,
    "Ġplunder": 22600,
    "Ġsluggishly": 25891,
    "northern": 23666,
    "rever": 21234,
    "Ġelixir": 26554,
    "Ġluckless": 16796,
    "Ġaggregated": 25678,
    "Ġrecept": 1526,
    "examine": 25477,
    "Ġunintelligible": 26513,
    "Ġhaw": 10250,
    "Ġscarce": 8621,
    "Ġdragging": 14475,
    "Ġskeleton": 5514,
    "makes": 10710,
    "âĢĿâĢĶ": 5721,
    "Ġassigned": 16310,
    "Ġrobbed": 23059,
    "Ġwaxed": 21296,
    "Ġsecret": 3721,
    "Ġdears": 18139,
    "Ġobeisance": 19757,
    "el": 306,
    "Ġgrinning": 9052,
    ",âĢĶâĢĺ": 23801,
    "Ġlim": 2382,
    "Ġself": 1778,
    "dece": 11730,
    "Ġirrevocably": 15295,
    "pulling": 25146,
    "Ġthings": 1961,
    "Ġcongratulations": 10579,
    "Ġunrecord": 16620,
    "acious": 5561,
    "Ġsurf": 19131,
    "Ġattended": 5391,
    "Ġarticles": 7108,
    "Ġleisurely": 24746,
    "Ġutilize": 4798,
    "Ġvillagers": 19472,
    "itted": 2442,
    "people": 7678,
    "Ġmind": 1621,
    "Ġmum": 13856,
    "Ġenchant": 7185,
    "Ġmayhap": 18709,
    "Ġsmells": 8888,
    "iscre": 17850,
    "Ġoversight": 22356,
    "Ġmarines": 16257,
    "contain": 18500,
    "creature": 5346,
    "sir": 5001,
    "Ġdevoid": 18682,
    "papers": 12498,
    "Ġdelivered": 11115,
    "imagination": 13478,
    "Ġambition": 11431,
    "Ġwitty": 21291,
    "Ġjac": 1898,
    "Ġinseparable": 20687,
    "Ġreassure": 21670,
    "Ġchambers": 16798,
    "Ġrevenge": 5452,
    "ateful": 5927,
    "lets": 7837,
    "Ġcounted": 12136,
    "Ġdefines": 1740,
    "beyond": 8881,
    "Ġcarbuncle": 14443,
    "lilies": 20960,
    "inement": 11556,
    "figured": 20121,
    "Ġtore": 6530,
    "Ġcomparatively": 9488,
    "Ġawoke": 7286,
    "Ġerrors": 2597,
    "ĠâĢľâĢĺ": 8503,
    "laugh": 10107,
    "Ġlivid": 14987,
    "greenland": 10019,
    "Ġacknowledge": 13400,
    "Ġfrequ": 3325,
    "Ġschedules": 3387,
    "Ġgunwales": 12237,
    "Ġstars": 6149,
    "wled": 15453,
    "afternoon": 13183,
    "Ġcrossed": 6069,
    "wore": 21123,
    "Ġconcil": 23320,
    "Ġsilly": 7687,
    "Ġcongregational": 25102,
    "Ġrough": 7187,
    "Ġglad": 3323,
    "Ġchronicler": 20228,
    "Ġwint": 15531,
    "Ġascertained": 25296,
    "reproof": 25432,
    "Ġdefection": 22940,
    "Ġconsented": 11294,
    "Ġarms": 3967,
    "Ġslid": 7952,
    "Ġdashing": 8794,
    "Ġunconcern": 14115,
    "Ġfam": 1588,
    "Ġestimable": 23870,
    "hidden": 17369,
    "Ġhorsham": 10405,
    "Ġade": 22098,
    "Ġkindred": 16373,
    "Ġhousekeeper": 7456,
    "icult": 3338,
    "bpp": 20771,
    "punct": 20191,
    "Ġexquis": 9697,
    "Ġmenacing": 23106,
    "endom": 15921,
    "inn": 5363,
    "abound": 15737,
    "aphys": 15199,
    "Ġcrush": 9420,
    "Ġrule": 1537,
    "Ġly": 2272,
    "Ġsprain": 18305,
    "Ġsavages": 9910,
    "plunging": 25987,
    "Ġtinker": 15129,
    "Ġbreath": 4791,
    "Ġspleen": 26420,
    "Ġearls": 18902,
    "Ġwavering": 23278,
    "oices": 7348,
    "Ġslender": 11937,
    "Ġcharts": 12823,
    "Ġtamer": 24978,
    "Ġlightness": 23258,
    "Ġ40": 14767,
    "Ġspurned": 12793,
    "Ġstaircase": 20094,
    "Ġpatroness": 13508,
    "Ġdeceiving": 21836,
    "enances": 10152,
    "Ġreserves": 19669,
    "Ġpostpone": 17305,
    "sk": 5521,
    "Ġlaborers": 19057,
    "Ġgreek": 10630,
    "agement": 4189,
    "Ġpatron": 7462,
    "shall": 4548,
    "Ġeffeminacy": 20717,
    "Ġintensity": 10014,
    "Ġmerited": 23729,
    "Ġtant": 12521,
    "?_âĢĿ": 12313,
    "Ġshepherd": 14151,
    "Ġvalidate": 3344,
    "Ġexpiring": 16096,
    "Ġdeductions": 19731,
    "go": 2065,
    "Ġdimens": 3147,
    "honor": 19899,
    "Ġheeded": 13401,
    "Ġforesee": 19125,
    "Ġtopic": 9404,
    "when": 1592,
    "Ġresponses": 23650,
    "Ġwarmed": 12020,
    "grieved": 17315,
    "Ġease": 5629,
    "Ġscolding": 15198,
    "Ġlent": 21545,
    "ĠĠĠĠĠĠĠĠĠĠĠĠĠĠ": 22561,
    "Ġmrs": 1466,
    "ular": 713,
    "Ġ42": 16677,
    "Ġtwist": 11848,
    "Ġwrong": 4723,
    "Ġsigns": 2443,
    "ot": 346,
    "Ġsauntering": 18327,
    "Ġfling": 9659,
    "irt": 3075,
    "Ġhypocritical": 20737,
    "Ġcuriously": 13008,
    "Ġcheever": 23282,
    "Ġrepugnance": 19086,
    "sis": 1894,
    "atively": 2697,
    "Ġach": 2622,
    "allic": 12809,
    "Ġhackney": 20431,
    "Ġmarbles": 18872,
    "antages": 7192,
    "Ġgreedy": 3052,
    "Ġlistened": 4468,
    "Ġenhance": 2782,
    ".âĢĻ": 1718,
    "Ġloomed": 12298,
    "Ġpump": 12617,
    "enthus": 17977,
    "Ġprogressive": 5024,
    "Ġlifetime": 13600,
    "Ġensures": 3054,
    "Ġgirdle": 19156,
    "contemplated": 20457,
    "Ġab": 528,
    "Ġphysiognomy": 25610,
    "Ġadult": 18289,
    "exam": 10975,
    "Ġlivery": 15995,
    "frock": 20119,
    "eaten": 20343,
    "Ġstrength": 4259,
    "Ġsustaining": 25333,
    "Ġcontrivances": 12354,
    "ose": 718,
    "Ġcognitive": 13632,
    "three": 5239,
    "Ġross": 2768,
    "tis": 4106,
    "Ġsanctioned": 26349,
    "uneasy": 23685,
    "sey": 5542,
    "mark": 5281,
    "Ġserenity": 10026,
    "Ġdecreases": 3410,
    "bb": 2804,
    "isting": 5550,
    "Ġmicroscopic": 26373,
    "tr": 3578,
    "Ġtail": 3087,
    "Ġgurglings": 26464,
    "Ġprouder": 18972,
    "ss": 397,
    "Ġyoungest": 7954,
    "complained": 25838,
    "Ġdinah": 9451,
    "Ġsus": 18279,
    "Ġrustling": 24715,
    "ilogue": 21722,
    "Ġevenness": 22832,
    "companies": 24894,
    "Ġdejected": 20303,
    "overfitting": 13098,
    "itu": 1225,
    "ibid": 18839,
    "awe": 20764,
    "resemblance": 25933,
    "Ġdiffusion": 23781,
    "think": 3609,
    "Ġlovely": 4709,
    "Ġnumbers": 2893,
    "Ġcredited": 25153,
    "Ġsnaky": 23740,
    "estinated": 15916,
    "Ġhansom": 13662,
    "uttermost": 24940,
    "Ġcautiously": 16976,
    "Ġfragrant": 13082,
    "Ġpatience": 2798,
    "Ġrows": 10560,
    "Ġor": 436,
    "jud": 4480,
    "Ġcoils": 9301,
    "Ġportcull": 23861,
    "Ġearthly": 7990,
    "interred": 23735,
    "prob": 7069,
    "Ġgreeting": 18963,
    "Ġpreternatural": 12819,
    "ropy": 1102,
    "Ġincognita": 26550,
    "Ġamends": 14244,
    "Ġinquis": 19303,
    "Ġfocuses": 8649,
    "Ġprec": 2925,
    "Ġguard": 6179,
    "allet": 11081,
    "Ġheads": 3741,
    "modesty": 22833,
    "carefully": 13366,
    "1": 21,
    "Ġvariations": 22664,
    "lessness": 5317,
    "Ġtrading": 23075,
    "Ġlinked": 15075,
    "broker": 13302,
    "forbid": 14347,
    "Ġshrubbery": 18232,
    "Ġgratify": 19501,
    "distinguish": 19571,
    "Ġprogress": 5023,
    "Ġcreat": 1368,
    "sufficient": 6635,
    "complacency": 19913,
    "Ġsust": 7007,
    "rushing": 10016,
    "fol": 4862,
    "Ġdarkness": 4277,
    "arus": 13910,
    "ises": 3653,
    "Ġsea": 1209,
    "insensibility": 23068,
    "Ġattain": 12743,
    "Ġevol": 2818,
    "neck": 14239,
    "Ġincl": 4270,
    "Ġpilgrimage": 17306,
    "Ġjuggling": 20437,
    "tarpaul": 21096,
    "Ġsimul": 1807,
    "Ġpole": 6433,
    "Ġlakes": 8131,
    "trial": 20349,
    "Ġgreater": 3037,
    "Ġhead": 1127,
    "Ġemblem": 20496,
    "puted": 8844,
    "Ġfifty": 4621,
    "whal": 10939,
    "rison": 13777,
    "Ġfind": 1456,
    "Ġripples": 25505,
    "Ġstudies": 7956,
    "Ġconfederate": 17352,
    "Ġauto": 23301,
    "hot": 8084,
    "þ": 191,
    "Ġprofound": 5497,
    "rucastle": 22171,
    "Ġsanct": 15063,
    "Ġdip": 13905,
    "Ġformed": 3884,
    "Ġtaken": 2527,
    "subtle": 24242,
    "Ġplumber": 16082,
    "around": 12604,
    "Ġhis": 380,
    "imag": 6990,
    "Ġaccident": 5380,
    "inces": 13826,
    "sustained": 20567,
    "tashtego": 9621,
    "Ġbusily": 9382,
    "Ġhigh": 933,
    "Ġlearning": 389,
    "Ġoutlast": 22311,
    "Ġawe": 7147,
    "remote": 23188,
    "Ġded": 2713,
    "Ġascend": 9958,
    "Ġoverpowered": 15286,
    "Ġlooking": 2474,
    "lost": 8886,
    "ids": 21761,
    "approb": 11041,
    "Ġvindict": 13603,
    "Ġpresented": 5183,
    "Ġmerest": 14029,
    "remembrance": 25702,
    "Ġcuts": 14606,
    "antediluvian": 24345,
    "Ġweek": 2830,
    "Ġneck": 4885,
    "Ġmoose": 22431,
    "Ġsetting": 7046,
    "spirited": 19752,
    "Ġtallow": 14776,
    "Ġskip": 1845,
    "Ġtire": 17719,
    "alloyed": 22199,
    "Ġchuck": 8501,
    "Ġgovern": 10449,
    "ctions": 952,
    "Ġcommunications": 16353,
    "organic": 25946,
    "Ġtoiling": 15632,
    "Ġexperiment": 11909,
    "6": 26,
    "learning": 2632,
    "force": 12950,
    "Ġallured": 14111,
    "gences": 20876,
    "Ġperplexity": 2759,
    "Ġundo": 15838,
    "Ġinstrument": 7118,
    "Ġexpedite": 24953,
    "inc": 2519,
    "ugging": 23289,
    "Ġdevice": 1929,
    "consuming": 25674,
    "ored": 3895,
    "unhes": 21873,
    "Ġscore": 9736,
    "ook": 21003,
    "Ġquivers": 22406,
    "Ġnour": 10829,
    "ucy": 15443,
    "Ġconf": 1820,
    "Ġclaw": 22348,
    "Ġint": 411,
    "Ġpersonages": 23539,
    "abling": 1075,
    "assure": 9267,
    "Ġwildness": 14602,
    "Ġhouse": 1506,
    "Ġmerc": 9424,
    "bewil": 22495,
    "ì": 173,
    "Ġwhole": 1662,
    "rics": 13034,
    "Ġpoets": 11818,
    "conda": 18994,
    "Ġsolution": 9803,
    "Ġformerly": 7494,
    "eline": 2312,
    "Ġintermediate": 18588,
    "Ġpresenting": 18987,
    "illuminated": 17451,
    "Ġfrenchman": 11282,
    "rumours": 23897,
    "Ġdepose": 22605,
    "Ġcolleague": 17158,
    "giving": 8738,
    "Ġpresumption": 10544,
    "!)": 10067,
    "Ġsy": 486,
    "started": 10844,
    "hoisted": 19281,
    "Ġwoes": 23983,
    "osition": 1376,
    "visible": 10532,
    "Ġdecaying": 2251,
    "strip": 19829,
    "cask": 12443,
    "Ġberries": 13405,
    "rid": 5137,
    "shire": 3022,
    "Ġsavi": 18325,
    "urpation": 16299,
    "nour": 20987,
    "Ġmethodic": 23174,
    "Ġforthwith": 16617,
    "Ġmannish": 26237,
    "Ġsleep": 2401,
    "Ġeluded": 12917,
    "Ġexultation": 15169,
    "Ġtid": 8107,
    "Ġgrievous": 13257,
    "vessels": 10624,
    "Ġherbage": 25996,
    "ro": 301,
    "uctive": 17695,
    "Ġabominable": 12319,
    "fi": 12458,
    "Ġcontinuation": 22916,
    "Ġcleat": 18946,
    "ificial": 607,
    "Ġamusement": 8056,
    "Ġchiselled": 25559,
    "largely": 19573,
    "Ġrainbows": 19647,
    "Ġpallet": 21480,
    "arat": 9179,
    "told": 7812,
    "Ġhasty": 10476,
    "hun": 5210,
    "Ġfooted": 23795,
    "Ġsallied": 12533,
    "Ġexpanding": 25238,
    "osite": 4893,
    "Ġbubble": 13533,
    "inity": 5693,
    "liament": 16216,
    "Ġspoon": 22132,
    "kind": 3864,
    "Ġconfinement": 19039,
    "Ġbeck": 14007,
    "Ġwed": 3961,
    "promontory": 24728,
    "Ġalph": 9693,
    "Ġcalculates": 13262,
    "Ġemig": 14523,
    "Ġrio": 23889,
    "Ġskulls": 12956,
    "Ġblunt": 11891,
    "impatiently": 20469,
    "Ġrecom": 4553,
    "Ġunreasoning": 15843,
    "Ġduring": 873,
    "Ġsword": 6732,
    "lengths": 24846,
    "Ġmira": 8407,
    "Ġinstinctively": 13457,
    "Ġscand": 7203,
    "Ġchis": 11747,
    "Ġsurround": 4615,
    "Ġunlim": 18253,
    "forecastle": 10989,
    "Ġsituations": 10490,
    "somewhat": 11159,
    "embed": 18182,
    "Ġoust": 21322,
    "Ġliterally": 15114,
    "Ġcondescension": 10617,
    "Ġenemy": 5604,
    "quired": 21847,
    "Ġspecies": 5112,
    "Ġlanc": 19763,
    "Ġallev": 18100,
    "Ġmaddened": 17243,
    "beheld": 11798,
    "Ġcomely": 21853,
    "Ġdread": 3160,
    "Ġrolling": 5975,
    "quer": 11676,
    "Ġarid": 22179,
    "solely": 19815,
    "itan": 10158,
    "imming": 9685,
    "Ġsine": 10762,
    "Ġspoutings": 14674,
    "Ġcord": 5222,
    "Ġ51": 24319,
    "orers": 14101,
    "Ġaltered": 7393,
    "Ġpeg": 22687,
    "binnacle": 20786,
    "Ġunusually": 15844,
    "Ġflattening": 26048,
    "Ġprophet": 7682,
    "bitious": 16668,
    "Ġsuperflu": 14554,
    "Ġmagnanim": 14471,
    "Ġscound": 12829,
    "Ġsog": 22079,
    "world": 5058,
    "aged": 2608,
    "Ġneared": 14073,
    "Ġinclement": 22551,
    "cept": 555,
    "assistant": 25567,
    "worshipping": 16609,
    "Ġsaves": 18324,
    "Ġturban": 23612,
    "Ġhaven": 8473,
    "Ġoffended": 7040,
    "Ġweighed": 8710,
    "Ġdrowning": 19903,
    "Ġherb": 15854,
    "circ": 4386,
    "vation": 4744,
    "smoking": 23908,
    "Ġexclaim": 11220,
    "Ġcollege": 11423,
    "beauty": 20102,
    "ford": 2825,
    "Ġportents": 14678,
    "Ġqueer": 4477,
    "mrs": 3745,
    "pret": 7212,
    "ructed": 7027,
    "glances": 23851,
    "acing": 2720,
    "another": 5439,
    "Ġcensured": 25094,
    "oam": 8751,
    "Ġrelieved": 7667,
    "hmael": 7342,
    "Ġvagueness": 25737,
    "Ġhopes": 4234,
    "Ġdefinite": 11068,
    "arches": 10815,
    "spell": 22732,
    "Ġgrowled": 19282,
    "Ġcapering": 21352,
    "Ġprovoke": 14824,
    "ople": 2321,
    "Ġspit": 22122,
    "Ġdiana": 21435,
    "whalemen": 10430,
    "iles": 2866,
    "earnestly": 17311,
    "adier": 18089,
    "Ġdestination": 19149,
    "Ġbewitched": 25975,
    "bro": 4034,
    "Ġhundred": 2694,
    "Ġaids": 12225,
    "Ġprovocation": 24190,
    "elt": 4116,
    "ement": 1503,
    "insula": 23065,
    "Ġspires": 11727,
    "Ġimpersonal": 17395,
    "itting": 1153,
    "Ġresid": 22536,
    "Ġunaccountable": 7888,
    "Ġchannel": 26012,
    "Ġbureau": 11588,
    "Ġwharves": 13504,
    "Ġfootmen": 23796,
    "Ġchrysalis": 26537,
    "branch": 23577,
    "sch": 21049,
    "Ġlead": 3522,
    "Ġefficiently": 3713,
    "Ġclumsy": 9578,
    "Ġfill": 5701,
    "boxes": 16887,
    "Ġchristmas": 6924,
    "ance": 477,
    "Ġblackest": 19098,
    "bell": 7332,
    "Ġanyways": 22518,
    "Ġshe": 466,
    "Ġremo": 3785,
    "Ġmodesty": 12813,
    "Ġcomputations": 15997,
    "wants": 21129,
    "dismal": 23497,
    "contempl": 13189,
    "Ġfrost": 6096,
    "uary": 11536,
    "Ġappearance": 3700,
    "Ġbreakers": 12052,
    "but": 593,
    "england": 18928,
    "sively": 13784,
    "preser": 9758,
    "season": 14032,
    "Ġconsoled": 18112,
    "Ġplains": 14622,
    "Ġwonders": 7501,
    "order": 1958,
    "crow": 9589,
    "Ġrecognise": 12039,
    "Ġarrives": 23606,
    "Ġsteeple": 19286,
    "ieth": 10703,
    "Ġhinges": 15210,
    "Ġunlikely": 10907,
    "Ġ124": 24468,
    "simple": 13450,
    "Ġgenteel": 19979,
    "Ġfainter": 14912,
    "tell": 1382,
    "my": 1315,
    "ni": 1664,
    "opol": 12867,
    "chose": 18040,
    "Ġindisposed": 26287,
    "appears": 12057,
    "Ġskin": 5038,
    "onian": 17766,
    "Ġvillas": 24051,
    "Ġfrankenstein": 7095,
    "Ġsublime": 8066,
    "Ġdire": 864,
    "Ġpostponed": 20388,
    "Ġtolerable": 6949,
    "nades": 20996,
    "erxes": 21274,
    "Ġwhilst": 9217,
    "Ġinspiring": 19112,
    "ould": 428,
    "Ġinfamous": 16363,
    "Ġplayful": 19235,
    "Ġfully": 6342,
    "occ": 4483,
    "Ġacquaint": 13041,
    "Ġpublic": 4331,
    "Ġshameful": 19851,
    "Ġslipper": 24264,
    "Ġunconcerned": 20508,
    "Ġunique": 12774,
    "ous": 476,
    "brimmed": 14587,
    "Ġgrap": 11704,
    "Ġzodiac": 16173,
    "bidden": 19735,
    "jar": 17576,
    "Ġrestrain": 8963,
    "Ġhath": 12624,
    "Ġsuggestions": 24452,
    "letter": 6201,
    "Ġad": 441,
    "Ġgreatly": 5849,
    "Ġtiles": 17725,
    ";": 31,
    "Ġenemies": 9037,
    "Ġlist": 2366,
    "Ġattracted": 8903,
    "canonical": 22961,
    "waist": 13416,
    "Ġpursuers": 13223,
    "Ġcaravan": 26290,
    "Ġnotorious": 18223,
    "Ġenraptured": 26499,
    "Ġdraughts": 20220,
    "impul": 16554,
    "Ġgrown": 5628,
    "musket": 25341,
    "Ġcloudless": 16667,
    "how": 1644,
    "Ġsomewhere": 5384,
    "Ġmurmured": 7481,
    "like": 1884,
    "Ġtools": 11607,
    "Ġghostliness": 24651,
    "Ġinflex": 20633,
    "Ġmanilla": 15957,
    "Ġmilk": 6485,
    "Ġmonosyllable": 20725,
    "educ": 10827,
    "Ġtwinkled": 14310,
    "puff": 21021,
    "gments": 12466,
    "Ġtechnical": 17190,
    "bull": 13688,
    "Ġinfatuated": 20532,
    "Ġspades": 12792,
    "Ġreeled": 13984,
    "arthur": 14828,
    "Ġoverdone": 22357,
    "Ġcollections": 22853,
    "icant": 21560,
    "alter": 10825,
    "flukes": 25205,
    "Ġsatan": 14388,
    "Ġoffice": 4965,
    "uously": 7353,
    "Ġadvertise": 25388,
    "danced": 20827,
    "Ġeastern": 11627,
    "intelligence": 5883,
    "loath": 22507,
    "Ġprince": 18971,
    "Ġinsist": 9888,
    "ittered": 18440,
    "Ġsavagely": 26323,
    "oon": 6364,
    "sailing": 14712,
    "Ġperformance": 1307,
    "Ġunwe": 15836,
    "Ġeuroc": 14957,
    "Ġnearer": 5301,
    "hunting": 24384,
    "Ġadvoc": 12984,
    "Ġrudeness": 17123,
    "Ġ78": 19612,
    "Ġrightly": 13061,
    "Ġgorgeous": 20465,
    "Ġfer": 5623,
    "Ġaffectionately": 13166,
    "faith": 15023,
    "Ġadvantageously": 19544,
    "security": 26206,
    "Ġtear": 6723,
    "Ġbrace": 11210,
    "Ġgrowing": 6750,
    "ineffectual": 26506,
    "Ġnatives": 17950,
    "Ġbowled": 23768,
    "Ġmuster": 16120,
    "moran": 24151,
    "Ġmustering": 18662,
    "Ġturn": 1299,
    "Ġredeem": 20498,
    "nameless": 19902,
    "unfearing": 21890,
    "Ġspend": 5304,
    "Ġinsincere": 26598,
    "Ġhaunted": 10252,
    "Ġpursuit": 4732,
    "difficulty": 12387,
    ":âĢĶâĢĺ": 24192,
    "Ġsultry": 20287,
    "Ġscatter": 18398,
    "Ġunst": 18238,
    "ders": 8075,
    "decor": 23779,
    "Ġblinded": 13268,
    "Ġspectacles": 12094,
    "astrous": 15884,
    "Ġcreaking": 14330,
    "fin": 5209,
    "Ġindignity": 18832,
    "Ġcapable": 5054,
    "Ġsymmetry": 20364,
    "Ġsentence": 6187,
    "Ġorthodox": 22091,
    "Ġcrosses": 23061,
    "garden": 15024,
    "Ġangel": 4852,
    "powers": 25410,
    "sav": 8097,
    "Ġirregular": 9863,
    "Ġother": 760,
    "Ġhumming": 12982,
    "Ġpequod": 2324,
    "Ġwhy": 1759,
    "itude": 1417,
    "Ġdangling": 17173,
    "Ġpredefined": 20716,
    "Ġbreeds": 23347,
    "imaux": 21710,
    "Ġdoubt": 2226,
    "Ġstern": 4188,
    "riage": 2124,
    "L": 48,
    "Ġclanking": 20610,
    "Ġunpleasant": 7191,
    "Ġtreasure": 9557,
    "later": 20952,
    "Ġsponge": 26003,
    "thouse": 21980,
    "Ġbuckets": 17033,
    "Ġimpute": 18335,
    "Ġascertaining": 17202,
    "Ġshifting": 12764,
    "allowance": 16823,
    "ian": 1235,
    "lyph": 10851,
    "gement": 13726,
    "zek": 16268,
    "99": 1896,
    "nam": 2964,
    "ifers": 15779,
    "Ġcakes": 13882,
    "glancing": 11213,
    "nearer": 22457,
    "clock": 3933,
    "masts": 19423,
    "Ġspeedy": 11171,
    "consciousness": 13363,
    "ific": 491,
    "depths": 25663,
    "Ġbaker": 4695,
    "Ġnetherfield": 3931,
    "Ġaffronted": 22892,
    "Ġunden": 22009,
    "mother": 5480,
    "surely": 10568,
    "Ġabode": 7901,
    "Ġsupported": 9816,
    "naturally": 14559,
    "Ġsalad": 19477,
    "Ġsurviv": 13433,
    "Ġgrasping": 12162,
    "thereby": 14445,
    "Ġconve": 5455,
    "Ġundec": 22015,
    "Ġvariously": 18652,
    "Ġgazing": 5876,
    "Ġlines": 4532,
    "hurrying": 14981,
    "Ġquieted": 23840,
    "Ġbery": 13896,
    "Ġhat": 2775,
    "Ġconsidering": 4613,
    "Ġkeen": 4611,
    "Ġcarriages": 11097,
    "Ġchagrin": 20606,
    "Ġbit": 2968,
    "Ġpedestrian": 25879,
    "oking": 4604,
    "enger": 10772,
    "ible": 1116,
    "Ġfraud": 19010,
    "Ġapproximation": 2343,
    "Ġgramm": 8171,
    "Ġaccompanying": 11303,
    "Ġattends": 19649,
    "fury": 17546,
    "flight": 15350,
    "Ġmadly": 16484,
    "Ġunperceived": 22033,
    "bye": 5950,
    "Ġlament": 7857,
    "Ġwisdom": 11232,
    "Ġnumberless": 16414,
    "Ġignited": 25069,
    "Ġsounds": 5190,
    "Ġfeebly": 24877,
    "lotte": 3328,
    "ping": 9614,
    "Ġger": 21589,
    "lacing": 17589,
    "Ġrenow": 18027,
    "Ġshared": 10262,
    "Ġsigmoid": 2463,
    "none": 6962,
    "Ġpierced": 12278,
    "personal": 24965,
    "Ġvenge": 5420,
    "Ġgreyish": 24207,
    "total": 17249,
    "Ġfan": 2036,
    "Ġapprehens": 5682,
    "unconquerable": 21889,
    "Ġpeeped": 10010,
    "Ġgrop": 12660,
    "Ġdrawer": 13263,
    "nostr": 22723,
    "Ġxxxi": 24968,
    "Ġrim": 21963,
    "Ġpagans": 16921,
    "singing": 24362,
    "countenance": 6925,
    "ucket": 2483,
    "assed": 6421,
    "Ġmasterly": 23991,
    "dia": 2136,
    "Ġweaken": 21919,
    "Ġmildly": 9028,
    "perhaps": 4122,
    "Ġoverjoy": 15966,
    "Ġprojects": 9509,
    "idelburgh": 10559,
    "Ġchurchyard": 16776,
    "Ġrecommending": 24336,
    "Ġmac": 15536,
    "gener": 3123,
    "Ġattract": 11829,
    "Ġnews": 3819,
    "Ġuntouched": 16464,
    "Ġeluc": 16106,
    "Ġflock": 21410,
    "tomorrow": 25914,
    "pro": 2050,
    "Ġexamples": 2606,
    "Ġcharacter": 2797,
    "ubl": 3594,
    "Ġcoat": 4552,
    "ynolds": 10034,
    "Ġaverted": 16252,
    "Ġdomes": 23643,
    "Ġbravest": 23838,
    "Ġbrown": 6298,
    "Ġphr": 2682,
    "probably": 10018,
    "Ġleg": 2337,
    "collected": 13211,
    "Ġscandinavian": 26344,
    "Ġrose": 3443,
    "Ġaccursed": 9453,
    "connections": 14426,
    "Ġmoral": 6578,
    "Ġnotice": 4541,
    "Ġcastle": 14715,
    "Ġsheepfold": 25466,
    "Ġeffected": 14352,
    "ureau": 10225,
    "Ġconsole": 8151,
    "Ġdep": 746,
    "Ġtoil": 6531,
    "Ġcabal": 23641,
    "//": 11462,
    "Ġvice": 6548,
    "Ġcheshire": 13088,
    "69": 17473,
    "Ġam": 659,
    "Ħ": 231,
    "Ġliberties": 19666,
    "Ġphenomena": 21482,
    "Ġexceptions": 13227,
    "Ġgryphon": 4299,
    "Ġk": 484,
    "upright": 23017,
    "Ġsubsc": 22788,
    "liv": 9606,
    "ament": 2440,
    "gal": 15353,
    "Ġnapoleons": 25885,
    "Ġhovers": 19078,
    "irs": 14069,
    "Ġnervousness": 23554,
    "independ": 15980,
    "retirement": 23135,
    "Ġstrictest": 17041,
    "Ġdeclaring": 19418,
    "Ġwherever": 8523,
    "ĠĠĠĠĠĠĠĠĠĠĠĠĠĠĠĠĠĠĠĠĠĠĠĠĠĠĠĠĠĠĠĠĠĠĠĠĠĠĠĠĠĠĠĠĠĠ": 9951,
    "Ġhumor": 11050,
    "Ġparcel": 15197,
    "blubber": 15234,
    "Ġput": 1799,
    "edily": 17943,
    "formal": 14168,
    "Ġpest": 13911,
    "Ġtheory": 5798,
    "Ġlust": 9196,
    "Ġwinc": 9641,
    "Ġtwice": 4660,
    "miles": 10711,
    "Ġrequisition": 22630,
    "definition": 23116,
    "Ġdeft": 21835,
    "Ġpad": 8125,
    "Ġviolin": 16427,
    "Ġangular": 19205,
    "Ġhypocr": 19470,
    "Ġmag": 1428,
    "Ġprophesied": 26062,
    "Ġsubord": 22787,
    "Ġunprecedented": 15852,
    "Ġfearfulness": 23512,
    "Ġscrut": 15944,
    "Ġetc": 7084,
    "Ġphilipp": 23882,
    "ratches": 20123,
    "Ġat": 395,
    "laughed": 20280,
    "Ġmam": 8405,
    "Ġminim": 1324,
    "Ġimprec": 14218,
    "Ġothers": 2583,
    "Ġvarious": 3508,
    "Ġimbu": 15894,
    "Ġportra": 9007,
    "Ġgir": 2259,
    "Ġcondescending": 24868,
    "gers": 8376,
    "bestowed": 12222,
    "big": 13683,
    "Ġrepresentation": 14403,
    "etuous": 21581,
    "istical": 8489,
    "Ġusages": 15918,
    "commodore": 20624,
    "Ġfavourite": 5270,
    "Ġground": 2851,
    "Ġmystical": 12129,
    "Ġbowls": 23769,
    "ul": 371,
    "Ġretired": 6071,
    "Ġbled": 17856,
    "horrors": 20540,
    "Ġpugn": 21479,
    "unicorn": 21887,
    "hither": 11491,
    "Ġhonour": 3922,
    "shadows": 25479,
    "Ġstretch": 6993,
    "Ġwindibank": 7257,
    "ilated": 18057,
    "Ġbusks": 23338,
    "distinct": 13333,
    "bohemia": 20730,
    "Ġconcocted": 26299,
    "Ġhusbands": 16641,
    "feather": 16041,
    "remembered": 17349,
    "ifted": 4493,
    "usal": 7639,
    "lashed": 20953,
    "blog": 19838,
    "telescope": 26561,
    "Ġender": 11687,
    "Ġbeats": 21750,
    "Ġbefallen": 12340,
    "sleepy": 24729,
    "Ġvi": 1952,
    "och": 21000,
    "Ġvisited": 5948,
    "Ġcomm": 839,
    "smile": 23903,
    "Ġspasmodic": 20396,
    "Ġbegins": 7244,
    "Ġcrib": 21346,
    "ruff": 15891,
    "Ġbuilded": 24719,
    "Ġtortoise": 16907,
    "Ġverge": 23885,
    "anely": 17836,
    "Ġbeech": 18082,
    "repeat": 25151,
    "Ġperils": 6272,
    "itled": 7578,
    "Ġall": 421,
    "Ġridic": 7509,
    "Ġwhistles": 24625,
    "Ġtumbled": 13404,
    "december": 25558,
    "orum": 12586,
    "Ġaimed": 20249,
    "lish": 1951,
    "Ġloud": 4700,
    "Ġfibres": 12947,
    "Ġshavings": 14108,
    "Ġidentify": 12010,
    "Ġwhalers": 8048,
    "Ġindifference": 6725,
    "stove": 21644,
    "Ġnook": 15926,
    "inside": 23064,
    "Ġlik": 2522,
    "Ļ": 252,
    "carried": 16711,
    "tasted": 17686,
    "Ġdest": 2242,
    "Ġruddy": 17124,
    "Ġenslaved": 26314,
    "setting": 13283,
    "Ġbusier": 23337,
    "grate": 23410,
    "Ġ67": 19659,
    "Ġintense": 6157,
    "gun": 10095,
    "bent": 15309,
    "deed": 1522,
    "paddington": 20476,
    "Ġmock": 3692,
    "urrection": 12406,
    "Ġinfant": 11956,
    "Ġdissembling": 26254,
    "bres": 11470,
    "Ġexamining": 8006,
    "Ġsighing": 18675,
    "judged": 14829,
    "Ġphilips": 5410,
    "Ġdivert": 23592,
    "Ġcorruption": 15223,
    "Ġrecklessly": 16982,
    "fatigue": 20657,
    "pequod": 7052,
    "inridge": 11559,
    "nett": 16219,
    "mantel": 26393,
    "Ġhearties": 18966,
    "Ġrecollecting": 17112,
    "Ġalluded": 7886,
    "Ġundoubted": 19513,
    "maybe": 23988,
    "Ġadd": 630,
    "Ġscant": 22283,
    "Ġcondescend": 19953,
    "Ġsavesoul": 26227,
    "Ġprometheus": 15290,
    "va": 4743,
    "Ġdeserve": 8309,
    "izens": 18135,
    "Ġimplement": 3216,
    "Ġwretchedness": 9025,
    "avers": 17479,
    "Ġcure": 21338,
    "Ġshaping": 22001,
    "Ġapparel": 20434,
    "Ġabst": 9264,
    "whisper": 17082,
    "Ġbought": 8416,
    "practised": 20246,
    "helmsman": 24286,
    "Ġman": 544,
    "geor": 15976,
    "_)âĢĶ": 20143,
    "Ġsideways": 6182,
    "Ġunravel": 26214,
    "Ġbrim": 12972,
    "Ġ500": 24327,
    "Ġporpoise": 7106,
    "Ġkent": 6691,
    "queens": 22907,
    "ssed": 3735,
    "parable": 16402,
    "Ġto": 297,
    "Ġcalcul": 3637,
    "tent": 21063,
    "roqu": 21532,
    "Ġjewell": 19519,
    "ĳ": 244,
    "impress": 18051,
    "Ġshel": 6847,
    "instances": 13317,
    "Ġlowly": 11120,
    "Ġrendered": 5773,
    "Ġsubterranean": 13609,
    "ascal": 10191,
    "treacle": 25148,
    "grand": 7970,
    "warnings": 20350,
    "ifferent": 4262,
    "icilian": 20690,
    "Ġmamma": 10046,
    "Ġlisten": 4672,
    "Ġduplicate": 17214,
    "Ġsacrifice": 9554,
    "Ġgoblets": 20517,
    "structure": 2367,
    "Ġrummaged": 16909,
    "Ġstarted": 4151,
    "Ġproportionate": 17042,
    "rocious": 21537,
    "Ġenthusiasm": 8065,
    "igning": 12677,
    "Ġprayers": 12120,
    "Ġlewis": 15722,
    "Ġceiling": 7997,
    "Ġdiscussion": 17193,
    "Ġposit": 1306,
    "Ġshaken": 10263,
    "Ġprofession": 6207,
    "Ġunassuming": 20507,
    "entropy": 1436,
    "Ġarched": 10931,
    "Ġargemone": 24273,
    "Ġinexper": 16979,
    "continu": 5501,
    "nobody": 16134,
    "Ġsult": 10766,
    "chooses": 23672,
    "pacing": 21020,
    "Ġmarch": 4081,
    "Ġbye": 12734,
    "Ġvitality": 15170,
    "Ġmort": 3460,
    "Ġedge": 5188,
    "Ġportraits": 20141,
    "terdam": 18129,
    "Ġforcibly": 10059,
    "Ġthrills": 24541,
    "Ġtradesmen": 17104,
    "Ġpencil": 11940,
    "Ġpanthe": 19652,
    "Ġdelicate": 6480,
    "Ġsuperstitious": 13518,
    "Ġdespaired": 14667,
    "beings": 12872,
    "Ġpreviously": 3919,
    "ĠĠĠĠĠĠĠĠĠĠĠĠĠĠĠĠĠĠĠĠĠĠĠĠĠĠĠĠĠĠĠ": 19699,
    "Ġbosoms": 16794,
    "Ġvirginia": 13498,
    "spe": 3559,
    "Ġbourgh": 5069,
    "Ġenclosure": 20622,
    "Ġsent": 1775,
    "Ġauthent": 14508,
    "swiftly": 20550,
    "Ġyounger": 5252,
    "Ġpercept": 14222,
    "aul": 6352,
    "Ġsatiated": 22900,
    "Ġapplying": 13090,
    "fearfully": 25116,
    "ountain": 2924,
    "Ġchief": 3382,
    "Ġgurgling": 17444,
    "Ġmoderate": 10937,
    "dued": 7910,
    "Ġspectator": 19404,
    "Ġpractices": 19055,
    "eternal": 17982,
    "Ġsegmentation": 17338,
    "Ġgun": 4701,
    "Ġinjection": 3467,
    "Ġproficiency": 19191,
    "Ġmoney": 3419,
    "atiously": 15520,
    "Ġtyp": 1134,
    "Ġviolence": 5963,
    "Ġdiscipline": 26560,
    "Ġperishing": 22395,
    "Ġscreaming": 13421,
    "Ġsuspects": 16889,
    "Ġvictor": 5125,
    "Ġluxury": 20130,
    "Ġsturgeon": 20590,
    "Ġimpatience": 7510,
    "accident": 11180,
    "Ġrepugn": 23362,
    "Ġbackwoods": 22660,
    "regard": 7973,
    "Ġaccomplish": 14874,
    "Ġnaturalists": 10360,
    "Ġboxes": 13372,
    "omics": 21661,
    "contin": 16540,
    "ofs": 11827,
    "Ġmathemat": 3199,
    "Ġbashful": 20418,
    "gris": 8260,
    "Ġrossum": 3014,
    "asting": 12802,
    "compliments": 24810,
    "Ġterminating": 23510,
    "winding": 16719,
    "Ġheadlands": 22896,
    "hateful": 20908,
    "Ġdoct": 4454,
    "Ġpanel": 13370,
    "Ġfem": 6134,
    "Ġunflinching": 26511,
    "Ġextensive": 12937,
    "Ġforged": 12700,
    "Ġexceed": 1346,
    "Ġheading": 8934,
    "Ġdisgu": 8206,
    "Ġrepro": 7275,
    "necessarily": 19630,
    "Ġfollowing": 4062,
    "Ġheinous": 18038,
    "Ġforehead": 5261,
    "urring": 21703,
    "Ġfreezing": 23881,
    "stained": 21647,
    "Ġflanks": 11912,
    "Ġsouthampton": 24306,
    "Ġapproved": 16034,
    "Ġpeculiarity": 12929,
    "Ġscrib": 22286,
    "Ġmuttered": 7086,
    "Ġexecuted": 9470,
    "Ġpaddock": 25037,
    "Ġenforced": 21936,
    "Ġdestroyer": 13411,
    "Ġblo": 2737,
    "Ġkeepers": 23537,
    "blast": 9586,
    "iated": 5890,
    "capting": 24036,
    "entieth": 17978,
    "Ġspam": 7631,
    "augmented": 26286,
    "Ġimpropri": 14216,
    "Ġpoetic": 17102,
    "cceed": 4143,
    "Ġknock": 9971,
    "Ġunderstanding": 1782,
    "lung": 17590,
    "Ġundertaken": 18986,
    "Ġbeseeching": 26311,
    "anter": 9165,
    "Ġmeth": 1473,
    "nder": 20986,
    "Ġtang": 13812,
    "Ġflatt": 16245,
    "Ġregained": 18590,
    "Ġincivility": 18572,
    "Ġsymmetrical": 20365,
    "arent": 4249,
    "party": 8991,
    "Ġgazes": 24093,
    "commencement": 26347,
    "dear": 6555,
    "Ġhelping": 3265,
    "Ġintric": 9245,
    "Ġchips": 14180,
    "Ġtragic": 15253,
    "Ġthinks": 6169,
    "Ġgoug": 17990,
    "interesting": 12198,
    "hued": 20910,
    "Ġpaths": 2570,
    "Ġbehind": 2811,
    "Ġtag": 15467,
    "Ġwriter": 11942,
    "anean": 7443,
    "Ġhumph": 22879,
    "Ġlevels": 12694,
    "ingly": 2137,
    "Ġperceptibly": 25821,
    "usive": 8190,
    "Ġcases": 3962,
    "Ġincrust": 22548,
    "Ġtrous": 10961,
    "orphans": 26439,
    "twilight": 23701,
    "barb": 10079,
    "ienced": 5685,
    "Ġforming": 7042,
    "Ġgibe": 25959,
    "Ġdine": 7366,
    "Ġchimer": 24603,
    "flames": 14710,
    "Ġmaid": 5285,
    "Ġpope": 11600,
    "perceived": 8857,
    "Ġvessels": 6755,
    "Ġbacks": 8528,
    "Ġfathoms": 9082,
    "Ġgallons": 14816,
    "Ġcomfortable": 6095,
    "aulding": 11338,
    "tolerably": 21094,
    "tanh": 5204,
    "burst": 10536,
    "Ġhelm": 5275,
    "Ġtransmit": 10308,
    "Ġresolved": 3797,
    "heartedness": 24827,
    "Ġsidel": 9634,
    "commanders": 16988,
    "Ġwoody": 23518,
    "Ġinfinitely": 8962,
    "nor": 2745,
    "flitted": 23966,
    "Ġabused": 22267,
    "spears": 23939,
    "urged": 18048,
    "Ġfootmarks": 19336,
    "Ġtroop": 24897,
    "Ġeyebrows": 23515,
    "infallibly": 26416,
    "Ġfortunate": 6214,
    "Ġsusp": 2664,
    "Ġwhite": 1540,
    "Ġexig": 21824,
    "Ġscruples": 15076,
    "pull": 6796,
    "Ġheredit": 9215,
    "Ġwhether": 2001,
    "Ġ1883": 23894,
    "Ġbl": 1191,
    "Ġjones": 7204,
    "stra": 4045,
    "Ġnocturnal": 20714,
    "Ġviolet": 19089,
    "Ġfriendly": 9818,
    "eral": 9158,
    "gee": 15975,
    "lipped": 16215,
    "Ġtranque": 14206,
    "showed": 16022,
    "ath": 860,
    "fright": 9594,
    "Ġrelent": 18773,
    "Ġnecess": 3475,
    "inquiry": 15140,
    "O": 51,
    "Ġaffection": 2641,
    "blow": 9102,
    "Ġla": 5913,
    "union": 15767,
    "Ġleagues": 9222,
    "squ": 7810,
    "Ġinvoluntary": 18766,
    "kered": 18275,
    "Ġdece": 6996,
    "Ġwhaleboats": 18479,
    "Ġdrink": 4787,
    "Ġpython": 1067,
    "Ġstoke": 10394,
    "Ġaccorded": 24088,
    "hob": 20899,
    "isc": 6239,
    "ub": 1224,
    "ifix": 21901,
    "Ġwrig": 13064,
    "Ġbanqu": 12584,
    "surround": 16757,
    "built": 16824,
    "Ġbuckskin": 19950,
    "Ġoaths": 13522,
    "Ġungracious": 18258,
    "Ġunmethodically": 22067,
    "Ġcheeks": 5958,
    "hig": 12471,
    "Ķ": 247,
    "Ġel": 801,
    "Ġaccomplice": 24375,
    "Ġfestival": 25445,
    "ication": 1008,
    "Ġseats": 14087,
    "Ġflowery": 16230,
    "searching": 25103,
    "bra": 6219,
    "Ġjungfrau": 15246,
    "Ġcontrast": 2119,
    "connection": 18868,
    "perpetually": 20511,
    "Ġdeceitful": 25733,
    "Ġmeasurement": 19421,
    "Ġweb": 9238,
    "Ġoutputs": 2891,
    "Ġfeatureless": 22604,
    "discredit": 24249,
    "Ġrequire": 889,
    "Ġont": 18118,
    "Ġraging": 14304,
    "Ġ13": 6718,
    "vess": 7354,
    "neighb": 16024,
    "unwillingly": 21882,
    "gs": 7338,
    "!_âĢĿ": 11375,
    "Ġlobes": 22113,
    "Ġupstairs": 5836,
    "Ġmult": 1024,
    "accordingly": 19212,
    "Ġkrempe": 10668,
    "impotence": 23760,
    "Ġath": 15799,
    "Ġinhabitant": 19754,
    "voy": 7143,
    "pretend": 24882,
    "Ġwonderful": 4561,
    "Ġtwitched": 20442,
    "Ġ54": 24321,
    "judging": 24200,
    "Ġembatt": 18857,
    "oring": 1859,
    "inu": 1119,
    "regret": 16450,
    "Ġal": 342,
    "Ġsoles": 22080,
    "Ġrunning": 3951,
    "Ġshipw": 12975,
    "Ġcolourless": 19568,
    "istence": 2230,
    "âĢĶ.": 11752,
    "Ġunrestrained": 25554,
    "Ġflip": 11910,
    "claimed": 9834,
    "Ġdilatory": 24705,
    "Ġwith": 349,
    "Ġlaughed": 5059,
    "rd": 17648,
    "Ġpicture": 4856,
    "Ġthese": 821,
    "oe": 7553,
    "put": 414,
    "Ġforegoing": 23448,
    "mad": 5280,
    "Ġswing": 13033,
    "Ġphrenologist": 25607,
    "Ġrelations": 5852,
    "Ġmilky": 9945,
    "Ġhopkins": 23127,
    "Ġprophecy": 25706,
    "Ġkneel": 14805,
    "Ġwritten": 4169,
    "amp": 2607,
    "voc": 8394,
    "reference": 13838,
    "Ġswaths": 23054,
    "Ġeccentric": 13647,
    "Ġcooped": 22581,
    "Ġte": 1159,
    "Ġburgled": 23655,
    "Ġprovid": 1006,
    "Ġdeclines": 23960,
    "í": 174,
    "Ġdismay": 11806,
    "Ġmarked": 4617,
    "Ġcrumbs": 20639,
    "Ġ*/": 10372,
    "Ġbor": 5804,
    "Ġconfronted": 23307,
    "Ġadvantage": 4315,
    "watery": 19825,
    "throt": 25659,
    "Ġaround": 3611,
    "beam": 16036,
    "Ġunworth": 22032,
    "indebted": 26158,
    "grasp": 16429,
    "cred": 9106,
    "acon": 10680,
    "Ġmildness": 9942,
    "representativeness": 25272,
    "Ġappointed": 20101,
    "Ġtars": 21163,
    "morland": 24152,
    "Ġchilled": 18382,
    "ĠâĢľâĢĻ": 22252,
    "Ġgratified": 8022,
    "ence": 394,
    "Ġteaches": 18808,
    "Ġhave": 446,
    "immed": 9216,
    "ippi": 20243,
    "Ġq": 1081,
    "Ġcorpor": 23037,
    "reve": 12535,
    "health": 13831,
    "orted": 4601,
    "Ġsettled": 3742,
    "reast": 17757,
    "Ġheadway": 18792,
    "Ġinteractions": 12899,
    "Ġdepths": 4325,
    "system": 4099,
    "boats": 6204,
    "Ġabuse": 18392,
    "Ġstyle": 6946,
    "Ġintrepid": 11703,
    "Ġstoutly": 16923,
    "lid": 20944,
    "Ġsuperst": 7704,
    "Ġpur": 2220,
    "Ġmizzen": 20288,
    "Ġanalyzing": 18801,
    "australian": 20560,
    "tically": 3393,
    "Ġfel": 1520,
    "Ġappertain": 22219,
    "Ġimpo": 3442,
    "Ġduc": 4696,
    "Ġconfines": 23304,
    "Ġvertically": 19378,
    "Ġperturbation": 20439,
    "Ġshooting": 11161,
    "mine": 5617,
    "Ġmumbling": 11572,
    "entric": 11617,
    "id": 338,
    "isen": 10791,
    "vicious": 21117,
    "Ġnow": 693,
    "Ġmountainous": 16598,
    "walls": 25345,
    "successively": 24779,
    "Ġdescending": 8901,
    "Ġwalk": 1826,
    "mud": 20971,
    "Ġbon": 8784,
    "Ġhopelessly": 16377,
    "cooks": 25067,
    "Ġwrinkled": 7264,
    "firmly": 20279,
    "Ġusefulness": 19406,
    "Ġglimmered": 20170,
    "Ġappeals": 16316,
    "Ġappals": 22220,
    "Ġfitness": 23997,
    "readiness": 19361,
    "Ġadroit": 26000,
    "Ġglanced": 5952,
    "Ġtreated": 7080,
    "Ġstrangers": 8314,
    "Ġdashed": 6010,
    "Ġexpress": 2197,
    "exper": 8877,
    "Ġminutely": 14561,
    "Ġwhosoever": 21717,
    "solved": 7686,
    "emotions": 15792,
    "Ġmid": 2617,
    "Ġcurt": 18842,
    "Ġnay": 5711,
    "Ġsplendour": 20223,
    "Ġarbitrary": 4736,
    "irregular": 21909,
    "Ġremainder": 9856,
    "Ġpurring": 23476,
    "band": 3057,
    "Ġrapture": 13494,
    "draw": 23896,
    "Ġfastidious": 14492,
    "rudent": 6482,
    "ified": 3226,
    "apter": 1194,
    "Ġcompat": 2943,
    "res": 2763,
    "Ġsupports": 3049,
    "Ġdisguises": 25055,
    "do": 1996,
    "Ġdeposited": 25484,
    "Ġsomething": 1796,
    "Ġtrying": 4838,
    "Ġstore": 8453,
    "jub": 20928,
    "&": 10,
    "Ġmusk": 7495,
    "Ġstiff": 6992,
    "Ġtufted": 17013,
    "Ġwoll": 21292,
    "Ġhaggard": 17328,
    "Ġle": 333,
    "atus": 21259,
    "Ġravings": 18645,
    "Ġleague": 6538,
    "Ġflora": 11415,
    "ı": 242,
    "Ġdistinctly": 7311,
    "Ġheiress": 20696,
    "Ġfid": 10802,
    "Ġenormity": 19694,
    "Ġcin": 13873,
    "Ġopulence": 23627,
    "extinguish": 22768,
    "Ġraptures": 13495,
    "Ġchat": 6560,
    "draught": 12086,
    "Ġanimate": 23421,
    "Ġapproached": 5843,
    "Ġinquiring": 8998,
    "Ġli": 600,
    "osoever": 17341,
    "Ġcabinet": 23859,
    "thin": 14095,
    "Ġlip": 6532,
    "emed": 3381,
    "Ġsqualidness": 25842,
    "Ġargosy": 24272,
    "Ġhurst": 5581,
    "uity": 12514,
    "opp": 6963,
    "Ġerskine": 17430,
    "Ġunre": 3477,
    "Ġspeaker": 19148,
    "Ġswelled": 11086,
    "Ġdesigned": 7741,
    "dataset": 23287,
    "que": 1143,
    "Ġblessings": 24175,
    ",âĢĻâĢĶ": 23526,
    "proves": 23392,
    "Ġparamount": 15876,
    "Ġresemblance": 7974,
    "Ġplanning": 14750,
    "Ġmerry": 5868,
    "Ġfurn": 3710,
    "Ġoutrageous": 20609,
    "Ġcontinuing": 14396,
    "derest": 18314,
    "Ġshuddered": 11299,
    "Ġconsort": 18724,
    "Ġequality": 16357,
    "peare": 18910,
    "Ġendeared": 26497,
    "Ġrevenue": 26194,
    "consol": 9760,
    "Ġequinox": 25856,
    "Ġcrew": 2495,
    "Ġnibbling": 17383,
    "greatly": 16622,
    "Ġimportant": 1128,
    "Ġchoice": 2166,
    "Ġknows": 4161,
    "tons": 7560,
    "Ġendeavours": 8617,
    "Ġexquisite": 12379,
    "alse": 4185,
    "Ġrather": 1494,
    "Ġvarying": 15808,
    "Ġinitials": 11013,
    "Ġresponsiveness": 2902,
    "Ġwrites": 23199,
    "Ġlima": 10441,
    "icting": 12848,
    "endering": 21283,
    "Ġdear": 1541,
    "Ġbegat": 18863,
    "empty": 23634,
    "Ġrelease": 19289,
    "Ġmay": 925,
    "owners": 16084,
    "Ġpermitting": 22397,
    "account": 5329,
    "algorithm": 3929,
    "vic": 13800,
    "stoke": 18019,
    "wal": 10132,
    "Ġunnatural": 7190,
    "Ġfluctuations": 5516,
    "Ġimpressions": 9551,
    "Ġproverb": 12712,
    "Ġseating": 18201,
    "Ġamput": 16031,
    "Ġyarman": 12701,
    "Ġwitnessed": 14842,
    "blue": 13691,
    "Ġissue": 2313,
    "nose": 17609,
    "Ġbraved": 23835,
    "mansion": 20982,
    "binder": 17498,
    "Ġbohem": 8526,
    "imprudent": 14650,
    "Ġtotally": 9469,
    "cru": 7126,
    "Ġanvil": 11595,
    "Ġdefend": 9338,
    "manner": 6170,
    "mod": 1031,
    "Ġlabyrinth": 13677,
    "Ġbeneficial": 23929,
    "Ġflu": 3275,
    "Ġlegs": 4916,
    "ites": 3898,
    "liness": 8746,
    "Ġoutriders": 26542,
    "iability": 20919,
    "abulary": 4800,
    "lydia": 6826,
    "okers": 18442,
    "Ġcripple": 11439,
    "Ġtry": 3131,
    "Ġcarcase": 14442,
    "Ġfireside": 23530,
    "Ġbarrier": 16567,
    "Ġharvard": 24572,
    "Ġsoliloquized": 17300,
    "Ġlithe": 24668,
    "Ġhurled": 10428,
    "Ġemer": 5959,
    "Ġseverity": 15818,
    "Ġtows": 19561,
    "Ġimpenitent": 26547,
    "Ġperplex": 2718,
    "Ġstabbing": 20302,
    "Ġplaid": 22598,
    "Ġblade": 11890,
    "Ġunwillingly": 15846,
    "Ġexordium": 26491,
    "itate": 6667,
    "rarely": 21632,
    "Ġplane": 11820,
    "Ġslaughter": 20729,
    "ees": 13709,
    "derment": 22158,
    "Ġattend": 5035,
    "Ġescaped": 6459,
    "Ġhairy": 23863,
    "fine": 10089,
    "orrow": 2920,
    "Ġdeceive": 12718,
    "Ġwild": 2602,
    "Ġpaced": 7584,
    "Ġirrevoc": 15037,
    "Ġgrammars": 11401,
    "Ġrational": 8479,
    "Ġswe": 2292,
    "Ġpromise": 4199,
    "Ġcategor": 4140,
    "stalls": 26472,
    "Ġcontract": 18475,
    "Ġcheers": 16364,
    "Ġinsepar": 17933,
    "upper": 11537,
    "Ġpreprocess": 22231,
    "Ġoutcast": 18413,
    "Ġlighted": 7063,
    "Ġsympathise": 16793,
    "Ġintentions": 10606,
    "upp": 10129,
    "desper": 13066,
    "Ġcister": 13880,
    "industrious": 26239,
    "Ġsenses": 8252,
    "groom": 8739,
    "Ġfastening": 16355,
    "Ġmomentary": 11035,
    "nyder": 16685,
    "Ġsemicircular": 26068,
    "Ġyou": 366,
    "Ġexal": 10876,
    "warmly": 25026,
    "Ġmouldings": 24737,
    "Ġloss": 824,
    "typewritten": 26038,
    "Ġbelted": 22946,
    "ľ": 255,
    "Ġanalog": 12608,
    "Ġstress": 18066,
    "Ġscores": 2717,
    "Ġcrane": 23438,
    "accomplishments": 25326,
    "sure": 5522,
    "Ġfacial": 10604,
    "Ġvillanous": 24052,
    "opard": 9289,
    "Ġentra": 18699,
    "Ġholds": 7976,
    "Ġtucked": 12389,
    "Ġtimidly": 11337,
    "Ġnetworks": 596,
    "bond": 17488,
    "omeness": 18022,
    "Ġrust": 6408,
    "Ġabomination": 22276,
    "Ġunrolled": 22034,
    "ll": 1141,
    "Ġdisappears": 18560,
    "doing": 8584,
    "Ġconcluding": 9855,
    "countless": 24149,
    "Ġtales": 10140,
    "reporting": 24493,
    "rated": 6227,
    "Ġcompliments": 8632,
    "Ġner": 1646,
    "overing": 6306,
    "umbria": 23928,
    "closing": 23152,
    "andering": 21865,
    "Ġwords": 1325,
    "Ġpredicts": 2595,
    "Ġaccepted": 7751,
    "Ġsplin": 8618,
    "Ġdoom": 6417,
    "Ġreward": 6144,
    "Ġcontinue": 5398,
    "Ġprofits": 16488,
    "insufferable": 21191,
    "Ġascendency": 20231,
    "name": 6795,
    "Ġhonors": 23600,
    "Ġflask": 3039,
    "Ġbuilt": 8301,
    "Ġdisputing": 25824,
    "Ġshrimp": 24156,
    "mosp": 8089,
    "Ġcravat": 26307,
    "Ġconfed": 13095,
    "Ġopal": 23625,
    "Ġepicures": 25880,
    "rers": 14716,
    "Ġtropics": 17066,
    "Ġstain": 18064,
    "Ġdreams": 7497,
    "mosphere": 10041,
    "Ġtreacle": 14594,
    "both": 5785,
    "Ġaccuse": 14210,
    "Ġchecked": 9374,
    "end": 503,
    "Ġbully": 23854,
    "flag": 14709,
    "Ġgu": 1329,
    "igen": 4830,
    "Ġsheaves": 22156,
    "stars": 18016,
    "ratulations": 20124,
    "relapse": 24013,
    "cial": 2649,
    "icts": 22399,
    "iliary": 21724,
    "Ġclamorous": 24909,
    "Ġrollicking": 24450,
    "fact": 6358,
    "lan": 15375,
    "oura": 1058,
    "answ": 15882,
    "culiar": 2823,
    "seeing": 7078,
    "loat": 8885,
    "ipagos": 22343,
    "Ġsuperseded": 26224,
    "Ġdominant": 12393,
    "Ġinfamy": 14501,
    "Ġprompted": 23814,
    "Ġdescribes": 3119,
    "ely": 621,
    "tea": 18741,
    "philips": 20033,
    "Ġchiswick": 25560,
    "icient": 783,
    "Ġcommanding": 16589,
    "alescing": 23864,
    "atural": 921,
    "Ġnewspapers": 17185,
    "Ġacquies": 11096,
    "Ġscratching": 20367,
    "Ġar": 480,
    "painful": 13500,
    "Ġsagaciously": 24731,
    "coal": 12021,
    "greatest": 10492,
    "charles": 14697,
    "Ġrural": 21965,
    "Ġmantelpiece": 15205,
    "alleled": 14427,
    "joice": 9601,
    "Ġtransaction": 22463,
    "Ġguidance": 9415,
    "Ġindividually": 22955,
    "Ġindepend": 3667,
    "Ġmouthfuls": 20645,
    "Ġgardiner": 3237,
    "expense": 22429,
    "H": 44,
    "Ġturks": 14597,
    "Ġinterlacing": 22574,
    "Ġack": 5621,
    "Ġschemes": 11130,
    "athered": 6972,
    "idge": 14012,
    "Ġdraws": 19434,
    "ivial": 15856,
    "walks": 19720,
    "Ġlazily": 11379,
    "Ġbrilliant": 11413,
    "calmed": 16203,
    "ulance": 15764,
    "Ġcomplaisance": 19447,
    "Ġrecurrent": 1804,
    "Ġrecursive": 4782,
    "Ġdared": 5440,
    "yesterday": 10352,
    "Ġignominy": 15083,
    "bildad": 9585,
    "Ġdoleful": 18376,
    "Ġfurlongs": 20722,
    "Ġang": 2509,
    "Ġsensitiveness": 23733,
    "jane": 4481,
    "Ġhollow": 5648,
    "Ġteacup": 16212,
[...]
