{
  "metadata": {
    "vocab_size": 26614,
    "algorithm": "BPE",
    "created_at": "2026-07-08 05:20:17",
    "special_tokens": [
      "<PAD>",
      "<SOS>",
      "<EOS>",
      "<UNK>",
      "<MASK>"
    ]
  },
  "vocab": {
    "Ġbesides": 3511,
    "mother": 5480,
    "Ġeleventh": 23367,
    "Ġgazette": 19499,
    "usual": 5841,
    "Ġdespite": 19351,
    "Ġincrust": 22547,
    "Ġregulations": 18593,
    "Ġworked": 6582,
    "wealth": 22685,
    "Ġmuch": 921,
    "ends": 6038,
    "Ġupright": 8493,
    "Ġmusical": 23891,
    "circ": 4386,
    "abominable": 20592,
    "Ġmu": 17795,
    "swelled": 19609,
    "Ġruthless": 15284,
    "Ġundo": 15838,
    "Ġshoulders": 5566,
    "Þ": 159,
    "satisfy": 16892,
    "Ġsupposing": 6729,
    "Ġsell": 7825,
    "oforte": 14285,
    "below": 12119,
    "agony": 14068,
    "ak": 539,
    "ambition": 13410,
    "distressed": 24199,
    "Ġskirting": 22793,
    "Ġchili": 25561,
    "Ġpack": 5444,
    "originally": 24937,
    "Ġoutcast": 18414,
    "ounix": 14163,
    "attachment": 13049,
    "Ġvacuous": 24344,
    "Ġtutored": 20126,
    "Ġ107": 24415,
    "dipped": 20836,
    "Ġarve": 15896,
    "Ġreversed": 15694,
    "medical": 23337,
    "Ġsincere": 11136,
    "Ġcomplement": 23707,
    "Ġtissu": 25920,
    "admitted": 18091,
    "Ġoppressively": 25712,
    "Ġunsuccessful": 18257,
    "Ġmissionary": 25696,
    "Ġdeposited": 25484,
    "Ġmin": 1025,
    "dimly": 15345,
    "Ġamel": 18510,
    "algorith": 3419,
    "Ġmagnet": 10390,
    "reception": 15513,
    "Ġfac": 6380,
    "Ġdictionary": 15111,
    "Ġwithal": 18113,
    "anywhere": 14681,
    "Ġthrough": 604,
    "ply": 6366,
    "Ġburying": 19250,
    "elsewhere": 19867,
    "Ġtren": 17721,
    "Ġexpeditions": 24954,
    "Ġdu": 4582,
    "Ġpresc": 15923,
    "elijah": 19471,
    "uation": 17694,
    "leness": 4688,
    "Ġbite": 10797,
    "Ġportly": 14677,
    "Ġviolent": 5116,
    "Ġunfor": 15837,
    "errand": 22907,
    "Ġdolphins": 20394,
    "upwards": 18863,
    "Ġscr": 11758,
    "Ġoffend": 16142,
    "flies": 19422,
    "acter": 2507,
    "Ġwonder": 2119,
    "other": 1315,
    "Ġsaratoga": 26423,
    "onday": 6063,
    "arrived": 12606,
    "Ġunexpectedly": 19908,
    "unfortunate": 15774,
    "Ġsepulchre": 20558,
    "Ġbelong": 3887,
    "Ġabused": 22266,
    "Ġinglorious": 24424,
    "Ġbenchmarks": 15021,
    "endured": 22224,
    "woes": 21132,
    "if": 375,
    "Ġconsummation": 17424,
    "rie": 2785,
    "Ġyou": 366,
    "Ġprejudices": 13468,
    "Ġknight": 9726,
    "Ġpenn": 11111,
    "Ġve": 1111,
    "respond": 12541,
    "instances": 13318,
    "Ġjabbering": 22300,
    "Ġleague": 6538,
    "Ġpia": 21462,
    "Ġdetermining": 14420,
    "Ġaided": 17745,
    "Ġdense": 8122,
    "Ġstops": 3162,
    "Ġlazily": 11380,
    "Ġdiscol": 12950,
    "plain": 1359,
    "Ġwelfare": 12556,
    "Ġmizzen": 20288,
    "derment": 22163,
    "Ġfalsehood": 10523,
    "Ġleatherhead": 20012,
    "ms": 541,
    "batt": 20777,
    "Ġpear": 11850,
    "Ġcoiling": 12902,
    "tting": 17680,
    "Ġknow": 631,
    "cet": 15324,
    "Ġgans": 5821,
    "arn": 357,
    "cil": 8720,
    "Ġwolves": 25934,
    "Ġborder": 10169,
    "sche": 13012,
    "Ġdust": 5908,
    "Ġknives": 14835,
    "icil": 17971,
    "nurs": 20998,
    "Ġnation": 12644,
    "activation": 3226,
    "Ġquivers": 22410,
    "Ġpauses": 14813,
    "centre": 17087,
    "constellation": 24607,
    "Ġable": 3078,
    "Ġtruck": 19510,
    "dl": 20822,
    "l": 80,
    "abilizing": 2926,
    "Ġsundry": 20072,
    "Ġslaves": 23166,
    "bid": 5611,
    "Ġiteratively": 3055,
    "..": 5783,
    "sunlight": 24851,
    "Ġhateful": 19712,
    "Ġinstinct": 6575,
    "reshold": 21238,
    "Ġprinciples": 10010,
    "Ġresounds": 22539,
    "claim": 9834,
    "ompl": 4534,
    "northern": 23663,
    "screw": 9345,
    "admit": 18090,
    "initions": 21186,
    "Ġfurn": 3709,
    "Ġgraze": 18226,
    "Ġcircumstances": 3926,
    "idirection": 2413,
    "faced": 8079,
    "build": 12185,
    "icit": 3375,
    "Ġlip": 6532,
    "oney": 3047,
    "hills": 13735,
    "specific": 10497,
    "Ġglen": 18846,
    "ent": 305,
    "Ġwires": 21294,
    "Ġwarning": 9058,
    "Ġfinding": 3261,
    "pulling": 25146,
    "Ġsupport": 6728,
    "brimmed": 14586,
    "Ġphysiogn": 12386,
    "quar": 7616,
    "ude": 7563,
    "'": 11,
    "Ġinsurgents": 26600,
    "Ġdisappointment": 6626,
    "ipper": 13739,
    "Ġstrove": 9956,
    "ference": 1883,
    "ber": 883,
    "Ġcatastrophic": 3540,
    "harpooned": 24286,
    "Ġunimpeachable": 26522,
    "Ġoriginated": 24123,
    "Ġadjac": 18292,
    "Ġhug": 6979,
    "crossed": 16632,
    "Ġinsolent": 13599,
    "commanded": 16988,
    "aid": 1921,
    "Ġboil": 16102,
    "Ġprisoner": 8672,
    "Ġcalling": 5662,
    "laugh": 10108,
    "Ġdetailed": 12821,
    "bench": 16803,
    "yl": 7818,
    "Ġquiescent": 26242,
    "Ġtrooped": 24899,
    "message": 17371,
    "ipping": 2206,
    "Ġminds": 6303,
    "urried": 21701,
    "Ġhunter": 5401,
    "Ġcoarse": 14273,
    "mechan": 11855,
    "Ġradiance": 13369,
    "commanders": 16989,
    "Ġtug": 11550,
    "Ġexception": 11216,
    "sequent": 6831,
    "prejud": 11792,
    "Ġpetrified": 19595,
    "arr": 3043,
    "erity": 21266,
    "|": 96,
    "Ġmust": 844,
    "Ġgreyish": 24208,
    "boast": 23251,
    "ğ": 224,
    "Ġprendergast": 26537,
    "Ġvexation": 10586,
    "Ġsunlight": 13083,
    "Ġimpatience": 7510,
    "Ġbefitting": 15723,
    "Ġmexic": 14031,
    "ignomin": 23264,
    "Ġgallons": 14816,
    "Ġjury": 5378,
    "Ġbitterness": 8024,
    "Ġscrupulous": 20067,
    "umbria": 23928,
    "&": 10,
    "Ġvertically": 19378,
    "Ġpush": 9184,
    "Ġrobustness": 18899,
    "Ġgrud": 17995,
    "Ġsubaltern": 22788,
    "Ġprimal": 17107,
    "oof": 15404,
    "studied": 17149,
    "Ġenable": 686,
    "Ġvalleys": 14917,
    "Ġcourses": 10410,
    "Ġperpetual": 12301,
    "Ġphantom": 8706,
    "ich": 471,
    "Ġproximity": 3213,
    "Ġadmit": 7710,
    "Ġimple": 1746,
    "aud": 8521,
    "Ġuncovered": 23430,
    "Ġtand": 21159,
    ",âĢĻ": 2329,
    "Ġ39": 19488,
    "has": 4015,
    "Ġsuffering": 8946,
    "attention": 2112,
    "create": 24159,
    "Ġforbear": 17121,
    "Ġgreatly": 5849,
    "isol": 17846,
    "Ġmagnitude": 1944,
    "Ġfails": 13312,
    "Ġtolland": 24988,
    "Ġex": 362,
    "Ġjudiciously": 23876,
    "prospect": 23394,
    "Ġconse": 21801,
    "Ġlaughed": 5057,
    "ab": 345,
    "Ġhospitable": 17059,
    "Ġwoodlands": 23518,
    "Ġowest": 25091,
    "Ġsystematically": 3812,
    "Ġsain": 17750,
    "Ġequ": 1734,
    "revival": 26162,
    "Ġtemple": 7654,
    "Ġtransc": 12861,
    "Ġsteadfast": 8678,
    "Ġbaffled": 12401,
    "Ġhed": 7388,
    "cils": 20813,
    "allah": 5838,
    "Ġtip": 15470,
    "orrow": 2917,
    "Ġcachalot": 17834,
    "meadow": 18678,
    "Ġoversampling": 20514,
    "Ġhardware": 4902,
    "sleeping": 13453,
    "Ġparallel": 1414,
    "Ġcollections": 22852,
    "Ġdemig": 20355,
    "Ġloitered": 26525,
    "Ġacutely": 14313,
    "Ġtrue": 1339,
    "pardon": 10064,
    "orph": 21397,
    "Ġbye": 12735,
    "Ġindulgence": 11319,
    "Ġacquire": 2723,
    "itself": 7834,
    "features": 14773,
    "Ġstanders": 19015,
    "Ġce": 3029,
    "Ġstud": 1646,
    "irt": 3074,
    "allers": 22194,
    "loving": 18541,
    "whatever": 6694,
    "Ġhemis": 21681,
    "Ġplunder": 22602,
    "Ġagreement": 18543,
    "Ġknighthood": 25297,
    "Ġcomputers": 2643,
    "Ġspasmodic": 20396,
    "Ġdated": 10939,
    "Ġexploit": 19161,
    "determine": 19942,
    "bene": 6112,
    "hast": 5357,
    "||": 4867,
    "Ġascend": 9959,
    "cen": 17502,
    "Ġguinea": 8947,
    "Ġgest": 8133,
    "Ġperem": 12929,
    "Ġsunset": 8962,
    "Ġcistern": 17380,
    "Ġmoment": 988,
    "omet": 3073,
    "Ġencourage": 10380,
    "Ġ}": 21152,
    "Ġhorse": 4723,
    "Ġskiff": 16161,
    "Ġtreasures": 17047,
    "ilies": 18056,
    "Ġpatriot": 23296,
    "pos": 15409,
    "Ġcontracting": 16009,
    "Ġswimmer": 19457,
    "Ġanvil": 11596,
    "Ġsm": 704,
    "maker": 12490,
    "mission": 5969,
    "emper": 18180,
    "Ġsloop": 25930,
    "ording": 9763,
    "antic": 1606,
    "springs": 24911,
    "Ġassociation": 24711,
    "Ġcommonest": 23086,
    "raham": 18013,
    "Ġspout": 3278,
    "Ġsymmet": 11745,
    "Ġemerging": 24612,
    "Ġwaited": 4906,
    "Ġquiet": 3257,
    "Ġrel": 1098,
    "Ġoun": 13862,
    "governed": 25405,
    "physiogn": 26264,
    "sterdam": 19087,
    "Ġmartha": 16260,
    "Ġpours": 17911,
    "whips": 22235,
    "Ġchronicled": 25328,
    "Ġhung": 4558,
    "examine": 25477,
    "Ġattract": 11830,
    "Ġunavailing": 26215,
    "professor": 17249,
    "Ġclothed": 19605,
    "Ġaugmented": 15104,
    "Ġpossibly": 4512,
    "garet": 9597,
    "bingley": 4925,
    "Ġsits": 10768,
    "wait": 11320,
    "raltar": 24233,
    "inridge": 11560,
    "Ġ(`": 12849,
    "Ġeccentric": 13648,
    "Ġreligious": 25121,
    "mists": 17605,
    "Ġhimmale": 18334,
    "farintosh": 24553,
    "post": 6061,
    "elled": 3994,
    "Ġchry": 22243,
    "Ġthirds": 16708,
    "Ġdeplored": 20503,
    "Ġhalting": 16273,
    "Ġgoug": 17990,
    "Ġate": 8839,
    "Ġcongeal": 25980,
    "Ġjac": 1898,
    "mixed": 15393,
    "deserts": 25379,
    "un": 373,
    "Ġsof": 18282,
    "Ġfi": 938,
    "Ġpreach": 14172,
    "Ġprying": 15606,
    "precaution": 23819,
    "Ġcathed": 14548,
    "sli": 11522,
    "nant": 17609,
    "Ġvineyards": 25106,
    "Ġglared": 13011,
    "Ġverse": 16602,
    "towards": 5000,
    "Ġbites": 23741,
    "Ġsuffers": 2973,
    "Ġ36": 14765,
    "Ġbordered": 24563,
    "Ġcitadel": 25438,
    "braid": 17494,
    "Ġcaprice": 14575,
    "Ġledgers": 23935,
    "considering": 12172,
    "Ġcelebrated": 13593,
    "Ġplausible": 26553,
    "Ġbitt": 10796,
    "Ġstat": 1490,
    "Ġpleated": 16295,
    "Ġchast": 18380,
    "Ġphrenologists": 25608,
    "Ġcell": 6237,
    "whose": 6852,
    "Ġsuperlative": 26074,
    "Ġloss": 823,
    "Ġnarwhale": 12291,
    "Ġbecame": 2690,
    "relapse": 24015,
    "Ġsketches": 26270,
    "Ġclung": 10957,
    "Ġthrow": 3783,
    "fixedly": 24929,
    "Ġmeekly": 26490,
    "Ġconsidered": 4609,
    "unching": 18158,
    "Ġsore": 10764,
    "rannical": 26401,
    "Ġcus": 21341,
    "Ġgeese": 7693,
    "Ġorbs": 22089,
    "Ġcringing": 25941,
    "Ġcanv": 7009,
    "Ġeyelashes": 26106,
    "Ġnoble": 3439,
    "Ġtremulous": 14985,
    "Ġfrequ": 3323,
    "vial": 17697,
    "Ġstark": 7391,
    "Ġvindict": 13604,
    "Ġhim": 476,
    "Ġexpressive": 8982,
    "erative": 21271,
    "Ġsuspense": 9417,
    "Ġdeepest": 8214,
    "Ġsteam": 9352,
    "Ġsevent": 18202,
    "Ġfootmen": 23795,
    "Ġobtru": 18675,
    "Ġtrop": 7566,
    "Ġrecalled": 8537,
    "ensical": 18567,
    "free": 8735,
    "remonstr": 23190,
    "Ġenchant": 7186,
    "Ġsuicide": 12784,
    "hval": 20897,
    "Ġyounger": 5252,
    "Ġgallows": 12143,
    "uing": 17693,
    "Ġsystematic": 5244,
    "Ġinterior": 8894,
    "Ġdipping": 15589,
    "Ġplaying": 6909,
    "Ġhorrid": 7998,
    "Ġrepresentation": 14404,
    "ieved": 3225,
    "Ġenormousness": 24515,
    "Ġdefinition": 14403,
    "Ġexamples": 2603,
    "Ġmile": 7152,
    "sex": 12710,
    "Ġstoutest": 24628,
    "mist": 5686,
    "duct": 3504,
    "Ġneville": 7400,
    "water": 4866,
    "Ġappertain": 22214,
    "Ġwitnesses": 9485,
    "Ġtreating": 4281,
    "Ġpertin": 18449,
    "slack": 16894,
    "sense": 11523,
    "Ġscar": 3206,
    "arpo": 1758,
    "Ġimbued": 17454,
    "Ġreside": 22536,
    "quite": 4644,
    "Ġpale": 4530,
    "Ġnecessitates": 23926,
    "Ġproceeding": 9905,
    "Ġdard": 21420,
    "Ġcumbrous": 26432,
    "Ġamber": 7026,
    "Ġpassenger": 14369,
    "Ġresigned": 9767,
    "eled": 2358,
    "Ġob": 862,
    "Ġthro": 5817,
    "Ġrepe": 3276,
    "Ġcream": 22718,
    "Ġcoco": 11000,
    "yden": 21142,
    "explain": 1481,
    "olet": 13765,
    "Ġliterary": 25162,
    "iet": 1775,
    "gathered": 13731,
    "buffalo": 20562,
    "irms": 18166,
    "ilingly": 21720,
    "Ġshutter": 16670,
    "Ġchaff": 18383,
    "elopement": 23191,
    "Ġapothe": 12373,
    "Ġchilly": 25562,
    "Ġmaintainable": 12932,
    "ev": 6952,
    "Ġmau": 21309,
    "Ġmouth": 3175,
    "Ġunlab": 3788,
    "gener": 3122,
    "Ġsizes": 1517,
    "Ġanalytical": 22889,
    "Ġdrunk": 9423,
    "Ġfict": 21403,
    "encoura": 15048,
    "pitchpoling": 25725,
    "thirst": 15823,
    "Ġtart": 12524,
    "Ġglimmered": 20170,
    "trees": 10731,
    "Ġdisease": 14257,
    "Ġsaws": 23046,
    "Ġsuggestion": 19706,
    "makers": 20981,
    "Ġwoe": 4791,
    "ive": 426,
    "hotel": 20048,
    "magistrate": 19862,
    "Ġprofundities": 20452,
    "ognit": 19193,
    "ess": 411,
    "Ġped": 6817,
    "Ġpo": 737,
    "parsee": 14506,
    "fifth": 20145,
    "Ġcylinders": 25943,
    "Ġcocaine": 20720,
    "punishment": 15144,
    "Ġpence": 17905,
    "Ġrespectfully": 18994,
    "Ġcy": 13873,
    "Ġsignifies": 19203,
    "ĠâĢľ": 516,
    "Ġattempts": 10490,
    "Ġbenjam": 22888,
    "itation": 1781,
    "rapid": 12667,
    "abhorred": 17335,
    "Ġnoisy": 13317,
    "Ġdoubling": 23314,
    "Ġwilliam": 3481,
    "Ġfunctions": 1340,
    "scissors": 20726,
    "Ġgreenwich": 19320,
    "Ġalan": 10869,
    "Ġrabbit": 4286,
    "Ġappeased": 23197,
    "Ġgid": 13961,
    "whole": 6085,
    "Ġacres": 14312,
    "Ġinquiries": 5678,
    "Ġfog": 9661,
    "Ġthoughtfulness": 18774,
    "Ġtomorrow": 21510,
    "bergen": 14325,
    "Ġsmiting": 12895,
    "ood": 961,
    "Ġsoup": 7067,
    "icated": 7591,
    "Ġartful": 22606,
    "dilig": 17282,
    "Ġlect": 9222,
    "Ġmiles": 3805,
    "'d": 12425,
    "delightful": 12194,
    "Ġfailing": 12135,
    "Ġprimary": 25060,
    "Ġlearning": 386,
    "endar": 18363,
    "even": 3839,
    "Ġconcer": 23315,
    "Ġheave": 7600,
    "acca": 23595,
    "rev": 17756,
    "mathematics": 26304,
    "inte": 5143,
    "Ġfert": 15579,
    "itating": 9650,
    "Ġinquired": 7486,
    "Ġample": 11796,
    "Ġspectrum": 4473,
    "parted": 21015,
    "spiracle": 22733,
    "stream": 15683,
    "red": 398,
    "Ġgrant": 11871,
    "happiest": 19331,
    "pine": 13768,
    "Ġprescribed": 26010,
    "warp": 17706,
    "Ġstep": 753,
    "pher": 11511,
    "Ġsublimity": 26345,
    "attempted": 20173,
    "Ġspecks": 14306,
    "now": 548,
    "Ġtyros": 26101,
    "ura": 1040,
    "Ġcold": 3030,
    "toss": 22563,
    "Ġcruelly": 13374,
    "Ġinconsist": 17935,
    "Ġbias": 1190,
    "stript": 21648,
    "Ġstripping": 23691,
    "Ġoverhead": 11771,
    "Ġpup": 12616,
    "Ġ57": 24325,
    "Ġcrate": 19122,
    "Ġstabbing": 20302,
    "Ġconvulsively": 25717,
    "Ġunpleasant": 7192,
    "harpoons": 24285,
    "Ġsighing": 18676,
    "esley": 17902,
    "title": 17287,
    "Ġsunken": 14493,
    "keeping": 8634,
    "Ġcopper": 7426,
    "Ġslavery": 16305,
    "Ġexec": 19491,
    "Ġthreats": 13376,
    "Ġunmindful": 22061,
    "um": 454,
    "Ġintrospective": 20599,
    "Ġhides": 16262,
    "names": 16537,
    "Ġlater": 6016,
    "Ġinterpretation": 19715,
    "Ġdromedary": 17438,
    "Ġvexations": 24609,
    "Ġ[\"": 19929,
    "Ġtertiary": 15293,
    "orrah": 17875,
    "Ġchink": 15930,
    "Ġtrained": 8501,
    "quarrel": 20013,
    "Ġtending": 17724,
    "Ġdisturb": 7107,
    "Ġincalculable": 17460,
    "Ġ13": 6718,
    "screen": 22988,
    "Ġaccelerate": 23224,
    "Ġvillas": 24052,
    "over": 1846,
    "deeply": 16176,
    "erick": 13847,
    "henomena": 20271,
    "Ġfrontispiece": 23911,
    "Ġindicates": 3189,
    "isher": 2878,
    "Ġangrily": 9406,
    "Ġstrike": 4853,
    "Ġspasmodically": 17313,
    "Ġabusing": 18393,
    "Ġwhirlwinds": 20463,
    "ffic": 22148,
    "Ġdissol": 18551,
    "excuse": 13380,
    "Ġperfect": 2555,
    "hist": 7130,
    "Ġintended": 5548,
    "Ġperiods": 13302,
    "Ġhem": 8445,
    "\\": 64,
    "Ġforthwith": 16618,
    "Ġnormalizing": 1819,
    "Ġlifeless": 8948,
    "Ġgothic": 17999,
    "divided": 25018,
    "Ġpam": 21452,
    "Ġimprudently": 22385,
    "shroud": 20311,
    "Ġfearless": 9874,
    "Ġwreak": 16817,
    "finish": 24384,
    "lect": 1219,
    "Ġmystical": 12130,
    "hug": 17563,
    "avating": 18606,
    "kitty": 10105,
    "Ġstall": 12693,
    "Ġrelu": 1045,
    "blocks": 25517,
    "Ġwhen": 515,
    "Ġrising": 4352,
    "Ġanecdote": 26354,
    "Ġdecapitated": 20614,
    "Ġcripple": 11440,
    "Ġkeener": 22912,
    "Ġhop": 1463,
    "Ġportable": 19368,
    "Ġramadans": 25119,
    "mael": 6722,
    "daughters": 13465,
    "Ġdespaired": 14667,
    "spending": 18689,
    "Ġlabyrinth": 13678,
    "neglected": 25669,
    "Ġshrine": 19530,
    "shrugged": 22459,
    "Ġderanged": 23171,
    "fall": 5134,
    "Ġsalted": 14754,
    "Ġjunks": 25113,
    "bbles": 13690,
    "Ġspoilt": 24807,
    "Ġbelonging": 8307,
    "Ġchewing": 23281,
    "Ġhumiliation": 16197,
    "Ġmale": 9648,
    "Ġwalks": 8965,
    "Ġarduous": 26529,
    "Ġprincip": 5600,
    "Ġrosings": 4605,
    "Ġvideos": 13605,
    "erve": 12546,
    "dark": 5614,
    "Ġour": 1007,
    "Ġpudding": 17915,
    "Ġear": 1423,
    "fle": 7128,
    "Ġtinker": 15130,
    "arp": 2029,
    "Ġflash": 8229,
    "Ġsou": 1888,
    "quer": 11678,
    "Ġshooting": 11162,
    "orate": 10800,
    "sip": 10725,
    "caroline": 24149,
    "Ġaffairs": 6878,
    "Ġmo": 628,
    "Ġperished": 11782,
    "tahit": 17692,
    "Ġcum": 21340,
    "Ġhipp": 21489,
    "Ġbottles": 16569,
    "displayed": 20735,
    "Ġchildhood": 13137,
    "Ġacqu": 1416,
    "Ġadver": 5641,
    "Ġrides": 21971,
    "Ġvelocity": 10620,
    "supernatural": 19778,
    "Ġintervened": 25481,
    "consum": 12867,
    "Ġlabourers": 23328,
    "Ġfiltering": 23923,
    "Ġmam": 8404,
    "Ġlines": 4532,
    "Ġblame": 6445,
    "fight": 17538,
    "fiery": 13580,
    "Ġhovel": 8253,
    "necessarily": 19630,
    "ception": 6562,
    "claims": 25319,
    "Ġcareful": 2610,
    "Ġyelled": 9693,
    "Ġwest": 5219,
    "Ġcircumnavigation": 20398,
    "Ġimmedi": 2905,
    "Ġbackwoods": 22649,
    "violent": 14578,
    "Ġmast": 2901,
    "Ġbre": 1915,
    "Ġpossession": 5589,
    "Ġmarlingspike": 26579,
    "Ġsimple": 1619,
    "Ġshudder": 9050,
    "Ġcovered": 5170,
    "Ġmcc": 21304,
    "Ġvehemently": 26039,
    "Ġlo": 453,
    "Ġkitty": 3910,
    "Ġswearing": 16464,
    "Ġdrawer": 13264,
    "dropping": 14981,
    "Ġinterpret": 5490,
    "ĠĠĠĠĠĠĠĠĠĠĠĠĠĠĠĠĠĠĠĠĠĠĠĠĠĠĠĠĠĠĠĠĠĠĠĠĠĠĠĠĠĠĠĠĠĠĠĠĠĠĠĠĠĠĠĠĠĠĠĠ": 19259,
    "Ġlestrade": 5825,
    "rud": 4189,
    "Ġseeing": 2885,
    "ribly": 8254,
    "Ġintroduces": 3265,
    "esting": 7413,
    "wered": 2688,
    "Ġpill": 7845,
    "Ġbanqu": 12585,
    "Ġshower": 11708,
    "Ġpondicherry": 20489,
    "Ġchance": 3313,
    "Ġgods": 6453,
    "Ġshaster": 21995,
    "Ġhudson": 15190,
    "Ġunrestrained": 25554,
    "Ġwidespread": 20674,
    "monkey": 19169,
    "would": 2352,
    "Ġdelirium": 10405,
    "supers": 22632,
    "Ġwaved": 9644,
    "Ġsphy": 18311,
    "Ġsanctioned": 26349,
    "Ġkindred": 16371,
    "Ġgoose": 5937,
    "laborers": 23913,
    "Ġballasted": 23977,
    "Ġfanned": 19099,
    "iqu": 7802,
    "Ġwarring": 16865,
    "ouncement": 11743,
    "Ġautumnal": 19052,
    "Ġtrunks": 15968,
    "Ġmoved": 4837,
    "Ġdissatisfied": 14256,
    "âĢľâĢĻ": 10221,
    "Ġcowards": 12570,
    "Ġthird": 4186,
    "Ġdrug": 11410,
    "Ġcomforted": 19389,
    "pin": 13766,
    "Ġemotion": 7689,
    "Ġgul": 7859,
    "Ġevaluate": 3328,
    "Ġmarry": 4415,
    "jud": 4480,
    "nostril": 26559,
    "Ġindistinctly": 26117,
    "reflected": 24733,
    "Ġheat": 5453,
    "Ġattics": 22618,
    "Ġmethodology": 2325,
    "prince": 23811,
    "Ġmatrices": 4967,
    "Ġhaste": 9003,
    "Ġaccumulating": 2722,
    "additional": 20462,
    "Ġoutrages": 18415,
    "Ġplush": 18610,
    "Ġrecovering": 11861,
    "allen": 22193,
    "Ġissuing": 16948,
    "admirably": 24944,
    "Ġtru": 4107,
    "Ġinitialized": 3949,
    "Ġeffects": 7237,
    "shriek": 20518,
    "Ġsideboard": 10385,
    "Ġcoars": 14270,
    "solving": 3097,
    "Ġreduced": 11922,
    "assisted": 22304,
    "utely": 8131,
    "Ġexplored": 23515,
    "Ġmasts": 6464,
    "start": 7599,
    "Ġbrothers": 13174,
    "Ġsubdued": 11030,
    "Ġposition": 1954,
    "Ġsails": 5256,
    "Ġdrives": 14576,
    "Ġrested": 9378,
    "Ġleisurely": 24746,
    "Ġdetail": 634,
    "lantic": 6363,
    "counters": 25397,
    "idea": 9300,
    "Ġshipw": 12976,
    "Ġhasten": 10478,
    "Ġexact": 2542,
    "Ġfoaming": 18991,
    "repaid": 24491,
    "Ġbeds": 14551,
    "Ġcontains": 2791,
    "vo": 11539,
    "Ġleaned": 7608,
    "iage": 17573,
    "Ġforbidding": 17079,
    "Ġendeavors": 16545,
    "at": 268,
    "Ġappals": 22215,
    "Ġdinn": 23978,
    "Ġbaggy": 24538,
    "Ġavowed": 16633,
    "Ġbrittle": 22859,
    "Ġsmut": 22553,
    "Ġselfish": 7273,
    "Ġtown": 2456,
    "Ġassumptions": 5517,
    "appe": 2945,
    "Ġtidy": 17093,
    "Ġsquall": 7043,
    "Ġcurb": 16242,
    "Ġlexicon": 25974,
    "Ġglue": 15671,
    "Ġcontributed": 16007,
    "ables": 7889,
    "Ġsuavely": 26523,
    "pleasing": 14740,
    "anger": 2172,
    "least": 8784,
    "Ġprocess": 559,
    "anite": 17837,
    "Ġobtained": 7433,
    "usive": 8191,
    "Ġhatches": 12043,
    "ies": 582,
    "trimmed": 23946,
    "Ġroving": 22402,
    "Ġoccupies": 24006,
    "Ġbrides": 22860,
    "awed": 10391,
    "timidity": 25753,
    "Ġlengths": 19205,
    "tish": 17677,
    "pivot": 21030,
    "departure": 15233,
    "aim": 2754,
    "onious": 15517,
    "Ġinquir": 4240,
    "assumed": 22305,
    "Ġskylight": 24072,
    "anche": 10788,
    "Ġliter": 8811,
    "sig": 2875,
    "Ġatt": 775,
    "Ġingolstadt": 8332,
    "Ġcries": 7155,
    "emotion": 21924,
    "oding": 1464,
    "Ġcongealed": 25981,
    "Ġcontracted": 12857,
    "england": 18928,
    "sculpt": 16241,
    "Ġscrawled": 24580,
    "Ġrepose": 6741,
    "Ġwaiting": 4320,
    "Ġstands": 5258,
    "moral": 14800,
    "Ġsquat": 14367,
    "Ġflower": 16229,
    "did": 3190,
    "chors": 11643,
    "convolutional": 4956,
    "marest": 20979,
    "classification": 4385,
    "Ġpausing": 8652,
    "Ġtrout": 22351,
    "Ġsur": 2182,
    "Ġlbs": 11614,
    "Ġhemp": 9215,
    "ones": 2741,
    "Ġlisten": 4671,
    "Ġmax": 2007,
    "dogs": 25402,
    "Ġnewcastle": 16221,
    "Ġfeast": 10277,
    "Ġsufficient": 2004,
    "Ġpromoting": 3157,
    "Ġmaxim": 3083,
    "Ġexamined": 6334,
    "Ġamerican": 5059,
    "Ġaccur": 3525,
    "object": 6884,
    "Ġnotes": 7190,
    "Ġpul": 2042,
    "opement": 10311,
    "Ġvineyard": 12328,
    "shame": 16024,
    "them": 3018,
    "Ġinterfere": 11815,
    "sively": 13785,
    "Ġdepths": 4323,
    "Ġinterrupting": 19556,
    "âĢĿâĢĶ": 5721,
    "Ġundergo": 23233,
    "Ġsatiated": 22900,
    "cho": 2758,
    "sadly": 25526,
    "worse": 14689,
    "circumstantial": 24444,
    "Ġnick": 21520,
    "commun": 15033,
    "Ġtradesman": 20071,
    "izon": 18141,
    "vinegar": 25420,
    "efficient": 2870,
    "Ġwaif": 9374,
    "velling": 14760,
    "Ġthese": 818,
    "Ġvag": 9707,
    "brance": 7285,
    "entering": 17976,
    "Ġproced": 2578,
    "Ġoffered": 5816,
    "Ġstrat": 16090,
    "metallic": 19879,
    "Ġdimension": 3235,
    "arranging": 19317,
    "._]]": 5334,
    "Ġsloping": 11937,
    "rings": 10722,
    "Ġhealthful": 24057,
    "bar": 7542,
    "Ġconvulsive": 19306,
    "ur": 326,
    "isions": 6130,
    "viating": 14577,
    "ĠĠĠĠĠĠĠĠĠĠĠĠĠĠĠĠĠ": 22946,
    "Ġchatbots": 11349,
    "Ġbrandy": 11049,
    "childhood": 16868,
    "Ġshilling": 18228,
    "maid": 8552,
    "tempestuous": 26097,
    "vanity": 24974,
    "downward": 16619,
    "Ġmanners": 3790,
    "Ġasylum": 13665,
    "Ġriddles": 16732,
    "kish": 20933,
    "adopt": 25544,
    "Ġsaith": 14155,
    "Ġdefy": 11895,
    "Ġwester": 25152,
    "Ġ(": 594,
    "sighted": 19784,
    "Ġmaintained": 12931,
    "Ġunforeseen": 22048,
    "discredit": 24250,
    "Ġbachelors": 24860,
    "sworn": 24256,
    "uneven": 23680,
    "Ġseal": 10256,
    "pointing": 12222,
    "enjoyment": 17257,
    "Ġexclusion": 19394,
    "Ġaper": 17743,
    "Ġlocks": 11722,
    "Ġbaby": 6636,
    "batross": 9092,
    "nament": 11506,
    "Ġswallowed": 7943,
    "Ġhangs": 11605,
    "Ġaverted": 16252,
    "Ġtow": 4393,
    "Ġresolute": 19243,
    "Ġoppression": 23649,
    "scrape": 25698,
    "standers": 18479,
    "piled": 21014,
    "Ġsavannah": 17415,
    "Ġforswe": 21771,
    "Ġwhim": 13998,
    "Ġexultation": 15170,
    "tossing": 18580,
    "Ġruins": 16156,
    "commendation": 26348,
    "Đ": 209,
    "Ġrush": 5924,
    "Ġemir": 23346,
    "osition": 1373,
    "infidel": 24663,
    "Ġinhabited": 12183,
    "Ġgay": 5535,
    "Ġguardians": 14941,
    "Ġdefence": 11067,
    "etw": 406,
    "lim": 9606,
    "cheeks": 23805,
    "Ġvesu": 21946,
    "Ġreeled": 13985,
    "Ġtremble": 6906,
    "Ġsherlock": 3894,
    "Ġspaniard": 20361,
    "Ġvariety": 8530,
    "Ġmalays": 19676,
    "pression": 10407,
    "Ġhorr": 3185,
    "Ġscience": 1589,
    "measure": 10030,
    "Ġpay": 3965,
    "Ġmonomania": 17085,
    "Ġidentity": 2524,
    "Ġanon": 9666,
    "Ġthoroughly": 8347,
    "walks": 19720,
    "Ġsnuff": 7991,
    "À": 129,
    "Ġefforts": 11799,
    "backpropagation": 11984,
    "Ġdischar": 11806,
    "Ġflying": 5413,
    "Ġboundary": 11222,
    "mount": 9129,
    "harpo": 4803,
    "Ġluckless": 16797,
    "Ġpenetrating": 17011,
    "Ġgallon": 24184,
    "Ġmanage": 7641,
    "harbors": 20147,
    "Ġbowsprit": 16559,
    "Ġrep": 1936,
    "Ġbos": 4873,
    "Ġstaggers": 24653,
    "protection": 19919,
    "Ġdidn": 4359,
    "Ġcon": 348,
    "Ġaccelerating": 1617,
    "anced": 1262,
    "Ġshrimp": 24157,
    "ivering": 7697,
    "ustom": 3789,
    "Ġmud": 11572,
    "Ġswiftly": 5670,
    "Ġturnkeys": 23026,
    "Ġears": 4489,
    "Ġclum": 8872,
    "twice": 14620,
    "Ġbeliever": 25845,
    "kinson": 10025,
    "Ġthreat": 5153,
    "isle": 13891,
    "rush": 7010,
    "Ġyards": 5371,
    "xim": 1095,
    "Ġextinguish": 14338,
    "there": 1425,
    "Ġerecting": 24652,
    "Ġscolding": 15199,
    "âĢ": 294,
    "arted": 2200,
    "Ġmorality": 22968,
    "Ġboister": 12917,
    "Ġcatholic": 20680,
    "Ġtreat": 3171,
    "Ġbooks": 4673,
    "pointed": 9809,
    "Ġroared": 7023,
    "Ġdenote": 19332,
    "chest": 11208,
    "drab": 23895,
    "Ġenviron": 3700,
    "lingering": 18601,
    "Ġpand": 21453,
    "Ġsmilingly": 22557,
    "Ġfervent": 14894,
    "Ġsteals": 23081,
    "Ġowning": 18744,
    "Ġstaring": 8824,
    "Ġinvested": 7280,
    "leag": 21364,
    "neath": 12863,
    "uck": 1232,
    "icating": 15652,
    "anzas": 17840,
    "Ġexcite": 11962,
    "illity": 18296,
    "kovoko": 20668,
    "fulfilment": 26025,
    "Ġforces": 12699,
    "Ġclapped": 9744,
    "Ġ33": 16676,
    "affrail": 11205,
    "ried": 923,
    "Ġremembering": 14610,
    "Ġreading": 5113,
    "Ġadvisable": 11442,
    "Ġsquint": 22835,
    "Ġpatient": 6894,
    "Ġdispute": 16054,
    "digger": 24310,
    "rally": 17651,
    "fa": 7337,
    "merit": 19281,
    "Ġcrosswise": 18885,
    "Ġlead": 3520,
    "ourage": 2452,
    "hy": 4738,
    "Ġscraping": 13415,
    "Ġvilest": 20099,
    "cellar": 20276,
    "market": 16839,
    "Ġauthent": 14512,
    "Ġcreamy": 14328,
    "Ġcrescentic": 20619,
    "Ġtortoise": 16908,
    "urns": 10213,
    "Ġcorresponding": 13437,
    "except": 5383,
    "Ġfathoms": 9083,
    "thanking": 24330,
    "Ġexpression": 4514,
    "Ġexecut": 4245,
    "igger": 21697,
    "Ġinvolve": 11043,
    "Ġpartaking": 22696,
    "Ġinsulated": 23675,
    "Ġhyper": 19738,
    "Ġwarmth": 6905,
    "Ġbrah": 19355,
    "dish": 12450,
    "Ġtrap": 7672,
    "Ġimitation": 22168,
    "Ġcrow": 3806,
    "excepting": 19705,
    "Ġfav": 1757,
    "Ġfluctuating": 24417,
    "bast": 10076,
    "ulated": 6029,
    "Ġslam": 13055,
    "Ġpensive": 21473,
    "brad": 20780,
    "Ġaunts": 21199,
    "oar": 12495,
    "Ġrom": 4523,
    "learned": 8605,
    "Ġtrembling": 7482,
    "Ġraiment": 22653,
    "Ġounce": 15271,
    "Ġgrecian": 26296,
    "Ġwayward": 22870,
    "stoke": 18019,
    "Ġaforethought": 25428,
    "eight": 9591,
    "fired": 20859,
    "preser": 9758,
    "Ġasi": 12729,
    "Ġevil": 3807,
    "Ġcherub": 23283,
    "ientific": 6547,
    "](": 11466,
    "Ġhunts": 23155,
    "breaking": 14762,
    "Ġdeliver": 9847,
    "Ġnobody": 6158,
    "pressing": 19014,
    "twinkle": 23698,
    "oment": 919,
    "Ġstumbling": 21739,
    "ember": 1956,
    "fur": 6355,
    "Ġ[": 6967,
    "Ġworrying": 22924,
    "thick": 10260,
    "blacksmith": 17001,
    "luxur": 25822,
    "feels": 22500,
    "Ġrelatives": 12979,
    "Ġsuppressing": 22998,
    "Ġdog": 4191,
    "Ġwhoa": 22419,
    "Ġevince": 24293,
    "Ġprice": 10403,
    "Ġdependent": 14287,
    "achable": 14131,
    "flu": 9117,
    "Ġconcerned": 5331,
    "Ġfre": 1572,
    "join": 12111,
    "Ġabased": 22265,
    "shabb": 18498,
    "Ġneutral": 12741,
    "Ġpond": 13915,
    "Ġpassers": 18757,
    "Ġincreasingly": 9370,
    "type": 16171,
    "usion": 3296,
    "Ġfreshe": 13068,
    "rus": 5929,
    "Ġours": 4610,
    "Ġrain": 5003,
    "Ġrejo": 5915,
    "Ġcounteracted": 19861,
    "Ġalco": 21779,
    "Ġchose": 7414,
    "Ġrear": 6535,
    "vishnoo": 21118,
    "Ġdescended": 7429,
    "Ġimport": 1047,
    "Ġconsecrate": 26489,
    "Ġgrand": 3591,
    "Ġaffection": 2637,
    "Ġclasping": 20208,
    "unken": 10236,
    "Ġpugnacious": 26451,
    "Ġdwell": 5812,
    "Ġstiff": 6992,
    "Ġreptile": 15276,
    "Ġtortured": 14922,
    "grim": 19106,
    "Ġcaresses": 26059,
    "bler": 11472,
    "Ġcomposed": 8891,
    "Ġorlop": 22090,
    "dripping": 16905,
    "Ġsensibility": 14513,
    "Ġnapoleon": 20556,
    "Ġungenerous": 18266,
    "Ġhumaneval": 25582,
    "Ġplaning": 22601,
    "Ġunfulfilled": 26509,
    "Ġwh": 328,
    "Ġmission": 13003,
    "Ġawaiting": 11390,
    "lung": 17591,
    "Ġsus": 18277,
    "Ġhorsham": 10406,
    "Ġkey": 2103,
    "shoe": 14965,
    "Ġtreatment": 12069,
    "Ġreproofs": 24892,
    "Ġmotions": 8280,
    "Ġanalysis": 1913,
    "Ġannals": 17898,
    "Ġbehave": 23294,
    "s": 87,
    "Ġsandwic": 24664,
    "anation": 5803,
    "Ġbegins": 7245,
    "Ġawait": 17073,
    "Ġ112": 24437,
    "Ġclock": 9532,
    "write": 14646,
    "itive": 6668,
    "Ġpropose": 9852,
    "obli": 23091,
    "Ġinducements": 24965,
    "Ġleech": 24155,
    "Ġsociet": 9448,
    "held": 3842,
    "infallibly": 26417,
    "Ġcompromising": 22570,
    "sed": 4176,
    "andes": 18151,
    "plendent": 21955,
    "Ġexplained": 5935,
    "omorrah": 18024,
    "Ġharpooned": 13260,
    "Ġcaring": 23088,
    "Ġblacksmith": 6595,
    "forgive": 18731,
    "plied": 10254,
    "Ġloomed": 12299,
    "======================================================================": 10067,
    "etts": 12657,
    "sleeve": 26108,
    "Ġmeditation": 16680,
    "Ġpremeditated": 22231,
    "Ġplus": 3884,
    "Ġincalcul": 16061,
    "ĠĠĠĠĠĠĠĠĠĠĠĠĠĠĠĠĠĠĠĠĠĠĠĠĠĠĠĠĠĠĠĠĠĠĠĠĠĠĠĠĠĠĠĠĠĠĠ": 16755,
    "Ġrevenge": 5452,
    "pendicular": 6498,
    "Ġmont": 8557,
    "Ġpapers": 4023,
    "Ġrecompense": 14836,
    "lesc": 11038,
    "Ġadmeasurements": 26225,
    "placed": 7877,
    "ult": 722,
    "idents": 6150,
    "Ġseventh": 18206,
    "Ġribbed": 16804,
    "Ġdebar": 24271,
    "Ġshattered": 7883,
    "Ġdong": 17887,
    "enance": 3368,
    "Ġcover": 3556,
    "Ġall": 421,
    "Ġmillions": 11354,
    "from": 1991,
    "Ġprecipice": 19939,
    "avoid": 9304,
    "proper": 7472,
    "strong": 6322,
    "Ġdiscrimin": 2545,
    "Ġparsee": 6412,
    "Ġsteal": 16282,
    "travellers": 24318,
    "Ġhollows": 19740,
    "Ġtopsails": 19192,
    "Ġgaped": 13966,
    "sympathy": 20541,
    "Ġoverwhel": 8196,
    "wand": 10738,
    "Ġcurric": 22993,
    "Ġprot": 3849,
    "Ġgale": 5822,
    "Ġfries": 21413,
    "imperturbable": 25790,
    "Ġoverflowed": 20261,
    "conceal": 25114,
    "ieves": 4007,
    "eryton": 4095,
    "fug": 17543,
    "Ġfulf": 6772,
    "Ġbelieve": 2148,
    "Ġgames": 11625,
    "Ġemergencies": 17361,
    "Ġcaptain": 1605,
    "Ġdeceit": 13480,
    "kes": 3677,
    "Ġconst": 1911,
    "Ġthence": 8881,
    "Ġphrase": 11187,
    "Ġgreeted": 23211,
    "Ġgait": 13329,
    "philips": 20033,
    "Ġflowery": 16230,
    "Ġmember": 8585,
    "Ġdat": 499,
    "causing": 25518,
    "Ġdisguise": 10045,
    "Ġapple": 14167,
    "Ġprair": 7746,
    "itting": 1150,
    "ĠĠĠĠĠĠĠĠĠĠĠĠĠĠĠĠĠĠĠĠĠĠĠĠĠĠĠĠĠĠĠĠĠĠĠĠ": 23662,
    "Ġmuchness": 18706,
    "Ġinclu": 1103,
    "Ġpeculiarity": 12930,
    "thy": 2935,
    "Ġgood": 996,
    "Ġstays": 16560,
    "oled": 17619,
    "pronounce": 25192,
    "Ġ35": 24076,
    "Ġmajor": 13290,
    "Ġhertfordshire": 5377,
    "mechanically": 17299,
    "Ē": 211,
    "Ġliveliness": 13642,
    "Ġsple": 21214,
    "disputed": 23498,
    "sinking": 17668,
    "Ġh": 290,
    "Ġpoul": 15610,
    "Ġsnatching": 10472,
    "Ġchrysalis": 26538,
    "Ġrequesting": 24632,
    "Ġscent": 10284,
    "tottenham": 25418,
    "robustness": 26338,
    "Ġparson": 6687,
    "adequ": 11020,
    "walls": 25345,
    "Ġoutside": 5554,
    "Ġpossibilities": 18975,
    "Ġinco": 14259,
    "Ġconf": 1825,
    "enchanted": 26424,
    "90": 12430,
    "Ġenclosure": 20622,
    "you": 1004,
    "Ġhave": 445,
    "regiment": 16452,
    "Ġpacket": 14891,
    "cstasy": 11445,
    "Ġrounded": 14438,
    "bulk": 19923,
    "compared": 24032,
    "Ġprivileges": 25132,
    "Ġtwig": 11848,
    "ı": 242,
    "Ġcarving": 14442,
    "Ġunwonted": 14124,
    "yder": 10138,
    "Ġbrahma": 26319,
    "Ġunra": 18237,
    "trad": 21075,
    "sust": 15422,
    "Ġcanals": 22159,
    "Ġkeep": 2356,
    "Ġdeveloped": 16344,
    "surface": 10530,
    "Ġhus": 3090,
    "Ġgiver": 21602,
    "Ġindiscriminately": 20626,
    "nothing": 3150,
    "Ġnervously": 19183,
    "Ġinsol": 10180,
    "Ġairy": 23312,
    "Ġtwo": 1041,
    "george": 26019,
    "Ġsimilarity": 3163,
    "Ġtoast": 21509,
    "har": 20889,
    "Ġbrine": 18769,
    "Ġpreposterous": 13668,
    "Ġsin": 1510,
    "Ġdimly": 9487,
    "Ġfacet": 15582,
    "gments": 12467,
    "Ġgardens": 16453,
    "Ġprodigious": 8056,
    "Ġanalyze": 1553,
    "Ġquote": 18466,
    "Ġlinguistic": 12423,
    "Ġloite": 22108,
    "irable": 5776,
    "europe": 20664,
    "Ġwonderful": 4561,
    "adays": 14012,
    "atherley": 7221,
    "Ġsickbed": 24246,
    "Ġsomnambul": 26576,
    "urg": 8141,
    "ated": 730,
    "Ġlaughing": 5338,
    "benefit": 24642,
    "Ġdistantly": 18534,
    "ken": 2799,
    "Ġferoc": 14895,
    "Ġeyes": 1334,
    "Ġadjusts": 8980,
    "Ġmab": 12557,
    "Ġbubble": 13534,
    "Ġsacr": 7195,
    "saving": 21058,
    "icity": 2539,
    "Ġcommodores": 25374,
    "culous": 11140,
    "Ġfield": 1251,
    "isure": 6240,
    "loose": 11803,
    "Ġglide": 22978,
    "Ġencodings": 4773,
    "Ġdauntless": 26336,
    "Ġpleasanter": 19063,
    "Ġusing": 715,
    "Ġprime": 10404,
    "Ġunfolding": 17086,
    "sit": 13779,
    "Ġnumberless": 16413,
    "Ġsow": 17749,
    "Ġestimable": 23870,
    "Ġprophetic": 20018,
    "Ġchristendom": 16695,
    "pans": 13769,
    "nal": 1902,
    "bellies": 19972,
    "Ġparagraph": 17453,
    "Ġbell": 4633,
    "Ġborrow": 10170,
    "octial": 20003,
    "Ġchapter": 2956,
    "Ġguardian": 14940,
    "umst": 2504,
    "Ġassent": 12730,
    "Ġboisterous": 20441,
    "Ġattentions": 5877,
    "Ġviolates": 3161,
    "Ġpaints": 23521,
    "mong": 15388,
    "Ġbenches": 18781,
    "Ġsashes": 21224,
    "Ġfreshet": 25704,
    "Ġbeech": 18082,
    "Ġprettier": 23763,
    "Ġpemberley": 4586,
    "Ġpurse": 12009,
    "Ġhelp": 1639,
    "Ġmortals": 9915,
    "Ġfilial": 16620,
    "Ġstagnant": 24654,
    "Ġthoughtful": 16190,
    "Ġpips": 9843,
    "Ġreigns": 21668,
    "Ġshipwreck": 20444,
    "freighted": 14890,
    "Ġcommit": 18655,
    "dorff": 15236,
    "Ġquitted": 5311,
    "ickory": 22666,
    "Ġ42": 16678,
    "ithing": 11648,
    "Ġclerks": 17294,
    "Ġeclips": 20695,
    "Ġprogressive": 5022,
    "smitten": 23906,
    "Ġdecember": 15007,
    "Ġsteep": 2889,
    "Ġsnugness": 20075,
    "Ġfishers": 19352,
    "wives": 15454,
    "Ġnaked": 8126,
    "Ġalleys": 25978,
    "Ġhel": 3786,
    "Ġlacey": 10197,
    "Ġreciprocating": 26369,
    "Ġdews": 21835,
    "Ġarrow": 10931,
    "bl": 4142,
    "Ġimpersonal": 17396,
    "Ġlaunched": 14924,
    "represent": 9637,
    "loops": 12879,
    "Ġclaims": 13372,
    "enth": 6680,
    "Ġresolved": 3799,
    "Ġinsure": 13179,
    "Ġdivert": 23591,
    "Ġpretty": 3862,
    "Ġeludes": 26554,
    "1775": 26378,
    "Ġforgetfulness": 14605,
    "Ġheedfulness": 24522,
    "ishments": 9272,
    "Ġjavel": 17084,
    "Ġher": 427,
    "Ġcommun": 1705,
    "Ġmidships": 23632,
    "Ġsuppressed": 11909,
    "Ġ6": 5140,
    "Ġmonosyllable": 20725,
    "â": 163,
    "ross": 806,
    "Ġnations": 8809,
    "Ġpave": 8799,
    "rock": 15638,
    "dial": 20824,
    "Ġspades": 12793,
    "Ġeducated": 16785,
    "Ġrogue": 22404,
    "Ġris": 4884,
    "Ġbeale": 12696,
    "carb": 20809,
    "nants": 17613,
    "Ġ95": 19772,
    "interesting": 12199,
    "Ġstruggles": 16577,
    "Ġinstances": 5568,
    "following": 10572,
    "Ġsending": 8774,
    "Ġprofounder": 23565,
    "resembled": 21245,
    "roses": 17956,
    "ceive": 3061,
    "Ġpossessor": 23820,
    "Ġparamore": 22119,
    "Ġbinnacle": 8118,
    "irably": 13294,
    "apology": 22330,
    "Ġvictim": 6097,
    "irr": 12733,
    "inders": 15978,
    "giv": 13721,
    "Ġsteak": 9828,
    "Ġavail": 11226,
    "Ġwhistles": 24624,
    "Ġenraptured": 26500,
    "Ġash": 4830,
    "Ġruddy": 17125,
    "Ġshriek": 6637,
    "Ġpreternatural": 12820,
    "Ġemigrant": 25859,
    "Ġwretchedly": 19505,
    "ified": 3221,
    "Ġdissip": 10992,
    "Ġextend": 18696,
    "limp": 20951,
    "Ġparamount": 15876,
    "Ġforeign": 9871,
    "Ġembraces": 19871,
    "iverer": 11714,
    "profess": 10634,
    "every": 2809,
    "Ġirrad": 19093,
    "Ġimbecile": 17391,
    "lifted": 15385,
    "Ġbecome": 3154,
    "Ġindependent": 9015,
    "historian": 25735,
    "Ġgibberish": 25786,
    "ĠĠĠĠĠĠĠ": 7633,
    "onent": 21247,
    "ructure": 751,
    "didst": 19347,
    "Ġbravest": 23838,
    "Ġshr": 4224,
    "Ġpince": 21469,
    "Ġberm": 21381,
    "riumph": 4917,
    "Ġbattered": 17862,
    "gage": 13722,
    "Ġinfluences": 14863,
    "Å": 134,
    "Ġfortitude": 9884,
    "eth": 618,
    "untarily": 6312,
    "adventure": 17233,
    "jeroboam": 25619,
    "Ġ79": 24264,
    "wondering": 19844,
    "igated": 15704,
    "Ġic": 9625,
    "Ġchuckled": 10647,
    "Ġ51": 24320,
    "Ġvint": 18194,
    "agon": 7870,
    "atic": 4019,
    "airs": 2221,
    "Ġidentify": 12012,
    "resting": 23231,
    "ġ": 226,
    "Ġkuiperai": 10935,
    "loud": 11500,
    "Ġdoubly": 16385,
    "ingle": 1036,
    ".]": 15297,
    "Ġell": 17715,
    "weaving": 18666,
    "Ġweighty": 16030,
    "Ġperv": 15988,
    "Ġmccarthys": 19661,
    "oak": 21002,
    "Ġheavier": 13100,
    "Ġmarried": 3405,
    "ustration": 2261,
    "Ġperilous": 7768,
    "Ġdoctors": 12149,
    "onely": 6515,
    "composed": 14738,
    "Ġfascinated": 25635,
    "Ġselfishness": 12287,
    "asily": 13945,
    "alogue": 25159,
    "Ġpreluding": 18368,
    "Ġwoodcock": 19162,
    "Ġpagan": 7117,
    "Ġinterment": 22571,
    "unct": 18154,
    "dashing": 20835,
    "led": 581,
    "Ġconsiderable": 4008,
    "Ġparents": 6752,
    "Ġforwarded": 19041,
    "Ġwast": 21857,
    "Ġ99": 10745,
    "irectly": 6940,
    "ashion": 3860,
    "Ġheartfelt": 18967,
    "athy": 14322,
    "decl": 8856,
    "Ġexquis": 9699,
    "Ġstile": 21729,
    "Ġintu": 12760,
    "Ġskilful": 25836,
    "Ġimplicit": 19956,
    "future": 13716,
    "Ġunnatural": 7191,
    "queen": 12724,
    "Ġdarted": 4756,
    "Ġmustering": 18662,
    "Ġuntutored": 19165,
    "Ġfeebly": 24877,
    "antled": 18286,
    "removing": 17764,
    "harpoone": 6107,
    "Ġrural": 21967,
    "Ġauto": 23322,
    "vings": 9750,
    "friends": 8305,
    "Ġrampart": 20317,
    "Ġphyseter": 26586,
    "geese": 22364,
    "exercise": 17459,
    "Ġverdict": 13474,
    "Ġmodels": 754,
    "romeda": 17262,
    "slee": 17168,
    "danish": 20832,
    "Ġlessened": 19083,
    "Ġsuperstition": 15054,
    "Ġwealth": 7621,
    "times": 8098,
    "pul": 8753,
    "commanding": 24752,
    "lake": 13748,
    "Ġrejoicing": 13420,
    "ezing": 10573,
    "Ġthere": 565,
    "atural": 934,
    "walking": 9981,
    "ust": 500,
    "Ġgro": 4394,
    "Ġdoors": 6417,
    "Ġhysterical": 26092,
    "Ġinstructed": 19284,
    "politeness": 16906,
    "Ġpolynes": 16077,
    "Ġoakshott": 12227,
    "representing": 25271,
    "Ġsaved": 6690,
    "Ġbeside": 5191,
    "dom": 6222,
    "Ġimpenit": 22387,
    "Ġslung": 23165,
    "canonical": 22960,
    "Ġyourself": 2592,
    "Ġconvolutional": 2162,
    "Ġshan": 9248,
    "look": 2263,
    "Ġdeemed": 7614,
    "Ġcavity": 20486,
    "oe": 7553,
    "grin": 19105,
    "Ġresources": 2938,
    "Ġdispel": 16596,
    "Ġsuck": 15858,
    "Ġuncont": 14115,
    "Ġextraordinary": 5414,
    "Ġbales": 21387,
    "Ġgrope": 17994,
    "Ġsolid": 6442,
    "second": 6543,
    "Ġsyllable": 9728,
    "Ġlies": 5295,
    "ing": 273,
    "Ġimitated": 18329,
    "vener": 21110,
    "Ġcorporeally": 25729,
    "Ġbelieved": 4364,
    "Ġcircumspection": 25884,
    "Ġhundreds": 4325,
    "Ġthrust": 5083,
    "idy": 21761,
    "enemy": 15525,
    "Ġcerem": 7077,
    "Ġsleeve": 20139,
    "Ġlashing": 11615,
    "Ġprynne": 25540,
    "spass": 18687,
    "Ġcandle": 8291,
    "sweetly": 25134,
    "Ġgips": 10841,
    "Ġvices": 14082,
    "curiosity": 8623,
    "Ġpal": 4044,
    "),": 1346,
    "Ġinterlude": 16068,
    "Ġnewcomers": 26041,
    "pop": 17631,
    "Ġaustrian": 24300,
    "thou": 4706,
    "Ġsettle": 6293,
    "Ġmuse": 13859,
    "Ġeasily": 3892,
    "Ġadrift": 11720,
    "Ġalarming": 14778,
    "Ġbenefactor": 14696,
    "fine": 10090,
    "encing": 21281,
    "Ġcrawl": 11375,
    "eting": 7170,
    "Ġsens": 1854,
    "scythes": 26402,
    "lighter": 20958,
    "Ġor": 437,
    "evinced": 19925,
    "Ġdevils": 7231,
    "Ġpastures": 23418,
    "Ġpathways": 11153,
    "Ġcig": 6519,
    "Ġconcl": 5094,
    "pass": 4288,
    "Ġkeenly": 9484,
    "riors": 18186,
    "Ġbreathing": 9444,
    "Ġdocumentation": 20553,
    "Ġturnpike": 23025,
    "intment": 4718,
    "Ġpulpit": 7471,
    "Ġpurpose": 2707,
    "Ġscratching": 20367,
    "Ġfireboard": 23529,
    "Ġdut": 2987,
    "Ġcannot": 1665,
    "Ġgentle": 1891,
    "Ġsyn": 15909,
    "ahawk": 23311,
    "gyric": 19109,
    "ispiece": 19724,
    "Ġacre": 22678,
    "div": 8075,
    "ming": 3600,
    "Ġgodly": 19076,
    "Ġperpetually": 17070,
    "thesize": 24906,
    "og": 859,
    "pictures": 15089,
    "Ġresolutely": 14609,
    "Ġrans": 21966,
    "Ġoccas": 2701,
    "Ġdist": 680,
    "pretty": 10621,
    "Ġeffusion": 22483,
    "marrying": 19546,
    "Ġresides": 22537,
    "drawing": 10486,
    "Ġnineveh": 13388,
    "rison": 13778,
    "Ġdesol": 6881,
    "independ": 15979,
    ".;": 20743,
    "stooped": 23818,
    "Ġobst": 6284,
    "become": 14246,
    "Ġwild": 2600,
    "teness": 23204,
    "Ġannounce": 13337,
    "Ġpurchasing": 19874,
    "Ġlux": 8813,
    "anity": 9654,
    "Ġmanifested": 17157,
    "Ġharvest": 13414,
    "hunted": 16832,
    "Ġdefend": 9339,
    "Ġcourtship": 24136,
    "Ġexpectation": 6904,
    "voy": 7143,
    "Ġeither": 2602,
    "same": 5361,
    "Ġisrael": 21800,
    "Ġexisted": 15752,
    "Ġaccompl": 5166,
    "Ġsoles": 22082,
    "Ġfle": 3089,
    "Ġstig": 14001,
    "Ġir": 1993,
    "landsmen": 25059,
    "Ġconstrued": 26301,
    "Ġtrespass": 23598,
    "Ġalternately": 15031,
    "Ġinvader": 23477,
    "byter": 16212,
    "impl": 21704,
    "Ġdesp": 3209,
    "Ġtwain": 16117,
    "ances": 1337,
    "arious": 10316,
    "amp": 2604,
    "theless": 4258,
    "irons": 10238,
    "Ġencouraging": 2265,
    "Ġ21": 11199,
    "Ġslumber": 13057,
    "Ġeternities": 19941,
    "Ġfervour": 19725,
    "Ġdilatory": 24705,
    "Ġwhiteness": 5918,
    "Ġdiggings": 24649,
    "Ġbury": 12040,
    "oy": 1003,
    "beyond": 8882,
    "ending": 1990,
    "oo": 7554,
    "aver": 6785,
    "Ġinsurmountable": 16529,
    "Ġfifth": 11257,
    "Ġmeas": 1099,
    "izure": 21838,
    "Ġbelief": 5855,
    "arat": 9180,
    "grat": 5050,
    "Ġstarted": 4150,
    "oman": 2018,
    "Ġpreacher": 18369,
    "elf": 566,
    "analysis": 26173,
    "Ġdrought": 19278,
    "Ġentra": 18699,
    "tempered": 13445,
    "Ġsignificance": 13279,
    "Ġimproving": 1209,
    "nikin": 23242,
    "apologizing": 26544,
    "Ġ\"": 6119,
    "Ġtra": 1384,
    "Ġentrances": 25834,
    "figure": 13554,
    "Ġgolden": 5336,
    "allied": 7411,
    "paper": 9136,
    "Ġmary": 3845,
    "Ġwhispering": 14943,
    "fters": 20860,
    "Ġisn": 7865,
    "til": 17671,
    "Ġhaven": 8473,
    "Ġendurance": 23142,
    "reigned": 21241,
    "backed": 9865,
    "Ġprudent": 9185,
    "oved": 5215,
    "Ġexc": 1832,
    "Ġobstetrics": 24678,
    "oga": 22692,
    "holes": 12052,
    "many": 5249,
    "Ġflood": 7715,
    "Ġserm": 9633,
    "ĠĠĠĠĠĠĠĠĠĠĠĠĠĠĠĠĠĠĠĠĠĠĠĠĠĠ": 13387,
    "Ġdiadem": 24741,
    "gover": 10702,
    "nar": 12491,
    "Ġamusement": 8055,
    "Ġdishonor": 25601,
    "Ġproposition": 23248,
    "Ġrifled": 21976,
    "Ġmayhew": 12947,
    "Ġfathom": 17048,
    "Ġrichness": 19310,
    "Ġgull": 15667,
    "Ġladder": 8597,
    "Ġaccurately": 4014,
    "Ġdrawled": 23986,
    "Ġmantelpiece": 15206,
    "Ġsupercil": 23453,
    "paused": 17373,
    "draul": 9442,
    "Ġpenetrated": 13471,
    "Ġtreacle": 14594,
    "Ġtelegraph": 25583,
    "Ġeternal": 5975,
    "Ġevidently": 6759,
    "valu": 1745,
    "Ġjacob": 1899,
    "Ġrenowned": 26193,
    "Ġaskance": 23147,
    "Ġfaintly": 14913,
    "Ġhate": 5445,
    "embra": 14073,
    "Ġlasting": 18792,
    "Ġruggedness": 26268,
    "Ġpoverty": 9303,
    "cloudless": 20331,
    "Ġclubs": 25179,
    ";âĢĿ": 7790,
    "dissatisf": 26129,
    "Ġmuffled": 10640,
    "Ġtaking": 3246,
    "edmund": 17945,
    "Ġloosened": 26002,
    "Ġevent": 2951,
    "elop": 1520,
    "Ġcurtain": 14419,
    "Ġlargest": 6282,
    "Ġirritation": 20265,
    "Ġsingularly": 12146,
    "Ġgourmand": 26466,
    "nigh": 13762,
    "Ġencoder": 3634,
    "Ġargemone": 24274,
    "Ġshoes": 7071,
    "arily": 4127,
    "rucastle": 22175,
    "ology": 1532,
    "Ġfishing": 9662,
    "Ġdiffident": 23781,
    "Ġmace": 21308,
    "Ġpersist": 16272,
    "erated": 21270,
    "Ġnods": 19060,
    "Ġgum": 21592,
    "Ġdisadvantage": 12887,
    "changing": 10854,
    "Ġrequest": 6050,
    "untary": 9866,
    "deploy": 22140,
    "begins": 18528,
    "Ġnormalizes": 1864,
    "Ġacc": 571,
    "pennies": 26285,
    "Ġvii": 13107,
    "Ġtwopence": 18660,
    "Ġanomalously": 25638,
    "Ġdarling": 12601,
    "otion": 4944,
    "stationed": 25453,
    "evidence": 25521,
    "putation": 7625,
    "Ġattendance": 12179,
    "Ġgouldings": 26187,
    "washed": 13043,
    "Ġflat": 8227,
    "Ġaudio": 24772,
    "Ġstandpoint": 23275,
    "Ġduke": 7755,
    "value": 18810,
    "au": 779,
    "Ġsoliloquized": 17301,
    "Ġrepulsive": 14529,
    "Ġdeftly": 26493,
    "suspect": 9539,
    "Ġdue": 3846,
    "iate": 6504,
    "Ġshades": 9462,
    "close": 9985,
    "ullen": 8234,
    "Ġcheese": 9376,
    "Ġspat": 2663,
    "Ġtrials": 16789,
    "Ġbeat": 4490,
    "an": 278,
    "hement": 13831,
    "Ġasiatics": 20429,
    "centred": 25017,
    "Ġmur": 2490,
    "Ġexpanding": 25238,
    "fe": 676,
    "Ġhalf": 1670,
    "monster": 8591,
    "answering": 26004,
    "fowl": 17549,
    "bone": 5612,
    "Ġet": 3579,
    "bushes": 24447,
    "Ġtelescope": 17347,
    "iel": 11493,
    "functions": 11241,
    "ilty": 6393,
    "goldsmith": 20146,
    "Ġdisc": 944,
    "Ġdissu": 18550,
    "Ġtrusted": 10517,
    "frightened": 17195,
    "Ġghast": 9209,
    "Ġbows": 4085,
    "Ġmart": 10779,
    "Ġadventures": 7747,
    "Ġwashes": 21858,
    "oir": 21001,
    "Ġsphynx": 20711,
    "Ġreckless": 13457,
    "Ġimprudent": 12845,
    "Ġabode": 7899,
    "Ġhails": 21947,
    "Ġrending": 19465,
    "Ġnegro": 6446,
    "Ġshortness": 23480,
    "Ġpleased": 4066,
    "Ġadvertise": 25388,
    "wear": 22680,
    "Ġwal": 6516,
    "Ġfilm": 23922,
    "Ġsimulates": 2738,
    "Ġmeans": 699,
    "Ġprairies": 20019,
    "Ġconstantly": 11971,
    "Ġover": 556,
    "Ġelapsed": 7653,
    "Ġgums": 21608,
    "mens": 20968,
    "Ġsuccessful": 9922,
    "Ġparaphrasing": 26526,
    "Ġinspector": 6497,
    "Ġmumbled": 17807,
    "Ġbone": 4692,
    "Ġdiscoverer": 26035,
    "Ġnoticed": 5549,
    "Ġsnuffed": 15071,
    "Ġetext": 23947,
    "ifle": 10891,
    "stun": 18015,
    "cre": 4248,
    "ĠcÃ¦sar": 20578,
    "Ġlung": 7168,
    "zors": 21146,
    "Ġembarked": 17134,
    "Ġoat": 21321,
    "Ġguido": 2976,
    "Ġoutsk": 15954,
    "ic": 304,
    "ilet": 12826,
    "Ġdemonstrate": 24994,
    "Ġfatally": 19392,
    "breath": 15161,
    "Ġcruisers": 25863,
    "Ġbowl": 11204,
    "jerked": 25618,
    "Ġannual": 14830,
    "kshire": 13745,
    "Ġpreliminaries": 25176,
    "Ġtoma": 7374,
    "Ġhowl": 12851,
    "âĢľ_": 5720,
    "Ġsafely": 9025,
    "Ġinstead": 2788,
    "ib": 1233,
    "thank": 4948,
    "Ġjonah": 3479,
    "persecut": 22186,
    "Ġpretension": 23762,
    "ertion": 12037,
    "zza": 24167,
    "Ġhigh": 930,
    "farm": 15350,
    "Ġcred": 8780,
    "hurry": 24763,
    "Ġbids": 24645,
    "sensibility": 25023,
    "Ġsymbolize": 24960,
    "tallied": 21088,
    "Ġperceptibly": 25821,
    "Ġbirch": 26174,
    "Ġintroduced": 7690,
    "Ġcontrols": 1732,
    "animal": 16978,
    "Ġsailors": 4274,
    "Ġoutrage": 15956,
    "Ġwithdrawn": 10606,
    "Ġmisled": 22752,
    "clock": 3933,
    "Ġexpanded": 14291,
    "uge": 4018,
    "string": 15682,
    "watson": 12241,
    "Ġimpetus": 25569,
    "crown": 13697,
    "Ġplanisp": 24056,
    "Ġvul": 10247,
    "Ġstudied": 11122,
    "Ġmales": 17805,
    "ov": 15399,
    "Ġresource": 10993,
    "Ġdenomin": 12065,
    "Ġheadland": 22895,
    "urable": 8922,
    "trap": 24313,
    "Ġdoll": 10813,
    "anch": 15557,
    "ely": 623,
    "plans": 21949,
    "Ġdistinctly": 7312,
    "Ġcastors": 23973,
    "Ġindul": 5856,
    "iter": 4389,
    "Ġgasped": 11372,
    "Ġsant": 21213,
    "Ġfinger": 5273,
    "lascar": 20959,
    "Ġslime": 23158,
    "ivorous": 22077,
    "ostentatious": 20651,
    "empl": 5724,
    "Ġgrassy": 24379,
    "Ġfragmentary": 25856,
    "Ġcongen": 10873,
    "Ġstrongest": 11135,
    "meant": 7920,
    "Ġperseverance": 13596,
    "Ġvexatious": 19780,
    "ieties": 19024,
    "lie": 12480,
    "consideration": 14953,
    "Ġdisembow": 22534,
    "bury": 9106,
    "Ġconsented": 11295,
    "Ġvillanous": 24053,
    "Ġones": 3019,
    "ioneer": 15629,
    "Ġlaws": 8002,
    "Ġblazing": 11894,
    "Ġponder": 6819,
    "rifled": 21046,
    "mmet": 10988,
    "dition": 15339,
    "Ġchange": 1995,
    "bee": 16035,
    "Ġreusable": 13556,
    "Ġwidely": 8032,
    "Ġrun": 2355,
    "Ġboldness": 24428,
    "aco": 12903,
    "moran": 24152,
    "Ġfire": 2334,
    "Ġjung": 12833,
    "Ġindifferent": 6174,
    "istrate": 7407,
    "history": 15014,
    "regarded": 12006,
    "Ġmig": 13855,
    "Ġfrance": 7682,
    "composure": 24033,
    "estations": 22219,
    "Ġeigenvalues": 4996,
    "Ġquick": 2580,
    "heard": 5007,
    "Ġdry": 5624,
    "quake": 11679,
    "Ġstrangled": 24134,
    "Ġpig": 5705,
    "Ġmermaids": 26170,
    "ld": 385,
    "Ġelimin": 16105,
    "air": 1000,
    "variety": 23182,
    "Ġspeed": 2449,
    "ulled": 14055,
    "Ġdecap": 16018,
    "bourine": 9395,
    "aneous": 7241,
    "Ġpoorly": 9854,
    "Ġmiracle": 15092,
    "Ġpartially": 13121,
    "atiously": 15520,
    "foreign": 18544,
    "drink": 10595,
    "Ġincantation": 26257,
    "Ġnightgown": 23130,
    "Ġhardship": 18913,
    "Ġplanks": 5564,
    "Ġcareer": 11117,
    "Ġcomplying": 18584,
    "Ġyawned": 15051,
    "comrade": 20623,
    "Ġheaving": 7601,
    "Ġemm": 18002,
    "overcoat": 19049,
    "ific": 486,
    "bath": 13688,
    "barbar": 20237,
    "Ġvengeance": 5884,
    "Ġtelegram": 15222,
    "Ġoutwardly": 24998,
    "Ġflukes": 5266,
    "Ġwithered": 19463,
    "missed": 11209,
    "##": 2317,
    "ain": 343,
    "Ġnets": 21521,
    "Ġcompar": 4769,
    "Ġunwell": 22012,
    "Ġ74": 24261,
    "hangs": 15367,
    "heartily": 24215,
    "Ġpunctil": 20112,
    "masculine": 24387,
    "Ġnative": 4638,
    "hest": 3366,
    "Ġdemocracy": 25458,
    "Ġcanaller": 25467,
    "Ġeaster": 15672,
    "Ġweighed": 8710,
    "big": 13684,
    "flesh": 13489,
    "considered": 9580,
    "cried": 8724,
    "generosity": 23784,
    "Ġinsights": 13180,
    "Ġconnex": 10665,
    "Ġlace": 13948,
    "illuminated": 17452,
    "lesome": 12962,
    "Ġconference": 15744,
    "vital": 17700,
    "mortar": 25408,
    "Ġtransmit": 10304,
    "Ġtransparency": 10676,
    "Ġdivulged": 16648,
    "Ġdoom": 6416,
    "Ġpoky": 21477,
    "Ġpiratical": 24801,
    "Ġmingling": 20196,
    "Ġdeductions": 19732,
    "penetrating": 25490,
    "Ġreligion": 11415,
    "sole": 6168,
    "Ġfinal": 5400,
    "Ġrim": 21965,
    "Ġrehears": 15697,
    "Ġnodded": 11968,
    "Ġupdates": 1300,
    "Ġaisle": 21200,
    "Ġonset": 12707,
    "Ġho": 1931,
    "Ġlean": 7606,
    "Ġpoll": 12028,
    "Ġhorrors": 10479,
    "Ġpail": 15604,
    "Ġingratitude": 17468,
    "Ġcapacity": 10440,
    "ctive": 11622,
    "explanations": 25234,
    "Ġparad": 2841,
    "Ġindebted": 8707,
    "Ġdetestable": 15097,
    "Ġassociations": 14961,
    "Ġhastily": 5763,
    "Ġlory": 12649,
    "Ġretirement": 25378,
    "shapes": 22461,
    "Ġservices": 11217,
    "Ġgracious": 8846,
    "oton": 3606,
    "icher": 9202,
    "Ġdivine": 6921,
    "Ġlingered": 13504,
    "Ġpage": 6978,
    "Ġprocessions": 18433,
    "Ġspouting": 9438,
    "lik": 3916,
    "Ġforg": 3787,
    "Ġfergus": 16867,
    "Ġequalled": 13311,
    "Ġshall": 1141,
    "Ġregained": 18592,
    "telesc": 22813,
    "Ġreplen": 11114,
    "Ġoccurrence": 14381,
    "Ġangular": 19206,
    "Ġsutherland": 10148,
    "Ġbestow": 6454,
    "Ġrubbing": 9320,
    "Ġruffled": 25835,
    "eland": 11619,
    "Ġshivering": 10265,
    "bowed": 10683,
    "Ġcapable": 5052,
    "apsed": 6295,
    "with": 1298,
    "Ġaffections": 10384,
    "Ġleisure": 6539,
    "Ġbrew": 23340,
    "Ġargosy": 24273,
    "Ġscrutiny": 26015,
    "Ġchopping": 24219,
    "Ġunsupp": 22016,
    "phology": 3007,
    "Ġaccountability": 10438,
    "infor": 3216,
    "Ġafterwards": 3529,
    "Ġlearnt": 7613,
    "sham": 9760,
    "yn": 7819,
    "Ġcrystall": 20225,
    "!": 5,
    "Ġprom": 1524,
    "heeded": 13833,
    "Ġforeb": 12002,
    "Ġtuck": 10140,
    "neighbourhood": 10024,
    "homage": 25616,
    "raved": 18012,
    "augment": 18828,
    "Ġequilib": 4137,
    "pt": 389,
    "Ġsecurely": 16802,
    "Ġceti": 24773,
    "Ġstrasburgh": 18614,
    "virtue": 20568,
    "plicable": 10255,
    "Ġling": 7378,
    "cream": 15330,
    "Ġembark": 8558,
    "significant": 25082,
    "qualities": 25043,
    "Ġeasiness": 23533,
    "stiff": 12671,
    "Ġdecency": 18483,
    "Ġnephews": 24714,
    "Ġcrushing": 20175,
    "Ġcompress": 21846,
    "Ġsweeping": 8985,
    "Ġexcursion": 26589,
    "Ġseparately": 13301,
    "Ġpass": 1037,
    "tic": 8390,
    "Ġintellig": 523,
    "jour": 20926,
    "Ġrecognition": 3011,
    "Ġinwards": 15618,
    "idelburgh": 10560,
    "allowing": 24358,
    "alth": 3252,
    "Ġfit": 3683,
    "Ġbravely": 23836,
    "enborough": 21284,
    "Ġded": 2710,
    "anxiously": 15109,
    "Ġpossible": 2583,
    "Ġque": 4159,
    "Ġmetropolis": 17274,
    "Ġabruptly": 15149,
    "dreams": 12335,
    "Ġchair": 3660,
    "inter": 2949,
    "Ġcare": 1637,
    "Ġdiscoveries": 13357,
    "Ġenormous": 5609,
    "Ġroast": 18458,
    "Ġspectre": 16630,
    "Ġtrous": 10958,
    "Ġsanely": 24980,
    "add": 5229,
    "Ġeconomical": 25287,
    "angible": 22102,
    "Ġascending": 14852,
    "94": 4801,
    "ugal": 19021,
    "Ġarrayed": 25664,
    "Ġsinusoid": 4779,
    "Ġverify": 12085,
    "Ġuplifted": 11646,
    "night": 2168,
    "Ġfol": 1288,
    "wake": 11545,
    "Ġhoe": 23347,
    "Ġmalignity": 10556,
    "ecess": 17532,
    "rect": 1600,
    "sort": 6798,
    "Ĕ": 213,
    "draw": 23896,
    "Ġfair": 2835,
    "Ġausten": 5880,
    "Ġfootpaths": 26318,
    "vict": 11540,
    "Ġadvantages": 9806,
    "Ġcontempt": 6275,
    "vellers": 16673,
    "Ġinvest": 4976,
    "Ġsailing": 5323,
    "Ġestablish": 9542,
    "Ġsaying": 3239,
    "Ġpuppy": 12403,
    "ancy": 4391,
    "inted": 2647,
    "Ġshaking": 6551,
    "Ġshetland": 22156,
    "icy": 6140,
    "ernal": 4309,
    "Ġembrace": 16990,
    "ptember": 10895,
    "cannibal": 15223,
    "Ġapparatus": 24908,
    "Ġgenerates": 3662,
    "Ġfolk": 10375,
    "projecting": 26073,
    "Ġafter": 871,
    "Ġaccents": 14210,
    "Ġresumed": 11810,
    "Ġincurable": 22549,
    "Ġbarrow": 12067,
    "ulty": 22564,
    "Ġadmits": 23550,
    "Ġxavier": 2855,
    "Ġdissolved": 18554,
    "Ġdining": 6977,
    "Ġaltering": 18102,
    "handkerchief": 14617,
    "Ġencounter": 6627,
    "Ġskipper": 22794,
    "Ġbehold": 5047,
    "idel": 5299,
    "Ġ116": 24440,
    "Ġernest": 8716,
    "Ġentries": 22742,
    "ĠĠĠĠĠĠĠĠĠĠĠĠĠĠĠĠĠĠĠĠĠĠĠĠĠ": 24442,
    "Ġtoilings": 24742,
    "Ġwidows": 24236,
    "Ġblast": 7446,
    "ury": 3307,
    "Ġthames": 13937,
    "Ġstraining": 11327,
    "inconsiderable": 21190,
    "Ġpowdered": 24237,
    "dred": 2527,
    "rivial": 9433,
    "Ġpipes": 9844,
    "sound": 6799,
    "fierce": 25255,
    "acup": 14278,
    "Ġshuddering": 9051,
    "Ġanyhow": 14254,
    "Ġlick": 21547,
    "Ġselecting": 16684,
    "Ġwooded": 23517,
    "Ġmeanings": 18608,
    "Ġnay": 5711,
    "ferences": 10326,
    "house": 4079,
    "Ġcells": 13884,
    "avor": 14276,
    "fun": 3934,
    "Ġthis": 382,
    "Ġvice": 6548,
    "Ġrevelry": 15135,
    "Ġactivity": 7919,
    "cused": 15331,
    "Ġforty": 5719,
    "studies": 25166,
    "appeared": 4279,
    "Ġdetained": 18372,
    "Ġsoon": 1226,
    "wor": 3413,
    "Ġconsiderations": 9409,
    "Ġmortified": 14693,
    "Ġarches": 14160,
    "Ġexper": 1303,
    "ces": 579,
    "iest": 4039,
    "Ġquaff": 22411,
    "forget": 11032,
    "Ġ129": 24474,
    "Ġinsist": 9889,
    "Ġconvul": 13202,
    "offic": 7467,
    "Ġdestabilizing": 5051,
    "relu": 17759,
    "Ġeveryday": 22761,
    "Ġdeified": 18137,
    "Ġexploration": 2337,
    "inks": 6869,
    "Ġyork": 11664,
    "Ġrudimental": 25108,
    "Ġconventional": 25547,
    "cun": 20794,
    "Ġunaccount": 22022,
    "utted": 15658,
    "acted": 11010,
    "Ġshaggy": 13569,
    "ă": 196,
    "Ġloop": 14146,
    "Ġsimplicity": 2925,
    "silenced": 24423,
    "ounding": 22390,
    "Ġoutlast": 22310,
    "Ġbroadened": 23982,
    "Ġcapt": 1291,
    "Ġmy": 412,
    "Ġsummers": 23871,
    "consequence": 9762,
    "harm": 13734,
    "prim": 23807,
    "alogies": 25158,
    "Ġmoody": 8200,
    "Ġcrocod": 19627,
    "Ġwalker": 23299,
    "Ġprick": 14477,
    "inordinate": 21193,
    "scoured": 22985,
    "Ġmotionless": 8323,
    "Ġcarcase": 14443,
    "grateful": 10428,
    "whew": 22863,
    "orough": 5700,
    "Ġbuffaloes": 25217,
    "nailed": 20995,
    "duck": 22409,
    "isles": 15561,
    "seem": 10227,
    "Ġmomentarily": 22808,
    "cures": 20804,
    "Ġcalculates": 13263,
    "Ġexhaustion": 14959,
    "Ġfriesland": 26442,
    "Ġcities": 17827,
    "Ġdere": 21831,
    "conceivable": 17130,
    "Ġostent": 13583,
    "Ġshell": 11734,
    "Ġobligations": 12089,
    "barbs": 20236,
    "fishermen": 17061,
    "helped": 18923,
    "spout": 7922,
    "Ġcoer": 22578,
    "Ġforgetting": 3434,
    "attached": 11933,
    "Ġconceive": 8461,
    "Ġcomplacency": 19446,
    "ezes": 9990,
    "Ġunsatisfied": 22039,
    "Ġnervous": 2405,
    "nlp": 8750,
    "simultaneously": 19863,
    "Ġmelbourne": 24289,
    "arnel": 18124,
    "rugg": 15894,
    "alously": 15626,
    "Ġfloat": 12030,
    "Ġcynicism": 25771,
    "birth": 15321,
    "tle": 2411,
    "arius": 14248,
    "Ġsweetly": 23916,
    "gus": 13724,
    "Ġgretna": 26468,
    "Ġsmite": 22554,
    "Ġindependently": 4244,
    "Ġenderby": 13650,
    "Ġrickety": 26506,
    "Ġstepfather": 7222,
    "gledy": 25403,
    "acing": 2717,
    "themselves": 6540,
    "keys": 15856,
    "Ġthw": 21512,
    "Ġgoblets": 20517,
    "Ġdashes": 21432,
    "âĢĻ-": 18172,
    "Ġjanuary": 13652,
    "Ġcomely": 21845,
    "Ġmem": 2070,
    "starbuck": 6018,
    "Ġuttering": 16461,
    "Ġmodified": 14166,
    "limbs": 20190,
    "les": 1016,
    "coast": 10449,
    "Ġarrived": 3745,
    "works": 6587,
    "ful": 675,
    "Ġleaving": 3905,
    "rope": 3180,
    "list": 7552,
    "Ġpines": 12614,
    "Ġfatigue": 8697,
    "Ġclose": 3035,
    "Ġminiature": 11039,
    "Ġmenacing": 23104,
    "description": 11094,
    "Ġsleet": 8975,
    "hooked": 23713,
    "Ġcalms": 23038,
    "Ġwouldn": 6045,
    "Ġissues": 9541,
    "amped": 12031,
    "ment": 690,
    "Ġenjoined": 18191,
    "Ġstam": 18065,
    "Ġhaws": 21948,
    "Ġsuffocated": 20727,
    "Ġpublisher": 24064,
    "madam": 24421,
    "Ġsalmon": 24060,
    "Ġapparently": 6778,
    "Ġovertook": 18429,
    "Ġbro": 1431,
    "Ġamused": 11797,
    "Ġlee": 4221,
    "frank": 7757,
    "az": 2181,
    "vest": 6230,
    "doubtless": 17002,
    "itig": 1330,
    "frost": 15105,
    "Ġfam": 1586,
    "Ġpaddock": 25037,
    "Ġbrazier": 26320,
    "Ġgossiping": 26243,
    "ard": 465,
    "Ġdrenched": 12600,
    "Ġbeasts": 10617,
    "inclined": 10639,
    "Ġrejoiced": 8683,
    "Ġhealth": 3904,
    "Ġlift": 8810,
    "verted": 10217,
    "tap": 17676,
    "Ġcommotion": 9779,
    "rived": 5373,
    "Ġrevived": 11368,
    "adventurous": 25361,
    "Ġemma": 20693,
    "Ġfashion": 4295,
    "unched": 10235,
    "Ġcast": 3605,
    "Ġglo": 1713,
    "ium": 4862,
    "subs": 14298,
    "Ġgentleness": 8709,
    "=": 33,
    "Ġplatonian": 25118,
    "Ġfought": 12590,
    "Ġmaggie": 26291,
    "presbyterian": 26368,
    "chess": 16572,
    "char": 3501,
    "supplemental": 25874,
    "thing": 1480,
    "Ġrealised": 18979,
    "dining": 13704,
    "Ġdefiance": 11068,
    "sus": 6228,
    "Ġpersuading": 19408,
    "Ġsubs": 2131,
    "boone": 23252,
    "ermost": 7431,
    "ioning": 21506,
    "Ġanywhere": 8516,
    "Ġmyth": 18220,
    "Ġgermany": 25785,
    "Ġcet": 6669,
    "spond": 5567,
    "Ġmicha": 17811,
    "Ġessays": 19743,
    "banish": 20781,
    "sized": 15427,
    "lun": 20945,
    "Ġsnorting": 23739,
    "avast": 8896,
    "Ġstraps": 19309,
    "ositions": 10283,
    "tone": 8762,
    "recursion": 13327,
    "Ġunfrequently": 20738,
    "Ġchurned": 18385,
    "Ġnewfound": 22929,
    "Ġinsufferable": 13930,
    "Ġtophet": 23569,
    "itations": 17817,
    "Ġpredict": 678,
    "uncommon": 11680,
    "investments": 25532,
    "ivened": 22962,
    "Ġcharges": 23266,
    "Ğ": 223,
    "Ġprepared": 5876,
    "Ġsoul": 2725,
    "Ġenabled": 9295,
    "tormented": 13644,
    "girl": 12316,
    "Ġdiscomposure": 20377,
    "desper": 13067,
    "icates": 11616,
    "Ġbuoy": 8003,
    "inst": 4292,
    "find": 6954,
    "Ġcar": 1419,
    "Ġregardless": 19323,
    "Ġgritted": 22802,
    "confirm": 16807,
    "Ġhorns": 11123,
    "expl": 9282,
    "iasm": 8060,
    "Ġmaledictions": 26428,
    "Ġprove": 5231,
    "loat": 8886,
    "Ġhobbling": 25644,
    "Ġspring": 4122,
    "Ġhitherto": 5879,
    "Ġsights": 7473,
    "treated": 21093,
    "Ġpillows": 24986,
    "Ġval": 966,
    "Ġobjections": 8564,
    "lightened": 12063,
    "Ġattested": 22619,
    "Ġwhip": 8451,
    "Ġtwinkling": 12322,
    "Ġmuhammad": 26169,
    "Ġsomebody": 7911,
    "reg": 2183,
    "gely": 10700,
    "Ġconcentric": 20073,
    "Ġbreaths": 14855,
    "Ġattentive": 9033,
    "Ġkrusen": 20713,
    "Ġreality": 7057,
    "Ġoverl": 18428,
    "Ġanimated": 7701,
    "Ġsparsity": 4206,
    "Ġseedy": 21959,
    "ilations": 21719,
    "Ġartificial": 789,
    "bestow": 16929,
    "Ġfry": 17879,
    "Ġrigged": 16717,
    "helping": 23137,
    "Ġkettle": 26232,
    "Ġlug": 15649,
    "Ġstepping": 9353,
    "Ġdisgusting": 19893,
    "Ġscreaming": 13422,
    "fresh": 13391,
    "dings": 2190,
    "Ġforbid": 7864,
    "Ġclay": 7018,
    "ieth": 10704,
    "phr": 18713,
    "each": 7336,
    "Ġnantucketer": 6914,
    "parlour": 16383,
    "colonel": 8284,
    "Ġunlikely": 10908,
    "Ġsemantic": 1959,
    "inaw": 21182,
    "Ġsped": 22122,
    "eze": 20846,
    "meaning": 2908,
    "excitement": 19668,
    "Ġsupple": 22996,
    "olog": 1069,
    "approve": 19935,
    "Ġtarquin": 23608,
    "aly": 1083,
    "suspicious": 25390,
    "Ġscruples": 15077,
    "tha": 15821,
    "Ġpolitical": 19222,
    "Ġcondensed": 24051,
    "Ġwarehouses": 20416,
    "orient": 2879,
    "Ġinte": 2066,
    "Ġtropic": 17064,
    "Ġfabric": 25947,
    "ner": 1371,
    "dient": 442,
    "Ġlively": 5449,
    "Ġimagined": 8606,
    "Ġstriking": 6088,
    "Ġcolour": 4459,
    "Ġgold": 3274,
    "fits": 13717,
    "fol": 4860,
    "Ġafford": 4362,
    "Ġfooting": 14482,
    "dishonourable": 26365,
    "Ġgently": 7172,
    "cated": 20802,
    "Ġweedy": 15789,
    "Ġgouge": 26188,
    "Ġfainting": 16897,
    "cock": 12024,
    "Ġinfancy": 10415,
    "Ġrecommended": 8667,
    "Ġpublicly": 13321,
    "Ġlandsman": 11350,
    "Ġmod": 492,
    "eff": 2534,
    "Ġobsequious": 17403,
    "crawling": 16958,
    "Ġsomnam": 23002,
    "formal": 14170,
    "ational": 5716,
    "Ġpolished": 11182,
    "whisper": 17083,
    "Ġcopied": 20006,
    "Ġsulkily": 25882,
    "Ġscholar": 26111,
    "Ġheaven": 3362,
    "Ġadmire": 5263,
    "Ġrelating": 2704,
    "answered": 10273,
    "rugged": 6849,
    "eds": 6674,
    "Ġsimpleton": 16333,
    "Ġrece": 11637,
    "Ġbland": 11064,
    "Ġrecital": 16140,
    "Ġbluff": 16516,
    "Ġdead": 2171,
    "Ġvernal": 23886,
    "Ġswaths": 23056,
    "prophecy": 22833,
    "Î": 143,
    "accomplishments": 25326,
    "**:": 4735,
    "rob": 5534,
    "Ġmurderers": 16811,
    "Ġd": 284,
    "Ġdrifting": 19279,
    "sa": 8756,
    "Ï": 144,
    "Ġgoethe": 22421,
    "loath": 22506,
    "ism": 4872,
    "Ġtheir": 643,
    "Ġspecies": 5111,
    "Ġexeget": 24085,
    "Ġevaluation": 16578,
    "readiness": 19361,
    "Ġhack": 12753,
    "Ġtube": 15003,
    "Ġseventeen": 26210,
    "Ġcurves": 18855,
    "plentiful": 21953,
    "Ġslate": 11936,
    "Ġluxuries": 25163,
    "Ġlasted": 11053,
    "needles": 20310,
    "vapor": 25755,
    "Ġjewell": 19519,
    "seam": 10874,
    "Ġfearful": 6197,
    "Ġfest": 10804,
    "Ġaccomp": 4710,
    "Ġcobbler": 25829,
    "Ġfasten": 11132,
    "ĠĠĠĠĠĠĠĠĠĠĠĠĠĠĠĠĠĠĠĠĠĠĠĠĠĠĠĠĠĠĠĠĠĠĠ": 19257,
    "Ġmonogra": 22972,
    "inished": 17734,
    "viii": 12019,
    "Ġearliest": 9830,
    "Ġprows": 19888,
    "terrific": 25040,
    "Ġmetaphysical": 26070,
    "alvan": 21501,
    "Ġexult": 10230,
    "Ġalliance": 18235,
    "ateur": 22068,
    "abode": 21788,
    "Ġdeline": 16331,
    "crossing": 19409,
    "Ġperf": 12846,
    "Ġsinking": 7308,
    "Ġtis": 15464,
    "(-": 2979,
    "broad": 8642,
    "Ġprecise": 7075,
    "crooked": 25746,
    "omically": 13979,
    "į": 240,
    "deduction": 23553,
    "Ġirons": 7695,
    "Ġbachel": 7159,
    "âĢĿ--": 21813,
    "Ġey": 8134,
    "Ġpliny": 11823,
    "beings": 12873,
    "Ġinstantaneously": 23656,
    "asters": 8433,
    "Ġwhalers": 8047,
    "violently": 23539,
    "Ġpallidness": 25604,
    "Ġcadiz": 17324,
    "Ġstrain": 6023,
    "Ġnecessarily": 13247,
    "iving": 1725,
    "Ġsacrificed": 17421,
    "Ġcrept": 11021,
    "Ġrock": 5310,
    "Ġmeasurement": 19421,
    "Ġrepeat": 7999,
    "Ġwint": 15531,
    "needle": 20309,
    "Ġsurviv": 13434,
    "Ġremonstrance": 20621,
    "season": 14033,
    "Ġpostponed": 20388,
    "Ġren": 3847,
    "spears": 23939,
    "scept": 21052,
    "Ġeyel": 17096,
    "Ġphilosophical": 26334,
    "Ġnorton": 12646,
    "Ġstanzas": 21741,
    "heartedness": 24827,
    "cial": 2646,
    "Ġrecl": 16138,
    "Ġsailor": 3534,
    "Ġmortifying": 13243,
    "bodily": 17314,
    "Ġeighteen": 11238,
    "Ġexpense": 7652,
    "Ġprevented": 5941,
    "Ġhosmer": 6774,
    "alley": 23020,
    "towns": 24854,
    "Ġscrew": 8867,
    "spot": 9788,
    "Ġapparelled": 20435,
    "Ġstrides": 22614,
    "Ġquies": 18464,
    "Ġbegat": 18862,
    "Ġdisgra": 18549,
    "Ġwrecks": 16818,
    "gave": 7799,
    "Ġele": 1963,
    "ete": 9203,
    "Ġcleaned": 23179,
    "Ġgrap": 11705,
    "joice": 9602,
    "Ġdistracted": 11802,
    "foam": 24418,
    "iality": 8843,
    "Ġendeavored": 19302,
    "hint": 12473,
    "Ġilluminating": 25245,
    "terdam": 18129,
    "Ġacute": 16121,
    "animate": 12574,
    "Ġjesty": 18405,
    "Ġungod": 22019,
    "Ġsol": 1106,
    "Ġmotive": 6091,
    "situ": 9621,
    "Ġwhat": 599,
    "ornament": 23486,
    "Ġdangerously": 23934,
    "Ġearn": 3545,
    "Ġsecretary": 19440,
    "Ġesq": 15107,
    "bear": 10314,
    "noo": 9787,
    "Ġtombed": 25160,
    "ook": 21003,
    "Ġodor": 12147,
    "Ġdislike": 6047,
    "Ġtales": 10141,
    "masters": 16834,
    "Ġdouble": 4938,
    "Ġbidding": 9536,
    "Ġpurses": 23475,
    "Ġunostentatious": 22065,
    "<MASK>": 4,
    "Ġpiece": 5367,
    "Ġflow": 1237,
    "Ġmeasure": 3593,
    "Ġyarn": 10868,
    "K": 47,
    "ancies": 11583,
    "Ġfurnishes": 19439,
    "inforcement": 3242,
    "liest": 6294,
    "Ġschedules": 3384,
    "Ġsperm": 1843,
    "reduced": 15803,
    "Ġcause": 2412,
    "innocent": 20285,
    "Ġvisited": 5947,
    "Ġmoby": 3663,
    "Ġen": 393,
    "Ġinformed": 6717,
    "Ġpath": 2116,
    "Ġrigger": 19529,
    "ĠĠĠĠĠĠĠĠĠĠĠĠĠĠĠĠĠĠĠĠĠĠĠĠ": 5321,
    "sory": 17659,
    "Ġtok": 1244,
    "hun": 5210,
    "Ñ": 146,
    "Ġjuggler": 26366,
    "grow": 10098,
    "Ġgaiety": 16749,
    "Ġmoulded": 16975,
    "vil": 2731,
    "servant": 15035,
    "Ġenriched": 26499,
    "Ġbands": 14882,
    "we": 847,
    "Ġworshipped": 25691,
    "Ġwreath": 25936,
    "isson": 23460,
    "Ġtandem": 26411,
    "bowl": 14889,
    "utility": 21584,
    "?âĢĿâĢĶ": 12892,
    "Ġdearer": 14048,
    "troubled": 17112,
    "apparently": 15203,
    "Ġsuppress": 13021,
    "Ġankers": 21443,
    "Ġcompanion": 3642,
    "Ġbaron": 19333,
    "calculating": 25689,
    "imson": 12686,
    "Ġepidemic": 20694,
    "myself": 5112,
    "precise": 19349,
    "thine": 15822,
    "Ġcabaco": 13166,
    "Ġbitten": 21388,
    "Ġtasselled": 25921,
    "Ġcomm": 839,
    "Ġdyspeps": 16507,
    "Ġmimic": 3140,
    "church": 8139,
    "Ġsociety": 3979,
    "orn": 2243,
    "itatingly": 25277,
    "ilent": 21717,
    "Ġperu": 14222,
    "Ġrebounds": 25967,
    "ject": 875,
    "Ġfetch": 7769,
    "Ġfrankly": 16745,
    "Ġsearching": 13161,
    "Ġspilling": 22134,
    "Ġmarty": 20289,
    "Ġimperilled": 19577,
    "Ġcouch": 12568,
    "Ġpist": 12612,
    "Ġcourt": 4169,
    "disappointment": 11425,
    "Ġshock": 6082,
    "Ġtelling": 5747,
    "bweb": 20790,
    "apparatus": 26563,
    "Ġrealising": 18981,
    "Ġjoints": 12033,
    "takes": 21074,
    "Ġbathed": 17865,
    "Ġcharging": 23265,
    "ravity": 21632,
    "Ġboard": 3381,
    "Ġjamming": 17264,
    "estim": 14168,
    "aper": 4997,
    "odecimoes": 25318,
    "Ġsurviving": 24637,
    "âĢĶâĢĶâĢĿ": 15937,
    "Ġadmirals": 20383,
    "Ġsim": 734,
    "ce": 313,
    "weeks": 14315,
    "Ġconquered": 14025,
    "gates": 20871,
    "Ġpalp": 11251,
    "Ġinfirm": 19051,
    "Ġpersian": 11091,
    "Ġimputable": 22170,
    "silent": 9973,
    "Ġtumult": 7114,
    "mast": 3601,
    "Ġvalidate": 3082,
    "Ġunconscious": 9546,
    "Ġsam": 7570,
    "flex": 24843,
    "Ġdesirous": 8942,
    "Ġsubsequently": 16158,
    "Ġeverlasting": 9336,
    "Ġspeedy": 11172,
    "Ġwondering": 7970,
    "Ġmaterials": 11288,
    "Ġscrut": 15943,
    "Ġhardly": 2435,
    "vocation": 25084,
    "omn": 15687,
    "Ġshut": 3943,
    "follows": 24528,
    "mered": 8217,
    "ľ": 255,
    "hecy": 21205,
    "Ġblackstone": 23387,
    "pursuit": 20339,
    "bank": 10079,
    "Ġlabel": 14516,
    "Ġspoutings": 14674,
    "tan": 4740,
    "huzza": 20912,
    "Ġcharacter": 2792,
    "Ġgain": 4825,
    "Ġlun": 7855,
    "pedest": 24695,
    "Ġbeckoned": 25793,
    "approach": 24833,
    "Ġbrooded": 23100,
    "sk": 5521,
    "tiger": 13796,
    "belais": 24037,
    "Ġtack": 5621,
    "Ġpendulous": 25955,
    "Ġ1950": 11359,
    "Ġbreakfast": 3977,
    "Ġarrang": 2469,
    "Ġshift": 2283,
    "Ġinsensible": 12323,
    "Ġcanvassed": 19933,
    "Ġreceipt": 20354,
    "take": 4574,
    "Ġdisown": 22521,
    "caterpillar": 26383,
    "urry": 13993,
    "du": 606,
    "Ġenough": 1763,
    "Ġcalamities": 25699,
    "scap": 22982,
    "Ġtwitch": 22673,
    "ructive": 18536,
    "ph": 937,
    "Ġeurope": 8061,
    "Ġcarriages": 11098,
    "Ġprizes": 13072,
    "Ġcritically": 23444,
    "Ġgalvan": 21614,
    "Ġnight": 1467,
    "quet": 6835,
    "nor": 2740,
    "Ġrivals": 20270,
    "enit": 17779,
    "Ġsash": 17754,
    "la": 10705,
    "Ġunintermitted": 26219,
    "Ġfiver": 22777,
    "Ġadmission": 23551,
    "ildad": 3530,
    "Ġneedlessly": 23628,
    "adler": 21759,
    "died": 10693,
    "ago": 14064,
    "ight": 403,
    "nantucketer": 24972,
    "owards": 4592,
    "Ġdespondency": 16576,
    "Ġelement": 6898,
    "Ġcautious": 12251,
    "Ġassigned": 16309,
    "Ġreigning": 15698,
    "Ġdepos": 11004,
    "believing": 19460,
    "Ġintrusted": 21989,
    "Ġ85": 24460,
    "Ġ_": 840,
    "Ġarbit": 4648,
    "uits": 21103,
    "burnt": 20078,
    "waves": 10742,
    "Ġtenth": 13824,
    "Ġroanoke": 22406,
    "Ġhadn": 9718,
    "atement": 17773,
    "uten": 11621,
    "4": 24,
    "Ġlaurel": 20653,
    "Ġrepro": 7276,
    "active": 16101,
    "Ġ1820": 25718,
    "ility": 622,
    "germans": 20564,
    "Ġretort": 23067,
    "Ġlent": 21544,
    "Ġyelling": 18096,
    "henomenon": 13613,
    "perpetually": 20511,
    "ena": 11567,
    "Ġchecking": 23282,
    "Ġalarm": 4050,
    "Ġrecommending": 24337,
    "Ġpeaceable": 14721,
    "Ġalman": 21778,
    "Ġfleecy": 17023,
    "success": 6710,
    "blast": 9587,
    "Ġforc": 9227,
    "Ġartfully": 22607,
    "Ġlye": 21548,
    "inions": 8401,
    "Ġcelest": 9900,
    "Ġcosmopolitan": 20640,
    "Ġslain": 8953,
    "Ġexamining": 8005,
    "expected": 5780,
    "Ġdazz": 11593,
    "Ġ1807": 26083,
    "Ġaperture": 26160,
    "bul": 6951,
    "comprehens": 16175,
    "Ġsets": 8773,
    "Ġfeather": 8859,
    "Ġaimed": 20249,
    "Ġreached": 4024,
    "Ġwilful": 10534,
    "Ġperceptible": 18451,
    "Ġlombardy": 26463,
    "Ġcostume": 16494,
    "itably": 10782,
    "Ġflirting": 16247,
    "darted": 20831,
    "âĢĻâĢĶ": 12734,
    "Ġshocking": 10435,
    "Ġreligions": 20106,
    "Ü": 157,
    "Ġlodgings": 8311,
    "Ġforetold": 23450,
    "Ġadvert": 10571,
    "Ġintru": 15825,
    "Ġspoon": 22131,
    "pardonable": 17217,
    "Ġdoct": 4452,
    "Ġexactness": 23602,
    "itory": 12564,
    "hatherley": 17568,
    "testing": 12514,
    "ĠĠĠĠĠĠĠĠĠĠĠĠĠĠĠĠĠĠĠĠĠĠĠĠĠĠĠĠĠĠĠĠĠĠĠĠĠĠĠĠĠĠĠĠĠĠĠĠĠĠĠ": 20037,
    "©": 107,
    "bet": 6109,
    "Ġhearth": 11980,
    "Ġloun": 7167,
    "Ġlightnings": 16351,
    "helm": 12169,
    "foundation": 16714,
    "Ġbeneath": 3232,
    "Ġabsorb": 25112,
    "###": 3829,
    "Ġ64": 24367,
    "Ġbrimming": 22861,
    "Ġseren": 7402,
    "science": 11907,
    "deacon": 22144,
    "india": 22368,
    "Ġsharkish": 24506,
    "Ġangry": 5498,
    "Ġsult": 10767,
    "Ġmenaces": 23103,
    "Ġvain": 3628,
    "Ġtinkling": 25212,
    "Ġbankrupt": 16796,
    "Ġdawned": 14993,
    "remembrance": 25702,
    "Ġprec": 2921,
    "buoy": 7760,
    "hunting": 24385,
    "Ġremarkably": 7702,
    "Ġmou": 13854,
    "Ġrespectively": 23246,
    "Ġrevive": 13478,
    "Ġindic": 2887,
    "addressed": 13384,
    "Ġsumm": 3353,
    "Ġpaddington": 17095,
    "Ġmatlock": 18800,
    "network": 1939,
    "atious": 10151,
    "fair": 10092,
    "Ġintroduction": 8970,
    "replied": 11565,
    "assist": 11765,
    "abulary": 4798,
    "Ġ67": 19659,
    "pag": 11510,
    "Ġ156": 20169,
    "Ġplainpal": 19277,
    "Ġpoisonous": 24887,
    "occupied": 12302,
    "Ġexactly": 2766,
    "Ġnewton": 3531,
    "author": 9859,
    "Ġimbedded": 18332,
    "Ġendless": 7053,
    "Ġshudderings": 25200,
    "lucifer": 25301,
    "Ġyielded": 14870,
    "ben": 4924,
    "obscure": 23094,
    "Ġfins": 9663,
    "Ġsymbol": 7716,
    "Ġdrops": 9032,
    "ar": 285,
    "ument": 5239,
    "Ġbump": 9659,
    "Ġlonger": 3357,
    "Ġdoubled": 19641,
    "Ġinsens": 8276,
    "Ġranged": 10257,
    "Ġignited": 25069,
    "Ġinterposed": 20617,
    "Ġsummits": 14682,
    "project": 16423,
    "Ġugliness": 20425,
    "rank": 21040,
    "Ġtim": 4576,
    "Ġdetest": 8500,
    "orter": 4253,
    "Ġrestrict": 16370,
    "Ġmisgiv": 14344,
    "lacing": 17590,
    "tanh": 5203,
    "urbed": 15706,
    "Ġfinished": 5042,
    "Ġdefection": 22939,
    "Ġstandard": 14496,
    "Ġopposing": 12039,
    "Ġaunt": 3172,
    "Ġloc": 10914,
    "aret": 7418,
    "bottle": 20144,
    "reduc": 5459,
    "Ġroughly": 17040,
    "jury": 15372,
    "Ġunrolled": 22033,
    "Ġintercepted": 25826,
    "Ġinherent": 4589,
    "Ġunappalled": 22060,
    "Ġwandering": 8653,
    "stays": 15685,
    "Ġfact": 1728,
    "anyone": 16593,
    "arpaul": 14535,
    "wouldn": 23532,
    "Ġemble": 13970,
    "Ġsmacking": 20164,
    "dressed": 10695,
    "Ġdecks": 6900,
    "Ġretreated": 13432,
    "Ġdines": 21421,
    "ither": 1545,
    "agitation": 14067,
    "Ġnarratives": 24353,
    "Ġsweatings": 25710,
    "persons": 24174,
    "Ġsubtle": 6716,
    "Ġtomb": 8807,
    "Ġapproaching": 6283,
    "commer": 22819,
    "remained": 8569,
    "Ġmadness": 6601,
    "Ġsend": 4108,
    "grees": 20885,
    "luent": 15994,
    "cry": 12443,
    "Ġannihilation": 15164,
    "Ġquadr": 8199,
    "Ġnote": 4261,
    "gaff": 20881,
    "aculate": 16081,
    "customary": 25895,
    "handed": 7483,
    "pulous": 15415,
    "int": 1198,
    "Ġdiffidence": 14658,
    "Ġcoherent": 3259,
    "acity": 5735,
    "Ġtide": 6658,
    "nical": 20990,
    "Ġlounged": 19952,
    ");": 7331,
    "Ġbridegroom": 10604,
    "Ġphyset": 23200,
    "Ġstrangely": 5677,
    "Ġseamen": 5061,
    "Ġcontribut": 12856,
    "also": 7850,
    "constantinople": 25507,
    "oper": 7348,
    "iciously": 17973,
    "Ġmaid": 5285,
    "Ġdesigned": 7740,
    "Ġresuming": 12890,
    "itives": 17819,
    "baron": 24925,
    "Ġhilarious": 20297,
    "Ġtechnical": 17191,
    "solution": 14685,
    "god": 4861,
    "gement": 13727,
    "distinct": 13334,
    "Ġinsensibility": 17110,
    "Ġspeaks": 11159,
    "olds": 9310,
    "ino": 15478,
    "announced": 19758,
    "Ġescort": 23503,
    "Ġreap": 18026,
    "osed": 1961,
    "Ġjackson": 24240,
    "prot": 6899,
    "vanished": 15060,
    "Ġincognit": 22551,
    "Ġstone": 4643,
    "Ġnostrils": 10943,
    "considerable": 10548,
    "Ġdistressing": 12216,
    "Ġgushed": 21604,
    "Ġscare": 18396,
    "Ġprey": 6414,
    "Ġfasc": 12595,
    "Ġwhitish": 24866,
    "Ġconsists": 11976,
    "ured": 1654,
    "critters": 14782,
    "iple": 4804,
    "Ġdrew": 3535,
    "Ġatom": 18192,
    "Ġ72": 19610,
    "å": 166,
    "Ġviolence": 5962,
    "Ġpantaloons": 20295,
    "Ġsplendid": 17213,
    "Ġdin": 3624,
    "Ġvinc": 14084,
    "Ġ184": 16607,
    "Ġcritics": 23443,
    "phants": 9319,
    "Ġinve": 17928,
    "Ġperseus": 10603,
    "Ġpause": 5707,
    "shipmates": 11926,
    "Ġmot": 2984,
    "Ġfresher": 23209,
    "Ġassaults": 15155,
    "Ġfarewell": 9519,
    "Ġjoyfully": 19344,
    "ul": 371,
    "sight": 5994,
    "gar": 5615,
    "Ġunqualified": 22056,
    "Ġregain": 22576,
    "cav": 17507,
    "wol": 21121,
    "highest": 20406,
    "Ġattempt": 3485,
    "Ġrecklessness": 24745,
    "showing": 22460,
    "Ġinsince": 23674,
    "Ġhaunts": 18198,
    "still": 4217,
    "bering": 18680,
    "return": 5489,
    "Ġcarpent": 4464,
    "Ġcracking": 14572,
    "vedale": 22707,
    "Ġdecreed": 18484,
    "Ġchoosing": 19589,
    "Ġrefined": 18693,
    "Ġresc": 4505,
    "Ġmultiple": 1186,
    "Ġma": 3249,
    "Ġplants": 22598,
    "Ġentangled": 10345,
    "Ġclouded": 13289,
    "Ġmurder": 4278,
    "Ġconvention": 25546,
    "laden": 14927,
    "his": 1412,
    "Ġharbors": 24901,
    "Ġplumage": 17297,
    "test": 13791,
    "Ġopposite": 5119,
    "verdict": 21726,
    "Ġtimid": 6345,
    "oke": 1860,
    "asets": 2311,
    "Ġleagues": 9223,
    "disgu": 19153,
    "Ġfeared": 5930,
    "iny": 4291,
    "Ġstyled": 24671,
    "court": 7512,
    "Ġendeavours": 8617,
    "Ġsires": 21225,
    "ah": 1833,
    "sure": 5522,
    "Ġbravery": 23834,
    "msgate": 18412,
    "Ġ17": 5740,
    "burst": 10537,
    "Ġopp": 2695,
    "Ġschoolmaster": 16862,
    "Ġentreat": 4508,
    "Ġignoble": 19397,
    "Ġalow": 18099,
    "Ġsnuffing": 25012,
    "Ġpractical": 3160,
    "Ġchimneys": 16972,
    "ern": 760,
    "Ġdeposed": 16078,
    "off": 1887,
    "Ġstared": 8454,
    "ulsive": 10233,
    "Ġneglecting": 25007,
    "Ġmeryton": 4435,
    "fee": 12876,
    "hid": 13733,
    "gives": 15356,
    "Ġarchitectures": 2910,
    "aution": 9386,
    "ensity": 11811,
    "skylight": 25623,
    "Ġsincerity": 13677,
    "importance": 9988,
    "miserably": 24210,
    "othic": 16214,
    "Ġ34": 16677,
    "Ġreminding": 19796,
    "Ġyears": 1893,
    "nue": 15396,
    "Ġliar": 22400,
    "accepting": 20134,
    "Ġaug": 6234,
    "Ġcharger": 19004,
    "Ġdesignated": 19520,
    "Ġnonsensical": 21526,
    "Ġacquisition": 18898,
    "Ġfootman": 8287,
    "whom": 8184,
    "Ġamb": 9291,
    "Ġ109": 24416,
    "Ġnlp": 3059,
    "Ġcareless": 11118,
    "Ġgreek": 10630,
    "Ġinteraction": 7425,
    "infer": 10144,
    "Ġlurch": 21552,
    "Ġflannel": 26577,
    "redit": 3878,
    "Ġfinds": 6299,
    "Ġfeeding": 7971,
    "Ġwatched": 6297,
    "encountered": 20391,
    "Ġreserves": 19669,
    "Ġbustle": 17227,
    "Ġumbrell": 13649,
    "Ġgrizz": 10351,
    "Ġreaders": 18914,
    "inf": 6232,
    "Ġdetect": 1222,
    "promontory": 24728,
    "Ġthieves": 15633,
    "theast": 21745,
    "Ġloaf": 15870,
    "etimes": 1988,
    "Ġabaft": 22271,
    "Ġbegin": 3096,
    "Ġwonders": 7501,
    "Ġdreaded": 8288,
    "Ġunivers": 2127,
    "darcy": 5208,
    "Ġeuroclydon": 15295,
    "whims": 22236,
    "spoken": 11859,
    "Ġliving": 3060,
    "Ġpirate": 14996,
    "Ġbiting": 17861,
    "Ġwatery": 6296,
    "Ġallev": 18100,
    "Ġadmirable": 8268,
    "Ġpersuasions": 16631,
    "orated": 12588,
    "Ġmuster": 16120,
    "Ġelectric": 15193,
    "Ġcoefficient": 2884,
    "Ġmurmuring": 23577,
    "Ġguise": 14431,
    "ologically": 22857,
    "Ġextra": 4058,
    "extinguished": 16148,
    "diss": 17523,
    "liking": 22921,
    "Ġclosely": 6487,
    "Ġpool": 5172,
    "trip": 21090,
    "pervading": 18959,
    "Ġresentment": 7531,
    "reporting": 24494,
    "Ġexposes": 22621,
    "Ġmatrix": 1607,
    "Ġtroublesome": 23999,
    "macy": 18802,
    "Ġadvanced": 1437,
    "ser": 1427,
    "mel": 9127,
    "Ġparagra": 15877,
    "elaborate": 21573,
    "Ġpouring": 12621,
    "Ġcouldn": 7649,
    "icacy": 15655,
    "Ġtransportation": 13641,
    "Ġpossessions": 23821,
    "passed": 8025,
    "Ġcheck": 7272,
    "Ġphaet": 16318,
    "Ġalps": 10870,
    "meas": 7435,
    "Ġheadache": 22897,
    "forster": 16164,
    "Ġwoody": 23516,
    "Ġfailed": 6671,
    "Ġnantucketers": 9893,
    "Ġlimits": 3452,
    "Ġslanting": 23169,
    "Ġmanufactured": 22327,
    "iantly": 13738,
    "figures": 20120,
    "Ġenrolled": 21934,
    "Ġkeys": 11995,
    "Ġoverwhelming": 17102,
    "Ġmiddle": 4139,
    "ĠĠĠĠĠĠĠĠĠĠĠĠĠĠĠĠĠĠĠĠĠĠĠĠĠĠĠĠĠĠĠĠĠ": 12041,
    "Ġfamiliar": 5511,
    "Ġland": 1998,
    "endurable": 22225,
    "year": 11095,
    "Ġmeta": 3798,
    "Ġbefell": 14009,
    "Ġfamous": 5255,
    "guarded": 13293,
    "Ġendeavour": 4675,
    "seek": 8836,
    "Ġunaccountably": 26515,
    "Ġremnants": 22790,
    "Ġsolve": 4195,
    "hen": 3515,
    "civilities": 24971,
    "een": 725,
    "Ġof": 298,
    "oky": 8197,
    "Ġingen": 9049,
    "Ġcelestial": 10066,
    "auley": 22620,
    "Ġvoids": 25807,
    "Ġbeaut": 2395,
    "Ġevangelical": 25506,
    "Ġchecked": 9375,
    "ocr": 10467,
    "Ġankles": 17899,
    "Ġoutline": 15952,
    "dawson": 26128,
    "Ġgore": 17988,
    "elling": 5830,
    "Ġcle": 1508,
    "Ġunhing": 18241,
    "congenial": 25399,
    "Ġslept": 8258,
    "unvarying": 21884,
    "Ġtorture": 9064,
    "Ġsecure": 4910,
    "================================": 5671,
    "lovely": 16044,
    "Ġsquaw": 22836,
    "Ġdiabol": 11453,
    "Ġencoura": 1367,
    "Ġliable": 14228,
    "Ġenlar": 15798,
    "Ġtrotting": 19974,
    "Ġhaz": 12752,
    "Ġcontriv": 9281,
    "buncle": 13691,
    "Ġrue": 11865,
    "Ġluxury": 20130,
    "ged": 1509,
    "bouton": 17501,
    "lydon": 13988,
    "Ġ1828": 25720,
    "ience": 825,
    "Ġlog": 1676,
    "discovering": 24251,
    "prejudiced": 17296,
    "wretch": 17708,
    "Ġdrunken": 12048,
    "Ġwitt": 17783,
    "damn": 20022,
    "sequence": 2856,
    "Ġaddition": 1144,
    "prepar": 22449,
    "ques": 2840,
    "Ġreeds": 15693,
    "itarian": 21335,
    "Ġfolks": 14425,
    "Ġrefuse": 5739,
    "Ġsheep": 10926,
    "Ġphilipp": 23882,
    "Ġgallant": 8654,
    "plete": 10919,
    "Ġsouth": 4909,
    "foremost": 14252,
    "Ġdeer": 12717,
    "Ġunseen": 3521,
    "Ġterrier": 23397,
    "Ġmatters": 4971,
    "Ġkl": 2735,
    "Ġporpoise": 7106,
    "Ġoperate": 19115,
    "throughout": 24086,
    "Ġpolice": 4672,
    "Ġprecaution": 11197,
    "Ġmood": 6276,
    "speckled": 23942,
    "Ġbuilded": 24719,
    "nearly": 8680,
    "bon": 13683,
    "battering": 20785,
    "Ġbert": 4580,
    "Ġquohog": 10972,
    "apering": 8040,
    "00": 1611,
    "Ġsomewhat": 4895,
    "Ġcanoe": 9722,
    "mm": 673,
    "Ġmixture": 9562,
    "onomy": 12544,
    "Ġelab": 22639,
    "Ġregression": 4407,
    "Ġaxe": 15061,
    "Ġpardon": 5727,
    "venerable": 26408,
    "Ġclothing": 18423,
    "perse": 15898,
    "Ġsorrows": 13353,
    "va": 4741,
    "Ġdownwards": 8529,
    "gue": 12465,
    "Ġchilian": 25563,
    "desolation": 20448,
    "venth": 9294,
    "imet": 21703,
    "Ġrifts": 21975,
    "meet": 11854,
    "Ġtou": 15465,
    "Ġjoosy": 23630,
    "stands": 22432,
    "Ġpartiality": 9397,
    "mystic": 25316,
    "Ġstars": 6149,
    "Ġevenings": 18753,
    "Ġdejected": 20303,
    "Ġext": 901,
    "Ġoverflow": 10292,
    "toes": 22561,
    "imental": 16531,
    "Ġdependencies": 2315,
    "scale": 3533,
    "tailed": 17685,
    "Ġgets": 10839,
    "Ġ91": 24589,
    "Ġunfortunate": 5376,
    "cost": 19185,
    "reputable": 15516,
    "inferiors": 25346,
    "esy": 9182,
    "Ġribbons": 24329,
    "offers": 16393,
    "Ġiceberg": 14714,
    "Ġhor": 1661,
    "why": 2826,
    "ince": 4336,
    "Ġfondness": 16780,
    "Ġwar": 5526,
    "Ġidiot": 11970,
    "`": 68,
    "Ġandrew": 21504,
    "Ġreminisc": 18725,
    "Ġextrem": 2476,
    "Ġdisaster": 12884,
    "downstairs": 23917,
    "Ġfamily": 1966,
    "ief": 2047,
    "dr": 6221,
    "Ġsneeze": 24699,
    "antingly": 22095,
    "arth": 4440,
    "stating": 21638,
    "mistaken": 12208,
    "suspicions": 25391,
    "iates": 13736,
    "atum": 21258,
    "Ġmexico": 15279,
    "princ": 8620,
    "Ġhonors": 23599,
    "Ġelopement": 10329,
    "hero": 21203,
    "Ġgamb": 17997,
    "fem": 17537,
    "Ġfunction": 589,
    "Ġtearless": 24786,
    "Ġabominably": 20064,
    "za": 13809,
    "Ġcumul": 4178,
    "desire": 14474,
    "Ġthousandth": 23679,
    "ulgences": 21862,
    "armed": 7253,
    "band": 3056,
    "ruct": 681,
    "Ġcontinued": 2924,
    "Ġresolve": 13169,
    "Ġinequalities": 26453,
    "fitting": 1507,
    "Ġpractises": 23362,
    "ì": 173,
    "precious": 12070,
    "Ġwand": 4338,
    "Ġdan": 8792,
    "Ġtone": 4042,
    "Ġbleached": 24396,
    "hood": 2657,
    "Ġintruding": 21988,
    "Ġaugust": 10597,
    "carpenter": 11427,
    "Ġfitted": 6243,
    "Ġannoyance": 20661,
    "Ġpaling": 21460,
    "Ġtwisting": 18658,
    "Ġsequential": 2133,
    "clair": 18932,
    "oblig": 16289,
    "onom": 9158,
    "iarity": 8743,
    "uneasy": 23681,
    "Ġharriet": 24572,
    "Ġdisgust": 6705,
    "fury": 17547,
    "remem": 13064,
    "Ġrhine": 12354,
    "Ġjenny": 20161,
    "ediction": 17944,
    "Ġpeaked": 2297,
    "Ġaccord": 4027,
    "Ġcircumst": 2974,
    "Ġcraw": 7283,
    "Ġfearfulness": 23510,
    "Ġdisturbing": 19944,
    "Ġwr": 1541,
    "lord": 3866,
    "poison": 14391,
    "Ġcommonplace": 11096,
    "Ġpondering": 17005,
    "Ġsynd": 22201,
    "Ġtables": 9877,
    "Ġgate": 6825,
    "Ġfreely": 7056,
    "Ġhurling": 19110,
    "Ġin": 291,
    "âĢĺ": 941,
    "analy": 17838,
    "Ġtoll": 7851,
    "Ġcaravan": 26290,
    "kov": 17586,
    "Ġcordial": 16835,
    "Ġrather": 1494,
    "ret": 1476,
    "Ġrevolved": 9983,
    "Ġluggage": 25957,
    "Ġenglishman": 11229,
    "embraces": 25803,
    "Ġbec": 1348,
    "Ġprized": 23219,
    "iosity": 2392,
    "Ġpositively": 13028,
    "Ġpangs": 15612,
    "fleet": 15013,
    "Ġheeded": 13402,
    "Ġtweezers": 26556,
    "pot": 10117,
    "Ġdecidedly": 9508,
    "Ġanimal": 2499,
    "Ġbarque": 23788,
    "Ġexcellent": 4236,
    "zen": 5139,
    "Ġbeatrix": 24204,
    "mir": 20962,
    "adam": 15727,
    "bohemia": 20730,
    "hump": 12475,
    "Ġextracted": 16317,
    "ersman": 11700,
    "Ġskylarking": 19485,
    "Ġtrample": 20326,
    "sailor": 14713,
    "Ġsafe": 5102,
    "Ġfleshy": 24614,
    "af": 2376,
    "inable": 11555,
    "Ġinstruct": 2864,
    "self": 616,
    "Ġbehav": 3538,
    "Ġunspeak": 8850,
    "Ġblanched": 26282,
    "Ġlogger": 11952,
    "Ġtoy": 15631,
    "Ġvind": 10249,
    "Ġjoys": 13218,
    "difficulty": 12388,
    "biqu": 17497,
    "Ġembodied": 25847,
    "Ġleads": 12094,
    "Ġowes": 20083,
    "hounds": 20906,
    "Ġdiscrimination": 23603,
    "Ġforeman": 23446,
    "Ġsoapstone": 20509,
    "hog": 8379,
    "playful": 24357,
    "Ġcap": 2362,
    "Ġsayest": 22770,
    "Ġsoftly": 7947,
    "ã": 164,
    "hibited": 17426,
    "ishes": 6522,
    "Ġimpressed": 8198,
    "Ġmarines": 16259,
    "Ġconfines": 23301,
    "Ġstables": 23653,
    "fif": 9116,
    "Ġportions": 19367,
    "Ġbeing": 1162,
    "Ġright": 1503,
    "rium": 3129,
    "Ġmagnetic": 17240,
    "Ġmutual": 8296,
    "Ġhappy": 2466,
    "fare": 7798,
    "Ġensu": 7874,
    "Ġstreatham": 17448,
    "Ġsaturn": 22899,
    "ouement": 21446,
    "Ġdante": 21436,
    "Ġunworthy": 11713,
    "Ġstrikes": 13182,
    "Ġgloomy": 7505,
    "Ġembraced": 10005,
    "Ġdecisive": 18485,
    "mean": 6437,
    "Ġwriggling": 15256,
    "Ġbewildered": 15212,
    "Ġcrowned": 16841,
    "Ã¦st": 24175,
    "Ġbelongs": 8014,
    "Ġfaint": 5811,
    "Ġwo": 3649,
    "Ġindication": 22949,
    "Ġwomen": 4748,
    "idity": 8830,
    "contracting": 19293,
    "Ġdistributed": 18661,
    "infall": 21187,
    "Ġgunw": 6212,
    "Ġaggreg": 12881,
    "eping": 5833,
    "Ġjav": 7901,
    "Ġconcentration": 25062,
    "awing": 18915,
    "Ġjoll": 11763,
    "Ġtesting": 23184,
    "Ġpitch": 5767,
    "Ġtainted": 21169,
    "taught": 17684,
    "Ġstraighten": 24002,
    "worship": 19385,
    "Ġhourly": 23297,
    "agger": 7871,
    "Ġjust": 1238,
    "situation": 11437,
    "Ġsweeter": 23915,
    "establishment": 26113,
    "Ġcrumpled": 16442,
    "Ġadmirably": 16480,
    "less": 926,
    "spread": 8388,
    "Ġunfathomable": 20547,
    "ler": 3489,
    "Ġ127": 24472,
    "Ġcharity": 8862,
    "Ġslew": 23381,
    "Ġmainland": 22646,
    "Ġowned": 11874,
    "Ġmanhood": 22323,
    "Ġache": 18663,
    "Ġunprepared": 22045,
    "vul": 15447,
    "ckery": 22087,
    "Ġsolicit": 22885,
    "Ġop": 2601,
    "Ġslavish": 23170,
    "Ġdiffers": 23779,
    "Ġexercising": 19906,
    "ologist": 22856,
    "Ġbor": 5804,
    "Ġinexhaustible": 16981,
    "Ġpant": 10817,
    "Ġsecondly": 14518,
    "Ġnone": 3218,
    "Ġpractices": 19084,
    "Ġeyed": 12664,
    "ispensable": 9095,
    "Ġdecent": 10978,
    "Ġactions": 6278,
    "bennet": 5352,
    "phere": 21018,
    "Ġver": 3391,
    "Ġobserving": 6080,
    "ward": 705,
    "Ġgrievous": 13259,
    "sufficient": 6635,
    "Ġsmiles": 6706,
    "Ġshipmates": 6720,
    "Ġrequiring": 2923,
    "Ġconsult": 6056,
    "overcome": 19048,
    "total": 17250,
    "Ġbowsman": 11255,
    "Ġfoundations": 11073,
    "Ġarrangement": 2655,
    "Ġblessed": 6931,
    "hamed": 6305,
    "Ġtrough": 15967,
    "knife": 6942,
    "suited": 22631,
    "uerus": 26406,
    "Ġnourishment": 15191,
    "Ġevenness": 22831,
    "Ġwilled": 21290,
    "Ġhighly": 4842,
    "athom": 12937,
    "staff": 21647,
    "traced": 19636,
    "Ġpatroness": 13509,
    "Ġpassionate": 11273,
    "vable": 10132,
    "finger": 10093,
    "rogress": 21533,
    "uttle": 6247,
    "ulance": 15764,
    "Ġbon": 8785,
    "Ġmorocco": 26573,
    "Ġsocially": 22084,
    "Ġbir": 17853,
    "Ġdeparture": 6489,
    "explaining": 23138,
    "window": 7742,
    "benevol": 12224,
    "valued": 2854,
    "Ġfriday": 14488,
    "Ġcr": 2152,
    "Ġsupreme": 13606,
    "Ġbreathed": 11220,
    "Ġfinancial": 23127,
    "ster": 1952,
    "Ġwarsaw": 26167,
    "Ġled": 3519,
    "fortunate": 4790,
    "spirited": 19752,
    "Ġexhibition": 14955,
    "Ġheiress": 20696,
    "Ġtroubled": 6615,
    "entirely": 7781,
    "machine": 975,
    "gaz": 20877,
    "Ġearning": 23938,
    "visits": 24223,
    "Ġexcitement": 9380,
    "osal": 11757,
    "ssible": 2991,
    "Ġdrink": 4785,
    "Ġfif": 4215,
    "Ġrazor": 22656,
    "ly": 319,
    "Ġdepress": 14045,
    "Ġdemi": 25548,
    "ras": 21035,
    "ided": 2783,
    "Ġcensured": 25094,
    "Ġvir": 7001,
    "imely": 13997,
    "Ġhes": 6250,
    "sters": 6390,
    "Ġsaddest": 16662,
    "Ġotherwise": 4655,
    "Ġadvise": 7933,
    "Ġbored": 16103,
    "Ġrepining": 23356,
    "rained": 5161,
    "Ġimpetuous": 25570,
    "Ġpassionately": 16764,
    "thankful": 16806,
    "Ġromantic": 8030,
    "Ġdism": 9766,
    "Ġpile": 8423,
    "Ġpewter": 17185,
    "Ġclams": 19987,
    "Ġbehalf": 14503,
    "Ġcompliment": 5673,
    "Ġsubur": 12953,
    "Ġimmense": 4950,
    "cannib": 11900,
    "Ġstr": 759,
    "Ġtorpor": 25031,
    "Ġarab": 7823,
    "Ġknees": 6928,
    "Z": 62,
    "Ġhunt": 6183,
    "Ġtidings": 11397,
    "rage": 10843,
    "Ġvirtue": 4920,
    "ladies": 9528,
    "Ġfigures": 8629,
    "courageous": 26127,
    "glances": 23851,
    "widows": 25344,
    "Ġcaval": 25769,
    "arial": 5532,
    "pots": 11513,
    "Ġunconcern": 14116,
    "tained": 4403,
    "omin": 4700,
    "opportunity": 12272,
    "buttoned": 13631,
    "Ġcombination": 22867,
    "Ġjane": 1759,
    "Ġillustrious": 17109,
    "Ġprovides": 1929,
    "iscuit": 10598,
    "ifix": 21900,
    "bourgh": 19103,
    "Ġnormal": 1202,
    "Ġfinery": 23124,
    "wel": 6117,
    "Ġjollity": 25566,
    "Ġeddy": 13122,
    "Ġarrive": 6907,
    "Ġclearly": 6897,
    "Ġhosts": 19937,
    "Ġblessings": 24176,
    "Ġlocked": 6034,
    "Ġdescribes": 3118,
    "affold": 16561,
    "Ġmental": 21318,
    "Ġbloodthirsty": 26601,
    "Ġmari": 6813,
    "Ġ70": 11276,
    "continually": 11302,
    "Ġsumatra": 15285,
    "queer": 10363,
    "Ġkeen": 4611,
    "Ġis": 347,
    "Ġtragedy": 10667,
    "cannibals": 25584,
    "Ġstay": 3092,
    "stupid": 12672,
    "varieties": 23183,
    "Ġterminated": 23507,
    "eed": 20840,
    "Ġru": 949,
    "ded": 2424,
    "Ġnaut": 13940,
    "Ġstride": 22613,
    "ĠâĢľâĢĺ": 8503,
    "I": 45,
    "Ġadequate": 20307,
    "Ġconsistence": 23352,
    "Ġrevolut": 3254,
    "Ġshrouds": 11344,
    "Ġarrival": 4729,
    "Ġadvantageously": 19544,
    "Ġstowing": 18071,
    "Ġwides": 17788,
    "Ġcuriosities": 26289,
    "confined": 24332,
    "Ġcandelabra": 26602,
    "Ġpreyed": 18366,
    "Ġundertaking": 8573,
    "thouse": 21979,
    "Ġtrampled": 20327,
    "Ġmelancholy": 5606,
    "imagine": 19930,
    "problems": 11434,
    "Ġsenseless": 12076,
    "Ġelbow": 12918,
    "Ġthither": 6821,
    "Ġresults": 7309,
    "formation": 22220,
    "Ġalways": 1696,
    "Ġmort": 3458,
    "mingled": 14711,
    "Ġseventy": 7879,
    "iation": 7344,
    "Ġfrankness": 16746,
    "Ġarise": 7895,
    "Ġfeel": 1261,
    "acy": 3956,
    "ssip": 14078,
    "lovel": 22508,
    "cutting": 23782,
    "Ġinsects": 25646,
    "Ġprofits": 16488,
    "Ġthenceforth": 25182,
    "Ġgoverning": 2793,
    "ree": 874,
    "Ġceremony": 8361,
    "etical": 13957,
    "Ġmahogany": 20576,
    "pro": 2051,
    "Ġpresuming": 16793,
    "Ġclim": 8194,
    "Ġhypotheses": 4384,
    "Ġwarp": 8112,
    "Ġbars": 13896,
    "Ġactually": 5389,
    "Ġleadenhall": 16628,
    "shad": 10982,
    "Ġrent": 11638,
    "Ġundoing": 22030,
    "league": 17844,
    "Ġgam": 11623,
    "Ġadmiring": 16479,
    "tomorrow": 25914,
    "Ġaccumul": 1411,
    "Ġbond": 21382,
    "Ġbaked": 21384,
    "Ġtet": 21156,
    "illes": 12691,
    "Ġdevice": 1928,
    "Ġconjured": 25099,
    "Ġcircles": 7966,
    "Ġspell": 8855,
    "atically": 2658,
    "jaw": 13742,
    "arm": 1357,
    "Ġembellished": 25849,
    "igh": 2031,
    "Ġscrewed": 15119,
    "Ġpersisted": 13034,
    "solut": 3361,
    "Ġlook": 879,
    "diff": 9113,
    "Ġflounders": 23010,
    "esty": 4303,
    "continuing": 24479,
    "Ġvaguely": 17365,
    "Ġexile": 12714,
    "Ġreader": 11932,
    "istol": 6259,
    "Ġrefreshment": 17239,
    "Ġpie": 13914,
    "urious": 21700,
    "Ġcrav": 19172,
    "trampled": 26333,
    "Ġsearched": 15817,
    "philosop": 9567,
    "danced": 20827,
    "Ġwoods": 5406,
    "Ġwor": 1188,
    "clinging": 20821,
    "Ġselves": 21221,
    "society": 9971,
    "Ġrefres": 14334,
    "Ġnews": 3821,
    "Ġsucceeding": 16761,
    "tuesday": 17690,
    "thin": 14096,
    "Ġnewly": 9337,
    "igation": 5917,
    "itious": 8779,
    "sc": 1259,
    "dee": 11731,
    "bs": 3750,
    "Ġseries": 7060,
    "Ġtruly": 4794,
    "repent": 15512,
    "Ġmockery": 12105,
    "Ġeber": 18003,
    "ounce": 6557,
    "ining": 3215,
    "Ġraise": 6166,
    "Ġevalu": 3236,
    "Ġapprehension": 7113,
    "Ġtatters": 21176,
    "Ġsummit": 7730,
    "ogrand": 26261,
    "wretched": 10741,
    "Ġju": 10286,
    "supposing": 24135,
    "beaut": 8512,
    "_)": 9101,
    "ditch": 17528,
    "swimming": 24258,
    "Ġbeque": 18080,
    "Ġmuscles": 12086,
    "jumping": 20244,
    "guess": 14759,
    "Ġincline": 18569,
    "osque": 22259,
    "Ġcorroboration": 26053,
    "Ġmerchantmen": 19859,
    "Ġmoluccas": 25629,
    "pig": 8752,
    "Ġkilled": 4953,
    "Ġsnugly": 17111,
    "Ġburied": 7718,
    "Ġcategories": 4476,
    "cripp": 20818,
    "Ġbounce": 21391,
    "rints": 12500,
    "Ġimprinted": 22388,
    "Ġcharacteristically": 23686,
    "Ġhatherley": 7848,
    "Ġgregarious": 18964,
    "Ġabhor": 5467,
    "ver": 331,
    "Ġcognitive": 13633,
    "Ġbadly": 12129,
    "audible": 17132,
    "Ġchap": 5933,
    "Ġlac": 17964,
    "Ġmantel": 11439,
    "Ġexceeded": 14432,
    "Ġcalves": 13032,
    "Ġlives": 4823,
    "utored": 15660,
    "Ä": 133,
    "Ġbelie": 14405,
    "angled": 6844,
    "Ġarising": 10933,
    "Ġtit": 8398,
    "Ġlegit": 16472,
    "Ġtort": 5901,
    "Ġinvesting": 19645,
    "ampton": 18144,
    "ric": 1376,
    "nature": 5359,
    "Ġodious": 12148,
    "ascertaining": 26460,
    "Ġsacrilege": 26228,
    "Ġign": 8294,
    "Ġtangles": 25761,
    "fer": 1748,
    "open": 7025,
    "Ġmeals": 12708,
    "Ġhogshead": 26367,
    "Ġcongreg": 8462,
    "irksome": 18170,
    "Ġmottled": 20677,
    "riety": 12740,
    "Ġslighter": 18939,
    "Ġledger": 19400,
    "tornadoes": 26153,
    "Ġmetallic": 19089,
    "glance": 16587,
    "largely": 19573,
    "Ġvibrated": 25045,
    "Ġantique": 19550,
    "Ġballs": 9014,
    "Ġcanaan": 22161,
    "Ġtasted": 12526,
    "Ġcuring": 21342,
    "Ġindisposed": 26287,
    "preference": 22450,
    "derness": 11735,
    "Ġlanc": 19763,
    "ob": 1420,
    "Ġgathers": 24743,
    "Ġcister": 13881,
    "began": 6425,
    "Ġsail": 1673,
    "attest": 23118,
    "unaccountable": 15776,
    "Ġvaried": 11846,
    "Ġdigest": 24647,
    "Ġgrated": 22801,
    "disguise": 26306,
    "orney": 17873,
    "hee": 10760,
    "belt": 24034,
    "Ġbl": 1189,
    "Ġbronze": 22862,
    "destro": 13308,
    "ially": 9246,
    "Ġsimultaneously": 4308,
    "Ġevaporate": 26332,
    "geor": 15976,
    "four": 6113,
    "abern": 21786,
    "Ġattend": 5033,
    "Ġfore": 2153,
    "¹": 122,
    "related": 24011,
    "Ġcurling": 9346,
    "Ġprecisely": 6465,
    "Ġsometimes": 2167,
    "Ġindign": 6173,
    "Ġcakes": 13883,
    "ĠâĢľâĢĻ": 22251,
    "_âĢĶâĢĻâĢĿ": 25741,
    "Ġmonths": 3454,
    "bery": 9786,
    "ropes": 7902,
    "union": 15767,
    "iday": 8829,
    "Ġinquiring": 8999,
    "Ġtrunk": 7206,
    "Ġissu": 6253,
    "fishery": 10031,
    "cent": 8072,
    "import": 5668,
    "Ġsmaller": 1884,
    "Ġliveliest": 24775,
    "Ġconnectivity": 3665,
    "Ġunreason": 15840,
    "acles": 8519,
    "assertion": 22308,
    "Ġmulti": 1042,
    "Ġrepositories": 23360,
    "Ġdestroying": 14727,
    "Ġsavann": 14683,
    "coronet": 16863,
    "Ġdaylight": 10350,
    "Ġthr": 5709,
    "Ġassign": 11109,
    "ĠdÃ¦mon": 7844,
    "Ġhotels": 19535,
    "Ġreckon": 19869,
    "Ġyell": 21774,
    "Ġcauses": 2560,
    "innocence": 15182,
    "thirds": 25046,
    "dropped": 12260,
    "into": 3679,
    "drew": 7335,
    "Ġwalrus": 14971,
    "igators": 18044,
    "pred": 2800,
    "Ġperforming": 7927,
    "attended": 8952,
    "ograph": 4795,
    "Ġsustain": 10016,
    "Ġsupplied": 8943,
    "enesis": 24388,
    "nial": 20983,
    "ials": 11704,
    "Ġselection": 18204,
    "Ġrect": 18025,
    "hatches": 19927,
    "barrels": 15041,
    "Ġsucc": 12781,
    "Ġhorrify": 23815,
    "Ġdeserts": 10507,
    "Ġinvented": 17037,
    "Ġsuffusing": 23028,
    "creation": 14804,
    "gra": 768,
    "Ġaqu": 17742,
    "presents": 18797,
    "uniform": 18157,
    "painful": 13501,
    "search": 8464,
    "Ġglued": 20587,
    "Ġtrifled": 24674,
    "Ġabundance": 17155,
    "Ġslippery": 12164,
    "otes": 15741,
    "ma": 1149,
    "Ġimplicate": 24876,
    "Ġscope": 15941,
    "seeing": 7078,
    "aration": 12604,
    "Ġharpooneers": 4730,
    "Ġunintellig": 22021,
    "Ġboats": 2635,
    "aws": 8236,
    "dw": 3330,
    "appears": 12058,
    "isc": 6239,
    "Ġfals": 15578,
    "ious": 769,
    "Ġsecondary": 23332,
    "Ġanecd": 20153,
    "Ġarrogance": 26231,
    "Ġstrongly": 5657,
    "Ġproposals": 10613,
    "mess": 13752,
    "Ġstatement": 5254,
    "nelson": 25620,
    "thoroughly": 26508,
    "hoist": 23711,
    "ingolstadt": 21302,
    "Ġbehind": 2805,
    "treasures": 26152,
    "sin": 21047,
    "Ġlivery": 15995,
    "Ġplacid": 11824,
    "Ġnorms": 3664,
    "Ġrotterdam": 25475,
    "Ġcompan": 2173,
    "Ġpol": 2575,
    "Ġknocked": 9499,
    "Ġsweetest": 13245,
    "Ġcollapsed": 15080,
    "Ġstraightway": 9016,
    "wow": 21120,
    "Ġshamefully": 24716,
    "Ġbare": 6132,
    "approbation": 11458,
    "Ġcolony": 18765,
    "Ġimprec": 14219,
    "ower": 1054,
    "Ġintend": 12761,
    "Ġcourtiers": 24137,
    "Ġunfeeling": 14118,
    "fier": 9593,
    "Ġglistening": 12363,
    "ouses": 5162,
    "Ġwash": 9702,
    "Ġlit": 6246,
    "ads": 5718,
    "for": 967,
    "Ġindiscreet": 22953,
    "Ġheel": 9683,
    "unts": 12728,
    "Ġemper": 9860,
    "Ġfretfully": 25447,
    "ual": 946,
    "Ġsurface": 5118,
    "âĢĶ": 517,
    "Ġsemi": 11967,
    "Ġspouter": 12795,
    "Ġsod": 11561,
    "Ġescape": 2645,
    "Ġvia": 2382,
    "elephant": 12349,
    "posted": 24635,
    "Ġlirra": 21557,
    "dar": 20823,
    "Ġglittering": 10052,
    "Ġunspeakably": 25172,
    "roads": 17957,
    "Ġdirection": 1792,
    "Ġintelligences": 12827,
    "strikes": 24670,
    "tons": 7560,
    "abled": 12791,
    "security": 26206,
    "unwholesome": 26497,
    "Ġfollows": 7673,
    "beating": 22486,
    "Ġflapped": 23008,
    "Ġdaft": 19662,
    "Ġass": 1502,
    "Ġshorter": 4497,
    "pron": 9005,
    "rmsprop": 4520,
    "Ġcontrari": 23345,
    "exper": 8878,
    "Ġapologies": 25196,
    "Ġsoldier": 16920,
    "ĠĠĠĠĠĠ": 6413,
    "Ġmalay": 24391,
    "Ġeffaced": 18516,
    "Ġworker": 23015,
    "osure": 5306,
    "Ġrucastles": 18721,
    "Ġamid": 4957,
    "arrange": 23764,
    "ourselves": 9010,
    "Ġspeaker": 19148,
    "Ġrelig": 8550,
    "Ġarmed": 9259,
    "Ġwish": 2099,
    "returns": 23134,
    "outward": 22157,
    "Ġoverbearing": 12841,
    "Ġsuperglue": 23456,
    "heredit": 21208,
    "ipped": 5790,
    "model": 4716,
    "zetts": 17714,
    "Ġsneezes": 24698,
    "lott": 6650,
    "Ġtrustworthy": 24107,
    "reported": 24493,
    "Ġwhereas": 3856,
    "abular": 4760,
    "nuee": 17429,
    "Ġexulting": 20257,
    "Ġcandour": 14671,
    "Ġsprang": 5062,
    "neat": 22445,
    "Ġthing": 1638,
    "Ġwip": 13852,
    "Ġstatue": 23146,
    "believed": 9932,
    "Ġslo": 15505,
    "uture": 1055,
    "Ġhinted": 6011,
    "Ġcausing": 16356,
    "Ġult": 9074,
    "Ġremonstr": 16159,
    "Ġhenry": 5196,
    "persuade": 13532,
    "Ġwaistcoat": 12268,
    "Ġaxis": 12305,
    "Ġflock": 21409,
    "attacked": 23120,
    "leaving": 10791,
    "Ġdiction": 8794,
    "ocris": 23703,
    "Ġcher": 6129,
    "Ġweig": 7619,
    "Ġengaging": 9335,
    "Ġpermanent": 13630,
    "Ġrespectable": 6736,
    "Ġattorney": 18620,
    "published": 26142,
    "Ġresponded": 13637,
    "Ġmaelstrom": 19354,
    "h": 76,
    "partner": 19220,
    "<EOS>": 2,
    "Ġgild": 15666,
    "Ġcomplete": 4378,
    "pend": 6367,
    "Ġheron": 22070,
    "Ġgilded": 17444,
    "Ġconsider": 2566,
    "standard": 22433,
    "amidst": 25652,
    "minute": 11274,
    "rove": 21530,
    "Ġaffability": 14386,
    "Ġexploded": 15907,
    "boards": 23253,
    "Ġincome": 7916,
    "Ġheighten": 19528,
    "Ġtowering": 16739,
    "Ġdundee": 16997,
    "Ġrobe": 18459,
    "goin": 23401,
    "Ġfireplace": 13144,
    "Ġtattooing": 15027,
    "Ġarguments": 8036,
    "ratches": 20123,
    "Ġruth": 14093,
    "Ġtrouble": 3689,
    "Ġforemast": 12004,
    "letons": 14612,
    "Ġterminating": 23508,
    "Ġlxi": 21558,
    "declare": 25173,
    "Ġsnow": 3706,
    "ocity": 8277,
    "Ġladyship": 5044,
    "Ġquivering": 12855,
    "Ġfru": 8419,
    "Ġoffice": 4963,
    "Ġbe": 336,
    "ieces": 4770,
    "C": 39,
    "Ġpatentee": 25586,
    "Ġ23": 13191,
    "inking": 6709,
    "Ġvirgin": 7329,
    "_;": 6640,
    "Ġtalent": 12295,
    "Ġcruising": 6912,
    "Ġexquisite": 12380,
    "Ġsteepest": 3086,
    "tender": 14473,
    "recked": 17762,
    "Ġreaching": 7304,
    "Ġspecially": 11996,
    "exhibited": 18477,
    "Ġrapidity": 11102,
    "Ġdetails": 6565,
    "Ġche": 1764,
    "9": 29,
    "Ġunknown": 4450,
    "hon": 6793,
    "Ġfishery": 4175,
    "Ġmasterly": 23991,
    "Ġintercourse": 10998,
    "Ġcanted": 17831,
    "exagger": 22425,
    "Ġexclaimed": 4680,
    "Ġjoyous": 14662,
    "Ġderivative": 2999,
    "Ġrover": 18457,
    "Ġmedium": 16681,
    "Ġinquiry": 6483,
    "hereabouts": 23604,
    "ractions": 11632,
    "Ġacceptable": 16744,
    "Ġsymptom": 13482,
    "Ġaddu": 22098,
    "ifer": 11682,
    "Ġsheepfold": 25466,
    "Ġmournfully": 20115,
    "orus": 10801,
    "Ġdoubloon": 6945,
    "Ġyouth": 4259,
    "Ġcarelessly": 11119,
    "Ġenvelopes": 24510,
    "Ġholding": 4977,
    "Ġsimil": 2531,
    "Ġtempestuous": 20069,
    "bbings": 19276,
    "Ġseclusion": 18208,
    "pumps": 21026,
    "Ġemac": 16405,
    "Ġguitar": 16267,
    "Ġmisty": 16539,
    "smallest": 23909,
    "Ġyard": 5920,
    "Ġpaved": 17912,
    "Ġthom": 21513,
    "hitherto": 17283,
    "Ġimmutable": 17357,
    "Ġcourtesy": 9944,
    "Ġtest": 1514,
    "Ġpint": 17909,
    "ri": 390,
    "Ġcompleted": 8997,
    "İ": 241,
    "Ġmonth": 2850,
    "regards": 23465,
    "Ġscre": 9736,
    "Ġthirteen": 15273,
    "Ġlethar": 21743,
    "Ġdistribution": 2019,
    "slouched": 24557,
    "Ġtwelfth": 22675,
    "Ġbecher": 18878,
    "Ġaloud": 6252,
    "Ġhumble": 8551,
    "ification": 1009,
    "Ġjenkinson": 11431,
    "Ġfris": 23254,
    "chanced": 18809,
    "Ġfatt": 15576,
    "Ġstow": 21727,
    "Ġmess": 7831,
    "Ġinasmuch": 10825,
    "Ġpenal": 1774,
    "Ġdrab": 13069,
    "killed": 15375,
    "clay": 18930,
    "Ġlamb": 8812,
    "Ġlodge": 5779,
    "Ġideas": 5494,
    "Ġsorry": 4208,
    "Ġdil": 6382,
    "Ġafore": 10758,
    "Ġassuring": 13061,
    "Ġblasphemer": 26116,
    "Ġpiled": 8424,
    "Ġaddress": 2272,
    "Ġfish": 2709,
    "tete": 10732,
    "Ġroot": 2648,
    "Ġlost": 2633,
    "Ġsymb": 2590,
    "Ġreceived": 2952,
    "uce": 11535,
    "Ġrecently": 11860,
    "urmount": 13995,
    "Ġgun": 4699,
    "Ġgleaming": 24993,
    "ub": 1224,
    "Ġrestoration": 19026,
    "Ġreaped": 18029,
    "captain": 3955,
    "laying": 19771,
    "Ġdismay": 11807,
    "accusations": 23597,
    "ynolds": 10035,
    "opÃ¦": 12870,
    "Ġointment": 21324,
    "Ġlodging": 24093,
    "Ġserpents": 13075,
    "Ġmask": 1867,
    "Ġirresistible": 13111,
    "Ġoriginal": 6102,
    "urre": 10856,
    "grie": 12468,
    "Ġgestures": 13535,
    "Ġmalacca": 24393,
    "Ġsustained": 13481,
    "merry": 16534,
    "acknowledged": 15201,
    "Ġcocoan": 20315,
    "Ġpassions": 7929,
    "Ġuncommon": 5024,
    "unch": 14057,
    "Ġmurderer": 4978,
    "Ġsigmoid": 2463,
    "Ġmed": 3988,
    "Ġhesitate": 16946,
    "rible": 3222,
    "ud": 924,
    "Ġindistinct": 17407,
    "cup": 10690,
    "hope": 5989,
    "Ġincomp": 12894,
    "Ġbetter": 1173,
    "flakes": 23965,
    "atived": 21261,
    "hampshire": 23262,
    "Ġexerc": 6834,
    "fainting": 20471,
    "Ġinspect": 5963,
    "Ġ111": 24436,
    "Ġcharley": 19005,
    "Ġplaus": 22599,
    "Ġindoors": 18835,
    "orns": 12589,
    "accomp": 10455,
    "Ġretain": 7862,
    "Ġfavours": 23279,
    "Ġassailants": 20447,
    "creat": 20799,
    "Ġbelted": 22945,
    ":--âĢľ": 24550,
    "recollection": 25348,
    "Ġner": 1644,
    "Ġvisitor": 5330,
    "Ġcosmopol": 16455,
    "Ġprotruded": 19468,
    "tee": 16168,
    "Ġunimaginable": 15245,
    "ĠĠĠĠĠĠĠĠĠĠĠĠĠĠĠĠĠĠĠĠĠĠĠĠĠĠĠĠĠĠĠĠĠĠĠĠĠĠ": 16524,
    "Ġmasked": 3693,
    "Ġbrad": 8786,
    "sneezes": 11446,
    ":âĢĶ": 4429,
    "Ġharp": 17923,
    "Ġundulated": 19515,
    "Ġveins": 8932,
    "ropout": 1320,
    "Ġsport": 6688,
    "Ġcalmness": 12090,
    "Ġessex": 20125,
    "Ġweaver": 11686,
    "Ġindepend": 3666,
    "ches": 2150,
    "Ġpy": 21449,
    "mons": 17600,
    "vic": 13801,
    "Ġaberde": 22274,
    "iot": 9600,
    "continue": 16861,
    "departed": 24794,
    "Ġfanatic": 23390,
    "Ġasks": 5114,
    "pitch": 13297,
    "half": 4929,
    "earthly": 24724,
    "Ġgle": 7858,
    "riminately": 16482,
    "Ġwharves": 13505,
    "Ġpaste": 23417,
    "combined": 20319,
    "imagination": 13479,
    "irted": 14070,
    "arken": 18667,
    "speech": 10666,
    "Ġbought": 8415,
    "Ġfordham": 21773,
    "Ġhospit": 7515,
    "started": 10845,
    "Ġchristian": 6478,
    "Ġedward": 19119,
    "ering": 1267,
    "Ġbuoyancy": 20040,
    "Ġchallenge": 25471,
    "Ġjustification": 22963,
    "ef": 5133,
    "friendship": 24047,
    "fing": 13712,
    "written": 7994,
    "tri": 11529,
    "Ġlarge": 1067,
    "Ġexplore": 15906,
    "proachable": 23396,
    "Ġfile": 13902,
    "ating": 663,
    "Ġstupid": 7604,
    "Ġpurchased": 12258,
    "Ġcorrob": 16263,
    "Ġnavies": 16900,
    "Ġsung": 23270,
    "salesman": 20670,
    "Ġgazes": 24094,
    "Ġnast": 15636,
    "Ġhired": 10177,
    "Ġtap": 12523,
    "gods": 13365,
    "re": 266,
    "Ġtallest": 15473,
    "Ġdeserted": 8636,
    "Ġfan": 2037,
    "Ġdreading": 23796,
    "oundered": 14164,
    "âĢĶ.âĢĿ": 22252,
    "Ġaltitude": 26202,
    "Ġcarefully": 6304,
    "ourney": 3552,
    "inferior": 12392,
    "traversed": 19638,
    "Ġblundering": 26283,
    "atha": 6572,
    "Ġinsp": 2102,
    "stepfather": 19189,
    "diligence": 26110,
    "acetty": 24464,
    "Ġconsumed": 10349,
    "Ġrefusing": 11024,
    "such": 3080,
    "Ġoakum": 16934,
    "fireside": 24692,
    "infernal": 24662,
    "Ġsocieties": 20181,
    "Ġactual": 3736,
    "Ġheading": 8935,
    "Ġmish": 15535,
    "Ġhind": 9188,
    "Ġcanterbury": 22162,
    "cious": 6643,
    "epilogue": 22100,
    "Ġunhe": 22005,
    "Ġinhale": 20299,
    "secure": 12233,
    "Ġchanging": 11751,
    "ww": 10737,
    "Ġ84": 19708,
    "gal": 15354,
    "Ġhonour": 3923,
    "rages": 15678,
    "Ġadmon": 15866,
    "Ġthistle": 21913,
    "iations": 11494,
    "Ġbeadle": 26484,
    "Ġconcise": 23317,
    "Ġtopmost": 14585,
    "prit": 19340,
    "Ġfetched": 24567,
    "madly": 24420,
    "Ġaccent": 10293,
    "Ġcos": 2207,
    "bro": 4037,
    "Ġentertain": 6053,
    "Ġdepressions": 25798,
    "ĠlinnÃ¦us": 15274,
    "ittingly": 18803,
    "Ġremo": 3785,
    "arrival": 15597,
    "Ġsubproblems": 12954,
    "Ġconcluding": 9856,
    "Ġhellish": 10550,
    "urpation": 16299,
    "Ġsuited": 12782,
    "Ġunsocial": 18256,
    "shortened": 24748,
    "Ġsort": 1505,
    "Ġinsip": 19267,
    "aments": 12722,
    "Ġcustoms": 19651,
    "Ġlucas": 3834,
    "Ġpoint": 2057,
    "Ġresembling": 4099,
    "Ġaffinity": 18787,
    "Ġinflu": 4907,
    "Ġexceptional": 19369,
    "inno": 10756,
    "links": 20957,
    "Ġarabic": 24978,
    "Ġexord": 21825,
    "Ġmoderate": 10938,
    "alty": 17938,
    "Ġmastery": 23990,
    "Ġyoked": 15732,
    "Ġrespect": 1668,
    "Ġnewspapers": 17186,
    "strange": 6086,
    "iring": 1707,
    "rified": 15418,
    "wish": 8099,
    "Ġincorporate": 20453,
    "Ġpraise": 6485,
    "Ġpeddler": 24800,
    "Ġdrily": 23536,
    "Ġshelves": 14998,
    "Ġinfrequent": 3826,
    "Ġapr": 12529,
    "clothed": 19737,
    "Ġendeavoured": 4916,
    "Ġtalks": 23368,
    "Ġkne": 4264,
    "Ġvide": 10250,
    "Ġafar": 14293,
    "Ġportrait": 10661,
    "Ġ77": 24263,
    "remain": 9837,
    "Ġintermission": 18587,
    "Ġmarlings": 23033,
    "fourth": 11328,
    "uplifted": 17695,
    "Ġhospital": 15039,
    "verty": 8452,
    "Ġfare": 5809,
    "Ġblush": 14400,
    "equ": 6790,
    "feather": 16041,
    "Ġbus": 1904,
    "Ġimaginary": 11186,
    "Ġlavater": 20494,
    "while": 2936,
    "meanwhile": 10609,
    "when": 1592,
    "shows": 22455,
    "Ġdownright": 16116,
    "Ġsnatched": 10471,
    "Ġdisgraceful": 15019,
    "Ġconstit": 8583,
    "Ġelements": 2666,
    "Ġundu": 15835,
    "prison": 14661,
    "Ġobstinate": 11336,
    "Ġtil": 12521,
    "ency": 3870,
    "Ġunst": 18238,
    "Ġcanada": 22160,
    "¤": 102,
    "ositories": 22261,
    "away": 4623,
    "borean": 25743,
    "Ġjunior": 15098,
    "ateg": 1350,
    "Ġpert": 22392,
    "Ġoaks": 16933,
    "Ġwonderland": 23423,
    "Ġfade": 21405,
    "fering": 17542,
    "Ġwork": 1284,
    "Ġascended": 8665,
    "Ġaver": 1286,
    "ater": 3367,
    "Ġadaptation": 3152,
    "allow": 5103,
    "Ġsobbed": 14137,
    "Ġdiver": 2530,
    "Ġcomes": 3421,
    "Ġsharply": 9402,
    "Ġxliv": 23407,
    "ex": 624,
    "cuniary": 26379,
    "Ġlayer": 1010,
    "iciency": 9574,
    "Ġcas": 8410,
    "Ġwords": 1324,
    "Ġfeature": 749,
    "solid": 16374,
    "Ġanticipating": 17058,
    "Ġadvocate": 13675,
    "Ġrector": 21673,
    "ruin": 22173,
    "Ġcedars": 20291,
    "superstitious": 17280,
    "insulting": 26055,
    "sis": 1841,
    "iards": 17574,
    "Ġnugent": 26457,
    "Ġcapricious": 20537,
    "Ġresentful": 24631,
    "Ġmalicious": 10557,
    "Ġcontinually": 5040,
    "Ġprincipally": 11309,
    "indifferent": 14208,
    "ourers": 21447,
    "squee": 15429,
    "Ġblending": 14398,
    "Ġconspicuous": 13602,
    "Ġadvancement": 24475,
    "Ġcomment": 9232,
    "Ġscale": 1547,
    "Ġfleet": 9431,
    "Ġmarched": 18871,
    "grandfather": 25009,
    "Ġlambton": 10657,
    "Ġscalding": 16313,
    "Ġintrepidity": 25550,
    "Ġjove": 9267,
    "march": 13754,
    "_âĢĶ": 11467,
    "Ġduplicates": 17216,
    "nui": 20999,
    "Ġbegging": 11079,
    "treas": 17679,
    "retreat": 23133,
    "obtained": 23092,
    "turkish": 24533,
    "Ġkills": 15904,
    "steady": 14707,
    "Ġstepdaughter": 22610,
    "Ġalas": 5921,
    "Ġboscombe": 8325,
    "Ġk": 484,
    "bber": 4566,
    "visited": 13346,
    "eminent": 25104,
    "Ġshining": 8171,
    "Ġset": 1175,
    "Ġrelentless": 26277,
    "itud": 2932,
    "Ġtamer": 24976,
    "on": 267,
    "uer": 21099,
    "Ġsiamese": 20481,
    "Ġselects": 4383,
    "Ġsighed": 10337,
    "Ġcoils": 9302,
    "nails": 17614,
    "arcy": 1274,
    "Ġnormalization": 1241,
    "Ġnug": 21522,
    "pemberley": 9620,
    "umb": 3477,
    "shining": 18495,
    "Ġstole": 7952,
    "Ġeh": 6987,
    "worshipping": 16610,
    "whiteness": 18370,
    "Ġdemands": 19642,
    "rons": 21038,
    "shed": 8094,
    "fortune": 4973,
    "Ġstupendous": 20499,
    "Ġquarto": 17295,
    "Ġepsom": 19981,
    "fin": 5209,
    "ó": 180,
    "rew": 3647,
    "ggy": 13112,
    "fears": 18531,
    "sch": 21049,
    "Ġfingertips": 24016,
    "Ġpermission": 9278,
    "attoo": 6807,
    "Ġrough": 7188,
    "Ġjost": 23629,
    "Ġfled": 6670,
    "ĠĠĠĠĠĠĠĠĠĠĠĠĠĠĠĠĠĠĠĠĠĠĠĠĠĠĠĠĠĠĠĠĠĠĠĠĠĠĠĠ": 4515,
    "Ġfiles": 21411,
    "flitted": 23966,
    "fooled": 24419,
    ";--": 8068,
    "Ġallowance": 14388,
    "Ġsummoning": 23872,
    "tese": 21082,
    "Ġexhib": 6349,
    "bermaid": 20789,
    "Ġunperceived": 22032,
    "Ġprospect": 4703,
    "anter": 9166,
    "anything": 5518,
    "outh": 2686,
    "learning": 2807,
    "Ġcommissionaire": 17000,
    "Ġtrampling": 25492,
    "ance": 479,
    "Ġingenuity": 17163,
    "Ġplenty": 6708,
    "pse": 21008,
    "Ġdisastrous": 16058,
    "Ġgulp": 20027,
    "Ġhval": 21485,
    "Ġjud": 3355,
    "acon": 10681,
    "prior": 21031,
    "Ġreferences": 21671,
    "Ġno": 511,
    "Ġverte": 9440,
    "Ġalleviated": 26203,
    "Ġfem": 6134,
    "Ġarticulate": 24432,
    "bec": 4055,
    "Ġwiping": 25765,
    "istence": 2383,
    "regarding": 15070,
    "therefore": 5953,
    "apparent": 11040,
    "surely": 10569,
    "Ġself": 1779,
    "Ġhospitals": 24923,
    "Ġitem": 12698,
    "changed": 7176,
    "undant": 14790,
    "Ġappet": 9730,
    "handsome": 13175,
    "Ġshrivelled": 19702,
    "Ġentertaining": 16926,
    "Ġallusion": 7626,
    "Ġexplaining": 15958,
    "Ġneck": 4883,
    "folding": 24927,
    "stonecraft": 24356,
    "Ġmak": 10778,
    "Ġtargets": 4203,
    "Ġwere": 558,
    "rights": 23670,
    "Ġstrictly": 12283,
    "Ġslave": 7455,
    "exam": 10976,
    "Ġmoderation": 12815,
    "Ġclearer": 16310,
    "Ġolfactories": 26171,
    "Ġhopeful": 19030,
    "Ġpasture": 14543,
    "Ġedges": 3827,
    "Ġbumpkins": 25281,
    "Ġperceive": 6699,
    "Ġscratch": 25564,
    "arab": 21439,
    "Ġsickening": 19603,
    "earnestly": 17312,
    "Ġpresence": 5029,
    "Ġrash": 10898,
    "loss": 22505,
    "Ġhogshe": 20490,
    "Ġdelicious": 14791,
    "Ġspiced": 22130,
    "Ġdisconsol": 18557,
    "Ġhereford": 22875,
    "Ġreckoned": 24744,
    "Ġslee": 8974,
    "Ġoccasions": 7987,
    "Ġcommencement": 12236,
    "wise": 2572,
    "dare": 12451,
    "Ġsentin": 16368,
    "Ġinjurious": 24270,
    "Ġdoomed": 11342,
    "extensive": 18709,
    "Ġincreas": 1692,
    "Ġloo": 22107,
    "penn": 18826,
    "movement": 25577,
    "herfield": 3629,
    "Ġrepel": 23355,
    "Ġimperfectly": 25727,
    "Ġstatistical": 11104,
    "Ġassiduous": 26292,
    "Ġincorpor": 13164,
    "intercourse": 14637,
    "Ġcandelab": 23846,
    "putable": 10901,
    "Ġmarching": 16699,
    "itates": 13868,
    "inquiries": 13576,
    "Ġmartyr": 26360,
    "dle": 3244,
    "hauteur": 26391,
    "Ġministers": 22830,
    "Ġdifficulties": 11225,
    "Ġfloated": 7289,
    "alid": 13934,
    "Ġhardened": 14449,
    "J": 46,
    "Ġupbraiding": 26226,
    "Ġpip": 1587,
    "Ġimmemorially": 25383,
    "net": 1194,
    "Ġlength": 2501,
    "Ġslight": 3116,
    "east": 9115,
    "john": 11497,
    "rosc": 17954,
    "jected": 22711,
    "Ġbound": 3516,
    "Ġroods": 22403,
    "Ġdetain": 14173,
    "Ġcontemporary": 16010,
    "unwillingly": 21881,
    "Ġmiller": 19882,
    "ppery": 10892,
    "Ġparallelization": 3429,
    "Ġopinions": 9414,
    "proud": 9903,
    "content": 11198,
    "Ġchased": 8861,
    "regularly": 13207,
    "Ġlaying": 7907,
    "Ġrepresented": 8938,
    "ise": 707,
    "ental": 7169,
    "Ġbun": 6006,
    "che": 3167,
    "our": 534,
    "thest": 11653,
    "oro": 21393,
    "lanterns": 17428,
    "orum": 12587,
    "Ġaint": 17744,
    "pad": 13767,
    "Ġcrying": 10786,
    "wester": 21137,
    "Ġamphitheat": 26252,
    "Ġinexpress": 12632,
    "Ġcomp": 723,
    "Ġidleness": 11143,
    "bbs": 23687,
    "Ġvarieties": 14309,
    "Ġch": 514,
    "breckinridge": 24074,
    "Ġtons": 11549,
    "nam": 2874,
    "Ġgrudge": 20692,
    "adamite": 20591,
    "Ġsources": 10147,
    "Ġconjoined": 21803,
    "Ġinevitable": 15166,
    "Ġman": 544,
    "Ģ": 227,
    "Ġevolved": 9890,
    "Ġmass": 3780,
    "encounter": 20390,
    "Ġvineyarder": 25606,
    "Ġcalmed": 16265,
    "Ġaims": 15495,
    "lic": 17587,
    "Ġlevers": 18077,
    "gone": 6503,
    "Ġlivel": 11355,
    "grass": 23411,
    "Ġvideo": 25365,
    "Ġdivide": 12108,
    "increase": 20267,
    "Ġboldly": 9500,
    "Ġenveloped": 12206,
    "methodically": 20663,
    "Ġwaterloo": 11979,
    "Ġbewit": 15725,
    "commission": 22820,
    "Ġmagnus": 18956,
    "precisely": 6917,
    "Ġsundial": 15081,
    "repeat": 25151,
    "Ġprudential": 17919,
    "Ġunwilling": 7885,
    "Ġcheek": 8576,
    "Ġincess": 8430,
    "Ġinvective": 26181,
    "Ġkramm": 26233,
    ",âĢĻâĢĶ": 23524,
    "Ġfasting": 16354,
    "Ġwaits": 23277,
    "bit": 3932,
    "Ġbending": 12582,
    "ĸ": 249,
    "ç": 168,
    "conscientious": 19625,
    "syntax": 5866,
    "feeders": 25235,
    "pair": 21011,
    "Ġstarboard": 7605,
    "Ġ0": 1903,
    "covering": 15333,
    "Ġvi": 1953,
    "opolising": 25676,
    "grasping": 20638,
    "corners": 17367,
    "Ġstroll": 13351,
    "seventy": 10876,
    "darker": 24516,
    "Ġfreshness": 23985,
    "balls": 12303,
    "Ġthoughtless": 16191,
    "Ġprevailed": 7777,
    "Ġelbows": 18634,
    "Ġensl": 19274,
    "actor": 11836,
    "Ġabuse": 18392,
    "once": 5903,
    "Ġdeliberately": 10624,
    "Ġomens": 21326,
    "Ġevidence": 5269,
    "Ġthreatening": 16828,
    "uting": 15657,
    "faint": 17545,
    "à": 161,
    "tout": 21064,
    "founded": 16713,
    "Ġdates": 6693,
    "arers": 12127,
    "clerval": 7950,
    "mannered": 22846,
    "Ġscarcity": 23824,
    "Ġreply": 4513,
    "Ġfilthy": 13246,
    "Ġclout": 22340,
    "Ġpon": 10175,
    "Ġviii": 16411,
    "Ġobtaining": 16130,
    "ink": 757,
    "wrath": 23754,
    "ske": 13781,
    "Ġbedrooms": 19968,
    "Ġconsiderably": 7714,
    "Ġostentatiously": 20467,
    "oided": 11508,
    "Ġfulfilled": 11362,
    "Ġentertainment": 12220,
    "Ġminimizing": 3464,
    "Ġsilly": 7685,
    "Ġpacific": 5152,
    "lean": 21363,
    "Ġpreservative": 24629,
    "actorily": 25576,
    "Ġaspire": 21897,
    "Ġdesigns": 13009,
    "Ġneighbours": 8302,
    "Ġpratt": 23218,
    "Ġpolitely": 8993,
    "Ġtowing": 9193,
    "introduced": 15123,
    "clearly": 25195,
    "Ġinference": 9671,
    "ĠâĢľâĢĺ_": 25111,
    "Ġcoinc": 11001,
    "Ġframework": 1958,
    "wanderer": 25423,
    "Ġascent": 19617,
    "further": 7536,
    "50": 6784,
    "Ġhow": 598,
    "holding": 7738,
    "Ġunspeakable": 10055,
    "Ġformation": 2944,
    "Ġcountess": 11960,
    "verity": 14000,
    "Ġcompose": 12899,
    "Ġblows": 5972,
    "inative": 15482,
    "Ġquito": 24408,
    "Ġdirty": 9178,
    "Ġlawyer": 10668,
    "Ġnapole": 15114,
    "Ġtour": 9147,
    "Ġboon": 22636,
    "Ġfolios": 23017,
    "Ġstaying": 8283,
    "Ġeligible": 10670,
    "steep": 19417,
    "Ġdevotees": 25376,
    "Ġfow": 6133,
    "rough": 588,
    "Ġwax": 10776,
    "past": 8089,
    "Ġunseason": 22047,
    "full": 7421,
    "Ġgloomily": 14799,
    "Ġfronted": 25854,
    "Ġmonsters": 11074,
    "Ġpoor": 1709,
    "Ġpalace": 16690,
    "happening": 16563,
    "geneva": 13729,
    "garious": 17558,
    "Ġhumorousness": 25377,
    "Ġiron": 3230,
    "03": 20747,
    "Ġstup": 14004,
    "Ġpythag": 26448,
    "Ġorange": 8486,
    "bolts": 11420,
    "dimens": 2318,
    "Ġticklish": 25034,
    "condite": 23245,
    "kye": 20937,
    "Ġdomain": 3672,
    "Ġdoubloons": 13433,
    "Ġtell": 1470,
    "Ġtester": 21171,
    "ores": 2415,
    "Ġextreme": 2515,
    "Ġessence": 13404,
    "Ġcompanionship": 14918,
    "rael": 21626,
    "Ġhob": 12626,
    "enderby": 25215,
    "Ġrio": 23889,
    "Ġsh": 419,
    "Ġnomine": 26456,
    "Ġkeel": 6443,
    "romed": 10905,
    "modesty": 22847,
    "Ġembodiment": 20526,
    "dreaded": 25138,
    "keep": 3852,
    "welcome": 10000,
    "Ġdeactivates": 20702,
    "reement": 15510,
    "couldn": 23715,
    "Ġincisive": 18570,
    "Ġattending": 3280,
    "etymology": 14699,
    "Ġmarling": 23031,
    "hor": 2569,
    "Ġfilled": 4392,
    "Ġoptimize": 1700,
    "kind": 3865,
    "sister": 5138,
    "Ġcontrast": 2120,
    "Ġdilig": 8349,
    "Ġklux": 22192,
    "landed": 18954,
    "osc": 18387,
    "Ġslily": 23161,
    "Ġexhaled": 19681,
    "Ġimage": 3400,
    "Ġsober": 10911,
    "Ġwhistled": 24623,
    "crucible": 24842,
    "back": 2017,
    "rabbit": 20589,
    "Ġnodding": 23331,
    "Ġjug": 12832,
    "Ġ118": 19697,
    "Ġstripped": 10464,
    "Ġpeaceful": 9455,
    "pet": 4865,
    "speaks": 19718,
    "tubes": 25211,
    "Ġpure": 6137,
    "cask": 12444,
    "Ġselling": 21223,
    "Ġwrung": 14470,
    "ston": 15679,
    "Ġgrasshopper": 24380,
    "persecutor": 26530,
    "latter": 15381,
    "stained": 21646,
    "Ġinvoluntarily": 8547,
    "Ġstop": 2502,
    "Ġelix": 22641,
    "isely": 4487,
    "Ġforehead": 5261,
    "mary": 8748,
    "Ġire": 12666,
    "joy": 3332,
    "const": 5938,
    "Ġunrecord": 16621,
    "beds": 16586,
    "sails": 7498,
    "Ġscrape": 14916,
    "Ġconcisely": 19042,
    "Ġcommitted": 7432,
    "Ġshoals": 13133,
    "prosperity": 20734,
    "Ġlou": 6822,
    "Ġmodest": 15912,
    "countenance": 6925,
    "Ġsubsisting": 23433,
    "Ġrags": 18646,
    "inating": 9153,
    "Ġstore": 8453,
    "Ġunwinding": 22055,
    "thanked": 24331,
    "cottage": 9569,
    "Ġvainly": 9923,
    "Ġinterruptions": 24186,
    "Ġworried": 22923,
    "oured": 2671,
    "execution": 20470,
    "otions": 7181,
    "Ġlamp": 4115,
    "Ġsunny": 13084,
    "phantoms": 24679,
    "Ġelegance": 11332,
    "irene": 15913,
    "Ġfantastic": 10058,
    "Ġlydia": 2374,
    "Ġsupers": 18279,
    "Ġanalog": 12609,
    "alive": 10827,
    "Ġofficially": 24838,
    "Ġfrancisco": 26064,
    "ding": 1230,
    "Ġconc": 1842,
    "Ġdumb": 7843,
    "Ġswiftness": 9926,
    "Ġcaterpillar": 5864,
    "Ġrepresentations": 1877,
    "room": 2178,
    "Ġfalse": 4340,
    "Ġcruise": 12047,
    "Ġperfection": 19217,
    "...": 24549,
    "ord": 665,
    "Ġplow": 21457,
    "Ġflee": 7079,
    "Ġtastes": 15476,
    "aged": 2605,
    "Ġlane": 5627,
    "Ġcongratulated": 19765,
    "emberley": 4171,
    "Ġalarmed": 6923,
    "Ġdivined": 19441,
    "Ġclimes": 12837,
    "'(": 2978,
    "thern": 4951,
    "Ġattempted": 8000,
    "Ġperformance": 1308,
    "between": 5069,
    "Ġsimilar": 4915,
    "ana": 15556,
    "Ġcharacters": 9371,
    "Ġabed": 22262,
    "Ġpick": 4254,
    "Ġpsal": 15613,
    "Ġreference": 2564,
    "ct": 309,
    "Ġsolemn": 4101,
    "sat": 4808,
    "Ġarithmetic": 18340,
    "Ġmorbid": 16231,
    "Ġrules": 1918,
    "ĠĠĠĠĠĠĠĠĠĠĠĠĠĠĠĠĠĠĠĠĠĠĠĠĠĠĠĠĠĠĠĠĠĠĠĠĠĠĠĠĠĠĠĠ": 12151,
    "Ġgrown": 5628,
    "sets": 17660,
    "Ġfreezing": 23881,
    "boots": 11126,
    ".--": 20745,
    "Ġhar": 5814,
    "direct": 12454,
    "idious": 11661,
    "Ġax": 7822,
    "Ġexamine": 7734,
    "refusal": 24736,
    "Ġrolled": 4427,
    "Ġanatomy": 12318,
    "amed": 4445,
    "Ġaware": 5756,
    "tracks": 19637,
    "Ġbills": 17860,
    "Ġhad": 444,
    "above": 8147,
    "gentleness": 24844,
    "Ġbargain": 23790,
    "abhor": 12704,
    "worm": 15452,
    "Ġorb": 22088,
    "properly": 24918,
    "Ġlaud": 17967,
    "Ġtracks": 18889,
    "certain": 3675,
    "Ġravines": 25831,
    "Ġfewer": 16227,
    "Ġwhale": 627,
    "Ġjump": 4502,
    "Ġchiefly": 5766,
    "effectually": 25128,
    "Ġliterally": 15115,
    "posterity": 25488,
    "tenderly": 20529,
    "Ġjuly": 17236,
    "Ġconquer": 14026,
    "Ġfrivolous": 26176,
    "ishly": 14199,
    "bb": 2798,
    "Ġ73": 24260,
    "Ġribs": 7101,
    "Ġsurmis": 23462,
    "Ġdissipate": 13632,
    "Ġpotential": 3618,
    "aving": 2408,
    "Ġsaint": 15506,
    "Ġdemanding": 16805,
    "Ġhatch": 7847,
    "Ġlaughs": 24117,
    "knows": 19171,
    "Ġliberally": 16830,
    "jah": 17581,
    "Ġagon": 10320,
    "clam": 13052,
    "Ġcontextually": 11957,
    "Ġstumped": 24942,
    "Ġcultiv": 13555,
    "Ġsnug": 8279,
    "itical": 5801,
    "slowly": 9088,
    "Y": 61,
    "Ġdaughter": 2869,
    "Ġplease": 4721,
    "Ġyours": 4125,
    ";": 31,
    "Ġthank": 3791,
    "Ġdetaining": 25818,
    "python": 4689,
    "f": 74,
    "Ġfill": 5701,
    "carried": 16711,
    "Ġimposing": 11779,
    "itous": 13866,
    "pret": 7213,
    "Ã¦": 4334,
    "Ġgardener": 19134,
    "Ġflutter": 16245,
    "advantages": 11271,
    "Ġdiscoursing": 26266,
    "cu": 10083,
    "Ġawa": 7713,
    "Ġcompute": 2906,
    "Ġreasonably": 11086,
    "ause": 1314,
    "Ġthereof": 22365,
    "Ġassurance": 7774,
    "Ġcrockery": 24301,
    "greater": 13249,
    "Ġtraditions": 11443,
    "Ġvulture": 17338,
    "Ġface": 1720,
    "inkle": 22611,
    "aring": 1477,
    "Ġduplicity": 25331,
    "Ġarr": 1798,
    "Ġhotel": 8650,
    "Ġharem": 9708,
    "lipped": 16215,
    "entire": 6824,
    "Ġmachinations": 25767,
    "insensibility": 23066,
    "Ġmilitia": 13316,
    "Ġmagn": 1554,
    "Ġident": 2241,
    "ceived": 1964,
    "Ġsatisfying": 23692,
    "Ġtie": 10750,
    "men": 1486,
    "Ġmontan": 22973,
    "Ġunited": 6840,
    "Ġnash": 5819,
    "aling": 1033,
    "Ġsobs": 14135,
    "Ġminers": 22829,
    "Ġtorrents": 20054,
    "Ġspont": 22128,
    "Ġhermits": 22071,
    "Ġmedical": 9463,
    "risonment": 17374,
    "Ġcoopers": 20520,
    "xible": 13807,
    "Ġzigzag": 26272,
    "Ġliking": 23589,
    "piece": 6655,
    "Ġgunwales": 12238,
    "white": 4600,
    "Ġcomposedly": 25183,
    "Ġluxur": 12339,
    "Ġabating": 22264,
    "Ġquaint": 18465,
    "Ġfidel": 12593,
    "Ġtheology": 21275,
    "Ġtrading": 23073,
    "historical": 20464,
    "bat": 8071,
    "Ġearl": 7676,
    "Ġpreserving": 19795,
    "Ġunsur": 22017,
    "Ġrocking": 10969,
    "ars": 905,
    "Ġviolation": 23404,
    "Ġwidow": 8662,
    "Ġgirth": 13135,
    "Ġkin": 15902,
    "Ġmanhandle": 22326,
    "Ġgone": 2108,
    "Ġclap": 10956,
    "Ġassembly": 10642,
    "ressing": 8918,
    "comra": 16173,
    "Ġstarve": 24625,
    ".âĢĶâĢľ": 20746,
    "Ġeighty": 19474,
    "rubbery": 17341,
    "ical": 755,
    "warrior": 24798,
    "Ġopal": 23624,
    "Ġdelusion": 18973,
    "ority": 8417,
    "uteness": 17985,
    "Ġadoration": 18290,
    "Ġequinox": 25855,
    "Ġunreliable": 3929,
    "Ġproficiency": 19191,
    "Ġne": 391,
    "Ġride": 12755,
    "Ġcombing": 22866,
    "Ġgreeks": 20011,
    "Ġcathedral": 17412,
    "Ġstart": 3255,
    "Ġunholy": 26218,
    "Ġbutter": 6842,
    "Ġintervening": 17267,
    "Ġparalle": 1410,
    "eers": 20842,
    "mency": 18925,
    "ursday": 12274,
    "Ġcastaway": 16640,
    "ised": 1089,
    "Ġbreaching": 23343,
    "Ġhookah": 16970,
    "rasing": 21044,
    "Ġforeshad": 23451,
    "followed": 8338,
    "Ġgibe": 25959,
    "iac": 6225,
    "Ġfragrant": 13086,
    "designated": 26295,
    "compass": 9459,
    "Ġrode": 15999,
    "Ġrespons": 2683,
    "pride": 11210,
    "Ġminded": 23227,
    "Ġrolls": 8333,
    "meeting": 11019,
    "Ġforfeit": 21772,
    "Ġclergy": 7643,
    "spite": 16136,
    "Ġunflinching": 26512,
    "Ġcharge": 5324,
    "Ġmasks": 23324,
    "Ġsturgeon": 20590,
    "cro": 13695,
    "Ġgeneration": 2218,
    "attempts": 17190,
    "teen": 6370,
    "endous": 6850,
    "Ġexecute": 7506,
    "Ġmappings": 2149,
    "ifferent": 4260,
    "cod": 12441,
    "gg": 1997,
    "vel": 2385,
    "feature": 4028,
    "dwelt": 23869,
    "disciple": 16778,
    "Ġmassa": 19452,
    "Ġslink": 23160,
    "remind": 23187,
    "Ġstabbed": 25456,
    "dinah": 20079,
    "Ġbol": 6241,
    "Ġnursery": 19749,
    "Ġthrilling": 19747,
    "Ġanytime": 12882,
    "Ġgladness": 16591,
    "Ġamusing": 11798,
    "stirring": 20424,
    "speechless": 25395,
    "Ġdepartments": 24242,
    "particip": 23614,
    "Ġenigmatical": 20596,
    "Ġsleeves": 10660,
    "Ġref": 900,
    "urp": 1474,
    "ignity": 4370,
    "Ġhostile": 19938,
    "Ġwharf": 9559,
    "omas": 12673,
    "ssed": 3733,
    "venor": 16098,
    "hearth": 15498,
    "clouds": 25496,
    "Ġscorched": 17101,
    "Ġdiana": 21434,
    "countryman": 24639,
    "ulate": 5233,
    "exception": 9975,
    "Ġcauldron": 25441,
    "Ġpresumption": 10545,
    "cle": 3957,
    "Ġtiresome": 26156,
    "Ġdies": 11592,
    "unable": 14058,
    "hyme": 19608,
    "Ġsafer": 22167,
    "Ġlashes": 17966,
    "Ġbushy": 16400,
    "Ġconsequ": 6254,
    "scruple": 26044,
    "Ġestablished": 9069,
    "Ġexertion": 8053,
    "Ġvon": 14080,
    "rat": 8755,
    "ignation": 11128,
    "Ġcoldness": 23757,
    "Ġasia": 11681,
    "Ġbuffalo": 11429,
    "Ġhurriedly": 11250,
    "Ġberths": 20113,
    "Ġalluding": 18236,
    "come": 2377,
    "Ġremem": 4310,
    "Ġpanting": 11602,
    "arthy": 4820,
    "Ġthread": 14538,
    "Ġelbowed": 16107,
    "Ġlikewise": 5386,
    "Ġwant": 1120,
    "Ġunparalleled": 15851,
    "Ġscraped": 16903,
    "Ġreus": 8821,
    "helmsman": 24287,
    "Ġwalk": 1823,
    "Ġsing": 3071,
    "information": 12391,
    "lance": 12479,
    "decease": 25557,
    "grace": 5846,
    "Ġbigness": 19759,
    "Ġattacks": 12202,
    "Ġinvite": 14562,
    "protest": 24815,
    "injustice": 17737,
    "Ġselected": 9710,
    "Ġbehaves": 23295,
    "ralian": 19599,
    "Ġrevenue": 26194,
    "Ġsupremacy": 20259,
    "Ġlooking": 2475,
    "is": 280,
    "growing": 13732,
    "Ġrobbery": 11921,
    "Ġrighteous": 18945,
    "antages": 7193,
    "Ġreco": 9789,
    "Ġbarren": 11206,
    "Ġopenness": 18955,
    "Ġcrews": 8990,
    "ateral": 19375,
    "Ġadmirers": 19685,
    "Ġapproximates": 2419,
    "street": 6494,
    "marry": 13322,
    "bow": 5424,
    "Ġbloss": 19255,
    "itch": 10160,
    "rowing": 7930,
    "visitor": 15057,
    "Ġbuying": 23993,
    "Ġbourgh": 5067,
    "Ġoxen": 19949,
    "istical": 8489,
    "Ġseverest": 14090,
    "Ġhammock": 5768,
    "Ġlivers": 18456,
    "feet": 6568,
    "coll": 23777,
    "Ġcompletely": 4858,
    "Ġtable": 2500,
    "inkling": 16088,
    "Ġaudits": 24770,
    "Ġmaintains": 2146,
    "Ġtalked": 4418,
    "induce": 22371,
    "Ġter": 2052,
    "Ġsubordinate": 18722,
    "Ġstage": 7390,
    "Ġvague": 6405,
    "Ġglimmering": 25240,
    "Ġdamning": 19139,
    "Ġunfortunately": 10909,
    "goodbye": 12054,
    "Ġslippers": 19614,
    "destruction": 11256,
    "Ġcampa": 17173,
    "Ġchoicest": 24220,
    "Ġdominic": 25381,
    "oat": 13763,
    "Ġdismissed": 12889,
    "Ġstaves": 21737,
    "Ġloudly": 7313,
    "Ġcautiously": 16977,
    "Ġcomprehensiveness": 25072,
    "ne": 645,
    "supp": 4162,
    "Ġsuggestive": 11297,
    "Ġscruple": 25048,
    "Ġcrazy": 8592,
    "ended": 1834,
    "lod": 15377,
    "Ġlatent": 19654,
    "asy": 5294,
    "Ġshape": 5639,
    "Ġdressed": 5080,
    "Ġrecur": 1620,
    "swift": 14850,
    "yarn": 15456,
    "Ġimpelling": 22384,
    "Ġpeople": 2543,
    "arabian": 26446,
    "caught": 8726,
    "Ġrack": 9311,
    "comput": 2020,
    "where": 2093,
    "wishes": 13806,
    "?_âĢĿ": 12314,
    "Ġcoopman": 25827,
    "rin": 10121,
    "quadr": 15761,
    "Ġmove": 5106,
    "Ġobser": 2071,
    "ather": 741,
    "Ġvigilant": 20183,
    "rict": 8092,
    "benevolently": 25600,
    "Ġcommission": 6712,
    "Ġovers": 14205,
    "Ġintimate": 6549,
    "sick": 13783,
    "Ġuntidy": 23520,
    "should": 3258,
    "Ġze": 8544,
    "Ġimminent": 11245,
    "Ġallude": 12768,
    "Ġsigns": 2444,
    "Ġtransl": 2827,
    "Ġextras": 22739,
    "Ġstable": 2697,
    "Ġ1825": 25719,
    "Ġrevolutions": 23839,
    "Ġthump": 11610,
    "Ġcasual": 11409,
    "rapt": 13972,
    "Ġpeels": 22688,
    "Ġbrace": 11211,
    "scy": 21054,
    "roof": 17953,
    "quarter": 11388,
    "transform": 8049,
    "Ġsickle": 24245,
    "oried": 10802,
    "gor": 547,
    "delighted": 10562,
    "Ġcoffee": 6760,
    "shazzar": 15288,
    "script": 11077,
    "Ġdiscovers": 4425,
    "kins": 7346,
    "time": 3143,
    "agings": 18165,
    "Ġfellow": 2775,
    "Ġjib": 14193,
    "Ġwebster": 20160,
    "Ġtomahawk": 7540,
    "ĠâĢĶ_": 3457,
    "Ġdistrusted": 13541,
    "[_": 5130,
    "aborate": 14021,
    ";âĢĶ": 3749,
    "Ġexamination": 8004,
    "pip": 6654,
    "nder": 20986,
    "Ġnecessitated": 23925,
    "persuasion": 20042,
    "rically": 15416,
    "acc": 2533,
    "xi": 17710,
    "enc": 7575,
    "likelihood": 4990,
    "hundreds": 25073,
    "threshold": 21984,
    "Ġshabby": 14110,
    "Ġdropping": 7484,
    "Ġaltered": 7394,
    "Ġoptimizers": 18636,
    "Ġcrozetts": 19628,
    "Ġloud": 4698,
    "Ġcomplexity": 1693,
    "dire": 15335,
    "ampl": 21839,
    "ĠĠĠĠĠĠĠĠĠĠĠĠĠĠĠĠĠĠĠĠĠĠĠĠĠĠĠĠ": 9974,
    "mouse": 15391,
    "Ġbrooks": 25700,
    "Ġconcept": 674,
    "Ġreconsidered": 21670,
    "Ġsquee": 7928,
    "Ġunerring": 15845,
    "Ġwhile": 608,
    "pay": 10718,
    "mastod": 23971,
    "shrouded": 26361,
    "Ġinferences": 17934,
    "ache": 8518,
    "Ġoftener": 13564,
    "earnest": 12397,
    "Ġblade": 11891,
    "Ġautonom": 10416,
    "Ġsurrey": 14558,
    "rub": 15891,
    "Ġsupplies": 20325,
    "bbing": 6323,
    "cape": 13696,
    "said": 4105,
    "her": 490,
    "listen": 13513,
    "Ġchannels": 26013,
    "renewed": 19703,
    "Ġprophet": 7681,
    "Ġsanity": 24979,
    "reat": 617,
    "bonnet": 25742,
    "aston": 7409,
    "Ġyarman": 12702,
    "Ġwont": 9851,
    "Ġpresum": 4835,
    "Ġsegmentation": 17339,
    "Ġcapsized": 20088,
    "Ġbeheading": 21751,
    "Ġblaming": 22927,
    "Ġbequest": 21750,
    "Į": 239,
    "Ġwinter": 5220,
    "-------": 20387,
    "Ġcomple": 2839,
    "Ġimpertin": 6933,
    "Ġjaw": 3314,
    "Ġsinners": 18949,
    "atig": 13844,
    "Ġbuildings": 24720,
    "evident": 25520,
    "tackle": 17320,
    "declined": 25174,
    "Ġlubber": 17443,
    "plunging": 25987,
    "Ġsavag": 19372,
    "Ġimbalanced": 18333,
    "Ġinner": 9670,
    "Ġpap": 8797,
    "courage": 17509,
    "bourne": 19102,
    "Ġtablet": 19204,
    "Ġfoolish": 5979,
    "Ġmir": 9646,
    "Ġdiabolically": 25513,
    "Ġdisquis": 22524,
    "gun": 10096,
    "Ġworsted": 19993,
    "Ġcottages": 14725,
    "Ġbabes": 24425,
    "Ġsake": 4093,
    "Ġhollow": 5648,
    "hateful": 20908,
    "igating": 21696,
    "icha": 11736,
    "Ġpartners": 11851,
    "Ġsciences": 15942,
    "Ġscriptures": 26235,
    "Ġvoracity": 25986,
    "Ġcape": 5145,
    "Ġfoster": 18990,
    "Ġboarded": 13232,
    "pistol": 17642,
    "Æ": 135,
    "Ġmetaphys": 16414,
    "Ġcarn": 17821,
    "sharpening": 22463,
    "Ġgabriel": 7596,
    "Ġsplend": 9897,
    "octavo": 11385,
    "Ġcoward": 7156,
    "Ġdash": 8121,
    "Ġinstructive": 19285,
    "Ġtwice": 4659,
    "cient": 4567,
    "agra": 14065,
    "Ġinvisibly": 24817,
    "Ġdefer": 18822,
    "Ġundet": 16704,
    "Ġvoyager": 16511,
    "Ġbetween": 791,
    "tu": 12509,
    "Ġbeards": 21748,
    "generative": 4327,
    "Ġdrown": 6815,
    "Ġpiling": 17910,
    "Ġaction": 5796,
    "Ġthrows": 14735,
    "Ġdisdained": 15009,
    "Ġlikely": 3597,
    "murderer": 13392,
    "Ġperverseness": 13653,
    "Ġpromote": 23193,
    "Ġaudacious": 13459,
    "william": 4560,
    "kept": 11715,
    "atoes": 17775,
    "melted": 25206,
    "Ġchord": 22242,
    "Q": 53,
    "Ġpolitic": 23617,
    "ected": 7872,
    "Ġfoes": 11949,
    "Ġhum": 1101,
    "Ġunass": 14113,
    "sion": 8093,
    "Ġrinal": 21977,
    "marks": 7347,
    "Ġsituated": 9446,
    "Ġensue": 18190,
    "Ġroutine": 13507,
    "Ġjem": 18402,
    "Ġfoliage": 18866,
    "Ġbiggest": 24566,
    "opotam": 22476,
    "Ġenh": 3130,
    "Ġrepay": 19077,
    "Ġunconquerable": 22058,
    "rece": 21233,
    "Ġgi": 15663,
    "shipped": 18496,
    "balanced": 14555,
    "anct": 21356,
    "fatality": 25019,
    "pre": 648,
    "Ġanyways": 22517,
    "Ġcomrade": 12281,
    "Ġverdant": 15002,
    "Ġremark": 2147,
    "mr": 1901,
    "Ġfist": 21402,
    "Ġdanced": 7842,
    "anks": 3917,
    "mbl": 5946,
    "Ġimplore": 24872,
    "Ġropes": 10748,
    "Ġwide": 4109,
    "tumbled": 21089,
    "adjust": 21757,
    "nib": 5214,
    "Ġyea": 8915,
    "Ġbust": 10167,
    "nihil": 9850,
    "attempt": 9359,
    "Ġ16": 7926,
    "Ġbandages": 24427,
    "brit": 19197,
    "ohnson": 16325,
    "onical": 21252,
    "Ġstill": 1156,
    "shake": 22454,
    "rain": 461,
    "Ġinputs": 843,
    "Ġexpert": 18868,
    "Ġbushes": 16399,
    "ine": 404,
    "Ġmanufact": 22325,
    "longing": 23724,
    "hound": 20894,
    "Ġinclude": 1876,
    "Ġrachel": 11845,
    "Ġmoral": 6578,
    "Ġsold": 6002,
    "Ġintrusion": 12762,
    "Ġinjure": 16781,
    "fluke": 25204,
    "Ġat": 396,
    "Ġshutters": 9936,
    "Ġclin": 14200,
    "Ġshipmate": 8928,
    "Ġvalue": 2086,
    "Ġenvironments": 24001,
    "animation": 16979,
    "Ġlangs": 13953,
    "Ġcomposure": 7218,
    "Ġdelight": 2547,
    "leaves": 12575,
    "ateful": 5926,
    "aunted": 20769,
    "Ġirritated": 17242,
    "counter": 20277,
    "urons": 3127,
    "pump": 21016,
    "Ġnearing": 15796,
    "Ġhooded": 12404,
    "Ġtrivial": 10142,
    "Ġdeceive": 12719,
    "Ġre": 317,
    "coarse": 16486,
    "Ġshoot": 11161,
    "Ġnapoleons": 25885,
    "ran": 11515,
    "Ġequator": 7462,
    "endent": 15920,
    "hanging": 10100,
    "Ġgeor": 3385,
    "Ġstupidity": 15049,
    "Ġterrific": 6754,
    "Ġleave": 2458,
    "Ġfro": 3470,
    "oes": 4431,
    "Ġaccomplice": 24376,
    "isite": 15560,
    "Ġmanoir": 22328,
    "Ġraft": 16114,
    "afric": 19178,
    "Ġinteresting": 4322,
    "Ġarthur": 7197,
    "Ġexploding": 2110,
    "Ġthan": 736,
    "ann": 5802,
    "oct": 7555,
    "Ġdood": 22239,
    "librarian": 26568,
    "lob": 22504,
    "queequeg": 4331,
    "Ġhorror": 3772,
    "came": 4568,
    "Ġexceptionable": 25503,
    "vels": 5432,
    "Ġshowed": 4495,
    "ĠĠĠĠĠĠĠĠĠĠĠĠĠĠĠĠĠĠĠĠĠĠĠĠĠĠĠĠĠĠĠĠ": 2737,
    "Ġfreed": 7268,
    "Ġshops": 21998,
    "Ġlime": 13947,
    "ins": 1377,
    "idence": 4299,
    "consult": 24169,
    "rer": 3621,
    "Ġblanket": 8342,
    "Ġpagoda": 19787,
    "Ġremoter": 20104,
    "ctions": 952,
    "Ġpettiness": 24229,
    "Ġdreamy": 14701,
    "daggoo": 13706,
    "Ġappar": 7412,
    "Ġunfathomably": 25873,
    "è": 169,
    "Ġsequ": 982,
    "outer": 9668,
    "Ġunsub": 22018,
    "Ġobjecting": 18894,
    "Ġanxious": 4516,
    "ortal": 6265,
    "otam": 21795,
    "Ġlink": 8129,
    "wic": 21119,
    "Ġlakeman": 6986,
    "Ġincorruption": 26309,
    "Ġnearest": 8470,
    "alluring": 18352,
    "Ġdismember": 20214,
    "Ġangelic": 19626,
    "marriage": 7744,
    "Ġundue": 25993,
    "Ġregularity": 22773,
    "Ġjig": 15949,
    "vine": 10734,
    "Ġwallow": 19464,
    "Ġthews": 21276,
    "Ġpoetry": 15079,
    "Ġhorsey": 24249,
    "Ġheard": 1399,
    "Ġ-": 1945,
    "ignantly": 23263,
    "Ġnights": 7259,
    "Ġnapkins": 25161,
    "conversations": 24749,
    "Ġtheore": 1830,
    "Ġnorthern": 7266,
    "Ġexclam": 6757,
    "child": 5538,
    "Ġlining": 13950,
    "entric": 11618,
    "Ġlower": 2661,
    "Ġdeserved": 7736,
    "wr": 3026,
    "Ġunclasp": 26511,
    "Ġmisunderstood": 18705,
    "Ġdoub": 1836,
    "expectation": 14854,
    "presently": 9808,
    "inhab": 10757,
    "gaining": 20122,
    "Ġmoss": 9283,
    "Ġbraved": 23835,
    "ckled": 9256,
    "Ġinscrut": 10033,
    "Ġwapping": 21293,
    "however": 4369,
    "Ġmorbidness": 20627,
    "âĢĶ.": 11753,
    "Ġhierarchical": 1927,
    "conclusive": 25673,
    "Ġrecourse": 22736,
    "Ġdegenerated": 20504,
    "Ġabomin": 8188,
    "Ġvictor": 5124,
    "Ġcards": 7581,
    "writer": 14647,
    "Ġcalled": 1972,
    "Ġaslant": 21898,
    "Ġparting": 9783,
    "Ġtreasure": 9558,
    "Ġeconomy": 17200,
    "tallow": 21084,
    "waste": 21133,
    "hab": 1079,
    "Ġsignal": 5944,
    "jam": 15370,
    "Ġvelv": 10619,
    "Ġdownstairs": 11224,
    "hammock": 16352,
    "Ġarri": 2552,
    "Ġhiss": 15785,
    "Ġmagnificence": 20631,
    "Ġsquid": 11876,
    "Ġunw": 8849,
    "baked": 20778,
    "Ġstir": 5823,
    "Ġdesolate": 10012,
    "omach": 11636,
    "Ġsigh": 10336,
    "ĠĠĠĠĠĠĠĠĠĠĠĠĠĠĠĠĠĠĠĠĠĠĠĠĠĠĠĠĠĠĠĠĠĠĠĠĠĠĠĠĠĠĠĠĠ": 9951,
    "hand": 2755,
    "hung": 8380,
    "Ġroarings": 25302,
    "familiar": 19782,
    "Ġgiven": 1625,
    "supper": 12916,
    "thoughts": 9934,
    "el": 306,
    "lose": 12878,
    "barr": 15319,
    "Ġsubsc": 22786,
    "Ġrushed": 4089,
    "ricted": 15419,
    "Ġsymphony": 26532,
    "Ġfaithfulness": 24446,
    "ß": 160,
    "Ġab": 529,
    "sp": 894,
    "Ĵ": 245,
    "Ġgiants": 25960,
    "Ġlovely": 4707,
    "Ġpertur": 12847,
    "lighted": 23752,
    "Ġsensibly": 14514,
    "Ġ24": 13192,
    "lin": 9603,
    "cake": 20803,
    "Ġdimmed": 24267,
    "¼": 125,
    "Ġhandled": 12935,
    "Ġsupp": 1266,
    "Ġgallery": 10524,
    "Ġhire": 21482,
    "smug": 23905,
    "turning": 8316,
    "Ġpend": 15603,
    "Ġrelated": 3714,
    "Ġmultiplication": 2871,
    "itect": 973,
    "Ġdiving": 12598,
    "Ġorthodox": 22092,
    "Ġrecollecting": 17113,
    "lested": 14881,
    "onic": 7827,
    "Ġdoubtfully": 23476,
    "Ġrevered": 23732,
    "uttered": 8440,
    "Ġlam": 21546,
    "calling": 12447,
    "Ġdominant": 12394,
    "Ġpall": 7583,
    "Ġtract": 21164,
    "Ġallurements": 22004,
    "tied": 21069,
    "Ġbaronial": 23791,
    "Ġsabbath": 17254,
    "Ġah": 5074,
    "Ġoriginate": 24122,
    "Ġelij": 8908,
    "indulged": 22372,
    "iability": 20919,
    "Ġshrieks": 12197,
    "Ġcorre": 3889,
    "evid": 11484,
    "Ġreplete": 15695,
    "Ġpolynesian": 26026,
    "Ġfates": 15575,
    "oric": 21394,
    "Ġmanned": 9270,
    "Ġassented": 17337,
    "Ġjam": 10951,
    "Ġseas": 3075,
    "avering": 24793,
    "Ġpikes": 21476,
    "Ġclustered": 25233,
    "Ġpromethe": 14468,
    "Ġstreams": 12190,
    "ute": 4640,
    "Ġinhospit": 25452,
    "occasion": 7753,
    "Ġunrival": 22042,
    "âĢĿ": 354,
    "jammed": 25906,
    "\":": 9581,
    "Ġincluded": 8930,
    "Ġsurmised": 24919,
    "Ġindiam": 22950,
    "Ġadopt": 10631,
    "Ġreleased": 2977,
    "simon": 16973,
    "mod": 1056,
    "client": 18931,
    "Ġcircumn": 11982,
    "Ġlust": 9197,
    "ulpt": 10885,
    "osop": 4402,
    "eman": 5636,
    "Ġcheapside": 23284,
    "Ġpanic": 11286,
    "Ġhideous": 5982,
    "Ġleaky": 2347,
    "Ġknights": 15148,
    "surprised": 9530,
    "collins": 6916,
    "Ġdisent": 22520,
    "happened": 9432,
    "Ġwines": 21286,
    "Ġthreatens": 24375,
    "Ġintricacies": 15137,
    "confess": 12173,
    "swam": 24254,
    "Ġgrandeur": 8627,
    "generations": 23783,
    "accident": 11181,
    "Ġoperations": 2300,
    "decided": 13214,
    "Ġquiver": 16001,
    "blister": 24128,
    "Ġtrusty": 24105,
    "Ġbespe": 19240,
    "21": 10071,
    "beheld": 11800,
    "Ġeventually": 8616,
    "Ġtests": 8956,
    "mass": 12487,
    "Ġcomplaints": 12262,
    "Ġdaniel": 15110,
    "Ġdecomposes": 5506,
    "Ġindependence": 12102,
    "Ġmechan": 1192,
    "convers": 6567,
    "emph": 21922,
    "Ġhomeless": 23385,
    "Ġdeeps": 16115,
    "Ġirene": 8443,
    "Ġfires": 16471,
    "company": 9460,
    "neg": 12862,
    "pronouncing": 25193,
    "Ġwire": 13851,
    "spl": 9139,
    "Ġtinged": 20081,
    "Ġloveliness": 13607,
    "Ġane": 9181,
    "Ġinferred": 14976,
    "dinner": 11406,
    "Ġspend": 5304,
    "Ġ14": 9322,
    "ĠâĢĺ": 1630,
    "Ġjerk": 16950,
    "Ġbalancing": 2433,
    "Ġcircumference": 13544,
    "by": 1157,
    "Ġworkflow": 2223,
    "Ġdairy": 20685,
    "Ġrefine": 2845,
    "outside": 12801,
    "Ġlooked": 1801,
    "Ġalb": 14015,
    "ys": 3961,
    "Ġpledged": 20686,
    "Ġjingling": 26017,
    "Ġpoisoned": 24886,
    "Ġdumplings": 15189,
    "Ġclaim": 5105,
    "Ġetc": 7084,
    "Ġauthoritative": 19560,
    "Ġstanding": 2998,
    "boil": 18999,
    "Ġsame": 1341,
    "Ġcommentaries": 20159,
    "Ġburtons": 19251,
    "Ġretrogress": 23070,
    "Ġcosine": 2373,
    "Ġpasseng": 12968,
    "iag": 20915,
    "Ġgu": 1327,
    "Ġconflagration": 26364,
    "famous": 16916,
    "Ġwhirlpool": 20654,
    "Ġtragedies": 25241,
    "Ġcrippled": 25278,
    "Ġfast": 1715,
    "Ġprovoked": 13324,
    "cur": 3266,
    "bree": 15313,
    "Ġsaviour": 20712,
    "Ġwhipping": 21713,
    "ougher": 18275,
    "Ġdrag": 6184,
    "arranged": 19318,
    "Ġscrupled": 25049,
    "breat": 10077,
    "Ġmira": 8406,
    "Ġilluminated": 20174,
    "Ġsubterranean": 13610,
    "Ġrespectful": 16343,
    "Ġshook": 4467,
    "Ġexalted": 12410,
    "Ġloitering": 22113,
    "which": 1708,
    "ethics": 8877,
    "Ġsole": 3293,
    "Ġfavourites": 16644,
    "uction": 15442,
    "Ġsec": 2076,
    "Ġripp": 11219,
    "Ġtenants": 23543,
    "enger": 10773,
    "Ġpersonified": 19177,
    "soundest": 24797,
    "augmented": 26286,
    "Ġcruellest": 19657,
    "Ġspatial": 2729,
    "Ġusher": 22212,
    "beryls": 25309,
    "Ġfreshly": 23984,
    "Ġvote": 21944,
    "Ġenjoys": 19448,
    "Ġfalsely": 20580,
    "woman": 5898,
    "Ġtaken": 2528,
    "Ġterrify": 19359,
    "iamond": 14589,
    "Ġnominally": 17231,
    "ame": 644,
    "hyp": 15365,
    "ody": 1479,
    "Ġwhaleman": 4652,
    "Ġfrantically": 23256,
    "Ġsorrow": 4626,
    "cull": 20808,
    "part": 2571,
    "Ġincredible": 9514,
    "gree": 10701,
    "cork": 20795,
    "Ġoce": 3028,
    "Ġleading": 7298,
    "Ġbennet": 1576,
    "Ġunerringly": 18265,
    "continu": 5501,
    "doubted": 17526,
    "aspect": 10193,
    "Ġunexplored": 26518,
    "trust": 21077,
    "Ġnasty": 17442,
    "nay": 7135,
    "Ġcem": 17823,
    "Ġappeals": 16315,
    "Ġmaritime": 23035,
    "user": 5104,
    "Ġrese": 2245,
    "Ġgrimesby": 11457,
    "Ġroyals": 19531,
    "Ġced": 10784,
    "Ġcarter": 18900,
    "Ġforeseeing": 23449,
    "ividual": 5463,
    "ham": 1701,
    "Ġoft": 9194,
    "Ġcloser": 8659,
    "oppressed": 24824,
    "Ġattracted": 8903,
    "Ġsenate": 25214,
    "Ġdepart": 4654,
    "Ġluff": 15650,
    "Ġclutching": 24951,
    "Ġmethod": 1448,
    "sive": 4144,
    "Ġconce": 3420,
    "ition": 653,
    "Ġmode": 8497,
    "Ġoutset": 15953,
    "Ġbigger": 19760,
    "runs": 25415,
    "sticks": 25964,
    "Åĵuv": 15181,
    "Ġswitching": 23055,
    "owners": 16085,
    "comm": 7441,
    "Ġpom": 21450,
    "Ġpresentation": 14479,
    "Ġmagnanimous": 17410,
    "bo": 1689,
    "_.,": 14561,
    "Ġunembarrassed": 22064,
    "Ġperturbation": 20439,
    "Ġexecution": 6927,
    "points": 14392,
    "ocean": 12399,
    "Ġpals": 13917,
    "Ġglist": 9343,
    "falsehood": 25901,
    "Ġwaifing": 25243,
    "conspicuous": 26247,
    "ice": 592,
    "sounding": 24796,
    "Ġprevailing": 24673,
    "Ġresol": 2664,
    "Ġupdating": 2689,
    "giving": 8738,
    "Ġsewing": 21958,
    "coat": 5407,
    "il": 329,
    "Ġcringed": 25942,
    "Ġspeaking": 4029,
    "Ġcompelled": 14265,
    "Ġguard": 6178,
    "Ġvirtuous": 14753,
    "Ġrelev": 1714,
    "Ġcorpor": 23036,
    "allows": 15905,
    "carp": 9109,
    "Ġfeet": 2260,
    "entitled": 21565,
    "Ġprop": 1681,
    "winter": 10740,
    "Ġineffable": 17331,
    "Ġbroad": 3638,
    "Ġwithout": 1123,
    "Ġlaug": 3626,
    "output": 4399,
    "isl": 21373,
    "Ġzodiac": 16170,
    "unusual": 21876,
    "Ġkick": 5837,
    "july": 20473,
    "Ġantics": 24178,
    "Ġxxxiv": 24967,
    "sweet": 8685,
    "Ġschedule": 2372,
    "Ġpaternal": 16378,
    "Ġ(âĢľ": 15993,
    "Ġstamped": 13526,
    "Ġbecalmed": 18086,
    "rene": 5379,
    "asse": 15642,
    "ifies": 6686,
    "Ġmicrosc": 20675,
    "determined": 9079,
    "Ġdisapprobation": 16056,
    "Ġbash": 12583,
    "Ġtorments": 13393,
    "Ġflorida": 20658,
    "necessities": 24306,
    "ley": 1815,
    "alleging": 23021,
    "Ġaccustomed": 6861,
    "Ġlothario": 26184,
    "possesses": 24616,
    "Ġnamely": 20688,
    "conditionally": 24834,
    "Ġenchanted": 9080,
    "Ġsaf": 4003,
    "Ġshrubbery": 18232,
    "Ġgould": 17989,
    "Ġpenetration": 19916,
    "unreasonable": 18162,
    "Ġhatred": 8608,
    "Ġaugmentation": 20114,
    "heedful": 20572,
    "Ġstrangeness": 16707,
    "Ġfluctuations": 5516,
    "Ġqueens": 16706,
    "ization": 487,
    "Ġfloor": 4374,
    "Ġsliding": 9362,
    "instead": 14811,
    "Ġc": 277,
    "wants": 21129,
    "Ġbas": 6379,
    "ceiling": 21624,
    "Ġinstability": 3815,
    "Ġcarpet": 9355,
    "circumstance": 7763,
    "Ġserv": 3324,
    "mountain": 10713,
    "alo": 7588,
    "Ġthunders": 15635,
    "Ġattic": 16093,
    "coiled": 16485,
    "Ġseasons": 9430,
    "brow": 15314,
    "Ġnowadays": 18546,
    "produced": 25414,
    "Ġneurons": 976,
    "trembling": 17142,
    "Ġmans": 15534,
    "nns": 1894,
    "icable": 6387,
    "rell": 11563,
    "Ġjavelin": 26104,
    "Ġnightfall": 23129,
    "cary": 10689,
    "strangers": 20335,
    "Ġarrangements": 16514,
    "ram": 13971,
    "Ġsugg": 4498,
    "Ġmaintain": 857,
    "Ġmysticetus": 24922,
    "explained": 23139,
    "Ġslow": 2379,
    "Ġsensit": 2947,
    "Ġsharper": 17179,
    "Ġdrowsy": 26444,
    "Ġexig": 21824,
    "gryphon": 15357,
    "Ġtremor": 24768,
    "Ġare": 527,
    "Ġbeloved": 5572,
    "Ġrecom": 4553,
    "Ġsurpl": 19132,
    "Ġdodo": 9072,
    "iant": 5427,
    "aint": 2541,
    "abby": 14020,
    "bert": 4660,
    "Ġsummary": 19401,
    "Ġnoah": 10942,
    "schoolmaster": 15160,
    "Ġinterrupt": 4356,
    "Ġvisible": 4775,
    "Ġgoney": 14545,
    "Ġringbolts": 24196,
    "Ġcertainly": 2498,
    "Ġconfined": 7466,
    "Ġancient": 5443,
    "Ġreve": 2934,
    "sford": 5997,
    "descend": 23082,
    "detective": 24383,
    "amusement": 15281,
    "Ġsatisf": 2804,
    "minds": 24232,
    "mushroom": 26395,
    "Ġbathe": 25443,
    "apolog": 22329,
    "mond": 20972,
    "jack": 7345,
    "Ġrendering": 16657,
    "Ġobsc": 7039,
    "ortunities": 15939,
    "justine": 7683,
    "Ġcoppers": 22582,
    "Ġnum": 1347,
    "iform": 2199,
    "Ġinstruments": 12221,
    "Ġdesert": 6726,
    "Ġprefer": 6415,
    "cheeked": 19339,
    "reader": 23844,
    "exped": 16523,
    "Ġhydraulic": 10063,
    "Ġcastle": 14715,
    "Ġperforms": 11875,
    "Ġclaw": 22344,
    "Ġhurtling": 24957,
    "carefully": 13367,
    "Ġseparated": 9464,
    "Ġtyphoons": 20233,
    "Ġinvests": 14866,
    "Ġyour": 633,
    "Ġwalton": 14970,
    "Ġpreliminary": 10056,
    "Ġgrass": 5176,
    "Ġbenediction": 18784,
    "Ġhelm": 5275,
    "Ġpursuits": 12074,
    "Ġdetested": 14174,
    "form": 497,
    "Ġnear": 1716,
    "dissatisfied": 26612,
    "scho": 8759,
    "Ġsil": 1796,
    "fen": 20849,
    "trop": 15435,
    "struck": 7861,
    "Ġsto": 1498,
    "aloft": 8806,
    "try": 7812,
    "Ġsangu": 15503,
    "ources": 2787,
    "lutions": 20949,
    "Ġridges": 16731,
    "jephro": 26392,
    "Ġripe": 13233,
    "anke": 15558,
    "Ġdive": 10172,
    "Ġcombinations": 22869,
    "thorough": 21982,
    "Ġmetropol": 11145,
    "Ġscandal": 9081,
    "Ġaspired": 25984,
    "Ġthousands": 6748,
    "Ġgrowing": 6750,
    "Ġdistant": 5387,
    "Ġherb": 15854,
    "Ġtornado": 24621,
    "Ġutensils": 23512,
    "Ġruefully": 17300,
    "osa": 22257,
    "Ġoffspring": 16143,
    "Ġsurpasses": 25268,
    "aguy": 21907,
    "impulse": 20644,
    "Ġcroquet": 9961,
    "deficient": 23116,
    "Ġrighted": 23175,
    "Ġactuated": 18545,
    "swallow": 24257,
    "Ġelementary": 24814,
    "Ġslid": 7951,
    "Ġopenshaw": 7954,
    "Ġupd": 947,
    "Ġcarted": 21347,
    "Ġforemost": 12003,
    "older": 15750,
    "Ġcorp": 5575,
    "ators": 7829,
    "next": 5891,
    "Ġboasting": 19934,
    "Ġneighbor": 25805,
    "Ġchrist": 4075,
    "Ġsemantics": 2895,
    "inj": 9151,
    "jub": 20928,
    "isis": 12576,
    "heavy": 10574,
    "pens": 17632,
    "Ġnuptials": 20492,
    "Ġquadruped": 17458,
    "Ġott": 13865,
    "Ġobserv": 8586,
    "Ġwearing": 12736,
    "Ġchina": 8039,
    "passion": 11260,
    "Ġcomprehended": 11294,
    "bub": 15315,
    "Ġsymmetry": 20364,
    "Ġseparate": 5778,
    "Ġgrammar": 1065,
    "ĠĠĠĠĠĠĠĠĠĠĠĠĠĠĠĠĠĠĠĠĠĠĠĠĠĠĠ": 14884,
    "ulations": 6028,
    "Ġdif": 872,
    "Ġadvancing": 6877,
    "Ġdiscompose": 25579,
    "Ġstern": 4220,
    "Ġbefore": 808,
    "circle": 16736,
    "gangway": 20666,
    "few": 8203,
    "Ġinjection": 3466,
    "eyeing": 14944,
    "done": 6499,
    "announce": 24560,
    "Ġbuckler": 24859,
    "Ġadapts": 3819,
    "unicorn": 21886,
    "ashed": 3784,
    "lev": 1234,
    "wail": 21124,
    "Ġson": 2982,
    "Ġpatent": 11959,
    "Ġsweating": 16462,
    "Ġunsav": 18251,
    "Ġservants": 6610,
    "athans": 7434,
    "Ġsar": 21212,
    "Ġtrif": 6269,
    "Ġsteadfastly": 10651,
    "Ġinvade": 19142,
    "pres": 16022,
    "inois": 17738,
    "č": 206,
    "Ġpopularly": 12239,
    "Ġjinglers": 26018,
    "Ġoscillations": 2899,
    "pequod": 7052,
    "Ġaloof": 21782,
    "Ġspr": 4026,
    "Ġshoved": 23488,
    "Ġsleepers": 13148,
    "Ġbracing": 16580,
    "Ġshells": 20362,
    "Ġpr": 1601,
    "infant": 19826,
    "Ġtoss": 10184,
    "Ġgibraltar": 25787,
    "Ġgipsies": 12406,
    "Ġice": 3603,
    "Ġbadge": 16683,
    "Ġdependen": 1827,
    "Ġwife": 2585,
    "Ġeliminating": 20618,
    "impul": 16555,
    "Ġstag": 6148,
    "Ġconsummate": 25310,
    "rian": 10242,
    "phren": 22775,
    "Ġimpressive": 14999,
    "steering": 16635,
    "azz": 8261,
    "Ġabated": 18390,
    "Ġhaught": 10252,
    "Ġaffrighted": 13571,
    "iv": 431,
    "linging": 16076,
    "Ġsub": 951,
    "Ġvap": 6837,
    "oriental": 23719,
    "conditional": 9078,
    "Ġreinforcement": 3546,
    "Ġimpious": 15985,
    "Ġdepicting": 22592,
    "wling": 11544,
    "Ġpiqu": 21475,
    "Ã": 132,
    "instant": 8651,
    "Ġattends": 19649,
    "Ġseize": 8165,
    "Ġform": 1023,
    "Ġforgotten": 5679,
    "Ġundisturbed": 19518,
    "Ġlovers": 9719,
    "Ġfool": 4233,
    "odiac": 14028,
    "both": 5785,
    "Ġbulkhead": 24511,
    "Ġdoctor": 5065,
    "Ġdomains": 6614,
    "Ġintimacy": 8700,
    "Ġrouted": 24907,
    "Ġmeasuring": 22879,
    "Ġintegrity": 12311,
    "judges": 19572,
    "cal": 1122,
    "Ġexpatiate": 18626,
    "Ġscud": 14190,
    "iner": 2670,
    "Ġwolfish": 25935,
    "Ġcontroverted": 23250,
    "exceed": 7910,
    "Ġreg": 729,
    "Ġlongest": 18630,
    "Ġvisage": 18773,
    "Ġfortune": 4238,
    "Ġlongitudes": 22633,
    "awe": 20764,
    "Ġinterpreted": 1711,
    "nyder": 16686,
    "values": 4972,
    "Ġschemes": 11131,
    "Ġrocked": 12853,
    "reference": 13839,
    "Ġunluck": 8484,
    "anoke": 21359,
    "Ġbishop": 13901,
    "Ġgeological": 14532,
    "wall": 10136,
    "specimen": 26605,
    "Ġcats": 8979,
    "Ġlawless": 19433,
    "Ġlets": 18076,
    "roar": 17952,
    "Ġaccordance": 19496,
    "Ġhermit": 15855,
    "Ġweave": 21917,
    "Ġfarmhouse": 24984,
    "strom": 15680,
    "oles": 21004,
    "egypt": 15348,
    "divers": 15341,
    "Ġarsacides": 17293,
    "Ġcorporeal": 17359,
    "Ġperse": 6271,
    "Ġpreserve": 7530,
    "Ġget": 1621,
    "Ġabominable": 12320,
    "Ġtempted": 9056,
    "Ġimpulses": 19960,
    "dham": 20829,
    "movable": 14323,
    "Ġkeenest": 12159,
    "rowed": 22855,
    "aped": 3764,
    "Ġivory": 4475,
    "negro": 18489,
    "Ġnumber": 1980,
    "Ġkindled": 19028,
    "histor": 13490,
    "belonged": 25597,
    "grave": 16092,
    "iors": 9125,
    "maintained": 25020,
    "Ġomitted": 12561,
    "Ġpattern": 1294,
    "Ġtarred": 23607,
    "cription": 20817,
    "Ġrepressed": 21665,
    "Ġpairs": 4181,
    "Ġfinally": 4664,
    "Ġplayful": 19235,
    "Ġdrowned": 9551,
    "Ġsequences": 1754,
    "Ġits": 706,
    "Ġclubbed": 26546,
    "ip": 554,
    "elt": 4116,
    "discoveries": 25385,
    "Ġpride": 3825,
    "Ġdescribing": 19253,
    "uc": 1878,
    "Ġpeddling": 24799,
    "Ġrepaid": 19078,
    "himself": 3973,
    "expense": 22426,
    "jur": 17578,
    "iforn": 14063,
    "Ġbroods": 23099,
    "18": 20750,
    "Ġswashing": 23054,
    "osis": 18389,
    "Ġhills": 6526,
    "Ġorph": 9716,
    "Ġboundless": 10495,
    "ardy": 22153,
    "Ġdripping": 13146,
    "hard": 4687,
    "ga": 17550,
    "watching": 16930,
    "expanded": 23661,
    "Ġsund": 8247,
    "Ġacquirement": 19254,
    "Ġtunnels": 24620,
    "Ġthack": 21514,
    "Ġobey": 9518,
    "Ġviolently": 6455,
    "Ġwants": 5742,
    "Ġbelt": 13000,
    "Ġneeds": 6605,
    "touch": 8391,
    "Ġfancying": 12110,
    "Ġabandonment": 25603,
    "Ġhose": 12624,
    "Ġissue": 2312,
    "fins": 13718,
    "Ġofficio": 23812,
    "Ġbled": 17857,
    "Ġteacup": 16211,
    "Ġkentuckian": 26342,
    "Ġprofound": 5497,
    "umerable": 11723,
    "than": 4090,
    "beloved": 19459,
    "Ġaghast": 16045,
    "Ġastonishing": 10501,
    "Ġsocietal": 11436,
    "Ġdecoyed": 18486,
    "Ġhatchet": 16527,
    "sir": 4999,
    "dressing": 11481,
    "cord": 8723,
    "Ġprofessional": 7300,
    "day": 1859,
    "dataset": 23243,
    "Ġswings": 11087,
    "honour": 13466,
    "Ġneglected": 10377,
    "Ġnegative": 1466,
    "wis": 12516,
    "Ġ135": 24785,
    "Ġcalmer": 23039,
    "cous": 8721,
    "Ġvapory": 17006,
    "manif": 14372,
    "Ġjuncture": 17129,
    "lux": 14226,
    "Ġintercept": 14268,
    "gratification": 24348,
    "Ġdavis": 25952,
    "wonder": 6371,
    "Ġuser": 15914,
    "Ġsuffered": 5649,
    "?âĢĿ": 700,
    "lady": 4430,
    "Ġvertu": 23888,
    "Û": 156,
    "due": 22407,
    "icular": 2024,
    "assembled": 21542,
    "thomas": 18219,
    "Ġgloom": 4200,
    "Ġfriends": 2652,
    "Ġbristling": 20525,
    "igning": 12677,
    "Ġantilles": 24179,
    "Ġsublime": 8065,
    "Ġusually": 6263,
    "Ġspl": 2983,
    "Ġunaware": 22054,
    "Ġbecause": 2209,
    "Ġgreedily": 18965,
    "acceptable": 25184,
    "strongly": 24684,
    "Ġwithdrawing": 11340,
    "Ġpod": 15601,
    "fr": 4802,
    "Ġtallow": 14776,
    "atever": 3076,
    "Ġdodge": 19885,
    "Ġheeds": 24520,
    "ď": 208,
    "dimensional": 2349,
    "Ġunmannerly": 26517,
    "blown": 25201,
    "often": 6165,
    "mselves": 2862,
    "Ġfiendish": 13326,
    "Ġcountenance": 3972,
    "hos": 15362,
    "Ġgestic": 21605,
    "rents": 5308,
    "Ġshiny": 14105,
    "acting": 22628,
    "Ġpharaoh": 26585,
    "Ġgrimes": 11034,
    "super": 5942,
    "isticated": 1626,
    "Ġspires": 11728,
    "Ġpref": 14171,
    "Ġsouthern": 7688,
    "Ġscandalous": 24879,
    "Ġgable": 15664,
    "icial": 12652,
    "extreme": 11029,
    "Ġsit": 4214,
    "acks": 11786,
    "Ġcomforters": 25800,
    "paralleled": 14507,
    "finer": 17546,
    "oboam": 9357,
    "Ġflor": 8561,
    "Ġvan": 1090,
    "fugitive": 26131,
    "Ġresistance": 13529,
    "Ġwhitney": 11373,
    "mouth": 9130,
    "children": 9055,
    "raged": 9211,
    "comple": 7442,
    "anybody": 12080,
    "hastening": 24448,
    "Ġplun": 6281,
    "Ġegypt": 9678,
    "Ġadjusted": 23457,
    "county": 25396,
    "Ġvibrating": 13537,
    "gallery": 24693,
    "kitchen": 17585,
    "monograph": 23523,
    "puzzling": 26143,
    "Ġfearlessness": 19160,
    "Ġherbage": 25996,
    "trem": 17681,
    "ail": 567,
    "Ġslices": 23162,
    "Ġdashed": 6009,
    "anatory": 21361,
    "Ġsp": 457,
    "bled": 5469,
    "Ġcharmingly": 24221,
    "Ġ83": 24459,
    "Ġpa": 2988,
    "Ġprev": 6264,
    "Ġshavings": 14109,
    "Ġ100": 14363,
    "Ġfolding": 19726,
    "Ġobserver": 11987,
    "Ġegot": 18007,
    "Ġtransformed": 22609,
    "itted": 2443,
    "parad": 16381,
    "Ġdiscre": 2418,
    "friendly": 13283,
    "rosings": 15641,
    "ascertain": 21540,
    "orers": 14102,
    "Ġlogits": 3449,
    "nineteenth": 26138,
    "Ġvigour": 24462,
    "isco": 12578,
    "amore": 21840,
    "Ġceremonies": 24836,
    "Ġproviding": 1362,
    "unaffected": 21880,
    "Ġpadd": 9669,
    "ð": 177,
    "Ġbless": 4339,
    "%": 9,
    "Ġresemble": 15690,
    "Ġsmoothed": 23655,
    "Ġdupl": 9953,
    "Ġhissing": 15787,
    "deed": 1516,
    "throt": 25659,
    "cturn": 17986,
    "ciousness": 20816,
    "Ġvines": 12748,
    "Ġprophe": 13077,
    "place": 4154,
    "Ġbabel": 24426,
    "bud": 10682,
    "Ġtype": 2021,
    "Ġfundamental": 3013,
    "Ġhandle": 3134,
    "Ġmol": 12558,
    "glass": 9908,
    "jac": 8381,
    "Ġpitched": 9443,
    "Ġairth": 23313,
    "Ġbowels": 9429,
    "vert": 15712,
    "intending": 22932,
    "Ġhieroglyphics": 17302,
    "haul": 14763,
    "Ġdevotion": 22725,
    "Ġcrib": 21346,
    "aceti": 7111,
    "Ġunlock": 18243,
    "Ġtrailing": 23076,
    "Ġpersecut": 16952,
    "animated": 14973,
    "Ġoverhanging": 22361,
    "whenever": 11879,
    "wholly": 10941,
    "Ġallow": 1128,
    "Ġforcing": 3219,
    "Ġchinks": 22248,
    "weigh": 18665,
    "Ġsorrowful": 10536,
    "ogne": 12933,
    "Ġlobsters": 13516,
    "anelles": 26434,
    "nurtured": 25524,
    "Ġvect": 1223,
    "frau": 15088,
    "Ġautonomous": 10675,
    "Ġcloset": 19590,
    "Ġbeard": 11654,
    "instance": 24168,
    "iam": 2509,
    "Ġdiscreet": 16481,
    "Ġmain": 807,
    "Ġunhappiness": 14117,
    "ernation": 8211,
    "Ġhideousness": 16915,
    "Ġcompletion": 12145,
    "approb": 11041,
    "Ġsprained": 15881,
    "Ġenthr": 22744,
    "Ġray": 18643,
    "Ġentreaties": 9035,
    "Ġannoy": 17198,
    "gainst": 25141,
    "waiting": 12218,
    "Ġenvelope": 7320,
    "quid": 18146,
    "civilized": 17075,
    "Ġavailed": 23949,
    "confidential": 25876,
    "Ġfoundling": 22965,
    "ixed": 4849,
    "ierce": 14390,
    "Ġlend": 17962,
    "fell": 6953,
    "Ġang": 2511,
    "Ġthreading": 23400,
    "Ġev": 4826,
    "Ġdurst": 20351,
    "Ġapothecary": 13658,
    "Ġappo": 8498,
    "Ġmute": 19414,
    "Ġchristians": 13307,
    "leaped": 17843,
    "Ġg": 310,
    "Ġgrin": 5482,
    "Ġmerit": 9426,
    "Ġiceland": 15145,
    "initely": 7569,
    "Ġacquiesced": 25493,
    "Ġblotted": 20216,
    "Ġdarkly": 19114,
    "Ġfluttered": 16246,
    "Ġbeam": 2880,
    "enary": 12548,
    "Ġinclination": 6623,
    "iners": 4935,
    "Ġdearest": 5457,
    "Ġtwelvemonth": 12175,
    "Ġdorm": 4819,
    "Ġpretence": 13206,
    "Ġincred": 5646,
    "Ġshouting": 10522,
    "Ġmorals": 22967,
    "ension": 6569,
    "Ġboat": 1277,
    "prepare": 20211,
    "Ġdigress": 24648,
    "mitting": 17602,
    "Ġdancing": 5703,
    "speps": 14333,
    "cheerful": 13574,
    "chains": 9684,
    "Ġmention": 2985,
    "Ġpreference": 9732,
    "Ġincredulity": 11311,
    "ppo": 18175,
    "Ġappeared": 2774,
    "Ġnervousness": 23552,
    "Ġjiff": 22293,
    "Ġkra": 18348,
    "Ġstones": 9221,
    "Ą": 197,
    "levi": 7047,
    "impatience": 25500,
    "explanation": 12356,
    "Ġhomage": 12353,
    "dening": 22778,
    "Ġrows": 10561,
    "valley": 16213,
    "Ġthomas": 17947,
    "Ġsubtile": 20378,
    "Ġdiab": 10611,
    "Ġdramat": 23216,
    "Ġquarrelling": 13498,
    "Ġexcell": 10414,
    "itement": 7835,
    "Ġaffectionate": 5584,
    "oning": 7573,
    "Ġwelded": 9571,
    "Ġspile": 22124,
    "beef": 18526,
    "Ġpursu": 3234,
    "ateness": 15518,
    "Ġcontrivances": 12355,
    "forbidding": 25837,
    "mush": 20976,
    "clergy": 18933,
    "Ġhuddled": 20298,
    "Ġtriumph": 5142,
    "Ġskies": 8920,
    "Ġreckoning": 14978,
    "billiard": 25334,
    "despatched": 19800,
    "Ġtheoretically": 3565,
    "Ġwatson": 3596,
    "deck": 4499,
    "whar": 15925,
    "retion": 9361,
    "Ġpostmark": 16725,
    "Ġtangle": 25760,
    "Ġers": 15459,
    "Ġanim": 2115,
    "Ġbackground": 18640,
    "mph": 20971,
    "Ġdegree": 3703,
    "Ġclad": 12836,
    "earliest": 20118,
    "--âĢĺ": 22845,
    "teringly": 21820,
    "Ġramad": 8528,
    "Ġbart": 17856,
    "Ġhovers": 19074,
    "Ġstilly": 25973,
    "Ġfloats": 9412,
    "dwell": 15340,
    "Ġroute": 11381,
    "Ġwoollen": 12101,
    "Ġhelmeted": 19687,
    "Ġbrag": 23831,
    "Ġcounted": 12137,
    "Ġmerry": 5868,
    "application": 12361,
    "cloth": 11935,
    "Ġalle": 11665,
    "evade": 24820,
    "Ġjoker": 22295,
    "Ġfrightful": 7735,
    "hat": 6956,
    "Ġperfidious": 25666,
    "unexpected": 15775,
    "resides": 23667,
    "Ġreasonable": 7252,
    "rendering": 22337,
    "bethinking": 25745,
    "abroad": 18108,
    "ermaid": 14297,
    "affectionate": 24921,
    "Ġowing": 6004,
    "Ġaccommodate": 20515,
    "increased": 20269,
    "gging": 7696,
    "dying": 10694,
    "inder": 9152,
    "unworthy": 18161,
    "ferred": 16358,
    "Ġfeeling": 3081,
    "Ġtho": 21511,
    "Ġstirred": 12215,
    "Ġdangers": 12352,
    "Ġenorm": 5302,
    "================================================================": 9989,
    "rential": 22915,
    "condesc": 18505,
    "mantel": 26394,
    "service": 15036,
    "Ġlieu": 19563,
    "Ġpersonages": 23537,
    "Ġcoffin": 4426,
    "venant": 22624,
    "Ġcho": 4545,
    "promise": 12248,
    "Ġlungs": 8362,
    "els": 1765,
    "Ġcoral": 11919,
    "Ġsavage": 4012,
    "pier": 17635,
    "¾": 127,
    "Ġdisregard": 22525,
    "orses": 6051,
    "Ġnobleman": 19390,
    "home": 7342,
    "Ġsurvivors": 25732,
    "Ġscramble": 24578,
    "Ġ$": 21149,
    "Ġcoleridge": 18766,
    "Ġhappens": 2187,
    "source": 11525,
    "Ġrepeatedly": 9020,
    "Ġcanvas": 7783,
    "kward": 6958,
    "Ġdirectly": 2106,
    "scheme": 15253,
    "factories": 19842,
    "doctor": 19095,
    "lar": 4482,
    "milk": 20475,
    "spring": 7232,
    "Ġint": 409,
    "Ġungover": 18255,
    "hing": 980,
    "Ġdegraded": 19225,
    "Ġinfinitely": 8967,
    "Ġbottle": 7491,
    "Ġbarmaid": 19334,
    "Ġplaything": 19236,
    "Ġsprain": 18305,
    "Ġcomprehens": 8319,
    "Ġbrain": 2089,
    "Ġstoried": 18072,
    "odecim": 9831,
    "Ġcut": 2640,
    "judgment": 16753,
    "Ġmerchant": 6466,
    "amiable": 14052,
    "doing": 8584,
    "Ġlandsmen": 11351,
    "apping": 5851,
    "Ġhussey": 7724,
    "Ġdisse": 18548,
    "pretend": 24882,
    "reserved": 13842,
    "abri": 6682,
    "ney": 2494,
    "Ġexperiments": 23027,
    "Ġ54": 24322,
    "Ġdictated": 25218,
    "Ġimpassable": 20611,
    "imaux": 21709,
    "Ġcorrectly": 9403,
    "Ġrider": 24185,
    "Ġfoolscap": 24158,
    "Ġparadigms": 3054,
    "Ġoust": 21322,
    "grieved": 17316,
    "Ġrehearsed": 25971,
    "Ġmitigates": 3049,
    "tooth": 18579,
    "Ġvolley": 24145,
    "Ġdealing": 14044,
    "Ġblocked": 19221,
    "Ġbliss": 12998,
    "Ġdestroyed": 5271,
    "Ġveil": 7934,
    "folio": 10546,
    "despicable": 24636,
    "Ġmusket": 12294,
    "Ġrelations": 5852,
    "sheep": 23083,
    "clump": 23152,
    "Ġleaf": 15720,
    "Ġapprehensions": 13403,
    "charming": 15703,
    "Ġmedit": 8018,
    "Ġsqueeze": 10038,
    "Ġthickets": 24022,
    "quickly": 14960,
    "unwillingness": 25802,
    "Ġstrands": 25574,
    "Ġnightmare": 18919,
    "Ġconstant": 6309,
    "Ġdisappearance": 9296,
    "Ġpersuade": 5872,
    "Ġvindictive": 20468,
    "Ġthrone": 12211,
    "goose": 19101,
    "por": 2151,
    "eldom": 4411,
    "Ġphrases": 2795,
    "Ġfitness": 23997,
    "whalers": 17263,
    "idled": 21765,
    "Ġmakes": 3650,
    "Ġpredecessor": 26253,
    "Ġentity": 10344,
    "Ġdesolated": 24812,
    "nets": 9132,
    "Ġtranced": 18426,
    "threatened": 25462,
    "Ġra": 817,
    "Ġmabel": 17323,
    "Ġaccess": 9746,
    "Ġsnaky": 23740,
    "rigged": 17062,
    "Ġentropy": 2033,
    "lue": 8508,
    "allet": 11082,
    "Ġtorrid": 25032,
    "Ġpositional": 2596,
    "Ġmallet": 17810,
    "ittarius": 22377,
    "acet": 5476,
    "Ġcreature": 2384,
    "Ġreluctant": 20523,
    "itary": 4749,
    "Ġseasoned": 24405,
    "Ġpanelled": 19653,
    "Ġunrestingly": 20359,
    "Ġhand": 860,
    "Ġsuppl": 11078,
    "Ġbounds": 9917,
    "Ġsounds": 5189,
    "possibility": 13360,
    "Ġdeclaration": 16636,
    "Ġrichest": 26211,
    "educated": 17259,
    "istically": 14143,
    "serv": 7452,
    "Ġcounters": 24140,
    "inting": 9813,
    "mult": 8747,
    "rug": 18336,
    "ix": 1799,
    "ived": 1529,
    "Ġeuropean": 20044,
    "ets": 1159,
    "Ġturban": 23611,
    "miserable": 8656,
    "ease": 12455,
    "Ġadjust": 2155,
    "Ġcont": 621,
    "Ġhav": 12751,
    "Ġmurdered": 6463,
    "Ġupbra": 22151,
    "Ġcorrid": 9823,
    "Ġunsophisticated": 25992,
    "learnt": 23615,
    "Ġaltar": 9228,
    "vision": 5620,
    "Ġsavoury": 23875,
    "smile": 23903,
    "Ġhisself": 21911,
    "Ġdesc": 776,
    "Ġhospitality": 13512,
    "fish": 3513,
    "U": 57,
    "rench": 3969,
    "aled": 3945,
    "Ġaccompany": 9486,
    "Ġprestige": 22233,
    "oking": 4604,
    "ć": 200,
    "Ġconsum": 9798,
    "aneously": 4062,
    "Ġhearses": 20058,
    "Ġdiscern": 7925,
    "Ġauxiliary": 26418,
    "Ġacross": 1329,
    "using": 5468,
    "belong": 12120,
    "Ġgasping": 17038,
    "Ġimmensity": 25329,
    "neurons": 3132,
    "conda": 18993,
    "Ġloaded": 8490,
    "Ġleviathan": 3284,
    "Ġpir": 6818,
    "Ġlulled": 17968,
    "marvell": 24172,
    "_.âĢĿ": 5885,
    "rels": 6664,
    "Ġlegisl": 23531,
    "isome": 17848,
    "aisance": 15073,
    "Ġthumb": 6981,
    "Ġmystery": 5509,
    "lings": 8745,
    "ampling": 12723,
    "¯": 112,
    "Ġvengeful": 14888,
    "Ġpushed": 5909,
    "sof": 17657,
    "·": 120,
    "custom": 15332,
    "Ġinvaders": 23479,
    "Ġ114": 24438,
    "Ġneither": 3685,
    "isive": 10793,
    "Ġtackle": 9512,
    "evenings": 19461,
    "Ġaz": 9629,
    "Ġsixpence": 19316,
    "reject": 21235,
    "mant": 20964,
    "Ġmeant": 3549,
    "Ġpeculiarly": 8286,
    "Ġspecksnyder": 17402,
    "Ġuncles": 23429,
    "Ġformer": 3318,
    "Ġwilling": 7422,
    "Ġpivot": 13922,
    "Ġlaborers": 19055,
    "Ġdomes": 23704,
    "Ġdark": 2114,
    "Ġwise": 6811,
    "Ġharb": 7371,
    "imper": 13996,
    "Ġyellow": 5300,
    "ages": 829,
    "Ġfettered": 24568,
    "Ġoffering": 3006,
    "gorge": 22334,
    "Ġcom": 368,
    "Ġvancouver": 26565,
    "richard": 17286,
    "Ġexh": 5232,
    "ifying": 5251,
    "Ġnook": 15926,
    "Ġferule": 24499,
    "hit": 20888,
    "Ġhorn": 6185,
    "Ġask": 1492,
    "gently": 13728,
    "exact": 7909,
    "named": 9894,
    "Ġxxii": 24478,
    "united": 14059,
    "shoulder": 16583,
    "insult": 16278,
    "Ġterti": 14537,
    "Ġattraction": 18619,
    "Ġenem": 4705,
    "Ġacted": 7423,
    "ify": 1358,
    "national": 20997,
    "Ġblasphe": 17406,
    "gaze": 17557,
    "Ġqual": 6274,
    "web": 18664,
    "sor": 7353,
    "databases": 3023,
    "ability": 716,
    "robust": 19727,
    "Ġuncork": 23428,
    "Ġrepul": 16407,
    "Ġcretan": 22721,
    "ort": 524,
    "went": 6511,
    "Ġryder": 10258,
    "Ġhugh": 15004,
    "Ĭ": 237,
    "Ġrestraint": 15126,
    "Ġenvy": 13176,
    "69": 17474,
    "Ġlanguor": 12844,
    "Ġpigeon": 9515,
    "Ġprodigiously": 14930,
    "Ġmemorable": 16426,
    "Ġfer": 5529,
    "Ġgenerating": 12848,
    "Ġrand": 1585,
    "Ġchained": 16387,
    "Ġdandy": 17892,
    "Ġstoner": 7179,
    "Ġpatched": 16377,
    "repairing": 24495,
    "Ġactivations": 2720,
    "vious": 1784,
    "Ġcontortions": 18476,
    "Ġscornful": 24996,
    "Ġbuff": 9172,
    "Ġbreckinridge": 14522,
    "ivation": 3107,
    "Ġreach": 4049,
    "dismay": 19152,
    "Ġobjective": 3765,
    "Ġworst": 7445,
    "Ġshoots": 14567,
    "Ġwarm": 2428,
    "Ġgesture": 11399,
    "Ġneg": 1331,
    "Ġmurderous": 8315,
    "Ġpublic": 4329,
    "Ġrustic": 14963,
    "surv": 24213,
    "Ġthey": 577,
    "Ġsunday": 7271,
    "Ġparched": 11725,
    "chronicle": 26480,
    "Ġamelia": 26251,
    "Ġinfinity": 23319,
    "eps": 12788,
    "Ġcasement": 25092,
    "restored": 18977,
    "Ġhoars": 19073,
    "Ġsituation": 4074,
    "Ġquantization": 19853,
    "Ġblunder": 18818,
    "Ġoccupy": 14729,
    "gs": 7339,
    "Ġsalesman": 13667,
    "Ġirish": 14533,
    "Ġincites": 22548,
    "Ġtough": 13814,
    "Ġtruce": 24116,
    "fortunately": 9450,
    "Ġsubt": 11866,
    "shadows": 25479,
    "Ġswap": 23050,
    "Ġwickedness": 9525,
    "concerning": 9067,
    "Ġbeak": 18079,
    "Ġshalt": 18230,
    "Â·": 21148,
    "Ġsen": 9156,
    "Ġsneezing": 12245,
    "sy": 2639,
    "Ġburial": 16520,
    "Ġwriting": 4665,
    "Ġfiend": 4409,
    "Ġdiligent": 25075,
    "Ġcolleg": 22850,
    "Ġfebruary": 15911,
    "_": 67,
    "Ġthinner": 24182,
    "Ġalphabetical": 17201,
    "Ġhol": 1181,
    "irited": 15784,
    "urer": 18121,
    "cing": 1012,
    "Ġincidents": 9298,
    "wedged": 24338,
    "delights": 19700,
    "gins": 12466,
    "Ġgrotesque": 26329,
    "Ġcoll": 8220,
    "Ġfeedforward": 2328,
    "won": 7144,
    "sleet": 20148,
    "slow": 7810,
    "Ġincorrupt": 19233,
    "Ġcompares": 20165,
    "Ġrays": 10330,
    "consternation": 16912,
    "morland": 24153,
    "Ġfancied": 7327,
    "Ġprogramming": 1183,
    "Ġestate": 6316,
    "Ġconfirms": 23305,
    "boy": 4736,
    "idually": 21766,
    "Ġmighty": 4228,
    "Ġblameless": 19858,
    "Ġtoiled": 12639,
    "confirmed": 19644,
    "Ġfallen": 5967,
    "Ġrefers": 1565,
    "Ġcoal": 18595,
    "hawks": 24694,
    "Ġacceded": 22373,
    "Ġarrives": 23605,
    "Ġgem": 21591,
    "stubb": 6017,
    "Ġyield": 5092,
    "Ġconsoled": 18112,
    "nowadays": 22335,
    "Ġbackstays": 22650,
    "sixty": 24852,
    "Ġamput": 16032,
    "Ġprecautions": 23725,
    "Ġshrill": 12139,
    "Ġdreaminess": 23937,
    "bowing": 24454,
    "Ġedition": 16434,
    "Ġwhitt": 18054,
    "Ġentire": 2558,
    "Ġcomput": 602,
    "icilian": 20690,
    "Ġplacing": 8900,
    "Ġtemptation": 8677,
    "Ġdetective": 14409,
    "Ġarter": 22179,
    "Ġeleven": 9388,
    "eted": 7592,
    "Ġhence": 4987,
    "Ġexternal": 8365,
    "Ġpecks": 18669,
    "ruit": 22174,
    "Ġharbour": 19978,
    "Ġridic": 7509,
    "ulating": 10887,
    "Ġreceptive": 1561,
    "engines": 18927,
    "Ġhumbly": 16196,
    "cules": 12389,
    "Ġstiffly": 15005,
    "rates": 21037,
    "narrowly": 20346,
    "Ġasc": 4763,
    "======": 9832,
    "Ġmight": 962,
    "Ġcynical": 25770,
    "material": 13128,
    "/(": 2981,
    "Ġwhatsoever": 18455,
    "Ġpatagon": 14504,
    "wid": 10134,
    "Ġconvincing": 19307,
    "Ġpri": 5813,
    "Ġerrors": 2595,
    "Ġbressed": 21385,
    "whispering": 26103,
    "Ġsettles": 22917,
    "Ġtormented": 8674,
    "zor": 15457,
    "Ġoppose": 16518,
    "soldiers": 25911,
    "oration": 2208,
    "Ġvaults": 17153,
    "Ġterrible": 5327,
    "Ġessentially": 24924,
    "heed": 15497,
    "intense": 22933,
    "ensing": 12893,
    "Ġregular": 936,
    "Ġsalary": 13292,
    "asis": 12647,
    "itters": 10781,
    "Ġexecutors": 19532,
    "scenes": 16240,
    "Ġinsc": 7586,
    "ju": 13740,
    "Ġpadded": 25036,
    "Ġnothing": 1360,
    "Ġspare": 5101,
    "paddington": 20476,
    "Ġhorrible": 4903,
    "eral": 9159,
    "Ġout": 543,
    "Ġuttered": 7281,
    "eur": 7546,
    "Ġethiopian": 26613,
    "Ġbony": 12584,
    "Ġcontinents": 16849,
    "Ġfraud": 19017,
    "Ġfamil": 4317,
    "sum": 2088,
    "omp": 2472,
    "Ġtweed": 22674,
    "?_": 8069,
    "etween": 774,
    "Ġunless": 4092,
    "mature": 20966,
    "Ġtalents": 15044,
    "Ġwarrior": 24496,
    "Ġfailure": 13313,
    "ittleness": 22376,
    "Ġrapt": 7227,
    "answ": 15882,
    "commend": 19991,
    "Ġcloak": 9533,
    "Ġungracious": 18258,
    "Ġlocations": 12411,
    "orders": 12871,
    "motives": 26137,
    "Ġinjunctions": 24269,
    "Ġforesight": 13126,
    "fortunes": 6332,
    "caves": 20815,
    "Ġcreaking": 14327,
    "Ġnar": 7376,
    "Ġjustinian": 22964,
    "ning": 950,
    "Ġmultitud": 18746,
    "jee": 17579,
    "Ġgrowl": 16536,
    "Ġcrocodile": 20739,
    "Ġmer": 2931,
    "Ġsubstances": 24165,
    "ertips": 23638,
    "ernsey": 8901,
    "Ġshelf": 12265,
    "rose": 6013,
    "Ġroofs": 16985,
    "Ġavoided": 13257,
    "Ġindications": 14631,
    "Ġeyelids": 26107,
    "Ġjacobians": 2894,
    "Ġinquisitive": 26317,
    "Ġsuperior": 2751,
    "iana": 7048,
    "Ġstranger": 3484,
    "Ġofficers": 4423,
    "71": 20755,
    "Ġaccept": 4408,
    "Ġfretfulness": 25448,
    "Ġreasoning": 1981,
    "Ġ55": 24323,
    "matter": 5135,
    "conven": 6162,
    "Ġstumble": 26482,
    "rapidly": 15242,
    "Ġregimentals": 19857,
    "Ġconclusion": 5985,
    "Ġvariance": 1166,
    "oul": 4696,
    "complain": 14357,
    "way": 764,
    "Ġidler": 16404,
    "easy": 9592,
    "pleasanter": 24046,
    "Ġpurporting": 19181,
    "Ġchief": 3379,
    "german": 11491,
    "various": 10397,
    "Ġblasphemy": 26115,
    "Ġrecounted": 22735,
    "Ġcompens": 14263,
    "Ġpuzzle": 11305,
    "Ġthickly": 12113,
    "can": 1231,
    "throne": 25657,
    "Ġfishy": 16522,
    "Ġpawn": 12061,
    "Ġbreeding": 14521,
    "hogs": 20080,
    "enial": 17780,
    "ades": 5631,
    "Ġpent": 17903,
    "twill": 21073,
    "Ġmethodically": 23110,
    "Ġbackpropagation": 1253,
    "Ġ38": 24078,
    "Ġagent": 6277,
    "Ġsize": 1215,
    "Ġinev": 10181,
    "Ġjavan": 24997,
    "Ġcommod": 10333,
    "cruising": 12277,
    "Ġconstructed": 9385,
    "communication": 25881,
    "Ġexcluded": 16384,
    "Ġmouthful": 16573,
    "umps": 6317,
    "Ġfaster": 3192,
    "Ġagencies": 18542,
    "igate": 8822,
    "Ġbricks": 13561,
    "Ġburnished": 23995,
    "Ġble": 5223,
    "Ġbel": 1214,
    "Ġ[_": 15460,
    "unte": 21870,
    "Ġglobe": 6076,
    "Ġcord": 5222,
    "sto": 3193,
    "carte": 25400,
    "Ġartistic": 18612,
    "Ġborn": 5224,
    "Ġexasperate": 20096,
    "Ġattractions": 12913,
    "dun": 17516,
    "Ġinspiring": 19112,
    "Ġfanning": 23388,
    "Ġpunctual": 17137,
    "please": 8176,
    "ometer": 19325,
    "Ġaversion": 18865,
    "amy": 8467,
    "conjecturing": 20133,
    "Ġdet": 510,
    "pon": 17625,
    "Ġsales": 12804,
    "magn": 10610,
    "Ġslates": 11106,
    "Ġknots": 15008,
    "_âĢĶâĢĻ": 13681,
    "Ġbount": 15565,
    "Ġderive": 10394,
    "apothecary": 26545,
    "uming": 8491,
    "Ġmasonry": 13598,
    "ivers": 1983,
    "Ġstash": 18067,
    "uger": 21102,
    "Ġcleaning": 23177,
    "ense": 2053,
    "finds": 19926,
    "uring": 816,
    "Ġdrags": 16941,
    "Ġclanking": 20610,
    "hilar": 25081,
    "Ġsuperflu": 14554,
    "Ġmarble": 7669,
    "Ġtorch": 25030,
    "Ġfri": 17878,
    "Ġused": 2061,
    "late": 11498,
    "Ġveteran": 17449,
    "Ġdeadliest": 14556,
    "Ġextravagant": 17278,
    "Ġdespatched": 23827,
    "Ġautomation": 13277,
    "Ġwheeled": 14138,
    "Ġmasterless": 23992,
    "meditation": 19064,
    "derer": 4598,
    "ifference": 5632,
    "Ġimpropri": 14217,
    "Ġinert": 15619,
    "Ġoverwhelmed": 11403,
    "Ġchewed": 16366,
    "ges": 2873,
    "dense": 18716,
    "ucy": 15443,
    "ē": 212,
    "Ġheavens": 5048,
    "Ġlashed": 9198,
    "lizzy": 6651,
    "mou": 10708,
    "Ġdifferences": 18711,
    "Ġsurmise": 12293,
    "moonlight": 25375,
    "Ġdiminished": 16665,
    "ippers": 17576,
    "Ġflourishing": 25187,
    "Ġphys": 5653,
    "Ġunthinkingly": 26220,
    "rative": 17652,
    "Ġscraggy": 24579,
    "ojo": 7350,
    "Ġintuitions": 17340,
    "Ġuntamed": 19163,
    "Ġad": 441,
    "Ġsign": 2496,
    "Ġesteemed": 10588,
    "gu": 3958,
    "terrors": 25041,
    "Ġaddison": 14232,
    "Ġservice": 6470,
    "am": 367,
    "roman": 22001,
    "nowled": 5470,
    "en": 271,
    "Ġtimes": 2303,
    "Ġuncertain": 4070,
    "Ġdespised": 14665,
    "sius": 13787,
    "habit": 16187,
    "account": 5329,
    "engagement": 14457,
    "upper": 11538,
    "Ġoptim": 802,
    "Ġsine": 10763,
    "miseries": 16757,
    "Ġadm": 2403,
    "Ġkindling": 19029,
    "whalemen": 10431,
    "experience": 17158,
    "Ġdisclose": 16154,
    "Ġwhisper": 6205,
    "Ġjacket": 6488,
    "story": 9212,
    "Ġparlour": 12319,
    "Ġtantalizing": 20412,
    "fairly": 17219,
    "Ġnecessary": 4472,
    "Ġdespairing": 14771,
    "Ġequival": 4782,
    "Ġcontinues": 18808,
    "mology": 12489,
    "Ġfrosted": 19802,
    "Ġpads": 21472,
    "Ġo": 275,
    "cano": 18839,
    "archangel": 18791,
    "chiefly": 14844,
    "tumultuous": 20397,
    "Ġmolasses": 25628,
    "Ġinsufficient": 9672,
    "Ġendued": 14076,
    "wedding": 13370,
    "Ġforth": 3461,
    "Ġwindward": 6885,
    "Ġbuoyant": 13531,
    "Ġjourneys": 19473,
    "Ġthoughts": 3135,
    "Ġthereupon": 18434,
    "Ġinvention": 19951,
    "ideas": 18581,
    "Ġlingo": 24903,
    "king": 3057,
    "Ġguests": 12285,
    "ctu": 5087,
    "Ġbloodthirst": 23799,
    "Ġproflig": 23563,
    "spee": 9316,
    "gration": 9121,
    "wilful": 25086,
    "Ġvigil": 9506,
    "Ġdegener": 14047,
    "Ġstretching": 10014,
    "Ġgradu": 15830,
    "Ġfading": 15581,
    "ivity": 1647,
    "Ġherself": 1567,
    "Ġgathered": 8442,
    "stra": 4048,
    "Ġmetropolitan": 17275,
    "bug": 17492,
    "Ġsensible": 4974,
    "Ġcanal": 8181,
    "cure": 11474,
    "ħ": 232,
    "Ġundertake": 14478,
    "halfway": 24311,
    "perceive": 12809,
    "Ă": 195,
    "Ġeddies": 23436,
    "arbuck": 2026,
    "serpent": 16290,
    "Ġinstantly": 3590,
    "Ġdespond": 14666,
    "Ġrapid": 1461,
    "insisted": 23064,
    "limin": 8383,
    "Ġput": 1797,
    "Ġenables": 724,
    "Ġspiracle": 14149,
    "Ġfame": 21404,
    "touching": 15090,
    "Ġfiery": 6871,
    "omon": 10207,
    "Ġjealousy": 13575,
    "lines": 6959,
    "hereafter": 19215,
    "Ġwantonly": 22891,
    "ortment": 22254,
    "Ġindividually": 22954,
    "murmured": 24455,
    "Ġabreast": 18394,
    "featured": 24089,
    "Ġliberated": 19665,
    "Ġjaws": 5593,
    "Ġdesponding": 25868,
    "Ġcompatibility": 2959,
    "Ġfeeds": 16433,
    "Ġpallet": 21479,
    "Ġsins": 13836,
    "Ġacid": 22679,
    "friend": 3864,
    "osely": 9264,
    "Ġcorroded": 18875,
    "Ġthre": 2060,
    "Í": 142,
    "Ġlooks": 4166,
    "Ġrings": 11698,
    "Ġlightly": 13082,
    "Ġcoachman": 15000,
    "called": 6292,
    "Ġwhalebone": 10977,
    "Ġtempered": 12920,
    "Ġbrightly": 13222,
    "Ġfunny": 7638,
    "Ġrephrased": 26477,
    "Ġcraven": 16469,
    "Ġsavages": 9911,
    "Ġyore": 21775,
    "imitably": 21708,
    "consolatory": 25306,
    "Ġenduring": 16301,
    "atible": 17772,
    "Ġtowards": 1729,
    "Ġseven": 4540,
    "imodal": 17446,
    "Ġjen": 9266,
    "Ġsuperfluous": 17413,
    "Ġsolemnly": 8023,
    "halloa": 17090,
    "here": 2548,
    "promote": 24727,
    "Ġleghorn": 13145,
    "Ġgratifying": 13304,
    "cursed": 23841,
    "Ġhinting": 19648,
    "venge": 4656,
    "Ġshreds": 12767,
    "Ġtooth": 9192,
    "¡": 99,
    "meal": 22708,
    "amples": 1820,
    "apes": 9740,
    "Ġconjecture": 9531,
    "Ġdinnertime": 16719,
    "lasting": 8010,
    "fail": 17540,
    "Ġswash": 23053,
    "Ġlimb": 9401,
    "Ġwarehouse": 20415,
    "ckets": 6843,
    "Ġdestitute": 14565,
    "Ġbilliard": 16689,
    "lace": 13747,
    "Ġslabs": 13058,
    "Ġcolleague": 17159,
    "Ġgreen": 3050,
    "rously": 17654,
    "Ġinterrupted": 6343,
    "Ġrusty": 14962,
    "Ġnavy": 14914,
    "coach": 23556,
    "Ġvanishing": 1345,
    "medi": 2626,
    "Ġletters": 3792,
    "Ġricher": 12756,
    "Ġexplo": 2286,
    "Ġgoal": 10301,
    "Ġengagements": 9977,
    "Ġwhaleboats": 18478,
    "interests": 19707,
    "Ġcalm": 3446,
    "Ġappare": 12816,
    "Ġdiscove": 16153,
    "Ġlandscape": 12415,
    "know": 2319,
    "Ġsailed": 4887,
    "hypothe": 25905,
    "ighbour": 3386,
    "doublo": 24660,
    "Ġtashtego": 4485,
    "lashed": 20953,
    "Ġade": 22097,
    "Ġarrows": 18338,
    "answer": 11730,
    "Ġpeculiarities": 12068,
    "Ġprince": 18971,
    "Ġlearned": 2025,
    "delirious": 19504,
    "Ġlacepede": 20493,
    "Ġplates": 11007,
    "Ġtranquill": 6630,
    "fere": 10989,
    "cupboards": 25401,
    "Ġindefinite": 17176,
    "Ġlimit": 10443,
    "Ġgraph": 10902,
    "powder": 17645,
    "Ġzoned": 22815,
    "escape": 16005,
    "prosper": 19100,
    "Ġsteer": 10386,
    "noise": 14326,
    "Ġscaramouch": 23825,
    "Ġintellect": 8169,
    "Ġenvelop": 5586,
    "gerine": 22886,
    "ihood": 20921,
    "archbishop": 22894,
    "Ġcherished": 10590,
    "clopÃ¦dia": 15255,
    "Ġsect": 17751,
    "Ġalso": 1343,
    "Ġcried": 1487,
    "spir": 5738,
    "construction": 19777,
    "Ġprofile": 16487,
    "consciously": 19624,
    "indirectly": 18437,
    "allic": 12810,
    "pha": 22774,
    "sal": 8757,
    "ounders": 22391,
    "<SOS>": 1,
    "Ġfant": 9173,
    "Ġmuff": 8113,
    "Ġconducting": 16649,
    "Ġdropt": 23671,
    "Ġfrank": 4417,
    "again": 3396,
    "Ġpaying": 9937,
    "Ġtreacherously": 25129,
    "nut": 12492,
    "Ġbrooding": 18907,
    "non": 9611,
    "mes": 1197,
    "rib": 1946,
    "Ġgrove": 12144,
    "Ġgorge": 13565,
    "returning": 12203,
    "ented": 4345,
    "hom": 12471,
    "Ġfrigid": 17352,
    "Ġbulwarks": 5592,
    "Ġ108": 19683,
    "Ġreal": 1633,
    "ctuous": 9205,
    "opp": 6963,
    "ickering": 22667,
    "leap": 21365,
    "pocket": 9810,
    "Ġtacit": 21173,
    "fal": 17536,
    "withstand": 23023,
    "Ġinquire": 7719,
    "Ġtrod": 15026,
    "ters": 1574,
    ")(": 2980,
    "gloom": 17139,
    "Ġpathetic": 19034,
    "attentive": 17189,
    "Ġpoltro": 23618,
    "Ġclass": 782,
    "Ġhomely": 25219,
    "remark": 7262,
    "Ġexped": 7651,
    "manner": 6170,
    "Ġsulky": 13514,
    "uzz": 4522,
    "tuning": 1583,
    "inlaid": 21189,
    "impossible": 8823,
    "oud": 1941,
    "ground": 4669,
    "illation": 14141,
    "desired": 8957,
    "pleasant": 5874,
    "Ġhumans": 8929,
    "Ġmister": 22751,
    "Ġwag": 10775,
    "news": 23131,
    "Ġpursuing": 9437,
    "Ġthrill": 24541,
    "Ġsaving": 15885,
    "sign": 8387,
    "Ġtroubles": 19437,
    "Ġtraverse": 18890,
    "Ġcomb": 1084,
    "cerem": 15675,
    "airing": 16172,
    "screwed": 17187,
    "inct": 3288,
    "concent": 19478,
    "requent": 3648,
    "Ġpavement": 9577,
    "Ġvol": 4188,
    "osures": 22258,
    "Ġoil": 3370,
    "Ġitalian": 12408,
    "Ġunlucky": 10049,
    "Ġincluding": 2848,
    "Ġwilfully": 16766,
    "Ġ150": 22824,
    "sand": 21051,
    "Ġacknowledges": 24688,
    "Ġextremity": 8988,
    "Ġappre": 5164,
    "swe": 5995,
    "Ġebony": 18008,
    "soft": 12507,
    "Ġtang": 13813,
    "Ġhart": 17921,
    "cavity": 26126,
    "irmed": 9238,
    "Ġendured": 6072,
    "Ġpressed": 6041,
    "committed": 18743,
    "dington": 11899,
    "Ġmosses": 20162,
    "Ġamendment": 26024,
    "Ġtested": 23185,
    "Ġwrapt": 24595,
    "wheel": 22864,
    "larking": 17594,
    "chemical": 23806,
    "Ġtreble": 16502,
    "Ġhan": 15615,
    "Ġwond": 3940,
    "Ġord": 3734,
    "Ġpoltroon": 26598,
    "Ġgroaned": 11266,
    "Ġastonished": 7087,
    "Ġgoverness": 8600,
    "trick": 19411,
    "ned": 3490,
    "astonishment": 10029,
    "breaths": 25336,
    "Ġcompiled": 22567,
    "cont": 2922,
    "devilish": 17082,
    "Ġinfer": 6529,
    "loun": 17588,
    "island": 10794,
    "Ġbordering": 17228,
    "Ġhanding": 16128,
    "pondicherry": 26400,
    "idge": 14013,
    "Ġwear": 6030,
    "Ġfullest": 14812,
    "Ġconge": 15743,
    "Ġhowever": 1306,
    "Ġthrowing": 6335,
    "Ġcountenances": 11961,
    "mansion": 20982,
    "aways": 15309,
    "Ġindirect": 18834,
    "Ġdrop": 4341,
    "fordshire": 4674,
    "Ġbeaufort": 13567,
    "australian": 20560,
    "Ġabsurdities": 24878,
    "atmospheric": 17776,
    "questions": 16760,
    "contr": 12055,
    "Ġdispleasure": 16050,
    "tre": 8760,
    "rut": 8091,
    "Ġneighbourhood": 5125,
    "particularly": 8339,
    "Ġpruning": 18970,
    "softened": 20408,
    "Ġmarriage": 3183,
    "Ġwindpipe": 23102,
    "Ġblight": 18817,
    "Ġcrab": 13143,
    "Ġchann": 15933,
    "Ġbreathe": 9011,
    "Ġadmitting": 19182,
    "Ġbended": 21383,
    "lest": 5288,
    "Ġthrills": 24542,
    "destined": 24115,
    "Ġobjection": 6585,
    "Ġeagerly": 4988,
    "Ġrippling": 17277,
    "Ġoccasioned": 13225,
    "Ġrevisit": 21667,
    "Ġdisappeared": 5645,
    "Ġbrand": 16184,
    "may": 3678,
    "Ġbosom": 6939,
    "anting": 6411,
    "Ġdissect": 16051,
    "bent": 15310,
    "Ġverdure": 10612,
    "Ġriv": 10746,
    "ignorantly": 25189,
    "Ġcalifornia": 20528,
    "soon": 4030,
    "Ġchanced": 8186,
    "Ġagreeing": 20017,
    "Ġworship": 10366,
    "Ġunusual": 6553,
    "Ġdone": 1816,
    "toed": 18578,
    "nobody": 16133,
    "Ġyawning": 12298,
    "Ġcampaign": 20660,
    "begged": 18523,
    "Ġsaintly": 25931,
    "Ġunintelligible": 26514,
    "all": 485,
    "Ġchoked": 9263,
    "Ġbranches": 6776,
    "Ġprefers": 20512,
    "render": 10290,
    "Ġgraves": 11706,
    "Ġtrump": 8195,
    "Ġmarvels": 11083,
    "oder": 2460,
    "Ġbrigs": 20321,
    "Ġcompensated": 17400,
    "Ġlizzy": 3544,
    "plac": 15814,
    "¸": 121,
    "Ġincomplete": 17208,
    "Ġchimney": 6496,
    "compose": 24031,
    "consolation": 15151,
    "Ġworm": 9162,
    "Ġerud": 20053,
    "irts": 9237,
    "destroy": 19509,
    "kles": 17584,
    "Ġke": 1155,
    "Ġbidden": 24646,
    "Ġsacrificial": 24871,
    "lection": 3651,
    "Ġsex": 8841,
    "Ġbohemian": 17133,
    "wards": 1276,
    "Ġpolite": 9881,
    "Ġjohn": 5030,
    "Ġamounted": 18513,
    "globe": 25142,
    "Ġcens": 8412,
    "mic": 12486,
    "Ġdoc": 7201,
    "Ġgangs": 21606,
    "saved": 15430,
    "Ġhereafter": 9329,
    "etus": 21575,
    "copper": 19187,
    "anean": 7444,
    "Ġsight": 2113,
    "furniture": 20241,
    "ue": 1179,
    "ensils": 22545,
    "Ġkiller": 19567,
    "Ġinclemency": 22552,
    "stige": 21652,
    "semble": 1522,
    "Ġfixed": 2684,
    "shabbily": 26246,
    "io": 3803,
    "ooped": 17623,
    "bruary": 15234,
    "felt": 5888,
    "Ġago": 3133,
    "Ġassure": 4416,
    "Ġduring": 873,
    "Ġkrusenstern": 26377,
    "Ġflush": 14423,
    "Ġyer": 15731,
    "cruet": 17026,
    "Ġimages": 1602,
    "Ġcheering": 11133,
    "Ġminiatures": 20320,
    "Ġchamp": 18381,
    "Ġsubjected": 23568,
    "Ġwickham": 2205,
    "impress": 18051,
    "africa": 26308,
    "Ġsagacity": 16974,
    "Ġrepair": 11977,
    "Ġushered": 18356,
    "Ġages": 7028,
    "Ġ65": 24368,
    "Ġrabb": 4164,
    "vult": 21112,
    "Ġdecomposition": 5342,
    "drovand": 24760,
    "Ġtufted": 17014,
    "affa": 23774,
    "Ġunfrequent": 24110,
    "Ġsimply": 7219,
    "Ġtoad": 21507,
    "Ġgodson": 23354,
    "wrote": 11546,
    "Ġmac": 15536,
    "Ġbottled": 23793,
    "Ġrobins": 16270,
    "Ġlowermost": 23237,
    "Ġfumbling": 21415,
    "Ġmoth": 17802,
    "Ġkeepers": 23535,
    "Ġplaned": 24054,
    "raising": 21629,
    "whel": 7665,
    "Ġforesaw": 19127,
    "Ġhighest": 3527,
    "small": 6471,
    "Ġwasn": 6997,
    "Ġcontinue": 5398,
    "gallantry": 15058,
    "being": 3914,
    "wheels": 14380,
    "Ġalien": 14017,
    "Ġnovelist": 24777,
    "sheltered": 25585,
    "Ġpreceding": 7529,
    "Ġincl": 4268,
    "windlass": 16721,
    "sho": 6424,
    "Ġrossum": 3012,
    "Ġcracked": 8593,
    "marching": 25752,
    "Ġalders": 21781,
    "Ġcooped": 22580,
    "Ġlongitude": 11011,
    "Ġfighting": 12195,
    "Ġcomical": 11677,
    "iliary": 21723,
    "underneath": 23786,
    "Ġclinched": 17393,
    "Ġeldest": 6571,
    "Ġgroping": 13664,
    "commotion": 24913,
    "gazed": 15360,
    "rab": 7597,
    "rier": 9241,
    "americ": 8155,
    "Ġdial": 10810,
    "of": 767,
    "Ġperson": 2369,
    "Ġholland": 10365,
    "shone": 22452,
    "ten": 1555,
    "Ġderived": 8238,
    "grand": 7969,
    "soc": 5174,
    "Ġgamesome": 17289,
    "Ġplayfulness": 23635,
    "Ġstudies": 7955,
    "Ġupset": 22150,
    "Ġheightens": 24154,
    "Ġdistances": 22501,
    "Ġinvolves": 1104,
    "Ġplains": 14622,
    "Ġminut": 2202,
    "Ġtotally": 9470,
    "Ġgoes": 3854,
    "isf": 2437,
    "Ġ52": 24321,
    "almost": 4941,
    "Ġgriefs": 16771,
    "Ġcases": 3963,
    "Ġpawnbroker": 13657,
    "Ġgree": 7595,
    "ira": 3959,
    "Ġharshly": 25249,
    "Ġdesperate": 7776,
    "Ġthou": 1808,
    "Ġadversity": 24303,
    "itche": 7579,
    "imprudent": 14650,
    "Ġexposed": 8522,
    "Ġpark": 5465,
    "Ġthirst": 7590,
    "hello": 13362,
    "archical": 1926,
    "Ġfierc": 18715,
    "ominy": 13981,
    "Ġsunshine": 14494,
    "Ġresign": 18564,
    "Ġill": 2192,
    "quietude": 24655,
    "Ġapproximation": 2342,
    "ny": 4017,
    "Ġfeat": 10937,
    "Ġsensitiveness": 23733,
    "Ġbags": 24537,
    "pute": 8844,
    "Ġcorridor": 10671,
    "Ġdeploy": 2759,
    "Ġrenders": 13282,
    "peddling": 24696,
    "uff": 2730,
    "Ġmates": 4870,
    "pounds": 21024,
    "Ġconvey": 9980,
    "Ġsimpler": 2049,
    "Ġmutters": 23953,
    "Ġweighing": 20014,
    "Ġpatagonian": 20532,
    "Ġaway": 1243,
    "Ġinducement": 16843,
    "Ġturbul": 23610,
    "etent": 10199,
    "Ġunsupplied": 22038,
    "Ġappointed": 20101,
    "Ġloggerhead": 13656,
    "ders": 8074,
    "Ġtech": 1679,
    "Ġkid": 9724,
    "discovery": 12015,
    "Ġreceiving": 4880,
    "bacc": 7794,
    "Ġprolong": 6832,
    "Ġmembrane": 20502,
    "Ġst": 332,
    "Ġprocure": 9509,
    "cable": 20796,
    "Ġcolle": 8924,
    "Ġenthusiastic": 19964,
    "Ġseaward": 22944,
    "pect": 1255,
    "Ġbundles": 26175,
    "Ġchoke": 22246,
    "entreaties": 26185,
    "Ġsucceed": 4543,
    "Ġprofession": 6207,
    "sticking": 21651,
    "Ġhair": 3309,
    "Ġstains": 21738,
    "Ġrecord": 5316,
    "latin": 25258,
    "Ġwhereon": 16099,
    "Ġwarn": 5695,
    "Ġexempl": 21828,
    "Ġbigot": 24565,
    "Ġvindictiveness": 25738,
    "Ġleyden": 21744,
    "Ġmeditations": 25013,
    "Ġcleared": 6074,
    "Ġexcel": 3566,
    "hyena": 24252,
    "Ġphrenologist": 25607,
    "Ġende": 21929,
    "Ġlanyard": 26461,
    "Ġsinks": 19548,
    "Ġunderwent": 23234,
    "Ġtackles": 8050,
    "Ġfirst": 939,
    ")âĢĶ": 20741,
    "Ġinvol": 1049,
    "doc": 23374,
    "Ġwave": 7576,
    "separately": 25227,
    "Ġsmooth": 2777,
    "restoration": 23232,
    "ream": 2708,
    "Ġquar": 3110,
    "Ġenterprise": 8641,
    "Ġinv": 2225,
    "Ġstrives": 23690,
    "Ġbohemia": 10649,
    "subtle": 24243,
    "triumph": 15439,
    "rot": 21529,
    "eager": 12457,
    "susp": 10596,
    "ripp": 6403,
    "Ġvalued": 12180,
    "ubb": 1649,
    "Ġexam": 3710,
    "Ġfloating": 6604,
    "commod": 16174,
    "Ġthackeray": 26455,
    "Ġinfluenced": 19631,
    "Ġbuild": 6473,
    "Ġczar": 12571,
    "Ġring": 4449,
    "Ġcrowding": 13278,
    "Ġdo": 512,
    "bulwarks": 12270,
    "ax": 694,
    "ĠĠĠĠĠĠĠĠĠĠĠĠĠĠĠĠĠĠĠ": 22947,
    "j": 78,
    "Ġunshored": 25813,
    "eline": 2256,
    "Ġtravellers": 11308,
    "Ġcharles": 11954,
    "Ġlids": 12273,
    "whilst": 18371,
    "vocabulary": 25085,
    "Ġgravel": 14101,
    "Ġspacious": 18312,
    "Ġascendency": 20231,
    "sculptured": 26045,
    "Ġgoin": 18469,
    "Ġshepherd": 14152,
    "Ġsmitten": 12896,
    "Ġcalmly": 7733,
    "arity": 1304,
    "raint": 18316,
    "Ġflaming": 8563,
    "yards": 9623,
    "Ġig": 3499,
    "Ġunwarrant": 20132,
    "Ġscheduling": 2350,
    "alcul": 15625,
    "tack": 12510,
    "Ġupwards": 7634,
    "masts": 19423,
    "Ġniagara": 26458,
    "Ġavalanche": 17432,
    "Ġlapse": 17120,
    "Ġjollies": 20368,
    "Ġzer": 1097,
    "occurrences": 26331,
    "flame": 16637,
    "mare": 17599,
    "bony": 15318,
    "talk": 6656,
    "Ġplayfully": 19237,
    "whaling": 7898,
    "Ġdollars": 11455,
    "ė": 216,
    "Ġcellars": 24665,
    "Ġpervading": 20612,
    "Ġulster": 14997,
    "ricane": 16277,
    "Ġchronicler": 20228,
    "Ġstiffest": 24829,
    "Ġfactor": 19013,
    "Ġdoubtful": 19141,
    "feed": 9292,
    "olidity": 18131,
    "Ġ(_": 3735,
    "Ġembalmed": 13655,
    "Ġvaulted": 25167,
    "Ġtapping": 10752,
    "Ġvulgarity": 25363,
    "Ġpicture": 4854,
    "Ġsob": 12785,
    "Ġmien": 17808,
    "Ġlingering": 11379,
    "Ġagreeably": 24952,
    "Ġglobules": 26588,
    "taken": 7561,
    "Ġtooks": 23323,
    "Ġbasis": 16961,
    "Ġthimble": 15634,
    "Ġca": 21337,
    "Ġretire": 10381,
    "surprise": 9529,
    "Ġcomprised": 14267,
    "Ġaback": 22263,
    "elihood": 4620,
    "Ġunnearable": 26516,
    "Ġimmortality": 26325,
    "Ġspending": 10923,
    "Ġespe": 21154,
    "ifting": 6545,
    "Ġmyself": 1456,
    "Ġagreeable": 4550,
    "Ġcrumb": 16440,
    "Ġconveniently": 20077,
    "degrees": 22147,
    "akin": 11766,
    "Ġceiling": 7996,
    "Ġlucerne": 23862,
    "Ġwreck": 7315,
    "Ġfaithfully": 14885,
    "Ġleaders": 16627,
    "Ġbuckle": 17033,
    "Ġauthentic": 20534,
    "Ġunduly": 25994,
    "Ġneeded": 7717,
    "Ġinferior": 8351,
    "Ġapex": 24342,
    "Ġready": 3395,
    "Ġtill": 1822,
    "Ġkink": 22190,
    "Ġbrewed": 23342,
    "sutherland": 21061,
    "Ġfurnace": 19438,
    "dering": 5305,
    "Ġlawyers": 25248,
    "Ġswell": 8949,
    "Ġjup": 15950,
    "Ġheaviest": 23321,
    "Ġknocking": 10559,
    "Ġproceedings": 9906,
    "Ġunwound": 25169,
    "Ġsuspecting": 14908,
    "Ġdecl": 3588,
    "mighty": 9466,
    "âĢĻ": 379,
    "Ġexplanations": 15908,
    "cats": 17512,
    "Ġeyeing": 6459,
    "Ġbade": 9171,
    "clo": 5613,
    "Ġgroan": 13323,
    "Ġbrown": 6298,
    "icorn": 15654,
    "ign": 1702,
    "urned": 9305,
    "Ġquenched": 22414,
[...]
