{
  "metadata": {
    "vocab_size": 26613,
    "algorithm": "BPE",
    "created_at": "2026-05-03 05:29:59",
    "special_tokens": [
      "<PAD>",
      "<SOS>",
      "<EOS>",
      "<UNK>",
      "<MASK>"
    ]
  },
  "vocab": {
    "Ġgriefs": 16770,
    "eg": 17528,
    "sorts": 21059,
    "aset": 10831,
    "gd": 3126,
    "Ġtyphoons": 20233,
    "Ġclassify": 1553,
    "Ġbig": 5805,
    "Ġsubt": 11865,
    "Ġcannibals": 10586,
    "Ġnecess": 3478,
    "itching": 21333,
    "happened": 9431,
    "Ġallures": 22006,
    "Ġfun": 523,
    "language": 5129,
    "command": 6576,
    "J": 46,
    "Ġleghorn": 13144,
    "Ġconvenient": 8346,
    "Ġsounding": 8265,
    "plex": 708,
    "Ġoctavo": 15161,
    "Ġstaple": 26198,
    "daring": 20828,
    "Ġcongratulations": 10579,
    "Ġdollar": 25283,
    "heavenly": 20043,
    "Ġcoals": 16072,
    "Ġchil": 11748,
    "Ġloveliest": 20260,
    "==": 945,
    "Ġfrocks": 23919,
    "Ġbehavioral": 11395,
    "Ġmanly": 22322,
    "Ġfurniture": 6476,
    "miss": 3174,
    "Ġah": 5075,
    "Ġimmensity": 25329,
    "sa": 8756,
    "Ġtruest": 16702,
    "pointing": 12221,
    "contented": 14633,
    "Ġprocured": 8676,
    "Ġanxious": 4518,
    "Ġlate": 3381,
    "Ġcliffs": 15965,
    "Ġhammock": 5768,
    "Ġsustaining": 25333,
    "Ġfamed": 16323,
    "fabulous": 20472,
    "Ġearly": 2078,
    "Ġinvite": 14561,
    "Ġhanded": 8217,
    "Ġinstruct": 2865,
    "Ġgrant": 11870,
    "Ġdelic": 4135,
    "Ġcoachman": 14999,
    "nowadays": 22335,
    "Ġpad": 8125,
    "Ġhereafter": 9328,
    "iminished": 19021,
    "ridge": 9495,
    "Ġoriginated": 24121,
    "Ġthunders": 15634,
    "waistcoat": 17359,
    "Ġdireful": 11016,
    "relu": 17758,
    "ux": 7814,
    "hauteur": 26390,
    "Ġhypocritical": 20737,
    "Ġforeman": 23446,
    "uvier": 9067,
    "Ġmetal": 9382,
    "Ġrecent": 7436,
    "Ġhelp": 1638,
    "Ġgrieve": 14705,
    "surely": 10568,
    "loat": 8885,
    "her": 488,
    "atha": 6572,
    "happiest": 19331,
    "Ġanimate": 23421,
    "omon": 10205,
    "Ġthrills": 24541,
    "Ġproceeded": 5335,
    "Ġobsequ": 14318,
    "Ġreceptive": 1562,
    "bru": 12436,
    "Ġresentful": 24632,
    "Ġrecommended": 8667,
    "Ġtables": 9876,
    "Ġwallowed": 24041,
    "carp": 9108,
    "--": 1040,
    "Ġstate": 1810,
    "Ġcombing": 22857,
    "system": 3978,
    "whalebone": 19118,
    "oughed": 22079,
    "Ġquest": 2001,
    "Ġintricacies": 15136,
    "Ġloun": 7166,
    "Ġcasked": 24496,
    "declined": 25174,
    "quick": 6400,
    "wic": 21119,
    "alse": 4185,
    "Ġmortar": 19391,
    "Ġreleased": 2978,
    "Ġcontrari": 23346,
    "gu": 3959,
    "Ġdenote": 19332,
    "Ġindisc": 16225,
    "combe": 7661,
    "Ġimpending": 22379,
    "Ġedge": 5188,
    "string": 15682,
    "Ġelizabeth": 1131,
    "cry": 12442,
    "prints": 23810,
    "Ġintens": 7003,
    "Ġsuppressed": 11909,
    "Ġprouder": 18972,
    "Ġisa": 14023,
    "ass": 536,
    "rown": 2192,
    "Ġlarge": 1064,
    "Ġinsufficient": 9671,
    "gments": 12466,
    "Ġhimmale": 18334,
    "Ġexciting": 23311,
    "arent": 4251,
    "Ġhatch": 7848,
    "ighter": 7968,
    "Ġcritic": 19124,
    "streets": 13393,
    "Ġprofession": 6207,
    "script": 11076,
    "rugg": 15893,
    "Ġirons": 7696,
    "Ġbeacon": 21754,
    "Ġmechan": 1172,
    "simultaneously": 19863,
    "year": 11094,
    "utored": 15659,
    "Ġpeg": 22687,
    "Ġimpulsive": 19961,
    "Ġlighten": 23258,
    "Ġstove": 6733,
    "ote": 4597,
    "afflicted": 23777,
    "Ġrat": 4354,
    "Ġbefore": 811,
    "save": 13783,
    "Ġardent": 9968,
    "Ġdefer": 18822,
    "pounds": 21024,
    "Ġtoil": 6531,
    "Ġterrify": 19359,
    "Ġprofusion": 23567,
    "Ġpants": 21463,
    "intention": 10366,
    "Ġsurround": 4618,
    "Ġrambling": 18646,
    "Ġtranscend": 25667,
    "Ġadding": 2405,
    "Ġdetaining": 25818,
    "Ġwillingness": 24910,
    "illes": 12690,
    "Ġsqueezing": 25006,
    "oration": 2212,
    "Ġtoller": 9089,
    "mble": 1407,
    "didst": 19347,
    "beth": 13686,
    "Ġpolitely": 8992,
    "Ġtraitors": 23075,
    "estone": 18364,
    "Ġmonsie": 11446,
    "Ġtypewritten": 16418,
    "Ġwindibank": 7257,
    "Ġlat": 5087,
    "Ġjets": 10286,
    "holder": 13279,
    "Ġwont": 9850,
    "Ġjealousy": 13574,
    "Ġtearing": 14393,
    "Ġexposed": 8522,
    "Ġceaseless": 13486,
    "Ġvouch": 15806,
    "Ġfacing": 10170,
    "thinks": 16640,
    "Ġcontrolled": 23248,
    "depend": 9111,
    "Ġbrows": 13298,
    "Ġhotel": 8650,
    "bingley": 4927,
    "trem": 17680,
    "square": 15060,
    "Ġbearded": 15723,
    "Ġnineveh": 13387,
    "Ġsain": 17749,
    "Ġtweezers": 26555,
    "Ġhorseback": 14848,
    "threw": 21982,
    "Ġapparent": 5466,
    "Ġreconsidered": 21671,
    "orne": 17872,
    "inea": 7622,
    "count": 4214,
    "Ġfret": 10805,
    "Ġswashing": 23054,
    "french": 9118,
    "Ġstumble": 26481,
    "quid": 18146,
    "Ġmonuments": 22980,
    "Ġliterally": 15114,
    "conf": 4957,
    "Ġamazing": 9975,
    "Ġcurls": 22960,
    "Ġsurely": 6307,
    "Ġsolicit": 22883,
    "Ġdus": 8423,
    "outside": 12800,
    "Ġomin": 11575,
    "nobody": 16133,
    "consolation": 15150,
    "Ġfurrow": 22813,
    "ails": 6160,
    "hauled": 20667,
    "anyone": 16592,
    "Ġcrib": 21346,
    "Ġenlar": 15797,
    "ball": 7793,
    "Ġshaster": 21996,
    "obliv": 23094,
    "Ġassigned": 16309,
    "Ġwrench": 12553,
    "Ġlizzie": 26461,
    "quis": 7871,
    "reds": 12744,
    "Ġspears": 12922,
    "time": 3147,
    "Ġattending": 3288,
    "walking": 9980,
    "science": 11906,
    "Ġviolently": 6456,
    "Ġlinen": 12404,
    "Ġsometimes": 2167,
    "Ġclap": 10956,
    "Ġebb": 21622,
    "Ġsimple": 1618,
    "Ġhampshire": 15240,
    "extra": 8219,
    "creation": 14803,
    "Ġnap": 8807,
    "Ġrejecting": 17050,
    "Ġyoked": 15731,
    "Ġchaplain": 19911,
    "Ġmanifested": 17156,
    "Ġvarying": 15807,
    "Ġlabourers": 23329,
    "accessible": 13637,
    "Ġhunters": 6300,
    "Ġcivility": 4788,
    "stubb": 6018,
    "Ġdeplored": 20503,
    "romising": 18233,
    "quietude": 24655,
    "Ġshall": 1143,
    "Ġmoth": 17802,
    "Ġsquall": 7043,
    "Ġsandwic": 24664,
    "Ġprairie": 8712,
    "Ġraises": 11842,
    "Ġrascal": 11698,
    "dem": 10690,
    "tling": 9141,
    "Ġpoisonous": 24887,
    "Ġlakeman": 6986,
    "ittle": 812,
    "Ġmurmured": 7480,
    "Ġdocks": 14174,
    "Ġhaunt": 18197,
    "Ġprosper": 10227,
    "Ġjoyously": 19345,
    "steam": 23957,
    "Ġsan": 7825,
    "Ġfiery": 6871,
    "onian": 17766,
    "Ġsord": 21218,
    "Ġbench": 7238,
    "Ġseason": 5237,
    "Ġgoat": 16003,
    "itzerland": 9993,
    "Ġexclamations": 11360,
    "Ġpartly": 6713,
    "Ġeloped": 22644,
    "archangel": 18785,
    "Ġsynthe": 26007,
    "write": 14646,
    "Ġdemands": 19642,
    "ibid": 18845,
    "etian": 13957,
    "ittance": 12841,
    "Ġgrey": 4513,
    "Ġmagnificent": 9842,
    "Ġital": 10865,
    "aisance": 15072,
    "Ġcap": 2363,
    "Ġtattooing": 15026,
    "Ġencodings": 4775,
    "took": 6164,
    "dia": 2134,
    "Ġavocation": 23950,
    "Ġtawn": 13821,
    "Ġhut": 15615,
    "paper": 9135,
    "omn": 15678,
    "Ġmatrim": 11059,
    "oters": 21797,
    "Ġtreated": 7080,
    "Ġhardship": 18913,
    "crooked": 25746,
    "fordshire": 4677,
    "hide": 10702,
    "Ġcensured": 25094,
    "Ġbashful": 20418,
    "oper": 7347,
    "Ġstooping": 13058,
    "Ġhieroglyphic": 25587,
    "putting": 14098,
    "okers": 18441,
    "Ġeng": 1165,
    "ildad": 3536,
    "Ġheiress": 20696,
    "Ġplanet": 14748,
    "Ġwilfully": 16765,
    "affa": 23775,
    "Ġcopestone": 24936,
    "ece": 17530,
    "fle": 7128,
    "Ġmingled": 12374,
    "Ġfitted": 6243,
    "Ġmess": 7832,
    "Ġinquiring": 8998,
    "ston": 15679,
    "Ġdressed": 5081,
    "Ġwelcome": 5603,
    "raise": 18011,
    "uarded": 21104,
    "Ġwooded": 23517,
    "Ġserved": 8246,
    "ieve": 1658,
    "Ġtrinity": 22358,
    "boats": 6204,
    "refuge": 24734,
    "Ġpresent": 1639,
    "Ġschoolboys": 24480,
    "rit": 21034,
    "Ġpress": 5932,
    "Ġmassachusetts": 24021,
    "Ġperishing": 22395,
    "Ġoffended": 7040,
    "invari": 21183,
    "Ġlain": 17961,
    "violence": 16476,
    "Ġefficient": 1050,
    "Ġindomitableness": 26570,
    "Ġinnumerable": 13349,
    "Ġgenerative": 5644,
    "Ġexpectations": 13141,
    "Ġquickly": 4242,
    "Ġmolasses": 25628,
    "Ġfisherman": 12072,
    "Ġfleecy": 17022,
    "Ġfre": 1570,
    "corrupt": 14893,
    "Ġsends": 14787,
    "pp": 384,
    "Ġripe": 13233,
    "Ġeighteen": 11237,
    "Ġmccarthys": 19661,
    "ferent": 4195,
    "course": 6104,
    "Ġtext": 2270,
    "ckets": 6843,
    "Ġcreditable": 19621,
    "discharging": 26305,
    "Ġru": 948,
    "fedallah": 25522,
    "huzza": 20912,
    "Ġroot": 2654,
    "Ġendeav": 2956,
    "Ġwigwam": 11427,
    "Ġhessian": 3553,
    "doubt": 6782,
    "Ġmistaken": 4986,
    "vers": 1327,
    "Ġphrensy": 25124,
    "Ġcastaway": 16639,
    "Ġtender": 5753,
    "waves": 10739,
    "Ġnoting": 18221,
    "cruise": 24841,
    "learning": 2588,
    "Ġpia": 21462,
    "grateful": 10427,
    "Ġitems": 9690,
    "Ġcapt": 1293,
    "subs": 14300,
    "Ġdeft": 21835,
    "Ġbeginning": 4244,
    "precise": 19349,
    "enger": 10772,
    "pe": 1438,
    "Ġsupports": 3049,
    "itically": 21328,
    "Ġ102": 24409,
    "Ġflann": 23013,
    "Ġspires": 11727,
    "Ġparting": 9781,
    "Ġpow": 4638,
    "Ġconfirms": 23308,
    "Ġsepar": 4003,
    "Ġmagnanimous": 17409,
    "ructive": 18543,
    "ump": 2285,
    "footsteps": 25199,
    "Ġendured": 6073,
    "woof": 21138,
    "Ġenorm": 5302,
    "Ġfounded": 8556,
    "Ġduties": 6609,
    "face": 3681,
    "Ġessex": 20125,
    "Ġdrive": 5055,
    "ornament": 23486,
    "Ġgur": 21590,
    "Ġgovernment": 15174,
    "formal": 14165,
    "Ġsuppress": 13020,
    "reduced": 15802,
    "Ġdiscerning": 24955,
    "ri": 390,
    "Ġsensibility": 14513,
    "avenue": 25056,
    "itting": 1154,
    "Ġroyals": 19531,
    "itarian": 21335,
    "taste": 10128,
    "Ġglowed": 24864,
    "several": 5543,
    "Ġpenetration": 19916,
    "Ġhamper": 19387,
    "Ġbinding": 20417,
    "Ġpaying": 9936,
    "urried": 21702,
    "Ġcup": 5697,
    "Ġundeviating": 15215,
    "Ġflatter": 9346,
    "Ġelaborate": 18637,
    "Ġwriting": 4668,
    "Ġstated": 9687,
    "Ġincarnate": 20373,
    "deal": 12795,
    "colnett": 19329,
    "Ġpictures": 5503,
    "waving": 21130,
    "aguy": 21908,
    "Ġsadness": 13283,
    "whalers": 17262,
    "Ġnavigation": 9991,
    "Ġsqueeze": 10037,
    "Ġloitering": 22114,
    "Ġmassac": 14734,
    "Ġattempted": 8001,
    "headers": 23106,
    "Ġcheerless": 16693,
    "Ġeul": 21618,
    "Ġconflagration": 26364,
    "avery": 13681,
    "Ġrush": 5925,
    "Ġpronouncing": 16968,
    "Ġyellowish": 24429,
    "free": 8735,
    "Ġarticle": 9500,
    "Ġfleetness": 20178,
    "Ġill": 2193,
    "Ġdiscrimination": 23604,
    "Ġfour": 2218,
    "Ġcoleman": 22586,
    "Ġmustard": 12926,
    "Ġurgent": 16866,
    "vitality": 20477,
    "Ġgreas": 17991,
    "Ġpitches": 23899,
    "Ġemployer": 19430,
    "ges": 2874,
    "Ġjewel": 9940,
    "inburgh": 15488,
    "Ġinclination": 6623,
    "Ġblu": 2688,
    "Ġtrain": 516,
    "Ġfavoured": 16357,
    "ops": 5246,
    "Ġaccidents": 10296,
    "val": 1161,
    "difficult": 10056,
    "Ġpoor": 1711,
    "Ġquee": 1980,
    "Ġalive": 4399,
    "jephro": 26391,
    "Ġperceptibly": 25821,
    "ivered": 7005,
    "complet": 11382,
    "Ġtuileries": 24826,
    "Ġclub": 8872,
    "Ġevaluation": 16549,
    "Ġunjustly": 17125,
    "Ġsquint": 22835,
    "uble": 21101,
    "landsmen": 25059,
    "Ġmarket": 7709,
    "Ġrelationship": 2315,
    "Ġproxim": 3199,
    "Ġ179": 19753,
    "airs": 2224,
    "vously": 23502,
    "sincerely": 24585,
    "Ġbegrim": 23016,
    "Ġmotive": 6092,
    "circumstantial": 24443,
    "bird": 9584,
    "ravity": 21633,
    "grounds": 11150,
    "Ġvenom": 24237,
    "Ġdancing": 5703,
    "Ġbri": 21376,
    "glances": 23851,
    "Ġforbe": 8457,
    "degrees": 22148,
    "Ġanomalous": 25637,
    "Ġpersu": 3568,
    "belais": 24037,
    "fearfully": 25116,
    "¢": 100,
    "Ġsarat": 21226,
    "ended": 1834,
    "possess": 5984,
    "bur": 4687,
    "matter": 5136,
    "charm": 13988,
    "Ġem": 1923,
    "Ġcoach": 6867,
    "ling": 734,
    "vate": 21108,
    "Ġsplintered": 11417,
    "Ġwhatsoever": 18460,
    "Ġleisure": 6539,
    "ultural": 22567,
    "Ġtennes": 23547,
    "Ġvancouver": 26564,
    "tain": 558,
    "Ġslippers": 19614,
    "Ġtent": 15465,
    "Ġsmote": 18576,
    "grieved": 17315,
    "Ġjoker": 22296,
    "Ġwasted": 9702,
    "Ġorbs": 22090,
    "minute": 11273,
    "Ġredness": 19311,
    "afternoon": 13185,
    "Ġequally": 5257,
    "Ġbreckinridge": 14521,
    "Ġepid": 18004,
    "Ġmagnific": 16316,
    "himself": 3974,
    "Ġalterations": 19870,
    "reel": 21232,
    "Ġju": 10285,
    "Ġfrequent": 3290,
    "Ġpaused": 5416,
    "bitt": 17484,
    "pent": 3496,
    "Ġpope": 11599,
    "Ġcongratulate": 9062,
    "chop": 21686,
    "discover": 10538,
    "Ġteneriffe": 26413,
    "Ġdilig": 8350,
    "izz": 7611,
    "ske": 13780,
    "object": 6884,
    "Ġtossed": 5815,
    "Ġtraditions": 11442,
    "onze": 21254,
    "omin": 4703,
    "Ġlapl": 19776,
    "Ġgladstone": 23867,
    "owing": 7601,
    "Ġgermans": 25784,
    "hab": 1074,
    "superiority": 20184,
    "Ġattendant": 11284,
    "Ġprofuse": 23565,
    "Ġactionable": 24558,
    "edged": 15627,
    "looks": 12014,
    "Ġbabel": 24425,
    "wa": 5897,
    "Ġmoluccas": 25629,
    "dearest": 11732,
    "impart": 21707,
    "ospit": 22261,
    "Ġswash": 23053,
    "Ġshalt": 18230,
    "oglyph": 11018,
    "page": 13769,
    "Ġbeats": 21750,
    "ie": 728,
    "Ġdoubling": 23318,
    "Ġbeeches": 9225,
    "Ġcloser": 8659,
    "Ġhimself": 1354,
    "innacle": 7519,
    "Ġviv": 6156,
    "Ġrecalled": 8538,
    "Ġmeditate": 16681,
    "Ġartist": 12908,
    "Ġrewards": 10847,
    "Ġsammy": 24932,
    "Ġinco": 14259,
    "Ġlinguistic": 12422,
    "Ġperson": 2370,
    "Ġapplicable": 18998,
    "Ġmeasures": 1207,
    "Ġnovelties": 24778,
    "Ġrect": 18025,
    "Ġhollow": 5648,
    "Ġremoval": 12114,
    "anged": 3592,
    "Ġslay": 16304,
    "shazz": 14239,
    "entiful": 10835,
    "Ġamaz": 5385,
    "Ġclerval": 4654,
    "Ġseedy": 21953,
    "Ġafar": 14290,
    "scream": 11075,
    "Ġmystic": 7503,
    "seven": 8463,
    "Ġwholly": 4448,
    "Ġhorizont": 6937,
    "conced": 22466,
    "Ġfestoon": 20293,
    "Ġdesper": 6176,
    "Ġdenny": 9000,
    "Ġseaport": 20598,
    "Ġunravel": 26214,
    "Ġly": 2271,
    "sudden": 5315,
    "Ġspectators": 19405,
    "Ġcrippled": 25278,
    "Ġnom": 21517,
    "progra": 9392,
    "Ġknee": 7093,
    "Ġasph": 21896,
    "Ġcumul": 4179,
    "compl": 6873,
    "Ġrelations": 5852,
    "Ġcet": 6669,
    "Ġsqueaking": 26274,
    "Ġostr": 21323,
    "mir": 20962,
    "Ġgoodness": 6059,
    "Ġclergy": 7642,
    "instances": 13317,
    "Ġstupidity": 15048,
    "bedded": 13225,
    "smooth": 20247,
    "Ġstillness": 12991,
    "Ġjollity": 25566,
    "Ġdomin": 10461,
    "fitting": 1509,
    "impossible": 8822,
    "Ġphrenologist": 25607,
    "pil": 15406,
    "Ġcrescentic": 20619,
    "meetings": 20376,
    "txt": 12512,
    "nant": 17608,
    "Ġabsurdities": 24878,
    "december": 25558,
    "Ġimpression": 5732,
    "Ġbottomless": 12103,
    "Ġkn": 4546,
    "Ġbouton": 17868,
    "spee": 9315,
    "Ġmarvellous": 7538,
    "saving": 21058,
    "Ġburn": 3687,
    "Ġfootpaths": 26318,
    "ui": 9143,
    "Ġmanhandle": 22327,
    "hailed": 17564,
    "Ġlaboratory": 13610,
    "rog": 15636,
    "Ġtalking": 3860,
    "study": 15115,
    "Ġlub": 15645,
    "Ġdiscovery": 5412,
    "american": 11399,
    "favouring": 24762,
    "scy": 21054,
    "Ġarmed": 9258,
    "Ġlobsters": 13515,
    "due": 22408,
    "Ġslipping": 13358,
    "yesterday": 10351,
    "li": 1189,
    "Ġmemorand": 23403,
    "animated": 14973,
    "Ġinteresting": 4326,
    "Ġplantation": 11422,
    "Ġvocabulary": 4995,
    "gravel": 22618,
    "unerative": 21894,
    "Ġnovember": 11746,
    "floor": 14934,
    "comfortable": 7320,
    "Ġpunishment": 9954,
    "thrasher": 25658,
    "Ġcarved": 7947,
    "Ġunshored": 25813,
    "Ġtashtego": 4487,
    "dozen": 23374,
    "gallant": 7781,
    "buckets": 26123,
    "ierce": 14389,
    "heed": 15496,
    "dark": 5613,
    "shudder": 26245,
    "rese": 15506,
    "hatches": 19927,
    "Ġexordium": 26491,
    "Ġscimet": 22286,
    "Ġconsist": 1933,
    "voyage": 7786,
    "discovered": 8325,
    "Ġsatur": 1929,
    "Ġvap": 6837,
    "Ġrevisit": 21668,
    "Ġflea": 23771,
    "Ġcommended": 18656,
    "Ġconfusion": 7273,
    "Ġboneless": 19604,
    "streamed": 25966,
    "inte": 5144,
    "Ġwill": 678,
    "vict": 11539,
    "Ġcrocod": 19627,
    "ationally": 15701,
    "Ġsimul": 1807,
    "Ġiron": 3239,
    "Ġsnapped": 9895,
    "Ġdesirable": 8940,
    "iro": 20913,
    "Ġwonders": 7500,
    "Ġwithdrawn": 10605,
    "Ġdevices": 2943,
    "Ġempire": 11144,
    "Ġutil": 4673,
    "oing": 15399,
    "lik": 3919,
    "attributed": 23118,
    "scoured": 22991,
    "Ġfrigate": 13079,
    "Ġparalle": 1410,
    "Ġrecursive": 4782,
    "run": 10720,
    "Ġrudimental": 25108,
    "ppery": 10891,
    "Ġcaprice": 14576,
    "Ġsuffusing": 23029,
    "far": 5787,
    "marriage": 7745,
    "Ġeagerly": 4990,
    "Ġexecutors": 19532,
    "Ġpassage": 3887,
    "tained": 4406,
    "ws": 7355,
    "company": 9458,
    "cooks": 25067,
    "omics": 21641,
    "Ġcatastrophe": 10482,
    "Ġgoble": 14228,
    "very": 500,
    "Ġslowly": 3622,
    "Ġhindoo": 17174,
    "Ġii": 7384,
    "Ġpuffed": 14975,
    "Ġcanvas": 7784,
    "common": 4129,
    "Ġclaimed": 14200,
    "oub": 1628,
    "Ġslipper": 24264,
    "against": 5870,
    "figure": 13553,
    "Ġcombination": 22858,
    "Ġcommissionaire": 16999,
    "Ġlose": 5028,
    "reader": 23844,
    "Ġdestroying": 14727,
    "examination": 25478,
    "Ġjug": 12831,
    "Ġcomprehens": 8320,
    "ã": 164,
    "Ġcele": 9898,
    "Ġmisunderstand": 18700,
    "Ġfarmhouse": 24986,
    "Ġmelting": 24287,
    "unte": 21871,
    "Ġmember": 8585,
    "ada": 14009,
    "seldom": 13785,
    "Ġrooms": 5180,
    "Ġinte": 2065,
    "Ġintimately": 24804,
    "Ġclean": 5652,
    "two": 3862,
    "Ġreus": 8820,
    "Ġjo": 2611,
    "Ġbowsprit": 16559,
    "week": 12927,
    "Ġrelish": 14382,
    "Ġdivineness": 25724,
    "Ġtoo": 1168,
    "Ġcolleg": 22852,
    "pillar": 5618,
    "s": 87,
    "arms": 10172,
    "Ġthinkings": 22808,
    "Ġinsight": 16528,
    "arpaul": 14534,
    "glance": 16586,
    "Ġrelu": 1046,
    "Ġsweeping": 8984,
    "Ġnarwhale": 12290,
    "tallow": 21084,
    "Ġrel": 1097,
    "Ġoverjoyed": 17456,
    "Ġmar": 1312,
    "Ġworks": 5858,
    "Ġunfrequently": 20738,
    "Ġplatform": 17130,
    "Ġmainmast": 9777,
    "Ġvehement": 16199,
    "Ġeconomy": 17199,
    "Ġcalamities": 25699,
    "Ġgodfrey": 15291,
    "Ġrelieved": 7666,
    "daughters": 13464,
    "imen": 12682,
    "bres": 11470,
    "Ġmadden": 10446,
    "ses": 3025,
    "jet": 13740,
    "Ġnurse": 9515,
    "consuming": 25674,
    "Ġyarn": 10867,
    "sperm": 5203,
    "Ġimplicated": 24875,
    "aciously": 12903,
    "Ġancho": 15599,
    "Ġquart": 11784,
    "Ġcrumb": 16438,
    "Ġsealed": 15812,
    "Ġdist": 680,
    "Ġmetaphys": 16400,
    "entire": 6824,
    "sullen": 17668,
    "ĠĠĠĠĠĠĠĠĠĠĠĠĠĠĠĠĠĠĠ": 22948,
    "ated": 731,
    "Ġrenewed": 9536,
    "Ġobliv": 16130,
    "analy": 17838,
    "Ġindignant": 12236,
    "admitted": 18091,
    "Ġpatagonia": 25858,
    "bra": 6219,
    "Ġbarbarous": 13474,
    "photograph": 16151,
    "Ġrepeating": 11212,
    "abeth": 905,
    "Ġlabours": 8581,
    "Ġknees": 6928,
    "Ġdelighted": 5499,
    "Ġstrait": 23747,
    "Ġhighly": 4844,
    "Ġhide": 4590,
    "Ġintimidated": 24805,
    "izing": 1066,
    "Ġdece": 6996,
    "Ġ33": 16675,
    "Ġforming": 7042,
    "Ġincluding": 2847,
    "lantic": 6363,
    "Ġformations": 18748,
    "various": 10396,
    "ase": 1162,
    "Ġdecreas": 1646,
    "us": 532,
    "signs": 16537,
    "Ġmansion": 17809,
    "Ġundesired": 12775,
    "cro": 13694,
    "bulk": 19923,
    "Ġinvent": 7164,
    "Ġsix": 3042,
    "riot": 18184,
    "Ġdreadfully": 7726,
    "Ġswap": 23050,
    "Ġfire": 2332,
    "Ġfavourable": 7959,
    "Ġpolitic": 23617,
    "converse": 22471,
    "Ġprincess": 23220,
    "Ġsolution": 9803,
    "entering": 17976,
    "deck": 4501,
    "Ġclout": 22342,
    "happening": 16563,
    "hast": 5357,
    "Ġaft": 5737,
    "whatsoever": 18493,
    "Ġ101": 24408,
    "ensed": 10995,
    "hav": 20896,
    "hic": 3253,
    "Ġwarn": 5695,
    "Ġassu": 21895,
    "Ġwestward": 24388,
    "thank": 4950,
    "Ġcode": 1722,
    "Ġrattling": 11394,
    "Ġunidirectional": 3429,
    "Ġlooking": 2475,
    "apothecary": 26544,
    "fre": 5425,
    "Ġgaol": 19566,
    "brimming": 23576,
    "Ġslanting": 23168,
    "Ġmud": 11571,
    "engine": 18926,
    "Ġnailing": 21525,
    "ially": 9245,
    "seeking": 17151,
    "Ġunderstanding": 1849,
    "Ġinscriptions": 20007,
    "christ": 10209,
    "Ġimbecile": 17390,
    "Ġtri": 4813,
    "Ġsuperficial": 23455,
    "Ġantarctic": 19551,
    "parted": 21015,
    "rock": 15637,
    "Ġreception": 9837,
    "varying": 13802,
    ",âĢĶâĢľ": 10068,
    "revealed": 20414,
    "Ġcub": 8414,
    "itals": 17820,
    "assumed": 22306,
    "smote": 23907,
    "abby": 14019,
    "omuch": 21638,
    "Ġmaster": 3685,
    "Ġconvulsively": 25717,
    "Ġdrowsy": 26443,
    "transition": 24509,
    "hearth": 15497,
    "Ġvisibly": 22848,
    "nonsense": 17614,
    "Ġpleases": 16295,
    "Ġscoresby": 10460,
    "Ġwindward": 6885,
    "Ġhundreds": 4329,
    "arat": 9179,
    "surv": 24212,
    "Ġcombined": 8547,
    "immed": 9216,
    "Ġsaying": 3247,
    "Ġobsc": 7039,
    "Ġconceive": 8461,
    "Ġcouldn": 7648,
    "Ġhang": 9186,
    "Ġloom": 7628,
    ";": 31,
    "Ġtwitched": 20442,
    "se": 357,
    "scr": 16239,
    "usual": 5841,
    "Ġsincer": 13062,
    "Ġclubb": 22347,
    "Ġcle": 1511,
    "Ġmurdering": 14808,
    "Ġrecognition": 3169,
    "Ġoutlandish": 12834,
    "kept": 11714,
    "Ġberm": 21381,
    "gentle": 5356,
    "Ġrefuge": 8541,
    "illing": 8175,
    "Ġtallest": 15472,
    "Ġberg": 24535,
    "omination": 21640,
    "Ġwrinkles": 8570,
    "Ġbridal": 14952,
    "Ġleviathanic": 12077,
    "Ġcausing": 16355,
    "Ġundulates": 24117,
    "Ġxl": 11986,
    "Ġcruising": 6913,
    "Ġcompassion": 6487,
    "Ġflour": 8943,
    "###": 3830,
    "Ġfeminine": 15261,
    "Ġfavours": 23277,
    "elzebub": 26463,
    "Ġpoint": 2055,
    "adel": 15725,
    "Ġcomposure": 7217,
    "Ġcame": 1302,
    "Ġremarkable": 4915,
    "approb": 11041,
    "Ġdeemed": 7613,
    "satisfactory": 16892,
    "Ġdeserve": 8309,
    "Ġreporting": 24657,
    "Ġwonderful": 4563,
    "Ġhop": 1461,
    "commend": 19991,
    "collecting": 26081,
    "Ġrefresh": 10345,
    "impulse": 20644,
    "Ġbehave": 23299,
    "ckles": 22087,
    "race": 11629,
    "Ġplus": 3885,
    "intentions": 22937,
    "Ġvirtue": 4922,
    "deliberated": 26118,
    "Ġyears": 1890,
    "Ġlazarus": 15027,
    "Ġrefers": 1564,
    "Ġgrieved": 8298,
    "Ġpurp": 2395,
    "Ġhurst": 5581,
    "Ġintrig": 21988,
    "blood": 7780,
    "Ġinconceivable": 17937,
    "Ġgramm": 8171,
    "au": 778,
    "twain": 23699,
    "Ġreappeared": 21663,
    "Ġbatch": 887,
    "Ġinexpress": 12631,
    "Ġbreathlessly": 24279,
    "blacksmith": 17000,
    "Ġunhing": 18241,
    "volut": 1560,
    "machine": 973,
    "Ġweave": 21919,
    "Ġvoyagings": 19235,
    "Ġtilted": 20411,
    "Ġloath": 7892,
    "Ġroman": 8323,
    "Ġruns": 8594,
    "Ġunreasoning": 15842,
    "Ġregularly": 7657,
    "ppa": 10238,
    "Ġscarlet": 13220,
    "Ġoun": 13861,
    "Ġsibbald": 21229,
    "Ġdeeply": 4717,
    "Ġunfavourable": 17415,
    "ckinridge": 11716,
    "Ġfits": 8789,
    "Ġtries": 9149,
    "Ġtor": 8106,
    "Ġwards": 17789,
    "gloom": 17138,
    "Ġgirdled": 19157,
    "gro": 10093,
    "Ġvolumes": 14797,
    "Ġmanual": 14196,
    "Ġarticulate": 24431,
    "Ġgrateful": 7660,
    "Ġdistributes": 4196,
    "Ġnoises": 18373,
    "none": 6962,
    "Ġconfining": 23305,
    "complained": 25838,
    "Ġbristles": 25843,
    "uning": 1313,
    "urday": 13993,
    "Ġrout": 7402,
    "Ġobsole": 22696,
    "Ġstrongest": 11134,
    "negro": 18495,
    "urch": 3997,
    "Ġang": 2512,
    "Ġsolar": 22881,
    "Ġincompetent": 25679,
    "ringle": 21039,
    "Ġresurrection": 12890,
    "uation": 17693,
    "ha": 3984,
    "look": 2264,
    "enchanted": 26423,
    "Ġreaches": 18031,
    "illuminated": 17451,
    "Ġthoughtless": 16190,
    "name": 6795,
    "Ġsummar": 3528,
    "Ġreturning": 5325,
    "'": 11,
    "causing": 25518,
    "sneezes": 11445,
    "Ġagatha": 6866,
    "fooled": 24418,
    "Ġintellectual": 11400,
    "Ġcollapsed": 15079,
    "Ġtahit": 10753,
    "porary": 14551,
    "arboard": 7266,
    "shish": 11790,
    "Ġvilest": 20099,
    "olidity": 18135,
    "Ġhonourable": 10455,
    "Ġglow": 7170,
    "often": 6165,
    "Ġmusic": 5268,
    "icial": 12651,
    "Ġcronies": 23441,
    "Ġugly": 8715,
    "Ġalle": 11664,
    "Ġlady": 1584,
    "sentimental": 25681,
    "Ġchart": 10944,
    "Ġweaver": 11685,
    "Ġdecline": 9285,
    "Ġapril": 13660,
    "Ġmead": 8833,
    "Ġgreece": 17068,
    "Ġhappening": 14381,
    "algorith": 3226,
    "Ġfifty": 4624,
    "Ġconstrued": 26301,
    "Ġfooted": 23795,
    "Ġbridges": 24682,
    "Ġjudging": 16594,
    "crews": 15041,
    "long": 2913,
    "Ġkneeling": 12139,
    "Ġdeser": 3889,
    "vex": 21696,
    "Ġsports": 18310,
    "sense": 11522,
    "useful": 16500,
    "Ġcoarsely": 25828,
    "deed": 1518,
    "wrote": 11545,
    "Ġmethodically": 23195,
    "Ġaverage": 3140,
    "Ġexclaimed": 4683,
    "pendicular": 6499,
    "plunging": 25987,
    "Ġoughts": 23898,
    "Ġxxi": 24475,
    "Ġunanswerable": 26520,
    "rupt": 3211,
    "Ġspas": 10921,
    "Ġturns": 4981,
    "Ġlooks": 4166,
    "Ġstunsail": 25543,
    "pole": 9331,
    "Ġubiqu": 18046,
    "quit": 15758,
    "Ġducks": 25157,
    "eness": 2292,
    "Ġturkish": 12258,
    "Ġcomforter": 20505,
    "Ġresulting": 24197,
    "Ġresentment": 7530,
    "Ġdaybreak": 18726,
    "station": 10843,
    "in": 262,
    "Ġfing": 3762,
    "creatures": 7517,
    "gunwale": 20662,
    "Ġdev": 894,
    "Ġbiographical": 22766,
    "Ġmore": 677,
    "country": 6103,
    "Ġrece": 11636,
    "_),": 7125,
    "oop": 10714,
    "Ġtattoo": 7359,
    "ref": 6515,
    "tallied": 21088,
    "hroom": 12473,
    "slanting": 24557,
    "ences": 1263,
    "gratification": 24347,
    "Ġcol": 1059,
    "Ġsheaves": 22156,
    "Ġoblong": 14319,
    "Ġburden": 8607,
    "sing": 5138,
    "snow": 10723,
    "irregular": 21909,
    "Ġconceals": 23901,
    "Ġdimin": 3874,
    "Ġhotels": 19535,
    "ength": 2313,
    "netherfield": 9811,
    "Ġvoc": 4452,
    "Ġ11": 5318,
    "Ġgranite": 22806,
    "Ġfitness": 23998,
    "oniously": 21256,
    "parsee": 14509,
    "onstr": 12542,
    "aract": 17894,
    "whosoever": 22238,
    "Ġshells": 20362,
    "Ġreply": 4515,
    "Ġunthinkingly": 26220,
    "fully": 2206,
    "Ġanyways": 22518,
    "Ġteased": 18801,
    "ĠĠĠĠĠĠĠĠĠĠĠĠĠĠĠĠĠĠĠĠĠĠĠĠ": 5321,
    "Ġpeep": 6870,
    "Ġdoubly": 16385,
    "Ġhud": 10821,
    "ss": 397,
    "Ġpremeditated": 22232,
    "Ġparaphrasing": 26525,
    "Ġwhimsical": 20426,
    "Ġlistening": 6318,
    "fuller": 22497,
    "Ġchambermaid": 24303,
    "ler": 3494,
    "observing": 25494,
    "Ġprecious": 5760,
    "Ġcor": 1323,
    "Ġskill": 6872,
    "Ġporthole": 24398,
    "silver": 19689,
    "commanded": 16987,
    "room": 2178,
    "picture": 11406,
    "Ġdeliberate": 15021,
    "Ġveneration": 25044,
    "Ġthyself": 6602,
    "Ġfront": 3455,
    "Ġrobbery": 11908,
    "Ġrad": 4962,
    "Ġtar": 2565,
    "Ġaristotle": 25817,
    "Ġintrusion": 12761,
    "mitted": 5213,
    "resnet": 4072,
    "Ġthickening": 24023,
    "Ġcomfortless": 23910,
    "Ġendure": 5956,
    "Ġdissuade": 26256,
    "Ġtranslates": 12048,
    "island": 10793,
    "flag": 14709,
    "Ġreports": 19084,
    "Ġmotioned": 19591,
    "Ġgiddy": 20495,
    "Ġtriumphal": 24370,
    "Ġorders": 5340,
    "Ġneared": 14073,
    "Ġphys": 5653,
    "Ġfidget": 15187,
    "shipped": 18490,
    "Ġmean": 741,
    "thunder": 10261,
    "generally": 9433,
    "Ġjustine": 4970,
    "Ġjenny": 20161,
    "happ": 3106,
    "Ġhieroglyph": 11967,
    "Ġabrupt": 9734,
    "Ġexplanatory": 22200,
    "Ġbank": 4877,
    "aring": 1475,
    "completed": 19992,
    "Ġthanking": 18602,
    "Ġdraught": 9844,
    "Ġhorses": 6385,
    "Ġcin": 13873,
    "Ġshetland": 22157,
    "conveyed": 20519,
    "Ġcommands": 16588,
    "talking": 10005,
    "Ġdoomed": 11341,
    "Ġlightnings": 16350,
    "icket": 22666,
    "Ġunfrequ": 19507,
    "Ġperadventure": 22396,
    "encing": 21281,
    "Ġabused": 22267,
    "pierced": 26141,
    "ilege": 22256,
    "Ġmarshy": 20217,
    "Ġconnivance": 25225,
    "Ġsl": 1497,
    "Ġbeliever": 25845,
    "Ġcabinet": 23859,
    "rennial": 22339,
    "Ġdischar": 11805,
    "Ġcrosswise": 18886,
    "Ġsatir": 18794,
    "Ġtipped": 17727,
    "niest": 18987,
    "hered": 5622,
    "Ġpa": 3004,
    "marvell": 24170,
    "Ġopulent": 23628,
    "Ġforemost": 12001,
    "Ġplainpalais": 20736,
    "Ġpartake": 18670,
    "Ġupdate": 2465,
    "icate": 9200,
    "bench": 16802,
    "Ġcontempt": 6275,
    "Ġslack": 8954,
    "Ġembatt": 18851,
    "Ġstr": 761,
    "Ġthorough": 6245,
    "Ġrespects": 7269,
    "Ġcorpulence": 24505,
    "isters": 11917,
    "Ġinglorious": 24423,
    "endous": 6850,
    "admirably": 24944,
    "chancing": 22912,
    "Ġcrazed": 19174,
    "Ġfrighted": 24028,
    "salesman": 20670,
    "ham": 1704,
    "intments": 18820,
    "Ġtaffrail": 15474,
    "Ġrighteous": 18945,
    "Ġunfold": 8023,
    "foreseen": 14252,
    "Ġblocked": 19222,
    "uns": 21868,
    "Ġcease": 7076,
    "ination": 2914,
    "mes": 1199,
    "ð": 177,
    "Ġrecollection": 6620,
    "Ġdoubled": 19641,
    "Ġdenomin": 12064,
    "Ġsickness": 10537,
    "Ġolive": 12561,
    "phere": 21018,
    "Ġreappearance": 21665,
    "notwithstanding": 22749,
    "attending": 18916,
    "shavings": 22456,
    "Ġherb": 15853,
    "Ġunresting": 25553,
    "Ġbruited": 25773,
    "wit": 7818,
    "Ġtowers": 16737,
    "Ġtogether": 1877,
    "Ġaugment": 8691,
    "Ġobsolete": 26557,
    "Ġpass": 1038,
    "Ġlungless": 24863,
    "atigable": 15268,
    "Ġcosmetic": 23470,
    "Ġsuffering": 8945,
    "Ğ": 223,
    "Ġmeanwhile": 5736,
    "Ġvalued": 12179,
    "Ġgre": 1581,
    "acter": 2508,
    "supposed": 13313,
    "Ġwaifing": 25244,
    "Ġagitated": 7647,
    "Ġliquid": 22407,
    "Ġstirring": 10578,
    "Ġdazzling": 15209,
    "Ġhumbled": 16194,
    "Ġunexplored": 26517,
    "Ġpartaking": 22695,
    "conspicuous": 26247,
    "Ġbiting": 17861,
    "Ġbaltic": 18795,
    "ol": 363,
    "Ġlucifers": 16587,
    "nerable": 16274,
    "Ġcomely": 21846,
    "Ġtroub": 22357,
    "Ġinjure": 16780,
    "Ġvote": 21943,
    "Ġpur": 2220,
    "Ġgamb": 17997,
    "Ġrapture": 13494,
    "Ġpersuading": 19408,
    "asters": 8434,
    "inspector": 13644,
    "urious": 21701,
    "gers": 8376,
    "Ġsordid": 26421,
    "fool": 9046,
    "rents": 5308,
    "Ġjulia": 22300,
    "Ġwithered": 19463,
    "Ġshelf": 12264,
    "Ġsepulchral": 25892,
    "pivot": 21030,
    "Ġslept": 8259,
    "fish": 3519,
    "Ġembattled": 26289,
    "acon": 10680,
    "Ġjamming": 17263,
    "Ġho": 1930,
    "Ġtep": 21160,
    "isome": 17848,
    "Ġcaravan": 26290,
    "Ġtw": 842,
    "Ġinformation": 1048,
    "arpening": 21442,
    "Ġmysterious": 7527,
    "Ġarbitrary": 4736,
    "Ġfears": 5729,
    "Ġaddress": 2273,
    "Ġapprehensions": 13402,
    "sterdam": 19090,
    "hetic": 12200,
    "Ġfielding": 16227,
    "fr": 4804,
    "Ġsisters": 3644,
    "Ġmillar": 13859,
    "governed": 25405,
    "Ġneskye": 21529,
    "she": 1397,
    "Ġtrading": 23073,
    "Ġgib": 13963,
    "Ġprestige": 22234,
    "Ġwidow": 8662,
    "Ġfling": 9659,
    "Ġclang": 15960,
    "umerable": 11722,
    "churning": 21695,
    "Ġhellish": 10549,
    "requent": 3653,
    "Ġsenor": 20149,
    "pleasures": 24045,
    "Ġcontract": 18474,
    "Ġestim": 3350,
    "Ġrevolt": 24500,
    "Ġsmitten": 12895,
    "Ġconducted": 10501,
    "Ġbrilliant": 11413,
    "Ġvi": 1951,
    "Ġremoved": 5274,
    "Ġcorrespondent": 19821,
    "lifted": 15384,
    "Ġhyena": 24518,
    "Ġabstra": 22269,
    "Ġdumb": 7844,
    "Ġaud": 6661,
    "Ġmyself": 1454,
    "Ġfortunately": 12176,
    "iard": 9600,
    "weather": 7229,
    "Ġfulf": 6772,
    "Ġblacksmiths": 19872,
    "blister": 24126,
    "attention": 2110,
    "Ġblundering": 26283,
    "astonishment": 10028,
    "host": 5867,
    "acled": 16078,
    "Ġgambler": 26190,
    "Ġapprovingly": 26253,
    "mod": 1043,
    "Ġstatistics": 1682,
    "venerable": 26407,
    "illity": 18296,
    "alcul": 15624,
    "fleece": 19946,
    "cup": 10689,
    "Ġpoints": 5247,
    "stout": 21643,
    "Ġtrip": 16787,
    "watches": 14945,
    "mies": 20967,
    "empt": 2621,
    "degra": 22139,
    "planted": 11695,
    "Ġruined": 12950,
    "gra": 767,
    "ķ": 248,
    "Ġtackles": 8051,
    "mbling": 3347,
    "Ġstationary": 19693,
    "Ġcolourless": 19568,
    "refusal": 24736,
    "Ġrace": 5847,
    "Ġgaiters": 20459,
    "articulate": 17396,
    "Ġchip": 12821,
    "exagger": 22426,
    "Ġbabies": 19691,
    "principal": 20659,
    "Ġaberde": 22275,
    "Ġmaria": 7124,
    "Ġhalls": 19524,
    "Ġgra": 416,
    "Ġenables": 725,
    "Ġcalcul": 3641,
    "special": 14703,
    "Ġcarefully": 6304,
    "Ġeveryone": 8916,
    "Ġpalsied": 25779,
    "Ġdifficult": 3576,
    "ashtego": 4103,
    "powder": 17644,
    "admiration": 11386,
    "igen": 4830,
    "Ġdishes": 16047,
    "Ġalmighty": 18104,
    "Ġfleets": 23772,
    "withstanding": 8944,
    "Ġgest": 8134,
    "Ġproverb": 12712,
    "Ġwafted": 14538,
    "Ġsinew": 25431,
    "proble": 9391,
    "Ġuniverse": 14122,
    "Ġfireplace": 13143,
    "Ġcascade": 20579,
    "ulpt": 10884,
    "paying": 25411,
    "Ġhonour": 3925,
    "opolising": 25676,
    "Ġpaste": 23417,
    "Ġtalent": 12294,
    "Ġplata": 25117,
    "details": 19674,
    "owards": 4595,
    "Ġcrushing": 20175,
    "splinter": 25210,
    "Ġfeeble": 12281,
    "Ġkeenest": 12158,
    "pred": 2803,
    "À": 129,
    "iffs": 9020,
    "Ġwhims": 12688,
    "blades": 24129,
    "Ġagency": 11803,
    "Ġwhereby": 11834,
    "ga": 17549,
    "Ġundergo": 23233,
    "ishnoo": 10954,
    "Ġequ": 1734,
    "Ġslaves": 23162,
    "Ġpalpable": 15204,
    "Åĵuvre": 25887,
    "Ġseizing": 7878,
    "tom": 15433,
    "Ġtongues": 14861,
    "Ġscrawled": 24579,
    "unnecessary": 21878,
    "Ġdau": 21424,
    "Ġreversed": 15693,
    "wretch": 17707,
    "entions": 17974,
    "Ġclues": 18421,
    "Ġcobweb": 22585,
    "mph": 20971,
    "ant": 438,
    "Ġworshipper": 25692,
    "Ġfisher": 3225,
    "Ġonly": 791,
    "Ġturks": 14597,
    "Ġglancing": 5399,
    "Ġpainful": 6462,
    "Ġvolcanoes": 24144,
    "90": 12429,
    "Ġscreening": 25300,
    "Ġdebility": 24271,
    "Ġswandam": 11087,
    "hereafter": 19214,
    "Ġplead": 14453,
    "Ġobliter": 14320,
    "ispensable": 9094,
    "Ġtract": 21164,
    "ivities": 22075,
    "trade": 19635,
    "Ġminutes": 3000,
    "button": 10965,
    "Ġinjustice": 9189,
    "Ġharness": 17927,
    "Ġevenly": 4130,
    "concent": 19478,
    "prepar": 22464,
    "ognit": 19220,
    "precisely": 6917,
    "Ġbravest": 23838,
    "noble": 7923,
    "lass": 5993,
    "Ġdiscompose": 25579,
    "Ġdegradation": 2635,
    "Ġinsince": 23677,
    "Ġcondemned": 7779,
    "ourselves": 9009,
    "Ġreassure": 21670,
    "Ġxlix": 25860,
    "Ġcorrob": 16263,
    "Ġidiotic": 25588,
    "hyp": 15364,
    "bermaid": 20789,
    "horn": 8086,
    "cible": 20805,
    "Ġcheer": 4069,
    "eh": 13708,
    "lab": 3460,
    "Ġdarcy": 1345,
    "Ġassailed": 23173,
    "output": 4402,
    "Ġimple": 1833,
    "ruin": 22174,
    "Ġcherry": 16934,
    "Ġprocession": 11774,
    "irst": 878,
    "Ġpruning": 18970,
    "surprised": 9529,
    "Ġswallows": 18882,
    "whip": 22235,
    "Ġextremity": 8987,
    "Ù": 154,
    "Ġsuccession": 12098,
    "partiality": 13158,
    "._]]": 5334,
    "Ġvernal": 23886,
    "excellent": 8044,
    "arn": 358,
    "Ġhooped": 23352,
    "Ġquivers": 22411,
    "weakness": 16121,
    "Ġcomment": 9231,
    "historian": 25735,
    "Ġupper": 5090,
    "tent": 21063,
    "binnacle": 20786,
    "Ġpair": 5706,
    "Ġscrewed": 15118,
    "Ġthoughtlessness": 16191,
    "advise": 24216,
    "resentment": 15183,
    "Ġstuff": 5717,
    "Ġshirt": 8847,
    "bright": 8988,
    "Ġcomplement": 23708,
    "ladder": 19783,
    "Ġgrizz": 10350,
    "patched": 17642,
    "Ġcongreg": 8462,
    "Ġremainder": 9856,
    "Ġchann": 15932,
    "Ġreplaced": 13069,
    "Ġfoss": 9849,
    "heim": 17745,
    "Ġprogen": 14037,
    "purpose": 10042,
    "Ġprone": 18968,
    "Ġarab": 7824,
    "Ġur": 5539,
    "Ġdews": 21837,
    "Ġseasoned": 24404,
    "Ġsings": 15503,
    "Ġwallet": 21297,
    "Ġdisposed": 7083,
    "Ġsparks": 22130,
    "Ġfewer": 16221,
    "Ġunspeakable": 10054,
    "Ġoftener": 13563,
    "Ġapplications": 4783,
    "ne": 645,
    "Ġentry": 11024,
    "Ġ74": 24260,
    "Ġsweat": 13138,
    "Ġundu": 15834,
    "Ġrounding": 16272,
    "Ġtears": 4232,
    "corn": 13697,
    "Ġsuffered": 5649,
    "Â": 131,
    "Ġnail": 9194,
    "!âĢĶ": 2455,
    "Ġtorrents": 20054,
    "Ġpacket": 14891,
    "Ġdisd": 7030,
    "lovel": 22509,
    "haul": 14763,
    "bble": 17483,
    "Ġjoll": 11762,
    "Ġdictator": 20152,
    "Ġinequal": 21495,
    "Ġlandlessness": 23376,
    "fetch": 12461,
    "Ġbible": 9317,
    "ria": 15794,
    "Ġhaste": 9002,
    "Ġimprisonment": 22382,
    "Ġsaints": 20673,
    "moreover": 12965,
    "Ġequilib": 4137,
    "im": 327,
    "desirable": 23206,
    "Ġdang": 9173,
    "Ġfogs": 25282,
    "Ġgritted": 22803,
    "Ġcasualties": 25512,
    "Ġmeditative": 25014,
    "Ġexult": 10228,
    "Ġcrew": 2496,
    "ung": 2747,
    "Ġdismasted": 15249,
    "sav": 8096,
    "Ġinstantaneously": 23656,
    "finger": 10092,
    "Ġassail": 13059,
    "rine": 21036,
    "enjoyment": 17256,
    "Ġtr": 554,
    "Ġcattle": 12568,
    "Ġbefall": 8827,
    "stay": 9679,
    "Ġundo": 15837,
    "Ġjar": 15947,
    "ede": 21504,
    "Ġplaus": 22597,
    "ron": 5216,
    "Ġanswering": 7477,
    "Ġgazes": 24092,
    "Ġpuffing": 12251,
    "Ġclasped": 17205,
    "Ġborders": 15568,
    "Ġwestmorland": 24389,
    "Ġrosings": 4608,
    "Ġ1890": 23893,
    "Ġgeneralization": 983,
    "eline": 2189,
    "inces": 13826,
    "Ġpersonal": 7479,
    "prop": 1024,
    "Ġsee": 803,
    "tossed": 10996,
    "Ġcreaking": 14325,
    "Ġindicates": 3194,
    "Ġsoft": 1458,
    "Ġordinary": 6097,
    "Ġsuddenly": 2649,
    "Ġramadan": 9574,
    "Ġwaterproof": 19088,
    "guilty": 19481,
    "Ġexchanging": 18131,
    "Ġforthwith": 16617,
    "Ġpays": 13294,
    "iz": 362,
    "Ġcircumnavigating": 25614,
    "Ġevolve": 3001,
    "Ġrobots": 11077,
    "hurrying": 14981,
    "iguous": 18044,
    "entieth": 17978,
    "Ġpatience": 2854,
    "Ġrationally": 18213,
    "Ġeleg": 6192,
    "Ġcrow": 3808,
    "Ġpyramids": 15112,
    "Ġpol": 2578,
    "Ġpointed": 4773,
    "Ġclearer": 16310,
    "par": 1832,
    "Ġstains": 21739,
    "Ġsuavely": 26522,
    "Ġremains": 4908,
    "Ġcloak": 9532,
    "Ġtormented": 8674,
    "thinking": 9012,
    "Ġduration": 20352,
    "oided": 11507,
    "blending": 24127,
    "Ġsallies": 21228,
    "gress": 2217,
    "Ġabhorrent": 16855,
    "surround": 16757,
    "Ġdisappearance": 9295,
    "Ġindul": 5856,
    "inch": 10754,
    "ellative": 21947,
    "Ġromish": 19583,
    "Ġgrand": 3597,
    "raham": 18013,
    "eman": 5636,
    "Ġ124": 24468,
    "Ġgamming": 25542,
    "delighted": 10561,
    "Ġkidnapping": 26356,
    "Ġemblem": 20496,
    "Ġcharacteristic": 12045,
    "Ġstir": 5823,
    "Ġwhaleman": 4655,
    "Ġunrest": 11711,
    "Ġcommanding": 16589,
    "Ġtests": 8957,
    "Ġcongen": 10872,
    "Ġjen": 9265,
    "Ò": 147,
    "works": 6588,
    "dragged": 16607,
    "Ġconceivable": 16612,
    "ĠâĢĶ": 13809,
    "Ġcaucus": 17378,
    "Ġwealth": 7620,
    "Ġyawning": 12297,
    "his": 1412,
    "Ġcrotch": 9961,
    "Ġrubber": 22785,
    "ribes": 23363,
    "retrie": 18922,
    "prick": 19341,
    "Ġdisappoint": 24204,
    "Ġcopse": 17066,
    "Ġindecision": 25781,
    "Ġperished": 11781,
    "Ġtravell": 5575,
    "Ġrally": 21969,
    "entreat": 17975,
    "rudence": 7092,
    "shame": 16019,
    "lur": 13745,
    "Ġcounsel": 13613,
    "afraid": 10440,
    "amp": 2608,
    "patter": 4176,
    "Ġawakened": 10452,
    "Ġ72": 19610,
    "gerine": 22884,
    "Ġattention": 1157,
    "squeezing": 25913,
    "bitts": 26122,
    "Ġcranial": 25592,
    "ounce": 6557,
    "turned": 7306,
    "Ġexchanged": 10877,
    "Ġtedious": 15265,
    "Ġbrides": 22864,
    "Ġapprehensiveness": 16876,
    "Ġanvil": 11595,
    "Ġworse": 4719,
    "Ġwiping": 25765,
    "Ġcontemplation": 11356,
    "Ġjuggling": 20437,
    "Ġlikely": 3602,
    "O": 51,
    "linen": 25257,
    "85": 13679,
    "Ġdimension": 3244,
    "upid": 6582,
    "Ġrealities": 18981,
    "Ġzoned": 22818,
    "Ġminimum": 23038,
    "Ġmarried": 3412,
    "iner": 2673,
    "senses": 25024,
    "Ġbeaches": 18084,
    "Ġtuning": 3072,
    "record": 16920,
    "asserted": 22307,
    "Ġhot": 4259,
    "ĠĠĠ": 2115,
    "Ġmanaged": 7907,
    "atural": 940,
    "Ġbaffled": 12400,
    "resum": 17760,
    "udg": 22750,
    "Ġanecd": 20153,
    "Ġmere": 2715,
    "Ġ56": 24323,
    "Ġstill": 1159,
    "fect": 2301,
    "Ġpopular": 6216,
    "Ġq": 1081,
    "Ġpugn": 21478,
    "Ġadagrad": 2904,
    "itics": 13870,
    "Ġbefitting": 15722,
    "Ġtug": 11549,
    "Ġgibberish": 25786,
    "21": 10070,
    "Ġwhole": 1662,
    "james": 15370,
    "ourage": 2452,
    "Ġrespectability": 14483,
    "pennies": 26285,
    "Ġsqualidness": 25842,
    "ocris": 23707,
    "future": 13715,
    "Ġwrist": 8243,
    "Ġtoils": 10184,
    "Ġfrontispiece": 23911,
    "Ġrevellers": 21676,
    "Ġfingertips": 24016,
    "Ġegot": 18007,
    "Ġtahiti": 13617,
    "Ġadmitting": 19182,
    "Ġdistrust": 8204,
    "Ġbetokened": 18796,
    "kine": 15373,
    "fier": 9592,
    "inj": 9150,
    "Ġeconomically": 25288,
    "Ġcrowding": 13276,
    "Ġdiscre": 2419,
    "Ġresidence": 8207,
    "Ġanxiously": 8290,
    "Ġinvitation": 5189,
    "volutions": 16319,
    "int": 1200,
    "gryphon": 15356,
    "Ġinclude": 1873,
    "quod": 2165,
    "presented": 12988,
    "Ġsoc": 3529,
    "Ġgraceful": 11295,
    "Ġclearing": 8240,
    "Ġexceed": 1347,
    "Ġsu": 432,
    "Ġreliability": 22877,
    "Ġmarines": 16259,
    "Ġsatan": 14388,
    "rons": 21038,
    "Ġtapers": 11550,
    "Ġweather": 4000,
    "anc": 6379,
    "Ġ1820": 25718,
    "Ġmetropol": 11142,
    "dil": 11477,
    "Ġaccursed": 9461,
    "motives": 26137,
    "ints": 3421,
    "Ġretain": 7864,
    "Ġexotic": 21829,
    "unhesitatingly": 26495,
    "Ġten": 2387,
    "Ġfolded": 7768,
    "iffe": 21900,
    "imly": 12683,
    "Ġfaithfully": 14885,
    "ulled": 14054,
    "dost": 14533,
    "Ġapple": 14167,
    "draul": 9441,
    "Ġcryst": 9915,
    "Ġconveying": 19713,
    "irectly": 6940,
    "Ġcolonial": 22855,
    "Ġcrows": 24030,
    "Ġpleasantness": 24137,
    "kov": 17585,
    "Ġsuitable": 18280,
    "Ġhackluyt": 25655,
    "vis": 4578,
    "unched": 10234,
    "Ġmeantime": 6206,
    "č": 206,
    "Ġappeals": 16313,
    "attendants": 25495,
    "Ġge": 1978,
    "ura": 1086,
    "bye": 5950,
    "Ġtestified": 16339,
    "Ġsinging": 7724,
    "scuttle": 11907,
    "Ġdial": 10809,
    "Ġhack": 12752,
    "Ġapparelled": 20435,
    "gentlemen": 9502,
    "Ġferguson": 17468,
    "favour": 9547,
    "Ġquiet": 3265,
    "bbles": 13689,
    "footman": 17161,
    "ĠĠĠĠĠĠĠĠĠĠĠĠĠĠĠĠĠĠĠĠĠĠĠĠĠĠĠĠĠĠĠĠĠ": 12039,
    "ĠĠĠĠĠĠĠĠ": 711,
    "Ġchap": 5934,
    "Ġpray": 3902,
    "Ġsluggish": 25890,
    "Ġpew": 9313,
    "Ġmischief": 8540,
    "Ġjudgment": 5765,
    "Ġupset": 22151,
    "comm": 7440,
    "Ġtoe": 13934,
    "Ġembalmed": 13654,
    "Ġbalance": 2020,
    "Ġrestlessness": 23288,
    "Ġexceedingly": 4615,
    "Ġwaterloo": 11977,
    "Ġshallow": 14392,
    "Ġrenegades": 26475,
    "i": 77,
    "Ġanchors": 12609,
    "È": 137,
    "truth": 9917,
    "Ġrestoration": 19024,
    "Ġstubbornness": 25380,
    "Ġscreamed": 9522,
    "fright": 9594,
    "ained": 3065,
    "prisoner": 20542,
    "Ġapprobation": 10985,
    "Ġentreaties": 9034,
    "Ġspile": 22125,
    "ial": 410,
    "Ġlexicon": 25974,
    "knives": 14911,
    "Ġthreaten": 24373,
    "eers": 20842,
    "Ġalleg": 14015,
    "Ġawaiting": 11389,
    "Ġdramatic": 4850,
    "Ġdromedary": 17437,
    "jane": 4483,
    "Ġearthy": 23711,
    "Ġsoo": 15858,
    "folly": 20861,
    "Ġgod": 1936,
    "Ġtransfer": 2263,
    "Ġfootfall": 14660,
    "Ġord": 3740,
    "Ġwounding": 19585,
    "Ġcocoan": 20315,
    "suitable": 18633,
    "bene": 6112,
    ").": 1272,
    "inders": 15977,
    "Ġadmits": 23553,
    "Ġsec": 2075,
    "Ġpeddling": 24799,
    "friendship": 24047,
    "Ġproud": 5654,
    "Ġconnexion": 11453,
    "methodically": 20663,
    "Ġexcl": 3477,
    "quar": 7615,
    "ph": 937,
    "Ġcared": 8781,
    "Ġimmensely": 13593,
    "Ġ115": 24438,
    "Ġincl": 4272,
    "Ġdelicate": 6480,
    "Ġsequentially": 4914,
    "Ġfo": 1650,
    "ositions": 10282,
    "Ġmallet": 17810,
    "handedness": 24920,
    "Ġcongregational": 25102,
    "tains": 10961,
    "Ġunscrew": 22038,
    "Ġprefer": 6416,
    "Ġparticular": 2450,
    "Ġmiddle": 4139,
    "Ġstudying": 9846,
    "eded": 9672,
    "Ġgallery": 10523,
    "nament": 11505,
    "confess": 12172,
    "cupboards": 25401,
    "Ġprivile": 8645,
    "syntax": 5866,
    "Ġneatly": 17015,
    "Ġmeasuring": 22878,
    "Ġspinning": 15051,
    "Ġdaugh": 2294,
    "elves": 2159,
    "felix": 10652,
    "decoder": 3648,
    "urmountable": 15277,
    "Ġcounter": 6481,
    "yder": 10137,
    "ance": 478,
    "served": 5043,
    "leton": 5148,
    "visual": 24221,
    "Ġpropri": 6738,
    "Ġamends": 14244,
    "reclining": 20573,
    "Ġsatisfying": 23695,
    "Ġsupported": 9816,
    "Ġhostile": 19938,
    "calmed": 16201,
    "Ġterra": 13114,
    "Ġabsorbed": 12328,
    "Ġbourgh": 5069,
    "ask": 857,
    "somehow": 12008,
    "Ġstraightened": 12105,
    "Ġconnex": 10664,
    "inement": 11556,
    "Ġgibe": 25959,
    "Ġinterven": 10997,
    "Ġplainer": 23703,
    "Ġk": 485,
    "Ġconsolation": 6208,
    "Ġthoughtful": 16189,
    "Ġyour": 633,
    "tled": 3461,
    "Ġbirth": 6524,
    "ocr": 10467,
    "Ġscarce": 8621,
    "jour": 20926,
    "hearing": 8403,
    "Ġsumat": 14128,
    "surf": 24211,
    "Ġes": 8768,
    "master": 5687,
    "Ġplaning": 22599,
    "Ġcalf": 16264,
    "Ġdecoyed": 18486,
    "Ġdarts": 16767,
    "Ġloitered": 26524,
    "Ġspectacles": 12094,
    "Ġcrest": 12937,
    "Ġchick": 22245,
    "Ġcountry": 2532,
    "Ġtransportation": 13640,
    "nyder": 16685,
    "coun": 10685,
    "Ġappalled": 22219,
    "N": 50,
    "Ġben": 1106,
    "Ġimmeas": 18330,
    "Ġpaces": 13917,
    "unw": 14055,
    "Ġpatentee": 25586,
    "nd": 11502,
    "ispens": 8336,
    "Ġshoving": 23487,
    "Ġstuck": 9219,
    "Ġrevived": 11367,
    "Ġflashes": 11914,
    "ously": 2491,
    "Ġprotect": 6337,
    "pour": 17629,
    "Ġcring": 15548,
    "rin": 10120,
    "Ġo": 275,
    "tiness": 21070,
    "Ġignorant": 5343,
    "Ġwestern": 10653,
    "ooping": 21006,
    "Ġmultitudinous": 26273,
    "ky": 4520,
    "Ġvoyager": 16510,
    "Ġdagger": 21436,
    "?âĢĻâĢĿ": 23642,
    "Ġsidel": 9634,
    "drown": 13702,
    "Ġsignifies": 19202,
    "pride": 11209,
    "Ġshakespeare": 20306,
    "Ġsickly": 16773,
    "Ġconsider": 2570,
    "Ġcaptivating": 26050,
    "safety": 20348,
    "Ġsupp": 1265,
    "Ġaband": 6561,
    "ahit": 9379,
    "Ġslips": 23163,
    "Ġmutters": 23953,
    "Ġfeather": 8858,
    "Ġbohemia": 10648,
    "ohn": 4561,
    "Ġlow": 1644,
    "Ġsailor": 3540,
    "Ġrelief": 6060,
    "Ġobjects": 5577,
    "Ġprime": 10403,
    "aced": 2409,
    "nect": 662,
    "found": 4215,
    "ldog": 21915,
    "acca": 23596,
    "reinforcement": 7827,
    "Ġtidings": 11396,
    "Ġpang": 15601,
    "ense": 2051,
    "concerned": 24583,
    "Ġpertur": 12847,
    "Ġdestruction": 6600,
    "Ġhid": 1320,
    "Ġreputation": 11638,
    "kerchief": 7525,
    "Ľ": 254,
    "Ġcock": 10999,
    "Ġeffectually": 16164,
    "wet": 15450,
    "elihood": 4623,
    "Ġcorpusants": 13675,
    "wearing": 22685,
    "Ġgospel": 18000,
    "Ġremote": 8918,
    "ete": 9202,
    "Ġegyptian": 13584,
    "Ġacquiring": 2768,
    "Ġinsens": 8277,
    "Ġemaciated": 20637,
    "Ġcigarette": 20655,
    "Ġhey": 11639,
    "Ġrails": 22653,
    "earnest": 12396,
    "highest": 20406,
    "Ġinsensible": 12322,
    "Ġstaring": 8823,
    "\"]": 17469,
    "Ġmiscell": 16146,
    "Ġunusual": 6553,
    "Ġrestraint": 15125,
    "Ġspo": 6846,
    "Ġput": 1797,
    "Ġdumplings": 15188,
    "Ġbloss": 19255,
    "Ġdependent": 14292,
    "isf": 2437,
    "Ġrelaps": 18775,
    "Ġsouthern": 7689,
    "happy": 4426,
    "cceed": 4143,
    "rol": 5713,
    "darker": 24512,
    "Ġre": 317,
    "Ġinferred": 14498,
    "Ġdistressed": 8513,
    "000": 2562,
    "train": 2033,
    "observation": 17268,
    "Ġbringing": 5869,
    "sometimes": 5972,
    "Ġbumps": 21390,
    "Ġpretending": 19314,
    "ess": 414,
    "brous": 19197,
    "Ġregrets": 18594,
    "wedding": 13369,
    "eray": 21265,
    "Ġrecur": 1619,
    "Ġthr": 5709,
    "Ġerad": 25028,
    "Ġfrightens": 24029,
    "Ġcastors": 23973,
    "Ġsmall": 892,
    "Ġbreathing": 9443,
    "Ġanecdote": 26354,
    "ouncing": 8494,
    "icates": 11615,
    "intosh": 22938,
    "Ġprivileges": 25132,
    "Ġmouthful": 16573,
    "Ġglut": 18853,
    "Ġdemeanour": 17335,
    "Ġdreamt": 23936,
    "drab": 23895,
    "Ġtints": 17726,
    "Ġtraged": 9350,
    "Ġunbounded": 18259,
    "Ġrepl": 1590,
    "Ġcategories": 4478,
    "Ġbuoyant": 13530,
    "Ġlevel": 5020,
    "Ġworthless": 19564,
    "Ġsauce": 15886,
    "Ġbottles": 16569,
    "appin": 18758,
    "Ġinstruction": 14337,
    "Ġwow": 15526,
    "Ġattentive": 9032,
    "Ġsap": 18322,
    "sheet": 16283,
    "stun": 18018,
    "rably": 21631,
    "Ġextinction": 14339,
    "Ġmonotonous": 13260,
    "Ġbathed": 17865,
    "Ġelegance": 11331,
    "Ġdiscoverers": 26036,
    "poverty": 22907,
    "particularly": 8340,
    "Ġoct": 10157,
    "osa": 22258,
    "civility": 17512,
    "Ġ181": 23892,
    "meadow": 18676,
    "Ġbur": 2699,
    "stating": 21645,
    "unken": 10235,
    "buck": 17489,
    "aye": 3663,
    "inglass": 21301,
    "Ġpinioned": 21480,
    "icip": 6389,
    "Ġfade": 21406,
    "Ġmonsieur": 12418,
    "becomes": 22493,
    "Ġpassed": 2010,
    "Ġdiabol": 11452,
    "Ġtracks": 18891,
    "Ġkid": 9723,
    "penn": 18826,
    "aret": 7417,
    "âĢĶâĢĶâĢĿ": 15936,
    "Ġdiabolism": 25514,
    "Ġpropensity": 18996,
    "friends": 8306,
    "ython": 1031,
    "deser": 10401,
    "Ġparasol": 22119,
    "thar": 18217,
    "Ġbowls": 23768,
    "Ġsideways": 6182,
    "Ġperched": 10298,
    "wishes": 13805,
    "Ġglances": 10371,
    "Ġconveniences": 19811,
    "oted": 4598,
    "Ġjuggler": 26366,
    "isions": 6130,
    "Ġrhone": 25230,
    "Ġabruptness": 25299,
    "Ġswears": 16462,
    "Ġaccordingly": 6619,
    "rate": 2425,
    "Ġpours": 17909,
    "Ġtransformed": 22609,
    "Ġshad": 3852,
    "uture": 1075,
    ".--": 20745,
    "Ġamuse": 5940,
    "equal": 14991,
    "Ġsponge": 26003,
    "forbidding": 25837,
    "ilities": 6991,
    "Ġsoph": 1634,
    "Ġdaresay": 14702,
    "Ġneeded": 7718,
    "Ġobstin": 14951,
    "Ġamazed": 14887,
    "piece": 6655,
    "Ġfleeting": 19326,
    "Ġpenalizing": 13088,
    "posted": 24636,
    "rices": 4559,
    "Ġpraying": 19553,
    "tenham": 16318,
    "Ġgene": 15668,
    "Ġprogeny": 17386,
    "private": 13580,
    "cheap": 23803,
    "Ġadhering": 14138,
    "Ġwrinkled": 7264,
    "irc": 1730,
    "Ġlifted": 6985,
    "Ġmany": 1103,
    "Ġsystemat": 18447,
    "Ġaid": 6122,
    "footed": 19688,
    "Ġalone": 2568,
    "wes": 17702,
    "Ġdoxology": 22242,
    "Ġtakings": 20571,
    "Ġfunctions": 1343,
    "Ġdiscoloured": 15250,
    "Ġplayfully": 19238,
    "Ġremorse": 6441,
    "tremble": 17140,
    "Ġcigar": 9543,
    "Ġcelestial": 10065,
    "ittleness": 22374,
    "Ġrelative": 11880,
    "momentum": 4991,
    "retion": 9360,
    "Ġheaven": 3368,
    "Ġlucas": 3835,
    "Ġencouragement": 13039,
    "bre": 3982,
    "teness": 23203,
    "Ġinhab": 5083,
    "Ġworldly": 16326,
    "Ġdrunken": 12047,
    "](": 11465,
    "thrust": 10260,
    "Ġgowns": 25359,
    "Ġzoology": 22819,
    "Ġrestless": 10412,
    "ships": 5486,
    "address": 14879,
    "gazing": 12468,
    "ook": 21003,
    "contained": 22468,
    "extreme": 11028,
    "Ġloses": 15870,
    "Ġpatients": 24813,
    "osal": 11756,
    "atters": 18496,
    "hunt": 20902,
    "Ġsacri": 18327,
    "sides": 12504,
    "Ġsignificantly": 4519,
    "Ġlun": 7856,
    "Ġnarrations": 24351,
    "lighter": 20958,
    "Ġiceberg": 14714,
    "Ġfake": 5810,
    "Ġinsertion": 26343,
    "prev": 12863,
    "prom": 6509,
    "arthly": 8030,
    "Ġopinions": 9413,
    "Ġevidently": 6759,
    "Ġangle": 8602,
    "swallowed": 14851,
    "Ġhauled": 11691,
    "eu": 17529,
    "urer": 18121,
    "Ġcount": 1814,
    "holloa": 19462,
    "Ġdistrict": 10317,
    "Ġinsufferable": 13929,
    "Ġshoreless": 24294,
    "Ġresults": 7308,
    "Ġsign": 2495,
    "Ġcollecting": 12283,
    "Ġpossessed": 5195,
    "Ġrobberies": 22998,
    "Ġclumsy": 9578,
    "Ġchas": 18379,
    "reck": 9635,
    "ference": 1880,
    "guest": 19480,
    "elope": 14466,
    "ĠĠĠĠĠĠĠĠĠĠĠĠĠĠĠĠĠĠĠĠĠĠĠĠĠĠĠĠĠĠĠĠĠĠĠĠĠĠĠĠĠĠĠĠ": 12150,
    "Ġvolition": 14795,
    "vering": 15712,
    "scarcely": 12383,
    "Ġindeed": 1679,
    "ceased": 21624,
    "Ġlearnedly": 23382,
    "Ġundulations": 19514,
    "Ġnind": 17949,
    "Ġirrespective": 23371,
    "Ġbeholding": 8668,
    "ward": 705,
    "Ġcontained": 7679,
    "make": 5793,
    "Ġencamped": 22801,
    "Ġfaults": 12209,
    "Ġsanction": 20024,
    "Ġroad": 3883,
    "Ġecho": 12664,
    "Ġcrossing": 7252,
    "sets": 17659,
    "ordinary": 4408,
    "Ġscorched": 17100,
    "osition": 1374,
    "Ġtiller": 8964,
    "Ġindispensable": 11897,
    "Ġrib": 4936,
    "Ġcomplaisance": 19447,
    "Ġthy": 2514,
    "sters": 6391,
    "engaged": 7452,
    "cing": 1012,
    "Ġlullaby": 20586,
    "ingham": 21299,
    "Ġnumerous": 6920,
    "Ġishmael": 7395,
    "Ġsolitude": 6876,
    "bly": 6110,
    "Ġrestrict": 16370,
    "Ġcrozetts": 19628,
    "Ġrest": 1780,
    "okened": 15981,
    "Ġexhib": 6349,
    "dan": 17514,
    "andering": 21865,
    "Ġarchangel": 8542,
    "pursued": 17280,
    "aphys": 15199,
    "Ġmoulded": 16974,
    "Ġduncan": 13459,
    "Ġtelegraph": 25583,
    "Ġslices": 23161,
    ",âĢĻ": 2327,
    "gul": 12462,
    "Ġempty": 5353,
    "ä": 165,
    "rods": 21536,
    "Ġassiduous": 26292,
    "Ġdisdain": 8360,
    "aming": 5828,
    "bey": 10313,
    "spades": 14330,
    "educ": 10827,
    "Ġmaimed": 21315,
    "Ġargued": 13627,
    "Ġlofty": 6217,
    "sch": 21049,
    "Ġdoes": 943,
    "orters": 21399,
    "tailed": 17684,
    "Ġaffected": 5576,
    "amb": 5723,
    "Ġstripping": 23694,
    "idation": 5022,
    "Ġflies": 13022,
    "Ġgarb": 21601,
    "Ġrapidly": 3203,
    "Ġanx": 3181,
    "Ġmuscles": 12085,
    "Ġpostpone": 17305,
    "low": 657,
    "Ġsauc": 15884,
    "Ġanyhow": 14253,
    "ims": 7176,
    "Ġpersecut": 16951,
    "opence": 18507,
    "Ġbestow": 6455,
    "Ġverdant": 15001,
    "Ġjac": 1896,
    "Ġmilky": 9945,
    "Ġdinners": 23979,
    "Ġtremendous": 8353,
    "Ġthousand": 2782,
    "Ġornam": 15861,
    "Ġhorizon": 6632,
    "Ġturnkeys": 23028,
    "Ġcondescend": 19953,
    "Ġmonstr": 7668,
    "Ġconsoled": 18112,
    "Ġhipp": 21490,
    "hes": 1398,
    "Ġbleeds": 24396,
    "Ġcasket": 19723,
    "Ġrudeness": 17123,
    "corrid": 24483,
    "Ġlungs": 8362,
    "Ġdons": 17888,
    "Ġripple": 25504,
    "marks": 7346,
    "ion": 295,
    "Ġstole": 7953,
    "Ġslopes": 18940,
    "Ġas": 374,
    "modern": 1148,
    "hopes": 15367,
    "Ġnephew": 6405,
    "Ġspouts": 7730,
    "Ġreconcile": 25291,
    "Ġdiffusion": 23781,
    "Ġstarry": 16922,
    "injury": 25213,
    "Ġremember": 2680,
    "Ġpure": 6137,
    "abated": 14018,
    "Ġclimbing": 20068,
    "things": 6033,
    "hatchway": 25904,
    "itates": 13867,
    "Ġatmosphere": 10896,
    "Ġsell": 7826,
    "Ġgeneral": 1861,
    "Ġworth": 4418,
    "sounded": 12263,
    "ena": 11566,
    "Ġreel": 9212,
    "glory": 23850,
    "Ġfestival": 25445,
    "athom": 12935,
    "onious": 15516,
    "Ġseams": 12121,
    "real": 10148,
    "lock": 1470,
    "revival": 26162,
    "Ġindia": 10369,
    "itch": 10159,
    "Ġsmith": 16061,
    "akness": 14193,
    "Ġprovides": 1928,
    "Ġclapped": 9743,
    "Ġprincip": 5599,
    "Ġpains": 5965,
    "Ġghastly": 10058,
    "Ġdepressions": 25798,
    "wants": 21129,
    "Ġ270": 25130,
    "unsuitable": 21891,
    "eagerly": 17314,
    "light": 3016,
    "rance": 5994,
    "Ġprot": 3850,
    "Ġthews": 21276,
    "Ġledger": 19400,
    "Ġspan": 11725,
    "prosperity": 20734,
    "augh": 1781,
    "commendation": 26348,
    "Ġrewarding": 13435,
    "aster": 1866,
    "sole": 6168,
    "part": 2575,
    "Ġhalf": 1670,
    "fer": 1935,
    "anks": 3920,
    "Ġarchipelagoes": 14346,
    "olet": 13764,
    "altogether": 12635,
    "Ġcovered": 5171,
    "ĝ": 222,
    "Ġaint": 17743,
    "telescope": 26561,
    "Ġload": 14144,
    "mot": 17595,
    "adem": 21755,
    "Ġroute": 11380,
    "soldiers": 25911,
    "Ġsixpence": 19316,
    "Ġbubb": 12580,
    "Ġdiscours": 18718,
    "Ġskewer": 19619,
    "Ġtattooed": 11377,
    "Ġtraps": 23077,
    "Ġoutstretched": 14194,
    "Ġfloor": 4378,
    "azz": 8262,
    "Ġreminds": 13429,
    "Ġclenched": 14202,
    "Ġsolomon": 11051,
    "Ġshrunk": 16717,
    "ieties": 19022,
    "possible": 5743,
    "somewhere": 12009,
    "bul": 6951,
    "connect": 1295,
    "Ġproper": 1378,
    "Ġfatality": 12091,
    "Ġskul": 22795,
    "Ġmislead": 22755,
    "drive": 8682,
    "Ġshutting": 14757,
    "Ġconsec": 21803,
    "Ġcareer": 11117,
    "ones": 2743,
    "Ġsulkily": 25882,
    "Ġincantation": 26257,
    "chase": 11643,
    "mystical": 25317,
    "confined": 24331,
    "Ġattracted": 8902,
    "Ġformed": 3886,
    "amet": 584,
    "Ġwhalebone": 10976,
    "fitters": 24761,
    "Ġlandless": 23375,
    "irted": 14069,
    "Ġchange": 1993,
    "garnished": 26387,
    "breaking": 14762,
    "clusion": 16303,
    "Ġaddition": 1147,
    "oked": 4309,
    "Ġsquee": 7929,
    "Ġnewcom": 16219,
    "savor": 25022,
    "Ġadorn": 12786,
    "Ġlux": 8812,
    "--âĢľ": 12968,
    "Ġappearances": 10450,
    "Ġnumerical": 4246,
    "<UNK>": 3,
    "Ġcircumstance": 4987,
    "Ġdepl": 14044,
    ",âĢĻâĢĶ": 23524,
    "ivory": 10267,
    "Ġannihil": 10173,
    "stoke": 18022,
    "anely": 17836,
    "cen": 17501,
    "Ġcottages": 14725,
    "Ġduck": 8792,
    "Ġcircumn": 11980,
    "Ġstum": 21729,
    "Ġsumm": 3358,
    "Ġsharply": 9401,
    "Ġbehavior": 8002,
    "heavens": 19744,
    "Ġcash": 9651,
    "Ġconcussion": 26300,
    "Ġstormy": 16727,
    "Ġprognost": 15279,
    "ned": 3495,
    "Ġunceasingly": 20357,
    "illar": 5101,
    "x": 92,
    "Ġslid": 7952,
    "Ġflogged": 23624,
    "Ġprodigy": 19791,
    "Ġape": 21195,
    "Ġboot": 11836,
    "Ġblanche": 18819,
    "Ġmockery": 12104,
    "becoming": 18518,
    "Ă": 195,
    "Ġmasterly": 23992,
    "ange": 1017,
    "Ġle": 333,
    "nurse": 15206,
    "wondrous": 12335,
    "Ġsnail": 19299,
    "kee": 18273,
    "ĠĠĠĠĠĠĠĠĠĠĠĠĠĠĠĠĠĠĠĠĠĠĠ": 18831,
    "Ġsubsequent": 7659,
    "exceed": 7912,
    "Ġfrenz": 25446,
    "..": 5783,
    "ably": 1847,
    "Ġcruc": 16533,
    "Ġcapsized": 20088,
    "Ġpret": 3034,
    "sphere": 22728,
    "dec": 3114,
    "Ġantilles": 24177,
    "Ġneighbour": 3811,
    "Ġfinite": 2324,
    "Ġloathsome": 13526,
    "ellations": 21946,
    "Ġexcellent": 4239,
    "cannibals": 25584,
    "Ġmenaces": 23104,
    "¹": 122,
    "Ġbreakers": 12052,
    "give": 4689,
    "Ġout": 543,
    "Ġhoisting": 9860,
    "Ġselfishness": 12286,
    "ì": 173,
    "ethics": 8877,
    "Ġmealy": 18118,
    "holmes": 4432,
    "Ġflamingo": 15098,
    "Ġblasphe": 17405,
    "diver": 20830,
    "Ġprinted": 11946,
    "Ġharm": 5017,
    "blazing": 24130,
    "Ġswung": 6449,
    "Ġview": 2763,
    "Ġinexplicable": 12253,
    "Ġports": 10817,
    "atra": 17770,
    "Ġstruct": 2784,
    "outward": 22158,
    "sp": 893,
    "²": 115,
    "Ġtrans": 637,
    "Ġheire": 18036,
    "Ġchewed": 16366,
    "Ġconcoct": 19047,
    "Ġlawyer": 10667,
    "Ġtangled": 13825,
    "sight": 5995,
    "'re": 12425,
    "Ġabound": 8862,
    "lying": 7174,
    "Ġindians": 14407,
    "Ġcomplicated": 14733,
    "rib": 1945,
    "inquir": 9534,
    "Ġexecutioner": 12268,
    "proved": 11983,
    "ographical": 16785,
    "Ġdilatory": 24705,
    "beg": 22484,
    "Ġunnaturally": 24870,
    "wild": 8766,
    "Ġdidst": 11846,
    "Ġsoaring": 22084,
    "Ġbegrimed": 26577,
    "Ġresponsible": 9885,
    "Ġsofa": 10269,
    "Ġelegant": 7532,
    "Ġhurrah": 9867,
    "descending": 16282,
    "Ġlongest": 18629,
    "Ġunexampled": 20358,
    "Ġmoon": 4609,
    "Ķ": 247,
    "Ġpatroness": 13508,
    "fing": 13711,
    "Ġwrung": 14468,
    "Ġnecessarily": 13247,
    "Ġcontinent": 14886,
    "Ġindignation": 8347,
    "cle": 3958,
    "Ġstru": 2170,
    "Ġstiff": 6992,
    "Ġlack": 17963,
    "Ġreluct": 14370,
    "Ġjet": 5307,
    "Ġfootpath": 19337,
    "Ġcomrades": 9553,
    "Ġunsupp": 22019,
    "Ġdoubtful": 19141,
    "Ġconcre": 16386,
    "Ġobjectionable": 16990,
    "memory": 13615,
    "Ġfeatureless": 22610,
    "appre": 14369,
    "Ġafterwards": 3534,
    "Ġtrous": 10959,
    "jewel": 20345,
    "Ġallusion": 7625,
    ".]": 15296,
    "Ġgreatness": 12939,
    "trucks": 25419,
    "Ġoblivion": 26031,
    "restrained": 16332,
    "Ġswim": 3823,
    "ouraged": 22856,
    "Ġinvisibly": 24817,
    "Ġdistribution": 2018,
    "Ġfaithfulness": 24445,
    "Ġsteadily": 8052,
    "Ġbrightly": 13221,
    "Ġaimed": 20249,
    "Ġexception": 11215,
    "Ġavowal": 19413,
    "Ġsteps": 2864,
    "Ġner": 1643,
    "ross": 808,
    "Ġentities": 11859,
    "Ġtru": 4107,
    "Ġtorch": 25030,
    "Ġcolumb": 22853,
    "entrance": 12653,
    "Ġunconnected": 18242,
    "Ġemb": 1253,
    "Ġvengeance": 5885,
    "'(": 2979,
    "Ġconstit": 8582,
    "Ġirksome": 13109,
    "idents": 6150,
    "Ġesteemed": 10587,
    "dut": 10086,
    "gish": 20872,
    "Ġinvolved": 8927,
    "Ġaugust": 10596,
    "letters": 13172,
    "trembling": 17141,
    "Ġnoisy": 13316,
    "Ġrepresented": 8937,
    "Ġpaths": 2571,
    "Ġpriest": 7526,
    "Ġsentences": 2684,
    "my": 1316,
    "Ġpau": 17906,
    "fatality": 25019,
    "Ġrushes": 20506,
    "Ġtoday": 12639,
    "Ġround": 1369,
    "Ġdistricts": 20262,
    "Ġ37": 24076,
    "Ġsunlight": 13082,
    "Ġlandowner": 23377,
    "Ġcommun": 1708,
    "Ġsuppression": 23000,
    "sorting": 17003,
    "Ġineffable": 17330,
    "Ġactivations": 2722,
    "¡": 99,
    "Ġloosened": 26002,
    "iloquent": 21723,
    "Ġthrow": 3787,
    "istic": 1001,
    "Ġpagan": 7117,
    "Ġimpatient": 5602,
    "Ġspiral": 14583,
    "ls": 1292,
    "capitals": 25080,
    "Ġbuckle": 17032,
    "Ġhail": 7400,
    "cring": 20810,
    "feed": 9291,
    "Ġstranded": 9773,
    "educated": 17258,
    "Ġstepmother": 16085,
    "soul": 9139,
    "Ġspecific": 2002,
    "Ġrequisite": 18631,
    "Ġsting": 10860,
    "eld": 954,
    "Ġaccusation": 22388,
    "gentleman": 7518,
    "Ġarbit": 4651,
    "Ġmagnitude": 1943,
    "weekly": 25684,
    "Ġcooking": 16645,
    "breadth": 20275,
    "roy": 7854,
    "rier": 9240,
    "Ġinstinctively": 13457,
    "Ġcost": 2507,
    "vest": 6230,
    "Ġexperiments": 23005,
    "Ġcocaine": 20720,
    "skull": 24487,
    "Ġunfathomable": 20547,
    "tic": 8391,
    "Ġdeclaration": 16635,
    "Ġcraw": 7282,
    "Ġunalterable": 15848,
    "Ġcows": 15549,
    "Ġtelegram": 15221,
    "Ġunwillingness": 20030,
    "ġ": 226,
    "Ġelated": 18634,
    "Ġdreadful": 4920,
    "singular": 12185,
    "frankenstein": 11390,
    "Ġintu": 12759,
    "Ġlabeled": 3722,
    "Ġhun": 1496,
    "Ġxxxii": 24972,
    "compass": 9457,
    "notches": 22748,
    "Ġfors": 21769,
    "utility": 21585,
    "ike": 5000,
    "Ġturned": 2133,
    "Ġsnuffed": 15070,
    "pleased": 8852,
    "icts": 22398,
    "regards": 23465,
    "complain": 14355,
    "Ġdin": 3629,
    "lengths": 24846,
    "Ġproceeding": 9904,
    "Ġreal": 1629,
    "Ġpert": 22393,
    "Ġconsol": 3818,
    "Ġpriority": 19761,
    "Ġannotations": 25954,
    "affrail": 11204,
    "Ġbraced": 16578,
    "butter": 11782,
    "Ġunsh": 14113,
    "indisc": 22371,
    "Ġenviron": 3677,
    "Ġclink": 22344,
    "Ġluxury": 20130,
    "Ġabominable": 12319,
    "Ġportent": 12078,
    "Ġsaviour": 20712,
    "Ġattempting": 14695,
    "Ġbulge": 23855,
    "ize": 771,
    "Ġregular": 934,
    "lord": 3867,
    "Ġrapt": 7226,
    "somers": 19366,
    "Ġabated": 18390,
    "Ġtiny": 11551,
    "Ġforeb": 12000,
    "Ġclubbed": 26545,
    "abulary": 4800,
    "ributed": 8215,
    "isc": 6239,
    "zek": 16251,
    "unconquerable": 21889,
    "Ġshifting": 12764,
    "marrying": 19546,
    "ustomed": 6099,
    "Ġheadland": 22896,
    "yingly": 23113,
    "Ġhaught": 10251,
    "carried": 16711,
    "Ġdivergence": 2729,
    "Ġbackstays": 22649,
    "Ġprovoke": 14823,
    "precipitance": 25867,
    "Ġmoran": 9340,
    "scorn": 22989,
    "benefact": 24641,
    "Ġentr": 14334,
    "Ġname": 2082,
    "Ġjung": 12832,
    "ital": 4817,
    "cheeks": 23806,
    "Ġembodiment": 20526,
    "rels": 6664,
    "Ġlightning": 5750,
    "Ġrests": 13090,
    "Ġresented": 22541,
    "Ġcompar": 4771,
    "Ġdescrying": 18626,
    "Ġboa": 22633,
    "Ġachieved": 13164,
    "Ġrevolut": 3262,
    "Ġsquid": 11875,
    "Ġthreatened": 8330,
    "doc": 23372,
    "Ġindel": 13000,
    "Ġled": 3525,
    "Ġelectric": 15192,
    "Ġministers": 22832,
    "Ġletters": 3796,
    "Ġimpelling": 22380,
    "clerval": 7951,
    "suspicious": 25390,
    "hamlet": 23261,
    "emy": 14071,
    "Ġpulling": 5862,
    "Ġdreading": 23797,
    "Ġtoll": 7852,
    "wat": 6231,
    "Ġnorthward": 13319,
    "Ġprophesy": 26061,
    "Ġslapped": 23167,
    "ocity": 8278,
    "Ġper": 589,
    "Ġfetched": 24566,
    "Ġplain": 2818,
    "Ġrus": 14091,
    "ivial": 15856,
    "Ġcampaign": 20660,
    "Ġimmeasurable": 26229,
    "Ġeber": 18003,
    "Ġgardens": 16451,
    "Ġsit": 4217,
    "Ġjunk": 15950,
    "Ġunderneath": 16334,
    "returning": 12202,
    "Ġautomatically": 3547,
    "Ġasks": 5115,
    "gling": 10096,
    "Ġpreferment": 19852,
    "clothed": 19736,
    "Ġallusions": 10905,
    "Ġdelivered": 11115,
    "Ġinsert": 19904,
    "Ġrefill": 18703,
    "Ġopen": 1549,
    "discrimin": 19607,
    "Ġsymbols": 2797,
    "darkened": 24513,
    "Ġassistants": 9449,
    "preference": 22465,
    "Ġfiltering": 23923,
    "Ġhorizontally": 17011,
    "Ġseer": 21950,
    "fiend": 13659,
    "got": 6955,
    "Ġdeclared": 5594,
    "Ġow": 8408,
    "ful": 673,
    "Ġperplexed": 23657,
    "unsupervised": 10888,
    "izes": 884,
    "Ġsickening": 19603,
    "foam": 24417,
    "Ġrods": 9751,
    "Ġsouthwards": 19632,
    "Ġmanx": 7906,
    "relation": 19445,
    "Ġbutler": 18270,
    "Ġram": 11012,
    "berg": 11855,
    "Ġtribute": 15473,
    "brimmed": 14587,
    "Ġhunch": 18934,
    "notice": 16144,
    "shall": 4550,
    "Ġglistening": 12362,
    "Ġpretended": 19313,
    "Ġsympathy": 6346,
    "Ġshoots": 14566,
    "Ġfring": 11126,
    "Ġtechnically": 12363,
    "Ġhood": 10822,
    "Ġcharmed": 16761,
    "Ġassault": 9835,
    "Ġrevolutionized": 3371,
    "abiding": 21791,
    "ine": 404,
    "ickory": 22667,
    "Ġacquirement": 19254,
    "Ġfleshy": 24615,
    "idious": 11660,
    "**:": 4737,
    "deduction": 23556,
    "Ġdism": 9765,
    "tfordshire": 4811,
    "Ġstudious": 23221,
    "Ġraft": 16112,
    "Ġanalyze": 1533,
    "Ġperturbed": 20438,
    "Ġsoothe": 7405,
    "izar": 14040,
    "Ġours": 4613,
    "bitterly": 20336,
    "istics": 1625,
    "Ġcourtiers": 24135,
    "Ġisle": 8831,
    "prior": 21031,
    "Ġreckoned": 24744,
    "Ġhydraul": 9512,
    "Ġbeasts": 10616,
    "Ġmathematics": 12070,
    "Ġdiscomposure": 20377,
    "safie": 20347,
    "Ġpretensions": 16557,
    "ure": 356,
    "Ġbackgammon": 22650,
    "ect": 381,
    "uplifted": 17694,
    "Ġvanishing": 1348,
    "Ġrevealed": 6751,
    "atory": 6125,
    "Ġlawn": 7379,
    "Ġoppressively": 25712,
    "Ġamiss": 18511,
    "Ġdarting": 7757,
    "persuasion": 20042,
    "Ġlory": 12648,
    "Ġhiss": 15784,
    "omically": 13974,
    "choice": 21689,
    "Ġgrasped": 8034,
    "interval": 7991,
    "Ü": 157,
    "Ġluc": 3313,
    "prejud": 11793,
    "isure": 6240,
    "Ġobedient": 20103,
    "Ġremarking": 13122,
    "tack": 12509,
    "itled": 7577,
    "ugn": 9375,
    "clad": 14457,
    "also": 7851,
    "Ġproducing": 11896,
    "otograph": 5826,
    "Ġbinnacle": 8119,
    "accompanied": 12419,
    "Ġgases": 21600,
    "Ġclearly": 6896,
    "attered": 4022,
    "than": 4090,
    "brow": 15313,
    "Ġportrait": 10660,
    "Ġunwinding": 22058,
    "diversity": 25897,
    "ically": 833,
    "Ġinfluenced": 19631,
    "Ġrings": 11697,
    "towing": 17688,
    "ğ": 224,
    "extinguished": 16147,
    "Ġmasking": 2422,
    "Ġcommander": 8624,
    "iners": 4937,
    "Ġrucastles": 18721,
    "xim": 1092,
    "feren": 765,
    "Ġemig": 14522,
    "Ġhorsey": 24248,
    "neglect": 25668,
    "Ġenveloping": 19732,
    "chor": 6146,
    "Ġunche": 23427,
    "Ġforce": 5092,
    "Ġno": 509,
    "aged": 2609,
    "Ġvind": 10248,
    "Ġdeployment": 11201,
    "Ġexagger": 12715,
    "._)": 10479,
    "Ġpipes": 9841,
    "rabb": 15676,
    "Ġrhyme": 21979,
    "shone": 22446,
    "Ġaddressing": 11163,
    "Ġbrid": 6290,
    "Ġcapacity": 10439,
    "occur": 19574,
    "Ġyawn": 7609,
    "shabbily": 26246,
    "enstein": 5799,
    "Ġpeevish": 26556,
    "placidity": 25988,
    "Ġattached": 5392,
    "Ġmalacca": 24392,
    "achines": 1724,
    "mews": 22709,
    "tures": 21068,
    "Ġnatures": 16504,
    "Ġsequ": 982,
    "Ġjove": 9266,
    "Ġestablish": 9541,
    "Ġelixir": 26554,
    "Ġtown": 2456,
    "Ġpath": 2114,
    "bruary": 15233,
    "Ġchis": 11747,
    "Ġfragmentary": 25857,
    "Ġcho": 4547,
    "Ġstreaming": 19672,
    "Ġadversary": 12170,
    "Ġprender": 22233,
    "Ġrepining": 23357,
    "local": 22508,
    "Ġaustralia": 15230,
    "ash": 1991,
    "Ġwhaler": 7520,
    "umpled": 15873,
    "idav": 18092,
    "courageous": 26127,
    "Ġugl": 12678,
    "pleasant": 5874,
    "haps": 1671,
    "Ġsatire": 22899,
    "Ġsouthampton": 24306,
    "W": 59,
    "Ġoverwhelmed": 11402,
    "Ġroused": 7623,
    "Ġdock": 15927,
    "summit": 23415,
    "hon": 6793,
    "Ġdiscerned": 24956,
    "Ġpredicted": 2044,
    "repent": 15511,
    "myster": 16261,
    "Ġanointing": 25539,
    "Ġinducements": 24967,
    "Ġmacro": 25939,
    "Ġunbecoming": 22062,
    "Ġjourneys": 19473,
    "Ġspiracle": 14148,
    "pier": 17634,
    "Ġgentlemanlike": 12063,
    "Ġgable": 15663,
    "Ġthirds": 16707,
    "Ġcharity": 8861,
    "Ġdeliriously": 23226,
    "Ġcordially": 16835,
    "Ġscener": 10948,
    "Ġshamefully": 24716,
    "Ġdig": 6135,
    "Ġshop": 9250,
    "achine": 606,
    "Ġhastily": 5763,
    "hearts": 13342,
    "avor": 14257,
    "shri": 14233,
    "¤": 102,
    "Ġinh": 10823,
    "Ġso": 433,
    "abash": 18107,
    "mor": 4216,
    "Ġcope": 17830,
    "Ġmoment": 990,
    "Ġbelieve": 2147,
    "Ġfaculties": 14956,
    "Ġfurlong": 18740,
    "Ġexpress": 2196,
    "nib": 5214,
    "turkish": 24532,
    "Ġautumnal": 19026,
    "derstand": 648,
    "confid": 14865,
    "forget": 11031,
    "Ġsufferings": 7513,
    "Ġadieus": 25110,
    "Ġign": 8295,
    "guess": 14759,
    "Ġreading": 5114,
    "Ġsadder": 24050,
    "Ġfitting": 21407,
    "Ġdeduce": 8337,
    "Ġsoil": 9253,
    "judgment": 16752,
    "breat": 10076,
    "Ġmaddening": 17242,
    "ingolstadt": 21302,
    "Ġhow": 599,
    "Ġpyramid": 8800,
    "Ġpliny": 11822,
    "Ġmouthfuls": 20645,
    "Ġdeficiencies": 26569,
    "Ġunfit": 14784,
    "Ġpallet": 21479,
    "Ġpriv": 4183,
    "sweetly": 25134,
    "beneath": 9533,
    "Ġdrama": 16325,
    "Ġcharitable": 23268,
    "sailed": 17665,
    "Ġlaz": 7378,
    "Ġclum": 8871,
    "begging": 22494,
    "ified": 3230,
    "strained": 21656,
    "_,âĢĻâĢĿ": 20399,
    "Ġindefinitely": 25221,
    "Ġviolation": 23404,
    "bedstead": 23847,
    "Ġoutskirts": 17455,
    "Ġshiver": 12763,
    "9": 29,
    "Ġpervers": 11780,
    "Ġstraits": 7994,
    "itation": 1779,
    "iltrated": 19305,
    "Ġowned": 11873,
    "pious": 17632,
    "apparently": 15202,
    "ushing": 5731,
    "Ġthack": 21515,
    "counterpart": 26359,
    "Ġdoubted": 7965,
    "rants": 13776,
    "Ġauthorized": 16734,
    "Ġlanded": 7469,
    "Ġhilarious": 20297,
    "endeavoured": 12277,
    "idol": 21764,
    "whalemen": 10430,
    "Ġfacil": 16961,
    "mole": 22699,
    "Ġaccident": 5380,
    "Ġrector": 21674,
    "erce": 6126,
    "guilt": 24067,
    "Ġmister": 22753,
    "Ġbaked": 21384,
    "Ġexceeding": 1579,
    "Ġsnow": 3710,
    "Ġconfound": 23303,
    "renew": 24449,
    "Ġmountainous": 16598,
    "Ġexcel": 3572,
    "Ġgraze": 18226,
    "Ġcorpora": 26579,
    "ale": 506,
    "atter": 646,
    "Ġclasses": 4057,
    "dled": 9109,
    "mixed": 15392,
    "Ġseaward": 22945,
    "Ġsobs": 14133,
    "osis": 18389,
    "Ġfalsely": 20580,
    "ject": 874,
    "Ġstaying": 8284,
    "Ġmurder": 4282,
    "Ġstrainings": 24628,
    "Ġscalable": 1500,
    "athan": 2958,
    "Ġevangel": 11279,
    "Ġsedentary": 25430,
    "Ġdonkey": 23225,
    "communication": 25881,
    "Ġtrades": 8232,
    "oric": 21394,
    "quakes": 21854,
    "odecim": 9830,
    "izers": 18133,
    "bennet": 5352,
    "Ġlifetime": 13600,
    "child": 5537,
    "Ġeff": 679,
    "bag": 7542,
    "Ġdire": 864,
    "Ġshabby": 14109,
    "Ġdesmarest": 22977,
    "accents": 19209,
    "urons": 3132,
    "Ġwhiff": 21716,
    "Ġbarque": 23789,
    "Ġfold": 5530,
    "Ġtemples": 18638,
    "Ġboon": 22635,
    "cher": 5786,
    "build": 12184,
    "Ġiroqu": 21617,
    "Ġkrempe": 10668,
    "ech": 4390,
    "Ġdizzy": 21431,
    "Ġrequisition": 22637,
    "sufficient": 6635,
    "regiment": 16450,
    "Ġoutriders": 26542,
    "Ġsimpleton": 16331,
    "dispute": 23497,
    "Ġphant": 7055,
    "Ġlater": 6017,
    "disgrace": 16456,
    "Ġdisreputable": 22532,
    "plague": 21957,
    "Ġcharge": 5324,
    "Ġeyed": 12665,
    "Ġmosses": 20162,
    "Ġsuperhuman": 23452,
    "Ġadded": 2718,
    "Ġvicissitudes": 12416,
    "Ġdraws": 19434,
    "elevating": 20404,
    "inquire": 16931,
    "Ġowners": 7663,
    "Ġweeps": 24947,
    "Ġoverwrites": 5033,
    "Ġadviser": 25312,
    "Ġfrown": 10806,
    "Ġconvenience": 11330,
    "other": 1315,
    "inked": 12909,
    "Ġblood": 3168,
    "Ġepoch": 26471,
    "Ġjacobian": 2892,
    "Ġannot": 15598,
    "Ġ*/": 10372,
    "Ġaddison": 14231,
    "Ġadjacent": 20710,
    "Ġrobes": 16243,
    "Ġembal": 11904,
    "Ġforger": 15729,
    "Ġcalms": 23039,
    "Ġdirector": 18920,
    "harb": 9122,
    "purp": 8091,
    "Ġcheese": 9374,
    "Ġcaptured": 7245,
    "Ġpresuming": 16792,
    "gage": 13721,
    "Ġjapanese": 10631,
    "ĠĠĠĠĠĠĠĠĠĠĠĠĠĠĠĠĠĠĠĠĠĠ": 16224,
    "generations": 23784,
    "Ġdefile": 18823,
    "bed": 3293,
    "ario": 14246,
    "Ġpile": 8424,
    "arming": 8950,
    "Ġbreadth": 10562,
    "Ġnash": 5819,
    "rael": 21627,
    "kindly": 14742,
    "Ġcit": 10782,
    "aven": 8208,
    "Ġankers": 21444,
    "Ġexcluded": 16381,
    "Ġconfirm": 9854,
    "Ġcompress": 21847,
    "bl": 4142,
    "nered": 18494,
    "ering": 1266,
    "eenth": 12457,
    "Ġconfessed": 8009,
    "Ġ120": 16857,
    "Ġregiment": 6432,
    "Ġknob": 24406,
    "burn": 8371,
    "Ġhappened": 3717,
    "ductive": 23933,
    "tend": 17673,
    "Ġshouted": 5347,
    "Ġconquer": 14025,
    "aborate": 14020,
    "Ġfelt": 1746,
    "ĠcÃ¦": 15551,
    "Ġbitterly": 8315,
    "Ġsway": 7571,
    "chief": 4645,
    "Ġresumed": 11809,
    "answering": 26004,
    "accurately": 25861,
    "Ġwear": 6031,
    "Ġsepulchre": 20558,
    "Ġfilm": 23922,
    "sir": 5001,
    "Ġinscrutable": 10671,
    "caroline": 24147,
    "Ġsuperflu": 14553,
    "Ġomnipotent": 13546,
    "hush": 20905,
    "Ġloadstone": 25816,
    "charming": 15702,
    "Ġeliminating": 20618,
    "ician": 21563,
    "bread": 10683,
    "arer": 3971,
    "distinctive": 25726,
    "persecutor": 26529,
    "ished": 1426,
    "beings": 12871,
    "ï": 176,
    "Ġcourtesy": 9943,
    "Ġboundary": 11221,
    "Ġlonely": 6823,
    "kington": 11202,
    "Ġthick": 3786,
    "Ġrapturously": 24888,
    "lady": 4434,
    "Ġphilosophy": 7103,
    "Ġgent": 7383,
    "Ġjeer": 24122,
    "Ġtick": 8109,
    "Ġwiser": 14728,
    "Ġhour": 1811,
    "Ġprayed": 16666,
    "excitement": 19668,
    "oarsman": 25261,
    "flakes": 23965,
    "Ġproperties": 3120,
    "comed": 8544,
    "duodecimo": 15999,
    "Ġwre": 5077,
    "henomen": 10493,
    "Ġvect": 1226,
    "Ġconfession": 11234,
    "anx": 8782,
    "Ġag": 684,
    "ory": 1078,
    "Ġcelest": 9899,
    "ę": 218,
    "Ġtistig": 26412,
    "anations": 12572,
    "Ġhearth": 11978,
    "choose": 23671,
    "wantonly": 25149,
    "ipl": 20917,
    "Ġtapped": 11552,
    "Ġthundering": 24290,
    "lion": 20943,
    "Ġspeakest": 23484,
    "Ġneighbor": 25805,
    "ements": 11106,
    "ply": 6366,
    "Ġnarrowly": 16819,
    "Ġmutual": 8297,
    "Ġqualified": 14948,
    "ė": 216,
    "erringly": 16209,
    "Ġnations": 8808,
    "Ġpestilent": 25777,
    "Ġhair": 3316,
    "Ġemblematical": 25788,
    "Ġbegg": 16253,
    "18": 20750,
    "Ġfath": 7364,
    "Ġer": 8105,
    "arers": 12126,
    "threadbare": 25989,
    "Ġtheoretically": 3571,
    "Ġcitations": 25437,
    "Ġdetested": 14176,
    "changed": 7175,
    "Ġunceasing": 20356,
    "goodbye": 12053,
    "Ġeducated": 16784,
    "Ġsympathised": 14860,
    "ain": 343,
    "Ġreplay": 5047,
    "comfort": 5647,
    "Ġdriving": 3621,
    "Ġrumbling": 18211,
    "adamite": 20591,
    "Ġblunder": 18818,
    "Ġregarding": 13208,
    "Ġknew": 2054,
    "achus": 18283,
    "venge": 4659,
    "orand": 21395,
    "Ġforbearance": 12325,
    "Ġsought": 5010,
    "Ġcurious": 3363,
    "swells": 26148,
    "Ġastonished": 7087,
    "acceptance": 25185,
    "Ġsofas": 26224,
    "own": 745,
    "Ġantichronical": 26608,
    "Ġtwit": 12925,
    "Ġpaul": 12060,
    "Ġfalls": 14643,
    "elaborate": 21574,
    "Ġvort": 18193,
    "iterranean": 15546,
    "Ġwidows": 24235,
    "pictures": 15088,
    "ents": 1895,
    "block": 11469,
    "ama": 11675,
    "teak": 22815,
    "keen": 12778,
    "Ġgrease": 26189,
    "Ġsayest": 22772,
    "Ġlicensing": 20091,
    "namely": 23697,
    "Ġwriggling": 15255,
    "Ġleakage": 23458,
    "igated": 15703,
    "Ġcentaurs": 23830,
    "entiating": 3442,
    "shadows": 25479,
    "apolog": 22330,
    "glim": 19363,
    "Ġadjust": 2154,
    "uneven": 23683,
    "ays": 6683,
    "kings": 17582,
    "Ġrever": 6536,
    "az": 2181,
    "always": 5708,
    "Ġguard": 6178,
    "Ġdelicacy": 6340,
    "wed": 5003,
    "wrinkled": 16553,
    "scru": 16240,
    "ustom": 3793,
    "Ġass": 1504,
    "Ġcurving": 16229,
    "Ġwoeful": 19618,
    "bbings": 19276,
    "white": 4603,
    "Ġmask": 1865,
    "considered": 9579,
    "Ġquant": 6424,
    "Ġridge": 14816,
    "Ġinns": 17929,
    "ute": 4643,
    "Ġbarrow": 12066,
    "Ġhorner": 8956,
    "ctions": 951,
    "eling": 6681,
    "Ġuntil": 2670,
    "Ġprehensile": 26533,
    "hom": 12470,
    "onies": 6806,
    "Ġmorphology": 3010,
    "Ġrelinqu": 12979,
    "Ġabaft": 22272,
    "Ġloop": 14145,
    "rarely": 21632,
    "Ġfolly": 7941,
    "Ġcoffin": 4430,
    "ctor": 13958,
    "âĢĶ_": 3200,
    "rowed": 22861,
    "village": 25422,
    "Ġfiend": 4413,
    "removed": 15514,
    "presence": 18498,
    "Ġfitzwilliam": 5771,
    "disaster": 23491,
    "Ġfame": 21404,
    "Ġsavi": 18324,
    "Ġthrows": 14735,
    "oo": 7553,
    "ooped": 17622,
    "tical": 10127,
    "Ġexplo": 2286,
    "lemagne": 26435,
    "despair": 8344,
    "opening": 10311,
    "lin": 9602,
    "Ġarcher": 22182,
    "Ġinheritance": 25355,
    "Ġvelocity": 10619,
    "Ġstalls": 25647,
    "sacrifice": 13490,
    "Ġhereabouts": 12974,
    "Ġyarman": 12701,
    "Ġincumbent": 16059,
    "Ġlouisiana": 25076,
    "straw": 24093,
    "being": 3917,
    "Ġfailed": 6671,
    "Ġcabal": 23641,
    "sher": 5217,
    "mathemat": 19137,
    "Ġhesitating": 16946,
    "Ġmusk": 7494,
    "sust": 15420,
    "Ġoscillations": 2898,
    "Ġindulged": 13415,
    "Ġvulture": 17337,
    "summon": 23414,
    "Ġflowed": 10370,
    "Ġgown": 10200,
    "rawling": 21634,
    "arned": 21819,
    "boom": 18999,
    "Ġdoesn": 7438,
    "Ġrefused": 6715,
    "Ġtolerable": 6949,
    "Ġascertained": 25296,
    "Ġthus": 2035,
    "Ġmannish": 26237,
    "persuade": 13531,
    "Ġengrossed": 12993,
    "za": 13808,
    "Ġmasters": 11573,
    "ĠĠĠĠ": 459,
    "Ġtrains": 10946,
    "ā": 194,
    "rop": 539,
    "Ġnoticing": 18224,
    "inhab": 10756,
    "Ġcostly": 23583,
    "om": 315,
    "Ġbang": 17854,
    "Ġago": 3137,
    "tural": 21065,
    "kne": 20934,
    "Ġcruelly": 13373,
    "Ġarising": 10932,
    "behaved": 24462,
    "urn": 775,
    "Ġslow": 2381,
    "sharks": 14237,
    "Ġestimable": 23870,
    "Ġconsequence": 5541,
    "Ġclasp": 9742,
    "ô": 181,
    "Ġloungers": 24862,
    "disguise": 26306,
    "Ġreverber": 19868,
    "Ġincessant": 15095,
    "classification": 4388,
    "Ġkith": 22190,
    "Ġpond": 13914,
    "Ġmaled": 21313,
    "Ġprogrammed": 11057,
    "Ġacutely": 14312,
    "yth": 981,
    "Ġpool": 5173,
    "dancing": 12451,
    "Ġadmitted": 8985,
    "&": 10,
    "Ġagainst": 1700,
    "shirt": 22451,
    "bable": 8718,
    "Ġfoolish": 5980,
    "Ġig": 3503,
    "Ġdecoding": 3082,
    "Ġopenly": 8572,
    "Ġawe": 7147,
    "Ġfault": 5702,
    "Ġdiligently": 11404,
    "Ġbeech": 18082,
    "disposition": 10040,
    "feels": 22504,
    "Ġlaugh": 4114,
    "andish": 18153,
    "Ġswitzerland": 10378,
    "Ġ68": 24369,
    "relics": 24014,
    "Ġsurplus": 26303,
    "Ġmicroscopic": 26373,
    "Ġletting": 10360,
    "manif": 14371,
    "ignorant": 13561,
    "Ġplaymate": 23637,
    "Ġquar": 3115,
    "pray": 5429,
    "Ġunsur": 22020,
    "stories": 18023,
    "Ġreck": 6537,
    "ke": 429,
    "ishes": 6523,
    "credit": 12445,
    "yrin": 12518,
    "allow": 5104,
    "Ġfacts": 2289,
    "ado": 11656,
    "Ġdimens": 3150,
    "Ġrequ": 799,
    "abern": 21787,
    "clu": 20798,
    "Ġbodies": 8032,
    "Ġbony": 12583,
    "Ġliving": 3063,
    "similar": 13451,
    "ancy": 4394,
    "Ġcoloured": 11043,
    "shed": 8095,
    "point": 6063,
    "ozy": 17621,
    "Ġqueequeg": 2012,
    "box": 5749,
    "iards": 17573,
    "Ġunwonted": 14123,
    "liber": 18813,
    "Ġjeroboam": 10599,
    "neville": 22463,
    "ceptible": 10955,
    "Ġchristians": 13306,
    "Ġinsipid": 26313,
    "cence": 9587,
    "Ġofficio": 23813,
    "Ġquantity": 6948,
    "Ġdisturb": 7107,
    "Ġlibrary": 6423,
    "been": 3346,
    "isco": 12577,
    "Ġhat": 2773,
    "Ġcamp": 9163,
    "Ġpresum": 4837,
    "Ġprocedural": 12027,
    "Ġmarched": 18871,
    "Ġdevil": 3617,
    "qual": 8157,
    "giving": 8738,
    "Ġheel": 9682,
    "Ġcontemptuous": 24676,
    "Ġvelvets": 25393,
    "Ġaccustomed": 6862,
    "Ġboisterous": 20441,
    "Ġinvoluntary": 18772,
    "Ġisol": 8832,
    "cavity": 26126,
    "Ġharder": 14447,
    "Ġstanders": 19014,
    "Ġob": 860,
    "Ġglued": 20587,
    "outer": 9667,
    "\\": 64,
    "phant": 6287,
    "Ġsexes": 25168,
    "================": 3727,
    "Ġmyster": 5926,
    "Ġseparate": 5778,
    "Ġside": 1388,
    "irium": 8162,
    "Ġrounded": 14436,
    "west": 10738,
    "henry": 16624,
    "shaw": 6864,
    "Ġhasty": 10476,
    "lings": 8745,
    "Ġathirst": 20597,
    "Ġconflag": 20334,
    "Ġyell": 21775,
    "Ġgorge": 13564,
    "Ġbattle": 5908,
    "Ġsevered": 18203,
    "Ġaffections": 10383,
    "connection": 18868,
    "xt": 2080,
    "é": 170,
    "Ġ35": 24075,
    "sford": 5998,
    "cking": 4267,
    "Ġenchant": 7185,
    "sensible": 20050,
    "utral": 12659,
    "Ġdistant": 5387,
    "Ġoutstanding": 22314,
    "Ġtrumpet": 9572,
    "Ġsloop": 25930,
    "Ġkelson": 18350,
    "Ġanimal": 2500,
    "rocket": 13942,
    "oy": 1030,
    "arus": 13910,
    "Ġweariness": 19793,
    "Ġcheap": 13086,
    "Ġgpus": 3737,
    "Ġchar": 1706,
    "yellow": 9623,
    "recollect": 17222,
    "imprudent": 14650,
    "Ġbiological": 1932,
    "Ġapolog": 9042,
    "Ġprint": 18969,
    "Ġoceans": 7996,
    "Ġtorture": 9064,
    "Ġlogits": 3454,
    "Ġcure": 21338,
    "stricken": 9882,
    "Ġchaos": 17008,
    "displayed": 20735,
    "Ġexhausting": 24710,
    "Ġcabaco": 13165,
    "Ġimminent": 11244,
    "Ġgreenwich": 19320,
    "prot": 6898,
    "Ġsaid": 578,
    "oker": 10962,
    "bidden": 19735,
    "Ġhe": 318,
    "star": 12668,
    "ever": 1073,
    "atical": 10770,
    "Ġfrank": 4421,
    "Ġdevotedly": 24750,
    "Ġslender": 11937,
    "Ġidentical": 10433,
    "Ġgull": 15666,
    "rage": 10842,
    "Ġinherit": 25352,
    "forbearance": 22799,
    "Ġxiii": 25591,
    "Ġfur": 991,
    "must": 3582,
    "Ġarri": 2555,
    "Ġpropriety": 10008,
    "Ġlicence": 25096,
    "Ġjudged": 12080,
    "Ġimbu": 15888,
    "Ġhere": 1088,
    "Ġshrink": 14801,
    "Ġvineyards": 25106,
    "Ġflame": 7448,
    "puted": 8844,
    "some": 2238,
    "Ġmontan": 22979,
    "pet": 4867,
    "Ġspokes": 18313,
    "Ġdives": 17890,
    "narwhale": 17316,
    "fal": 17535,
    "winds": 10520,
    "ile": 521,
    "ome": 535,
    "Ġclock": 9531,
    "Ġrecurred": 18977,
    "Ġpolynesian": 26026,
    "ippers": 17575,
    "Ġetext": 23947,
    "fixedly": 24929,
    "Ġcommodores": 25374,
    "Ġsplashed": 23746,
    "belongs": 25596,
    "cery": 20807,
    "Ġintently": 8169,
    "Ġwaggish": 25434,
    "Ġseparation": 11247,
    "binder": 17498,
    "Ġtrade": 2548,
    "malice": 17603,
    "Ġembedding": 2104,
    "prob": 7069,
    "Ġwidower": 24234,
    "Ġscold": 10949,
    "Ġbedfellows": 23437,
    "ı": 242,
    "crop": 20797,
    "Ġphil": 3390,
    "Ġtrod": 15025,
    "Ġflat": 8228,
    "Ġje": 4124,
    "will": 1969,
    "Ġcutting": 4983,
    "Ġwitty": 21291,
    "oping": 5558,
    "worthy": 7733,
    "Ġbeck": 14007,
    "Ġbudge": 15162,
    "Ġincul": 22548,
    "hun": 5210,
    "looked": 6084,
    "Ġinstrument": 7118,
    "alescence": 15921,
    "Ġeffectively": 2630,
    "flitted": 23966,
    "Ġhoney": 12628,
    "unlike": 18156,
    "Ġbegat": 18863,
    "Ġscandalous": 24879,
    "Ġexclusion": 19394,
    "Ġhogarth": 25780,
    "Ġlookest": 22713,
    "Ġwisdom": 11232,
    "labour": 23912,
    "Ġblock": 2577,
    "librarian": 26567,
    "Ġsmoking": 6429,
    "Ġcries": 7154,
    "Ġcharmingly": 24220,
    "Ġimputable": 22171,
    "Ġeach": 890,
    "Ġshivering": 10264,
    "Ġyelled": 9692,
    "jah": 17580,
    "leagues": 21371,
    "/`": 12426,
    "anation": 5803,
    "Ġnar": 7375,
    "Ġcrunched": 19123,
    "Ġchace": 14177,
    "Ġhumility": 12981,
    "Ġimplicit": 19956,
    "Ġbread": 5404,
    "Ġjustified": 11901,
    "Ġprodigiously": 14930,
    "Ġflinging": 13583,
    "Ġstudied": 11113,
    "Ġcelebrate": 26357,
    "impressions": 20697,
    "adagrad": 9689,
    "Ġrecip": 16142,
    "Ġcuff": 17829,
    "grow": 10097,
    "proachable": 23394,
    "seals": 21815,
    "ellation": 12749,
    "Ġextraordinary": 5414,
    "jack": 7344,
    "heav": 5694,
    "heat": 15495,
    "Ġ103": 24410,
    "Ġsufficiently": 8972,
    "ity": 417,
    "ting": 1335,
    "Ġfanned": 19099,
    "Ġlucerne": 23862,
    "icult": 3343,
    "emph": 21924,
    "Ġembra": 6579,
    "philosophy": 13578,
    "Ġxxxix": 24970,
    "voy": 7143,
    "small": 6472,
    "[_": 5131,
    "Ġdecap": 16017,
    "Ġmizzen": 20288,
    "Ġpreserve": 7529,
    "commander": 16986,
    "eleg": 20848,
    "Ġharbors": 24901,
    "Ġsledge": 8111,
    "modesty": 22846,
    "Ġgaping": 13967,
    "Ġremembered": 5276,
    "Ġlif": 10194,
    "wreat": 21126,
    "Ġresponses": 23647,
    "voyages": 24855,
    "idge": 14012,
    "Ġclipping": 2442,
    "twelvemonth": 25862,
    "_.)": 7278,
    "Ġautom": 3366,
    "obtained": 23093,
    "arthy": 4822,
    "Ġpark": 5465,
    "Ġcaves": 15550,
    "Ġ69": 19660,
    "Ġunprepared": 22048,
    "Ġwearer": 21921,
    "Ġreach": 4049,
    "Ġgrud": 17995,
    "Ġquestions": 3975,
    "Ġtangles": 25761,
    "Ġcogent": 14272,
    "Ġadvertisement": 6941,
    "Ġcabin": 3306,
    "Ġhuddled": 20298,
    "simon": 16972,
    "watson": 12240,
    "Ġreview": 18030,
    "Ġluckily": 16797,
    "murderer": 13391,
    "resolution": 17765,
    "Ġtranslation": 3088,
    "anger": 2172,
    "arled": 21441,
    "Ġgans": 5821,
    "Ġgild": 15665,
    "surprising": 16918,
    "Ġtainted": 21169,
    "Ġaquiline": 26159,
    "elder": 21570,
    "Ġidleness": 11143,
    "Ġpostponed": 20388,
    "ĠdÃ¦mon": 7845,
    "Ġelusive": 22645,
    "Ġenlarge": 21933,
    "image": 9684,
    "Ġadoption": 24948,
    "Ġdeal": 3611,
    "Ġnon": 1621,
    "Ġunc": 2125,
    "Ġ119": 24440,
    "rooms": 10431,
    "Ġplaything": 19237,
    "Ġhomeward": 9389,
    "Ġpaltry": 16691,
    "Ġcoinc": 11001,
    "Ġsplitting": 4383,
    "mmar": 952,
    "Ġdun": 6673,
    "Ġperiodically": 19493,
    "Ġcomple": 2840,
    "Ġvent": 4001,
    "Ġtropical": 17064,
    "Ġinsult": 6747,
    "sailing": 14712,
    "Ġvices": 14081,
    "armon": 23057,
    "Ġchase": 3948,
    "Ġcolds": 23756,
    "Ġwatchful": 16524,
    "indef": 17734,
    "wife": 8101,
    "Ġlic": 8436,
    "Ġperiods": 13301,
    "Ġmogul": 12858,
    "Ġimpressive": 14998,
    "owners": 16084,
    "Ġbeauty": 3774,
    "Ġaccent": 10294,
    "Ġmagnificence": 20631,
    "Ġnatural": 1121,
    "Ġchoosing": 19589,
    "lins": 2025,
    "pushed": 21022,
    "robber": 21535,
    "Ġdisguise": 10044,
    "Ġflu": 3281,
    "question": 5418,
    "Ġgoing": 2066,
    "Ġacknowledge": 13400,
    "card": 11474,
    "Ġselecting": 16683,
    "Ġgush": 10201,
    "Ġrearing": 12673,
    "Ġlandlord": 5580,
    "Ġclatter": 22343,
    "Ġconfidential": 9086,
    "Ġdashed": 6010,
    "Ġsequence": 1976,
    "Ġmisgiv": 14341,
    "Ġaccording": 5508,
    "Ġhosmer": 6774,
    "Ġmethodic": 23194,
    "Ġhereby": 10357,
    "ondency": 15267,
    "Ġimpatiently": 8338,
    "Ġabiding": 22268,
    "8": 28,
    "Ġwad": 13849,
    "wards": 1278,
    "Ġroutine": 13506,
    "Ġaspects": 4174,
    "coal": 12021,
    "Ġfrightened": 5341,
    "buncle": 13690,
    "tern": 4224,
    "Ġterritories": 23843,
    "Ġcistern": 17379,
    "Ġrevelry": 15134,
    "lower": 8879,
    "Ġamput": 16030,
    "Ġsaluted": 14756,
    "Ġ*": 1273,
    "Ġarrayed": 25664,
    "distinguish": 19571,
    "Ġcucumber": 21354,
    "Ġsubtlety": 24780,
    "Ġsunshine": 14493,
    "view": 5896,
    "Ġhumiliation": 16196,
    "Ġattract": 11829,
    "Ġrec": 903,
    "Ġdisrespect": 18553,
    "pine": 13767,
    "Ġretarded": 23069,
    "Ġpassion": 4557,
    "Ġdevilish": 11227,
    "examined": 17265,
    "many": 5249,
    "rank": 21040,
    "Ġulster": 14996,
    "ems": 5235,
    "Ġburied": 7719,
    "stre": 5451,
    "Ġloss": 824,
    "precedented": 15172,
    "Ġyourselves": 9027,
    "Ġchisel": 20366,
    "parable": 16383,
    "crippled": 26383,
    "Ġameric": 3856,
    "Ġlace": 13948,
    "ricade": 13035,
    "R": 54,
    "soon": 4031,
    "Ġvisitor": 5330,
    "jar": 17576,
    "Ġheightened": 8648,
    "artic": 14224,
    "ter": 359,
    "itions": 4148,
    "Ġball": 3627,
    "Ġtyro": 16993,
    "Ġamusement": 8056,
    "Ġsubsiding": 23432,
    "Ġbrings": 11877,
    "Ġflapped": 23012,
    "ures": 838,
    "Ġproclaim": 18130,
    "Ġminds": 6303,
    "espe": 3502,
    "Ġshore": 4834,
    "casks": 20401,
    "augmented": 26286,
    "Ġdemanding": 16804,
    "Ġproduced": 2453,
    "Ġweakness": 9965,
    "Ġplump": 14280,
    "Ġvillainous": 25131,
    "Ġbingleys": 18995,
    "Ġdict": 9174,
    "Ġcorridor": 10670,
    "Ġbosom": 6939,
    "Ġagric": 22513,
    "ackinaw": 22419,
    "sun": 7139,
    "Ġkey": 2102,
    "phil": 7926,
    "Ġnarwhales": 24902,
    "Ġdisabled": 18561,
    "ification": 1004,
    "Ġcredit": 4818,
    "Ġfoot": 3162,
    "ique": 8742,
    "Ġoper": 2121,
    "Ġparac": 12791,
    "Ġrecently": 11860,
    "Ġsuckling": 25997,
    "Ġprosecution": 12378,
    "Ġviewed": 10462,
    "quohog": 21856,
    "Ġjob": 7015,
    "just": 1702,
    "pity": 17626,
    "Ġgrimesby": 11456,
    "destroyed": 15258,
    "Ġinduced": 8670,
    "Ġdecomposes": 5506,
    "bub": 15314,
    "generosity": 23785,
    "Ġarr": 1799,
    "mantel": 26393,
    "Ġdepended": 9775,
    "Ġagreeing": 20017,
    "Ġrebell": 21667,
    "leap": 21365,
    "Ġadmirably": 16479,
    "_)âĢĶ": 20143,
    "merc": 19280,
    "elements": 25203,
    "10": 17471,
    "concl": 12865,
    "putation": 7624,
    "abond": 15737,
    "ribute": 7227,
    "glow": 20873,
    "Ġdupl": 9952,
    "nameless": 19902,
    "Ġstake": 14001,
    "serpent": 16289,
    "shutters": 20310,
    "lipped": 16214,
    "Ġpend": 15602,
    "delirium": 14782,
    "unhappy": 10236,
    ";âĢĿ": 7791,
    "Ġweighted": 2089,
    "4": 24,
    "Ġprophes": 16345,
    "|": 96,
    "Ġvulgar": 13602,
    "boast": 23251,
    "Ġrisks": 9962,
    "Ġcapst": 8595,
    "ante": 11718,
    "imper": 13995,
    "astern": 8580,
    "Ġprocess": 566,
    "Ġarmitage": 23580,
    "Ġweight": 656,
    "Ġdazed": 15592,
    "Ġresearch": 3206,
    "Ġthanks": 6707,
    "Ġsleeper": 8600,
    "Ġworkmen": 23046,
    "Ġchildren": 3772,
    "agne": 21903,
    "unching": 18158,
    "E": 41,
    "Ġwarm": 2428,
    "Ġcurrents": 13006,
    "Ġmichigan": 26425,
    "maid": 8553,
    "Ġglim": 9342,
    "sent": 760,
    "======": 9831,
    "acies": 14275,
    "Ġimaginary": 11185,
    "Ġlingered": 13503,
    "satisfy": 16891,
    "Ġtranquillity": 7536,
    "Ġsublime": 8066,
    "companion": 9556,
    "Ġrue": 11864,
    "Ġ46": 19489,
    "Ġclutch": 15052,
    "bar": 7541,
    "leeward": 15208,
    "Ġresolution": 5500,
    "bethinking": 25745,
    "Ġfaire": 13362,
    "divided": 25018,
    "Ġsupplication": 25491,
    "thoughts": 9933,
    "Ġinject": 2713,
    "Ġchewing": 23281,
    "Ġundertaking": 8573,
    "esy": 9184,
    "Ġlog": 1676,
    "Ġpercept": 14221,
    "top": 4486,
    "Ġerskine": 17430,
    "Ġsoliloquized": 17300,
    "Ġmo": 629,
    "Ġwire": 13850,
    "Ġpractical": 3164,
    "Ġnetworks": 597,
    "prison": 14661,
    "Ġsecond": 1889,
    "killed": 15374,
    "obst": 11929,
    "bearings": 25371,
    "Ġguitar": 16267,
    "ellent": 3767,
    "Ġconsciousness": 9946,
    "arrived": 12605,
    "Ġtempted": 9055,
    "Ġconcisely": 19046,
    "ă": 196,
    "Ġunderstand": 840,
    "ucket": 2484,
    "gging": 7697,
    "Ġjust": 1243,
    "Ġhumiliating": 22880,
    "spent": 12938,
    "Ġadmirable": 8269,
    "cig": 17502,
    "Ġcoll": 8222,
    "hoisting": 23715,
    "Ġbachelors": 24860,
    "verize": 21726,
    "laden": 14927,
    "toss": 22565,
    "ices": 2137,
    "Ġrevolve": 19728,
    "Ġalleviated": 26203,
    "lucky": 24544,
    "Ġexactness": 23603,
    "Ġrefres": 14342,
    "Ġergo": 25029,
    "Ġinstruments": 12220,
    "ette": 15655,
    "Ġindifferent": 6174,
    "Ġdow": 17886,
    "ict": 591,
    "Ġswayed": 15046,
    "Ġpartners": 11850,
    "understand": 1110,
    "bow": 5424,
    "Ġoccasion": 3250,
    "ded": 2424,
    "Ġquit": 5245,
    "Ġfacilitate": 26098,
    "repressed": 21242,
    "26": 10071,
    "Ġfrequ": 3330,
    "Ġinno": 1413,
    "okes": 9275,
    "ram": 13970,
    "Ġfrance": 7682,
    "Ġhappiness": 2947,
    "forehead": 8515,
    "Ġphiladelphia": 26603,
    "sme": 17657,
    "Ġexplored": 23515,
    "ression": 3409,
    "Ġfilling": 13406,
    "Ġincomplete": 17207,
    "umes": 10916,
    "ienced": 5685,
    "Ġcomprise": 18585,
    "Ġintent": 6409,
    "Ġphantoms": 13484,
    "abriel": 6950,
    "Ġpanted": 21470,
    "gh": 3804,
    "Ġnervously": 19183,
    "consist": 14813,
    "Ġacquisition": 18899,
    "vius": 23540,
    "Ġfind": 1457,
    "Ġembodied": 25847,
    "sor": 7352,
    "tomorrow": 25914,
    "way": 763,
    "Ġawkwardness": 13485,
    "Ġwarped": 25035,
    "Ġoriental": 9095,
    ",âĢĶâĢĺ": 23801,
    "Ġgrate": 12960,
    "Ġcream": 22718,
    "Ġcomplacency": 19446,
    "aneously": 4062,
    "crawling": 16957,
    "belated": 24036,
    "Ġdivers": 9664,
    "Ġislands": 6766,
    "breath": 15160,
    "Ġ107": 24414,
    "Ġhapless": 15809,
    "Ġroasted": 18458,
    "Ġacquaint": 13041,
    "Ġcollected": 2613,
    "Ġincarnation": 25573,
    "anite": 17837,
    "!_âĢĿ": 11375,
    "scence": 14417,
    "Ġsimil": 2531,
    "Ġut": 2280,
    "jacket": 12289,
    "Ġsimultaneously": 4312,
    "mouthed": 12397,
    "Ġperse": 6272,
    "cable": 20796,
    "Ġpatched": 16377,
    "Ġprince": 18971,
    "irth": 5634,
    "contrivance": 26316,
    "Ġgroaned": 11265,
    "Ġstup": 14003,
    "amaz": 21842,
    "Ġvessels": 6755,
    "Ġchall": 10943,
    "Ġcontrol": 13077,
    "ception": 6562,
    "Ġgoverning": 2796,
    "Ġclothed": 19605,
    "usages": 22288,
    "chronicle": 26479,
    "accompl": 9878,
    "\"],": 26120,
    "Ġpronounce": 16967,
    "Ġgasps": 24865,
    "Ġincom": 9767,
    "true": 2589,
    "Ġdusk": 12324,
    "Ġmaids": 19690,
    "Ġpanting": 11600,
    "Ġsplinters": 15100,
    "Ġplentiful": 12907,
    "Ġpassive": 22838,
    "Ġaright": 11737,
    "Ġobeyed": 12213,
    "Ġcoopman": 25827,
    "enty": 2917,
    "uments": 5551,
    "net": 1196,
    "Ġveteran": 17448,
    "Ġguardians": 14941,
    "Ġlanguages": 1568,
    "Ġvariety": 8530,
    "Ġdistinctions": 18533,
    "strade": 5065,
    "paddington": 20476,
    "Ġunwilling": 7887,
    "Ġcomprehended": 11293,
    "Ġamerica": 6763,
    "direct": 12453,
    "Ġsurpasses": 25268,
    "hee": 10759,
    "Ġpatted": 16376,
    "Ġagony": 5388,
    "datasets": 11953,
    "Ġrephr": 21677,
    "Ġsafie": 6617,
    "Ġproficiency": 19191,
    "Ġpunchbowl": 20230,
    "Ġmatlock": 18803,
    "had": 1949,
    "Ġdearest": 5457,
    "proud": 9902,
    "Ġwelcomed": 9480,
    "lac": 17588,
    "ĠcÃ¦sar": 20578,
    "Ġarrange": 3122,
    "Ġfavourites": 16643,
    "Ġconquered": 14024,
    "Ġadaptation": 3156,
    "individual": 18436,
    "akers": 9738,
    "ggy": 13111,
    "ther": 483,
    "Ġlysander": 13137,
    "sufferable": 12173,
    "Ġdiggings": 24649,
    "slightest": 25416,
    "Ġtend": 6120,
    "Ġindulging": 16903,
    "Ġnightmare": 18919,
    "Ġwine": 6810,
    "Ġanne": 1527,
    "Ġsomebody": 7913,
    "Ġyard": 5921,
    "Ġcatches": 23425,
    "Ġorph": 9715,
    "Ġnewspaper": 12361,
    "among": 6256,
    "Ġparameters": 993,
    "Ġroses": 11783,
    "akes": 2222,
    "Ġnewcomers": 26041,
    "Ġrigid": 16715,
    "manners": 16182,
    "Ġangelic": 19626,
    "Ġbrown": 6298,
    "Ġidea": 2487,
    "Ġpleasanter": 19065,
    "natured": 7110,
    "Ġoccasional": 7289,
    "balanced": 14554,
    "it": 276,
    "Ġunass": 14112,
    "barrow": 15319,
    "Ġgrop": 12660,
    "meeting": 11017,
    "ij": 7802,
    "Ġport": 3312,
    "Ġgayer": 24497,
    "Ġindec": 13926,
    "foundered": 20866,
    "Ġindication": 22950,
    "forgotten": 12413,
    "delirious": 19504,
    "fears": 18534,
    "Ġhavoc": 15810,
    "Ġcos": 2211,
    "Ġhailing": 11690,
    "Ġpout": 17904,
    "inridge": 11559,
    "Ġinhuman": 13927,
    "abling": 1076,
    "Ġdart": 4586,
    "Ġrecollections": 10511,
    "morning": 4859,
    "connected": 1310,
    "Ġunless": 4092,
    "94": 4803,
    "Ġchances": 9261,
    "croquet": 25747,
    "july": 20473,
    "Ġdetained": 18377,
    "uv": 6229,
    "Ġincreased": 2214,
    "Ġtranced": 18427,
    "reserved": 13841,
    "lesome": 12961,
    "Ġant": 4346,
    "Ġintru": 15824,
    "Ġtriangular": 14857,
    "Ġcollection": 8223,
    "enc": 7574,
    "izzy": 3096,
    "caps": 20806,
    "Ġcopy": 10162,
    "Ġeffeminacy": 20717,
    "Ġthereupon": 18433,
    "Ġindepend": 3671,
    "Ġruggedness": 26268,
    "Ġburke": 19250,
    "transom": 19733,
    "settle": 16660,
    "Ġsword": 6732,
    "Ġhowl": 12851,
    "Ġcargo": 16287,
    "Ġfree": 3379,
    "ceived": 1965,
    "passing": 14809,
    "Ġlegible": 23530,
    "Ġtissu": 25920,
    "pursuit": 20339,
    "Ġniece": 5712,
    "know": 2318,
    "Ġdew": 14043,
    "arken": 18667,
    "Ġlizard": 12650,
    "Ġacquaintances": 17348,
    "Ġmake": 1287,
    "Ġproportional": 2525,
    "Í": 142,
    "Ġhoisted": 5960,
    "Ġtest": 1664,
    "recollection": 25348,
    "Ġexerting": 21830,
    "Ġmerid": 13193,
    "Ġtide": 6658,
    "Ġsucceeding": 16760,
    "Ġemployed": 5200,
    "Ġagents": 9764,
    "vices": 21115,
    "Ġtenderest": 23548,
    "Ġcommunicative": 24547,
    "hunters": 16832,
    "Ġdundee": 16996,
    "Ġventing": 19492,
    "devilish": 17081,
    "Ġrags": 18647,
    "Ġceiling": 7997,
    "Ġbag": 5699,
    "ĠĠĠĠĠĠĠĠĠĠĠĠĠĠĠĠĠĠĠĠĠĠĠĠĠĠĠĠĠĠ": 24442,
    "Ġanswered": 2851,
    "Ġsupercil": 23453,
    "Ġunconquerable": 22061,
    "solute": 16597,
    "desired": 8955,
    "Ġcenturies": 8622,
    "inguish": 9395,
    "Ġglu": 15664,
    "Ġemploy": 3619,
    "Ġgrounded": 23710,
    "Ġlangu": 575,
    "Ĺ": 250,
    "Ġcrowned": 16840,
    "Ġthese": 821,
    "ells": 5303,
    "Ġinsinuating": 19271,
    "Ġinsignificance": 20456,
    "ission": 6457,
    "etymology": 14699,
    "Ġquarters": 8619,
    "Ġacross": 1331,
    "Ġpredict": 670,
    "oundered": 14163,
    "introduced": 15122,
    "Ġnegative": 1464,
    "andy": 8158,
    "Ġpermitted": 9276,
    "stood": 4117,
    "ening": 3107,
    "tell": 1380,
    "uten": 11620,
    "Ġcouch": 12567,
    "Ġdescends": 14289,
    "Ġruddy": 17124,
    "otion": 4946,
    "umbrance": 22116,
    "Ġsatisfactory": 11191,
    "Ġdismast": 12884,
    "Ġaim": 10144,
    "lob": 22505,
    "soc": 5175,
    "tanh": 5204,
    "anywhere": 14681,
    "Ġassailants": 20447,
    "Ġconcealing": 23900,
    "Ġnamed": 6139,
    "Ġsulk": 15044,
    "Ġaugmented": 15103,
    "case": 5206,
    "Ġstorm": 4302,
    "Ġupdating": 2692,
    "/`)": 13658,
    "ezes": 9989,
    "Ġfries": 21414,
    "Ġconcert": 11964,
    "Ġvines": 12745,
    "Ġscheming": 23269,
    "broken": 8021,
    "contrast": 25594,
    "Ġnathan": 21524,
    "Ġheav": 1851,
    "Ġstoried": 18072,
    "Ġbrush": 17864,
    "drop": 15335,
    "ifted": 4495,
    "Ġsemblance": 20733,
    "Ġconceived": 8150,
    "Ġpattered": 19036,
    "nin": 17607,
    "Ġcommit": 18655,
    "fingers": 17368,
    "ompl": 4536,
    "Ġsnowy": 9016,
    "omist": 21636,
    "Ġrely": 8819,
    "hereabouts": 23605,
    "rich": 11516,
    "Ġaudio": 24772,
    "bohem": 19002,
    "Ġblankets": 24612,
    "Ġgradual": 20600,
    "Ġlooked": 1803,
    "Ġlabrador": 23328,
    "Ġcarted": 21347,
    "fixed": 7548,
    "pause": 12497,
    "Ġworked": 6583,
    "holding": 7739,
    "mond": 20972,
    "icherry": 15133,
    "Ġcarpenter": 4685,
    "suspended": 15175,
    "Ġmor": 1250,
    "Ġblade": 11890,
    "acey": 7649,
    "omnipotent": 25964,
    "Ġfriesland": 26441,
    "Ġende": 21930,
    "Ġtropics": 17065,
    "Ġstreamed": 14545,
    "prince": 23812,
    "amy": 8467,
    "Ġcompliance": 12111,
    "Ġjonas": 20608,
    "gings": 7549,
    "resemblance": 25933,
    "Ġstra": 2991,
    "F": 42,
    "Ġaglow": 22512,
    "indian": 11775,
    "ittarius": 22375,
    "Ġunhallowed": 17179,
    "mile": 17596,
    "Ġdrop": 4345,
    "Ġproceed": 3246,
    "Ġsocial": 7007,
    "Ġtand": 21159,
    "entirely": 7782,
    "Ġancestry": 25641,
    "sery": 17660,
    "sac": 7140,
    "departure": 15232,
    "Ã¦mon": 7094,
    "Ġinterlacing": 22575,
    "Ġbrack": 23833,
    "riend": 1187,
    "Ġcotton": 17377,
    "Ġapp": 499,
    "Ġdaughters": 4423,
    "mb": 910,
    "Ġcontain": 1552,
    "Ġhooked": 19079,
    "osen": 6855,
    "shazzar": 15287,
    "Ġ70": 11275,
    "yond": 2329,
    "Ġf": 283,
    "rious": 11686,
    "lashed": 20953,
    "aws": 8237,
    "Ġmathematical": 3352,
    "agings": 18165,
    "ht": 375,
    "professional": 20274,
    "Ġreveries": 11346,
    "Ġmeetings": 16530,
    "sec": 6152,
    "Ġmantel": 11438,
    "Ġrum": 5924,
    "shipping": 10306,
    "Ġlashings": 25097,
    "Ġdangerously": 23934,
    "imagine": 19930,
    "Ġcases": 3964,
    "cracy": 24690,
    "Ġblushed": 12998,
    "Ġcorpore": 13399,
    "university": 25983,
    "Ġmanners": 3794,
    "Ġsubmerged": 11869,
    "Ġadmin": 23552,
    "Ġdignified": 15594,
    "Ġplanning": 14749,
    "pretending": 17040,
    "Ġbrist": 14376,
    "Ġpistols": 17327,
    "airing": 16174,
    "Ġvultures": 25653,
    "inates": 21179,
    "Ġconfid": 7687,
    "rudent": 6482,
    "covenant": 23561,
    "vicious": 21117,
    "Ġattitude": 8901,
    "ignomin": 23265,
    "coast": 10448,
    "Ġbigger": 19760,
    "Ġbiggest": 24565,
    "Ġheadlands": 22897,
    "presently": 9807,
    "vels": 5432,
    "Ġloathed": 15872,
    "Ġspoil": 17006,
    "Ġsuccour": 20433,
    "Ġwatchman": 23664,
    "Ġspared": 7894,
    "epend": 3317,
    "Ġsun": 1721,
    "Ġadoration": 18290,
    "Ġeaglet": 19304,
    "Ġtall": 4041,
    "Ġfearful": 6197,
    "arranging": 19317,
    "ignant": 11128,
    "bolt": 25135,
    "size": 15423,
    "Ġhairs": 13228,
    "Ġhare": 5157,
    "Ġwidth": 16771,
    "aurus": 20559,
    "Ġblinds": 8007,
    "illings": 14141,
    "inkles": 7426,
    "ieving": 7031,
    "latitudes": 17195,
    "quadrille": 20593,
    "Ġdined": 9175,
    "plicable": 10255,
    "Ġdecomposition": 5342,
    "Ġchancery": 20715,
    "Ġshilling": 18228,
    "Ġancest": 12610,
    "frozen": 25139,
    "Ġdey": 11673,
    "lights": 13203,
    "Ġwheeled": 14137,
    "Ġarm": 2492,
    "Ġchurches": 12824,
    "gold": 9119,
    "ll": 1141,
    "Ġappals": 22218,
    "reported": 24492,
    "Ġdisenc": 22524,
    "wouldn": 23534,
    "whiskers": 12308,
    "Ġtaken": 2528,
    "Ġaccomplishment": 19664,
    "st": 316,
    "Ġmistress": 8611,
    "Ġslacked": 25188,
    "ber": 883,
    "Ġcreeping": 18683,
    "ington": 21300,
    "digger": 24309,
    "inations": 7567,
    "playing": 19656,
    "Ġfrom": 434,
    "peace": 13045,
    "Ġsultry": 20287,
    "recurrent": 4994,
    "Ġnupt": 13941,
    "Ġanimating": 23422,
    "Ġprosperity": 20256,
    "ots": 3298,
    "orphans": 26439,
    "Ġsummits": 14682,
    "Ġxxiv": 24476,
    "detective": 24382,
    "Ġhence": 4989,
    "Ġexhibiting": 19837,
    "Ġmaintaining": 1508,
    "Ġgun": 4702,
    "Ġgrosvenor": 17416,
    "Ġappalling": 8499,
    "ww": 10736,
    "ois": 9133,
    "zz": 4294,
    "Ī": 235,
    "Ġcakes": 13882,
    "Ġaug": 6234,
    "Ġmedit": 8019,
    "Ġultimate": 12346,
    "abouts": 9450,
    "Ġhemp": 9214,
    "Ġunmolested": 15243,
    "Ġdischarged": 15218,
    "Ġpar": 456,
    "Ġark": 10274,
    "Ġcordage": 19677,
    "leaped": 17843,
    "Ġcups": 16881,
    "carrying": 16712,
    "Ġfloat": 12029,
    "arse": 7160,
    "Ġshooting": 11161,
    "jur": 17577,
    "Ġunknown": 4454,
    "Ġyet": 1027,
    "Ġagencies": 18541,
    "Ě": 219,
    "cures": 20804,
    "ouse": 1193,
    "Ġbrooded": 23101,
    "oam": 8751,
    "Ġlistless": 16474,
    "Ġignoble": 19397,
    "itory": 12563,
    "pay": 10717,
    "iries": 18167,
    "rot": 21530,
    "Ġglide": 22984,
    "Ġprovision": 14822,
    "school": 10053,
    "Ġtry": 3135,
    "striking": 13438,
    "amplified": 26493,
    "Ġtreasure": 9557,
    "Ġmerits": 13194,
    "weed": 14313,
    "Ġbridge": 8349,
    "Ġcordon": 24393,
    "Ġbranches": 6776,
    "Ġwarmest": 16482,
    "Ġhumaneval": 25582,
    "Ġconductor": 24006,
    "keeping": 8634,
    "Ġdesire": 3721,
    "Ġ[_": 15459,
    "erting": 17776,
    "game": 11489,
    "cabinet": 25077,
    "umps": 6317,
    "Ġterti": 14536,
    "tolerably": 21094,
    "Ġsnar": 13198,
    "Ġunsuccessful": 18257,
    "doom": 23373,
    "ounders": 22392,
    "affair": 14654,
    "Ġberyls": 25775,
    "Ġcomplain": 6685,
    "Ġcanaan": 22167,
    "Ġreaped": 18029,
    "writing": 7721,
    "Ġmiles": 3807,
    "Ġdeaths": 14535,
    "Ġadmeasurements": 26225,
    "Ġflail": 23008,
    "Ġcemet": 20679,
    "vess": 7354,
    "deliver": 19503,
    "oregressive": 3428,
    "Ġshame": 6410,
    "Ġcul": 17822,
    "Ġsped": 22123,
    "Ġcachalot": 17834,
    "Ġblindly": 12106,
    "Ġdifficulty": 5770,
    "Ġincant": 18570,
    "Ġdines": 21422,
    "Ġcosmopolitan": 20640,
    "Ġingen": 9048,
    "Ġpredictions": 1455,
    "be": 668,
    "Ġdivide": 12107,
    "utter": 7593,
    "flour": 23963,
    "Ġver": 3398,
    "windibank": 24159,
    "Ġleaps": 14006,
    "answers": 22138,
    "Ġaccumul": 1411,
    "Ġguards": 16266,
    "Ġcasting": 12097,
    "Ġbetake": 22905,
    "Ġeither": 2606,
    "Ġguise": 14430,
    "Ġevents": 4473,
    "Ġdepart": 4657,
    "Ġexpl": 487,
    "erable": 1916,
    "Ġextravag": 11253,
    "Ġhosts": 19937,
    "Ġminutest": 14558,
    "Ġ24": 13191,
    "Ġped": 6817,
    "Ġinstincts": 16985,
    "Ġmoderate": 10937,
    "Ġsupremacy": 20259,
    "Ġassaulted": 25320,
    "Ġquarrels": 16565,
    "ezing": 10572,
    "Ġirretrie": 23370,
    "most": 1257,
    "explaining": 23137,
    "Ġbred": 9168,
    "Ġpresently": 5116,
    "Ġinconsistency": 26182,
    "Ġelements": 2669,
    "Ġwhiting": 10858,
    "Ġambiguous": 20163,
    "Ġfooting": 14480,
    "Ġforbidding": 17078,
    "coward": 13698,
    "Ġ54": 24321,
    "Ġevenings": 18754,
    "rut": 8092,
    "Ġaffairs": 6877,
    "Ġranges": 2883,
    "Ġmeanings": 18607,
    "dest": 4104,
    "wretchedness": 17251,
    "imately": 12684,
    "Ġcynicism": 25771,
    "Ġtarn": 21157,
    "Ġdoorway": 14496,
    "...": 24548,
    "Ġhats": 14618,
    "Ġclin": 14199,
    "Ġyaw": 18094,
    "ĠĠĠĠĠĠĠĠĠĠ": 18579,
    "uries": 6147,
    "Ġplans": 7919,
    "assure": 9267,
    "eastern": 17532,
    "cripp": 20818,
    "Ġstatements": 7516,
    "Ġcloudy": 19475,
    "Ġsamples": 2963,
    "Ġhint": 5016,
    "Ł": 258,
    "Ġpreliminary": 10055,
    "Ġirrevoc": 15037,
    "oward": 6021,
    "hr": 20887,
    "cost": 19185,
    "Ġconfusing": 23306,
    "Ġarmy": 11738,
    "maltese": 24795,
    "Ġdespond": 14666,
    "Ġstudent": 14476,
    "bring": 9103,
    "Ġfrancisco": 26064,
    "Ġcheerily": 13305,
    "Ġstatue": 23145,
    "Ġshine": 12762,
    "Ġmultiplied": 23688,
    "Ġstall": 12692,
    "erval": 4023,
    "Ġremembrance": 8318,
    "former": 11745,
    "avast": 8888,
    "Ġgalvan": 21615,
    "Ġweb": 9238,
    "Ġpict": 3501,
    "Ġextend": 18698,
    "Ġconn": 9228,
    "Ġming": 9644,
    "impatiently": 20469,
    "loath": 22507,
    "anthrop": 17380,
    "jerked": 25618,
    "Ġhinge": 25541,
    "Ġpoultry": 17439,
    "waiting": 12217,
    "Ġvict": 3766,
    "Ġlim": 2382,
    "Ġdistinguishing": 16494,
    "Ġomniscient": 20084,
    "Ġhandsomely": 25497,
    "yramid": 8368,
    "Ġblight": 18817,
    "barbs": 20236,
    "Ġneedles": 11183,
    "Ġhandsom": 11123,
    "Ġser": 1672,
    "zing": 7821,
    "Ġsabbee": 17254,
    "inaw": 21182,
    "Ġtrick": 7020,
    "Ġhush": 13209,
    "Ġwriters": 13541,
    "stupid": 12672,
    "Ġuntoward": 19164,
    "Ġcirc": 1985,
    "Ġclutched": 13517,
    "Ġblackness": 9390,
    "Ġprevious": 2088,
    "onday": 6064,
    "Ġgazed": 6478,
    "Ġinquis": 19303,
    "Ġsteadfastly": 10650,
    "ancies": 11582,
    "Ġplight": 14279,
    "Ġforth": 3466,
    "Ġsoon": 1229,
    "Ġdemoniacal": 20555,
    "Ġtra": 1385,
    "Ġoar": 6236,
    "Ġtrunk": 7205,
    "Ġpist": 12611,
    "itty": 3559,
    "thesize": 24906,
    "Ġ88": 19710,
    "Ġattain": 12743,
    "Ġspoilt": 24807,
    "according": 12024,
    "Ġperforms": 11874,
    "delight": 5344,
    "leagued": 26434,
    "Ġcustoms": 19651,
    "agatha": 21906,
    "Ġwind": 1434,
    "Ġclosed": 4605,
    "illustration": 2284,
    "muttered": 13757,
    "Ġeternities": 19941,
    "Ġdolphins": 20394,
    "Ġlandsmen": 11350,
    "supervised": 1931,
    "vital": 17699,
    "Ġentit": 22736,
    "Ġstrikes": 13181,
    "Ġshortly": 6196,
    "ause": 1314,
    "Ġbitten": 21388,
    "Ġinnocence": 6477,
    "Ġmunro": 25630,
    "fever": 22503,
    "Ġfaith": 5350,
    "Ġingenuity": 17162,
    "itz": 6006,
    "Ġsevent": 18200,
    "Ġcalls": 6744,
    "Ġswallow": 8949,
    "Ġmoved": 4839,
    "Ġmexic": 14029,
    "anting": 6412,
    "atum": 21258,
    "retched": 3068,
    "Ġhandling": 8911,
    "icilian": 20690,
    "yset": 21144,
    "Ġother": 759,
    "Ġspouted": 14673,
    "Ġjavelin": 26104,
    "Ġanything": 2185,
    "included": 19206,
    "specim": 23941,
    "Ġfood": 5080,
    "Ġtroublesome": 24000,
    "Ġoutline": 15951,
    "request": 21240,
    "Ġground": 2846,
    "Ġkeeled": 18808,
    "Ġcorrupt": 11920,
    "pitch": 13296,
    "Ġactions": 6278,
    "Ġsurrey": 14557,
    "reject": 21235,
    "Ġmah": 15537,
    "befall": 22492,
    "Ġdrunk": 9422,
    "Ġinhabitant": 19754,
    "imprudence": 16556,
    "Ġbandaged": 16841,
    "Ġlongbourn": 3511,
    "Ġcable": 11578,
    "Ġfrederick": 15583,
    "Ġsky": 3972,
    "Ġequatorial": 13507,
    "Ġbehaviors": 13252,
    "Ġdefilements": 26284,
    "rmsprop": 4522,
    "Ġwarbling": 26168,
    "Ġsoar": 18282,
    "chester": 23805,
    "Ġstrangest": 14793,
    "honest": 17002,
    "Ġline": 1850,
    "Ġtrump": 8196,
    "Ġimpassable": 20611,
    "prejudice": 25571,
    "Ġassumptions": 5517,
    "ivot": 11715,
    "Ġlocket": 22111,
    "uttle": 6247,
    "blind": 16704,
    "secre": 18126,
    "Ġrepressed": 21666,
    "prevented": 20372,
    "ean": 20839,
    "Ġinnermost": 12157,
    "Ġgreedily": 18964,
    "Ġserpentine": 11359,
    "Ġadro": 15864,
    "oices": 7348,
    "Ġskeleton": 5514,
    "awed": 10389,
    "Ġvaulted": 25167,
    "Ġunaccount": 22025,
    "Ġaerial": 21197,
    "ock": 15400,
    "ignor": 8960,
    "Ġmusket": 12293,
    "||": 4869,
    "Ġbrowne": 13299,
    "Ġslavish": 23169,
    "slackened": 26094,
    "Ġdom": 2745,
    "atisf": 21262,
    "Ġwharf": 9558,
    "Ġdissipate": 13631,
    "Ġamused": 11796,
    "`": 68,
    "Ġproving": 15748,
    "Ġmiraculous": 13545,
    "transferred": 24510,
    "dwelling": 20563,
    "Ġcertain": 1557,
    "Ġresemble": 15689,
    "Ġessential": 7523,
    "Ġadvancement": 24474,
    "Ġparamore": 22120,
    "Ġmind": 1617,
    "accidents": 19210,
    "degree": 12797,
    "shaven": 18491,
    "Ġpunctil": 20112,
    "Ġmedic": 11246,
    "rote": 4593,
    "Ġunite": 9252,
    "Ġgratitude": 5598,
    "Ġcrawling": 17044,
    "Ġvillagers": 19472,
    "triumph": 15438,
    "Ġcruel": 5121,
    "Ġlimb": 9400,
    "carpet": 25202,
    "Ġdreaminess": 23937,
    "ork": 415,
    "dler": 13704,
    "Ġdivinest": 25722,
    "paid": 15412,
    "Ġdispelling": 23878,
    "Ġalexander": 17422,
    "Ġbeard": 11653,
    "Ġdivulged": 16647,
    "ear": 8730,
    "Ġjutting": 22299,
    "Ġextremely": 2671,
    "bular": 15311,
    "Ġfullest": 14811,
    "Ġrepine": 16407,
    "Ġreached": 4026,
    "Ġtant": 12521,
    "sticks": 25965,
    "Ġribbons": 24328,
    "Ġportly": 14677,
    "Ġvoluntary": 14796,
    "Ġpleasure": 2696,
    "Ġseating": 18199,
    "Ġilluminated": 20174,
    "Ġimitated": 18329,
    "Ġchaldee": 26234,
    "lounged": 26133,
    "Ġchild": 2262,
    "icant": 21560,
    "Ġvitality": 15170,
    "Ġjur": 12830,
    "Ġpersist": 16273,
    "Ġwould": 651,
    "arabian": 26445,
    "quimaux": 21857,
    "Ġheaps": 11640,
    "sculptured": 26046,
    "linging": 16075,
    "vand": 21107,
    "û": 188,
    "Ġwhaleboats": 18478,
    "Ġsmoke": 4715,
    "Ġcommenced": 8531,
    "âĢĿâĢĶ": 5721,
    "Ġorganization": 7984,
    "influence": 13576,
    "Î": 143,
    "gir": 8083,
    "eyeing": 14944,
    "ĠâĢĶ_": 3462,
    "contact": 23726,
    "Ġhints": 8430,
    "Ġcommonest": 23087,
    "braid": 17493,
    "Ġrelent": 18774,
    "´": 117,
    "interchange": 23737,
    "agitation": 14066,
    "heavy": 10573,
    "relatively": 24013,
    "Ġpost": 4274,
    "Ġconceit": 7295,
    "Ġprotecting": 24686,
    "Ġlandau": 16416,
    "Ġtasselled": 25921,
    "Ġsympat": 13338,
    "Ġstash": 18067,
    "Ġmedium": 16680,
    "emotion": 21926,
    "rayed": 23562,
    "Ġconsecrate": 26488,
    "Ġfrequencies": 4789,
    "Ġdeprec": 15754,
    "Ġalabama": 14017,
    "Ġinterpreter": 23211,
    "ar": 285,
    "Ġany": 688,
    "Ġvilla": 14745,
    "Ġyouthful": 16722,
    "Ġencirc": 18731,
    "Ġserpent": 6737,
    "Ġrelieve": 8224,
    "considerable": 10547,
    "cat": 15322,
    "Ġwaist": 6899,
    "Ġlights": 8959,
    "Ġleech": 24153,
    "Ġproced": 2581,
    "Ġclearness": 23179,
    "54": 15297,
    "Ġflowery": 16232,
    "Ġconcernment": 23621,
    "Ġforbearing": 25098,
    "Ġinconveniences": 24939,
    "Ġbewit": 15724,
    "Ġflowers": 8939,
    "puzzling": 26143,
    "Ġeludes": 26553,
    "Ġinterpret": 5490,
    "Ġmic": 17797,
    "Ġsalted": 14754,
    "ksome": 10103,
    "Ġhard": 1443,
    "Ġdiver": 2530,
    "Ġradiant": 16808,
    "thoughtfully": 24043,
    "Ġdames": 23472,
    "despicable": 24637,
    "Ġcultured": 25154,
    "Ġstature": 10862,
    "discovery": 12013,
    "Ġunho": 18245,
    "ous": 477,
    "Ġremembering": 14610,
    "Ġlanes": 19764,
    "Ġparad": 2842,
    "Ġlightly": 13081,
    "Ġhissed": 15785,
    "gallantry": 15059,
    "Ġexceptional": 19369,
    "Ġunobserved": 18249,
    "fatig": 17088,
    "Ġsnoo": 21227,
    "Ġholmes": 1309,
    "Ġ132": 19895,
    "gon": 17551,
    "earn": 10695,
    "Ġborrow": 10169,
    "Ġpreparation": 13527,
    "Ġsleepless": 14581,
    "Ġgordon": 26466,
    "Ġexplanation": 6692,
    "ounder": 11741,
    "mud": 20970,
    "Ġcity": 4530,
    "too": 4508,
    "reflect": 19864,
    "ogn": 2569,
    "Ġfingers": 5672,
    "Ġleaving": 3907,
    "etween": 773,
    "Ġheeded": 13401,
    "gathered": 13730,
    "Ġbern": 17858,
    "wrong": 13204,
    "interference": 23736,
    "plexion": 14260,
    "hand": 2758,
    "Ġnods": 19062,
    "Ġspeaker": 19148,
    "Ġgrampus": 21991,
    "Ġfool": 4236,
    "Ġsprout": 24086,
    "Ġincludes": 2011,
    "remarks": 23184,
    "Ġdevouring": 11858,
    "ruined": 18337,
    "Ġbrisk": 9801,
    "meal": 22708,
    "Ġmaggie": 26291,
    "Ġmeeting": 5193,
    "Ġimprinted": 22384,
    "Ġafford": 4366,
    "evade": 24820,
    "Ġcomfortably": 16614,
    "smoke": 17221,
    "Ġespecially": 3939,
    "Ġbedroom": 7277,
    "Ġhap": 18195,
    "Ġarose": 7360,
    "Ġfishe": 15582,
    "Ġtravels": 11924,
    "indeed": 4488,
    "Ġneurons": 976,
    "Ġbec": 1351,
    "du": 604,
    "Ġwanted": 4968,
    "sw": 4741,
    "consequence": 9761,
    "Ġdreaming": 11222,
    "asked": 8910,
    "learned": 8599,
    "Ġslit": 13053,
    "Ġpractice": 2623,
    "Ġdumbly": 24987,
    "oot": 13763,
    "Ġburton": 23651,
    "iform": 2204,
    "oda": 15745,
    "Ġhussey": 7725,
    "Ġdefend": 9338,
    "Ġundone": 24116,
    "cap": 8373,
    "Ġpillows": 24988,
    "Ġol": 17814,
    "Ġalms": 21778,
    "sleeve": 26108,
    "rippling": 24713,
    "Ġmodes": 22214,
    "Ġdownright": 16115,
    "illum": 15866,
    "Ġgilded": 17443,
    "Ġliberally": 16829,
    "Ġinclement": 22552,
    "Ġger": 21589,
    "Ġage": 3898,
    "cadence": 26125,
    "Ġ38": 24077,
    "excuse": 13379,
    "groom": 8739,
    "orous": 5292,
    "Ġpugnacious": 26450,
    "vol": 737,
    "Ġstiffness": 24830,
    "Ġcape": 5146,
    "ď": 208,
    "speech": 10665,
    "adopt": 25544,
    "Ġpunct": 8660,
    "brave": 19822,
    "Ġren": 3848,
    "owal": 13991,
    "Ġparlor": 13538,
    "Ġrefer": 18702,
    "Ġfootman": 8288,
    "Ġintolerable": 8481,
    "Ġhandful": 9780,
    "olly": 3229,
    "ading": 5091,
    "Ġmumbling": 11572,
    "Ġgradients": 612,
    "Ġfalsehood": 10522,
    "Ġconclusion": 5986,
    "uous": 4145,
    "Ġprovoking": 16742,
    "Ġcedar": 15186,
    "Ġswimmer": 19457,
    "Ġuprising": 12798,
    "Ġfil": 3475,
    "ten": 1556,
    "lace": 13746,
    "ceed": 1072,
    "Ġshot": 4544,
    "owders": 18047,
    "Ġoaken": 13863,
    "Ġdigress": 24648,
    "measureless": 20234,
    "Ġhomely": 25219,
    "Ġmicha": 17811,
    "eluded": 21573,
    "Ġwor": 1190,
    "pleas": 3854,
    "Ġpots": 9426,
    "Ġchoking": 15931,
    "itheat": 21336,
    "Ġtun": 5999,
    "Ġflourish": 17159,
    "Ġcyl": 15553,
    "Ġgushed": 21605,
    "Ġunprinciple": 18254,
    "Ġslightest": 6093,
    "iqu": 7803,
    "ough": 470,
    "except": 5383,
    "hip": 8740,
    "Ġinarticulate": 21498,
    "Ġalarm": 4050,
    "steep": 19417,
    "spect": 3235,
    "Ġverd": 6919,
    "Ġsugg": 4500,
    "Ġfamine": 16324,
    "Ġsuspic": 4471,
    "Ġpassers": 18757,
    "cnns": 3625,
    "sey": 5542,
    "ectual": 21913,
    "Ġceremonies": 24836,
    "recognised": 15260,
    "Ġirrad": 19093,
    "cloud": 11104,
    "Ġregularity": 22773,
    "Ġheartless": 13070,
    "Ġtrad": 9826,
    "Ġthrice": 10574,
    "recogn": 13423,
    "toes": 22563,
    "dart": 20825,
    "Ġcynical": 25770,
    "Ġmist": 2877,
    "surface": 10529,
    "wolf": 26408,
    "Ġfugitives": 25634,
    "Ġsubmission": 22788,
    "Ġhesitated": 10000,
    "Ġgoney": 14544,
    "Ġacknowled": 6350,
    "Ġgoodly": 22820,
    "Ġspans": 18304,
    "however": 4373,
    "Ġric": 18209,
    "Ġapprehens": 5682,
    "Ġadler": 8174,
    "ö": 183,
    "Ġamply": 22480,
    "Ġsignature": 16491,
    "Ġduly": 13348,
    "ploy": 2094,
    "flutter": 23968,
    "Ġardently": 9496,
    "Ġnew": 1197,
    "Ġoverhanging": 22363,
    "Ġapparition": 8067,
    "Ġtur": 2566,
    "Ġmustering": 18662,
    "Ġgems": 9207,
    "Ġlessons": 7692,
    "Ġlewis": 15721,
    "Ġpresentiment": 18989,
    "smitten": 23906,
    "orm": 425,
    "hid": 13732,
    "contains": 16027,
    "Ġcharts": 12823,
    "fresh": 13390,
    "icating": 15651,
    "bingleys": 19633,
    "Ġdiscontented": 16056,
    "Ġniag": 21528,
    "Ġquaker": 10970,
    "Ġstone": 4646,
    "Ġrolled": 4431,
    "Ġlengths": 19204,
    "Ġsoothingly": 25047,
    "Ġunsupplied": 22041,
    "uend": 21100,
    "Ġflannel": 26576,
    "including": 23589,
    "thought": 3851,
    "death": 6261,
    "Ġfancies": 10423,
    "stone": 5089,
    "quite": 4647,
    "Ġconsume": 12954,
    "Ġpractised": 23295,
    "Ġounce": 15270,
    "disc": 4729,
    "Ġsentiments": 7961,
    "Ġconvalescence": 23744,
    "Ġinsp": 2101,
    "Ġferoc": 14900,
    "Ġshuttle": 12123,
    "gest": 5426,
    "arrangement": 17413,
    "Ġwarrior": 24495,
    "Ġembellish": 25848,
    "utely": 8132,
    "itudes": 3014,
    "examine": 25477,
    "dense": 18716,
    "Ġind": 1220,
    "wickham": 5884,
    "âĢľâĢĻ": 10220,
    "Ġfollow": 1396,
    "Ġdownstream": 3779,
    "placed": 7881,
    "Ġenrapt": 21937,
    "Ġlbs": 11613,
    "Ġillust": 8263,
    "ssed": 3739,
    "berwell": 22716,
    "Ġmouth": 3180,
    "Ġpole": 6433,
    "Ġshaken": 10263,
    "Ġslighted": 16566,
    "Ġpri": 5813,
    "Ġphilist": 16600,
    "osed": 1962,
    "Ġunwound": 25169,
    "Ġshrieked": 9546,
    "Ġenraged": 10243,
    "Ġslime": 23157,
    "Ġmonkey": 8227,
    "Ġchast": 18380,
    "Ġconsequent": 18110,
    "Ġstared": 8454,
    "Ġhartshorn": 26180,
    "Ġenchantment": 24869,
    "finding": 17012,
    "oman": 2017,
    "nothing": 3154,
    "Ġsuggestive": 11296,
    "pervading": 18965,
    "Ġentrance": 7233,
    "py": 17623,
    "Ġovertook": 18429,
    "Ġfortnight": 6200,
    "Ġnotice": 4543,
    "Ġduplicates": 17215,
    "Ġascending": 14852,
    "inquiry": 15140,
    "Ġwh": 328,
    "Ġcontemporary": 16008,
    "Ġinc": 702,
    "iple": 4806,
    "Ġwalker": 23309,
    "securing": 19812,
    "insupportable": 21192,
    "expense": 22427,
    "Ġtransferred": 16457,
    "Ġhowever": 1306,
    "Ġlo": 453,
    "Ġsuck": 15857,
    "Ġshipwreck": 20444,
    "arle": 21439,
    "Ġmainly": 22659,
    "unpardonable": 21888,
    "Ġsal": 3941,
    "immense": 18052,
    "Ġstandard": 14495,
    "follows": 24527,
    "Ġbowditch": 19322,
    "richard": 17285,
    "quadr": 15760,
    "Ġwonder": 2118,
    "Ġstraightway": 9015,
    "arious": 10316,
    "Ġidolator": 19996,
    "heard": 5009,
    "Ġcharging": 23266,
    "aboard": 21792,
    "Ġwreath": 25936,
    "Ġtickets": 17093,
    "Ġdiscussing": 5202,
    "iless": 10280,
    "Ġmales": 17805,
    "Ġprobability": 1128,
    "cannot": 5745,
    "luent": 15995,
    "inde": 17730,
    "Ġhanging": 5447,
    ".âĢĻâĢĿ": 6739,
    "entropy": 1439,
    "Ġmonotonically": 3836,
    "Ġpail": 15603,
    "Ġsublim": 19965,
    "heaved": 21209,
    "sively": 13784,
    "Ġdisembow": 22535,
    "jabez": 20932,
    "Ġbull": 7840,
    "permission": 15900,
    "coarse": 16485,
    "Ġfavourite": 5270,
    "Ġstepdaughter": 22612,
    "Ġmanip": 8870,
    "Ġbor": 5804,
    "Ġleaf": 15719,
    "doms": 20834,
    "Ġvisits": 8221,
    "Ġfrenzy": 13620,
    "Ġunfolding": 17085,
    "Ġthrusts": 24349,
    "loud": 11499,
    "pus": 3418,
    "Ġgeneric": 18448,
    "Ġchannel": 26012,
    "Ġparallel": 1415,
    "Ġstand": 1735,
    "Ġapothecary": 13657,
    "Ġobject": 1395,
    "phia": 22778,
    "Ġweek": 2827,
    "vered": 4829,
    "Ġdarling": 12600,
    "Ġacquit": 18897,
    "ilations": 21720,
    "Ġmetropolitan": 17274,
    "oms": 4594,
    "Ġgallied": 19555,
    "ira": 3960,
    "Ġinvulnerable": 19146,
    "Ġ71": 24258,
    "wood": 5898,
    "Ġknock": 9971,
    "Ġintending": 11701,
    "lemag": 21370,
    "scruple": 26045,
    "Ġnast": 15635,
    "Ġreser": 5170,
    "Ġhandsome": 4906,
    "Ġsolving": 2483,
    "Ġbehoo": 19038,
    ")âĢĶâĢľ": 20742,
    "Ġchallenge": 25471,
    "ctive": 11621,
    "Ġinferiority": 17114,
    "Ġnewspapers": 17185,
    "Ġinjuries": 11276,
    "flesh": 13488,
    "Ġwhisker": 23932,
    "mentioning": 24885,
    "Ġstur": 15713,
    "Ġlamented": 24993,
    "Ġdisgusted": 14988,
    "Ġamaze": 22481,
    "Ġdisgracing": 26255,
    "Ġunconditional": 15841,
    "uncle": 8159,
    "hig": 12471,
    "Ġcalifornia": 20528,
    "Ġprairies": 20019,
    "ashion": 3861,
    "acrity": 14277,
    "Ġflourishing": 25187,
    "Ġburgled": 23652,
    "lucases": 20209,
    "Ġmarvels": 11083,
    "Ġincarn": 11811,
    "ishments": 9271,
    "Ġbreaching": 23344,
    "Ġbenefactor": 14696,
    "Ġclever": 7054,
    "Ġominous": 12421,
    "Ġinterested": 6458,
    "instruct": 19541,
    "erate": 7149,
    "Ġcleans": 18947,
    "Ġgen": 5296,
    "Ġparmacetti": 20603,
    "lers": 10105,
    "ifference": 5632,
    "Ġundecided": 22046,
    "further": 7535,
    "Ġemergency": 25731,
    "Ġgovern": 10449,
    "Ġstory": 2902,
    "noted": 22747,
    "Ġincline": 18571,
    "Ġbremen": 23342,
    "neglected": 25669,
    "Ġarom": 15490,
    "Ġcrutch": 23445,
    "gement": 13726,
    "stealthily": 23959,
    "Ġhull": 5446,
    "Ġtax": 13814,
    "Ġcoco": 11000,
    "sure": 5522,
    "hunter": 10554,
    "/(": 2982,
    "Ġfurn": 3713,
    "aviour": 10993,
    "Ġunquestionable": 26221,
    "Ġtightly": 13532,
    "after": 2896,
    "Ġrinal": 21978,
    "Ġgleams": 17308,
    "Ġengineer": 11971,
    "Ġintruding": 21989,
    "Ġmeridian": 25714,
    "oped": 6047,
    "Ġthe": 270,
    "lording": 24049,
    "Ġsoot": 14130,
    "Ġneighbors": 25806,
    "Ġfort": 2580,
    "Ġparent": 14645,
    "Ġankles": 17899,
    "yl": 7819,
    "Ġinflexibly": 26370,
    "ared": 769,
    "Ġparallelization": 3435,
    "en": 271,
    "Ġornaments": 17450,
    "Ġsurviv": 13433,
    "Ġimportance": 4900,
    "Ġwhoa": 22420,
    "histor": 13489,
    "aways": 15308,
    "scattered": 22993,
    "Ġmur": 2489,
    "Ġleaped": 8824,
    "Ġdescent": 1029,
    "Ġmant": 9646,
    "Ġgenerous": 6271,
    "Ġhoarse": 14524,
    "osity": 14184,
    "Ġuncomp": 15838,
    "Ġost": 9648,
    "Ġell": 17714,
    "Ġgermany": 25785,
    "infer": 10143,
    "angry": 18294,
    "increased": 20269,
    "Ġxxxvi": 24971,
    "entric": 11617,
    "Ġcaptioning": 23021,
    "Ġformal": 2944,
    "ulous": 4451,
    "roofed": 26183,
    "bald": 16445,
    "Ġdeliverer": 11947,
    "iosity": 2215,
    "anse": 12571,
    "Ġaffectionately": 13166,
    "otently": 21798,
    "Ġadvert": 10570,
    "Ġnapoleon": 20556,
    "Ġgentle": 1888,
    "thole": 21984,
    "Ġtherefore": 2242,
    "Ġsprain": 18305,
    "Ġabhor": 5467,
    "Ġweapons": 10592,
    "monsters": 19170,
    "Ġdeject": 10880,
    "gracious": 11828,
    "Ġdefined": 11895,
    "Ġmaking": 1778,
    "Ġfirmament": 19469,
    "causes": 20342,
    "Ġremark": 2146,
    "Ġmumbled": 17807,
    "extinguish": 22762,
    "Ġpro": 360,
    "Ġacqu": 1417,
    "Ġexploding": 2109,
    "Ġclapping": 14201,
    "Ġaddu": 22099,
    "Ġnaturally": 2468,
    "Ġbountiful": 25944,
    "Ġcorrespond": 6209,
    "Ġobli": 9314,
    "Ġmonday": 6127,
    "Ġintellect": 8170,
    "Ġexponential": 1058,
    "constellation": 24608,
    "extent": 22759,
    "autumn": 23340,
    "Ä": 133,
    "Ġarmada": 23579,
    "Ġmaybe": 12945,
    "Ġenslaved": 26314,
    "Ġhandwriting": 14317,
    "ascribed": 24708,
    "flinging": 20867,
    "Ġvehicle": 20137,
    "Ġsent": 1774,
    "call": 8722,
    "Ġprovide": 7750,
    "appeared": 4283,
    "Ġawkward": 7073,
    "Ġbreathed": 11219,
    "Ġgallantry": 15101,
    "Ġsnugly": 17110,
    "Ġunmethodically": 22069,
    "Ġpoisoned": 24886,
    "one": 615,
    "Ġknowest": 12859,
    "encies": 4082,
    "deadly": 17099,
    "stirring": 20424,
    "loose": 11802,
    "Ġpostp": 12140,
    "Ġtalks": 23366,
    "Ġhardly": 2435,
    "Ġzone": 14359,
    "Ġv": 398,
    "itage": 17816,
    "Ġsanctified": 25883,
    "Ġshrugged": 12765,
    "Ġmanor": 14195,
    "Ġandrew": 21506,
    "Ġremoter": 20104,
    "Ġharpoon": 3620,
    "Ġdoing": 3664,
    "Ġmetropolis": 17273,
    "Ġwearied": 15790,
    "given": 8377,
    "Ġindefinite": 17175,
    "incl": 8110,
    "Ġfaintness": 24569,
    "Ġaided": 17744,
    "Ġcig": 6520,
    "fic": 20851,
    "Ġlobes": 22113,
    "Ġrecovered": 5481,
    "Ġsoldier": 16919,
    "gladness": 25194,
    "Ġfringed": 17271,
    "uzza": 11269,
    "fitted": 17543,
    "Ġspouting": 9437,
    "É": 138,
    "Ġinstances": 5567,
    "Ġgrenadier": 21614,
    "tle": 2411,
    "det": 5207,
    "thither": 21981,
    "Ġbelonging": 8308,
    "feel": 3815,
    "Ġanticipating": 17057,
    "someone": 14562,
    "Ġeclips": 20695,
    "Ġchowders": 18386,
    "Ġvideo": 25365,
    "Ġsequential": 2132,
    "pshaw": 21027,
    "Ġtougher": 21175,
    "Ġparr": 22117,
    "Ġtraits": 23072,
    "Ġbitterness": 8025,
    "Ġportable": 19368,
    "Ġreigns": 21669,
    "inferiors": 25346,
    "Ġcalendar": 18876,
    "Ġ0": 1902,
    "dimly": 15344,
    "fugitive": 26131,
    "liest": 6294,
    "ripp": 6404,
    "Ġliterary": 25162,
    "Ġsingularly": 12145,
    "Ġmiriam": 25273,
    "Ġinvests": 14866,
    "Ġscrutin": 26014,
    "Ġreciprocating": 26369,
    "omy": 6248,
    "Ġtriumphantly": 11286,
    "loveliness": 26548,
    "Ġstiffly": 15004,
    "ictions": 14223,
    "general": 7489,
    "encounter": 20390,
    "Ġmam": 8405,
    "Ġphysiology": 25332,
    "Ġaffirmative": 15220,
    "Ġslavery": 16305,
    "Ġblasts": 19994,
    "Ġquitted": 5311,
    "luyt": 18459,
    "Ġhospitals": 24923,
    "Ġclimate": 9273,
    "apple": 22839,
    "rises": 17654,
    "Ġadmiration": 5328,
    "Ġsudden": 1999,
    "Ġdialogue": 12401,
    "Ġhumour": 7932,
    "Ġconversations": 9423,
    "Ġlabyrinth": 13677,
    "weep": 22682,
    "Ġmerciless": 25246,
    "Ġproprietor": 12370,
    "provid": 11148,
    "Ġauthoritative": 19560,
    "cour": 4480,
    "Ġpie": 13913,
    "Ġpurposely": 10443,
    "Ġconnectivity": 3670,
    "Ġtrapped": 23074,
    "Ġuniversity": 13119,
    "Ġcoff": 3510,
    "Ġinvincible": 23478,
    "Ġaut": 1783,
    "Ġcountryside": 23595,
    "Ġthrusting": 10551,
    "Ġstack": 21731,
    "Ġwheel": 9716,
    "Ġaries": 21196,
    "tem": 6369,
    "Ġsomeone": 6703,
    "Ġskin": 5039,
    "Ġsprinkled": 19495,
    "killing": 20941,
    "Ġfearlessness": 19160,
    "Ġsandwiched": 26609,
    "Ġactivity": 7921,
    "Ġpromotion": 23189,
    "arrange": 23764,
    "meryton": 10110,
    "zening": 21147,
    "Ġgrec": 18960,
    "Ġharpoone": 2912,
    "d": 72,
    "Ġlively": 5449,
    "Ġreusable": 13555,
    "Ġregal": 16069,
    "ullen": 8235,
    "Ġexpanse": 14288,
    "Ġtesting": 23242,
    "increase": 20267,
    "play": 5099,
    "sn": 7138,
    "Ġpages": 15604,
    "lan": 15375,
    "Ġignorantly": 19494,
    "ylon": 24977,
    "usually": 10284,
    "Ġfloundering": 16249,
    "Ġoutsk": 15953,
    "rival": 12738,
    "Ġnecessitated": 23925,
    "entered": 8813,
    "glancing": 11213,
    "Ġbagging": 24538,
    "unaffected": 21881,
    "idence": 4303,
    "Ġexcess": 3344,
    "poises": 11886,
    "Ġcraft": 4376,
    "Ġunde": 11709,
    "pur": 7807,
    "stirred": 20423,
    "Ġbelieves": 14405,
    "Ġlashing": 11614,
    "Ġphysiognomy": 25610,
    "aging": 2241,
    "Ġpolitical": 19223,
    "Ġprev": 6264,
    "Ġconcerns": 12028,
    "nigh": 13761,
    "cor": 5520,
    "itters": 10780,
    "determine": 19942,
    "Ġclients": 19730,
    "Ġovercome": 6044,
    "Ġmeek": 21807,
    "Ġbright": 3215,
    "Ġconceited": 12087,
    "Ġobstinate": 11335,
    "Ġalpine": 18105,
    "adventure": 17232,
    "whom": 8185,
    "places": 7880,
    "met": 6652,
    "Ġminor": 12964,
    "Ġsnorting": 23739,
    "arts": 6563,
    "Ġaberdeen": 26540,
    "uncont": 15770,
    "animation": 16978,
    "Ġwaters": 3600,
    "Ġdecreasing": 2445,
    "Ġvinc": 14083,
    "Ġpoet": 8209,
    "Ġlament": 7857,
    "_âĢĶâĢĻ": 13680,
    "cheeked": 19339,
    "Ġwol": 15527,
    "Ġtea": 5041,
    "Ġinsincere": 26598,
    "dashed": 12452,
    "Ġhowling": 8509,
    "Ġsuite": 18278,
    "Ġdrenched": 12599,
    "trivial": 21091,
    "harpooned": 24285,
    "Ġabide": 14186,
    "Ġemptied": 24346,
    "knows": 19171,
    "response": 25762,
    "Ġheard": 1399,
    "masts": 19423,
    "Ġsubsided": 14549,
    "Ġstrolled": 16769,
    "Ġshake": 6034,
    "Ġdriven": 6198,
    "Ġlock": 5928,
    "Ġaccused": 8507,
    "atic": 4021,
    "onness": 21253,
    "Ġinferior": 8366,
    "tipt": 25083,
    "Ġconstruct": 23339,
    "postp": 24635,
    "Ġexig": 21824,
    "Ġappeared": 2776,
    "Ġquaint": 18465,
    "Ġcouns": 10519,
    "wise": 2576,
    "poke": 18798,
    "Ġhit": 7163,
    "Ġadrift": 11719,
    "Ġfossils": 20221,
    "intense": 22934,
    "Ġcottagers": 6761,
    "Ġfancying": 12109,
    "metallic": 19879,
    "rev": 17755,
    "gabriel": 15358,
    "Ġquestion": 2778,
    "eridge": 15523,
    "Ġspence": 22124,
    "orough": 5700,
    "magnifying": 25392,
    "pend": 6367,
    "Ġbroken": 3452,
    "Ġscent": 10283,
    "ignominious": 26586,
    "destro": 13307,
    "Ġtip": 15469,
    "twill": 21073,
    "Ġlabors": 23326,
    "nature": 5359,
    "afterwards": 7484,
    "ood": 963,
    "involved": 25626,
    "iah": 14415,
    "iastic": 12476,
    "beef": 18522,
    "fav": 6646,
    "superstitious": 17279,
    "/*": 10069,
    "Ġrepair": 11975,
    "prove": 11146,
    "Ġmeasured": 9802,
    "hoisted": 19282,
    "slow": 7811,
    "joy": 3337,
    "Ġdiddled": 22665,
    "aying": 15746,
    "Ġcracks": 12016,
    "Ġowest": 25091,
    "ominy": 13976,
    "Ġrange": 9710,
    "Ġsoaked": 15859,
    "before": 3116,
    "Ġwitnesses": 9484,
    "Ġwarmup": 3924,
    "Ġsuperlatively": 26075,
    "Ġflight": 6581,
    "Ġtraced": 10382,
    "Ġflo": 2591,
    "unc": 15765,
    "Ġskeletons": 16790,
    "Ġfloating": 6604,
    "Ġate": 8838,
    "Ġconverts": 2806,
    "Ġobservations": 13551,
    "Ġweighing": 20014,
    "Ġvehicles": 10658,
    "strang": 11182,
    "imens": 1747,
    "inc": 2521,
    "Ġopened": 3515,
    "Ġresided": 11808,
    "Ġyoung": 1506,
    "Ġbuy": 8300,
    "fitzwilliam": 11351,
    "deploy": 22141,
    "Ġconception": 10312,
    "Ġrequest": 6051,
    "Ġdais": 24371,
    "ware": 3938,
    "Ġscatter": 18397,
    "returns": 23133,
    "Ġeddystone": 25709,
    "reed": 6373,
    "trap": 24312,
    "youngest": 19742,
    "Ġencaps": 12958,
    "Ġrested": 9376,
    "Ġquieted": 23840,
    "Ġvest": 8163,
    "Ġgang": 9206,
    "franch": 24283,
    "Ġencamp": 22800,
    "were": 2560,
    "Ġbu": 3686,
    "ild": 1156,
    "Ġarguing": 25470,
    "Ġintricate": 15135,
    "Ġri": 3399,
    "bull": 13688,
    "Ġcleaned": 23178,
    "Ġunden": 22011,
    "Ġtrespass": 23599,
    "Ġfragrant": 13091,
    "Ġheal": 21679,
    "ose": 718,
    "Ġaltering": 18102,
    "try": 7813,
    "Ġtapping": 10751,
    "Ġprettier": 23763,
    "Ġprints": 16327,
    "whal": 10939,
    "gentleness": 24844,
    "Ġmatter": 1733,
    "Ġcorrect": 2434,
    "Ġcre": 886,
    "id": 338,
    "Ġbreathes": 13244,
    "shipmates": 11925,
    "Ġfidel": 12592,
    "spe": 3565,
    "Ġoffend": 16138,
    "Ġthemselves": 3256,
    "ribe": 1224,
    "Ġbelly": 10368,
    "Ġunwelcome": 12776,
    "Ġpluck": 15610,
    "Ġmagnified": 23202,
    "ubb": 1648,
    "Ġhighland": 18711,
    "Ġ10": 5248,
    "Ġstockings": 19995,
    "Ġrumors": 11320,
    "retirement": 23135,
    "Ġrecol": 4033,
    "congreg": 25398,
    "accounted": 16499,
    "Ġinnocently": 24027,
    "doing": 8583,
    "appro": 7044,
    "Ġexpense": 7651,
    "Ġcomputational": 1622,
    "Ġpiny": 21468,
    "Ġtracing": 18890,
    "Ġstro": 4596,
    "Ġconsid": 1812,
    "Ġprojecting": 9983,
    "Ġrelate": 6875,
    "Ġrecumbent": 22743,
    "who": 2447,
    "Ġdeformed": 14047,
    "Ġsickbed": 24245,
    "Ġfearfully": 23509,
    "instr": 12527,
    "Ġtrusting": 24104,
    "Ġrepaired": 13105,
    "nearly": 8680,
    "ev": 6952,
    "Ġdegenerated": 20504,
    "Ġobliterated": 17403,
    "seventh": 12710,
    "Ġmodesty": 12813,
    "Ġcallest": 17832,
    "una": 21867,
    "Ġexhaust": 6399,
    "Ġjav": 7903,
    "Ġweap": 6155,
    "Ġesteem": 7531,
    "Ġskrimshander": 22798,
    "Ġimprove": 1838,
    "til": 17670,
    "Ġclosely": 6488,
    "Ġowl": 20082,
    "Ġbrag": 23831,
    "Ġsubstant": 14806,
    "Ġpupils": 20419,
    "Ġruff": 14347,
    "Ġsuperb": 16443,
    "bushes": 24446,
    "Ġreturns": 11923,
    "Ġgroans": 14821,
    "°": 113,
    "Ġconfine": 14508,
    "Ġnobody": 6158,
    "although": 8804,
    "Åĵuv": 15180,
    "Ġtheore": 1828,
    "Ġmeekly": 26489,
    "Ġlevels": 12694,
    "Ġfading": 15580,
    "Ġscruples": 15076,
    "sweeping": 24619,
    "Ġdirected": 5578,
    "Ġhither": 4759,
    "Ġantelope": 24178,
    "gus": 13723,
    "Ġinspection": 14543,
    "Ġmass": 3784,
    "Ġimmovable": 15889,
    "Ġaccomplish": 14874,
    "Ġtigers": 25758,
    "aries": 6244,
    "Ġperpendicular": 7209,
    "mmet": 10987,
    "Ġoccupied": 5272,
    "striving": 24669,
    "!âĢĿâĢĶ": 8532,
    "farintosh": 24552,
    "Ġflint": 23010,
    "Ġelevates": 24499,
    "Ġallured": 14111,
    "blubber": 15234,
    "Ġtempor": 2368,
    "Ġdeploy": 3033,
    "Ġestablishment": 13577,
    "Ġbrothers": 13173,
    "Ġshipped": 9713,
    "pher": 11510,
    "phr": 18714,
    "slack": 16893,
    "Ġapologized": 25198,
    "neighboring": 20615,
    "fowl": 17548,
    "Ġweaving": 12736,
    "Ġunsc": 22012,
    "ceptive": 15959,
    "embow": 21927,
    "brim": 23574,
    "Ġsoldiers": 8686,
    "Ġcountries": 13095,
    "acetti": 13394,
    "Ġboun": 21378,
    "Ġausten": 5881,
    "Ġwager": 17792,
    "imate": 4222,
    "Ġbenjamin": 26566,
    "Ġlowering": 7987,
    "when": 1588,
    "Ġeverybody": 4511,
    "Ġrnns": 2397,
    "Ġrevealing": 3927,
    "Ġelapsed": 7652,
    "Ġutterly": 6100,
    "Ġgodfre": 14527,
    "tears": 11037,
    "upright": 23017,
    "ible": 1112,
    "elev": 12455,
    "mody": 16180,
    "alike": 17942,
    "Ġshores": 8846,
    "Ġplough": 18608,
    "Ġaforethought": 25428,
    "Ġshark": 5549,
    "Ġcas": 8411,
    "Ġrisk": 8039,
    "urches": 12681,
    "Ġstings": 21732,
    "terror": 18128,
    "standers": 18479,
    "Ġhopkins": 23127,
    "Ġretains": 20028,
    "Ġensures": 3055,
    "Ġpurring": 23474,
    "Ġjackets": 19601,
    "ģ": 228,
    "Ġmour": 6973,
    "Ġwaxed": 21296,
    "Ġexcursion": 26588,
    "Ġasking": 5651,
    "horner": 23613,
    "Ġaccompanied": 6780,
    "lop": 20947,
    "achalot": 15860,
    "held": 3843,
    "earnestly": 17311,
    "Ġcurves": 18840,
    "girdling": 26388,
    "Ġsembl": 19059,
    "Ġexpedition": 10632,
    "remem": 13063,
    "Ġdeadliest": 14555,
    "Ġpitiful": 13237,
    "cre": 4252,
    "Ġlucky": 7759,
    "Ġwhim": 13997,
    "Ġgames": 11624,
    "Ġproudly": 19741,
    "angu": 570,
    "Ġdisasters": 16051,
    "ĠâĢľ_": 6696,
    "Ġlowered": 6735,
    "ease": 12454,
    "to": 714,
    "Ġlets": 18076,
    "Ġrejoice": 10207,
    "paus": 13771,
    "Ġcall": 2074,
    "lane": 10705,
    "Ġtrousers": 12412,
    "Ġthink": 985,
    "Ġun": 423,
    "othe": 2617,
    "Ġtruth": 3322,
    "Ġsuppressing": 23001,
    "Ġpatriot": 23298,
    "unwillingly": 21882,
    "swe": 5996,
    "--------": 14778,
    "ef": 5134,
    "Ġstam": 18065,
    "Ġallev": 18100,
    "ientious": 11688,
    "Ġbount": 15564,
    "belong": 12119,
    "Ġgore": 17988,
    "Ġnecessitates": 23926,
    "Ġairth": 23317,
    "Ġspasmod": 12411,
    "epilogue": 22101,
    "Ġmajesty": 5201,
    "Ġsuspected": 9061,
    "ection": 4948,
    "Ġmiller": 19882,
    "Ġabsolute": 6765,
    "Ġpretty": 3863,
    "olets": 21007,
    "Ġtak": 15468,
    "Ġwindlass": 7256,
    "perfectly": 9084,
    "itiously": 13869,
    "Ġcrad": 21348,
    "Ġbunger": 9994,
    "ultaneous": 18584,
    "ull": 1431,
    "Ġrecital": 16143,
    "Ġvital": 9241,
    "hem": 6663,
    "Ġrender": 8305,
    "domestic": 19824,
    "turner": 19540,
    "order": 1960,
    "Ġnaval": 16898,
    "Ġdedication": 3087,
    "Ġoverthrow": 18432,
    "alization": 732,
    "Ġmeals": 12707,
    "Ġhimmalehs": 26230,
    "hor": 2573,
    "ĕ": 214,
    "writer": 14647,
    "Ġtraining": 531,
    "iate": 6505,
    "Ġleaks": 16446,
    "Ġ31": 12127,
    "Ġplush": 18609,
    "Ġruffled": 25835,
    "eldom": 4415,
    "Ġerudite": 26350,
    "despond": 19799,
    "sorrow": 12505,
    "Ġtraces": 7946,
    "Ġcreates": 2009,
    "chest": 11207,
    "il": 329,
    "Ġpiazza": 26449,
    "Ġgl": 1256,
    "unts": 12727,
    "coll": 23778,
    "lust": 15377,
    "Ġplanned": 14750,
    "=": 33,
    "Ġcanall": 10929,
    "justice": 7958,
    "Ġsc": 530,
    "Ġsneezes": 24698,
    "Ġbordering": 17227,
    "Ġsagittarius": 24732,
    "Ġthreshold": 2809,
    "Ġlig": 21546,
    "Ġauthorities": 11263,
    "Ġturkey": 19218,
    "solitary": 14505,
    "Ġkentuckian": 26342,
    "Ġcross": 1373,
    "ĠâĢľ": 515,
    "Ġenvirons": 13176,
    "ĠâĢĺ_": 11116,
    "Ġneatness": 19931,
    "ried": 926,
    "scores": 22990,
    "grim": 19106,
    "Ġflattered": 10373,
    "Ġluff": 15649,
    "Ġwonderfully": 10429,
    "Ġshouting": 10521,
    "Ġblessed": 6931,
    "liked": 10507,
    "raction": 8138,
    "Ġaston": 3705,
    "quished": 21852,
    "accomp": 10454,
    "Ġdemean": 12719,
    "Ġpleasurable": 23337,
    "buoy": 7761,
    "Ġnarrated": 14869,
    "Ġincapable": 7423,
    "Ġhysterics": 26093,
    "Ġamend": 16031,
    "Ġoh": 2175,
    "Ġlunatic": 24992,
    "Ġink": 8801,
    "yourselves": 24958,
    "ynolds": 10034,
    "Ġafrica": 12342,
    "Ġrefinement": 18705,
    "Ġsaville": 15885,
    "Ġtre": 2536,
    "Ġgarn": 13961,
    "dream": 8727,
    "Ġporing": 21465,
    "Ġspray": 7895,
    "Ġboy": 3021,
    "pract": 10118,
    "Ġaltogether": 4831,
    "Ġangular": 19205,
    "Ġdeceased": 15005,
    "ool": 17617,
    "Ġunhappiness": 14116,
    "ir": 378,
    "Ġlieutenant": 15259,
    "Ġbidirectional": 3760,
    "Ġoutward": 7905,
    "deav": 2676,
    "terogene": 21823,
    "Ġraw": 3323,
    "Ġcaress": 16335,
    "nevertheless": 8286,
    "corpse": 24485,
    "Ġforest": 9869,
    "renched": 7908,
    "execut": 13653,
    "Ġalready": 2714,
    "Ġcathed": 14547,
    "sham": 9755,
    "gle": 20868,
    "tier": 12511,
    "exclaimed": 11787,
    "supp": 4162,
    "hung": 8381,
    "Ġadmirals": 20383,
    "attentive": 17188,
    "Ġhousemaid": 14462,
    "Ġnoble": 3444,
    "threatened": 25462,
    "needles": 20313,
    "oth": 1186,
    "Ġpallid": 12296,
    "Ġender": 11687,
    "Ġtass": 15467,
    "Ġstripped": 10464,
    "Ġlod": 4045,
    "clouded": 20330,
    "Ġheld": 3590,
    "Ġcontour": 18473,
    "Ġday": 957,
    "Ġbrawn": 10480,
    "Ġharbor": 10025,
    "cary": 10688,
    "distinction": 19570,
    "Ġspices": 22128,
    "mass": 12486,
    "Ġpassenger": 14368,
    "Ġaroused": 15896,
    "resol": 17759,
    "respective": 19845,
    "Ġquies": 18464,
    "anges": 1674,
    "uously": 7353,
    "Ġassociate": 13448,
    "centre": 17086,
    "rene": 5379,
    "]]": 5205,
    "Ġvirtual": 11238,
    "Ġshave": 21994,
    "dripping": 16904,
    "endeavour": 17030,
    "bpp": 20771,
    "danish": 20832,
    "Ġunable": 4951,
    "poky": 17643,
    "Ġconstructed": 9384,
    "Ġpill": 7846,
    "Ġjabbering": 22301,
    "Ġenglish": 3618,
    "Ġexposing": 11832,
    "verest": 13989,
    "Ġarist": 14158,
    "Ġintegration": 9866,
    "Ġvanish": 8924,
    "j": 78,
    "Ġorchard": 22092,
    "Ġprocedure": 2810,
    "Ġprepar": 7898,
    "Ġsquad": 22834,
    "variety": 23181,
    "Ġtermination": 16459,
    "Ġpolic": 13159,
    "Ġfuture": 1084,
    "old": 800,
    "Ġtying": 15471,
    "ulations": 6029,
    "Ġrelentless": 26277,
    "anoke": 21359,
    "gar": 5614,
    "objects": 13468,
    "Ġprophecy": 25706,
    "Ġfills": 12590,
    "Ġzeros": 3327,
    "obscure": 23095,
    "Ġjoint": 12031,
    "teenth": 11871,
    "rible": 3231,
    "Ġones": 3019,
    "Ġparade": 18301,
    "anted": 5027,
    "Ġdup": 21426,
    "Ġroughly": 17039,
    "Ġdiscipl": 22783,
    "vel": 2386,
    "phur": 16150,
    "Ġencountering": 11268,
    "Ġassure": 4420,
    "Ġdetail": 634,
    "nur": 11504,
    "Ġdec": 640,
    "Ġgrapes": 15213,
    "Ġconsecrated": 26487,
    "Ġgale": 5822,
    "queens": 22904,
    "Ġglobe": 6077,
    "carry": 19525,
    "Ġpalpitated": 26085,
    "ithing": 11647,
    "arcy": 1274,
    "Ġsmoky": 22557,
    "Ġaff": 1115,
    "aried": 10986,
    "Ġsenseless": 12075,
    "Ġattorney": 18619,
    "Ġsecurely": 16801,
    "Ġsociable": 19402,
    "civil": 7797,
    "Ġqueen": 3214,
    "appl": 9324,
    "rippa": 11340,
    "ittered": 18439,
    "subsided": 25830,
    "Ġchin": 4891,
    "Ġimpul": 7207,
    "ty": 999,
    "uting": 15656,
    "Ġhatches": 12041,
    "Ġsingers": 23769,
    "Ġabomin": 8189,
    "ohnson": 16322,
    "Ġdesiring": 14411,
    "Ġbroiled": 18908,
    "whar": 15924,
    "vessels": 10624,
    "invariably": 26415,
    "seventy": 10875,
    "ta": 13787,
    "Ġheavy": 3748,
    "Ġblasphemer": 26116,
    "Ġinference": 9670,
    "Ġnote": 4265,
    "Ġconfeder": 25708,
    "Ġattack": 5478,
    "liable": 3821,
    "ms": 540,
    "ordingly": 18517,
    "Ġnavies": 16899,
    "vative": 1594,
    "Ġaside": 5234,
    "Ġdepartments": 24241,
    "Ġquadruped": 17457,
    "Ġdesol": 6881,
    "Ġwake": 4749,
    "istrate": 7406,
    "Ġinduce": 7763,
    "âĢĿ;": 11668,
    "Ġcolours": 12971,
    "Ġwrecks": 16817,
    "hatch": 15362,
    "Ġtickled": 20055,
    "ient": 395,
    "Ġmuskets": 17055,
    "either": 6791,
    "Ġsurpassing": 20466,
    "Ġsymmetry": 20364,
    "Ġlima": 10441,
    "Ġqu": 605,
    "Ġimagined": 8606,
    "Ġgardener": 19134,
    "Ġmaelstrom": 19354,
    "Ġindiam": 22951,
    "batt": 20777,
    "Ġcandle": 8293,
    "Ġblan": 18816,
    "Ġunsavory": 20706,
    "dom": 6222,
    "Ġnovelist": 24777,
    "Ġwhite": 1537,
    "Ġtailed": 21167,
    "Ġattachment": 6050,
    "endeav": 7150,
    "bishop": 13692,
    "Ġrude": 7234,
    "Ġtows": 19561,
    "Ġplunge": 13441,
    "plainly": 11088,
    "Ġmatrimonial": 25489,
    "Ġdrugg": 17118,
    "Ġneuron": 1808,
    "Ġcomposed": 8891,
    "Ġwarnings": 16880,
    "Ġgash": 15667,
    "Ġstream": 5186,
    "Ġdir": 21420,
    "aspect": 10192,
    "Ġblooming": 17211,
    "Ġbravery": 23834,
    "ament": 2441,
    "erpillar": 5797,
    "Ġdut": 2988,
    "tried": 13792,
    "Ġsab": 10761,
    "Ġcatching": 9476,
    "Ġquestioned": 14619,
    "Ġaccost": 12844,
    "Ġanticipated": 13509,
    "jolly": 20930,
    "į": 240,
    "Ġfedallah": 6108,
    "Ġthoughts": 3139,
    "fen": 20849,
    "springs": 24911,
    "âĢĶâĢĻ": 8188,
    "Ġsing": 3074,
    "Ġboomer": 20166,
    "Ġunpleasing": 22053,
    "Ġcad": 12564,
    "Ġdynamically": 4207,
    "aw": 1448,
    "preserving": 25304,
    "Ġovertake": 15970,
    "Ġcard": 7363,
    "Ġpivot": 13921,
    "Ġflora": 11415,
    "Ġcomra": 7183,
    "Ġbump": 9658,
    "journey": 8744,
    "opement": 10310,
    "omach": 11632,
    "Ġcataract": 23426,
    "Ġdesires": 9454,
    "Ġsher": 3768,
    "Ġunforgiving": 25995,
    "countenances": 24149,
    "fulfil": 16038,
    "conceive": 16026,
    "am": 367,
    "Ġabundant": 17153,
    "Ġendwise": 23140,
    "australian": 20560,
    "Ġsleek": 23380,
    "kindness": 10504,
    "regular": 3040,
    "Ġretreating": 19798,
    "Ġdazz": 11592,
    "opard": 9289,
    "Ġrattled": 15066,
    "Ġunseasonable": 26519,
    "Ġfri": 17878,
    "Ġcorresponding": 13436,
    "perfect": 7634,
    "Ġfavoring": 2344,
    "Ġvarious": 3512,
    "Ġbrick": 8922,
    "Ġformality": 22826,
    "Ġat": 393,
    "õ": 182,
    "Ġcalling": 5662,
    "Ġrepositories": 23361,
    "taller": 26150,
    "Ġtrappings": 23079,
    "Ġtrace": 6181,
    "rix": 1573,
    "phren": 22777,
    "Ġtempest": 8213,
    "Ġstat": 1490,
    "Ġinfinity": 23278,
    "Ġattested": 22620,
    "istol": 6259,
    "Ġtransmit": 10303,
    "Ġcalhoun": 23041,
    "Ġinvoked": 19144,
    "abez": 10221,
    "ioneer": 15628,
    "Ġexperienced": 6580,
    "Ġpatronage": 17052,
    "Ġgrotesque": 26329,
    "Ġfe": 490,
    "Ġottoman": 17376,
    "Ġentitled": 8537,
    "Ġaustrian": 24299,
    "inn": 5363,
    "Ġadequately": 15196,
    "Ġreputed": 18035,
    "gunw": 17219,
    "tender": 14471,
    "enances": 10152,
    "Ġmomentarily": 22811,
    "Ġpaws": 13919,
    "Ġpudding": 17913,
    "Ġusage": 9728,
    "ofs": 11827,
    "ep": 445,
    "Ġsplit": 7993,
    "Ġroyal": 5601,
    "Ġslumbers": 18941,
    "stepfather": 19189,
    ",âĢĶ": 3171,
    "Ġfriday": 14487,
    "Ġforgo": 21771,
    "Ġvag": 9706,
    "uff": 2732,
    "Ġits": 706,
    "Ġenquired": 21938,
    "Ġprediction": 2155,
    "Ġtorment": 8673,
    "Ġinter": 727,
    "Ġeats": 15673,
    "women": 15454,
    "Ġimages": 1598,
    "Ġquebec": 24131,
    "cious": 6643,
    "console": 22469,
    "Ġmeryton": 4439,
    "Ġey": 8135,
    "Ġfol": 1290,
    "Ġneither": 3690,
    "Ġslew": 23379,
    "iron": 3355,
    "Ġmortals": 9914,
    "Ġcategor": 4140,
    "Ġcrashes": 13123,
    "Ġevince": 24292,
    "Ġabst": 9264,
    "arising": 17895,
    "Ġcurb": 16228,
    "rose": 6014,
    "Ġplant": 8898,
    "Ġmuff": 8114,
    "Ġrecept": 1522,
    "Ġhorsham": 10405,
    "correct": 24482,
    "Ġaloud": 6252,
    "Ġofficer": 6753,
    "Ġreside": 22537,
    "Ġholiday": 12994,
    "Ġsul": 7570,
    "Ġpartner": 6714,
    "immedi": 8450,
    "Ġgratifying": 13303,
    "gard": 7339,
    "Ġaccomplishments": 13377,
    "emporary": 15792,
    "rabbit": 20589,
    "reason": 4416,
    "Ġimbalanced": 18333,
    "inary": 3278,
    "Ġmediterranean": 12312,
    "Ġpitiable": 9912,
    "persons": 24172,
    "Ġresides": 22538,
    "Ġfunere": 22257,
    "swallow": 24256,
    "Ġown": 1006,
    "Ġseam": 3911,
    "Ġdisturbing": 19944,
    "kye": 20937,
    "king": 3060,
    "Ġiceland": 15144,
    "Ġlegit": 16471,
    "jury": 15371,
    "Ġmarchant": 14783,
    "Ġquadrille": 13539,
    "Ġbraved": 23835,
    "accomplished": 17210,
    "Ġhand": 858,
    "value": 18809,
    "Ġaspired": 25984,
    "Ġluxur": 12338,
    "Ġapologies": 25196,
    "Ġvalley": 5850,
    "Ġimpossibility": 20646,
    "clifford": 23153,
    "Ġassist": 3569,
    "Ġrestrained": 16369,
    "Ġlogger": 11950,
    "hither": 11491,
    "Ġaccepted": 7751,
    "oce": 10713,
    "Ġfavour": 3645,
    "Ġbab": 5289,
    "opotam": 22477,
    "endom": 15917,
    "Ġmarshal": 20218,
    "slipped": 25529,
    "Ġ63": 24365,
    "Ġgangs": 21607,
    "ext": 918,
    "Ġpers": 1370,
    "Ġhiding": 9821,
    "minds": 24231,
    "Ġrepublican": 17410,
    "tra": 4934,
    "Ġunparalleled": 15850,
    "Ġmonosyllable": 20725,
    "Ġimplore": 24872,
    "tar": 8098,
    "Ġanew": 11429,
    "cords": 25136,
    "dead": 8180,
    "iv": 430,
    "sar": 12501,
    "Ġprofoundly": 16858,
    "Ġtens": 17722,
    "Ġbackwoods": 22648,
    "Ġvolume": 6769,
    "Ġcrisis": 13124,
    "Ġaggreg": 12880,
    "Ġsister": 1473,
    "?_âĢĿ": 12313,
    "Ġboast": 7034,
    "Ġstyle": 6946,
    "Ġbree": 5012,
    "Ġnews": 3822,
    "Ġfocused": 16337,
    "Ġdivin": 13270,
    "Ġvindictiveness": 25738,
    "Ġgoest": 22421,
    "Ġcarrying": 6072,
    "Ġbrightness": 16575,
    "Ġdependen": 1827,
    "arp": 2026,
    "Ġmoose": 22431,
    "Ġmanufact": 22326,
    "Ġbarricade": 14659,
    "ivation": 3112,
    "Ġstript": 23692,
    "unmistakable": 21893,
    "Ġimpenit": 22383,
    "Ġwhist": 6022,
    "Ġtradeoff": 2661,
    "Ġmuchness": 18708,
    "Ġunce": 11708,
    "indirectly": 18437,
    "eled": 2359,
    "Ġcoincid": 20316,
    "Ġirresistible": 13110,
    "Ġabuse": 18392,
    "mistaken": 12207,
    "Ġvillanous": 24053,
    "Ġtenement": 23546,
    "Ġwaning": 15531,
    "Ġrevered": 23732,
    "Ġpainter": 19167,
    "Ġhanover": 20584,
    "worked": 19016,
    "Ġsymptoms": 8704,
    "grief": 13729,
    "condesc": 18505,
    "neath": 12862,
    "withstand": 23025,
    "aunted": 20769,
    "Ġdormouse": 4925,
    "Ġsupernatural": 9871,
    "Ġwounds": 17790,
    "Ġcontinental": 19704,
    "Ġcleansed": 26293,
    "sighted": 19784,
    "Ġtargets": 4205,
    "voc": 8394,
    "Ġmediocrity": 26607,
    "Ġconfident": 11137,
    "Ġmethod": 1541,
    "nal": 1900,
    "Ġconsists": 11974,
    "ti": 8390,
    "scheme": 15252,
    "Ġswear": 6461,
    "Ġadjac": 18292,
    "Â£": 4812,
    "Ġseeth": 21951,
    "self": 616,
    "Ġwhales": 1826,
    "Ġpermit": 9747,
    "Ġneskyeuna": 26458,
    "fourths": 25509,
    "Ġinfallible": 15068,
    "intern": 23734,
    "approaching": 15010,
    "Ġlou": 6822,
    "Ġenergetic": 15195,
    "Ġsolicited": 20035,
    "theories": 18078,
    "redit": 3878,
    "Ġfunny": 7637,
    "Ġimperfectly": 25727,
    "shot": 2117,
    "Ġconfide": 13097,
    "market": 16838,
    "Ġheedfulness": 24521,
    "Ġblubber": 5666,
    "hug": 17562,
    "rid": 5137,
    "Ġshroud": 6483,
    "ratulations": 20124,
    "Ġexterior": 19986,
    "Ġprocure": 9508,
    "Ġtravel": 5953,
    "Ġless": 1938,
    "ickering": 22668,
    "ator": 1922,
    "Ġpacing": 8426,
    "Ġadvertised": 17246,
    "brary": 5755,
    "Ġcarter": 18900,
    "Ġstride": 22615,
    "Ġforc": 9226,
    "Ġtot": 4186,
    "calm": 8933,
    "isis": 12575,
    "Ġitself": 2522,
    "Ġconjectures": 16924,
    "dear": 6555,
    "Ġpregnant": 26534,
    "Ġlull": 15647,
    "Ġcoat": 4554,
    "ĠĠĠĠĠĠĠ": 7631,
    "Ġ45": 14768,
    "allied": 7410,
    "Ġsavages": 9910,
    "Ġmod": 496,
    "immortal": 21708,
    "Ġprovocation": 24189,
    "Ġmildly": 9028,
    "bottom": 11425,
    "Ġslumber": 13056,
    "onde": 21250,
    "Ġlaud": 17967,
    "castle": 3351,
    "pit": 3986,
    "Ġfeed": 2128,
    "Ġresting": 7962,
    "Ġtemporal": 2615,
    "Ġsavagely": 26323,
    "Ġappointment": 10645,
    "ounts": 4652,
    "going": 6313,
    "Ġsurgeons": 23463,
    "Ġsgd": 3131,
    "Ġgolden": 5336,
    "Ġinflict": 15000,
    "Ġhastened": 9003,
    "fainting": 20471,
    "Ġpushing": 10818,
    "Ġwoke": 21288,
    "Ġponies": 21474,
    "asher": 15642,
    "captains": 12124,
    "Ġprescribed": 26010,
    "likeness": 19476,
    "pagans": 25525,
    "helm": 12168,
    "Ġcarve": 23090,
    "Ġinland": 11606,
    "forest": 22516,
    "Ġbedrooms": 19968,
    "ditch": 17527,
    "ittingly": 18807,
    "Ġtwice": 4662,
    "Ġapartment": 6633,
    "Ġinhale": 20299,
    "Ġpumping": 25643,
    "Ġbuffaloes": 25217,
    "Ġprofessions": 11230,
    "Ġcarcase": 14442,
    "moved": 9782,
    "dare": 12450,
    "Ġ2026": 12332,
    "Ġpave": 8798,
    "prim": 23808,
    "fall": 5135,
    "Ġpressed": 6042,
    "alk": 1155,
    "me": 871,
    "Ġarms": 3969,
    "Ġfirmness": 11236,
    "effect": 8603,
    "staring": 18020,
    "chiefly": 14844,
    "Ġnovelty": 13461,
    "Ġbounty": 26436,
    "instrument": 15236,
    "Ġpleasures": 11141,
    "rics": 13034,
    "Ġsmoothed": 23655,
    "dening": 22779,
    "Ġminuteness": 19138,
    "taught": 17683,
    "twelve": 14621,
    "wedded": 24338,
    "upwards": 18864,
    "uit": 8393,
    "nowled": 5470,
    "Ġtimbers": 14837,
    "ensions": 14258,
    "spr": 7435,
    "Ġpossibilities": 18976,
    "Ġlab": 1870,
    "Ġallows": 3237,
    "conversation": 7122,
    "win": 6801,
    "Ġkeen": 4614,
    "Ġconnecting": 18630,
    "Ġvastly": 23858,
    "veh": 12675,
    "exped": 16522,
    "Ġresemblance": 7974,
    "Ġreminisc": 18725,
    "Ġpenalties": 10411,
    "Ġharshly": 25249,
    "dis": 2252,
    "Ġdwelt": 12601,
    "ch": 321,
    "etw": 407,
    "Ġhungry": 10531,
    "etimes": 1987,
    "Ġezekiel": 26192,
    "Ġthough": 992,
    "Ġ65": 24367,
    "Ġoblige": 10487,
    "Ġbefriend": 18081,
    "Ġawful": 6199,
    "Ġselect": 4002,
    "would": 2352,
    "Ġnoise": 1068,
    "Ġhans": 12622,
    "ertain": 1208,
    "Ġforgetting": 3439,
    "Ġphilosopher": 12180,
    "solid": 16374,
    "Ġsurpassed": 25267,
    "accepted": 20135,
    "í": 174,
    "ines": 676,
    "*": 14,
    "mediterranean": 16399,
    "Ġveil": 7934,
    "Ġchaff": 18383,
    "Ġpassages": 12966,
    "based": 2961,
    "Ġcultivated": 17362,
    "Ġmilitary": 11257,
    "Ġspont": 22129,
    "Ġcanoe": 9721,
    "germans": 20564,
    "Ġhomage": 12352,
    "derness": 11734,
    "Ġblank": 5951,
    "iocr": 20922,
    "Ġsprawling": 22137,
    "Ġtop": 2472,
    "Ġintelligently": 4010,
    "want": 8765,
    "computer": 1959,
    "thed": 8825,
    "peddling": 24696,
    "Ġpupp": 10819,
    "sworn": 24255,
    "Ġfolding": 19725,
    "Ġmanoir": 22329,
    "igantic": 5538,
    "around": 12604,
    "shunned": 22458,
    "Ġsearch": 2593,
    "beat": 10984,
    "nui": 20999,
    "Ġcomputing": 2223,
    "liter": 11500,
    "ancholy": 5070,
    "Ġlirra": 21558,
    "Ġcaus": 1725,
    "Ġcommunications": 16352,
    "ipelag": 12837,
    "blow": 9102,
    "Ġword": 1053,
    "Ġexisted": 15749,
    "Ġcontented": 9754,
    "Ġjeopardy": 13594,
    "ally": 529,
    "Ġdi": 6525,
    "otherwise": 7671,
    "Ġyourself": 2596,
    "Ġperil": 5556,
    "Ġstreat": 15717,
    "glanced": 19364,
    "mand": 3896,
    "Ġvariance": 1171,
    "Ġlayers": 817,
    "Ġburial": 16519,
    "Ġswinging": 7449,
    "leman": 21366,
    "Ġconj": 8460,
    "wing": 2520,
    "lever": 2934,
    "Ġtarquin": 23609,
    "Ġoverjoy": 15969,
    "erranean": 9332,
    "feet": 6568,
    "Ġimpotently": 22385,
    "Ġworried": 22924,
    "Ê": 139,
    "ground": 4672,
    "Ġcuba": 25095,
    "Ġglad": 3328,
    "painted": 17638,
    "Ġtheatre": 21277,
    "Ġrejo": 5916,
    "Ġbedford": 7473,
    "Ġselfish": 7272,
    "Ġdenying": 14657,
    "Ġmanhat": 22325,
    "Ġunforeseen": 22051,
    "Ġtutored": 20126,
    "Ġcontinually": 5042,
    "Ġembeddings": 2200,
    "Ġaround": 3614,
    "Ġic": 9624,
    "mathematics": 26304,
    "Ġimmedi": 2905,
    "Ġespecial": 26409,
    "Ġcommunion": 19008,
    "Ġdawned": 14992,
    "icacy": 15654,
    "Ġanger": 5442,
    "helped": 18923,
    "Ġbrimstone": 25686,
    "vocation": 25084,
    "armed": 7251,
    "Ġtumb": 21168,
    "Ġerred": 21155,
    "Ġeighty": 19474,
    "ĳ": 244,
    "Ġready": 3402,
    "Ġboats": 2641,
    "include": 23588,
    "Ġgain": 4827,
    "Ġsuperiority": 14616,
    "owl": 12679,
    "intending": 22933,
    "Ġrealised": 18980,
    "icha": 11735,
    "Ġresignation": 18566,
    "travel": 24315,
    "sy": 2652,
    "Ġfry": 17879,
    "sartain": 25622,
    "iscreet": 20681,
    "rosc": 17954,
    "Ġshining": 8172,
    "Ġindolence": 16226,
    "?--": 15301,
    "Ġscrupled": 25049,
    "Ġslugg": 15266,
    "become": 14245,
    "brows": 17495,
    "Ġ135": 24785,
    "Ġdealing": 14045,
    "iciously": 17973,
    "telling": 14437,
    "Ġinfluences": 14863,
    "Ġis": 347,
    "Ġgobern": 22423,
    "nor": 2742,
    "Ġwildness": 14602,
    "Ġuniformity": 23482,
    "Ġnobler": 14172,
    "Ġconscience": 6929,
    "Ġsharpen": 13567,
    "Ġintentions": 10606,
    ";--": 8069,
    "Ġwednesday": 9023,
    "business": 5609,
    "Ġobserv": 8586,
    "Ġcorrectly": 9402,
    "Ġsqualid": 14367,
    "Ġp": 288,
    "Ġcommotion": 9778,
    "Ġreaction": 15691,
    "Ġrem": 955,
    "Ġcables": 15554,
    "Ġpledged": 20686,
    "Ġbeads": 18083,
    "Ġeag": 2968,
    "!--": 10676,
    "ordinate": 12870,
    "Ġbesides": 3516,
    "idea": 9300,
    "Ġentra": 18692,
    "Ġlounged": 19952,
    "Ġgrooves": 16740,
    "S": 55,
    "hed": 671,
    "Ġcollectively": 19966,
    "Ġidentity": 2524,
    "Ġrefine": 3236,
    "Ġply": 21451,
    "Ġentailed": 11025,
    "Ġbowed": 6242,
    "âĢľâĢĶ": 10871,
    "Ġhourly": 23301,
    "Ġcow": 13874,
    "drink": 10594,
    "Ġeverything": 3155,
    "emotions": 15791,
    "younger": 11311,
    "thro": 12757,
    "Ġextravagant": 17277,
    "inating": 9152,
    "dden": 1805,
    "Ġinstrum": 6055,
    "Ġfascinated": 25635,
    "Ġbehav": 3544,
    "Ġted": 13810,
    "Ġunprejudiced": 18269,
    "Ġeager": 3575,
    "seas": 14031,
    "Ġimpulses": 19960,
    "Ġpint": 17907,
    "ame": 644,
    "Ġships": 3718,
    "apter": 1194,
    "Ġalleghan": 25795,
    "connections": 14426,
    "Ġatom": 18192,
    "giv": 13720,
    "Ġpaint": 7708,
    "Ġtrag": 13036,
    ".âĢĶâĢľ": 20746,
    "Ġmaty": 22910,
    "ara": 12602,
    "Ġmorrow": 9341,
    "Ġ108": 19683,
    "Ġevaporate": 26332,
    "Ġtuesday": 9625,
    "Ġfaded": 10808,
    "Ġoccasionally": 5589,
    "Ġrallied": 14094,
    "Ġpantry": 20294,
    "arranted": 19319,
    "urged": 18048,
    "Ġgradu": 15829,
    "roads": 17957,
    "Ġprop": 1680,
    "glit": 23848,
    "Ġsinned": 18950,
    "Ġpeaceable": 14721,
    "kward": 6958,
    "Ġcot": 13875,
    "Ġdrew": 3541,
    "Ġbat": 10794,
    "Ġwithdra": 6398,
    "Ġharpoons": 5659,
    "Ġdine": 7366,
    "Ġcaw": 13881,
    "Ġautonom": 10413,
    "riptions": 14792,
    "pagan": 17284,
    "Ġhermit": 15854,
    "Ġsquires": 16179,
    "Ġunassuming": 20507,
    "quered": 11054,
    "Ġinmost": 17930,
    "Ġvicinity": 7315,
    "Ġcobbler": 25829,
    "courage": 17508,
    "sharp": 10305,
    "can": 1234,
    "Ġoperations": 2300,
    "Ġshell": 11733,
    "superior": 9523,
    "conditional": 9077,
    "icing": 9199,
    "lod": 15376,
    "Ġdrunkard": 20176,
    "aits": 20765,
    "Ġgurgling": 17444,
    "recol": 10149,
    "opposition": 24823,
    "iag": 20915,
    "Ġseethe": 21954,
    "Ġjunior": 15097,
    "ios": 2157,
    "sell": 13779,
    "Ġmembrane": 20502,
    "Ġbuck": 7157,
    "atement": 17772,
    "Ġcareful": 2614,
    "remarked": 12285,
    "slight": 10726,
    "Ġhypocr": 19470,
    "Ġshoved": 23488,
    "Ġunequal": 14840,
    "Ġtransl": 2830,
    "Ġsuppl": 11078,
    "Ġinward": 11605,
    "Ġpromising": 10398,
    "Ġour": 1008,
    "Ġchief": 3386,
    "Ġphrenolog": 12331,
    "dition": 15338,
    "Ġcalves": 13031,
    "Ġmag": 1429,
    "tall": 17672,
    "eted": 7591,
    "travelling": 24316,
    "Ġdl": 3380,
    "Ġfiles": 21412,
    "Ġken": 22189,
    "isbury": 21375,
    "Ġashore": 5351,
    "taining": 7206,
    "Ġcostume": 16493,
    "Ġvivid": 8058,
    "Ġcommenting": 25228,
    "omas": 12667,
    "Ġoutbreak": 22315,
    "Ġsolitudes": 22882,
    "Ġtorn": 6000,
    "qu": 369,
    "Ġbend": 9169,
    "remed": 18952,
    "smoking": 23908,
    "Ġcham": 4892,
    "Ġwhelmed": 25999,
    "Ġscar": 3213,
    "bucket": 17492,
    "retch": 4371,
    "Ġprevailing": 24673,
    "Ġarranged": 9875,
    "amouch": 21843,
    "Ġoverseeing": 22362,
    "words": 7983,
    "fron": 24280,
    "Ġconsolidation": 5060,
    "raised": 15675,
    "points": 14391,
    "resc": 21237,
    "became": 10513,
    "more": 1033,
    "ens": 701,
    "Ġaristocratic": 20510,
    "octavo": 11384,
    "acute": 22593,
    "Ġopposite": 5120,
    "art": 592,
    "Ġconsent": 5372,
    "Ġcompens": 14263,
    "Ġhing": 11602,
    "Ġtails": 9900,
    "inal": 15478,
    "Ġunexpl": 22037,
    "Ġting": 8398,
    "Ġcyp": 21343,
    "Ġsitu": 3498,
    "Ġbracing": 16579,
    "Ġfilial": 16619,
    "fulfilment": 26025,
    "Ġquicker": 16506,
    "playful": 24356,
    "Ġinserting": 19905,
    "ru": 479,
    "Ġshoes": 7071,
    "Ġpulverize": 23389,
    "Ġgrasping": 12162,
    "Ġlessen": 14530,
    "Ġcanaller": 25468,
    "Ġlion": 9674,
    "title": 17286,
    "england": 18928,
    "Ġhabits": 6926,
    "Ġtarshish": 12025,
    "Ġ20": 8613,
    "Ġhopes": 4235,
    "drunk": 24659,
    "Ġwants": 5742,
    "Ġeaves": 15672,
    "Ġwearily": 18177,
    "pointed": 9808,
    "Ġmocking": 24001,
    "fes": 20850,
    "Ġconstruction": 9383,
    "Ġheading": 8934,
    "Ġbacked": 12920,
    "Ġtwins": 16117,
    "Ġdet": 511,
    "Ġsuperfluous": 17412,
    "Ġsignificant": 8633,
    "readily": 19360,
    "Ġideas": 5494,
    "ught": 2752,
    "Ġassuredly": 14819,
    "uccas": 21105,
    "Ġcontraction": 16004,
    "Ġabsent": 7014,
    "frequent": 15351,
    "pling": 8474,
    "Ġdipped": 15591,
    "Ġringbolts": 24195,
    "Ġlees": 18075,
    "Ġbears": 6829,
    "Ġhailed": 6407,
    "Ġmasoned": 20250,
    "Ġreeling": 18032,
    "print": 23809,
    "Ġspell": 8854,
    "atible": 17771,
    "representation": 20195,
    "beer": 22485,
    "Ġhedgehog": 10643,
    "Ġreadiness": 13046,
    "bod": 12434,
    "azing": 7705,
    "Ġliveliest": 24775,
    "Ġclosest": 16762,
    "cater": 20815,
    "Ġlam": 21547,
    "Ġlifelessly": 23048,
    "uary": 11536,
    "Ġuse": 818,
    "marching": 25752,
    "Ġsend": 4108,
    "Ġdemoniac": 15064,
    "crane": 24097,
    "Ġhyp": 3875,
    "Ġwreaths": 25937,
    "Ġbachelor": 7787,
    "Ġgently": 7171,
    "Ġhay": 11603,
    "Ġrough": 7187,
    "Ġmortally": 23914,
    "Ġgrammar": 1062,
    "Ġblanched": 26282,
    "Ġsufficient": 2003,
    "reflection": 13453,
    "Ġsecondly": 14517,
    "Ġstubbs": 23293,
    "Ġincluded": 8929,
    "queness": 18147,
    "rudently": 16710,
    "Ġwrithing": 11943,
    "erne": 21268,
    "Ġrevers": 21662,
    "Ġpills": 21464,
    "Ġchildish": 13135,
    "Ġdeigned": 18141,
    "Ġparading": 23709,
    "Ġlowermost": 23238,
    "Ġdisquis": 22525,
    "continue": 16860,
    "walked": 10569,
    "msprop": 2628,
    "Ġaccidental": 16847,
    "grie": 12467,
    "rimshander": 20656,
    "jure": 20923,
    "Ġdefiance": 11067,
    "turbaned": 24531,
    "nav": 17609,
    "frequently": 9977,
    "decl": 8855,
    "Ġfireside": 23528,
    "ected": 7874,
    "unicorn": 21887,
    "Ġconcept": 661,
    "Ġcupidity": 24534,
    "Ġcompressed": 21848,
    "inion": 2876,
    "Ġcircumspect": 15082,
    "Ġcur": 1233,
    "Ġaware": 5756,
    "Ġvowed": 14082,
    "Ġpitchpoling": 14909,
    "Ġsneer": 13445,
    "Ġsermons": 20193,
    "Ġwouldst": 18501,
    "atever": 3079,
    "elter": 21569,
    "hist": 7130,
    "mpt": 6653,
    "atlantic": 15521,
    "Ġheadsmen": 14730,
    "Ġmaledictions": 26427,
    "alliance": 22198,
    "backpropagation": 11982,
    "Ġcharged": 9852,
    "anth": 13885,
    "riving": 21929,
    "Ġcreative": 9828,
    "hosmer": 25902,
    "Ġdescended": 7428,
    "accomplishment": 20222,
    "Ġstrangers": 8314,
    "Ġjot": 11760,
    "woman": 5899,
    "Ġhalyards": 21492,
    "Ġgeological": 14531,
    "rians": 21928,
    "Ġdiscomp": 11863,
    "hounds": 20906,
    "iforn": 14062,
    "Ġrepeated": 3834,
    "Ġpirate": 14995,
    "Ġpreprocess": 22231,
    "asses": 7016,
    "Ġoppose": 16517,
    "wonderful": 16959,
    "Ġunob": 22013,
    "Ġfettered": 24567,
    "step": 2457,
    "Ġfir": 17877,
    "volutional": 1934,
    "Ġpropag": 16344,
    "Ġsolely": 9908,
    "Ġspermaceti": 8966,
    "Ġpardon": 5727,
    "Ġaccomplice": 24375,
    "Ġpirates": 9072,
    "icles": 17972,
    "Ġconfined": 7465,
    "chairs": 21691,
    "Ġfac": 6381,
    "Ġthroes": 24573,
    "Ġbrought": 2517,
    "Ġdraw": 3674,
    "ivided": 22076,
    "ryder": 18639,
    "Ġmilk": 6485,
    "Ġoccas": 2704,
    "Ġwore": 6377,
    "Ġmanaging": 22323,
    "felicity": 25140,
    "Ġexclusiveness": 23924,
    "instinct": 19542,
    "esteem": 26008,
    "Ġpostmark": 16724,
    "Ġbrightest": 13222,
    "paradise": 20635,
    "rily": 7621,
    "Ġmalignity": 10555,
    "beh": 5472,
    "experience": 17157,
    "ider": 21763,
    "Ġbreeding": 14520,
    "Ġrasc": 21975,
    "Ġsymmetrical": 20365,
    "decor": 23779,
    "eze": 20846,
    "Ġ1950": 11358,
    "ountain": 2919,
    "quickly": 14960,
    "taking": 5689,
    "Ġgales": 12661,
    "Ġunwarranted": 25171,
    "Ġgri": 17987,
    "lifeless": 24311,
    "christian": 17231,
    "lo": 682,
    "Ġplayful": 19236,
    "Ġinve": 17928,
    "Ġpurchasing": 19874,
    "Ġsensations": 5259,
    "Ġsolemn": 4101,
    "starbuck": 6019,
    "Ġtempestuous": 20069,
    "Ġupbraided": 26527,
    "Ġreads": 23110,
    "Ġpilgrim": 25599,
    "autions": 20766,
    "ub": 1227,
    "Ġcaval": 25769,
    "Ġtwink": 8216,
    "Ġpurplish": 19140,
    "Ġcovering": 13253,
    "Ġfairest": 20461,
    "Ġbritain": 16955,
    "Ġscalding": 16302,
    "Ġladyship": 5046,
    "Ġupbraiding": 26226,
    "Ġagonies": 14250,
    "strugg": 21660,
    "Ġrambles": 17183,
    "Ġfrighten": 13275,
    "Ġbehaves": 23300,
    "manifested": 20524,
    "craft": 12243,
    "affections": 17355,
    "Ġhaving": 1879,
    "Ġexistence": 4707,
    "ificant": 22209,
    "Ġghostly": 24650,
    "mistak": 16877,
    "Ġsummit": 7731,
    "Ġfond": 4755,
    "Ġparis": 8179,
    "explanations": 25234,
    "Ġraised": 4661,
    "dilig": 17281,
    "Ġpeasants": 12329,
    "Ġinstructing": 3124,
    "ignorance": 17160,
    "Ġdisease": 14256,
    "¥": 103,
    "musket": 25341,
    "Ġcurtains": 22963,
    "Ġgratefully": 20443,
    "offended": 16392,
    "jointed": 24009,
    "ogra": 4574,
    "Ġpartiality": 9396,
    "Ġused": 2059,
    "reated": 10301,
    "_;": 6640,
    "Ġjan": 11759,
    "Ġdigging": 14936,
    "Ġres": 696,
    "Ġvic": 5236,
    "Ġcraggy": 23526,
    "moby": 8536,
    "urbed": 15705,
    "Ġmild": 4147,
    "Ġarts": 11007,
    "Ġporpoise": 7106,
    "Ġtin": 15461,
    "Ġpreserving": 19795,
    "#": 7,
    "Ġjudge": 5502,
    "oice": 1384,
    "Ġpreprocessing": 26535,
    "aded": 3554,
    "ick": 837,
    "Ġpervading": 20612,
    "quarters": 24946,
    "ertion": 12036,
    "Ġcoolly": 9770,
    "icit": 3382,
    "Ġlover": 7193,
    "Ġpreservative": 24630,
    "knowing": 10436,
    "Ġtombed": 25160,
    "Ġerrone": 14428,
    "early": 20117,
    "Ġsuper": 2153,
    "Ġexamples": 2607,
    "Ġstanzas": 21742,
    "bore": 13684,
    "Ġdesp": 3217,
    "Ġsuccess": 3613,
    "Ġfiddle": 25444,
    "rapidly": 15241,
    "partner": 19221,
    "Ġpondering": 17004,
    "billows": 20235,
    "keeper": 5596,
    "Ġright": 1505,
    "rity": 13774,
    "worth": 8626,
    "ulate": 5233,
    "Ġenormous": 5608,
    "Ġmem": 2069,
    "lect": 1223,
    "Ġgipsies": 12405,
    "oin": 17616,
    "ans": 458,
    "ipotence": 22354,
    "Ġcircles": 7967,
    "Ġpictured": 16621,
    "Ġcase": 1940,
    "mult": 8747,
    "squall": 13520,
    "leviathans": 19936,
    "Ġwindings": 18909,
    "Ġpovelson": 26551,
    "afric": 19178,
    "perpet": 14160,
    "besides": 8695,
    "Ġferocity": 16870,
    "Ġpens": 21458,
    "Ġlanterns": 24576,
    "isons": 17849,
    "Ġinvested": 7279,
    "Ġ177": 13410,
    "Ġanatomical": 15074,
    "Ġvintage": 26209,
    "Ġunpitying": 25660,
    "opinion": 10983,
    "aught": 2682,
    "Ġgrapp": 14099,
    "Ġcards": 7580,
    "Ġbusks": 23336,
    "Ġsets": 8773,
    "Ġtalker": 23367,
    "miles": 10711,
    "ested": 3482,
    "Ġranged": 10256,
    "Ġmoisture": 12356,
    "umn": 5835,
    "papers": 12498,
    "Ġsavesoul": 26227,
    "Ġlest": 6395,
    "Ġmarshalled": 25315,
    "æ": 167,
    "Ġcoiling": 12901,
    "Ġanchored": 17438,
    "Ġoverpowered": 15286,
    "Ġthousands": 6748,
    "Ġcaulking": 20292,
    "Ġcracking": 14572,
    "Ġpag": 6011,
    "action": 3731,
    "hoping": 17565,
    "ign": 1705,
    "word": 2488,
    "vocabulary": 25085,
    "relieved": 13273,
    "Ġsuperlative": 26074,
    "moving": 11015,
    "Ġresembled": 18033,
    "Ġpatent": 11960,
    "Ġclothing": 18423,
    "Ġcornelius": 13571,
    "Ġtake": 1577,
    "Ġvesuvius": 26500,
    "Ġmakes": 3655,
    "etieth": 21582,
    "Ġspasmodically": 17312,
    "dict": 15337,
    "nment": 20989,
    "izard": 10878,
    "Ġjer": 6266,
    "Ġsignification": 19201,
    "Ġfragment": 14504,
    "boy": 4738,
    "Ġwines": 21286,
    "pron": 9004,
    "Ġfatigued": 13463,
    "Ġpurest": 14937,
    "Ġunmingled": 18263,
    "Ġfountains": 13501,
    "Ġphilips": 5410,
    "Ġlearn": 365,
    "Ġ80": 24455,
    "Ġperpet": 7644,
    "Ġ85": 24459,
    "Ġlithe": 24668,
    "Ġblo": 2735,
    "Ġ25": 13192,
    "vanity": 24976,
    "Ġconditions": 8307,
    "del": 4078,
    "Ġaccelerate": 23224,
    "aet": 15305,
    "ceremony": 20588,
    "Ġinterference": 8893,
    "slouched": 24556,
    "aph": 10953,
    "Ġmaintenance": 17460,
    "Ġsn": 2951,
    "Ġtoken": 2037,
    "extensive": 18707,
    "exe": 11786,
    "office": 16391,
    "Ġalman": 21779,
    "Ġresp": 2494,
    "Ġprovinc": 16741,
    "Ġexper": 1275,
    "Ġsleepers": 13147,
    "outon": 12799,
    "Ġmischie": 22758,
    "88": 20757,
    "Ġep": 7385,
    "Ġentertaining": 16925,
    "Ġterribly": 10424,
    "Ġaccommodate": 20516,
    "Ġ59": 24326,
    "Ġconsult": 6057,
    "suited": 22639,
    "chambers": 25454,
    "Ġmeets": 7396,
    "Ġblaze": 16217,
    "violets": 23542,
    "Ġnodes": 1968,
    "Ġexquisitely": 20201,
    "Ġglobular": 19010,
    "Ġbloom": 9886,
    "princ": 8620,
    "xi": 17709,
    "Ġstubborn": 10415,
    "Ġappar": 7411,
    "Ġobstinacy": 17419,
    "ding": 1232,
    "insanity": 23065,
    "hateful": 20908,
    "stump": 21651,
    "straight": 9938,
    "Ġapproxim": 1218,
    "eked": 16398,
    "Ġrecompense": 14836,
    "Ġremove": 7499,
    "ran": 11514,
    "Ġarrangement": 2660,
    "Ġshade": 6550,
    "disinterested": 23499,
    "Ġmonosy": 18850,
    "Ġchiselled": 25559,
    "collins": 6916,
    "Ġfollows": 7673,
    "Ġke": 1158,
    "ny": 4019,
    "Ġdiana": 21435,
    "Ġcruisings": 25864,
    "Ġinfamous": 16361,
    "Ġsensitive": 13197,
    "Ġmemo": 18117,
    "Ġpell": 21454,
    "justified": 19003,
    "Ġcelebrated": 13592,
    "dorff": 15235,
    "Ġpalsy": 25778,
    "Ġfright": 3800,
    "Ġreverend": 15257,
    "injustice": 17736,
    "perse": 15897,
    "Ġcharacteristics": 8609,
    "versed": 9823,
    "Ġobtain": 8913,
    "Ġvide": 10249,
    "Ġmelt": 21316,
    "aside": 10190,
    "Ġbennets": 9804,
    "omeness": 18015,
    "ress": 930,
    "Ġattends": 19649,
    "shel": 11927,
    "sander": 11525,
    "linearity": 1649,
    "Ġuncles": 23429,
    "Ġwhitney": 11372,
    "Ġdropout": 1558,
    "Ġsharing": 3479,
    "Ġsanguine": 25928,
    "oun": 484,
    "Ġsunset": 8961,
    "ileries": 18058,
    "Ġsanta": 26419,
    "rates": 21037,
    "Ġerr": 1322,
    "aurs": 20768,
    "Ġchorus": 10945,
    "Ġdeliberately": 10623,
    "Ġmishap": 20575,
    "Ġnotes": 7189,
    "uc": 1875,
    "writ": 16552,
    "Ġcarpet": 9354,
    "chat": 21684,
    "Ġcreator": 7254,
    "agree": 14065,
    "ivable": 10909,
    "Ġpolice": 4675,
    "mblance": 7323,
    "Ġpunctually": 17137,
    "Ġfeedforward": 2326,
    "Ġtepid": 26411,
    "magistrate": 19862,
    "Ġmeta": 3369,
    "rugged": 6849,
    "Ġmachinery": 20483,
    "circumstances": 8047,
    "oved": 5215,
    "Ġchaps": 14178,
    "Ġenchanting": 17038,
    "Ġunconscious": 9545,
    "Ġbased": 3341,
    "whole": 6086,
    "cele": 21623,
    "Ġinherited": 25353,
    "Ġcheerful": 6621,
    "Ġfrosty": 14933,
    "Ġexcuses": 19044,
    "Ġcommis": 22669,
    "vely": 3869,
    "Ġlanyard": 26460,
    "Ġgloried": 22985,
    "Ġconse": 21802,
    "Ġcrush": 9420,
    "t": 88,
    "sweep": 24618,
    "Ġakin": 15493,
    "Ġcolle": 8921,
    "Ġnomine": 26455,
    "Ġcivilly": 19602,
    "Ġreduce": 7943,
    "now": 547,
    "smile": 23903,
    "anguish": 15980,
    "ee": 1659,
    "Ġinvective": 26181,
    "swim": 16778,
    "Ġexecution": 6927,
    "Ġcod": 8412,
    "inno": 10755,
    "Ġdomes": 23665,
    "Ġarrow": 10930,
    "hester": 9630,
    "Ġaffability": 14385,
    "Ġfirmly": 8014,
    "limbs": 20190,
    "destruction": 11255,
    "shake": 22448,
    "boards": 23253,
    "an": 278,
    "Ġvexed": 9992,
    "Ġdeceived": 6544,
    "its": 1151,
    "Ġneglect": 7942,
    "Ġstarting": 7729,
    "Ġcompare": 9301,
    "Ġsilken": 16375,
    "ill": 447,
    "Ġdiverse": 19207,
    "Ġaffords": 16733,
    "Ġforwarded": 19045,
    "Ġurged": 6781,
    "Ġclinched": 17392,
    "Ġthrew": 3976,
    "Ġbenefit": 8294,
    "ily": 1032,
    "Ġunmindful": 22064,
    "attery": 18497,
    "treatment": 20410,
    "drew": 7334,
    "Ġsharper": 17178,
    "inv": 8401,
    "Ġspades": 12792,
    "portent": 25412,
    "ping": 9614,
    "Ġsympathies": 14859,
    "kitchen": 17584,
    "Ġpemberley": 4589,
    "Ġgallant": 8654,
    "smo": 10124,
    "str": 2579,
    "Ġchowder": 10279,
    "alty": 17938,
    "supportable": 12367,
    "positive": 20566,
    "Ġobedience": 11412,
    "Ġoce": 3028,
    "Ġumbrell": 13648,
    "cask": 12443,
    "wandering": 20283,
    "impatience": 25500,
    "Ġtren": 17720,
    "cun": 20794,
    "Ġtuples": 13475,
    "Ġexaggerate": 25649,
    "Ġspoon": 22132,
    "ulence": 15762,
    "rive": 9705,
    "Ġverse": 16601,
    "Ġdiscern": 7658,
    "Ġsharks": 4498,
    "indebted": 26158,
    "Ġblasted": 7938,
    "loved": 14249,
    "ago": 14063,
    "Ġamerican": 5061,
    "Ġhandles": 22693,
    "almost": 4943,
    "indirect": 22370,
    "Ġportents": 14678,
    "rew": 3652,
    "Ġcommunicate": 10576,
    "Ġblows": 5973,
    "Ġconstraint": 16512,
    "subjects": 19875,
    "Ġunav": 18240,
    "sne": 10123,
    "anean": 7443,
    "Ġtribe": 10750,
    "Ġ134": 24784,
    "hval": 20897,
    "Ġharpooning": 23976,
    "flagged": 23969,
    "Ġartistic": 18612,
    "Ġdisposal": 19374,
    "Ġannihilation": 15163,
    "convers": 6567,
    "Ġtablet": 19203,
    "Ġriding": 14093,
    "bony": 15317,
    "arth": 4444,
    "arying": 9799,
    "Ġattained": 14076,
    "Ġmeanness": 22594,
    "Ġpondicherry": 20489,
    "our": 534,
    "Ġframework": 1994,
    "Ġhad": 443,
    "Ġpoverty": 9303,
    "kinson": 10024,
    "Ġnonce": 23230,
    "Ġtwitch": 22674,
    "Ġcabman": 14604,
    "Ġdrifted": 14624,
    "Ġexperiment": 11910,
    "Ġmaintained": 12930,
    "Ġforebodings": 17302,
    "L": 48,
    "hard": 4690,
    "Ġplanisp": 24056,
    "Ġbasin": 19847,
    "mindful": 19598,
    "Ġtherein": 11772,
    "Ġwhalers": 8048,
    "vast": 10735,
    "Ġfluttered": 16247,
    "Ġtout": 17718,
    "Ġpeak": 16123,
    "Ġoffences": 18690,
    "uteronomy": 15660,
    "Ġ99": 10744,
    "Ġunusually": 15843,
    "Ġfug": 12591,
    "terrors": 25041,
    "Ġstaggering": 20272,
    "Ġcommod": 10332,
    "faint": 17544,
    "Ġumbrella": 15263,
    "Ġwel": 4527,
    "Ġwight": 12549,
    "Ġhired": 10176,
    "Ġrecomm": 4996,
    "duing": 22409,
    "sculpt": 16242,
    "Ġcocain": 18598,
    "resses": 16149,
    "argue": 21443,
    "Ġdying": 2136,
    "Ġcheck": 7271,
    "Ġannals": 17898,
    "Ġheaviest": 23323,
    "Ġlaying": 7909,
    "retrospect": 23134,
    "Ġpref": 14170,
    "heart": 4526,
    "Ġhideous": 5983,
    "Ġbriefly": 11366,
    "Ġunwarrantable": 26353,
    "Ġropes": 10747,
    "geor": 15975,
    "Ġ57": 24324,
    "Ġrocking": 10968,
    "tray": 21076,
    "allest": 5485,
    "Ġhump": 5853,
    "Ġjoin": 4853,
    "procure": 23393,
    "Ġcomprehending": 24444,
    "Ġfi": 925,
    "Ġillustration": 19135,
    "Ġpreservation": 24631,
    "Ġavast": 9918,
    "matlock": 23468,
    "Ġinvariably": 8064,
    "Ġharmony": 16813,
    "Ġmystical": 12129,
    "mag": 6508,
    "Ġportra": 9007,
    "coloured": 7291,
    "Ġconstitution": 20107,
    "Ġtarred": 23608,
    "inferior": 12391,
    "Ġquery": 2480,
    "analysis": 26173,
    "oting": 2746,
    "Ġextinct": 14338,
    "thine": 15821,
    "gigantic": 15357,
    "Ġinside": 5448,
    "appalled": 18760,
    "Ġlone": 11611,
    "collected": 13211,
    "Ġdevout": 14332,
    "idated": 11659,
    "Ġobliquely": 12359,
    "Ġneed": 2610,
    "ific": 491,
    "erity": 21266,
    "circ": 4389,
    "iating": 3207,
    "Ġneedlessly": 23629,
    "ees": 13709,
    "rear": 21231,
    "confidential": 25876,
    "Ġdisquiet": 18552,
    "Ġnotion": 7883,
    "rederick": 14077,
    "Ġrespected": 11949,
    "reas": 988,
    "Ġhalting": 16271,
    "orting": 9733,
    "Ġsnatches": 16542,
    "Ġpainted": 7979,
    "Ġconceits": 19388,
    "Ġinsepar": 17933,
    "ocations": 23706,
    "lizzy": 6651,
    "grave": 16091,
    "books": 8663,
    "Ġprogra": 1146,
    "Ġprofile": 16486,
    "Ġensl": 19274,
    "Ġcorrection": 5062,
    "eding": 7165,
    "Ġvulgarity": 25363,
    "retreat": 23132,
    "Ġtong": 4870,
    "Ġarmchair": 8271,
    "Ġconcocted": 26299,
    "Ġranks": 21973,
    "Ġstalked": 20427,
    "dering": 5305,
    "Ġfootmarks": 19336,
    "Ġnortheast": 23201,
    "Ġgraces": 18225,
    "Ġextremities": 19194,
    "Ġprayers": 12120,
    "Ġchill": 11749,
    "mun": 20961,
    "restraint": 18979,
    "Ġreceipt": 20354,
    "Ġsort": 1507,
    "Ġantiquity": 15228,
    "appearing": 14636,
    "Ġgoring": 21602,
    "Ġwages": 13852,
    "process": 11147,
    "hangs": 15366,
    "thodox": 21986,
    "magnetic": 20551,
    "ional": 1080,
    "Ġtypes": 8935,
    "Ġmassive": 9930,
    "Ġimmutable": 17356,
    "hello": 13361,
    "Ġantiquities": 25598,
    "barr": 15318,
    "Ġcareless": 11118,
    "Ġmock": 3695,
    "Ġwalking": 4324,
    "Ġafternoon": 6053,
    "Ġterrific": 6754,
    "Ġbriskly": 25311,
    "bearded": 18521,
    "asily": 13944,
    "Ġbutchers": 18272,
    "Ġadmires": 19684,
    "speechless": 25395,
    "Ġlasted": 11052,
    "Ġtus": 10748,
    "Ġpreser": 6041,
    "Ġsold": 6003,
    "ouched": 4637,
    "Ġboiling": 8525,
    "Ġinanimate": 13931,
    "fortune": 4975,
    "ersed": 10258,
    "Ġrecom": 4555,
    "ants": 1391,
    "ĠĠĠĠĠĠĠĠĠĠĠĠĠĠĠĠĠĠĠĠĠĠĠĠĠĠĠĠĠĠĠĠĠĠĠĠĠĠĠĠĠĠĠĠĠĠĠĠĠĠĠĠĠ": 20038,
    "Ġschedu": 1822,
    "Ġtunnel": 14928,
    "Ġutility": 23511,
    "Ġslee": 8973,
    "velled": 9874,
    "chamber": 13623,
    "sc": 1259,
    "fthand": 26385,
    "Ġprogramming": 1185,
    "Ġzig": 18743,
    "mother": 5480,
    "Ġservice": 6471,
    "Ġbermud": 26438,
    "fairly": 17218,
    "Ġwooing": 19432,
    "fallen": 19658,
    "Ġneutral": 12740,
    "Ġalong": 1979,
    "Ġalbatross": 10870,
    "wretched": 10741,
    "Ġrose": 3447,
    "rucastle": 22176,
    "snap": 24848,
    "ensing": 12892,
    "mas": 5212,
    "mankind": 14372,
    "Ġthirdly": 24141,
    "Ġdreams": 7496,
    "Ġoxford": 11370,
    "grees": 20885,
    "hear": 10145,
    "Ġangel": 4852,
    "Ġresponsiveness": 2897,
    "programming": 10061,
    "Ġdesperately": 24656,
    "Ġpointing": 5661,
    "Ġclicked": 22351,
    "oline": 6834,
    "Ġreducing": 1957,
    "Ġconcentration": 25062,
    "ainty": 21785,
    "Ġaction": 5796,
    "Ġtraverse": 18892,
    "Ġdamn": 11157,
    "Ġdeception": 18142,
    "Ġdispleasure": 16049,
    "Ġcheerfully": 12131,
    "entials": 22662,
    "aug": 1213,
    "Ġboldly": 9499,
    "hyena": 24251,
    "define": 1524,
    "Ġunrem": 18244,
    "Ġgaieties": 24194,
    "avoid": 9297,
    "Ġdavy": 25951,
    "Ġcritically": 23444,
    "Ġconfed": 13096,
    "Ġdefinitions": 22942,
    "Ġlarger": 1401,
    "ley": 1815,
    "muring": 17600,
    "sharpening": 22457,
    "wra": 11540,
    "eye": 6224,
    "pest": 6964,
    "Ġsperm": 1843,
    "avail": 18567,
    "Ġrefuse": 5739,
    "final": 19675,
    "Ġcaroline": 7255,
    "Ġvex": 5949,
    "Ġbewil": 11655,
    "Ġchinese": 14182,
    "somerset": 26322,
    "Ġuseless": 7037,
    "ips": 2595,
    "Ġinterests": 14567,
    "takes": 21074,
    "cano": 18844,
    "Ġdistantly": 18532,
    "Ġshorter": 4499,
    "Ġspinal": 12299,
    "Ġtiresome": 26156,
    "ench": 21278,
    "Ġphren": 8571,
    "spout": 7924,
    "Ġcontribute": 12857,
    "Ġeggs": 12339,
    "blows": 17164,
    "Ġaught": 8772,
    "Ġmining": 22829,
    "street": 6495,
    "mut": 17594,
    "Ġscound": 12828,
    "Ġdisappo": 4506,
    "fed": 11486,
    "Ġflow": 1241,
    "Ġpaper": 4284,
    "troubled": 17111,
    "Ġthee": 2626,
    "Ġcaliforn": 14429,
    "ered": 1683,
    "ineering": 21965,
    "osely": 9263,
    "Ġxvi": 19104,
    "Ġhabitual": 24790,
    "Ġgesture": 11398,
    "Ġquadrant": 11403,
    "Ġgall": 4352,
    "Ġamours": 22479,
    "depth": 12796,
    "Ġreduced": 11921,
    "Ġred": 3005,
    "onsensical": 18578,
    "Ġspectrum": 4475,
    "ĠĠĠĠĠĠĠĠĠĠĠĠĠĠĠĠĠĠĠĠĠĠĠĠĠĠĠĠĠĠĠĠĠĠĠ": 19257,
    "sheltered": 25585,
    "Ġcoars": 14270,
    "vulgar": 25918,
    "onom": 9157,
    "Ġtemple": 7653,
    "Ġunrecord": 16620,
    "Ġoften": 1954,
    "Ġapprehending": 26090,
    "ires": 6038,
    "Ġnantucketers": 9893,
    "Ġinitial": 823,
    "Ġincognit": 22553,
    "pike": 11513,
    "Ġcrowder": 19454,
    "Ġrevenge": 5452,
    "Ġthree": 1371,
    "Ġcardboard": 19977,
    "Ġgenerates": 3667,
    "Ġfict": 21403,
    "Ġquarrel": 7292,
    "Ġenjoys": 19448,
    "Ġweedy": 15789,
    "Ġserviceable": 24718,
    "Ġpoets": 11818,
    "peleg": 16291,
    "Ġequinoctial": 20531,
    "Ġcirclings": 26430,
    "Ġconvention": 25546,
    "Ġtrunks": 15968,
    "begins": 18524,
    "Ġexhibited": 9542,
    "pow": 10716,
    "wonders": 17142,
    "Ġshudder": 9049,
    "Ġpsychology": 11447,
    "Ġagrippa": 11804,
    "oura": 1060,
    "Ġmagnet": 10388,
    "Ġand": 296,
    "Ġ51": 24319,
    "Ġpaced": 7583,
    "Ġsustenance": 19932,
    "Ġspecimen": 13019,
    "Ġexultation": 15169,
    "rue": 1130,
    "itu": 1228,
    "Ġtapering": 8770,
    "mind": 4627,
    "direful": 25896,
    "Ġatone": 15799,
    "compared": 24032,
    "teeth": 10353,
    "conc": 3950,
    "Ġmak": 10777,
    "Ġpitiless": 19386,
    "Ġdangers": 12351,
    "gives": 15355,
    "ethe": 9675,
    "everlasting": 18769,
    "ologies": 18790,
    "Ġphrenologically": 20392,
    "movable": 14322,
    "fanning": 20865,
    "Ġmeditations": 25013,
    "ids": 21761,
    "bu": 5132,
    "incom": 21180,
    "vill": 10734,
    "Ġwashing": 9703,
    "gences": 20876,
    "Ġwast": 21858,
    "Ġgemini": 26468,
    "Ġpieces": 7369,
    "scar": 9814,
    "Ġthoroughly": 8348,
    "Ġsubord": 22786,
    "esteemed": 26009,
    "Ġin": 291,
    "Ġnext": 2139,
    "Ġcountless": 16379,
    "Ġbowels": 9428,
    "Ġabsurd": 7202,
    "Ġtelescope": 17346,
    "tumbled": 21089,
    "Ġcrime": 4617,
    "stands": 22428,
    "Ġforesaw": 19127,
    "declaration": 25175,
    "Ġfortunate": 6214,
    "Ġ81": 24456,
    "oding": 1462,
    "Ġbut": 424,
    "Ġroared": 7023,
    "obser": 11098,
    "Ġloafer": 18299,
    "occurred": 13335,
    "Ġlining": 13949,
    "instantly": 7506,
    "Ġsermon": 12373,
    "clean": 14758,
    "Ġcontradicted": 20210,
    "Ġenhancement": 23774,
    "hertfordshire": 10935,
    "obtain": 23091,
    "rapid": 12666,
    "axen": 22519,
    "copper": 19187,
    ",": 16,
    "adler": 21760,
    "Ġpursued": 6328,
    "Ġav": 3586,
    "apply": 18759,
    "Ġdit": 21419,
    "cest": 12441,
    "blog": 19838,
    "Ġtorrid": 25032,
    "Ġpawn": 12061,
    "Ġmaintainable": 12931,
    "Ġcumulative": 4212,
    "bethink": 25744,
    "gaz": 20877,
    "letter": 6201,
    "algorithms": 8291,
    "estations": 22226,
    "Ġhousekeeping": 18943,
    "Ġcurios": 18842,
    "ruction": 4358,
    "Ġancles": 21445,
    "pered": 4198,
    "batch": 1982,
    "Ġeditions": 19120,
    "eminently": 25105,
    "deceit": 25556,
    "ideas": 18583,
    "Ġfowler": 16936,
    "Ġupon": 719,
    "pemberley": 9619,
    "meet": 11853,
    "Ġencourag": 1393,
    "Ġimmense": 4952,
    "risonment": 17373,
    "Ġschedules": 3391,
    "Ġmiracle": 15091,
    "hope": 5990,
    "Ġhovered": 12627,
    "Ġpoem": 22588,
    "Ġseats": 14086,
    "Æ": 135,
    "Ġxi": 16427,
    "wide": 10136,
    "perpendicular": 14161,
    "Ġfiver": 22767,
    "exciting": 19667,
    "propriety": 14362,
    "Ġscandinavian": 26344,
    "Ġintolerably": 15826,
    "fired": 20859,
    "Ġboston": 22636,
    "Ġspecialized": 3923,
    "Ġmonogram": 26573,
    "Ġrhine": 12353,
    "Ġ104": 24411,
    "Ġshoe": 14565,
    "Ġjohn": 5032,
    "especially": 3577,
    "ads": 5718,
    "iber": 6506,
    "Ġwears": 10239,
    "400": 20754,
    "leader": 25351,
    "dislike": 23492,
    "satisf": 5781,
    "Ġkings": 7197,
    "Ġrelationships": 2928,
    "Ġaddressed": 5262,
    "combined": 20319,
    "Ġdefy": 11894,
    "Ġdescend": 7427,
    "Ġporch": 19679,
    "Ġaudience": 24769,
    "Ġhurling": 19110,
    "breast": 11245,
    "Ġweeping": 11684,
    "Ġactuated": 18545,
    "Ġhig": 754,
    "Ġdriver": 16472,
    "//": 11462,
    "deacon": 22145,
    "standard": 22429,
    "Ġcooped": 22582,
    "Ġabstract": 17180,
    "pipe": 8696,
    "Ġsadly": 7302,
    "Ġvirtues": 9934,
    "Ġcannibal": 7774,
    "mant": 20964,
    "lessly": 4556,
    "Ġchivalry": 25819,
    "Ġconsiderations": 9408,
    "soo": 18684,
    "gradient": 2276,
    "ift": 1604,
    "Ġwhich": 502,
    "wand": 10737,
    "Ġlogic": 13075,
    "Ġantagonist": 26328,
    "Ġcurses": 13005,
    "Ġcontinual": 6777,
    "Ġmerit": 9425,
    "roar": 17952,
    "Ġhall": 4184,
    "Ġbusied": 19064,
    "passed": 8026,
    "Ġfrayed": 23292,
    "Ġjesty": 18405,
    "tisement": 6767,
    "Ġnarrowed": 24354,
    "Ġcounterpane": 11342,
    "Ġillustrations": 17107,
    "Ġgrasshopper": 24379,
    "elly": 17979,
    "Ġpropagating": 20632,
    "Ġposition": 1953,
    "Ġcircumstances": 3928,
    "Ġwalls": 6762,
    "Ġheath": 15698,
    "Ġunseen": 3527,
    "crowd": 25254,
    "pitching": 24074,
    "Ġrejected": 12291,
    "ives": 1409,
    "Ġsilk": 11959,
    "counters": 25397,
    "Ġkill": 4455,
    "pips": 21019,
    "meantime": 9090,
    "Ġunchanging": 22043,
    "Ġsherry": 19449,
    "affection": 7487,
    "nett": 16218,
    "aunt": 8370,
    "Ġgenerously": 22390,
    "Ġtrepidation": 19213,
    "Ġgross": 11623,
    "suspicions": 25391,
    "Ġfurnaces": 24003,
    "Ġkentuck": 19890,
    "Ġj": 533,
    "Ġsuspicions": 9477,
    "braces": 24658,
    "Ġpowerful": 1565,
    "Ġgrimes": 11033,
    "Ġhesitate": 16945,
    "drove": 16992,
    "Ġcharnel": 22250,
    "liness": 8746,
    "Ġdignity": 5704,
    "Ġparcels": 25465,
    "Ġpassionate": 11272,
    "whips": 22236,
    "Ġbumping": 25280,
    "conclusions": 25672,
    "unwholesome": 26496,
    "Ġquoted": 22413,
    "Ġfossil": 12384,
    "fs": 17534,
    "oud": 1941,
    "midnight": 14898,
    "conqu": 14243,
    "Ġsom": 1276,
    "deserving": 17240,
    "Ġcocoa": 25482,
    "5": 25,
    "Ġdissembling": 26254,
    "hastening": 24447,
    "oyed": 14364,
    "uce": 11534,
    "Ġvariants": 1791,
    "av": 700,
    "Ġloose": 4649,
    "Ġengage": 9333,
    "Ġshrieking": 24758,
    "Ġpallidness": 25604,
    "iply": 22353,
    "Ġ73": 24259,
    "Ġusher": 22211,
    "Ġsalvation": 14755,
    "breckinridge": 24073,
    "Ġcounsell": 25384,
    "Ġabominate": 20063,
    "Ġscraped": 16902,
    "Ġfolds": 12203,
    "Ġmatches": 14394,
    "Ġtrif": 6269,
    "Ġtriumph": 5143,
    "Ġapples": 22216,
    "unks": 15771,
    "Ġwidespread": 20674,
    "Ġpelt": 15606,
    "Ġmadam": 5663,
    "Ġsphy": 18311,
    "fleet": 15012,
    "Ġapproximation": 2340,
    "habit": 16187,
    "Ġseventy": 7879,
    "Ġrides": 21972,
    "Ġpickle": 16721,
    "Ġfab": 15572,
    "Ġdaring": 8121,
    "Ġdoom": 6417,
    "themselves": 6540,
    "whales": 5187,
    "Ġcask": 5527,
    "Ġenters": 11023,
    "upon": 2723,
    "oder": 2460,
    "ention": 847,
    "numer": 15397,
    "oise": 15401,
    "Ġnum": 1350,
    "Ġsales": 12802,
    "enesis": 24387,
    "Ġspeedy": 11171,
    "Ġwhile": 607,
    "Ġinjunction": 19616,
    "Ġgaunt": 11267,
    "insurance": 18888,
    "Ġsagacity": 16973,
    "_,âĢĻ": 12430,
    "Ġwidely": 8033,
    "avier": 2831,
    "_).âĢĶ": 8681,
    "Ġimposing": 11778,
    "Ġtreasures": 17046,
    "Ġcolour": 4462,
    "!_": 7329,
    "preading": 18499,
    "deformity": 22144,
    "Ġbitt": 10795,
    "wich": 11542,
    "Ġdisgust": 6705,
    "chased": 18041,
    "Ġlighter": 12649,
    "Ġepistle": 24904,
    "Ġreced": 15688,
    "etwork": 441,
    "Ġlivelong": 25511,
    "zwilliam": 5074,
    "Ġscorching": 20066,
    "circumstance": 7764,
    "camp": 15328,
    "ĠĠĠĠĠĠĠĠĠĠĠĠĠ": 22561,
    "Ġconnected": 5393,
    ".âĢĿ": 464,
    "Ġglory": 6065,
    "Ġknights": 15147,
    "Ġorganisation": 23582,
    "strip": 19829,
    "Ġfervently": 25877,
    "Ġdemi": 25548,
    "Ġlany": 21552,
    "Ġthames": 13936,
    "Ġturnpike": 23027,
    "Ġdependencies": 2314,
    "peaceful": 20445,
    "Ġsubfield": 11866,
    "Ġloc": 10913,
    "Ġdeferred": 18825,
    "Ġflames": 7940,
    "cus": 3983,
    "Ġartful": 22607,
    "Ġwaterward": 23364,
    "Ġarchitectures": 2910,
    "Ġrenewal": 12231,
    "apparatus": 26562,
    "Ġcourse": 2131,
    "eng": 1488,
    "Ġdubious": 17381,
    "disappointed": 25191,
    "Ġmountain": 3376,
    "Ġdashes": 21433,
    "Ġstage": 7389,
    "Ġdutch": 6327,
    "Ġcheever": 23280,
    "addressed": 13383,
    "condition": 7058,
    "Ġconvolutions": 21805,
    "Ġsubmitted": 11868,
    "attacks": 23120,
    "limp": 20951,
    "savage": 15073,
    "Ġpalmy": 19497,
    "Ġcommanders": 23866,
    "Ġshout": 4266,
    "Ġkitty": 3912,
    "Ġanomalously": 25638,
    "tracks": 19637,
    "ex": 622,
    "Ġsilent": 3415,
    "Ġrelatives": 12978,
    "Ġstool": 14459,
    "polar": 24584,
    "H": 44,
    "protested": 13472,
    "Ġparticulars": 5754,
    "drowned": 17367,
    "Ġendeared": 26497,
    "fins": 13717,
    "Ġretrogress": 23070,
    "garn": 20869,
    "Ġjovial": 19233,
    "wander": 17708,
    "Ġtransformer": 2640,
    "wall": 10135,
    "Ġconjectured": 9995,
    "looking": 4036,
    "Ġdownwards": 8529,
    "Ġhorrible": 4905,
    "Ġacquired": 13040,
    "Ġindic": 2887,
    "rip": 9239,
    "Ġspace": 1531,
    "Ġoverwhelm": 25052,
    "Ġexpenses": 11833,
    "Ġinfall": 7960,
    "Ġintensely": 17016,
    "ying": 1449,
    "Ġtwee": 22673,
    "fishermen": 17060,
    "grandfather": 25009,
    "re": 266,
    "frequented": 25900,
    "ł": 259,
    "Ġsouls": 6308,
    "Ġrede": 13982,
    "Ġprodigies": 19792,
    "Ġhurt": 7701,
    "Ġexacted": 23602,
    "Ġtoler": 7588,
    "romised": 14110,
    "Ġvisited": 5948,
    "Ġerrors": 2599,
    "Ġrocks": 6863,
    "Ġcousins": 9913,
    "Ġunattended": 15840,
    "Ġbarbara": 24818,
    "Ġsubproblems": 12953,
    "Ġinquirers": 24964,
    "Ġreplen": 11112,
    "Ġdiscount": 22780,
    "Ġslabs": 13057,
    "Ġglobules": 26587,
    "farm": 15349,
    "protected": 19920,
    "hest": 3373,
    "Ġcopies": 24935,
    "uteness": 17985,
    "Ġchurning": 15934,
    "Ġfacet": 15581,
    "Ġgenial": 12191,
    "Ġdestroyed": 5271,
    "Ġrefrain": 12944,
    "Ġimpetuous": 25570,
    "Ġindefatigable": 17176,
    "introduce": 25186,
    "Ġfig": 3628,
    "Ġsob": 12784,
    "Ġcontradictory": 20395,
    "Ġsecretary": 19440,
    "battle": 12439,
    "rd": 17648,
    "Ġa": 263,
    "Ġwarning": 9057,
    "hus": 5072,
    "impl": 21705,
    "Ġgpt": 4351,
    "Ġcast": 3609,
    "Ġemails": 13104,
    "moment": 3583,
    "Ġmoonlight": 9956,
    "kill": 13742,
    "âĢĶ(": 15935,
    "Ġfitly": 23997,
    "mown": 20969,
    "Ġexcellence": 11450,
    "ubbub": 23239,
    "vy": 21106,
    "Ġferocious": 17417,
    "wonted": 13491,
    "Ġadvent": 4357,
    "www": 17250,
    "sad": 11519,
    "Ġreason": 1402,
    "olic": 14042,
    "Ġbroods": 23100,
    "seaman": 25457,
    "Ġderanged": 23170,
    "ism": 4874,
    "Ġtouched": 6001,
    "Ġfixed": 2687,
    "pper": 3210,
    "Ġconcluding": 9855,
    "oons": 12495,
    "Ġmisfortune": 5568,
    "abs": 11665,
    "Ġordained": 19443,
    "ardy": 22154,
    "nar": 12490,
    "Ġharpooned": 13259,
    "Ġforbidden": 17077,
    "quarter": 11387,
    "Ġsubur": 12952,
    "Ġretained": 7173,
    "Ġplease": 4723,
    "l": 80,
    "Ġglared": 13014,
    "Ġcommunicates": 24546,
    "Ġsumatra": 15284,
    "umst": 2505,
    "oded": 11667,
    "injured": 15130,
    "Ġdelicately": 24124,
    "Ġaids": 12225,
    "Ġdaw": 21428,
    "Ġabstracted": 17181,
    "Ġresort": 18563,
    "Ġquite": 1741,
    "Ġdescribing": 19253,
    "sou": 12502,
    "Ġunclad": 22052,
    "thus": 5158,
    "orders": 12869,
    "Ġinscrut": 10032,
    "maintained": 25020,
    "Ġpunctual": 17136,
    "Ġfatt": 15575,
    "with": 1299,
    "lets": 7837,
    "onym": 14648,
    "german": 11490,
    "Ġmoody": 8201,
    "Ġallen": 5160,
    "usable": 22287,
    "shock": 19854,
    "Ġrestrain": 8963,
    "Ġantip": 24175,
    "Ġregards": 16070,
    "Ġunfor": 15836,
    "Ġrehears": 15696,
    "hatchet": 24822,
    "Ġpaternal": 16378,
    "Ġsplashing": 16548,
    "threshold": 21985,
    "Ġwhereupon": 14294,
    "philosophers": 25252,
    "Ġhab": 4219,
    "Ġdozen": 8186,
    "presents": 18797,
    "agation": 1221,
    "Ġappearing": 9839,
    "allah": 5838,
    "restoration": 23232,
    "initely": 7568,
    "Ġfinish": 7949,
    "Ġswish": 23051,
    "Ġbanish": 15566,
    "Ġrecoil": 18693,
    "Ġbursting": 8655,
    "Ġscope": 15940,
    "Ġcork": 12565,
    "Ġsire": 15499,
    "đ": 210,
    "Ġamusing": 11797,
    "Ġphaet": 16315,
    "ay": 355,
    "Ġread": 1447,
    "accustomed": 13155,
    "Ġharp": 17923,
    "adow": 18087,
    "{": 95,
    "gy": 2097,
    "Ġstudents": 23222,
    "Ġmorose": 18848,
    "Ġcharacter": 2795,
    "ars": 904,
    "Ġgas": 8133,
    "Ġyale": 21777,
    "Ġcruises": 23704,
    "Ġexh": 5232,
    "acks": 11785,
    "Ġmaid": 5285,
    "Ġexertions": 13408,
    "Ġsav": 3359,
    "Ġinterposed": 20617,
    "pequod": 7052,
    "finds": 19926,
    "cape": 13695,
    "acy": 3957,
    "Ġpredefined": 20716,
    "confirmed": 19644,
    "Ġreader": 11931,
    "enged": 23143,
    "iii": 14772,
    "mastod": 23971,
    "Ġways": 5396,
    "(_": 7540,
    "Ġconsum": 9797,
    "Ġcalamity": 17347,
    "lilies": 20960,
    "commotion": 24913,
    "Ġuniform": 2230,
    "ingale": 21298,
    "20": 20752,
    "broad": 8642,
    "tied": 21069,
    "Ġpreceding": 7528,
    "ructure": 755,
    "Ġconverted": 16108,
    "Ġbanker": 8666,
    "Ġattempts": 10489,
    "hol": 3841,
    "ĠĠĠĠĠĠĠĠĠĠĠĠĠĠ": 22562,
    "Ġsmiling": 5475,
    "Ġwrecked": 9964,
    "Ġpermission": 9277,
    "Ġask": 1492,
    "Ġorphan": 12380,
    "Ġork": 18284,
    "Ġpartial": 2129,
    "coff": 9107,
    "ording": 9762,
    "Ġexpatiate": 18625,
    "court": 7511,
    "Ġspring": 4122,
    "attempted": 20173,
    "Ġnigh": 4878,
    "ß": 160,
    "readers": 23845,
    "50": 6784,
    "ious": 768,
    "Ġstile": 21730,
    "Ġlivers": 18461,
    "Ġindign": 6173,
    "Ġfriendly": 9818,
    "invested": 17116,
    "Ġquartered": 20371,
    "heartily": 24214,
    "Ġshops": 21999,
    "presbyterian": 26368,
    "Ġimpact": 10292,
    "Ġciv": 3311,
    "asper": 7855,
    "Ġtroops": 24898,
    "Ġtrust": 4081,
    "Ġlascar": 9198,
    "Ġnought": 21520,
    "ourney": 3558,
    "Ġpsalmody": 20583,
    "Ġpaddled": 20200,
    "Ġnodding": 23332,
    "sombre": 23852,
    "Ġblasp": 14399,
    "ĠĠĠĠĠĠĠĠĠĠĠĠĠĠĠĠĠĠĠĠĠĠĠĠĠĠĠ": 14884,
    "Ġinboard": 17932,
    "Ġgrope": 17994,
    "solely": 19815,
    "treated": 21093,
    "Ġkindliness": 23291,
    "overcome": 19052,
    "Ġturbid": 23610,
    "Ġseasons": 9429,
    "Ġthump": 11609,
    "Ġbeing": 1167,
    "beryls": 25309,
    "Ġenumer": 12741,
    "Ġrecall": 3858,
    "Ġlip": 6532,
    "harmony": 25750,
    "beries": 22715,
    "Ġsynd": 22204,
    "independent": 26021,
    "absent": 21788,
    "Ġopportunity": 4786,
    "Ġshadows": 8013,
    "Ġfield": 1222,
    "ien": 10100,
    "Ġencountered": 8322,
    "commer": 22809,
    "mr": 1899,
    "mild": 15389,
    "Ġfiled": 15576,
    "thirst": 15822,
    "iability": 20919,
    "Ġbeaut": 2396,
    "Ġjerk": 16949,
    "reading": 12076,
    "Ġimpudence": 26241,
    "Ġupdates": 1301,
    "sit": 13778,
    "Ġinspirited": 23419,
    "boots": 11125,
    "Ġmatters": 4974,
    "Ġlug": 15648,
    "swimming": 24257,
    "related": 24011,
    "develop": 13516,
    "Ġspies": 22126,
    "belonged": 25597,
    "squee": 15428,
    "bern": 20774,
    "ison": 3075,
    "verse": 9686,
    "red": 396,
    "Ġadvers": 4887,
    "Ġcontracted": 12856,
    "Ġlavater": 20493,
    "overhearing": 19054,
    "Ġfalling": 6915,
    "br": 2479,
    "Ġcom": 368,
    "moil": 22701,
    "Ġpract": 1798,
    "ologically": 22892,
    "Ġalas": 5922,
    "Ġsunwards": 19011,
    "Ġbrooks": 25700,
    "speeches": 25239,
    "Ġlinked": 15075,
    "aples": 20767,
    "Ġfollowing": 4065,
    "Ġcommitted": 7431,
    "Ġastern": 6091,
    "Ġforcing": 3228,
    "Ġpurchases": 24756,
    "Ġmeasure": 3598,
    "Ġbeatrix": 24203,
    "frost": 15104,
    "reng": 4006,
    "Ġox": 7153,
    "Ġhumph": 22879,
    "Ġfulfilment": 20186,
    "Ġscream": 5935,
    "inconsiderable": 21190,
    "Ġcordiality": 24394,
    "Ġking": 2305,
    "Ġoccupies": 24007,
    "Ġconce": 3426,
    "Ġbabes": 24424,
    "Ġapproximate": 2341,
    "observed": 7675,
    "Ġforced": 4353,
    "Ġinteraction": 7424,
    "Ġdiffers": 23780,
    "houses": 9598,
    "Ġcinque": 20484,
    "charmed": 21694,
    "emed": 3385,
    "Ġofficially": 24838,
    "dz": 4739,
    "Ġpiled": 8425,
    "Ġcister": 13880,
    "ighb": 10422,
    "Ġimpulsively": 24880,
    "Ġflog": 23622,
    "Ġaffectation": 14438,
    "clut": 23147,
    "barrel": 17059,
    "Ġcontaining": 2235,
    "Ġtophet": 23572,
    "endeavouring": 15014,
    "Ġgriev": 16633,
    "thing": 1478,
    "escript": 18476,
[...]
