{
  "metadata": {
    "vocab_size": 26616,
    "algorithm": "BPE",
    "created_at": "2026-08-07 04:24:40",
    "special_tokens": [
      "<PAD>",
      "<SOS>",
      "<EOS>",
      "<UNK>",
      "<MASK>"
    ]
  },
  "vocab": {
    "missed": 11211,
    "Ġcommonly": 3264,
    "kindled": 16663,
    "Ġgord": 21603,
    "walk": 5523,
    "greenland": 10024,
    "endeav": 7151,
    "Ġnorris": 23204,
    "Ġcontemptible": 16955,
    "ogr": 18676,
    "Ġmeditations": 25016,
    "Ġmemb": 14032,
    "gument": 20887,
    "Ġabandon": 12262,
    "beginning": 13565,
    "Ġappropriated": 23486,
    "resting": 23239,
    "Ġsay": 931,
    "iving": 1723,
    "Ġdisown": 22528,
    "Ġcongealed": 25982,
    "Ġentic": 16150,
    "anted": 5027,
    "yards": 9626,
    "Ġengagements": 9981,
    "Ġcurtains": 22975,
    "sec": 6153,
    "ought": 829,
    "shame": 16029,
    "Ġmethodology": 2558,
    "bulwarks": 12277,
    "occasion": 7753,
    "Ġhaul": 11696,
    "Ġchorus": 10948,
    "Ġaccomplice": 24376,
    "phur": 16156,
    "Ġcrouching": 23444,
    "Ġknew": 2055,
    "Ġscenes": 5730,
    "Ċ": 203,
    "Ġcruellest": 19661,
    "Ġbrewed": 23349,
    "Ġparticular": 2449,
    "Ġsh": 419,
    "putable": 10903,
    "olly": 3227,
    "examined": 17269,
    "elag": 12663,
    "Ġboister": 12924,
    "ational": 5716,
    "Ġconvul": 13205,
    "Ġmonsie": 11449,
    "Ġguards": 16274,
    "article": 22396,
    "ulled": 14059,
    "est": 501,
    "battle": 12446,
    "vessels": 10628,
    "Ġinsurgents": 26602,
    "Ġinev": 10184,
    "Ġclearer": 16315,
    "Ġcate": 4107,
    "Ġapolog": 9046,
    "Ġattempted": 8001,
    "whip": 22241,
    "attoo": 6807,
    "ative": 743,
    "Ġtackles": 8051,
    "Ġshows": 8484,
    "Ġboarding": 12091,
    "Ġshook": 4471,
    "Ġfurrow": 22818,
    "unnecessary": 21884,
    "Ġdug": 21433,
    "apparat": 22849,
    "Ġryder": 10262,
    "Ġfelony": 18954,
    "Ġarrowy": 25470,
    "tim": 13794,
    "Ġwag": 10777,
    "pect": 1255,
    "dawson": 26129,
    "Ġgardiner": 3240,
    "jack": 7344,
    "Ġcorporeally": 25729,
    "flutterings": 26608,
    "reinforcement": 7826,
    "garnished": 26390,
    "Ġadviser": 25313,
    "susp": 10599,
    "Ġinsipid": 26314,
    "lleg": 20953,
    "Ġmiser": 18704,
    "Ġstig": 14005,
    "Ġreflected": 2911,
    "Ġdance": 4445,
    "Ġsquares": 11171,
    "Ġreaches": 18034,
    "insist": 23067,
    "Ġcomfortable": 6095,
    "Ġburnwell": 13272,
    "Ġtoilette": 20496,
    "insulting": 26056,
    "Ġremark": 2145,
    "ascending": 24706,
    "Ġcanterbury": 22171,
    "ression": 3406,
    "Ġexistence": 4708,
    "pull": 6796,
    "Ġpreprocess": 22237,
    "Ġimpact": 10299,
    "ood": 960,
    "C": 39,
    "Ġhousehold": 8570,
    "Ġsurmises": 17056,
    "Ġvolcanoes": 24148,
    "following": 10575,
    "Ġmappings": 2148,
    "Ġbrass": 11050,
    "Ġalgorith": 566,
    "Ġconcisely": 19045,
    "Ġsentimental": 24753,
    "Ġloos": 15875,
    "critical": 19499,
    "polar": 24584,
    "Ġgrapple": 25812,
    "Ġinvestigation": 9045,
    "unctuous": 21886,
    "Ġcrony": 23441,
    "Ġdinnertime": 16721,
    "Ġbeseeching": 26312,
    "Ġexpose": 10330,
    "sis": 1915,
    "Ġcrystal": 17217,
    "Ġowners": 7663,
    "Ġdivergence": 2724,
    "quakes": 21860,
    "Ġbaronial": 23796,
    "bottom": 11428,
    "discovering": 24254,
    "Ġhostile": 19943,
    "Ġecon": 9680,
    "Ġporthole": 24399,
    "banish": 20784,
    "Ġdup": 21430,
    "ullo": 12734,
    "Ġcompared": 2233,
    "Ġcemet": 20683,
    "Ġcant": 17826,
    "most": 1257,
    "Ġspectators": 19410,
    "accomplishments": 25327,
    "exam": 10978,
    "Ġphiladel": 23888,
    "teen": 6370,
    "Ġshame": 6409,
    "Ġcorrupt": 11927,
    "Ġbonnet": 10658,
    "ĠĠĠĠĠĠĠĠĠĠĠĠĠĠĠĠĠĠĠĠĠĠĠĠĠĠĠĠĠĠĠĠĠĠĠĠĠĠĠĠĠĠĠĠĠĠ": 9956,
    "spring": 7231,
    "wretched": 10743,
    "Ġjonah": 3481,
    "Ġstore": 8455,
    "Ġcommencement": 12243,
    "Ġtotally": 9474,
    "Ġswells": 9830,
    "famous": 16918,
    "te": 995,
    "Ġsoar": 18283,
    "oper": 7347,
    "giv": 13725,
    "loat": 8890,
    "Ġomen": 11579,
    "Ġalterations": 19873,
    "dington": 12070,
    "Ġintolerably": 15833,
    "dreadful": 11423,
    "sense": 11526,
    "Ġsuns": 23275,
    "instances": 13324,
    "Ġpell": 21459,
    "Ġscore": 9741,
    "Ġremoval": 12122,
    "Ġtart": 12532,
    "recollected": 25348,
    "Ġdefine": 9818,
    "roy": 7854,
    "gradually": 12920,
    "Ġdominant": 12400,
    "comparatively": 25841,
    "Ġtended": 21169,
    "idled": 21772,
    "strang": 11185,
    "bucket": 17496,
    "Ġmultiple": 1186,
    "Ġheroism": 24544,
    "Ġmarred": 23035,
    "Ġimprovements": 14526,
    "Ġmumbled": 17809,
    "Ġholder": 6725,
    "mael": 6723,
    "attempted": 20177,
    "Ġcritical": 7474,
    "star": 12677,
    "Ġpleaded": 16302,
    "Ġnonsense": 6982,
    "Ġtropic": 17065,
    "gardiner": 12295,
    "marriage": 7744,
    "Ġsplash": 16552,
    "Ġquery": 2478,
    "unsuitable": 21897,
    "Ġpike": 12628,
    "Ġprincess": 23227,
    "Ġtapers": 11554,
    "Ġnecessity": 7296,
    "Ġfrenchman": 11285,
    "between": 5071,
    "Ġduties": 6610,
    "Ġneedn": 19231,
    "Ġfeebly": 24878,
    "Ġvaried": 11852,
    "Ġeffectually": 16171,
    "Ġmuslin": 19386,
    "Ġmoccas": 22440,
    "Ġpredicted": 2045,
    "bene": 6113,
    "concerted": 16674,
    "Ġdiscriminator": 3391,
    "Ġstoner": 7179,
    "Ġnarrating": 24351,
    "required": 17031,
    "Ġpunch": 9958,
    "Ġpalm": 10516,
    "plete": 10921,
    "ixed": 4853,
    "Ġretreats": 16930,
    "Ġgratify": 19506,
    "Ġspeculations": 23001,
    "Ġascribe": 16784,
    "Ġrucastles": 18722,
    "somers": 19371,
    "Ġjesty": 18406,
    "Ġfails": 13318,
    "learn": 2363,
    "Ġbeaten": 10531,
    "Ġfeatureless": 22615,
    "Ġsanely": 24983,
    "stay": 9684,
    "Ġunrivalled": 26521,
    "Ġcloudless": 16671,
    "arial": 5532,
    "specim": 23947,
    "reement": 15514,
    "Ġprev": 6265,
    "Ġmult": 1022,
    "Ġsoftmax": 1687,
    "Ġreinforcement": 3422,
    "inex": 14099,
    "Ġdemig": 20359,
    "Ġamend": 16040,
    "Ġsuffered": 5649,
    "Ġtending": 17726,
    "performed": 18345,
    "Ġwantonly": 22897,
    "Ġliving": 3065,
    "Ġdears": 18139,
    "spoke": 11025,
    "Ġescaping": 13139,
    "Ġhappily": 9334,
    "Ġstir": 5824,
    "Ġcontrasting": 11156,
    "variety": 23189,
    "Ġabstracted": 17185,
    "Ġtrinity": 22350,
    "atisf": 21266,
    "Ġ69": 19664,
    "pled": 7892,
    "ped": 6963,
    "bus": 5355,
    "Ġscraping": 13420,
    "Ġfinding": 3265,
    "Ġprodigy": 19795,
    "Ġwear": 6031,
    "aried": 10990,
    "conscientious": 19629,
    "Ġrepresents": 4903,
    "Ġdiadem": 24740,
    "cook": 8270,
    "Ġter": 2051,
    "Ġsmile": 4273,
    "Ġhears": 8139,
    "idly": 12705,
    "Ġinvestment": 24332,
    "joined": 13280,
    "nut": 12499,
    "Ġnations": 8814,
    "Ġsoil": 9258,
    "alf": 4640,
    "splice": 17173,
    "Ġproper": 1378,
    "Ġprynne": 25541,
    "chari": 21692,
    "Ġxxxii": 24973,
    "lected": 1636,
    "perse": 15904,
    "igns": 8449,
    "Ġjavelins": 26106,
    "Ġbreadth": 10566,
    "E": 41,
    "lift": 15388,
    "ial": 410,
    "Ġ112": 24437,
    "Ġtrained": 8504,
    "Ġavalanche": 17436,
    "Ġinterrupt": 4362,
    "Ġelemental": 19921,
    "straight": 9943,
    "uts": 8820,
    "hullo": 17572,
    "Ġhusbands": 16645,
    "alizing": 17942,
    "eline": 2295,
    "idean": 14265,
    "vib": 21118,
    "Ġtertiary": 15298,
    "Ġembodiment": 20531,
    "landed": 18957,
    "^": 66,
    "Ġsacrilege": 26230,
    "points": 14396,
    "science": 11913,
    "Ġtroubles": 19442,
    "cially": 3490,
    "exceedingly": 9569,
    "agonies": 21913,
    "sets": 17662,
    "reat": 619,
    "_âĢĶâĢĿ": 20765,
    "Ġindist": 14412,
    "pidation": 18898,
    "know": 2320,
    "smiles": 14694,
    "ousness": 10277,
    "warnings": 20354,
    "title": 17290,
    "ander": 6400,
    "Ġbacked": 12929,
    "mel": 9130,
    "unken": 10239,
    "abash": 18110,
    "steak": 14710,
    "fit": 6647,
    "Ġconcept": 660,
    "Ġlamentations": 17077,
    "venant": 22630,
    "employ": 10897,
    "Ġapprehended": 26091,
    "correspond": 13402,
    "Ġchatbots": 11351,
    "ĠâĢľ": 516,
    "Ġvaults": 17156,
    "Ġpresently": 5116,
    "Ġmat": 1149,
    "azore": 23464,
    "1": 21,
    "Ġcocaine": 20723,
    "Ġindependent": 9019,
    "Ġsy": 491,
    "Ġtask": 1310,
    "Ġproceeding": 9909,
    "Ġastonishment": 4795,
    "importance": 9992,
    "Ġgipsies": 12412,
    "Ġcherish": 10592,
    "genteel": 19952,
    "Ġlandau": 16423,
    "Ġinspecting": 24614,
    "Ġelij": 8912,
    "Ġterm": 2270,
    "Ġnetherfield": 3929,
    "Ġcomparable": 24281,
    "Ġadmirably": 16483,
    "Ġsituations": 10494,
    "uncommon": 11685,
    "Ġunrel": 14697,
    "Ġscent": 10287,
    "Ġmealy": 18121,
    "Ġenterprise": 8645,
    "Ġpianoforte": 15277,
    "cules": 12395,
    "Ġmud": 11576,
    "gree": 10703,
    "Ġunprofitable": 18268,
    "Ġsoph": 1623,
    "Ġlucases": 9013,
    "rece": 21237,
    "Ġencl": 16170,
    "Ġreverse": 16984,
    "Ġlend": 17965,
    "Ġcretan": 22729,
    "Ġwasted": 9707,
    "Ġcomforter": 20510,
    "ikes": 8087,
    "Ġtubs": 11372,
    "Ġresigned": 9771,
    "cries": 17513,
    "Ġfruit": 12330,
    "Ġspecies": 5112,
    "Ġlest": 6394,
    "ills": 1628,
    "Ġforeb": 12008,
    "ppers": 7618,
    "Ġplayed": 9419,
    "estic": 4956,
    "Ġvapor": 8703,
    "wicked": 24449,
    "allen": 22200,
    "bearings": 25372,
    "Ġlaudanum": 20693,
    "tri": 11532,
    "ensions": 14261,
    "Ġadieus": 25113,
    "ived": 1531,
    "Ġcogn": 11004,
    "ands": 21870,
    "Ġamuse": 5940,
    "equ": 6790,
    "Ġincidents": 9302,
    "slo": 17658,
    "Ġheld": 3586,
    "Ġhighly": 4846,
    "Ġmadman": 13155,
    "stolen": 13985,
    "Ġmanage": 7641,
    "isol": 17848,
    "quin": 21857,
    "sixty": 24853,
    "niest": 19017,
    "concerns": 24071,
    "grat": 5052,
    "univers": 15776,
    "reading": 12084,
    "lop": 20950,
    "globe": 25145,
    "Ġartfully": 22610,
    "overcome": 19051,
    "distinguished": 10529,
    "Ġturks": 14599,
    "oir": 21004,
    "Ġcontained": 7679,
    "travellers": 24339,
    "Ġunwound": 24829,
    "Ġearthy": 23714,
    "Ġbehind": 2807,
    "salesman": 20674,
    "feel": 3812,
    "Ġunfl": 22024,
    "Ġfaults": 12217,
    "Ġguess": 4904,
    "play": 5099,
    "Ġtiresome": 26157,
    "Ġwalking": 4325,
    "Ġdigesting": 19812,
    "orse": 5807,
    "Ġminority": 18754,
    "elze": 21576,
    "Ġresounded": 22548,
    "Ġbowls": 23773,
    "Ġprepar": 7897,
    "Ġcomparative": 10545,
    "iction": 4270,
    "bered": 4507,
    "Ġhart": 17924,
    "Ġyankees": 26203,
    "grace": 5847,
    "Ġjem": 18403,
    "affa": 23779,
    "eled": 2358,
    "reed": 6373,
    "Ġplayfulness": 23638,
    "trivial": 21095,
    "brÃ¦": 11177,
    "Ġglimmering": 25241,
    "ustry": 18360,
    "Ġunintellig": 22030,
    "Ġslang": 23161,
    "Ġexhibiting": 19841,
    "Ġmarlingspike": 26581,
    "Ġrail": 7226,
    "Ġcredited": 25157,
    "ositions": 10286,
    "Ġlunacy": 20031,
    "Ġthine": 7374,
    "Ġaccounting": 14573,
    "Ġeconomically": 25289,
    "Ġevaluate": 2856,
    "inked": 12918,
    "Ġbranch": 8332,
    "oric": 21399,
    "Ġuninjured": 22060,
    "Ġvile": 8474,
    "orable": 8120,
    "Ġplaster": 16087,
    "Ġawakened": 10455,
    "forever": 22523,
    "crimes": 16686,
    "Ġcanallers": 13631,
    "ignation": 11130,
    "therefore": 5954,
    "B": 38,
    "Ġnamed": 6140,
    "bred": 11471,
    "Ġmoses": 21318,
    "Ġvacant": 9498,
    "Ġedge": 5189,
    "Ġtutored": 20131,
    "51": 12435,
    "Ġunfathomable": 20551,
    "Ġancient": 5443,
    "icy": 6141,
    "Ġflorid": 17138,
    "Ġbrilliantly": 25123,
    "Ġsaxon": 25469,
    "idav": 18095,
    "Ġappearances": 10453,
    "Ġpriests": 15043,
    "Ġplaying": 6908,
    "Ġneat": 6999,
    "Ġsaid": 576,
    "Ġer": 8105,
    "intosh": 22943,
    "acca": 23599,
    "complexion": 14363,
    "Ġneskyeuna": 26461,
    "Ġhandling": 8916,
    "sively": 13789,
    "Ġpanting": 11606,
    "Ġprevious": 2090,
    "Ġloungers": 24863,
    "dient": 440,
    "Ġrudimental": 25111,
    "Ġcapacious": 19178,
    "Ġnon": 1624,
    "iliating": 12700,
    "Ġatrocious": 21947,
    "Ġhackney": 20436,
    "Ġdismantled": 20219,
    "Ġhatherley": 7849,
    "Ġvapory": 17008,
    "Ġupon": 718,
    "Ġreputation": 11643,
    "wander": 17711,
    "Ġroods": 22408,
    "Ġdesper": 6177,
    "Ġenhance": 2962,
    "Ġkelson": 18351,
    "Ġprivate": 5346,
    "Ġknots": 15011,
    "Ġdeline": 16337,
    "Ġafterwards": 3531,
    "impl": 21710,
    "seeking": 17155,
    "Ġindicates": 3197,
    "ersman": 11703,
    "Ġkinds": 14504,
    "Ġdevil": 3613,
    "Ġsimil": 2528,
    "Ġcurbstone": 26043,
    "Ġoutweigh": 22326,
    "Ġelucidated": 26030,
    "Ġperfection": 19221,
    "Ġmorsel": 20680,
    "Ġcomposed": 8895,
    "trial": 20353,
    "fowl": 17551,
    "construction": 19781,
    "Ġshe": 466,
    "Ġtransf": 22441,
    "waist": 13422,
    "Ġincalcul": 16067,
    "isition": 11589,
    "disappo": 8987,
    "Ġard": 5164,
    "Ġimpression": 5732,
    "Ġconsistence": 23359,
    "Ġaff": 1118,
    "our": 534,
    "Ġinquiring": 9002,
    "downstairs": 23923,
    "Ġleisure": 6540,
    "request": 21244,
    "Ġglove": 14493,
    "Ġpersecut": 16954,
    "holder": 13287,
    "Ġlarboard": 11011,
    "Ġcarefully": 6305,
    "Ġapproaching": 6284,
    "Ġlargely": 14288,
    "Ġarches": 14163,
    "Ġsadly": 7302,
    "Ġprevent": 758,
    "Ġdimly": 9491,
    "Ġhar": 5815,
    "Ġhead": 1123,
    "Ġpew": 9318,
    "Ġcrowd": 6337,
    "special": 14707,
    "Ġpurplish": 19142,
    "Ġ11": 5319,
    "Ġdoctor": 5067,
    "Ġbundles": 26176,
    "Ġscreams": 24604,
    "vis": 4579,
    "Ġsoundings": 13137,
    "ilted": 21726,
    "Ġaffectionately": 13172,
    "attachment": 13057,
    "Ġchin": 4892,
    "Ġeggs": 12346,
    "Ġjustified": 11908,
    "Ġextravag": 11255,
    "Ġanatomy": 12324,
    "beam": 16042,
    "Ġkiller": 19571,
    "Ġclear": 1948,
    "Ġglimp": 6066,
    "ending": 1990,
    "Ġsquaring": 22843,
    "elson": 16372,
    "Ġrevolut": 3258,
    "common": 4126,
    "Ġremembering": 14611,
    "Ġprevention": 16097,
    "Ġsuppressed": 11915,
    "rule": 15898,
    "Ġstair": 8457,
    "furn": 10094,
    "comput": 1961,
    "Ġchronic": 9932,
    "Ġannesley": 19580,
    "unned": 21882,
    "Ġsig": 867,
    "sailor": 14717,
    "irmed": 9242,
    "Ġdrawn": 4277,
    "Ġzig": 18745,
    "loaded": 22514,
    "Ġconcernment": 23646,
    "true": 2584,
    "bury": 9110,
    "Ġfanny": 23394,
    "Ġyoun": 1406,
    "Ġatmosphere": 10899,
    "caus": 11478,
    "apart": 15965,
    "maltese": 24794,
    "changed": 7176,
    "Ġrejoiced": 8687,
    "ª": 108,
    "ferent": 4193,
    "residual": 19264,
    "Ġactor": 16052,
    "Ġrolling": 5975,
    "itous": 13870,
    "Ġabsor": 8506,
    "Ġintroduce": 3208,
    "ruded": 15901,
    "Ġstrata": 26028,
    "awned": 19463,
    "inative": 15487,
    "Ġjustify": 11074,
    "Ġoverspread": 14205,
    "Ġnay": 5711,
    "Ġglens": 18856,
    "marvell": 24175,
    "gentlemanlike": 20005,
    "ounce": 6558,
    "itation": 1779,
    "Ġmischie": 22761,
    "seventh": 12719,
    "agos": 21908,
    "Ġgree": 7595,
    "playing": 19660,
    "mit": 4934,
    "pray": 5429,
    "Ġpassive": 22844,
    "Ġstring": 11831,
    "Ġsavor": 23878,
    "Ġsmallest": 6429,
    "Ġmisfortune": 5569,
    "Ġnavies": 16902,
    "Ġhardihood": 23115,
    "Ġmartyr": 26362,
    "abriel": 6949,
    "relics": 24019,
    "Ġprocesses": 3633,
    "Ġattractions": 12921,
    "Ġamongst": 8962,
    "Ġgaff": 17996,
    "Ġshag": 9254,
    "admire": 24946,
    "Ġspots": 11734,
    "desc": 1394,
    "indirect": 22376,
    "measured": 19993,
    "Ġoriginate": 24122,
    "ors": 855,
    "Ġjew": 9470,
    "Ġmounting": 19980,
    "blending": 24130,
    "Ġdesires": 9460,
    "Ġdiscern": 7926,
    "definition": 23121,
    "ĠÂ£": 5006,
    "Ġnoted": 15834,
    "Ġslily": 23166,
    "Ġleaped": 8830,
    "flies": 19427,
    "conceivable": 17133,
    "Ġapparently": 6778,
    "Ġemployment": 8632,
    "Ġbravery": 23840,
    "Ġwander": 9034,
    "lur": 13750,
    "Ġberries": 13411,
    "Ġaccumulated": 11935,
    "ca": 20795,
    "haz": 17566,
    "dz": 4740,
    "shortly": 12263,
    "married": 9952,
    "mile": 17599,
    "ferences": 10329,
    "Ġconnectivity": 3667,
    "forest": 22522,
    "Ġhardened": 14453,
    "asible": 21545,
    "Ġstaid": 21739,
    "Ġbristol": 14383,
    "kindly": 14747,
    "ĠĠĠĠĠĠĠĠĠĠĠĠĠĠĠĠĠĠĠĠĠĠĠĠĠĠĠĠĠĠĠĠĠĠĠĠĠĠĠĠĠĠĠĠĠĠĠĠĠ": 20041,
    "Ġsuccess": 3610,
    "Þ": 159,
    "Ġferry": 24498,
    "popular": 26141,
    "cigar": 26125,
    "Ġbillow": 14783,
    "remarkable": 13501,
    "Ġmore": 677,
    "Ġpolicy": 10459,
    "M": 49,
    "Ġrouse": 15825,
    "holmes": 4434,
    "Ġspared": 7893,
    "Ġwished": 3730,
    "public": 17648,
    "Ġmouth": 3183,
    "Ġbending": 12590,
    "Ġhandsomely": 25498,
    "Ġbelongs": 8015,
    "Ġscene": 3099,
    "Ġdefiance": 11070,
    "sorts": 21063,
    "Ġsaratoga": 26425,
    "Ġcloudy": 19480,
    "scho": 8763,
    "Ġbefell": 14013,
    "Ġsucceeded": 6106,
    "Ġaudio": 24771,
    "Ġfar": 1448,
    "ote": 4598,
    "Ġsupremacy": 20263,
    "Ġmanners": 3791,
    "inferior": 12398,
    ".]": 15302,
    "Ġcheck": 7271,
    "antucket": 2641,
    "Ġcertainty": 6735,
    "Ġseconds": 16398,
    "Ġlaughing": 5339,
    "mons": 17602,
    "Ġma": 3253,
    "joy": 3336,
    "Ġpebbles": 16133,
    "Ġberths": 20118,
    "Ġlining": 13954,
    "Ġmah": 15545,
    "devils": 20036,
    "Ġrav": 14311,
    "Ġsalad": 19482,
    "Ġassuming": 16694,
    "Ġsoapstone": 20514,
    "apidated": 22340,
    "Ġflexible": 23778,
    "Ġqual": 6275,
    "ceremony": 20593,
    "Ġhaws": 21955,
    "Ġdeified": 18140,
    "Ġgaunt": 11270,
    "Ġlac": 17967,
    "mistak": 16880,
    "Ġgould": 17992,
    "Ġarr": 1798,
    "oned": 4632,
    "Ġopen": 1547,
    "mosphere": 10046,
    "Ġfiss": 21415,
    "Ġoccasionally": 5590,
    "Ġobeisance": 19761,
    "children": 9058,
    "Ġdelicacy": 6341,
    "Ġunex": 11717,
    "Ġdishon": 12235,
    "dutch": 17221,
    "Ġflag": 7242,
    "keeping": 8638,
    "Ġanx": 3184,
    "vain": 15450,
    "lyph": 10854,
    "Ġresolutely": 14610,
    "carb": 20812,
    "Ġarchy": 14350,
    "visitor": 15060,
    "Ġincognit": 22558,
    "whaleman": 23439,
    "Ġcerem": 7078,
    "wag": 21126,
    "'s": 2469,
    "ssed": 3736,
    "Ġdrove": 4984,
    "Ġdevoured": 16139,
    "unwillingly": 21888,
    "Ġjacobian": 2893,
    "Ġremoter": 20109,
    "Ġdrawled": 23992,
    "Ġdiscoloured": 15256,
    "Ġpri": 5814,
    "ature": 520,
    "Ġ182": 13242,
    "Ġclutching": 24954,
    "Ġshall": 1142,
    "Ġalbatross": 10873,
    "Ġnocturn": 18376,
    "ruck": 6847,
    "singular": 12193,
    "Ġspeedily": 7711,
    "Ġcaved": 21356,
    "ke": 429,
    "Ġwhiff": 21721,
    "Ġinfamous": 16395,
    "combined": 20323,
    "ourage": 2451,
    "Ġdazed": 15600,
    "Ġentirely": 3434,
    "Ġparalle": 1408,
    "Ġgoverning": 2795,
    "Ġsnatches": 16547,
    "rings": 10724,
    "Ġdetermined": 2226,
    "ilent": 21723,
    "Ġporch": 19683,
    "Ġoffence": 12949,
    "Ġadversarial": 5607,
    "floated": 24644,
    "benevolent": 15237,
    "Ġhessian": 3549,
    "thither": 21987,
    "Ġwrench": 12562,
    "Ġpassages": 12975,
    "hist": 7131,
    "Ġprivileges": 25135,
    "Ġwigwam": 11430,
    "obst": 11936,
    "afraid": 10443,
    "Ġnur": 5710,
    "Ġmer": 2932,
    "imble": 10860,
    "tisement": 6767,
    "shows": 22462,
    "arled": 21445,
    "Ġsays": 3562,
    "Ġdisgra": 18550,
    "Ġceasing": 23760,
    "reeable": 3612,
    "Ġmatlock": 18803,
    "hun": 5210,
    "Ġcomposure": 7217,
    "turned": 7306,
    "iah": 14420,
    "oting": 2740,
    "contin": 16545,
    "Ġjust": 1238,
    "aper": 4999,
    "expense": 22433,
    "colnett": 19332,
    "Ġregularizer": 2340,
    "ogene": 18677,
    "twist": 23703,
    "depart": 12270,
    "heavy": 10577,
    "Ġregiment": 6431,
    "Ġ58": 24322,
    "Ġdisc": 942,
    "fastened": 19327,
    "Ġblooming": 17215,
    "Ġconnected": 5393,
    "Ġeagerness": 6609,
    "Ġplaymate": 23639,
    "philosop": 9570,
    "Ġwavering": 23282,
    "explained": 23147,
    "Ġtransformations": 3485,
    "Ġconstruct": 23344,
    "Ġobst": 6285,
    "Ġswimming": 5507,
    "Ġmamm": 25093,
    "Ġdeuteronomy": 15764,
    "allows": 15911,
    "Ġsands": 14950,
    "Ġviciss": 11294,
    "Ġbat": 10797,
    "Ġinterest": 2252,
    "Ġdetect": 1205,
    "Ġ270": 25133,
    "Ġathirst": 20601,
    "father": 3777,
    "terns": 21826,
    "Ġparl": 8178,
    "Ġane": 9184,
    "assured": 10955,
    "Ġconversing": 14634,
    "Ġholiest": 18814,
    "Ġroot": 2647,
    "erman": 5108,
    "Ġal": 342,
    "Ġdismember": 20218,
    "Ġfate": 4755,
    "Ġimm": 3963,
    "Ġreflections": 5947,
    "?âĢĶ": 3469,
    "Ġconsented": 11297,
    "Ġoysters": 20582,
    "00": 1608,
    "Ġnoble": 3440,
    "Ġdaughters": 4425,
    "inioned": 19288,
    "Ġenchanted": 9083,
    "insult": 16283,
    "Ġchooses": 13351,
    "Ġepic": 15032,
    "terms": 15755,
    "Ġfoundling": 22978,
    "Ġtemporary": 7981,
    "Ġsa": 474,
    "Ġninetieth": 25358,
    "bowl": 14893,
    "eronomy": 15528,
    "Ġmonsieur": 12425,
    "Ġloomed": 12305,
    "Ġeveryone": 8921,
    "Ġdark": 2113,
    "reel": 21236,
    "Ġissuing": 16950,
    "Ġrolls": 8334,
    "language": 5129,
    "Ġescaped": 6458,
    "whaler": 20312,
    "Ġholds": 7976,
    "abby": 14024,
    "ckled": 9260,
    "Ġenlist": 21940,
    "Ġsquall": 7044,
    "Ġharder": 14452,
    "hroom": 12481,
    "Ġplough": 18609,
    "elve": 4643,
    "sleepers": 24729,
    "Ġproportionably": 19974,
    "Ġpitied": 14693,
    "²": 115,
    "at": 268,
    "pretend": 24883,
    "accur": 14594,
    "Ġbodiless": 24229,
    "Ġmisgivings": 15295,
    "ade": 881,
    "Ġbead": 21754,
    "Ġwait": 4908,
    "Ġrobert": 10972,
    "Ġsharply": 9406,
    "Ġwhirled": 14962,
    "._]]": 5335,
    "Ġripple": 25505,
    "Ġtemporarily": 11169,
    "Ġdenote": 19335,
    "Ġnoiselessly": 22865,
    "Ġrambling": 18647,
    "nar": 12498,
    "Ġcontrast": 2120,
    "Ġtissu": 25921,
    "reputation": 15518,
    "Ġantichron": 24184,
    "instinct": 19546,
    "Ġgeneration": 2205,
    "ery": 1267,
    "pine": 13772,
    "iforn": 14067,
    "sockets": 22732,
    "Ġtraverse": 18893,
    "Ġaudacious": 13464,
    "Ġhither": 4760,
    "Ġapproxim": 1217,
    "Ġperched": 10302,
    "grew": 17557,
    "Ġcrash": 12006,
    "ulnerable": 18153,
    "Ġsingled": 23775,
    "Ġagonized": 25373,
    "zy": 2666,
    "antingly": 22102,
    "Ġlowermost": 23245,
    "Ġbounding": 19403,
    "Ġnurtured": 19752,
    "ench": 21282,
    "Ġtimbers": 14841,
    "Ġcrossing": 7252,
    "Ġcontent": 5034,
    "agation": 1242,
    "Ġ85": 24460,
    "Ġstately": 9837,
    "igger": 21703,
    "Ġmolasses": 25629,
    "Ġlangs": 13957,
    "ishes": 6522,
    "Ġappetite": 12388,
    "Ġaccordingly": 6621,
    "Ġhangs": 11609,
    "Ġleap": 5825,
    "ateg": 1306,
    "Ġhabits": 6925,
    "Ġawaiting": 11392,
    "ided": 2784,
    "Ġmechanis": 1230,
    "Ġlik": 2520,
    "Ġlodgings": 8312,
    "Ġrepent": 9866,
    "tling": 9145,
    "servant": 15038,
    "contents": 12062,
    "objections": 19918,
    "Ġtrailing": 23082,
    "Ġangles": 23590,
    "Ġhole": 6079,
    "Ġcommitting": 22676,
    "induce": 22378,
    "foreseen": 14256,
    "Ġtreacherous": 13558,
    "Ġenveloped": 12213,
    "Ġbequeathed": 20704,
    "Ġpress": 5932,
    "accompan": 11454,
    "Ġcord": 5222,
    "Ġdistillation": 16048,
    "orrah": 17877,
    "Ć": 199,
    "Ġhonoured": 9884,
    "imprudent": 14652,
    "Ġrevered": 23736,
    "unctions": 18158,
    "Ġforeshad": 23454,
    "Ġunsounded": 15853,
    "Ġbeheaded": 11659,
    "Ġreports": 19086,
    "Ġairy": 23318,
    "Ġtribe": 10753,
    "surrounded": 26089,
    "emb": 11693,
    "$": 8,
    "Ġpersonages": 23542,
    "Ġground": 2845,
    "Ġdirecting": 16303,
    "Ġfanc": 6744,
    "Ġlengths": 19208,
    "Ġaccompan": 5513,
    "Ġchry": 22250,
    "Ġclinging": 10295,
    "Ġsmith": 16068,
    "Ġseclusion": 18209,
    "mayhew": 23995,
    "Ġannouncing": 16756,
    "Ġpretty": 3861,
    "Ġalbertus": 25649,
    "Ġclam": 7416,
    "Ġillustrious": 17110,
    "Ġcontinuous": 1557,
    "Ġloop": 14149,
    "Ġtoad": 21513,
    "Ġlabels": 3287,
    "besides": 8699,
    "presently": 9812,
    "barbs": 20240,
    "mrs": 3746,
    "fin": 5209,
    "Ġpadd": 9672,
    "Ġdisengaged": 12894,
    "Ġcedar": 15192,
    "Ġcoincidence": 25484,
    "tum": 11534,
    "holloa": 19467,
    "Ġinterrupted": 6344,
    "somehow": 12016,
    "Ġhereabouts": 12983,
    "Ġboarders": 16602,
    "Ġknitting": 24221,
    "Ġjan": 11766,
    "aking": 973,
    "Ġspec": 1262,
    "Ġconsume": 12963,
    "Ġurging": 24505,
    "Ġbouton": 17870,
    "Ġjenkinson": 11433,
    "ĠarchÃ¦": 22783,
    "telesc": 22821,
    "Ġapplicable": 19012,
    "Ġdrops": 9035,
    "Ġadmeasure": 18294,
    "incl": 8110,
    "Ġgrunted": 16172,
    "Ġhomage": 12359,
    "Ġlam": 21552,
    "Ġoutrageous": 20613,
    "Ġsetting": 7047,
    "Ġneeds": 6606,
    "Ġobliv": 16137,
    "feature": 3692,
    "facts": 19845,
    "Ġfestoon": 20297,
    "Ġexposed": 8524,
    "Ġdeadly": 5405,
    "Ġemails": 13111,
    "works": 6589,
    "Ġunnatural": 7190,
    "Ġweariness": 19797,
    "beloved": 19464,
    "Ġinvader": 23480,
    "whisper": 17084,
    "unknown": 10892,
    "Ġrespons": 2680,
    "tallied": 21092,
    "Ġunmolested": 15249,
    "Ł": 258,
    "haul": 14768,
    "erick": 13851,
    "Ġcurly": 18845,
    "Ġbleached": 24396,
    "Ġseasonable": 24406,
    "empl": 5724,
    "ref": 6514,
    "oration": 2213,
    "Ġsignals": 10588,
    "exasper": 22431,
    "ator": 1921,
    "Ġblueprints": 13175,
    "Ġsnows": 14729,
    "Ġobstacle": 16957,
    "Ġslice": 23162,
    "cre": 4252,
    "chased": 18044,
    "Ġconvinced": 4205,
    "Ġrumors": 11323,
    "Ġerr": 1325,
    "Ġspecksnyder": 17406,
    "twill": 21077,
    "avier": 2830,
    "Ġwrites": 23201,
    "catch": 17509,
    "Ġav": 3582,
    "Ġimplement": 3027,
    "Ġtoo": 1164,
    "fourth": 11330,
    "Ġstabbed": 25457,
    "Ġperilously": 24507,
    "Ġsimpler": 2048,
    "Ġcontemplation": 11359,
    "Ġtraits": 23078,
    "Ġassuring": 13069,
    "Ġexpand": 9310,
    "Ġcommands": 16591,
    "¹": 122,
    "Ġquantization": 19856,
    "board": 3566,
    "Ġautomatically": 3468,
    "recol": 10153,
    "orter": 4257,
    "Ġhomeward": 9395,
    "attest": 23122,
    "Ġconceit": 7295,
    "ration": 2004,
    "Ġvanishing": 1347,
    "stone": 5089,
    "lads": 20957,
    "Ġremains": 4911,
    "Ġunembarrassed": 22075,
    "oughed": 22079,
    "Ġsnuffing": 25015,
    "Ġorigin": 4118,
    "cription": 20820,
    "Ġsticks": 14933,
    "Ġjail": 22298,
    "Ġnash": 5820,
    "Ġfelt": 1743,
    "iasm": 8061,
    "rudence": 7093,
    "Ġprized": 23224,
    "mured": 6959,
    "Ġmissing": 6176,
    "iveness": 2467,
    "Ġcontrols": 1729,
    "prior": 21035,
    "Ġploughing": 26261,
    "Ġdeceive": 12727,
    "Ġnarrowly": 16822,
    "Ġadd": 630,
    "grasp": 16434,
    "Ġsloping": 11943,
    "Ġharpo": 1942,
    "Ġsequential": 2133,
    "hopeless": 16919,
    "omorrah": 18020,
    "Ġrejo": 5916,
    "Ġdeny": 7488,
    "Ġprophet": 7681,
    "Ġhoofs": 14528,
    "dued": 7909,
    "Ġforming": 7043,
    "umbling": 6612,
    "ptember": 10895,
    "Ġlooked": 1801,
    "restraint": 18980,
    "Ġcovari": 2339,
    "Ġincreas": 1691,
    "Ġsurf": 19133,
    "Ġendow": 23138,
    "sebastian": 21823,
    "lion": 20946,
    "Ġhilarious": 20301,
    "Ġripp": 11221,
    "erately": 21276,
    "Ġchinese": 14186,
    "solution": 14687,
    "Ġcircling": 19094,
    "warks": 5004,
    "Ġare": 527,
    "Ġdumbly": 24988,
    "Ġintrepidity": 25551,
    "iners": 4937,
    "worth": 8630,
    "iverse": 13120,
    "wake": 11548,
    "rannical": 26403,
    "Ġcopse": 17068,
    "learnt": 23540,
    "Ġmidnight": 5266,
    "alogies": 25162,
    "Ġharmless": 9968,
    "erie": 21273,
    "Ġadmirer": 16840,
    "Ġdiabolical": 20345,
    "ė": 216,
    "Ġlengthened": 25959,
    "Ġsatur": 1930,
    "ames": 2956,
    "Ġlakes": 8131,
    "Ġlight": 1698,
    "arer": 3966,
    "ush": 3632,
    "Ġtrivial": 10145,
    "Ġfault": 5702,
    "Ġhammock": 5768,
    "Ġcounted": 12144,
    "Ġsuch": 794,
    "ory": 1080,
    "lipped": 16220,
    "Ġmingled": 12381,
    ".,": 5988,
    "ucket": 2482,
    "vius": 23543,
    "Ġstacked": 21747,
    "Ġconfederate": 17356,
    "Ġcorrection": 5062,
    "Ġharry": 24572,
    "Ġ]": 15462,
    "Ġcoolness": 16888,
    "Ġrickety": 26507,
    "Ġsuffice": 18871,
    "Ġabundantly": 17159,
    "Ġ1000": 3120,
    "acquaintance": 6937,
    "relative": 24017,
    "hro": 20893,
    "Ġbroad": 3639,
    "Ġshun": 11713,
    "Ġack": 5622,
    "Ġsophisticated": 1626,
    "Ġhellaswag": 24343,
    "Ġproposal": 10022,
    "Ġthoughts": 3140,
    "ropol": 10954,
    "falling": 24361,
    "sometimes": 5972,
    "ÿ": 192,
    "ten": 1552,
    "deaux": 22152,
    "Ġdigress": 24649,
    "monster": 8595,
    "Ġgrievous": 13265,
    "windows": 19537,
    "Ġbasis": 16963,
    "Ġmand": 21307,
    "Ġchoking": 15938,
    "Ġbraced": 16582,
    "Ġcounterpart": 24720,
    "pire": 9138,
    "Ġdefy": 11901,
    "Ġbucket": 8792,
    "Ġunb": 10909,
    "Ġquit": 5247,
    "Ġguiltless": 16942,
    "Ġprecip": 7075,
    "saving": 21062,
    "Ġmisty": 16543,
    "Ġwer": 12557,
    "ian": 1236,
    "Ġdecks": 6899,
    "Ġpetticoat": 15299,
    "Ġhandsom": 11126,
    "occupation": 15059,
    "Ġseem": 914,
    "Ġarrest": 7409,
    "Ġtalks": 23373,
    "fes": 20853,
    "Ġmanx": 7905,
    "Ġcap": 2362,
    "ce": 313,
    "Ġinherent": 4593,
    "Ġnobody": 6159,
    "Ġrealise": 16341,
    "Ġmagnitudes": 3822,
    "Ġenergetic": 15201,
    "anyth": 5438,
    "vers": 1330,
    "Ġplead": 14459,
    "she": 1397,
    "Ġdeterminate": 23007,
    "Ġblasphe": 17410,
    "À": 129,
    "aston": 7408,
    "Ġcarrying": 6072,
    "Ġbestir": 13114,
    "Ġwhispers": 14702,
    "Ġhare": 5157,
    "Ġenric": 21938,
    "Ġsubterraneous": 20268,
    "Ġconsulting": 13433,
    "ulatory": 15772,
    "epilogue": 22104,
    "Ġaggreg": 12889,
    "header": 11937,
    "Ġresiding": 16065,
    "ruff": 15899,
    "Ġgenial": 12199,
    "Ġcal": 1329,
    "abil": 2007,
    "Ġbeaufort": 13572,
    "Ġperch": 10301,
    "Ġshells": 20367,
    "Ġdishonoured": 20394,
    "Ġpretensions": 16561,
    "Ġwinds": 5746,
    "Ġcircumn": 11988,
    "pieces": 8758,
    "eding": 7166,
    "Ġboneless": 19608,
    "Ġlabyrin": 13108,
    "Ġ129": 24474,
    "ent": 305,
    "Ġgraph": 10904,
    "Ġcream": 22726,
    "Ġteneriffe": 26416,
    "Ġverdant": 15004,
    "disagreeable": 11165,
    "osity": 14188,
    "Ġnibbling": 17388,
    "Ġaccomplish": 14878,
    "Ġadvoc": 12996,
    "Ġreplaced": 13076,
    "Ġmonomania": 17086,
    "Ġdepressed": 10884,
    "Ġcorpore": 13405,
    "Ġwaits": 23281,
    "Ġweeds": 21928,
    "Ġsickbed": 24249,
    "Ġswallowed": 7944,
    "Ġseap": 15821,
    "Ġredundant": 16554,
    "Ġbiting": 17863,
    "anel": 21360,
    "Ġmuchness": 18709,
    "lied": 6506,
    "Ġbursting": 8659,
    "Ġvul": 10250,
    "Ġorb": 22095,
    "attempts": 17193,
    "Ġembarr": 7446,
    "Ġinferior": 8352,
    "Ġavail": 11228,
    "Ġcher": 6130,
    "name": 6795,
    "Ġguilt": 6181,
    "¼": 125,
    "Ġcheetah": 14501,
    "ise": 707,
    "animation": 16981,
    "Ġprogno": 14043,
    "Ġbolted": 12249,
    "Ġwarnings": 16883,
    "Ġpeterson": 9486,
    "thest": 11657,
    "Ġseats": 14092,
    "Ġnuts": 17954,
    "deliberated": 26119,
    "Ġgradient": 450,
    "Ġii": 7384,
    "Ġvisual": 5741,
    "frequently": 9982,
    "Ġruined": 12959,
    "che": 3174,
    "Ġchange": 1994,
    "Ġendeared": 26500,
    "teous": 16177,
    "wilful": 25152,
    "fright": 9598,
    "inkled": 5477,
    "Ġguise": 14435,
    "rence": 5555,
    "Ġmysterious": 7527,
    "perform": 15905,
    "Ġrephr": 21682,
    "Ġod": 4442,
    "_âĢĶâĢĻâĢĿ": 25742,
    "Ġlany": 21557,
    "Ġfurnishes": 19444,
    "Ġrepay": 19083,
    "cked": 2761,
    "Ġkeel": 6443,
    "Ġenable": 686,
    "Ġenglishman": 11231,
    "Ġbowl": 11206,
    ":": 30,
    "Ġpunish": 12164,
    "lips": 13753,
    "Ġup": 463,
    "Ġcomply": 8894,
    "Ġvagabond": 20206,
    "benefact": 24642,
    "description": 11096,
    "sne": 10127,
    "Ġdefects": 12337,
    "Ġstrasburgh": 18615,
    "Ġeuroc": 14961,
    "ense": 2052,
    "rasing": 21048,
    "Ġparallel": 1413,
    "Ġstat": 1488,
    "Ġlascar": 9202,
    "onde": 21254,
    "Ġvivid": 8058,
    "arb": 1559,
    "Ġapparelled": 20440,
    "gratitude": 16818,
    "Ġsteadfast": 8682,
    "Ġsting": 10863,
    "quar": 7616,
    "folding": 24928,
    "Ġen": 393,
    "abst": 21792,
    "Ġexquis": 9702,
    "Ġvictim": 6098,
    "Ġgroup": 2038,
    "Ġattached": 5392,
    "Ġfathoms": 9086,
    "Ġstates": 1852,
    "happily": 14658,
    "asily": 13949,
    "Ġrow": 5246,
    "Ġgeor": 3387,
    "dling": 15343,
    "stool": 23823,
    "Ġpositions": 2057,
    "feet": 6569,
    "shazz": 14245,
    "Ġimagination": 5759,
    "Ġcandles": 9911,
    "Ġsepulchre": 20562,
    "Ġintermix": 25827,
    "Ġsilk": 11964,
    "Ġdreadfully": 7725,
    "Ġexped": 7651,
    "e": 73,
    "readiness": 19366,
    "Ġpartial": 2130,
    "affection": 7487,
    "ch": 321,
    "Ġcoming": 2616,
    "consequential": 26251,
    "otions": 7181,
    "Ġvector": 1973,
    "Ġbadge": 16682,
    "Ġtipt": 21176,
    "Ġrelied": 16198,
    "chard": 21690,
    "battering": 20788,
    "bbs": 23694,
    "veh": 12686,
    "quee": 4128,
    "Ġpoised": 22593,
    "Ġstealing": 18895,
    "Ġduring": 872,
    "Ġlearnedly": 23389,
    "waves": 10744,
    "satisfaction": 9995,
    "Ġshaster": 22002,
    "Ġalacrity": 15741,
    "Ġshud": 5461,
    "Ġprevented": 5942,
    "ring": 1751,
    "Ġholding": 4979,
    "Ġstout": 6025,
    "Ġconventional": 25548,
    "Ġgibberish": 25787,
    "Ġpang": 15609,
    "embers": 21933,
    "Ġming": 9648,
    "Ġvesture": 20065,
    "Ġmidst": 7986,
    "onse": 21252,
    "surgeon": 24217,
    "Ġhilarity": 20300,
    "welcome": 10004,
    "Ġtrusted": 10520,
    "Ġbath": 9661,
    "Ġcomprehending": 24445,
    "Ġwedge": 24935,
    "Ġproduced": 2452,
    "Ġ62": 24365,
    "oboam": 9361,
    "Ġexploded": 15913,
    "Ġemail": 19076,
    "urches": 12690,
    "imagine": 19934,
    "Ġcruisers": 25864,
    "Å": 134,
    "Ġadvisable": 11444,
    "Ġholy": 6592,
    "Ġadditional": 7936,
    "Ġslay": 16309,
    "Ġdeposited": 25485,
    "Ġbeauties": 10447,
    "Ġassistant": 7298,
    "Ġemblazonings": 26044,
    "stalls": 26475,
    "ieth": 10706,
    "Ġprecision": 13191,
    "Ġvisitor": 5331,
    "Ġinfinity": 23325,
    "Ġascertained": 25297,
    "Ġsat": 1131,
    "Ġcumul": 4178,
    "Ġaid": 6123,
    "entreat": 17978,
    "Ġoverladen": 22359,
    "Ġcategories": 4480,
    "Ġpractised": 23334,
    "Ġbegg": 16255,
    "Ġslender": 11944,
    "Ġocean": 3304,
    "Ġenvied": 19314,
    "Ġtransient": 18481,
    "Ġbenchmarks": 15024,
    "Ġejaculation": 20257,
    "rippa": 11343,
    "ĠâĢĶ_": 3458,
    "answers": 22127,
    "Ġdeclined": 9924,
    "Ġnursery": 19753,
    "Ġfaltering": 17886,
    "ribs": 23368,
    "Ġthrows": 14740,
    "sharks": 14243,
    "Ġdimens": 3153,
    "Ġcasement": 25095,
    "Ġscre": 9740,
    "Ġrespectively": 23250,
    "houn": 20895,
    "perseus": 26006,
    "iscre": 17852,
    "presumption": 20445,
    "kye": 20940,
    "Ġdeprived": 8211,
    "Ġcitations": 25438,
    "Ġgrasshopper": 24380,
    "Ġscrolled": 22288,
    "Ġsteals": 23087,
    "Ġchina": 8040,
    "Ġpersevering": 20236,
    "awk": 23117,
    "Ġinaccessible": 13937,
    "Ġnursed": 16887,
    "Ġcul": 17824,
    "Ġloun": 7167,
    "Ġhamp": 12635,
    "Ġflattering": 13034,
    "orte": 14187,
    "Ġoar": 6237,
    "Ġrecovered": 5481,
    "Ġflattered": 10377,
    "professional": 20278,
    "verdict": 21733,
    "secured": 16940,
    "Ġeffective": 1249,
    "taller": 26151,
    "ifications": 9731,
    "isbury": 21380,
    "Ġpist": 12620,
    "zing": 7820,
    "Ġveil": 7934,
    "Ġcommentaries": 20163,
    "Ġjinglers": 26019,
    "Ġbatt": 13902,
    "enthusiastic": 20695,
    "cept": 550,
    "Ġnarrated": 14873,
    "Ġchance": 3318,
    "Ġacknowledges": 24689,
    "compar": 14361,
    "hes": 1398,
    "Ġsits": 10770,
    "Ġpers": 1323,
    "Ġthing": 1640,
    "rary": 4577,
    "Ġtrout": 22348,
    "Ġcruelty": 9972,
    "Ġelephant": 8256,
    "Ġunique": 12783,
    "Ģ": 227,
    "Ġdeclared": 5595,
    "Ġmiguel": 25767,
    "Ġbehaves": 23300,
    "libr": 22926,
    "tstone": 21087,
    "Ġidentity": 2521,
    "Ġdistinctions": 18534,
    "backs": 9394,
    "inks": 6868,
    "Ġscientific": 6856,
    "nour": 20990,
    "Ġflanks": 11918,
    "Ġnav": 5819,
    "tic": 8391,
    "Ġapiece": 16815,
    "Ġult": 9077,
    "Ġsundry": 20077,
    "colour": 9906,
    "Ġintolerable": 8483,
    "eral": 9162,
    "dimly": 15350,
    "il": 329,
    "Ġvastly": 23863,
    "cousin": 10655,
    "Ġunprinciple": 18255,
    "ass": 540,
    "Ġhampshire": 15246,
    "itic": 11581,
    "barn": 17485,
    "loss": 22510,
    "Ġsyntax": 957,
    "Ġresid": 22542,
    "Ġdeposit": 17271,
    "Ġinsomuch": 23685,
    "Ġflow": 1237,
    "Ġjac": 1897,
    "ists": 3997,
    "Ġvisited": 5948,
    "Ġexposure": 16103,
    "Ġmississ": 18840,
    "Ġafter": 869,
    "Ġdiverged": 23596,
    "Ġwisest": 11235,
    "Ġunprovided": 18261,
    "Ġwrite": 3821,
    "attered": 4016,
    ",)": 9104,
    "Ġjeroboam": 10603,
    "Ġrece": 11641,
    "Ġundertake": 14482,
    "Ġunpitying": 25661,
    "Ġradiating": 24331,
    "finally": 9502,
    "Ġmythologies": 26215,
    "Ġattics": 22624,
    "riminately": 16485,
    "Ġreeling": 18035,
    "Ġmachinery": 20488,
    "Ġreap": 18029,
    "Ġfath": 7364,
    "Ġexper": 1287,
    "Ġcreditors": 20133,
    "cause": 7795,
    "Ġheedful": 19743,
    "Ġturnpike": 23030,
    "Ġdecapitated": 20619,
    "adem": 21761,
    "Ġshooting": 11164,
    "doublo": 24661,
    "Ġ128": 24473,
    "Ġincessantly": 11413,
    "Ġate": 8844,
    "desolate": 25717,
    "Ġbetray": 7442,
    "Ġor": 437,
    "lish": 1950,
    "Ġlogic": 13082,
    "iance": 5280,
    "Ġforswe": 21778,
    "arest": 4001,
    "Ġsummons": 13237,
    "ouncement": 11749,
    "moving": 11018,
    "Ġprofundities": 20456,
    "with": 1294,
    "Ġleak": 2161,
    "kinson": 10029,
    "manifested": 20529,
    "mock": 5174,
    "revolver": 25628,
    "ptic": 21922,
    "Ġtrance": 12844,
    "pow": 10719,
    "Ġdarkly": 19116,
    "Ġ119": 24441,
    "enary": 12556,
    "Ġdiary": 24738,
    "Ġrest": 1780,
    "Ġgips": 10843,
    "Ġoriginated": 24123,
    "def": 1450,
    "addition": 13388,
    "Ġrecollecting": 17114,
    "rapt": 13976,
    "Ġmatch": 4531,
    "Ġmexico": 15284,
    "hatch": 15368,
    "Ġfemales": 14939,
    "Ġjuicy": 25371,
    "declaration": 25176,
    "Ġoutputs": 2887,
    "Ġleads": 12101,
    "slow": 7810,
    "Ġplainer": 23706,
    "either": 6791,
    "ibility": 2390,
    "sailing": 14716,
    "ler": 3492,
    "draul": 9446,
    "iment": 2815,
    "ample": 1364,
    "Ġpromises": 10403,
    "Ġsl": 1496,
    "Ġidentify": 12018,
    "Ġunsub": 22027,
    "Ġaccidental": 16850,
    "ift": 1605,
    "Ġgrie": 3584,
    "bitious": 16672,
    "bird": 9588,
    "tanh": 5204,
    "pale": 13774,
    "Ġsimplicity": 2926,
    "vand": 21111,
    "Ġsuppressing": 23004,
    "Ġbl": 1189,
    "Ġacqu": 1415,
    "Ġmutter": 23957,
    "Ġmass": 3781,
    "Ġabated": 18391,
    "Ġtahit": 10756,
    "Ġhearsed": 25042,
    "Ġitaly": 10869,
    "Ġbitt": 10798,
    "Ġcorrespondence": 10597,
    "revealed": 20419,
    "leton": 5148,
    "Ġvirtue": 4923,
    "Ġbrad": 8791,
    "pause": 12505,
    "indul": 22374,
    "those": 4498,
    "yielded": 25757,
    "leaving": 10793,
    "Ġcontains": 2793,
    "Ġdetest": 8502,
    "axing": 18548,
    "ellation": 12754,
    "regarding": 15075,
    "Ġvibrated": 25048,
    "arab": 21444,
    "Ġdrinks": 24282,
    "Ġimperson": 14220,
    "Ġaint": 17746,
    "Ġknees": 6927,
    "leisure": 21374,
    "Ġnervously": 19186,
    "Ġlatent": 19658,
    "Ġruth": 14096,
    "newsp": 23137,
    "Ġconcil": 23322,
    "Ġstrip": 9424,
    "Ġpaced": 7584,
    "nowled": 5470,
    "ine": 406,
    "Ġdiminished": 16668,
    "Ġhoars": 19079,
    "anish": 2615,
    "anter": 9169,
    "Ġger": 21594,
    "Ġapplications": 4784,
    "Ġundulated": 19519,
    "Ġgrud": 17998,
    "Ġchilian": 25564,
    "Ġhos": 4942,
    "Ġtakes": 5007,
    "Ġpirates": 9076,
    "Ġcutting": 4983,
    "bloom": 24690,
    "Ġmercifully": 20181,
    "Ġinquired": 7485,
    "Ġgreyish": 24211,
    "record": 16923,
    "majesty": 26282,
    "Ġdeliberation": 19972,
    "retched": 3071,
    "Ġacc": 571,
    "Ġappellation": 22221,
    "Ġunass": 14117,
    "Ġreservo": 16833,
    "isters": 11923,
    "per": 481,
    "ansion": 10923,
    "Ġproportional": 2522,
    "Ġpersons": 6179,
    "Ġhopelessly": 16377,
    "Ġinstinct": 6576,
    "ograph": 4798,
    "interred": 23739,
    "Ġafar": 14295,
    "deserts": 25382,
    "Ġamiable": 4271,
    "island": 10796,
    "iors": 9128,
    "Ġwallowed": 24046,
    "ĠmanÅĵuv": 18418,
    "pulling": 25149,
    "Ġintensely": 17019,
    "Ġany": 688,
    "Ġvacancies": 24345,
    "Ġoppressively": 25711,
    "Ġearth": 2848,
    "Ġimpressive": 15001,
    "Ġyelling": 18099,
    "Ġskirts": 14355,
    "Ġpudding": 17918,
    "Ġexalted": 12416,
    "Ġperilous": 7768,
    "Ġprecipice": 19944,
    "Ġceti": 24772,
    "yesterday": 10355,
    "Ġsec": 2077,
    "intentions": 22942,
    "Ġori": 8410,
    "ore": 418,
    "/": 19,
    "Ġbi": 919,
    "Ġindirect": 18837,
    "Ġshy": 10905,
    "not": 908,
    "Ġwester": 25156,
    "asable": 21544,
    "Ġburnt": 9931,
    "Ġglass": 4372,
    "ancy": 4397,
    "swam": 24257,
    "had": 1949,
    "Ġrehearsed": 25972,
    "Ġindu": 5295,
    "sprang": 19994,
    "Ġadmiration": 5329,
    "tor": 15435,
    "Ġwounded": 8661,
    "Ġhero": 5715,
    "Ġidea": 2485,
    "Ġunreasoning": 15849,
    "signed": 21064,
    "Ġcalmer": 23047,
    "Ġunch": 18240,
    "12": 20751,
    "nurtured": 25525,
    "Ġdeaden": 23462,
    "worshipping": 16612,
    "seemed": 4305,
    "forth": 9325,
    "Ġcollins": 2180,
    "remarks": 23192,
    "icit": 3378,
    "Ġfru": 8421,
    "sleeve": 26109,
    "Ġwarm": 2425,
    "Ġscandalous": 24880,
    "surely": 10572,
    "inquiries": 13581,
    "consp": 18505,
    "Ġspectre": 16633,
    "watery": 19829,
    "Ġconception": 10316,
    "Ġwooded": 23521,
    "Ġinherited": 25354,
    "iced": 3899,
    "Ġphysi": 9991,
    "Ġretirement": 25379,
    "Ġtrue": 1341,
    "Ġinsince": 23681,
    "Ġglimpses": 13436,
    "Ġschemes": 11133,
    "Ġsmart": 11819,
    "plague": 21957,
    "Ġfrantic": 7957,
    "Ġclergyman": 8715,
    ":--âĢľ": 24550,
    "punctual": 26357,
    "Ġwrinkles": 8573,
    "Ġsubfield": 11873,
    "assault": 22310,
    "recurrent": 4994,
    "Ġhan": 15622,
    "scrape": 25699,
    "axen": 22525,
    "Ġtrampling": 25493,
    "Ġmaster": 3681,
    "Ġtowed": 11267,
    "Ġser": 1671,
    "Ġsubl": 7235,
    "chronicle": 26482,
    "Ġpump": 12626,
    "Ġpromised": 5181,
    "Ġplates": 11008,
    "found": 4214,
    "Ġbottles": 16573,
    "Ġmassachusetts": 24026,
    "ambition": 13415,
    "chel": 11209,
    "Ġtortured": 14926,
    "ton": 1724,
    "gg": 1996,
    "Ġseedy": 21966,
    "captain": 3952,
    "Ġdeft": 21840,
    "Ġungover": 18256,
    "itically": 21333,
    "odes": 18122,
    "giana": 7800,
    "Ġdenied": 9003,
    "Ġexpectantly": 23526,
    "rib": 1945,
    "Ġsuav": 22080,
    "aped": 3765,
    "Ġcust": 11585,
    "Ġpresentation": 14483,
    "Ġconsc": 4276,
    "Ġshutting": 14762,
    "Ġix": 12671,
    "Ġminimum": 23045,
    "Ġrent": 11642,
    "appeared": 4283,
    "Ġunobstructed": 18265,
    "Ġig": 3501,
    "consent": 18504,
    "Ġexactly": 2766,
    "Ġcloser": 8663,
    "Ġsounds": 5190,
    "Ġelijah": 9103,
    "ĠĠĠĠĠĠĠĠĠĠĠĠĠĠĠĠĠĠĠĠĠĠĠĠĠĠĠĠĠĠĠĠĠĠĠĠĠĠĠĠĠĠĠĠĠĠĠĠĠĠĠĠĠĠĠĠĠĠĠĠ": 19262,
    "Ġsplitting": 4386,
    "cordiality": 25140,
    "inglass": 21305,
    "breckinridge": 24077,
    "Ġsmelt": 16069,
    "Ġsebastian": 11702,
    "Ġwriter": 11949,
    "ĠĊ": 12528,
    "acceptable": 25185,
    "Ġid": 1908,
    "Ġchron": 19441,
    "Ġacknowledged": 7534,
    "Ġropes": 10750,
    "Ġflood": 7715,
    "Ġfluctu": 5268,
    "Ġpenetrated": 13476,
    "Ġgall": 4353,
    "Ġedward": 19153,
    "Ġconstable": 19070,
    "Ġcove": 22583,
    "bottle": 20148,
    "phere": 21021,
    "cheon": 23806,
    "opy": 4461,
    "Ġmaternal": 11060,
    "Ġsubtle": 6717,
    "fellow": 6792,
    "overspreading": 26140,
    "acey": 7650,
    "Ġfi": 935,
    "Ġlandscape": 12421,
    "formal": 14170,
    "Ġfor": 340,
    "Ġaccumulation": 2688,
    "Ġcomplement": 23711,
    "Ġpray": 3898,
    "Ġprofounder": 23571,
    "ousand": 2430,
    "sway": 15428,
    "Ġcrib": 21351,
    "Ġpure": 6138,
    "Ġvertical": 16606,
    "Ġrally": 21972,
    "Ġpane": 21466,
    "sweet": 8689,
    "Ġarrant": 23298,
    "Ġmotionless": 8324,
    "Ġfreely": 7057,
    "kles": 17586,
    "Ġmining": 22832,
    "Ġ94": 17719,
    "Ġremedy": 18725,
    "Ġcreation": 6438,
    "Ġneared": 14076,
    "ii": 4012,
    "geese": 22371,
    "Ġnineveh": 13393,
    "winding": 16722,
    "Ġordained": 19448,
    "Ġfleeting": 19329,
    "Ġthink": 985,
    "erness": 6433,
    "Ġpenalty": 1840,
    "contrivance": 26317,
    "Ġcontrol": 13084,
    "oriented": 2950,
    "Ġbrooks": 25701,
    "veil": 18048,
    "spade": 10342,
    "Ġshivered": 14111,
    "Ġsanguine": 25929,
    "inarticulate": 21198,
    "Ġse": 402,
    "Ġdolphins": 20399,
    "aulding": 11341,
    "Ġastern": 6090,
    "Ġdusk": 12331,
    "clu": 20801,
    "Ġtuples": 13481,
    "Ġgown": 10204,
    "Ġmeanly": 12914,
    "surf": 24215,
    "iteous": 14264,
    "decl": 8860,
    "Ġwine": 6810,
    "Ġchis": 11754,
    "Ġagonising": 25374,
    "narrowly": 20350,
    "H": 44,
    "shuff": 18495,
    "Ġdoubling": 23320,
    "Ġcoff": 3508,
    "Ġschools": 9480,
    "arctic": 12615,
    "Ġcorps": 13039,
    "Ġgasfitters": 25041,
    "Ġbeacon": 21760,
    "Ġdim": 4758,
    "broad": 8646,
    "books": 8667,
    "frankly": 20025,
    "swift": 14854,
    "Ġroof": 6565,
    "Ġmartha": 16264,
    "·": 120,
    "Ġcreeping": 18685,
    "Ġprograms": 7239,
    "honest": 17005,
    "Ġdiversion": 17200,
    "youth": 11879,
    "Ġgoblets": 20522,
    "wanderer": 25424,
    "le": 279,
    "Ġeve": 13973,
    "makes": 10713,
    "Ġintegr": 7969,
    "Ġstren": 15724,
    "Ġepis": 19985,
    "Ġunintelligible": 26516,
    "Ġsanity": 24982,
    "oons": 12503,
    "Ġknighthood": 25298,
    "kerchief": 7525,
    "Ġcocoanuts": 26364,
    "Ġnaval": 16901,
    "Ġinsincere": 26601,
    "Ġparents": 6753,
    "white": 4604,
    "Ġthinkings": 22813,
    "surv": 24216,
    "varying": 13807,
    "Ġspeedy": 11174,
    "Ġproceedings": 9910,
    "Ġharpoon": 3616,
    "cabinet": 25080,
    "phant": 6288,
    "adamite": 20596,
    "Ġsanction": 20029,
    "Ġfaithful": 9506,
    "Ġattacks": 12209,
    "Ġcontents": 7210,
    "Ġprofanely": 23572,
    "Ġcolouring": 16753,
    "Ġprize": 11952,
    "Ġstudious": 23212,
    "ĠâĢĻ": 3046,
    "Ġerroneous": 17412,
    "Ġordinarily": 20651,
    "Ġmanufactured": 22334,
    "Ġplied": 22600,
    "Ġsignifies": 19206,
    "vable": 10135,
    "Ġbatch": 887,
    "Ġamazed": 14891,
    "Ġarrow": 10933,
    "Ġmacy": 19358,
    "Ġlingered": 13508,
    "early": 20122,
    "helped": 18927,
    "c": 71,
    "Ġsum": 2696,
    "asis": 12655,
    "immedi": 8452,
    "Ġbeeches": 9229,
    "mospheric": 17092,
    "twig": 23701,
    "born": 7543,
    "child": 5538,
    "Ġwing": 6667,
    "tenham": 16323,
    "itself": 7834,
    "Ġrogue": 22409,
    "fur": 6356,
    "Ġpovelson": 26554,
    "prow": 15414,
    "Ġowner": 8925,
    "Ġcrippled": 25279,
    "ishment": 3506,
    "liter": 11504,
    "Ġsatisf": 2806,
    "Ġsteamer": 17191,
    "Ġclustered": 25234,
    "Ġcolours": 12979,
    "Ġprocession": 11781,
    "Ġengineering": 3028,
    "Ġscenari": 22291,
    "Ġcautiously": 16979,
    "Ġintrospective": 20603,
    "venison": 22631,
    "Ġseventeen": 26212,
    "cloud": 11107,
    "market": 16841,
    "Ġdisappeared": 5645,
    "Ġlandlessness": 23383,
    "Ġimpregn": 26023,
    "rivial": 9437,
    "iot": 9603,
    "ishly": 14202,
    "turbable": 24531,
    "Ġgomorrah": 21618,
    "Ġshrouds": 11346,
    "gest": 5426,
    "warp": 17708,
    "Ġfuriously": 9805,
    "Ġscrupled": 25052,
    "limin": 8384,
    "Ġfumbling": 21420,
    "Ġinhabit": 5782,
    "Ġindifferent": 6175,
    "renched": 7907,
    "Ġcleaned": 23186,
    "Ġdepend": 792,
    "Ġboldness": 24428,
    "beef": 18524,
    "Ġslammed": 20451,
    "Ġeaster": 15679,
    "Ġaffection": 2637,
    "Ġwilling": 7420,
    "aution": 9391,
    "Ġkiss": 8183,
    "Ġpoltro": 23621,
    "again": 3398,
    "Ġrecede": 25969,
    "vitiated": 25755,
    "superiority": 20188,
    "Ġsystematically": 4361,
    "chery": 24551,
    "prot": 6898,
    "Ġturnkeys": 23031,
    "proceeding": 20144,
    "outon": 12808,
    "Ġvindictiveness": 25739,
    "Ġrapturously": 24889,
    "Ġmagic": 8233,
    "Ġeasier": 11167,
    "Ġwilled": 21294,
    "Ġdisregard": 22532,
    "Ġoutfits": 22325,
    "Ġlicense": 20094,
    "Ġdecent": 10980,
    "Ġgodly": 19082,
    "daughters": 13470,
    "Ġbelonging": 8308,
    "Ġconsent": 5372,
    "Ġsufferings": 7513,
    "Ġhelpless": 8301,
    "Ġdecoding": 3084,
    "Ġperformed": 8549,
    "Ġinterp": 16073,
    "produ": 10722,
    "Ġbarred": 9005,
    "barrow": 15324,
    "waited": 24586,
    "Ġinspired": 2516,
    "prints": 23816,
    "Ġmortals": 9919,
    "Ġpawnbroker": 13662,
    "Ġtreatise": 19348,
    "Ġbreast": 8971,
    "Ġfob": 21412,
    "Ġunlabeled": 3800,
    "Ġoutskirts": 17460,
    "cooper": 19192,
    "Ġsunny": 13090,
    "Ġsteadily": 8052,
    "urning": 12922,
    "Ġ38": 24081,
    "watches": 14949,
    "ub": 1224,
    "Ġark": 10278,
    "Ġeel": 18004,
    "Ġtie": 10752,
    "Ġcynicism": 25772,
    "Ġreminisc": 18726,
    "Ġprofoundest": 16862,
    "Ġindel": 13009,
    "Ġflora": 11418,
    "ois": 9137,
    "Ġpurpose": 2705,
    "forming": 15919,
    "Ġimprec": 14219,
    "atha": 6573,
    "spike": 16142,
    "Ġupwards": 7634,
    "nical": 20993,
    "Ġmincer": 14368,
    "Ġnorthumbria": 24174,
    "una": 21873,
    "Ġoft": 9197,
    "lesome": 12970,
    "hab": 1077,
    "rigging": 20009,
    "tuning": 1576,
    "Ġglad": 3326,
    "Ġtoday": 12648,
    "Ġoversampling": 20519,
    "Ġsubset": 9873,
    "ells": 5305,
    "Ġcasc": 15560,
    "Ġunsh": 14118,
    "ition": 654,
    "bones": 8372,
    "Ġrazors": 22666,
    "Ġlingo": 24904,
    "tiness": 21074,
    "Ġmonstrous": 7789,
    "gaining": 20127,
    "Ġpass": 1040,
    "ieve": 1659,
    "Ġreputed": 18038,
    "Ġremoving": 12121,
    "Ġschoolboys": 24481,
    "mer": 2832,
    "Ġbelieved": 4370,
    "Ġgent": 7383,
    "Ġextending": 11029,
    "Ġinwards": 15625,
    "others": 7670,
    "Ġansw": 2209,
    "chie": 21693,
    "Ġadvers": 4888,
    "Ġswayed": 15050,
    "Ġmournfully": 20120,
    "kward": 6957,
    "what": 642,
    "Ġbarrow": 12074,
    "Ġworthy": 7241,
    "Ġgamesome": 17292,
    "Ġchip": 12830,
    "jointed": 24014,
    "Ġyaw": 18097,
    "Ġmutineer": 19421,
    "aim": 2753,
    "Ġhopeful": 19030,
    "Ġtam": 7821,
    "Ġshop": 9255,
    "Ġissu": 6254,
    "contrad": 19293,
    "omically": 13979,
    "Ġkicks": 19771,
    "Ġmerged": 19298,
    "Ġdefile": 18825,
    "Ġloss": 823,
    "Ġforb": 11666,
    "erest": 10699,
    "Ġinflict": 15003,
    "Ġcolonial": 22861,
    "gangway": 20670,
    "Ġwholly": 4450,
    "Ġtoilet": 13940,
    "led": 579,
    "Ġcotton": 17382,
    "Ġhealthful": 24062,
    "Ġsongs": 13424,
    "Ġgeese": 7693,
    "Ġremarkable": 4916,
    "Ġsympt": 7013,
    "esty": 4307,
    "get": 1021,
    "perplex": 18344,
    "Ġtis": 15468,
    "Ġgeneva": 5450,
    "drink": 10598,
    "simon": 16975,
    "Ġfuture": 1114,
    "ollen": 11300,
    "islands": 21379,
    "explain": 1480,
    "gravel": 22623,
    "soul": 9143,
    "Ġprojecting": 9988,
    "wheel": 22873,
    "Ġstrive": 23695,
    "Ġsuperior": 2750,
    "racted": 4777,
    "Ġstandpoint": 23279,
    "Ġforc": 9230,
    "downward": 16621,
    "ading": 5091,
    "Ġ63": 24366,
    "mme": 22505,
    "Ġyonder": 7392,
    "Ġunfulfilled": 26511,
    "Ġascribed": 14857,
    "Ġatt": 773,
    "oss": 10118,
    "Ġsavory": 23879,
    "endering": 21287,
    "Ġwrithed": 17107,
    "Ġquieted": 23846,
    "Ġassail": 13068,
    "Ġbloodshot": 23802,
    "artificial": 966,
    "Ġincommod": 25308,
    "Ġamericans": 14746,
    "Ġsemantics": 2895,
    "Ġabutted": 22279,
    "Ġgovernor": 16492,
    "adays": 14016,
    "doub": 6224,
    "str": 2576,
    "Ġfurled": 22817,
    "Ġenjoyment": 7300,
    "Ġoverjoy": 15970,
    "inished": 17736,
    "one": 616,
    "ippi": 20247,
    "ige": 12684,
    "Ġindolent": 13010,
    "Ġstability": 1363,
    "pertaining": 22192,
    "abominable": 20597,
    "Ġintended": 5548,
    "Ġcompiled": 22574,
    "Ġannouncement": 14835,
    "harpoone": 6108,
    "Ġsteersman": 13047,
    "sent": 760,
    "Ġexamined": 6335,
    "aciousness": 18607,
    "frankenstein": 11393,
    "mitting": 20975,
    "Ġdutch": 6328,
    "Ġentertained": 10001,
    "Ġflaw": 23013,
    "Ġsag": 6513,
    "Ġbusily": 9388,
    "Ġimbued": 17458,
    "Ġplaited": 14286,
    "story": 9215,
    "Ġcoinc": 11003,
    "darkened": 24517,
    "sho": 6424,
    "pier": 17637,
    "six": 7142,
    "Ġexhaust": 6398,
    "Ġgans": 5822,
    "Ġlikes": 9411,
    "Ġsecure": 4913,
    "Ġtalents": 15047,
    "Ġfires": 16474,
    "Ġproximity": 3221,
    "ze": 1320,
    "ak": 537,
    "Ġclosest": 16765,
    "Ġhollow": 5648,
    "Ġrestraint": 15131,
    "pick": 17636,
    "Ġband": 5292,
    "W": 59,
    "Ġtravel": 5953,
    "bows": 10084,
    "quadr": 15768,
    "Ġwitty": 21295,
    "Ġsuite": 18278,
    "canst": 22964,
    "Ġexchanging": 18134,
    "Ġdisquiet": 18553,
    "Ġriv": 10748,
    "lutions": 20952,
    "Ġruins": 16162,
    "Ġturner": 7050,
    "Ġrefers": 1560,
    "high": 6651,
    "shadows": 25480,
    "Ã¦mon": 7095,
    "Ġcrutch": 23447,
    "landish": 11946,
    "Ġprocedure": 2809,
    "tempest": 16961,
    "flagged": 23975,
    "arth": 4446,
    "Ġchallenge": 25472,
    "Ġmathematical": 3351,
    "Ġmeasure": 3594,
    "Ġconfident": 11140,
    "ead": 2598,
    "allowing": 24358,
    "Ġconcerns": 11970,
    "Ġenemies": 9041,
    "ouched": 4638,
    "Ġthee": 2621,
    "barb": 10083,
    "Ġconcocted": 26299,
    "oury": 22308,
    "lane": 10708,
    "Ġeleventh": 23372,
    "introdu": 8940,
    "Ġwhaleman": 4656,
    "Ġsash": 17756,
    "ils": 3185,
    "Ġspangled": 22140,
    "Ġapologized": 25199,
    "lotte": 3332,
    "Ġfrigates": 25707,
    "Ġrestricted": 19027,
    "Ġrekindled": 21680,
    "Ġpanelled": 19657,
    "ob": 1419,
    "duck": 22416,
    "Ġembalmed": 13660,
    "Ġreasons": 6020,
    "Ġtwentieth": 18660,
    "Ġimpro": 921,
    "Ġlounging": 10025,
    "pushed": 21025,
    "Ġsummoned": 9914,
    "all": 485,
    "tr": 3580,
    "Ġdexter": 9704,
    "Ġshifted": 14110,
    "Ġfluttered": 16251,
    "ipher": 18423,
    "rod": 10833,
    "Ġnoting": 18222,
    "lessly": 4558,
    "Ġdrows": 21438,
    "eration": 10774,
    "Ġcircle": 4977,
    "Ġspecialized": 3919,
    "station": 10846,
    "clearer": 24072,
    "Ġhath": 12633,
    "commod": 16173,
    "Ġlabyrinth": 13683,
    "Ġisland": 4046,
    "Ġprov": 4404,
    "Ġillness": 8593,
    "joke": 20932,
    "accordingly": 19216,
    "Ġalone": 2565,
    "Ġscruples": 15082,
    "rely": 6124,
    "retrospect": 23143,
    "Ġofficio": 23819,
    "Ġsuff": 1302,
    "Ġinheriting": 25355,
    "Ġmerit": 9430,
    "Ġdisgracing": 26257,
    "preserving": 25305,
    "Ġsingularly": 12153,
    "Ġserve": 9371,
    "Ġpersisted": 13037,
    "inno": 10758,
    "Ġanimals": 8981,
    "Ġpalmed": 24093,
    "Ġpoetry": 15084,
    "ishnoo": 10957,
    "Ġscenarios": 26544,
    "Ġdismal": 11814,
    "things": 6033,
    "Ġquantity": 6947,
    "lucas": 15155,
    "Ġheavily": 6741,
    "sentiment": 12919,
    "gam": 10098,
    "furthermore": 20007,
    "acquired": 24298,
    "sor": 7352,
    "Ġinduced": 8674,
    "Ġaged": 10324,
    "du": 605,
    "seeing": 7079,
    "Ġcyn": 13889,
    "arse": 7161,
    "Ġsixth": 16562,
    "Ġinhabitants": 7524,
    "Ġeager": 3571,
    "Ġstrangeness": 16706,
    "Ġinsight": 16532,
    "Ġobvious": 4964,
    "Ġcoarse": 14277,
    "whips": 22242,
    "arabian": 26448,
    "Ġcomment": 9235,
    "Ġresult": 4463,
    "largely": 19577,
    "disinterested": 23503,
    "featured": 24007,
    "Ġfact": 1725,
    "Ġreconciled": 13591,
    "adie": 18091,
    "hers": 7636,
    "umbered": 22121,
    "Ġteaches": 18813,
    "Ġunclasp": 26513,
    "oat": 13767,
    "Ġlances": 6984,
    "Ġeffort": 8205,
    "Ġdevout": 14329,
    "anded": 5923,
    "men": 1484,
    "enet": 10155,
    "frozen": 25142,
    "guessed": 25873,
    "ede": 21509,
    "Ġfaintest": 24570,
    "descried": 11933,
    "Ġstock": 7455,
    "Ġgrappling": 25813,
    "Ġrattler": 24998,
    "fed": 11490,
    "Ġshaking": 6552,
    "rane": 17655,
    "emper": 18188,
    "Ġgramm": 8171,
    "network": 1907,
    "curious": 10485,
    "Ġtre": 2534,
    "Ġfrocks": 23926,
    "significant": 25085,
    "Ġsche": 1702,
    "Ġdiscove": 16159,
    "Ġheadache": 22901,
    "Ġclapham": 17268,
    "Ġbubbles": 11400,
    "Ġfoundation": 4232,
    "lamp": 9611,
    "Ã": 132,
    "Ġweeping": 11690,
    "cart": 10692,
    "Ġeducated": 16787,
    "gracechurch": 24582,
    "Ġinfancy": 10419,
    "Ġchr": 3688,
    "Ġpan": 5082,
    "Ġwrists": 11114,
    "Ġwid": 4634,
    "Ġstreamed": 14547,
    "Ġsideboard": 10388,
    "Ń": 260,
    "Ġindiam": 22956,
    "Ġlogs": 16350,
    "impatience": 25501,
    "okingly": 22385,
    ":âĢĶ": 4435,
    "Ġaquiline": 26160,
    "Ġinfallible": 15074,
    "Ġslaughtered": 26586,
    "derest": 18315,
    "kington": 11205,
    "fth": 20858,
    "Ġhints": 8431,
    "ersburgh": 18210,
    "plain": 1359,
    "resum": 17763,
    "ante": 11725,
    "wins": 21132,
    "Ġharness": 17930,
    "determination": 19948,
    "Ġprofund": 13157,
    "waiting": 12225,
    "rels": 6666,
    "aths": 22702,
    "dan": 17517,
    "riage": 2125,
    "turn": 4293,
    "Ġgar": 10840,
    "watch": 6119,
    "Ġest": 2269,
    "Ġcordial": 16837,
    "Ġadjacent": 20713,
    "Ġdeafened": 25652,
    "Ġprobabilities": 4966,
    "omas": 12676,
    "Ġsolution": 9808,
    "girl": 12322,
    "mble": 1405,
    "Ġmaelstrom": 19359,
    "hither": 11495,
    "Ġcomb": 1058,
    "Ġamaz": 5385,
    "mid": 5617,
    "Ġlacepede": 20498,
    "leaped": 17845,
    "count": 4213,
    "Ġinternal": 2250,
    "Ġlizard": 12659,
    "Ġmanifested": 17160,
    "Ġestimate": 19376,
    "Ġmacey": 12568,
    "Ġsurmis": 23465,
    "lemag": 21375,
    "Ġbits": 11591,
    "baboon": 25517,
    "Ġringbolts": 24199,
    "rice": 13780,
    "comfort": 5647,
    "Ġwill": 679,
    "Ġmoustache": 20487,
    "Ġwearisome": 19798,
    "cess": 539,
    "Ġheedfully": 24521,
    "amous": 15765,
    "oof": 15408,
    "Ġbrag": 23837,
    "frame": 17117,
    "pon": 17627,
    "Ġsettled": 3743,
    "Ġcoals": 16077,
    "utes": 5914,
    "Ġinex": 6527,
    "Ġfoe": 7680,
    "Ġslippery": 12171,
    "Ġsmoke": 4716,
    "Ġstripped": 10467,
    "Ġhunting": 7259,
    "Ġalive": 4402,
    "İ": 241,
    "Ġirresolution": 24916,
    "Ġdespair": 4006,
    "Ġstarve": 24626,
    "Ġgenteel": 19984,
    "Ġshouting": 10525,
    "Ġparagraph": 17457,
    "mother": 5480,
    "Ġbells": 19604,
    "developed": 15268,
    "Ġant": 4347,
    "Ġeloquence": 11846,
    "Ġaz": 9632,
    "Ġ=": 1074,
    "Ġaccosted": 13676,
    ";âĢĻ": 15306,
    "listener": 24931,
    "Ġrecurrent": 1802,
    "Ġfollowed": 1793,
    "Ġsilken": 16380,
    "cock": 12030,
    "mong": 15393,
    "atum": 21262,
    "Ġequatorial": 13512,
    "gling": 10100,
    "oubled": 23647,
    "Ġscra": 5841,
    "mp": 3728,
    "Ġformal": 2945,
    "Ġcocksure": 26260,
    "Ġviii": 16417,
    "Ġindomitableness": 26573,
    "albatross": 15634,
    "camp": 15333,
    "Ġhungry": 10535,
    "appl": 9329,
    "Ġwoes": 23989,
    "unt": 2044,
    "whenever": 11885,
    "Ġseparated": 9467,
    "Ġnewfound": 22935,
    "Ġmemories": 14542,
    "Ġclank": 15977,
    "Ġdab": 15592,
    "Ġwond": 3937,
    "dress": 17522,
    "Ġrefrained": 14346,
    "Ġblubber": 5666,
    "R": 54,
    "Ġhysterical": 26093,
    "features": 14725,
    "Ġpatriot": 23305,
    "ingle": 1039,
    "Ġdread": 3166,
    "expression": 10550,
    "Ġtorm": 5434,
    "interference": 23740,
    "wling": 11547,
    "algorithms": 8304,
    "Ġatonement": 21946,
    "Ġloitering": 22120,
    "Ġstudied": 11115,
    "Ġqualifications": 24676,
    "Ġnois": 4269,
    "Ġdoes": 941,
    "Ġplease": 4724,
    "cra": 6355,
    "omach": 11637,
    "oyed": 14365,
    "Ġdropped": 4474,
    "gives": 15361,
    "interest": 5421,
    "fortune": 4975,
    "Ġvel": 7186,
    "Ġcautious": 12258,
    "Ġpromontory": 11945,
    "urpation": 16304,
    "Ġwonders": 7500,
    "Ġtro": 7356,
    "endous": 6849,
    "ectual": 21919,
    "Ġoverall": 4360,
    "hen": 3518,
    "lines": 6958,
    "Ġkate": 15909,
    "ols": 2413,
    "Ġtorment": 8677,
    "Ġendeavouring": 8035,
    "Ġspiritual": 9933,
    "Ġzigzag": 26274,
    "hands": 5967,
    "Ġunreserved": 19400,
    "nels": 12500,
    "Ġbolivia": 24668,
    "assin": 22309,
    "dra": 3414,
    "ription": 5676,
    "Ġtrucks": 19515,
    "crews": 15045,
    "iration": 4542,
    "Ġlake": 5227,
    "drown": 13708,
    "Ġidly": 16408,
    "Ġdragg": 23220,
    "Ġlbs": 11618,
    "Ġpeleg": 3740,
    "prepared": 13594,
    "ulties": 12906,
    "Ġcleanse": 24527,
    "delivered": 24101,
    "last": 3803,
    "Ġbulls": 23861,
    "Ġhitherto": 5880,
    "pipe": 8700,
    "Ġstronger": 8580,
    "Ġschedule": 2372,
    "Ġdoctrine": 24200,
    "Ġflapped": 23014,
    "Ġeloquent": 16115,
    "condemned": 26061,
    "Ġvincent": 15287,
    "attacked": 23124,
    "Ġleg": 2336,
    "Ġconjunction": 25103,
    "Ġcalifornia": 20533,
    "Ġmut": 3583,
    "Ġacquies": 11099,
    "Ġproblems": 2846,
    "omeness": 18018,
    "Ġrepair": 11983,
    "Ġtalking": 3858,
    "ipper": 13743,
    "friends": 8306,
    "large": 6627,
    "Ġrecommended": 8671,
    "sweeping": 24619,
    "irt": 3079,
    "Ġlandsman": 11352,
    "successful": 11360,
    "Ġmess": 7831,
    "ĠâĢľ_": 6697,
    "Ġmedd": 15543,
    "put": 414,
    "Ġsmells": 8893,
    "eld": 968,
    "Ġquivers": 22417,
    "Ġbox": 5109,
    "requiem": 24857,
    "topic": 10530,
    "Ġsaturday": 6451,
    "chorus": 19814,
    "Ġcopy": 10166,
    "Ġplanet": 14753,
    "Ġwisely": 13277,
    "Ġchest": 5185,
    "Ġpoured": 8805,
    "Ġhap": 18196,
    "Ġshovel": 23493,
    "Ġindec": 13931,
    "Ġalarm": 4045,
    "Ġcracks": 12024,
    "Ġgravel": 14105,
    "Ġarising": 10935,
    "Ġcryst": 9920,
    "Ġstony": 21743,
    "nne": 20991,
    "Ġicy": 10749,
    "Ġunwell": 22021,
    "Ġchas": 18380,
    "Ġunwarranted": 24831,
    "G": 43,
    "Ġserviceable": 24717,
    "something": 4286,
    "mot": 17598,
    "Ġb": 281,
    "Ġaristocratic": 20515,
    "Ġregulate": 22590,
    "wharf": 20609,
    "Ġcuff": 17831,
    "Ġemergency": 25731,
    "Ġemblem": 20501,
    "cru": 7127,
    "Ġbackpropagation": 1253,
    "Ġcongeal": 25981,
    "success": 6711,
    "ning": 948,
    "Ġabsolutely": 4859,
    "Ġproceeds": 12082,
    "inction": 6662,
    "Ġquiescent": 26244,
    "tailed": 17687,
    "consolation": 15156,
    "Ġcomical": 11681,
    "Ġmarked": 4621,
    "Ġenem": 4709,
    "stump": 21656,
    "¥": 103,
    "anatory": 21366,
    "july": 20478,
    "Ġlifeless": 8951,
    "asting": 12811,
    "26": 10076,
    "Ġsof": 18282,
    "Ġchall": 10946,
    "ns": 753,
    "Ġnap": 8813,
    "Ġhelplessly": 20081,
    "Ġcooped": 22584,
    "resc": 21241,
    "ilburn": 18062,
    "Ġshilling": 18229,
    "Ġimagined": 8610,
    "reflected": 24732,
    "fill": 15354,
    "Ġdiver": 2527,
    "unerative": 21900,
    "Ġcronies": 23443,
    "law": 6116,
    "Ġsurve": 9877,
    "succeeded": 15179,
    "Ġwoodcock": 19165,
    "magnifying": 25393,
    "Ġbiggest": 24567,
    "Ġcustom": 5078,
    "Ġhovers": 19080,
    "efficient": 2871,
    "atement": 17775,
    "Ġdandy": 17894,
    "Ġcounting": 13099,
    "Ġdepending": 14300,
    "lee": 11588,
    "Ġfaced": 10810,
    "circumstantial": 24444,
    "objects": 13474,
    "Ġtroops": 24899,
    "Ġhav": 12759,
    "Ġbloom": 9890,
    "Ġcarve": 23096,
    "cav": 17510,
    "Ġwere": 555,
    "oky": 8198,
    "mentioned": 10626,
    "Ġaids": 12233,
    "Ġassu": 21901,
    "Ġwhistle": 9068,
    "discredit": 24253,
    "silly": 24422,
    "Ġwheeled": 14141,
    "Ġancestry": 25642,
    "Ġextant": 18696,
    "Ġspeaker": 19150,
    "Ġloved": 4601,
    "Ġincluding": 2849,
    "iling": 3095,
    "Ġtriangular": 14861,
    "together": 3557,
    "esy": 9185,
    "boom": 18998,
    "Ġlads": 8601,
    "Ġorganization": 7984,
    "Ġmanxman": 9568,
    "Ġnails": 12653,
    "Ġseems": 2480,
    "fitters": 24760,
    "Ġsw": 1357,
    "Ġgreedy": 3056,
    "Ġab": 528,
    "Ġnooks": 26012,
    "magnet": 14972,
    "Ġpail": 15611,
    "Ġfemale": 8345,
    "numerous": 17434,
    "assistant": 25568,
    "Ġassisting": 13262,
    "iron": 3735,
    "display": 19158,
    "Ġrooms": 5180,
    "Ġbawling": 25946,
    "Ġtormenting": 15108,
    "Ġlined": 15654,
    "leo": 21367,
    "an": 278,
    "Ġbeen": 626,
    "scoured": 22996,
    "esteem": 26009,
    "Ġintimately": 24801,
    "Ġvindication": 25365,
    "Ġbrid": 6291,
    "Ġcursory": 18849,
    "meaning": 2910,
    "Ġeffects": 7236,
    "Ġspouted": 14676,
    "my": 1316,
    "Ġjon": 15952,
    "blacksmith": 17003,
    "Ġprayers": 12128,
    "bble": 17487,
    "Ġsnoring": 23742,
    "Ġpart": 859,
    "Ġimputable": 22177,
    "Ġpunctilious": 26355,
    "treacle": 25151,
    "Ġavailed": 23955,
    "Ġrefer": 18698,
    "omited": 21644,
    "roads": 17960,
    "Ġgrasped": 8034,
    "asant": 17961,
    "pus": 3415,
    "making": 2571,
    "inc": 2518,
    "ble": 541,
    "call": 8726,
    "Ġtiara": 26417,
    "Ġpod": 15608,
    "Ġshorter": 4501,
    "icide": 11621,
    "Ġrang": 9248,
    "Ġrocks": 6862,
    "Ġaveraging": 2419,
    "Ġdeal": 3608,
    "race": 11634,
    "Ġcurling": 9344,
    "Ġbehaved": 13258,
    "ighted": 8478,
    "Ġding": 12604,
    "laug": 10709,
    "Ġcharcoal": 19007,
    "inforcement": 3146,
    "Ġinventing": 24862,
    "Ġleader": 14704,
    "Ġespe": 21158,
    "rible": 3229,
    "Ġsteal": 16287,
    "even": 3837,
    "Ġhandsome": 4907,
    "Ġcontract": 18476,
    "Ġhellish": 10553,
    "Ġgrizz": 10354,
    "Ġdictating": 20155,
    "Ġdemand": 4947,
    "owl": 12688,
    "Ġnobleman": 19395,
    "yea": 23091,
    "ĠĠĠĠĠĠĠĠĠĠĠĠĠĠĠĠĠĠĠĠĠĠĠĠĠĠĠĠĠ": 19702,
    "Ġsprawling": 22144,
    "Ġesteem": 7531,
    "Ġclient": 5556,
    "Ġstripping": 23698,
    "Ġstim": 18066,
    "inqu": 6122,
    "Ġrucastle": 5176,
    "Ġresuming": 12898,
    "smith": 5669,
    "Ġsaturation": 2062,
    "Ġhob": 12634,
    "illuminated": 17456,
    "ampled": 18885,
    "Ġwhichever": 14003,
    "sto": 3201,
    "Ġsharkish": 24506,
    "Ġcolds": 23761,
    "ricade": 13044,
    "salis": 25150,
    "Ġsan": 7824,
    "mindful": 19602,
    "achment": 5464,
    "Ġincognita": 26553,
    "ty": 1002,
    "Ú": 155,
    "ime": 625,
    "Ġodd": 6626,
    "Ġallegro": 25795,
    "hor": 2570,
    "Ġslipper": 24268,
    "south": 8762,
    "Ġsigh": 10339,
    "stirred": 20428,
    "Ġgracechurch": 12203,
    "Ġdelight": 2545,
    "Ç": 136,
    "Ġtruth": 3320,
    "iac": 6226,
    "raising": 21635,
    "Ġarchbishop": 18718,
    "occasionally": 13524,
    "Ġbedfellow": 16443,
    "iluvian": 18063,
    "gorith": 558,
    "Ġnarration": 13507,
    "Ġdisorder": 16054,
    "Ġbrah": 19360,
    "Ġasc": 4766,
    "Ġinflu": 4910,
    "Ġverily": 16605,
    "Ġprovinces": 24193,
    "can": 1231,
    "us": 532,
    "Ġdress": 4018,
    "port": 10721,
    "Ġadduced": 26526,
    "crat": 24087,
    "fishermen": 17062,
    "Ġforger": 15737,
    "Ġpurchased": 12265,
    "Ġilluminating": 25246,
    "concern": 6100,
    "Ġswashing": 23059,
    "cup": 10694,
    "mb": 907,
    "Ġposs": 1613,
    "Ġhundredth": 16520,
    "Ġdisastrous": 16063,
    "neighbourhood": 10028,
    "Ġexhibited": 9547,
    "Ġcannibal": 7773,
    "Ġleatherhead": 20017,
    "police": 10586,
    "Ġmotives": 7486,
    "shriek": 20523,
    "Ġformula": 2865,
    "Ġstrenuously": 17451,
    "Ġi": 311,
    "og": 871,
    "rally": 17653,
    "Ġegotistical": 26193,
    "Ġbulge": 23860,
    "Ġchann": 15939,
    "thirds": 25049,
    "Ġgamy": 18001,
    "Ġimplicated": 24876,
    "ighbour": 3388,
    "oblig": 16294,
    "Ġbusied": 19068,
    "meeting": 11021,
    "silence": 8045,
    "Ġsaturn": 22903,
    "octavo": 11387,
    "Ġquiet": 3261,
    "gradu": 18618,
    "Ġgamb": 18000,
    "Ġtruck": 19514,
    "Ġgifted": 17999,
    "tro": 15436,
    "Ġtransaction": 22443,
    "clings": 23154,
    "existence": 16018,
    "Ġcourtiers": 24138,
    "Ġhearses": 20063,
    "subst": 12169,
    "Ġcontraction": 16012,
    "Ġdesolation": 12273,
    "Ġdeparture": 6489,
    "Ġut": 2281,
    "Ġgurglings": 26467,
    "Ġoil": 3373,
    "Ġpronouncing": 16971,
    "iting": 2158,
    "commission": 22815,
    "resolved": 9642,
    "Ġpressing": 9264,
    "precision": 4332,
    "ology": 1609,
    "cerem": 15682,
    "Ġabruptly": 15154,
    "Ġarsacides": 17297,
    "Ġobservable": 25129,
    "Ġanyhow": 14257,
    "Ġglit": 8562,
    "earth": 6501,
    "Ġtranqu": 4606,
    "Ġsovere": 9259,
    "Ġeffemin": 18544,
    "Ġpleasanter": 19069,
    "gement": 13731,
    "Ġcontro": 1685,
    "rolled": 9062,
    "Ġfountains": 13506,
    "alongside": 19792,
    "Ġdislike": 6048,
    "Ġspite": 4154,
    "difficulty": 12394,
    "impropriety": 21716,
    "Ġraved": 22660,
    "Ġperceptibly": 25822,
    "un": 373,
    "Ġhermit": 15861,
    "sin": 21051,
    "Ġphr": 2677,
    "atic": 4015,
    "generative": 4331,
    "Ġpondered": 15170,
    "Ġlogger": 11958,
    "Ġwatched": 6298,
    "Ġmichael": 20682,
    "ositories": 22268,
    "Ġoptimize": 1579,
    "Ġoh": 2175,
    "Ġwise": 6811,
    "Ġreveries": 11349,
    "engineer": 23150,
    "tend": 17676,
    "repent": 15516,
    "skill": 24487,
    "Ġrespectful": 16349,
    "ougher": 18276,
    "om": 315,
    "Ġcasting": 12105,
    "Ġnotable": 18223,
    "andish": 18156,
    "Ġbrutality": 26278,
    "favourable": 12268,
    "Ġnational": 13945,
    "sworn": 24259,
    "Ġtunes": 24620,
    "Ġlurking": 11291,
    "Ġsecondary": 23336,
    "Ġmetrics": 19066,
    "ittarius": 22381,
    "Ġpreacher": 18370,
    "pl": 401,
    "Ġxxiv": 24477,
    "Ġmes": 17798,
    "Ġfists": 15587,
    "racing": 21634,
    "Ġunperceived": 22041,
    "included": 19210,
    "Ġhearken": 21688,
    "Ġassociated": 12254,
    "Ġwrap": 24595,
    "reck": 9639,
    "Ġvehem": 22894,
    "throughout": 24090,
    "inously": 21189,
    "Ġexposes": 22627,
    "Ġsimilar": 4918,
    "Ġperturbation": 20444,
    "consequence": 9766,
    "Ġneedlessly": 23631,
    "claim": 9838,
    "Ġconsp": 10227,
    "overs": 17623,
    "imperturbable": 25791,
    "Ġans": 1647,
    "Ġimperilled": 19581,
    "remote": 23193,
    "period": 15906,
    "Ġhailed": 6406,
    "brave": 19826,
    "Ġmoul": 15548,
    "hideous": 25408,
    "Ġbiscuit": 12594,
    "Ġpretension": 23767,
    "immediate": 20097,
    "Ġfrog": 23925,
    "returns": 23142,
    "Ġmich": 21308,
    "hens": 3935,
    "Ġwebster": 20164,
    "beer": 22491,
    "Ġvivacious": 19818,
    "Ġexclusiveness": 23931,
    "Ġletter": 2198,
    "amped": 12037,
    "Ġsooty": 25816,
    "such": 3085,
    "Ġhed": 7387,
    "Ġord": 3737,
    "Ġsubstant": 14811,
    "Ġretrieval": 10677,
    "Ġhorseman": 19610,
    "Ġcategor": 4138,
    "Ġdish": 6137,
    "Ġcommend": 10337,
    "Ġdepos": 11010,
    "jump": 10106,
    "Ġpicked": 6342,
    "Ġnavigation": 9996,
    "Ġern": 8397,
    "Ġunfrequent": 24110,
    "Ġendeavoured": 4919,
    "Ġnind": 17952,
    "acid": 11007,
    "Ġencoder": 3635,
    "Ġsashes": 21228,
    "Ġheated": 21685,
    "links": 20960,
    "respectable": 19849,
    "Ġbulkington": 14678,
    "Ġpref": 14174,
    "Ġqualities": 7533,
    "ridge": 9500,
    "opius": 18509,
    "gings": 7549,
    "strangers": 20339,
    "Ġ77": 24266,
    "Ġarriving": 19220,
    "entimes": 12661,
    "do": 1995,
    "web": 18665,
    "Ġinequal": 21500,
    "Ġmet": 1893,
    "sink": 11524,
    "Ġinsurg": 23683,
    "adoes": 11663,
    "Ġliveliest": 24774,
    "dum": 17520,
    "braid": 17497,
    "Ġcrockery": 24303,
    "Ġdismally": 20217,
    "Ġdig": 6136,
    "Ġintegrity": 12317,
    "âĢĿâĢĶ": 5721,
    "egyptians": 25899,
    "onze": 21258,
    "Ġevid": 3502,
    "Ġlately": 6386,
    "Ġwayward": 22875,
    "Ġobject": 1395,
    "Ġattacked": 10570,
    "Ġatlantic": 7000,
    "Ġplanks": 5563,
    "poises": 11893,
    "Ġtells": 9364,
    "fortnight": 13091,
    "stoke": 18025,
    "Ġtusked": 25427,
    "Ġrolled": 4433,
    "union": 15774,
    "ps": 4576,
    "Ġambition": 11434,
    "Ġeasterly": 25963,
    "Ġdaniel": 15115,
    "Ġshoots": 14569,
    "were": 2556,
    "Ġmuffled": 10643,
    "lest": 5290,
    "Ġrelish": 14387,
    "Ġgarb": 21606,
    "Ġankers": 21448,
    "little": 3352,
    "Ġimpotently": 22394,
    "Ġmbpp": 21325,
    "Ġchase": 3943,
    "Ġenclosure": 20627,
    "Ġcircles": 7967,
    "Ġsympathising": 24299,
    "Ġprovoked": 13330,
    "Ġsiberia": 26162,
    "Ġjoining": 13168,
    "Ġwindow": 2999,
    "friend": 3862,
    "heavens": 19748,
    "Ġtester": 21175,
    "Ġgilt": 21609,
    "ount": 1112,
    "cloudless": 20335,
    "Ġfarewell": 9523,
    "Ġcalf": 16272,
    "Ġresign": 18565,
    "Ġarmies": 16494,
    "Ġcontour": 18475,
    "ned": 3493,
    "Ġsporting": 17001,
    "Ġsensationalism": 26067,
    "comp": 3816,
    "ed": 293,
    "Ġmccarthys": 19665,
    "aphs": 22339,
    "Ġwheel": 9721,
    "shed": 8095,
    "reduc": 5459,
    "Ġtatters": 21180,
    "Ġxviii": 23413,
    "Ġfinger": 5274,
    "Ġsurgeons": 23466,
    "esc": 613,
    "Ġdispleasure": 16055,
    "Ġmachine": 804,
    "Ġgates": 10203,
    "izers": 18145,
    "ere": 6789,
    "Ġ79": 24267,
    "Ġpatagonia": 25858,
    "Ġcrater": 16440,
    "remark": 7261,
    "Ġunt": 2296,
    "Ġrisen": 9496,
    "Ġfloundered": 18863,
    "frequented": 25901,
    "Ġringing": 13336,
    "ights": 8477,
    "recklessly": 25270,
    "Ġestimates": 3749,
    "interchange": 23741,
    "Ġspeeding": 23566,
    "istan": 22112,
    "Ġthoroughfare": 16946,
    "Ġexceed": 1346,
    "cadence": 26126,
    "orses": 6052,
    "pockets": 16214,
    "Ġdescend": 7427,
    "Ġhem": 8447,
    "Ġstun": 11653,
    "Ġbedfellows": 23448,
    "think": 3609,
    "Ġinsist": 9893,
    "Ġmoot": 22436,
    "impatient": 13644,
    "Ġcushion": 17835,
    "Ġunsupervised": 2500,
    "Ġastronomy": 25927,
    "Ġrepositories": 23367,
    "oran": 8793,
    "Ġepidemic": 20698,
    "Ġpestilent": 25778,
    "stepfather": 19193,
    "Ġyielded": 14874,
    "intolerable": 22941,
    "Ġdaylight": 10353,
    "Ġcaptiv": 16258,
    "Ġslumbering": 25702,
    "Ġcyp": 21348,
    "Ġwinged": 16997,
    "Ġcensus": 15100,
    "preference": 22457,
    "idable": 8146,
    "Ġoverfitting": 1540,
    "Ġreligions": 20111,
    "'(": 2982,
    "Ġpirate": 14998,
    "Ġtraversed": 18894,
    "Ġso": 433,
    "Ġbordeaux": 24565,
    "Ġsain": 17752,
    "Ġbony": 12592,
    "_.,": 14563,
    "Ġjolly": 6857,
    "paint": 21020,
    "Ġvir": 7001,
    "Ġceaseless": 13492,
    "lessness": 5318,
    "Ġpanel": 13376,
    "Ġvideo": 25366,
    "Ġslavish": 23175,
    "Ġdiscerning": 25005,
    "Ġcologne": 12980,
    "Ġtru": 4104,
    "joining": 19449,
    "Ġcho": 4549,
    "mud": 20973,
    "sincerely": 24585,
    "Ġsally": 15505,
    "Ġesteemed": 10591,
    "Ġutilize": 4799,
    "behind": 6779,
    "erve": 12554,
    "Ġlovers": 9723,
    "orphans": 26442,
    "sme": 17660,
    "pike": 11517,
    "Ġconsol": 3815,
    "catherine": 7128,
    "ĠĠĠĠĠĠ": 6413,
    "Ġkrusen": 20716,
    "Ġtheore": 1829,
    "Ġincline": 18570,
    "Ġhertfordshire": 5377,
    "Ġeven": 1027,
    "Ġunav": 18241,
    "Ġships": 3715,
    "isturbed": 18298,
    "racts": 14369,
    "Ġblade": 11897,
    "Ġbrill": 8551,
    "Ġdoubtless": 6196,
    "Ġblaze": 16223,
    "Ġembarkation": 25125,
    "dar": 20826,
    "Ġbritish": 11339,
    "Ġconstitution": 20112,
    "Ġnew": 1196,
    "Ġreserves": 19673,
    "Ġwhitewashed": 14472,
    "toed": 18579,
    "Ġacquisition": 18901,
    "Ġpugn": 21483,
    "Ġcorpusants": 13681,
    "Ġwretchedly": 19509,
    "gunpowder": 25340,
    "Ġoaken": 13868,
    "Ġfilling": 13412,
    "Ġwasting": 12733,
    "Ġsaved": 6691,
    "shr": 10982,
    "Ġcomposition": 1686,
    "jah": 17583,
    "Ġobtru": 18673,
    "Ġcomputers": 2642,
    "Ġimmured": 24074,
    "Ġappropri": 2232,
    "Ġinterlacing": 22580,
    "Ġireland": 17338,
    "Ġimmemorially": 25384,
    "wa": 5897,
    "Ĝ": 221,
    "Ġprecipices": 12282,
    "Ġcalculated": 4478,
    "Ġcongreg": 8464,
    "Ġboun": 21383,
    "Ġpeddling": 21485,
    "Ġfour": 2218,
    "Ġcrocod": 19631,
    "breath": 15166,
    "Ġstudy": 1740,
    "Ġcontracted": 12865,
    "Ġventil": 8019,
    "Ġoverseeing": 22357,
    "Ġredeemed": 25790,
    "3": 23,
    "Ġsurtout": 23467,
    "Ġsemantic": 1958,
    "Ġdecap": 16024,
    "thrusting": 20262,
    "feren": 767,
    "scotch": 25852,
    "cannon": 22965,
    "Ġbuttoned": 25369,
    "perquis": 22194,
    "Ġinvitation": 5188,
    "bear": 10318,
    "source": 11528,
    "Ġfare": 5810,
    "Ġforetold": 23453,
    "Ġonly": 787,
    "allies": 14168,
    "Ġexpert": 18869,
    "Ġuntil": 2664,
    "Ġachieve": 3673,
    "mr": 1900,
    "une": 2786,
    "Ġstript": 23696,
    "allow": 5104,
    "proof": 16427,
    "ional": 1083,
    "Ġmedic": 11258,
    "purpose": 10047,
    "Ġglobu": 23273,
    "Ġturk": 6604,
    "mastod": 23977,
    "create": 24162,
    "Ġdecomp": 3811,
    "ructed": 7028,
    "Ġmoran": 9345,
    "difficult": 10061,
    "ideas": 18582,
    "Ġimpelled": 11786,
    "Ġjen": 9270,
    "Ġbeat": 4494,
    "itary": 4752,
    "Ġjack": 4654,
    "probably": 10023,
    "Ġadvise": 7935,
    "Ġlodger": 24095,
    "Ġblameless": 19861,
    "Ġmisanthrop": 22760,
    "Ġsmote": 18575,
    "bering": 18682,
    "Ġpulley": 2979,
    "orus": 10803,
    "ounix": 14166,
    "vic": 13805,
    "hol": 3838,
    "obviously": 25243,
    "dam": 7797,
    "Ġviolation": 23409,
    "Ġharshly": 25250,
    "Ġdisobey": 18560,
    "Ġstruck": 3389,
    "Ġmonica": 22988,
    "Ġsubmerged": 11876,
    "inous": 8776,
    "Ġidentifies": 12019,
    "Ġbeing": 1162,
    "ext": 917,
    "Ġcapting": 23023,
    "Ġasking": 5651,
    "soc": 5175,
    "Ġunwe": 15842,
    "Ġletters": 3793,
    "Ġheavens": 5050,
    "Ġensures": 3058,
    "Ġdived": 9180,
    "Ġimages": 1597,
    "Ġelbows": 18637,
    "Ġlocket": 22117,
    "Ġherb": 15860,
    "Ġusing": 719,
    "Ġhud": 10824,
    "Ġreproached": 24892,
    "Ġattempt": 3487,
    "higher": 20410,
    "Ġforce": 5092,
    "Ġday": 956,
    "ortunities": 15944,
    "harpoon": 9494,
    "overlooked": 23324,
    "orial": 8418,
    "hunter": 10558,
    "Ġsecured": 6746,
    "Ġwedding": 4817,
    "arman": 11598,
    "Ġgloss": 11962,
    "Ġ61": 24364,
    "Ġinhale": 20303,
    "denial": 18717,
    "anywhere": 14683,
    "Ġbenjamin": 26569,
    "ĠĠĠĠĠĠĠĠĠĠĠĠĠĠĠĠĠĠĠĠĠĠĠĠĠĠĠĠĠĠĠĠĠĠ": 14614,
    "Ġgap": 21602,
    "Ġimpersonal": 17399,
    "Ġslack": 8958,
    "Ġsegmentation": 17343,
    "Ġsternly": 16717,
    "vy": 21110,
    "Ġabilities": 8870,
    "aintance": 3570,
    "Ġherself": 1561,
    "Ġdoubting": 13103,
    "Ġshelves": 15000,
    "arded": 5029,
    "Ġtrag": 13045,
    "Ġnovels": 15933,
    "Ġriver": 5411,
    "Ġspitz": 14151,
    "Ġcalamities": 25700,
    "Ġproud": 5654,
    "Ġcane": 10929,
    "Ġeyed": 12674,
    "Ġaxe": 15064,
    "Ġhunters": 6301,
    "childhood": 16870,
    "quently": 9705,
    "iple": 4807,
    "itud": 2933,
    "Ġdocks": 14180,
    "Ġtempt": 5565,
    "oled": 17621,
    "Ġinjure": 16783,
    "Ġwards": 17791,
    "Ġemployed": 5200,
    "Ġthunders": 15642,
    "Ġ25": 13196,
    "Ġaddress": 2274,
    "Ġglided": 7447,
    "Ġsunday": 7270,
    "alliance": 22204,
    "Ġpromptly": 23821,
    "Ġfix": 2506,
    "bu": 5132,
    "list": 7551,
    "Ġtangle": 25761,
    "nay": 7136,
    "ushes": 22295,
    "pad": 13771,
    "Ġwil": 4582,
    "Ġtandem": 26413,
    "Ġapartment": 6635,
    "ross": 808,
    "Ġspoon": 22139,
    "settle": 16664,
    "ected": 7873,
    "Ġsch": 13838,
    "Ġvoyages": 6907,
    "Ġlevelled": 11286,
    "Ġdisturbed": 8675,
    "express": 4896,
    "mosp": 8089,
    "Ġjourney": 3879,
    "Ġmouse": 4695,
    "ards": 2503,
    "legged": 10468,
    "withdrawn": 23029,
    "prince": 23818,
    "convinced": 10625,
    "Ġtheir": 643,
    "Ġbrace": 11213,
    "Ġwarned": 16882,
    "Ġdomin": 10465,
    "Ġsequ": 981,
    "confess": 12180,
    "Ġpooh": 18604,
    "Ġdoxology": 22248,
    "Ġsilently": 6892,
    "Ġbacks": 8529,
    "Ġweapons": 10596,
    "Ġspurred": 22143,
    "Ġkramm": 26235,
    "Ġcovered": 5171,
    "sequence": 2855,
    "Ġbracing": 16583,
    "comparison": 25842,
    "Ġdecreasing": 2444,
    "lantern": 17431,
    "Ġfierc": 18715,
    "voices": 21120,
    "Ġpreliminaries": 25177,
    "Ġyale": 21783,
    "Ġguardians": 14945,
    "Ġdau": 21428,
    "chase": 11648,
    "ges": 2874,
    "destroyed": 15264,
    "zers": 21149,
    "aviour": 11006,
    "Ġmarks": 6747,
    "Ġolfactories": 26172,
    "Ġwindibank": 7256,
    "Ġmorose": 18851,
    "ahawk": 23317,
    "Ġpupils": 20424,
    "Ġjoppa": 12040,
    "enges": 13059,
    "ais": 8071,
    "Ġconfess": 3767,
    "Ġbrotherly": 16529,
    "Ġbene": 2033,
    "cur": 3270,
    "Ġsignify": 16496,
    "Ġsim": 734,
    "important": 7113,
    "pr": 3178,
    "Ġmanagement": 8193,
    "Ġsuperficial": 23458,
    "Ġsheaves": 22162,
    "flitted": 23972,
    "perhaps": 4120,
    "Ġthreading": 23405,
    "kily": 20939,
    "Ġclipping": 2441,
    "Ġinsure": 13182,
    "Ġcivility": 4789,
    "Ġmallet": 17812,
    "skeleton": 17379,
    "Ġfree": 3375,
    "Ġterribly": 10427,
    "Ñ": 146,
    "learning": 2546,
    "bond": 17492,
    "countenances": 24154,
    "Ġcolonel": 3408,
    "dimens": 2319,
    "Ġassurance": 7774,
    "bedstead": 23935,
    "cig": 17506,
    "Ġas": 374,
    "reasonable": 7751,
    "Ġbodily": 6107,
    "fortun": 3539,
    "Ġstiffness": 24828,
    "ond": 1160,
    "jerked": 25619,
    "legs": 13186,
    "Ġgathered": 8444,
    "Ġpat": 1825,
    "Ġ1846": 26085,
    "pursu": 11394,
    "rigged": 17063,
    "Ġstupid": 7604,
    "igated": 15711,
    "Ġdishes": 16053,
    "aggo": 5097,
    "Ġhosmer": 6774,
    "ail": 565,
    "oker": 10965,
    "Ġinflamed": 13477,
    "ink": 757,
    "Ġbressed": 21390,
    "evident": 25521,
    "progra": 9398,
    "ignominious": 26589,
    "Ġcaused": 5048,
    "gh": 3801,
    "lungs": 26136,
    "rust": 2579,
    "Ġfreemason": 23211,
    "Ġsink": 4342,
    "Ġimmemorial": 10513,
    "Ġbashaw": 25634,
    "Ġcharger": 19005,
    "*": 14,
    "Ġeternities": 19946,
    "Ġroses": 11790,
    "Ġsyrian": 18355,
    "wrinkled": 16557,
    "Ġvexation": 10589,
    "Ġpostp": 12148,
    "Ġheroines": 19754,
    "Ġfits": 8795,
    "Ġmrs": 1465,
    "usation": 18402,
    "Ġsunrise": 9375,
    "Ġsenses": 8252,
    "Ġsupervised": 3402,
    "hoisted": 19284,
    "Ġerrone": 14433,
    "Ġshipw": 12984,
    "Ġapple": 14169,
    "Ġvoyager": 16514,
    "Ġimpatiently": 8338,
    "Ġblend": 14401,
    "Ġterrier": 23402,
    "Ġbu": 3682,
    "cou": 13699,
    "Ġimpud": 18445,
    "sch": 21053,
    "Ġcrumbs": 19124,
    "Ġmockery": 12112,
    "Ġsolitude": 6875,
    "Ġlevel": 5020,
    "_,âĢĿ": 6219,
    "Ġcran": 12005,
    "Ġdepression": 21844,
    "Ġoutlaws": 22327,
    "Ġplum": 11826,
    "image": 9689,
    "Ġdirty": 9181,
    "emotions": 15801,
    "volutional": 1934,
    "Ġlightnings": 16356,
    "embra": 14079,
    "Ġvocation": 10528,
    "Ġnumber": 1982,
    "peter": 24300,
    "Ġsab": 10764,
    "Ġphilistines": 26083,
    "doubtful": 24790,
    "Ġhorsey": 24252,
    "Ġancho": 15607,
    "zwilliam": 5074,
    "Ġinvolve": 11043,
    "Ġapologize": 15132,
    "Ġlanguor": 12853,
    "goodbye": 12060,
    "Ġreckoning": 14982,
    "Ġspiral": 14585,
    "singing": 24363,
    "Ġthoughtlessness": 16197,
    "Ġgoverned": 23573,
    "Ġprospects": 9962,
    "Ġrefresh": 10348,
    "Ġ40": 14771,
    "Ġfamous": 5256,
    "spir": 5738,
    "imming": 9690,
    "Ġparcel": 15203,
    "Ġflavor": 16254,
    "Ġapprehens": 5682,
    "Ġbordering": 17231,
    "Ġpopularly": 12246,
    "ĠĠĠĠĠĠĠĠĠĠĠĠĠĠĠĠĠĠĠĠĠĠĠĠĠĠĠĠĠĠĠĠĠĠĠĠĠĠĠĠĠĠĠĠĠĠĠĠĠĠĠ": 20042,
    "langu": 4808,
    "boscombe": 26122,
    "Ġlanguage": 657,
    "Ġoftentimes": 20158,
    "Ġtriumphant": 12194,
    "Ġexecutioner": 12276,
    "Ġ1": 1015,
    "Ġcheating": 16368,
    "momentum": 4991,
    "Ġdeaf": 12726,
    "Ġcried": 1485,
    "Ġstructured": 2976,
    "Ġsupreme": 13611,
    "Ġbrandy": 11051,
    "slipped": 25530,
    "Ġdownward": 10334,
    "Ġrid": 4356,
    "Ġpersuaded": 5769,
    "Ġensuing": 12313,
    "Ġexcused": 23314,
    "drew": 7334,
    "Ġhauling": 14090,
    "ulate": 5233,
    "sir": 5001,
    "deadly": 17101,
    "Ġfossil": 12391,
    "ays": 6684,
    "rimsh": 17029,
    "Ġunwillingly": 15852,
    "safe": 10057,
    "chron": 21697,
    "Ġtrick": 7019,
    "Ġliar": 22412,
    "Ġbridegroom": 10607,
    "appalling": 22848,
    "Ġmule": 13865,
    "Ġinserting": 19908,
    "deploy": 22146,
    "Ġlicensing": 20096,
    "bbings": 19278,
    "Ġkidnapping": 26358,
    "there": 1422,
    "Ġtent": 15470,
    "ont": 2620,
    "Ġthereby": 7644,
    "oct": 7554,
    "rer": 3622,
    "isite": 15567,
    "kitty": 10108,
    "Ġchemical": 10411,
    "known": 3569,
    "Ġhen": 3503,
    "stir": 12678,
    "ditch": 17530,
    "sed": 4175,
    "Ġworry": 18817,
    "Ġbullion": 24986,
    "Ġhook": 6452,
    "ö": 183,
    "Ġindisposed": 26289,
    "Ġclearing": 8240,
    "idy": 21768,
    "Ġain": 6969,
    "Ġtamer": 24979,
    "Ġconstrain": 2626,
    "Ġunexpectedly": 19911,
    "Ġmead": 8839,
    "Ġaim": 10148,
    "Ġmaterials": 11290,
    "inspector": 13650,
    "Ġloading": 15878,
    "abode": 21795,
    "Ġdiabolically": 25514,
    "Ġgrassy": 24379,
    "Ġrashness": 25461,
    "Ġfumes": 21421,
    "Ġthick": 3783,
    "Ġrelate": 6874,
    "Ġlightning": 5750,
    "Ġscornful": 24999,
    "Ġpicture": 4858,
    "Ġprairies": 20024,
    "Ġrelationship": 2317,
    "Ġpictures": 5503,
    "Ġislands": 6766,
    "abling": 1078,
    "Ġwreaths": 25938,
    "Ġsaville": 15893,
    "Ġsam": 7569,
    "bler": 11474,
    "heaving": 21210,
    "ounder": 11748,
    "Ġknocking": 10562,
    "infl": 15490,
    "accessible": 13643,
    "Ġtheories": 13852,
    "Ġhired": 10180,
    "Ġhowever": 1304,
    "Ġtechnical": 17194,
    "Ġthursday": 12649,
    "change": 6391,
    "embow": 21935,
    "iture": 5696,
    "Ġjapan": 7640,
    "Ġwestern": 10657,
    "lead": 10168,
    "Ġsatisfy": 6911,
    "unting": 21878,
    "Ġcharacteristics": 8613,
    "Ġmortified": 14696,
    "Ġcondesc": 7182,
    "Ġrom": 4527,
    "Ġtalent": 12301,
    "tained": 4409,
    "Ġraging": 14312,
    "Ġanalog": 12617,
    "Ġlistening": 6319,
    "ittance": 12850,
    "Ġberyl": 20493,
    "any": 3339,
    "Ġformerly": 7493,
    "Ġhateful": 19716,
    "icating": 15659,
    "Ġexcuses": 19043,
    "Ġlearn": 365,
    "Ġunderstand": 841,
    "Ġimitated": 18330,
    "built": 16827,
    "Ġcod": 8413,
    "adam": 15734,
    "sword": 10728,
    "Ġwolves": 25935,
    "Ġtranque": 14203,
    "Ġfaculties": 14960,
    "Ġfirmament": 19474,
    "Ġcommission": 6713,
    "Ġhasty": 10479,
    "Ġscarlet": 13228,
    "enough": 6809,
    "Ġlegal": 10441,
    "Ġjig": 15955,
    "Ġinto": 647,
    "fing": 13716,
    "Ġanaly": 1145,
    "acks": 11792,
    "ackinaw": 22425,
    "Ġtransc": 12868,
    "ą": 198,
    "Ġtarts": 10755,
    "Ġwoll": 21296,
    "Ġbon": 8790,
    "Ġvarious": 3510,
    "oner": 6125,
    "Ġtarn": 21161,
    "athan": 2959,
    "Ġ84": 19712,
    "painted": 17641,
    "because": 4924,
    "Ġticking": 25036,
    "stick": 15689,
    "fork": 20859,
    "Ġdigest": 24648,
    "woof": 21142,
    "oak": 21005,
    "Ġvigorous": 10569,
    "Ġstrong": 1786,
    "speech": 10669,
    "Ġcro": 4874,
    "despatched": 19804,
    "Ġced": 10786,
    "Ġhence": 4989,
    "Ġprincipally": 11311,
    "congreg": 25399,
    "Ġwaist": 6891,
    "whatsoever": 18488,
    "Ġyields": 19659,
    "Ġbutton": 10270,
    "Ġvacancy": 9047,
    "intending": 22938,
    "Ġcolumn": 9331,
    "Ġstaying": 8284,
    "Ġbennett": 16326,
    "Ġmidships": 23635,
    "Ġadjusting": 3413,
    "drop": 15340,
    "Ġmetaphys": 16403,
    "âĢľ": 344,
    "Ġfisheries": 17441,
    "Ġborrowed": 17232,
    "Ġbenevolent": 7772,
    "ientiously": 21945,
    "Ġtouch": 3395,
    "prim": 23814,
    "rushing": 10021,
    "Ġunconquerable": 22067,
    "ele": 9117,
    "Ġmysticetus": 24923,
    "intelligence": 5883,
    "Ġstandards": 19016,
    "ons": 709,
    "Ġfo": 1653,
    "Ġmarling": 23037,
    "Ġshrieked": 9551,
    "Ġqualified": 14952,
    "Ġcompos": 22573,
    "Ġpossesses": 19355,
    "Ġinducements": 24968,
    "Ġlater": 6017,
    "sofa": 26147,
    "54": 15303,
    "cont": 2923,
    "Ġeavesdroppers": 25964,
    "Ġmeets": 7396,
    "Ġindomit": 22958,
    "nails": 17616,
    "Ġdeplored": 20508,
    "amidst": 25653,
    "Ġmaiden": 13390,
    "Ġcolleg": 22858,
    "Ġsoothe": 7405,
    "Ġbanished": 10619,
    "Ġfixing": 13160,
    "remental": 21250,
    "Ġglitter": 25126,
    "Ġbery": 13901,
    "pequod": 7053,
    "Ġsolutions": 1946,
    "Ġconstru": 19071,
    "Ġpowder": 11277,
    "onden": 13847,
    "nursery": 26401,
    "Ġunprepared": 22054,
    "õ": 182,
    "Ġcomplying": 18587,
    "ral": 4629,
    "Ġamber": 7027,
    "conclude": 24070,
    "assembled": 21548,
    "Ġposition": 1954,
    "Ġprecaution": 11199,
    "Ġgradual": 20604,
    "Ġindian": 4129,
    "en": 271,
    "Ġtinge": 25090,
    "Ġneglect": 7942,
    "Ġfollow": 1396,
    "skylight": 25624,
    "Ġdisturbing": 19949,
    "Ġuse": 834,
    "Ġtransformer": 2634,
    "returning": 12210,
    "order": 1959,
    "Ġbarricade": 14661,
    "Ġquaker": 10973,
    "sham": 9764,
    "Ġgiving": 4083,
    "Ġpostscript": 14810,
    "Ġmed": 4176,
    "Ġrepaired": 13112,
    "iosity": 2268,
    "Ġvelocity": 10623,
    "Ġpushed": 5910,
    "Ġimprobable": 9798,
    "Ġextremity": 8991,
    "Ġglim": 9347,
    "lever": 2934,
    "Ġtorrents": 20059,
    "Ġmoods": 14953,
    "Ġhearty": 9849,
    "attent": 9362,
    "Ġomniscient": 20089,
    "terrors": 25044,
    "ĠvertebrÃ¦": 11437,
    "feeling": 6618,
    "Ġcopper": 7425,
    "Ġnewcomers": 26042,
    "tain": 559,
    "Ġneglig": 18880,
    "Ġgenerator": 3382,
    "Ġvoluntary": 14801,
    "Ġattractive": 25576,
    "Ġrevisit": 21673,
    "sust": 15425,
    "Ġsched": 2338,
    "Ġadmission": 23558,
    "Ġfriendship": 7246,
    "flesh": 13494,
    "Ġautumn": 14502,
    "Ġinfluence": 5515,
    "having": 5211,
    "Ġjabbering": 22307,
    "Ġenglishmen": 19433,
    "Ġsouth": 4912,
    "moreover": 12974,
    "tooth": 18580,
    "Ġinboard": 17935,
    "ille": 9222,
    "closed": 23156,
    "Ġaromatic": 25926,
    "Ġopportunities": 19251,
    "Ġrol": 3556,
    "Ġanalyzing": 18802,
    "Ġout": 543,
    "Ġnoises": 18375,
    "ucumber": 19058,
    "Ġunaccountably": 26517,
    "low": 655,
    "descending": 16288,
    "Ġbliss": 13006,
    "Ġtwitch": 22679,
    "ises": 3654,
    "Ġharpooned": 13266,
    "oko": 18441,
    "Ġguided": 10462,
    "due": 22414,
    "Ġsm": 704,
    "Ġrelates": 12986,
    "Ġderick": 9367,
    "alog": 8809,
    "Ġblasted": 7937,
    "exposure": 19259,
    "Ġaux": 21202,
    "Ġwidows": 24239,
    "Ġpoem": 22592,
    "urmountable": 15283,
    "Ġoutrage": 15962,
    "Ġboisterously": 25683,
    "fate": 17541,
    "Ġcrystals": 20230,
    "Ġconductor": 24011,
    "Ġhandspike": 22699,
    "Ġridge": 14821,
    "Ġinform": 997,
    "Ġac": 847,
    "Ġthousandth": 23686,
    "Ġrelevant": 1863,
    "covering": 15337,
    "brow": 15319,
    "diff": 9116,
    "Ġmother": 2067,
    "Ġrelentless": 26279,
    "notwithstanding": 22752,
    "Ġmilk": 6484,
    "strongly": 24685,
    "Ġforgo": 21777,
    "property": 20003,
    "--âĢľ": 12977,
    "Ġpacifics": 24373,
    "invol": 12535,
    "Ġwidow": 8666,
    "Ġslee": 8977,
    "Ġexposing": 11838,
    "Ġfollows": 7673,
    "Ġracket": 22663,
    "Ġlate": 3377,
    "Ġdilated": 24703,
    "Ġlisten": 4675,
    "suffered": 24330,
    "apology": 22337,
    "Ġbordered": 24564,
    "Ġyoungest": 7954,
    "ream": 2706,
    "Ġwishing": 7830,
    "Ġinstituted": 18702,
    "Ġpreparing": 8651,
    "knives": 14915,
    "depth": 12805,
    "ô": 181,
    "itters": 10783,
    "_)âĢĶ": 20147,
    "fr": 4805,
    "Ġsodden": 25536,
    "Ġhurry": 4914,
    "Ġmislead": 22758,
    "Ġextravagance": 17282,
    "Ġfant": 9176,
    "cas": 20796,
    "etieth": 21587,
    "onts": 15522,
    "length": 7135,
    "Ġleviathanic": 12085,
    "middle": 11312,
    "Ġbitten": 21393,
    "without": 4848,
    "Ġgets": 10841,
    "Ġwindsor": 16889,
    "september": 14039,
    "Ġreply": 4517,
    "Ġcallest": 17834,
    "dishonourable": 26367,
    ".)": 6783,
    "69": 17477,
    ")âĢĶ": 20744,
    "Ġalong": 1980,
    "Ġann": 4492,
    "Ġcorre": 3887,
    "tedious": 22635,
    "Ġhunch": 18937,
    "Ġfiftieth": 24702,
    "Ġproperties": 3121,
    "justice": 7958,
    "urns": 10216,
    "Ġcontact": 9284,
    "Ġribbed": 16806,
    "dropped": 12267,
    "Ġsleeping": 6320,
    "using": 5468,
    "merc": 19282,
    "vell": 3957,
    "ington": 21304,
    "Ġrigger": 19533,
    "Ġmorrow": 9346,
    "humiliation": 24025,
    "Ġsenseless": 12083,
    ",": 16,
    "Ġwhaling": 2782,
    "Ġengaging": 9339,
    "Ġsyllable": 9732,
    "wrinkles": 16558,
    "Ġhaunt": 18198,
    "Ġrepenting": 25323,
    "volume": 18585,
    "Ġseventy": 7880,
    "âĢĶ.âĢĿ": 22259,
    "Ġmeanwhile": 5736,
    "Ġtrusting": 24106,
    "abern": 21794,
    "heartily": 24218,
    "x": 92,
    "Ġfresh": 3670,
    "Ġpersist": 16270,
    "speak": 5504,
    "proachable": 23401,
    "Ġrestrained": 16374,
    "Ġfaded": 10811,
    "words": 7983,
    "Ġhemp": 9218,
    "Ġsolicited": 20040,
    "Ġbab": 5291,
    "Ġcuts": 14608,
    "Ġdaily": 5987,
    "same": 5362,
    "Ġrails": 22662,
    "Ġemperor": 15162,
    "Ġdism": 9770,
    "Ġbalm": 22905,
    "Ġutil": 4674,
    "Ġstead": 5650,
    "writer": 14649,
    "Ġemboldened": 22977,
    "Ġcompre": 4452,
    "Ġspecific": 2002,
    "ĠĠĠĠĠĠĠĠĠĠĠĠĠĠĠĠĠĠĠĠĠĠĠĠĠĠĠĠĠĠĠĠĠĠĠĠĠĠ": 16527,
    "Ġjoyfully": 19349,
    "Ġknife": 7309,
    "Ġconcuss": 19047,
    "quake": 11684,
    "Ġvigorously": 11301,
    "Ġonce": 1489,
    "Ġ101": 24409,
    "Ġsounding": 8265,
    "Ġ89": 19715,
    "appointment": 24063,
    "©": 107,
    "Ġcatastrophic": 3543,
    "Ġspeaks": 11161,
    "Ġmediterranean": 12319,
    "exertion": 16020,
    "killed": 15380,
    "condesc": 18506,
    "Ġbill": 4038,
    "mitted": 5213,
    "Ġfail": 4147,
    "abound": 15744,
    "#": 7,
    "raved": 18015,
    "Ġchar": 1701,
    "Ġcontinent": 14890,
    "Ġseated": 4543,
    "Ġfury": 7662,
    "affections": 17359,
    "chain": 18042,
    "quickly": 14964,
    "Ġtrustworthy": 24107,
    "oft": 3591,
    "ac": 740,
    "Ġgradually": 3400,
    "Ġconsecutive": 20705,
    "Ġtiger": 11557,
    "Ġsouthampton": 24309,
    "Í": 142,
    "shook": 19858,
    "etch": 9207,
    "ĠĠĠĠĠĠĠĠĠĠĠĠĠĠĠĠĠĠĠĠĠĠĠĠĠĠĠĠĠĠĠĠ": 2734,
    "Ġcharmingly": 24224,
    "Ġshoved": 23492,
    "Ġpigs": 19750,
    "Ġbestowed": 6594,
    "weeks": 14319,
    "loo": 10322,
    "Ġchord": 22249,
    "ceptible": 10958,
    "uerus": 26408,
    "village": 25423,
    "kers": 7133,
    "quickness": 19853,
    "Ġdrunken": 12054,
    "Ġinject": 2708,
    "!)": 10072,
    "Ġxxx": 7766,
    "Ġtroubled": 6617,
    "Ġfrance": 7682,
    "photograph": 16157,
    "Ġsalisbury": 24067,
    "uled": 11539,
    "self": 617,
    "occasional": 19579,
    "saddest": 25528,
    "angry": 18295,
    "Ġprosecution": 12385,
    "tail": 8765,
    "Ġembeddings": 2147,
    "Ġtransition": 14236,
    "Ġurgent": 16871,
    "moran": 24155,
    "Ġshapeless": 24524,
    "backpropagation": 11990,
    "Ġmodels": 761,
    "....": 11318,
    "Ġgangway": 20161,
    "Ġnewcom": 16225,
    "regret": 16452,
    "Ġcountryside": 23598,
    "Ġfacing": 10174,
    "rucastle": 22182,
    "Ġm": 274,
    "osh": 18389,
    "occupied": 12308,
    "(": 12,
    "historical": 20469,
    "different": 6500,
    "ilib": 4115,
    "Ġplata": 25120,
    "Ġfounder": 17885,
    "Ġpollard": 20389,
    "Ġattempts": 10493,
    "Ġhats": 14620,
    "Ġsickle": 24248,
    "scept": 21056,
    "Ġbrittle": 22868,
    "henomena": 20275,
    "Ġmale": 9651,
    "advancing": 14838,
    "Ġyears": 1891,
    "gladness": 25195,
    "Ġign": 8294,
    "Ġdair": 17891,
    "dense": 18716,
    "Ġbanish": 15574,
    "Ġincompetent": 25680,
    "<PAD>": 0,
    "Ġmorbid": 16240,
    "Ġattachment": 6050,
    "Ġdiscrimin": 2543,
    "onstr": 12551,
    "Ġbrimming": 22870,
    "anque": 13891,
    "windlass": 16723,
    "gazed": 15365,
    "Ġbegin": 3100,
    "prosperity": 20737,
    "suited": 22643,
    "usal": 7639,
    "Ġrank": 6259,
    "Ġleft": 1759,
    "Ġstrength": 4261,
    "told": 7811,
    "Ġlav": 13953,
    "Ġabout": 634,
    "Ġselecting": 16683,
    "Ġcontinue": 5398,
    "Ġhorn": 6186,
    "Ġglanced": 5952,
    "Ġserpentine": 11362,
    "Ġeyelids": 26108,
    "Ġresidence": 8207,
    "uary": 11540,
    "ded": 2754,
    "Ġwandering": 8657,
    "Ġattributed": 11837,
    "Ġdairy": 20689,
    "Ġfur": 992,
    "relieved": 13281,
    "ished": 1425,
    "Ġgreeting": 18964,
    "Ġtho": 21517,
    "```": 25894,
    "Ġcomfor": 14057,
    "Ġcontain": 1549,
    "Ġrustic": 14967,
    "Ġdetained": 18373,
    "projecting": 26074,
    "Ġcanals": 22168,
    "icting": 12854,
    "dare": 12458,
    "Ġrepetition": 8975,
    "Ġagile": 22516,
    "grate": 23415,
    "Ġterra": 13121,
    "idered": 4555,
    "Ġsane": 21224,
    "Ġquebec": 24134,
    "Ġindoors": 18838,
    "Ġval": 969,
    "Ġpeasants": 12336,
    "Ġrecorded": 11295,
    "Ġpulse": 13119,
    "ameter": 2816,
    "Ġsons": 10768,
    "seldom": 13790,
    "Ġoffic": 3190,
    "Ġadm": 2403,
    "Ġoverlapping": 26240,
    "grounds": 11153,
    "parted": 21018,
    "Ġhanging": 5447,
    "Ġirregularly": 25324,
    "cim": 8723,
    "ouement": 21451,
    "mblance": 7323,
    "ishness": 22345,
    "Ġshortened": 23484,
    "Ġimperfectly": 25727,
    "op": 653,
    "Ġentering": 6286,
    "Ġcousins": 9918,
    "Ġlandsmen": 11353,
    ";âĢĶ": 3751,
    "Ġblunder": 18820,
    "Ġdownright": 16122,
    "Ġsumm": 3356,
    "Ġembraced": 10009,
    "Ġbaker": 4697,
    "Ġoutdone": 22322,
    "Ġhark": 8429,
    "Ġtypewriting": 16424,
    "Ġmentioned": 4330,
    "Ġattends": 19653,
    "nantucket": 7804,
    "Ġvolition": 14800,
    "Ġglaring": 11912,
    "Ġseeming": 8542,
    "Ġproportionate": 17044,
    "remained": 8572,
    "iding": 3847,
    "icated": 7591,
    "procure": 23400,
    "Ġexchanged": 10880,
    "brew": 11475,
    "Ġboxes": 13378,
    "Ġspeech": 4612,
    "Ġresponsiveness": 2899,
    "Ġhing": 11607,
    "years": 6882,
    "Ġlobes": 22119,
    "stern": 8446,
    "lakeman": 13754,
    "txt": 12520,
    "Ġstagnant": 24655,
    "Ġungovernable": 20711,
    "Ġgle": 7859,
    "aet": 15311,
    "esu": 17903,
    "some": 2239,
    "wish": 8100,
    "Ġanswer": 2597,
    "Ġspain": 15885,
    "Ġtrim": 15967,
    "Ġlug": 15656,
    "Ġdiscussed": 19562,
    "Ġunappalled": 22069,
    "Ġasiatics": 20434,
    "Ġapprovingly": 26252,
    "Ġexists": 14044,
    "Ġinitialized": 3946,
    "Ġ125": 24470,
    "itigated": 23050,
    "Ġnegro": 6446,
    "Ġco": 731,
    "Ġcliffs": 15980,
    "Ġret": 1381,
    "extraordinary": 9098,
    "Ġfancied": 7326,
    "Ġexploitation": 2348,
    "Ġtwist": 11855,
    "Ġregained": 18599,
    "rets": 12546,
    "Ġcases": 3959,
    "Ġveins": 8935,
    "Ġins": 2779,
    "Ġsuper": 2155,
    "Ġspaces": 3114,
    "edy": 2859,
    "Ġlands": 6595,
    "icial": 12660,
    "cavity": 26127,
    "dead": 8180,
    "Ġstrang": 4159,
    "diversity": 25898,
    "compass": 9463,
    "Ġinfluenced": 19635,
    "uncont": 15778,
    "Ġelizabeth": 1128,
    "monsters": 19173,
    "Ġlard": 13950,
    "Ĳ": 243,
    "ensibility": 22551,
    "Ġthou": 1808,
    "Ġcostume": 16497,
    "Ġdis": 694,
    "Ġfatigued": 13469,
    "_;": 6642,
    "Ġinte": 2065,
    "Ġhard": 1440,
    "archangel": 18775,
    "ording": 9767,
    "Ġcorpora": 26582,
    "ures": 839,
    "allied": 7410,
    "Ġdepress": 14049,
    "Ġsta": 18065,
    "surd": 6933,
    "Ġmusk": 7494,
    "Ġejac": 10206,
    "Ġcategorization": 12141,
    "Ġhypotheses": 4390,
    "Ġexaggerate": 25650,
    "Ġ67": 19663,
    "rote": 4594,
    "Ġtones": 8401,
    "Ġprincipal": 6495,
    "Ġfamiliarly": 11305,
    "Ġstart": 3259,
    "owe": 15712,
    "Ġtrustees": 24108,
    "tese": 21086,
    "Ġextent": 7656,
    "ox": 9136,
    "black": 6768,
    "Ġconflict": 17276,
    "Ġsharper": 17182,
    "metallic": 19882,
    "Ġp": 289,
    "Ġunfolding": 17087,
    "Ġowe": 8115,
    "mistake": 24529,
    "taught": 17686,
    "Ġcath": 17828,
    "Ġslu": 13839,
    "oring": 1860,
    "Ė": 215,
    "otion": 4946,
    "Ġhimmalehs": 26232,
    "Ġaimed": 20253,
    "Ġneutral": 12746,
    "Ġpal": 4039,
    "Ġscepticism": 25928,
    "ation": 320,
    "sleep": 6510,
    "Ġaddressed": 5263,
    "enth": 6681,
    "Ġdetective": 14408,
    "Ġscarcely": 4005,
    "oking": 4608,
    "talk": 6658,
    "Ġintense": 6158,
    "Ġbowled": 23772,
    "Ġbarbarously": 24816,
    "Ġagitated": 7648,
    "as": 302,
    "Ġcleaning": 23184,
    "desirable": 23813,
    "Ġepaulets": 24906,
    "icorn": 15661,
    "Ġflies": 13030,
    "iards": 17576,
    "conv": 7213,
    "irection": 2388,
    "fisher": 7547,
    "returned": 7765,
    "Ġconstables": 19072,
    "Ä": 133,
    "cible": 20808,
    "lev": 1234,
    "sized": 15431,
    "Ġtree": 5285,
    "Ġfirst": 936,
    "Ġsuitable": 18280,
    "asons": 6015,
    "Ġmight": 961,
    "Ġtestimony": 14478,
    "Ġlap": 8438,
    "Ġforeboding": 20387,
    "Ġconfirming": 25322,
    "Ġcasket": 19727,
    "Ġunp": 12777,
    "rocket": 13947,
    "Ġannealing": 1550,
    "Ġsmall": 890,
    "Ġvice": 6549,
    "striving": 24670,
    "ther": 482,
    "ree": 873,
    "Ġafresh": 18627,
    "Ġunintermitted": 26221,
    "Ġantelope": 24183,
    "rippling": 24713,
    "Ġpruning": 18971,
    "Ħ": 231,
    "batch": 1983,
    "apparently": 15208,
    "Ġdanced": 7842,
    "Ġindependently": 4247,
    "Ġhobbling": 25645,
    "piled": 21017,
    "Ġmccauley": 26429,
    "congratulations": 20282,
    "ppery": 10894,
    "Ġepsom": 19986,
    "Ġsurging": 19135,
    "Ġwronged": 24250,
    "Ġcab": 2631,
    "Ġreplacing": 3449,
    "Ġcharacters": 9374,
    "Ġprophesy": 26062,
    "Ġcelestial": 10070,
    "Ġwhat": 599,
    "Ġtribute": 15478,
    "Ġtime": 689,
    "Ġair": 1835,
    "Ġperforms": 11881,
    "Ġadmired": 7982,
    "Ġtener": 21166,
    "Ġschool": 5512,
    "Ġdiffusion": 23785,
    "Ġbespe": 19244,
    "Ġfolks": 14429,
    "Ġtons": 11552,
    "gloves": 25146,
    "als": 2042,
    "patched": 17645,
    "Ġauthent": 14503,
    "Ġda": 5150,
    "stiff": 12680,
    "Ġmoodily": 19837,
    "Ġbachelor": 7786,
    "Ġfaith": 5351,
    "pervading": 18974,
    "aly": 1116,
    "mysteries": 26051,
    "abbering": 21800,
    "Ġcarpenters": 16754,
    "Ġenveloping": 19737,
    "Ġrequesting": 24633,
    "seen": 2882,
    "chanced": 18809,
    "addressed": 13389,
    "air": 1003,
    "mentioning": 24886,
    "yellow": 9627,
    "Ġcucumber": 21359,
    "committed": 18739,
    "empty": 23636,
    "Ġache": 18664,
    "skirted": 24489,
    "Ġtuning": 3075,
    "Ġmasks": 23329,
    "bound": 6221,
    "Ġwall": 3842,
    "Ġstrateg": 1313,
    "Ġfatal": 5872,
    "noise": 14337,
    "mn": 3577,
    "Ġoutset": 15959,
    "utions": 1889,
    "Ġneither": 3686,
    "bun": 12442,
    "Ġappals": 22219,
    "Ġungenerous": 18267,
    "Ġharvest": 13419,
    "sailed": 17668,
    "Ġke": 1155,
    "nue": 15400,
    "Ġnorton": 12654,
    "loud": 11503,
    "Ġfurnace": 19443,
    "airs": 2225,
    "Ġloth": 17968,
    "Ġcovariate": 2351,
    "Ġtough": 13818,
    "Ġirksome": 13116,
    "Ġdom": 2770,
    "receive": 12547,
    "removed": 15519,
    "how": 1646,
    "Ġebb": 21627,
    "olent": 8155,
    "Ġseeth": 21964,
    "ech": 4393,
    "Ġplanisp": 24061,
    "Ġchoke": 22253,
    "Ġs": 265,
    "Ġpoor": 1707,
    "shott": 11800,
    "Ġindistinctly": 26118,
    "Ġconv": 2973,
    "smoking": 23914,
    "giving": 8742,
    "Ġdrawback": 23993,
    "nt": 922,
    "Ġsuffoc": 18872,
    "lanter": 15391,
    "Ġinterposed": 20622,
    "Ġbegged": 8231,
    "Ġbuck": 7158,
    "Ġexasperated": 11414,
    "slave": 16897,
    "Ġprocured": 8680,
    "Ġtottenham": 24144,
    "silenced": 24423,
    "Ġunconscious": 9550,
    "U": 57,
    "currents": 23848,
    "inion": 2877,
    "Ġglobules": 26590,
    "Ġsettles": 22921,
    "Ġmates": 4873,
    "steelkilt": 10050,
    "Ġbarbarians": 19590,
    "jee": 17581,
    "Ġpresented": 5183,
    "Ġrational": 8481,
    "imaux": 21715,
    "Ġexplicit": 3589,
    "Ġadieu": 10054,
    "lot": 3210,
    "Ġweek": 2826,
    "province": 26073,
    "Ġtransport": 11280,
    "Ġcand": 3276,
    "geons": 15983,
    "Ġcardboard": 19982,
    "preser": 9762,
    "baked": 20781,
    "Ġ117": 19700,
    "Ġhousekeeper": 7456,
    "Ġmultitude": 9328,
    "Ġmiles": 3804,
    "muring": 17603,
    "paying": 25412,
    "ception": 6563,
    "ying": 1367,
    "Ġimpregnable": 26024,
    "Ġmizen": 17261,
    "Ġemac": 16411,
    "Ġowing": 6005,
    "erc": 5905,
    "unsupervised": 10891,
    "raid": 3279,
    "Ġroyalty": 19739,
    "Ġconjecture": 9535,
    "Ġsomebody": 7913,
    "Ġyard": 5921,
    "itated": 4443,
    "Ġstill": 1156,
    "Ġumbrella": 15269,
    "tormented": 13649,
    "rollable": 13948,
    "afer": 17484,
    "Ġspaniard": 20366,
    "Ġspect": 3553,
    "res": 2758,
    "attended": 8955,
    "Ġdoubt": 2227,
    "marching": 25753,
    "Ġconscience": 6928,
    "inst": 4296,
    "Ġbeautifully": 13271,
    "Ġscheduling": 2350,
    "Ġdetached": 10282,
    "Ġdemi": 25549,
    "Ġcapture": 3384,
    "Ġaccumulating": 2719,
    "Åĵuv": 15186,
    "pagan": 17288,
    "Ġill": 2194,
    "Ġprinciples": 10014,
    "Ġsegment": 12762,
    "orted": 4605,
    "Ġreally": 2160,
    "Ġinns": 17932,
    "Ġcobbler": 25831,
    "Ġexam": 3711,
    "Ġgro": 4400,
    "Ġappar": 7411,
    "Ġtorrid": 25035,
    "Ġplaces": 5390,
    "misfortunes": 16758,
    "fugitive": 26132,
    "excuse": 13385,
    "tinted": 17685,
    "Ġsweatings": 25709,
    "Ġabominable": 12326,
    "rie": 2787,
    "arthly": 8030,
    "Ġhop": 1458,
    "thence": 23403,
    "Ġdilig": 8350,
    "Ġsurpasses": 25269,
    "casks": 20406,
    "Ġdwelt": 12610,
    "Ġbloody": 9891,
    "chief": 4646,
    "Ġreluct": 14375,
    "Ġsights": 7472,
    "Ġobsequious": 17407,
    "aggra": 21910,
    "has": 4011,
    "Ġref": 912,
    "tired": 21075,
    "Ġkitchen": 8497,
    "Ġfrequently": 4681,
    "Ġfiendish": 13332,
    "to": 713,
    "Ġsi": 21215,
    "Ġflinging": 13589,
    "Ġother": 759,
    "Ġundecided": 22052,
    "Ġearnestness": 12130,
    "Ġforgetting": 3435,
    "Ġforecastle": 5495,
    "Ġevenly": 4127,
    "oline": 6833,
    "Ġfragmentary": 25857,
    "non": 9614,
    "serious": 14451,
    "brain": 13691,
    "Ġ48": 24083,
    "Ġtut": 8774,
    "Ġphil": 3385,
    "qu": 369,
    "Ġdivulged": 16651,
    "Ġreserved": 7515,
    "Ġgallon": 24187,
    "well": 1689,
    "Ġcrests": 25686,
    "interesting": 12206,
    "orrowed": 19291,
    "imately": 12693,
    "Ġfashioned": 13325,
    "Ġdeficiency": 14406,
    "Ġhull": 5446,
    "live": 7550,
    "Ġunless": 4088,
    "Ġrevolt": 24504,
    "Ġbruited": 25774,
    "evidently": 20348,
    "Ġtwisting": 18659,
    "Ġmoody": 8201,
    "ibule": 13012,
    "alling": 6037,
    "semicirc": 26493,
    "Ġrhone": 25231,
    "Ġdissimilar": 22535,
    "Ġhandled": 12942,
    "scor": 13025,
    "ĠĠĠĠĠĠĠĠĠĠĠĠĠĠĠĠĠĠĠĠĠĠĠĠĠĠĠĠĠĠĠ": 19703,
    "Ġvariance": 1166,
    "cri": 17508,
    "bride": 19202,
    "Ġty": 6659,
    "Ġpaved": 17915,
    "Ġconstantly": 11977,
    "recollect": 17226,
    "transferred": 24514,
    "Ġuntoward": 19167,
    "âĢĶ(": 15942,
    "Ġsketches": 26272,
    "Ġuser": 15921,
    "ifully": 13188,
    "erity": 21270,
    "Ġpresided": 20210,
    "Ġtaken": 2525,
    "Ġdecember": 15009,
    "Ġdisconsol": 18558,
    "nerable": 16280,
    "Ġdifference": 1487,
    "Ġpersuasion": 10501,
    "Ġvoyagings": 19238,
    "coffin": 10665,
    "condite": 23249,
    "Ġidol": 7467,
    "ological": 1884,
    "secut": 7867,
    "heidelburgh": 21214,
    "Ġdesirous": 8945,
    "Ġcorn": 9353,
    "Ġwoof": 14723,
    "Ġphase": 14474,
    "Åĵ": 10746,
    "Ġexponentially": 1442,
    "Ġgloomily": 14803,
    "Ġlinks": 13958,
    "Ġannihilated": 20255,
    "eth": 621,
    "hies": 17562,
    "Ġpartake": 18671,
    "Ġgazette": 19504,
    "!âĢĶâĢĻ": 23567,
    "Ġfem": 6135,
    "neys": 23584,
    "Ġviol": 2072,
    "meas": 7434,
    "semic": 21824,
    "invariably": 26418,
    "Ġinsufferable": 13934,
    "enses": 10996,
    "affected": 10478,
    "Ġalan": 10871,
    "Ġthames": 13941,
    "þ": 191,
    "Ġpaints": 23525,
    "Ġsomehow": 4843,
    "Ġtexture": 19162,
    "Ġpresentiment": 18989,
    "dom": 6223,
    "Ġunaffected": 14125,
    "Ġpoul": 15617,
    "sentence": 2942,
    "p": 84,
    "Ġserved": 8247,
    "alk": 1153,
    "Ġdavy": 25952,
    "Ġlivel": 11357,
    "mansion": 20985,
    "Ġexpiring": 16102,
    "entials": 22667,
    "Ġunlo": 22015,
    "Ġdarling": 12609,
    "Ġcaptive": 14430,
    "Ġheading": 8938,
    "Ġsmiling": 5474,
    "paralleled": 14509,
    "Ġfun": 525,
    "Ġpersu": 3564,
    "natural": 2384,
    "now": 547,
    "Ġxx": 5492,
    "Ġloitered": 26527,
    "Ġvehemence": 26568,
    "Ġchased": 8865,
    "constellation": 24608,
    "quiet": 6155,
    "movable": 14327,
    "ilations": 21725,
    "Ġroused": 7623,
    "actory": 8911,
    "Ġimmaculate": 19489,
    "build": 12192,
    "Ġexecution": 6926,
    "Ġreception": 9842,
    "Ġcanopy": 18323,
    "Ġakin": 15498,
    "rec": 6004,
    "Ġmaj": 3925,
    "Ġexplore": 15912,
    "Ġinfirm": 19054,
    "Ġlofty": 6218,
    "Ġknee": 7094,
    "dining": 13709,
    "stop": 11638,
    "ĠĠĠĠĠĠĠĠĠĠĠĠĠ": 22566,
    "Ġdey": 11678,
    "F": 42,
    "cturn": 17989,
    "tomahawk": 25916,
    "elling": 5831,
    "indifference": 15986,
    "Ġdistrict": 10321,
    "á": 162,
    "Ġdescended": 7428,
    "Ġchose": 7413,
    "Ġlimb": 9405,
    "sw": 4742,
    "Ġlongest": 18631,
    "blog": 19842,
    "Ġrepresented": 8941,
    "Ġbidding": 9540,
    "pronounce": 25193,
    "thrasher": 25659,
    "oriental": 23723,
    "Ġfalsehood": 10526,
    "rages": 15685,
    "spin": 22733,
    "Ġbuying": 23999,
    "Ġcanada": 22169,
    "Ġtopic": 9409,
    "Ġfict": 21408,
    "warmly": 25029,
    "Ġdavis": 25953,
    "Ġnine": 5369,
    "Ġsecuring": 11996,
    "acific": 4960,
    "Ġanecd": 20157,
    "rey": 12543,
    "Ġwithout": 1121,
    "ang": 446,
    "Ġepoch": 26474,
    "Ġbreaking": 6311,
    "Ġexotic": 21835,
    "Ġsober": 10913,
    "arris": 13213,
    "Ġcondemn": 13448,
    "Ġrows": 10563,
    "Ġted": 13815,
    "Ġembattled": 26291,
    "Ġbug": 11592,
    "results": 20390,
    "Ġthoroughly": 8348,
    "ruin": 22180,
    "Ġconnexion": 11456,
    "Ġdaintiest": 25954,
    "heim": 17748,
    "Ġdoubted": 7964,
    "Ġmiscellaneous": 17465,
    "Ġtit": 8400,
    "Ġinverted": 12642,
    "Ġbrand": 16190,
    "ig": 322,
    "del": 4074,
    "Ġrushed": 4085,
    "visits": 24226,
    "Ġrefreshment": 17242,
    "regarded": 12012,
    "Ġder": 1497,
    "Ġtwo": 1043,
    "Ġcynical": 25771,
    "ove": 1741,
    "secret": 12241,
    "grandfather": 25012,
    "Ġ33": 16678,
    "Ġankles": 17901,
    "castles": 14637,
    "Ġunimag": 12780,
    "monograph": 23527,
    "farm": 15355,
    "injured": 15136,
    "pots": 11516,
    "ars": 904,
    "pling": 8476,
    "eastern": 17535,
    "untary": 9870,
    "Ġsleep": 2401,
    "Ġneed": 2606,
    "Ġperiodical": 14775,
    "Ġknow": 633,
    "Ġunqualified": 22065,
    "Ġpalms": 8647,
    "Ġsubmission": 22793,
    "Ġcl": 557,
    "Ġweedy": 15797,
    "Ġinert": 15626,
    "Ġinsignificance": 20460,
    "Ġaunts": 21203,
    "nib": 5214,
    "Ġobscure": 9557,
    "Ġdun": 6675,
    "Ġanticipation": 17058,
    "Ġrosings": 4609,
    "Ġhumiliation": 16202,
    "writes": 4988,
    "Ġpredecess": 18513,
    "Ġimputation": 22176,
    "Ġguessed": 11284,
    "Ġcough": 11584,
    "Ġaccountability": 10440,
    "rose": 6014,
    "Ġanger": 5442,
    "ructure": 750,
    "ckery": 22094,
    "unmistakable": 21899,
    "trifling": 19417,
    "Ġ44": 16681,
    "Ġasiatic": 20433,
    "Ġweak": 5098,
    "Ġsunbeam": 23277,
    "Ġvic": 5237,
    "ipped": 5790,
    "Ķ": 247,
    "Ġadmitted": 8989,
    "unfort": 21880,
    "departed": 24793,
    "Ġphilosopher": 12188,
    "charming": 15710,
    "Ġstabilizing": 3657,
    "Ġhereditary": 10667,
    "Ġpassed": 2011,
    "modesty": 22866,
    "Ġauthor": 4378,
    "Ġalow": 18102,
    "Ġnantucket": 2837,
    "el": 306,
    "hanging": 10103,
    "justine": 7683,
    "Ġprices": 15616,
    "Ġgleaming": 24996,
    "oldened": 22642,
    "Ġfinancial": 23131,
    "evil": 11488,
    "centre": 17088,
    "enterprise": 24995,
    "access": 11182,
    "Ġreverence": 12063,
    "avenza": 17105,
    "execut": 13659,
    "umb": 3403,
    "Ġregarding": 13214,
    "gressive": 2751,
    "Ġphant": 7056,
    "gy": 2098,
    "grow": 10101,
    "Ġiroquois": 26472,
    "smug": 23911,
    "Ġincantation": 26259,
    "Ġstands": 5259,
    "Ġflail": 23010,
    "Ġcheese": 9379,
    "Ġarab": 7823,
    "overhearing": 19053,
    "feather": 16046,
    "Ġfidel": 12601,
    "Ġexpecting": 10438,
    "Ġ121": 24466,
    "orm": 425,
    "Ġready": 3397,
    "Ġworried": 22929,
    "Ġposit": 1305,
    "dimensional": 2349,
    "Ġpolite": 9885,
    "Ġplat": 8522,
    "Ġunseen": 3524,
    "fallen": 19662,
    "castle": 3350,
    "90": 12436,
    "Ġgrecian": 26297,
    "Ġleakage": 23461,
    "Ġstoven": 23177,
    "Ġplumber": 16088,
    "never": 3155,
    "establishment": 26114,
    "Ġunfathom": 14791,
    "Ġfoolish": 5980,
    "Ġapologies": 25197,
    "Ġactionable": 24560,
    "Ġfortunes": 12183,
    "ums": 10275,
    "och": 21003,
    "Ġender": 11694,
    "Ġinsatiate": 19272,
    "Ġeaves": 15680,
    "Ġbehold": 5049,
    "Ġburial": 16523,
    "illar": 5101,
    "meant": 7921,
    "reast": 17760,
    "leviathans": 19941,
    "Ġcontemptuously": 19836,
    "Ġobedient": 20108,
    "Ġmust": 846,
    "Ġbarbarous": 13480,
    "Ġprematurely": 24010,
    "Ġindustry": 18839,
    "Ġboy": 3024,
    "Ġoverpowered": 15292,
    "akness": 14197,
    "Ġfielding": 16239,
    "Ġnone": 3225,
    "Ġado": 7627,
    "ios": 2192,
    "Ġsuperglue": 23459,
    "_.)": 7278,
    "Ġelud": 22647,
    "Ġfatally": 19397,
    "Ġharrow": 17928,
    "Ġwaves": 3917,
    "Ġundoing": 22039,
    "Ġcracked": 8597,
    "Ġclutches": 20021,
    "Ġinit": 817,
    "Ġunob": 22019,
    "complained": 25840,
    "Ġencountered": 8322,
    "itting": 1152,
    "avers": 17483,
    "ex": 622,
    "Ġsarat": 21230,
    "irm": 3111,
    "ured": 1655,
    "Ġmaintaining": 1507,
    "eman": 5636,
    "spass": 18688,
    "wait": 11322,
    "Ġswing": 13042,
    "gress": 2217,
    "Ġjelly": 22304,
    "tu": 12516,
    "enhall": 13853,
    "Ġwhich": 502,
    "Ġspare": 5102,
    "Ġforgetfulness": 14607,
    "ensive": 6280,
    "Ġscandinavian": 26347,
    "Ġencirc": 18732,
    "Ġwouldst": 18500,
    "Ġuncontrollable": 25815,
    "Ġgive": 1710,
    "Ġbag": 5699,
    "Ġcompanionship": 14922,
    "stairs": 5155,
    "Ġmountainous": 16601,
    "oters": 21803,
    "tender": 14476,
    "Ġscratches": 22290,
    "asted": 4651,
    "Ġmystery": 5509,
    "alone": 10186,
    "entreaties": 26187,
    "Ġcreditable": 19625,
    "Ġdeceitful": 25733,
    "Ġsteep": 2890,
    "wife": 8101,
    "icted": 5937,
    "tumultuously": 25614,
    "Ġhawaiian": 25367,
    "Ġlifetime": 13606,
    "Ġpsalmody": 20588,
    "Ġquivered": 18468,
    "Ġharsh": 9524,
    "Ġwaifing": 25244,
    "Ġflitting": 13031,
    "sick": 13787,
    "watching": 16932,
    "ll": 1140,
    "Ġsheep": 10928,
    "Ġfest": 10806,
    "Ġacquitted": 18900,
    "Ġinteresting": 4326,
    "Ġincorpor": 13169,
    "Ġallowing": 2174,
    "Ġoxen": 19954,
    "Ġinteractions": 12908,
    "avenue": 25060,
    "Ġscotland": 6641,
    "bal": 2157,
    "Ġaverages": 2400,
    "Ġbeech": 18085,
    "sugg": 11844,
    "month": 6462,
    "blind": 16704,
    "sticks": 25966,
    "etition": 7382,
    "rift": 11522,
    "ilogue": 21728,
    "Ġintegration": 9871,
    "Ġcurved": 18847,
    "claimed": 9839,
    "Ġbund": 17865,
    "Ġdignified": 15602,
    "Ġgrammars": 11404,
    "ans": 457,
    "Ġtiller": 8967,
    "iter": 4395,
    "Ġhip": 17923,
    "iger": 8448,
    "burgh": 6773,
    "Ġstre": 2109,
    "neighbouring": 19967,
    "Ġlooking": 2473,
    "Ġthousand": 2780,
    "ats": 4255,
    "Ġthickets": 24027,
    "earthly": 24723,
    "ill": 447,
    "Ġinquiries": 5678,
    "ears": 20847,
    "Ġasia": 11686,
    "Ġbanners": 24859,
    "ren": 548,
    "Ġcollege": 11426,
    "Ġeverybody": 4513,
    "Ġventing": 19496,
    "owed": 2273,
    "Ġcoppers": 22586,
    "after": 2897,
    "rem": 1519,
    "apside": 22963,
    "Ġevince": 24295,
    "Ġlearnt": 7615,
    "gathered": 13735,
    "ered": 1682,
    "Ġoriginally": 7304,
    "Ġcool": 5734,
    "isions": 6131,
    "Ġlibr": 16004,
    "Ġlimited": 23546,
    "Ġanecdote": 26356,
    "scales": 22997,
    "Ġscheme": 7065,
    "Ġcourtship": 24137,
    "tempered": 13450,
    "Ġpurely": 12236,
    "Ġtowering": 16741,
    "Ġperfectly": 3701,
    "dy": 4073,
    "Ġreading": 5114,
    "Ġcommercial": 22677,
    "Ġunerringly": 18266,
    "chosen": 21698,
    "Ġgrated": 22807,
    "Ġnapoleon": 20560,
    "Ġhumanity": 6732,
    "âĢĿ--": 21817,
    "Ġregulations": 18600,
    "boone": 23255,
    "Ġempire": 11147,
    "Ġdrawers": 12110,
    "Ġworshipper": 25693,
    "Ġwight": 12558,
    "Ġanoints": 25539,
    "Ġgurgling": 17449,
    "thousand": 5547,
    "presbyterian": 26370,
    "Ġslabs": 13066,
    "Ġaffidav": 18791,
    "Ġtelegraph": 25584,
    "raised": 15683,
    "astrous": 15890,
    "below": 12126,
    "cle": 3954,
    "impatiently": 20474,
    "attle": 4469,
    "protected": 19923,
    "Ġdecreas": 1650,
    "mountain": 10715,
    ".;": 20746,
    "cred": 9111,
    "Ġfirmest": 16667,
    "Ġwrest": 11574,
    "Ġpiazza": 26452,
    "Ġwithdrawing": 11342,
    "ĠĠĠĠĠĠĠĠĠĠ": 18578,
    "orers": 14106,
    "Ġorphan": 12387,
    "Ġeff": 685,
    "Ġwrinkled": 7264,
    "yra": 8103,
    "happy": 4428,
    "Ġexe": 3991,
    "Ġrock": 5311,
    "izens": 18146,
    "Ġindispens": 22957,
    "Ġmorris": 18852,
    "Ġarbit": 4652,
    "emed": 3380,
    "Ġarts": 11009,
    "batim": 25019,
    "Ġcharge": 5325,
    "itement": 7835,
    "Ġexcite": 11968,
    "Ġwallow": 19469,
    "dismay": 19156,
    "ouching": 13181,
    "Ġconclusions": 10556,
    "Ġclo": 6045,
    "Ġdisreputable": 22538,
    "Ġpride": 3823,
    "their": 2538,
    "separ": 9233,
    "ion": 296,
    "Ġknows": 4158,
    "Ġnavel": 24577,
    "Ġpost": 4274,
    "Ġseized": 4835,
    "Ġhansom": 13668,
    "Ġwhereas": 3855,
    "food": 12468,
    "Ġbumps": 21395,
    "Ġrhyme": 21982,
    "cherish": 24552,
    "Ġash": 4834,
    "concerning": 9070,
    "Ġstepfather": 7222,
    "steps": 9408,
    "Ġthrobbing": 16900,
    "aren": 10077,
    "Ġmaze": 23834,
    "Ġfrequented": 16588,
    "of": 768,
    "destro": 13314,
    "orient": 2880,
    "Ġnight": 1462,
    "Ġbrow": 3985,
    "Ġshortly": 6197,
    "Ġsuburban": 17349,
    "Ġmethodic": 23179,
    "Ġclassify": 1678,
    "Ġarmitage": 23583,
    "Ġfund": 2842,
    "Ġdetermines": 2368,
    "Ġrenewed": 9541,
    "Ġmaps": 2967,
    "Ġderives": 16311,
    "Ġadopt": 10634,
    "Ġmock": 3691,
    "doom": 23380,
    "Ġindign": 6174,
    "arent": 4251,
    "Ġhappiness": 2948,
    "Ġharpoons": 5659,
    "Ġchurchyard": 16779,
    "contains": 16034,
    "Ġyawning": 12304,
    "Ġroast": 18458,
    "woman": 5899,
    "Ġprovoking": 16745,
    "Ġswell": 8952,
    "Ġflowery": 16235,
    "Ġcam": 10164,
    "Ġsem": 1876,
    "ober": 15409,
    "Ġtargets": 4204,
    "Ġ8": 5433,
    "lingly": 9776,
    "iscuits": 24667,
    "Ġmarrying": 6178,
    "Ġindisp": 18836,
    "direful": 25897,
    "harmony": 25751,
    "Ġexpenses": 11839,
    "Ġrheum": 18217,
    "Ġsheepfold": 25467,
    "stories": 18026,
    "Ġris": 4887,
    "Ġfellows": 8257,
    "Ġfishes": 11594,
    "queens": 22919,
    "Ġtermination": 16463,
    "knowing": 10439,
    "rifle": 21049,
    "ies": 582,
    "Ġmap": 2393,
    "Ġmiseries": 10349,
    "priv": 9622,
    "totally": 25418,
    "poured": 17639,
    "Ġcondescended": 19959,
    "acing": 2714,
    "Ġlionel": 25287,
    "Ġsenor": 20153,
    "Ġthe": 270,
    "Ġkeels": 11062,
    "base": 20779,
    "Ġovertook": 18425,
    "clopÃ¦dia": 15260,
    "Ġgrat": 4054,
    "Ġd": 284,
    "lydon": 13992,
    "Ġdisgusting": 19896,
    "pips": 21022,
    "believed": 9936,
    "Ġpr": 1595,
    "annica": 24562,
    "osque": 22266,
    "glance": 16589,
    "offensive": 16402,
    "Ġgrasp": 4665,
    "Ġterrors": 6917,
    "Ġsufferer": 16262,
    "Ġobliging": 13248,
    "Ġrat": 4355,
    "range": 3495,
    "Ġaunt": 3180,
    "Ġbott": 3152,
    "ordinate": 12880,
    "reposed": 24492,
    "Ġlanguid": 14224,
    "somewhere": 12017,
    "Ġnocturnal": 20717,
    "Ġvestige": 20066,
    "unity": 4150,
    "Ġinvention": 19956,
    "Ġconven": 6152,
    "Ġfort": 2577,
    "erted": 7361,
    "Ġsplendid": 17216,
    "orph": 21402,
    "thereby": 14450,
    "Ġbumping": 25281,
    "Ġefficient": 1053,
    "iliation": 10862,
    "Ġsqueezing": 25009,
    "Ġpatchwork": 24143,
    "Ġtemperate": 16166,
    "itiously": 13874,
    "Ġselect": 3995,
    "Ġlaying": 7908,
    "Ġchances": 9266,
    "perch": 18342,
    "Ġmann": 18417,
    "ports": 13777,
    "lance": 12486,
    "Ġsentiment": 6590,
    "lacing": 17592,
    "Ġunjust": 8485,
    "Ġconsulted": 13434,
    "ricted": 15423,
    "presents": 18798,
    "concluded": 11245,
    "Ġgrazed": 15837,
    "Ġpluck": 15618,
    "Ġnib": 13943,
    "Ġconversations": 9428,
    "Ġpossessor": 23827,
    "ython": 1030,
    "ounds": 4155,
    "Ġegot": 18010,
    "Ġreel": 9216,
    "etical": 13961,
    "Ġsagacity": 16976,
    "judge": 13341,
    "thern": 4953,
    "Ġhatred": 8612,
    "mate": 5359,
    "Ġprovince": 24192,
    "Ġfluctuations": 5516,
    "Ġattic": 16099,
    "Ġundergo": 23241,
    "dict": 15341,
    "Ġsympat": 13345,
    "Ġcharges": 23270,
    "Ġblinds": 8007,
    "Ġdedicated": 19188,
    "Ġrevel": 9217,
    "Ġbeheading": 21758,
    "Ġgrew": 5182,
    "Ġsensational": 16396,
    "Ġverd": 6918,
    "Ġbiography": 22768,
    "Ġrue": 11871,
    "biqu": 17500,
    "Ġperforming": 7928,
    "Ġrealising": 18983,
    "Ġlovely": 4711,
    "Ġmuttering": 10502,
    "devouring": 24953,
    "Ġblending": 14402,
    "amusement": 15286,
    "reas": 989,
    "Ġgood": 1001,
    "quarters": 24949,
    "Ġcetus": 19887,
    "confusion": 13374,
    "Ġhospitality": 13516,
    "scy": 21058,
    "Ġplayers": 12042,
    "Ġsow": 17751,
    "Ġble": 5223,
    "Ġdeliver": 9852,
    "dispositions": 25014,
    "\"]": 17473,
    "Ġrival": 10488,
    "Ġbedrooms": 19973,
    "gers": 8376,
    "Ġlirra": 21563,
    "apsed": 6296,
    "dually": 3283,
    "Ġindividual": 5744,
    "agatha": 21912,
    "ours": 3428,
    "Ġcamberwell": 25351,
    "Ġimprudently": 22390,
    "Ġadagrad": 2906,
    "Ġastr": 15497,
    "bra": 6220,
    "Ġreward": 6145,
    "Ġclust": 9277,
    "Ġjar": 15954,
    "milk": 20480,
    "appears": 12064,
    "Ġmutiny": 13264,
    "Ġrepute": 18037,
    "Ġcoverage": 4289,
    "Ġens": 2788,
    "Ġwishes": 4796,
    "Ġtimber": 13354,
    "Ġdrought": 19280,
    "written": 7995,
    "Ġtrait": 23077,
    "Ġgrudge": 20696,
    "Ġtransportation": 13646,
    "Ġgrop": 12669,
    "assisted": 22311,
    "Ā": 193,
    "sen": 21052,
    "Ġstunsail": 25544,
    "Ġlikely": 3598,
    "Ġoscill": 2857,
    "Ġvindictive": 20473,
    "Ġevalu": 2781,
    "Ġverte": 9444,
    "immed": 9220,
    "Ġwarn": 5695,
    "Ġdisturb": 7108,
    "Ġperiod": 4000,
    "Ġblinded": 13275,
    "Ġtomb": 8812,
    "Ġsaviour": 20715,
    "Ġlaborious": 13107,
    "Ġv": 399,
    "Ġsing": 3076,
    "Ġproperly": 7945,
    "Ġtwice": 4663,
    "ental": 7169,
    "incredible": 16500,
    "Ġgermans": 25785,
    "Ġugl": 12687,
    "Ġsubsc": 22792,
    "ullied": 23108,
    "Ġenough": 1760,
    "Ġdismay": 11813,
    "Ġchecking": 23286,
    "midnight": 14904,
    "Ġmouldings": 24736,
    "Ġconsult": 6057,
    "buff": 15322,
    "n": 82,
    "Ġstubbs": 23296,
    "Ġbushes": 16405,
    "Ġcolour": 4464,
    "Ġlaunched": 14928,
    "stones": 11639,
    "Ġopulence": 23629,
    "Ġsubtlety": 24779,
    "Ġelevates": 24503,
    "Ġslight": 3122,
    "Ġappe": 1538,
    "Ġlaughs": 24117,
    "Ġjudges": 14686,
    "int": 1198,
    "Ġpuff": 6525,
    "Ġmons": 10159,
    "fem": 17539,
    "dissatisf": 26130,
    "Ġunfair": 19510,
    "Ġarrives": 23609,
    "entiating": 3438,
    "begging": 22500,
    "Ġsettee": 22922,
    "nable": 13765,
    "Ġfrom": 434,
    "Ġaper": 17745,
    "Ġstudents": 23213,
    "Ġassailants": 20452,
    "Ġproducts": 5198,
    "âĢĿ": 353,
    "Ġturbul": 23614,
    "Ġrecklessness": 24744,
    "bert": 4664,
    "Ġemptied": 24347,
    "Ġtex": 15475,
    "formality": 22223,
    "Ġnephews": 24712,
    "Ġmonomaniac": 9571,
    "Ġdominion": 16530,
    "hook": 12057,
    "Ġdiscriminative": 4328,
    "beneath": 9538,
    "lower": 8884,
    "Ġaccuracy": 1097,
    "remonstr": 23194,
    "Ġdisappo": 4508,
    "Ġcomplet": 4426,
    "Ġcaus": 1722,
    "elly": 17982,
    "î": 175,
    "Ġthirds": 16710,
    "second": 6544,
    "Ġcouple": 5423,
    "bantering": 25254,
    "Ġcistern": 17384,
    "Ġnetworks": 596,
    "Ġrugged": 18721,
    "Ġat": 395,
    "page": 13775,
    "Ġleague": 6539,
    "inted": 2646,
    "Ġdisputing": 25825,
    "Ġbravest": 23844,
    "Ġautonomous": 10678,
    "machine": 999,
    "Ġfairness": 9896,
    "magistrate": 19865,
    "hval": 20900,
    "enborough": 21288,
    "Ġpractice": 2853,
    "upset": 23020,
    "Ġbags": 24537,
    "Ġcriminal": 7537,
    "Ġfortnight": 6201,
    "Ġthieves": 15640,
    "Ġmaw": 15544,
    "Ġdiction": 8799,
    "Ġgales": 12670,
    "Ġverge": 23890,
    "Ġmem": 2070,
    "Ĥ": 229,
    "Ġsuperiority": 14617,
    "Ġ105": 24413,
    "Ġsqualidness": 25844,
    "leaned": 21372,
    "vour": 17701,
    "Ġusage": 9734,
    "----âĢĻ": 24100,
    "Ġaven": 10761,
    "13": 20752,
    "proportion": 16184,
    "Ġfurnaces": 24009,
    "Ġearnest": 3928,
    "pile": 17631,
    "waste": 21137,
    "Ġswe": 2291,
    "sartain": 25623,
    "Ġstraighten": 24008,
    "ressing": 8922,
    "admit": 18093,
    "puff": 21024,
    "Ġjovial": 19236,
    "Ġunwarrantable": 26346,
    "Ġisle": 8837,
    "Ġcrawled": 17045,
    "icle": 10836,
    "Ġgene": 15676,
    "daggoo": 13710,
    "Ġreflecting": 24750,
    "Ġ1894": 5196,
    "ui": 9147,
    "Ġbreat": 3460,
    "Ġanonymous": 26179,
    "Ġgaze": 6931,
    "betrayed": 24641,
    "generations": 23788,
    "Ġaccident": 5380,
    "ı": 242,
    "Ġmarty": 20293,
    "pane": 10123,
    "Ġaroused": 15903,
    "merit": 19283,
    "Ġexerting": 21836,
    "Ġbenignity": 18784,
    "Ġinattention": 17934,
    "Ġ183": 13243,
    "Ġdireful": 11019,
    "lect": 1220,
    "perth": 22189,
    "ens": 701,
    "across": 10327,
    "Ġfront": 3451,
    "tub": 9146,
    "Ġbored": 16110,
    "sails": 7497,
    "Ġwriting": 4669,
    "Ġstruct": 2783,
    "pillar": 5619,
    "chet": 13221,
    "Ġthunder": 4825,
    "Ġkindly": 6077,
    "Ġspoke": 2743,
    "Ġrefill": 18699,
    "Ġsuccessfully": 19432,
    "Ġtragedy": 10670,
    "Ġinsular": 19270,
    "Ġpresenting": 18988,
    "ather": 739,
    "ming": 3601,
    "ern": 766,
    "Ġvilla": 14750,
    "Ġlighted": 7064,
    "Ġbuoy": 8004,
    "Ġthin": 4349,
    "Ġtwink": 8216,
    "gled": 10701,
    "looking": 4031,
    "Ġburden": 8611,
    "ă": 196,
    "tables": 19760,
    "Ġnotion": 7882,
    "Ġseams": 12129,
    "Ġcrawl": 11377,
    "Ġsudden": 1999,
    "Ġrevenge": 5452,
    "Ġjingling": 26018,
    "Ġblended": 16222,
    "Ġrequest": 6051,
    "//": 11465,
    "Ġfragments": 19035,
    "Ġlimits": 3453,
    "Ġpeering": 8536,
    "Ġlullaby": 20591,
    "u": 89,
    "Ġfame": 21409,
    "Ġcentral": 7727,
    "Ġbackbones": 22655,
    "sav": 8097,
    "Ġegyptian": 13590,
    "superst": 11327,
    "Ġconst": 1909,
    "Ġdevoutly": 25834,
    "Ġdistress": 5845,
    "Ġrenewing": 19813,
    "Ġcount": 1814,
    "balance": 12011,
    "ingolstadt": 21306,
    "was": 1420,
    "model": 4195,
    "longing": 23728,
    "Ġent": 902,
    "Ġarrogance": 26233,
    "Ġsnarl": 25714,
    "miniature": 16767,
    "later": 20955,
    "Ġsocially": 22091,
    "boots": 11128,
    "gratulation": 24349,
    "Ġmatrices": 4969,
    ").": 1270,
    "oward": 6021,
    "althily": 19362,
    "Ġcurses": 13018,
    "Ġprovoke": 14828,
    "Ġwreath": 25937,
    "matical": 13133,
    "Ġspirit": 3725,
    "ulating": 10889,
    "Ġlimber": 16481,
    "etah": 12666,
    "dig": 4930,
    "Ġsensit": 2949,
    "aswag": 21549,
    "attentive": 17192,
    "Ġsomething": 1794,
    "Ġwomen": 4751,
    "resolution": 17768,
    "sulphur": 25910,
    "Ġfist": 21407,
    "disappeared": 14571,
    "ference": 1882,
    "Ġtrunks": 15969,
    "husband": 8042,
    "supp": 4160,
    "copyright": 5278,
    "Ġworks": 5858,
    "ruit": 22181,
    "Ġale": 9157,
    "unct": 18157,
    "gammon": 20246,
    "Ġelements": 2663,
    "Ġstraw": 9432,
    "Ġinspection": 14545,
    "slack": 16896,
    "Ġcabinets": 23865,
    "Ġcred": 8785,
    "Ġmassive": 9935,
    "Ġmidway": 14605,
    "Ġpondering": 17007,
    "yourselves": 24959,
    "Ġarranged": 9880,
    "iliar": 15718,
    "Ġdisobedience": 22539,
    "Ġcompression": 18148,
    "Ġanat": 8124,
    "Ġbind": 12587,
    "blu": 12444,
    "Ġdried": 7367,
    "Ġtable": 2497,
    "Ġturned": 2134,
    "disappearing": 23504,
    "Ġency": 21937,
    "erred": 7149,
    "leg": 2813,
    "Ġessence": 13409,
    "Ġdiscovers": 4431,
    "consternation": 16914,
    "Ġpassing": 4316,
    "Ġcannon": 14156,
    "Ġboundary": 11224,
    "Ġdepl": 14047,
    "Ġhills": 6526,
    "Ġcoloured": 11047,
    "Ġintrusion": 12770,
    "ladder": 19787,
    "Ġholes": 16412,
    "representation": 20199,
    "Ġcop": 7580,
    "Ġprivilege": 11421,
    "Ġattorney": 18621,
    "leviathan": 7784,
    "Ġgenus": 24429,
    "Ġthread": 14540,
    "Ġwreak": 16819,
    "av": 738,
    "bos": 17486,
    "Ġwindows": 4971,
    "Ġol": 17816,
    "oar": 12502,
    "nyder": 16687,
    "Ġhagger": 21494,
    "Ġspool": 24803,
    "cask": 12451,
    "Ġmun": 12567,
    "Ġapparent": 5466,
    "Ġpositives": 4318,
    "Ġviolates": 3168,
    "Ġregion": 2275,
    "Ġtied": 7357,
    "Ġ}": 21156,
    "hearth": 15502,
    "crowded": 20193,
    "Ġguernsey": 9354,
    "Ġmales": 17807,
    "wholly": 10943,
    "ief": 2046,
    "Ġbustle": 17230,
    "Ġgest": 8134,
    "Ġpope": 11605,
    "level": 2650,
    "Ġphrenologist": 25608,
    "Ġwrit": 8242,
    "Ġlestrade": 5826,
    "Ġperishing": 22402,
    "Ġfascinating": 17331,
    "âĢĶâĢĻâĢĿ": 20067,
    "Ġentra": 18694,
    "fort": 1748,
    "Ġchamber": 6214,
    "Ġunscrew": 22044,
    "Ġfettered": 24569,
    "Ġadvis": 9810,
    "Ġperhaps": 1910,
    "themselves": 6541,
    "Ġvault": 8845,
    "Ġflew": 5588,
    "always": 5708,
    "Ġdood": 22246,
    "Ġneural": 620,
    "Ġconciliating": 19048,
    "Ġsought": 5010,
    "Ġseven": 4544,
    "terrible": 8467,
    "tashtego": 9625,
    "Ġretire": 10384,
    "metic": 14987,
    "answered": 10276,
    "spirits": 8055,
    "Ġstatue": 23151,
    "Ġones": 3021,
    "Ġphantoms": 13490,
    "writhed": 26081,
    "injustice": 17739,
    "Ġegyptians": 25290,
    "Ġsayest": 22776,
    "history": 15017,
    "Ġmelancholy": 5606,
    "wore": 21127,
    "Ġbuffalo": 11431,
    "Ġsubstit": 19543,
    "Ġinstructions": 11198,
    "riet": 18183,
    "Ġgodfrey": 15297,
    "Ġwakes": 11575,
    "leeward": 15214,
    "Ġmad": 2426,
    "gate": 12471,
    "cour": 4482,
    "Ġasp": 15785,
    "ulated": 6030,
    "olets": 21010,
    "Ġinstant": 2700,
    "Ġapproximate": 2343,
    "urity": 8143,
    "asets": 2312,
    "Ġforfeit": 21779,
    "woes": 21136,
    "aced": 2408,
    "bonnet": 25743,
    "Ġ18": 3407,
    "over": 1846,
    "Ġmend": 8407,
    "evade": 24817,
    "Ġorgies": 18286,
    "named": 9898,
    "Ġimbalance": 22178,
    "Ġadds": 1805,
    "msgate": 18413,
    "useness": 22296,
    "Ġlanguages": 1562,
    "Ġtax": 13819,
    "obstructed": 15230,
    "Ġjung": 12841,
    "knowledge": 7478,
    "Ġclinch": 18432,
    "sullen": 17671,
    "aching": 5832,
    "Ġmerrily": 23734,
    "Ġfris": 23257,
    "mist": 5686,
    "third": 8168,
    "Ġhailing": 11697,
    "Ġoldest": 12978,
    "squall": 13525,
    "plate": 18200,
    "Ġleghorn": 13150,
    "Ġunsavory": 20709,
    "Ġunst": 18239,
    "reached": 13844,
    "Ġgoose": 5938,
    "carriage": 9949,
    "Ġrepublic": 14532,
    "flour": 23969,
    "prison": 14664,
    "Ġability": 2762,
    "ivity": 1705,
    "Ġsurprise": 3829,
    "Ġerror": 1764,
    "Ġgiant": 13971,
    "wandered": 20288,
    "Ġfulfil": 9554,
    "Ġinclination": 6625,
    "swimming": 24261,
    "Ġcoldness": 23762,
    "Ġconclusion": 5986,
    "Ġfeel": 1261,
    "rage": 10845,
    "hark": 15369,
    "Ġstopped": 5957,
    "Ġgenerous": 6274,
    "Ġeu": 6389,
    "Ġtrail": 16286,
    "Ġbethinking": 25280,
    "oda": 15754,
    "Ġmushroom": 13241,
    "Ġplays": 12041,
    "Ġsemicircular": 26069,
    "Ġenrolled": 21941,
    "Ġfalse": 4345,
    "carte": 25401,
    "desperate": 17360,
    "Ġconverse": 11848,
    "apers": 3482,
    "Ġentrance": 7233,
    "Ġspat": 2661,
    "Ġmanner": 2197,
    "Ġexulting": 20261,
    "Ġshrugged": 12774,
    "taking": 5689,
    "Ġlips": 3988,
    "Ġparch": 11730,
    "Ġpreparations": 12314,
    "icious": 7380,
    "Ġrelaps": 18777,
    "Ġbelie": 14410,
    "Ġprogramming": 1181,
    "Ġhire": 21488,
    ")âĢĶâĢľ": 20745,
    "Ġrelated": 3716,
    "Ġpad": 8125,
    "crew": 7544,
    "Ġsporty": 19892,
    "Ġstake": 14006,
    "appearing": 14638,
    "Ġconcentration": 25065,
    "Ġprogressive": 5024,
    "ana": 15563,
    "Ġbecomes": 6395,
    "pread": 7418,
    "ineas": 15826,
    "Ġtread": 9412,
    "Ġlucky": 7758,
    "Ġlean": 7606,
    "Ġmitigating": 1614,
    "tures": 21072,
    "ung": 2741,
    "Ġstructure": 828,
    "Ġway": 1085,
    "Ġcranial": 25593,
    "Ġinfiltrated": 23326,
    "way": 764,
    "Ġcustomary": 8673,
    "Ġindisc": 16230,
    "Ġevidence": 5270,
    "Ġcommunicative": 24548,
    "hee": 10762,
    "Ġpoorly": 9857,
    "bushes": 24447,
    "Ġheightened": 8652,
    "earthquakes": 24724,
    "Ġstrengthen": 20703,
    "initely": 7568,
    "Ġashore": 5352,
    "Ġimmut": 13302,
    "Ġwatchful": 16528,
    "Ġunobserved": 18250,
    "Ġvide": 10253,
    "finds": 19929,
    "Ġestates": 16462,
    "sey": 5543,
    "Ġuncertain": 4066,
    "Ġbrook": 13053,
    "Ġmus": 3396,
    "Ġamusing": 11804,
    "Ġappo": 8499,
    "papers": 12506,
    "sisters": 13380,
    "Ġaffright": 9335,
    "Ġrecognise": 12047,
    "Ġgas": 8133,
    "armed": 7251,
    "Ġroy": 4229,
    "Ġshore": 4836,
    "Ġ127": 24472,
    "Ġarticulated": 24433,
    "ulia": 18151,
    "Ġalmighty": 18107,
    "Ġhatty": 19267,
    "Ġrecording": 24434,
    "Ġweapon": 7775,
    "Ġagitation": 6864,
    "ozy": 17624,
    "Ġsunwards": 19011,
    "Ġclair": 6270,
    "ushed": 2975,
    "Ġremonstrance": 20626,
    "Ġsammy": 24933,
    "ustom": 3790,
    "orns": 12597,
    "Ġplying": 17916,
    "Ġoccurs": 1857,
    "adventure": 17236,
    "vex": 21705,
    "lone": 11502,
    "loose": 11808,
    "on": 267,
    "Ġacting": 10993,
    "Ġunfolded": 10641,
    "desolation": 20462,
    "atches": 13849,
    "ribed": 7692,
    "Ġtren": 17723,
    "Ġmajor": 13296,
    "Ġmister": 22756,
    "mad": 5281,
    "Ġreco": 9794,
    "Ġwealth": 7621,
    "Ġparamount": 15882,
    "Ġspecimen": 13028,
    "Ġglimmer": 15145,
    "Ġemma": 20697,
    "Ġbrighter": 16191,
    "Ġgenuine": 14887,
    "Ġvessels": 6756,
    "Ġretreating": 19802,
    "Ġbeau": 9227,
    "deepest": 22837,
    "Ġott": 13869,
    "first": 3932,
    "Ġchancery": 20718,
    "neville": 22455,
    "Ġquitting": 7646,
    "wr": 3031,
    "ither": 1544,
    "Ġap": 5008,
    "ication": 967,
    "elab": 21573,
    "alas": 8808,
    "Ġfeather": 8863,
    "Ġpushing": 10821,
    "Ġadjust": 2156,
    "rers": 14720,
    "Ġelixir": 26557,
    "Ġshavings": 14113,
    "igms": 3049,
    "Ġeveryday": 22772,
    "Ġyouth": 4263,
    "orate": 10802,
    "irst": 879,
    "Ġsavag": 19377,
    "Ġcemeteries": 26377,
    "Ġtranspointed": 22444,
    "Ġshift": 2284,
    "nervous": 16281,
    "Ġappeals": 16318,
    "Ġrallied": 14098,
    "Ã¦": 4339,
    "Ġhit": 7164,
    "serv": 7451,
    "Ġshaped": 15838,
    "Ġepicures": 25880,
    "Ġshiny": 14109,
    "itical": 5802,
    "suppose": 8648,
    "lances": 15387,
    "Ġadvised": 16211,
    "Ġtricks": 13488,
    "Ġriverside": 25248,
    "Ġexagger": 12724,
    "Ġsoaring": 22090,
    "ma": 1151,
    "Ġhurts": 19113,
    "theirs": 23604,
    "Ġkettle": 26234,
    "onic": 7827,
    "Ġdespite": 19356,
    "have": 2058,
    "raction": 8138,
    "Ġfleets": 23777,
    "Ġstumped": 24945,
    "Ġexplain": 545,
    "commander": 16989,
    "kick": 20938,
    "Ġdecl": 3590,
    "Ġflo": 2586,
    "Ġ36": 14770,
    "Ġcommodores": 25375,
    "Ġshown": 5159,
    "Ġeliminating": 20623,
    "Ġsoc": 3526,
    "Ġsummoning": 23877,
    "Ġvenom": 24241,
    "Ġmeth": 1475,
    "Ġtop": 2470,
    "Ġdiscernment": 15072,
    "treasures": 26153,
    "Ġplank": 7034,
    "Ġexter": 7397,
    "Ġarrang": 2468,
    "rederick": 14082,
    "uccas": 21109,
    "Ġmillar": 13864,
    "porpoise": 16439,
    "Ġmuttered": 7087,
    "exper": 8882,
    "prudently": 21037,
    "Ġmatrix": 1604,
    "Ġsult": 10769,
    "scores": 22995,
    "Ġpon": 10178,
    "Ġwashing": 9708,
    "Ġfurthest": 22819,
    "cater": 20817,
    "Ġbar": 3151,
    "Ġsurrey": 14559,
    "vi": 2375,
    "Ġindulgence": 11321,
    "Ġtransparen": 10544,
    "Ġflying": 5413,
    "under": 3134,
    "zeal": 16267,
    "Ġglacier": 11435,
    "Ġencamp": 22803,
    "trembling": 17145,
    "Ġrippling": 17280,
    "Ġsly": 9635,
    "earn": 10698,
    "ī": 236,
    "Ġcock": 11001,
    "Ġlike": 669,
    "extric": 22763,
    "doubtless": 17004,
    "Ġawfulness": 23589,
    "myster": 16265,
    "cies": 1812,
    "happening": 16567,
    "Ġwreat": 15534,
    "Ġcastaways": 19431,
    "Ġbrig": 11049,
    "iences": 6956,
    "Ġconvince": 14643,
    "Ġcircumnav": 12430,
    "Ġthorough": 6246,
    "brink": 23578,
    "Ġluckily": 16800,
    "plexion": 14263,
    "Ġresc": 4509,
    "Ġpenetrating": 17013,
    "Ġservox": 23873,
    "Ġstrain": 6024,
    "irons": 10241,
    "Ġfronted": 23259,
    "Ġmistress": 8615,
    "glim": 19368,
    "Ġoust": 21327,
    "ious": 771,
    "Ġtour": 9150,
    "dared": 13706,
    "poled": 22908,
    "days": 7687,
    "Ġbushy": 16406,
    "contrasted": 17309,
    "Ġgorgeous": 20470,
    "uel": 6966,
    "shutters": 20316,
    "aceti": 7112,
    "lighter": 20961,
    "fel": 8737,
    "Ġidler": 16409,
    "hibited": 17430,
    "Ġabridged": 26542,
    "confirmed": 19643,
    "Ġhabit": 6771,
    "Ġminiatures": 20324,
    "Ġstoke": 10398,
    "Ġrepulses": 26071,
    "Ġjura": 14195,
    "ness": 853,
    "Ġadequ": 10915,
    "Ġbelted": 22951,
    "Ġscrape": 14920,
    "landsmen": 25062,
    "Ġfoss": 9853,
    "fl": 3600,
    "Ġclients": 19735,
    "Ġbelly": 10372,
    "Ġed": 2245,
    "Ġever": 1178,
    "Ġtheoretically": 3567,
    "het": 5435,
    "Ġpantaloons": 20299,
    "Ġportcull": 23866,
    "tar": 8098,
    "Ġsakes": 18327,
    "erval": 4017,
    "Ġdict": 9178,
    "Ġaverted": 16256,
    "Ġthence": 8885,
    "Ġfears": 5729,
    "Ġmuse": 13863,
    "Ġcross": 1372,
    "rich": 11520,
    "Ġvii": 13113,
    "Ġboys": 5194,
    "Ġentered": 2844,
    "Ġsky": 3967,
    "Ġdens": 21427,
    "Ġrag": 18644,
    "co": 2435,
    "Ġhusband": 3620,
    "Ġentertainment": 12227,
    "Ġhotels": 19539,
    "Ġinclosed": 19541,
    "Ġkicked": 10584,
    "Ġaccelerate": 23231,
    "Ġushered": 18361,
    "andy": 8158,
    "Ġthrusting": 10555,
    "Ġpleated": 16300,
    "fters": 20863,
    "Ġappro": 658,
    "Ġaloft": 4304,
    "mind": 4628,
    "Ġportrait": 10664,
    "Ġwhistled": 24624,
    "restored": 18979,
    "Ġmetropolitan": 17278,
    "iriously": 18174,
    "Ġconstructed": 9390,
    "Ġobeying": 13418,
    "Ġdeeds": 15763,
    "much": 3706,
    "Ġdubious": 17386,
    "Ġindef": 9192,
    "Ġmorbidness": 20631,
    "icilian": 20694,
    "deacon": 22151,
    "Ġtries": 9153,
    "minds": 24235,
    "auley": 22626,
    "Ġpresumption": 10548,
    "Ġubiquitous": 26197,
    "ried": 925,
    "ool": 17620,
    "saw": 5894,
    "Ġswerve": 14440,
    "Ġrefinement": 18701,
    "Ġinstances": 5568,
    "Ġdented": 17893,
    "ff": 462,
    "orn": 2247,
    "none": 6961,
    "Ġbelong": 3885,
    "Ġmechanically": 14405,
    "Ġsolid": 6442,
    "help": 1477,
    "Ġcommanding": 16592,
    "Ġvehemently": 26040,
    "Ġrouted": 24908,
    "Ġtoiling": 15639,
    "Ġcruelly": 13379,
    "supplemental": 25875,
    "ailed": 3248,
    "operation": 13504,
    "Ġtot": 4185,
    "Ġmiraculous": 13551,
    "Ġmanif": 8874,
    "Ġexcellence": 11453,
    "Ġalternate": 19989,
    "max": 1683,
    "Ġdisapprobation": 16061,
    "Ġmasonry": 13603,
    "Ġgigantic": 5915,
    "Ġnaught": 8128,
    "Ġdon": 1610,
    "Ġbel": 1215,
    "Ġcoffin": 4432,
    "Ġreferences": 21677,
    "Ġoozy": 21330,
    "Ġworship": 10369,
    "correct": 24483,
    "Ġsom": 1274,
    "Ġmir": 9649,
    "conduct": 11801,
    "agony": 14072,
    "Ġcomplicated": 14738,
    "revival": 26163,
    "Ġbabes": 24425,
    "Ġvicinity": 7315,
    "aved": 5475,
    "Ġestab": 6316,
    "Ġended": 7950,
    "Ġprovocation": 24194,
    "disapprobation": 19159,
    "Ġmansfield": 25939,
    "opportunity": 12279,
    "Ġreached": 4020,
    "Ġuniversity": 13127,
    "tot": 10730,
    "asserted": 22313,
    "Ġtell": 1467,
    "Ġdined": 9179,
    "Ġsneeze": 24698,
    "Ġfertile": 20586,
    "Ġfootpaths": 26319,
    "Ġlonely": 6822,
    "kish": 20936,
    "Ġkin": 15908,
    "glory": 23855,
    "Ġgreeks": 20016,
    "Ġtwenty": 3947,
    "hunsford": 24386,
    "Ġwinter": 5220,
    "isted": 3297,
    "maybe": 23994,
    "oysius": 14366,
    "Ġunthinkingly": 26222,
    "grammar": 6434,
    "attributed": 23123,
    "Ġcharing": 14183,
    "Ġruinous": 24634,
    "Ġsatisfied": 4170,
    "augh": 1782,
    "eches": 8078,
    "Ġvainly": 9927,
    "aration": 12612,
    "seem": 10230,
    "j": 78,
    "Ġecc": 11631,
    "thr": 12765,
    "Ġunerring": 15851,
    "Ġbuildings": 24719,
    "Ġproductions": 22949,
    "pro": 2050,
    "Ġ1950": 11361,
    "osen": 6854,
    "mil": 13755,
    "Ġpinched": 17036,
    "Ġpresc": 15929,
    "Ġsuperlatively": 26076,
    "Ġbomb": 17869,
    "meat": 18679,
    "nns": 1892,
    "Ġequilibrium": 4139,
    "confirm": 16809,
    "Ġbefall": 8833,
    "mechanical": 25579,
    "ustration": 2262,
    "enial": 17782,
    "escaped": 14232,
    "Ġknelt": 12163,
    "Ġnomin": 10193,
    "Ġassured": 4375,
    "Ġvouch": 15813,
    "Ġtreated": 7081,
    "vil": 2728,
    "Ġper": 588,
    "Ġpathetic": 19037,
    "Ġbildad": 3782,
    "Ġtarshish": 12033,
    "Ġpromotion": 23197,
    "Ġincompatible": 25681,
    "Ġbeale": 12704,
    "Ġcolumbus": 26566,
    "xible": 13811,
    "Ġashes": 7617,
    "Ġfav": 1754,
    "daughter": 8355,
    "Ġhudson": 15195,
    "Ġdaring": 8121,
    "Ġlangsdorff": 15280,
    "irectly": 6939,
    "Ġrepul": 16413,
    "Ġcontinual": 6777,
    "stirring": 20429,
    "influ": 9544,
    "subs": 14305,
    "Ġworlds": 11951,
    "Ġscal": 1592,
    "Ġprefer": 6415,
    "Ġjav": 7902,
    "thur": 7188,
    "accustomed": 13161,
    "Ġdevoting": 22719,
    "Ġexpect": 2307,
    "ek": 1906,
    "shud": 18494,
    "lan": 15381,
    "ly": 319,
    "Ġpolitical": 19226,
    "Ġerie": 20057,
    "Ġital": 10868,
    "Ġmeetings": 16535,
    "Ġexclaimed": 4684,
    "Ġsupplying": 19801,
    "Ġinspirited": 23424,
    "thine": 15828,
    "decided": 13219,
    "Ġdromedary": 17442,
    "Ġdramatic": 4852,
    "Ġcharts": 12832,
    "Ġlucas": 3832,
    "Ġantagonist": 26330,
    "borough": 20787,
    "Ġsubterranean": 13615,
    "whalers": 17266,
    "pos": 15413,
    "Ġmounttop": 19981,
    "lizzy": 6653,
    "Ġluggage": 25958,
    "Ġbermud": 26441,
    "Ġpiling": 17913,
    "clearly": 25196,
    "Ġslightly": 7293,
    "Ġgrowth": 14630,
    "whe": 1073,
    "itive": 6670,
    "Ġgoble": 14233,
    "ivia": 22083,
    "Ġcele": 9903,
    "irs": 14074,
    "society": 9975,
    "Ġconsiderable": 4003,
    "Ġorphans": 20207,
    "Ġmainland": 22653,
    "Ġ87": 19713,
    "Ġ*": 1271,
    "apolog": 22336,
    "Ġfervent": 14898,
    "Ġsockets": 22092,
    "top": 4488,
    "Ġcontradictory": 20400,
    "aloes": 21505,
    "Ġtem": 805,
    "Ġdeclining": 23967,
    "Ġsoon": 1226,
    "nearest": 16026,
    "Ġassertions": 19950,
    "nes": 6960,
    "springs": 24912,
    "retion": 9365,
    "benefit": 24643,
    "pacific": 17643,
    "fif": 9119,
    "lodged": 25908,
    "ermost": 7430,
    "Ġcommunications": 16358,
    "Ġstreets": 5864,
    "oa": 9615,
    "Ġdecanter": 22448,
    "impenetrable": 26198,
    "Ġtack": 5621,
    "Ġrace": 5848,
    "Ġinvective": 26183,
    "Ġexclaim": 11223,
    "Ġlye": 21554,
    "emptied": 23637,
    "Ġgriev": 16637,
    "Ġunearthly": 9039,
    "Ġscound": 12837,
    "expanded": 23664,
    "Ġjackson": 24243,
    "Ġpoet": 8208,
    "Ġslappin": 18945,
    "luded": 4228,
    "Ġbishop": 13905,
    "achalot": 15867,
    "Ġnursing": 12219,
    "directed": 20408,
    "Ġrivers": 9445,
    "Ġportents": 14680,
    "Ġbuoyancy": 20045,
    "Ġendure": 5956,
    "Ġsir": 1563,
    "quadrille": 20598,
    "hump": 12482,
    "Ġfad": 17878,
    "piteous": 21036,
    "Ġcastors": 23979,
    "Ġbureau": 11593,
    "Ġrestrict": 16375,
    "ientious": 11695,
    "Ġdol": 9667,
    "Ġhereby": 10361,
    "onsensical": 18577,
    "putting": 14103,
    "Ġaffliction": 25846,
    "ug": 1765,
    "Ġthief": 11613,
    "Ġsend": 4105,
    "Ġ1890": 23900,
    "asing": 5912,
    "Ġensigns": 23691,
    "Ġpreface": 18368,
    "laws": 19810,
    "Ġuncivilized": 25499,
    "enemy": 15530,
    "ĸ": 249,
    "Ġobviously": 16812,
    "Ġratt": 7881,
    "impossible": 8828,
    "pires": 13778,
    "Ġrust": 6407,
    "Ġremem": 4314,
    "Ġwallet": 21301,
    "tossed": 10998,
    "Ġdarted": 4759,
    "Ġessentially": 24925,
    "Ġlime": 13951,
    "Ġirrad": 19095,
    "fair": 10095,
    "lestrade": 9659,
    "Ġpractises": 23335,
    "ural": 506,
    "Ġgratifying": 13310,
    "Ġcommended": 18657,
    "fered": 5560,
    "ince": 4341,
    "grained": 20885,
    "Ġemotion": 7689,
    "Ġbats": 13903,
    "cruise": 24842,
    "Ġfry": 17881,
    "hap": 17561,
    "allet": 11084,
    "gave": 7799,
    "Ġloudly": 7312,
    "Ġsphynx": 20714,
    "Ġphenomena": 21487,
    "Ġpoles": 11005,
    "Ġbinnacle": 8119,
    "Ġimmedi": 2907,
    "sens": 8096,
    "ethe": 9679,
    "Ġaccordance": 19501,
    "Ġxxxiv": 24970,
    "Ġlogical": 14489,
    "Ġflows": 13015,
    "rously": 17656,
    "ook": 21006,
    "ruined": 18338,
    "unusually": 15784,
    "peculiarity": 23113,
    "Ġsympathised": 14864,
    "ertion": 12043,
    "Ġpurporting": 19184,
    "Ġheredit": 9219,
    "Ġperverseness": 13658,
    "Ġcitadel": 25439,
    "Ġtransform": 746,
    "velled": 9879,
    "Ġmetaphysical": 26070,
    "dece": 11738,
    "lour": 15384,
    "covered": 11479,
    "Ġappropriate": 2253,
    "Ġinterference": 8897,
    "welcomed": 24645,
    "Ġreclining": 26034,
    "overcoat": 19052,
    "Ġmari": 6813,
    "everlasting": 18773,
    "Ġinterview": 9773,
    "Ġlin": 10835,
    "inity": 5693,
    "ogn": 2529,
    "acency": 12913,
    "isure": 6241,
    "Ġdispleased": 18556,
    "Ġsens": 1853,
    "Ġdundee": 16999,
    "Ġmanhat": 22331,
    "Ġaims": 15499,
    "Ġazure": 12378,
    "Ġendangered": 16306,
    "Ġethiop": 26156,
    "ides": 2162,
    "Ġpy": 21454,
    "Ġboa": 22638,
    "Ġintimacy": 8704,
    "bul": 6950,
    "ance": 479,
    "Ġfinanc": 23130,
    "Ġscraps": 16904,
    "Ġaristotle": 25818,
    "eli": 3873,
    "tem": 6369,
    "Ġmainmast": 9782,
    "Ġundo": 15844,
    "Ġgoat": 16011,
    "Ġdreams": 7496,
    "Ġbald": 16209,
    "Ġtearing": 14400,
    "Ġsanctioned": 26352,
    "thin": 14100,
    "Ġfoul": 7160,
    "os": 526,
    "Ġdeftly": 26495,
    "Ġregardless": 19326,
    "Ġdecidedly": 9512,
    "\\": 64,
    "compassion": 12372,
    "dist": 4483,
    "Ġpanther": 16821,
    "Ġsincer": 13071,
    "Ġtoler": 7589,
    "ceive": 3066,
    "hotel": 20053,
    "Ġlouisiana": 25079,
    "Ġmistaking": 23721,
    "ular": 714,
    "Ġclos": 4551,
    "Ġfet": 5808,
    "Ġswinging": 7449,
    "acter": 2505,
    "Ġinduce": 7762,
    "Ġrind": 21973,
    "Ġeth": 17718,
    "until": 6597,
    "Ġ131": 24781,
    "2": 22,
    "Ġbase": 5013,
    "Ġoverbearing": 12847,
    "Ġimper": 4504,
    "go": 2063,
    "Ġpossible": 2583,
    "astrop": 3316,
    "plenty": 14091,
    "Ġashen": 21903,
    "necessities": 24308,
    "Ġequ": 1731,
    "Ġnovember": 11753,
    "Ġcreat": 1438,
    "Ġpeasant": 13555,
    "rifice": 12508,
    "Ġinsolent": 13604,
    "fen": 20852,
    "ignantly": 23267,
    "Ġstones": 9224,
    "Ġobtain": 8918,
    "Ġenthus": 7232,
    "Ġresnet": 5473,
    "Ġintroduced": 7690,
    "Ġparasol": 22125,
    "afternoon": 13189,
    "Ġunseasonable": 26522,
    "Ġblocks": 6322,
    "Ġdiet": 13913,
    "Ġnich": 21523,
    "summit": 23420,
    "Ġresolving": 9422,
    "far": 5787,
    "Ġturban": 23615,
    "city": 15330,
    "Ġclubb": 22365,
    "Ġsinners": 18952,
    "Ġasi": 12737,
    "Ġbreathless": 12174,
    "baby": 25516,
    "ving": 594,
    "Ġtrial": 6636,
    "macy": 18805,
    "Ġworms": 25217,
    "Ġgaped": 13970,
    "Ġpalpable": 15209,
    "Ġsemicircle": 26068,
    "Ġclump": 15978,
    "Ġsket": 18728,
    "spoutings": 25004,
    "sander": 11529,
    "ergy": 2361,
    "Ġrecommend": 7103,
    "inople": 13832,
    "beth": 13692,
    "haust": 5777,
    "Ġeating": 8136,
    "ention": 838,
    "Ġdriver": 16476,
    "Ġseek": 4511,
    "Ġsource": 6805,
    "ph": 933,
    "Ġsufficiently": 8976,
    "Ġhams": 16614,
    "Ġpromethe": 14471,
    "Ġcause": 2411,
    "Ġcalls": 6745,
    "Ġphaet": 16320,
    "ous": 477,
    "Ġk": 484,
    "Ġrespite": 13158,
    "may": 3679,
    "Ġknock": 9976,
    "iod": 3839,
    "aven": 8209,
    "Ġbless": 4344,
    "venth": 9298,
    "Ġbackgammon": 22658,
    "Ġgenerating": 12857,
    "more": 1033,
    "fishery": 10035,
    "ider": 21769,
    "scotland": 20532,
    "Ġtrepidation": 19218,
    "erringly": 16215,
    "Ġpoliceman": 15262,
    "Ġsuggestion": 19710,
    "Ġcrept": 11023,
    "Ġpumping": 25644,
    "alescing": 23869,
    "clifford": 23159,
    "Ġtwisted": 7228,
    "value": 18801,
    "osa": 22264,
    "dripping": 16907,
    "shish": 11799,
    "Ġdefray": 22944,
    "Ġsupple": 23002,
    "uendoes": 26409,
    "Ġlogits": 3450,
    "dataset": 23238,
    "Ġsounded": 8594,
    "Ġunguarded": 15854,
    "unearthly": 19275,
    "omical": 9683,
    "Ġrack": 9316,
    "Ġunflinching": 26514,
    "Ġdimmed": 24270,
    "mockery": 24378,
    "atters": 18501,
    "stains": 11640,
    "igin": 3656,
    "eness": 2292,
    "Ġhatchways": 24990,
    "Ġcontinuously": 23208,
    "tossing": 18581,
    "allic": 12818,
    "Ġduplicates": 17219,
    "Ġprogram": 12998,
    "cursed": 23847,
    "Ġundeserving": 18269,
    "Ġadjusts": 8983,
    "amed": 4451,
    "country": 6104,
    "Ġshot": 4546,
    "Ġinevitable": 15171,
    "Ġequinoctial": 20535,
    "hopper": 23716,
    "Ġindestructible": 26574,
    "Ġdigging": 14940,
    "Ġgrandeur": 8631,
    "Ġapplying": 13095,
    "?âĢĻâĢĿ": 23644,
    "gia": 20878,
    "derment": 22165,
    "Ġrain": 5005,
    "Ġabreast": 18395,
    "Ġauger": 21206,
    "Ġrefusal": 10347,
    "lingering": 18602,
    "Ġconfided": 19038,
    "thinks": 16644,
    "Ġcorrected": 10450,
    "rain": 461,
    "olerable": 7183,
    "Ġwet": 6517,
    "aside": 10194,
    "despicable": 24638,
    "Ġ*/": 10376,
    "Ġsquid": 11882,
    "Ġmurmur": 14590,
    "Ġimpetuous": 25571,
    "Ġnights": 7258,
    "Ġdescending": 8906,
    "Ġoak": 6129,
    "vocation": 25087,
    "gracious": 11835,
    "Ġruled": 22789,
    "Ġaddu": 22106,
    "bacc": 7794,
    "Ġproprietors": 20189,
    "Ġsomnambul": 26578,
    "Ġuprising": 12807,
    "independ": 15985,
    "Ġdescribing": 19256,
    "fooled": 24419,
    "Ġviolently": 6455,
    "Ġbegone": 11920,
    "Ġhatches": 12049,
    "Ġodious": 12155,
    "Ġintimidated": 24802,
    "Ġwat": 1284,
    "accepted": 20139,
    "rowed": 22863,
    "relapse": 24020,
    "Ġperman": 10966,
    "Ġfullest": 14816,
    "latitude": 25260,
    "aciously": 12912,
    "Ġca": 21342,
    "Ġhidden": 1375,
    "tur": 5688,
    "Ġmonogra": 22985,
    "Ġsill": 10767,
    "opinion": 10986,
    "Ġplainly": 4384,
    "Ġtraveller": 8049,
    "corrid": 24484,
    "Ġgenerations": 10967,
    "belong": 12127,
    "Ġappeal": 16317,
    "asper": 7855,
    "Ġchurches": 12833,
    "destroy": 19513,
    "gee": 15981,
    "Ġtempestuous": 20074,
    "Ġgeorgiana": 8629,
    "Ġfurther": 1055,
    "Ġtoss": 10187,
    "approaching": 15014,
    "Ġfigure": 4206,
    "Ġtemple": 7654,
    "doubted": 17528,
    "Ġpardon": 5727,
    "Ġprotested": 9937,
    "Ġcolumb": 22859,
    "height": 21208,
    "Ġinitials": 11015,
    "Ġbarmaid": 19337,
    "Ġdisinclination": 22540,
    "Ġrides": 21975,
    "Ġfatigue": 8701,
    "phology": 3010,
    "whalemen": 10433,
    "says": 13304,
    "monkey": 19172,
    "Ġsuppression": 23003,
    "Ġregularity": 22788,
    "difference": 13711,
    "elephant": 12355,
    "Ġlaug": 3627,
    "Ġsolved": 8934,
    "erpillar": 5798,
    "eldom": 4417,
    "jane": 4485,
    "entle": 1736,
    "usoid": 4768,
    "Ġfer": 5529,
    "magnificent": 20277,
    "forgotten": 12420,
    "morrow": 4574,
    "sicilian": 21066,
    "Ġtraced": 10386,
    "shining": 18496,
    "ě": 220,
    "Ġprem": 3427,
    "Ġcreases": 22728,
    "iters": 21332,
    "onian": 17769,
    "Ġpiqu": 21480,
    "Ġsuperflu": 14555,
    "Ġdisplayed": 10611,
    "Ġterrific": 6755,
    "Ġstrait": 23753,
    "urmount": 13999,
    "Ġattract": 11836,
    "Ġfurnished": 6474,
    "Ġpatted": 16385,
    "Ġadorned": 15251,
    "athered": 6972,
    "Ġmannish": 26239,
    "pract": 10122,
    "Ġbricks": 13566,
    "Ġchaldee": 26236,
    "Ġrefres": 14345,
    "Ġundu": 15841,
    "Ġstreng": 18073,
    "Ġscared": 14192,
    "ocations": 23709,
    "Ġincorporate": 20457,
    "Ġrh": 9247,
    "Ġuniversally": 12004,
    "Ġbale": 7838,
    "Ġlydia": 2374,
    "Ġgritted": 22808,
    "Ġequally": 5258,
    "head": 1433,
    "ances": 1339,
    "lished": 8383,
    "Ġcobbling": 20526,
    "Ġmarines": 16263,
    "Ġswarming": 16277,
    "Ġswelled": 11090,
    "Ġcoopman": 25829,
    "Ġmarching": 16698,
    "Ġdelightful": 6321,
    "Ġlearnable": 3992,
    "ractions": 11636,
    "Ġsignal": 5945,
    "Ġpleasure": 2691,
    "Ġconduct": 3734,
    "Ġmisunderstood": 18706,
    "angling": 14143,
    "Ġforesight": 13132,
    "ieged": 22581,
    "Ġanytime": 12890,
    "Ġrap": 14310,
    "perpendicular": 14165,
    "Ġtrousers": 12419,
    "Ġbegging": 11081,
    "Ġsleepers": 13153,
    "outre": 18321,
    "Ġring": 4455,
    "Ġslide": 10396,
    "mushroom": 26397,
    "Ġinformation": 1048,
    "Ġclearly": 6896,
    "Ġhay": 11608,
    "witted": 17709,
    "huzza": 20915,
    "Ġattested": 22625,
    "Ġpurring": 23477,
    "Ġmyst": 4048,
    "Ġimp": 574,
    "Ġcalves": 13041,
    "answ": 15884,
    "Ġassigned": 16314,
    "Ġlabeled": 3719,
    "within": 6731,
    "voy": 7144,
    "Ġpeaked": 2298,
    "Ġwrig": 13073,
    "Ù": 154,
    "Ġvexatious": 19784,
    "inform": 10146,
    "Ġcounters": 24142,
    "Ġspeed": 2448,
    "Ġextra": 4053,
    "Ġeludes": 26556,
    "william": 4564,
    "Ġperches": 18449,
    "Ġfid": 10805,
    "porary": 14552,
    "Ġspoils": 24805,
    "mouse": 15396,
    "Ġextracts": 9368,
    "opol": 12876,
    "Ġthenceforth": 25183,
    "tried": 13797,
    "rigible": 24932,
    "Ġa": 263,
    "sur": 4525,
    "Ġuncommon": 5026,
    "Ġstocks": 23178,
    "Ġenormity": 19698,
    "Ġcalcul": 3637,
    "spell": 22734,
    "Ġstrewed": 23425,
    "Ġgiddy": 20500,
    "Ġhush": 13215,
    "Ġhumph": 22886,
    "Ġenvy": 13208,
    "Ġdisappointed": 7098,
    "oped": 6047,
    "Ġstatistics": 1681,
    "Ġsealed": 15822,
    "lim": 9609,
    "companies": 24895,
    "mbles": 23092,
    "vere": 4884,
    "Ġaries": 21200,
    "bourine": 9399,
    "Ġcorpulence": 24509,
    "Ġlivid": 14992,
    "Ġvariations": 22669,
    "Ġtreacle": 14596,
    "Ġrefusing": 11030,
    "Ġroads": 13293,
    "Ġassizes": 11110,
    "Ġdeacon": 18143,
    "Ġswarm": 23057,
    "Ġidolator": 20001,
    "alarms": 21508,
    "%": 9,
    "stee": 21654,
    "springing": 24890,
    "Ġforesee": 19126,
    "charmed": 21699,
    "Ġrevers": 21667,
    "Ġcompass": 4412,
    "Ġexceptional": 19374,
    "Ġpictured": 16625,
    "circumstance": 7763,
    "Ġsculpt": 15950,
    "mon": 2311,
    "Ġgrec": 18962,
    "Ġdusky": 13553,
    "Ġwarp": 8113,
    "Ġestimation": 11220,
    "ina": 21182,
    "Ġanomaly": 25637,
    "own": 744,
    "Ġundulates": 24119,
    "spark": 18689,
    "daylight": 19055,
    "Ġslapped": 23173,
    "shape": 10985,
    "Ġenlarged": 25986,
    "clut": 23153,
    "calmly": 20142,
    "keys": 15862,
    "Ġsubstituting": 26328,
    "Ġemployments": 12107,
    "ially": 9250,
    "Ġmute": 19419,
    "till": 6965,
    "Ġsavesoul": 26229,
    "Ġinsp": 2102,
    "================================================================": 9993,
    "Ġward": 10158,
    "Ġspir": 2429,
    "dro": 6646,
    "sutherland": 21065,
    "Ġlabourers": 23333,
    "Ġtong": 4871,
    "belt": 24039,
    ",âĢĶ": 3173,
    "Ġtrading": 23081,
    "Ġimpreg": 15991,
    "Ġscan": 22283,
    "Ġfolios": 23021,
    "Ġcripple": 11442,
    "unnatural": 15777,
    "Ġsolicitude": 10043,
    "Ġselfishness": 12293,
    "ernsey": 8905,
    "prosper": 19102,
    "belled": 24040,
    "Ġcords": 14881,
    "Ġmonosyllable": 20728,
    "hedge": 22504,
    "Ġclamorous": 24910,
    "Ġaccompaniments": 24482,
    "Ġburly": 19252,
    "Ġunbounded": 18260,
    "london": 9612,
    "Ġparametric": 2397,
    "diss": 17525,
    "Ġwrenched": 12563,
    "valu": 1644,
    "Ġinevitably": 17233,
    "Ġadaptation": 3159,
    "Ġsteering": 10390,
    "Ġflour": 8947,
    "clouded": 20334,
    "Ġrequirements": 9791,
    "Ġhang": 9190,
    "bolt": 25138,
    "Ġexactness": 23606,
    "rugg": 15900,
    "Ġlawyers": 25249,
    "remarked": 12292,
    "oors": 17622,
    "Ġmaintainable": 12940,
    "Ġfestival": 25446,
    "Ġrightly": 13070,
    "Ġre": 317,
    "disgraceful": 26077,
    "Ġbourgh": 5069,
    "Ġflatt": 16249,
    "Ġvalue": 2086,
    "Ġstarts": 16585,
    "hoping": 17568,
    "elopement": 23135,
    "Ġbehoo": 19032,
    "connect": 1290,
    "ids": 21767,
    "Ġdoubts": 8581,
    "Ġcurving": 16237,
    "ilder": 15717,
    "Ġcachalot": 17836,
    "hunt": 20905,
    "Ġfa": 4821,
    "shrugged": 22466,
    "Ġhaughty": 11451,
    "Ġcontest": 18474,
    "Ġripe": 13240,
    "Ġclams": 19992,
    "Ġrashly": 20308,
    "shapes": 22468,
    "accuracy": 9882,
    "clergyman": 20731,
    "Ġfut": 15579,
    "Ġprejudiced": 24806,
    "angs": 5835,
    "vels": 5432,
    "_.": 2216,
    "Ġext": 910,
    "Ġplants": 22601,
    "Ġconcerning": 4067,
    "buoy": 7760,
    "evinced": 19928,
    "Ġmast": 2902,
    "scra": 13027,
    "Ġvindict": 13609,
    "Ġus": 499,
    "Ġpeace": 3693,
    "L": 48,
    "Ġdeepest": 8213,
    "Ġverify": 12092,
    "commanders": 16991,
    "Ġtags": 20574,
    "locks": 14460,
    "Ġthreatened": 8330,
    "bat": 8072,
    "Ġscold": 10952,
    "quality": 10235,
    "Ġespecially": 3934,
    "ouri": 21450,
    "older": 15760,
    "ipt": 12483,
    "aloft": 8811,
    "Ġabsorbed": 12335,
    "footed": 19692,
    "Ġmoby": 3665,
    "Ġshamefully": 24715,
    "Ġwager": 17794,
    "Ġparadise": 11197,
    "Ġscorching": 20071,
    "Ġdesired": 4666,
    "Ġmalignant": 14880,
    "Ġlegs": 4917,
    "eyes": 5684,
    "Ġ24": 13195,
    "Ġlighter": 12658,
    "allah": 5839,
    "onist": 21253,
    "Ġroll": 5381,
    "Ġphilosophical": 26336,
    "Ġexpressed": 4470,
    "bourne": 19104,
    "banked": 25338,
    "Ġvirginia": 13503,
    "prejud": 11798,
    "Ġfamed": 16328,
    "wheeler": 16192,
    "nlp": 8754,
    "Ġsurpassing": 20471,
    "snow": 10726,
    "Ġink": 8807,
    "Ġdepressions": 25799,
    "Ġpipe": 4322,
    "Ġcontracting": 16015,
    "geon": 6271,
    "explanation": 12362,
    "Ġ124": 24469,
    "me": 875,
    "Ġprey": 6414,
    "Ġdelineate": 26058,
    "Ġtorture": 9067,
    "ct": 309,
    "iety": 2818,
    "Ġerrors": 2595,
    "Ġgracious": 8851,
    "Ġblossom": 26313,
    "Ġsplinter": 23750,
    "Ġfejee": 18354,
    "Ġimplore": 24873,
    "Ġwrongfully": 24251,
    "ow": 325,
    "Ġmary": 3843,
    "Ġdisgraceful": 15022,
    "Ġimpatience": 7509,
    "Ġsupposition": 9820,
    "humor": 19455,
    "paws": 21031,
    "Ġspring": 4119,
    "Ġshetland": 22163,
    "uch": 877,
    "Ġordin": 16653,
    "Ġdiving": 12606,
    "Ġabruptness": 25300,
    "espe": 3499,
    "nearer": 22454,
    "screen": 22999,
    "Ġlabours": 8585,
    "Ġresolution": 5500,
    "al": 292,
    "obli": 23098,
    "Ġlistener": 16477,
    "Ġoperation": 12003,
    "Ġsilver": 7463,
    "Ġtelescope": 17351,
    "Ġtriumphantly": 11289,
    "«": 109,
    "Ġsailed": 4890,
    "resh": 8405,
    "Ġaffronted": 22896,
    "Ġun": 423,
    "Ġinsufficient": 9675,
    "Ġscanning": 18400,
    "Ġmelting": 24290,
    "Ġchasing": 11758,
    "Ġextravagant": 17281,
    "compared": 24037,
    "breeding": 16677,
    "Ġirene": 8445,
    "Ġforces": 12707,
    "Ġoffered": 5817,
    "gir": 8083,
    "Ġnewcastle": 16226,
    "Ġtrack": 7450,
    "ficial": 17550,
    "Ġembarks": 22976,
    "Ġsnap": 11203,
    "Ġfitzwilliam": 5771,
    "Ġcountenances": 11966,
    "pressed": 6588,
    "unexpected": 15782,
    "infer": 10147,
    "Ġbeliefs": 24583,
    "ott": 1871,
    "Ġhimmale": 18335,
    "must": 3578,
    "Ġunheard": 22029,
    "notches": 22751,
    "life": 4933,
    "Ġpairs": 4181,
    "though": 2117,
    "mere": 11859,
    "lac": 17591,
    "umns": 14150,
    "host": 5868,
    "Ġweb": 9243,
    "zz": 4294,
    "Ġattending": 3284,
    "Ġtrifle": 10604,
    "Ġscale": 1546,
    "tolerable": 17690,
    "Ġforests": 13596,
    "Ġhumming": 12991,
    "Ġclapping": 14209,
    "ĠĠĠĠĠĠĠĠĠĠĠĠĠĠĠĠĠĠĠĠĠĠĠĠĠĠĠĠĠĠĠĠĠĠĠĠĠ": 14615,
    "Ġmodern": 3230,
    "throne": 25658,
    "Ġ500": 24324,
    "Ġethiopian": 26615,
    "apes": 9744,
    "apse": 14201,
    "Ġcargo": 16293,
    "exagger": 22432,
    "opening": 10315,
    "wat": 6232,
    "Ġetc": 7085,
    "ront": 15421,
    "Ġsuccor": 25663,
    "Ġrestoration": 19026,
    "Ġimplicate": 24877,
    "atig": 13848,
    "Ġdomineering": 23678,
    "Ġunalterable": 15855,
    "Ġdissipate": 13637,
    "court": 7511,
    "fug": 17545,
    "ē": 212,
    "Ġreb": 15695,
    "kshire": 13749,
    "Ġscaled": 2107,
    "Ġcompanies": 14558,
    "Ġgold": 3278,
    "Ġpartially": 13128,
    "Ġoccur": 1082,
    "maged": 15397,
    "Ġasserted": 16951,
    "Ġconcern": 2653,
    "captains": 12132,
    "Ġlaborers": 19057,
    "opotam": 22481,
    "Ġupheld": 22156,
    "ivation": 3113,
    "hint": 12480,
    "Ġmuff": 8114,
    "Ġsinned": 18953,
    "ĠĠĠĠĠĠĠĠĠĠĠĠĠĠĠĠĠĠĠĠĠĠĠĠĠĠĠĠĠĠ": 24443,
    "Ġgriff": 22809,
    "Ġsituated": 9450,
    "Ġtend": 6121,
    "covenant": 23564,
    "Ġundertaken": 18987,
    "Ġschol": 17380,
    "etency": 21585,
    "sat": 4811,
    "Ġpath": 2115,
    "entitled": 21571,
    "Ġmagg": 18907,
    "Ġoverhung": 15973,
    "Ġproficiency": 19195,
    "urously": 18053,
    "Ġbad": 3984,
    "iously": 2673,
    "intellig": 5321,
    "suggested": 17302,
    "aw": 1447,
    "Ġfervour": 19729,
    "Ġ29": 23732,
    "Ġrighted": 23182,
    "Ġsyn": 15917,
    "Ġunder": 1635,
    "Ġpurchase": 12264,
    "Ġeuroclydon": 15300,
    "Ġencouraged": 9358,
    "Ġcalamity": 17352,
    "precip": 14666,
    "Ġrelatives": 12987,
    "Ġfog": 9664,
    "Ġdotted": 16794,
    "Ġfatt": 15583,
    "kes": 3678,
    "Ġ49": 24084,
    "god": 4864,
    "Ġmidday": 23634,
    "Ġkindliness": 23295,
    "Ġriddles": 16734,
    "sculptured": 26047,
    "related": 24016,
    "Ġbarbara": 24815,
    "Ġregard": 3069,
    "Ġspices": 22135,
    "Ġ70": 11278,
    "Ġcapsizing": 20092,
    "Ġunforgiving": 25996,
    "pid": 1411,
    "Ġdivin": 13278,
    "Ġpolished": 11184,
    "Ġtu": 6968,
    "Ġcylinders": 25944,
    "Ġcrane": 23440,
    "Ġstab": 10864,
    "------": 12138,
    "Ġterr": 3273,
    "ost": 5361,
    "infor": 3107,
    "Ġaug": 6235,
    "Ġouthouse": 22318,
    "Ġunsocial": 18257,
    "ence": 392,
    "atch": 674,
    "Ġslacked": 25189,
    "igned": 5656,
    "Ġlob": 7628,
    "tete": 10734,
    "Ġscott": 22285,
    "mell": 20966,
    "Ġchag": 15935,
    "Ġdisadvantages": 18559,
    "intern": 23738,
    "Ġ108": 19687,
    "Ġjacob": 1898,
    "een": 726,
    "Ġeffected": 14357,
    "Ġscrut": 15949,
    "Ġautoregressive": 3432,
    "Ġrecomm": 4996,
    "Ġneedless": 19232,
    "cats": 17514,
    "advantages": 11273,
    "Ġclumsy": 9582,
    "repaid": 24491,
    "Ġlawless": 19438,
    "nelson": 25621,
    "suitable": 18634,
    "Ġretention": 23074,
    "Ġshare": 1658,
    "Ġdesperately": 24657,
    "Ġfert": 15586,
    "Ġprick": 14481,
    "Ġenemy": 5605,
    "Ġornamented": 20365,
    "spot": 9792,
    "Ġhope": 1788,
    "Ġaccommod": 14215,
    "Ġpiny": 21473,
    "Ġdisplays": 19859,
    "Ġedged": 23489,
    "Ġalms": 21784,
    "Ġretreated": 13437,
    "augment": 18831,
    "Ġface": 1719,
    "Ġguarded": 9829,
    "sterdam": 19091,
    "occup": 7752,
    "Ġlarge": 1063,
    "Ġscalding": 16334,
    "fury": 17549,
    "mental": 16064,
    "ancing": 1757,
    "Ġexcepting": 14681,
    "ĠĠĠĠĠĠĠĠĠĠĠĠĠĠĠĠĠĠĠ": 22953,
    "both": 5785,
    "Ġcheek": 8579,
    "georgiana": 26021,
    "Ġinterested": 6457,
    "Ġinsists": 23680,
    "dream": 8731,
    "Ġlawy": 9457,
    "É": 138,
    "Ġremoved": 5275,
    "Ġhome": 2029,
    "Ġunderneath": 16342,
    "Ġinspire": 12000,
    "Ġsignificant": 8637,
    "subject": 6633,
    "Ġcoldly": 14651,
    "Ġalthough": 4149,
    "abri": 6683,
    "Ġprep": 4190,
    "Ġwalk": 1823,
    "Ġseriously": 7062,
    "Ġcask": 5527,
    "holland": 24045,
    "Ġprogrammed": 11059,
    "eprints": 12796,
    "Ġrestrictions": 20637,
    "murmured": 24455,
    "Ġcents": 17830,
    "Ġseething": 18204,
    "knell": 24555,
    "omp": 2471,
    "Ġwhy": 1758,
    "Ġclaimed": 14208,
    "Ġbritannica": 24681,
    "iber": 6505,
    "Ġminded": 23234,
    "Ġrequ": 793,
    "iana": 7049,
    "Ġnuptials": 20497,
    "Ġschooner": 16749,
    "Ġdiabolism": 25515,
    "Ġplaything": 19240,
    "Ġlooks": 4164,
    "Ġhyper": 19742,
    "Ġmanip": 8875,
    "Ġpuzzled": 7317,
    "Ġpa": 2992,
    "ividual": 5463,
    "parad": 16381,
    "Ġleather": 7607,
    "pudding": 17649,
    "Ġgratitude": 5599,
    "urry": 13997,
    "adequate": 15207,
    "Ġinqu": 2969,
    "inside": 23068,
    "Ġwhitt": 18057,
    "uttering": 12667,
    "Ġoutrages": 18416,
    "Ġsofas": 26226,
    "Ġmirror": 12382,
    "avoid": 9308,
    "Ġcorresponds": 19824,
    "chess": 16576,
    "Ġunexpl": 22043,
    "Ġrapidly": 3465,
    "Ġcondemned": 7778,
    "Ġbrooded": 23107,
    "Ġremorse": 6440,
    "Ġhelmsman": 10507,
    "tuesday": 17692,
    "treatment": 20415,
    "contented": 14635,
    "moid": 2450,
    "Ġheartless": 13077,
    "Ġextend": 18697,
    "discoloured": 23500,
    "Ġrobust": 1374,
    "wam": 10138,
    "scot": 14421,
    "Ġsmoothe": 23657,
    "Ġinvent": 7165,
    "Ġrug": 16161,
    "Ġdesist": 16242,
    "medical": 23346,
    "Ġnarr": 5085,
    "Ġpoverty": 9307,
    "Ġslain": 8956,
    "Ġpatterns": 1213,
    "knife": 6941,
    "Ġinferences": 17937,
    "Ġmomentous": 16175,
    "Ġimmeasurable": 26231,
    "Ġdiffused": 12073,
    "ryphon": 4161,
    "ued": 7561,
    "Ġfift": 6381,
    "Ġthrob": 21521,
    "Ġrural": 21971,
    "Ġprofessional": 7299,
    "withstand": 23028,
    "Ġmurder": 4282,
    "cing": 1014,
    "Ġsequentially": 4915,
    "Ġbalancing": 2431,
    "ivorous": 22086,
    "iature": 8745,
    "aded": 3550,
    "Ġinstrument": 7119,
    "Ġconsort": 18724,
    "Ġproprietor": 12377,
    "rian": 10244,
    "Ġrepressed": 21671,
    "Ġunanswerable": 26523,
    "Ġpivot": 13926,
    "Ġbelfry": 26440,
    "riety": 12749,
    "Ġheaved": 9386,
    "Ġdumplings": 15194,
    "step": 2456,
    "Ġtrials": 16791,
    "Ġpredictions": 1453,
    "invincible": 25092,
    "Ġintelligible": 15945,
    "jo": 3752,
    "Ġunlikely": 10910,
    "rennial": 22344,
    "itancy": 21336,
    "Ġcorpor": 23044,
    "kingly": 20941,
    "Ġcontribut": 12864,
    "Ġmodified": 14171,
    "Ġblocked": 19225,
    "ellative": 21949,
    "itably": 10784,
    "Ġceleb": 20228,
    "Ġdanger": 3520,
    "Ġkissed": 10048,
    "yset": 21148,
    "Ġuses": 1209,
    "21": 10075,
    "rubber": 12814,
    "Ġlargest": 6283,
    "Ġgoodge": 22826,
    "Ġsale": 14157,
    "Ġkrem": 9729,
    "Ġunlocking": 20708,
    "Ġcongen": 10875,
    "Ġhoarsely": 26303,
    "Ġpointing": 5661,
    "Ġexhib": 6350,
    "Ď": 207,
    "Ġ$": 21153,
    "Ġentr": 14339,
    "Ġlexic": 15728,
    "Ġmagician": 25061,
    "Ġdonkey": 23232,
    "andromeda": 21872,
    "Ġdenominated": 15232,
    "Ġportions": 19372,
    "Ġrecords": 12200,
    "thread": 15830,
    "Ġisles": 8461,
    "Ġimple": 1790,
    "Ġowes": 20088,
    "Ġsuffocated": 20730,
    "Ġcomplexity": 1692,
    "Ġretort": 23073,
    "eminently": 25108,
    "Ġforg": 3788,
    "lynes": 15708,
    "Ġsultry": 20291,
    "Ġchild": 2263,
    "Ò": 147,
    "Ġabuse": 18393,
    "Ġmusket": 12300,
    "dition": 15342,
    "itors": 2917,
    "Ġdevils": 7230,
    "sounded": 12271,
    "inhabited": 13624,
    "<MASK>": 4,
    "Ġwharf": 9562,
    "user": 5105,
    "Ġstories": 10867,
    "Ġtarquin": 23612,
    "Ġvirgin": 7328,
    "Ġcor": 1326,
    "Ġthreat": 5154,
    "Ġraising": 8913,
    "Ġprecise": 7076,
    "nigh": 13766,
    "Ġgifts": 21615,
    "heum": 17749,
    "Ġcare": 1639,
    "diligence": 26111,
    "Ġwrote": 5011,
    "ash": 1992,
    "Ġporter": 15615,
    "es": 288,
    "Ġensemble": 1606,
    "disreputable": 23505,
    "Ġdetermination": 9822,
    "Ġexhale": 24402,
    "inquire": 16934,
    "tram": 19646,
    "Ġsevere": 6032,
    "Ġtreacher": 8608,
    "Ġslighter": 18942,
    "eping": 5834,
    "Ġfleshy": 24615,
    "assistance": 20374,
    "Ġpoliteness": 8274,
    "neurons": 3137,
    "Ġnotions": 14102,
    "Ġjury": 5378,
    "Ġsoda": 25535,
    "Ġripples": 25506,
    "thanked": 24327,
    "Ġgloves": 8577,
    "ys": 3958,
    "Ġchisel": 20371,
    "Ġactively": 18654,
    "Ġscuffle": 20611,
    "Ġpaused": 5416,
    "Ġstationary": 19697,
    "Ġallow": 1126,
    "plun": 15819,
    "Ġcontortions": 18477,
    "Ġswallows": 18884,
    "based": 2964,
    "took": 6165,
    "recurring": 24197,
    "Ġeyelashes": 26107,
    "Ġsquat": 14371,
    "Ġexpanding": 25239,
    "cried": 8728,
    "Ġhans": 12631,
    "Ġswore": 10381,
    "======": 9836,
    "Ġtoe": 13939,
    "ir": 379,
    "Ġaccomp": 4714,
    "ically": 854,
    "mathematics": 26305,
    "quietude": 24656,
    "Ġwrapping": 19778,
    "Ġmanaging": 22329,
    "Ġflushed": 13032,
    "Ġcatastrop": 3348,
    "pat": 10119,
    "Ġgreenland": 5761,
    "Ġarrested": 9563,
    "Ġtwelfth": 22681,
    "Ġdoing": 3661,
    "Ġsituation": 4070,
    "atively": 2692,
    "Ġapples": 22217,
    "Ġnest": 10191,
    "Ġobsc": 7040,
    "whispered": 20037,
    "Ġveter": 15815,
    "otently": 21804,
    "epend": 3315,
    "Ġlass": 15652,
    "Ġsubmit": 11874,
    "Ġunworth": 22040,
    "Ġthrough": 604,
    "Ġranges": 2884,
    "Ġinsights": 13183,
    "Ġstables": 23656,
    "tland": 21076,
    "Ġsurvive": 9069,
    "Ġpacked": 9983,
    "urious": 21706,
    "Ġsome": 656,
    "Ġaddresses": 3769,
    "shavings": 22469,
    "Ġfurlongs": 20725,
    "Ġfireboard": 23533,
    "Ġhe": 318,
    "Ġmayhap": 18710,
    "prehensible": 12364,
    "contempl": 13193,
    "Ġmosses": 20166,
    "Ġbirch": 26175,
    "Ġthree": 1370,
    "Ġaudience": 24768,
    "Ġoverlook": 10961,
    "Ġneatness": 19935,
    "Ġaccusations": 22383,
    "Ġvoracity": 25987,
    "Ġerect": 6144,
    "yed": 3272,
    "nav": 17613,
    "brace": 16944,
    "decoder": 3644,
    "Ġfishery": 4173,
    "Ġtying": 15476,
    "Ġsport": 6689,
    "Ġbended": 21388,
    "Ġfowl": 11332,
    "riumph": 4920,
    "Ġhelen": 16658,
    "Ġnervous": 2405,
    "Ġmichaelmas": 26376,
    "lovel": 22513,
    "reg": 2185,
    "maid": 8554,
    "Ġguineas": 16276,
    "Ġgetting": 4064,
    "virt": 15454,
    "Ġreversed": 15701,
    "Ġfacetious": 20587,
    "Ġhooped": 23358,
    "entary": 21570,
    "considering": 12179,
    "disputed": 23502,
    "sounding": 24795,
    "Ġcheap": 13092,
    "ray": 2438,
    "aloons": 20014,
    "abomin": 15746,
    "pherd": 13648,
    "Ġblemish": 19682,
    "dark": 5614,
    "Ġnose": 4406,
    "Ġpromise": 4198,
    "istry": 22113,
    "Ġsince": 1795,
    "Ġsuavely": 26525,
    "uated": 10134,
    "Ġsuppress": 13029,
    "skinned": 25388,
    "murderer": 13397,
    "Ġpest": 13916,
    "Ġignited": 25072,
    "lic": 17589,
    "provided": 13641,
    "agra": 14069,
    "soup": 21061,
    "Ġcounsel": 13619,
    "Ġdoubled": 19640,
    "Ġvocabulary": 4995,
    "Ġpall": 7583,
    "Ġstooped": 14467,
    "Ġnormalization": 1243,
    "igh": 2030,
    "Ġinjustice": 9193,
    "detained": 24382,
    "Ġinflexibly": 26372,
    "Ġhammers": 13246,
    "parameter": 2867,
    "Ġthough": 993,
    "Ġridiculous": 10631,
    "Ġsee": 803,
    "Ġelapsed": 7653,
    "Ġ68": 24370,
    "Ġgrateful": 7660,
    "stad": 7598,
    "Ġmechanisms": 1569,
    "Ġconvict": 23748,
    "plicable": 10258,
    "ete": 9206,
    "Ġspectacle": 10499,
    "Ġheaven": 3365,
    "Ġmincing": 18752,
    "omely": 21642,
    "Ġprodu": 1204,
    "Ġhorsham": 10408,
    "instrument": 15242,
    "Ġarch": 939,
    "rip": 9244,
    "Ġbru": 13898,
    "Ġjuggler": 26368,
    "masts": 19428,
    "Ġflap": 14425,
    "Ġconceal": 5974,
    "Ġdistributions": 1050,
    "ales": 3317,
    "Ġcenturies": 8626,
    "few": 8202,
    "plish": 18201,
    "Ġflamingo": 15104,
    "Ġconnivance": 25226,
    "Ġconcealed": 7495,
    "Ġaboard": 6698,
    "Ġnoisy": 13323,
    "Ġshalt": 18231,
    "mou": 10710,
    "Ġsigma": 1539,
    "Ġfool": 4235,
    "Ġpiteous": 17920,
    "gaffman": 26392,
    "Ġstigma": 25792,
    "weep": 22687,
    "bale": 20776,
    "Ġinvariable": 13460,
    "Ġgard": 2190,
    "very": 500,
    "Ġartificial": 781,
    "contempt": 13192,
    "Ġspeechless": 13358,
    "Ġcoop": 14273,
    "Ġunite": 9257,
    "Ġdeclaration": 16639,
    "hing": 979,
    "Ġfrost": 6096,
    "crow": 9593,
    "Ġpractically": 13109,
    "frau": 15093,
    "Ġmaids": 19694,
    "influence": 13582,
    "Ġtails": 9905,
    "lemency": 21377,
    "Ġextremities": 19198,
    "Ġcobweb": 22587,
    "Ġlingering": 11381,
    "Ġcompar": 4772,
    "said": 4102,
    "caused": 25520,
    "force": 12966,
    "Ġwaking": 11573,
    "Ġmusical": 23896,
    "Ġmanaged": 7906,
    "Ġculprit": 26173,
    "Ġpersuading": 19413,
    "aked": 2016,
    "Ġblasphemy": 26116,
    "Ġunusual": 6554,
    "Ġwatson": 3597,
    "Ġrespectability": 14487,
    "Ġinspiring": 19114,
    "Ġstaff": 14009,
    "Ġhouses": 6139,
    "Ġlit": 6247,
    "Ġhamper": 19392,
    "Ġhuff": 21493,
    "Ġcontextual": 3744,
    "Ġbroke": 5323,
    "Ġirrevoc": 15041,
    "Ġdevotedly": 24749,
    "right": 2767,
    "ĠâĢľâĢĶ": 9737,
    "Ġdefence": 11069,
    "uncommonly": 25550,
    "engagements": 25855,
    "neglected": 25670,
    "Ġruff": 14352,
    "ips": 2591,
    "Ġtormented": 8678,
    "Ġfinally": 4668,
    "ittered": 18440,
    "Ġdyspepsia": 20645,
    "Ġcanall": 10930,
    "wrote": 11549,
    "mers": 9613,
    "suspected": 12376,
    "described": 18896,
    "Ġpursu": 3241,
    "Ġdefe": 21839,
    "Ġai": 3130,
    "ows": 1916,
    "q": 85,
    "Ġdrifted": 14626,
    "Ġcakes": 13887,
    "Ġfill": 5701,
    "cond": 1663,
    "Ġreplete": 15702,
    "xology": 21144,
    "bounded": 13443,
    "Ġsubstantial": 14812,
    "Ġsensitiveness": 23737,
    "Ġprobability": 1124,
    "Ġcannib": 6036,
    "Ġwapping": 21297,
    "Ġmovements": 24359,
    "Ġriot": 14689,
    "farewell": 12310,
    "Ġmarsh": 9824,
    "Ġoverlooking": 22354,
    "Ġbamboo": 17440,
    "Ġduc": 4698,
    "Ġsaith": 14158,
    "arus": 13915,
    "Ġmarking": 16471,
    "west": 10741,
    "Ġobliquely": 12366,
    "ropy": 1101,
    "sil": 5283,
    "Ġsports": 18311,
    "Ġgpus": 3733,
    "opposition": 24820,
    "Ġhurriedly": 11251,
    "Ġbountiful": 25945,
    "size": 15427,
    "interested": 9509,
    "Ġwriters": 13546,
    "constit": 24605,
    "Ġdistrustful": 25057,
    "best": 6112,
    "rann": 21047,
    "adequately": 20322,
    "reflections": 24734,
    "Ġclever": 7055,
    "accompl": 9883,
    "Ġbills": 17862,
    "Ġtreasures": 17048,
    "Ġhighness": 22774,
    "german": 11494,
    "Ġremarkably": 7702,
    "Ġalche": 21787,
    "Ġboone": 11843,
    "Ġniagara": 26460,
    "Ġinjurious": 24273,
    "Ġslippers": 19618,
    "seventy": 10878,
    "Ġmurderers": 16813,
    "mmed": 7914,
    "Ġascertaining": 17206,
    "Ġpulverize": 23396,
    "Ġappare": 12821,
    "Ġaddressing": 11166,
    "Ġuniformity": 23485,
    "exercise": 17462,
    "'": 11,
    "Ġcity": 4532,
    "Ġbuckets": 17035,
    "rev": 17758,
    "Ġtinker": 15135,
    "education": 20304,
    ")": 13,
    "Ġrejection": 19987,
    "Ġbert": 4584,
    "chers": 11319,
    "grand": 7971,
    "Ġcontemplative": 19895,
    "sided": 17666,
    "Ġomitted": 12569,
    "Ġegypt": 9681,
    "anzas": 17842,
    "bread": 10688,
    "cable": 20799,
    "Ġherein": 16194,
    "ency": 3868,
    "won": 8395,
    "ez": 5683,
    "appearance": 5334,
    "ry": 807,
    "Ġaccused": 8509,
    "steel": 8298,
    "Ġjenny": 20165,
    "aff": 3104,
    "Ġsnatching": 10474,
    "ples": 6844,
    "Ġcorroborated": 26055,
    "Ġmould": 6518,
    "Ġeverything": 3158,
    "sleet": 20152,
    "blows": 17168,
    "onious": 15521,
    "Ġlover": 7193,
    "Ġ100": 14367,
    "inating": 9156,
    "Ġfasc": 12603,
    "Ġherd": 7888,
    "Ġ83": 24459,
    "istle": 15874,
    "Ġpertur": 12856,
    "recur": 4440,
    "Ġquality": 3528,
    "Ġponderous": 8356,
    "endeavour": 17032,
    "Ġaffability": 14390,
    "Ġgeneralization": 982,
    "Ġhelper": 24030,
    "Ġravings": 18649,
    "Ġdeigned": 18141,
    "Ġneighbor": 25804,
    "Ġcurrent": 13016,
    "Ġsleeves": 10663,
    "emporary": 15802,
    "Ġvancou": 22878,
    "Ġredness": 19313,
    "Ġbully": 23859,
    "Ġapex": 24342,
    "Ġhieroglyph": 11975,
    "chest": 11210,
    "Ġguest": 7249,
    "shut": 10983,
    "ichever": 13960,
    "Ġtransitory": 16022,
    "withstanding": 8948,
    "Ġmam": 8406,
    "quietly": 10595,
    "ist": 448,
    "Ġsexes": 25172,
    "Ġimpaling": 22387,
    "Ġstooping": 13067,
    "Ġsoaked": 15866,
    "Ġpouring": 12629,
    "arian": 10319,
    "vul": 15451,
    "rear": 21235,
    "Ġreef": 10851,
    "Ġinsepar": 17936,
    "Ġwhirlwinds": 20468,
    "quohog": 21862,
    "Ġpurch": 6600,
    "Ġstrife": 18614,
    "ifferent": 4264,
    "Ġcharm": 4550,
    "Ġwiping": 25766,
    "Ġ1807": 26084,
    "Ġsymp": 4505,
    "bouton": 17504,
    "Ġaud": 6663,
    "Ġfam": 1580,
    "errand": 22911,
    "awakened": 14456,
    "oce": 10716,
    "Ġprofits": 16491,
    "Ġdrop": 4346,
    "Ġboasted": 16111,
    "compl": 6872,
    "Ġforth": 3462,
    "Ġalike": 8147,
    "Ġune": 4600,
    "wer": 8396,
    "Ġwithhold": 18118,
    "Ġimprinted": 22393,
    "Ġplaintiffs": 13613,
    "Ġtoils": 10188,
    "Ġties": 12533,
    "Ġlouder": 13472,
    "crown": 13702,
    "indulged": 22379,
    "prejudice": 25572,
    "Ġramsgate": 18651,
    "|": 96,
    "Ġhalloa": 13321,
    "oll": 5456,
    "ites": 3897,
    "Ġexhibit": 14958,
    "Ġbuzz": 24000,
    "rad": 2154,
    "Ġuncork": 23433,
    "sm": 3436,
    "yder": 10141,
    "oved": 5215,
    "immediately": 10052,
    "brilliancy": 26078,
    "Ġvectors": 1770,
    "Ġexcluded": 16389,
    "Ġheeds": 24520,
    "Ġalighted": 18106,
    "Ġcalled": 1974,
    "Ġfounded": 8560,
    "boy": 4739,
    "flow": 2199,
    "ism": 4875,
    "pursuit": 20343,
    "Ġresounds": 22546,
    "brandy": 19203,
    "wooden": 24588,
    "ê": 171,
    "Ġhaggerston": 26454,
    "Ġpublisher": 24069,
    "Ġtarget": 2821,
    "Ġenlightened": 12751,
    "Ġsecondly": 14518,
    "Ġembarrassment": 10629,
    "erring": 11058,
    "Ġsharing": 3478,
    "angel": 5726,
    "Ġconceive": 8463,
    "playful": 24357,
    "Ġinno": 1441,
    "Ġmenacing": 23111,
    "cous": 8725,
    "Ġmisunderstand": 18705,
    "Ġfellow": 2775,
    "fier": 9596,
    "cils": 20816,
    "umpled": 15880,
    "Ġclasped": 17209,
    "Ġexploding": 2110,
    "Ġmanufact": 22332,
    "Ġagricultural": 26552,
    "ifer": 11688,
    "Ġpresum": 4839,
    "Ġcommis": 22674,
    "friendly": 13289,
    "Ġrestlessness": 23293,
    "Ġinclu": 1098,
    "Ġbang": 17856,
    "Ġdrifting": 19281,
    "brary": 5755,
    "char": 3504,
    "Ġsepar": 3996,
    "usage": 12838,
    "Ġsalut": 10512,
    "why": 2828,
    "intercourse": 14639,
    "Ġunbelief": 22053,
    "antly": 1989,
    "Ġperseverance": 13601,
    "Ġdegenerating": 25800,
    "verity": 14004,
    "Ġinsert": 19907,
    "Ġimpertin": 6932,
    "cousins": 20121,
    "objection": 19917,
    "Ġsavages": 9915,
    "conceal": 25117,
    "Ġdetested": 14177,
    "Ġbr": 1071,
    "ria": 15800,
    "Ġdes": 1251,
    "Ġuncles": 23434,
    "uous": 4143,
    "uge": 4014,
    "Ġgam": 11627,
    "angered": 16181,
    "Ġblown": 12090,
    "Ġfished": 21413,
    "Ġdisadvantage": 12895,
    "Ġrelu": 1046,
    "Ġcharted": 22254,
    "quired": 21859,
    "Ġsheet": 6263,
    "Ġenables": 725,
    "Ġlamp": 4112,
    "Ġvalidate": 3142,
    "Ġcontribute": 12866,
    "Ġnast": 15643,
    "Ġdelineations": 26059,
    "Ġchart": 10947,
    "Ġlosing": 10918,
    "Ġtoes": 10831,
    "cating": 20804,
    "usion": 3299,
    "er": 269,
    "Ġthickening": 24028,
    "ĠĠ": 351,
    "drawers": 19389,
    "Ġasyl": 12739,
    "Ġhawsers": 26504,
    "Ġsimilitude": 19212,
    "Ġkn": 4548,
    "consum": 12875,
    "ju": 13744,
    "unfearing": 21896,
    "Ġheightens": 24157,
    "Ġsometimes": 2167,
    "apothe": 22338,
    "act": 783,
    "Ġblock": 2574,
    "unk": 4541,
    "occur": 19578,
    "amuse": 14055,
    "astron": 22173,
    "Ġhospitable": 17060,
    "Ġsu": 431,
    "Ġdiscovering": 13362,
    "Ġparagra": 15883,
    "Ġindic": 2888,
    "Ġadvancement": 24475,
    "muttered": 13762,
    "Ġoblige": 10491,
    "Ġsil": 1796,
    "Ġbranded": 14382,
    "prit": 19345,
    "Ġoffers": 12950,
    "Ġfir": 17879,
    "Ġmatters": 4974,
    "Ġspreading": 13382,
    "Ġbelike": 18832,
    "Ġconsists": 11982,
    "Ġover": 554,
    "parts": 14602,
    "mem": 10711,
    "greg": 6649,
    "Ġhauled": 11698,
    "impressed": 12696,
    "Ġfew": 1222,
    "Ġchestnuts": 24381,
    "Ġstaving": 21741,
    "encyclopÃ¦dia": 16666,
    "Ġhorror": 3773,
    "rab": 7597,
    "Ġcrunched": 19122,
    "Ġtease": 18811,
    "clair": 18935,
    "Ġmix": 7577,
    "liest": 6295,
    "trap": 24334,
    "Ġpiercing": 13497,
    "hundreds": 25076,
    "Ġtyrant": 24766,
    "ushion": 14722,
    "Ġhall": 4183,
    "terdam": 18132,
    "tails": 21089,
    "neglect": 25669,
    "Ġmyself": 1452,
    "Ġleaf": 15727,
    "Ġaccount": 2322,
    "Ġreus": 8826,
    "comple": 7441,
    "Ġscarce": 8625,
    "Ġglancing": 5399,
    "Ġevents": 4475,
    "Ġdeserts": 10510,
    "Ġrabbit": 4290,
    "Ġsteam": 9356,
    "Ġpatagon": 14510,
    "measure": 10034,
    "nez": 22451,
    "Ġflea": 23776,
    "hest": 3369,
    "ssian": 3399,
    "Ġsupernatural": 9876,
    "nect": 664,
    "Ġ123": 24468,
    "Ġpeople": 2541,
    "rict": 8093,
    "ulates": 14058,
    "Ġnatives": 17953,
    "Ġsavoury": 23880,
    "ifice": 7198,
    "aken": 1868,
    "script": 11079,
    "groom": 8743,
    "Ġinner": 9673,
    "Ġtig": 13816,
    "Ġvirtues": 9939,
    "Ġfrosty": 14937,
    "Ġidleness": 11146,
    "manned": 18765,
    "Ġjacket": 6488,
    "Ġextrem": 2474,
    "Ġconvey": 9984,
    "Ġperpet": 7645,
    "Ġey": 8135,
    "Ġears": 4493,
    "Ġtexas": 25923,
    "Ġpovels": 22595,
    "Ġpint": 17911,
    "Ġvengeance": 5885,
    "Ġfathers": 16299,
    "ting": 1336,
    "isome": 17850,
    "Ġpup": 12624,
    "Ġcy": 13877,
    "perai": 10279,
    "Ġcorroboration": 26054,
    "Ġcarelessly": 11122,
    "Ġmaterially": 12196,
    "isle": 13895,
    "missionary": 24616,
    "wherefore": 19110,
    "Ġfunere": 22263,
    "ot": 346,
    "blunder": 24131,
    "Ġ1828": 25720,
    "wreat": 21130,
    "motives": 26138,
    "Ġnominally": 17234,
    "Ġmultipl": 2791,
    "Ġrunning": 3950,
    "ety": 3521,
    "Ġpeculiarity": 12938,
    "Ġpicturesque": 14896,
    "provoke": 26072,
    "her": 487,
    "Ġcoquet": 22585,
    "ison": 3077,
    "ame": 644,
    "Ġungrateful": 14124,
    "Ġlights": 8963,
    "rupt": 3213,
    "cold": 9592,
    "Ġlinn": 13956,
    "wrong": 13210,
    "unwho": 21881,
    "Ġuplifted": 11650,
    "Ġgur": 21595,
    "Ġpositively": 13036,
    "rived": 5373,
    "Ġmathematics": 12078,
    "{": 95,
    "Ġwilt": 9646,
    "Ġrecoil": 18691,
    "fthand": 26388,
    "Ġeffeminacy": 20720,
    "Ġcash": 9655,
    "Ġsoutherly": 23338,
    "Ġbowed": 6243,
    "Ġperadventure": 22403,
    "Ġduplicate": 17218,
    "ocation": 14627,
    "[_": 5131,
    "Ġop": 2601,
    "Ġtickled": 20060,
    "domestic": 19828,
    "Ġ132": 19898,
    "Ġdespond": 14669,
    "Ġphilosophy": 7104,
    "Ġkilburn": 18352,
    "Ġprotracted": 19472,
    "Ġstay": 3096,
    "Ġrumours": 24599,
    "burg": 16775,
    "savagery": 25028,
    "Ġtip": 15474,
    "Ġsling": 21223,
    "blo": 6354,
    "Ġspray": 7894,
    "sters": 6390,
    "Ġimpetuously": 20375,
    "Ġmarble": 7669,
    "_,âĢĻ": 12437,
    "Ġsine": 10765,
    "Ġencamped": 22804,
    "_,": 2799,
    "Ġconceals": 23907,
    "bol": 8721,
    "Ġthinnest": 24186,
    "driver": 14923,
    "Ġperf": 12855,
    "Ġdams": 16457,
    "Ġflutter": 16250,
    "Ġpreser": 6041,
    "cture": 15669,
    "Ġcompromised": 22575,
    "getic": 12971,
    "Ġdevouring": 11862,
    "Ġinterpre": 1585,
    "Ġunsatisfied": 22048,
    "uther": 8821,
    "Ġwarden": 17227,
    "rise": 6227,
    "Ġwonderful": 4565,
    "Ġartist": 12917,
    "Ġmetal": 9387,
    "Ġloathsome": 13531,
    "Ġbount": 15572,
    "Ġnail": 9198,
    "itty": 3555,
    "upwards": 18865,
    "Ġpriest": 7526,
    "Ġfeedback": 23436,
    "tort": 17677,
    "Ġofficer": 6754,
    "Ġinhospit": 25453,
    "Ġconj": 8462,
    "irably": 13300,
    "Ġparent": 14646,
    "iring": 1704,
    "Ġperu": 14226,
    "warm": 8102,
    "Ġperceived": 4715,
    "Ġrambles": 17187,
    "Ġoccupant": 16654,
    "gish": 20875,
    "Ġrecogn": 2744,
    "Ġallies": 18235,
    "Ġtransported": 11281,
    "Ġconstruction": 9389,
    "iant": 5427,
    "br": 2477,
    "redit": 3876,
    "memory": 13621,
    "Ġapproach": 837,
    "Ġconject": 6027,
    "fluttering": 23976,
    "buttoned": 13636,
    "Ġmamma": 10051,
    "Ġremembered": 5277,
    "Ġgoethe": 22428,
    "ingley": 1542,
    "Ġcetacean": 25879,
    "Ġtwinkle": 12327,
    "Ġdecanting": 22447,
    "gle": 20871,
    "Ġwhirlpool": 20657,
    "sford": 5998,
    "alyards": 18788,
    "ris": 9140,
    "Ġsafer": 22174,
    "zening": 21151,
    "Ġshadow": 5596,
    "Ġconvulsive": 19308,
    "Ġbegan": 2022,
    "ksome": 10107,
    "Ġ52": 24317,
    "Ġrev": 6988,
    "Ġbreak": 2869,
    "Ġbidirectional": 3756,
    "Ġinland": 11611,
    "Ġyellow": 5302,
    "isc": 6240,
    "Ġtattered": 21174,
    "slowly": 9092,
    "Ġattention": 1148,
    "slouched": 24557,
    "sweetly": 25137,
    "Ġeccentric": 13653,
    "Ġgirl": 3088,
    "Ġtid": 8107,
    "wig": 17706,
    "Ġreigning": 15705,
    "Ġbal": 1132,
    "Ġfrequ": 3328,
    "erranean": 9337,
    "Ġloving": 8176,
    "rough": 589,
    "anation": 5804,
    "Ġrather": 1493,
    "Ġstop": 2499,
    "Ġcommence": 6168,
    "Ġdelighted": 5499,
    "eskye": 21453,
    "Ġstation": 5299,
    "Ġcocked": 12909,
    "Ġblankets": 24612,
    "ruding": 9727,
    "houses": 9602,
    "jolly": 20933,
    "Ġcome": 1241,
    "stream": 15691,
    "Ġhammered": 13245,
    "cence": 9591,
    "Ġportly": 14679,
    "hast": 5358,
    "Ġcrop": 10165,
    "ohnson": 16327,
    "Ġgrieved": 8297,
    "Ġheeded": 13407,
    "Ġconce": 3423,
    "Ġstack": 21737,
    "ciousness": 20819,
    "pleasanter": 24051,
    "Ġescorted": 23508,
    "Ġmeddle": 20580,
    "Ġtranquilly": 12294,
    "Ġfurs": 18741,
    "yd": 21145,
    "Ġcracking": 14574,
    "Ġjub": 22299,
    "Ġ98": 24594,
    "Ġcourse": 2132,
    "Ġseethings": 26505,
    "uer": 21103,
    "Ġrailway": 15023,
    "certain": 3676,
    "pondicherry": 26402,
    "Ġaston": 3702,
    "Ġforcing": 3226,
    "Ġdevote": 10341,
    "Ġprotect": 6338,
    "conviction": 19968,
    "Ġconcer": 23321,
    "Ġrect": 18028,
    "belongs": 25597,
    "Ġtaught": 6803,
    "Ġgang": 9210,
    "earliest": 20123,
    "Ġchivalry": 25820,
    "stuff": 15692,
    "binnacle": 20789,
    "Ġencourage": 10383,
    "commence": 19995,
    "Ġengraved": 17082,
    "Ġamused": 11803,
    "Ġcorridor": 10674,
    "ide": 721,
    "Ġsearched": 15823,
    "prevailed": 17348,
    "Ġindignantly": 16941,
    "Ġtea": 5042,
    "Ġaccompanied": 6780,
    "asses": 7017,
    "Ġmomentum": 1601,
    "baden": 25616,
    "national": 21000,
    "Ġ53": 19638,
    "Ġgroping": 13669,
    "Ġunf": 4087,
    "describe": 1513,
    "ode": 1451,
    "Ġgestures": 13539,
    "Ġbottomless": 12111,
    "Ġsagacious": 14973,
    "Ġyour": 635,
    "Ġannoyance": 20664,
    "par": 1813,
    "acceptance": 25186,
    "Ġscaramouch": 23831,
    "Ġclamped": 18433,
    "estations": 22228,
    "Ġhealth": 3902,
    "rah": 8137,
    "iocr": 20925,
    "Ġsubsided": 14551,
    "shop": 14241,
    "Ġnatures": 16507,
    "iate": 6504,
    "Ġquart": 11791,
    "Ġplenty": 6709,
    "Ġlookest": 22721,
    "Ġrevive": 13483,
    "Ġinviting": 19145,
    "atural": 954,
    "Ġentrances": 25836,
    "Ġmaz": 15546,
    "._)": 10483,
    "ings": 632,
    "appre": 14374,
    "ient": 394,
    "exceed": 7911,
    "Ġjug": 12840,
    "Ġcinque": 20489,
    "Ġreceived": 2954,
    "decan": 22145,
    "itious": 8784,
    "Ġdidn": 4365,
    "parlour": 16383,
    "Ġalabama": 14022,
    "Ġdecide": 9289,
    "eleg": 20851,
    "Ġcoburg": 18596,
    "sheet": 16289,
    "Ġeulogy": 26473,
    "owder": 8450,
    "isting": 5551,
    "Ġdiscuss": 9477,
    "irth": 5634,
    "Ġdesigns": 13021,
    "intense": 22939,
    "hering": 12819,
    "run": 10723,
    "Ġdraws": 19439,
    "Ġlion": 9678,
    "ortment": 22260,
    "Ġelectric": 15198,
    "continual": 20646,
    "omuch": 21643,
    "Ġsteward": 6585,
    "Ġem": 1923,
    "Ġpressed": 6042,
    "Ġloftiest": 16876,
    "ienced": 5685,
    "persuade": 13536,
    "transp": 24512,
    "content": 11200,
    "im": 327,
    "Ġadmire": 5264,
    "Ġsolace": 16203,
    "Ġundaunted": 24120,
    "Ġwaned": 17793,
    "contained": 22474,
    "solving": 3101,
    "Ġkitty": 3908,
    "Ġcase": 1940,
    "Ġtimidly": 11340,
    "cr": 4010,
    "Ġgeneralize": 3102,
    "mingled": 14715,
    "pred": 2802,
    "Ġgaily": 16750,
    "Ġroom": 1460,
    "Ġcathed": 14549,
    "Ġclubs": 25180,
    "Ġembellish": 25849,
    "sole": 6169,
    "ension": 6570,
    "degree": 12806,
    "wise": 2573,
    "Ġscatter": 18398,
    "Ġmag": 1427,
    "Ġeigen": 4882,
    "Ġforbearing": 25101,
    "Ġorph": 9720,
    "witness": 10038,
    "Ġpie": 13918,
    "Ġhardware": 4905,
    "commun": 15036,
    "Ġnobly": 22245,
    "Ġclothe": 4713,
    "Ġfrolic": 23928,
    "rawling": 21639,
    "Ġmagn": 1551,
    "Ġremarks": 7473,
    "Ġamusement": 8056,
    "just": 1697,
    "Ġforeshadowing": 26594,
    "Ġprovides": 1929,
    "embedding": 20360,
    "Ġstarboard": 7605,
    "Ġimbib": 22179,
    "bingley": 4928,
    "Ġpoetical": 25059,
    "Ġ1836": 25721,
    "Ġforeheads": 23450,
    "Ġflank": 8229,
    "Ġroylott": 7305,
    "Ġunrival": 22051,
    "Ġgrapnels": 25552,
    "comprehens": 16174,
    "cular": 15331,
    "Ġreigned": 13990,
    "charitable": 23936,
    "Ġpenalizing": 13094,
    "elements": 25204,
    "Ġsympath": 4862,
    "Ġtougher": 21179,
    "Ġadvanced": 1494,
    "K": 47,
    "Ġbenefactor": 14699,
    "Ġmatches": 14398,
    "supplementary": 20552,
    "wester": 21141,
    "Ġedd": 8398,
    "Ġpressure": 13426,
    "nants": 17615,
    "iciously": 17976,
    "complain": 14360,
    "âĢĶâĢĿ": 3298,
    "Ġcourt": 4167,
    "Ġpatient": 6893,
    "Ġtore": 6531,
    "Ġhomely": 25220,
    "distance": 12157,
    "Ġmur": 2487,
    "Ġvultures": 25654,
    "Ġcot": 13880,
    "Ġparamore": 22126,
    "persu": 8028,
    "Ġheadland": 22899,
    "Ġresist": 7916,
    "Ġmodest": 15920,
    "ounted": 5030,
    "Ġuntidy": 23524,
    "itoring": 21335,
    "Ġunpardonable": 22066,
    "Ġservant": 5764,
    "ashion": 3859,
    "ard": 465,
    "Ġdoubloon": 6944,
    "othed": 16513,
    "¡": 99,
    "Ġartful": 22609,
    "letter": 6202,
    "nine": 13764,
    "vedale": 22711,
    "garet": 9600,
    "dramatic": 19388,
    "olen": 9703,
    "Ġpolar": 9414,
    "Ġused": 2060,
    "Ġcommunion": 19008,
    "Ġdetection": 3070,
    "Ġlustre": 15138,
    "Ġcoincidences": 26365,
    "Ġpersisting": 18876,
    "r": 86,
    "keeper": 5597,
    "Ġincred": 5646,
    "Ġsoftly": 7948,
    "Ġbelrive": 18833,
    "Ġhunts": 23160,
    "_,âĢĻâĢĿ": 20404,
    "dischar": 19155,
    "Ġinexper": 16982,
    "egypt": 15353,
    "Ġreliably": 22883,
    "horrible": 14601,
    "Ġloathed": 15879,
    "nihil": 9858,
    "tom": 15438,
    "Ġunwarrant": 19936,
    "Ġunheeded": 18262,
    "vill": 10737,
    "appo": 3913,
    "Ġleaving": 3903,
    "oing": 15404,
    "Ġswings": 11089,
    "Ġhooked": 19081,
    "Ġportent": 12086,
    "halfway": 24313,
    "Ġresulting": 24201,
    "maker": 12497,
    "Ġbloss": 19258,
    "Ġsp": 458,
    "Ġsharp": 2415,
    "Ġhabitations": 24788,
    "dances": 17523,
    "========": 2314,
    "secre": 18129,
    "Ġrevelations": 25224,
    "Ġslew": 23386,
    "Ġbody": 2437,
    "rapidly": 15247,
    "been": 3345,
    "Ġpeculiarities": 12075,
    "Ġ118": 19701,
    "Ġsmilingly": 22564,
    "bitt": 17488,
    "omnipotent": 25965,
    "dri": 5888,
    "Ġmans": 15540,
    "Ġsparks": 22137,
    "Ġcreaking": 14331,
    "Ġpolynes": 16083,
    "twas": 15440,
    "bib": 17494,
    "Ġhide": 4591,
    "thomas": 18220,
    "aneously": 4057,
    "here": 2547,
    "yrin": 12527,
    "Ġwhisky": 23937,
    "ited": 1749,
    "bone": 5612,
    "band": 3061,
    "Ġalleys": 25979,
    "Ġproducing": 11903,
    "Ġfound": 1247,
    "Ġgirth": 13140,
    "Ġcroquet": 9965,
    "Ġenglish": 3614,
    "Ġwick": 2005,
    "Ġweakened": 16825,
    "Ġblessed": 6930,
    "Ġperennial": 22697,
    "Ġdaw": 21432,
    "Ġdenny": 9004,
    "Ġrendering": 16660,
    "Ġbunch": 11328,
    "Ġloafer": 18300,
    "france": 24284,
    "Ġaye": 3353,
    "Ġthreads": 13122,
    "Ġsmack": 9303,
    "Ġeleg": 6193,
    "Ġterrify": 19364,
    "Ġcadiz": 17328,
    "endured": 22231,
    "Ġdare": 3546,
    "Ġfreshets": 25705,
    "Ġoakum": 16936,
    "Ġpecks": 18670,
    "Ġpoignant": 22596,
    "acetti": 13400,
    "Ġwhite": 1536,
    "Ġdevious": 22718,
    "Ġfear": 2279,
    "Ġcomplacency": 19451,
    "previous": 9763,
    "====": 1481,
    "examination": 25479,
    "Ġpaw": 12625,
    "inions": 8403,
    "Ġjoyful": 13226,
    "Ġphrenologically": 20397,
    "note": 14340,
    "nostr": 22739,
    "Ġembra": 6579,
    "ised": 1099,
    "Ġtradesmen": 17106,
    "Ġquadrille": 13544,
    "Ġaccelerating": 1617,
    "Ġquadruped": 20618,
    "Ġadopted": 15182,
    "Ġmutable": 23958,
    "bers": 2569,
    "Ġitalian": 12414,
    "Ġsentiments": 7960,
    "Ġhourly": 23302,
    "Ġdrives": 14578,
    "completed": 19997,
    "Ġglobular": 19010,
    "Ġaccounted": 10297,
    "Ġexhausting": 24709,
    "Ġevery": 926,
    "rabbit": 20594,
    "ø": 185,
    "bildad": 9589,
    "Ġjoke": 8872,
    "illes": 12699,
    "Ġswears": 16466,
    "ivates": 18281,
    "Ġkra": 18349,
    "princ": 8624,
    "Ġsermons": 20197,
    "Ġengine": 1918,
    "Ġsurround": 4619,
    "Ġcocain": 18595,
    "Ġpowdered": 24240,
    "crowd": 25255,
    "ive": 427,
    "Ġburgl": 13177,
    "Ġbarren": 11208,
    "Ġbrix": 12588,
    "Ġcondescension": 10621,
    "Ġuncle": 3195,
    "netherfield": 9816,
    "fitting": 1508,
    "Ġmeet": 2804,
    "Ġinfidel": 13105,
    "Ġneighbouring": 12123,
    "Ġfe": 490,
    "Ġstood": 2549,
    "degrees": 22154,
    "Ġduck": 8798,
    "Ġalice": 1482,
    "Ġanom": 12616,
    "breast": 11248,
    "Ġhues": 21492,
    "[": 63,
    "Ġheathenish": 13620,
    "Ġperplex": 2712,
    "Ġlimp": 19182,
    "ariously": 18530,
    "Ġinhabitant": 19758,
    "Ġserv": 3329,
    "Ġdiverse": 19211,
    "discernible": 20553,
    "osis": 18390,
    "etts": 12665,
    "hollow": 24044,
    "harb": 9126,
    "Ġadvice": 4902,
    "Ġdear": 1537,
    "Ġcoronet": 6345,
    "Ġalso": 1345,
    "Ġmightier": 18730,
    "restoration": 23240,
    "Ġoutside": 5554,
    "Ġrenounce": 19471,
    "Ġsandwich": 19831,
    "======================================================================": 10071,
    "speptic": 23949,
    "Ġderbyshire": 6587,
    "Ġoppressive": 20458,
    "Ġaccess": 9750,
    "Ġanointing": 25540,
    "Ġinterchange": 16075,
    "Ġvision": 1574,
    "search": 8466,
    "whims": 22243,
    "Ġsecretary": 19445,
    "rison": 13782,
    "Ġreck": 6538,
    "Ġdoran": 9182,
    "Ġtw": 843,
    "otam": 21802,
    "Ġcertainly": 2495,
    "Ġrummaged": 16912,
    "Ġbreed": 19075,
    "say": 3981,
    "Ġapt": 9158,
    "Ġdripping": 13151,
    "trip": 21094,
    "Ġruminated": 24600,
    "Ġinconveniences": 24942,
    "Ġadvent": 4358,
    "calculating": 25690,
    "Ġmermaids": 26171,
    "Ġmaria": 7125,
    "ints": 3417,
    "Ġjoists": 19235,
    "aternity": 21268,
    "!_": 7329,
    "Ġabst": 9269,
    "Ġawaited": 17075,
    "Ġtechni": 1832,
    "!": 5,
    "Ġfortifications": 23622,
    "Ġpreservation": 24631,
    "Ġashamed": 6402,
    "tol": 17674,
    "Ġsingers": 23774,
    "hon": 6793,
    "omin": 4704,
    "Ġcold": 3035,
    "roar": 17955,
    "Ġburying": 19254,
    "Ġrout": 7402,
    "Ġdisconcerted": 18563,
    "Ġprincip": 5600,
    "touched": 15442,
    "Ġeat": 4645,
    "extensive": 18708,
    "arrested": 15605,
    "Ġgarnery": 17390,
    "aset": 10834,
    "treated": 21097,
    "Ġgait": 13335,
    "exclaimed": 11794,
    "distraction": 24203,
    "quished": 21858,
    "Ġchapel": 9526,
    "inferiors": 25347,
    "qualified": 17099,
    "Ġshivering": 10268,
    "utored": 15667,
    "Ġengagement": 5397,
    "opp": 6962,
    "Ġreceptive": 1558,
    "Ġpoets": 11825,
    "yours": 7694,
    "Ġdegradation": 2629,
    "spond": 5567,
    "Ġunprejudiced": 18270,
    "Ġardu": 22187,
    "bodily": 17318,
    "Ġhaunts": 18199,
    "Ġnear": 1715,
    "flo": 6115,
    "rougham": 15997,
    "ously": 2489,
    "ized": 1525,
    "Ġgleam": 12312,
    "aky": 18412,
    "itions": 4146,
    "burned": 25082,
    "Ġcasks": 7521,
    "Ġconsole": 8151,
    "84": 15305,
    "Ġparameters": 994,
    "hosmer": 25903,
    "roll": 9199,
    "Ġenigmatical": 20600,
    "less": 927,
    "afterwards": 7484,
    "Ġconstantinople": 19840,
    "Ġrobbery": 11924,
    "glo": 8741,
    "Ġplains": 14624,
    "rious": 11692,
    "Ġdecorum": 16025,
    "94": 4804,
    "Ġhelps": 9370,
    "Ġbridle": 24682,
    "Ġdinn": 23984,
    "whalebone": 19120,
    "Ġgrin": 5482,
    "Ġrelent": 18776,
    "Ġklux": 22199,
    "Ġknotted": 17021,
    "Ġreceives": 20357,
    "Ġhappening": 14386,
    "uits": 21107,
    "Ġdictionaries": 12344,
    "ordered": 8794,
    "Ġscraggy": 24580,
    "gence": 876,
    "Ġcupboard": 16885,
    "Ġbabel": 24426,
    "Ġstars": 6150,
    "Ġornament": 11724,
    "shiver": 16031,
    "condem": 16347,
    "Ġdizzy": 21435,
    "heartedness": 24825,
    "expectations": 24279,
    "Ġswandam": 11091,
    "Ġbiases": 2399,
    "everybody": 8614,
    "Ġaft": 5737,
    "Ġcelebrate": 26359,
    "ainty": 21791,
    "admitted": 18094,
    "Ġcraft": 4379,
    "ake": 751,
    "Ġcrest": 12946,
    "intu": 22936,
    "however": 4376,
    "ified": 3228,
    "Ġundoubted": 19517,
    "Ġconsolation": 6209,
    "accomplished": 17214,
    "Ġdisciple": 22786,
    "Ġlanterns": 24578,
    "Ġ14": 9326,
    "Ġay": 15494,
    "Ġlinen": 12411,
    "Ġcrowding": 13284,
    "Ġascent": 19621,
    "Ġigniting": 25073,
    "Ġseethe": 21967,
    "pleas": 3852,
    "Ġchurned": 18386,
    "ondon": 2702,
    "yield": 13812,
    "Ġbound": 3519,
    "º": 123,
    "hoped": 20912,
    "enty": 2919,
    "harpooned": 24288,
    "Ġminimize": 7051,
    "pede": 19932,
    "Ġwail": 21289,
    "Ġsuperstitious": 13523,
    "Ġhabitual": 24789,
    "Ġtrembled": 8705,
    "Ġ95": 19776,
    "Ġmisanthropic": 26562,
    "Ġmanhood": 22330,
    "often": 6166,
    "Ġappears": 5402,
    "Ġcertain": 1553,
    "Ġmistifying": 23722,
    "Ġwashington": 17205,
    "iscreet": 20685,
    "Ġthoughtfulness": 18774,
    "Ġperturbed": 20443,
    "Ġchildish": 13141,
    "Ġwafted": 14500,
    "Ġinquirers": 24965,
    "Ġchrist": 4071,
    "cad": 17507,
    "bethinking": 25746,
    "agree": 14070,
    "Ġthrees": 23404,
    "Ġtus": 10751,
    "Ġohio": 19130,
    "ipl": 20920,
    "ilities": 6991,
    "Ġcreate": 2092,
    "Ġcommunicated": 9064,
    "Ġvine": 8473,
    "Ġcaval": 25770,
[...]
