{
  "metadata": {
    "vocab_size": 26615,
    "algorithm": "BPE",
    "created_at": "2026-08-06 05:15:18",
    "special_tokens": [
      "<PAD>",
      "<SOS>",
      "<EOS>",
      "<UNK>",
      "<MASK>"
    ]
  },
  "vocab": {
    "Ġauthentic": 20535,
    "ď": 208,
    "Ġmyster": 5926,
    "Ġpursued": 6330,
    "Ġmob": 16018,
    "elf": 565,
    "Ġchry": 22247,
    "discredit": 24256,
    "Ġtheoretic": 23314,
    "Ġstands": 5260,
    "friends": 8307,
    "Ġpierced": 12286,
    "prehend": 14240,
    "Ġcoal": 18589,
    "Ġhymn": 24521,
    "Ġmanagement": 8194,
    "namely": 23682,
    "robust": 19729,
    "Ġrespectability": 14481,
    "Ġvelv": 10622,
    "Ġsteepest": 3087,
    "zed": 8105,
    "Ġpathetic": 19020,
    "Ġexalted": 12415,
    "Ġguards": 16268,
    "Ġanxiety": 5409,
    "Ġherb": 15857,
    "Ġcommend": 10337,
    "wor": 3418,
    "data": 2295,
    "solitude": 23301,
    "Ġexcuse": 5863,
    "Ġruddy": 17127,
    "itaries": 21336,
    "button": 10968,
    "Ġinfinity": 23287,
    "Ġross": 2767,
    "sign": 8389,
    "Ġbestow": 6456,
    "Ġcautiously": 16976,
    "both": 5786,
    "Ġvig": 5461,
    "Ġpipe": 4321,
    "Ġvariants": 1794,
    "Ġunde": 11715,
    "Ġintimately": 24802,
    "ished": 1428,
    "Ġ\"": 6121,
    "Ġrepented": 23365,
    "Ġacquies": 11099,
    "vius": 23546,
    "Ġartful": 22611,
    ".âĢĻâĢĿ": 6742,
    "manifested": 20527,
    "Ġblundering": 26283,
    "Ġvainly": 9927,
    "dreadful": 11423,
    "sto": 3198,
    "achment": 5465,
    "Ġmak": 10780,
    "Ġaggregate": 25676,
    "sne": 10127,
    "ich": 469,
    "Ġcoral": 11925,
    "Ġstacks": 18074,
    "arched": 10817,
    "Ġscraping": 13417,
    "Ġunprecedented": 15855,
    "Ġprogra": 1145,
    "Ġloungers": 24864,
    "magn": 10613,
    "Ġgrotes": 19564,
    "Ġinverted": 12639,
    "Ġcharacteristic": 12051,
    "alvan": 21503,
    "Ġcomfits": 21860,
    "ensibility": 22549,
    "Ġcountrymen": 23599,
    "olently": 15758,
    "Ġsomnambul": 26577,
    "ns": 752,
    "Ġejaculation": 20255,
    "morrow": 4572,
    "Ġexpectation": 6905,
    "Ġaccountability": 10440,
    "Ġimpenetrable": 17398,
    "Ġexter": 7397,
    "shadows": 25479,
    "Ġappeased": 23198,
    "Ġdiamond": 15599,
    "Ġbruised": 25771,
    "ect": 381,
    "Ġpoltroon": 26599,
    "Ġdespondence": 25868,
    "Ġemphasis": 20537,
    "ilations": 21722,
    "Ġtok": 1245,
    "Ġnumberless": 16415,
    "Ġcorruption": 15226,
    "Ġxl": 11993,
    "etimes": 1987,
    "**": 4687,
    "Ġpurport": 14579,
    "erranean": 9336,
    "itten": 3442,
    "appear": 13200,
    "Ġhoist": 11980,
    "Ġdespise": 14664,
    "Ġcontraction": 16009,
    "rmsprop": 4522,
    "Ġplates": 11008,
    "Ġwalled": 15534,
    "Ġsultanism": 25887,
    "Ġtidings": 11399,
    "abez": 10225,
    "Ġstingy": 25455,
    "Ġnecessity": 7297,
    "bold": 17488,
    "orm": 425,
    "meat": 18674,
    "Ġinaudible": 21498,
    "slackened": 26093,
    "cloth": 11940,
    "Ġentreat": 4509,
    "ais": 8072,
    "Ġcontemptuously": 19834,
    "Ġframework": 1899,
    "admirably": 24946,
    "Ġlikewise": 5387,
    "eland": 11622,
    "narrative": 17320,
    "hopes": 15369,
    "Ġdrinking": 12173,
    "gely": 10702,
    "mosphere": 10046,
    "vent": 684,
    "band": 3059,
    "icherry": 15136,
    "spades": 14330,
    "secure": 12240,
    "Ġsevere": 6032,
    "Ġvivid": 8059,
    "Ġgrasped": 8035,
    "Ġconcussion": 26299,
    "oc": 2836,
    "Ġwarehouses": 20419,
    "Ġassembly": 10645,
    "Ġspeechless": 13356,
    "Ġmarriage": 3187,
    "Ġmoney": 3420,
    "Ġarmchair": 8272,
    "Ġmythologies": 26213,
    "Ġwitnesses": 9489,
    "Ġbranded": 14377,
    "arse": 7162,
    "pleasing": 14741,
    "dri": 5889,
    "Ġstep": 753,
    "duty": 20240,
    "Ġunaccountable": 7889,
    "Ġlighting": 13084,
    "Ġepoch": 26472,
    "Ġfacing": 10174,
    "garden": 15025,
    "Ġasylum": 13666,
    "Ġintentions": 10610,
    "Ġrigid": 16715,
    "arranging": 19331,
    "injured": 15133,
    "american": 11402,
    "Ġdevelop": 1649,
    "itute": 9653,
    "Ġcaution": 11348,
    "Ġunlab": 3789,
    "Ġpassed": 2010,
    "usations": 15943,
    "rasing": 21044,
    "het": 5436,
    "Ġpace": 9184,
    "Ġcashier": 20198,
    "Ġminutely": 14558,
    "Ġthrice": 10578,
    "Ġprematurely": 24011,
    "Ġwallowed": 24047,
    "Ġcitations": 25437,
    "Ġexpedition": 10637,
    "intu": 22934,
    "Ġdere": 21835,
    "ist": 448,
    "Ġacceler": 1608,
    "vy": 21106,
    "eldom": 4412,
    "deaux": 22149,
    "Ġaffection": 2639,
    "Ġedged": 23491,
    "Ġset": 1174,
    "Ġpianoforte": 15274,
    "used": 3262,
    "nd": 11506,
    "Ġnot": 413,
    "cords": 25139,
    "Ġevidence": 5271,
    "Ġstaggers": 24654,
    "Ġlingering": 11381,
    "Ġindepend": 3671,
    "Ġcryst": 9920,
    "Ġsm": 704,
    "Ġwrapped": 8343,
    "learned": 8605,
    "Ġelevated": 7319,
    "Ġpled": 17906,
    "od": 355,
    "Ġcounterpart": 24720,
    "Ġreclining": 26032,
    "Ġjurors": 17345,
    "Ġkilled": 4956,
    "Ġperusal": 14222,
    "Ġpicked": 6343,
    "Ġprop": 1680,
    "Ġcanes": 22165,
    "pool": 16209,
    "Ġshop": 9254,
    "Ġsplashing": 16549,
    "prophecy": 22836,
    "Ġdazed": 15596,
    "corrob": 24488,
    "Ġcru": 2825,
    "Ġfabulous": 25947,
    "Ġroy": 4227,
    "Ġarmy": 11744,
    "Ġtwopence": 18658,
    "sample": 12509,
    "Ġoxen": 19952,
    "Ġextras": 22735,
    "anim": 6523,
    "Ġpenetrated": 13473,
    "wer": 8397,
    "urance": 10859,
    "del": 4075,
    "Ġslave": 7455,
    "Ġprejudice": 9078,
    "Ġfad": 17876,
    "ĠâĢĶ_": 3459,
    "Ġ118": 19699,
    "Ġinterval": 4053,
    "closed": 23155,
    "Ġaccompl": 5168,
    "Ġfairer": 20463,
    "Ġsomehow": 4842,
    "unexpected": 15779,
    "ohog": 9847,
    "Ġreligious": 25124,
    "condem": 16343,
    "Ġjudges": 14683,
    "pal": 9618,
    "Ġdetestation": 17129,
    "afer": 17482,
    "Ġcopies": 24937,
    "non": 9613,
    "Ġavenues": 25429,
    "Ġstudious": 23207,
    "Ġravings": 18644,
    "nut": 12497,
    "Ġmill": 6670,
    "Ġiroqu": 21624,
    "Ġsurface": 5119,
    "imely": 13996,
    "sixteen": 24855,
    "Ġfant": 9175,
    "Ġmoot": 22433,
    "Ġknelt": 12163,
    "maul": 11893,
    "Ġinterpreted": 1712,
    "ertain": 1207,
    "umphed": 23520,
    "dressing": 11484,
    "prev": 12869,
    "Ġattempted": 8002,
    "Ġstooped": 14460,
    "walks": 19722,
    "Ġswords": 19897,
    "Ġobservation": 6599,
    "opposing": 24823,
    "Ġposition": 1953,
    "Ġmonomaniac": 9570,
    "Ġgregarious": 18963,
    "mutually": 26135,
    "though": 2115,
    "Ġgoring": 21603,
    "turned": 7307,
    "pens": 17632,
    "ulus": 21865,
    "Ġindirectly": 8942,
    "Ġsitt": 21217,
    "Ġloss": 824,
    "Ġchowders": 18383,
    "Ġsocial": 7009,
    "Ġadmit": 7712,
    "beheaded": 22493,
    "oury": 22305,
    "Ġunmolested": 15246,
    "umerable": 11728,
    "irect": 5554,
    "Ġbite": 10799,
    "Ġsleeve": 20140,
    "Ġpalp": 11251,
    "sub": 4660,
    "mason": 17602,
    "Ġbrooding": 18906,
    "Ġcharming": 6631,
    "Ġquadr": 8201,
    "Ġcry": 3498,
    "mira": 20977,
    "Ġnorth": 4318,
    "Ġjan": 11765,
    "scand": 18853,
    "tranqu": 14705,
    "hall": 8086,
    "Ġwilfully": 16765,
    "mber": 5850,
    "Ġease": 5630,
    "aders": 21759,
    "--": 1039,
    "encouragement": 17424,
    "ga": 17550,
    "Ġstealing": 18892,
    "except": 5384,
    "Ġsteered": 11094,
    "Ġcake": 12573,
    "Ġrejoicing": 13422,
    "rics": 13040,
    "Ġimagine": 3923,
    "Ġbriony": 9331,
    "moran": 24158,
    "kers": 7135,
    "Ġsammy": 24932,
    "deceiving": 22145,
    "æ": 167,
    "¥": 103,
    "Ġchivalry": 25817,
    "Ġhatter": 4111,
    "header": 11936,
    "Ġtoy": 15634,
    "ishing": 1144,
    "Ġjenny": 20162,
    "face": 3680,
    "Ġeyeing": 6461,
    "Ġstamp": 7866,
    "xic": 9147,
    "ow": 325,
    "Ġcosmetic": 23475,
    "Ġunreasonable": 12779,
    "Ġconnect": 798,
    "Ġmich": 21305,
    "ahawk": 23319,
    "Ġexpression": 4515,
    "Ġbent": 5150,
    "ne": 646,
    "ville": 6087,
    "Ġspence": 22127,
    "Ġscratching": 20369,
    "Ġtiar": 21167,
    "Ġtelescope": 17349,
    "Ġgorge": 13566,
    "somehow": 12015,
    "Ġfellow": 2778,
    "attempt": 9362,
    "spikes": 10343,
    "Ġneck": 4887,
    "ression": 3407,
    "Ġrounded": 14436,
    "Ġemerging": 24613,
    "Ġbidding": 9539,
    "asserted": 22310,
    "east": 9118,
    "Ġpervers": 11786,
    "wherever": 13121,
    "Ġposted": 16723,
    "achel": 7035,
    "Ġric": 18209,
    "mystery": 15156,
    "Ġorange": 8490,
    "igations": 18043,
    "Ġins": 2783,
    "Ġacquirement": 19255,
    "Ġraising": 8913,
    "Ġfisher": 3221,
    "accents": 19212,
    "wedged": 24562,
    "Ġinsurmountable": 16531,
    "Ġslides": 18938,
    "Ġterrified": 14670,
    "Ġcripp": 9655,
    "engagements": 25853,
    "Ġdoxology": 22245,
    "verted": 10220,
    "Ġdespised": 14665,
    "hack": 20895,
    "Ġinsert": 19905,
    "Ġmeasurement": 19424,
    "Ġseventeen": 26210,
    "Ġbroken": 3449,
    "ul": 371,
    "Ġseas": 3077,
    "Ġdecreed": 18488,
    "Ġcurved": 18844,
    "Ġplacing": 8904,
    "onden": 13843,
    "Ġcarrying": 6072,
    "health": 13832,
    "Ġ39": 19491,
    "Ġbermud": 26439,
    "Ġinterment": 22576,
    "broken": 8021,
    "possessed": 9530,
    "aced": 2405,
    "Ġensigns": 23694,
    "Ġbugs": 13648,
    "screaming": 20326,
    "aph": 10956,
    "Ġafghan": 22630,
    "illuminated": 17454,
    "consum": 12872,
    "Ġchamounix": 14863,
    "Ġwisest": 11234,
    "Ġabsurdities": 24880,
    "Ġhoard": 23355,
    "Ġcottage": 4735,
    "moon": 10338,
    "strugg": 21656,
    "Ġwestern": 10657,
    "Ġendeavors": 16545,
    "iration": 4540,
    "Ġpitied": 14690,
    "Ġrequ": 780,
    "experience": 17160,
    "Ġalluded": 7887,
    "Ġpleasanter": 19065,
    "Ġeyelashes": 26105,
    "narrow": 12310,
    "Ġoars": 3898,
    "Ġlurks": 11292,
    "Ġoverlooked": 15975,
    "jam": 15371,
    "Ġlimp": 19180,
    "Ġjump": 4503,
    "Ġaccumulated": 11934,
    "friendly": 13286,
    "Ġadmeasure": 18291,
    "Ġfields": 2142,
    "stra": 4045,
    "Ġjeopardized": 20231,
    "Ġtechnically": 12369,
    "persecutor": 26531,
    "Ġunspeakable": 10059,
    "ided": 2787,
    "bler": 11474,
    "Ġfleshy": 24615,
    "Ġ108": 19685,
    "Ġaged": 10324,
    "Ġsinews": 20288,
    "othed": 16510,
    "Ġdrove": 4985,
    "cabin": 8364,
    "¸": 121,
    "definition": 23118,
    "Ġug": 8142,
    "Ġinhuman": 13928,
    "Ġ/*": 10142,
    "Ġfoundation": 4231,
    "ingly": 2134,
    "Ġpotency": 14643,
    "Ġbackbones": 22659,
    "whence": 23214,
    "sembled": 7264,
    "Ġsnatch": 14637,
    "pleasant": 5876,
    "twelve": 14620,
    "Ġcastle": 14716,
    "Ġabsurdly": 19961,
    "Ġsinned": 18950,
    "irts": 9240,
    "Ġresearch": 3248,
    "Ġalman": 21782,
    "anch": 15560,
    "Ġarrog": 18337,
    "Ġsanctioned": 26350,
    "Ġauthors": 10412,
    "snapping": 24851,
    "Ġinterrupt": 4358,
    "Ġconcrete": 20637,
    "Ġdrawings": 14721,
    "Ġmors": 17801,
    "burning": 25080,
    "Ġhemp": 9217,
    "Ġpatagonia": 25856,
    "Ġcorner": 4369,
    "Ġjabez": 11769,
    "Ġdesperate": 7778,
    "mass": 12493,
    "Ġencountering": 11271,
    "fifty": 12355,
    "Ġeagerly": 4991,
    "|": 96,
    "Ġfinally": 4667,
    "Ġaffording": 14820,
    "utional": 17983,
    "Ġdus": 8425,
    "hero": 21204,
    "supplement": 14796,
    "Ġlegs": 4918,
    "Ġgemini": 26470,
    "Ġlashing": 11618,
    "Ġilleg": 21623,
    "Ġseething": 18199,
    "Ġominous": 12427,
    "witness": 10038,
    "Ġpolitely": 8996,
    "Ġdrug": 11412,
    "Ġgros": 14822,
    "striking": 13441,
    "erne": 21269,
    "ienced": 5686,
    "consult": 24175,
    "ise": 707,
    "wol": 21121,
    "Ġunfit": 14786,
    "Ġinherited": 25353,
    "Ġkind": 1788,
    "glow": 20874,
    "Ġdegenerating": 25798,
    "Ġearliest": 9834,
    "Ġuntidy": 23526,
    "sideways": 14570,
    "wil": 8770,
    "Ġcetacean": 25877,
    "Ġgoat": 16007,
    "Ġfol": 1289,
    "Ġunderstanding": 1773,
    "strangers": 20337,
    "scans": 22990,
    "Ġfeet": 2257,
    "uted": 7595,
    "Ġsimul": 1809,
    "Ġteaching": 10367,
    "Ġheron": 22074,
    "Ġcrozetts": 19630,
    "Ġpatronage": 17053,
    "Ġcrescentic": 20622,
    "Ġ40": 14767,
    "ele": 9117,
    "wandered": 20286,
    "Ġvexations": 24610,
    "Ġjail": 22295,
    "Ġwomanly": 23555,
    "Ġmists": 14628,
    "Ġbarbar": 6936,
    "177": 20752,
    "Ġlung": 7169,
    "dig": 4931,
    "Ġgum": 21594,
    "scor": 13022,
    "if": 376,
    "Ġslid": 7953,
    "'d": 12430,
    "Ġarchy": 14345,
    "Ġadaptively": 3639,
    "ca": 20793,
    "Ġhumiliation": 16199,
    "Ġfearing": 12817,
    "Ġgirdle": 19158,
    "Ġjinglers": 26017,
    "Ġslacked": 25187,
    "iot": 9602,
    "fill": 15350,
    "Ġdot": 4821,
    "Ġutterly": 6101,
    "Ġaudibly": 24771,
    "Ġvisits": 8225,
    "mured": 6961,
    "Ġthirteen": 15275,
    "shooting": 16964,
    "welcomed": 24645,
    "Ġthorough": 6247,
    "Ġclamorous": 24910,
    "cost": 19186,
    "Ġexcl": 3477,
    "Ġexasperated": 11414,
    "Ġcelerity": 17437,
    "Ġbits": 11590,
    "Ġbetween": 793,
    "triumph": 15439,
    "derment": 22157,
    "sympathy": 20543,
    "compar": 14357,
    "Ġfeeds": 16433,
    "Ġembrace": 16989,
    "Ġ18": 3408,
    "Ġassociate": 13451,
    "tree": 11535,
    "invariably": 26416,
    "Ġtransaction": 22440,
    "ego": 4035,
    "Ġfaltering": 17884,
    "Ġaffinity": 18784,
    "Ġrefreshed": 15291,
    "Ġtelegraph": 25583,
    "Ġplu": 8804,
    "Ġtarpaul": 17730,
    "aborate": 14020,
    "Ġredundant": 16550,
    "Ġpeddling": 21480,
    "Ġjesty": 18403,
    "Ġmaiden": 13388,
    "unte": 21874,
    "Ġcoming": 2617,
    "albatross": 15630,
    "anish": 2616,
    "rossing": 18638,
    "Ġpair": 5707,
    "dict": 15337,
    "ke": 429,
    "Ġpawnbroker": 13658,
    "Ġfulfilled": 11364,
    "Ġreigns": 21671,
    "Ġmonarchs": 25849,
    "Ġenjoying": 11236,
    "flag": 14710,
    "Ġadmits": 23558,
    "entric": 11621,
    "Ġmisanthropic": 26561,
    "embarr": 17294,
    "Ġsmoky": 22560,
    "melancholy": 12356,
    "Ġcurtains": 22976,
    "landed": 18954,
    "Ġrenewal": 12239,
    "inks": 6870,
    "Ġtransition": 14231,
    "Ġhogshe": 20493,
    "Ġblaming": 22931,
    "Ġpoint": 2054,
    "Ġshot": 4544,
    "coming": 3564,
    "Ġjoin": 4854,
    "runs": 25415,
    "opolising": 25675,
    "round": 3370,
    "Ġrestore": 9382,
    "Ġvehic": 8936,
    "brill": 16490,
    "rol": 5714,
    "Ġbeef": 6831,
    "Ġ21": 11200,
    "Ġdipping": 15592,
    "Ġcurios": 18845,
    "Ġprophes": 16349,
    "Ġnow": 693,
    "old": 799,
    "promise": 12255,
    "Ġ1890": 23902,
    "Ġstanding": 2999,
    "uits": 21103,
    "Ġmachines": 1780,
    "increased": 20271,
    "ked": 5617,
    "Ġhalls": 19526,
    "Ġcreative": 9833,
    "Ġbore": 5080,
    "Ġuniverse": 14122,
    "untary": 9870,
    "welcome": 10004,
    "Ġindifferent": 6176,
    "Ġnearer": 5304,
    "tackles": 25623,
    "Ġmainly": 22649,
    "itives": 17819,
    "different": 6502,
    "astrous": 15886,
    "Ġfasten": 11134,
    "Ġkno": 5243,
    "Ġinscriptions": 20010,
    "Ġprophet": 7683,
    "Ġpay": 3962,
    "upwards": 18862,
    "orient": 2880,
    "Ġtumb": 21169,
    "astic": 1870,
    "Ġletters": 3793,
    "Ġinnovative": 1605,
    "paint": 21016,
    "commer": 22818,
    "Ġparliament": 18300,
    "Ġcomforts": 14692,
    "thereby": 14445,
    "Ġbutt": 14123,
    "Ġcontain": 1553,
    "Ġdecanter": 22459,
    "Ġtarts": 10755,
    "Ġcompute": 2907,
    "remarked": 12292,
    "knowledge": 7480,
    "cou": 13695,
    "Ġconcernment": 23651,
    "Ġforbidding": 17079,
    "latitudes": 17198,
    "suppose": 8649,
    "inex": 14090,
    "angry": 18292,
    "encoura": 15047,
    "Ġi": 312,
    "tra": 5003,
    "my": 1317,
    "Ġpreced": 6040,
    "ast": 472,
    "Ġblotches": 25314,
    "Ġexpressing": 12012,
    "Ġnavigation": 9996,
    "Ġcompan": 2172,
    "Ġve": 1107,
    "Ġpretext": 22230,
    "Ġpaddling": 25284,
    "cloud": 11107,
    "leader": 25351,
    "Ġpistol": 7849,
    "Ġfri": 17878,
    "Ġinstructive": 19285,
    "Ġamput": 16034,
    "Ġconven": 6153,
    "wich": 11545,
    "Ġjonah": 3482,
    "Ġprocured": 8681,
    "Ġhole": 6079,
    "Ġwildly": 9417,
    "Ġmeadows": 11424,
    "owing": 7604,
    "Ġdivers": 9667,
    "adders": 24403,
    "Ġcells": 13884,
    "oice": 1382,
    "//": 11465,
    "Ġgather": 6536,
    "ringle": 21039,
    "Ġlayer": 1012,
    "Ġunhing": 18239,
    "Ġrepositories": 23367,
    "Ġtapering": 8776,
    "Ġimpressed": 8200,
    "dining": 13705,
    "searching": 25105,
    "court": 7513,
    "Ġfollows": 7675,
    "Ġdispatched": 23886,
    "phant": 6289,
    "Ġinaccessible": 13933,
    "Ġcubs": 20088,
    "imag": 6992,
    "Ġmoody": 8202,
    "Ġbuoy": 8005,
    "remed": 18952,
    "Ġdupl": 9957,
    "airing": 16177,
    "Ġbrew": 23347,
    "insisted": 23068,
    "Ġplain": 2819,
    "gracechurch": 24582,
    "ners": 3273,
    "token": 21081,
    "Ġantilles": 24185,
    "Ġparagra": 15880,
    "cription": 20818,
    "draught": 12094,
    "Ġunconcern": 14115,
    "sure": 5523,
    "dead": 8181,
    "plutarch": 21964,
    "Ġtashtego": 4486,
    "Ġspaces": 3109,
    "onday": 6064,
    "zy": 2672,
    "scenes": 16244,
    "lour": 15380,
    "Ġ7": 4746,
    "Ġdevotees": 25376,
    "asily": 13945,
    "Ġrnns": 2393,
    "repugnance": 16863,
    "ipotence": 22366,
    "Ġlawless": 19436,
    "Ġdexter": 9704,
    "Ġinject": 2713,
    "ising": 2254,
    "Ġoccur": 1081,
    "Ġhighway": 14344,
    "volutions": 16322,
    "brevi": 24079,
    "sofa": 26145,
    "Ġjung": 12838,
    "Ġtelescopes": 25689,
    "dissatisfied": 26613,
    "Ġpad": 8126,
    "Ġpovelson": 26553,
    "Ġshoals": 13136,
    "Ġcivil": 4679,
    "Ġdistributing": 22679,
    "Ġshovel": 23495,
    "inte": 5145,
    "Ġgrap": 11710,
    "companion": 9559,
    "Ġpau": 17907,
    "embraced": 25805,
    "Ġmonarch": 14413,
    "benefact": 24642,
    "Ġpowers": 5420,
    "Ġrepul": 16408,
    "Ġnoise": 1065,
    "oved": 5216,
    "acknowledge": 18466,
    "Ġardent": 9973,
    "published": 26141,
    "Ġinvestigations": 17248,
    "alterable": 13624,
    "Ġmildness": 9947,
    "Ġdim": 4758,
    "Ï": 144,
    "Ġveneration": 25046,
    "gazing": 12475,
    "Ġklux": 22196,
    "Ġcards": 7583,
    "Ġgodly": 19080,
    "forget": 11034,
    "Ġincludes": 2011,
    "Ġext": 897,
    "Ġgazing": 5877,
    "covered": 11479,
    "da": 17514,
    "Ġpardon": 5728,
    "Ġskies": 8924,
    "Ġcompanies": 14555,
    "Ġsuccess": 3612,
    "examine": 25477,
    "Ġfow": 6135,
    "Ġpot": 2991,
    "imprudent": 14649,
    "degrees": 22151,
    "Ġignor": 4011,
    "Ġweary": 5636,
    "Ġpitched": 9447,
    "Ġmartial": 20292,
    "Ġtyphoons": 20235,
    "Ġflora": 11418,
    "Ġinev": 10184,
    "Ġherds": 9719,
    "Ġcomprehended": 11296,
    "Ġai": 3125,
    "penetrate": 20325,
    "iality": 8848,
    "raham": 18013,
    "Ġseemed": 1277,
    "Ġfulfil": 9553,
    "Ġgord": 21599,
    "kine": 15375,
    "Ġlights": 8963,
    "Ġachieves": 4378,
    "Ġprofuse": 23570,
    "Ġintolerable": 8485,
    "about": 3588,
    "Ġphren": 8576,
    "Ġemployments": 12106,
    "Ġgenus": 24432,
    "considerable": 10551,
    "Ġcables": 15558,
    "Ġingen": 9052,
    "Ġfemales": 14936,
    "Ġhovel": 8255,
    "Ġpea": 14315,
    "Ġinscrut": 10037,
    "ang": 446,
    "Ġguided": 10463,
    "gover": 10704,
    "north": 14614,
    "beholding": 16041,
    "Ġfather": 1450,
    "Ġmilitia": 13320,
    "Ġmournfully": 20118,
    "Ġsouthampton": 24312,
    "mathemat": 19137,
    "Ġdeepest": 8214,
    "Ġtorment": 8678,
    "Ġcasually": 25095,
    "Ġhobbling": 25643,
    "trap": 24337,
    "netherfield": 9816,
    "Ġdomains": 6612,
    "Ġpoultry": 17442,
    "Ġbias": 1191,
    "Ġstaggered": 9541,
    "Ġenhance": 2873,
    "chan": 1166,
    "speechless": 25395,
    "Ġconcealing": 23908,
    "irous": 8843,
    "settle": 16661,
    "Ġimprisonment": 22389,
    "Ġnic": 7376,
    "Ġmoving": 1676,
    "Ġplaited": 14281,
    "gentle": 5358,
    "acific": 4961,
    "Ġensuing": 12313,
    "Ġcommentators": 25228,
    "Ġwaving": 8589,
    "urrection": 12412,
    "Ġboyhood": 23760,
    "Ġphysi": 9991,
    "Ġaloof": 21786,
    "Ġa": 263,
    "Ġdevotion": 22718,
    "Ġbol": 6243,
    "stee": 21645,
    "summoned": 26592,
    "Ġproportion": 7282,
    "Ġstruck": 3391,
    "oney": 3049,
    "Ġchase": 3945,
    "Ġmighty": 4229,
    "Ġinvariably": 8065,
    "Ġaudible": 19881,
    "Ġsimplicity": 2925,
    "Ġsize": 1217,
    "cable": 20797,
    "Ġcoldness": 23764,
    "Ġstable": 2701,
    "ifully": 13186,
    "irons": 10241,
    "Ġproduce": 4366,
    "cking": 4265,
    "rier": 9244,
    "farm": 15351,
    "Ġ48": 24086,
    "Ġworld": 1593,
    "advise": 24223,
    "Ġsermons": 20194,
    "Ġinclosed": 19539,
    ";âĢĻ": 15303,
    "Ġpromised": 5182,
    "Ġreinforcement": 3463,
    "table": 5796,
    "Ġcalling": 5663,
    "oric": 21396,
    "Ġprair": 7748,
    "Ġste": 1388,
    "Ġspoke": 2750,
    "Ġvii": 13111,
    "alse": 4183,
    "Ġlent": 21546,
    "Ġswarm": 23055,
    "elastic": 17980,
    "Ġmab": 12563,
    "Ġmixture": 9564,
    "Ġcellars": 24666,
    "vable": 10135,
    "enemy": 15526,
    "Ġtack": 5622,
    "ĠĠĠĠĠĠĠĠĠĠĠĠĠĠĠĠĠĠĠĠĠĠĠĠĠĠĠĠ": 9978,
    "Ġpouch": 21467,
    "umes": 10919,
    "Ġenderby": 13651,
    "Ġlain": 17961,
    "Ġfumes": 21418,
    "Ġbeheaded": 11658,
    "ellations": 21945,
    "adieu": 26200,
    "Ġrig": 4224,
    "justine": 7685,
    "arising": 17896,
    "Ġfoundering": 21419,
    "Ġtire": 17720,
    "passage": 11263,
    "please": 8178,
    "itical": 5803,
    "Ġdreadfully": 7727,
    "x": 92,
    "olet": 13765,
    "Ġmerit": 9430,
    "Ġag": 685,
    "hind": 20893,
    "Ġstupid": 7606,
    "urpr": 2284,
    "athy": 14321,
    "Ġdisent": 22524,
    "restoration": 23235,
    "constable": 24606,
    "Ġstrip": 9424,
    "ĠarchÃ¦": 22780,
    "Ġbattalions": 25775,
    "dutch": 17220,
    "narrated": 25620,
    "ilty": 6395,
    "cular": 15327,
    "seaman": 25457,
    "Ġpott": 21466,
    "considering": 12179,
    "somers": 19369,
    "Ġassaults": 15157,
    "Ġrusty": 14963,
    "Ġshoving": 23493,
    "Ġparamount": 15879,
    "Ġsurpass": 13583,
    "cop": 20801,
    "Ġcred": 8786,
    "Ġconceived": 8151,
    "ugal": 19025,
    "ressing": 8922,
    "Ġsay": 933,
    "ield": 2406,
    "Ġsermon": 12379,
    "Ġsignification": 19204,
    "Ġfeat": 10939,
    "Ġglassy": 19561,
    "Ġprodu": 1205,
    "Ġought": 3421,
    "circle": 16735,
    "obtained": 23097,
    "Ġasleep": 6837,
    "Ġtomahawk": 7541,
    "Ġtenderest": 23554,
    "acter": 2505,
    "orted": 4604,
    "Ġsomewhat": 4899,
    "Ġclubb": 22352,
    "necessary": 5883,
    "formal": 14164,
    "Ġhung": 4560,
    "Ġvices": 14081,
    "Ġmorose": 18847,
    "Ġfob": 21409,
    "Ġmove": 5107,
    "Ġembraces": 19872,
    "point": 6063,
    "Ġgoethe": 22425,
    "Ġwoe": 4794,
    ".âĢĶâĢľ": 20747,
    "Ġbreadth": 10566,
    "Ġtale": 5143,
    "rann": 21043,
    "Ġmanoir": 22332,
    "estim": 14167,
    "stretching": 20500,
    "Ġdiscerned": 25005,
    "danced": 20828,
    "loved": 14248,
    "Ġpremises": 10490,
    "axed": 8892,
    "Ġkingdom": 12022,
    "Ġtemper": 955,
    "Ġincensed": 18571,
    "osite": 4895,
    "ouement": 21447,
    "strained": 21652,
    "frankly": 20023,
    "Ġmightier": 18727,
    "Ù": 154,
    "Ġwasting": 12730,
    "Ġhis": 380,
    "f": 74,
    "Ġnursery": 19751,
    "Ġlovel": 10274,
    "berwell": 22747,
    "eringly": 23006,
    "osa": 22261,
    "Ġgovernesses": 25130,
    "brilliancy": 26076,
    "sin": 21047,
    "urged": 18048,
    "Ġsunshine": 14491,
    "Ġbased": 3342,
    "Ġfrightens": 24035,
    "Ġfossiliferous": 25608,
    "Ġparsee": 6414,
    "Ġwarrant": 17794,
    "alloyed": 22202,
    "Ġbetokened": 18794,
    "Ġrecovered": 5482,
    "Ġquarrel": 7293,
    "Ġannounced": 9037,
    "menced": 23147,
    "scure": 22989,
    "sinking": 17668,
    "Ġtopmost": 14585,
    "Ġcalmer": 23043,
    "Ġplied": 22597,
    "voyage": 7787,
    "recked": 17762,
    "la": 10707,
    "Ġoutset": 15956,
    "Ġcatches": 23431,
    "fins": 13718,
    "Ġneural": 621,
    "inf": 6234,
    "Ġsplendid": 17215,
    "Ġvaguely": 17367,
    "Ġmusket": 12299,
    "kl": 4867,
    "Ġshelves": 14997,
    "rendered": 22340,
    "quarters": 24948,
    "Ġyelled": 9697,
    "Ġnapoleons": 25884,
    "beryls": 25309,
    "itage": 17816,
    "historian": 25733,
    "Ġpermitting": 22401,
    "Ġtangled": 13826,
    "forgot": 11035,
    "Ġpoliteness": 8275,
    "Ġnightfall": 23133,
    "Ġalice": 1484,
    "ersman": 11703,
    "indifference": 15983,
    "Ġsatin": 12992,
    "excited": 13382,
    "intelligent": 16843,
    "Ġspace": 1527,
    "Ġwindlass": 7257,
    "Ġfigure": 4206,
    "chosen": 21695,
    "Ì": 141,
    "Ġfists": 15583,
    "Ġalow": 18099,
    "chard": 21687,
    "wl": 17702,
    "Ġapplicable": 19002,
    "ateral": 19378,
    "Ġshavings": 14108,
    "maybe": 23996,
    "arpening": 21442,
    "Ġlaborious": 13106,
    "Ġstarboard": 7607,
    "Ġfat": 3462,
    "danger": 10092,
    "º": 123,
    "tempt": 21078,
    "Ġsket": 18725,
    "Ġabsurd": 7203,
    "finger": 10096,
    "Ġsplash": 16548,
    "ground": 4672,
    "Ġdrugged": 12605,
    "Ġvastly": 23865,
    "Ġtreacle": 14593,
    "mody": 16186,
    "Ġwipe": 25763,
    "Ġradiance": 13373,
    "Ġbasin": 19848,
    "Ġoysters": 20580,
    "Ġretire": 10384,
    "trifling": 19415,
    "Ġposit": 1308,
    "Ġseren": 7401,
    "precious": 12076,
    "Ġoptimal": 1858,
    "Ġstructural": 2800,
    "mere": 11857,
    "acca": 23601,
    "accept": 8901,
    "history": 15014,
    "quer": 11680,
    "Ġ127": 24475,
    "Ġpoets": 11824,
    "provoke": 26070,
    "weave": 22685,
    "ifford": 15785,
    "Ġlivel": 11357,
    "unalterable": 21887,
    "Ġsnug": 8281,
    "Ġsquared": 1381,
    "entiful": 10838,
    "message": 17373,
    "Ġcircumspection": 25883,
    "Ġadagrad": 2905,
    "Ġdejected": 20305,
    "wild": 8772,
    "helped": 18924,
    "Ġshrink": 14803,
    "crane": 24091,
    "Ġtro": 7357,
    "Ġexcellent": 4237,
    "ights": 8478,
    "admitted": 18091,
    "Ġclubs": 25178,
    "gown": 9598,
    "Ġcommonly": 3266,
    "Ġuniformly": 19147,
    "dington": 12069,
    "ifled": 14061,
    "Ġpiny": 21468,
    "Ġelixir": 26556,
    "fs": 17535,
    "Ġreceiving": 4884,
    "Ġfattened": 25948,
    "deav": 2676,
    "frozen": 25142,
    "Ġled": 3523,
    "Ġbreeding": 14519,
    "Ġsprain": 18303,
    "Ġrussian": 14348,
    "Ġcategorization": 12140,
    "Ġstay": 3093,
    "leg": 2815,
    "trick": 19414,
    "Ġbedfellow": 16438,
    "Ġlawy": 9457,
    "gammon": 20244,
    "Ġ}": 21153,
    "Ġretention": 23072,
    "Ġturnpike": 23030,
    "Ġaccumul": 1413,
    "would": 2351,
    "Ġclim": 8197,
    "barrel": 17003,
    "Ġsaws": 23050,
    "eridge": 15525,
    "washed": 13048,
    "Ġshave": 21997,
    "varieties": 23188,
    "warrant": 21136,
    "Ġillness": 8594,
    "Ġ34": 16676,
    "Ġsurrounds": 24237,
    "Ġfail": 4147,
    "Ġbough": 13893,
    "mistak": 16877,
    "Ġupset": 22154,
    "Ġcoincidences": 26363,
    "Ġmou": 13854,
    "Ġcock": 11002,
    "Ġarduous": 26530,
    "Ġshores": 8852,
    "icha": 11741,
    "abashed": 21793,
    "Ġcomprises": 22574,
    "Ġvary": 15808,
    "Ġcorrespond": 6211,
    "Ġmurdered": 6465,
    "Ġcircumvent": 25066,
    "Ġsettee": 22922,
    "Ġexpose": 10330,
    "Ġlamented": 24993,
    "Ġclosed": 4606,
    "Ġbanks": 6816,
    "Ġscra": 5842,
    "Ġsecondly": 14515,
    "Ġxxxix": 24970,
    "read": 3277,
    "Ġmaintainable": 12937,
    "ounders": 22395,
    "wes": 17703,
    "Ġheaven": 3367,
    "Ġindulge": 10585,
    "safety": 20349,
    "Ġcyl": 15557,
    "Ġlur": 5227,
    "longing": 23731,
    "Ġt": 261,
    "Ġaloysius": 15739,
    "letter": 6203,
    "Ġexplanatory": 22203,
    "Ġcommod": 10336,
    "Ġwearily": 18177,
    "Ġchemical": 10414,
    "Ġunwarrantable": 26344,
    "naught": 20992,
    "Ġrank": 6260,
    "Ġreciproc": 20623,
    "tallow": 21084,
    "Ġshared": 10266,
    "Ġindulging": 16903,
    "everybody": 8615,
    "Ġinterm": 14267,
    "isher": 2879,
    "Ġoutermost": 22320,
    "Ġstriving": 8999,
    "Ġjolly": 6859,
    "Ġmanip": 8875,
    "ifference": 5633,
    "franch": 24289,
    "Ġmince": 22831,
    "Ġtaffrail": 15475,
    "passenger": 24172,
    "Ġchal": 18375,
    "Ġdub": 13908,
    "Ġfaced": 10810,
    "Ġhampshire": 15243,
    "fool": 9050,
    "Ġstrokes": 16768,
    "Ġinclusive": 24169,
    "noted": 22750,
    "atmosphere": 21264,
    "$": 8,
    "shed": 8096,
    "Ġire": 12671,
    "ony": 3031,
    "Ġticking": 25035,
    "we": 849,
    "Ġmr": 660,
    "fow": 20853,
    "Ġgod": 1936,
    "Ġnoticing": 18222,
    "fellows": 12278,
    "adequate": 15204,
    "Ġfigured": 16643,
    "Ġrinal": 21981,
    "Ġburton": 23659,
    "Ġmagnitudes": 3824,
    "ison": 3074,
    "Ġmarched": 18870,
    "keeping": 8639,
    "Ġoakshott": 12234,
    "conjecture": 15123,
    "Ġpauses": 14814,
    "Ġinterrupting": 19558,
    "Ġsallied": 12540,
    "chambers": 25454,
    "Ġstriking": 6088,
    "Ġpast": 2097,
    "quely": 10234,
    "Ġcourtesy": 9948,
    "Ġpaus": 4298,
    "mists": 17604,
    "Ġrazor": 22655,
    "Ġmorsel": 20678,
    "Ġshutters": 9940,
    "che": 3170,
    "cles": 8730,
    "Ġreluctant": 20526,
    "Ġapprehen": 16828,
    "Ġxxi": 24479,
    "ifted": 4494,
    "actorily": 25576,
    "Ġconductor": 24012,
    "Ġpursuers": 13228,
    "Ġconception": 10320,
    "Ġwise": 6813,
    "Ġjove": 9270,
    "embra": 14074,
    "Ġlance": 4881,
    "Ġplumber": 16085,
    "Ġsoft": 1458,
    "Ġcrawl": 11377,
    "Ġconventional": 25547,
    "Ġchink": 15933,
    "Ġsauntering": 18325,
    "Ġsuccor": 25661,
    "Ġstum": 21732,
    "Ġsacrificial": 24873,
    "Ġcontinuing": 14395,
    "Ġbrook": 13050,
    "business": 5611,
    "Ġlangs": 13952,
    "Ġcarefully": 6306,
    "Ġtusk": 25425,
    "Ġreckon": 19870,
    "windlass": 16720,
    "Ġvote": 21948,
    "painter": 24898,
    "Ġallev": 18100,
    "finished": 10557,
    "onness": 21254,
    "delight": 5346,
    "qual": 8158,
    "offer": 19060,
    "Ġobstinate": 11338,
    "Ġearnestness": 12129,
    "Ġchased": 8865,
    "bore": 13686,
    "Ġblend": 14397,
    "Ġdetest": 8506,
    "Ġdeclare": 6617,
    "Ġeternally": 11371,
    "Ġerect": 6145,
    "Ġsocks": 14129,
    "city": 15326,
    "Ġmiss": 1230,
    "Ġdat": 502,
    "Ġstrangled": 24138,
    "Ġsparing": 22130,
    "Ġinvolving": 18769,
    "since": 5896,
    "Ġedition": 16454,
    "whips": 22239,
    "Ġsymbol": 7718,
    "Ġtarquin": 23614,
    "Ġthreatens": 24378,
    "Ġsus": 18277,
    "Ġpolar": 9414,
    "Ġunimportant": 22031,
    "Ġemble": 13969,
    "Ġfired": 16155,
    "Ġremainder": 9861,
    "Ġsettlement": 19837,
    "hinting": 17569,
    "Ġclinched": 17395,
    "Ġsalut": 10512,
    "Ġtexture": 19160,
    "presumption": 20443,
    "keys": 15859,
    "begins": 18523,
    "elly": 17979,
    "compliments": 24808,
    "nder": 20985,
    "caused": 25519,
    "Ġfiends": 14827,
    "Ġspitz": 14146,
    "Ġ19": 6722,
    "Ġcontented": 9759,
    "iscre": 17850,
    "Ġagreeing": 20020,
    "Ġcaves": 15554,
    "Ġhamp": 12632,
    "currents": 23850,
    "Ġdevice": 1929,
    "imagine": 19932,
    "hard": 4691,
    "Ġupward": 9724,
    "Ġvers": 7565,
    "Ġcanals": 22166,
    "Ġardu": 22184,
    "custom": 15332,
    "written": 7996,
    "convinced": 10625,
    "Ġhus": 3091,
    "Ġact": 691,
    "Ġsongs": 13421,
    "damp": 15343,
    "Ġnodes": 1967,
    "ore": 418,
    "Ġunwell": 22018,
    "throt": 25658,
    "Ġvolume": 6771,
    "Ġsnapped": 9900,
    "Ġmonstrous": 7791,
    "plicable": 10259,
    "supplementary": 20550,
    "Ġemer": 5959,
    "stein": 5506,
    "thou": 4710,
    "neurons": 3133,
    "Ġregret": 5562,
    "destro": 13313,
    "loo": 10322,
    "Ġcheerfully": 12138,
    "Ġhunts": 23159,
    "Ġvague": 6407,
    "Ġprogrammed": 11060,
    "Ġinsane": 19269,
    "omorrah": 18024,
    "aloes": 21501,
    ").âĢĿ": 20741,
    "Ġshud": 5462,
    "Ġsmoothe": 23662,
    "sprang": 19992,
    "Ġarchitects": 18732,
    "lege": 17841,
    "conceivable": 17132,
    "Ġhint": 5017,
    "Ġaccompaniments": 24485,
    "ĠĠĠĠĠĠĠĠĠĠĠĠĠĠĠĠ": 1220,
    "Ġdense": 8124,
    "Ġ55": 24322,
    "rebell": 17763,
    "Ġshocking": 10437,
    "stooped": 23827,
    "Ġsixth": 16558,
    "Ġhinges": 15213,
    "Ġgills": 17992,
    "irious": 15787,
    "Ġoccupant": 16651,
    "lydia": 6827,
    "istic": 970,
    "Ġd": 284,
    "Ġglass": 4368,
    "Ġindependent": 9019,
    "iah": 14414,
    "Ġoperations": 2297,
    "atch": 672,
    "isf": 2432,
    "Ġavenue": 13621,
    "icts": 22403,
    "Ġlouisiana": 25078,
    "Ġ66": 24372,
    "Ġchilly": 25562,
    "spersed": 22732,
    "Ġportent": 12085,
    "Ġnarr": 5086,
    "Ġnatives": 17950,
    "Ġreturns": 11929,
    "sters": 6392,
    "Ġsoutherly": 23338,
    "Ġdeer": 12722,
    "Ġshowing": 7733,
    "Ġcried": 1487,
    "Ġargued": 13629,
    "content": 11199,
    "Ġproofs": 19815,
    "ampled": 18883,
    "Ġmoonshine": 19598,
    "Ġselects": 4384,
    "keel": 14126,
    "mortals": 25409,
    "prolong": 23398,
    "Ġoverlapping": 26238,
    "Ġhertfordshire": 5378,
    "Ġanticipation": 17058,
    "Ġvaluable": 5609,
    "pin": 13766,
    "Ġreturned": 2892,
    "ermaid": 14297,
    "Ġbully": 23861,
    "Ġsolemnisation": 24117,
    "Ġmanhandle": 22330,
    "Ġinterruptions": 24192,
    "kn": 5792,
    "Ġbutton": 10270,
    "Ġglossy": 15228,
    "planted": 11701,
    "Ġblades": 11898,
    "Ġconsummation": 17426,
    "ters": 1572,
    "Ġoutrageous": 20611,
    "Ġvexatious": 19782,
    "Ġpubl": 3940,
    "Ġstoner": 7180,
    "Ġshuddered": 11302,
    "Ġregrets": 18598,
    "Ġlamps": 14790,
    "acting": 22631,
    "Ġcoincid": 20318,
    "Ġsight": 2110,
    "Ġpossessed": 5196,
    "Ġmermaids": 26169,
    "blind": 16701,
    "Ġopulence": 23631,
    "Ġbook": 2704,
    "Ġstranded": 9778,
    "niest": 18993,
    "Ġriding": 14093,
    "Ġprobable": 5571,
    "Ġsnuffing": 25014,
    "Ġincom": 9772,
    "miraculous": 26396,
    "neglect": 25667,
    "Ġreach": 4046,
    "Ġpitch": 5768,
    "ada": 14009,
    "ushing": 5731,
    "field": 3071,
    "posture": 16926,
    "Ġovertaken": 18427,
    "Ġarticulate": 24435,
    "?âĢĶ": 3470,
    "Ġtenderness": 12220,
    "Ġstatistical": 11106,
    "resp": 13838,
    "Ġunmannerly": 26518,
    "abeth": 907,
    "wretched": 10744,
    "Ġwelcome": 5605,
    "limbs": 20191,
    "Ġpropriety": 10013,
    "8": 28,
    "dum": 17518,
    "Ġpatter": 825,
    "Ġchowder": 10282,
    "Ġcounsell": 25384,
    "Ġlocked": 6035,
    "Ġpeculiar": 3152,
    "Ġseat": 4950,
    "Ġorthodox": 22096,
    "rosc": 17954,
    "Ġnation": 12649,
    "rev": 17756,
    "Ġsteadfast": 8683,
    "reg": 2183,
    "Ġdrifted": 14623,
    "Ġgratified": 8022,
    "indignation": 18436,
    "Ġegress": 21621,
    "Ġdetected": 18858,
    "ichron": 22164,
    "ese": 4443,
    "ases": 1521,
    "Ġpresence": 5032,
    "boat": 3364,
    "Ġglo": 1714,
    "Ġrattled": 15066,
    "intentions": 22940,
    "Ġconvenience": 11333,
    "Ġunt": 2291,
    "som": 3294,
    "Ġop": 2603,
    "Ġoccasionally": 5591,
    "Ġcosmopolitan": 20641,
    "Ġignorant": 5345,
    "opius": 18506,
    "Ġris": 4888,
    "coast": 10451,
    "Ġunwound": 24830,
    "Ġdines": 21423,
    "Ġvagabond": 20204,
    "anxious": 15110,
    "thy": 2935,
    "Ġirreducible": 5520,
    "Ġblankets": 24612,
    "Ġ49": 24087,
    "boards": 23255,
    "Ġcharcoal": 19010,
    "out": 468,
    "Ġwashed": 15766,
    "Ġdiscuss": 9477,
    "Ġhatches": 12048,
    "Ġplainly": 4380,
    "Ġbabel": 24429,
    "Ġsavage": 4010,
    "Ġconcerning": 4068,
    "Ġimpart": 11783,
    "Ġrod": 9282,
    "Ġasser": 6259,
    "Ġvolition": 14797,
    "signed": 21060,
    "Ġost": 9651,
    "Ġdepos": 11009,
    "Ġmeta": 3467,
    "discoveries": 25385,
    "©": 107,
    "Ġlane": 5628,
    "Ġjerking": 12250,
    "joint": 24014,
    "grammar": 6436,
    "Ġbrowne": 13303,
    "Ġchief": 3383,
    "Ġchalk": 15934,
    "Ġimmort": 19485,
    "cannib": 11906,
    "Ġapprehension": 7116,
    "Ġ*/": 10376,
    "ane": 1176,
    "Ġbrace": 11213,
    "Ġsmothe": 18573,
    "Ġdisordered": 16056,
    "condite": 23245,
    "iquette": 26131,
    "Ġimpressions": 9555,
    "gar": 5616,
    "rule": 15895,
    "smile": 23911,
    "Ġallusions": 10908,
    "Ġbashful": 20421,
    "Ġcircumst": 2977,
    "Ġbeating": 8146,
    "bunger": 20403,
    "Ġdetails": 6567,
    "Ġencouraging": 2262,
    "----": 4057,
    "ingle": 1035,
    "Ġpane": 21461,
    "re": 266,
    "Ġindefinitely": 25220,
    "Ġleak": 2159,
    "sar": 12507,
    "Ġthrow": 3784,
    "weather": 7230,
    "Ġoccurred": 4462,
    "Ġfantastic": 10062,
    "gather": 20875,
    "orne": 17872,
    "Ġgames": 11628,
    "Ġswerve": 14435,
    "Ġmothers": 14538,
    "Ġwithdrawn": 10609,
    "dan": 17515,
    "atives": 2236,
    "resembled": 21246,
    "Ġlikelihood": 16500,
    "Ġsuddenly": 2646,
    "Ġunsounded": 15850,
    "Ġshivering": 10268,
    "Ġleech": 24161,
    "Ġcarriages": 11100,
    "Ġcensus": 15096,
    "Ġforgo": 21774,
    "Ġcommotion": 9783,
    "Ġcliffs": 15971,
    "ifix": 21904,
    "Ġpratt": 23218,
    "Ġlocations": 12416,
    "Ġprotruded": 19471,
    "Ġkills": 15907,
    "Ġlord": 2967,
    "Ġoverpow": 14205,
    "Ġcous": 3438,
    "Ġmarvels": 11086,
    "Ġbath": 9660,
    "Ġoarsmen": 7739,
    "Ġprofessed": 14723,
    "Ġberkshire": 16883,
    "harpoone": 6108,
    "looked": 6083,
    "races": 21630,
    "Ġunanswerable": 26522,
    "jolly": 20929,
    "Ġragged": 11849,
    "Ġexcurs": 23317,
    "usal": 7641,
    "dÃ¦mon": 17527,
    "Ġelud": 22644,
    "Ġguid": 2638,
    "eminent": 25106,
    "Ġwantest": 18787,
    "sus": 6230,
    "Ġlonger": 3362,
    "Ġstrike": 4856,
    "iana": 7051,
    "Ġbeacon": 21757,
    "Ġunansw": 22059,
    "walking": 9985,
    "embow": 21932,
    "ă": 196,
    "ollion": 19716,
    "Ĝ": 221,
    "Ġbrix": 12586,
    "Ġerie": 20055,
    "unctions": 18155,
    "bation": 9106,
    "uded": 6288,
    "Ġ270": 25133,
    "eting": 7171,
    "||": 4871,
    "Ġnatur": 17335,
    "Ġate": 8844,
    "prec": 3201,
    "ething": 1598,
    "Ġabsolutely": 4858,
    "Ġvisited": 5948,
    "ĠĠĠĠĠĠĠĠĠĠĠĠĠĠĠĠĠĠĠĠĠĠĠĠĠĠĠĠĠĠĠĠĠĠĠĠ": 23670,
    "Ġenthus": 7233,
    "Ġrooted": 13171,
    "Ġval": 967,
    "Ġmainz": 22648,
    "individual": 18434,
    "Ġsunrise": 9375,
    "Ġcoals": 16074,
    "Ġstorm": 4300,
    "Ġabroad": 8869,
    "Ġimprovement": 7967,
    "circumamb": 26086,
    "Ġintellect": 8171,
    "Ġspectrum": 4474,
    "osy": 11761,
    "joining": 19447,
    "Ġjoint": 12037,
    "Ġsizes": 1519,
    "Ġnear": 1719,
    "Ġperishing": 22399,
    "Ġpiling": 17910,
    "Ġcaulk": 25440,
    "arus": 13912,
    "rese": 15507,
    "Ġakin": 15494,
    "Ġboots": 5943,
    "supers": 22642,
    "Ġworthless": 19566,
    "Ġthw": 21514,
    "distrustful": 26330,
    "Ġtried": 3651,
    "heavenly": 20046,
    "henry": 16625,
    "Ġevident": 6615,
    "Ġbreaths": 14856,
    "Ġflashed": 11917,
    "Ġoutskirts": 17458,
    "Ġpoet": 8210,
    "image": 9689,
    "extraordinary": 9098,
    "Ġheidelburgh": 11645,
    "Ġinclud": 1511,
    "Ġsavory": 23881,
    "ices": 2136,
    "Ġsadness": 13288,
    "watches": 14946,
    "ts": 958,
    "Ġresponses": 23655,
    "Ġbeside": 5193,
    "quest": 4538,
    "inglass": 21302,
    "Ġserene": 8168,
    "Ġadorned": 15248,
    "Ġcontrivances": 12360,
    "Ġsyn": 15914,
    "Ġvir": 7003,
    "mell": 20962,
    "ullo": 12731,
    "Ġfarthing": 14449,
    "uine": 13798,
    "Ġreflections": 5947,
    "reflected": 24732,
    "beware": 16040,
    "Ġturns": 4982,
    "Ġgesture": 11401,
    "Ġostr": 21325,
    "earthquakes": 24724,
    "Ġabraham": 18393,
    "):": 11463,
    "Ġvigour": 24465,
    "Ġdissect": 16054,
    "sales": 17667,
    "Ġrevolver": 14899,
    "Ġaccent": 10296,
    "conscientious": 19627,
    "Ġshoots": 14565,
    "reason": 4413,
    "q": 85,
    "devils": 20034,
    "audible": 17134,
    "Ġbond": 21384,
    "rank": 21040,
    "lingly": 9776,
    "Ġwee": 21920,
    "Ġseverest": 14088,
    "Ġbeg": 1283,
    "unusually": 15781,
    "numer": 15398,
    "Ġhappiest": 11885,
    "remediable": 26294,
    "âĢĿ;": 11671,
    "Ġcountry": 2532,
    "Ġmodern": 3228,
    "Ġmerc": 9429,
    "Ġpip": 1674,
    "Ġtestimony": 14475,
    "devilish": 17082,
    "prudently": 21033,
    "eled": 2357,
    "Ġdestro": 3724,
    "Ġear": 1423,
    "duct": 3508,
    "redit": 3876,
    "Ġwhom": 1832,
    "Ġpractised": 23323,
    "Ġsperma": 19050,
    "ainty": 21788,
    "neighbour": 7212,
    "Ġcall": 2074,
    "Ġtrepidation": 19216,
    "Ġamong": 1664,
    "smeer": 26146,
    "treacle": 25151,
    "erde": 21268,
    "Ġwatery": 6298,
    "Ġmaster": 3684,
    "cleanliness": 25870,
    "ouri": 21446,
    "âĢĿ]": 21813,
    "Ġnever": 1019,
    "Ġoppressed": 11191,
    "ause": 1315,
    "Ġknow": 633,
    "Ġweapon": 7777,
    "Ġberries": 13409,
    "affrail": 11206,
    "deliberated": 26117,
    "Ġpublisher": 24071,
    "Ġacquitted": 18897,
    "adventurous": 25361,
    "furniture": 20243,
    "Ġalbatross": 10873,
    "Ġpacifics": 24376,
    "onym": 14647,
    "explain": 1482,
    "Ġeastward": 13392,
    "Ġspeedy": 11174,
    "coo": 11172,
    "attend": 11103,
    "Ġtermination": 16459,
    "Ġgabriel": 7598,
    "Ġdoctor": 5068,
    "aloft": 8812,
    "Ġsupport": 6731,
    "...": 24552,
    "Ġsketches": 26270,
    "ire": 492,
    "irth": 5635,
    "Ġequinoctial": 20533,
    "grounds": 11153,
    "Ġsinful": 18948,
    "scoured": 22994,
    "lakeman": 13750,
    "Ġdescribed": 6608,
    "Ġamaz": 5386,
    "meaning": 2909,
    "Ġsummer": 4791,
    "vell": 3958,
    "Ġcondescending": 24870,
    "Ġinexperienced": 26099,
    "Ġtwinkled": 14310,
    "alling": 6037,
    "attering": 7419,
    "ole": 9615,
    "Ġhull": 5447,
    "Ġbrings": 11883,
    "Ġpike": 12625,
    "Ġextinct": 14332,
    "Ġrand": 1583,
    "Ġunfathom": 14788,
    "Ġsepulchral": 25891,
    "Ġdiameter": 19867,
    "variance": 2655,
    "oce": 10716,
    "Ġcetacea": 20554,
    "ctu": 5088,
    "fowl": 17549,
    "loud": 11503,
    "Ġloops": 8856,
    "Ġoptimizer": 5037,
    "pard": 9620,
    "despicable": 24638,
    "married": 9952,
    "Ġbig": 5807,
    "Ġdisown": 22525,
    "Ġtrifles": 16950,
    "Ġbelshazzar": 16226,
    "Ġshame": 6411,
    "Ġbuckler": 24861,
    "Ġventing": 19494,
    "mistaken": 12215,
    "Ġhedge": 8365,
    "Ġnewsp": 9341,
    "Ġinasmuch": 10827,
    "Ġroaring": 10970,
    "Ġspars": 3810,
    "_).âĢĶ": 8686,
    "Ġpoison": 7220,
    "honorable": 19901,
    "Y": 61,
    "lucases": 20211,
    "Ġessentials": 20004,
    "Ġdrank": 16535,
    "Ġindiam": 22956,
    "Ġland": 1997,
    "Ġdesist": 16239,
    "Ġhovered": 12633,
    "ordinate": 12877,
    "Ġclapham": 17267,
    "Ġflight": 6582,
    "Ġprominence": 18953,
    "keeper": 5598,
    "imod": 15711,
    "Ġinfluenced": 19633,
    "pedest": 24824,
    "inkling": 16091,
    "apside": 22963,
    "ogene": 18671,
    "Ġproportions": 16466,
    "Ġalleged": 17292,
    "nar": 7805,
    "Ġlexicon": 25973,
    "Ġinsensible": 12329,
    "wherein": 19107,
    "Ġvolcano": 24153,
    "Ġrealised": 18978,
    "rance": 5994,
    "making": 2574,
    "Ġunfolded": 10641,
    "imately": 12690,
    "cru": 7129,
    "Ġalas": 5922,
    "Ġgeneralize": 3099,
    "e": 73,
    "correspond": 13400,
    "Ġours": 4613,
    "Ġanonym": 17898,
    "Ġshy": 10905,
    "ery": 1268,
    "Ġanimated": 7703,
    "cnns": 3624,
    "staff": 21650,
    "Ġhorrid": 8000,
    "Ġentered": 2847,
    "Ġsummar": 3527,
    "Ġcaps": 8417,
    "licted": 20954,
    "Ġdropt": 23680,
    "Ġchimneys": 16971,
    "Ġscowl": 22291,
    "shine": 9288,
    "Ġacting": 10993,
    "Ġdisplaying": 16965,
    "inqu": 6123,
    "Ġmeridians": 17356,
    "Ġsomewhere": 5385,
    "te": 997,
    "Ġplank": 7036,
    "Ġoccas": 2705,
    "ĥ": 230,
    "solemn": 19818,
    "regularly": 13210,
    "laughed": 20282,
    "Ġdrawn": 4275,
    "Ġjavan": 24999,
    "legs": 13184,
    "Ġabed": 22266,
    "wound": 21125,
    "Ġst": 332,
    "Ġhour": 1814,
    "Ġupbraiding": 26226,
    "Ġbenjamin": 26568,
    "inations": 7569,
    "Ġmemorable": 16445,
    "Ġdisreputable": 22535,
    "Ġprogressive": 5025,
    "perquis": 22191,
    "Ġcachalot": 17834,
    "aract": 17895,
    "Ġfog": 9663,
    "Ġsummons": 13234,
    "heedful": 20574,
    "Ġpained": 19167,
    "intment": 4721,
    "Ġoy": 15546,
    "Ġlustrous": 20156,
    "horner": 23618,
    "served": 5044,
    "Ġdiffers": 23785,
    "describe": 1514,
    "ering": 1266,
    "Ġequatorial": 13508,
    "con": 654,
    "Ġtrustees": 24111,
    "Ġrose": 3444,
    "erable": 1916,
    "ructed": 7030,
    "Ġlikes": 9411,
    "Ġarranging": 11176,
    "Ġfierc": 18710,
    "Ġcomplimented": 14903,
    "Ġpoured": 8806,
    "admon": 21761,
    "refuge": 24733,
    "Ġcontext": 1716,
    "Ġphysical": 7524,
    "tap": 17676,
    "Ġentreaty": 10532,
    "Ġtrusting": 24109,
    "Ġtorrid": 25034,
    "Ġnumerous": 6921,
    "Ġlazarus": 15028,
    "lane": 10708,
    "Ġfaintly": 14914,
    "blog": 19840,
    "ifferent": 4262,
    "Ġfervour": 19727,
    "retired": 11939,
    "Ġfrequent": 3289,
    "Ġpromise": 4198,
    "Ġnoticed": 5550,
    "unwilling": 14059,
    "Ġvolcanoes": 24152,
    "Ġtot": 4184,
    "enormous": 26165,
    "Ġalacrity": 15738,
    "Ġdozen": 8187,
    "Ġdegenerated": 20507,
    "Ġvestibule": 13536,
    "angible": 22106,
    "strangely": 17278,
    "Ġpaths": 2571,
    "ogrand": 26261,
    "are": 639,
    "Ġwarrior": 24499,
    "Ġknocking": 10562,
    "Ġpince": 21469,
    "Ġinsupportable": 13931,
    "Ġdependence": 18625,
    "Ġspermaceti": 8970,
    "pieces": 8759,
    "ht": 375,
    "trucks": 25419,
    "conced": 22471,
    "Ġcharted": 22251,
    "cour": 4479,
    "Ġconfusion": 7274,
    "Ġsmelling": 16067,
    "Ġshag": 9253,
    "morn": 20974,
    "Ġprints": 16330,
    "Ġincisive": 18570,
    "Ġbravery": 23842,
    "dishon": 20405,
    "Ġeventually": 8621,
    "eastward": 15130,
    "Ġjames": 6420,
    "Ġmoments": 4846,
    "Ġweb": 9242,
    "bitious": 16669,
    "computer": 1990,
    "Ġtill": 1826,
    "accuracy": 9882,
    "Ġpolic": 13163,
    "Ġgales": 12667,
    "Ġrephr": 21679,
    "Ġtawny": 20483,
    "oub": 1628,
    "Ġploughed": 22605,
    "Ġcontinued": 2924,
    "Ġharris": 14497,
    "cceed": 4141,
    "Ġfaith": 5352,
    "Ġgame": 3631,
    "august": 11073,
    "Ġmat": 1147,
    "insult": 16278,
    "Ġgreater": 3039,
    "Ġbewit": 15729,
    "Ġunjust": 8487,
    "Ġcocksure": 26258,
    "Ġpostp": 12148,
    "saving": 21058,
    "Ġmacro": 25938,
    "departed": 24795,
    "Ġconvince": 14640,
    "Ġneutral": 12743,
    "inside": 23066,
    "Ġhabit": 6773,
    "Ġeyed": 12669,
    "Ġerecting": 24653,
    "decoder": 3648,
    "Ġcharitable": 23271,
    "ushion": 14719,
    "extra": 8220,
    "laden": 14928,
    "Ġembarked": 17136,
    "Ġdashes": 21434,
    "Ġspin": 7632,
    "succeeded": 15176,
    "Ġpigeon": 9519,
    "Ġscattered": 6857,
    "Ġhieroglyphics": 17305,
    "continuing": 24482,
    "Ġdisobedience": 22536,
    "bill": 10079,
    "Ġsaratoga": 26423,
    "Ġflock": 21411,
    "ulations": 6029,
    "duing": 22412,
    "Ġarist": 14157,
    "Ġsod": 11563,
    "Ġsubord": 22789,
    "Ġfertile": 20584,
    "Ġcannibal": 7775,
    "aug": 1212,
    "Ġtell": 1470,
    "Ġmajority": 13294,
    "Ġdimin": 3872,
    "è": 169,
    "Ġterrible": 5329,
    "Ġoutlines": 15958,
    "Ġchewing": 23290,
    "arity": 1304,
    "Ġnovelty": 13464,
    "eleg": 20849,
    "discoloured": 23502,
    "sust": 15421,
    "odd": 21815,
    "Ġcoron": 4464,
    "Ġhammer": 6094,
    "Ġscimet": 22294,
    "Ġeurope": 8063,
    "Ġay": 15490,
    "Ġherein": 16191,
    "Ġplat": 8524,
    "Ġant": 4344,
    "els": 1767,
    "onstrate": 17768,
    "Ġmerchant": 6468,
    "Ġfunctions": 1342,
    "aston": 7408,
    "connected": 1311,
    "attain": 21261,
    "forster": 16166,
    "ints": 3419,
    "Ġhereditary": 10667,
    "Ġhence": 4990,
    "Ġjen": 9269,
    "Ġmurderous": 8317,
    "Ġassailed": 23178,
    "Ġmanxman": 9567,
    "case": 5207,
    "where": 2091,
    "Ġarched": 10934,
    "Ġchin": 4893,
    "Ġdisliked": 12893,
    "perseus": 26004,
    "Ġglobular": 19013,
    "Ġcassock": 20488,
    "rals": 21041,
    "Ġbethink": 12382,
    "Ġdearest": 5458,
    "Ġshowed": 4496,
    "Ġperforms": 11880,
    "Ġcompleted": 9000,
    "Ġaltering": 18102,
    "Ġslipped": 6493,
    "Ġusually": 6265,
    "chamber": 13625,
    "Ġaccelerating": 1616,
    "Ġbreckinridge": 14520,
    "Ġbleak": 10561,
    "Ġdomain": 3291,
    "Ġornamented": 20362,
    "Ġundo": 15841,
    "Ġheart": 1591,
    "invested": 17119,
    "Ġholding": 4980,
    "Ġprecip": 7077,
    "boilers": 26296,
    "left": 6977,
    "Ġmicha": 17811,
    ",âĢĿ": 578,
    "Ġthigh": 10189,
    "Ġsaturation": 2061,
    "ting": 1335,
    "Ġwilling": 7421,
    "anced": 1280,
    "Ġtribute": 15474,
    "place": 4152,
    "Ġrapturously": 24890,
    "Ġreplete": 15699,
    "Ġconvent": 11670,
    "Ġunique": 12780,
    "elt": 4114,
    "bus": 5356,
    "olic": 14040,
    "boys": 13362,
    "Ġgenerative": 5645,
    "despair": 8345,
    "Ġstarry": 16922,
    "Ġgaining": 9494,
    "Ġaven": 10761,
    "Ġinfinite": 8580,
    "ral": 4628,
    "Ġsplit": 7994,
    "Ġexhibit": 14955,
    "Ġirrevoc": 15038,
    "Ġher": 427,
    "Ġluxury": 20133,
    "consuming": 25673,
    "susp": 10599,
    "Ġaggregated": 25677,
    "exceedingly": 9568,
    "Ġelemental": 19919,
    "app": 1038,
    "sentiment": 12916,
    "reproach": 15187,
    "Ġmour": 6975,
    "offended": 16396,
    "despatched": 19802,
    "ulged": 12732,
    "Ġswitzerland": 10382,
    "inno": 10758,
    "Ġamours": 22482,
    "Ġpreparation": 13528,
    "irene": 15915,
    "acetti": 13398,
    "Ġte": 1157,
    "Ġsuspicious": 9483,
    "gaffman": 26390,
    "Ġindist": 14408,
    "Ġantiqu": 12149,
    "Ġwhite": 1538,
    "Ġbount": 15568,
    "Ġflowed": 10374,
    "Ġlanyard": 26461,
    "Ġpearl": 20377,
    "Ġsixpence": 19317,
    "Ġgenius": 8047,
    "Ġblo": 2736,
    "Ġwander": 9034,
    "tooth": 18579,
    "came": 4570,
    "Ġbenefited": 19399,
    "Ġsympat": 13343,
    "umb": 3404,
    "yarn": 15456,
    "Ġwake": 4750,
    "rifle": 21045,
    "copy": 5134,
    "plex": 708,
    "kye": 20936,
    "Ġsurprised": 3832,
    "iards": 17574,
    "Ġbut": 424,
    "Ġtrunk": 7206,
    "Ġunmo": 12775,
    "Ġlengthened": 25957,
    "include": 23593,
    "Ġlucerne": 23869,
    "Ġmultitud": 18745,
    "Ġfits": 8796,
    "Ġmantelpiece": 15208,
    "Ġlords": 14639,
    "thanked": 24330,
    "Ġhandle": 3135,
    "Ġmounts": 17806,
    "Ġsecond": 1883,
    "Ġlighten": 23260,
    "ber": 905,
    "ars": 906,
    "Ġsimilar": 4919,
    "Ġninetieth": 25357,
    "stat": 21638,
    "month": 6464,
    "opportunity": 12279,
    "needle": 20314,
    "Ġnoblest": 13244,
    "destroyed": 15261,
    "Ġasc": 4766,
    "Ġindies": 22954,
    "Ġahab": 1214,
    ",--": 2476,
    "Ġspaniards": 25555,
    "Ġreddening": 25969,
    "Ġseap": 15815,
    "Ġperverseness": 13654,
    "Ġreveren": 13199,
    "porpoise": 16434,
    "ee": 1656,
    "mown": 20968,
    "Ġvul": 10250,
    "Ġfreshet": 25702,
    "Ġclatter": 22348,
    "animation": 16978,
    "hood": 2660,
    "Ġcomprised": 14266,
    "Ġallegro": 25793,
    "Ġradiant": 16808,
    "Ã": 132,
    "theories": 18078,
    "stands": 22427,
    "neural": 3066,
    "Ġdespite": 19354,
    "request": 21241,
    "unctuous": 21883,
    "chant": 4258,
    "Ġswish": 23054,
    "uss": 8768,
    "Ġcontinually": 5043,
    "Ġfrighten": 13279,
    "geneva": 13729,
    "Ġjerk": 16949,
    "heart": 4526,
    "hit": 20889,
    "university": 25982,
    "orily": 15573,
    "Ġbelted": 22949,
    "Ġnapole": 15116,
    "iscuit": 10601,
    "Ġcattle": 12575,
    "Ġkissed": 10048,
    "Ġimpending": 22386,
    "Ġshrugged": 12771,
    "extent": 22768,
    "Ġmyst": 4050,
    "Ġsuggestion": 19708,
    "Ġthoughtfully": 12981,
    "Ġdy": 2519,
    "esting": 7412,
    "organic": 25945,
    "Ġbru": 13894,
    "Ġannealing": 1555,
    "Ġho": 1932,
    "Ġeffective": 1248,
    "Ġdecision": 2678,
    "Ġmap": 2390,
    "pond": 21011,
    "Ġgazed": 6479,
    "Ġprows": 19889,
    "Ġcorridor": 10674,
    "rine": 21036,
    "arb": 1564,
    "in": 262,
    "concluding": 19482,
    "inder": 9154,
    "Ġwhatsoever": 18458,
    "Ġspecimens": 18856,
    "pherd": 13644,
    "Ġlass": 15649,
    "Ġcomputation": 963,
    "Ġcasting": 12104,
    "Ġhails": 21951,
    "Ġvisitors": 7986,
    "Ġpresumably": 19625,
    "Ġall": 422,
    "fashioned": 9572,
    "cracy": 24691,
    "]]": 5206,
    "Ġ53": 19636,
    "ce": 313,
    "Ġempt": 5052,
    "¨": 106,
    "Ġdyspeps": 16498,
    "long": 2914,
    "Ġsaves": 18322,
    "varying": 13803,
    "masters": 16833,
    "Ġcandelab": 23854,
    "supernatural": 19780,
    "returns": 23141,
    "Ġblow": 3376,
    "Ġbox": 5109,
    "Ġwarmed": 12027,
    "Ġcottages": 14726,
    "ğ": 224,
    "fatig": 17089,
    "Ġdwelt": 12608,
    "quod": 2164,
    "hibited": 17428,
    "Ġpinioned": 21481,
    "Ġhieroglyphic": 25587,
    "Ġdiscredit": 22783,
    "pretend": 24884,
    "Ġsuperior": 2755,
    "Ġcontrol": 13081,
    "Ġquarto": 17298,
    "hoisted": 19282,
    "Ġsmoothed": 23663,
    "Ġinsertion": 26343,
    "Ġpregn": 22233,
    "peare": 18910,
    "Ġfour": 2214,
    "night": 2167,
    "gabriel": 15360,
    "Ġoverhead": 11776,
    "resting": 23234,
    "_.,": 14559,
    "Ġdelayed": 9521,
    "Ġvoc": 4450,
    "Ġblotting": 25313,
    "Ġmeanly": 12911,
    "Ġfolks": 14424,
    "Ġcentrally": 23837,
    "centre": 17087,
    "Ġappals": 22219,
    "Ġgrasshopper": 24383,
    "Ġfet": 5809,
    "Ġhorrify": 23824,
    "Ġcant": 17824,
    "avenue": 25058,
    "Ġundecided": 22049,
    "Ġamend": 16035,
    "Ġsurrender": 16447,
    "estations": 22229,
    "contents": 12061,
    "Ġrealistic": 5862,
    "Ġscorched": 17101,
    "Ġtwelfth": 22678,
    "Ġcharge": 5326,
    "Ġravines": 25831,
    "Ġsatisf": 2808,
    "Ġmaterials": 11290,
    "pocket": 9814,
    "slo": 17656,
    "Ġcaus": 1725,
    "Ġtissu": 25919,
    "ralian": 19601,
    "Ġextent": 7658,
    "confined": 24331,
    "rose": 6014,
    "Ġapprehended": 26089,
    "scot": 14415,
    "count": 4212,
    "Ġemblematical": 25787,
    "hounds": 20906,
    "rove": 21532,
    "idered": 4553,
    "Ġthreatened": 8331,
    "Ġpacific": 5154,
    "Ġallen": 5161,
    "Ġmontan": 22984,
    "Ġchristian": 6480,
    "speps": 14331,
    "Ġsufferable": 16258,
    "ivility": 12785,
    "itself": 7836,
    "Ġpettic": 14840,
    "Ġadequately": 15199,
    "Ġexterior": 19989,
    "although": 8811,
    "Ġnantucketer": 6915,
    "Ġdefine": 9818,
    "ature": 519,
    "kne": 20933,
    "Ġfordham": 21777,
    "Ġaffairs": 6878,
    "Ġmarbank": 23038,
    "Ġkramm": 26233,
    "Ġscenery": 11458,
    "Ġmu": 17795,
    "Ġinh": 10826,
    "Ġimproved": 7659,
    "Ġsyrian": 18352,
    "Ġclaims": 13375,
    "Ġordered": 5833,
    "Ġholidays": 22923,
    "Ġmish": 15537,
    "pivot": 21029,
    "etrics": 21584,
    "Ġamply": 22483,
    "surround": 16757,
    "Ġpreceded": 13429,
    "Ġautom": 3247,
    "pres": 16029,
    "Ġinherit": 25352,
    "Ġcav": 13879,
    "Ġbat": 10797,
    "Ġtil": 12527,
    "cask": 12450,
    "surprise": 9532,
    "Ġindiscriminately": 20628,
    "cstasy": 11447,
    "flatter": 23972,
    "retaining": 21245,
    "angu": 569,
    "ound": 586,
    "pled": 7894,
    "spr": 7435,
    "Ġcouple": 5424,
    "Ġiter": 2953,
    "Ġepid": 18004,
    "Ġwre": 5078,
    "Ġanimation": 11154,
    "Ġlees": 18075,
    "Ġcognitive": 13634,
    "upset": 23020,
    "Ġmalady": 24395,
    "Ġdisgusting": 19894,
    "Ġfurlongs": 20723,
    "Ġaccumulation": 2695,
    "Ġimpet": 11782,
    "Ġinconvenience": 9565,
    "display": 19156,
    "Ġmake": 1285,
    "Ġanomalous": 25636,
    "Ġfury": 7663,
    "Ġlegit": 16472,
    "Ġbiographical": 22767,
    "wig": 17704,
    "Ġrecklessness": 24744,
    "rod": 10833,
    "Ġtist": 21162,
    "ckets": 6844,
    "harpooneers": 8694,
    "Ġrigged": 16716,
    "Ġvagueness": 25736,
    "Ġfiver": 22775,
    "Ġnewspapers": 17188,
    "yards": 9625,
    "hunsford": 24389,
    "hence": 16624,
    "Ġwalker": 23313,
    "beaut": 8516,
    "-------": 20389,
    "Ġfiltering": 23932,
    "Ġchrist": 4072,
    "Ġjumping": 13344,
    "urred": 8452,
    "croquet": 25746,
    "Ġ50": 24318,
    "twill": 21073,
    "edmund": 17945,
    "rubbed": 22181,
    "meth": 11505,
    "âĢĶ.": 11758,
    "Ġdue": 3846,
    "forecastle": 10992,
    "Ġrequest": 6051,
    "Ġrosings": 4608,
    "dared": 13702,
    "imitably": 21711,
    "Ġchambers": 16798,
    "Ġlaughter": 9030,
    "Ġagreeably": 24954,
    "Ġflourish": 17162,
    "Ġpersu": 3565,
    "Ġcopper": 7425,
    "Ġpound": 12618,
    "Ġplanting": 16086,
    "Ġclinging": 10294,
    "Ġprev": 6266,
    "axen": 22522,
    "illum": 15870,
    "ament": 2436,
    "somerset": 26322,
    "perquisites": 26532,
    "grampus": 18615,
    "Ġchannel": 26011,
    "Ġsubproblems": 12959,
    "Ġtidy": 17093,
    "icions": 21562,
    "create": 24165,
    "Ġpatches": 4236,
    "himself": 3970,
    "Ġlaughs": 24120,
    "mercenary": 26314,
    "Ġscroll": 14189,
    "Ġvacancy": 9047,
    "Ġsalad": 19480,
    "amb": 5724,
    "Ġalcoves": 26487,
    "arrang": 14657,
    "inarticulate": 21195,
    "Ġattend": 5036,
    "takes": 21075,
    "Ġtarshish": 12032,
    "cery": 20808,
    "quent": 2093,
    "insulting": 26053,
    "ospel": 17011,
    "Ġseethings": 26504,
    "Ĥ": 229,
    "heavy": 10577,
    "Ġassociations": 14962,
    "Ġgloomily": 14800,
    "thole": 21987,
    "Ġidentify": 12017,
    "Ġcrests": 25684,
    "Ġroughs": 19958,
    "skylight": 25622,
    "Ġspark": 6692,
    "Ġcharms": 11132,
    "transom": 19736,
    "never": 3151,
    "Ġ54": 24321,
    "simply": 20671,
    "Ġsnap": 11202,
    "Ġinquis": 19304,
    "hercules": 22205,
    "darkened": 24520,
    "Ġprim": 8245,
    "Ġskeleton": 5515,
    "hello": 13366,
    "Ġsubtlety": 24780,
    "Ġjam": 10953,
    "Ġfunny": 7640,
    "Ġforced": 4351,
    "u": 89,
    "Ġkeels": 11063,
    "discharging": 26304,
    "Ġstranger": 3487,
    "seemed": 4303,
    "subject": 6634,
    "elstrom": 17981,
    "aves": 2543,
    "Ġbuttoned": 25368,
    "half": 4933,
    "eps": 12793,
    "sunlight": 24853,
    "Ġtracks": 18889,
    "Ġsolely": 9913,
    "Ġclue": 7023,
    "forced": 11033,
    "Ġflorid": 17137,
    "bloom": 24690,
    "Ġhuddled": 20300,
    "Ġfeature": 747,
    "Ġshrouds": 11346,
    "setting": 13287,
    "Ġroused": 7626,
    "Ġrashly": 20306,
    "Ġheedless": 14902,
    "eers": 20843,
    "asional": 17959,
    "nature": 5361,
    "often": 6167,
    "Ġcur": 1247,
    "whaling": 7901,
    "Ġmalay": 24394,
    "ph": 916,
    "Ġscene": 3096,
    "Ġbehind": 2809,
    "Ġcivilized": 8669,
    "iles": 2862,
    "fin": 5210,
    "Ġpicturesqueness": 24483,
    "Ġwrithing": 11949,
    "Ġtranque": 14198,
    "Ġinclement": 22555,
    "Ġinvested": 7280,
    "lacing": 17590,
    "!)": 10072,
    "Ġperse": 6274,
    "Ġproof": 6155,
    "Ġkilburn": 18349,
    "Ġemblaz": 16227,
    "Ġpersisting": 18875,
    "appro": 7047,
    "Ġpositional": 2598,
    "Ġassisting": 13259,
    "Ġcondemn": 13445,
    "Ġcoop": 14269,
    "ggy": 13116,
    "Ġnocturn": 18372,
    "Ġstabbed": 25456,
    "iluvian": 18060,
    "Ġobe": 5802,
    "Ġfusion": 21414,
    "Ġgreatness": 12945,
    "Ġprovid": 1009,
    "amed": 4447,
    "draul": 9446,
    "sherlock": 5423,
    "icious": 7380,
    "Ġwinking": 17793,
    "Ġsworn": 14433,
    "characteristic": 24686,
    "Ġvanquished": 22878,
    "possibility": 13364,
    "luc": 9757,
    "Ġawed": 23589,
    "olds": 9313,
    "Ġbutchers": 18270,
    "Ġaccuracy": 1126,
    "assured": 10954,
    "ino": 15478,
    "lays": 14921,
    "Ġpenal": 1777,
    "rah": 8138,
    "laborers": 23921,
    "Ġanatomical": 15076,
    "cerem": 15679,
    "L": 48,
    "robustness": 26338,
    "Ġpsal": 15616,
    "stave": 21643,
    "Ġfluttered": 16250,
    "melted": 25205,
    "remembered": 17352,
    "Ġembedd": 1385,
    "Ġshaking": 6553,
    "Ġbraced": 16579,
    "Ġjour": 11767,
    "ria": 15797,
    "Ġgout": 21595,
    "apparatus": 26564,
    "Ġadvance": 5485,
    "´": 117,
    "act": 787,
    "ursday": 12281,
    "Ġdefect": 8558,
    "itive": 6672,
    "precedented": 15175,
    "Ġemerged": 8689,
    "Ġswe": 2287,
    "Ġindignantly": 16938,
    "ĠvertebrÃ¦": 11437,
    "Ġbroad": 3643,
    "atered": 22008,
    "Ġslightly": 7294,
    "Ġmorality": 22979,
    "masculine": 24390,
    "ceptive": 15972,
    "/*": 10074,
    "Ġfringe": 17273,
    "wander": 17709,
    "Ġlanc": 19765,
    "Ġintensely": 17018,
    "neat": 22463,
    "Ġchristians": 13310,
    "Ġpumps": 8429,
    "Ġsucc": 12788,
    "Ġtrip": 16787,
    "Ġsne": 6373,
    "Ġrevelry": 15137,
    "urements": 18123,
    "mology": 12495,
    "Ġ": 225,
    "Ġversion": 10633,
    "Ġw": 272,
    "atter": 649,
    "Ġcastles": 16639,
    "Ġthird": 4185,
    "Ġrebell": 21669,
    "Ġunch": 18237,
    "inferiors": 25346,
    "Ġking": 2303,
    "Ġorgies": 18283,
    "brim": 23579,
    "Ġcedar": 15189,
    "Ġbounds": 9921,
    "Ġremarkable": 4917,
    "Ġreduce": 7944,
    "Ġglove": 14488,
    "Ġexerted": 15756,
    "ladies": 9531,
    "poled": 22907,
    "irmed": 9241,
    "Ġindefinite": 17178,
    "Ġsur": 2182,
    "Ġperseus": 10606,
    "Ġpavement": 9579,
    "Ġwond": 3939,
    "Ġthoughtlessness": 16194,
    "tubes": 25210,
    "Ġreeling": 18032,
    "Ġdiscussion": 17196,
    "Ġurgent": 16868,
    "Ġpitiable": 9917,
    "Ġinvestigated": 25386,
    "wondering": 19845,
    "omited": 21661,
    "Ġsheath": 14149,
    "burnt": 20081,
    "hearty": 14833,
    "Ġpersistence": 2724,
    "Ġupon": 720,
    "Ġdeplored": 20506,
    "Ġdumbly": 24987,
    "Ġdeficiencies": 26571,
    "Ġeldest": 6573,
    "imprudence": 16556,
    "residence": 19263,
    "rat": 8760,
    "minds": 24238,
    "Ġswept": 7979,
    "Ġintroduced": 7693,
    "Ġrevealing": 3925,
    "Ġhay": 11607,
    "Ġsimplest": 16333,
    "Ġbitter": 4172,
    "sensibility": 25027,
    "azine": 19130,
    "Ġdictating": 20152,
    "ittance": 12847,
    "Ġvictim": 6098,
    "Ġturner": 7052,
    "Ġdisinclination": 22537,
    "Ġbarely": 16935,
    "jo": 3752,
    "lion": 20942,
    "posted": 24636,
    "âĢĻ!âĢĿ": 18167,
    "Ġperfection": 19219,
    "Ġreef": 10851,
    "Ġgourmand": 26466,
    "Ġreminds": 13432,
    "congreg": 25398,
    "Ġcleans": 18947,
    "Ġintelligently": 3811,
    "orate": 10802,
    "tick": 17678,
    ",--âĢľ": 19198,
    "Ġgrasping": 12170,
    "yramid": 8369,
    "Ġfreshets": 25703,
    "Ġimplement": 2834,
    "Ġnorris": 23202,
    "sincere": 16906,
    "Ġsnuff": 7993,
    "Ġbeing": 1163,
    "combe": 7664,
    "chose": 18040,
    "Ġflee": 7082,
    "Ġdescribing": 19254,
    "gradient": 2272,
    "Ġgrego": 18961,
    "sworn": 24262,
    "Ġunmethodically": 22071,
    "fted": 9121,
    "Ġascribed": 14854,
    "writ": 16552,
    "little": 3354,
    "Ġwolves": 25933,
    "flaming": 23975,
    "Ġloveliness": 13608,
    "Ġinquir": 4241,
    "Ġtapers": 11553,
    "Ġwintry": 17435,
    "tail": 8766,
    "leviathans": 19939,
    "gunw": 17222,
    "Ġghost": 6144,
    "Ġstudded": 18957,
    "oman": 2017,
    "rip": 9243,
    "Ġwonderful": 4563,
    "Ġunpleasant": 7192,
    "Ġushered": 18354,
    "Ġrevolve": 19731,
    "Ġintruder": 25990,
    "Ġhear": 1965,
    "Ġimaginative": 19247,
    "iop": 20917,
    "xt": 2080,
    "Ġunnecessary": 8855,
    "Ġnephew": 6405,
    "idean": 14261,
    "!âĢĻ": 3335,
    "Ġrare": 7039,
    "Ġinanimate": 13932,
    "Ġcakes": 13883,
    "Ġmoral": 6581,
    "perishing": 22187,
    "Ġtrib": 13818,
    "Ġdecipher": 22461,
    "Ġpeace": 3695,
    "Ġtri": 4813,
    "Ġwilful": 10537,
    "Ġniag": 21529,
    "passing": 14811,
    "dispositions": 25013,
    "Ġmethinks": 10393,
    "Ġamericans": 14742,
    "agers": 5634,
    "Ġimpartial": 15220,
    "letons": 14611,
    "Ġhandsomest": 20335,
    "Ġcruelly": 13377,
    "Ġpleasantest": 24142,
    "acey": 7652,
    "Ġsleeper": 8604,
    "Ġbeard": 11657,
    "almost": 4944,
    "ntax": 934,
    "Ġoffic": 3186,
    "catherine": 7130,
    "iature": 8746,
    "ys": 3959,
    "mindful": 19600,
    "Ġaye": 3355,
    "Ġmoses": 21315,
    "Ġaspire": 21901,
    "idelburgh": 10564,
    "Ġslang": 23160,
    "herald": 22206,
    "Ġseaward": 22948,
    "Ġcommunity": 19012,
    "each": 7336,
    "Ġfish": 2712,
    "Ġghast": 9211,
    "Ġillustrative": 25068,
    "Ġproduces": 2092,
    "yth": 984,
    "mighty": 9469,
    "Ġstruggle": 3678,
    "Ġgirl": 3085,
    "Ġdisappearance": 9299,
    "Ġduplicity": 25331,
    "hung": 8382,
    "Ġdum": 10813,
    "Ġconcern": 2657,
    "Ġceler": 15551,
    "Ġrush": 5925,
    "sicilian": 21062,
    "solely": 19817,
    "Ġgipsies": 12411,
    "orrah": 17875,
    "stalk": 21644,
    "Ġrope": 4337,
    "Ġoverjoy": 15973,
    "Ġconquest": 15749,
    "instinctively": 26327,
    "Ġafter": 871,
    "Ġadjacent": 20711,
    "Ġinsulted": 14991,
    "arranted": 19333,
    "ached": 2321,
    "Ġsheep": 10928,
    "Ġlament": 7859,
    "Ġstays": 16560,
    "Ġlight": 1700,
    "Ġwat": 1288,
    "Ġ47": 14770,
    "peasant": 23112,
    "Ġfrogs": 23929,
    "Ġacceded": 22380,
    "Ġfreer": 23209,
    "Ġtreat": 3175,
    "Ġbled": 17856,
    "Ġdepending": 14291,
    "Ġburgl": 13175,
    "Ġenrapt": 21940,
    "Ġpupils": 20422,
    "Ġocc": 887,
    "disputed": 23504,
    "Ġimposs": 16615,
    "Ġhoarse": 14523,
    "ic": 304,
    "ayed": 12714,
    "Ġalan": 10871,
    "Ġgrasp": 4664,
    "Ġverdant": 15001,
    "Ġempires": 19073,
    "eth": 620,
    "dragging": 16608,
    "Ġshapeless": 24527,
    "examined": 17268,
    "Ġhost": 7071,
    "Ġarab": 7825,
    "ientiously": 21942,
    "Ġbehaves": 23304,
    "discovery": 12020,
    "belongs": 25596,
    "Ġtorm": 5435,
    "Ġdetestable": 15099,
    "itch": 10163,
    "farintosh": 24556,
    "Ġrampart": 20319,
    "woods": 13420,
    "Ġtwine": 14309,
    "Ġoccupations": 9460,
    "Ġcrisis": 13128,
    "Ġpertur": 12853,
    "bular": 15314,
    "Ġungod": 22025,
    "tiness": 21070,
    "Ġintermission": 18587,
    "Ġdestroyer": 13415,
    "Ġbreathed": 11222,
    "male": 15388,
    "Ġexploit": 19162,
    "Ġgifted": 17996,
    "Ġix": 12670,
    "uv": 6231,
    "Ġhalting": 16273,
    "oused": 6558,
    "Ġcrony": 23442,
    "been": 3347,
    "Ġpaling": 21460,
    "serious": 14446,
    "Ġabstra": 22272,
    "Ġbeat": 4491,
    "Ġmechanical": 7938,
    "Ġvehicles": 10662,
    "Ġoakum": 16933,
    "bounded": 13440,
    "Ġdust": 5909,
    "Ġknowest": 12865,
    "Ġpulled": 5661,
    "inquir": 9538,
    "turning": 8318,
    "fish": 3517,
    "Ġtortures": 14922,
    "flutterings": 26607,
    "Ġcate": 4108,
    "Ġexcepting": 14678,
    "Ġchemistry": 11462,
    "Ġapproximate": 2342,
    "ive": 426,
    "Ġtigris": 25758,
    "Ġarrival": 4732,
    "Ġmagnificence": 20633,
    "Ġdistributions": 1049,
    "Ġrekindled": 21677,
    "thankful": 16805,
    "Ġubiqu": 18046,
    "Ġunb": 10909,
    "eed": 20841,
    "attributed": 23121,
    "dread": 8733,
    "uzz": 4524,
    "Ġtests": 8960,
    "Ġgrope": 17994,
    "Ġscaled": 2104,
    "noble": 7924,
    "eu": 17530,
    "haul": 14764,
    "ainted": 3662,
    "cet": 15324,
    "remarks": 23190,
    "Ġpausing": 8657,
    "carry": 19527,
    "Ġrepulses": 26069,
    "Ġ62": 24368,
    "į": 240,
    "cater": 20816,
    "Ġwiping": 25764,
    "necess": 4898,
    "Ġstriding": 16094,
    "Ġapproached": 5844,
    "Ġpatiently": 19918,
    "Ġmock": 3694,
    "arrant": 10478,
    "tro": 15432,
    "Ġemployment": 8633,
    "Ġten": 2385,
    "Ġwife": 2588,
    "ged": 1512,
    "Ġpeaked": 2293,
    "bene": 6113,
    "answered": 10276,
    "Ġabaft": 22275,
    "Ġgeneralization": 986,
    "ipelag": 12846,
    "Ġoblig": 3446,
    "Ġpa": 3005,
    "Ġcanall": 10930,
    "Ġconvincing": 19308,
    "Ġsed": 10763,
    "Ġbressed": 21387,
    "sleepy": 24728,
    "Ġloun": 7168,
    "shipmates": 11931,
    "Ġbern": 17858,
    "riumph": 4921,
    "Ġcivility": 4789,
    "Ġphrenolog": 12337,
    "reach": 17757,
    "umbling": 6614,
    "as": 302,
    "Ġlooks": 4165,
    "tub": 9145,
    "Ġascent": 19619,
    "Ġconstruct": 23344,
    "Ġaspired": 25983,
    "liking": 22925,
    "Ġtem": 804,
    "_),": 7128,
    "Ġbundle": 13427,
    "Ġalmanac": 26486,
    "Ġhatchways": 24989,
    "Ġprodig": 6028,
    "bread": 10688,
    "Ġrighted": 23179,
    "Ġmistifying": 23725,
    "Ġrelates": 12982,
    "Ġmounttop": 19979,
    "Ġfondly": 19617,
    "Ġsafe": 5103,
    "imental": 16533,
    "Ġweapons": 10596,
    "iced": 3901,
    "Ġhusband": 3623,
    "Ġconfiding": 19038,
    "Ġfalsehood": 10526,
    "indirectly": 18435,
    "intolerable": 22939,
    "ham": 1701,
    "phew": 6369,
    "Ġlouisa": 13545,
    "Ġsabbath": 17256,
    "protest": 24813,
    "Ġpoising": 22592,
    "Ġdaring": 8122,
    "Ġdelirium": 10407,
    "Ġtapping": 10754,
    "Ġproprietors": 20186,
    "attacks": 23123,
    "omitted": 18023,
    "osity": 14183,
    "planks": 21961,
    "leaning": 10792,
    "meas": 7433,
    "influ": 9543,
    "distinction": 19572,
    "Ġfootpaths": 26317,
    "Ġvultures": 25652,
    "Ġlasting": 18789,
    "agrad": 2749,
    "Ġknob": 24410,
    "Ġfeebly": 24879,
    "cu": 10086,
    "Ġrafters": 22656,
    "dismal": 23501,
    "Ġbase": 5014,
    "Ġamount": 8515,
    "Ġdarcy": 1344,
    "whaleman": 23440,
    "sterdam": 19089,
    "flame": 16637,
    "._]]": 5336,
    "Ġcanterbury": 22169,
    "noo": 9792,
    "ott": 1874,
    "ustomed": 6099,
    "¼": 125,
    "Ġeconomically": 25288,
    "Ġexponential": 1055,
    "Ġloomed": 12304,
    "Ġembark": 8560,
    "Ġinquiries": 5679,
    "Ġmuttering": 10502,
    "fits": 13717,
    "heard": 5010,
    "orious": 6008,
    "Ġuntouched": 16464,
    "Ġdisk": 22523,
    "Ġhonourable": 10458,
    "appearance": 5335,
    "number": 10117,
    "Ġrambles": 17186,
    "stern": 8447,
    "Ġmodeling": 2094,
    "Ġjanuary": 13653,
    "biscuit": 17501,
    "fes": 20851,
    "activation": 3231,
    "wra": 11543,
    "Ġcollins": 2180,
    "Ġhiding": 9826,
    "recur": 4436,
    "Ġperceiving": 8879,
    "Ġcomrades": 9235,
    "Ġsciences": 15946,
    "Ġsometimes": 2166,
    "Ġforming": 7045,
    "Ġsufficiently": 8976,
    "eline": 2551,
    "vid": 917,
    "Ġmonosy": 18849,
    "owers": 12686,
    "Ġexclamations": 11363,
    "abriel": 6951,
    "Ġpatriot": 23280,
    "Ġdeeper": 2083,
    "sing": 5139,
    "against": 5872,
    "rive": 9710,
    "owed": 2268,
    "ı": 242,
    "Ġweariness": 19795,
    "eli": 3874,
    "formality": 22216,
    "spanish": 14329,
    "conditional": 9081,
    "Ġwaterward": 23370,
    "Ġscar": 3210,
    "Ġgoose": 5938,
    "fitted": 17544,
    "Ġelucidated": 26028,
    "Ġhand": 858,
    "aching": 5832,
    "Ġretreat": 6070,
    "Ġplata": 25120,
    "tete": 10734,
    "laughing": 15180,
    "osely": 9267,
    "aled": 3944,
    "Ġinsist": 9894,
    "Ġmoderately": 22223,
    "ouble": 2662,
    "Ġdispose": 23884,
    "Ġastr": 15493,
    "Ġvort": 18191,
    "Ġcompletion": 12152,
    "icular": 2022,
    "heavily": 24537,
    "Ġpilgr": 12185,
    "assault": 22307,
    "recogn": 13426,
    "Ġjavel": 17084,
    "Ġtransport": 11280,
    "Ġloaded": 8494,
    "Ġhoarsely": 26301,
    "Ġnail": 9197,
    "precip": 14663,
    "oing": 15400,
    "Ġclasping": 20210,
    "Ġdistinct": 4610,
    "Ġilluminated": 20175,
    "continu": 5502,
    "Ġentranced": 25833,
    "gentlemanlike": 20003,
    "Ġwhiteness": 5919,
    "Ġcond": 3875,
    "retirement": 23143,
    "Ġascertained": 25296,
    "Ġhatch": 7850,
    "Ġlicence": 25098,
    "iii": 14775,
    "ĠĠĠĠĠĠĠĠĠĠĠĠĠĠĠĠĠĠĠĠĠĠĠĠĠĠĠĠĠĠĠĠĠĠĠĠĠĠĠĠĠĠĠĠĠĠ": 9956,
    "Ġcrags": 23533,
    "rowing": 7442,
    "Ġassumed": 9468,
    "also": 7853,
    "Ġdearer": 14047,
    "ĠâĢľâĢĺ_": 25114,
    "Ġdissipate": 13633,
    "Ġhourly": 23305,
    "Ġdisplays": 19857,
    "Ġlouis": 8358,
    "Ġunhappily": 18260,
    "repairing": 24498,
    "Ġrese": 2218,
    "Ġsuperficial": 23459,
    "Ġexhilarating": 26337,
    "countenance": 6926,
    "Ġfabric": 25946,
    "Ġfiftieth": 24702,
    "Ġmalicious": 10560,
    "Ġhyp": 3873,
    "Ġheap": 12680,
    "uerus": 26406,
    "asol": 21539,
    "Ġresponsible": 9890,
    "Ġpartly": 6716,
    "Ġmapp": 2081,
    "Ġpanthe": 19654,
    "Ġacknowledge": 13404,
    "Ġrenew": 6147,
    "Ġcreation": 6440,
    "Ġharpo": 1943,
    "horses": 17567,
    "Ġforegoing": 23452,
    "Ġreliability": 22881,
    "Ġmourning": 13479,
    "Ġentity": 10345,
    "anely": 17836,
    "Ġtars": 21164,
    "apped": 5396,
    "Ġvertically": 19381,
    "reject": 21236,
    "Ġsolemn": 4099,
    "hon": 6796,
    "dor": 12455,
    "Ġsqualid": 14365,
    "Ġhim": 476,
    "attery": 18498,
    "Ġkindly": 6077,
    "Ġundue": 25992,
    "Ġgreeks": 20014,
    "uce": 11537,
    "Ġprofund": 13155,
    "Ġimpression": 5733,
    "Ġthirds": 16707,
    "Ġmeasuring": 22882,
    "hecy": 21206,
    "Ġfritters": 23257,
    "ornament": 23492,
    "Ġsovereign": 10065,
    "Ġsmiled": 5941,
    "S": 55,
    "ois": 9137,
    "landlord": 9843,
    "her": 488,
    "Ġpens": 21458,
    ",âĢĶ": 3169,
    "maintained": 25022,
    "Ġsalvation": 14756,
    "Ġpalpit": 16689,
    "ipelagoes": 13671,
    "Ġdiet": 13909,
    "hatred": 24819,
    "ocity": 8279,
    "Ġmeans": 698,
    "prosper": 19100,
    "Ġwearisome": 19796,
    "wand": 10740,
    "alt": 12640,
    "Ġlullaby": 20589,
    "Ġread": 1447,
    "Ġorganisation": 23587,
    "unwho": 21878,
    "Ġinstruction": 14340,
    "Ġsprinkled": 19498,
    "Ġsharp": 2412,
    "despond": 19801,
    "Ġrigger": 19531,
    "izard": 10885,
    "Ġsnowy": 9021,
    "Ġstamped": 13526,
    "Ġpreliminary": 10060,
    "india": 22372,
    "front": 12175,
    "Ġdiscovers": 4426,
    "Ġnerves": 2627,
    "Ġscud": 14188,
    "Ġphiladelphia": 26605,
    "Ġmet": 1928,
    "iracle": 11245,
    "glance": 16586,
    "entropy": 1439,
    "Ġparad": 2844,
    "Ġcasked": 24500,
    "provid": 11151,
    "Ġraving": 16115,
    "Ġangrily": 9410,
    "commission": 22819,
    "Ġcannot": 1663,
    "Ġcloset": 19592,
    "Ġgrammars": 11404,
    "Ġsoundings": 13135,
    "Ġspiracle": 14147,
    "punctual": 26355,
    "ington": 21301,
    "Ġpurchase": 12264,
    "door": 6195,
    "conda": 18991,
    "guest": 19483,
    "cle": 3955,
    "Ġascended": 8670,
    "Ġorders": 5342,
    "occupation": 15055,
    "Ġgothic": 17999,
    "ipl": 20916,
    "Ġinnermost": 12165,
    "emed": 3382,
    "icacy": 15659,
    "appin": 18757,
    "ards": 2503,
    "Ġimperilled": 19579,
    "am": 367,
    "Ġgoest": 22424,
    "caught": 8731,
    "Ġestablish": 9545,
    "Ġpainting": 13143,
    "ilar": 10218,
    "emberley": 4170,
    "laying": 19773,
    "Ġlifts": 25358,
    "Ġcow": 13875,
    "quarried": 24947,
    "Ġthomas": 17947,
    "Ġimmemorially": 25383,
    "À": 129,
    "Ġlegendary": 20538,
    "Ġpilgrim": 25599,
    "Ġgent": 7383,
    "Ġscotch": 12214,
    "Ġpromote": 23194,
    "incible": 16496,
    "_.âĢĻâĢĿ": 17480,
    "stairs": 5156,
    "believed": 9936,
    "Ġfishes": 11593,
    "Ġglens": 18852,
    "Ġdisposition": 5410,
    "Ġdarkly": 19114,
    "Ġsoldiers": 8691,
    "phantoms": 24680,
    "Ġobtaining": 16133,
    "fast": 3070,
    "Ġbecalmed": 18086,
    "Ġfell": 1976,
    "Ġstubb": 1789,
    "Ġunp": 12774,
    "volous": 18602,
    "Ġcatastrop": 3350,
    "appalled": 18759,
    "Ġiv": 4044,
    "Ġcombines": 1178,
    "Ġthroats": 24576,
    "Ġlovers": 9723,
    "Ġpaltry": 16690,
    "Ġinstead": 2792,
    "Ġwad": 13850,
    "`": 68,
    "Ġcrack": 7711,
    "Ġconjugal": 25103,
    "interred": 23742,
    "Ġsingers": 23775,
    "Ġomnipotent": 13548,
    "Ġtom": 15633,
    "Ġbenches": 18779,
    "Ġdisposed": 7086,
    "Ġcat": 2121,
    "Ġoperation": 12002,
    "Ġinfants": 16366,
    "caves": 20813,
    "Ġdetail": 636,
    "craft": 12251,
    "Ġproposal": 10022,
    "Ġcrown": 5290,
    "Ġincredulous": 9990,
    "Ġchrysalis": 26539,
    "viv": 17698,
    "Ġregarding": 13211,
    "Ġabst": 9268,
    "Ġbrah": 19358,
    "Ġpencils": 23196,
    "Ġmajor": 13293,
    "illa": 12795,
    "Ġpawn": 12067,
    "Ġshelf": 12272,
    "Ġfugitive": 17328,
    "Ġturk": 6605,
    "Ġshort": 2225,
    "Ġbounce": 21393,
    "hilar": 25083,
    "Ġfetch": 7771,
    "oped": 6047,
    "rious": 11691,
    "accurately": 25860,
    "Ġnone": 3222,
    "Ġcell": 6239,
    "ug": 1770,
    "Ġbeholding": 8673,
    "warmth": 20054,
    "Ġsaluted": 14757,
    "iliar": 15715,
    "Ġtrem": 6663,
    "Ġwrites": 23199,
    "Ġcaptivating": 26048,
    "Ġquee": 1979,
    "Ġgir": 2255,
    "Ġav": 3582,
    "Ġslow": 2378,
    "Ġschedules": 3388,
    "habit": 16190,
    "Ġutmost": 5497,
    "Ġdark": 2111,
    "Ġunrest": 11717,
    "ust": 495,
    "Ġqueer": 4478,
    "path": 10121,
    "Ġslice": 23161,
    "oise": 15402,
    "Ġcass": 13878,
    "Ġmatlock": 18798,
    "..": 5784,
    "fortunate": 4793,
    "Ġwill": 678,
    "Ġillinois": 19136,
    "estab": 14168,
    "Ġfriendless": 23027,
    "Ġharpooning": 23984,
    "Ġpersist": 16265,
    "Ġavowed": 16633,
    "unmistakable": 21896,
    "Ġlawyers": 25248,
    "Ġprincipally": 11311,
    "Ġpipes": 9855,
    "nourished": 26398,
    "Ġtoes": 10831,
    "leading": 15562,
    "Ġmonsieur": 12424,
    "Ġgunw": 6214,
    "Ġlin": 10835,
    "Ġimped": 18440,
    "ren": 549,
    "Ġmuslin": 19384,
    "ologies": 18767,
    "Ġfrequ": 3330,
    "vitiated": 25753,
    "intosh": 22941,
    "F": 42,
    "Ġdante": 21438,
    "Ġgrounds": 6752,
    "Ġyoungster": 23180,
    "whar": 15928,
    "bee": 16038,
    "Ġadieu": 10054,
    "Ġexper": 1293,
    "Ġpetulance": 24233,
    "Ġliter": 8817,
    "Ġinvented": 17037,
    "Ġslouched": 13061,
    "Ġnatures": 16505,
    "Ġseals": 11698,
    "eldest": 22800,
    "Ġfeatureless": 22610,
    "Ġhosea": 17332,
    "chet": 13218,
    "Ġsuggest": 5418,
    "oubtedly": 6944,
    "Ġcondemned": 7780,
    "Ġnonsense": 6984,
    "Ġpopularly": 12246,
    "enesis": 24391,
    "Ġthews": 21277,
    "Ġapplying": 13095,
    "Ġcherish": 10592,
    "Ġsingle": 1690,
    "Ġforeboding": 20384,
    "Ġoh": 2174,
    "geon": 6272,
    "Ġbalmoral": 16208,
    "Ġmountain": 3374,
    "inable": 11557,
    "Ġ60": 14874,
    "Ġnuptial": 25781,
    "Ġmisfortunes": 7044,
    "Ġsent": 1779,
    "Ġdeclining": 23969,
    "arius": 14246,
    "Ġfortunately": 12184,
    "Ġsouls": 6310,
    "ites": 3899,
    "Ġdais": 24375,
    "Ġbarbs": 10534,
    "Ġhit": 7165,
    "Ġreusable": 13557,
    "Ġopulent": 23632,
    "Ġ80": 24459,
    "Ġxxiv": 24480,
    "reast": 17758,
    "lid": 20943,
    "establishment": 26112,
    "Ġdecoyed": 18490,
    "Ġjeopardy": 13596,
    "Ġannouncing": 16753,
    "continue": 16860,
    "violence": 16477,
    "Ġbathed": 17865,
    "Ġgun": 4703,
    "Ġdif": 872,
    "Ġwrists": 11115,
    "Ġmanipulation": 10661,
    "Ġchaise": 9079,
    "Ġazure": 12377,
    "Ġrepresenting": 4060,
    "oe": 7553,
    "Ġabating": 22268,
    "Ġmode": 8503,
    "uing": 17693,
    "Ġimages": 1597,
    "orton": 11759,
    "Ġjuggl": 20439,
    "Ġafraid": 3531,
    "featured": 24137,
    "Ġelated": 18632,
    "Ġwast": 21861,
    "Ġreminding": 19798,
    "Ġcouples": 16851,
    "inquiry": 15143,
    "batch": 1982,
    "Ġassented": 17339,
    "Ġchaldee": 26234,
    "sooner": 14776,
    "Ġcretan": 22722,
    "philips": 20036,
    "Ġsharpened": 17366,
    "lifeless": 24317,
    "Ġexpanse": 14289,
    "preading": 18495,
    "Ġgeese": 7696,
    "Ġtormenting": 15105,
    "Ġranges": 2884,
    "Ġsincerely": 7964,
    "Ġkl": 2738,
    "Ġquakers": 22417,
    "Ġarom": 15491,
    "famous": 16915,
    "Ġsupreme": 13607,
    "Ġpolluted": 25593,
    "Ġpeeping": 16128,
    "Ġsailed": 4890,
    "Ġclamped": 18424,
    "anqu": 4109,
    "Ġconnections": 975,
    "irting": 11688,
    "Ġtener": 21163,
    "Ġrascally": 26508,
    "Ġprogen": 14037,
    "Ġlowerings": 23653,
    "Ġlocker": 16910,
    "Ġcranial": 25592,
    "Ġbetrayed": 9563,
    "ean": 20840,
    "Ġ43": 14768,
    "cousin": 10655,
    "Ġconclude": 8584,
    "constant": 11326,
    "Ġchambermaid": 24309,
    "article": 22396,
    "Ġbitterest": 12405,
    "Ġliar": 22409,
    "pire": 9138,
    "Ġaffright": 9334,
    "Ġexclusiveness": 23933,
    "Ġerection": 24006,
    "Ġthickening": 24029,
    "Ġfriends": 2654,
    "Ġyawn": 7612,
    "disgu": 19155,
    "Ġinterpret": 5491,
    "paus": 13772,
    "Ġwhirlwinds": 20466,
    "fellow": 6795,
    "Ġtame": 17722,
    "Ġcivilly": 19604,
    "Ġaugmented": 15106,
    "Ġdecember": 15006,
    "Ġclin": 14199,
    "Ġcommonplace": 11098,
    "Ġmeasure": 3596,
    "Ġselfish": 7273,
    "bears": 22490,
    "Ġadmire": 5265,
    "separately": 25226,
    "Ġdesisted": 22981,
    "clusion": 16305,
    "giana": 7802,
    "Ġutensils": 23518,
    "Ġapart": 4747,
    "Ġrandom": 1586,
    "os": 525,
    "Ġbloodthirsty": 26602,
    "Ġroarings": 25301,
    "Ġmillions": 11356,
    "shorn": 22448,
    "application": 12366,
    "Ġscreams": 24604,
    "Ġmethod": 1459,
    "Ġhumorousness": 25377,
    "Ġtrusted": 10520,
    "distinguish": 19573,
    "awed": 10394,
    "mankind": 14372,
    "Ġcasts": 19427,
    "declare": 25172,
    "Ġhaunts": 18196,
    "whel": 7667,
    "Ġgrimesby": 11459,
    "Ġwrenched": 12561,
    "Ġjerked": 19833,
    "lant": 20945,
    "Ġbour": 4878,
    "aton": 21258,
    "Ġwhis": 3506,
    "Ġbetray": 7443,
    "uer": 21099,
    "ppa": 10242,
    "swear": 16917,
    "Ġstated": 9692,
    "anche": 10790,
    "Ġvari": 834,
    "Ġacquit": 18896,
    "Ġtongs": 9964,
    "Ġreel": 9215,
    "Ġbrightest": 13227,
    "z": 94,
    "Ġapt": 9157,
    "killed": 15376,
    "represent": 9639,
    "Ġbacks": 8532,
    "Ġmischief": 8545,
    "pl": 403,
    "ĠâĢľ": 516,
    "Ġchosen": 7202,
    "Ġ74": 24267,
    "Ġaristocratic": 20513,
    "Ġishmael": 7395,
    "Ġshare": 1654,
    "parm": 21012,
    "Ġsuccessive": 10503,
    "Ġalert": 18101,
    "topic": 10530,
    "ledyard": 22383,
    "Ġminers": 22832,
    "Ġunintelligible": 26515,
    "ifying": 5236,
    "rell": 11565,
    "Ġphysiognomical": 25610,
    "visitor": 15056,
    "Ġactually": 5390,
    "Ġfragments": 19007,
    "Ġgiant": 13966,
    "ixed": 4852,
    "Ġblasted": 7939,
    "Ġmccarthys": 19663,
    "ertion": 12042,
    "Ġdiscrete": 2475,
    "Ġbequeathed": 20702,
    "7": 27,
    "Ġterminated": 23513,
    "Ġport": 3312,
    "Ġveil": 7935,
    "Ġcons": 953,
    "Ġcomplet": 4421,
    "ired": 1445,
    "Ġintegration": 9871,
    "cripp": 20819,
    "jected": 22714,
    "Ġpythag": 26448,
    "cottage": 9571,
    "Ġdelightful": 6322,
    "equal": 14993,
    "him": 1939,
    "Ġsat": 1132,
    "fedallah": 25522,
    "Ġshroud": 6484,
    "Ġgoodly": 22823,
    "Ġtemptations": 24511,
    "Ġeddying": 17118,
    "Ġoft": 9196,
    "Ġyours": 4122,
    "Ġone": 568,
    "he": 264,
    "oid": 3124,
    "Ġweighed": 8715,
    "Ġlydia": 2373,
    "Ġmining": 22830,
    "nson": 16089,
    "Ġreveries": 11349,
    "jar": 17577,
    "Ġbehav": 3541,
    "Ġstate": 1813,
    "ampl": 21843,
    "Ġgnar": 21609,
    "bingleys": 19635,
    "Ġrehearsed": 25970,
    "hurrying": 14982,
    "Ġ91": 24590,
    "Ġarmies": 16491,
    "Ġmiddle": 4136,
    "Ġharmless": 9968,
    "Ġavoid": 5200,
    "sius": 13787,
    "geor": 15979,
    "Ġsensitive": 13201,
    "Ġwreck": 7315,
    "Ġpeddler": 26179,
    "Ġcasual": 11411,
    "Ġincantation": 26257,
    "Ġmis": 918,
    "lance": 12485,
    "scence": 14416,
    "Ġare": 526,
    "Ġmerciless": 25246,
    "Ġmetropolitan": 17277,
    "Ġdocks": 14173,
    "Ġbankrupt": 16795,
    "Ġwel": 4527,
    "Ġleaks": 16444,
    "Ġ133": 24783,
    "Ġgentle": 1892,
    "Ġsangu": 15503,
    "Ġeyford": 10644,
    "Ġpalmy": 19500,
    "h": 76,
    "lengthwise": 19951,
    "Ġinnoc": 3795,
    "Ġnich": 21519,
    "ger": 1106,
    "Ġsuffer": 4723,
    "stranger": 9886,
    "Ġvent": 3997,
    "Ġevaluate": 3334,
    "Ġalien": 14016,
    "mathematics": 26303,
    "looks": 12021,
    "Ġbambooz": 26118,
    "oll": 5457,
    "ti": 8391,
    "4": 24,
    "Ġconsistent": 14525,
    "Ġfav": 1759,
    "Ġtremendous": 8354,
    "Ġexcellence": 11453,
    "Ġcompare": 9305,
    "Ġrejo": 5916,
    "Ġnowadays": 18544,
    "Ġcetus": 19885,
    "Ġswamp": 14434,
    "eping": 5834,
    "Ġofficio": 23821,
    "Ġestimation": 11220,
    "Ġwonder": 2117,
    "Ġcope": 17830,
    "Ġflank": 8230,
    "Ġcommodores": 25374,
    "Ġviews": 7291,
    "Ġtolland": 24990,
    "shout": 22443,
    "Ġhawsers": 26503,
    "Ġantiquities": 25598,
    "Ġdisappointment": 6629,
    "death": 6263,
    "Ġawaiting": 11392,
    "Ġmau": 21310,
    "Ġmistaking": 23724,
    "Ġdepose": 22606,
    "Ġineff": 12636,
    "Ġoverseeing": 22362,
    "Ġprices": 15612,
    "bordered": 17499,
    "ication": 968,
    "oration": 2208,
    "Ġalchemists": 26488,
    "Ġshowers": 16604,
    "Ġgenerator": 3384,
    "Ġhelter": 24030,
    "Ġcows": 15553,
    "yellow": 9626,
    "Ġbeck": 14007,
    "Ġsu": 433,
    "Ġgrapes": 15216,
    "Ġsympathise": 16793,
    "Ġgroans": 14823,
    "Ġfuture": 1082,
    "Ġblind": 3718,
    "Ġseparated": 9467,
    "disappearing": 23506,
    "*": 14,
    "avating": 18566,
    "Ġcon": 348,
    "iew": 2444,
    "Ġinteraction": 7424,
    "Ġpunctil": 20115,
    "moreover": 12971,
    "unwittingly": 25800,
    "Ġsimpleton": 16334,
    "Ġpleasures": 11144,
    "apolog": 22333,
    "Ġpliny": 11828,
    "Ġpainter": 19168,
    "originally": 24939,
    "talked": 14984,
    "southern": 20410,
    "Ġagrippa": 11810,
    "acks": 11791,
    "lydon": 13987,
    "backs": 9393,
    "Ġchord": 22246,
    "idity": 8835,
    "Ġhusbands": 16642,
    "Ġlaure": 16908,
    "Ġrambled": 20168,
    "figures": 20123,
    "shrugged": 22451,
    "alongside": 19790,
    "Ġvoluntarily": 12145,
    "entrance": 12659,
    "aution": 9389,
    "ental": 7170,
    "convalescence": 24886,
    "ilated": 18057,
    "ushes": 22282,
    "Ġserpent": 6740,
    "aught": 2683,
    "richard": 17288,
    "Ġacts": 2292,
    "Ġforward": 1839,
    "Ġminimax": 5859,
    "spoke": 11025,
    "onse": 21249,
    "cherries": 19757,
    "Ġmaddened": 17245,
    "Ġgrimly": 17052,
    ":--": 5785,
    "Ġgrating": 14353,
    "Ġord": 3737,
    "Ġunceasingly": 20359,
    "brimming": 23581,
    "gracious": 11834,
    "Ġparty": 3512,
    "Ġtrifle": 10604,
    "Ġunluckily": 20103,
    "Ġgovern": 10452,
    "Ġspilled": 10926,
    "Ġmargaret": 10379,
    "endurable": 22227,
    "Ġheld": 3587,
    "Ġmidday": 23636,
    "ernation": 8213,
    "Ġczar": 12577,
    "voices": 21116,
    "Ġ63": 24369,
    "esteem": 26007,
    "Ġinsensibility": 17110,
    "Ġcontin": 5383,
    "Ġgret": 21600,
    "Ġignorance": 6621,
    "Ġstand": 1737,
    "Ġcomplained": 16997,
    "Ġsolicit": 22887,
    "Ġpepper": 9784,
    "Ġcurse": 7669,
    "Ġreplaced": 13073,
    "Ġdeploy": 3225,
    "club": 26380,
    "Ġmend": 8408,
    "Ġthom": 21515,
    "snowy": 20284,
    "Ġabundance": 17157,
    "sac": 7143,
    "Ġuntoward": 19165,
    "Ġagain": 815,
    "ocean": 12404,
    "Ġsche": 1705,
    "Ġgreedily": 18964,
    "Ġconvolutions": 21808,
    "Ġang": 2509,
    "Ġgamb": 17997,
    "relate": 24016,
    "Ġtransl": 2831,
    "Ġadduced": 26525,
    "Ġrespective": 16344,
    "Ġimpenit": 22390,
    "outre": 18319,
    "killer": 20477,
    "Ġterrors": 6919,
    "Ġexh": 5233,
    "Ġrack": 9314,
    "Ġgunwale": 7326,
    "Ġshipw": 12980,
    "Ġcongregated": 20098,
    "Ġignited": 25071,
    "heim": 17746,
    "Ġinvolved": 8929,
    "Ġrecalled": 8541,
    "Ġcampaign": 20661,
    "ĠĠĠĠĠĠĠĠ": 711,
    "Ġhenry": 5198,
    "Ġunconcerned": 20511,
    "Ġsta": 18062,
    "gratulation": 24352,
    "Ġretained": 7175,
    "Ġviii": 16412,
    "aff": 3100,
    "carp": 9113,
    "Ġswam": 6449,
    "Ġcurves": 18843,
    "Ġphrases": 2799,
    "Ġtow": 4394,
    "becoming": 18517,
    "Ġpatched": 16361,
    "wrapped": 15210,
    "arder": 17894,
    "Ġfairness": 9897,
    "kerchief": 7527,
    "Ġsemantic": 1957,
    "Ġhor": 1658,
    "Ġdiabol": 11455,
    "Ġanticipating": 17059,
    ",âĢĶâĢľ": 10073,
    "Ġresults": 7309,
    "henomenon": 13614,
    "relig": 15511,
    "Ġdews": 21839,
    "erial": 4632,
    "Ġsimilitude": 19211,
    "Ġoffered": 5817,
    "Ġnecessitated": 23934,
    "Ġitems": 9695,
    "Ġfallen": 5968,
    "Ġinterest": 2248,
    "Ġdespaired": 14667,
    "unwillingness": 25801,
    "Ġbeliefs": 24583,
    "Ġyears": 1893,
    "deformity": 22147,
    "Ġcaress": 16338,
    "expl": 9285,
    "Ġpill": 7848,
    "particularly": 8341,
    "Ġravine": 18645,
    "Ġdilig": 8351,
    "Ġquality": 3529,
    "visit": 7756,
    "Ġoutfits": 22322,
    "whisper": 17083,
    "Ġmasked": 3697,
    "frank": 7759,
    "iling": 3092,
    "experienced": 15122,
    "iven": 1236,
    "solic": 16379,
    "Ġberths": 20116,
    "plain": 1359,
    "Ġformerly": 7495,
    "Ġheave": 7602,
    "unched": 10238,
    "civil": 7798,
    "Ġbed": 2150,
    "question": 5419,
    "Ġoffended": 7043,
    "whispering": 26102,
    "Ġsibbald": 21230,
    "Ġentities": 11866,
    "Ġhigher": 1822,
    "Ġviciss": 11294,
    "vic": 13801,
    "mense": 4781,
    "write": 14645,
    "vial": 17697,
    "Ġholder": 6727,
    "Ġwig": 9163,
    ")": 13,
    "ashtego": 4101,
    "ognit": 19195,
    "Ġdismasted": 15252,
    "Ġlate": 3379,
    "replied": 11567,
    "Ġart": 750,
    "Ġissu": 6255,
    "sole": 6170,
    "Ġelegant": 7534,
    "cat": 15323,
    "asleep": 21543,
    "Ġcooked": 13270,
    "onsense": 6432,
    "Ġropes": 10750,
    "Ġdemo": 10881,
    "Ġbasement": 24701,
    "gryphon": 15358,
    "Ġbrick": 8927,
    "snatched": 24852,
    "distinct": 13338,
    "lins": 2025,
    "Ġidolator": 19999,
    "Ġdissatisfied": 14254,
    "Ġapprovingly": 26252,
    "likelihood": 4993,
    "Ġrivers": 9445,
    "def": 1451,
    "icirc": 15657,
    "Ġtoss": 10187,
    "sh": 641,
    "seventy": 10878,
    "governed": 25405,
    "Ġsituation": 4071,
    "uth": 3019,
    "Ġniagara": 26458,
    "antically": 22097,
    "Ġmisconduct": 22762,
    "adoes": 11662,
    "asets": 2309,
    "slanting": 24561,
    "Ġcobweb": 22585,
    "Ġcurving": 16236,
    "Ġtur": 2565,
    "test": 13791,
    "bohem": 19000,
    "Ġputting": 5328,
    "ppings": 18176,
    "Ġransacked": 26506,
    "Ġbeth": 9659,
    "horrible": 14598,
    "vessel": 11379,
    "Ġonset": 12712,
    "pher": 11513,
    "Ġgrandeur": 8632,
    "Ġaccompanying": 11306,
    "merged": 11195,
    "seventh": 12716,
    "Ġobligations": 12096,
    "Ġshriek": 6640,
    "Ġchronicled": 25328,
    "Ġrever": 6538,
    "Ġbengal": 18781,
    "Ġhearing": 4762,
    "Ġwo": 3654,
    "Ġcoburg": 18593,
    "library": 13001,
    "overcome": 19052,
    "Ġthink": 988,
    "cutting": 23788,
    "Ġyarn": 10870,
    "Ġtag": 15467,
    "Ġconciliating": 19049,
    "ity": 417,
    "expressive": 24310,
    "churning": 21697,
    "knives": 14912,
    "Ġcastaways": 19429,
    "orse": 5808,
    "rimshander": 20657,
    "Ġpirate": 14995,
    "Ġreverend": 15260,
    "Ġparson": 6690,
    "Ġflapp": 23011,
    "Ġcapital": 7981,
    "grat": 5053,
    "Ġsinew": 25431,
    "pushed": 21021,
    "Ġnamely": 20690,
    "Ġmaw": 15540,
    "Ġjewell": 19521,
    "sold": 15425,
    "Ġenergetic": 15198,
    "mangled": 20979,
    "uncontrollable": 20597,
    "Ġperth": 7025,
    "Ġarrant": 23302,
    "mblies": 24609,
    "Ġpersian": 11088,
    "Ġtass": 15469,
    "task": 13792,
    "Ġloafer": 18297,
    "Ġthistle": 21917,
    "ě": 220,
    "ato": 17769,
    "Ġimport": 1046,
    "deck": 4500,
    "Ġunostentatious": 22070,
    "Ġbeadle": 26485,
    "Ġnug": 21524,
    "Ġovers": 14203,
    "spe": 3562,
    "biting": 20781,
    "horrors": 20542,
    "'s": 2467,
    "Ġfergus": 16866,
    "ario": 14245,
    "Ġwept": 7185,
    "Ġstrangely": 5678,
    "utored": 15664,
    "Ġdoleful": 18374,
    "Ġsequel": 14354,
    "Ġswift": 3672,
    "Ġgrecian": 26295,
    "Ġdevices": 2942,
    "18": 20751,
    "Ġadoption": 24950,
    "assment": 9743,
    "flesh": 13491,
    "Ġdeformed": 14045,
    "Ġprocuring": 16869,
    "Ġpurplish": 19140,
    "iers": 5991,
    "Ġinstincts": 16985,
    "mped": 16647,
    "lection": 3656,
    "Ġprynne": 25540,
    "moil": 22707,
    "irations": 18170,
    "Ġpondered": 15167,
    "Ġunexpl": 22040,
    "Ġnoiseless": 10359,
    "Ġexp": 778,
    "Ġmarch": 4081,
    "Ġargu": 10936,
    "Ġke": 1154,
    "Ġ275": 20112,
    "Ġhandled": 12939,
    "!âĢĶâĢĻ": 23569,
    "iline": 21721,
    "Ġgroom": 13964,
    "clu": 20799,
    "Ġarrested": 9562,
    "Ġappeal": 16315,
    "Ġbackwards": 12927,
    "anous": 21359,
    "Ġhorrors": 10482,
    "Ġdistrustful": 25056,
    "odiac": 14030,
    "Ġperformed": 8550,
    "oner": 6126,
    "uish": 5432,
    "Ġdeuteronomy": 15761,
    "Ġelevate": 24505,
    "Ġprofess": 3701,
    "disposition": 10045,
    "instr": 12534,
    "sullen": 17669,
    "ascending": 24706,
    "kitchen": 17585,
    "Ġunlimited": 26222,
    "Ġdaintiest": 25952,
    "Ġtalk": 1969,
    "yea": 23088,
    "squeezing": 25912,
    "Ġindisposed": 26288,
    "Ġvesture": 20063,
    "Ġdetective": 14419,
    "Ġglaring": 11911,
    "âĢĺ": 940,
    "Ġarsacidean": 20365,
    "exceed": 7913,
    "prob": 7072,
    "Ġstaggering": 20274,
    "Ġtimbers": 14838,
    "Ġfanning": 23393,
    "Ġgently": 7173,
    "Ġsom": 1274,
    "cherish": 24555,
    "Ġeating": 8137,
    "inferior": 12397,
    "Ġrepaired": 13110,
    "Ġcollections": 22854,
    "Ġthese": 821,
    "Ġpoul": 15613,
    "Ġ132": 19896,
    "Ġlabrador": 23334,
    "slave": 16894,
    "ron": 5217,
    "vous": 2251,
    "Ġadmon": 15869,
    "Ġworker": 23048,
    "cons": 4308,
    "Ġunwilling": 7888,
    "Ġgentleness": 8714,
    "itary": 4752,
    "design": 19341,
    "ctor": 13958,
    "Ġimmediate": 6089,
    "Ġcontact": 9283,
    "wall": 10139,
    "abouts": 9455,
    "ep": 444,
    "ext": 925,
    "Ġvindication": 25364,
    "Ġ93": 24592,
    "Ġshillings": 15836,
    "orn": 2243,
    "Ġcomm": 839,
    "Ġfamine": 16327,
    "Ġnut": 12648,
    "Ġing": 5285,
    "Ġbooks": 4676,
    "presently": 9812,
    "Ġsubjected": 23576,
    "Ġhollow": 5649,
    "mantel": 26394,
    "Ġdavis": 25951,
    "Ġprophecy": 25704,
    "Ġoffering": 3008,
    "Ġcommence": 6169,
    "rusted": 16506,
    "Ġrewarding": 13438,
    "halfway": 24316,
    "standing": 5559,
    "sphere": 22730,
    "thar": 18215,
    "Ġgazes": 24100,
    "away": 4626,
    "Ġtrappings": 23083,
    "Ġwitnessing": 19599,
    "Ġimplicit": 19959,
    "enses": 10997,
    "Ġintrig": 21991,
    "bermaid": 20790,
    "shazz": 14238,
    "Ġpeas": 8537,
    "Ġrods": 9756,
    "Ġjohnson": 18407,
    "und": 4086,
    "Ġhopeful": 19034,
    "hav": 20896,
    "Ġhoops": 9391,
    "Ġadam": 2126,
    "Ġstudies": 7957,
    "aggoo": 5131,
    "Ġfolly": 7942,
    "Ġremarked": 3698,
    "ogue": 9787,
    "Ġcouch": 12574,
    "Ġnailing": 21526,
    "osen": 6856,
    "Ġweaver": 11690,
    "Ġmending": 17804,
    "Ġbes": 2661,
    "Ġhurling": 19110,
    "lesome": 12967,
    "Ġthinking": 4030,
    "steelkilt": 10050,
    "Ġstove": 6736,
    "Ġanx": 3180,
    "linen": 25256,
    "Ġdeserve": 8310,
    "Ġporter": 15611,
    "just": 1699,
    "octial": 20006,
    "Ġbegging": 11082,
    "official": 24915,
    "mock": 5175,
    "crimson": 24092,
    "unting": 21875,
    "quished": 21849,
    "Ġhun": 1496,
    "iscient": 17851,
    "Ġsolve": 4196,
    "Ġuns": 15837,
    "lat": 9606,
    "ivities": 22078,
    "ieged": 22579,
    "brit": 19199,
    "Ġtyro": 16993,
    "Ġ37": 24083,
    "Ġoutwardly": 25000,
    "purp": 8092,
    "threadbare": 25988,
    "Ġbidirectional": 3756,
    "Ġsockets": 22086,
    "Ġlearned": 2023,
    "Ġassurances": 10003,
    "Ġbeings": 2488,
    "unreasonable": 18162,
    "Ġlived": 3990,
    "Ġassizes": 11110,
    "james": 15372,
    "Ġforbade": 15215,
    "Ġcogent": 14272,
    "iments": 4946,
    "dist": 4480,
    "Ġdepends": 1080,
    "Ġpink": 12620,
    "Ġbeseeching": 26310,
    "vering": 15717,
    "Ġantics": 24184,
    "Ġpirates": 9076,
    "Ġflow": 1238,
    "Ġhyena": 24522,
    "imony": 12692,
    "Ġcellar": 8060,
    "nihil": 9853,
    "Ġtrampled": 20329,
    "Ġgenerally": 4155,
    "Ġeffectually": 16168,
    "bol": 8722,
    "Ġmagnanim": 14469,
    "police": 10586,
    "Ġaugust": 10600,
    "soup": 21057,
    "Ġbl": 1190,
    "Ġfamiliar": 5512,
    "peculiarities": 13472,
    "Ġround": 1369,
    "Ġknot": 7014,
    "Ġentr": 14336,
    "Ġvictory": 16653,
    "Ġinvincible": 23483,
    "Ġjem": 18400,
    "testing": 12519,
    "Ġinnumerable": 13354,
    "iled": 1768,
    "particip": 23620,
    "Ġbump": 9661,
    "_)": 9105,
    "mother": 5481,
    "Ġpreprocess": 22234,
    "Ġinsists": 23683,
    "preserve": 25303,
    "Ġdeceitful": 25731,
    "ushed": 2973,
    "causing": 25518,
    "Ġpreposter": 12824,
    "Ġarrang": 2466,
    "Ġfalls": 14642,
    "Ġpuzzling": 14897,
    "Ġlavater": 20496,
    "Ġprograms": 7240,
    "Ġsupplies": 20327,
    "Ġsoo": 15861,
    "Ġlevel": 5021,
    "Ġsavagely": 26323,
    "Ġmoods": 14950,
    "amped": 12036,
    "iqu": 7804,
    "Ġ20": 8618,
    "Ġmeasureless": 14709,
    "kes": 3681,
    "Ġdarts": 16767,
    "Ġflooring": 23627,
    "peddling": 21030,
    "hill": 15362,
    "Ġreassure": 21672,
    "Ġafric": 8909,
    "Ġsumm": 3358,
    "har": 4519,
    "l": 80,
    "Ġlandless": 23382,
    "Ġdolphins": 20397,
    "ira": 3957,
    "readers": 23853,
    "Ġending": 18921,
    "Ġhereafter": 9332,
    "Ġfe": 489,
    "Ġinspirited": 23425,
    "isticated": 1534,
    "Ġmessage": 13522,
    "unt": 2041,
    "Ġsustain": 10020,
    "Ġforetold": 23454,
    "cape": 13697,
    "Ġmarine": 23034,
    "Ġplatform": 17133,
    "ques": 2842,
    "asable": 21540,
    "expectations": 24282,
    "rably": 21633,
    "icip": 6390,
    "affa": 23780,
    "promised": 12256,
    "Ġhimmale": 18332,
    "Ġelect": 10844,
    "Ġberth": 8684,
    "phology": 3009,
    "ily": 1029,
    "Ġfirmest": 16664,
    "Ġdiction": 8800,
    "Ġhatchway": 13524,
    "comprehend": 14358,
    "Ġcatch": 4440,
    "Ġwitnessed": 14843,
    "Ġfaultless": 24543,
    "girl": 12322,
    "ompl": 4536,
    "Ġlucy": 17969,
    "ceiving": 3903,
    "Ġsaf": 4001,
    "Ġdismally": 20215,
    "Ġhospital": 15039,
    "ledge": 1330,
    "rador": 19127,
    "Ġpolynes": 16080,
    "ched": 1547,
    "Ġallows": 3233,
    "Ġwax": 10778,
    "12": 20749,
    "newsp": 23136,
    "Ġfle": 3090,
    "chief": 4645,
    "ancing": 1762,
    "Ġflorida": 20659,
    "Ġheavier": 13105,
    "respond": 12547,
    "Ġbrilliancy": 20108,
    "throwing": 11706,
    "iosity": 2305,
    "Ġmiles": 3804,
    "ster": 1951,
    "Ġinco": 14258,
    "Ġprocedure": 2811,
    "Ġcruellest": 19659,
    "Ġliberty": 7763,
    "Ġdarker": 13122,
    "affection": 7489,
    "Ġtails": 9905,
    "tern": 4223,
    "Ġandromeda": 21507,
    "Ġfourteen": 12013,
    "Ġneskyeuna": 26459,
    "Ġcrowd": 6338,
    "Ġnodded": 11973,
    "hil": 8380,
    "Ġshrew": 22001,
    "Ġunwonted": 15007,
    "size": 15424,
    "named": 9893,
    "Ġdanish": 21431,
    "Ġreplen": 11117,
    "Ġfo": 1647,
    "Ġprairies": 20022,
    "Ġsatir": 18792,
    "lux": 14224,
    "Ġsavoury": 23882,
    "Ġmorris": 18848,
    "Ġtahiti": 13619,
    "uctive": 17696,
    "prep": 9762,
    "Ġheroes": 10579,
    "Ġrestrain": 8967,
    "vener": 21110,
    "oysius": 14368,
    "reinforcement": 7828,
    "Ġapr": 12535,
    "Ġcured": 21347,
    "Ġinsc": 7588,
    "Ġsprained": 15884,
    "Ġminut": 2203,
    "Ġplaned": 24060,
    "Ġbusiness": 2232,
    "Ġderivative": 3000,
    "Ġperem": 12934,
    "idled": 21769,
    "Ġclass": 791,
    "Ġheadlands": 22898,
    "Ġacquaintance": 4131,
    "expedition": 26077,
    "Ġchained": 16387,
    "gn": 8083,
    "Ġreservo": 16830,
    "Ġsoon": 1228,
    "aking": 978,
    "Ġunf": 4089,
    "actions": 8910,
    "Ġhing": 11606,
    "Ġglimpses": 13433,
    "Ġnaut": 13940,
    "taining": 7207,
    "Ġanchored": 17441,
    "Ġmitig": 1337,
    "playful": 24358,
    "Ġpand": 21453,
    "antingly": 22099,
    "orders": 12876,
    "Ġdoubting": 13102,
    "Ġimpotently": 22392,
    "bab": 11470,
    "Ġhelps": 9369,
    "Ġdesert": 6730,
    "Ġfact": 1728,
    "Ġattachment": 6050,
    "elled": 3992,
    "Ġerrors": 2597,
    "crown": 13698,
    "reel": 21233,
    "Ġamusement": 8057,
    "Ġtet": 21157,
    "Ġatone": 15803,
    "mixed": 17605,
    "become": 14244,
    "flukes": 25204,
    "urious": 21703,
    "Ġdoze": 14172,
    "personal": 24965,
    "Ġinnocence": 6478,
    "cused": 15331,
    "Ġhonor": 5665,
    "icant": 21561,
    "thoughts": 9938,
    "herent": 2528,
    "Ġbehoo": 19036,
    "Ġblueprints": 13173,
    "fashion": 8082,
    "Ġflattened": 26046,
    "Ġfruit": 12330,
    "Ġassemblage": 26352,
    "who": 2443,
    "restraint": 18977,
    "Ġ88": 19712,
    "dat": 1678,
    "Ġwalking": 4322,
    "Ġcumul": 4178,
    "growing": 13732,
    "Ġgive": 1713,
    "falsehood": 25900,
    "ordered": 8795,
    "Ġ1807": 26082,
    "Ġgeomet": 3190,
    "Ġconsume": 12960,
    "Ġtwo": 1040,
    "Ġambiguous": 20164,
    "Ġashes": 7619,
    "killing": 20940,
    "Ġrelieve": 8224,
    "Ġunrival": 22048,
    "Ġvacantly": 16814,
    "occupied": 12307,
    "Ġcam": 10164,
    "Ġital": 10868,
    "Ġflamingo": 15101,
    "n": 82,
    "Ġcolonel": 3409,
    "event": 8078,
    "Ġgpt": 4349,
    "behaviour": 11303,
    "Ġregent": 18595,
    "allows": 15908,
    "Ġbegin": 3097,
    "Ġbankers": 24307,
    "compared": 24038,
    "alid": 13934,
    "Ġreduced": 11927,
    "Ġpolicy": 10459,
    "Ġsherlock": 3893,
    "Ġplanned": 14751,
    "Ġointment": 21326,
    "Ġtimid": 6347,
    "Ġfinish": 7950,
    "Ġarrange": 3118,
    "Ġted": 13811,
    "Ġundertaking": 8578,
    "iarity": 8748,
    "Ġuniformity": 23487,
    "Ġspokes": 18311,
    "Ġspasmod": 12417,
    "worship": 19388,
    "Ġdisguises": 25057,
    "Ġemploys": 19432,
    "lected": 1632,
    "Ġcuff": 17829,
    "died": 11482,
    "Ġpalm": 10516,
    "Ġadopted": 15179,
    "Ġforebodings": 17306,
    "dart": 20826,
    "Ġcomput": 608,
    "Ġprognost": 15282,
    "Ġroughly": 17040,
    "Ą": 197,
    "Ġcircus": 19091,
    "Ġice": 3606,
    "Ġtransp": 4771,
    "Ġdecisions": 6705,
    "Ġsays": 3563,
    "atiously": 15521,
    "Ġledgers": 23943,
    "Ġrevered": 23739,
    "Ġtooth": 9194,
    "perils": 22188,
    "Ġlandsman": 11352,
    "sleeping": 13455,
    "acy": 3954,
    "Ġspeak": 2229,
    "Ġirr": 10423,
    "running": 6800,
    "copper": 19188,
    "fic": 20852,
    "Ġsignificant": 8638,
    "Ġsurrounding": 12167,
    "Ġsoftware": 18917,
    "bank": 10082,
    "Ġsettling": 11064,
    "caroline": 24155,
    "Ġinfall": 7961,
    "Ġmadame": 13152,
    "thinness": 25809,
    "Ġstur": 15718,
    "intended": 11068,
    "even": 3839,
    "prejud": 11799,
    "Ġfingers": 5673,
    "ild": 1153,
    "dep": 6789,
    "Ġdecency": 18487,
    "iest": 4036,
    "Ġnumer": 3642,
    "Ġflat": 8229,
    "bucket": 17494,
    "Ġexisted": 15754,
    "Ġcircumspect": 15084,
    "zors": 21147,
    "streets": 13397,
    "Ġcreditor": 24293,
    "Ġuncontrollable": 25813,
    "Ġimmensities": 25330,
    "====": 1483,
    "akin": 11770,
    "ky": 4520,
    "dually": 3285,
    "Ġdone": 1819,
    "ios": 2234,
    "magistrate": 19863,
    "Ġlounged": 19955,
    "bushes": 24450,
    "sho": 6426,
    "usive": 8191,
    "Ġpleasurable": 23343,
    "brace": 16941,
    "Ġtrembling": 7483,
    "Ġmac": 15538,
    "aks": 8510,
    "Ġsupply": 6067,
    "Ġfare": 5811,
    "Ġgoin": 18467,
    "ĠĠĠĠĠĠĠĠĠĠĠĠĠĠĠĠĠĠĠĠĠĠĠĠĠĠĠĠĠĠĠĠĠĠĠĠĠ": 14613,
    "Ġdictionaries": 12343,
    "problems": 11436,
    "Ġpencil": 11946,
    "Ġstayed": 7999,
    "Ġbade": 9173,
    "Ġdexterously": 25295,
    "ferences": 10329,
    "lessness": 5319,
    "elder": 21571,
    "betrayed": 24641,
    "owards": 4595,
    "Ġcorrection": 5063,
    "prop": 1031,
    "borean": 25742,
    "shelf": 20381,
    "Ġtime": 690,
    "D": 40,
    "Ġwood": 2289,
    "ances": 1338,
    "Ġsteals": 23085,
    "Ġconvulsive": 19307,
    "Ġsi": 21212,
    "Ġcoloss": 11047,
    "Ġmoderate": 10940,
    "Ġhundredth": 16518,
    "forming": 15918,
    "Ġdrown": 6817,
    "respectively": 24699,
    "convul": 24885,
    "Ġhappier": 10361,
    "fail": 17540,
    "Ġrights": 10399,
    "string": 15686,
    "Ġnewfound": 22933,
    "hog": 8381,
    "Ġstandards": 19018,
    "anke": 15561,
    "Ġret": 1380,
    "fixed": 7549,
    "iverse": 13118,
    "majesty": 26280,
    "Ġsinking": 7308,
    "Ġclouds": 5776,
    "Ġluckily": 16797,
    "Ġlevers": 18077,
    "Ġtype": 2019,
    "sitting": 8388,
    "burgh": 6775,
    "destruction": 11256,
    "nesday": 8707,
    "Ġservice": 6472,
    "innocent": 20287,
    "Ġcupidity": 24538,
    "herds": 22204,
    "glo": 8742,
    "Ġgn": 9679,
    "Ġsomebody": 7914,
    "nam": 2781,
    "Ġthickets": 24028,
    "Ġkrusenstern": 26377,
    "Ġtwilight": 16122,
    "etency": 21581,
    "Ġfurn": 3712,
    "alleled": 14427,
    "jaw": 13742,
    "teak": 22816,
    "igantic": 5540,
    "Ġfrontispiece": 23919,
    "mbling": 3348,
    "classification": 4386,
    "Ġprotect": 6339,
    "Ġgibberish": 25785,
    "someone": 14561,
    "Ġerrone": 14428,
    "latitude": 25258,
    "Ġconcert": 11970,
    "matter": 5137,
    "Ġmainten": 16114,
    "Ġneatness": 19933,
    "tt": 13789,
    "Ġdenied": 9003,
    "Ġconsulted": 13431,
    "help": 1479,
    "Ġdiscl": 9800,
    "Ġhow": 599,
    "rised": 10126,
    "Ġwounds": 17790,
    "groom": 8744,
    "Ġdifferen": 936,
    "oses": 3946,
    "Ġpir": 6819,
    "olly": 3224,
    "Ġmachine": 783,
    "incident": 14589,
    "Ġcoff": 3509,
    "Ġmorals": 22978,
    "ratulations": 20127,
    "Ġprivileged": 20114,
    "Ġsho": 2245,
    "col": 3101,
    "ex": 624,
    "Ġwithout": 1121,
    "Ġsaintsbury": 26372,
    "grim": 19106,
    "Ġhelplessly": 20079,
    "Ġhaving": 1882,
    "Ġes": 8774,
    "Ġreconcile": 25291,
    "Ġfailure": 13316,
    "Ġcreat": 1402,
    "Ġimprobable": 9798,
    "transform": 8051,
    "Ġdespairing": 14772,
    "Ġunthink": 18245,
    "private": 13582,
    "Ġinsure": 13180,
    "led": 579,
    "ingolstadt": 21303,
    "Ġgouldings": 26187,
    "Ġpicture": 4857,
    "Ġfer": 5530,
    "Ġsecurity": 8980,
    "Ġstuck": 9222,
    "ominy": 13980,
    "Ġtransparency": 10679,
    "aways": 15311,
    "plete": 10921,
    "Ġsailing": 5325,
    "clothes": 9060,
    "among": 6258,
    "loom": 18534,
    "Ġthrees": 23404,
    "Ġgrated": 22805,
    "fts": 18694,
    "Ġpriv": 4181,
    "irited": 15788,
    "Ġadvantageously": 19546,
    "Ġintensity": 10019,
    "Ġbrawn": 10484,
    "Ġbuzz": 24002,
    "Ġlithe": 24669,
    "circ": 4387,
    "Ġsunda": 13543,
    "Ġgrave": 5100,
    "Ġpar": 456,
    "relation": 19448,
    "Ġchains": 8252,
    "Ġabusive": 22274,
    "Ġsmallest": 6431,
    "ells": 5306,
    "sch": 21049,
    "disappointment": 11427,
    "Ġfrom": 434,
    "forgotten": 12419,
    "Ġ86": 24464,
    "Ġsaturday": 6453,
    "mit": 4935,
    "Ġpalace": 16688,
    "Ġremain": 1875,
    "highly": 24763,
    "Ġinfluence": 5516,
    "Ġshreds": 12772,
    "Ġyaw": 18094,
    "izabeth": 908,
    "urning": 12919,
    "Ġknew": 2053,
    "Ġbapt": 13895,
    "lob": 22507,
    "uzzle": 19584,
    "Ġremembr": 24176,
    "Ġtrance": 12841,
    "Ġextended": 7926,
    "Ġprocedures": 9415,
    "irements": 22213,
    "Ġcottagers": 6763,
    "Ġbery": 13897,
    "shapes": 22453,
    "igning": 12683,
    "ational": 5717,
    "tumbled": 21089,
    "Ġheed": 5631,
    "ificent": 8185,
    "orte": 14182,
    "Ġprecipitate": 19943,
    "Ġfireboard": 23537,
    "grave": 16095,
    "Ġunreason": 15843,
    "Ġswarming": 16272,
    "Ġmarvellous": 7540,
    "Ġbust": 10170,
    "Ġwra": 5906,
    "extracts": 22772,
    "eenth": 12464,
    "Ġelbow": 12923,
    "Ġhonoured": 9884,
    "thoroughly": 26509,
    "Ġproc": 5546,
    "Ġonly": 790,
    "Ġmutinous": 23963,
    "Ġpredicts": 2595,
    "Ġserving": 14482,
    "Ġflaw": 23013,
    "sil": 5284,
    "Ġreverber": 19869,
    "Ġguinea": 8950,
    "perceived": 8862,
    "patched": 17643,
    "leisure": 21371,
    "contains": 16031,
    "Ġcalculated": 4475,
    "Ġsnuffed": 15072,
    "manif": 14371,
    "Ġsimon": 5173,
    "prosperity": 20735,
    "Ġponderous": 8356,
    "Ġother": 759,
    "Ġinforming": 18741,
    "cele": 21625,
    "Ġemergencies": 17363,
    "Ġbacking": 16118,
    "Ġmariner": 7248,
    "Ġpenalty": 1842,
    "Ġvertu": 23895,
    "Ġoppressive": 20456,
    "uesday": 8591,
    "tinted": 17683,
    "Ġnarrations": 24355,
    "simple": 13453,
    "stayed": 25290,
    "claim": 9838,
    "compliment": 11366,
    "Ġpron": 6452,
    "estation": 15923,
    "Ġprinciples": 10014,
    "Ġaffront": 18785,
    "Ġentry": 11028,
    "Ġpronouncing": 16968,
    "Ġfrantically": 23259,
    "argue": 21443,
    "bouton": 17502,
    "wards": 1275,
    "useful": 16502,
    "Ġmun": 12565,
    "Ġspouting": 9442,
    "agery": 21908,
    "Ġmans": 15536,
    "Ġvisiting": 10363,
    "Ġandrew": 21506,
    "berish": 22745,
    "stocks": 23826,
    "Ġspar": 10923,
    "henomen": 10497,
    "Ġenemies": 9041,
    "id": 338,
    "Ġresist": 7918,
    "Ġreview": 18030,
    "Ġcovariate": 2350,
    "whatever": 6697,
    "Ġcrucial": 9896,
    "Ġraises": 11848,
    "Ġbier": 22765,
    "Ġdinnertime": 16718,
    "Ġconsumed": 10352,
    "Ġschools": 9480,
    "Ġburns": 16522,
    "Ġsprout": 24094,
    "teen": 6371,
    "Ġchorus": 10948,
    "Ġneedlessly": 23633,
    "Ġnought": 21521,
    "promising": 24725,
    "incom": 21181,
    "Ġballasted": 23985,
    "oundering": 11749,
    "Ġwatchman": 23672,
    "Ġarisen": 11746,
    "Ġincorporate": 20455,
    "Ġdevoid": 18678,
    "Ġperformer": 18754,
    "Ġscrupled": 25051,
    "Ġamaze": 22484,
    "Ġ181": 23901,
    "Ġlanguor": 12849,
    "banish": 20782,
    "Ġcannibals": 10590,
    "Ġresource": 10995,
    "authority": 13591,
    "resnet": 4069,
    "Ġpret": 3037,
    "Ġdisput": 14253,
    "Ġquarter": 3975,
    "Ġliterally": 15117,
    "Ġof": 298,
    "Ġ235": 25710,
    "Ġfathom": 17048,
    "etuous": 21582,
    "Ġtearless": 24786,
    "Ġconvenient": 8347,
    "Ġholy": 6593,
    "Ġdescribe": 2768,
    "Ġwoof": 14720,
    "Ġuniversally": 12003,
    "Ġdebts": 8037,
    "kick": 20934,
    "Ġapothecary": 13659,
    "Ġkindred": 16377,
    "ugn": 9380,
    "Ġgrooves": 16740,
    "Ġminiatures": 20322,
    "pha": 22756,
    "know": 2318,
    "leather": 13889,
    "equ": 6793,
    "sex": 12715,
    "feet": 6570,
    "Ġhumorously": 18776,
    "torm": 11532,
    "Ġrelevance": 5185,
    "revenge": 13841,
    "hob": 20899,
    "Ġcondesc": 7183,
    "Ġbasic": 24700,
    "Ġspoilt": 24805,
    "imperturbable": 25789,
    "ipt": 12482,
    "ourable": 4968,
    "Ġtalent": 12300,
    "Ġto": 297,
    "hastening": 24451,
    "Ġpantheistic": 26335,
    "Ġsane": 21221,
    "land": 1530,
    "Ġproduct": 3535,
    "Ġeasterly": 25961,
    "Ġenvirons": 13189,
    "happiest": 19329,
    "ece": 17531,
    "Ġadded": 2718,
    "consolatory": 25306,
    "Ġperplexity": 2757,
    "Ġcomparison": 7102,
    "ice": 589,
    "reduced": 15806,
    "ercely": 12553,
    "deadly": 17100,
    "Ġtor": 8107,
    ".--": 20746,
    "maid": 8556,
    "crimes": 16683,
    "roded": 17955,
    "allet": 11085,
    "Ġsunk": 5753,
    "hedge": 22500,
    "Ġdiving": 12604,
    "Ġpour": 13914,
    "fly": 13713,
    "Ġriggers": 24162,
    "Ġpence": 17904,
    "inguish": 9400,
    "Ġgloom": 4201,
    "Ġ119": 24444,
    "Ġbold": 5294,
    "Ġprovided": 6579,
    "mannered": 22850,
    "Ġleaping": 8342,
    "Ġsprung": 11249,
    "Ġidentity": 2523,
    "proves": 23397,
    "orange": 21400,
    "Ġpresum": 4838,
    "Ġtarpaulin": 26156,
    "rain": 461,
    "Ġlomb": 21558,
    "Ġash": 4833,
    "Ġwhich": 503,
    "Ġpretending": 19315,
    "Ġrequisite": 18624,
    "Ġglitter": 25126,
    "Ġbrack": 23841,
    "wing": 2517,
    "Ġnational": 13941,
    "Ġmbpp": 21322,
    "Ġriddle": 14819,
    "heartily": 24221,
    "urns": 10216,
    "nothing": 3153,
    "Ġmates": 4874,
    "Ġwork": 1341,
    "ffy": 18315,
    "Ġdeliverer": 11953,
    "Ġmaintenance": 17462,
    "Ġtwos": 18655,
    "Ġig": 3503,
    "Ġremote": 8923,
    "Ġmiserable": 3637,
    "eager": 12463,
    "emotion": 21931,
    "Ġconstitutes": 13552,
    "Ġunre": 3480,
    "Ġexaggerated": 25649,
    "Ġcongratulate": 9066,
    "Ġprosecut": 9701,
    "Ġprevention": 16092,
    "Ġlizard": 12656,
    "eight": 9593,
    "mortar": 25408,
    "apart": 15962,
    "wanted": 10745,
    "Ġanxious": 4517,
    "Ġcord": 5223,
    "simp": 17665,
    "Ġobey": 9522,
    "Ġportraits": 20142,
    "jee": 17579,
    "isons": 17849,
    "Ġpromoting": 3160,
    "Ħ": 231,
    "Ġblunt": 11897,
    "Ġadjusts": 8983,
    "Ġfills": 12597,
    "Ġdeliriously": 23229,
    "Ġcommunication": 1872,
    "Ġaccident": 5381,
    "Ġbor": 5806,
    "Ġencapsulate": 13674,
    "Ġdiggings": 24650,
    "inite": 6002,
    "Ġappertain": 22218,
    "Ġbeen": 627,
    "ivory": 10271,
    "Ġsmothered": 20720,
    "Ġenorm": 5305,
    "Ġmeasured": 9807,
    "Ġpope": 11603,
    "Ġdestruction": 6602,
    "recklessly": 25268,
    "matic": 4619,
    "Ġexpand": 9309,
    "Ġmitigating": 1615,
    "batt": 20778,
    "Ġtradesman": 20074,
    "Ġche": 1766,
    "Ġroar": 9755,
    "inn": 5365,
    "inkled": 5478,
    "Ġslugg": 15269,
    "Ġdiminished": 16665,
    "Ġencl": 16167,
    "beth": 13688,
    "Ġuncommon": 5027,
    "Ġancles": 21445,
    "ief": 2043,
    "aste": 4602,
    "Ġbehooves": 20733,
    "express": 4897,
    "Ġdiary": 24738,
    "Ġban": 7158,
    "Ġintegrity": 12317,
    "Ġpropontis": 17466,
    "Ġinterlacing": 22578,
    "Ġtreatise": 19346,
    "swallowed": 14852,
    "Ġskip": 1846,
    "Ġfeeble": 12288,
    "further": 7537,
    "Ġclustered": 25232,
    "Ġdisappo": 4505,
    "forgetting": 25485,
    "soever": 11862,
    "Ġslices": 23166,
    "Ġeveryone": 8921,
    "³": 116,
    "Ġmastery": 23998,
    "maritime": 24179,
    "heavens": 19746,
    "subtle": 24249,
    "hee": 10762,
    "saved": 15430,
    "fth": 20856,
    "Ġnor": 1552,
    "Ġcheerless": 16692,
    "í": 174,
    "Ġexpectations": 13145,
    "Ġprivileges": 25135,
    "Ġproductions": 22947,
    "ĠcÃ¦": 15555,
    "Ġasiatic": 20431,
    "claps": 23154,
    "Ġimpulses": 19963,
    "Ġeast": 5371,
    "tale": 10130,
    "Ġunlabeled": 3800,
    "Ġrav": 14303,
    "Ġguido": 2979,
    "icial": 12657,
    "Ġinfle": 16365,
    "Ġcarpet": 9358,
    "Ġgard": 2187,
    "huzza": 20911,
    "Ġadmiral": 17307,
    "Ġtranquo": 14842,
    "Ġrhyme": 21982,
    "Ġskirts": 14350,
    "Ġgree": 7597,
    "Ġrapture": 13496,
    "Ġcensure": 15095,
    "Ġhighly": 4845,
    "Ġpulling": 5864,
    "Ġplanets": 24061,
    "Ġpeaceable": 14722,
    "Ġbegrim": 23018,
    "Ġengine": 1919,
    "Ġcreates": 2009,
    "Ġfault": 5703,
    "quohog": 21853,
    "Ġreadability": 2727,
    "Ġprofounder": 23573,
    "Ġfulfilment": 20187,
    "complaisance": 24809,
    "Ġparticulars": 5755,
    "Ġthack": 21516,
    "Ġbustle": 17229,
    "ogr": 18670,
    "Ġfrost": 6096,
    "Ġblurred": 22932,
    "Ġmcc": 21306,
    "fiend": 13661,
    "arial": 5533,
    "deal": 12801,
    "rib": 1945,
    "Ġbowled": 23773,
    "Ġadmirably": 16480,
    "meeting": 11019,
    "taken": 7562,
    "Ġlun": 7858,
    "contriv": 19293,
    "Ġ79": 24270,
    "Ġunche": 23433,
    "Ġadjac": 18290,
    "Ġfrolic": 23930,
    "Ġtones": 8402,
    "½": 126,
    "Ġencamp": 22802,
    "Ġpresented": 5184,
    "Ġredness": 19312,
    "Ġbackpropagation": 1252,
    "!_âĢĶ": 19974,
    "ption": 7398,
    "Ġwan": 15527,
    "ortunities": 15941,
    "Ġsupernatural": 9876,
    "Ġprofanely": 23574,
    "Ġfishers": 19355,
    "Ġbullion": 24985,
    "host": 5869,
    "Ġamends": 14243,
    "Ġpennies": 17272,
    "Ġcor": 1323,
    "itement": 7837,
    "Ġmercy": 9001,
    "Ġsunken": 14490,
    "Ġfall": 2989,
    "Ġintervene": 25480,
    "Ġmovements": 24360,
    "Ġbridal": 14953,
    "Ġprem": 3428,
    "baboon": 25516,
    "fere": 10991,
    "Ġtribe": 10753,
    "secondly": 16983,
    "Ġfasting": 16356,
    "Ġtechniques": 2868,
    "Ġanalogical": 25639,
    "Ġimpregn": 26021,
    "Ġpagoda": 19789,
    "voc": 8395,
    "waited": 24586,
    "deepest": 22849,
    "Ġhypocritical": 20738,
    "insanity": 23069,
    "tremble": 17143,
    "Ġtubs": 11372,
    "Ġtru": 4105,
    "umst": 2502,
    "Ġecho": 12668,
    "Ġdress": 4020,
    "Ġeuroc": 14958,
    "deployment": 26528,
    "Ġstarlight": 24627,
    "Ġcarter": 18899,
    "rew": 3652,
    "arians": 18524,
    "Ġpartake": 18668,
    "mccarthy": 15394,
    "Ġanimal": 2497,
    "Ġcivilities": 14847,
    "Ġadroop": 26000,
    "sle": 9140,
    "Ġiii": 7863,
    "Ġ1778": 25728,
    "Ġelix": 22645,
    "Ġjost": 23634,
    "Ġbrawny": 13613,
    "mes": 1197,
    "Ġryder": 10262,
    "Ġgrate": 12966,
    "Ġquitted": 5313,
    "Ġsolemnity": 9944,
    "steps": 9408,
    "prophet": 16179,
    "humoredly": 26324,
    "operations": 19976,
    "Ġhypothesis": 14782,
    "Ġgods": 6455,
    "ithing": 11651,
    "apable": 6423,
    "Ġwaistcoat": 12275,
    "miserable": 8661,
    "Ġradney": 6777,
    "Ġmutable": 23960,
    "Ġcruisings": 25863,
    "professor": 17251,
    "Ġclassical": 22633,
    "wont": 21131,
    "Ġalongside": 6313,
    "Ġcrime": 4617,
    "Ġunden": 22014,
    "ptic": 21919,
    "Ġdeceit": 13482,
    "antee": 22098,
    "Ġindelicacy": 25694,
    "Ġhurts": 19111,
    "Ġhysterics": 26092,
    "Ġminutest": 14557,
    "Ġinform": 1000,
    "orney": 17873,
    "Ġmedical": 9473,
    "Ġcomprising": 16069,
    "Ġalms": 21781,
    "ocations": 23712,
    "Ġbespe": 19242,
    "hever": 13830,
    "garnished": 26388,
    "Ġfainting": 16896,
    "ribbed": 16411,
    "Ġtrap": 7674,
    "Ġentertained": 10001,
    "Ġlic": 8438,
    "considerably": 13446,
    "Ġlances": 6986,
    "Ġupdates": 1300,
    "resemblance": 25932,
    "Ġrandomly": 1920,
    "Ġsubsided": 14547,
    "Ġinsp": 2099,
    "Ġlearnt": 7614,
    "aware": 16295,
    "Ġecstasy": 11632,
    "Ġcaring": 23093,
    "Ġreluct": 14370,
    "Ġaccidents": 10298,
    "Ġsymmetrical": 20367,
    "Ġinvest": 4979,
    "strils": 10460,
    "Ġmotives": 7488,
    "Ġchallenge": 25471,
    "Ġright": 1504,
    "Ġhermit": 15858,
    "Ġinsolent": 13600,
    "blubber": 15237,
    "Ġruns": 8599,
    "Ġstar": 6023,
    "Ġinnocent": 4923,
    "lamp": 9610,
    "Ġheav": 1853,
    "relations": 14732,
    "market": 16838,
    "Ġlim": 2379,
    "ulance": 15768,
    "ges": 2875,
    "Ġoutlined": 22321,
    "painted": 17639,
    "Ġdoub": 1837,
    "ishments": 9275,
    "wrinkled": 16553,
    "hateful": 20907,
    "Ġsidelong": 11440,
    "Ġpapered": 20132,
    "Ġshabby": 14109,
    "Ġaback": 22267,
    "architect": 22894,
    "Ġmetaphysical": 26068,
    "ighbour": 3390,
    "Ġshocked": 9404,
    "Ġservant": 5765,
    "Ġsyntax": 957,
    "bless": 22313,
    "ascertain": 21542,
    "imet": 21706,
    "velled": 9879,
    "ashes": 6016,
    "Ġweak": 5098,
    "Ġblacksmiths": 19873,
    "Ġxi": 16429,
    "Ġcoer": 22580,
    "aples": 20768,
    "suitable": 18631,
    "Ġac": 846,
    "Ġsurp": 9636,
    "Ġcabaco": 13169,
    "roses": 17956,
    "Ġpersons": 6180,
    "Ġmurmured": 7482,
    "naturalists": 23528,
    "Ġavalanche": 17434,
    "Ġplowdon": 26447,
    "unavoidable": 17391,
    "strom": 15684,
    "cket": 3690,
    "Ġsame": 1343,
    "Ġwherein": 14294,
    "playing": 19658,
    "paid": 15413,
    "entire": 6825,
    "loun": 17588,
    "Ġdrunken": 12053,
    "Ġmilk": 6486,
    "Ġpunctures": 25136,
    "Ġconsum": 9802,
    "Ġaffecting": 2323,
    "iloquent": 21726,
    "pagan": 17287,
    "Ġviewing": 19264,
    "Ġimprecations": 25819,
    "youngest": 19744,
    "Ġhousekeeping": 18943,
    "tan": 4743,
    "olstad": 7615,
    "Ġsubterraneous": 20266,
    "\"]": 17471,
    "Ġmatrimonial": 25489,
    "itous": 13866,
    "Ġworkman": 16271,
    "Ġresolutely": 14607,
    "Ġdivulged": 16648,
    "Ġuncovered": 23436,
    "Ġbub": 8119,
    "Ġbelieved": 4367,
    "Ġdesertion": 24787,
    "Ġforts": 21773,
    "Ġamusements": 16912,
    "own": 746,
    "Ġtrains": 10949,
    "Ġreappearance": 21667,
    "ccarthy": 4891,
    "Ġantichronical": 26610,
    "attle": 4466,
    "Ġdusky": 13549,
    "iates": 13736,
    "omet": 3075,
    "uttering": 12664,
    "Ġcomposed": 8896,
    "superst": 11327,
    "Ġoffences": 18689,
    "tfordshire": 4811,
    "stache": 15690,
    "rimin": 2420,
    "Ġluckless": 16796,
    "prick": 19344,
    "escript": 18469,
    "Ġpiratical": 24799,
    "asis": 12652,
    "fright": 9597,
    "Ġ111": 24439,
    "iloqu": 11650,
    "Ġpaintings": 15054,
    "Ġemper": 9864,
    "ĠcÃ¦sar": 20581,
    "tide": 11534,
    "Ġencourage": 10383,
    "este": 15922,
    "Ġcongealed": 25980,
    "Ġshadowed": 24050,
    "Ġclearer": 16312,
    "Ġwire": 13851,
    "Ġconclusion": 5986,
    "Ġtep": 21161,
    "Ġromantic": 8032,
    "Ġmantel": 11441,
    "there": 1425,
    "Ġblood": 3167,
    "Ġhours": 2821,
    "fell": 6954,
    "Ġender": 11693,
    "ineffectual": 26505,
    "ldog": 21918,
    "Ġdungeon": 16995,
    "Ġburnt": 9931,
    "Ġslim": 18936,
    "iple": 4806,
    "Ġinevitably": 17232,
    "Ġboth": 1652,
    "Ġnonce": 23233,
    "accidents": 19213,
    "Ġ1869": 19385,
    "fulfil": 16042,
    "Ġuniform": 2226,
    "Ġleagues": 9225,
    "iem": 20915,
    "insufficient": 15488,
    "Ġsleek": 23387,
    "west": 10741,
    "Ġswim": 3822,
    "shaped": 10311,
    "pondicherry": 26400,
    "Ġsituations": 10494,
    "tstone": 21083,
    "Ġpale": 4532,
    "Ġtraffic": 23084,
    "countryman": 24640,
    "hue": 20898,
    "Ġvit": 10248,
    "Ġagonized": 25372,
    "country": 6104,
    "Ġmodes": 22222,
    "prodig": 16426,
    "tland": 21072,
    "Ġmountainous": 16598,
    "Ġfrankenstein": 7098,
    "alas": 8809,
    "Ġportion": 7494,
    "Ġpole": 6434,
    "utting": 17984,
    "Ġkicking": 16900,
    "Ġalmighty": 18104,
    "inaw": 21183,
    "aries": 6246,
    "Ġreserve": 9974,
    "Ġineffectual": 17385,
    "Ġcontr": 1915,
    "aurus": 20561,
    "Ġdragon": 14943,
    "Ġtiller": 8968,
    "Ć": 199,
    "oak": 21001,
    "Ġmol": 12564,
    "Ġfeatures": 1433,
    "Ġtusked": 25426,
    "Ġinvaders": 23484,
    "commend": 19994,
    "Ġvaulted": 25169,
    "Ġumb": 11648,
    "interrupt": 8620,
    "hanging": 10103,
    "Ġdelic": 4132,
    "Ġwretchedly": 19507,
    "Ġinvari": 6530,
    "venor": 16101,
    "Ġweltering": 19586,
    "cannon": 22965,
    "Ġbaleful": 24984,
    "tram": 19644,
    "Ġlibraries": 20615,
    "Ġices": 21154,
    "especially": 3573,
    "Ġceremonious": 24839,
    "Ġventure": 7741,
    "Ġmilitary": 11260,
    "rible": 3227,
    "pockets": 16211,
    "Ġprovince": 24195,
    "bureau": 20789,
    "vital": 17700,
    "Ġtrained": 8505,
    "Ġpart": 859,
    "osh": 18386,
    "offers": 16394,
    "this": 1440,
    "flow": 2286,
    "Ġcontinents": 16848,
    "Ġfundamental": 3015,
    "Ġlobsters": 13516,
    "Ġprolonged": 8359,
    "stars": 18016,
    "Ġindians": 14409,
    "Ġdistressed": 8518,
    "jol": 20923,
    "existence": 16015,
    "Ġfree": 3377,
    "Ġsternly": 16714,
    "hur": 6651,
    "Ġincompetent": 25678,
    "without": 4847,
    "Ġdie": 3961,
    "Ġvect": 1225,
    "Ġinde": 7372,
    "Ġactor": 16050,
    "Ġdames": 23477,
    "wives": 15454,
    "Ġpresto": 22231,
    "Ġsauce": 15890,
    "sullenly": 26148,
    "Ġoblique": 20169,
    "avoid": 9301,
    "stamp": 21648,
    "roused": 16652,
    "ernal": 4311,
    "Ġdead": 2170,
    "foam": 24421,
    "Ġrending": 19468,
    "Ġlifelessly": 23051,
    "merit": 19281,
    "Ġpantry": 20296,
    "Ġthemselves": 3254,
    "Ġwilds": 16508,
    "Ġinhaled": 25451,
    "Ġjewelled": 20183,
    "wicked": 24452,
    "Ġhearty": 9849,
    "burst": 10540,
    "Ġpitiless": 19389,
    "Ġcrept": 11023,
    "Ġcask": 5528,
    "atical": 10773,
    "ĠĠĠĠĠĠĠĠĠĠĠĠĠĠĠĠĠĠĠĠĠĠĠĠĠĠĠĠĠĠĠĠĠĠĠĠĠĠĠĠĠĠĠĠĠĠĠĠ": 7990,
    "Ġbestir": 13112,
    "icles": 17972,
    "ĠĠĠĠĠĠĠĠĠĠĠĠĠĠĠĠĠĠĠĠĠĠĠĠĠĠĠĠĠĠ": 24446,
    "Ġapple": 14165,
    "Ġpartial": 2128,
    "Ġaffect": 1384,
    "Ġsacr": 7195,
    "stri": 6250,
    "Ġwrongfully": 24254,
    "ę": 218,
    "Ġaffectionate": 5586,
    "Ġprestige": 22237,
    "whom": 8186,
    "regular": 3043,
    "Ġsolutions": 1946,
    "treated": 21093,
    "yt": 17711,
    "Ġsuddenness": 23385,
    "Ġaffected": 5578,
    "Ġwoes": 23991,
    "Ġprying": 15609,
    "Ġmingled": 12380,
    "Ġbills": 17860,
    "Ġcourses": 10415,
    "Ġpity": 4942,
    "erc": 5905,
    "Ġevenings": 18752,
    "Ġheathen": 10568,
    "skin": 10571,
    "Ġnominally": 17233,
    "Ġdaresay": 14703,
    "omen": 4085,
    "Ġcomprehensive": 15087,
    "Ġausten": 5882,
    "Ġenticing": 22743,
    "Ġhoars": 19077,
    "dock": 16418,
    "urmountable": 15280,
    "Ġfiled": 15580,
    "Ġthing": 1635,
    "Ġinquirer": 24963,
    "Ġsaving": 15887,
    "Ġilliter": 23472,
    "Ġcorrespondence": 10597,
    "denial": 18715,
    "Ġremorse": 6442,
    "Ġcandelabra": 26603,
    "Ġwithin": 2162,
    "ieve": 1655,
    "Ġrings": 11704,
    "charitable": 23938,
    "Ġrio": 23896,
    "Ġunheeded": 18259,
    "Ġadro": 15868,
    "Ġresp": 2492,
    "Ġwindow": 2998,
    "Ġfilthy": 13250,
    "Ġswash": 23056,
    "delightful": 12201,
    "scra": 13024,
    "sisters": 13378,
    "Ġcommodore": 12398,
    "Ġca": 21339,
    "eze": 20847,
    "manned": 18760,
    "Ġra": 812,
    "Ġdart": 4586,
    "Ġgeor": 3389,
    "Ġpalaces": 24097,
    "Ġabsorbing": 17130,
    "separated": 20159,
    "oquent": 12502,
    "Ġlogical": 14483,
    "uniform": 18157,
    "elevating": 20407,
    "Ġbravest": 23846,
    "Ġtestament": 23227,
    "sink": 11523,
    "Ġinsinuating": 19271,
    "crews": 15041,
    "Ġdeductions": 19734,
    "Ġoccurrence": 14380,
    "Ġretreats": 16927,
    "Ġvoices": 7878,
    "Ġpatagonian": 20534,
    "Ġmaz": 15542,
    "Ġintrospective": 20601,
    "Ġethiopian": 26614,
    "Ġexceptionable": 25503,
    "Ġmostly": 7666,
    "puzzling": 26142,
    "itance": 13867,
    "Ġdrawer": 13267,
    "Ġsublimity": 26346,
    "Ġlets": 18076,
    "Ġrefinement": 18700,
    "absence": 12710,
    "comfort": 5648,
    "Ġrejoined": 14926,
    "rapt": 13971,
    "ilburn": 18059,
    "Ġpredef": 18514,
    "bowsprit": 16852,
    "Ġindic": 2888,
    "Ġ27": 8619,
    "Ġinstructed": 19284,
    "Ġsavannah": 17417,
    "Ġreigning": 15702,
    "Ġthickest": 16654,
    "mut": 17595,
    "Ġbohemia": 10652,
    "Ġferule": 24502,
    "Ġearly": 2078,
    "adding": 21762,
    "Ġyouth": 4261,
    "Ġkindest": 23298,
    "tawny": 26404,
    "Ġboarded": 13236,
    "rants": 13777,
    "Ġguardianship": 17421,
    "librarian": 26569,
    "Ġgrat": 4056,
    "shire": 3022,
    "lest": 5291,
    "Ġepis": 19983,
    "estate": 12822,
    "Ġsentimental": 24753,
    "imly": 12689,
    "Ġprimal": 17107,
    "comput": 1980,
    "Ġsecretary": 19443,
    "Ġgait": 13333,
    "Ġradiating": 24334,
    "otted": 14022,
    "aceti": 7114,
    "Ġdistinctions": 18531,
    "Ġhearken": 21685,
    "fleet": 15013,
    "Ġindia": 10373,
    "Ġxxii": 24481,
    "backpropagation": 11989,
    "buncle": 13692,
    "iantly": 13738,
    "Ġpostscript": 14807,
    "ulatory": 15769,
    "Ġoscillations": 2899,
    "alarms": 21504,
    "Ġappend": 18358,
    "employed": 17263,
    "Ġbar": 3147,
    "Ġsuperlative": 26073,
    "irresist": 21913,
    "Ġworth": 4415,
    "Ġsurmount": 20002,
    "society": 9975,
    "Ġappet": 9734,
    "================================": 5672,
    "Ġfreckled": 18958,
    "abomin": 15743,
    "vess": 7355,
    "Ġrelate": 6876,
    "icilian": 20692,
    "Ġflush": 14422,
    "etting": 21579,
    "treatment": 20413,
    "attacked": 23122,
    "alluring": 18350,
    "Ġprincipal": 6497,
    "Ġrejecting": 17051,
    "Ġcusack": 26433,
    "Ġconfidence": 6592,
    "Ġjacobians": 2894,
    "useless": 14592,
    "Ġscales": 4850,
    "Ġshoreless": 24298,
    "Ġprobabilities": 4967,
    "ulates": 14053,
    "Ġproble": 1109,
    "madam": 24424,
    "ihood": 20920,
    "Ġarrangements": 16515,
    "Ġsto": 1499,
    "ather": 739,
    "Ġveter": 15812,
    "Ġhom": 9188,
    "Ġbeer": 10222,
    "Ġinconsistency": 26182,
    "Ġgentlemen": 3646,
    "companions": 15023,
    "oided": 11510,
    "lights": 13207,
    "Ġabandoned": 8353,
    "err": 1141,
    "connections": 14426,
    "Ġsplin": 8623,
    "liberal": 26281,
    "ĠĠĠĠĠĠĠĠĠĠĠĠĠĠĠĠĠĠĠĠĠĠĠĠĠĠĠĠĠĠĠĠĠĠĠĠĠĠĠ": 19259,
    "concerned": 24639,
    "Ġpursuing": 9441,
    "tossed": 10999,
    "anc": 6380,
    "Ġzones": 22820,
    "Ġpaces": 13919,
    "Ġprompted": 23822,
    "Ġattempt": 3488,
    "adopt": 25544,
    "Ġgodson": 23361,
    "Ġperforming": 7930,
    "Ġconfined": 7466,
    "pacific": 17641,
    "nament": 11509,
    "Ġbedford": 7477,
    "Ġweedy": 15794,
    "Ġdatasets": 2388,
    "Ġcollectively": 19969,
    "Ġsings": 15504,
    "Ġcontextually": 11962,
    "acknowled": 10976,
    "Ġtransports": 24283,
    "mas": 5213,
    "Ġwashing": 9708,
    "Ġenabled": 9298,
    "therefore": 5954,
    "Ġinsolence": 20254,
    "Ġcities": 17827,
    "Ġdeception": 18139,
    "Ġteacher": 22916,
    "Ġconsisting": 8974,
    "Ġpercept": 14221,
    "Ġabridged": 26541,
    "Ġdeliverance": 15158,
    "Ġpref": 14169,
    "Ġmould": 6520,
    "Ġwitt": 17783,
    "ility": 625,
    "Ġcobbler": 25829,
    "È": 137,
    "Ġdrawback": 23995,
    "Ġrhone": 25229,
    "Ġremnants": 22794,
    "imin": 1772,
    "Ġafterwards": 3532,
    "bringing": 17168,
    "Ġsuspense": 9421,
    "Ġnibbling": 17386,
    "Ġreck": 6539,
    "Ġdecidedly": 9512,
    "Ġ1894": 5197,
    "gratification": 24351,
    "Ġtumbling": 13824,
    "Ġacknowled": 6352,
    "Ġberg": 24539,
    "Ġse": 401,
    "Ġpolynesian": 26025,
    "Ġcamel": 25349,
    "Ġrendered": 5774,
    "Ġiceland": 15147,
    "Ġsurvivors": 25730,
    "gled": 10701,
    "excitement": 19670,
    "Ġthames": 13937,
    "results": 20387,
    "Ġcharm": 4548,
    "Ġcaliforn": 14429,
    "Ġobstacle": 16954,
    "yingly": 23061,
    "eminence": 20100,
    "Ġinvaluable": 10185,
    "Ġredeem": 20501,
    "Ġensemble": 1607,
    "Ġuncouth": 14546,
    "ourage": 2448,
    "rushed": 10587,
    "Ġshutter": 16670,
    "shaken": 16022,
    "arts": 6565,
    "abern": 21791,
    "Ġcommun": 1706,
    "Ġchocks": 13348,
    "presents": 18795,
    "Ġscandal": 9084,
    "Ġdirection": 1795,
    "Ġsavages": 9915,
    "wholly": 10943,
    "Ġhelper": 24031,
    "plenty": 14089,
    "Ġcha": 6854,
    "determination": 19946,
    "Ġcalculus": 23988,
    "belief": 13283,
    "Ġwandered": 6931,
    "Ġmild": 4145,
    "Ġinvited": 6904,
    "Ġscreen": 17207,
    "Ġlimped": 19181,
    "Ġrules": 1918,
    "msprop": 2625,
    "Ġmississ": 18837,
    "Ġfacility": 19850,
    "Ġrisks": 9967,
    "standard": 22428,
    "Ġresolving": 9422,
    "conditionally": 24836,
    "voyages": 24857,
    "Ġunmanufactured": 20435,
    "Ġports": 10820,
    "Ġdisconsolate": 20719,
    "treasures": 26151,
    "inev": 21966,
    "Ġburn": 3686,
    "Ġroads": 13290,
    "Ġvulgarity": 25363,
    "Ġretrie": 10385,
    "Ġpeculiarly": 8288,
    "Ġsolicited": 20038,
    "infant": 19828,
    "Ġbristling": 20528,
    "smooth": 20249,
    "Ġspleen": 26421,
    "Ġpreacher": 18367,
    "Ġpatroness": 13509,
    "service": 15036,
    "Ġdejection": 15197,
    "Ġdrop": 4343,
    "assisted": 22308,
    "instrument": 15239,
    "Ġwiser": 14729,
    "thes": 7391,
    "skeleton": 17377,
    "Ġimprudence": 10300,
    "Ġcommand": 3324,
    "Ġspears": 12928,
    "Ġbalances": 2339,
    "might": 4077,
    "actory": 8911,
    "aet": 15308,
    "alions": 21500,
    "pots": 11515,
    "Ġsap": 18321,
    "ood": 961,
    "Ġcour": 1771,
    "Ð": 145,
    "Ġamph": 18508,
    "Ġegyptian": 13586,
    "comm": 7440,
    "Ġadvancing": 6879,
    "Ġslavish": 23174,
    "ls": 1291,
    "Ġireland": 17336,
    "Ġsmut": 22558,
    "Ġconcentration": 25064,
    "humorously": 24025,
    "raged": 9213,
    "Ġapproved": 16036,
    "Ġpickle": 16721,
    "Ġtherein": 11778,
    "cabinet": 25079,
    "Ġcabin": 3305,
    "04": 10682,
    "Ġparacelsus": 15267,
    "sank": 17662,
    "Ġfund": 2845,
    "Ġsoothing": 8174,
    "remonstr": 23192,
    "Ġbrewed": 23349,
    "sleeve": 26107,
    "Ġreadiness": 13052,
    "Ġdescribes": 3119,
    "longer": 8617,
    "Ġlip": 6534,
    "Ġlump": 21551,
    "isturbed": 18295,
    "Ġbells": 19602,
    "Ġoct": 10161,
    "Ġdeemed": 7616,
    "smiled": 16613,
    "Ġcar": 1420,
    "Ġrounds": 18884,
    "Ġscriptures": 26235,
    "Ġtranspired": 16783,
    "Ġsneezing": 12252,
    "Ġautoregressive": 3433,
    "Ġbended": 21385,
    "Ġtradeoff": 2659,
    "Ġfavourably": 16364,
    "exp": 2739,
    "crucible": 24844,
    "Ċ": 203,
    "Ġrepute": 18034,
    "Ġdodo": 9075,
    "Ġcase": 1940,
    "Ġstern": 4221,
    "diver": 20831,
    "chors": 11646,
    "according": 12031,
    "Ġjoist": 19232,
    "Ġvolat": 24150,
    "Ġtwisting": 18656,
    "Ġstem": 15720,
    "marked": 9051,
    "Ġstrung": 22618,
    "dles": 11483,
    "Ġcapabilities": 4376,
    "Ġbuffalo": 11431,
    "Ġdistant": 5388,
    "Ġdl": 3378,
    "Ġepaulets": 24906,
    "Ġswain": 18880,
    "Ġdoes": 942,
    "Ġhunt": 6185,
    "Ġjelly": 22301,
    "woes": 21132,
    "Ġages": 7031,
    "Ġchaos": 17010,
    "Ġmagg": 18904,
    "his": 1414,
    ",*": 17472,
    "valley": 16215,
    "ologically": 22870,
    "Ġbristles": 25843,
    "Ġdeposed": 16087,
    "Ġfoolishly": 19783,
    "Ġ0": 1904,
    "ass": 539,
    "Ġon": 350,
    "Ġunrestingly": 20361,
    "explanations": 25233,
    "exagger": 22431,
    "Ġmisunderstood": 18705,
    "Ġvehement": 16202,
    "Ġdin": 3628,
    "ob": 1421,
    "Ġap": 5009,
    "Ġforeshadowing": 26593,
    "Ġcontrasting": 11156,
    "dec": 3110,
    "Ġexperiences": 13032,
    "Ġdreaminess": 23945,
    "Ġdrowning": 19904,
    "utility": 21586,
    "eteenth": 20157,
    "Ġcastaway": 16640,
    "quality": 10235,
    "Ġbrother": 2751,
    "Ġerror": 1769,
    "Ġgallant": 8659,
    "Ġconfession": 11237,
    "Ġmer": 2931,
    "Ġamidst": 9497,
    "Ġetext": 23955,
    "Ġaudacious": 13461,
    "inserted": 18886,
    "got": 6956,
    "progra": 9397,
    "avering": 24793,
    "ins": 1376,
    "Ġliquid": 22410,
    "that": 852,
    "Ġabominable": 12326,
    "Ġinput": 609,
    "Ġyork": 11667,
    "prof": 7472,
    "Ġtrespass": 23604,
    "bud": 10686,
    "turtle": 12216,
    "Ġenglish": 3616,
    "derness": 11739,
    "Ġbarn": 11589,
    "but": 592,
    "coach": 23563,
    "Ġinn": 4591,
    "Ġdiscomposed": 25580,
    "Ġwol": 15529,
    "Ġuntimely": 16465,
    "Ġhuff": 21489,
    "eries": 6810,
    "Ġreceives": 20354,
    "due": 22411,
    "olog": 1070,
    "Ġgrudge": 20694,
    "Ġveritable": 19382,
    "Ġtumbled": 13408,
    "Ġcreases": 22721,
    "Ġhardly": 2429,
    "Ġpledged": 20688,
    "Ġbeckoned": 25792,
    "towards": 5004,
    "Ġintroducing": 11979,
    "Ġrevelation": 25221,
    "Ġexpl": 487,
    "Ġbelieves": 14405,
    "Ġwid": 4633,
    "Ġdrags": 16940,
    "ssian": 3401,
    "Ġtamer": 24978,
    "Ġenslaved": 26313,
    "Ġreciprocating": 26369,
    "Ġtwin": 12930,
    "felt": 5890,
    "Ġbraved": 23843,
    "windward": 24166,
    "delirium": 14783,
    "volutional": 1935,
    "ek": 1908,
    "Ġstature": 10865,
    "Ġconstrained": 19240,
    "Ġaut": 1758,
    "Ġregularization": 1186,
    "staring": 18017,
    "Ġperuvian": 18451,
    "Ġseethe": 21957,
    "patient": 25342,
    "Ġdischar": 11811,
    "icable": 6389,
    "Ġconjecture": 9534,
    "Ġken": 22192,
    "rical": 11520,
    "jumped": 20247,
    "Ġdinah": 9456,
    "ription": 5677,
    "Ġthirst": 7592,
    "Ġadaptation": 3155,
    "underneath": 23793,
    "E": 41,
    "Ġincreas": 1691,
    "attention": 2109,
    "Ġsimil": 2531,
    "Ġbags": 24540,
    "izure": 21842,
    "Ġafar": 14293,
    "uneasiness": 23692,
    "unfortunate": 15778,
    "Ġbashee": 19849,
    "Ġspeeches": 22663,
    "Ġbreaching": 23350,
    "Ġsandwich": 19829,
    "Ġunderstand": 829,
    "Ġtraversed": 18891,
    "Ġcathedral": 17414,
    "Ġparticip": 16132,
    "Ġdeclined": 9924,
    "itering": 17818,
    "barrow": 17002,
    "socket": 22725,
    "Ġclimate": 9277,
    "construction": 19779,
    "Ġfrigate": 13083,
    "Ġvener": 8165,
    "stolidity": 21657,
    "edily": 17943,
    "Ġinnocently": 24033,
    "atters": 18497,
    "Ġmarty": 20291,
    "Ġunite": 9256,
    "learning": 2640,
    "Ġliver": 14225,
    "Ġunceasing": 20358,
    "Ġdon": 1612,
    "ian": 1237,
    "elements": 25202,
    "Ġinhabit": 5783,
    "storm": 9684,
    "alot": 15626,
    "Ġcomfort": 3440,
    "Ġscrutin": 26013,
    "Ġhesitation": 13442,
    "Ġsurmised": 24920,
    "london": 9611,
    "Ġostrich": 26430,
    "shore": 10308,
    "Ġadvertise": 25388,
    "Ġma": 3255,
    "Ġexpon": 969,
    "Ġprevents": 2558,
    "Ġcertainly": 2496,
    "Ġovercome": 6044,
    "erect": 20848,
    "Ġadored": 18289,
    "Ġhap": 18193,
    "Ġaccorded": 24095,
    "Ġwhistling": 19791,
    "Ġunperceived": 22038,
    "cab": 7334,
    "Ġlibrary": 6424,
    "Ġevian": 24295,
    "Ġrugged": 18718,
    "apping": 5853,
    "Ġstaying": 8285,
    "Ġexceeded": 14431,
    "arabian": 26446,
    "Ġaffectation": 14438,
    "Ġcontinent": 14887,
    "Ġgoing": 2067,
    "continuance": 19719,
    "Ġtools": 11611,
    "Ġtrailing": 23080,
    "Ġmalays": 19678,
    "handedness": 24921,
    "Ġclenched": 14202,
    "Ġtry": 3132,
    "Ġromans": 16758,
    "erred": 6377,
    "Ġtrousers": 12418,
    "Ġcheer": 4066,
    "Ġunass": 14112,
    "lorious": 17592,
    "Ġdivided": 8636,
    "bye": 5950,
    "Ġrescue": 13345,
    "cas": 20794,
    "Ġdeserved": 7738,
    "bowl": 14890,
    "umbent": 12093,
    "Ġindicates": 3193,
    "Ġwalls": 6764,
    "Ġsurrounded": 5880,
    "Ġepicures": 25878,
    "Ġcharts": 12828,
    "Ġconduct": 3735,
    "Ġcandidates": 4332,
    "Ġshirt": 8853,
    "pow": 10719,
    "quiet": 6156,
    "Ġblackest": 19098,
    "Ġconfirmed": 11141,
    "izens": 18143,
    "Ġnurtured": 19750,
    "Ġrome": 12160,
    "laz": 15385,
    "Ġintricate": 15138,
    "._": 3219,
    "Ġlead": 3524,
    "Ġhomely": 25218,
    "Ġemail": 19072,
    "cest": 12448,
    "Ġcut": 2642,
    "Ġapparent": 5467,
    "Ġsag": 6515,
    "alive": 10829,
    "Ġglimmering": 25239,
    "Ġcompl": 3760,
    "Ġcharity": 8866,
    "exception": 9979,
    "sprit": 11384,
    "Ġbumpkins": 25280,
    "Ġcandour": 14671,
    "onde": 21251,
    "Ġfreemason": 23211,
    "Ġponder": 6820,
    "ld": 385,
    "Ġmist": 2878,
    "ara": 13911,
    "itting": 1150,
    "Ġappetites": 20207,
    "Ġtal": 7566,
    "Ġhither": 4760,
    "Ġcardboard": 19980,
    "Ġlingu": 11616,
    "Ġhue": 8431,
    "assed": 6422,
    "queen": 12729,
    "Ġnarwhales": 24149,
    "Ġgates": 10203,
    "Ġcrimin": 6902,
    "Ġwelfare": 12562,
    "Ġdeveloped": 16341,
    "======================================================================": 10071,
    "Ġresignation": 18564,
    "projecting": 26072,
    "Ġdoing": 3664,
    "Ġweap": 6157,
    "Ġeve": 13968,
    "wishing": 21127,
    "woof": 21138,
    "Ġkiller": 19569,
    "etts": 12662,
    "Ġrecurring": 23231,
    "Ġwore": 6378,
    "Ġdivine": 6922,
    "Ġworsted": 19996,
    "opÃ¦": 12874,
    "Ġvexed": 9997,
    "Ġelusive": 22647,
    "Ġumbrella": 15266,
    "Ġdated": 10941,
    "Ġpraise": 6487,
    "yielded": 25755,
    "bourn": 3304,
    "Ġ{": 21152,
    "Ġpin": 7163,
    "listen": 13513,
    "exped": 16524,
    "amid": 12726,
    "boy": 4739,
    "Ġvenetian": 14846,
    "Ġenjoined": 18189,
    "Ġbreathe": 9015,
    "lucky": 24548,
    "Ġbabies": 19693,
    "limin": 8385,
    "Ġstreets": 5865,
    "toed": 18578,
    "Ġfelony": 18951,
    "canoes": 16231,
    "Ġassur": 6074,
    "Ġdemonstrate": 24996,
    "))": 1515,
    "stubb": 6018,
    "Ġbestowed": 6595,
    "Ġswiftly": 5671,
    "Ġde": 364,
    "Ġboldness": 24431,
    "cary": 10693,
    "er": 269,
    "germ": 15356,
    "Ġstatements": 7518,
    "Ġastir": 14638,
    "ene": 2168,
    "Ġmainland": 22650,
    "understand": 1061,
    "asper": 7857,
    "Ġpig": 5706,
    "Ġstained": 11654,
    "han": 12476,
    "Ġbenef": 3490,
    "Ġdumplings": 15191,
    "Ġstepped": 7054,
    "disapprobation": 19157,
    "rown": 2190,
    "captain": 3953,
    "Ġpreaching": 15927,
    "Ġcas": 8413,
    "âĢĿâĢĶ": 5722,
    "Ġseason": 5239,
    "Ġmagnanimous": 17412,
    "Ġflame": 7449,
    "Ġembellish": 25847,
    "ortions": 10950,
    "nez": 22462,
    "Ġwr": 1544,
    "Ġfrequencies": 4790,
    "Ġtolerably": 8069,
    "Ġfest": 10806,
    "full": 7420,
    "Ġship": 1091,
    "Ġtreacherous": 13554,
    "itled": 7580,
    "Ġcommis": 22671,
    "ð": 177,
    "Ġgifts": 21612,
    "Ġsenseless": 12082,
    "Ġhen": 3504,
    "angel": 5727,
    "handkerchief": 14616,
    "Ġrosy": 18455,
    "Ġdodging": 19887,
    "Ġschemes": 11133,
    "Ġind": 1221,
    "niece": 20993,
    "Ġincorpor": 13167,
    "Ġinland": 11610,
    "otam": 21799,
    "Ġapparently": 6780,
    "apparent": 11043,
    "Ġdegradation": 2631,
    "begging": 22497,
    "Ġstraighten": 24009,
    "Ġhat": 2774,
    "erate": 7151,
    "Ġdissolved": 18552,
    "real": 10152,
    "caterpillar": 26383,
    "phia": 22758,
    "bad": 12439,
    "detained": 24385,
    "Ġge": 1977,
    "Ġshrunk": 16717,
    "Ġenglishmen": 19431,
    "ª": 108,
    "put": 414,
    "Ġforesee": 19124,
    "Ġendwise": 23138,
    "Ġscientific": 6858,
    "Ġsurging": 19133,
    "beating": 22489,
    "Ġsinister": 8573,
    "(-": 2982,
    "bull": 13690,
    "Ġassociated": 12254,
    "Ġvortex": 26208,
    "par": 1862,
    "quickly": 14961,
    "Ġmartha": 16261,
    "Ġfresh": 3673,
    "succeed": 10331,
    "Ġdestitute": 14563,
    "pour": 17630,
    "Ġexpressive": 8985,
    "Ġwaggish": 25434,
    "ositions": 10286,
    "Ġsocially": 22085,
    "Ġquieted": 23848,
    "ogra": 4573,
    "Ġprotesting": 14740,
    "Ġwhip": 8454,
    "Ġcent": 3256,
    "Ġbarrel": 23796,
    "Ġkindled": 19032,
    "Ġwater": 1947,
    "Ġexpensive": 12920,
    "Ġbowsprit": 16559,
    "acceptable": 25183,
    "Ġhalf": 1666,
    "Ġhalts": 3158,
    "kee": 18271,
    "Ġdeformity": 11678,
    "Ġbanish": 15570,
    "ivity": 1643,
    "narwhale": 17075,
    "Ġhoping": 11105,
    "Ġwretched": 4080,
    "Ġswallows": 18882,
    "Ġmonica": 22986,
    "fortun": 3540,
    "Ġdun": 6677,
    "Åĵuvre": 25886,
    "barrels": 14992,
    "Ġseizing": 7879,
    "everything": 6326,
    "Ġmeas": 1097,
    "Ġterritories": 23851,
    "Ġdynam": 3216,
    "braces": 24659,
    "at": 268,
    "Ġcountenances": 11968,
    "ariously": 18525,
    "opence": 18505,
    "dred": 2526,
    "overed": 2854,
    "atches": 13845,
    "Ġillust": 8264,
    "rabb": 15681,
    "Ġsolved": 8934,
    "approached": 13486,
    "Ġwhen": 512,
    "hammad": 23264,
    "Ġbeckoning": 20503,
    "watch": 6119,
    "Ġfestoon": 20295,
    "pun": 9619,
    "misery": 13346,
    "Ġmirror": 12381,
    "Ġprediction": 2140,
    "Ġelevating": 19730,
    "sky": 12513,
    "writing": 7722,
    "Ġflowery": 16234,
    "Ġcurling": 9343,
    "Ġcommunications": 16355,
    "Ġdusty": 14924,
    "Ġhovering": 10181,
    "Ġresolved": 3798,
    "Ġviciously": 24407,
    "Ġperpetual": 12306,
    "Ġspit": 22125,
    "Ġtraged": 9354,
    "Ġclutch": 15052,
    "Ġwhoever": 10977,
    "Ġconcerned": 5333,
    "aire": 10683,
    "Ġmen": 1435,
    "Ġbarque": 23795,
    "Ġtwinkle": 12327,
    "Ġcrawled": 17044,
    "Ġmole": 11794,
    "Ġbreast": 8971,
    "Ġespecially": 3936,
    "Ġprecipice": 19942,
    "hopper": 23719,
    "Ġvexation": 10589,
    "ruin": 22177,
    "Ġeludes": 26555,
    "facts": 19843,
    "Ġheat": 5454,
    "Ġacknowledges": 24689,
    "Ġextend": 18687,
    "ĠĠĠĠĠĠĠĠĠĠĠĠĠĠĠĠĠĠĠĠĠĠĠĠĠĠ": 13390,
    "gives": 15357,
    "Ġprovoke": 14825,
    "Ġindistinctly": 26116,
    "unhesitatingly": 26497,
    "Ġwarp": 8114,
    "preced": 10312,
    "Ġsamples": 2963,
    "Ġappointed": 20104,
    "europe": 20666,
    "Ġinns": 17929,
    "istrate": 7406,
    "Ġsupplying": 19799,
    "Ġcouns": 10523,
    "Ġvintage": 26209,
    "arrange": 23791,
    "Ġsteadily": 8053,
    "Ġdevilish": 11230,
    "omach": 11639,
    "cowardly": 25748,
    "Ġamber": 7029,
    "aspect": 10196,
    "execut": 13655,
    "Ġsteer": 10389,
    "Ġgidd": 25782,
    "Ġdistricts": 20264,
    "Ġtwelve": 4964,
    "Ġbread": 5405,
    "upid": 6583,
    "iated": 5891,
    "Ġbash": 12589,
    "spirit": 11315,
    "ishness": 22343,
    "Ġcountries": 13099,
    "Ġinclination": 6626,
    "Ġabound": 8867,
    "atmospheric": 17776,
    "Ġslate": 11941,
    "Ġquart": 11790,
    "uncommon": 11684,
    "Ġspectacles": 12101,
    "Ġnest": 10191,
    "Ġunconsc": 6554,
    "ieves": 4005,
    "cham": 10855,
    "steel": 8300,
    "Ġboast": 7037,
    "devil": 7897,
    "Ġadmired": 7983,
    "Ġfreshness": 23993,
    "creation": 14805,
    "fourths": 25509,
    "Ġcap": 2361,
    "Ġhove": 17924,
    "grass": 23417,
    "Ġspur": 18301,
    "Ġinstant": 2706,
    "Ġrecording": 24437,
    "uning": 1314,
    "Ġwand": 4340,
    "riv": 3107,
    "irm": 3106,
    "Ġcries": 7156,
    "Ġposterity": 17403,
    "Ġillustrious": 17109,
    "Ġxxxvi": 24971,
    "Ġforwarded": 19045,
    "Ġpure": 6139,
    "Ġnotion": 7884,
    "Ġattract": 11835,
    "enth": 6683,
    "wheeling": 22873,
    "tenham": 16321,
    "Ġhandspike": 22696,
    "Ġunreasonably": 17452,
    "Ġgratefully": 20446,
    "Ġpuffing": 12259,
    "Ġdecomposition": 5344,
    "Ġblowing": 10487,
    "Ġrecommend": 7105,
    "»": 124,
    "levelled": 23650,
    "impl": 21707,
    "Ġdates": 6696,
    "igms": 3046,
    "Ġgomorrah": 21615,
    "pp": 384,
    "Ġdemi": 25548,
    "edding": 4365,
    "Ġdavy": 25950,
    "Ġfacet": 15585,
    "Ġfossils": 20223,
    "arthur": 14829,
    "Ġsl": 1497,
    "¡": 99,
    "whispered": 20035,
    "Ġeclipsed": 26376,
    "ipped": 5791,
    "'": 11,
    "rents": 5311,
    "amusement": 15283,
    "Ġexhausted": 8698,
    "believing": 19463,
    "Ġincreasing": 8248,
    "Ġwayward": 22874,
    "riving": 21927,
    "Ġvapors": 19908,
    "Ġur": 5541,
    "Ġriots": 23897,
    "transferred": 24517,
    "Ġpikes": 21476,
    "Ġmam": 8407,
    "Ġaccurately": 4429,
    "Ġbale": 7840,
    "Ġheading": 8938,
    "Ġnothing": 1360,
    "Ġtainted": 21170,
    "Ġpest": 13913,
    "Ġflag": 7243,
    "Ġhelmeted": 19689,
    "Ġundeserving": 18266,
    "Ġpestilent": 25776,
    "ediction": 17944,
    "delights": 19702,
    "Ġyawned": 15050,
    "Ġtexas": 25921,
    "Ġinferred": 14501,
    "ading": 5091,
    "information": 12396,
    "Ġrokovoko": 22407,
    "Ġaslant": 21902,
    "arth": 4442,
    "Ġcomical": 11682,
    "Ġsuccour": 20436,
    "3": 23,
    "wants": 21129,
    "Ġunconsciously": 10008,
    "Ġgoal": 10304,
    "poison": 14390,
    "Ġtalked": 4419,
    "determine": 19945,
    "Ġserm": 9635,
    "culiarity": 11143,
    "Ġhall": 4182,
    "inate": 6235,
    "Ġdeigned": 18138,
    "Ġrecom": 4555,
    "Ġdiscount": 22782,
    "Ġpool": 5174,
    "endous": 6851,
    "Ġdesp": 3213,
    "Ġox": 7155,
    "izzy": 3094,
    "dl": 20823,
    "Ġfuel": 13903,
    "Ġrestored": 7069,
    "Ġolfactories": 26170,
    "Ġfinancial": 23131,
    "enthusiastic": 20693,
    "Ġdocumentation": 20555,
    "trampled": 26333,
    "opened": 7915,
    "Ġconclusions": 10556,
    "Ġveins": 8935,
    "Ġcloth": 9746,
    "Ġgarb": 21602,
    "Ġknock": 9976,
    "Ġpark": 5466,
    "Ġdesigns": 13018,
    "creator": 26381,
    "Ġembarks": 22950,
    "Ġgriefs": 16770,
    "Ġpills": 21464,
    "Ġenables": 726,
    "Ġuplifted": 11649,
    "derest": 18312,
    "Ġwearied": 15795,
    "Ġ130": 24781,
    "illings": 14140,
    "ade": 882,
    "Ġblinding": 14727,
    "Ġforest": 9874,
    "Ġintercept": 14268,
    "Ġloitering": 22117,
    "Ġ[": 6969,
    "Ġenigmatical": 20598,
    "Ġreminded": 10002,
    "embarrassed": 20665,
    "Ġmor": 1249,
    "omp": 2470,
    "vour": 17699,
    "proposal": 18753,
    "suitableness": 26260,
    "Ġmarsh": 9824,
    "Ġhides": 16263,
    "ifers": 15783,
    "Ġcomplement": 23714,
    "Ġgap": 21598,
    "Ġvirtuous": 14754,
    "Ġopenshaw": 7956,
    "warnings": 20351,
    "Ġfrock": 10492,
    "Ġimmemorial": 10513,
    "Ġsupposition": 9820,
    "Ġunnear": 22029,
    "ety": 3522,
    "Ġaf": 782,
    "Ġpolitic": 23622,
    "Ġincommun": 25308,
    "Ġlie": 4405,
    "utterly": 20013,
    "attest": 23120,
    "driven": 19772,
    "Ġlinked": 15077,
    "Ġpredict": 673,
    "Ġscrawled": 24581,
    "Ġinfancy": 10413,
    "Ġhapless": 15813,
    "bug": 17493,
    "aned": 5148,
    "Ġshetland": 22160,
    "Ġpathways": 11155,
    "Ġunintellig": 22027,
    "cain": 15325,
    "Ġunremitting": 26217,
    "evil": 11488,
    "Ġretreating": 19800,
    "Þ": 159,
    "Ġfel": 1517,
    "Ġpeter": 10538,
    "waiter": 24587,
    "Ġperch": 10301,
    "Ġdevote": 10341,
    "hate": 20891,
    "Ġsinusoid": 4782,
    "enger": 10775,
    "Ġwonders": 7502,
    "mb": 883,
    "Ġcontained": 7681,
    "rushing": 10021,
    "Ġforenoon": 19125,
    "Ġclumsy": 9581,
    "Ġsatan": 14388,
    "Ġpyramids": 15115,
    "itor": 12569,
    "beries": 22746,
    "Ġinherent": 4592,
    "Ġloftiest": 16873,
    "Ġnour": 10832,
    "ineff": 21967,
    "alter": 10828,
    "earnest": 12402,
    "Ġelephant": 8257,
    "Ġbeards": 21752,
    "Ġneat": 7001,
    "chain": 18039,
    "Ġangry": 5499,
    "Ġunwaning": 24831,
    "accomplishment": 20224,
    "Ġdisappearing": 22534,
    "benefit": 24643,
    "kered": 18272,
    "Ġscent": 10288,
    "Ġsmile": 4271,
    "Ġmask": 1868,
    "Ġtension": 13823,
    "Ġdecomposes": 5507,
    "utarch": 15663,
    "Ġweeds": 21925,
    "Ġexped": 7653,
    "elag": 12660,
    "õ": 182,
    "Ġfleeting": 19324,
    "utely": 8133,
    "Ġthrusting": 10555,
    "Ġstrictest": 17042,
    "tre": 8765,
    "Ġswap": 23053,
    "origin": 7584,
    "dashed": 12459,
    "rabbit": 20592,
    "Ġbre": 1914,
    "angled": 6845,
    "tribute": 21087,
    "lovely": 16047,
    "proceeded": 25189,
    "Ġcrate": 19119,
    "Ġmary": 3845,
    "discover": 10542,
    "Ġoccurring": 2794,
    "nals": 16398,
    "Ġfacial": 10608,
    "comes": 5395,
    "windows": 19535,
    "Ġassembled": 9238,
    "Ġpers": 1324,
    "note": 14338,
    "Ġintrodu": 1924,
    "flames": 14711,
    "Ġstud": 1566,
    "ree": 874,
    "Ġthrone": 12218,
    "discovering": 24257,
    "rem": 1520,
    "quarter": 11390,
    "Ġreconciliation": 25292,
    "Ġthumb": 6983,
    "corrupt": 14894,
    "Ġeffusions": 18538,
    "Ġgrove": 12151,
    "Ġtatters": 21177,
    "Ġrede": 13982,
    "Ġcompares": 20166,
    "irst": 880,
    "Ġprovinces": 24196,
    "Ġsagacious": 14970,
    "Ġblasphemy": 26114,
    "inch": 10757,
    "Ġdraws": 19437,
    "bergen": 14337,
    "Ġcrazy": 8597,
    "ė": 216,
    "Ġcorresponding": 13439,
    "Ġchagrin": 20608,
    "Ġclerval": 4654,
    "stories": 18020,
    "hing": 983,
    "steep": 19420,
    "bearded": 18520,
    "standers": 18470,
    "Ġlabourers": 23335,
    "sheet": 16286,
    "b": 70,
    "Ġbonnet": 10658,
    "Ġrequisition": 22629,
    "Ġgeneric": 18446,
    "y": 93,
    "Ġunfathomable": 20549,
    "Ġhopeless": 7464,
    "Ġworking": 5576,
    "Ġtightly": 13533,
    "promontory": 24727,
    "Ġcommenting": 25227,
    "Ġdefined": 11901,
    "Ġleeward": 6212,
    "garn": 20870,
    "Ġreaped": 18029,
    "Ġdaw": 21429,
    "luyt": 18457,
    "commence": 19993,
    "Ġdanced": 7844,
    "inquiries": 13577,
    "irr": 12739,
    "up": 1284,
    "Ġboy": 3023,
    "puzz": 17640,
    "Ġslopes": 18940,
    "Ġbeach": 6543,
    "Ġdiffusion": 23786,
    "Ġcrossed": 6069,
    "gh": 3801,
    "ignorantly": 25188,
    "Ġcontents": 7211,
    "Ġdissu": 18548,
    "Ġmoist": 9287,
    "seam": 10876,
    "securer": 25602,
    "que": 1142,
    "Ġacutely": 14312,
    "imson": 12691,
    "Ġplease": 4724,
    "near": 5843,
    "Ġweather": 3996,
    "clair": 18932,
    "aring": 1478,
    "supplied": 10522,
    "Ġdau": 21425,
    "shiver": 16023,
    "Ġhatchet": 16528,
    "osis": 18387,
    "swimming": 24264,
    "Ġsustained": 13483,
    "Ġmumbling": 11576,
    "Ġmuskets": 17057,
    "Ġbaffled": 12406,
    "ravity": 21635,
    "quadrille": 20596,
    "robotics": 11308,
    "Ġcomplex": 748,
    "Ġthan": 735,
    "Ġany": 688,
    "interruption": 20113,
    "courageous": 26126,
    "pect": 1254,
    "Ġclung": 10960,
    "Ġjenkinson": 11433,
    "movable": 14322,
    "Ġnoting": 18219,
    "Ġkent": 6694,
    "Ġrestricted": 19031,
    "beneath": 9537,
    "vest": 6232,
    "Ġfooted": 23801,
    "substance": 15232,
    "odecim": 9835,
    "Ġbennet": 1574,
    "Ġaccursed": 9462,
    "Ġarc": 14156,
    "Ġleaps": 14006,
    "Ġcolours": 12976,
    "umbered": 22118,
    "consid": 4926,
    "parlour": 16391,
    "ires": 6038,
    "less": 928,
    "Ġhearth": 11985,
    "Ġmouse": 4695,
    "Ġexpress": 2194,
    "Ġbohemian": 17135,
    "indirect": 22373,
    "bright": 8992,
    "rugg": 15897,
    "Ġapprehens": 5683,
    "Ġrobbed": 23000,
    "Ġfelicity": 7261,
    "Ġinfamous": 16367,
    "Ġvenge": 5421,
    "Ġbra": 3257,
    "Ġburned": 8635,
    "Ġcum": 21342,
    "satisf": 5782,
    "Ġped": 7847,
    "ilingly": 21724,
    "Ġsyllables": 25298,
    "circumstances": 8048,
    "Ġwillingly": 8888,
    "back": 2016,
    "Ġbudge": 15165,
    "Ġdiscoveries": 13361,
    "Ġdictionary": 15113,
    "anded": 5923,
    "splinter": 25209,
    "stem": 571,
    "Ġinvisibly": 24815,
    "hat": 6957,
    "able": 454,
    "solute": 16597,
    "hangs": 15368,
    "Ġfretfully": 25447,
    "Ġ1883": 23903,
    "Ġsweetheart": 19396,
    "ifies": 6689,
    "Ġdiscernible": 15069,
    "el": 306,
    "Ġcontradicted": 20212,
    "Ġrepro": 7276,
    "Ġrogue": 22406,
    "lascar": 20958,
    "Ġdispirited": 23887,
    "Ġorigin": 4118,
    "speckled": 23950,
    "Ġdict": 9177,
    "Ġflukes": 5268,
    "Ġpromising": 10402,
    "Ġability": 2766,
    "omnipotent": 25965,
    "Ġlength": 2499,
    "Ġimbecile": 17393,
    "Ġget": 1620,
    "negro": 18493,
    "ship": 1390,
    "Ġcig": 6521,
    "etian": 13957,
    "Ġinquest": 16546,
    "Ġeduc": 4786,
    "monster": 8596,
    "Ġaustrian": 24305,
    "now": 548,
    "rict": 8094,
    "uncle": 8160,
    "Ġvac": 5026,
    "Ġpapa": 10659,
    "Ġuseful": 3561,
    "Ġtoiling": 15635,
    "emotions": 15798,
    "pursued": 17283,
    "hend": 13254,
    "Ġavoided": 13260,
    "Ġwild": 2602,
    "ton": 1727,
    "lucifer": 25302,
    "_,âĢĻâĢĿ": 20402,
    "olence": 10233,
    "Ġrelative": 11886,
    "Ġgossip": 18468,
    "Ġsets": 8779,
    "Ġcourse": 2130,
    "Ġregarded": 5763,
    "hastily": 19703,
    "Ġtestified": 16331,
    "context": 3406,
    "Ġobedience": 11415,
    "Ġcoffee": 6762,
    "shroud": 20311,
    "Ġornament": 11723,
    "cadence": 26124,
    "ordinary": 4406,
    "Ġboat": 1276,
    "drive": 8687,
    "Ġnotes": 7190,
    "Ġcrowding": 13280,
    "Ġentirely": 3435,
    "Ġgrosvenor": 17419,
    "corn": 13699,
    "uck": 1232,
    "agonies": 21910,
    "Ġlightning": 5751,
    "Ġcl": 553,
    "Ġfro": 3474,
    "Ġinhabited": 12190,
    "Ġafloat": 9310,
    "ittle": 811,
    "Ġcushion": 17833,
    "Ġcondense": 21809,
    "Ġout": 543,
    "Ġcapture": 3386,
    "Ġaddu": 22102,
    "Ġexpenses": 11838,
    "reasoning": 9479,
    "heaving": 21207,
    "drink": 10598,
    "Ġpit": 3422,
    "Ġrheumatic": 20705,
    "Ġwinds": 5747,
    "progress": 11991,
    "Ġhas": 826,
    "Ġsensation": 6896,
    "Ġwhereon": 16102,
    "allowed": 5729,
    "gue": 12471,
    "Ġje": 4121,
    "Åĵ": 10746,
    "Ġchronicle": 20229,
    "Ġwhir": 6394,
    "Ġinconsist": 17935,
    "Ġbraided": 16581,
    "puff": 21020,
    "ustom": 3790,
    "Ġshadows": 8014,
    "Ġadmitted": 8989,
    "Ġseasoned": 24408,
    "outward": 22163,
    "Ġbuying": 24001,
    "Ġaddresses": 3769,
    "É": 138,
    "aiian": 23596,
    "Ġlanguages": 1568,
    "Ġjo": 2609,
    "wail": 21124,
    "Ġlaid": 3941,
    "cott": 8075,
    "Ġescaped": 6460,
    "Ġserenity": 10031,
    "Ġhers": 7891,
    "Ġintelligences": 12833,
    "Ġthrust": 5085,
    "Ġsickly": 16773,
    "Ġhousings": 21492,
    "ispensable": 9099,
    "Ġdrily": 23544,
    "Ġy": 341,
    "lers": 10109,
    "ious": 768,
    "informed": 17736,
    "zas": 17712,
    "og": 860,
    "log": 18533,
    "Ġmaybe": 12951,
    "Ġroundabout": 23062,
    "Ġfortune": 4239,
    "Ġcomponents": 8897,
    "Ġpeterson": 9486,
    "Ġrefuge": 8543,
    "Ġappears": 5403,
    "Ġdodge": 19886,
    "anct": 21358,
    "Ġspong": 15882,
    "um": 453,
    "Ġweight": 656,
    "Ġstead": 5651,
    "Ġintersect": 22577,
    "pping": 1426,
    "iastic": 12483,
    "Ġsmells": 8894,
    "Ġmanx": 7907,
    "discovered": 8326,
    "Ġparc": 10922,
    "reputable": 15516,
    "uge": 4016,
    "Ġunprepared": 22051,
    "Ġburying": 19252,
    "Ġsplintered": 11420,
    "Ġcapering": 21354,
    "Ġindication": 22955,
    "Ġcoronet": 6346,
    "tor": 15431,
    "Ġspurn": 18307,
    "Ġamounts": 6707,
    "Ġhal": 1362,
    "Ġadversary": 12178,
    "spirited": 19754,
    "Ġopt": 784,
    "Ġosc": 2837,
    "ople": 2319,
    "Ġchuck": 8504,
    "Ġphysiology": 25332,
    "Ġsuperiority": 14615,
    "Ġbonds": 17869,
    "Ġpurely": 12236,
    "Ġincarnation": 25573,
    "terrors": 25043,
    "Ġdesc": 772,
    "vis": 4578,
    "Ġinterlude": 16071,
    "Ġproverb": 12718,
    "Ġhasn": 12929,
    "conjecturing": 20134,
    "summon": 23420,
    "erve": 12552,
    "abled": 12796,
    "aped": 3765,
    "lemagne": 26436,
    "Ġmassacre": 20548,
    "enchanted": 26424,
    "Ġterti": 14534,
    "Ġbigot": 24569,
    "Ġsparsity": 4207,
    "Ġrustling": 24714,
    "name": 6798,
    "Ġexult": 10232,
    "shaw": 6865,
    "Ġanaly": 1151,
    "Ġdepartment": 24247,
    "aboard": 21795,
    "Ġfaint": 5813,
    "Ġunnearable": 26517,
    "Ġcalendar": 18876,
    "erpillar": 5799,
    "Ġengage": 9337,
    "oriously": 17874,
    "Ġexultation": 15172,
    "fabulous": 20475,
    "wonder": 6372,
    "Ġterr": 3275,
    "d": 72,
    "Ġsuspected": 9065,
    "Ġwedge": 24934,
    "otently": 21801,
    "Ġwithdrawing": 11342,
    "oves": 15403,
    "Ġconst": 1910,
    "Ġperceptible": 18450,
    "Ġrevelations": 25222,
    "Ġlightly": 13085,
    "uy": 21098,
    "Ġdiabolism": 25514,
    "plings": 11700,
    "withdrawn": 23029,
    "Ġquiet": 3263,
    "Ġbrand": 16187,
    "Ġhinge": 25541,
    "extending": 22770,
    "Ġble": 5224,
    "Ġbeaut": 2392,
    ".âĢĻ": 1720,
    "Ġsparkling": 11358,
    "Ġpupp": 10822,
    "boiling": 18999,
    "Ġcheat": 19024,
    "Ġ23": 13194,
    "Ġcharacter": 2796,
    "Ġhorseman": 19608,
    "Ġcivilised": 24250,
    "Ġminor": 12970,
    "Ġelig": 9781,
    "lost": 8891,
    "Ġreckless": 13459,
    "Ġsoaked": 15862,
    "Ġkra": 18346,
    "_;": 6643,
    "Ġbought": 8418,
    "usation": 18394,
    "dam": 7799,
    "Ġmelancholy": 5607,
    "Ġgeological": 14530,
    "Ġunctuous": 10269,
    "frequent": 15353,
    "Ġeffort": 8206,
    "Ġdemig": 20356,
    "Ġflaming": 8568,
    "quently": 9705,
    "Ġfloat": 12035,
    "Ġrevol": 5538,
    "Ġknitting": 24224,
    "Ġconcil": 23326,
    "Ġexpressly": 16451,
    "Ġclos": 4549,
    "icil": 17971,
    "appeared": 4281,
    "Ġladder": 8602,
    "feeling": 6619,
    "Ġpossessing": 16574,
    "Ġrecollected": 8312,
    "Ġrecess": 10849,
    "Ġinstances": 5569,
    "istical": 8493,
    "Ê": 139,
    "preserving": 25304,
    "hom": 12477,
    "alescence": 15925,
    "inement": 11559,
    "Ġvulgar": 13604,
    "shirt": 22449,
    "Ġirrad": 19093,
    "ford": 2824,
    "Ġyoungest": 7955,
    "Ġplunging": 14951,
    "Ġpocket": 4900,
    "inery": 17733,
    "Ġpallet": 21479,
    "Ġtints": 17727,
    "sory": 17659,
    "Ġafrican": 20137,
    "lashed": 20952,
    "Ġowning": 18743,
    "Ġtravelled": 7773,
    "aming": 5829,
    "bulk": 19924,
    "getic": 12968,
    "Ġsobbed": 14132,
    "Ġclanging": 18421,
    "Ġrhine": 12359,
    "Ġshifted": 14105,
    "Ġfrayed": 23266,
    "unsuitable": 21894,
    "Ġnash": 5820,
    "aits": 20766,
    "unconquerable": 21892,
    "reigned": 21242,
    "thanking": 24329,
    "finish": 24387,
    "Ġtickets": 17094,
    "Ġcolossal": 11461,
    "Ġmelting": 24291,
    "Ġaff": 1115,
    "ckery": 22091,
    "gether": 1592,
    "Ġluggage": 25956,
    "bon": 13684,
    "happen": 19328,
    "Ġdelineations": 26057,
    "brown": 15318,
    "Ġstoried": 18072,
    "Ġfarthest": 23116,
    "Ġsensational": 16388,
    "Ġintermix": 25825,
    "Ġpersisted": 13036,
    "christ": 10213,
    "Ġhopkins": 23132,
    "zen": 5141,
    "Ġsul": 7572,
    "Ġpublic": 4331,
    "Ġmay": 924,
    "Ġsmack": 9303,
    "Ġhypothe": 4073,
    "advance": 12161,
    "orphans": 26440,
    "Ĕ": 213,
    "romed": 10907,
    "suff": 4962,
    "Ġconnected": 5394,
    "Ġdecks": 6901,
    "ê": 171,
    "Ġthreads": 13120,
    "irregular": 21912,
    "Ġsobbing": 14131,
    "pend": 6368,
    "Ġcloak": 9536,
    "yard": 6120,
    "Ġspake": 18306,
    "loath": 22509,
    "Ġsixty": 7724,
    "sery": 17661,
    "Ġback": 818,
    "gazed": 15361,
    "lean": 21365,
    "Ġgoney": 14542,
    "Ġfar": 1449,
    "istol": 6261,
    "Ġlivid": 14988,
    "~": 98,
    "Ġbeque": 18080,
    "mid": 5618,
    "trembling": 17144,
    "Ġdrowsy": 26444,
    "Ġbeech": 18082,
    "Ġpasture": 14540,
    "iter": 4390,
    "footed": 19690,
    "Ġapparition": 8068,
    "Ġequilibrium": 4139,
    "watching": 16929,
    "Ġfrank": 4418,
    "Ġfewer": 16224,
    "Ġsuperflu": 14551,
    "Ġrecommence": 16811,
    "Ġprivately": 19524,
    "Ġtrouble": 3693,
    "Ġworshipped": 25690,
    "Ġincor": 2610,
    "foolish": 12350,
    "Ġsilken": 16381,
    "ribly": 8256,
    "houn": 20892,
    "Ġforbid": 7867,
    "Ġsolid": 6444,
    "hap": 17559,
    "Ġunav": 18238,
    "frantic": 24288,
    "Ġtweezers": 26557,
    "Ġprove": 5232,
    "Ġhindrance": 25219,
    "compassion": 12371,
    "agon": 7873,
    "Ġutter": 3973,
    "vag": 8769,
    "Ġbackstays": 22661,
    "imper": 13995,
    "sham": 9760,
    "Ġtropics": 17066,
    "Ġhooks": 14967,
    "Ġextra": 4055,
    "Ġobserving": 6080,
    "Ġsaid": 576,
    "Ġfraud": 19005,
    "ucumber": 19058,
    "Ġeul": 21618,
    "Ġball": 3626,
    "buckets": 26122,
    "Ġsled": 21218,
    "Ġfocused": 16340,
    "cus": 3980,
    "ogany": 18672,
    "Ġanom": 12613,
    "Ġlat": 5087,
    "Ġchiefly": 5767,
    "Ġcustom": 5079,
    "engagement": 14455,
    "apsed": 6297,
    "resides": 23676,
    "Ġlivelihood": 24774,
    "ators": 7831,
    "Ġjiff": 22297,
    "Ġlichen": 20093,
    "Ġwishing": 7832,
    "Ġaccused": 8511,
    "Ġday": 956,
    "fallen": 19660,
    "Ġunfortunately": 10911,
    "mmed": 7916,
    "dil": 11480,
    "Ġinstruct": 2865,
    "sight": 5995,
    "Ġretain": 7865,
    "ħ": 232,
    "ulties": 12903,
    "Ġunprincipled": 20708,
    "Ġaffidav": 18786,
    "Ġspl": 2986,
    "Ġlightness": 23261,
    "telesc": 22817,
    "cst": 10087,
    "Ġasi": 12734,
    "Ġspoon": 22135,
    "Ġsnar": 13202,
    "Ġavailed": 23957,
    "Ġhardihood": 23119,
    "obliged": 20632,
    "p": 84,
    "uttered": 8443,
    "rannical": 26401,
    "Ġpollard": 20386,
    "0": 20,
    "itying": 21995,
    "Ġicelandic": 25885,
    "Ġmathematical": 3353,
    "Ġrather": 1494,
    "enstein": 5801,
    "chari": 21689,
    "gee": 15978,
    "Ġrece": 11640,
    "Ġporing": 21465,
    "Ġknots": 15008,
    "Ġstars": 6151,
    "Ġ123": 24471,
    "Ġbruited": 25772,
    "Ġindolent": 13007,
    "Ġextreme": 2513,
    "Ġtistig": 26413,
    "Ġreaching": 7304,
    "Ġguess": 4905,
    "xible": 13807,
    "Ġsoot": 14127,
    "rust": 2582,
    "adventures": 20257,
    "Ġblessing": 11265,
    "bedded": 12446,
    "Ġasyl": 12736,
    "Ġgrunt": 18734,
    "ival": 4226,
    "Ġimpud": 18442,
    "genteel": 19950,
    "Ġlungs": 8363,
    "ats": 4253,
    "Ġinclemency": 22557,
    "philosophy": 13580,
    "thread": 15827,
    "constit": 24605,
    "Ġsurpassed": 25266,
    "Ġnecessary": 4473,
    "Ġfeast": 10280,
    "Ġtable": 2498,
    "ific": 490,
    "Ġoccupy": 14730,
    "elopement": 23181,
    "Ġfins": 9665,
    "Ġnineveh": 13391,
    "Ġmoved": 4840,
    ".âĢĿ": 464,
    "Ġcheck": 7272,
    "pleasantness": 19771,
    "Ġideal": 13123,
    "Ġcrevice": 22723,
    "Ġresounds": 22543,
    "directly": 13708,
    "ma": 1149,
    "depart": 12270,
    "Ġsulkily": 25880,
    "eag": 20842,
    "Ġmargin": 11924,
    "row": 1062,
    "future": 13716,
    "sor": 7353,
    "Ġvirtue": 4924,
    "Ġbandages": 24430,
    "hated": 17561,
    "Ġdiscove": 16156,
    "everlasting": 18768,
    "Ġconscience": 6930,
    "Ġemaciated": 20639,
    "Ĺ": 250,
    "ub": 1226,
    "Ġstrangers": 8315,
    "Ġstaring": 8829,
    "Ġsuspects": 16889,
    "Ġsignifies": 19205,
    "clings": 23153,
    "adru": 15732,
    "Ġchuckled": 10650,
    "tumult": 12426,
    "gratitude": 16815,
    "Ġhealed": 21683,
    "Ġont": 18116,
    "Ġtreble": 16503,
    "concl": 12871,
    "Ġtrag": 13042,
    "writes": 4989,
    "Ġmarrying": 6179,
    "Ġroast": 18453,
    "Ġreceptacle": 23193,
    "Ġdeclaring": 19421,
    "Ġwor": 1189,
    "Ġsnatched": 10473,
    "Ġalgorith": 562,
    "Ġsetting": 7049,
    "fitting": 1509,
    "Ġleviathan": 3292,
    "gra": 767,
    "Ġbowl": 11205,
    "hush": 20905,
    "ĠâĢĺ": 1626,
    "Ġrapidly": 3288,
    "deceptive": 22150,
    "asion": 5715,
    "Ġamazement": 7766,
    "instantly": 7508,
    "phur": 16150,
    "roc": 9676,
    "lings": 8750,
    "Ġstrides": 22617,
    "Ġnotwithstanding": 9717,
    "Ġbun": 6007,
    "unpardonable": 21891,
    "Ġhydraulic": 10067,
    "Ġexposed": 8526,
    "Ġbible": 9322,
    "Ġvial": 10251,
    "Ġmug": 21312,
    "Ġindestruct": 22961,
    "tremendous": 20674,
    "Ġstick": 6026,
    "Ġcontracted": 12862,
    "Ġjunior": 15100,
    "cious": 6646,
    "created": 12454,
    "chair": 5917,
    "Ġgordon": 26467,
    "Ġmathematics": 12077,
    "Ġadapted": 11036,
    "nobody": 16138,
    "Ġfought": 12596,
    "inching": 21189,
    "Ġpemberley": 4589,
    "Ġtemporal": 2613,
    "Ġtuileries": 24825,
    "Ġbreathless": 12174,
    "Ġcommonest": 23091,
    "Ġlandsmen": 11353,
    "Ġor": 437,
    "Ġclothed": 19607,
    "Ġgarn": 13961,
    "Ġconnivance": 25224,
    "spee": 9319,
    "Ġimprecate": 20519,
    "Ġchip": 12826,
    "Ġdashed": 6010,
    "gave": 7801,
    "iless": 10284,
    "Ġis": 347,
    "acknowledged": 15203,
    "Ġvane": 22876,
    "ipotent": 10963,
    "rippa": 11343,
    "Ġnat": 12647,
    "dar": 20824,
    "Ġmultimodal": 18746,
    "Ġglobe": 6076,
    "Ġmin": 1025,
    "Ġqualified": 14949,
    "Ġdynamic": 5122,
    "Ġpuppy": 12408,
    "Ġsmiles": 6709,
    "Ġjones": 7205,
    "etwork": 442,
    "eer": 15347,
    "Ġparchment": 13652,
    "Ġblemish": 19680,
    "ined": 1259,
    "doubted": 17526,
    "Ġlatter": 3989,
    "Ġpermit": 9752,
    "Ġchances": 9265,
    "âĢľ_": 5721,
    "Ġsupremacy": 20261,
    "Ġforefinger": 16440,
    "Ġcrab": 13146,
    "Ġhed": 7387,
    "certain": 3679,
    "Ġcoffin": 4427,
    "Ġhammers": 13243,
    "cock": 12029,
    "Ġadvantages": 9811,
    "Ġwooing": 19435,
    "repe": 8781,
    "three": 5240,
    "iance": 5281,
    "Ġcrystals": 20228,
    "Ġrollicking": 24454,
    "orns": 12595,
    "stuff": 15688,
    "Ġredden": 15695,
    "Ġshri": 5376,
    "witted": 17707,
    "Ġcupboard": 16882,
    "Ġapartments": 19615,
    "Ġle": 333,
    "Ġsemicircular": 26067,
    "rene": 5380,
    "captains": 12131,
    "neighbours": 24883,
    "subsided": 25830,
    "Ġexercise": 8360,
    "owder": 8451,
    "Ġstrictly": 12289,
    "sciss": 18855,
    "thr": 12762,
    "Ġsystems": 814,
    "crazy": 24692,
    "preser": 9763,
    "Ġchemist": 11136,
    "iverer": 11719,
    "Ġsarat": 21227,
    "Ġrecovery": 11443,
    "Ġ92": 24591,
    "Ġwholesome": 16006,
    "thirds": 25048,
    "Ġdepressions": 25797,
    "Ġtendency": 11331,
    "Ġsettles": 22921,
    "scru": 16243,
    "Ġsuperlatively": 26074,
    "ump": 2281,
    "Ġphyseter": 26587,
    "Ġbedfellows": 23449,
    "rail": 10207,
    "Ġboards": 14299,
    "Ġguessed": 11284,
    "Ġsquatted": 25841,
    "Ġderivatives": 2370,
    "Ġnatural": 1125,
    "Ġsunset": 8965,
    "Ġlif": 10198,
    "Ġadler": 8175,
    "entreaties": 26185,
    "Ġpresently": 5116,
    "Ġ(": 595,
    "Ġterror": 5124,
    "Ġclothes": 4998,
    "Ġsusp": 2664,
    "Ġpew": 9317,
    "Ġsupposing": 6732,
    "Ġwal": 6518,
    "[_": 5132,
    "Ġapprehending": 26090,
    "Ġstaves": 21739,
    "Ġquito": 24411,
    "advanced": 19589,
    "Ġthoughtfulness": 18771,
    "Ġpetticoat": 15296,
    "Ġaghast": 16048,
    "Ġadjust": 2154,
    "disappeared": 14567,
    "Ġrushed": 4087,
    "Ġbearing": 5301,
    "Ġclicked": 22356,
    "Ġadventurous": 16732,
    "Ġferry": 24501,
    "Ġoriginally": 7305,
    "Ġadvances": 12989,
    "of": 766,
    "Ġrelied": 16195,
    "Ġcurv": 3513,
    "trem": 17681,
    "leviathan": 7786,
    "Ġlime": 13946,
    "Ġsiber": 17755,
    "Ġmorbidness": 20629,
    "Ġvult": 12754,
    "Ġbomb": 17867,
    "mouthful": 25207,
    "Ġassert": 7123,
    "overspreading": 26138,
    "Ġdissol": 18549,
    "roof": 17953,
    "Ġfiss": 21412,
    "aven": 8209,
    "Ġbitten": 21390,
    "\"": 6,
    "Ġunqualified": 22062,
    "Ġdefile": 18822,
    "Ġsoph": 1535,
    "Ġable": 3080,
    "Ġbel": 1215,
    "Ġsands": 14947,
    "gings": 7550,
    "Ġ71": 24265,
    "Ġcould": 703,
    "Ġimplicated": 24877,
    "erval": 4019,
    "Ġapproximates": 2415,
    "spade": 10342,
    "Ġdisobey": 18557,
    "Ġgentlemanly": 19316,
    "Ġinquiring": 9002,
    "Ġbellies": 13358,
    "Ġnegative": 1464,
    "feature": 4159,
    "per": 481,
    "Ġperempt": 13673,
    "gre": 5789,
    "Ġdeserving": 14752,
    "Ġjury": 5379,
    "Ġverse": 16601,
    "yet": 3754,
    "traced": 19646,
    "rior": 12744,
    "Ġsurpasses": 25267,
    "Ġattribute": 16098,
    "Ġfurnished": 6476,
    "events": 12321,
    "Ġjeer": 24127,
    "Ġcombined": 8551,
    "rad": 2152,
    "admire": 24945,
    "Ġmoment": 992,
    "Ġupheld": 22153,
    "ripp": 6406,
    "curious": 10485,
    "mariners": 19549,
    "Ġwitness": 4622,
    "gener": 3123,
    "Ġvale": 14080,
    "Ġcrash": 12005,
    "adjust": 21760,
    "Ġdemeanour": 17338,
    "Ġunless": 4090,
    "Ġriv": 10748,
    "Ġdiscre": 2414,
    "fields": 14650,
    "Ġsuitable": 18280,
    "Ġtablets": 13157,
    "specific": 10500,
    "Ġexplanations": 15911,
    "Ġburnwell": 13269,
    "Ġcircumnavigating": 25613,
    "Ġelev": 5537,
    "Ġrushing": 7403,
    "Ġmute": 19417,
    "Ġshipwrecked": 25686,
    "Ġcrazed": 19175,
    "once": 5904,
    "Ġneglig": 18878,
    "Ġdeduced": 12212,
    "irms": 18168,
    "fourth": 11330,
    "Ġstray": 18069,
    "run": 10723,
    "Ġincessant": 15097,
    "Ġevent": 2951,
    "Ġvile": 8476,
    "preference": 22468,
    "Ġoutrages": 18413,
    "Ġwhimsical": 20429,
    "boone": 23254,
    "Ġestablished": 9072,
    "Ġswear": 6462,
    "taught": 17684,
    "Ġident": 2240,
    "Ġslashing": 23171,
    "Ġeuroclydon": 15297,
    "commun": 15033,
    "Ġincites": 22553,
    "Ġnorms": 3669,
    "struck": 7864,
    "wins": 21128,
    "Ġrector": 21676,
    ")(": 2983,
    "Ġtigers": 25757,
    "bast": 10080,
    "sided": 17664,
    "Ġbears": 6830,
    "Ġprejud": 6852,
    "Ġhist": 2442,
    "ax": 694,
    "ĠĠĠĠĠĠĠĠĠĠĠĠĠĠĠĠĠĠĠĠĠĠĠĠĠĠĠĠĠĠĠĠĠĠĠĠĠĠĠĠĠĠĠĠ": 12158,
    "Ġbroadened": 23990,
    "Ġdazz": 11596,
    "Ġglimmer": 15142,
    "Ġworm": 9164,
    "_?âĢĿ": 15306,
    "Ġpurple": 10435,
    "Ġlodge": 5780,
    "vicinity": 20481,
    "Ġsupple": 23002,
    "Ġfifteen": 6948,
    "Ġaudio": 24772,
    "Ġsentences": 2685,
    "Ġanomalously": 25637,
    "Ġat": 395,
    "ack": 612,
    "Ġyojo": 7613,
    "anoke": 21361,
    "Ġcongenial": 12414,
    "Ġlongitudes": 22635,
    "meet": 11858,
    "Ġphotography": 24684,
    "Ġhum": 1098,
    "judge": 13339,
    "Ġwow": 15528,
    "dered": 2471,
    "Ġdangling": 17176,
    "again": 3400,
    "dwell": 15341,
    "Ġglimpse": 6945,
    "Ġamid": 4960,
    "irably": 13297,
    "Ġcobb": 14271,
    "Ġdeduction": 14900,
    "waste": 21133,
    "Ġdock": 15931,
    "Ġconvul": 13205,
    "Ġscanning": 18398,
    "ibid": 18839,
    "Ġchaplain": 19912,
    "board": 3600,
    "Ġmountains": 4425,
    "Ġrevolved": 9987,
    "Ġaims": 15495,
    "Ġneglecting": 25009,
    "bered": 4504,
    "Ġadds": 1808,
    "Ġengineer": 11978,
    "relics": 24020,
    "Ġremoval": 12121,
    "lying": 7176,
    "islanders": 25442,
    "savor": 25024,
    "Ġinfer": 7686,
    "Ġvigorous": 10569,
    "Ġbeheading": 21755,
    "persuaded": 15073,
    "Ġinvent": 7166,
    "pse": 21007,
    "Ġattorney": 18618,
    "Ġbritain": 16955,
    "lim": 9608,
    "Ġwondering": 7972,
    "zealand": 26054,
    "Ġchurch": 4712,
    "Ġdog": 4191,
    "Ġdistinction": 8889,
    "Ġpun": 4588,
    "Ġgrapple": 25810,
    "ippi": 20245,
    "bra": 6221,
    "Ġconsecutive": 20703,
    "abetical": 15744,
    "Ġcreature": 2382,
    "Ġforgiven": 24032,
    "bethinking": 25744,
    "Ġdesolate": 10016,
    "rench": 3966,
    "queg": 1774,
    "Ġperils": 6275,
    "Ġslips": 23168,
    "Ġarbit": 4651,
    "llable": 6880,
    "Ġdece": 6998,
    "Ġhark": 8430,
    "Ġfrequently": 4680,
    "Ġdesigned": 7742,
    "Ġtinged": 20084,
    "Ġmagnitude": 1942,
    "Ġvehicle": 20138,
    "Ġcrew": 2494,
    "Ġirritated": 17243,
    "Ġabomin": 8190,
    "Ġshine": 12768,
    "tha": 15824,
    "ink": 756,
    "Ġparties": 7041,
    "rum": 3472,
    "fate": 17539,
    "zening": 21148,
    "itated": 4439,
    "Ġfair": 2839,
    "Ġdong": 17887,
    "Ġdilatory": 24704,
    "Ġincommunicable": 26612,
    "Ġunforeseen": 22054,
    "interesting": 12206,
    "âĢĶ": 517,
    "power": 7139,
    "Ġairy": 23320,
    "Ġgoug": 17990,
    "companies": 24896,
    "shown": 22445,
    "Ġpatagon": 14495,
    "Ġauthorized": 16734,
    "enge": 21280,
    "lighted": 23759,
    "Ġramsgate": 18646,
    "Ġcand": 3278,
    "Ġphrase": 11189,
    "piece": 6658,
    "ered": 1682,
    "ivial": 15860,
    "Ġsignify": 16493,
    "ulpt": 10887,
    "Ġpurpose": 2710,
    "unearthly": 19273,
    "Ġruthless": 15286,
    "Ġcrunched": 19120,
    "Ġri": 3396,
    "Ġcaulking": 20294,
    "Ġuncertain": 4067,
    "ļ": 253,
    "semic": 21822,
    "capitals": 25082,
    "Ġpoor": 1710,
    "Ġnoisy": 13321,
    "Ġunusually": 15847,
    "poise": 6173,
    "Ġhad": 443,
    "Ġbob": 22637,
    "Ġadvis": 9810,
    "Ġgradually": 3402,
    "Ġknowledge": 1446,
    "bos": 17484,
    "Ġquick": 2583,
    "title": 17289,
    "Ġmisled": 22760,
    "Ġseen": 1368,
    "Ġswing": 13039,
    "Ġguiding": 19241,
    "peaceful": 20448,
    "Ġestate": 6318,
    "Ġplausible": 26554,
    "Ġsupp": 1265,
    "prom": 6510,
    "humour": 7500,
    "Ġbefitting": 15727,
    "Ġembattled": 26287,
    "cra": 6356,
    "quid": 18145,
    "successful": 11360,
    "occur": 19576,
    "Ġelimin": 16109,
    "Ġathe": 17741,
    "tting": 17680,
    "ĠâĢĺ_": 11119,
    "constantinople": 25507,
    "Ġsurely": 6309,
    "Ġwithstand": 10228,
    "Ġgreenness": 23771,
    "Ġding": 12602,
    "initions": 21187,
    "wling": 11546,
    "Ġmutiny": 13261,
    "forest": 22519,
    "ubb": 1645,
    "Ġqualities": 7535,
    "Ġboundless": 10498,
    "Ġspans": 18302,
    "Ġapp": 496,
    "doub": 6225,
    "effort": 19215,
    "Ġunexplored": 26519,
    "Ġties": 12530,
    "ckinridge": 11722,
    "Ġwarb": 17787,
    "eng": 1488,
    "nantucket": 7806,
    "Ġconcre": 16386,
    "athans": 7434,
    "unw": 14055,
    "ike": 5001,
    "Ġattaining": 15804,
    "Ġspeed": 2445,
    "headers": 23110,
    "Ġcongregation": 12333,
    "Ġbolt": 11336,
    "ation": 320,
    "Ġkings": 7198,
    "Ġreasonable": 7255,
    "Ġ221": 25070,
    "spark": 18684,
    "occasion": 7755,
    "Ġdu": 4585,
    "Ġcorrectly": 9407,
    "Ġsweep": 8267,
    "Ġvisage": 18778,
    "Ġshape": 5640,
    "Ġgradients": 611,
    "haps": 1667,
    "Ġcandid": 4098,
    "Ġrouse": 15823,
    "velope": 17701,
    "Ġenv": 2903,
    "Ġinsincere": 26600,
    "lotte": 3333,
    "unbidden": 21895,
    "vard": 21109,
    "Ġcommissioned": 19895,
    "isles": 15564,
    "Ġcracking": 14572,
    "sufficient": 6638,
    "Ġregulate": 22588,
    "Ġpatentee": 25586,
    "Ġwrapping": 19776,
    "Ġattributed": 11836,
    "rie": 2789,
    "obed": 14444,
    "Ġepisode": 26347,
    "Ġaccomplishments": 13381,
    "Ġprettier": 23770,
    "Ġju": 10289,
    "ock": 15401,
    "gradu": 18614,
    "Ġbelong": 3886,
    "icle": 10836,
    "Ġshould": 866,
    "knot": 13744,
    "Ġwhole": 1659,
    "Ġgall": 4350,
    "Ġduly": 13353,
    "Ġthose": 1171,
    "Ġremembered": 5278,
    "Ġduc": 4698,
    "ructive": 18529,
    "icating": 15656,
    "Ġintense": 6159,
    "Ġcruis": 14622,
    "Ġdescended": 7428,
    "Ġ98": 24594,
    "hawks": 24695,
    "Ġmeditate": 16706,
    "casks": 20404,
    "retreat": 23140,
    "Ġsloop": 25929,
    "respective": 19846,
    "lue": 8512,
    "Ġverdict": 13476,
    "bohemia": 20731,
    "Ġorlop": 22094,
    "Ġwing": 6669,
    "Ġlabelled": 23333,
    "abated": 14018,
    "Ġquivering": 12860,
    "Ġeffected": 14352,
    "Ġaction": 5798,
    "bath": 13689,
    "Ġ106": 24417,
    "Ġfates": 15578,
    "Ġdevouring": 11861,
    "influence": 13578,
    "dra": 3416,
    "Ġegypt": 9681,
    "Ġlxi": 21560,
    "Ġdispelling": 23885,
    "Ġvor": 15807,
    "persons": 24180,
    "Ġenter": 4029,
    "flutter": 23976,
    "mature": 20965,
    "Ġmoritz": 11909,
    "Ġequilib": 4134,
    "Ġneatly": 17017,
    "Ġloft": 5643,
    "Ġ81": 24460,
    "months": 9074,
    "Ġspent": 3963,
    "corner": 13399,
    "Ğ": 223,
    "flo": 6115,
    "Ġpurporting": 19182,
    "Ġsembl": 19059,
    "accur": 14591,
    "Ġcaresses": 26058,
    "Ġfacilitate": 26097,
    "================": 3725,
    "likes": 18813,
    "critical": 19497,
    "Ġalexander": 17425,
    "Ġclum": 8876,
    "arm": 1358,
    "grained": 20883,
    "orated": 12594,
    "Ġsill": 10767,
    "bury": 9110,
    "pret": 7213,
    "Ġhumans": 8933,
    "Ġoriginal": 6103,
    "Ġinterruption": 9476,
    "Ġdesired": 4665,
    "Ġbaw": 15569,
    "asmuch": 10197,
    "Ġm": 274,
    "answering": 26003,
    "izz": 7617,
    "Ġfrosty": 14934,
    "iture": 5697,
    "Ġhorns": 11125,
    "Ġsteelkilt": 5676,
    "Ġflirting": 16251,
    "elizabeth": 1986,
    "Ġrepeated": 3833,
    "Ġ46": 19492,
    "Ġthinkings": 22811,
    "Ġalone": 2567,
    "vac": 15449,
    "oughed": 22087,
    "phr": 18701,
    "Ġvesuvius": 26502,
    "Ġgoverning": 2797,
    "ounce": 6559,
    "woe": 21134,
    "Ġgraceful": 11298,
    "rous": 3753,
    "its": 1148,
    "Ġforget": 2634,
    "Ġhouse": 1502,
    "Ġsiam": 13837,
    "Ġfishery": 4174,
    "Ġstair": 8458,
    "Ġjudged": 12087,
    "Ġpriest": 7528,
    "unned": 21879,
    "Ġthreats": 13379,
    "Ġbid": 6133,
    "Ġregretted": 13402,
    "!âĢĿâĢĶ": 8536,
    "Ġmessages": 24983,
    "Ġalpine": 18105,
    "Ġgoverned": 23575,
    "altern": 17941,
    "Ġswung": 6450,
    "damn": 20025,
    "oro": 21395,
    "Ġeavesdroppers": 25962,
    "Ġyourself": 2594,
    "Ġyore": 21779,
    "Ġforemost": 12008,
    "grinder": 23419,
    "Ġnib": 13939,
    "Ġpitiful": 13241,
    "incl": 8111,
    "mers": 9612,
    "ivil": 6412,
    "accusations": 23603,
    "Ġpeeling": 22692,
    "onted": 11569,
    "onds": 12998,
    "Ġprofessors": 14724,
    "Ġinvoluntarily": 8553,
    "confusion": 13372,
    "ounds": 4156,
    "Ġborne": 6353,
    "cen": 17503,
    "Ġprincess": 23222,
    "ancho": 4939,
    "ain": 343,
    "ĠĠĠĠĠĠĠĠĠĠĠĠĠĠĠĠĠĠĠĠĠĠĠĠĠĠĠĠĠĠĠĠĠĠĠĠĠĠĠĠĠ": 19583,
    "Ġloth": 17965,
    "Ġroots": 11187,
    "gate": 12470,
    "Ġdesolation": 12273,
    "Ġworthy": 7242,
    "town": 7145,
    "manner": 6172,
    "sighted": 19786,
    "Ġconstruction": 9387,
    "lorn": 12491,
    "rically": 15416,
    "ĠĠĠĠĠĠĠĠĠĠĠĠĠĠĠĠĠĠĠĠĠĠĠĠĠĠĠ": 14885,
    "Ġstatistics": 1681,
    "Ġcomprehending": 24448,
    "fingers": 17371,
    "Ġflowers": 8943,
    "met": 6655,
    "Ġheavily": 6743,
    "istence": 2209,
    "Ġtoo": 1164,
    "Ġhesitated": 10005,
    "tears": 11039,
    "Ġdebated": 9043,
    "disposed": 25012,
    "Ġapprised": 18359,
    "Ġswaying": 15045,
    "Ġguide": 3214,
    "Ġplutarch": 22603,
    "jack": 7345,
    "Ġcommunicative": 24551,
    "Ġlifeless": 8951,
    "Ġquoin": 22419,
    "Ġunh": 9255,
    "Ġtons": 11551,
    "Ġmistaken": 4987,
    "Ġqueens": 16702,
    "ible": 1113,
    "uary": 11539,
    "pagans": 25525,
    "sword": 10728,
    "Ġcomrade": 11683,
    "Ġbatt": 13898,
    "swam": 24260,
    "rels": 6668,
    "Ġbreeds": 23351,
    "antique": 18285,
    "Ġcollect": 7238,
    "ensils": 22550,
    "Ġaccording": 5509,
    "nect": 661,
    "instant": 8656,
    "Ġsickening": 19605,
    "Ġcocks": 18591,
    "younger": 11314,
    "Ġiterate": 13203,
    "gument": 20885,
    "persu": 8029,
    "Ġattempting": 14695,
    "Ġfull": 2176,
    "ceived": 1964,
    "Ġassured": 4371,
    "Ġconvert": 11846,
    "Ġstabbing": 20304,
    "Ġloathed": 15876,
    "tempestuous": 26096,
    "Ġresol": 2666,
    "Ġlid": 6985,
    "scythes": 26402,
    "assist": 11771,
    "must": 3578,
    "Ġclimbing": 20071,
    "Ġwarped": 25037,
    "digger": 24315,
    "Ġdestroying": 14728,
    "Ġrenewed": 9540,
    "Ġsubsequent": 7661,
    "/": 19,
    "bun": 12441,
    "Ġplayfulness": 23643,
    "Ġparm": 15878,
    "Ġfive": 2838,
    "discern": 14850,
    "acked": 10975,
    "Ġpugn": 21478,
    "Ġdol": 9666,
    "Ġstreng": 18070,
    "hed": 670,
    "Ġinterpre": 1587,
    "Ġgives": 5019,
    "obser": 11101,
    "unnecessary": 21881,
    "Ġenlist": 21937,
    "Ġdood": 22243,
    "announced": 19760,
    "Ġmounting": 19978,
    "Ġhabitation": 14802,
    "Ġut": 2276,
    "Ġassu": 21898,
    "agement": 4187,
    "sequence": 2857,
    "Ġclasp": 9747,
    "changed": 7177,
    "Ġangles": 23592,
    "Ġlacey": 10200,
    "Ġkicks": 19769,
    "Ġsources": 10150,
    "Ġsloping": 11942,
    "legra": 10791,
    "Ġanticipated": 13510,
    "Ġdamn": 11160,
    "ly": 319,
    "Ġunprotected": 22068,
    "dling": 15339,
    "Ġmaze": 23836,
    "Ġ184": 16606,
    "Ġexist": 9233,
    "affect": 13213,
    "agged": 9239,
    "Ġconceals": 23909,
    "bingley": 4929,
    "Ġnorthern": 7266,
    "Ġwreat": 15530,
    "Ġdance": 4441,
    "Ġcocked": 12906,
    "drugg": 20838,
    "Ġclaret": 22354,
    "Ġstreaming": 19674,
    "animated": 14974,
    "Ġhissed": 15790,
    "Ġdolphin": 17314,
    "Ġscot": 5644,
    "Ġingolstadt": 8334,
    "Ġmaledictions": 26428,
    "Ġrepaid": 19082,
    "ige": 12682,
    "Ġhire": 21484,
    "Ġeager": 3571,
    "1775": 26378,
    "Ġremot": 8547,
    "Ġeyes": 1336,
    "Ġjagged": 18405,
    "Ġruin": 6056,
    "Ġdelights": 14594,
    "masts": 19426,
    "Ġbirds": 5875,
    "Ġalbertus": 25647,
    "Ġvillagers": 19475,
    "Ġvic": 5238,
    "pronounce": 25191,
    "Ġsoothingly": 25049,
    "reserved": 13842,
    "Ġslumbers": 18941,
    "Ġdanger": 3521,
    "Ġears": 4490,
    "Ġoperate": 19115,
    "errand": 22909,
    "ils": 3181,
    "Ġenvy": 13188,
    "mming": 1170,
    "well": 1689,
    "acher": 6869,
    "Ġtransformations": 3486,
    "Ġ41": 24085,
    "Ġwhitt": 18054,
    "Ġindustry": 18836,
    "mish": 17598,
    "Ġderick": 9366,
    "Ġrefers": 1565,
    "Ġplaintiffs": 13609,
    "horizon": 23619,
    "Ġpiled": 8427,
    "Ġguineas": 16270,
    "Ġinferior": 8367,
    "Ġameric": 3855,
    "Ġengineering": 3027,
    "Ġobligation": 13246,
    "ured": 1651,
    "Ġproudly": 19743,
    "Ġobsc": 7042,
    "Ġcrossing": 7253,
    "Ġthreatening": 16827,
    "Ġeber": 18003,
    "Ġscrolled": 22290,
    "Ġthousand": 2784,
    "Ġingenuity": 17165,
    "Ġdist": 680,
    "Ġoffing": 16144,
    "Ġconference": 15748,
    "still": 4218,
    "seized": 14033,
    "Ġswan": 23052,
    "speptic": 23951,
    "Ġbranches": 6778,
    "revealed": 20417,
    "Ġkrusen": 20714,
    "Ď": 207,
    "Ġrat": 4352,
    "Ġdined": 9178,
    "Ġwinding": 8237,
    "bow": 5425,
    "proachable": 23401,
    "Ġfollowed": 1796,
    "verty": 8455,
    "scrape": 25697,
    "Ġselfishness": 12293,
    "thought": 3850,
    "Ġspiteful": 19523,
    "ev": 6953,
    "Ġshol": 21996,
    "Ġsalesman": 13668,
    "Ġjackal": 24245,
    "rep": 5526,
    "Ġhiss": 15789,
    "brous": 19200,
    "Ġoper": 2120,
    "acon": 10684,
    "Ġdost": 7639,
    "Ġnovember": 11752,
    "Ġstretching": 10018,
    "Ġefficiently": 3595,
    "contr": 12060,
    "Ġfaces": 6009,
    "Ġshield": 22000,
    "Ġdisembow": 22538,
    "send": 15422,
    "Ġconsp": 10227,
    "Ġcluster": 13571,
    "unaffected": 21884,
    "floor": 14935,
    "Ġpumping": 25642,
    "Ġmissed": 8561,
    "ratches": 20126,
    "Ġenem": 4709,
    "Ġpronounced": 8352,
    "Ġappal": 18357,
    "precision": 4330,
    "pil": 15407,
    "Ġcirc": 1985,
    "Ġtendons": 19809,
    "Ġhugest": 17016,
    "Ġallurements": 22010,
    "Ġblandly": 20324,
    "lodged": 25906,
    "eat": 11485,
    "poured": 17637,
    "windibank": 24167,
    "Ġcrad": 21349,
    "Ġprecision": 13191,
    "deserted": 19342,
    "Ġresisted": 22542,
    "Ġmorass": 22977,
    "Ġagreement": 18541,
    "minute": 11276,
    "Ġly": 2267,
    "labours": 16616,
    "elve": 4642,
    "Ġexact": 2542,
    "Ġbear": 3661,
    "Ġscre": 9740,
    "pt": 386,
    "Ġdigest": 24648,
    "Ġremorseless": 13452,
    "lesson": 22774,
    "Ġassail": 13065,
    "higher": 20408,
    "Ġeigenvalues": 4999,
    "Ġattacking": 24468,
    "Ġ1825": 25717,
    "Ġfrown": 10809,
    "daw": 17522,
    "Ġpresentation": 14477,
    "Ġprendergast": 26538,
    "rim": 7140,
    "Ġdimens": 3149,
    "breeze": 20563,
    "Ġache": 18661,
    "Ġdegree": 3706,
    "Ġsor": 4144,
    "Ġknows": 4158,
    "Ġarguments": 8038,
    "Ġfacil": 16961,
    "carpet": 25201,
    "Ġfringed": 17274,
    "Ġchair": 3665,
    "Ġbuckskin": 19953,
    "Ġepistle": 24905,
    "Ġresting": 7963,
    "bb": 2802,
    "Ġcompetition": 14265,
    "ro": 301,
    "Ġtenants": 23551,
    "cely": 3575,
    "harpoons": 24301,
    "Ġbloodshed": 23805,
    "Ġwhalers": 8049,
    "Ġcheeks": 5958,
    "Ġvarieties": 14308,
    "Ġsteady": 4848,
    "Ġtaurus": 21178,
    "Ġthings": 1962,
    "Ġglimp": 6066,
    "m": 81,
    "oline": 6835,
    "Ġcargo": 16290,
    "flakes": 23973,
    "Ġtu": 6970,
    "Ġpitchpoling": 14910,
    "Ġcompanion": 3647,
    "Ġfurnace": 19441,
    "Ġdeficiency": 14401,
    "resembling": 25931,
    "Ġwoods": 5407,
    "Ġobliterated": 17406,
    "chemical": 23813,
    "eties": 10839,
    "ahead": 12437,
    "Ġfemin": 13437,
    "Ġvancouver": 26566,
    "Ġunit": 1850,
    "felicity": 25143,
    "Ġaffrighted": 13572,
    "unity": 4150,
    "tales": 17686,
    "wretchedness": 17254,
    "tee": 16171,
    "Ġcomputes": 4769,
    "favourite": 15144,
    "absolutely": 10648,
    "Ġpurch": 6601,
    "histicated": 20900,
    "Ġwhirlp": 16962,
    "avor": 14256,
    "Ġwheeling": 18286,
    "reeable": 3614,
    "interest": 5422,
    "jammed": 25905,
    "«": 109,
    "Ġpresentiment": 18986,
    "Ġimpossibility": 20647,
    "Ġenviron": 3924,
    "Ġgreeting": 18962,
    "mild": 15391,
    "Ġlik": 2522,
    "Ġstrive": 23698,
    "Ġstreams": 12197,
    "Ġshock": 6082,
    "Ġvictims": 19805,
    "Ġembarrassed": 11386,
    "Ġexpert": 18866,
    "Ġwithdra": 6399,
    "Ġlashes": 17966,
    "Ġpassing": 4314,
    "Ġfaulty": 14906,
    "Ġsmoked": 10325,
    "Ġsperm": 1844,
    "gs": 7339,
    "Ġseer": 21953,
    "sol": 1793,
    "esty": 4305,
    "Ġnast": 15639,
    "eded": 9675,
    "Ġhumiliating": 22884,
    "Ġrecomm": 4997,
    "Ġabhorrent": 16855,
    "Ġmission": 13008,
    "archangel": 18788,
    "Ġloite": 22112,
    "Ġtranslations": 12055,
    "Ġridic": 7510,
    "Ġchoose": 5982,
    "liked": 10511,
    "lightning": 16551,
    "ĠĠĠĠ": 459,
    "dramatic": 19386,
    "tin": 6117,
    "Ġstumbling": 21743,
    "afternoon": 13187,
    "seek": 8841,
    "Ġchis": 11753,
    "Ġwhat": 600,
    "bons": 17487,
    "ignor": 8964,
    "Ġbony": 12590,
    "pot": 10120,
    "đ": 210,
    "aited": 12438,
    "Ġmanner": 2195,
    "Ġcuba": 25097,
    "qualified": 17098,
    "claims": 25319,
    "....": 11318,
    "Ġresuming": 12895,
    "hatchet": 24820,
    "allingly": 22200,
    "Ġmended": 21313,
    "Ġthanking": 18600,
    "Ġemir": 23353,
    "Ġprisoner": 8677,
    "Ġcollected": 2611,
    "prepare": 20213,
    "oug": 432,
    "edged": 15631,
    "fra": 8376,
    "acled": 16082,
    "Ġprotested": 9937,
    "mitted": 5214,
    "Ġadvertising": 25389,
    "Ġcompassion": 6488,
    "lasting": 8012,
    "Ġprecise": 7078,
    "abilities": 3236,
    "ricane": 16277,
    "Ġpuffs": 14975,
    "belated": 24042,
    "Ġspurned": 12799,
    "with": 1298,
    "Ġtwink": 8217,
    "Ġeloquence": 11845,
    "steam": 23965,
    "saying": 8645,
    "izer": 2028,
    "pencil": 18826,
    "Ġopera": 23430,
    "human": 7091,
    "Ġconsidering": 4616,
    "stains": 11638,
    "Ġrats": 21977,
    "Ġsec": 2075,
    ",âĢĻ": 2327,
    "chains": 9688,
    "support": 9472,
    "Ġwalked": 3139,
    "glue": 17556,
    "Ġhinting": 19650,
    "ots": 3297,
    "Ġcontro": 1685,
    "Ġattended": 5392,
    "Ġstrainings": 24628,
    "Ġspind": 18305,
    "arming": 8954,
    "Ġdarting": 7758,
    "Ġrailway": 15020,
    "hes": 1398,
    "Ġendow": 23137,
    "Ġconcentric": 20076,
    "Ġexplored": 23521,
    "rates": 21037,
    "threshold": 21988,
    "dissemble": 23496,
    "Ġeccentric": 13649,
    "Ġgoblet": 25822,
    "hip": 8745,
    "Ġearl": 7678,
    "Ġcoil": 11821,
    "Ġinfiltrated": 23288,
    "Ġspect": 3554,
    "Ġintelligible": 15942,
    "Ġgaiety": 16748,
    "Ġowners": 7665,
    "magnificent": 20275,
    "Ġimpact": 10299,
    "Ġthinks": 6171,
    "Ġrecurrent": 1806,
    "ened": 1387,
    "urs": 6991,
    "Ġstupendous": 20502,
    "common": 4126,
    "osop": 4403,
    "Ġdistributes": 4195,
    "wel": 6118,
    "acing": 2719,
    "ved": 870,
    "Ġeasier": 11167,
    "Ġvariation": 22665,
    "wal": 10136,
    "aments": 12727,
    "quaker": 15764,
    "Ġleads": 12100,
    "Ġscepticism": 25926,
    "Ġthinker": 22810,
    "Ġexempl": 21831,
    "Ġturing": 7568,
    "Ġneighbouring": 12122,
    "eyed": 11489,
    "mbl": 5946,
    "Ġchest": 5186,
    "Ġwall": 3844,
    "okes": 9279,
    "Ġunfold": 8023,
    "greek": 25404,
    "Ġinit": 819,
    "Ġaffidavit": 20724,
    "Ġbarbaric": 10017,
    "ppers": 7620,
    "Ġsine": 10765,
    "Ġrisen": 9496,
    "Ġcomfortably": 16614,
    "Ġincurable": 22554,
    "superior": 9527,
    "Ġwhilst": 9220,
    "interests": 19709,
    "Ġatmosphere": 10899,
    "Ġtongues": 14862,
    "Ġcher": 6131,
    "Ġcarr": 23092,
    "Ġaberde": 22278,
    "Ġconsequently": 8061,
    "Ġdefection": 22943,
    "Ġdistribut": 842,
    "constellation": 24608,
    "Ġmerited": 23736,
    "winds": 10524,
    "Ġunful": 22012,
    "Ġflooded": 24961,
    "Ġdinners": 23987,
    "Ġmodular": 12819,
    "Ġlegisl": 23539,
    "mbly": 9791,
    "Ġscrew": 8871,
    "ackled": 22421,
    "Ġerudite": 26351,
    "Ġbiscuit": 12592,
    "returning": 12210,
    "Ġsmooth": 2780,
    "Ġ44": 16678,
    "min": 4571,
    "Ġgovernments": 20268,
    "gaze": 17557,
    "occasionally": 13520,
    "Ġbanished": 10619,
    "Ġdescription": 7429,
    "instance": 24174,
    "inated": 6806,
    "thence": 23403,
    "Ġhooked": 19079,
    "Ġvales": 21947,
    "Ġlimits": 3454,
    "itatingly": 25276,
    "Ġmuseum": 15272,
    "Ġglu": 15669,
    "Ġaccost": 12848,
    "petulance": 24304,
    "comparatively": 25839,
    "Ġdepicted": 14282,
    "Ġimpetuous": 25570,
    "Ġsoda": 25534,
    "Ġ33": 16675,
    "Ġunconditional": 15845,
    "supportable": 12373,
    "chorus": 19812,
    "gladness": 25193,
    "Ġflies": 13027,
    "Ġsubstance": 5511,
    "Ġequally": 5259,
    "tastes": 21095,
    "Ġstraightway": 9020,
    "Ġstalk": 12699,
    "Ġtreats": 19345,
    "ner": 1371,
    "asy": 5297,
    "venty": 6428,
    "âĢĶâĢĻ": 8189,
    "Ġentreating": 24213,
    "desired": 9008,
    "conjectured": 25180,
    "encoun": 12301,
    "Ġpasseng": 12973,
    "Ġexplicit": 3590,
    "Ġrick": 21974,
    "Ġencoding": 4775,
    "Ġflannel": 26578,
    "Ġfrosted": 19804,
    "Ġapplied": 6188,
    "words": 7984,
    "Ġproperties": 3116,
    "Ġhappy": 2462,
    "telling": 14437,
    "Ġindecision": 25780,
    "Ġoffices": 14335,
    "Ġdirected": 5580,
    "whalebone": 19118,
    "Ġcommons": 22672,
    "Ġspoiled": 11365,
    "Ġmonitors": 3156,
    "Ġtall": 4038,
    "Ġinducement": 16842,
    "Ġgrass": 5178,
    "autumn": 23345,
    "Ġassoc": 6403,
    "nns": 1894,
    "po": 1139,
    "Ġpassionately": 16763,
    "Ġtrifling": 10605,
    "nose": 17611,
    "Ġcontemptible": 16952,
    "Ġbarrier": 16568,
    "tering": 3807,
    "Ġexclaimed": 4683,
    "enit": 17779,
    "Ġdoubtless": 6197,
    "venison": 22628,
    "Ġsuccessful": 9926,
    "children": 9058,
    "Ġperv": 15991,
    "Ġunlucky": 10053,
    "Ġunwelcome": 12782,
    "beef": 18521,
    "Ġformal": 2943,
    "plan": 15819,
    "Ġtou": 15465,
    "Ġobedient": 20106,
    "Ġproximity": 3218,
    "ulence": 15767,
    "Ġundiscernible": 22069,
    "Ġintrepidity": 25550,
    "Ġlagged": 21557,
    "Ġfatal": 5873,
    "amuse": 14050,
    "larger": 24208,
    "Ġexeget": 24089,
    "Ġpurses": 23480,
    "alcul": 15628,
    "Ġdispute": 16057,
    "Ġserv": 3331,
    "arness": 11673,
    "Ġtilted": 20414,
    "Ġentreaties": 9038,
    "Ġcourt": 4168,
    "Ġreposing": 23364,
    "Ġgenerating": 12851,
    "Ġdiscovery": 5413,
    "Ġtrial": 6637,
    "Ġ6": 5142,
    "Ġhunted": 7454,
    "deception": 22146,
    "drawers": 19387,
    "Ġflesh": 5969,
    "altogether": 12641,
    "Ġwarm": 2422,
    "riot": 18181,
    "methodically": 20664,
    "Ġclosest": 16762,
    "Ġfurther": 1053,
    "Ġmazes": 25939,
    "using": 5469,
    "downstairs": 23925,
    "endure": 22224,
    "Ġrelish": 14382,
    "Ġbefell": 14008,
    "iom": 20913,
    "Ġtoilet": 13936,
    "Ġwoodcock": 19163,
    "Ġunspeakably": 25171,
    "Ġmentioned": 4328,
    "repent": 15512,
    "Ġexcavating": 23318,
    "utions": 1891,
    "Ġface": 1723,
    "Ġaffords": 16733,
    "inative": 15483,
    "Ġmott": 17803,
    "Ġrecently": 11864,
    "ortment": 22258,
    "Ġcomplain": 6688,
    "rods": 21537,
    "Ġcreator": 7254,
    "Ġnewspaper": 12367,
    "aired": 8370,
    "Ġcaterpillar": 5866,
    "Ġunra": 18235,
    "Ġstout": 6025,
    "parameter": 3026,
    "Ġringing": 13334,
    "Ġplump": 14280,
    "Ġcoherent": 3265,
    "Ġlibr": 16001,
    "Ġwhoa": 22423,
    "Ġgems": 9210,
    "understanding": 1095,
    "Ġpreposterous": 13669,
    "furnished": 20242,
    "Ġfilm": 23931,
    "attached": 11938,
    "Ġplant": 8903,
    "eg": 17529,
    "Ġdeceased": 15005,
    "Ġliveliness": 13643,
    "Ġcloser": 8664,
    "Ġshouldn": 14323,
    "Ġbreeze": 5682,
    "Ġhammered": 13242,
    "Ġvocation": 10528,
    "Ġwildness": 14601,
    "collins": 6917,
    "Ġbehave": 23303,
    "beyond": 8886,
    "honest": 17004,
    "Ġyouthful": 16722,
    "commanding": 24751,
    "Ġbroiled": 18907,
    "Ġespe": 21155,
    "Ġlab": 1873,
    "Ġconvey": 9984,
    "child": 5539,
    "Ġmelbourne": 24292,
    "Ġth": 299,
    "Ġgrec": 18960,
    "Ġnecessarily": 13251,
    "aswag": 21545,
    "Ġpreluding": 18366,
    "urity": 8144,
    "Ġreckoned": 24743,
    "Ġskeletons": 16790,
    "Ġisolated": 13559,
    "Ġtear": 6726,
    "Ġtwins": 16121,
    "Ġprep": 4190,
    "#": 7,
    "Ġmaxim": 3084,
    "andy": 8159,
    "xter": 9148,
    "Ġburning": 5977,
    "earliest": 20121,
    "Ġinternal": 2246,
    "Á": 130,
    "Ġpouring": 12626,
    "Ġdaint": 15593,
    "ited": 1755,
    "intellig": 5322,
    ").": 1271,
    "Ġbizarre": 17871,
    "Ġegyptians": 25289,
    "Ġsubterr": 10351,
    "Ġdishes": 16051,
    "Ġsums": 2904,
    "Ġdough": 8423,
    "Ġsuperstitions": 17071,
    "Ġdisguise": 10049,
    "Ġdecisive": 18489,
    "Ń": 260,
    "Ġdisadvantage": 12892,
    "odecimoes": 25318,
    "Ġweaken": 21923,
    "Ġidentical": 10436,
    "Ġaccidentally": 9508,
    "Ġstripping": 23701,
    "bewil": 22498,
    "required": 17030,
    "Ġhab": 4217,
    "Ġinstruments": 12228,
    "Ġunnatural": 7191,
    "Ġobliging": 13245,
    "su": 801,
    "yond": 2329,
    "Ġpadded": 25038,
    "Ġbower": 15567,
    "Ġnorm": 762,
    "ip": 557,
    "weigh": 18663,
    "sorrow": 12511,
    "v": 90,
    "Ġinex": 6529,
    "Ġhimself": 1353,
    "Ġaccord": 4025,
    "Ġappointment": 10649,
    "21": 10075,
    "ted": 792,
    "concerning": 9070,
    "mediterranean": 16404,
    "hour": 7341,
    "Ġunexpected": 6842,
    "Ġbehavioral": 11398,
    "ru": 479,
    "Ġconverts": 2807,
    "Ġengaged": 3431,
    "ww": 10739,
    "ou": 287,
    "eness": 2288,
    "Ġearthly": 7991,
    "nlp": 8755,
    "uther": 8822,
    "Ġhorse": 4726,
    "Ġcounteracted": 19862,
    "wondrous": 12341,
    "ï": 176,
    "shott": 11797,
    "Ġmonday": 6129,
    "Ġthen": 664,
    "Ġtanning": 17729,
    "entitled": 21567,
    "Ġhard": 1452,
    "Ġburnished": 24003,
    "Ġusual": 3943,
    "Ġbridges": 24683,
    "Ġtin": 15462,
    "ccess": 3182,
    "ested": 3481,
    "Ġmirth": 15545,
    "Ġtents": 13817,
    "otle": 21798,
    "Ġcoachman": 14999,
    "myster": 16262,
    "Ġcracked": 8598,
    "body": 2307,
    "Ġquies": 18462,
    "databases": 3025,
    "Ġsun": 1721,
    "Ġsir": 1569,
    "Ġfuller": 11158,
    "secut": 7869,
    "Ġsettled": 3743,
    "Ġhired": 10180,
    "Ġginger": 9212,
    "Ġ8": 5434,
    "Ġgrowled": 19283,
    "cor": 5521,
    "iousness": 4901,
    "Ġcomplete": 4381,
    "Ġdreamed": 16629,
    "Ġseams": 12128,
    "drovand": 24759,
    "Ġwicked": 5961,
    "Ġign": 8295,
    "Ġfiddle": 25444,
    "Ġfavour": 3645,
    "Ġpurchas": 19874,
    "Ġcollinses": 19129,
    "Ġunguarded": 15851,
    "Ġsurveying": 25325,
    "Ġworst": 7445,
    "asting": 12808,
    "Ġeigen": 4883,
    "Ġsimulates": 2741,
    "Ġ=": 1072,
    "Ġadversarial": 5608,
    "cad": 17505,
    "Ġwired": 17786,
    "Ġtravell": 5577,
    "persuade": 13532,
    "Ġperception": 9753,
    "Ġarve": 15899,
    "mund": 13757,
    "Ġfevers": 22207,
    "Ġbachelors": 24862,
    "icult": 3344,
    "Ġnarrowed": 24363,
    "Ġprevented": 5942,
    "zetts": 17714,
    "Ġfreedom": 9085,
    "fi": 12465,
    "collecting": 26080,
    "felix": 10656,
    "pling": 8480,
    "Ġvalid": 1717,
    "tese": 21082,
    "Ġendless": 7056,
    "Ġundec": 22020,
    "Ġspatial": 2732,
    "Ġexpect": 2304,
    "attending": 18915,
    "Ġconspicuous": 13603,
    "muring": 17601,
    "okingly": 22379,
    "Ġoccasioned": 13230,
    "Ġparameters": 996,
    "Ġmaids": 19692,
    "Ġfancied": 7327,
    "urpation": 16301,
    "Ġwint": 15532,
    "Ġintend": 12766,
    "loaded": 22512,
    "Ġclever": 7057,
    "ll": 1140,
    "Ġgets": 10841,
    "bearers": 18522,
    "Ġfolded": 7769,
    "indisc": 22374,
    "bre": 3979,
    "Ġequivalent": 4803,
    "dimly": 15346,
    "pile": 17629,
    "streamed": 25964,
    "Ġwriter": 11948,
    "convolutional": 4959,
    "rane": 17653,
    "uting": 15661,
    "Ġsar": 21213,
    "Ġsurviv": 13436,
    "Ġraging": 14304,
    "conspicuous": 26247,
    "Ġfathoms": 9086,
    "ula": 2827,
    "Ġheedfully": 24524,
    "Ġsagacity": 16973,
    "Ġtinker": 15132,
    "Ġcrowned": 16840,
    "Ġheels": 10852,
    "sounding": 24797,
    "determined": 9082,
    "Ġbrief": 6978,
    "Ġmodesty": 12820,
    "Ġgene": 15673,
    "Ġimmensely": 13595,
    "Ġinscribed": 24940,
    "Ġinspecting": 24614,
    "ds": 4689,
    "Ġdistances": 22504,
    "Ġwet": 6519,
    "Ġbulk": 5592,
    "bots": 10085,
    "Ġgain": 4828,
    "Ġhopes": 4233,
    "hetically": 21208,
    "?âĢĿâĢĶ": 12897,
    "Ġgibraltar": 25786,
    "Ġmeal": 9700,
    "bones": 8373,
    "ede": 21505,
    "ado": 11660,
    "chariot": 26480,
    "disreputable": 23507,
    "whale": 2139,
    "bowed": 10687,
    "eyes": 5685,
    "Ġmuff": 8115,
    "Ġfishermen": 5971,
    "ving": 594,
    "Ġcus": 21343,
    "Ġprophetic": 20021,
    "Ġsummit": 7732,
    "Ġoverhanging": 22363,
    "Ġawait": 17072,
    "singular": 12193,
    "Ġabundantly": 17158,
    "Ġresolution": 5501,
    "investments": 25532,
    "macy": 18800,
    "remained": 8574,
    "Ġstrained": 10221,
    "harbor": 13564,
    "chased": 18041,
    "Ġbubble": 13534,
    "dishonourable": 26365,
    "influences": 25249,
    "startled": 24943,
    "Ġkept": 3349,
    "Ġobliged": 4285,
    "Ġidiot": 11975,
    "gan": 2197,
    "Ġboon": 22638,
    "Ġminimizes": 2044,
    "Ġimpudence": 26241,
    "blu": 12443,
    "Ġanne": 1529,
    "aches": 6572,
    "Ġexe": 3994,
    "Ġpray": 3900,
    "vapor": 25754,
    "generosity": 23790,
    "then": 2051,
    "few": 8204,
    "permitted": 18343,
    "Ġpeculiarity": 12935,
    "irectly": 6941,
    "cork": 20796,
    "Ġethere": 23956,
    "Ġawaited": 17073,
    "Ġcruc": 16534,
    "Ġgown": 10204,
    "Ġaltered": 7393,
    "Ġchoice": 2165,
    "sweep": 24618,
    "Ġexpressions": 7707,
    "Ġfeel": 1260,
    "Ġnaturalist": 22900,
    "ulia": 18148,
    "annica": 24565,
    "Ġeverlasting": 9339,
    "mmet": 10990,
    "Ġhelpless": 8303,
    "recurrent": 4995,
    "Ġnecess": 3478,
    "Ġfisherman": 12079,
    "Ġcritical": 7476,
    "Ġsymptom": 13484,
    "Ġsure": 1867,
    "itics": 13871,
    "onom": 9160,
    "fatal": 17088,
    "Ġgaol": 19568,
    "ish": 550,
    "Ġpassage": 3885,
    "Ġinexplicable": 12261,
    "Ġdeserves": 13291,
    "ough": 470,
    "Ġsqueezed": 20037,
    "Ġyanke": 18097,
    "Ġholmes": 1310,
    "Ġformation": 2944,
    "Ġembraced": 10009,
    "priv": 9621,
    "ounix": 14161,
    "Ġhighlands": 22777,
    "Ġpaying": 9941,
    "Ġexulting": 20259,
    "Ġpy": 21449,
    "Ġmoles": 22435,
    "/`": 12432,
    "ĠĠĠĠĠĠĠĠĠĠĠĠĠĠĠĠĠĠĠĠĠĠĠĠĠĠĠĠĠĠĠĠĠĠĠĠĠĠĠĠĠĠĠĠĠ": 9955,
    "Ġgasping": 17038,
    "Ġwaves": 3897,
    "Ġhudson": 15192,
    "iteous": 14260,
    "Ġmy": 411,
    "Ġearlier": 9090,
    "Ġpride": 3825,
    "Ġacceptance": 14826,
    "Ġsales": 12809,
    "Ġmount": 7363,
    "Ġhindoo": 17177,
    "cry": 12449,
    "ishes": 6524,
    "Ġchecked": 9378,
    "Ġet": 3581,
    "Ġsax": 10931,
    "kin": 7134,
    "coat": 5408,
    "whal": 10942,
    "Ġweigh": 10896,
    "ulum": 21864,
    "story": 9214,
    "Ġcandidate": 16697,
    "Ġcostume": 16494,
    "Ġexec": 19493,
    "older": 15757,
    "Ġgoes": 3854,
    "warks": 5005,
    "Ġcomposition": 1686,
    "circumstantial": 24447,
    "call": 8727,
    "Ġafford": 4364,
    "Ġfright": 3797,
    "otions": 7182,
    "figured": 20124,
    "bring": 9108,
    "Ġoutputs": 2887,
    "Ġconsulting": 13430,
    "Ġpersecutor": 26095,
    "Ġusefulness": 19409,
    "Ġrow": 5247,
    "Ġsatire": 22901,
    "ears": 20845,
    "Ġremo": 3786,
    "Ġtuning": 3072,
    "Ġpurchased": 12265,
    "Ġseeks": 14301,
    "reflection": 13456,
    "care": 4930,
    "bird": 9587,
    "aret": 7417,
    "Ġbroadway": 23989,
[...]
