{
  "metadata": {
    "vocab_size": 26613,
    "algorithm": "BPE",
    "created_at": "2026-05-20 06:06:13",
    "special_tokens": [
      "<PAD>",
      "<SOS>",
      "<EOS>",
      "<UNK>",
      "<MASK>"
    ]
  },
  "vocab": {
    "Ġimag": 2676,
    "Ġbelieve": 2147,
    "Ġdemoniac": 15062,
    "always": 5708,
    "uish": 5431,
    "rederick": 14078,
    "Ġminus": 18747,
    "ivered": 7006,
    "ieces": 4771,
    "suggest": 20373,
    "Ġdynamic": 5120,
    "Ġeleven": 9390,
    "Ġoutermost": 22315,
    "Ġvirtual": 11240,
    "Ġsmelling": 16065,
    "Ġsurmise": 12292,
    "trop": 15434,
    "steak": 14706,
    "Ġbead": 21746,
    "phys": 18709,
    "Ġmouse": 4693,
    "imagine": 19928,
    "xi": 17708,
    "Ġappet": 9731,
    "Ġhorns": 11124,
    "Ġkirwin": 8496,
    "Ġprice": 10404,
    "Ġtables": 9879,
    "disposed": 25009,
    "Ġnothing": 1360,
    "Ġhoist": 11974,
    "nurs": 20997,
    "supers": 22631,
    "slow": 7810,
    "Ġguidance": 9417,
    "Ġpoetry": 15078,
    "Ġaccording": 5508,
    "neck": 14232,
    "*": 14,
    "finger": 10094,
    "shot": 2195,
    "Ġfrenchman": 11284,
    "Ġshipw": 12975,
    "Ġmortal": 4681,
    "Ġpartly": 6713,
    "Ġdiabolism": 25513,
    "treacle": 25147,
    "Ġremorseless": 13449,
    "hold": 3982,
    "Ġchains": 8250,
    "Ġbeneath": 3239,
    "Ġbrows": 13298,
    "gle": 20867,
    "Ġthank": 3790,
    "Ġfountains": 13501,
    "altogether": 12635,
    "Ġschedules": 3386,
    "uary": 11537,
    "_.âĢĻâĢĿ": 17477,
    "transferred": 24513,
    "Ġpale": 4532,
    "them": 3020,
    "Ġexclusiveness": 23923,
    "Ġzealand": 12347,
    "Ġhansom": 13662,
    "Ġmajor": 13289,
    "Ġpettic": 14839,
    "Ġapprehension": 7114,
    "Ġaccuracy": 1099,
    "feeders": 25234,
    "Ġreceptacle": 23187,
    "alog": 8804,
    "Ġquivered": 18465,
    "saddest": 25526,
    "Ġmedit": 8018,
    "Ġdip": 13905,
    "Ġmonosyllable": 20724,
    "Ġenvirons": 13201,
    "Ġcrown": 5287,
    "Ġpepper": 9781,
    "Ġener": 10897,
    "hearty": 14832,
    "ues": 2079,
    "Ġtrust": 4080,
    "Ġfiend": 4411,
    "Ġdecisive": 18483,
    "baggage": 24925,
    "Ġdutch": 6327,
    "Ġultimately": 17162,
    "Ġtops": 14585,
    "Ġcreation": 6439,
    "Ġcomfortably": 16613,
    "consp": 18500,
    "Ġexcite": 11963,
    "Ġbreezes": 14867,
    "hear": 10147,
    "Ġimmens": 9939,
    "mand": 3892,
    "Ġlamps": 14790,
    "Ġsanctified": 25882,
    "Ġsob": 12779,
    "ĠĠĠĠĠĠĠĠĠĠĠĠĠĠĠĠĠĠĠĠĠĠ": 16223,
    "Ġyell": 21773,
    "Ġimplement": 3012,
    "Ġjealously": 24124,
    "aciousness": 18565,
    "rices": 4559,
    "Ġrepetition": 8972,
    "ensils": 22545,
    "liber": 18811,
    "Ġage": 3894,
    "Ġvishnoo": 12749,
    "Ġrover": 18454,
    "Ġunlikely": 10909,
    "Ġhardware": 4903,
    "stairs": 5154,
    "Ġshabby": 14109,
    "Ġpersons": 6180,
    "Ġastronomy": 25925,
    "Ġwreat": 15528,
    "cks": 3080,
    "note": 14340,
    "Ġdefilements": 26283,
    "Ġbubbling": 17324,
    "Ġprestige": 22232,
    "duchess": 18461,
    "Ġcomb": 1078,
    "Ġtablets": 13153,
    "pron": 9005,
    "isc": 6239,
    "Ġ131": 24781,
    "Ġinex": 6528,
    "Ġundaunted": 24119,
    ";âĢĿâĢĶ": 20758,
    "final": 19673,
    "Ġcatholic": 20679,
    "continu": 5501,
    "linked": 17591,
    "Ġmig": 13854,
    "Ġstun": 11649,
    "Ġnet": 3625,
    "ruded": 15893,
    "hours": 9124,
    "w": 91,
    "Ġdairy": 20684,
    "athan": 2954,
    "Ġtrue": 1340,
    "Ġperceived": 4713,
    "shaw": 6864,
    "Ġcoward": 7156,
    "Ġmatrices": 4968,
    "Ġobsc": 7040,
    "Ġstingy": 25454,
    "Ġscraped": 16901,
    "Ġhierarchical": 1929,
    "ulum": 21859,
    "Ġsp": 457,
    "Ġoutcast": 18412,
    "easily": 17532,
    "Ġaccurate": 13281,
    "Ġmira": 8406,
    "Ġfoot": 3163,
    "ench": 21277,
    "Ġdeceitful": 25732,
    "disaster": 23490,
    "muttered": 13757,
    "Ġskirts": 14350,
    "rushed": 10585,
    "Ġvehem": 22885,
    "Ġpit": 3420,
    "Ġbase": 5012,
    "Ġwounded": 8657,
    "ozy": 17620,
    "lin": 9604,
    "Ġcalms": 23039,
    "Ġsustaining": 25332,
    "Ġmarry": 4417,
    "Ġobtru": 18670,
    "guarded": 13292,
    "weary": 22682,
    "================": 3723,
    "bread": 10685,
    "Ġderision": 16306,
    "favouring": 24761,
    "horses": 17565,
    "Ġmic": 17795,
    "Ġardent": 9970,
    "informed": 17734,
    "Ġrisk": 8038,
    "Ġhedgehog": 10645,
    "Ġsusp": 2665,
    "Ġpairs": 4184,
    "Ġacquainted": 5178,
    "Ġdecomp": 3809,
    "Ġdiction": 8794,
    "atus": 21258,
    "Ġnought": 21518,
    "Ġfrig": 13078,
    "Ġslack": 8955,
    "Ġemploys": 19427,
    "Ġunholy": 26217,
    "loun": 17586,
    "Ġremorse": 6441,
    "Ġisolated": 13557,
    "cturn": 17984,
    "intellect": 18819,
    "Ġext": 886,
    "utility": 21583,
    "Ġanswering": 7478,
    "Ġthose": 1171,
    "Ġlords": 14640,
    "Ġsemicircle": 26066,
    "fedallah": 25521,
    "girdling": 26388,
    "Ġpol": 2578,
    "Ġcampa": 17171,
    "benefact": 24640,
    "Ġpiqu": 21473,
    "Ġrebounds": 25966,
    "Ġisles": 8459,
    "Ġcheering": 11134,
    "Ġlavater": 20493,
    "Ġtimidity": 24686,
    "ab": 345,
    "Ġdipped": 15591,
    "improve": 15708,
    "Ġmanhandle": 22326,
    "Ġsend": 4109,
    "ruding": 9724,
    "Ġborn": 5224,
    "Ġcontrivances": 12354,
    "night": 2166,
    "Ġwealthy": 18176,
    "Ġdancing": 5703,
    "Ġbefore": 810,
    "Ġloomings": 24948,
    "letters": 13172,
    "Ġaunt": 3179,
    "Ġimbecile": 17390,
    "Ġvision": 1554,
    "Ġdarker": 13117,
    "parsee": 14508,
    "itation": 1781,
    "Ġcleans": 18945,
    "Ġaudacity": 19879,
    "urious": 21699,
    "Ġshri": 5375,
    "Ġledgers": 23934,
    "iner": 2672,
    "personal": 24962,
    "Ġgamming": 25541,
    "Ġlowering": 7986,
    "ricane": 16275,
    "Ġvindictive": 20467,
    "oters": 21795,
    "Ġtrifles": 16949,
    "Ġorgan": 2503,
    "draw": 23895,
    "swallowed": 14851,
    "complied": 19910,
    "Ġamusement": 8055,
    "Ġexperiences": 13026,
    "Ġpoem": 22586,
    "living": 7134,
    "porary": 14552,
    "commun": 15032,
    "measureless": 20234,
    "Ġtwelvemonth": 12174,
    "Ġpatroness": 13508,
    "amped": 12030,
    "Ġapologize": 15126,
    "Ġflashing": 13024,
    "ived": 1530,
    "popular": 26139,
    "Ġindisc": 16224,
    "Ġslugg": 15266,
    "Ġpretension": 23761,
    "cost": 19183,
    "Ġdus": 8422,
    "Ġimbued": 17452,
    "Ġpian": 13915,
    "successful": 11359,
    "Ġbrixton": 13661,
    "Ġfanatic": 23389,
    "habit": 16185,
    "loose": 11801,
    "urned": 9306,
    "complete": 15033,
    "Ġfresher": 23205,
    "usations": 15938,
    "share": 14234,
    "Ġattention": 1181,
    "antingly": 22094,
    "Ġlooking": 2476,
    "Ġports": 10819,
    "Ġadvertisement": 6941,
    "mble": 1407,
    "Ġsouthampton": 24306,
    "Ġanointing": 25538,
    "Ġcomplaint": 24775,
    "Ġmortification": 12090,
    "Ġmarines": 16257,
    "Ġtells": 9361,
    "Ġenable": 685,
    "say": 3984,
    "dwelling": 20562,
    "Ġindustry": 18834,
    "Ġdiddled": 22663,
    "peare": 18909,
    "ilingly": 21719,
    "Ġide": 2121,
    "Ġunsounded": 15846,
    "uniform": 18155,
    "tained": 4405,
    "Ġcommunic": 5751,
    "Ġtermination": 16457,
    "Ġslates": 11108,
    "Ġexamining": 8005,
    "unities": 15767,
    "Ġwooded": 23518,
    "Ġhover": 15616,
    "touch": 8391,
    "Ġreasoning": 1963,
    "Ġparents": 6752,
    "Ġerroneous": 17407,
    "rants": 13776,
    "Ġpainful": 6462,
    "llable": 6878,
    "regulated": 23465,
    "Ġflurry": 18858,
    "Ġshr": 4228,
    "Ġcoldly": 14649,
    "Ġdejection": 15194,
    "Ġtugged": 17287,
    "opened": 7912,
    "Ġexclam": 6757,
    "ician": 21561,
    "Ġspear": 9314,
    "Ġunrem": 18242,
    "Ġaccompanied": 6780,
    "shattered": 22450,
    "Ġacceptable": 16742,
    "tend": 17672,
    "ominy": 13976,
    "aculate": 16060,
    "pity": 17625,
    "9": 29,
    "Ġlodger": 24090,
    "idol": 21762,
    "brimming": 23576,
    "Ġbelonging": 8307,
    "Ġmixing": 24933,
    "Ġturks": 14597,
    "etency": 21578,
    "Ġindecision": 25780,
    "Ġcos": 2207,
    "Ġuns": 15833,
    "Ġdisguise": 10046,
    "fight": 17536,
    "Ġknow": 630,
    "Ġreiterating": 26473,
    "compasses": 19454,
    "Ġ>": 21149,
    "Ġapp": 499,
    "Ġaffairs": 6877,
    "description": 11095,
    "heavy": 10575,
    "sixteen": 24852,
    "ado": 11657,
    "Ġperfect": 2557,
    "protruding": 24815,
    "Ġvacantly": 16813,
    "Ġautoregressive": 3431,
    "inery": 17731,
    "Ġcorroded": 18873,
    "Ġtrains": 10948,
    "conditionally": 24833,
    "B": 38,
    "Ġheiress": 20695,
    "wered": 2690,
    "Ġoverhanging": 22358,
    "opposite": 19926,
    "party": 8992,
    "Ġinviting": 19141,
    "happening": 16562,
    "Ġpredicts": 2596,
    "Ġbowls": 23768,
    "Ġdrooping": 9420,
    "Ġfrog": 23917,
    "Ġghost": 6142,
    "Ġspleen": 26420,
    "Ġconvince": 14641,
    "Ġexempl": 21826,
    "addressed": 13383,
    "Ġspectators": 19403,
    "iven": 1235,
    "Ġchambers": 16797,
    "Ġfeminine": 15261,
    "Ġreader": 11931,
    "accepting": 20132,
    "aswag": 21542,
    "secre": 18125,
    "Ġdiscoverer": 26034,
    "Ġdirt": 15590,
    "Ġcatherine": 2815,
    "Ġalong": 1982,
    "sleeping": 13452,
    "Ġstrangeness": 16705,
    "Ġrescued": 24205,
    "Ġjacket": 6489,
    "articulate": 17396,
    "Ġdissatisfied": 14255,
    "Ġtheirs": 7025,
    "Ġuniverse": 14122,
    "Ġbreaking": 6310,
    "icket": 22664,
    "Ġdipping": 15588,
    "Ġspeeding": 23563,
    "Ġsecre": 5493,
    "Ġbowl": 11204,
    "actions": 8906,
    "tle": 2410,
    "Ġdisappearance": 9297,
    "Ġwashes": 21857,
    "Ġcirclings": 26430,
    "Ġdeceiving": 21834,
    "Ġconnection": 5479,
    "Ġdownward": 10332,
    "attacks": 23118,
    "transformer": 25014,
    "lifted": 15384,
    "Ġhier": 1895,
    "Ġpast": 2097,
    "Ġvisage": 18763,
    "matic": 4618,
    "ý": 190,
    "ocris": 23706,
    "cutting": 23782,
    "Ġtrusted": 10518,
    "Ġdark": 2110,
    "Ġdiggings": 24648,
    "Ġjago": 22295,
    "Ġconven": 6151,
    "Ġemer": 5958,
    "aid": 1924,
    "ific": 489,
    "Ġmould": 6519,
    "Ġcharacteristic": 12045,
    "Ġdisposition": 5409,
    "witness": 10035,
    "leaves": 12574,
    "Ġghosts": 12229,
    "hor": 2573,
    "subsided": 25829,
    "wl": 17700,
    "č": 206,
    "Ġschemes": 11132,
    "ader": 14010,
    "Ġlifted": 6985,
    "trying": 15436,
    "non": 9612,
    "Ġrecently": 11860,
    "Ġstructure": 847,
    "mant": 20963,
    "lantic": 6363,
    "ending": 1992,
    "infall": 21186,
    "Ġnaught": 8127,
    "sis": 1918,
    "Ġlike": 668,
    "inition": 11556,
    "deeply": 16177,
    "Ġfugitive": 17325,
    "Ġcarcase": 14442,
    "hairs": 20902,
    "Ġgazette": 19497,
    "Ġmingling": 20196,
    "Ġxiv": 23405,
    "stands": 22431,
    "Ġfascinated": 25634,
    "Ġremarking": 13122,
    "ledge": 1331,
    "eman": 5636,
    "returning": 12202,
    "Ġsensitive": 13195,
    "Ġdepends": 1116,
    "substance": 15229,
    "Ġfed": 5530,
    "quent": 2093,
    "Ġtended": 21164,
    "Ġmildly": 9029,
    "phil": 7924,
    "Ġpap": 8797,
    "ruin": 22172,
    "Ġwail": 21284,
    "Ġpilgrimage": 17306,
    "hauled": 20666,
    "Ġnice": 6676,
    "Ġexploring": 4307,
    "Ġflogged": 23626,
    "eth": 620,
    "bill": 10076,
    "Ġpitching": 16609,
    "Ġavoided": 13256,
    "erted": 7361,
    "ę": 218,
    "Ġhugest": 17013,
    "Ġcritically": 23443,
    "Ġexpectations": 13141,
    "Ġinvestment": 24335,
    "term": 3758,
    "acceler": 23600,
    "Ġanswerable": 23468,
    "arpening": 21440,
    "Ġsignificance": 13277,
    "Ġunst": 18236,
    "pent": 3494,
    "Ġchimer": 24601,
    "Ġsitt": 21215,
    "Ġrome": 12152,
    "father": 3775,
    "ounds": 4159,
    "older": 15752,
    "hurriedly": 25509,
    "Ġshrieking": 24757,
    "Ġrecognition": 3170,
    "Ġinequal": 21493,
    "ginger": 13161,
    "Ġsprinkled": 19493,
    "seems": 10876,
    "Ġclang": 15958,
    "Ġvultures": 25652,
    "Ġsoap": 14129,
    "fallen": 19656,
    "Ġschol": 17375,
    "namely": 23556,
    "Ġsed": 10762,
    "Ġexercise": 8358,
    "burnt": 20076,
    "arnel": 18119,
    "Ġtidings": 11398,
    "persons": 24173,
    "Ġlid": 6983,
    "Ġtur": 2566,
    "Ġwint": 15530,
    "Ġkey": 2100,
    "Ġshocks": 16454,
    "Ġgoverness": 8601,
    "atra": 17769,
    "Ġresented": 22539,
    "returned": 7765,
    "recol": 10151,
    "Ġupp": 13990,
    "Ġundesired": 12775,
    "expressing": 16799,
    "Ġmagnific": 16316,
    "Ġapproached": 5843,
    "troubled": 17110,
    "Ġluckless": 16795,
    "calculating": 25688,
    "Ġpall": 7583,
    "Ġunfold": 8022,
    "Ġcranes": 20380,
    "Ġblue": 3455,
    "Ġfeat": 10938,
    "Ġampl": 22476,
    "Ġsigmoid": 2463,
    "life": 4931,
    "disinterested": 23498,
    "mannered": 22847,
    "Ġostrich": 26429,
    "Ġdamning": 19137,
    "Ġgeorgia": 23883,
    "Ġtemperate": 16158,
    "Ġgrizz": 10352,
    "rue": 1126,
    "Ġridicule": 13510,
    "Ġneatness": 19929,
    "Ġreproach": 9557,
    "bore": 13684,
    "Ġtattooed": 11379,
    "education": 20300,
    "Ġreturns": 11923,
    "Ġduring": 874,
    "Ġpermanently": 25472,
    "Ġitems": 9692,
    "Ġterrified": 14670,
    "arman": 11594,
    "Ġreluct": 14370,
    "ensing": 12895,
    "Ġgovernments": 20266,
    "Ġislets": 21797,
    "msgate": 18408,
    "Ġmajest": 24057,
    "Ġexploit": 19159,
    "Ġcrisis": 13124,
    "Ġdemoniacal": 20554,
    "Ġtiny": 11552,
    "ounix": 14162,
    "lant": 20945,
    "Ġmouthful": 16572,
    "usions": 6159,
    "Ġenviron": 4034,
    "Ġwhit": 7177,
    "apparatus": 26562,
    "Ġpartiality": 9398,
    "Ġconsuming": 22788,
    "reeable": 3611,
    "insufferable": 21190,
    "Ġkno": 5241,
    "Ġdivine": 6921,
    "foreseen": 14252,
    "Ġunmolested": 15243,
    "verbally": 25359,
    "Ġcurved": 18854,
    "derstand": 657,
    "Ġchaos": 17007,
    "breeze": 20560,
    "desol": 13065,
    "Ġsm": 704,
    "Ġnaturalist": 22887,
    "Ġmanufact": 22325,
    "rann": 21042,
    "Ġsubsequent": 7659,
    "Ġfishe": 15582,
    "Ġfevers": 22205,
    "Ġtreble": 16503,
    "Ġchurchyard": 16775,
    "Ġsquaw": 22835,
    "Ġadventure": 5980,
    "ves": 699,
    "Ġbenevolent": 7772,
    "gentleman": 7519,
    "stepfather": 19187,
    "Ġjon": 15944,
    "aint": 2543,
    "Ġhardy": 8565,
    "Ġtowering": 16737,
    "Ġcontinuous": 1561,
    "Ġlabor": 10419,
    "Ġcredulous": 17142,
    "jump": 10104,
    "Ġimaginations": 16515,
    "Ġsleek": 23381,
    "ot": 346,
    "ards": 2505,
    "Ġmyth": 18218,
    "Ġchick": 22243,
    "stout": 21641,
    "strangers": 20335,
    "Ġdenial": 13212,
    "station": 10845,
    "Ġuttering": 16459,
    "esting": 7411,
    "Ġdeclare": 6614,
    "yed": 3274,
    "Ġ29": 23727,
    "Ġfollowing": 4063,
    "Ġshould": 864,
    "voices": 21115,
    "tr": 3579,
    "Ġquarrels": 16564,
    "Ġray": 18636,
    "Ġignited": 25068,
    "determination": 19941,
    "Ġidle": 8252,
    "dilig": 17281,
    "Ġprovidence": 18743,
    "Ġstupid": 7607,
    "Ġthirty": 4943,
    "Ġmince": 22826,
    "Ġbitten": 21387,
    "Ġcard": 7363,
    "Ġoperate": 19113,
    "clopÃ¦": 13052,
    "Ġgaieties": 24194,
    "Ġpasses": 2680,
    "Ġlascar": 9199,
    "Ġ184": 16605,
    "meditated": 19067,
    "Ġstrictly": 12282,
    "Ġresponded": 13636,
    "ò": 179,
    "envelope": 17780,
    "lucky": 24544,
    "Ġvessel": 3797,
    "Ġcompromising": 22570,
    "Ġpoltroon": 26597,
    "Ġdearest": 5457,
    "Ġnecess": 3477,
    "icular": 2024,
    "Ġconstructed": 9387,
    "Ġarches": 14161,
    "Ġinsincere": 26598,
    "Ġjour": 11761,
    "Ġast": 2958,
    "Ġperished": 11781,
    "hist": 7131,
    "boom": 18997,
    "Ġintentions": 10608,
    "Ġthese": 819,
    "trowsers": 17689,
    "hunter": 10556,
    "ums": 10273,
    "Ġlunch": 13524,
    "Ġmaintenance": 17459,
    "expound": 23662,
    "Ġimmediately": 3366,
    "¿": 128,
    "furnish": 25337,
    "Ġjackal": 24238,
    "affa": 23774,
    "Ġunfathomably": 25872,
    "Ġhappiness": 2943,
    "Ġextracted": 16301,
    "Ġthis": 382,
    "detained": 24381,
    "Ġsickly": 16772,
    "Ġepic": 15028,
    "uncommon": 11680,
    "Ġdignified": 15594,
    "merit": 19278,
    "voice": 7816,
    "Ġph": 1547,
    "adow": 18085,
    "itiously": 13869,
    "seemed": 4306,
    "Ġdegradation": 2633,
    "oug": 430,
    "Ġel": 802,
    "Ġseams": 12121,
    "intments": 18818,
    "Ġrestrained": 16372,
    "Ġapple": 14168,
    "wow": 21119,
    "enjoyments": 25432,
    "plutarch": 21959,
    "fanc": 20862,
    "ti": 8389,
    "Ġeyebrows": 23514,
    "Ġfine": 1319,
    "Ġrepast": 16407,
    "Ġabide": 14186,
    "ength": 2312,
    "Ġchests": 19668,
    "whether": 5319,
    "Ġstings": 21733,
    "ection": 4947,
    "Ġgunwale": 7325,
    "Ġfaintly": 14913,
    "Ġlanyard": 26460,
    "kward": 6958,
    "mockery": 24377,
    "Ġflight": 6580,
    "Ġexceed": 1345,
    "Ġsuperstitions": 17070,
    "Ġnailing": 21523,
    "steps": 9405,
    "Ġsacrificed": 17420,
    "Ġredundant": 16549,
    "speech": 10667,
    "Ġassist": 3564,
    "ure": 357,
    "circle": 16734,
    "fish": 3516,
    "preserve": 25302,
    "ifted": 4495,
    "source": 11525,
    "Ġfishes": 11590,
    "Ġsaws": 23046,
    "delirious": 19502,
    "civil": 7796,
    "hers": 7636,
    "des": 1565,
    "ullen": 8234,
    "deaux": 22143,
    "relieved": 13273,
    "eliest": 14744,
    "Ġcontrasting": 11155,
    "abilizing": 2923,
    "Ġtaller": 16686,
    "Ġgryphon": 4302,
    "Ġfoe": 7680,
    "Ġpacifics": 24372,
    "apparent": 11042,
    "Ġdisputes": 25824,
    "rupt": 3213,
    "Ġoysters": 20576,
    "arned": 21813,
    "###": 3825,
    "Ġbenef": 3490,
    "developed": 15262,
    "ste": 3584,
    "distinguish": 19569,
    "somers": 19364,
    "Ġrippling": 17276,
    "Ġsarat": 21225,
    "doublo": 24659,
    "nings": 9131,
    "mr": 1903,
    "Ġmanor": 14195,
    "Ġchina": 8039,
    "witted": 17705,
    "Ġminimizing": 3465,
    "ullo": 12725,
    "doubtless": 17000,
    "Ġnonsense": 6982,
    "izers": 18132,
    "Ġ44": 16677,
    "Ġpot": 2990,
    "Ġnursery": 19747,
    "Ġcanoes": 12801,
    "Ī": 235,
    "Ġraise": 6166,
    "Ġepisode": 26345,
    "Ġvess": 3297,
    "Ġperverseness": 13652,
    "bloom": 24688,
    "Ġcolonnades": 26274,
    "Ġordin": 16648,
    "madly": 24419,
    "possible": 5743,
    "Ġmann": 18414,
    "Ġeasiness": 23534,
    "Ġthird": 4189,
    "unching": 18156,
    "plifted": 9711,
    "mer": 2835,
    "Ġminds": 6303,
    "thine": 15821,
    "Ġrespects": 7269,
    "Ġrec": 903,
    "reg": 2181,
    "Ġsteeply": 23721,
    "Ġproduced": 2453,
    "Ġvehicle": 20135,
    "Ġenrapt": 21935,
    "Ġsensibility": 14513,
    "pressing": 19014,
    "Ġgap": 21595,
    "Ġbawling": 25944,
    "Ġlink": 8129,
    "Ġtexas": 25921,
    "Ġunobserved": 18247,
    "collecting": 26080,
    "Ġfastening": 16353,
    "Ġresulting": 24197,
    "Ġcoupled": 16849,
    "Ġastonished": 7088,
    "failed": 20861,
    "Ġhonorable": 16874,
    "Ġbo": 797,
    "Ġanyways": 22516,
    "Ġcolumn": 9328,
    "ances": 1338,
    "Ġmethodically": 23153,
    "rant": 11516,
    "Ġfaintness": 24569,
    "Ġclaw": 22342,
    "jacket": 12289,
    "Ġmontan": 22972,
    "Ġseemed": 1278,
    "archbishop": 22889,
    "Ġdripping": 13145,
    "Ġcape": 5145,
    "Ġbarricade": 14659,
    "Ġcable": 11579,
    "Ġcolumns": 14374,
    "particular": 5757,
    "Ġcleat": 18944,
    "Ġabused": 22265,
    "Ġdiscipl": 22778,
    "Ġbravest": 23837,
    "Ġestate": 6316,
    "Ġbrain": 2087,
    "uiperai": 10664,
    "bweb": 20789,
    "edily": 17941,
    "Ġappalling": 8499,
    "Ġsearch": 2592,
    "Ġexperiments": 23029,
    "Ġtarpaul": 17728,
    "ryder": 18644,
    "Ġgodly": 19078,
    "herself": 4889,
    "Ġribs": 7102,
    "Ġprinciples": 10011,
    "Ġlong": 796,
    "etah": 12657,
    "axen": 22517,
    "Ġsimply": 7218,
    "illation": 14140,
    "Ġbequest": 21749,
    "plexy": 18574,
    "Ġobtruded": 20720,
    "apple": 22838,
    "Ġtrag": 13036,
    "breakfast": 8687,
    "hab": 1076,
    "Ġjustinian": 22963,
    "inside": 23061,
    "Ġbeg": 1281,
    "Ġregard": 3067,
    "over": 1846,
    "Ġsecurely": 16800,
    "Ġvoyager": 16511,
    "Ġsupers": 18279,
    "hearing": 8402,
    "Ġincludes": 2013,
    "Ġoust": 21321,
    "Ġdeprec": 15754,
    "justice": 7957,
    "poke": 18795,
    "Ġbaked": 21383,
    "paws": 21027,
    "Ġexagger": 12715,
    "Ġbanking": 19627,
    "Ġtelling": 5747,
    "ashes": 6015,
    "Ġharder": 14447,
    "caus": 11477,
    "Ġcou": 5286,
    "studied": 17147,
    "Ġmem": 2069,
    "Ġhedge": 8363,
    "Ġmissing": 6175,
    "gaining": 20120,
    "Ġburnt": 9928,
    "Ġglobular": 19011,
    "Ġdisinclination": 22532,
    "Ġetc": 7085,
    "Ġgreeted": 23207,
    "Ġamazement": 7764,
    "ual": 945,
    "Ġaspect": 3096,
    "Ġperceptible": 18449,
    "darted": 20830,
    "Ġungod": 22018,
    "agings": 18163,
    "Ġreaction": 15691,
    "Ġhemisphere": 26477,
    "Ġcharger": 19003,
    "Ġclasped": 17205,
    "Ġwarb": 17785,
    "Ġwears": 10241,
    "Ġresignation": 18564,
    "apart": 15957,
    "Ġetern": 7086,
    "etite": 21575,
    "Ġbottled": 23793,
    "crow": 9591,
    "Ġjup": 15948,
    "Ġbedrooms": 19966,
    "Ġgushed": 21603,
    "Ġinsensibility": 17108,
    "ricade": 13035,
    "pockets": 16206,
    "Ġnote": 4265,
    "Ñ": 146,
    "Ġrenowned": 26192,
    "A": 37,
    "Ġboldly": 9501,
    "ppers": 7618,
    "Ġtwos": 18655,
    "Ġpredefined": 20715,
    "silence": 8044,
    "Ġconcerns": 11965,
    "um": 454,
    "Ġstepped": 7052,
    "som": 3293,
    "Ġfeelingly": 22986,
    "Ġnarr": 5084,
    "Ġreduces": 2343,
    "ide": 722,
    "Ġpertur": 12846,
    "Ġbanks": 6814,
    "computer": 1960,
    "Ġirrevoc": 15037,
    "opposing": 24824,
    "Ġuntil": 2669,
    "ê": 171,
    "Ġredress": 23749,
    "ates": 518,
    "Ġencaps": 12957,
    "Ġblaming": 22926,
    "Ġplaned": 24051,
    "Ġcolumbus": 26563,
    "Ġnourishment": 15190,
    "Ġinterchange": 16070,
    "Ġflooded": 24958,
    "Ġpenal": 1774,
    "mult": 8747,
    "Ġter": 2051,
    "Ġwatching": 4853,
    "Ġnursing": 12211,
    "Ġstigma": 25790,
    "sympathy": 20540,
    "Ġconfusing": 23304,
    "ift": 1606,
    "hall": 8084,
    "Ġpanting": 11601,
    "Ġpursued": 6328,
    "happily": 14656,
    "librarian": 26567,
    "Ġapoplexy": 25264,
    "Ġaffidav": 18786,
    "Ġsandwich": 19825,
    "Ġtints": 17725,
    "Ġsplashing": 16548,
    "discovering": 24250,
    "drovand": 24759,
    "Ġblacksmith": 6595,
    "complexion": 14359,
    "Ġhaw": 10252,
    "distance": 12149,
    "quickness": 19848,
    "Ġscimet": 22289,
    "vain": 15445,
    "Ġdrowning": 19901,
    "ighbour": 3388,
    "Ġentering": 6285,
    "depths": 25662,
    "large": 6625,
    "Ġspinal": 12299,
    "Ġunexampled": 20358,
    "Ġital": 10867,
    "inte": 5143,
    "Ġstash": 18068,
    "Ġdiscrimin": 2547,
    "Ġmountain": 3372,
    "fastened": 19322,
    "Ġmostly": 7664,
    "Ġkl": 2737,
    "cring": 20809,
    "Ġsurvivors": 25731,
    "Ġphilistines": 26081,
    "reporting": 24493,
    "eous": 13710,
    "behaviour": 11302,
    "Ġeats": 15673,
    "Ġmatch": 4529,
    "matlock": 23467,
    "Ġtelegram": 15221,
    "Ġsenses": 8251,
    "doom": 23374,
    "Ġknocked": 9500,
    "whosoever": 22236,
    "Ġgroom": 13964,
    "Ġsolving": 2484,
    "?âĢĻ": 2642,
    "ty": 1002,
    "Ġset": 1174,
    "Ġpriv": 4185,
    "Ġpiercing": 13492,
    "Ġknots": 15007,
    "sword": 10727,
    "Ġvirgin": 7328,
    "Ġfatal": 5871,
    "Ġpleasures": 11144,
    "Ġmus": 3396,
    "Ġunexpected": 6841,
    "Ġseren": 7401,
    "Ġheedfully": 24520,
    "Ġfest": 10805,
    "Ġsatire": 22896,
    "Ġenjoying": 11235,
    "Ġwaned": 17789,
    "Ġrefer": 18694,
    "apothe": 22331,
    "mons": 17598,
    "Ġflukes": 5266,
    "Ġsupremacy": 20259,
    "Ġentrapped": 26261,
    "Ġvile": 8472,
    "dispositions": 25010,
    "arming": 8951,
    "heedful": 20571,
    "measured": 19986,
    "contrad": 19288,
    "Ġsuburban": 17344,
    "Ġindistinct": 17406,
    "Ġresnet": 5473,
    "Ġstrang": 4163,
    "Ġinhabitants": 7525,
    "Ġnecessarily": 13247,
    "Ġdevouring": 11858,
    "adventurous": 25360,
    "Ġrealities": 18979,
    "04": 10680,
    "Ġpills": 21462,
    ",âĢĻâĢĶ": 23525,
    "Ġreligions": 20104,
    "ping": 9616,
    "offensive": 16393,
    "lished": 8382,
    "Ġexisting": 12714,
    "Ġwavering": 23277,
    "Ġresided": 11808,
    "Ġslighter": 18937,
    "Ġtimely": 19591,
    "Ġtyphoon": 12386,
    "metal": 24764,
    "Ġsoo": 15856,
    "Ġmending": 17802,
    "unusually": 15776,
    "sens": 8095,
    "Ġtrousers": 12412,
    "Ġleaf": 15713,
    "Ġhandsomer": 20332,
    "Ġrefuge": 8539,
    "Ġdependency": 3489,
    "victim": 25529,
    "Ġsalut": 10510,
    "remes": 21235,
    "called": 6292,
    "Ġwife": 2589,
    "Ġmead": 8835,
    "we": 849,
    "Ġdarkened": 16429,
    "Ġskeleton": 5514,
    "Ġpetrified": 19593,
    "Ġelbowed": 16106,
    "Ġcutting": 4982,
    "quitted": 21853,
    "Ġnoticed": 5549,
    "Ġfeathers": 15117,
    "wished": 13803,
    "Ġyon": 9693,
    "arp": 2028,
    "oss": 10116,
    "Ġsatin": 12984,
    "imprisonment": 23759,
    "Ġstruct": 2784,
    "Ġoffence": 12941,
    "Ġlakes": 8130,
    "Ġtrace": 6181,
    "Ġredu": 1355,
    "Ġpregnant": 26534,
    "Ġmaster": 3682,
    "Ġwhich": 501,
    "ats": 4255,
    "word": 2489,
    "Ġground": 2848,
    "Ġwhiting": 10860,
    "Ġcaut": 6521,
    "Ġhogshead": 26366,
    "rush": 7011,
    "sole": 6168,
    "knowledge": 7479,
    "Ġcondense": 21804,
    "Ġtents": 13816,
    "Ġpleases": 16294,
    "mo": 862,
    "together": 3556,
    "connect": 1290,
    "Ġflying": 5413,
    "unimportant": 18157,
    "é": 170,
    "Ġrole": 15993,
    "Ġno": 511,
    "Ġwouldn": 6045,
    "Ġa": 263,
    "Ġadmitting": 19180,
    "Ġpeddler": 24799,
    "cked": 2763,
    "far": 5787,
    "invari": 21182,
    "Ġfingertips": 24013,
    "Ġconqueror": 25795,
    "Ġbreak": 2869,
    "Ġbeating": 8144,
    "complet": 11384,
    "forgive": 18729,
    "Ġsoutherly": 23331,
    "rocket": 13942,
    "asant": 17956,
    "Ġknock": 9973,
    "Ġo": 275,
    "match": 15388,
    "Ġcondemned": 7778,
    "Ġlux": 8813,
    "Ġdisgraceful": 15018,
    "Ġquantity": 6948,
    "Ġcoils": 9303,
    "Ġamph": 18508,
    "Ġoften": 1956,
    "Ġnavy": 14914,
    "Ġhighness": 22770,
    "gris": 8259,
    "lemency": 21371,
    "Ġarc": 14159,
    "Ġvirtuous": 14753,
    "continue": 16859,
    "Ġheedless": 14901,
    "Ġwalked": 3140,
    "Ġdreary": 10409,
    "Ġlodged": 11252,
    "Ġadaptively": 4130,
    "Ġcetology": 10009,
    "Ġbeaches": 18082,
    "ifferent": 4264,
    "protested": 13472,
    "ancholy": 5069,
    "Ġplump": 14280,
    "kington": 11203,
    "Ġcelerity": 17434,
    "footman": 17160,
    "fes": 20849,
    "Ġmembrane": 20501,
    "Ġprovinc": 16740,
    "Ġimmedi": 2904,
    "Ġtid": 8106,
    "Ġshrimp": 24156,
    "Ġdoorway": 14497,
    "Ġalternately": 15030,
    "Ġtragedies": 25240,
    "Ġfeels": 6882,
    "Ġisn": 7865,
    "riety": 12739,
    "Ġdire": 865,
    "Ġmish": 15534,
    "Ġparameter": 868,
    "meadow": 18672,
    "Ġverily": 16601,
    "stuff": 15684,
    "Ġmace": 21307,
    "Ġimagenet": 19243,
    "requent": 3649,
    "serious": 14446,
    "ocity": 8277,
    "Ġincites": 22548,
    "splash": 25208,
    "Ġspont": 22127,
    "Ġemper": 9861,
    "Ġjovial": 19230,
    "Ġxv": 23404,
    "flow": 2117,
    "Ġdece": 6997,
    "Ġaspired": 25983,
    "Ġcontinents": 16847,
    "pton": 15788,
    "Ġreliability": 22875,
    "Ġsurface": 5118,
    "Â·": 21147,
    "Ġgroups": 3719,
    "Ġubiqu": 18044,
    "Ġlaughter": 9027,
    "Ġswearing": 16462,
    "Ġdiv": 3731,
    "Ġchooses": 13344,
    "Ġsensibly": 14514,
    "Ġdissembling": 26253,
    "decor": 23778,
    ".--": 20744,
    "archangel": 18783,
    "Ġbrazen": 23836,
    "Ġpint": 17905,
    "Ġinstructive": 19282,
    "================================": 5671,
    "contained": 22461,
    "Ġlordly": 23741,
    "Ġproclaim": 18128,
    "Ğ": 223,
    "liest": 6294,
    "Ġwhisker": 23931,
    "Ġdisposal": 19372,
    "Ġcompanions": 5865,
    "utes": 5913,
    "Ġflee": 7080,
    "Ġcrad": 21347,
    "testing": 12513,
    "Ġ$": 21148,
    "Ġcod": 8411,
    "Ġrendering": 16655,
    "Ġorange": 8486,
    "Ġhalts": 3160,
    "exp": 2738,
    "Ġunresting": 25552,
    "Ġtemporal": 2615,
    "Ġloudly": 7312,
    "sig": 2875,
    "Ġbackstays": 22656,
    "cob": 10087,
    "phant": 6287,
    "Ġstructural": 2800,
    "Ġroused": 7624,
    "Ġascend": 9960,
    "shaken": 16020,
    "Ġsatisfying": 23695,
    "Ġcontain": 1551,
    "poling": 12216,
    "Ġcommand": 3322,
    "ille": 9219,
    "Ġentreaties": 9035,
    "Ġparametric": 2398,
    "tackles": 25623,
    "Ġbegrim": 23011,
    "Ġunfaltering": 24111,
    "gentle": 5356,
    "dden": 1807,
    "advantage": 8658,
    "Ġauthority": 7748,
    "Ġknowledge": 1445,
    "Ġobserving": 6080,
    "Ġbush": 23334,
    "instances": 13317,
    "Ġprevention": 16087,
    "Ġrecol": 4030,
    "Ġeyelids": 26106,
    "Ġprincipally": 11310,
    "ane": 1176,
    "Ġgrooves": 16739,
    "Ġwitnesses": 9486,
    "conjecture": 15120,
    "Ġpioneer": 17914,
    "Ġexperience": 1398,
    "Ġclin": 14198,
    "ph": 925,
    "Ġcoco": 11002,
    "Ġfortunately": 12176,
    "iminished": 19024,
    "Ġaggregated": 25677,
    "Ġga": 4445,
    "Ġdispose": 23876,
    "Ġattempted": 8000,
    "Ġcompetition": 14268,
    "Ġinclemency": 22552,
    "Ġdestiny": 8983,
    "given": 8376,
    "shabb": 18493,
    "Ġprofundities": 20451,
    "volous": 18598,
    "Ġknob": 24406,
    "Ġescapes": 23504,
    "Ġflowing": 14409,
    "Ġstubborn": 10415,
    "Ġafraid": 3530,
    "Ġeffect": 971,
    "Ġdemand": 4946,
    "puff": 21020,
    "Ġvisitor": 5330,
    "ave": 978,
    "ouncement": 11742,
    "reasonable": 7751,
    "Ġpan": 5081,
    "Ġ150": 22822,
    "ckinridge": 11717,
    "Ġst": 333,
    "Ġstating": 15721,
    "Ġcasks": 7522,
    "M": 49,
    "unfortunate": 15773,
    "across": 10323,
    "Ġfive": 2838,
    "Ġobliquely": 12359,
    "lounged": 26132,
    "Ġwords": 1327,
    "ap": 547,
    "gg": 1998,
    "Ġrepresenting": 4061,
    "Ġperpet": 7645,
    "Ġrailway": 15019,
    "Ġshades": 9462,
    "Ġtoad": 21506,
    "custom": 15331,
    "Ġgall": 4352,
    "Ġsnugness": 20073,
    "Ġgratitude": 5599,
    "Ġseats": 14086,
    "mense": 4779,
    "kine": 15373,
    "Ġneglecting": 25006,
    "boo": 16346,
    "Ġmuch": 923,
    "Ġmaelstrom": 19352,
    "ample": 1364,
    "Ġanim": 2111,
    "Ġpaced": 7584,
    "Ġanoints": 25537,
    "combined": 20319,
    "Ġflattening": 26047,
    "Ġrush": 5924,
    "Ġtreasure": 9559,
    "Ġagency": 11802,
    "Ġchildish": 13135,
    "Ġintervening": 17266,
    "arat": 9180,
    "Ġascertain": 9706,
    "dation": 2616,
    "Ġwherefore": 8524,
    "asily": 13944,
    "landed": 18952,
    "Ġsho": 2241,
    "Ġcounteracted": 19859,
    "Ġtheology": 21274,
    "Ġwind": 1433,
    "Ġinequalities": 26452,
    "Ġark": 10277,
    "Ġhate": 5445,
    "Ġwhel": 15862,
    "lled": 10108,
    "Ġsimilarly": 24307,
    "Ġcabal": 23643,
    "Ġwoe": 4792,
    "asible": 21538,
    "theast": 21744,
    "comed": 8544,
    "Ġattacked": 10568,
    "Ġcomputation": 963,
    "Ġjury": 5378,
    "Ġrece": 11637,
    "Ġunlock": 18241,
    "Ġdisappointment": 6626,
    "anatory": 21360,
    "Ġbiting": 17859,
    "Ġoverpowered": 15286,
    "verdict": 21725,
    "Ġuntidy": 23521,
    "Ġfranc": 16348,
    "understand": 1147,
    "Ġsuccessive": 10501,
    "venth": 9295,
    "approaching": 15010,
    "ulnerable": 18148,
    "lanterns": 17427,
    "Ġcoloss": 11046,
    "colour": 9903,
    "Ġgiving": 4086,
    "experienced": 15119,
    "Ġcompanionship": 14918,
    "Ġdownst": 3559,
    "corrob": 24484,
    "upset": 23013,
    "Ġample": 11795,
    "Ġocc": 887,
    "Ġdisagree": 22528,
    "Ġdiscompose": 25578,
    "Ġeternal": 5975,
    "Ġwaylaid": 22869,
    "Ġimmensely": 13593,
    "Ġextort": 22716,
    "Ġtuples": 13475,
    "Ġdoubtfully": 23475,
    "cstasy": 11446,
    "als": 2042,
    "Ġintermission": 18586,
    "rmsprop": 4522,
    "Ġextracting": 11105,
    "desponding": 26340,
    "Ġpainter": 19165,
    "Ġ80": 24455,
    "aul": 6352,
    "bildad": 9587,
    "according": 12025,
    "Ġkicks": 19765,
    "Ġliquid": 22405,
    "Ġjurors": 17342,
    "Ġsurpl": 19130,
    "Ġ51": 24319,
    "admire": 24942,
    "ivot": 11716,
    "Ġapproximate": 2342,
    "Ġremind": 6057,
    "Ġjenny": 20161,
    "Ġfellow": 2777,
    "Ġsubord": 22784,
    "Ġnurtured": 19746,
    "Ġjunior": 15097,
    "Ġbleached": 24395,
    "Ġcurious": 3361,
    "guest": 19478,
    "Ġfraud": 19008,
    "Ġtawny": 20479,
    "Ġthro": 5817,
    "betrayed": 24639,
    "tenderly": 20528,
    "Ġgoodge": 22819,
    "eminence": 20095,
    "Ġgoose": 5937,
    "cadence": 26124,
    "Ġcultiv": 13554,
    "Ġsmiled": 5940,
    "Ġspoke": 2748,
    "shells": 26055,
    "Ġresolution": 5500,
    "Ġfountain": 7365,
    "franch": 24283,
    "Ġshag": 9250,
    "ouble": 2663,
    "Ġtemperature": 1007,
    "Ġomn": 8409,
    "sych": 9890,
    "advise": 24216,
    "token": 21080,
    "Ġav": 3581,
    "Ġbells": 19598,
    "tasted": 17685,
    "droppers": 24758,
    "Ġ7": 4744,
    "Ġshoals": 13132,
    "ek": 1909,
    "persu": 8027,
    "confirmation": 26088,
    "Ġthence": 8881,
    "Ġrare": 7037,
    "Ġdevoutly": 25831,
    "Ġinvincible": 23477,
    "humorously": 24016,
    "Ġalongside": 6311,
    "loom": 18533,
    "Ġunfl": 22014,
    "Ġchamounix": 14862,
    "ĠĠĠĠĠĠĠĠĠĠĠĠĠĠĠĠĠĠĠĠĠĠĠĠĠĠĠĠĠĠĠĠĠĠĠĠĠĠ": 16524,
    "Ġtower": 8318,
    "Ġtrophy": 20003,
    "Ġmotioned": 19589,
    "fect": 2299,
    "Ġerect": 6143,
    "Ġimperial": 9481,
    "reserved": 13841,
    "Ġcontrari": 23346,
    "Ġelbow": 12917,
    "50": 6784,
    "Ġer": 8104,
    "unreasonable": 18160,
    "Ġstupendous": 20498,
    "Ġcomponents": 8893,
    "Ġcontinuing": 14395,
    "Ġasks": 5114,
    "cary": 10690,
    "nants": 17611,
    "Ġillustrations": 17106,
    "natured": 7111,
    "dev": 7633,
    "Ġcloser": 8659,
    "es": 289,
    "Ġmonsieur": 12418,
    "Ġindomitableness": 26570,
    "Ġstark": 7390,
    "Ġbeheld": 4493,
    "ogue": 9786,
    "Ġafloat": 9308,
    "rebellum": 26164,
    "attacked": 23117,
    "Ġpaces": 13917,
    "Ġlombardy": 26462,
    "¾": 127,
    "Ġquar": 3112,
    "Ġbast": 21376,
    "Ġforfeit": 21771,
    "Ġimpression": 5732,
    "Ġunluckily": 20098,
    "Ġdelay": 5748,
    "Ġremark": 2146,
    "ici": 8439,
    "Ġloos": 15867,
    "clearer": 24065,
    "Ġfright": 3795,
    "save": 13783,
    "Ġor": 437,
    "flutter": 23967,
    "reshold": 21237,
    "Ġpl": 741,
    "Ġsymph": 22204,
    "outon": 12799,
    "Ġkeeping": 7283,
    "Ġvast": 3298,
    "Ġacquaintances": 17348,
    "crossing": 19407,
    "do": 1997,
    "Ġvol": 4191,
    "Ġpersever": 10003,
    "Ġeventually": 8616,
    "Ġstudies": 7955,
    "Ġjoyful": 13218,
    "Ġtamely": 24976,
    "bulwarks": 12269,
    "proachable": 23395,
    "ville": 6087,
    "Ġuniversity": 13119,
    "Ġkindred": 16374,
    "Ġropes": 10749,
    "Ġwretchedness": 9026,
    "Ġsneezes": 24697,
    "Ġcoroner": 7511,
    "Ġharmony": 16812,
    "Ġforces": 12698,
    "Ġfinishing": 23120,
    "Ġmildness": 9944,
    "Ġburke": 19248,
    "Ġwager": 17790,
    "goin": 23400,
    "Ġcoffin": 4428,
    "describe": 1513,
    "Ġgrinning": 9053,
    "Ġsisterly": 16298,
    "achment": 5464,
    "Ġobviously": 16808,
    "Ġtestament": 23210,
    "flag": 14709,
    "Ġobsole": 22694,
    "Ġhilarious": 20297,
    "Ġgrapp": 14099,
    "Ġrigged": 16715,
    "Ġprodigies": 19790,
    "horse": 8605,
    "Ġcarriages": 11099,
    "itt": 570,
    "Ġrivals": 20270,
    "Ġstrange": 2269,
    "Ġmedium": 16679,
    "arrived": 12605,
    "Ġdaughters": 4421,
    "generations": 23783,
    "Ġtune": 17723,
    "Ġdespise": 14664,
    "Ġsaint": 15505,
    "Ġpapers": 4021,
    "Ġfamous": 5255,
    "Ġghastly": 10060,
    "fishers": 24927,
    "isle": 13890,
    "insist": 23060,
    "topp": 22562,
    "asable": 21537,
    "Ġfearlessness": 19158,
    "Ġtwopence": 18658,
    "Ġrace": 5847,
    "hounds": 20905,
    "hip": 8740,
    "Ġspiral": 14583,
    "loops": 12878,
    "Ġwires": 21293,
    "Ġslaught": 23163,
    "hess": 4746,
    "erated": 21268,
    "Ġev": 4827,
    "ility": 623,
    "Ġsle": 2015,
    "Ġsmiles": 6706,
    "fatal": 17086,
    "Ġmany": 1102,
    "Ġcreditor": 24289,
    "Ġfamiliarly": 11304,
    "Ġboneless": 19602,
    "heredit": 21207,
    "Ġqueen": 3215,
    "meetings": 20375,
    "azed": 9399,
    "Ġinexper": 16978,
    "Ġcure": 21337,
    "anous": 21356,
    "royal": 11394,
    "equal": 14991,
    "mel": 9127,
    "doc": 23373,
    "Ġendeavoured": 4917,
    "Ġcompletely": 4859,
    "Ġtruly": 4795,
    "Ġpetty": 19592,
    "treat": 12510,
    "Ġlandowner": 23378,
    "mology": 12488,
    "Ġendeavour": 4677,
    "Ġcurrent": 13017,
    "Ġintense": 6157,
    "parts": 14600,
    "ular": 716,
    "Ġnut": 12642,
    "Ġfiercely": 12948,
    "Ġforlorn": 14013,
    "clut": 23145,
    "Ġdaybreak": 18724,
    "icked": 10333,
    "ensation": 22542,
    "Ġremembr": 24169,
    "Ġsoothingly": 25046,
    "Ġq": 1084,
    "Ġrevellers": 21674,
    "neg": 12860,
    "ulent": 21858,
    "Ġgarb": 21599,
    "Ġtortured": 14922,
    "Ġsuspicion": 6211,
    "remorse": 14464,
    "Ġlake": 5227,
    "Ġbones": 4583,
    "Ġreasonably": 11087,
    "staff": 21652,
    "alling": 6036,
    "Ġproblem": 1270,
    "Ġtanning": 17727,
    "Ġupbra": 22149,
    "Ġmajority": 13290,
    "Ġfore": 2152,
    "._)": 10481,
    "Ġdisgusting": 19891,
    "Ġreally": 2158,
    "mouse": 15390,
    "Ġcoburg": 18592,
    "Ġconv": 2967,
    "capting": 24035,
    "tiger": 13795,
    "Ġrefers": 1564,
    "hate": 20890,
    "Ġdecisions": 6702,
    "opinion": 10985,
    "Ġadieus": 25109,
    "Ġflushed": 13023,
    "flask": 12096,
    "Ġbaronial": 23791,
    "Ġlazarus": 15027,
    "uncont": 15770,
    "Ġunconnected": 18240,
    "ĠĠĠĠĠĠĠĠĠĠĠĠĠĠĠĠĠĠĠĠĠĠĠĠĠĠĠĠĠĠĠĠĠĠĠĠĠĠĠĠĠĠĠĠ": 12150,
    "Ġopen": 1549,
    "Ġwarned": 16878,
    "Ġmargin": 11918,
    "Ġfairest": 20460,
    "Ġconcepts": 4551,
    "Ġtapering": 8770,
    "Ġbloodthirsty": 26600,
    "Ġeasily": 3889,
    "Ġscientific": 6857,
    "Ġgazes": 24092,
    "Ġreplaced": 13069,
    "Ġwhitewashed": 14467,
    "elt": 4117,
    "Ġseizing": 7876,
    "Ġjib": 14192,
    "Ġsilvery": 13092,
    "brill": 16490,
    "Ġgamb": 17995,
    "Ġce": 3031,
    "scythes": 26401,
    "Ġbriefly": 11368,
    "Ġvi": 1953,
    "Ġtwitching": 25682,
    "ino": 15477,
    "Ġbelrive": 18828,
    "Ġcompatibility": 2956,
    "Ġtrustworthy": 24105,
    "Ġcurls": 22997,
    "Ġdefence": 11068,
    "Ġupd": 946,
    "Ġenvironments": 24087,
    "corners": 17366,
    "lively": 12481,
    "Ġhow": 597,
    "Ġcore": 13876,
    "eked": 16399,
    "Ġalas": 5921,
    "Ġsituation": 4072,
    "Ġcasual": 11410,
    "sincerely": 24583,
    "Ġobligation": 13241,
    "lone": 11500,
    "Ġbred": 9169,
    "Ġsuitable": 18280,
    "od": 350,
    "py": 17622,
    "so": 890,
    "Ġsettle": 6293,
    "stick": 15681,
    "eastern": 17531,
    "Ġcopied": 20004,
    "Ġmcc": 21304,
    "Ġrealise": 16333,
    "Ġtail": 3089,
    "aggoo": 5129,
    "vocabulary": 25084,
    "sion": 8093,
    "oun": 483,
    "solved": 7685,
    "Ġbulb": 23852,
    "Ġdisinterested": 16052,
    "contr": 12054,
    "Ġdistrust": 8203,
    "Ġintercepted": 25825,
    "asingly": 17958,
    "Ġseated": 4541,
    "Ġgums": 21607,
    "Ġtrades": 8231,
    "alice": 3211,
    "ott": 1872,
    "ral": 4627,
    "Ġprov": 4400,
    "Ġhospitality": 13511,
    "oak": 21001,
    "script": 11078,
    "Ġiron": 3237,
    "Ġweights": 896,
    "Ġimmort": 19480,
    "Ġmen": 1434,
    "Ġcripp": 9654,
    "4": 24,
    "za": 13808,
    "Ġfilling": 13406,
    "Ġregularizer": 2339,
    "Ġfestoon": 20293,
    "Ġquality": 3528,
    "sequently": 14582,
    "su": 792,
    "ralian": 19597,
    "plenty": 14089,
    "Ġmaids": 19688,
    "Ġsibbald": 21228,
    "Ġunprejudiced": 18267,
    "aky": 18410,
    "Ġwarmup": 3921,
    "whales": 5186,
    "Ġfang": 21400,
    "Ġassaults": 15154,
    "ization": 486,
    "Ġcompliments": 8632,
    "Ġbuoyant": 13530,
    "analysis": 26172,
    "Ġnonce": 23231,
    "Ġscar": 3214,
    "Ġturning": 3327,
    "elihood": 4622,
    "Ġirresolution": 24914,
    "gun": 10097,
    "miserably": 24209,
    "severe": 21815,
    "Ġfullest": 14812,
    "Ġreference": 2567,
    "Ġodd": 6624,
    "become": 14245,
    "ispens": 8335,
    "Ġlowers": 23237,
    "Ġfergus": 16865,
    "writes": 4987,
    "Ġduties": 6609,
    "orers": 14101,
    "loa": 18531,
    "head": 1435,
    "nyder": 16684,
    "Ġbeech": 18080,
    "entimes": 12652,
    "dom": 6222,
    "ream": 2711,
    "swiss": 24254,
    "Ġgodson": 23355,
    "Ġcitations": 25436,
    "Ġrotation": 25473,
    "impl": 21703,
    "alt": 12634,
    "camp": 15328,
    "Ġoft": 9194,
    "vari": 1515,
    "Ġdeserted": 8636,
    "Ġinternal": 2242,
    "Ġcracks": 12017,
    "Ġmab": 12556,
    "could": 2873,
    "iour": 4038,
    "athom": 12935,
    "ming": 3600,
    "Ġengrossed": 12991,
    "Ġens": 2788,
    "falsehood": 25900,
    "common": 4129,
    "blu": 12437,
    "Ġswain": 18877,
    "Ġfly": 3868,
    "viating": 14578,
    "Ġstool": 14459,
    "haut": 20900,
    "Ġsnatched": 10472,
    "olstadt": 7788,
    "wont": 21130,
    "Ġplumber": 16080,
    "Ġmurmuring": 23578,
    "le": 279,
    "Ġprudential": 17915,
    "Ġsummoned": 9911,
    "may": 3680,
    "commence": 19988,
    "neighbour": 7211,
    "isher": 2878,
    "Ġsubur": 12952,
    "ces": 580,
    "Ġlens": 8437,
    "Ġelsewhere": 7712,
    "Ġrecital": 16142,
    "fluttering": 23969,
    "harpooned": 24285,
    "Ġgabriel": 7596,
    "felix": 10654,
    "mindful": 19596,
    "itic": 11577,
    "Ġleaped": 8824,
    "Ġlaure": 16907,
    "Ġslit": 13053,
    "herent": 2530,
    "Ġmoreover": 6163,
    "ernally": 22611,
    "Ġpaul": 12059,
    "xt": 2080,
    "Ġy": 341,
    "Ġlog": 1675,
    "penetrate": 20323,
    "Ġhart": 17919,
    "Ġinsist": 9891,
    "opol": 12867,
    "fury": 17545,
    "Ġbricks": 13560,
    "soon": 4028,
    "zza": 24166,
    "lascar": 20958,
    "odox": 21807,
    "Ġshallow": 14392,
    "antediluvian": 24345,
    "mod": 1048,
    "Ġwildness": 14602,
    "Ġfoolishly": 19779,
    "Ġqual": 6274,
    "Ġimpose": 22378,
    "Ġearlier": 9086,
    "Ġaffording": 14819,
    "Ġinhabited": 12182,
    "Ġempt": 5050,
    "nals": 16396,
    "Ġfilthy": 13246,
    "Ġsparkling": 11357,
    "Ġroll": 5381,
    "Ġconjectured": 9997,
    "Ġoccasion": 3247,
    "sac": 7141,
    "pherd": 13642,
    "Ġhovered": 12627,
    "pyramid": 21028,
    "Ġchemist": 11135,
    "tering": 3805,
    "evidently": 20344,
    "Ġaries": 21195,
    "Ġmagical": 23094,
    "Ġfinally": 4666,
    "Ġhelm": 5275,
    "Ġapolog": 9043,
    "Ġsunny": 13084,
    "ourers": 21446,
    "Ġdecorated": 22436,
    "Ġmarling": 23032,
    "Ġreverse": 16980,
    "Ġfragments": 19010,
    "Ġdespondence": 25868,
    "Ġargemone": 24273,
    "tem": 6369,
    "spee": 9317,
    "waving": 21129,
    "Ġtelegraph": 25582,
    "ulia": 18146,
    "regularly": 13206,
    "Ġlondon": 2841,
    "Ġbroad": 3638,
    "Ġdrugged": 12598,
    "it": 276,
    "Ġstrive": 23691,
    "asing": 5911,
    "pivot": 21029,
    "Ġcre": 888,
    "ckles": 22085,
    "Ġseen": 1368,
    "Ġinquir": 4244,
    "derick": 22159,
    "slack": 16892,
    "Ġgranted": 22803,
    "Ġbest": 1976,
    "Ġspans": 18302,
    "Ġgulp": 20025,
    "innocence": 15181,
    "Ġlobster": 11390,
    "nesday": 8702,
    "Ġsagittarius": 24731,
    "Ġunmo": 12769,
    "cept": 553,
    "wester": 21136,
    "Ġpropont": 16345,
    "flames": 14710,
    "Ġ199": 3010,
    "itely": 5365,
    "Ġconveying": 19711,
    "ies": 583,
    "Ġexplore": 15904,
    "original": 9084,
    "Ġimprinted": 22385,
    "resses": 16149,
    "Ġconvey": 9981,
    "Ġfem": 6134,
    "Ġferguson": 17467,
    "eting": 7169,
    "Ġcontinu": 1165,
    "Ġu": 324,
    "delightful": 12193,
    "Ġimpertin": 6933,
    "Ġsentences": 2683,
    "Ġhunters": 6300,
    "drove": 16991,
    "Ġcomrade": 12280,
    "Ġtenement": 23546,
    "Ġopposite": 5119,
    "Ġmember": 8585,
    "remind": 23183,
    "Ġmouth": 3182,
    "Ġcusack": 26432,
    "task": 13791,
    "Ġpomp": 12618,
    "ppa": 10240,
    "Ġexpenses": 11831,
    "Ġplaces": 5390,
    "Ġamericans": 14741,
    "umer": 9258,
    "Ġadmir": 12019,
    "Ġsystematic": 5244,
    "Ġperception": 9750,
    "Ġchallenge": 25470,
    "Ġdro": 2772,
    "fanning": 20864,
    "Ġlamb": 8812,
    "Ġsplashed": 23745,
    "Ġpastures": 23417,
    "Ġspoilt": 24806,
    "Ġcrawford": 24892,
    "Ġcounsel": 13613,
    "Ġcarav": 18899,
    "acters": 9309,
    "grinder": 23412,
    "choose": 23671,
    "Ġnights": 7258,
    "pred": 2804,
    "Ġsmall": 892,
    "rubbed": 22176,
    "giv": 13720,
    "ract": 976,
    "Ġbingley": 1674,
    "cut": 3123,
    "guilt": 24066,
    "circumstantial": 24443,
    "Ġdaresay": 14702,
    "Ġbroom": 18904,
    "prejud": 11793,
    "Ġfact": 1727,
    "Ġsordid": 26421,
    "Ġbold": 5291,
    "Ġamongst": 8959,
    "Ġlightning": 5750,
    "Ġdirectors": 18919,
    "Ġbank": 4876,
    "Ġlighting": 13080,
    "Ġprefer": 6416,
    "bulk": 19921,
    "Ġsor": 4148,
    "service": 15035,
    "Ġmr": 660,
    "Ġprocession": 11772,
    "Ġchoose": 5981,
    "Ġisa": 14023,
    "Ġcannon": 14152,
    "process": 11149,
    "Ġpuzzled": 7317,
    "cond": 1666,
    "forehead": 8515,
    "Ġrifle": 18210,
    "quarters": 24945,
    "Ġfelicity": 7260,
    "fortunately": 9450,
    "Ġdebated": 9040,
    "Ġmakest": 25434,
    "Ġfeedforward": 2326,
    "Ġdevotedly": 24749,
    "rible": 3229,
    "Ġdistrusted": 13540,
    "historical": 20463,
    "Ġcongratulatory": 19764,
    "meas": 7434,
    "Ġvaried": 11845,
    "Ġperiods": 13301,
    "Ġpry": 11598,
    "Ġestimable": 23869,
    "Ġbecoming": 4397,
    "ca": 20791,
    "Ġrelev": 1716,
    "Ġdet": 510,
    "Ġvoyages": 6909,
    "Ġreckless": 13456,
    "warm": 8101,
    "Ġcyn": 13884,
    "Ġgoblet": 25822,
    ".;": 20742,
    "frame": 17114,
    "Ġduodecimo": 16765,
    "Ġunspeak": 8850,
    "Ġdecidedly": 9509,
    "phon": 4128,
    "ateral": 19373,
    "Ġwrinkles": 8570,
    "Ġdelight": 2549,
    "Ġcucumber": 21353,
    "ught": 2752,
    "generative": 4332,
    "Ġtreatise": 19341,
    "Ġintroduced": 7691,
    "Ġdigress": 24647,
    "Ġsalary": 13291,
    "Ġdreaminess": 23936,
    "Ġmultimodal": 18745,
    "Ġbeak": 18077,
    "incing": 15483,
    "Ġdiscovery": 5412,
    "Ġbully": 23853,
    "painting": 17044,
    "coburg": 13596,
    "gra": 769,
    "Ġpredicting": 2416,
    "Ġgriff": 22802,
    "Ġbizarre": 17869,
    "Ġbrotherly": 16526,
    "Ġerie": 20050,
    "ture": 7559,
    "Ġlac": 17962,
    "Ġbrass": 11049,
    "Ġstate": 1812,
    "making": 2574,
    "Ġimmortal": 8017,
    "action": 3726,
    "Ġinvests": 14866,
    "Ġsupreme": 13605,
    "Ġprank": 23215,
    "received": 9639,
    "cused": 15330,
    "Ġpolitic": 23620,
    "Ġshol": 21991,
    "Ġxavier": 2856,
    "Ġsurprise": 3827,
    "boone": 23250,
    "Ġsalvation": 14756,
    "Ġheight": 4222,
    "Ġnostrils": 10944,
    "Ġjapan": 7640,
    "Ġimpassable": 20610,
    "Ġplaymate": 23639,
    "Ġplum": 11819,
    "ield": 2409,
    "Ġwrongfully": 24247,
    "scratch": 26041,
    "Ġdropped": 4470,
    "woman": 5898,
    "ines": 681,
    "Ġcrib": 21345,
    "lydia": 6826,
    "Ġmiddle": 4141,
    "Ġand": 295,
    "Ġrepute": 18032,
    "extinguished": 16144,
    "Ġrepining": 23357,
    "orphans": 26439,
    "Ġcommercial": 22670,
    "Ġ45": 14769,
    "Ġpreprocess": 22229,
    "Ġfeeling": 3084,
    "Ġnewfound": 22928,
    "Ġpartaking": 22693,
    "Ġcarelessly": 11121,
    "Ġreasoner": 14432,
    "Ġwhole": 1660,
    "Ġconversation": 3331,
    "Ġtorpor": 25030,
    "Ġtraps": 23076,
    "american": 11401,
    "iscuits": 24665,
    "Ġisinglass": 21798,
    "Ġrestrictions": 20633,
    "Ġcommissioned": 19892,
    "enterprise": 24991,
    "Ġended": 7949,
    "sensibility": 25022,
    "urbed": 15705,
    "Ġentr": 14337,
    "points": 14391,
    "Ġrazors": 22649,
    "Ġpersonality": 16475,
    "grand": 7969,
    "nerable": 16273,
    "oise": 15402,
    "Ġinjury": 10541,
    "Ġargue": 16781,
    "Ġfidgeted": 25888,
    "Ġprior": 11319,
    "orate": 10801,
    "shriek": 20517,
    "apologizing": 26543,
    "Ġmenaced": 16289,
    "Ġeffective": 1248,
    "bent": 15309,
    "Ġsne": 6372,
    "Ġnorm": 764,
    "Ġphysiognomical": 25610,
    "morrow": 4572,
    "persecut": 22181,
    "Ġamazed": 14887,
    "Ġunsocial": 18254,
    "Ġcharm": 4548,
    "violently": 23540,
    "Ġwitness": 4621,
    "get": 1021,
    "Ġeagerness": 6608,
    "Ġ82": 24457,
    "etus": 21574,
    "Ġsort": 1506,
    "Ġcrawled": 17042,
    "bears": 22486,
    "bringing": 17164,
    "Ġinscrut": 10034,
    "Ġjust": 1239,
    "Ġskil": 14349,
    "Ġintru": 15824,
    "lings": 8745,
    "Ġstri": 2805,
    "Ġporpoises": 13380,
    "Ġtypes": 8936,
    "Ġfastened": 7066,
    "Ġabrid": 22268,
    "Ġsupplying": 19795,
    "Ġastr": 15492,
    "abri": 6682,
    "Ġabsurdities": 24877,
    "backpropagation": 11983,
    "octial": 20001,
    "Ġdismal": 11807,
    "Ġentitled": 8537,
    "ctuous": 9205,
    "os": 526,
    "constit": 24603,
    "Ġraises": 11840,
    "Ġcasts": 19422,
    "Ġdrugg": 17117,
    "meeting": 11018,
    "Ġmuzzle": 21318,
    "abated": 14018,
    "Ġinv": 2222,
    "Ġinvesting": 19643,
    "ittarius": 22373,
    "wal": 10134,
    "Ġachieve": 3674,
    "Ġskeletons": 16789,
    "Ġpedro": 14993,
    "ii": 4014,
    "Ġinconsistency": 26181,
    "ester": 11602,
    "collect": 16561,
    "Ġswings": 11088,
    "Ġdeliberately": 10625,
    "cence": 9589,
    "Ġdeceit": 13479,
    "Ġopine": 19224,
    "chery": 24550,
    "Ġdaggoo": 5441,
    "iliating": 12691,
    "teak": 22813,
    "Ġsystems": 801,
    "Ġdashes": 21431,
    "riv": 3108,
    "ures": 838,
    "placidity": 25987,
    "Ġfiltering": 23922,
    "iece": 3231,
    "Ġjollity": 25565,
    "fare": 7798,
    "Ġtwentieth": 18657,
    "Ġdispel": 16594,
    "spe": 3560,
    "project": 16421,
    "owed": 2266,
    "Ġessentially": 24923,
    "Ġcasualty": 20340,
    "Ġmocking": 23999,
    "Ġpounds": 5368,
    "Ġimprovements": 14515,
    "Ġcaul": 10788,
    "Ġseedy": 21951,
    "thy": 2932,
    "ripp": 6404,
    "Ġbigot": 24564,
    "bo": 1692,
    "Ġju": 10287,
    "Ġlongest": 18629,
    "Ġpossibility": 7458,
    "Ġcertain": 1557,
    "Ġexpressions": 7705,
    "Ġleap": 5823,
    "Ġmoles": 22428,
    "bull": 13688,
    "Ġfetched": 24566,
    "Ġg": 310,
    "Ġdemocracy": 25457,
    "Ġneck": 4884,
    "ele": 9114,
    "Ġmorcar": 13007,
    "Ġtowards": 1728,
    "Ġstreaming": 19670,
    "olently": 15753,
    "faced": 8079,
    "Ġsuffocated": 20726,
    "Ġappertain": 22215,
    "Ġdisreputable": 22530,
    "thirst": 15822,
    "**:": 4736,
    "iciency": 9575,
    "Ġwhilst": 9218,
    "Ġcrystall": 20225,
    "Ġceaseless": 13486,
    "Ġlighted": 7064,
    "Ġmomentous": 16168,
    "Ġsurrounding": 12159,
    "amed": 4447,
    "Ġsentiments": 7960,
    "Ġpave": 8799,
    "Ġtie": 10751,
    "Ġbaggy": 24537,
    "Ġlethargy": 26481,
    "pistol": 17640,
    "pets": 17634,
    "pointing": 12221,
    "thereby": 14445,
    "Ġpennies": 17269,
    "pitching": 24073,
    "Ġperfidious": 25665,
    "Ġrespect": 1668,
    "Ġnantucket": 2840,
    "problems": 11435,
    "unched": 10236,
    "Ġwalled": 15532,
    "Ġglorious": 11076,
    "oman": 2019,
    "Ġpolynes": 16078,
    "Ġbunger": 9996,
    "Ġmissed": 8555,
    "hundreds": 25072,
    "Ġundertake": 14478,
    "precip": 14663,
    "Ġkitty": 3907,
    "Ġinhabitant": 19752,
    "Ġvoices": 7875,
    "Ġwaved": 9645,
    "[_": 5130,
    "Ġforging": 18091,
    "Ġfatality": 12091,
    "Ġequally": 5257,
    "Ġdeduce": 8336,
    "malice": 17602,
    "Ġmotives": 7487,
    "Ġbristles": 25842,
    "wled": 15452,
    "Ġdictated": 25217,
    "Ġgallied": 19553,
    "aph": 10955,
    "Ġnoble": 3440,
    "Ġkentuck": 19888,
    "Ġ(": 594,
    "iracle": 11244,
    "Ġproperty": 6450,
    "feather": 16039,
    "`": 68,
    "harbors": 20145,
    "driver": 14919,
    "Ġsaturday": 6452,
    "duct": 3507,
    "Ġfireside": 23529,
    "Ġabundance": 17153,
    "Ġahoy": 12181,
    "Ġcomfortable": 6094,
    "ilty": 6394,
    "Ġclothing": 18420,
    "Ġrounding": 16272,
    "Ġneighbour": 3806,
    "dischar": 19149,
    "Ġwits": 15529,
    "serve": 13043,
    "Ġsuicide": 12785,
    "Ġoppose": 16518,
    "Ġconsiderations": 9410,
    "otently": 21796,
    "Ġpeevish": 26556,
    "Ġaltern": 7394,
    "Ġbeads": 18081,
    "arab": 21438,
    "braid": 17492,
    "Ġunwe": 15835,
    "Ġhappens": 2185,
    "those": 4496,
    "Ġsmacking": 20164,
    "Ġfringed": 17271,
    "Ġcircumvent": 25063,
    "olent": 8154,
    "Ġgowns": 25358,
    "Ġprecision": 13185,
    "Ġaccidental": 16846,
    "Ġhandsomest": 20333,
    "Ġ88": 19708,
    "Ġleg": 2335,
    "yea": 23083,
    "Ġcivilised": 24243,
    "Ġwax": 10777,
    "Ġwildest": 16509,
    "Ġdeposition": 18610,
    "Ġunheeded": 18259,
    "Ġpainfully": 13140,
    "Ġfortifications": 23622,
    "Ġbureau": 11589,
    "Ġdaniel": 15109,
    "Ġmuffled": 10641,
    "Ġdrinks": 24278,
    "otic": 15741,
    "Ġcurling": 9347,
    "itory": 12563,
    "Ġraved": 22643,
    "harrow": 20906,
    "umerable": 11722,
    "Ġhappy": 2466,
    "ampled": 18881,
    "straw": 24093,
    "Ġtimidly": 11339,
    "shott": 11791,
    "Ġwherein": 14291,
    "Ġsigh": 10337,
    "imitably": 21707,
    "Ġsermon": 12373,
    "uned": 21867,
    "ibbald": 18839,
    "Ġapparatus": 24907,
    "Ġcircle": 4976,
    "vessels": 10626,
    "nnight": 20991,
    "Ġswelling": 11922,
    "announced": 19756,
    "Ġvexatious": 19778,
    "Ġuntouched": 16463,
    "Ġdisconsol": 18555,
    "touched": 15437,
    "Ġhot": 4259,
    "Ġblot": 9812,
    "embraces": 25804,
    "Ġravines": 25830,
    "served": 5042,
    "annica": 24560,
    "rous": 3752,
    "Ġsullenly": 17170,
    "Ġaltered": 7393,
    "Ġgathers": 24742,
    "Ġapr": 12528,
    "iant": 5427,
    "Ġdiffered": 22707,
    "Ġcursory": 18856,
    "Ġresort": 18561,
    "enses": 10996,
    "urrection": 12406,
    "Ġaudacious": 13458,
    "morning": 4858,
    "Ġepit": 18004,
    "Ġcruellest": 19655,
    "Ġcouples": 16850,
    "osque": 22258,
    "Ġamong": 1667,
    "Ġwhispering": 14943,
    "Ġpinioned": 21478,
    "aloud": 17938,
    "inarticulate": 21193,
    "Ġengraved": 17079,
    "Ġmo": 628,
    "Ġsuggestion": 19704,
    "Ġeels": 21618,
    "transformers": 8714,
    "ber": 884,
    "Ġnoisy": 13316,
    "jur": 17576,
    "bs": 3750,
    "Ġerudite": 26349,
    "footsteps": 25198,
    "hued": 20909,
    "Ġbrooded": 23099,
    "jaw": 13741,
    "Ġrigging": 5601,
    "Ġcarn": 17819,
    "ect": 381,
    "Ġgrowled": 19280,
    "Ġunlocking": 20704,
    "ply": 6366,
    "grin": 19103,
    "blind": 16703,
    "ooping": 21005,
    "Ġtechnical": 17190,
    "Ġunknown": 4452,
    "Ġsurtout": 23463,
    "Ġspurn": 18307,
    "Ġremarked": 3696,
    "Ġvarying": 15807,
    "Ģ": 227,
    "Ġamend": 16030,
    "hroom": 12473,
    "Ġintuitions": 17339,
    "ifford": 15780,
    "Ġaston": 3702,
    "never": 3153,
    "Ġwr": 1543,
    "Ġcleaving": 23177,
    "opportunity": 12271,
    "lance": 12478,
    "Ġscratches": 22287,
    "Ġreferred": 8916,
    "Ġinnocently": 24024,
    "Ġsurround": 4617,
    "Ġcho": 4547,
    "Ġcolumb": 22850,
    "zen": 5139,
    "Ġamput": 16029,
    "Ġtable": 2500,
    "beg": 22483,
    "rollable": 13943,
    "Ġdragging": 14474,
    "love": 9294,
    "crucible": 24841,
    "ets": 1158,
    "infernal": 24661,
    "Ġfrighten": 13275,
    "Ġscold": 10951,
    "Ġchanged": 5242,
    "scorn": 22980,
    "Ġunconditional": 15841,
    "beards": 22487,
    "Ġperilous": 7768,
    "inno": 10757,
    "give": 4688,
    "atically": 2588,
    "ret": 1474,
    "Ġfacing": 10172,
    "volume": 18599,
    "Ġtub": 7147,
    "Ġsprung": 11249,
    "beheld": 11798,
    "Ġtheorem": 2325,
    "Ġthinkings": 22806,
    "turning": 8316,
    "ropes": 7902,
    "Ġunited": 6840,
    "Ġcurtains": 23000,
    "able": 451,
    "strangely": 17275,
    "Ġcellars": 24664,
    "Ġapplied": 6186,
    "Ġstripped": 10466,
    "Ġm": 274,
    "uneasiness": 23685,
    "Ġow": 8407,
    "Ġstreams": 12189,
    "Ġtren": 17719,
    "Ġurging": 24504,
    "Ġpagoda": 19785,
    "Ġeth": 17714,
    "Ġcoincidences": 26362,
    "standard": 22432,
    "malicious": 19899,
    "Ġnecessity": 7296,
    "Ġnotorious": 18221,
    "ushion": 14718,
    "Ġinfer": 7684,
    "ounders": 22389,
    "Ġdock": 15926,
    "igning": 12676,
    "Ġshuddering": 9051,
    "Ġbeheading": 21750,
    "Ġadmires": 19682,
    "Ġimpediments": 26239,
    "Ġpassengers": 13673,
    "Ġpivot": 13921,
    "heavenly": 20041,
    "waistcoat": 17359,
    "âĢĶâĢľ_": 13202,
    "Ġradiance": 13368,
    "aphys": 15199,
    "Ġrue": 11864,
    "Ġinflex": 20632,
    "Ġgolden": 5336,
    "Ġimpressed": 8198,
    "du": 606,
    "bethinking": 25744,
    "laz": 15383,
    "Ġargu": 10935,
    "Ġauthoritative": 19558,
    "Ġretrieval": 10675,
    "rawling": 21632,
    "Ġmurder": 4282,
    "Ġtalker": 23368,
    "Ġbewitching": 25975,
    "Ġdit": 21417,
    "Ġjudging": 16593,
    "terdam": 18127,
    "Ġsentry": 19026,
    "Ġmumbling": 11573,
    "Ġresume": 18563,
    "Ġwhitt": 18052,
    "Ġrachel": 11842,
    "unted": 6999,
    "furthermore": 20000,
    "Ġtrough": 15974,
    "walton": 20248,
    "liable": 3816,
    "Ġwhal": 5454,
    "Ġevidently": 6759,
    "inter": 2946,
    "exhibited": 18475,
    "Ġshout": 4266,
    "Ġcastaways": 19424,
    "Ġsought": 5009,
    "ques": 2843,
    "Ġharrow": 17923,
    "Ġstacks": 18075,
    "Ġder": 1497,
    "Ġnomine": 26455,
    "injured": 15130,
    "Ġparlour": 12318,
    "wear": 22679,
    "Ġbenefactor": 14696,
    "Ġpawn": 12060,
    "Ġshaking": 6551,
    "Ġredness": 19309,
    "Ġtraveller": 8048,
    "omed": 13973,
    "Ġmanaging": 22322,
    "Ġmorsel": 20675,
    "Ġbestowed": 6593,
    "Ġperil": 5557,
    "Ġcologne": 12971,
    "Ġassemblage": 26350,
    "Ġsticks": 14929,
    "Ġtriumphantly": 11288,
    "clock": 3932,
    "Ġcoinc": 11003,
    "Ġdeafened": 25650,
    "Ġverte": 9441,
    "Ġformal": 2940,
    "Ġarchitects": 18741,
    "extracts": 22754,
    "certainly": 5339,
    "Ġwrinkled": 7264,
    "Ġflag": 7242,
    "destiny": 16700,
    "Ġsqu": 1037,
    "Ġjewels": 12366,
    "Ġgree": 7595,
    "Ġpleated": 16293,
    "flowing": 14546,
    "Ġswaying": 15045,
    "Ġchewing": 23283,
    "Ġstrain": 6023,
    "Ġspence": 22122,
    "neying": 22440,
    "Ġlig": 21544,
    "Ġpressed": 6041,
    "clings": 23146,
    "Ġungodly": 26512,
    "things": 6032,
    "adventures": 20255,
    "arle": 21437,
    "Ġorlop": 22089,
    "Ġrode": 15994,
    "ild": 1152,
    "Ġpleasurable": 23337,
    "Ġdug": 21427,
    "wa": 5896,
    "Ġhopeless": 7463,
    "thirty": 12758,
    "mar": 4337,
    "Ġadvised": 16211,
    "affected": 10477,
    "Ġutterly": 6100,
    "spirits": 8054,
    "Ġrout": 7402,
    "iably": 13736,
    "Ġhearers": 15699,
    "Ġnich": 21516,
    "sciss": 18848,
    "!âĢĿâĢĶ": 8532,
    "Ġsinks": 19546,
    "Ġstock": 7455,
    "estic": 4955,
    "Ġburgled": 23655,
    "Ġwalls": 6762,
    "Ġmornings": 16230,
    "Ġharpoon": 3615,
    "professor": 17248,
    "Ġheavy": 3743,
    "saw": 5893,
    "Ġevangelical": 25505,
    "Ġ1000": 3116,
    "neys": 23581,
    "oran": 8788,
    "Ġproprietors": 20185,
    "Ġcrusad": 23704,
    "Ġagreement": 18537,
    "Ġcasting": 12097,
    "Ġcorpse": 6638,
    "Ġdistress": 5844,
    "Ġwidows": 24235,
    "Ġintellect": 8169,
    "Ġrustling": 24714,
    "steady": 14707,
    "Ġdish": 6136,
    "Ġadvers": 4886,
    "Ġspouted": 14673,
    "Ġadversary": 12170,
    "Ġmisled": 22756,
    "surface": 10531,
    "Ġclearly": 6897,
    "Ġembalmed": 13654,
    "Ġsail": 1672,
    "Ġlabourers": 23329,
    "Ġever": 1178,
    "Ġgates": 10201,
    "searching": 25102,
    "Ġscru": 8191,
    "borean": 25742,
    "Ġbooks": 4675,
    "Ġscattered": 6856,
    "airing": 16173,
    "horror": 13157,
    "details": 19672,
    "Ġguard": 6178,
    "dear": 6555,
    "unning": 4494,
    "Ġsatisfactory": 11193,
    "quality": 10233,
    "|": 96,
    "elling": 5830,
    "Ġpersuasions": 16629,
    "erland": 9641,
    "confidence": 16806,
    "Ġsinful": 18946,
    "Ġnails": 12644,
    "otics": 10224,
    "Ġheated": 21678,
    "idays": 21766,
    "ractions": 11632,
    "sailor": 14713,
    "ork": 416,
    "contain": 18498,
    "Ġpretext": 22225,
    "arrival": 15596,
    "sur": 4523,
    "Ġdiscussion": 17193,
    "obviously": 25241,
    "neglected": 25667,
    "Ġassertion": 13487,
    "Ġtoward": 17944,
    "engines": 18925,
    "ancient": 9656,
    "regret": 16448,
    "Ġuninterrupted": 22040,
    "etence": 21573,
    "bitter": 11241,
    "Ġloose": 4648,
    "strugg": 21658,
    "Ġinvari": 6529,
    "Ġutensils": 23513,
    "Ġthickness": 13274,
    "Ġparade": 18299,
    "responsible": 25762,
    "orn": 2239,
    "Ġmarshy": 20217,
    "typewritten": 26037,
    "Ġpuzz": 5533,
    "Ġbacks": 8528,
    "berish": 22712,
    "chose": 18038,
    "ban": 9585,
    "Ġoutdone": 22314,
    "beholding": 16037,
    "knife": 6942,
    "conc": 3947,
    "throw": 14096,
    "Ġcast": 3605,
    "killed": 15374,
    "Ġinadequate": 17934,
    "Ġruled": 22780,
    "Ġguernsey": 9351,
    "cap": 8372,
    "em": 391,
    "Ġsimpleton": 16331,
    "Ġtreading": 16504,
    "Ġinfatuated": 20531,
    "Ġpolice": 4674,
    "Ġarrowy": 25468,
    "Ġimprecations": 25819,
    "âĢľâĢĺ": 1482,
    "ifference": 5632,
    "Ġphara": 23195,
    "king": 3060,
    "Ġfa": 4818,
    "hot": 8083,
    "upid": 6581,
    "Ġgentlemanlike": 12063,
    "Ġmeasures": 1205,
    ">": 34,
    "Ġchronicled": 25327,
    "Ġattribute": 16096,
    "div": 8075,
    "Ġsupports": 3050,
    "disguise": 26305,
    "Ġvector": 1973,
    "Ġtendency": 11330,
    "Ġdol": 9665,
    "arian": 10317,
    "whal": 10941,
    "com": 987,
    "slightest": 25415,
    "friend": 3861,
    "Ġfow": 6133,
    "Ġloops": 8852,
    "Ġseconds": 16394,
    "Ġsatir": 18791,
    "conven": 6162,
    "Ġrender": 8304,
    "mediate": 16512,
    "certain": 3677,
    "Ġexord": 21823,
    "nical": 20989,
    "Ġextravagance": 17278,
    "shazzar": 15287,
    "white": 4602,
    "valu": 1682,
    "Ġdistension": 22500,
    "credit": 12445,
    "Ġapplicable": 19017,
    "Ġreser": 5169,
    "Ġpreposter": 12818,
    "Ġvault": 8840,
    "instinct": 19540,
    "Ġworld": 1596,
    "Ġriver": 5411,
    "Ġimputation": 22168,
    "Ġcous": 3436,
    "rrh": 26143,
    "Ġtouched": 6000,
    "Ġthrusts": 24349,
    "Ġmean": 740,
    "Ġconject": 6026,
    "Ġloads": 22110,
    "Ġunpleasing": 22049,
    "support": 9470,
    "atig": 13843,
    "Ġmediterranean": 12312,
    "Ġclos": 4549,
    "irted": 14070,
    "Ġtongues": 14861,
    "Ġhoney": 12628,
    "quietly": 10593,
    "Ġvint": 18192,
    "rigible": 24930,
    "Ġbrook": 13044,
    "_:": 17476,
    "Ġcontextual": 3742,
    "ulty": 22564,
    "Ġbitterest": 12399,
    "udding": 11862,
    "urches": 12681,
    "Ġgleams": 17308,
    "Ġmiser": 18703,
    "Ġfain": 5808,
    "Ġunfitted": 24107,
    "Ġnations": 8809,
    "otes": 15740,
    "ads": 5718,
    "Ġsuffers": 2973,
    "skelter": 24489,
    "Ġmutilated": 23955,
    "Ġexpected": 3697,
    "ootiful": 17371,
    "Ġvillas": 24049,
    "Ġglit": 8558,
    "inian": 21180,
    "Ġenchanting": 17037,
    "Ġblackest": 19096,
    "Ġcage": 17823,
    "Ġphyseter": 26585,
    "Ġdigest": 24646,
    "Ġwillingness": 24909,
    "Ġep": 7385,
    "Ġvoyagings": 19232,
    "Ġseaport": 20597,
    "Ġcapering": 21351,
    "Ġputting": 5326,
    "ersampling": 18214,
    "Ł": 258,
    "Ġsty": 6251,
    "Ġincarnation": 25572,
    "Ġthus": 2037,
    "Ġimitate": 14156,
    "Ġlevelled": 11285,
    "Ġ65": 24367,
    "sphere": 22727,
    "Ġhercules": 14126,
    "te": 994,
    "Ġglimmering": 25239,
    "Ġshocked": 9401,
    "dening": 22773,
    "Ġhosts": 19935,
    "Ġrevenge": 5452,
    "apable": 6422,
    "Ġonce": 1490,
    "Ġploughed": 22601,
    "Ġinterest": 2244,
    "Ġmotions": 8280,
    "Ġgills": 17990,
    "Ġharris": 13925,
    "Ġepoch": 26471,
    "Ġcircumspect": 15082,
    "Ġcalam": 13030,
    "Ġber": 5698,
    "Ġhateful": 19710,
    "robustness": 26337,
    "Ġsulky": 13513,
    "Ġflog": 23624,
    "within": 6730,
    "Ġitem": 12697,
    "Ġoverlooked": 15967,
    "Ġpillow": 10038,
    "Ġ100": 14361,
    "Ġweld": 8111,
    "riages": 10243,
    "irregular": 21907,
    "carb": 20808,
    "ized": 1526,
    "ogrand": 26260,
    "kind": 3862,
    "Ġcursed": 6729,
    "Ġinsufficient": 9673,
    "Ġforetold": 23449,
    "Ġcrags": 23526,
    "Ġassembl": 20057,
    "emotions": 15793,
    "Ġcensured": 25093,
    "Ġprobabilities": 4965,
    "ids": 21759,
    "Ġesteem": 7532,
    "Ġlou": 6822,
    "Ġdiscreet": 16480,
    "Ġvolumes": 14798,
    "Ġexperiment": 11917,
    "Ġheat": 5453,
    "forgetting": 25484,
    "Ġsecured": 6745,
    "fact": 6358,
    "conclude": 24063,
    "acle": 4714,
    "fig": 8734,
    "Ġfloor": 4378,
    "Ġshare": 1656,
    "Ġmotionless": 8323,
    "health": 13831,
    "Ġposted": 16722,
    "Ġers": 15458,
    "Ġblown": 12082,
    "ol": 363,
    "cro": 13694,
    "Ġbeauty": 3769,
    "onious": 15516,
    "Ġforthwith": 16616,
    "Ġanno": 9668,
    "Ġvernal": 23885,
    "Ġalleged": 17289,
    "Ġinvariably": 8063,
    "bon": 13682,
    "ley": 1818,
    "Ġdiscomp": 11863,
    "ieth": 10705,
    "Ġceremonious": 24836,
    "spending": 18688,
    "Ġguineas": 16268,
    "Ġgeorgiana": 8625,
    "ise": 708,
    "Ġleisurely": 24745,
    "Ġprogeny": 17386,
    "ident": 3379,
    "Ġmizzen": 20288,
    "Ġjump": 4504,
    "Ġsacrific": 15016,
    "rows": 6442,
    "Ġtennes": 23547,
    "Ġhammers": 13238,
    "Ġensuring": 11192,
    "rushing": 10018,
    "Ġforg": 3786,
    "antucket": 2645,
    "Ġconfederate": 17352,
    "Ġbott": 3149,
    "Ġsign": 2496,
    "Ġwide": 4110,
    "Ġwhereof": 16098,
    "Ġagreeing": 20015,
    "Ġmonosy": 18842,
    "Ġfit": 3685,
    "Ġparticularly": 5055,
    "Ġconcocted": 26298,
    "Ġlot": 6678,
    "Ġnovelist": 24776,
    "Ġexcess": 3343,
    "Ġanteced": 26176,
    "Ġrich": 2994,
    "Ġnoiselessly": 22856,
    "Ġdetaining": 25817,
    "Ġimport": 1003,
    "Ġnugent": 26456,
    "Ġgn": 8817,
    "Ġvane": 22870,
    "posted": 24634,
    "Ġtech": 1681,
    "Ġimpressive": 14998,
    "Ġcocain": 18591,
    "Ġgoring": 21600,
    "Ġdeem": 18134,
    "Ġgans": 5821,
    "Ġglimmer": 15139,
    "Ġ83": 24458,
    "addressing": 24400,
    "Ġentrances": 25832,
    "Ġoutweigh": 22318,
    "mechanically": 17298,
    "Ġchecking": 23284,
    "Ġfundament": 2925,
    "Ġendured": 6072,
    "Ġresolute": 19242,
    "rop": 541,
    "Ġadmirably": 16479,
    "Ġequilib": 4139,
    "rously": 17652,
    "Ġpatience": 2709,
    "william": 4562,
    "Ġowed": 10781,
    "therefore": 5953,
    "Ġhearken": 21681,
    "this": 1439,
    "anqu": 4112,
    "Ġgent": 7383,
    "Ġrig": 4227,
    "Ġvenerable": 9093,
    "adie": 18086,
    "Ġspake": 18306,
    "Ġaux": 21197,
    "Ġleak": 2159,
    "ulus": 21860,
    "my": 1318,
    "thousands": 16870,
    "Ġ114": 24437,
    "Ġinserted": 8355,
    "Ġmadden": 10448,
    "haw": 6361,
    "Ġberkshire": 16882,
    "tray": 21075,
    "Ġvenom": 24237,
    "Ġacid": 22678,
    "walked": 10571,
    "obliv": 23092,
    "pan": 10717,
    "until": 6596,
    "belled": 24032,
    "Ġunrival": 22041,
    "Ä": 133,
    "ered": 1685,
    "¤": 102,
    "Ġcord": 5222,
    "Ġgraze": 18224,
    "restored": 18976,
    "princip": 17134,
    "Ġbethinking": 25278,
    "Ġcaution": 11347,
    "angles": 18288,
    "Ġinquiries": 5678,
    "Ġpresenting": 18985,
    "Ġinvader": 23476,
    "eyeing": 14944,
    "examined": 17265,
    "Ġasp": 15777,
    "ibly": 2996,
    "Ġenjoy": 3760,
    "successively": 24778,
    "Ġmysterious": 7528,
    "Ġdocumentation": 20552,
    "Ġmale": 9649,
    "afternoon": 13183,
    ",--": 2479,
    "Ġwonderful": 4563,
    "Ġastonishment": 4793,
    "Ġostent": 13582,
    "Ġyonder": 7392,
    "Ġpope": 11600,
    "urmount": 13994,
    "mistakable": 20651,
    "Ġusage": 9730,
    "snow": 10725,
    "Ġprying": 15605,
    "Ġsighing": 18673,
    "Ġ70": 11277,
    "Ġpraised": 19550,
    "iv": 432,
    "Ġnaked": 8126,
    "Ġagon": 10321,
    "rice": 13775,
    "Ġ60": 14873,
    "Ġturns": 4980,
    "Ġbru": 13893,
    "Ġwaterloo": 11978,
    "Ġcircumstances": 3925,
    "Ġpositives": 4319,
    "Ġbosoms": 16793,
    "Ġeducation": 5127,
    "obey": 11509,
    "Ġperches": 18446,
    "force": 12959,
    "fal": 17534,
    "Ġvirginia": 13498,
    "ouch": 2780,
    "preservation": 25304,
    "Ġghostliness": 24650,
    "modesty": 22845,
    "Ġtroop": 24896,
    "capitals": 25079,
    "Ġgreater": 3037,
    "ernity": 18611,
    "affairs": 14655,
    "rings": 10723,
    "regard": 7972,
    "ante": 11718,
    "Ġdoubt": 2221,
    "Ġcapture": 3384,
    "brous": 19195,
    "Ġsupercil": 23452,
    "comm": 7440,
    "Ġunctuous": 10267,
    "Ġsteeple": 19284,
    "Ġattraction": 18623,
    "Ġcondem": 6338,
    "Ġquantization": 19851,
    "Ġdisgrace": 7214,
    "Ġhearty": 9845,
    "Ġthree": 1370,
    "unmistakable": 21891,
    "Ġstreat": 15720,
    "Ġendure": 5955,
    "Ġfetching": 16894,
    "Ġtop": 2473,
    "Ġcelebrated": 13592,
    "Ġ46": 19487,
    "Ġhunting": 7259,
    "screw": 9346,
    "Ġpyth": 21457,
    "prepar": 22457,
    "Ġshrieked": 9548,
    "Ġaccents": 14209,
    "Ġabsorb": 25111,
    "Ġbressed": 21384,
    "Ġshut": 3942,
    "child": 5538,
    "O": 51,
    "Ġsuppose": 2867,
    "accustomed": 13155,
    "else": 6533,
    "Ġholiest": 18810,
    "rayed": 23562,
    "Ġamel": 18507,
    "Ġhearth": 11979,
    "Ġtyro": 16992,
    "Ġencoder": 3634,
    "bermaid": 20788,
    "Ġsynd": 22203,
    "lodged": 25906,
    "Ġfobbing": 26440,
    "Ġhowever": 1304,
    "patched": 17641,
    "Ġinno": 1437,
    "outs": 7009,
    "ggling": 19094,
    "rese": 15506,
    "Ġencoun": 4512,
    "âĢĻâĢĶ": 12732,
    "Ġlamp": 4116,
    "Ġpreser": 6040,
    "ties": 2759,
    "Ġlife": 1354,
    "Ġinconvenience": 9564,
    "rent": 1168,
    "Ġinsurance": 23680,
    "Ġnobody": 6158,
    "Ġhartshorn": 26179,
    "evil": 11486,
    "Ġconsider": 2570,
    "Ġcorrection": 5061,
    "Ġdoctor": 5066,
    "Ġtarts": 10754,
    "Ġmassacre": 20545,
    "Ġstupidity": 15049,
    "Ġsouls": 6308,
    "destro": 13309,
    "Ġdistributions": 1050,
    "Ġbou": 17850,
    "Ġlun": 7855,
    "ignorantly": 25188,
    "Ġdollars": 11456,
    "Ġunsc": 22008,
    "Ġinformed": 6717,
    "toes": 22561,
    "Ġabominate": 20061,
    "christ": 10211,
    "warrant": 21135,
    "Ġenormous": 5609,
    "erne": 21267,
    "Ġstrangest": 14794,
    "Ġsenseless": 12075,
    "Ġbuilt": 8300,
    "Ġwoeful": 19616,
    "thence": 23397,
    "Ġphrensy": 25123,
    "Ġdetection": 3407,
    "Ġkills": 15902,
    "ishness": 22349,
    "Ġvalues": 2652,
    "withstand": 23022,
    "Ġthistle": 21912,
    "uberance": 25915,
    "Ġidea": 2488,
    "Ġexcuse": 5861,
    "wra": 11541,
    "Ġcased": 21343,
    "unpardonable": 21886,
    "Ġcommodores": 25373,
    "catherine": 7128,
    "question": 5418,
    "Ġrambling": 18638,
    "surprised": 9531,
    "Ġbodies": 8031,
    "Ġform": 1023,
    "squall": 13520,
    "Ġthroes": 24573,
    "iled": 1766,
    "anum": 17833,
    "fields": 14652,
    "Ġcocoanuts": 26361,
    "1": 21,
    "Ġappetite": 12381,
    "Ġpoisoned": 24885,
    "Ġcheery": 16367,
    "azore": 23460,
    "Ġoffered": 5816,
    "Ġmercenary": 17192,
    "rosings": 15640,
    "Ġoaken": 13863,
    "Ġindefinite": 17174,
    "occupied": 12301,
    "rown": 2188,
    "Ġbehaved": 13251,
    "teous": 16170,
    "Ġrepenting": 25321,
    "Ġbuckler": 24858,
    "classes": 12132,
    "Ġmustering": 18660,
    "ignantly": 23262,
    "Ġfew": 1218,
    "whips": 22234,
    "Ġfury": 7662,
    "Ġgraves": 11706,
    "Ġexplanatory": 22198,
    "luck": 5733,
    "Ġquest": 2003,
    "Ġexceedingly": 4614,
    "Ġslight": 3119,
    "Ġhard": 1442,
    "ishe": 13889,
    "Ġgloomily": 14799,
    "Ġunfeeling": 14117,
    "Ġwil": 4580,
    "Ġ115": 24438,
    "Ġpure": 6137,
    "Ġjinglers": 26017,
    "Ġincreases": 3794,
    "Ġopulent": 23630,
    "Ġpostponed": 20387,
    "stalk": 21646,
    "Ġphrenolog": 12331,
    "swallow": 24256,
    "phew": 6368,
    "mmed": 7913,
    "Ġindignation": 8346,
    "tort": 17673,
    "naturalists": 23511,
    "Ġattractions": 12914,
    "rians": 21921,
    "Ġpalmed": 24088,
    "descried": 11926,
    "user": 5104,
    "Ġfoiled": 23240,
    "Ġterm": 2263,
    "Ġforc": 9227,
    "trembling": 17140,
    "Ġhaught": 10253,
    "Ġglance": 4235,
    "Ġmonomaniac": 9569,
    "Ġbough": 13892,
    "ufactured": 15179,
    "motives": 26136,
    "full": 7420,
    "Ġ126": 24470,
    "wheels": 14379,
    "Ġsockets": 22076,
    "atherine": 2597,
    "Ġemergency": 25730,
    "owders": 18045,
    "daughter": 8353,
    "Ġpains": 5964,
    "Ġactivity": 7919,
    "Ġrecept": 1522,
    "Ġrefine": 2972,
    "Ġhinting": 19646,
    "Ġpropagating": 20631,
    "Ġvia": 2385,
    "owing": 7602,
    "comput": 1954,
    "case": 5206,
    "pro": 2050,
    "Ġemblematical": 25787,
    "Ġclair": 6268,
    "Ġspray": 7893,
    "Ġdrawback": 23986,
    "Ġaltar": 9228,
    "Ġgrowl": 16535,
    "Ġnews": 3817,
    "romeda": 17261,
    "ean": 20838,
    "Ġunwaning": 25169,
    "iza": 6255,
    "Ġ102": 24409,
    "whims": 22235,
    "Ġaverages": 2401,
    "gunw": 17219,
    "Ġimproved": 7657,
    "Ġwis": 3728,
    "Ġcontemptible": 16951,
    "square": 15058,
    "Ġtent": 15465,
    "Ġprison": 5403,
    "Ġfitting": 21405,
    "ariously": 18525,
    "Ġost": 9650,
    "Ġresist": 7915,
    "Ġhairy": 23862,
    "oors": 17618,
    "Ġfinest": 10392,
    "Ġslink": 23159,
    "Ġharry": 24570,
    "impotence": 23758,
    "swear": 16916,
    "Ġobstructed": 24676,
    "Ġelementary": 24813,
    "Ġcandidate": 16699,
    "zing": 7820,
    "Ġbec": 1351,
    "Ġpeculiarities": 12067,
    "Ġriddles": 16730,
    "Ġstretched": 5919,
    "Ġsuperseded": 26223,
    "Ġpeered": 18666,
    "met": 6652,
    "icip": 6389,
    "Ġhumming": 12982,
    "ars": 904,
    "Ġcastles": 16637,
    "Ġoverhung": 15968,
    "prepare": 20211,
    "Ġselection": 18200,
    "bird": 9586,
    "Ġspilling": 22133,
    "Ġprehensile": 26533,
    "daw": 17520,
    "Ġ": 225,
    "Ġburnwell": 13265,
    "Ġorder": 1687,
    "Ġexpl": 487,
    "agitation": 14066,
    "Ġleast": 2064,
    "izon": 18131,
    "Ġdeclining": 23960,
    "Ġworks": 5857,
    "Ġvaliant": 9800,
    "Ġtam": 7821,
    "shud": 18488,
    "Ġhypotheses": 4386,
    "vex": 21698,
    "skin": 10569,
    "Ġaristotle": 25816,
    "Ġdissolved": 18552,
    "Ġarab": 7823,
    "same": 5361,
    "pigs": 17138,
    "mblings": 19777,
    "soo": 18684,
    "Ġcabs": 23642,
    "Ġshelter": 17006,
    "Ġaccumul": 1411,
    "Ġcontemptuous": 24675,
    "anger": 2170,
    "Ġliterary": 25161,
    "Ġlogger": 11950,
    "jer": 12477,
    "listened": 15042,
    "ails": 6160,
    "Ġpeace": 3693,
    "Ġmaintained": 12930,
    "Ġfaulty": 14905,
    "iogn": 20919,
    "apside": 22956,
    "Ġparlor": 13538,
    "Ġcrowding": 13276,
    "Ġallusion": 7626,
    "Ġaltering": 18100,
    "eed": 20839,
    "eff": 2536,
    "Ġblandly": 20322,
    "buoy": 7760,
    "Ġunrestingly": 20359,
    "geese": 22360,
    "Ġpresume": 8037,
    "Ġnovember": 11746,
    "Ġaffliction": 25843,
    "Ġdandy": 17890,
    "coarse": 16486,
    "angle": 22097,
    "Ġdistinctions": 18530,
    "illuminated": 17450,
    "Ġreflecting": 24750,
    "Ġsundial": 15080,
    "strikes": 24669,
    "happy": 4424,
    "endeavoured": 12277,
    "stranded": 19222,
    "Ġdistributes": 4197,
    "Ġcall": 2074,
    "accompanied": 12419,
    "Ġabiding": 22266,
    "Ġsuddenly": 2647,
    "leaned": 21366,
    "Ġblend": 14397,
    "Ġinvisibly": 24816,
    "Ġwith": 349,
    "Ġlestrade": 5824,
    "Ġprophes": 16344,
    "Ġinduced": 8670,
    "Ġtired": 9149,
    "Ġgaiters": 20458,
    "vitality": 20476,
    "mselves": 2863,
    "ender": 9160,
    "12": 20747,
    "Ġjoints": 12032,
    "Ġmoisture": 12356,
    "Ġimpotently": 22386,
    "Ġperth": 7023,
    "Ġaccumulates": 2890,
    "behaved": 24462,
    "ier": 1132,
    "place": 4156,
    "Ġcrucifix": 26078,
    "Ġstretching": 10015,
    "harpoons": 24284,
    "Ġbolts": 16941,
    "model": 4132,
    "rugged": 6849,
    "Ġimagine": 3923,
    "Ġappeased": 23193,
    "Ġreco": 9791,
    "ezes": 9991,
    "Ġcalculating": 9925,
    "Ġwield": 21288,
    "Ġcruc": 16532,
    "Ġagain": 813,
    "Ġsentimental": 24753,
    "ian": 1236,
    "Ġmastiff": 23722,
    "Ġrecover": 9792,
    "Ġrefined": 18696,
    "Ġundiscernible": 22062,
    "Ġstepdaughter": 22608,
    "Ġmisgivings": 15289,
    "impenetrable": 26195,
    "Ġrepaired": 13105,
    "Ġreasons": 6019,
    "Ġflinging": 13583,
    "uous": 4147,
    "Ġrosy": 18457,
    "Ġenveloped": 12205,
    "Ġunprincipled": 20706,
    "securer": 25601,
    "Ġcol": 1058,
    "Ġobligations": 12088,
    "Ġtradeoff": 2659,
    "Ġgloom": 4203,
    "Ġweapons": 10594,
    "Ġepaulets": 24904,
    "Ġwheeling": 18286,
    "Ġhish": 21909,
    "Ġhandsomely": 25496,
    "kempt": 20939,
    "Ġlightness": 23257,
    "Ġfielding": 16233,
    "Ġvivacious": 19812,
    "probably": 10020,
    "roofed": 26182,
    "iding": 3844,
    "Ġunexpl": 22033,
    "earnestly": 17311,
    "Ġcrew": 2497,
    "alley": 23017,
    "Ġintrusted": 21988,
    "Ġ24": 13189,
    "Ġincorruption": 26308,
    "Ġoct": 10159,
    "three": 5238,
    "Ġcogn": 11004,
    "P": 52,
    "Ġmallet": 17808,
    "Ġanticipation": 17056,
    "Ġseas": 3078,
    "Ġyield": 5092,
    "Ġnameless": 7699,
    "Ġaccusation": 22377,
    "Ġoccupation": 9931,
    "Ġmimic": 3144,
    "peleg": 16290,
    "Ġunwonted": 14123,
    "uneven": 23683,
    "Ġquee": 1983,
    "is": 280,
    "prow": 15409,
    "Ġclattering": 22346,
    "Ġbrilliant": 11415,
    "Ġraw": 3321,
    "perceived": 8858,
    "persecutor": 26528,
    "Ġhollowly": 24525,
    "Ġwrath": 16314,
    "erval": 4019,
    "Ġoar": 6236,
    "Ġwrist": 8242,
    "Ġspilled": 10925,
    "soup": 21056,
    "Ġbullion": 24982,
    "ed": 293,
    "Ġbitter": 4176,
    "ulations": 6028,
    "Ġreap": 18024,
    "Ġmich": 21303,
    "quadrille": 20592,
    "Ġhysterical": 26091,
    "Ġcuvier": 9165,
    "Ġpers": 1358,
    "Ġpitiful": 13236,
    "Ġvilla": 14745,
    "aunt": 8369,
    "Ġgratification": 24094,
    "nearly": 8680,
    "Ġremedy": 18722,
    "Ġdistances": 22499,
    "rd": 17647,
    "Ġhuman": 1320,
    "Ġshrinking": 14803,
    "Ġhideousness": 16913,
    "Ġexped": 7651,
    "Ġquestionable": 19263,
    "eringly": 22994,
    "food": 12460,
    "Ġnoted": 15827,
    "imp": 3033,
    "dreadful": 11422,
    "Ġunquestionable": 26220,
    "ord": 666,
    "Ã¦us": 14815,
    "Ġsources": 10148,
    "Ġgeorge": 3748,
    "Ġretrogress": 23069,
    "absolutely": 10646,
    "Ġmiraculous": 13545,
    "Ġdardanelles": 26442,
    "Ġseasoned": 24404,
    "Ġdiscre": 2418,
    "fortune": 4974,
    "Ġwhiskers": 10493,
    "Ġpag": 6010,
    "close": 9986,
    "affections": 17355,
    "Ġbreeding": 14521,
    "Ġviii": 16409,
    "armon": 23056,
    "Ġemotion": 7690,
    "Ġschoolboys": 24480,
    "Ġsovereign": 10062,
    "Ġpointed": 4772,
    "smith": 5669,
    "Ġphr": 2682,
    "neither": 9757,
    "Ġrifled": 21975,
    "Ġdeliciousness": 24126,
    "fifty": 12349,
    "Ġvisited": 5947,
    "ur": 326,
    "ighter": 7967,
    "dread": 8728,
    "Ġhagger": 21487,
    "Ġclifford": 22348,
    "Ġannotations": 25953,
    "Ġstra": 2992,
    "Ġforts": 21768,
    "happen": 19328,
    "emptied": 23637,
    "Ġdelivery": 18972,
    "Ġbumpkin": 20199,
    "snap": 24847,
    "Ġpostscript": 14806,
    "Ġsimpl": 1577,
    "Ġpipes": 9847,
    "Ġdl": 3376,
    "Ġhues": 21485,
    "Ġugliness": 20424,
    "Ġsires": 21224,
    "Ġentries": 22737,
    "burn": 8370,
    "swing": 15427,
    "cabin": 8362,
    "Ġmood": 6276,
    "insult": 16276,
    "scattered": 22984,
    "cake": 20802,
    "Ġtow": 4395,
    "Ġestab": 6315,
    "Ġsurviv": 13433,
    "prudently": 21032,
    "pence": 15407,
    "Ġdifferen": 936,
    "cott": 8073,
    "Ġprick": 14476,
    "Ġfounded": 8556,
    "Ġcoil": 11815,
    "imate": 4223,
    "address": 14879,
    "exclaimed": 11787,
    "Ġsashes": 21223,
    "wilful": 25085,
    "Ġforeheads": 23446,
    "Ġjoking": 12833,
    "Ġascending": 14852,
    "Ġsimulates": 2740,
    "worship": 19383,
    "Ġsing": 3074,
    "Ġwhereby": 11834,
    "Ġjan": 11759,
    "Ġverify": 12084,
    "Ġleatherhead": 20010,
    "Ġdiscovered": 4412,
    "yield": 13807,
    "Ġimpertinence": 11367,
    "Ġexchanging": 18129,
    "Ġacknowledge": 13400,
    "Ġgrizzled": 11451,
    "Ġsafely": 9025,
    "Ġfluffy": 19360,
    "eldest": 22799,
    "Ġidler": 16402,
    "Ġwondered": 11126,
    "Ġribbed": 16802,
    "thought": 3846,
    "Ġsult": 10768,
    "bingley": 4926,
    "turner": 19538,
    "rugg": 15892,
    "Ġinclination": 6623,
    "bitt": 17483,
    "Ġoper": 2119,
    "Ġbeautifully": 13264,
    "umst": 2504,
    "Ġpurposed": 23550,
    "Ġvigour": 24461,
    "yonder": 21142,
    "Ġandrew": 21503,
    "Ā": 193,
    "pertaining": 22180,
    "uing": 17691,
    "Ġthousands": 6748,
    "Ġepid": 18002,
    "Ġpretend": 7721,
    "inger": 6812,
    "Ġ86": 24460,
    "Ġexpert": 18868,
    "Ġpeterson": 9483,
    "Ġinhaled": 25450,
    "Ġpoised": 22587,
    "fron": 24280,
    "syntax": 5866,
    "Ġinsensibly": 20072,
    "Ġtart": 12524,
    "Ġwoman": 2390,
    "Ġdestroyer": 13411,
    "dles": 11481,
    "Ġhandkerchief": 8913,
    "byshire": 6172,
    "Ġdeline": 16329,
    "Ġbath": 9659,
    "beaten": 20314,
    "higher": 20404,
    "Ġderick": 9365,
    "Ġguns": 16774,
    "Ġhuff": 21486,
    "Ġimp": 575,
    "bingleys": 19631,
    "oke": 1858,
    "Ġwages": 13852,
    "baron": 24924,
    "Ġbarn": 11586,
    "mured": 6960,
    "Ġfacilitate": 26097,
    "Ġmoulton": 17433,
    "Ġsettee": 22917,
    "Ġsite": 17751,
    "guessed": 25871,
    "Ġstig": 14001,
    "Ġboarded": 13231,
    "Ġmantle": 25273,
    "Ġweeks": 4565,
    "qualified": 17096,
    "Ġchristianity": 19858,
    "iveness": 2468,
    "Ġfaces": 6008,
    "Ġfet": 5807,
    "Ġpersuas": 23943,
    "erson": 7003,
    "caroline": 24148,
    "Ġhaste": 9003,
    "Ġreliable": 18773,
    "bres": 11472,
    "raltar": 24232,
    "ahit": 9382,
    "swed": 24252,
    "stationed": 25452,
    "Ġbrah": 19353,
    "kin": 7132,
    "Ġmultitud": 18744,
    "Ġwaifing": 25242,
    "Ġvainly": 9924,
    "Ġchorus": 10947,
    "Ġ48": 24078,
    "Ġsnake": 12058,
    "Ġticking": 25032,
    "Ġenorm": 5302,
    "mystical": 25316,
    "Ġpassionately": 16762,
    "Ġdependen": 1830,
    "dering": 5305,
    "reckoning": 25269,
    "Ġwaiter": 16356,
    "Ġrejo": 5915,
    "ella": 12743,
    "Ġthundering": 24290,
    "Ġmirth": 15541,
    "Ġinert": 15618,
    "Ġproblems": 2850,
    "Ġstrateg": 1379,
    "gia": 20874,
    "Ġmarbles": 18870,
    "uber": 15443,
    "injury": 25212,
    "necessarily": 19628,
    "Ġcataract": 23425,
    "Ġdismember": 20214,
    "ieves": 4006,
    "Ġmounting": 19973,
    "iloqu": 11647,
    "Ġrenew": 6145,
    "Ġprocured": 8676,
    "Ġgrasshopper": 24379,
    "Ġdrow": 21423,
    "irst": 879,
    "warn": 11542,
    "Ú": 155,
    "crimson": 24098,
    "Ġthrees": 23398,
    "Ġinduce": 7762,
    "Ġindies": 22947,
    "Ġsolicitude": 10040,
    "Ġalgorithms": 828,
    "allowing": 24357,
    "Ġdelights": 14595,
    "Ġglimmered": 20170,
    "Ġcabinets": 23859,
    "orns": 12588,
    "problem": 25243,
    "abilities": 3238,
    "Ġwilds": 16508,
    "leaning": 10791,
    "Ġincorrupt": 19231,
    "Ġarom": 15490,
    "Ġinquirers": 24961,
    "Ġlaug": 3626,
    "Ġroads": 13286,
    "plete": 10920,
    "ã": 164,
    "ficial": 17546,
    "Ġshrugged": 12765,
    "Ġelse": 2482,
    "Ġrepelled": 19083,
    "Ġknights": 15147,
    "Ġsteadily": 8051,
    "Ġphaeton": 17462,
    "ule": 6800,
    "_?âĢĿ": 15303,
    "uine": 13797,
    "apparat": 22842,
    "dron": 17523,
    "despair": 8343,
    "leful": 17840,
    "ĺ": 251,
    "irm": 3107,
    "Ġpiny": 21466,
    "isis": 12575,
    "Ġunreserved": 19393,
    "adventure": 17232,
    "Ġnapole": 15113,
    "Ġcoron": 4463,
    "Ġpotent": 12061,
    "Ġpaste": 23416,
    "Ġchalk": 15929,
    "reach": 17755,
    "belong": 12119,
    "Ġdented": 17889,
    "Ġdesist": 16231,
    "anchor": 13887,
    "Ġparameters": 993,
    "elf": 565,
    "vent": 682,
    "sho": 6425,
    "for": 965,
    "Ġpow": 4637,
    "fortunate": 4791,
    "Ġladies": 3195,
    "ulance": 15763,
    "ython": 1028,
    "Ġspr": 4024,
    "Ġcontrive": 16006,
    "hinting": 17567,
    "Ġthrowing": 6335,
    "tish": 17675,
    "Ġbuilded": 24718,
    "Ġpurposely": 10445,
    "Ġsnoo": 21226,
    "inquiries": 13575,
    "mic": 12485,
    "Ġalluded": 7884,
    "Ġbenjamin": 26566,
    "pump": 21015,
    "ĉ": 202,
    "iment": 2818,
    "Ġstealing": 18892,
    "iday": 8829,
    "hob": 20898,
    "Ġwing": 6665,
    "Ġspies": 22124,
    "Ġdimin": 3870,
    "Ġscud": 14189,
    "Ġsalutations": 25381,
    "rendering": 22336,
    "Ġmeas": 1095,
    "Ġbuffaloes": 25216,
    "Ġinglorious": 24423,
    "Ġoverdone": 22356,
    "bery": 9787,
    "Ġinsipid": 26312,
    "Ġclust": 9273,
    "umbers": 10919,
    "Ġnuts": 17949,
    "Ġperhaps": 1913,
    "Ġproper": 1378,
    "Ġregardless": 19321,
    "alid": 13933,
    "Ġtyphoons": 20233,
    "_âĢĿ": 20759,
    "pike": 11514,
    "armed": 7252,
    "stay": 9681,
    "Ġpowerful": 1519,
    "fuller": 22482,
    "Ġawed": 23584,
    "taller": 26149,
    "protection": 19917,
    "bedded": 13225,
    "pher": 11511,
    "here": 2550,
    "lesome": 12961,
    "Ġsupposed": 4558,
    "Ġscraggy": 24578,
    "Ġdegenerated": 20503,
    "Ġafforded": 8028,
    "stache": 15686,
    "Ġhissed": 15785,
    "rep": 5525,
    "Ġcharted": 22246,
    "Ġfinanc": 23123,
    "Ġprisoner": 8672,
    "Ġ125": 24469,
    "Ġsuperfluous": 17412,
    "mont": 19166,
    "Ġbutler": 18268,
    "trial": 20349,
    "Ġdisappeared": 5645,
    "recollected": 25346,
    "ended": 1835,
    "peculiarity": 23105,
    "gument": 20883,
    "deck": 4501,
    "Ġimpelled": 11779,
    "abetical": 15739,
    "Ġyourself": 2595,
    "Ġlivid": 14987,
    "Ġmidday": 23634,
    "orm": 425,
    "?âĢĿ": 700,
    "Ġearls": 18901,
    "Ġwere": 557,
    "Ġconstruction": 9386,
    "produce": 20281,
    "Ġdestitute": 14565,
    "Ġadmirer": 16836,
    "Ġemphasis": 20534,
    "Ġunion": 6839,
    "Ġrepeated": 3829,
    "eler": 1570,
    ")(": 2981,
    "Ġraving": 16108,
    "Ġfrowning": 13621,
    "Ġcronies": 23440,
    "Ġrefreshment": 17238,
    "Ġcy": 13872,
    "Ġeveryday": 22768,
    "Ġminiature": 11041,
    "Ġendeared": 26497,
    "Ġcoquet": 22579,
    "Ġlimber": 16477,
    "Ġunforeseen": 22047,
    "bourine": 9396,
    "shavings": 22454,
    "Ġmind": 1620,
    "ersman": 11700,
    "lord": 3863,
    "isles": 15560,
    "Ġamounted": 18510,
    "Ġempires": 19073,
    "Ġconsummate": 25309,
    "Ġfurnace": 19436,
    "chairs": 21689,
    "Ġreliance": 14383,
    "Ġard": 5163,
    "transom": 19732,
    "Ġtawn": 13821,
    "Ġbandages": 24426,
    "Ġwatchful": 16525,
    "conqu": 14242,
    "Ġrecalled": 8538,
    "Ġlabel": 14516,
    "Ġcrowder": 19452,
    "Ġimpenetrable": 17395,
    "Ġ116": 24439,
    "entropy": 1438,
    "Ġmartyr": 26359,
    "ortal": 6265,
    "Ġdetail": 634,
    "animation": 16977,
    "erie": 21269,
    "da": 17512,
    "besides": 8695,
    "Ġexaggerated": 25649,
    "Ġlicensing": 20089,
    "Ġprofoundly": 16857,
    "Ġthack": 21513,
    "Ġhab": 4219,
    "Ġnoiseless": 10358,
    "ack": 612,
    "infallibly": 26416,
    "Ġjoy": 3186,
    "Ġdanced": 7842,
    "Ġheathen": 10566,
    "Ġcategor": 4142,
    "byter": 16209,
    "stayed": 25289,
    "Ġtwilight": 16117,
    "Ġassailants": 20446,
    "errand": 22905,
    "inex": 14090,
    "Ġanomaly": 25635,
    "oubled": 23647,
    "Ġmovement": 9968,
    "Ġambergris": 8705,
    "log": 18532,
    "Ġpresum": 4836,
    "ched": 1545,
    "dropped": 12259,
    "Ġzones": 22815,
    "ware": 3935,
    "merc": 19277,
    "dition": 15338,
    "Ġgripping": 26185,
    "Ġformless": 22823,
    "Ġforming": 7043,
    "solemn": 19814,
    "Ġhalf": 1669,
    "tossing": 18579,
    "homely": 25616,
    "Ġinterlacing": 22573,
    "expected": 5780,
    "whenever": 11878,
    "ination": 2912,
    "quite": 4646,
    "Ġsealed": 15812,
    "Ġsalmon": 24058,
    "Ġappertaining": 26532,
    "springing": 24888,
    "algorith": 3654,
    "rock": 15637,
    "ivil": 6411,
    "Ġexpectantly": 23523,
    "Ã": 132,
    "Ġconsoling": 19453,
    "Ġadored": 18291,
    "gam": 10096,
    "Ġass": 1502,
    "Ġword": 1051,
    "Ġdupl": 9954,
    "Ġknowest": 12859,
    "Ġdis": 693,
    "punctual": 26354,
    "ġ": 226,
    "ctors": 21586,
    "Ġrind": 21968,
    "Ġindia": 10371,
    "Ġpersu": 3563,
    "otle": 21793,
    "fab": 13714,
    "hangs": 15366,
    "15": 12427,
    "Ġheadache": 22895,
    "Ġbewit": 15724,
    "Ġporch": 19677,
    "Ġwrecks": 16816,
    "Ġlust": 9197,
    "Ġawhile": 13828,
    ".âĢĶâĢľ": 20745,
    "Ġwait": 4906,
    "Ġpunctures": 25132,
    "greenland": 10021,
    "Ġsalutation": 12394,
    "Ġnewcomer": 26039,
    "odecimoes": 25317,
    "Ġdance": 4441,
    "Ġattached": 5392,
    "Ġtolerably": 8067,
    "irable": 5776,
    "Ġsubstance": 5510,
    "Ġly": 2265,
    "Ġforbear": 17119,
    "Ġprec": 2918,
    "considerable": 10549,
    "cater": 20813,
    "Ġsluggishly": 25890,
    "Ġselected": 9710,
    "Ġacknowledged": 7535,
    "Ġmeanly": 12905,
    "out": 467,
    "ainted": 3659,
    "Ġinsignificance": 20455,
    "Ġspeaking": 4027,
    "claim": 9835,
    "table": 5795,
    "Ġconfidential": 9087,
    "Ġeconomically": 25287,
    "folly": 20860,
    "attered": 4018,
    "preference": 22458,
    "Ġpop": 5150,
    "reve": 12535,
    "Ġcontempt": 6275,
    "Ġgros": 14821,
    "Ġzoned": 22816,
    "ifer": 11682,
    "Ġupdates": 1297,
    "Ġmeeting": 5192,
    "Ġhushed": 13923,
    "Ġdrowned": 9552,
    "ensities": 22543,
    "û": 188,
    "Ġvalley": 5850,
    "usual": 5840,
    "Ġballs": 9014,
    "Ġmonarch": 14411,
    "presented": 12986,
    "Ġepo": 21617,
    "Ġattracted": 8904,
    "intu": 22929,
    "Ġresign": 18562,
    "requ": 7149,
    "Ġexcessively": 9440,
    "Ġahab": 1214,
    "Ġlegendary": 20535,
    "Ġalice": 1481,
    "Ġbestow": 6455,
    "Ġvexations": 24608,
    "Ġcompassion": 6487,
    "Ġleyden": 21728,
    "Ġupright": 8493,
    "Ġpaling": 21458,
    "hammer": 14488,
    "Ġconjecture": 9532,
    "rinted": 21041,
    "avoiding": 25235,
    "Ġpole": 6433,
    "Ġsegmentation": 17338,
    "Ġmeasurement": 19419,
    "Ġorigin": 4121,
    "Ġparchment": 13650,
    "taste": 10130,
    "f": 74,
    "Ġfrocks": 23918,
    "Ġgas": 8132,
    "merely": 16130,
    "needles": 20310,
    "Ġsubsiding": 23431,
    "Ġlesson": 7276,
    "Ġtending": 17722,
    "Ġcows": 15549,
    "Ġairth": 23315,
    "sust": 15420,
    "Ġbeds": 14551,
    "glorious": 19363,
    "Ġcomplaisance": 19445,
    "ick": 837,
    "Ġfancied": 7326,
    "Ġread": 1446,
    "ody": 1477,
    "heartedness": 24826,
    "Ġ550": 19638,
    "lish": 1951,
    "ï": 176,
    "your": 1987,
    "dig": 4928,
    "Ġfl": 1279,
    "Ġcompress": 21845,
    "Ġdur": 11591,
    "emorial": 10244,
    "voyage": 7785,
    "cork": 20794,
    "Ġwhichever": 13998,
    "Ġanne": 1527,
    "seemingly": 25361,
    "comb": 11036,
    "Ġlocations": 12410,
    "evinced": 19923,
    "Ġdriving": 3616,
    "Ġeighteen": 11239,
    "cules": 12388,
    "Ġsummarization": 3646,
    "iation": 7343,
    "Ġfals": 15577,
    "lat": 9605,
    "vengeance": 13354,
    "Ġinscribed": 24937,
    "Ġrestore": 9380,
    "entrance": 12653,
    "Ġdarling": 12600,
    "Ġgloomy": 7505,
    "Ġk": 484,
    "hib": 15365,
    "Ġbrimstone": 25685,
    "Ġyet": 1027,
    "Ġest": 2262,
    "ech": 4389,
    "Ġuninter": 18244,
    "Ġnantucketer": 6914,
    "Ġstorms": 11262,
    "Ġsmilingly": 22557,
    "Ġcoaxing": 18593,
    "Ġevolved": 9892,
    "Ġgrows": 4984,
    "Ġgoverning": 2797,
    "Ġforwards": 12699,
    "Ġretrogression": 26580,
    "signs": 16536,
    "sinking": 17666,
    "Ġushered": 18353,
    "Ġpicturesqueness": 24479,
    "wife": 8100,
    "Ġamazing": 9977,
    "Ġgemini": 26468,
    "sax": 21054,
    "Ġdriver": 16472,
    "securing": 19810,
    "Ġimmaculate": 19482,
    "Ġattacking": 24464,
    "Ġdescend": 7427,
    "Ġser": 1671,
    "aments": 12721,
    "Ġtrim": 15973,
    "Ġinscrutable": 10673,
    "Ġwickedness": 9526,
    "bastian": 10674,
    "Ġhum": 1096,
    "reposed": 24491,
    "Ġlakeman": 6986,
    "tooth": 18578,
    "Ġscream": 5934,
    "Ġdawn": 6816,
    "Ġabrupt": 9736,
    "Ġcircum": 8257,
    "Ġcrisp": 12000,
    "Ġhousekeeping": 18941,
    "wheeler": 16184,
    "Ġdivin": 13270,
    "subjects": 19873,
    "marriage": 7744,
    "stolidity": 21659,
    "tains": 10962,
    "viv": 17696,
    "Ġmam": 8404,
    "Ġbohemian": 17131,
    "Ġunwelcome": 12776,
    "Ġawaken": 23585,
    "noon": 5036,
    "Ġfurnishing": 16643,
    "unction": 10235,
    "alloyed": 22197,
    "invite": 25087,
    "Ġcathedral": 17411,
    "indian": 11775,
    "Ġagreed": 7029,
    "Ġplight": 14279,
    "Ġcelestial": 10067,
    "Ġmisanthropic": 26559,
    "Ġroasted": 18458,
    "Ġvoice": 2187,
    "Ġdressing": 7091,
    "Ġlouder": 13466,
    "Ġsh": 419,
    "!_âĢĶ": 19969,
    "band": 3059,
    "Ġfoliage": 18864,
    "Ġramsgate": 18642,
    "Ġmasters": 11574,
    "etition": 7382,
    "expressive": 24304,
    "room": 2176,
    "Ġache": 18661,
    "salis": 25146,
    "carefully": 13366,
    "Ġlikes": 9408,
    "Ġmaintaining": 1507,
    "Ġrhine": 12353,
    "Ġadieu": 10051,
    "Ġbonnet": 10656,
    "Ġclimbing": 20066,
    "jephro": 26391,
    "Ġcringing": 25940,
    "Ġglistening": 12362,
    "cially": 3491,
    "Ġineffect": 13928,
    "Ġlar": 766,
    "aus": 1499,
    "Ġvort": 18191,
    "Ġshrill": 12138,
    "Ġaggreg": 12880,
    "Ġsanct": 15061,
    "Ġwealth": 7621,
    "Ġsoldier": 16918,
    "Ġtopsails": 19190,
    "Ġhooks": 14966,
    "Ġranged": 10258,
    "Ġcourt": 4172,
    "Ġgracefully": 13389,
    "Ġcalifornian": 25850,
    "makers": 20980,
    "Ġbehooves": 20731,
    "strong": 6322,
    "Ġnocturn": 18373,
    "Ġcommonest": 23085,
    "Ġheap": 12674,
    "Ġspinning": 15051,
    "Ġjoining": 13162,
    "Ġpattered": 19019,
    "Ġalert": 18099,
    "Ġpurchas": 19871,
    "nets": 9132,
    "Ġdepresses": 25796,
    "departure": 15232,
    "Ġexploration": 2336,
    "Ġoblique": 20168,
    "threshold": 21983,
    "Ġsurgeons": 23462,
    "iteness": 4392,
    "datasets": 11951,
    "Ġholy": 6591,
    "Ġinexperienced": 26099,
    "endless": 22222,
    "abbering": 21792,
    "Ġnarwhale": 12290,
    "Ġsul": 7571,
    "Ġprove": 5231,
    "Ġsucceed": 4545,
    "faces": 13718,
    "Ġhel": 3785,
    "frost": 15104,
    "Ġagitates": 22512,
    "Ġruminated": 24598,
    "Ġcraft": 4376,
    "oes": 4433,
    "Ġrandom": 1588,
    "Ġnatures": 16505,
    "fiercely": 25255,
    "ash": 1994,
    "organic": 25945,
    "Ġworship": 10367,
    "Ġabsurd": 7202,
    "itement": 7835,
    "solitary": 14505,
    "Ġencamp": 22795,
    "appearing": 14636,
    "Ġshovel": 23488,
    "Ġoppression": 23652,
    "ogene": 18676,
    "waves": 10743,
    "Ġhumorous": 10361,
    "ource": 5243,
    "Ġproficiency": 19189,
    "Ġheaths": 25971,
    "Ġthen": 665,
    "W": 59,
    "Ġcommended": 18654,
    "Ġdefer": 18820,
    "practised": 20246,
    "Ġrenewed": 9538,
    "Ġdecayed": 22821,
    "Ġvariance": 1166,
    "Ġremains": 4909,
    "league": 17842,
    "Ġdames": 23471,
    "Ġmortally": 23913,
    "Ġpreceded": 13426,
    "Ġseveral": 2674,
    "queens": 22904,
    "Ġunwell": 22011,
    "vict": 11540,
    "hearth": 15497,
    "pread": 7419,
    "congenial": 25398,
    "Ġprivileged": 20109,
    "rove": 21529,
    "Ġswallowed": 7943,
    "Ġlatent": 19652,
    "idual": 1559,
    "Ġbud": 10169,
    "Ġengra": 7873,
    "Ġstandpoint": 23275,
    "glimmer": 26320,
    "Ġmoves": 14230,
    "Ġspent": 3964,
    "Ġcheeks": 5957,
    "Ġerrors": 2598,
    "ia": 1258,
    "Ġcompact": 2259,
    "umbling": 6758,
    "Ġsuggested": 8320,
    "Ġmans": 15533,
    "Ġaccused": 8507,
    "Ġbrow": 3989,
    "onden": 13842,
    "Ġezek": 18007,
    "Ġdepart": 4656,
    "acrity": 14259,
    "Ġfished": 21407,
    "secut": 7866,
    "umn": 5835,
    "Ġbottomless": 12103,
    "Ġnever": 1019,
    "Ġjolly": 6858,
    "man": 1053,
    "Ġswap": 23049,
    "Ġstript": 23692,
    "Ġunconsc": 6552,
    "wheel": 22862,
    "honest": 17001,
    "Ġactions": 6278,
    "Ġfam": 1585,
    "Ġthrice": 10576,
    "g": 75,
    "Ġlowerings": 23648,
    "Ġcaptive": 14425,
    "sweeping": 24617,
    "Ġborrowed": 17228,
    "Ġcounterbalance": 24721,
    "Ġstacked": 21742,
    "Ġmagnus": 18955,
    "Ġmoments": 4844,
    "icest": 21560,
    "Ġdidn": 4363,
    "istol": 6259,
    "isticated": 1583,
    "devil": 7894,
    "embed": 18185,
    "sus": 6228,
    "avoid": 9305,
    "aimed": 3952,
    "Ġhalloa": 13314,
    "alo": 7588,
    "Ġric": 18207,
    "masters": 16832,
    "Ġmethodology": 2518,
    "unlike": 18154,
    "valley": 16210,
    "frequent": 15351,
    "Ġtobacco": 8366,
    "jammed": 25905,
    "Ġbake": 21379,
    "vy": 21105,
    "Ġsou": 1887,
    "Ġ107": 24414,
    "semic": 21817,
    "Ġuncle": 3194,
    "bles": 7018,
    "time": 3147,
    "Ġtheories": 13847,
    "Ġdiffusion": 23780,
    "Ġrh": 9243,
    "daughters": 13464,
    "nlp": 8750,
    "ifully": 13182,
    "Ġdismay": 11806,
    "anelles": 26433,
    "Ġclaim": 5105,
    "icted": 5936,
    "Ġgun": 4701,
    "'d": 12424,
    "ans": 460,
    "Ġdissimilar": 22527,
    "unt": 2044,
    "Ġsliding": 9364,
    "Ġforeshadowing": 26591,
    "ĳ": 244,
    "Ġ123": 24467,
    "Ġbracing": 16578,
    "Ġeffaced": 18538,
    "weed": 14313,
    "iline": 21717,
    "Ġhigher": 1822,
    "Ġforced": 4353,
    "Ġinvoking": 19143,
    "adv": 4537,
    "igation": 5917,
    "dropout": 3198,
    "##": 2315,
    "Ġdepartment": 24240,
    "blame": 14792,
    "passage": 11261,
    "appre": 14369,
    "repeating": 20125,
    "Ġmatters": 4973,
    "Ġpledged": 20685,
    "alarmed": 21499,
    "trunk": 23944,
    "Ġbench": 7238,
    "inder": 9152,
    "Ġbaw": 15565,
    "ensical": 18566,
    "Ġmassachusetts": 24018,
    "profitable": 17053,
    "Ġpleas": 1908,
    "Ġopp": 2698,
    "eli": 3872,
    "bruary": 15233,
    "Ġante": 17894,
    "Ġsumat": 14134,
    "Ġcorps": 13029,
    "Ġbulkington": 14676,
    "Ġcopy": 10164,
    "Ġintellectual": 11402,
    "university": 25982,
    "Ġport": 3310,
    "rum": 3415,
    "Ġpurest": 14937,
    "aggo": 5096,
    "Ġestablished": 9069,
    "ional": 1083,
    "swimming": 24257,
    "ias": 6362,
    "alions": 21497,
    "Ġda": 5149,
    "Ġshore": 4833,
    "Ġhardened": 14448,
    "Ġapprehensions": 13402,
    "Ġsharply": 9403,
    "Ġstricken": 9776,
    "ructed": 7030,
    "Ġsociet": 9449,
    "lux": 14225,
    "spent": 12939,
    "Ġcham": 4891,
    "assistance": 20368,
    "Ġcommendation": 13608,
    "Ġlifetime": 13600,
    "Ġscalable": 1532,
    "quar": 7616,
    "Ġopposing": 12037,
    "Ġendangered": 16300,
    "Ġglided": 7446,
    "circum": 16735,
    "but": 591,
    "Ġportable": 19366,
    "Ġrights": 10397,
    "Ġsickening": 19601,
    "Ġstraightway": 9016,
    "Ġvesture": 20058,
    "Ġhatty": 19262,
    "Ġarranged": 9878,
    "Ġstrasburgh": 18613,
    "Ġgra": 415,
    "Ġindebted": 8707,
    "reserve": 17763,
    "Ġbrigs": 20321,
    "Ġtied": 7357,
    "aguy": 21906,
    "itten": 3441,
    "heed": 15496,
    "standers": 18478,
    "inde": 17729,
    "orified": 21399,
    "Ġprodigy": 19789,
    "eland": 11619,
    "enormous": 26165,
    "Ġexcl": 3476,
    "cord": 8723,
    "Ġhostile": 19936,
    "observation": 17268,
    "Ġshavings": 14108,
    "Ġrim": 21964,
    "respective": 19843,
    "terrific": 25039,
    "thunder": 10263,
    "vult": 21111,
    "Ġacknowledgment": 16955,
    "Ġpassers": 18755,
    "Ġregrets": 18597,
    "Ġpopulous": 16824,
    "Ġmainmast": 9779,
    "Ġwhittingham": 26196,
    "Ġcommunicating": 16887,
    "Ġscho": 4435,
    "rals": 21040,
    "Ġcruelly": 13373,
    "Ġlasting": 18789,
    "Ġamateur": 22481,
    "vineyard": 25420,
    "moved": 9784,
    "iger": 8446,
    "cun": 20793,
    "fool": 9047,
    "Ġanchors": 12609,
    "Ġcavity": 20485,
    "Ġtinge": 25086,
    "Ġfinished": 5043,
    "advance": 12153,
    "ton": 1726,
    "Ġcracking": 14573,
    "Ġflat": 8227,
    "Ġpremeditated": 22230,
    "ierce": 14389,
    "Ġheav": 1850,
    "Ġinvitation": 5188,
    "uming": 8491,
    "inions": 8401,
    "Ġfrock": 10490,
    "Ġdeadly": 5405,
    "fatigue": 20656,
    "Ġearning": 23937,
    "Ġpersonal": 7480,
    "Ġneeds": 6605,
    "Ġdenominated": 15226,
    "Ġstake": 14002,
    "Ġpretending": 19312,
    "Ġmechanis": 1206,
    "Ġprosperous": 15168,
    "Ġvanishing": 1346,
    "Ġfashions": 17883,
    "Ġask": 1491,
    "Ġdeified": 18138,
    "Ġprofundity": 20450,
    "hearse": 17746,
    "Ġdeject": 10882,
    "Ġevalu": 2965,
    "astonished": 15031,
    "Ġirregular": 9865,
    "Ġimper": 4502,
    "tomb": 21091,
    "Ġnoises": 18372,
    "Ġvice": 6548,
    "Ġcanterbury": 22164,
    "Ġrecorded": 11294,
    "ball": 7792,
    "poverty": 22903,
    "Ġincomp": 12896,
    "gment": 4390,
    "://": 11466,
    "Ġwrapped": 8341,
    "Ġsymbols": 2798,
    "forever": 22515,
    "¯": 112,
    "perth": 22177,
    "Ġfe": 491,
    "quod": 2163,
    "Ġcomprise": 18582,
    "Ġreports": 19082,
    "Ġdiscoverers": 26035,
    "Ġtick": 8108,
    "Ġuprising": 12798,
    "Ġsingularly": 12145,
    "Ġvapory": 17004,
    "Ġopinions": 9415,
    "Ġsurpasses": 25267,
    "Ġimmovable": 15888,
    "Ġcongregated": 20093,
    "Ġnominally": 17230,
    "Ġwedding": 4857,
    "Ġholding": 4978,
    "Ġarmada": 23579,
    "idean": 14264,
    "eel": 11484,
    "Ġspurned": 12793,
    "bond": 17487,
    "remark": 7261,
    "Ġgrasp": 4663,
    "zwilliam": 5073,
    "Ġprudent": 9184,
    "Ġprofund": 13151,
    "Ġexact": 2544,
    "Ġwollstonecraft": 26424,
    "talk": 6656,
    "cop": 20799,
    "Ġnetworks": 598,
    "Ġassociations": 14961,
    "barbs": 20236,
    "Ġhumbug": 18776,
    "Ġpredict": 677,
    "Ġrestoration": 19027,
    "Ġavailed": 23948,
    "Ġincoherent": 17398,
    "Ġfollow": 1397,
    "ching": 5155,
    "finds": 19924,
    "Ġmuchness": 18706,
    ".]": 15296,
    "til": 17669,
    "aster": 1866,
    "Ġadviser": 25311,
    "fancy": 7337,
    "Ġinspecting": 24612,
    "holes": 12051,
    "Ġstarve": 24624,
    "Ġinventing": 24860,
    "Ġfervour": 19723,
    "Ġthomson": 26453,
    "Ġthousand": 2782,
    "Ġconfirming": 25320,
    "Ġaust": 4870,
    "Ġsponge": 26002,
    "Ġwantest": 18787,
    "Ġboston": 22636,
    "Ġassur": 6073,
    "±": 114,
    "pres": 16023,
    "Ġsayest": 22772,
    "Ġsubmerged": 11869,
    "Ġbeau": 9224,
    "collected": 13211,
    "Ġottoman": 17376,
    "uit": 8392,
    "Ġseverity": 15814,
    "Ġendeavors": 16543,
    "itated": 4439,
    "saying": 8640,
    "maintained": 25019,
    "Ġpotential": 3618,
    "Ġchast": 18378,
    "Ġdon": 1613,
    "Ġhabitations": 24788,
    "Ġwat": 1285,
    "murderer": 13391,
    "screwed": 17186,
    "Ġexamination": 8004,
    "magnet": 14968,
    "ibilities": 13004,
    "Ġmaddened": 17243,
    "Ġquench": 22415,
    "Ġbernard": 20682,
    "Ġmothers": 14539,
    "dam": 7797,
    "Ġbamboo": 17435,
    "Ġnormalizing": 1823,
    "plumed": 21957,
    "Ġconfed": 13095,
    "Ġdoubtless": 6195,
    "Ġproceed": 3244,
    "Ġstamped": 13525,
    "ents": 1899,
    "meditation": 19066,
    "ib": 1233,
    "Ġmerryweather": 9522,
    "ees": 13709,
    "Ġinsisted": 12042,
    "Ġmarbank": 23035,
    "Ġcuring": 21341,
    "Ġgesture": 11400,
    "Ġallured": 14111,
    "ter": 359,
    "Ġspect": 3552,
    "Ġcombing": 22864,
    "Ġencodings": 4774,
    "Ġlithe": 24667,
    "Ġadmirals": 20382,
    "Ġplain": 2819,
    "Ġdey": 11674,
    "Ġdamned": 13130,
    "eyed": 11487,
    "Ġsix": 3044,
    "Ġjuicy": 25369,
    "Ġpill": 7845,
    "Ġthumb": 6981,
    "Ġprosecuted": 25292,
    "Ġdescribing": 19251,
    "Ġagitation": 6865,
    "dependence": 17165,
    "drawing": 10487,
    "Ġcontinent": 14886,
    "Ġstatue": 23143,
    "rip": 9240,
    "Ġvalu": 5038,
    "soever": 11856,
    "ah": 1834,
    "alone": 10184,
    "blown": 25200,
    "ery": 1268,
    "Ġsure": 1863,
    "Ġcertainty": 6734,
    "Ġoutline": 15950,
    "Ġdavis": 25951,
    "inuating": 16199,
    "Ġfav": 1755,
    "ī": 236,
    "Ġsmelt": 16064,
    "writ": 16551,
    "Ġcitizens": 25438,
    "mid": 5617,
    "Ġindignantly": 16937,
    "osal": 11756,
    "Ġfearless": 9875,
    "ousings": 18333,
    "Ġdrifting": 19276,
    "Ġclams": 19985,
    "Ġbri": 21375,
    "Ġpreserved": 9262,
    "Ġsaying": 3245,
    "brought": 7285,
    "Ġdropt": 23674,
    "Ġsummar": 3526,
    "Ġkilling": 13330,
    "Ġpause": 5707,
    "Ġfruitless": 25604,
    "apparently": 15202,
    "friends": 8305,
    "proportions": 22830,
    "Ġding": 12595,
    "ub": 1225,
    "Ġautomation": 13242,
    "Ġcauses": 2562,
    "Ġgives": 5017,
    "Ġfreedom": 9082,
    "Ġprovinces": 24189,
    "Ġcottagers": 6761,
    "couldn": 23715,
    "Ġinconstant": 21492,
    "Ġfurlongs": 20721,
    "Ġcarpenters": 16750,
    "Ġbaker": 4695,
    "Ġbreeds": 23345,
    "Ġnooks": 26010,
    "Ġcruisers": 25862,
    "Ġinferred": 14500,
    "minded": 9037,
    "Ġet": 3580,
    "Ġmight": 962,
    "visit": 7754,
    "Ġaroused": 15899,
    "Ġdowncast": 18650,
    "Q": 53,
    "Ġevery": 927,
    "Ġacquisition": 18897,
    "Ġremarkably": 7702,
    "Ġpadded": 25035,
    "ensions": 14260,
    "Ġadditionally": 1173,
    "Ġattractive": 25574,
    "Ġruff": 14345,
    "Ġaberdeen": 26540,
    "ictions": 14224,
    "involved": 25625,
    "Ġidol": 7467,
    "Ġordinary": 6096,
    "metallic": 19877,
    "formation": 22219,
    "presbyterian": 26367,
    "becoming": 18517,
    "Ġdissect": 16048,
    "Ġobeyed": 12213,
    "Ġclay": 7019,
    "Ġhistorically": 19374,
    "Ġaveraging": 2420,
    "stun": 18016,
    "Ġfob": 21406,
    "Ġcreating": 2997,
    "Ġaffronted": 22890,
    "Ġway": 1085,
    "brilliancy": 26076,
    "rabbit": 20588,
    "befriend": 22488,
    "considering": 12171,
    "Ġdrawer": 13263,
    "Ġsea": 1208,
    "Ġtoilings": 24741,
    "musical": 25339,
    "Ġvineyard": 12327,
    "Ġorders": 5340,
    "uy": 21097,
    "Ġ1839": 20457,
    "Ġmistaking": 23716,
    "Ġcrumbs": 20638,
    "Ġpatentee": 25585,
    "overs": 17619,
    "je": 11496,
    "zeal": 16262,
    "Ġmounts": 17804,
    "both": 5785,
    "structure": 2319,
    "Ġpavement": 9578,
    "Ġsimplest": 16330,
    "Ġlaudanum": 20688,
    "vand": 21106,
    "spect": 3234,
    "Ġfireboard": 23530,
    "Ġclose": 3036,
    "Ġprivacy": 19521,
    "Ġlonger": 3360,
    "Ġdeliverance": 15155,
    "Ġstaving": 21736,
    "Ġent": 902,
    "acknowledging": 25475,
    "ment": 694,
    "Ġsuperstition": 15053,
    "Ġpred": 669,
    "qualities": 25042,
    "shadows": 25478,
    "welt": 12517,
    "amples": 1824,
    "Ġflapped": 23007,
    "Ġspikes": 22132,
    "signed": 21059,
    "ared": 771,
    "Ġchanced": 8186,
    "antages": 7192,
    "Ġpoisonous": 24886,
    "Ġfresh": 3671,
    "Ġmetropolis": 17273,
    "Ġcurt": 18851,
    "Ġmis": 915,
    "urable": 8922,
    "Ġworked": 6582,
    "widows": 25343,
    "steam": 23956,
    "reported": 24492,
    "par": 1803,
    "Ġstable": 2700,
    "Ġpropriet": 9550,
    "Ġdescrib": 2720,
    "ll": 1136,
    "Ġjelly": 22296,
    "tural": 21064,
    "vast": 10737,
    "Ġblankness": 24609,
    "Ġruined": 12950,
    "Ġcinque": 20483,
    "ch": 321,
    "prises": 23810,
    "Ġconceal": 5973,
    "Ġlovely": 4709,
    "Ġcoiled": 11817,
    "Ġelusive": 22642,
    "Ġvict": 3762,
    "Ġappare": 12817,
    "snatched": 24849,
    "Ġevents": 4471,
    "mountains": 15178,
    "Ġhaughty": 11450,
    "tolerable": 17686,
    "Ġtube": 15002,
    "strade": 5064,
    "Ġmoritz": 11902,
    "Ġpaws": 13919,
    "Ġowns": 22820,
    "Ġload": 14144,
    "ose": 718,
    "Ġoutriders": 26542,
    "Ġscenes": 5731,
    "Ġkeep": 2356,
    "inordinate": 21192,
    "forecastle": 10991,
    "Ġheroine": 24542,
    "Ġzoology": 22817,
    "Ġsunda": 13542,
    "Ġaye": 3353,
    "dar": 20822,
    "Ġeven": 1026,
    "Ġphysiognomy": 25609,
    "iantly": 13737,
    "Ġboot": 11837,
    "exposure": 19254,
    "Ġkeeps": 8266,
    "corner": 13395,
    "Ġundone": 24117,
    "Ġchiselled": 25558,
    "wherefore": 19106,
    "superiority": 20184,
    "Ġreefed": 20301,
    "Ġbedside": 19119,
    "Ġconvent": 11667,
    "Ġstrikes": 13179,
    "Ġreappeared": 21661,
    "return": 5489,
    "Ġinterment": 22571,
    "Ġmushroom": 13233,
    "Ġpence": 17901,
    "vill": 10736,
    "Ġdoze": 14175,
    "countryman": 24638,
    "Ġpowers": 5419,
    "Ġdoubts": 8579,
    "Ġcet": 6669,
    "Ġkindling": 19030,
    "Ġpresuming": 16791,
    "ining": 3223,
    "sullenly": 26148,
    "Ġscoresby": 10463,
    "Ġhoisted": 5959,
    "Ġbringing": 5869,
    "Ġmanifested": 17155,
    "Ġdeformed": 14047,
    "Ġpink": 12614,
    "Ġshowers": 16603,
    "Ġducking": 17144,
    "Ġskin": 5037,
    "akeman": 6267,
    "Ġthieves": 15632,
    "Ġtok": 1245,
    "nigh": 13761,
    "means": 9785,
    "Ġbosom": 6939,
    "mes": 1197,
    "ato": 17767,
    "Ġcal": 1328,
    "Ġconcil": 23318,
    "Ġdoublo": 6078,
    "Ġfled": 6670,
    "Ġinvention": 19949,
    "employ": 10896,
    "apped": 5395,
    "Ġscotland": 6639,
    "Ġconsisting": 8971,
    "Ġbackward": 7655,
    "Ġexasper": 8466,
    "ositions": 10284,
    "Ġfloat": 12029,
    "chant": 4260,
    "ilar": 10216,
    "Ġneskye": 21527,
    "Ġmate": 3708,
    "Ġportion": 7493,
    "iastic": 12476,
    "Ġadjusting": 3412,
    "compar": 14357,
    "whew": 22861,
    "cest": 12441,
    "cannibals": 25583,
    "Ġhapp": 1089,
    "Ġextreme": 2516,
    "Ġphysical": 7523,
    "Ġroses": 11783,
    "Ġcanvas": 7783,
    "Ġstyle": 6946,
    "Ġbattery": 21391,
    "reinforcement": 7826,
    "Ġscriptures": 26234,
    "Ġwolves": 25933,
    "Ġtwin": 12924,
    "occasional": 19573,
    "itics": 13870,
    "Ġaxe": 15060,
    "thouse": 21978,
    "Ġitself": 2523,
    "fixedly": 24928,
    "bestowed": 12222,
    "Ġassum": 4065,
    "Ġtrem": 6659,
    "Ġcontracting": 16007,
    "Ġatonement": 21940,
    "Ġunc": 2123,
    "Ġwhereon": 16097,
    "Ġclumsy": 9580,
    "sli": 11522,
    "Ġscarlet": 13220,
    "does": 6194,
    "Ġcamel": 25348,
    "antically": 22092,
    "Ġbuckskin": 19948,
    "Ġadvice": 4900,
    "sailors": 9922,
    "Ġstarry": 16921,
    "hamlet": 23259,
    "chors": 11643,
    "Ġglances": 10373,
    "ribbed": 16408,
    "Ġender": 11688,
    "ryphon": 4166,
    "Ġchinese": 14182,
    "Ġfurnished": 6475,
    "dark": 5614,
    "Ġnightgown": 23127,
    "Ġcoral": 11919,
    "wail": 21123,
    "Ġoce": 3030,
    "carte": 25399,
    "Ġduty": 4071,
    "Ġunable": 4950,
    "precision": 4333,
    "nowled": 5470,
    "Ġunappalled": 22059,
    "Ġdraught": 9844,
    "Ġprow": 6684,
    "leviathan": 7784,
    "ague": 3904,
    "Ġthither": 6821,
    "Ġbenediction": 18781,
    "Ġsuspend": 14607,
    "buncle": 13690,
    "Ġas": 374,
    "crimes": 16695,
    "ahab": 4292,
    "Ġaccounts": 7207,
    "zors": 21145,
    "ognit": 19217,
    "Ġaccompan": 5513,
    "anks": 3916,
    "iousness": 4898,
    "iguous": 18041,
    "Ġunpardonable": 22056,
    "inav": 15481,
    "gans": 11490,
    "absolut": 8458,
    "shall": 4550,
    "Ġrad": 4961,
    "Ġalmanac": 26484,
    "Ġspaulding": 11728,
    "Ġloathing": 15065,
    "bask": 20774,
    "Ġsnarl": 25714,
    "Ġscandinav": 19957,
    "Ġlearning": 387,
    "blue": 13691,
    "pling": 8474,
    "going": 6313,
    "Ġparch": 11723,
    "Ġsinew": 25430,
    "Ġbeside": 5191,
    "Ġwhipping": 21712,
    "Ġhelpless": 8301,
    "Ġobserver": 11986,
    "Ġlizzy": 3546,
    "ergy": 2362,
    "Ġcloth": 9742,
    "Ġashes": 7617,
    "Ġashen": 21895,
    "iter": 4391,
    "Ġnervous": 2406,
    "Ġfurthest": 22812,
    "Ġtales": 10142,
    "Ġbreat": 3461,
    "vious": 1784,
    "Ġslides": 18936,
    "tery": 14035,
    "Ġincorrect": 2730,
    "Ġdreams": 7497,
    "Ġsadness": 13284,
    "Ġperpetual": 12300,
    "Ġesquimaux": 25149,
    "Ġadro": 15863,
    "Ġmoist": 9285,
    "iah": 14412,
    "Ġlashings": 25096,
    "Ġplainpal": 19274,
    "Ġhung": 4560,
    "Ġdisent": 22519,
    "chains": 9685,
    "bec": 4053,
    "\":": 9582,
    "fts": 18698,
    "Ġreneg": 21671,
    "zek": 16261,
    "Ġquery": 2481,
    "Ġoverwhelm": 25051,
    "Ġgangway": 20155,
    "batross": 9092,
    "Ġpurchase": 12256,
    "Ġmurdering": 14809,
    "Ġtransom": 22468,
    "Ġremove": 7500,
    "Ġwool": 19429,
    "Ġgentle": 1890,
    "iply": 22351,
    "fug": 17541,
    "meet": 11853,
    "animate": 12573,
    "train": 2035,
    "Ġjollies": 20367,
    "dor": 12448,
    "boiling": 18999,
    "Ġarchitectures": 2909,
    "Ġuninhabited": 22045,
    "Ġal": 342,
    "^{": 15302,
    "Ġ68": 24369,
    "Ġhon": 2539,
    "Ġimagination": 5759,
    "Ġtiles": 17724,
    "erative": 21270,
    "Ġeffects": 7236,
    "Ġpreach": 14171,
    "Ġincul": 22546,
    "atoes": 17773,
    "Ġbulk": 5591,
    "Ġgladness": 16589,
    "Ġunhappy": 5640,
    "Ġgoethe": 22420,
    "Ġclanking": 20609,
    "bast": 10077,
    "Ġrheumatic": 20703,
    "Ġspectator": 19402,
    "gallery": 24692,
    "Ġ1825": 25718,
    "vel": 2388,
    "berg": 11855,
    "Ġtrapped": 23073,
    "charlotte": 6473,
    "Ġconse": 21800,
    "Ġdz": 4755,
    "Å": 134,
    "Ġcanst": 8857,
    "Ġquadrille": 13539,
    "Ġemotions": 8969,
    "ancho": 4937,
    "Ġcomplain": 6685,
    "Ġleague": 6538,
    "Ġhieroglyphics": 17301,
    "Ġsurest": 19052,
    "dued": 7908,
    "Ġencamped": 22796,
    "Ġstarboard": 7608,
    "lovel": 22506,
    "Ġranges": 2883,
    "Ġbelf": 21378,
    "oil": 7805,
    "Ġhoriz": 4725,
    "Ġdeemed": 7615,
    "thern": 4952,
    "impression": 15707,
    "Ġbu": 3683,
    "care": 4927,
    "Ġcarpets": 18900,
    "Ġlieutenant": 15259,
    "Ġexpression": 4516,
    "Ġchased": 8861,
    "Ġsecuring": 11989,
    "scure": 22977,
    "Ġgreenness": 23764,
    "emberley": 4174,
    "indisc": 22369,
    "Ġsuffering": 8946,
    "Ġunreason": 15839,
    "Ġloc": 10915,
    "Ġsummoning": 23871,
    "explaining": 23135,
    "arking": 16121,
    "tiness": 21069,
    "amongst": 24671,
    "Ġnormalizes": 1861,
    "Ġfishy": 16522,
    "Ġdisdain": 8359,
    "Ġcemet": 20678,
    "Ġbaboon": 19690,
    "Ġnumerous": 6920,
    "uracy": 1086,
    "Ġmovements": 24358,
    "Ġbreathless": 12166,
    "Ġdelirium": 10406,
    "Ġindications": 14631,
    "Ġslavish": 23169,
    "quake": 11679,
    "elev": 12455,
    "rigged": 17061,
    "Ġ1890": 23892,
    "cousin": 10653,
    "Ġplanted": 9774,
    "Ġembeddings": 2271,
    "Ġfring": 11128,
    "jet": 13740,
    "Ġhost": 7069,
    "Ġevangelist": 20337,
    "Ġdare": 3545,
    "Ġfut": 15571,
    "Ġimprisonment": 22383,
    "Ġretreats": 16926,
    "cies": 1816,
    "Ġenchanted": 9080,
    "mystic": 25315,
    "Ġvibrating": 13536,
    "Ġsuperst": 7703,
    "Ġinstructions": 11196,
    "india": 22367,
    "Ġeighteenth": 14752,
    ",*": 17469,
    "Ġpillows": 24985,
    "vulgar": 25917,
    "Ġincreas": 1695,
    "creature": 5346,
    "Ġsay": 933,
    "Ġpitiable": 9914,
    "regular": 3041,
    "Ġwashing": 9705,
    "Ġpuppy": 12402,
    "Ġend": 1483,
    "Ġacquies": 11098,
    "Ġadmeasure": 18293,
    "Ġdenoted": 16563,
    "Ġhide": 4589,
    "Ġentry": 11027,
    "Ġaerial": 21196,
    "situ": 9622,
    "Ġbarbaric": 10014,
    "prison": 14661,
    "Ġdiscovering": 13355,
    "Ġvalue": 2084,
    "impetuous": 23760,
    "Ġfriend": 1294,
    "Ġriots": 23889,
    "26": 10073,
    "disposition": 10042,
    "dham": 20828,
    "ientious": 11689,
    "pad": 13766,
    "Ġthat": 335,
    "simp": 17663,
    "Ġsprawling": 22135,
    "boilers": 26296,
    "Ġsway": 7572,
    "manned": 18759,
    "Ġloom": 7629,
    "enderby": 25214,
    "Ġthinking": 4031,
    "Ġfordham": 21772,
    "Ġwitnessed": 14842,
    "Ġmiserable": 3633,
    "acher": 6867,
    "Ġunderground": 18982,
    "fle": 7129,
    "Ġjob": 7016,
    "rossing": 18645,
    "Ġbruited": 25772,
    "Ġmarsh": 9821,
    "rey": 12534,
    "telesc": 22814,
    "Ġindomit": 22951,
    "reputable": 15515,
    "Ġret": 1383,
    "ā": 194,
    "Ġcrucial": 9893,
    "embarrassed": 20594,
    "Ġjane": 1758,
    "fitting": 1508,
    "Ġdub": 13907,
    "Ġalt": 18096,
    "arms": 10174,
    "utored": 15659,
    "sticking": 21656,
    "pleasanter": 24043,
    "Ġcomprises": 22569,
    "offer": 19058,
    "oing": 15399,
    "Ġnoon": 6559,
    "Ġmeth": 1468,
    "Ġcounterpart": 24720,
    "super": 5942,
    "Ġsnapped": 9897,
    "particip": 23618,
    "Ġaloft": 4305,
    "Ġanew": 11431,
    "Ġraven": 16109,
    "positive": 20565,
    "distrustful": 26329,
    "labours": 16615,
    "ifers": 15778,
    "Ġminuteness": 19136,
    "Ġdaring": 8120,
    "Ġrecogn": 2790,
    "Ġsailing": 5323,
    "se": 358,
    "Ġliberal": 12187,
    "Ġaghast": 16043,
    "Ġpewter": 17184,
    "Ġcrimes": 8588,
    "Ġmainten": 16112,
    "despairing": 25073,
    "nel": 11505,
    "Ġdong": 17885,
    "strained": 21654,
    "Ġpieces": 7369,
    "Ġadroop": 26000,
    "penetrating": 25489,
    "Ġputs": 19033,
    "Ġworsh": 12996,
    "Ġassurance": 7774,
    "Ġverd": 6919,
    "Ġfritters": 23254,
    "will": 1970,
    "unhappy": 10238,
    "Ġauxiliary": 26417,
    "ertion": 12036,
    "attending": 18914,
    "Ġjuly": 17235,
    "Ġspell": 8855,
    "Ġrecollections": 10513,
    "iac": 6225,
    "Ġcommerce": 11016,
    "contrivance": 26315,
    "Ġfiery": 6871,
    "Ġpin": 7162,
    "Ġscrutin": 26013,
    "Ġvag": 9708,
    "Ġpropontis": 17463,
    "Ġrelics": 16192,
    "Ġwhim": 13997,
    "Ġdesp": 3217,
    "Ġhun": 1495,
    "Ġbended": 21382,
    "Ġcomforter": 20504,
    "ass": 534,
    "Ġshall": 1139,
    "Ġamid": 4958,
    "horn": 8085,
    "heeded": 13832,
    "Ġmill": 6666,
    "Ġclad": 12835,
    "Ġagreeable": 4552,
    "Ġgam": 11623,
    "Ġeulogy": 26470,
    "Ġangle": 8602,
    "Ġblotted": 20216,
    "flutterings": 26605,
    "Ġarsacides": 17292,
    "Ġhaz": 12751,
    "Ġfreighted": 16320,
    "Ġdrown": 6815,
    "resolved": 9640,
    "similar": 13451,
    "Ġsuccessfully": 19425,
    "rust": 2582,
    "kn": 5791,
    "dart": 20824,
    "oboam": 9358,
    "studies": 25165,
    "icy": 6140,
    "Ġexamples": 2606,
    "Ġsin": 1511,
    "eronomy": 15522,
    "Ġproportions": 16465,
    "Ġwarehouse": 20414,
    "fabulous": 20471,
    "daylight": 19051,
    "Ġsettling": 11063,
    "Ġeaster": 15671,
    "Ġmeanings": 18605,
    "Ġpopular": 6216,
    "Ġlasted": 11054,
    "Ġincred": 5646,
    "isl": 21372,
    "Ġmand": 21302,
    "Ġreinforcement": 3474,
    "abil": 2009,
    "sham": 9758,
    "Ġspermaceti": 8967,
    "Ġconveniently": 20075,
    "Ġbarber": 23787,
    "true": 2587,
    "Ġlashing": 11615,
    "Ġchuck": 8501,
    "Ġunlocked": 14118,
    "Ġobjectionable": 16989,
    "Ġembarrassed": 11385,
    "Ġsympathetic": 17357,
    "Ġprophet": 7681,
    "Ġsideboard": 10386,
    "Ġheroines": 19748,
    "ze": 1322,
    "Ġvigilant": 20183,
    "dream": 8727,
    "Ġobliterated": 17403,
    "Ġcontention": 22422,
    "Ġsphere": 15878,
    "Ġdue": 3842,
    "rodu": 1820,
    "erable": 1919,
    "Ġw": 272,
    "Ġforked": 11663,
    "cc": 473,
    "sper": 4434,
    "ham": 1703,
    "Ġfi": 939,
    "ronted": 14875,
    "Ġtuesday": 9627,
    "Ġwaning": 15531,
    "walk": 5523,
    "Ġhonour": 3922,
    "present": 1133,
    "Ġpudding": 17911,
    "vering": 15712,
    "comfortableness": 24524,
    "rid": 5136,
    "Ġexterm": 21825,
    "uzza": 11271,
    "ivility": 12781,
    "Ġavert": 14423,
    "Ġdolphin": 17310,
    "Ġcircumstantial": 14642,
    "Ġcuff": 17827,
    "Ġpaths": 2571,
    "Ġstout": 6024,
    "footed": 19686,
    "geor": 15971,
    "Ġevid": 3502,
    "Ġchoosing": 19587,
    "him": 1940,
    "balls": 12302,
    "Ġindu": 5293,
    "Ġrocky": 13385,
    "Ġterminating": 23507,
    "tormented": 13643,
    "Ġcollectively": 19964,
    "Ġconversed": 13184,
    "Ġshook": 4467,
    "Ġalarm": 4048,
    "Ġagonizing": 17237,
    "Ġacquiring": 2767,
    "othed": 16510,
    "Ġhat": 2773,
    "separated": 20156,
    "impul": 16554,
    "Ġelevate": 24501,
    "Ġtingling": 15090,
    "investments": 25531,
    "Ġjung": 12832,
    "Ġcandelab": 23845,
    "Ġmagnitudes": 3820,
    "Ġoily": 13862,
    "stupid": 12672,
    "claimed": 9836,
    "each": 7335,
    "Ġexploitation": 2347,
    "Ġmun": 12558,
    "rowing": 7930,
    "poles": 16205,
    "Ġspectrum": 4473,
    "asmuch": 10195,
    "Ġwhisky": 23930,
    "prehens": 9289,
    "honey": 20903,
    "ow": 325,
    "Ġlegs": 4915,
    "Ġproceeded": 5335,
    "Ġsorry": 4211,
    "Ġcaused": 5047,
    "Ġpromises": 10401,
    "Ġsteam": 9353,
    "Ġbrothers": 13173,
    "Ġsunday": 7270,
    "Ġhaul": 11690,
    "pair": 21010,
    "Ġslang": 23155,
    "rel": 3754,
    "pitchpoling": 25724,
    "Ġ2": 2927,
    "thar": 18215,
    "Ġpublicly": 13320,
    "Ġglimp": 6065,
    "lee": 11584,
    "brated": 12024,
    "oice": 1385,
    "omit": 13972,
    "Ġmasterly": 23990,
    "Ġloop": 14145,
    "Ġhoping": 11104,
    "ellow": 3874,
    "grew": 17553,
    "Ġswimmer": 19455,
    "eter": 11620,
    "Ġ61": 24363,
    "00": 1610,
    "Ġretire": 10382,
    "remental": 21245,
    "Ġadmin": 23551,
    "ighb": 10424,
    "conceal": 25113,
    "executed": 25738,
    "Ġsine": 10764,
    "Ġtenderly": 11315,
    "horrible": 14599,
    "cery": 20806,
    "ny": 4015,
    "bted": 7793,
    "Ġtand": 21158,
    "Ġflung": 8562,
    "riminately": 16482,
    "Ġbuoyed": 20037,
    "thrusting": 20258,
    "Ġsleeping": 6319,
    "Ġleviathan": 3290,
    "Ġspeckled": 14306,
    "ser": 1426,
    ")âĢĶ": 20740,
    "Ġonto": 14030,
    "stige": 21657,
    "Ġresent": 6048,
    "Ġfavour": 3640,
    "Ġankles": 17897,
    "Ġdocument": 15017,
    "critters": 14782,
    "ulence": 15762,
    "Ġsteering": 10388,
    "hosmer": 25901,
    "Ġimpenet": 14218,
    "Ġaudible": 19878,
    "Ġspin": 7630,
    "Ġdives": 17888,
    "Ġdaw": 21426,
    "Ġobstinacy": 17419,
    "Ġaltitude": 26201,
    "Ġ95": 19770,
    "bour": 2072,
    "indebted": 26157,
    "an": 278,
    "Ġdec": 640,
    "Ġelevation": 14897,
    "N": 50,
    "Ġsensational": 16388,
    "edy": 2860,
    "isters": 11915,
    "Ġalbatross": 10872,
    "accents": 19207,
    "asy": 5294,
    "goodness": 19285,
    "s": 87,
    "Ġdun": 6673,
    "Ġlicence": 25095,
    "Ġmute": 19412,
    "gely": 10701,
    "Ġguardian": 14940,
    "Ġprime": 10405,
    "Ġeuropean": 20042,
    "relics": 24011,
    "Ġthrilling": 19745,
    "moreover": 12965,
    "Ġskrimshander": 22794,
    "ineff": 21962,
    "subtle": 24242,
    "Ġhailing": 11691,
    "ht": 376,
    "centre": 17085,
    "Ġseventeen": 26209,
    "Ġchrysalis": 26537,
    "Ġmamma": 10048,
    "Ġfrequencies": 4788,
    "Ġcreases": 22720,
    "ethe": 9677,
    "ote": 4596,
    "cal": 1118,
    "fem": 17535,
    "Ġlibrary": 6423,
    "Ġtags": 20569,
    "Ġsurmised": 24918,
    "Ġwaking": 11569,
    "airs": 2219,
    "Ġneur": 812,
    "tar": 8097,
    "Ġprovoking": 16741,
    "endeav": 7151,
    "mitted": 5213,
    "Ġnotice": 4543,
    "Ġsword": 6732,
    "Ġapplications": 4783,
    "Ġjonah": 3482,
    "Ġfrontispiece": 23910,
    "Ġopportunity": 4785,
    "Ġboil": 16100,
    "Ġgradu": 15829,
    "revealed": 20413,
    "idually": 21765,
    "Ġjustice": 5110,
    "Ġinterference": 8894,
    "pires": 13773,
    "awn": 3832,
    "Ġpreyed": 18364,
    "bale": 20772,
    "Ġquarrel": 7292,
    "Ġthee": 2625,
    "Ġcountryside": 23598,
    "Ġtranquo": 14841,
    "Ġmccarthys": 19659,
    "lashed": 20952,
    "Ġfootpaths": 26317,
    "Ġhumiliation": 16195,
    "Ġbrutality": 26275,
    "Ù": 154,
    "reward": 15507,
    "ight": 403,
    "Ġescorted": 23503,
    "Ġequals": 4726,
    "Ġcountries": 13094,
    "me": 863,
    "Ġquant": 6424,
    "Ġsparing": 22125,
    "allingly": 22195,
    "ep": 441,
    "Ġwhirlpool": 20653,
    "Ġless": 1939,
    "chiefly": 14844,
    "Ġspecial": 2101,
    "crowded": 20189,
    "Ġmal": 5221,
    "Ġsnatch": 14638,
    "priv": 9620,
    "Ġinterested": 6458,
    "Ġpossess": 3205,
    "Ġvap": 6837,
    "gether": 1595,
    "Ġsquaring": 22836,
    "Ġvictory": 16651,
    "Ġexpressly": 16451,
    "secured": 16936,
    "Ġdropout": 1558,
    "Ġassertions": 19943,
    "Ġbegged": 8230,
    "atived": 21260,
    "Ġopenshaw": 7954,
    "slanting": 24557,
    "Ġimprecate": 20515,
    "Ġwintry": 17432,
    "solute": 16596,
    "utely": 8131,
    "hem": 6663,
    "Ġvest": 8162,
    "Ġglimpse": 6944,
    "allers": 22193,
    "see": 3047,
    "ishnoo": 10958,
    "ittingly": 18801,
    "nest": 10114,
    "Ġcoast": 4655,
    "Ġpredecess": 18516,
    "shock": 19852,
    "Ġproposed": 7460,
    "Ġnortheast": 23198,
    "Ġforgo": 21769,
    "conceivable": 17128,
    "omach": 11633,
    "Ġslip": 8954,
    "burning": 25077,
    "Ġwhitney": 11374,
    "rity": 13774,
    "Ġishmael": 7395,
    "rable": 11631,
    "Ġappear": 2486,
    "canallers": 22960,
    "Ġbelie": 14404,
    "neat": 22439,
    "Ġcounted": 12136,
    "Ġunsatisfied": 22038,
    "Ġtheore": 1831,
    "Ġrefusal": 10345,
    "Ġadopt": 10633,
    "ounts": 4651,
    "Ġmort": 3460,
    "£": 101,
    "lev": 1234,
    "Ġconfide": 13096,
    "have": 2058,
    "Ġworrying": 22923,
    "Ġactivations": 2721,
    "Ġlad": 2365,
    "Ġrejoined": 14925,
    "Ġvales": 21942,
    "ortunities": 15936,
    "Ġinferiority": 17113,
    "Ġdarted": 4757,
    "Ġflapp": 23004,
    "Ġbackpropagation": 1251,
    "Ġunhappiness": 14116,
    "Ġheal": 21677,
    "whatever": 6694,
    "Ġpassing": 4317,
    "Ġket": 18345,
    "100": 11465,
    "Ġadmire": 5263,
    "Ġtransparency": 10677,
    "Ġguitar": 16267,
    "Ġprofited": 19188,
    "Ą": 197,
    "Ġperforming": 7927,
    "Ġdied": 4113,
    "intellig": 5320,
    "Ġclubb": 22343,
    "henomen": 10495,
    "oniously": 21255,
    "Ġcompos": 22566,
    "Ġmolasses": 25627,
    "Ġmidst": 7985,
    "Ġxxi": 24475,
    "sa": 8756,
    "Ġfloated": 7288,
    "imson": 12685,
    "arts": 6563,
    "Ġguess": 4902,
    "Ġstationary": 19691,
    "Ġtragic": 15253,
    "hereafter": 19212,
    "dragged": 16606,
    "Ġjutting": 22297,
    "english": 2775,
    "nep": 20984,
    "Ġjogged": 26235,
    "Ġconting": 18470,
    "Ġhorizontal": 7782,
    "Ġcalamity": 17347,
    "Ġsubproblems": 12953,
    "magistrate": 19860,
    "Ġasc": 4764,
    "Ġconsum": 9799,
    "intern": 23733,
    "prom": 6509,
    "bell": 7332,
    "ignity": 4374,
    "Ġleaned": 7605,
    "bearings": 25370,
    "Ġsubstances": 24164,
    "scence": 14414,
    "alous": 7372,
    "Ġrays": 10331,
    "Ġcaptioning": 23016,
    "Ġcircumn": 11981,
    "Ġclue": 7020,
    "affectionate": 24920,
    "ĠĠĠĠĠĠĠĠĠĠĠĠĠĠĠĠĠĠĠĠĠĠĠĠ": 5321,
    "Ġniagara": 26457,
    "Ġconge": 15742,
    "recogn": 13423,
    "Ġpitiless": 19384,
    "insisted": 23063,
    "Ġstur": 15716,
    "Ġinstinct": 6575,
    "asion": 5714,
    "rior": 12737,
    "Ġseem": 912,
    "Ġwinchester": 10066,
    "mews": 22702,
    "ifled": 14061,
    "meal": 22701,
    "Ġpredestinated": 18515,
    "Ġtraverse": 18890,
    "rival": 12738,
    "Ġeccentric": 13647,
    "shook": 19853,
    "Ġblessings": 24175,
    "destroy": 19507,
    "Ġcurves": 18853,
    "Ġungover": 18253,
    "none": 6962,
    "Ġearned": 19401,
    "isms": 12576,
    "tis": 4107,
    "pip": 6654,
    "accept": 8889,
    "fly": 13712,
    "Ġmutual": 8295,
    "Ġtemples": 18643,
    "independent": 26020,
    "Ġawaited": 17072,
    "Ġgames": 11625,
    "Ġinexpressible": 17331,
    "Ġhandsome": 4905,
    "F": 42,
    "ay": 355,
    "Ġdevelopment": 7063,
    "iance": 5279,
    "ustom": 3788,
    "Ġwolfish": 25934,
    "Ġteacup": 16208,
    "floor": 14934,
    "Ġoverjoy": 15965,
    "Ġatom": 18190,
    "Ġeul": 21616,
    "arious": 10318,
    "murmured": 24454,
    "welcome": 10001,
    "Ġ[_": 15459,
    "quest": 4538,
    "alive": 10828,
    "Ġpost": 4274,
    "variety": 23181,
    "Ġvictims": 19801,
    "Ġevident": 6612,
    "Ġwrench": 12553,
    "Ġboat": 1277,
    "Ġcoppers": 22580,
    "Ġrods": 9754,
    "Ġembell": 14417,
    "eer": 15345,
    "Ġsagaciously": 24730,
    "triumph": 15438,
    "gement": 13726,
    "Ġcostume": 16494,
    "Ġencourag": 1393,
    "Ġregularity": 22779,
    "opp": 6963,
    "exagger": 22424,
    "faith": 15023,
    "Ġflora": 11417,
    "crawling": 16956,
    "Ġproof": 6153,
    "Ġget": 1623,
    "Ġruefully": 17299,
    "Ġdismast": 12884,
    "Ġpeaking": 22686,
    "view": 5895,
    "Ġmouthfuls": 20644,
    "Ġabominably": 20062,
    "Ġserm": 9634,
    "allies": 14164,
    "igantic": 5539,
    "Ġbehavior": 8001,
    "sleepers": 24729,
    "network": 1897,
    "Ġperadventure": 22394,
    "Ġhealthful": 24054,
    "huzza": 20911,
    "Ġsaxon": 25467,
    "Ġjesty": 18403,
    "intending": 22931,
    "aton": 21256,
    "Ġbelieves": 14405,
    "rowed": 22855,
    "sacrifice": 13490,
    "mp": 3727,
    "therly": 18341,
    "Ġdism": 9767,
    "Ġliking": 23590,
    "Ġembarks": 22988,
    "goldsmith": 20144,
    "Ġlandau": 16416,
    "Ġpained": 19164,
    "Ġroanoke": 22403,
    "Ġstruggles": 16576,
    "Ġgerm": 13962,
    "Ġblinded": 13267,
    "Ġvehemence": 26565,
    "Ġdebility": 24271,
    "earthly": 24723,
    "dramatic": 19381,
    "insufficient": 15487,
    "Ġboasted": 16102,
    "zor": 15456,
    "matical": 13127,
    "beauty": 20100,
    "constellation": 24606,
    "Ġcour": 1769,
    "Ġaqu": 17740,
    "Ġcrutch": 23444,
    "find": 6954,
    "Ġrevel": 9214,
    "ilt": 2966,
    "Ġprovides": 1931,
    "such": 3083,
    "Ġfallen": 5967,
    "uplifted": 17693,
    "Ġ1828": 25719,
    "Ġtrack": 7450,
    "reasoning": 9476,
    "Ġrises": 9713,
    "pronounce": 25191,
    "Ġexquisite": 12379,
    "Ġscorn": 7900,
    "prolong": 23392,
    "alescence": 15920,
    "calculation": 25687,
    "Ġxxii": 24477,
    "Ġcher": 6129,
    "acles": 8518,
    "Ġpangs": 15611,
    "Ġaw": 2510,
    "Ġjourney": 3878,
    "Ġtooks": 23322,
    "aloons": 20007,
    "imble": 10859,
    "Ġuncounted": 19114,
    "Ġprevailed": 7777,
    "Ġbored": 16101,
    "Ġclues": 18418,
    "Ġindestruct": 22954,
    "Ġcondescended": 19952,
    "dled": 9110,
    "Ġthanks": 6707,
    "happiest": 19329,
    "presume": 25668,
    "eling": 6681,
    "vis": 4577,
    "equ": 6790,
    "Ġrushing": 7403,
    "fro": 8732,
    "Ġgrin": 5482,
    "antique": 18285,
    "tell": 1380,
    "Ġfashionable": 19541,
    "Ġwanted": 4967,
    "ulates": 14053,
    "Ġrobbed": 23027,
    "Ġlegitimate": 20641,
    "Ġrefres": 14338,
    "Ġstubbornness": 25379,
    "Ġpeninsula": 23191,
    "Ġtook": 1854,
    "Ġaccomp": 4712,
    "Ġsoles": 22073,
    "direction": 17522,
    "Ġsam": 7570,
    "stars": 18017,
    "Ġdesolate": 10013,
    "?âĢĶ": 3469,
    "aited": 12432,
    "wheeling": 22863,
    "ains": 5093,
    "Ġlexicon": 25972,
    "Ġtreats": 19340,
    "Ġalready": 2714,
    "blades": 24130,
    "Ġmingled": 12374,
    "Ġdramat": 23214,
    "\"],": 26119,
    "Ġplays": 12034,
    "Ġtreating": 4286,
    "consc": 4839,
    "niece": 20993,
    "Ġwretched": 4082,
    "Ġremarkable": 4914,
    "Ġproducts": 5197,
    "Ġmorose": 18840,
    "leagued": 26434,
    "Ġdazz": 11593,
    "onomy": 12543,
    "Ġpray": 3897,
    "Ġaccurately": 4475,
    "Ġtra": 1386,
    "Ġyields": 19653,
    "Ġnapoleons": 25884,
    "Ġfists": 15579,
    "bel": 3833,
    "Ġindefatigable": 17175,
    "Ġtiar": 21165,
    "Ġdash": 8121,
    "Ġcoachman": 14999,
    "asp": 3341,
    "hast": 5357,
    "Ġsnuff": 7991,
    "tout": 21063,
    "unwillingly": 21880,
    "ĠĠĠĠĠĠĠĠĠĠĠĠĠĠĠĠĠĠĠĠĠĠĠĠĠĠĠĠ": 9975,
    "Ġagainst": 1700,
    "Ġbachelors": 24859,
    "Ġappo": 8498,
    "figures": 20118,
    "marked": 9048,
    "Ġthings": 1964,
    "(_": 7541,
    "Ġstated": 9689,
    "¹": 122,
    "'t": 3145,
    "Ġdear": 1537,
    "Ġcounter": 6481,
    "Ġdelineations": 26057,
    "aths": 22695,
    "often": 6165,
    "bearing": 9765,
    "Ġtimes": 2301,
    "Ġregion": 2268,
    "Ġoverl": 18425,
    "itig": 1333,
    "Ġtram": 11093,
    "Ġdusk": 12324,
    "autumn": 23340,
    "xible": 13806,
    "revolver": 25626,
    "Ġlit": 6246,
    "Ġbeggar": 9349,
    "property": 19996,
    "events": 12314,
    "Ġalley": 15732,
    "Ġeditions": 19118,
    "anque": 13886,
    "moderate": 22846,
    "Ġungovernable": 20707,
    "Ġimpulses": 19958,
    "etuous": 21579,
    "Ġscreams": 24602,
    "Ġdoubly": 16385,
    "wers": 12516,
    "Ġsupposing": 6728,
    "Ġcorrob": 16263,
    "din": 8373,
    "Ġvital": 9242,
    "formity": 10279,
    "Ġarticulate": 24431,
    "Ġoccurrences": 11051,
    "Ġbecher": 18876,
    "jee": 17577,
    "Ġpredictions": 1455,
    "heum": 17745,
    "Ġexpatiate": 18621,
    "eridge": 15523,
    "purse": 20021,
    "Ġbowing": 10476,
    "Ġsurmis": 23461,
    "Ġassuring": 13060,
    "bott": 9105,
    "Ġflint": 23005,
    "peter": 24297,
    "Ġimply": 18441,
    "Ġillustration": 19133,
    "Ġdies": 11592,
    "Ġrope": 4340,
    "Ġmutter": 23950,
    "Ġpod": 15600,
    "hospit": 25902,
    "remains": 10399,
    "page": 13769,
    "cries": 17508,
    "Ġ108": 19681,
    "insupportable": 21191,
    "anned": 17837,
    "Ġpropri": 6738,
    "lected": 1636,
    "abama": 12705,
    "binnacle": 20785,
    "Ġobliv": 16129,
    "Ġflash": 8229,
    "condition": 7059,
    "Ġallegro": 25793,
    "ographical": 16784,
    "ignorant": 13561,
    "Ġrib": 4935,
    "Ġfavourites": 16642,
    "Ġsolomon": 11053,
    "oda": 15745,
    "motion": 17604,
    "Ġlamentations": 17074,
    "Ġprevail": 13440,
    "nay": 7136,
    "Ġprof": 2461,
    "Ġsubstantial": 14808,
    "Ġjudges": 14684,
    "Ġconfusion": 7273,
    "Ġphotograph": 6302,
    "ashions": 16414,
    "Ġseaward": 22943,
    ")": 13,
    "door": 6193,
    "Ġcircumspection": 25883,
    "displeasure": 23492,
    "Ġcontract": 18473,
    "Ġtranquill": 6630,
    "Ġdistinctly": 7311,
    "power": 7137,
    "Ġpulley": 2976,
    "awned": 19456,
    "Ġarchipelagoes": 14348,
    "Ġwalton": 14970,
    "Ġshunned": 17291,
    "Ġcomparing": 14266,
    "alyards": 18788,
    "Ġnick": 21519,
    "Ġquadruped": 17456,
    "atiously": 15519,
    "dismal": 23494,
    "?--": 15301,
    "Ġincant": 18567,
    "Ġjar": 15946,
    "Ġspend": 5304,
    "Ġglobu": 23269,
    "İ": 241,
    "cat": 15322,
    "Ġnarrative": 6215,
    "Ġstaves": 21739,
    "access": 11181,
    "Ġgruff": 21610,
    "Ġgarn": 13961,
    "Ġmatches": 14393,
    "ĠcÃ¦sar": 20577,
    "Ġsignals": 10586,
    "ingu": 2118,
    "Ġspouter": 12794,
    "ferences": 10327,
    "abomin": 15738,
    "Ġcetus": 19882,
    "Ġslave": 7454,
    "Ġpoured": 8800,
    "Ġmastery": 23989,
    "Ġfamed": 16324,
    "ours": 3427,
    "Ġgnarled": 25164,
    "Ġdeserves": 13287,
    "nial": 20982,
    "tack": 12509,
    "Ġdamp": 8263,
    "governed": 25404,
    "sheet": 16282,
    "title": 17286,
    "companies": 24893,
    "ai": 2527,
    "gerine": 22884,
    "Ġhumiliating": 22878,
    "Ġappellation": 22218,
    "Ġyoungest": 7953,
    "Ġmutable": 23951,
    "Ġrudimental": 25107,
    "member": 20973,
    "Ġbumps": 21389,
    "Ġimpartial": 15217,
    "itude": 1417,
    "Ġobsolete": 26557,
    "ruff": 15891,
    "Ġcharitable": 23266,
    "Ġjoyously": 19343,
    "isson": 23459,
    "Ġpaternal": 16364,
    "extric": 22751,
    "Ġunembarrassed": 22063,
    "Ġadapt": 998,
    "Ġabhor": 5467,
    "pillar": 5619,
    "obstructed": 15224,
    "frisco": 16785,
    "Ġforms": 6397,
    "Ġout": 543,
    "Ġloud": 4700,
    "rages": 15677,
    "Ġknotted": 17017,
    "quently": 9702,
    "Ġbags": 24536,
    "Ġacquaint": 13041,
    "lun": 20944,
    "Ġcoffee": 6760,
    "Ġaspects": 4177,
    "Ġskill": 6872,
    "Ġpiazza": 26449,
    "urp": 1472,
    "Ġindisposed": 26286,
    "Ġconceited": 12087,
    "seriously": 18902,
    "Ġthickly": 12112,
    "vard": 21108,
    "Ġcare": 1638,
    "Ġoffices": 14336,
    "should": 3263,
    "Ġvirt": 3905,
    "Ġamendment": 26023,
    "Ġlaurel": 20652,
    "Ġpleasing": 6190,
    "Ġaims": 15494,
    "Ġsurrounds": 24230,
    "Ġbanished": 10617,
    "Ġliterally": 15114,
    "Ġperusal": 14223,
    "one": 615,
    "Ġstilly": 25973,
    "Ġtempor": 2368,
    "poster": 11056,
    "Ġrefused": 6715,
    "abounding": 25978,
    "ition": 654,
    "whatsoever": 18485,
    "amet": 576,
    "Ġ30": 10512,
    "Ġsupplies": 20325,
    "Ġner": 1645,
    "Ġflour": 8944,
    "Ġenduring": 16299,
    "Ġguardians": 14941,
    "Ġborders": 15568,
    "people": 7677,
    "shrouded": 26360,
    "Ġnone": 3225,
    "Ġposterity": 17400,
    "culiar": 2823,
    "Ġcoins": 11816,
    "horner": 23616,
    "Ġexcept": 3313,
    "!âĢĻ": 3333,
    "Ġwhistle": 9065,
    "afflicted": 23776,
    "crippled": 26383,
    "Ġprofit": 14584,
    "mare": 17597,
    "Ġbroadway": 23980,
    "Ġcorn": 9350,
    "Ġunrelieved": 20543,
    "Ġsocial": 7007,
    "ancies": 11583,
    "Ġbrushed": 15567,
    "Ġfamine": 16325,
    "Ġsnodhead": 19298,
    "Ġrejection": 19980,
    "Ġsample": 3180,
    "generous": 16566,
    "nes": 6961,
    "instead": 14811,
    "Ġthews": 21275,
    "Ġpractical": 3165,
    "repugnance": 16862,
    "Ġinstruction": 14342,
    "cart": 10689,
    "Ġreven": 18026,
    "Ġloses": 15869,
    "Ġhandled": 12933,
    "ording": 9764,
    "bling": 10079,
    "classification": 4387,
    "Ġsund": 8248,
    "Ġglassy": 19557,
    "Ġincorpor": 13163,
    "Ġmaria": 7125,
    "finish": 24383,
    "taining": 7205,
    "Ġvibration": 17097,
    "maltese": 24794,
    "Ġphotography": 24682,
    "Ġdaily": 5986,
    "Ġkentuckian": 26341,
    "Ġtougher": 21174,
    "Ġcommissionaire": 16998,
    "Ġimprec": 14216,
    "Ġcalves": 13031,
    "Ġwine": 6810,
    "Ġdiver": 2532,
    "Ġdust": 5908,
    "Ġwithhold": 18113,
    "Ġsatur": 1932,
    "Ġsinners": 18947,
    "melted": 25205,
    "Ġdreadful": 4919,
    "Ġwantonly": 22891,
    "Ġforest": 9871,
    "Ġneedless": 19226,
    "ressing": 8918,
    "Ġdisplays": 19854,
    "Ġsee": 803,
    "Ġcle": 1509,
    "Ġlist": 2366,
    "Ġbloss": 19253,
    "p": 84,
    "Ġparc": 10921,
    "Ġmyself": 1454,
    "sweep": 24616,
    "Ġuniversally": 11997,
    "Ġregimentals": 19855,
    "Ġresembling": 4099,
    "Ġperiod": 4004,
    "Ġsunken": 14493,
    "Ġstabbing": 20302,
    "Ġinsatiate": 19267,
    "Ġmaritime": 23036,
    "Ġknitting": 24217,
    "Ġminutely": 14560,
    "pen": 1203,
    "parm": 21012,
    "Ġmonth": 2851,
    "Ġexpedite": 24952,
    "ivia": 22078,
    "sleep": 6511,
    "Ġcheat": 19021,
    "Ġpettiness": 24228,
    "reply": 19719,
    "freely": 16852,
    "Ġcircumnavigation": 20397,
    "world": 5057,
    "Ġreplay": 5046,
    "Ġequator": 7461,
    "Ġcovering": 13253,
    "Ġnightmare": 18917,
    "Ġfootfalls": 25865,
    "Ġverse": 16600,
    "Ġdeity": 18135,
    "noble": 7923,
    "proble": 9394,
    "Ġbedfellows": 23436,
    "Ġsummit": 7730,
    "Ġcopse": 17066,
    "threadbare": 25988,
    "eon": 8729,
    ",âĢĶ": 3172,
    "roar": 17950,
    "eks": 4727,
    "Ġhare": 5156,
    "Ġtraged": 9352,
    "Ġusher": 22208,
    "Ġpleadings": 25851,
    "balanced": 14555,
    "onely": 6516,
    "Ġroofs": 16983,
    "È": 137,
    "Ġmaw": 15536,
    "Ġforehead": 5261,
    "barrels": 15040,
    "Ġcobweb": 22581,
    "fin": 5209,
    "Ġcollect": 7237,
    "Ġrisen": 9493,
    "Ġcomo": 21843,
    "Ġgirls": 4281,
    "ouement": 21445,
    "Ġapproximation": 2341,
    "Ġpreliminary": 10057,
    "Ġtrifle": 10602,
    "Ġshaken": 10265,
    "stump": 21649,
    "Ġincorporate": 20452,
    "us": 531,
    "Ġlabyrinth": 13677,
    "Ġperishing": 22393,
    "crated": 16694,
    "Ġtantalizing": 20411,
    "fully": 2201,
    "glancing": 11215,
    "Ġanatomical": 15074,
    "swept": 19783,
    "ais": 8070,
    "Ġyarn": 10869,
    "following": 10573,
    "men": 1484,
    "firm": 10699,
    "nut": 12491,
    "Ġunobstructed": 18262,
    "Ġderanged": 23170,
    "Ġdisregarded": 22526,
    "vable": 10133,
    "Ġyoun": 1408,
    "Ġlean": 7603,
    "Ġwore": 6377,
    "Ġdrug": 11411,
    "Ġhairs": 13228,
    "Ġhorizontally": 17010,
    "Ġgranting": 18734,
    "dish": 12449,
    "connections": 14426,
    "Ġtravell": 5576,
    "Ġtwitch": 22672,
    "Ġconcern": 2657,
    "Ġunstructure": 2995,
    "Ġdiamond": 15595,
    "Ġpaid": 5014,
    "dipped": 20835,
    "Ġ127": 24471,
    "ouncing": 8494,
    "particulars": 11316,
    "mix": 20972,
    "rimsh": 17025,
    "Ġobservable": 25125,
    "rabb": 15676,
    "Ġquite": 1743,
    "traversed": 19636,
    "glow": 20872,
    "entric": 11618,
    "âĢĶâĢľ": 2969,
    "eches": 8077,
    "scap": 22979,
    "Ġsig": 867,
    "Ġsir": 1568,
    "Ġattics": 22624,
    "ĠâĢĶ": 13809,
    "Ġforged": 12700,
    "Ġswayed": 15046,
    "Ġleather": 7604,
    "Ġjur": 12830,
    "twelve": 14621,
    "icorn": 15653,
    "Ġregretted": 13398,
    "Ġrand": 1582,
    "Ġstranger": 3486,
    "Ġcomprehensive": 15085,
    "Ġluxur": 12338,
    "Ġstriding": 16089,
    "onic": 7827,
    "Ġunfolding": 17084,
    "dost": 14534,
    "Ġwithdrawing": 11341,
    "Ġphil": 3385,
    "Ġmock": 3692,
    "Ġwestern": 10655,
    "Ġprimal": 17105,
    "Ġtriumphant": 12186,
    "^": 66,
    "step": 2457,
    "Ġrestored": 7067,
    "alization": 731,
    "Ġentreated": 9951,
    "Ġtertiary": 15292,
    "Ġstre": 2106,
    "pots": 11513,
    "venor": 16093,
    "vellers": 16671,
    "Ġrevealing": 3924,
    "sufficient": 6635,
    "Ġmagg": 18903,
    "Ġoptim": 781,
    "inform": 10144,
    "reputation": 15513,
    "Ġtide": 6658,
    "factories": 19840,
    "Ġsake": 4093,
    "reader": 23843,
    "Ġhappily": 9331,
    "spot": 9788,
    "Ġabruptness": 25298,
    "ither": 1546,
    "Ġsupplement": 22993,
    "Ġpsal": 15612,
    "Ġallures": 22002,
    "Ġdomain": 3142,
    "Ġsnowy": 9017,
    "tumult": 12420,
    "Ġswallow": 8950,
    "Ġfile": 13901,
    "Ġmisfortune": 5569,
    "behold": 12873,
    "Ġcheapside": 23286,
    "Ġkidnapping": 26355,
    "Ġprogrammed": 11059,
    "Ġteased": 18803,
    "Ġunperceived": 22031,
    "ruction": 4358,
    "Ġdre": 1746,
    "umed": 6554,
    "Ġpallor": 13514,
    "Ġprows": 19886,
    "idity": 8830,
    "Ġrucastles": 18718,
    "arn": 356,
    "Ġsilence": 3269,
    "adopt": 25543,
    "Ġsultanism": 25887,
    "Ġreturned": 2891,
    "paus": 13771,
    "itself": 7834,
    "Ġfrightens": 24026,
    "incl": 8109,
    "trampled": 26332,
    "Ġarist": 14160,
    "Ġstaple": 26197,
    "Ġcommunication": 1870,
    "Ġtraitors": 23074,
    "Ġadditional": 7934,
    "mistress": 14903,
    "Ġunrest": 11712,
    "oysius": 14365,
    "Ġsizes": 1518,
    "Ġpant": 10818,
    "Ġsquire": 16178,
    "Ġinsurmountable": 16529,
    "path": 10119,
    "pregn": 18496,
    "ishment": 3506,
    "scand": 18846,
    "uled": 11536,
    "Ġquietude": 19356,
    "ceptibly": 22350,
    "Ġsoot": 14128,
    "osa": 22256,
    "Ġmiserably": 12944,
    "Ġthrough": 605,
    "Ĭ": 237,
    "bearded": 18520,
    "ugl": 23287,
    "beam": 16035,
    "Ġreckoned": 24743,
    "Ġfilial": 16618,
    "stream": 15683,
    "ghost": 20885,
    "Ġcontented": 9756,
    "attention": 2108,
    "Ġgrowing": 6750,
    "Ġbern": 17856,
    "Ġclipping": 2442,
    "tracks": 19635,
    "moran": 24151,
    "satisf": 5781,
    "spass": 18686,
    "Ġinsinuating": 19268,
    "Ġwrig": 13064,
    "anxiously": 15108,
    "long": 2911,
    "Ġbruised": 25771,
    "Ġcool": 5735,
    "Ġmeasureless": 14708,
    "Ġfears": 5729,
    "21": 10072,
    "Ġmoustache": 20481,
    "Ġpunch": 9955,
    "lift": 15382,
    "Ġbol": 6241,
    "interest": 5421,
    "Ġwickham": 2205,
    "Ġanchored": 17438,
    "Ġunbroken": 18248,
    "Ġsphy": 18309,
    "Ġannounce": 13336,
    "Ġassaulted": 25319,
    "rifice": 12500,
    "Ġdrag": 6184,
    "escript": 18469,
    "Ġgrotes": 19560,
    "Ġsoul": 2727,
    "Ġenthusiastic": 19962,
    "Ġloosened": 26001,
    "christmas": 20254,
    "Ġjungfrau": 15246,
    "gloom": 17137,
    "Ġherring": 14125,
    "scene": 14415,
    "Ġglove": 14491,
    "Ġhandy": 12932,
    "frantic": 24282,
    "Ġordinarily": 20647,
    "fates": 20856,
    "Ġpart": 859,
    "Ġpallet": 21477,
    "Ġmournfully": 20113,
    "izzy": 3095,
    "Ġnegative": 1463,
    "Ġenl": 18186,
    "Ġhorribly": 16338,
    "_,âĢĻâĢĿ": 20398,
    "ashed": 3783,
    "Ġsur": 2180,
    "Ġointment": 21323,
    "ienced": 5685,
    "wet": 15450,
    "ifiable": 18161,
    "Ġfron": 14486,
    "Ġcherish": 10590,
    "Ġrural": 21966,
    "Ġadam": 2125,
    "flinging": 20866,
    "fleece": 19944,
    "Ġcallest": 17830,
    "Ġbills": 17858,
    "Ġhaggard": 17328,
    "Ġorganize": 8991,
    "cheerful": 13573,
    "Ġfaithful": 9503,
    "ascribed": 24707,
    "analy": 17836,
    "Ġrevolving": 9983,
    "Ġvaulted": 25166,
    "Ġwindsor": 16885,
    "Ġparched": 11724,
    "Ġfitzwilliam": 5771,
    "Ġdespite": 19349,
    "mort": 10711,
    "Ġplans": 7917,
    "Ġabove": 2934,
    "Ġconst": 1912,
    "Ġwand": 4343,
    "Ġsuspense": 9418,
    "Ġ500": 24327,
    "Ġbritish": 11338,
    "Ġgenerate": 1539,
    "Ġmonotonically": 3831,
    "Ġmysticetus": 24921,
    "Ġwaterward": 23364,
    "att": 1456,
    "Ġtinkling": 25211,
    "udg": 22761,
    "Ġscener": 10950,
    "ically": 832,
    "oled": 17617,
    "Ġrele": 2916,
    "islanders": 25441,
    "apidated": 22333,
    "iality": 8843,
    "bular": 15311,
    "Ġhypothesis": 14780,
    "Ġpeculiar": 3154,
    "Ġembodiment": 20526,
    "Ġdisasters": 16049,
    "Ġvideos": 13604,
    "Ġfossil": 12384,
    "whaler": 20308,
    "sy": 2770,
    "Ġgrimesby": 11458,
    "drive": 8682,
    "Ġcarr": 23086,
    "Ġstillness": 12989,
    "ě": 220,
    "tranquillity": 20544,
    "roads": 17955,
    "xology": 21139,
    "Ġinvade": 19140,
    "Ġtrappers": 23077,
    "Ġkrus": 18347,
    "Ġvortex": 26207,
    "langu": 4806,
    "Ġmermaids": 26169,
    "Ġrejecting": 17049,
    "nonsense": 17613,
    "Ġcadiz": 17323,
    "Ġcomprising": 16067,
    "Ġhumorously": 18775,
    "Û": 156,
    "Ġintelligible": 15937,
    "expressed": 9041,
    "Ġexeget": 24083,
    "Ġowned": 11873,
    "ening": 3104,
    "Ġhold": 2240,
    "caught": 8726,
    "Ġdebt": 12164,
    "mell": 20962,
    "Ġpaltry": 16690,
    "beloved": 19457,
    "deprived": 19895,
    "successfully": 14989,
    "dies": 15336,
    "Ġflutter": 16243,
    "Ġtiresome": 26155,
    "Ġgrinned": 16855,
    ",âĢĿâĢĶ": 14219,
    "_)": 9101,
    "born": 7544,
    "fer": 1978,
    "drop": 15335,
    "Ġnorthward": 13319,
    "Ġgro": 4396,
    "objects": 13468,
    "cele": 21621,
    "oon": 6364,
    "shad": 10983,
    "stays": 15685,
    "fear": 8513,
    "fun": 4481,
    "Ġhealed": 21679,
    "pierced": 26140,
    "Ġevinced": 7101,
    "Ġscra": 5841,
    "Ġfeared": 5930,
    "avo": 8519,
    "rub": 15889,
    "Ġilliter": 23466,
    "Ġbethink": 12376,
    "Ġbearded": 15723,
    "Ġdisco": 3428,
    "Ġraging": 14303,
    "Ġrabbit": 4291,
    "Ġexceeding": 1578,
    "Ġfre": 1569,
    "Ġbirth": 6524,
    "_,âĢĿ": 6218,
    "Ġadhes": 22102,
    "Ġoutwardly": 24997,
    "Ġbut": 424,
    "Ġamount": 8511,
    "Ġwindlass": 7256,
    "Ġrolling": 5974,
    "evid": 11485,
    "Ġridges": 16729,
    "Ġ120": 16856,
    "Ġmislead": 22757,
    "disappointment": 11426,
    "Ġsmoked": 10324,
    "getic": 12962,
    "Ġdost": 7637,
    "Ġrepugn": 23360,
    "surv": 24212,
    "Ġdragged": 6889,
    "Ġsweeter": 23914,
    "plain": 1359,
    "eration": 10773,
    "Ġregularly": 7658,
    "Ġcoer": 22576,
    "Ġloggerhead": 13655,
    "Ġtip": 15469,
    "glad": 9007,
    "iting": 2156,
    "Ġgene": 15668,
    "Ġsleep": 2402,
    "ulated": 6029,
    "Ġquart": 11784,
    "Ġcapable": 5053,
    "Ġshaded": 14103,
    "Ġvalidate": 3139,
    "Ġflush": 14422,
    "upp": 10131,
    "Ġdebar": 24270,
    "Ġwill": 678,
    "goose": 19099,
    "¦": 104,
    "nikin": 23241,
    "subject": 6631,
    "hoped": 20908,
    "Ġsqueezed": 20032,
    "Ġcloudless": 16666,
    "Ġdefault": 3038,
    "Ġwoodcock": 19160,
    "Ġoccas": 2704,
    "Ġvinc": 14083,
    "Ġhudson": 15189,
    "Ġslammed": 20445,
    "Ġinmates": 15619,
    "Ġintrig": 21986,
    "degree": 12797,
    "Ġshrink": 14802,
    "shrugged": 22451,
    "Ġphiladel": 23882,
    "Ġafter": 871,
    "greatest": 10494,
    "Ġum": 10212,
    "sent": 758,
    "Ġoverfitting": 1541,
    "dece": 11730,
    "Ġshoal": 12013,
    "Ġglossy": 15225,
    "Ġfrankenstein": 7096,
    "Ġmonster": 3792,
    "constant": 11325,
    "Ġcoat": 4554,
    "Ġsentinel": 26064,
    "Ġhoars": 19075,
    "rom": 420,
    "Ġspain": 15876,
    "Ġanimation": 11153,
    "although": 8805,
    "Ġjudiciously": 23875,
    "avern": 24791,
    "Ġarrested": 9561,
    "--âĢĺ": 22844,
    "Ġve": 1104,
    "sales": 17665,
    "Ġquestioned": 14619,
    "Ġoath": 7833,
    "grant": 10428,
    "idation": 5021,
    "Ġpugnacious": 26450,
    "Ġlids": 12272,
    "Ġpreternatural": 12819,
    "swift": 14850,
    "cloud": 11107,
    "Ġthinnest": 24182,
    "rope": 3187,
    "bath": 13687,
    "trade": 19633,
    "Ġexig": 21822,
    "Ġfleetness": 20178,
    "consciously": 19622,
    "Ġengraving": 17078,
    "Ġdesire": 3717,
    "suspect": 9540,
    "Ġinheriting": 25353,
    "Ġrept": 13981,
    "roy": 7853,
    "Ġpalm": 10514,
    "Ġbenevol": 5961,
    "coun": 10687,
    "Ġdirect": 1471,
    "Ġdesk": 11903,
    "Ġplaid": 22596,
    "icism": 13954,
    "dun": 17514,
    "Ġrains": 24339,
    "ears": 20843,
    "Ġdesol": 6881,
    "rences": 9272,
    "Ġheathenish": 13614,
    "cordiality": 25136,
    "Ġgur": 21588,
    "Ġbrother": 2750,
    "Ġscrewing": 20207,
    "Ġdejected": 20303,
    "Ġdiscl": 9797,
    "civility": 17511,
    "doesn": 19817,
    "Ġautonom": 10416,
    "Ġattendance": 12178,
    "fulfilment": 26024,
    "Ġtransparent": 9489,
    "Ġwriters": 13541,
    "Ġjoyous": 14662,
    "Ġbeck": 14007,
    "harbor": 13562,
    "Ġmetrics": 19062,
    "Ġancho": 15599,
    "Ġcanopy": 18320,
    "Ġbiography": 22763,
    "minute": 11275,
    "iage": 17571,
    "Ġknees": 6928,
    "Ġrumbling": 18209,
    "Ġnumerical": 4247,
    "Ġsil": 1799,
    "ordingly": 18512,
    "Ġmagn": 1555,
    "Ġ31": 12127,
    "unicorn": 21885,
    "Ġwast": 21856,
    "Ġunsupplied": 22037,
    "Ġmasks": 23323,
    "itive": 6668,
    "mblies": 24607,
    "omist": 21634,
    "compl": 6873,
    "Ġpemberley": 4588,
    "riumph": 4918,
    "politeness": 16904,
    "ĥ": 230,
    "Ġtw": 841,
    "daggoo": 13705,
    "Ġwont": 9852,
    "Ġreus": 8821,
    "Ġserv": 3329,
    "Ġscaling": 3631,
    "twenty": 6607,
    "obli": 23090,
    "approve": 19933,
    "Ġjail": 22290,
    "Ġfrogs": 23919,
    "retreat": 23130,
    "omy": 6248,
    "Ġacquit": 18895,
    "reluct": 26162,
    "Ġqualities": 7534,
    "Ġfrightful": 7735,
    "Ġjub": 22291,
    "Ġdorm": 4820,
    "Ġsank": 5075,
    "Ġspoiled": 11364,
    "Ġinterpretation": 19713,
    "Ġcoars": 14272,
    "Ġwhelm": 25997,
    "Ġess": 5691,
    "confidential": 25875,
    "Ġze": 8545,
    "Ġportcullis": 26602,
    "Ġprocess": 560,
    "Ġbefall": 8828,
    "human": 7089,
    "active": 16099,
    "Ġmyster": 5925,
    "Ġ1846": 26083,
    "excuse": 13379,
    "lier": 20947,
    "iana": 7049,
    "Ġblocks": 6321,
    "isted": 3300,
    "Ġcobbler": 25828,
    "itary": 4750,
    "Ġsmoothe": 23657,
    "Ġtink": 9148,
    "Ġsize": 1216,
    "prairies": 20564,
    "conve": 14241,
    "Ġmakes": 3651,
    "Ġotherwise": 4657,
    "bolt": 25134,
    "Ġgenus": 24428,
    "Ġfaults": 12209,
    "Ġdeed": 7867,
    "Ġshoe": 14566,
    "owards": 4594,
    "Ġproble": 1106,
    "silent": 9974,
    "apsed": 6295,
    "Ġinsights": 13177,
    "breat": 10078,
    "âĢĶâĢĻâĢĿ": 20060,
    "Ġapothe": 12372,
    "recurrent": 4993,
    "Ġpots": 9428,
    "oton": 3606,
    "Ġlack": 17961,
    "Ġjewel": 9942,
    "Ġserpentine": 11361,
    "Ġminimum": 23038,
    "birth": 15320,
    "Ġtongs": 9961,
    "Ġarchly": 22782,
    "Ġsav": 3357,
    "Ġcorpor": 23037,
    "Ġdoubloon": 6945,
    "Ġaid": 6122,
    "Ġreconciliation": 25291,
    "kish": 20932,
    "protest": 24814,
    "ront": 15416,
    "Ġsounds": 5189,
    "Ġassociated": 12246,
    "Ġmankind": 6698,
    "pronouncing": 25192,
    "caut": 20810,
    "Ġmethinks": 10393,
    "Ġcomely": 21844,
    "Ġguardsmen": 20628,
    "rons": 21037,
    "Ġcheese": 9377,
    "osition": 1374,
    "Ġallow": 1125,
    "Ġsleet": 8975,
    "Ġjuggler": 26365,
    "appalling": 22841,
    "ially": 9246,
    "Ġreserve": 9971,
    "Ġevian": 24291,
    "Ġske": 4814,
    "Ġrelief": 6059,
    "Ġinstigated": 18700,
    "eager": 12456,
    "Ġplaced": 3444,
    "Ġrates": 1405,
    "Ġtwinkled": 14310,
    "Ġcloudy": 19473,
    "oration": 2208,
    "Ġfir": 17875,
    "Ġtaken": 2529,
    "Ġtone": 4040,
    "Ġpassage": 3883,
    "Ġintimate": 6549,
    "uth": 3019,
    "Ġobserved": 3541,
    "Ġcem": 17821,
    "between": 5070,
    "Ġtimid": 6345,
    "want": 8765,
    "resistible": 10644,
    "Ġpens": 21456,
    "Ġstraggling": 23748,
    "Ġexist": 9231,
    "Ġamuse": 5939,
    "Ġprovide": 7749,
    "Ġinquisitive": 26316,
    "Ġfavoured": 16357,
    "Ġ122": 24466,
    "Ġapparition": 8066,
    "Ġbelongs": 8014,
    "Ġcoarsely": 25827,
    "saving": 21057,
    "Ġlook": 880,
    "Ġstronger": 8578,
    "Ġconsole": 8150,
    "Ġnug": 21521,
    "olerable": 7182,
    "Ġbenignity": 18779,
    "Ġhazard": 20429,
    "Ġconstables": 19070,
    "doub": 6223,
    "Ġmeasure": 3593,
    "msprop": 2627,
    "blazing": 24131,
    "ffy": 18316,
    "learnt": 23542,
    "pot": 10118,
    "harm": 13733,
    "eluded": 21571,
    "Ġscript": 18397,
    "vic": 13800,
    "iple": 4805,
    "Ġinterval": 4054,
    "Ġentail": 9790,
    "Ġindicates": 3196,
    "Ġrefuse": 5739,
    "Ġoccasionally": 5590,
    "Ġcumulative": 4212,
    "Ġmantelpiece": 15205,
    "Ġfactor": 19013,
    "bug": 17490,
    "Ġdesiring": 14410,
    "clay": 18928,
    "tale": 10128,
    "Ġpenetrated": 13470,
    "ra": 314,
    "©": 107,
    "Ġresc": 4507,
    "perplex": 18338,
    "Ġviolet": 19088,
    "eneva": 5117,
    "Ġreiter": 21662,
    "Ġhusband": 3619,
    "Ġintrospect": 15825,
    "lilies": 20959,
    "industrious": 26238,
    "ă": 196,
    "Ġadoration": 18290,
    "Ġrelieve": 8223,
    "sand": 21050,
    "Ġconveys": 16853,
    "laughing": 15177,
    "continuing": 24478,
    "Ġdeterm": 1269,
    "Ġwestmorland": 24389,
    "Ġtorrent": 17090,
    "Ġcopying": 17067,
    "ē": 212,
    "Ġallude": 12767,
    "Ġjacobian": 2892,
    "Ġbeam": 2880,
    "Ġseething": 18199,
    "mounting": 25206,
    "dense": 18712,
    "Ġdocks": 14176,
    "Ġunimaginable": 15244,
    "ape": 1907,
    "Ġstoner": 7178,
    "Ġexerc": 6833,
    "Ġcontrary": 5260,
    "Ġuntimely": 16464,
    "Ġapprehending": 26089,
    "Ġstunsail": 25542,
    "bowl": 14889,
    "speed": 19405,
    "Ġunconquerable": 22057,
    "Ġnoting": 18219,
    "provoke": 26070,
    "ondency": 15267,
    "sit": 13778,
    "Ġroyalty": 19733,
    "Ġjem": 18400,
    "Ġgratify": 19499,
    "Ġchristmas": 6924,
    "coronet": 16861,
    "engine": 18924,
    "deser": 10403,
    "Ġstaring": 8825,
    "Ġdespairing": 14772,
    "resp": 13837,
    "Ġloving": 8175,
    "Ġverge": 23884,
    "Ġtener": 21161,
    "occupations": 24963,
    "apprec": 22840,
    "Ġpron": 6451,
    "aux": 14286,
    "Ġblank": 5950,
    "Ġrevealed": 6751,
    "Ġfinds": 6299,
    "Ġjunk": 15949,
    "Ġstony": 21738,
    "chat": 21682,
    "ordinate": 12870,
    "Ġcheerful": 6621,
    "Ġstren": 15719,
    "Ġfrankness": 16744,
    "nin": 17606,
    "Ġpardon": 5727,
    "Ġbirch": 26173,
    "Ġunfolded": 10639,
    "Ġanecd": 20151,
    "accur": 14592,
    "fugitive": 26130,
    "Ġdonkey": 23224,
    "Đ": 209,
    "Ġconclude": 8580,
    "assin": 22300,
    "ince": 4341,
    "Ġbesee": 19239,
    "Ġquestioning": 10465,
    "Ġoffended": 7041,
    "Ġjavel": 17082,
    "spiracle": 22730,
    "Ġhazarded": 25653,
    "Ġinstead": 2791,
    "Ġincognit": 22551,
    "Ġjobs": 24831,
    "Ġsavory": 23873,
    "Ġfemin": 13434,
    "sterdam": 19087,
    "befall": 22491,
    "using": 5468,
    "Ġlayers": 815,
    "Ġruth": 14092,
    "tremendous": 20671,
    "ken": 2803,
    "clothed": 19735,
    "Ġdishon": 12227,
    "Ġbrim": 12973,
    "watson": 12240,
    "conjectures": 25179,
    "Ġcheck": 7271,
    "Ġgroup": 2038,
    "Ġhereditary": 10665,
    "Ġparadise": 11195,
    "imming": 9687,
    "ige": 12675,
    "Ġloafer": 18297,
    "Ġgips": 10842,
    "decoder": 3643,
    "Ġcommands": 16587,
    "alty": 17936,
    "Ġproceedings": 9907,
    "tawny": 26403,
    "Ġabusing": 18391,
    "bru": 12436,
    "mira": 20977,
    "Ġdistingu": 2515,
    "Ġadvancement": 24474,
    "Ġdelicately": 24125,
    "Ġefficient": 1062,
    "moving": 11017,
    "Ġclassical": 22617,
    "Ġouter": 6859,
    "Ġmotion": 4566,
    "Ġreigns": 21667,
    "render": 10291,
    "rigging": 20002,
    "Ġsteepest": 3088,
    "levelled": 23645,
    "Ġeach": 891,
    "Ġfills": 12590,
    "Ġswash": 23052,
    "cleanliness": 25870,
    "at": 268,
    "Ġdoubling": 23316,
    "Ġconstitution": 20105,
    "Ġnowhere": 12882,
    "Ġawake": 8271,
    "Ġgasp": 7172,
    "ĠĠĠĠĠĠĠĠĠĠĠĠĠĠĠĠĠĠĠĠĠĠĠĠĠĠĠĠĠĠĠĠĠĠĠĠĠĠĠ": 19256,
    "became": 10515,
    "Ġun": 422,
    "Ġpermission": 9279,
    "Ġdeclaration": 16634,
    "Ġcake": 12566,
    "epilogue": 22096,
    "except": 5383,
    "ghan": 19451,
    "Ġasiatic": 20427,
    "Ġdeal": 3607,
    "Ġdreaming": 11224,
    "Ġwheel": 9718,
    "wrinkled": 16552,
    "Ġneat": 7000,
    "Ġgritted": 22801,
    "Ġlodges": 19496,
    "Ġafford": 4366,
    "Ġmatlock": 18797,
    "face": 3678,
    "Ġstag": 6148,
    "decl": 8856,
    "Ġmanual": 14196,
    "Ġthunder": 4822,
    "Ġoun": 13861,
    "ineer": 11697,
    "ics": 3258,
    "sentiment": 12910,
    "kins": 7345,
    "guard": 12125,
    "Ġungracious": 18256,
    "Ġbehaves": 23298,
    "Ġsurpassing": 20465,
    "gar": 5615,
    "insensibility": 23065,
    "Ġoverthrown": 18428,
    "Ġceasing": 23754,
    "Ġlofty": 6217,
    "observed": 7675,
    "ship": 1392,
    "Ġshel": 6847,
    "indeed": 4488,
    "Ġappointment": 10647,
    "Ġlikeness": 11180,
    "Ġblanket": 8342,
    "Ġstabilizing": 3657,
    "Ġhastening": 19333,
    "Ġinhabit": 5782,
    "Ġconspicuous": 13601,
    "akness": 14193,
    "wer": 8394,
    "Ġjournal": 15216,
    "Ġexperienced": 6583,
    "form": 500,
    "coff": 9108,
    "Ġsweetness": 9446,
    "Ġrephrased": 26476,
    "ediction": 17942,
    "ru": 479,
    "Ġlimping": 23544,
    "Ġblack": 2034,
    "Ġcreature": 2386,
    "Ġarchy": 14347,
    "Ġbutton": 10268,
    "Ġpursuers": 13223,
    "Ġbreaches": 14520,
    "Ġboom": 9310,
    "pass": 4293,
    "Ġlightly": 13081,
    "Ġwings": 9163,
    "Ġshan": 9248,
    "Ġdodo": 9072,
    "Ġsongs": 13418,
    "sicilian": 21061,
    "Ġendowed": 18922,
    "Ġplenty": 6708,
    "ommod": 13975,
    "Ġsultry": 20287,
    "Ġheadlong": 11885,
    "Ġneuron": 1810,
    "Ġpain": 2302,
    "Ġi": 311,
    "Ġunqualified": 22055,
    "accomplishments": 25325,
    "Ġtutored": 20124,
    "Ġprair": 7746,
    "comfortable": 7320,
    "Ġregret": 5562,
    "Ġopposed": 11189,
    "Ġbinnacle": 8118,
    "cod": 12440,
    "Ġprimary": 25059,
    "enjoyment": 17256,
    "Ġenemy": 5605,
    "hic": 3250,
    "Ġdeliber": 7268,
    "Ġperils": 6272,
    "sharp": 10306,
    "cottagers": 20044,
    "rench": 3967,
    "Ġswimming": 5507,
    "Ġsadder": 24047,
    "Ġdreamt": 23935,
    "Ġcapabilities": 4377,
    "Ġextra": 4056,
    "net": 1195,
    "phantoms": 24678,
    "perfect": 7635,
    "Ġconsecrate": 26488,
    "Ġostens": 25274,
    "local": 22505,
    "Ġhugh": 15003,
    "velled": 9876,
    "acquaintance": 6938,
    "Ġcynical": 25769,
    "Ġdiminish": 14743,
    "mosp": 8088,
    "Ġappar": 7412,
    "planted": 11696,
    "sneezes": 11447,
    "eaten": 20343,
    "brows": 17494,
    "Ġlivers": 18459,
    "lane": 10707,
    "Ġcontinually": 5041,
    "Ġawe": 7148,
    "Ġself": 1779,
    "Ġfreckled": 18958,
    "nowhere": 18416,
    "oppressed": 24823,
    "lamps": 25259,
    "Ġtotally": 9471,
    "useless": 14593,
    "Ġunderstanding": 1873,
    "Ġpork": 21453,
    "approbation": 11459,
    "Ġrokovoko": 22402,
    "Ġpantaloons": 20295,
    "Ġrepresents": 4901,
    "athed": 7828,
    "Ġdarts": 16766,
    "mir": 20961,
    "d": 72,
    "Ġlexic": 15714,
    "Ġcapstan": 9098,
    "Ġdefendants": 15138,
    "ĠâĢľ": 516,
    "Ġflu": 3279,
    "Ġjackets": 19599,
    "Ġshone": 7404,
    "Ġsplinter": 23744,
    "hands": 5966,
    "Ġbay": 9168,
    "Ġabraham": 18393,
    "Ġbeneficial": 23928,
    "riage": 2122,
    "Ġimpro": 910,
    "Ġsnar": 13196,
    "Ġwives": 12551,
    "astonishment": 10030,
    "ulate": 5233,
    "Ġanimate": 23420,
    "Ġopium": 8994,
    "Ġsenor": 20147,
    "Ġdoth": 13906,
    "what": 641,
    "Ġpiled": 8424,
    "Ġsage": 17750,
    "unteered": 26494,
    "Ġpres": 9732,
    "Ġintellig": 524,
    "Ġbehind": 2809,
    "k": 79,
    "Ġsons": 10767,
    "Ġforty": 5719,
    "Ġsupplication": 25490,
    "gradu": 18614,
    "erxes": 21273,
    "Ġtortoise": 16906,
    "Ġinitials": 11015,
    "Ġinfancy": 10410,
    "Ġmonomania": 17083,
    "Ġresolves": 23649,
    "Ġsnatching": 10473,
    "while": 2933,
    "achus": 18281,
    "Ġhandling": 8912,
    "Ġtroubled": 6615,
    "curiosity": 8623,
    "atha": 6572,
    "Ġclam": 7416,
    "cures": 20803,
    "histicated": 20899,
    "idable": 8145,
    "incom": 21179,
    "Ġdesign": 4135,
    "arse": 7161,
    "Ġimmortality": 26324,
    "Ġfruits": 17116,
    "Ġplun": 6281,
    "impe": 21704,
    "ilet": 12825,
    "seam": 10875,
    "Ġworshipper": 25691,
    "omics": 21639,
    "stave": 21645,
    "ubl": 3594,
    "ain": 343,
    "Ġsurf": 19129,
    "ank": 1365,
    "Ġten": 2389,
    "Ġaddu": 22101,
    "Ġjamming": 17263,
    "Ġalliance": 18233,
    "Ġhousehold": 8567,
    "Ġwards": 17787,
    "Ġunsavory": 20705,
    "waiting": 12217,
    "Ġsolicit": 22883,
    "ality": 2512,
    "Ġparsonage": 7124,
    "Ġhearsed": 25038,
    "Ġacceded": 22375,
    "pretty": 10622,
    "Ġfiendish": 13325,
    "oldened": 22637,
    "Ġweek": 2829,
    "Ġwithheld": 18112,
    "Ġstaggers": 24652,
    "Ġbrowne": 13299,
    "Ġjourneying": 25564,
    "Ġheadstrong": 14386,
    "Ġunreasonably": 17449,
    "infl": 15485,
    "Ġstall": 12693,
    "Ġmechanisms": 1574,
    "Ġdetached": 10280,
    "buff": 15316,
    "Ġherself": 1566,
    "methodically": 20662,
    "Ġseeks": 14300,
    "Ġheavens": 5049,
    "ceased": 21622,
    "culine": 19063,
    "acquainted": 7313,
    "heim": 17744,
    "bly": 6110,
    "Ġcolouring": 16749,
    "Ġdaboll": 25949,
    "Ġsheets": 9722,
    "composure": 24030,
    "Ġroom": 1462,
    "pits": 15410,
    "Ġsignifies": 19200,
    "broke": 14775,
    "Ġconfine": 14511,
    "hook": 12050,
    "Ġrewarding": 13435,
    "Ġcalifornia": 20527,
    "Ġcope": 17828,
    "Ġplow": 21455,
    "Ġrats": 21972,
    "and": 372,
    "dle": 3249,
    "Ġrhyme": 21977,
    "Ġwarm": 2429,
    "bbings": 19273,
    "fs": 17533,
    "Ġchilled": 18380,
    "wretch": 17706,
    "Ġkid": 9725,
    "conda": 18992,
    "Ġenterprise": 8641,
    "ometer": 19323,
    "Ġrending": 19463,
    "Ġdatasets": 2392,
    "pet": 4866,
    "Ġknight": 9727,
    "Ġchimney": 6497,
    "land": 1528,
    "Ġbliss": 12997,
    "Ġfear": 2274,
    "Ġunjustifiable": 25108,
    "Ġmanufactured": 22327,
    "Ġineffable": 17330,
    "Ġtransformations": 3487,
    "afer": 17479,
    "importance": 9989,
    "Ġbrigandish": 25486,
    "Ġrosings": 4607,
    "woes": 21131,
    "Ġunderstood": 5655,
    "rod": 10832,
    "icated": 7591,
    "gallantry": 15057,
    "Ġpurses": 23474,
    "ma": 1148,
    "Ġfashioned": 13318,
    "Ġindelible": 25693,
    "Ġlibr": 15997,
    "Ġemptied": 24346,
    "Ġslightest": 6092,
    "quee": 4133,
    "acting": 22627,
    "Ġdepos": 11009,
    "overspreading": 26138,
    "Ġprofessor": 11231,
    "uzz": 4524,
    "quely": 10232,
    "Ġhelping": 3268,
    "Ġsleepless": 14581,
    "exact": 7909,
    "Ġpulling": 5862,
    "breaths": 25335,
    "sil": 5282,
    "city": 15325,
    "Ġappeals": 16313,
    "Ġlimited": 23543,
    "Ġcontact": 9281,
    "unearthly": 19270,
    "uc": 1877,
    "Ġ1883": 23893,
    "Ġpods": 17910,
    "tut": 15432,
    "Ġanalyze": 1608,
    "Ġbaleen": 10037,
    "almost": 4942,
    "omet": 3076,
    "pay": 10719,
    "pure": 17624,
    "Ġalman": 21777,
    "Ġthing": 1639,
    "Ġalternating": 15029,
    "holland": 24037,
    "Ġpul": 2041,
    "Ġhilariously": 25449,
    "Ġpel": 17900,
    "eps": 12786,
    "Ġrage": 5109,
    "igan": 21694,
    "abular": 4761,
    "ĵ": 246,
    "Ġacute": 16119,
    "mighty": 9467,
    "duodecimo": 15998,
    "Ġinvolve": 11047,
    "Ġcrocod": 19625,
    "hval": 20896,
    "Ġsiber": 17753,
    "kept": 11715,
    "Ġtearless": 24785,
    "Ġduck": 8793,
    "lad": 5991,
    "Ġemm": 18000,
    "Ġdelighted": 5499,
    "Ġdiscol": 12949,
    "lines": 6959,
    "Ġseek": 4509,
    "Ġpike": 12619,
    "Ġspices": 22126,
    "ols": 2413,
    "designated": 26294,
    "furthest": 19838,
    "Ġfame": 21403,
    "Ġsecurity": 8977,
    "Ġbree": 5011,
    "Ġbi": 919,
    "Ġan": 286,
    "Ġwater": 1948,
    "Ġplat": 8520,
    "rote": 4592,
    "Ġstates": 1851,
    "Ġarabic": 24977,
    "Ġpartners": 11850,
    "Ġeighty": 19472,
    "sche": 13011,
    "approach": 24832,
    "iating": 3209,
    "Ġconcoct": 19043,
    "akers": 9740,
    "gazing": 12468,
    "Ġtotal": 4992,
    "added": 11658,
    "Ġadvantages": 9811,
    "Ġchronicler": 20228,
    "Ġturbid": 23613,
    "Ġpassionate": 11274,
    "tal": 17668,
    "Ġinterrupting": 19554,
    "Ġferule": 24498,
    "Ġordained": 19441,
    "Ġmoose": 22427,
    "Ġvocabulary": 4994,
    "bud": 10683,
    "Ġpertin": 18447,
    "Ġintention": 5638,
    "Ġacre": 22677,
    "thrust": 10262,
    "rusted": 16506,
    "Ġstately": 9834,
    "Ġcolleg": 22849,
    "port": 10720,
    "Ġplied": 22593,
    "housekeeper": 24100,
    "Ġaction": 5796,
    "Ġcomputational": 1626,
    "ellest": 21570,
    "Ġresuming": 12889,
    "Ġdry": 5624,
    "bled": 5469,
    "Ġ79": 24263,
    "go": 2063,
    "frankenstein": 11392,
    "Ġfourth": 7706,
    "Ġlearnedly": 23383,
    "hibited": 17425,
    "uzzle": 19580,
    "Ġfrozen": 9012,
    "Ġkettle": 26231,
    "column": 19326,
    "Ġmonarchs": 25845,
    "Ġprotested": 9934,
    "Ġinnoc": 3793,
    "Ġglen": 18843,
    "barrow": 15319,
    "Ġquiver": 15999,
    "Ġwedged": 24068,
    "regiment": 16449,
    "sub": 4659,
    "Ġgpt": 4351,
    "repairing": 24494,
    "bishop": 13692,
    "Ġunnatural": 7190,
    "Ġexchanged": 10879,
    "beginning": 13559,
    "Ġoat": 21320,
    "Ġatmosphere": 10898,
    "Ġtopmost": 14586,
    "killing": 20940,
    "Ġtep": 21159,
    "Ġruns": 8594,
    ";âĢĶ": 3749,
    "ickering": 22666,
    "Ġhorrors": 10480,
    "Ġrev": 6989,
    "laborers": 23912,
    "palms": 25261,
    "Ġeclips": 20694,
    "Ġ1836": 25720,
    "Ġcruel": 5121,
    "Ġheadway": 18790,
    "Ġwilt": 9644,
    "uerus": 26405,
    "bber": 4568,
    "Ġcomprised": 14269,
    "Ġimpul": 7208,
    "ampton": 18142,
    "Ġgeneral": 1860,
    "rough": 588,
    "hid": 13732,
    ":âĢĶ": 4431,
    "Ġparcels": 25464,
    "manif": 14371,
    "Ġgriev": 16632,
    "moon": 10336,
    "scans": 22978,
    "hamed": 6305,
    "Ġloun": 7167,
    "perai": 10276,
    "eskye": 21480,
    "stripped": 16943,
    "interference": 23735,
    "amplified": 26493,
    "Ġdin": 3624,
    "unbounded": 21881,
    "autions": 20765,
    "Ġhor": 1659,
    "Ġenforced": 21934,
    "Ġprendergast": 26536,
    "Ġcompacted": 23505,
    "Ġhur": 2098,
    "ider": 21761,
    "Ġresources": 2935,
    "momentum": 4990,
    "Ġgleaming": 24992,
    "ü": 189,
    "Ġrequisition": 22659,
    "Ġbrilliancy": 20103,
    "damp": 15341,
    "histor": 13489,
    "Ġmariners": 6067,
    "cer": 6642,
    "Ġbasic": 24700,
    "Ġunflinching": 26511,
    "Ġkissed": 10045,
    "Ġpurely": 12228,
    "lemagne": 26435,
    "women": 15454,
    "houn": 20891,
    "Ġpeep": 6870,
    "suit": 18626,
    "Ġdeportment": 22606,
    "Ġplanisp": 24053,
    "Ġcentre": 5122,
    "Ġlandscape": 12414,
    "ound": 585,
    "Ġunjust": 8483,
    "rivial": 9434,
    "Ġenclosure": 20621,
    "Ġshoulders": 5566,
    "Ġjunks": 25112,
    "Ġgover": 2462,
    "Ġchestnut": 19669,
    "image": 9686,
    "Ġencirc": 18728,
    "Ġassault": 9837,
    "Ġcynicism": 25770,
    "Ġhaws": 21947,
    "Ġconsequent": 18108,
    "Ġinterfere": 11814,
    "Ġstup": 14004,
    "Ġabsorbing": 17126,
    "Ġinns": 17927,
    "Ġcurv": 3512,
    "Ġleads": 12093,
    "Ġspurred": 22134,
    "Ġphilosophy": 7104,
    "agement": 4190,
    "Ġerud": 20051,
    "Ġtrials": 16787,
    "gence": 877,
    "Ġuniform": 2224,
    "Ġted": 13810,
    "Ġupheld": 22147,
    "Ġtartar": 17320,
    "Ġbuff": 9172,
    "ering": 1266,
    "Ġaddresses": 3768,
    "Ġmug": 21310,
    "congratulations": 20278,
    "Ġtusk": 25424,
    "Ġsquares": 11170,
    "Ġplunder": 22598,
    "rets": 12537,
    "sank": 17660,
    "Ġcobb": 14273,
    "Ġ[": 6967,
    "ricity": 23059,
    "ounted": 5029,
    "Ġinfinite": 8576,
    "ports": 13772,
    "Ġern": 8396,
    "youngest": 19740,
    "Ġwidth": 16770,
    "Ġcler": 11767,
    "Ġbarmaid": 19332,
    "Ġdemi": 25547,
    "Ġstooping": 13058,
    "Ġinsignific": 13178,
    "turkish": 24532,
    "Ġspeedily": 7711,
    "Ġslope": 14458,
    "======================================================================": 10068,
    "Ġscrut": 15942,
    "Ġcruise": 12046,
    "Ġineffectual": 17382,
    "Ġnarrower": 24353,
    "berwell": 22714,
    "Ġaffectation": 14439,
    "Ġlimits": 3454,
    "Ġdint": 15587,
    "Ġpretensions": 16556,
    "Ġsli": 4747,
    "unc": 15765,
    "Ġarve": 15898,
    "Ġselfishness": 12286,
    "cripp": 20817,
    "electricity": 26384,
    "provided": 13635,
    "Ġhose": 12623,
    "Ġlubber": 17442,
    "ined": 1260,
    "national": 20996,
    "Ġcasement": 25091,
    "Ġmartial": 20290,
    "Ġappearances": 10452,
    "Ġenvelop": 5587,
    "Ġrelating": 2706,
    "Ġpenn": 11113,
    "Ġglories": 16234,
    "omen": 4087,
    "Ġbelonged": 6922,
    "Ġadvise": 7936,
    "Ġquartered": 20370,
    "Ġfing": 3757,
    "Ġindividually": 22953,
    "wor": 3416,
    "val": 1156,
    "Ġturkey": 19215,
    "marks": 7346,
    "co": 2437,
    "twinkle": 23701,
    "Ġbelfry": 26437,
    "Ġlouisiana": 25075,
    "caterpillar": 26382,
    "safety": 20348,
    "most": 1257,
    "emporary": 15794,
    "Ġ181": 23891,
    "Ġgreat": 895,
    "Ġsolid": 6443,
    "Ġunluck": 8484,
    "odiac": 14026,
    "Ġunimpe": 22066,
    "phants": 9320,
    "Ġdungeon": 16994,
    "harmony": 25749,
    "disc": 4728,
    "µ": 118,
    "Ġvisibly": 22854,
    "Ġeconomy": 17199,
    "gan": 2197,
    "olet": 13764,
    ".âĢĶ": 4250,
    "Ġbestowing": 16969,
    "Ġshop": 9251,
    "plans": 21954,
    "Ġmarked": 4619,
    "Ġtreasures": 17045,
    "perform": 15895,
    "Ġhiss": 15784,
    "onian": 17765,
    "plun": 15816,
    "Ġtapers": 11551,
    "prevented": 20371,
    "Ġmult": 1022,
    "Ġdig": 6135,
    "beth": 13686,
    "ohn": 4561,
    "Ġrealising": 18980,
    "Ġunusual": 6553,
    "Ġsovere": 9255,
    "Ġsentin": 16371,
    "rate": 2426,
    "Ġdistrict": 10319,
    "Ġencompassed": 15251,
    "Ġcomforted": 19387,
    "Ġadmirers": 19683,
    "estab": 14167,
    "Ġarsac": 11739,
    "Ġcorridor": 10672,
    "embers": 21925,
    "Ġperson": 2370,
    "Ġpicked": 6341,
    "Ġbouquet": 20681,
    "Ġletting": 10363,
    "boards": 23251,
    "Ġcomplaints": 12261,
    "Ġrevenue": 26193,
    "Ġwel": 4527,
    "ernation": 8211,
    "Ġhappened": 3713,
    "meanwhile": 10610,
    "Ġdisagreeable": 9298,
    "convinced": 10623,
    "Ġdiscerned": 25002,
    "Ġsplit": 7992,
    "Ġapproxim": 1217,
    "Ġassured": 4372,
    "innocent": 20285,
    "Ġsanely": 24979,
    "Ġbeasts": 10618,
    "Ġden": 3106,
    "sweet": 8685,
    "Ġaccess": 9747,
    "Ġnerve": 16336,
    "discharging": 26304,
    "Ġimpropri": 14214,
    "Ġunintelligible": 26513,
    "connected": 1311,
    "ear": 8730,
    "Ġdollar": 25282,
    "plish": 18206,
    "ern": 757,
    "Ġchin": 4890,
    "yards": 9624,
    "Ġoccasional": 7289,
    "bellies": 19970,
    "Ġestimation": 11219,
    "Ġopens": 23628,
    "Ġearnest": 3929,
    "Ġlungs": 8361,
    "Ġunalterable": 15848,
    "irksome": 18170,
    "aration": 12603,
    "Ġxii": 11988,
    "tot": 10729,
    "Ġrag": 18635,
    "Ġventured": 7502,
    "Ġsource": 6805,
    "Ġagrees": 22511,
    "Ġglowed": 24863,
    "ique": 8742,
    "Ġsewing": 21950,
    "Ġrehears": 15696,
    "Ġunche": 23426,
    "Ġstrings": 11826,
    "Ġcanall": 10929,
    "floated": 24642,
    "cause": 7795,
    "Ġtempered": 12919,
    "Ġchimneys": 16970,
    "Ġleviathans": 8281,
    "Ġaudibly": 24770,
    "Ġillustrate": 25064,
    "ket": 17580,
    "iceland": 21562,
    "Ġtunnel": 14928,
    "hopes": 15367,
    "Ġpulpit": 7470,
    "jackets": 24894,
    "dire": 15334,
    "Ġelement": 6898,
    "Ġdecreasing": 2445,
    "Ġcorrespondence": 10595,
    "when": 1590,
    "&": 10,
    "Ġadvertise": 25387,
    "Ġinflu": 4908,
    "Ġmentioning": 9899,
    "Ġmanhat": 22324,
    "Ġembed": 1448,
    "labour": 23911,
    "abhorred": 17334,
    "Ġhuddled": 20298,
    "ns": 749,
    "Ġalleghan": 25794,
    "cheerfulness": 20179,
    "Ġselects": 4385,
    "Ġunpleasant": 7191,
    "Ġcircumnav": 12423,
    "Ġarcher": 22186,
    "gged": 3776,
    "Ġbroker": 23097,
    "els": 1765,
    "entering": 17974,
    "Ġoversight": 22355,
    "crew": 7545,
    "Ġrashness": 25459,
    "Ġhelplessness": 25070,
    "Ġoffend": 16137,
    "seem": 10228,
    "Ġpresc": 15921,
    "Ġdews": 21835,
    "nered": 18486,
    "oding": 1461,
    "Ġchance": 3318,
    "links": 20956,
    "Ġsafety": 6339,
    "Ġdemean": 12719,
    "Ġaugment": 8691,
    "isen": 10793,
    "entirely": 7781,
    "outside": 12800,
    "Ġunsupp": 22015,
    "Ġuncl": 22010,
    "Ġperch": 10299,
    "visited": 13345,
    "Ġcompromised": 22568,
    "Ġqueens": 16704,
    "iability": 20918,
    "Ġsmaller": 1883,
    "civilities": 24970,
    "Ġbid": 6131,
    "Ġpoignant": 22590,
    "Ġpraises": 16728,
    "Ġrejoicing": 13419,
    "maybe": 23987,
    "Ġsprain": 18303,
    "Ġpictures": 5503,
    "Ġprobability": 1124,
    "Ġinvoluntarily": 8547,
    "Ġanomalous": 25636,
    "Ġconcealment": 16912,
    "Ġemma": 20692,
    "Ġissuing": 16946,
    "ricted": 15418,
    "Ġmanxman": 9566,
    "Ġdagger": 21434,
    "places": 7878,
    "Ġsinusoid": 4780,
    "Ġsloping": 11936,
    "Ġsab": 10763,
    "esteem": 26007,
    "Ġarrangements": 16514,
    "Ġstalk": 12694,
    "Ġlays": 15985,
    "pulous": 15414,
    "Ġconstitutional": 25124,
    "Ġmain": 809,
    "lever": 2930,
    "Ġpy": 21447,
    "âĢĿ;": 11669,
    "Ġleaving": 3902,
    "Ġvide": 10251,
    "Ġmadly": 16484,
    "descending": 16281,
    "feet": 6568,
    "Ġrequest": 6050,
    "Ġbrittle": 22857,
    "_.âĢĿ": 5885,
    "ineas": 15818,
    "Ġcocksure": 26257,
    "Ġdiabolically": 25512,
    "forster": 16162,
    "veil": 18043,
    "vanity": 24973,
    "Ġcloak": 9534,
    "resentment": 15183,
    "Ġ92": 24589,
    "acknowled": 10975,
    "Ġautonomous": 10676,
    "Ġoverwhel": 8195,
    "Ġ101": 24408,
    "uch": 878,
    "doubt": 6782,
    "Ġdeposited": 25483,
    "Ġeuroc": 14957,
    "Ġbound": 3519,
    "Ġmorbid": 16229,
    "Ġoriginate": 24121,
    "suggested": 17297,
    "Ġretarded": 23068,
    "Ġtin": 15461,
    "ils": 3184,
    "Ġapo": 9631,
    "Ġmedical": 9464,
    "Ġmonotonous": 13260,
    "Ġheighten": 19526,
    "Ġexcessive": 3890,
    "Ġflank": 8228,
    "Ġglaring": 11904,
    "smitten": 23905,
    "Ġdevilish": 11229,
    "Ġroast": 18455,
    "arris": 13207,
    "Ġnation": 12643,
    "Ġ106": 24413,
    "Ġskilful": 25835,
    "Ġchal": 18376,
    "Ġmasterless": 23991,
    "Ġunbending": 25463,
    "inese": 12879,
    "Ġslighted": 16565,
    "Ġdesper": 6176,
    "Ġpunishment": 9956,
    "ipotence": 22352,
    "Ġclank": 15960,
    "science": 11905,
    "appears": 12057,
    "gon": 17550,
    "onsible": 22558,
    "Ġmaiden": 13384,
    "Ġvideo": 25364,
    "Ġhappening": 14381,
    "Ġgrop": 12660,
    "chers": 11318,
    "fail": 17538,
    "Ġpanel": 13370,
    "Ġprecaution": 11197,
    "narr": 12493,
    "Ġunallied": 22026,
    "Ġdream": 3538,
    "Ġinvented": 17035,
    "having": 5211,
    "Ġmuscles": 12085,
    "libr": 22919,
    "Ġeyel": 17094,
    "tha": 15820,
    "Ġoptimizers": 18622,
    "Ġmelancholy": 5606,
    "Ġ112": 24436,
    "Ġsombre": 18857,
    "examine": 25476,
    "Ġoutbreak": 22313,
    "meat": 18671,
    "Ġaforethought": 25427,
    "Ġwhom": 1832,
    "Ġclearing": 8239,
    "Ġadvertised": 17246,
    "Ġhandfuls": 17208,
    "Ġjot": 11760,
    "Ġvenge": 5420,
    "ophisticated": 22474,
    "Ġtoast": 21508,
    "Ġwalrus": 14971,
    "Ġattachment": 6049,
    "Ġspatial": 2731,
    "rocious": 21535,
    "Ġdefinition": 14402,
    "canonical": 22959,
    "·": 120,
    "Ġvouch": 15806,
    "wearing": 22683,
    "Ġdinah": 9453,
    "Ġanxiously": 8289,
    "Ġaud": 6661,
    "Ġmaj": 3926,
    "inj": 9151,
    "nine": 13759,
    "Ġgales": 12661,
    "Ġfamiliar": 5511,
    "Ġcharges": 23265,
    "lose": 12877,
    "Ġsince": 1797,
    "Ġretreated": 13431,
    "consuming": 25672,
    "vac": 15448,
    "serpent": 16288,
    "Ġrnns": 2397,
    "warp": 17704,
    "Ġaperture": 26159,
    "Ġuttered": 7280,
    "Ġbalancing": 2434,
    "sooner": 14774,
    "Ġsized": 11562,
    "Ġmeanest": 12906,
    "Ġwal": 6517,
    "landish": 11939,
    "Ġindestructible": 26571,
    "iosity": 2471,
    "Ġveteran": 17448,
    "istered": 14143,
    "Ġdisinclined": 22525,
    "Ġvary": 15804,
    "Ġesc": 2249,
    "Ġfaculties": 14956,
    "Ġpleasantly": 14519,
    "Ġentertainment": 12219,
    "Ġkin": 15900,
    "Ġhue": 8428,
    "Ġsqualid": 14367,
    "inc": 2522,
    "Ġparticular": 2450,
    "Ġlieu": 19561,
    "Ġhelper": 24022,
    "assemblies": 25955,
    "uously": 7353,
    "Ġcontains": 2794,
    "Ġmarvels": 11085,
    "iration": 4540,
    "Ġreporting": 24656,
    "rene": 5379,
    "Ġsmitten": 12898,
    "likewise": 13103,
    "Ġphys": 5653,
    "Ġassurances": 10000,
    "Ġdeclared": 5595,
    "Ġstraighten": 24000,
    "Ġtrap": 7672,
    "insanity": 23064,
    "greg": 6647,
    "dance": 17517,
    "ucumber": 19056,
    "Ġconfound": 23301,
    "visitors": 13346,
    "Ġpeels": 22687,
    "Ġknown": 1642,
    "corrupt": 14893,
    "Ġhark": 8427,
    "Ġpierced": 12278,
    "Ġumb": 11645,
    "Ġegg": 8818,
    "unting": 21870,
    "Ġscratching": 20366,
    "Ġhospit": 7515,
    "Ġunmanner": 22023,
    "Ġmischief": 8541,
    "value": 18806,
    "Ġblo": 2735,
    "ez": 5683,
    "Ġvoc": 4450,
    "Ġ85": 24459,
    "Ġcautious": 12250,
    "whence": 23212,
    "Ġgentlemen": 3641,
    "Ġreproached": 24890,
    "Ġcomplying": 18583,
    "aming": 5828,
    "every": 2813,
    "Ġexample": 5095,
    "Ġunparalleled": 15850,
    "Ġstory": 2901,
    "vib": 21113,
    "Ġscraping": 13414,
    "Ġconfeder": 25707,
    "Ġconfession": 11236,
    "Ġspas": 10923,
    "Ġaunts": 21198,
    "Ġhall": 4186,
    "Ġvindict": 13603,
    "Ġanticipating": 17057,
    "Ġdubious": 17381,
    "intended": 11067,
    "Ġdictating": 20149,
    "fowl": 17547,
    "Ġveil": 7933,
    "Ġunexpectedly": 19906,
    "milk": 20474,
    "Ġshipmate": 8928,
    "Ġrickety": 26505,
    "Ġbelly": 10370,
    "jumped": 20245,
    "Ġcomplacency": 19444,
    "Ġsufferings": 7514,
    "Ġbulls": 23855,
    "Ġpoetic": 17101,
    "Ġmoody": 8200,
    "many": 5249,
    "Ġnovel": 6695,
    "Ġsciences": 15941,
    "vius": 23539,
    "Ġplaintiffs": 13607,
    "Ġkidn": 20204,
    "ann": 5802,
    "Ġgreek": 10632,
    "Ġnonsensical": 21525,
    "Ġlegit": 16470,
    "Ġsummons": 13229,
    "Ġthinks": 6169,
    "Ġdissipate": 13631,
    "Ġtokens": 1773,
    "ective": 18172,
    "Ġbaptized": 25773,
    "Ġbehalf": 14510,
    "Ġsplintered": 11419,
    "fel": 8733,
    "from": 1993,
    "Ġoblong": 14319,
    "Ġdot": 4819,
    "Ġof": 298,
    "irection": 2391,
    "Ġbefitting": 15722,
    "Ġrapidity": 11101,
    "retrie": 18920,
    "tisement": 6767,
    "Ġfund": 2845,
    "seen": 2881,
    "ĠâĢľ_": 6696,
    "Ġpace": 9182,
    "acid": 10995,
    "Ġyoung": 1505,
    "Ġ235": 25712,
    "Ġ/*": 10140,
    "eded": 9674,
    "persuasion": 20040,
    "fil": 12459,
    "Ġenthusiasm": 8064,
    "impressions": 20696,
    "Ġcomplied": 14732,
    "Ġtut": 8769,
    "Ġramadans": 25118,
    "pane": 10121,
    "Ġpiping": 23223,
    "representing": 25270,
    "union": 15766,
    "une": 2786,
    "Ġ166": 25003,
    "por": 2150,
    "Ĩ": 233,
    "Ġexasperate": 20094,
    "Ġminister": 18749,
    "lot": 3210,
    "wind": 4254,
    "road": 6677,
    "lins": 2027,
    "apology": 22330,
    "Ġdarkness": 4279,
    "Ġspeech": 4610,
    "Ġspouts": 7729,
    "Ġintending": 11702,
    "illity": 18294,
    "lorn": 12484,
    "Ġamused": 11796,
    "Ġembattled": 26287,
    "disappointed": 25190,
    "Ġimmutable": 17356,
    "plainly": 11092,
    "Ġexpans": 18618,
    "Ġdespair": 4010,
    "Ġindelicacy": 25694,
    "Ġcautiousness": 19863,
    "Ġscreening": 25299,
    "Ġroots": 11186,
    "Ġparac": 12791,
    "umbered": 22113,
    "÷": 184,
    "Ġgrapnels": 25550,
    "Ġcreeping": 18683,
    "hard": 4689,
    "walls": 25344,
    "Ġdyspeps": 16458,
    "5": 25,
    "Ġaverse": 11081,
    "conducted": 25571,
    "transp": 24511,
    "Ġother": 756,
    "storied": 18022,
    "Ġpledge": 11599,
    "Ġadroit": 25999,
    "Ġshared": 10264,
    "small": 6472,
    "Ġisland": 4049,
    "Ġauthent": 14507,
    "ent": 305,
    "Ġmechanism": 2286,
    "riving": 21922,
    "Ġlord": 2963,
    "Ġbury": 12038,
    "wall": 10137,
    "Ġdiscoursing": 26265,
    "Ġfamilies": 8026,
    "Ġdimly": 9488,
    "ing": 273,
    "wol": 21120,
    "Ġinject": 2713,
    "anch": 15556,
    "Ġsu": 433,
    "Ġpolitics": 19221,
    "furn": 10092,
    "Ġmeal": 9697,
    "Ġimprudent": 12844,
    "plague": 21955,
    "Ġthereof": 22364,
    "Ġweighty": 16027,
    "Ġchicha": 15932,
    "tiest": 21079,
    "Ġcharity": 8862,
    "Ġgifts": 21608,
    "paralleled": 14509,
    "Ġsurmount": 19997,
    "Ġproduct": 3534,
    "Ġblanc": 11066,
    "odecim": 9832,
    "Ġidentifies": 12012,
    "Ġflatter": 9348,
    "soft": 12506,
    "discovery": 12014,
    "Ġwhoa": 22418,
    "Ġencounters": 19577,
    "<MASK>": 4,
    "Ġformed": 3882,
    "Ġlacepede": 20492,
    "Ġattack": 5478,
    "Ġgradual": 20599,
    "Ġimprobable": 9793,
    "Ġcarriage": 3950,
    "rodden": 21531,
    "doms": 20833,
    "Ġsanguine": 25927,
    "Ġprofuse": 23565,
    "Ġliberated": 19663,
    "slipped": 25528,
    "Ġcarted": 21346,
    "Ġmoderation": 12814,
    "Ġdinnertime": 16717,
    "Ġdepl": 14044,
    "backward": 2684,
    "Ġpip": 1611,
    "Ġcalf": 16264,
    "Ġdamn": 11159,
    "Ġuncomp": 15838,
    "Ġdesires": 9456,
    "aly": 1119,
    "Ġcoleridge": 18762,
    "Ġdisconcerted": 18560,
    "Ġgovern": 10451,
    "ution": 4350,
    "hastily": 19699,
    "consult": 24168,
    "Ġexamined": 6334,
    "Ġascent": 19615,
    "linging": 16077,
    "Ġblocked": 19219,
    "contact": 23725,
    "Ġtinged": 20079,
    "Ġhookah": 16968,
    "supplied": 10520,
    "inguished": 6598,
    "moral": 14800,
    "Ġdummy": 25448,
    "Ġeasiest": 23535,
    "Ġreported": 11977,
    "Ġcorpus": 13028,
    "Ġbounded": 16624,
    "Ġmelt": 21316,
    "Ġvaluable": 5608,
    "Ġboldness": 24427,
    "Ġhandspikes": 12934,
    "impatiently": 20468,
    "ĠâĢľâĢĶ": 9734,
    "Ġrot": 10968,
    "Ġgetting": 4066,
    "Ġbracelets": 25501,
    "Ġhuggins": 24827,
    "umbrance": 22114,
    "Ġinfants": 16360,
    "Ġbarbs": 10532,
    "Åĵuvre": 25886,
    "Ġoverwhelmed": 11404,
    "Ġtallest": 15472,
    "Ġtex": 15470,
    "Ġastonishing": 10502,
    "owner": 18608,
    "Ġundu": 15834,
    "Ġdangers": 12351,
    "poky": 17642,
    "method": 17283,
    "Ġarmed": 9260,
    "Ġfug": 12591,
    "Ġcigaret": 16974,
    "ni": 1653,
    "Ġwell": 900,
    "Ġnigh": 4877,
    "fluke": 25203,
    "thousand": 5547,
    "Ġ156": 20169,
    "177": 20750,
    "Ġaffecting": 2323,
    "Ġdeser": 3885,
    "Ġwindigate": 18908,
    "ortion": 11754,
    "speaks": 19716,
    "Ġindepend": 3669,
    "Ġsavesoul": 26226,
    "Ġtil": 12520,
    "Ġornaments": 17179,
    ":--âĢľ": 24549,
    "ope": 4126,
    "Ġdevotees": 25375,
    "offended": 16392,
    "scorched": 25696,
    "Ġillinois": 19134,
    "Ġtakes": 5006,
    "Ġpossessing": 16573,
    "ĠĠĠĠĠĠĠĠĠĠĠĠĠĠĠĠĠĠĠĠĠĠĠĠĠĠĠĠĠĠĠĠ": 2739,
    "Ġpouring": 12620,
    "regarding": 15069,
    "Ġoversampling": 20513,
    "paying": 25410,
    "Ġbridge": 8348,
    "ologies": 18777,
    "blunder": 24129,
    "Ġgrat": 4057,
    "Ġaccuse": 14210,
    "Ġcordiality": 24394,
    "Ġimbalanced": 18331,
    "Ġextras": 22717,
    "Ġunhappily": 18260,
    "Ġcommunications": 16351,
    "Ġobtained": 7432,
    "Ġexacted": 23605,
    "Ġappetites": 20205,
    "Ġtossings": 25355,
    "Ġlory": 12648,
    "inctions": 17730,
    "Ġclimes": 12836,
    "Ġplates": 11007,
    "vigorous": 25916,
    "foolish": 12344,
    "Ġdelivered": 11116,
    "Ġterr": 3275,
    "Ġcrony": 23438,
    "Ġthackeray": 26454,
    "ofs": 11827,
    "investigations": 25532,
    "Ġconflict": 17272,
    "Ġtepid": 26411,
    "nour": 20986,
    "Ġpur": 2215,
    "Ġegyptians": 25288,
    "mccarthy": 15393,
    "Ġfront": 3451,
    "Ġoutrage": 15954,
    "Ġtrusting": 24104,
    "Ġaids": 12225,
    "Ġlay": 584,
    "Ġchest": 5184,
    "Ġgenial": 12191,
    "Ġimpetuous": 25569,
    "physiogn": 26263,
    "ceiling": 21623,
    "Ġmant": 9648,
    "Ġsettlement": 19833,
    "Ġpurport": 14580,
    "Ġhogarth": 25779,
    "Ġunworth": 22030,
    "Ġleaking": 21726,
    "Ġsmallest": 6430,
    "Ġorthodox": 22091,
    "partiality": 13158,
    "Ġpatches": 4239,
    "Ġaccordance": 19494,
    "Ġindividuality": 14907,
    "ior": 2040,
    "Ġmortar": 19389,
    "Ġdarting": 7756,
    "Ġguid": 2640,
    "ential": 825,
    "Ġby": 383,
    "pe": 1436,
    "glue": 17554,
    "Ġprophets": 20448,
    "tails": 21084,
    "Ġfedallah": 6108,
    "Ġfanny": 23388,
    "Ġbrick": 8925,
    "Ġwhir": 6393,
    "Ġinconvenient": 20006,
    "hee": 10761,
    "Ġriotous": 20542,
    "Ġprotruded": 19466,
    "ogne": 12936,
    "Ġaccord": 4025,
    "swells": 26147,
    "Ġsally": 15500,
    "Ġlaugh": 4115,
    "Ġunseen": 3524,
    "Ġthrew": 3973,
    "Ġballarat": 14717,
    "Ġpaus": 4301,
    "ried": 926,
    "Ġblankets": 24610,
    "larking": 17592,
    "Ġwhispers": 14698,
    "effectually": 25127,
    "smiles": 14691,
    "Ġturbulence": 26596,
    "este": 15914,
    "Ġxxx": 7766,
    "Ġstrife": 18612,
    "suitableness": 26259,
    "Ġevolve": 3002,
    "Ġstability": 1363,
    "Ġ128": 24472,
    "Ġpupils": 20418,
    "garity": 17552,
    "rr": 17648,
    "Ġclosed": 4604,
    "Ġsystematically": 4026,
    "Ġsearching": 13160,
    "Ġchatting": 24746,
    "Ġovercome": 6043,
    "Ġtrees": 4204,
    "Ġlee": 4224,
    "Ġslipping": 13358,
    "Ġostentatiously": 20466,
    "display": 19152,
    "Ġhammered": 13237,
    "Ġpsychology": 11449,
    "possibility": 13359,
    "Ġsuppress": 13016,
    "conduct": 11794,
    "Ġnaval": 16897,
    "Ġbrute": 8926,
    "Ġnieces": 8432,
    "Ġconsciousness": 9948,
    "Ġincrust": 22547,
    "Ġlat": 5086,
    "Ľ": 254,
    "sloop": 26144,
    "lesson": 22769,
    "Ġconsummation": 17423,
    "Ġtist": 21160,
    "Ġlandlady": 10423,
    "swe": 5995,
    "majesty": 26279,
    "Ġhollows": 19738,
    "Ġther": 17776,
    "shr": 10981,
    "Ġdu": 4584,
    "remem": 13063,
    "ctic": 8441,
    "evident": 25519,
    "hopeless": 16915,
    "orses": 6051,
    "Ġyojo": 7611,
    "Ġbeth": 9658,
    "Ġtophet": 23572,
    "Ġemperors": 15157,
    "Ġseat": 4948,
    "Ġviolation": 23403,
    "Ġintrepid": 11703,
    "ives": 1409,
    "Ġmove": 5106,
    "cracy": 24689,
    "Ġintervened": 25480,
    "agged": 9236,
    "Ġmel": 4815,
    "Ġcries": 7155,
    "Ġslacked": 25187,
    "Ġderivatives": 2372,
    "Ġedinburgh": 16433,
    "Ġtouches": 20568,
    "Ġprovoked": 13323,
    "istics": 1630,
    "Ġconfining": 23303,
    "rooms": 10433,
    "Ġmother": 2067,
    "swaying": 25909,
    "ration": 2006,
    "Ġwhiff": 21714,
    "flitted": 23965,
    "Ġfebruary": 15909,
    "Ġantique": 19548,
    "Ġaffright": 9332,
    "Ġexquis": 9699,
    "Ġire": 12663,
    "Ġjune": 10289,
    "Ġkeels": 11062,
    "Ġintensely": 17015,
    "whel": 7665,
    "Ġsuspicious": 9480,
    "Ġvoids": 25806,
    "Ġlittle": 866,
    "Ġincreasing": 8247,
    "Ġlurid": 19678,
    "Ġisle": 8832,
    "aken": 1868,
    "ships": 5486,
    "Ġdissuade": 26255,
    "Ġdepths": 4328,
    "Ġrenewal": 12231,
    "Ġbaffled": 12400,
    "Ġadopted": 15176,
    "elze": 21569,
    "Ġcivilly": 19600,
    "vision": 5620,
    "scho": 8759,
    "Ġturkish": 12258,
    "Ġgrandeur": 8627,
    "Ġproperties": 3117,
    "Ġcunning": 6238,
    "leman": 21365,
    "principal": 20658,
    "ayed": 12708,
    "Ġprem": 3426,
    "Ġlone": 11612,
    "han": 12469,
    "sufferable": 12173,
    "rim": 7138,
    "Ġresolutely": 14608,
    "desp": 6075,
    "Ġbacked": 12920,
    "Ġstead": 5650,
    "Ġon": 352,
    "Ġobservation": 6597,
    "Ġdisquiet": 18550,
    "itous": 13865,
    "inquire": 16930,
    "Ġsquatted": 25840,
    "arranged": 19316,
    "Ġcreate": 2090,
    "Ġgestic": 21604,
    "mits": 13754,
    "splinter": 25209,
    "deliver": 19501,
    "Ġprofound": 5497,
    "Ġai": 3127,
    "Ġscenery": 11457,
    "Ġfelix": 4847,
    "Ġstarvation": 19788,
    "ris": 9137,
    "Ġmatrim": 11061,
    "Ġcomposing": 16066,
    "Ġpurchased": 12257,
    "disp": 7976,
    "fier": 9594,
    "Ġeasterly": 25961,
    "Ġhorsham": 10407,
    "Ġspreading": 13376,
    "iliation": 10861,
    "Ġain": 6969,
    "Ġintimacy": 8700,
    "Ġsparks": 22128,
    "Ġbore": 5078,
    "Ġphilosophical": 26333,
    "glanced": 19362,
    "stre": 5451,
    "Ġcrocodile": 20738,
    "Ġnegro": 6447,
    "Ġmortified": 14693,
    "Ġsquare": 2399,
    "Ġviolin": 16425,
    "ople": 2318,
    "Ġpermit": 9749,
    "Ġcivilities": 14846,
    "Ġmunro": 25629,
    "silly": 24421,
    "magn": 10611,
    "Ġdeeps": 16103,
    "stealthily": 23958,
    "purposes": 25020,
    "Ġtrampling": 25491,
    "otence": 14021,
    "nobody": 16135,
    "Ġforesight": 13125,
    "Ġcontroverted": 23248,
    "Ġexpost": 18620,
    "otherwise": 7671,
    "Ġjura": 14191,
    "Ġoutside": 5554,
    "Ġluxuriant": 20392,
    "Ġdeclaring": 19416,
    "Ġboats": 2639,
    "achine": 600,
    "Ġdressed": 5080,
    "Ġsoc": 3525,
    "ument": 5239,
    "data": 2305,
    "Ġenthr": 22739,
    "Ġbefallen": 12340,
    "attest": 23115,
    "Ġshudderings": 25199,
    "Ġcrackling": 24957,
    "ellent": 3761,
    "young": 7321,
    "georgiana": 26019,
    "Ġexclusion": 19392,
    "ohnson": 16322,
    "trimmed": 23945,
    "Ġinnovative": 1637,
    "Ġgi": 15662,
    "Ġbumpkins": 25280,
    "atical": 10772,
    "subst": 12161,
    "apply": 18757,
    "inders": 15976,
    "Ġviciously": 24403,
    "Ġxerxes": 23408,
    "ence": 394,
    "Ġgriefs": 16769,
    "Ġtroublesome": 23998,
    "Ġremarks": 7475,
    "Ġdouble": 4939,
    "Ġresides": 22536,
    "iless": 10282,
    "Ġinhospit": 25451,
    "Ġobscure": 9554,
    "Ġvariation": 22661,
    "husband": 8041,
    "paradise": 20634,
    "mind": 4626,
    "e": 73,
    "took": 6164,
    "Ġcaw": 13881,
    "Ġrepulses": 26069,
    "Ġscheming": 23267,
    "scar": 9816,
    "Ġsave": 4052,
    "Ġtraces": 7945,
    "Ġassid": 18942,
    "Ġmarred": 23030,
    "Ġyellowish": 24429,
    "Ġbrix": 12579,
    "beyond": 8882,
    "Ġmalignant": 14876,
    "deed": 1517,
    "Ġendeavouring": 8034,
    "Ġnest": 10189,
    "Ġshamefully": 24715,
    "irious": 15782,
    "Ġgeese": 7694,
    "Ġdefiance": 11069,
    "Ġproportion": 7281,
    "Ġcheetah": 14503,
    "Ġpracticable": 19054,
    "ut": 308,
    "fixed": 7549,
    "ign": 1704,
    "fat": 8078,
    "Ġutility": 23512,
    "Ġbrains": 2632,
    "Ġdinner": 4246,
    "Ġattitudes": 16095,
    "Ġlads": 8596,
    "Ġcreativity": 3068,
    "Ġmachinations": 25766,
    "before": 3113,
    "Ġemblem": 20495,
    "Ġmitt": 21305,
    "Ġpractised": 23324,
    "Ġstaircase": 20092,
    "Ġcock": 11001,
    "Ġgramm": 8170,
    "game": 11491,
    "geneva": 13728,
    "Ġcabaco": 13165,
    "necess": 4895,
    "ura": 1057,
    "Ġunmingled": 18261,
    "'": 11,
    "jury": 15371,
    "Ġtestified": 16323,
    "Ġestimated": 16592,
    "tee": 16169,
    "Ġtemporarily": 11168,
    "Ġtout": 17717,
    "secur": 18124,
    "whis": 7897,
    "commod": 16166,
    "housekeeping": 24101,
    "Ġsavi": 18323,
    "Ġadmeasurements": 26224,
    "Ġbor": 5804,
    "Ġclink": 22340,
    "ilies": 18054,
    "Ġbrief": 6976,
    "Ġassert": 7121,
    "Ġutilize": 4797,
    "Ġsights": 7473,
    "Ġsole": 3299,
    "wam": 10136,
    "Ġreads": 23108,
    "resol": 17758,
    "vest": 6230,
    "Ġfarther": 5954,
    "historian": 25734,
    "Ġdisposed": 7084,
    "Ġwherever": 8523,
    "umpled": 15872,
    "iffs": 9021,
    "cocks": 23560,
    "Ġwe": 388,
    "ire": 494,
    "married": 9949,
    "Ġnumer": 3637,
    "Ġposs": 1617,
    "Ġmoth": 17800,
    "Ġaccomplished": 7105,
    "deal": 12795,
    "Ġtreat": 3177,
    "tier": 12511,
    "Ġmainly": 22651,
    "Ġodious": 12147,
    "Ġmeddling": 24080,
    "Ġplead": 14453,
    "Ġprofession": 6207,
    "anter": 9166,
    "incredible": 16497,
    "Ġchambermaid": 24303,
    "Ġsuns": 23271,
    "Ġmuseum": 15269,
    "Ġfettered": 24567,
    "conscience": 14858,
    "Ġslide": 10394,
    "Ġeyeing": 6460,
    "Ġhood": 10824,
    "Ġserene": 8166,
    "Ġuncles": 23428,
    "Ġfates": 15574,
    "fetch": 12461,
    "Ġgallons": 14816,
    "Ġstuck": 9222,
    "Ġsan": 7824,
    "Ġvertically": 19376,
    "proposal": 18752,
    "lleg": 20949,
    "Ġbreach": 11971,
    "mped": 16645,
    "Ġconscience": 6929,
    "Ġopulence": 23629,
    "Ġbellies": 13353,
    "Ġjohnson": 18407,
    "Ġholland": 10366,
    "disciple": 16776,
    "paddington": 20475,
    "Ġgreenhorn": 23765,
    "sir": 5000,
    "Ġfin": 1459,
    "pute": 8844,
    "Ġmungo": 25630,
    "Ġchurned": 18383,
    "Ġcounties": 23300,
    "embow": 21927,
    "Ġstroke": 6936,
    "Ġambitious": 18511,
    "ved": 870,
    "Ġroad": 3879,
    "voc": 8393,
    "Ġserving": 14484,
    "interested": 9506,
    "oura": 1059,
    "Ġwants": 5742,
    "aste": 4601,
    "ient": 393,
    "Ġreleased": 2978,
    "impregnable": 26480,
    "Ġaccent": 10294,
    "Ġdoctors": 12148,
    "iew": 2448,
    "Ġadversarial": 5607,
    "below": 12118,
    "soul": 9140,
    "unciation": 25981,
    "Ġwarsaw": 26166,
    "Ġtimber": 13347,
    "Ġmultipl": 2792,
    "covered": 11478,
    "Ġchisel": 20365,
    "ulity": 10887,
    "Ġlifts": 25357,
    "olera": 21829,
    "Ġspecimen": 13015,
    "sworn": 24255,
    "along": 6012,
    "Ġexercised": 24802,
    "trem": 17679,
    "Ġoccurs": 1856,
    "eu": 17528,
    "activation": 3233,
    "pag": 11510,
    "Ġamounts": 6704,
    "third": 8167,
    "cles": 8725,
    "Ġexceptions": 13227,
    "Ö": 151,
    "Ġprovid": 1010,
    "Ġoccurred": 4461,
    "burned": 25078,
    "Ġtuck": 10141,
    "Ġhissing": 15786,
    "Ġbanish": 15566,
    "lust": 15377,
    "Ġpropag": 16343,
    "unk": 4539,
    "Ġune": 4598,
    "off": 1886,
    "Ġassizes": 11110,
    "Ġblemish": 19676,
    "caves": 20814,
    "scotland": 20525,
    "ites": 3896,
    "philosop": 9568,
    "Ġdrought": 19275,
    "Ġpossession": 5589,
    "ercial": 21272,
    "Ġapparently": 6778,
    "),": 1347,
    "icions": 21559,
    "min": 4571,
    "Ġplants": 22594,
    "Ġniece": 5712,
    "Ġ9": 5900,
    "Ġrequ": 824,
    "variance": 2656,
    "Ġaboard": 6697,
    "Ġyelled": 9694,
    "Ġoverpow": 14205,
    "minutes": 7513,
    "Ġheaving": 7601,
    "matters": 14872,
    "Ġimpending": 22380,
    "Ġconfid": 7687,
    "Ġstreet": 2955,
    "Ġbenefits": 4289,
    "Ġtruest": 16701,
    "Ġgasfitters": 25037,
    "U": 57,
    "broker": 13302,
    "Î": 143,
    "Ġlandsman": 11351,
    "Ġblossom": 26311,
    "intelligence": 5882,
    "whose": 6852,
    "ill": 447,
    "Ġeat": 4643,
    "Ġcompass": 4408,
    "attentive": 17188,
    "Ġchaise": 9076,
    "Ġparty": 3511,
    "etch": 9204,
    "Ġasserted": 16947,
    "Ġpunctil": 20110,
    "Ġelaborate": 18634,
    "pool": 16204,
    "Ġimperfectly": 25726,
    "Ġproduce": 4367,
    "professional": 20274,
    "Ġmiscellaneous": 17460,
    "Ġbower": 15563,
    "some": 2232,
    "stirred": 20422,
    "Ġhearses": 20056,
    "Ġheeded": 13401,
    "Ġunquestion": 18246,
    "unaffected": 21879,
    "Ġlocked": 6034,
    "chorus": 19808,
    "wolf": 26408,
    "Ġunusually": 15843,
    "Ġsprings": 16685,
    "Ġv": 399,
    "Ġsqueaking": 26273,
    "Ġadvance": 5484,
    "Ġcath": 17824,
    "Ġ8": 5433,
    "Ġepicures": 25879,
    "Ġrash": 10899,
    "irts": 9237,
    "Ġbrack": 23832,
    "hatherley": 17566,
    "oves": 15401,
    "Ġappropri": 2225,
    "Ġ3": 3985,
    "Ġcrab": 13142,
    "Ġsolar": 22881,
    "Ġenraged": 10245,
    "Ġfret": 10807,
    "³": 116,
    "repeat": 25150,
    "diligence": 26109,
    "Ġexhibition": 14955,
    "Ġboomer": 20166,
    "replied": 11565,
    "Ġdate": 7841,
    "Ġsigning": 22704,
    "ushing": 5730,
    "Ġrepented": 23359,
    "mus": 10111,
    "moid": 2451,
    "Ġtravels": 11924,
    "Ġapprised": 18361,
    "Ġprejudices": 13467,
    "educ": 10829,
    "Ġthr": 5709,
    "ccess": 3185,
    "greeting": 24553,
    "mouth": 9130,
    "Ġincommunicable": 26610,
    "Ġstops": 3167,
    "Ġtar": 2565,
    "Ġbalanced": 12985,
    "Ġclung": 10957,
    "presbyter": 20615,
    "Ġomnipotent": 13546,
    "Ġhurtling": 24956,
    "Ġprecip": 7075,
    "derness": 11735,
    "Ġkuiperai": 10936,
    "Ġevaluation": 16545,
    "ction": 505,
    "Ġparamount": 15874,
    "Ġguiltless": 16938,
    "Ġminers": 22827,
    "Ġfog": 9662,
    "glit": 23847,
    "gazed": 15359,
    "Ġexotic": 21827,
    "Ġchain": 1844,
    "vate": 21107,
    "Ġhydraul": 9514,
    "record": 16919,
    "mature": 20965,
    "Ġholmes": 1310,
    "bu": 5131,
    "Ġcontained": 7679,
    "Ġremonstrance": 20620,
    "conversation": 7123,
    "Ġflickering": 23010,
    "Ġnearly": 3363,
    "laws": 19804,
    "Ġwilling": 7421,
    "Ġkilled": 4954,
    "Ġthrown": 4639,
    "espe": 3500,
    "Ġrespecting": 14482,
    "Ġemble": 13969,
    "Ġsuperflu": 14554,
    "Ġturnpike": 23024,
    "Ġcoal": 18588,
    "ort": 520,
    "Ġabominable": 12319,
    "n": 82,
    "Ġsocietal": 11437,
    "Ġbrightly": 13221,
    "Ġcovariate": 2350,
    "Ġill": 2189,
    "Ġclerval": 4653,
    "obtain": 23089,
    "Ġnavies": 16898,
    "dying": 10695,
    "Ġopal": 23627,
    "Ġvapor": 8699,
    "tables": 19754,
    "Ġdrowsy": 26443,
    "crat": 24096,
    "compassion": 12365,
    "icide": 11617,
    "Ġlashes": 17964,
    "Ġcam": 10162,
    "etting": 21576,
    "finished": 10555,
    "halloa": 17088,
    "Ġunt": 2293,
    "Ġfifteen": 6947,
    "ė": 216,
    "Ġnew": 1196,
    "Ġbite": 10798,
    "Ġowe": 8114,
    "Ġensuing": 12306,
    "Ġunerring": 15844,
    "Ġrecounted": 22741,
    "Ġexciting": 23309,
    "Ġriv": 10747,
    "Ġconscientious": 16725,
    "ornament": 23485,
    "angered": 16174,
    "Ġemb": 1264,
    "Ġspine": 7407,
    "led": 582,
    "gue": 12464,
    "velope": 17699,
    "Ġcanes": 22160,
    "osis": 18387,
    "Ġpikes": 21474,
    "diff": 9113,
    "Ġright": 1503,
    "$": 8,
    "Ġ75": 19609,
    "Ď": 207,
    "Ġbod": 4581,
    "anke": 15557,
    "gor": 544,
    "air": 1006,
    "Ġinte": 2065,
    "Ġdecanter": 22435,
    "Ġworshippers": 25692,
    "Ġstowed": 21735,
    "Ġmatted": 22907,
    "gratification": 24347,
    "Ġfeather": 8859,
    "Ġutterance": 14762,
    "passion": 11260,
    "furniture": 20241,
    "Ġdecapitated": 20613,
    "Ġtrade": 2548,
    "omitted": 18014,
    "Ġsoapstone": 20508,
    "arb": 1563,
    "andes": 18149,
    "Ġerrand": 11086,
    "inspector": 13644,
    "ollen": 11299,
    "Ġfelony": 18949,
    "atlantic": 15521,
    "Ġrecovering": 11861,
    "trained": 4241,
    "Ġper": 587,
    "Ġtones": 8399,
    "Ġhoky": 17924,
    "Ġadequate": 20307,
    "Ġhermits": 22070,
    "Ġexcitement": 9381,
    "Ġhowling": 8509,
    "Ġgoverned": 23570,
    "Ġhieroglyphic": 25586,
    "Ġcatastrop": 3348,
    "Ġcreator": 7255,
    "Ġval": 967,
    "nar": 12490,
    "Ġeffusion": 22513,
    "Ġarticle": 9502,
    "Ġaug": 6234,
    "Ġwidest": 24233,
    "Ġdirest": 22703,
    "Ġsubjected": 23571,
    "Ġ1820": 25717,
    "Ġerecting": 24651,
    "Ġripe": 13232,
    "Ġdiscretion": 10348,
    "bons": 17484,
    "Ġdedu": 5585,
    "Ġflap": 14420,
    "Ġtechnically": 12363,
    "Ġ117": 19694,
    "Ġreserves": 19667,
    "Ġtom": 15629,
    "mangled": 20979,
    "tubes": 25210,
    "Ġmeanness": 22592,
    "Ġsplin": 8618,
    "icate": 9201,
    "ner": 1371,
    "ourse": 8869,
    "ĠlinnÃ¦us": 15273,
    "Ġdesigned": 7740,
    "Ġfunction": 593,
    "Ġunlike": 7005,
    "Ġcapsizing": 20085,
    "Ġenvironment": 4103,
    "pped": 2000,
    "language": 5128,
    "Ġmurdered": 6464,
    "Ġsy": 490,
    "Ġdevelopments": 23252,
    "Ġconstantinople": 19834,
    "ame": 644,
    "Ġcarpenter": 4684,
    "Ġcontinual": 6777,
    "Ġsauntering": 18325,
    "abash": 18105,
    "Ġleaps": 14000,
    "Ġdeclines": 23959,
    "ole": 9614,
    "Ġnash": 5819,
    "aurs": 20767,
    "lic": 17585,
    "Ġgrudge": 20691,
    "Ġupdate": 2464,
    "embarr": 15795,
    "speak": 5504,
    "Ġstir": 5825,
    "Ġperseus": 10604,
    "Ġsane": 21219,
    "Ġtrotting": 19972,
    "Ġcooked": 13266,
    "foundation": 16712,
    "affold": 16560,
    "hertfordshire": 10937,
    "Ġpaunch": 23746,
    "Ġreplying": 19578,
    "dutch": 17217,
    "starbuck": 6018,
    "Ġtantamount": 25624,
    "isons": 17847,
    "versed": 9825,
    "Ġlady": 1586,
    "Ġelixir": 26554,
    "angular": 11719,
    "Ġmag": 1429,
    "uncommonly": 25548,
    "pipe": 8696,
    "zag": 17711,
    "Ġwhip": 8451,
    "ounced": 4953,
    "recognised": 15260,
    "Ġdard": 21419,
    "ingham": 21298,
    "Ġwalker": 23307,
    "Ġhump": 5853,
    "Ġscandal": 9081,
    "Ġsymptoms": 8704,
    "Ġcontrivance": 17182,
    "Ġsen": 9156,
    "Ġfugitives": 25633,
    "_": 67,
    "earthquakes": 24724,
    "Ġsociety": 3977,
    "lac": 17587,
    "âĢĿâĢĶ": 5721,
    "stones": 11635,
    "Ġchurch": 4710,
    "Ġheavier": 13099,
    "Ġartfully": 22603,
    "law": 6115,
    "Ġstill": 1154,
    "Ġabstracted": 17181,
    "Ġhours": 2821,
    "Ġbinding": 20416,
[...]
