{
  "metadata": {
    "vocab_size": 26614,
    "algorithm": "BPE",
    "created_at": "2026-05-05 04:59:56",
    "special_tokens": [
      "<PAD>",
      "<SOS>",
      "<EOS>",
      "<UNK>",
      "<MASK>"
    ]
  },
  "vocab": {
    "Ġdecomposes": 5506,
    "<EOS>": 2,
    "Ġbarbarous": 13475,
    "Ġburst": 4382,
    "Ġlevels": 12693,
    "Ġperseverance": 13596,
    "Ġsof": 18280,
    "ence": 393,
    "Ġlub": 15646,
    "Ġseek": 4509,
    "Ġlawless": 19433,
    "Ġmodified": 14166,
    "Ġpathetic": 19042,
    "clay": 18930,
    "Ġwaving": 8584,
    "Ġirre": 7468,
    "Ġmr": 660,
    "Ġflatter": 9347,
    "ript": 4154,
    "Ġclout": 22353,
    "ctions": 950,
    "Ġpsych": 10176,
    "Ġlately": 6387,
    "400": 20754,
    "Ġbountiful": 25944,
    "Ġcauldron": 25441,
    "Ġprojects": 9510,
    "convolutional": 4958,
    "Ġtriumph": 5143,
    "iment": 2817,
    "whence": 23210,
    "Ġparadigms": 3053,
    "Ġlatitudes": 9495,
    "property": 19998,
    "honey": 20904,
    "Ġcircular": 13109,
    "biqu": 17497,
    "Ġportrait": 10661,
    "Ġmister": 22749,
    "Ġtasselled": 25921,
    "Ġidol": 7467,
    "forbearance": 22792,
    "ruin": 22183,
    "Ġheadache": 22894,
    "fro": 8732,
    "sive": 4145,
    "Ġbeast": 7179,
    "Ġeye": 2281,
    "Ġpartners": 11851,
    "Ġpresumption": 10545,
    "cont": 2920,
    "occasionally": 13520,
    "Ġbanking": 19629,
    "Ġbarred": 9002,
    "Ġexpiration": 22622,
    "Ġscholars": 26112,
    "ĉ": 202,
    "Ġemblematical": 25788,
    "Ġfailed": 6671,
    "Ġcruel": 5121,
    "cele": 21622,
    "Ġwondrous": 4735,
    "althy": 8431,
    "Ġpausing": 8652,
    "Ġstolen": 14007,
    "idious": 11661,
    "Ġinstruments": 12221,
    "Ġann": 4490,
    "Ġobsequ": 14319,
    "acher": 6868,
    "Ġmons": 10156,
    "Ġrus": 14091,
    "Ġferocious": 17418,
    "unvarying": 21889,
    "Ġopera": 23424,
    "Ġpaddock": 25037,
    "freely": 16854,
    "Ġantelope": 24180,
    "moment": 3579,
    "Ġgentleman": 3036,
    "Ġacted": 7422,
    "Ġtheore": 1828,
    "icting": 12850,
    "Ġsoda": 25534,
    "Ġrace": 5847,
    "Ġabraham": 18395,
    "Ġunfortunate": 5376,
    "Ġperiods": 13302,
    "Ġannihilated": 20251,
    "Ĭ": 237,
    "Ġhat": 2774,
    "Ġbathed": 17865,
    "Ġfetched": 24567,
    "Ġbeholding": 8668,
    "lantic": 6363,
    "plied": 10254,
    "Ġmou": 13854,
    "Ġlowers": 23239,
    "eur": 7545,
    "fights": 20864,
    "record": 16921,
    "opening": 10313,
    "walk": 5523,
    "falsehood": 25901,
    "mmed": 7913,
    "Ġwednesday": 9024,
    "Ġwail": 21285,
    "partiality": 13159,
    "Ġcoronet": 6344,
    "harm": 13734,
    "Ġmeth": 1421,
    "Ġstrength": 4261,
    "hered": 5623,
    "Ġincl": 4272,
    "Ġjobs": 24832,
    "Ġimmaculate": 19484,
    "Ġforth": 3465,
    "elect": 20845,
    "lips": 13749,
    "Ġvoices": 7875,
    "Ġindefinitely": 25221,
    "reement": 15510,
    "Ġerad": 25028,
    "Ġperils": 6273,
    "Ġsubmission": 22787,
    "Ġmarchant": 14785,
    "summit": 23415,
    "however": 4375,
    "pay": 10718,
    "Ġdiscre": 2413,
    "operations": 19973,
    "Ġilluminated": 20174,
    "strang": 11183,
    "utch": 21583,
    "Ġsplashing": 16549,
    "Ġsemicircular": 26069,
    "stay": 9680,
    "Ġjen": 9266,
    "Ġimputation": 22165,
    "Ġindians": 14408,
    "Ġvice": 6548,
    "Ġbab": 5289,
    "Ġblurred": 22928,
    "rank": 21040,
    "Ġunheard": 22022,
    "lleg": 20950,
    "appro": 7044,
    "hens": 3938,
    "Ġinquiry": 6484,
    "Ġtra": 1382,
    "Ġnile": 21518,
    "either": 6791,
    "erring": 11056,
    "ricted": 15419,
    "Ġeverybody": 4511,
    "rimin": 2421,
    "neglect": 25667,
    "Ġworlds": 11945,
    "shadow": 20313,
    "entions": 17974,
    "Ġmeridians": 17355,
    "Ġpalaces": 24089,
    "Ġbass": 17855,
    "Ġfreezing": 23881,
    "Ġfifty": 4624,
    "Ġrepast": 16408,
    "Ġmodesty": 12814,
    "atum": 21258,
    "Ġberyls": 25775,
    "access": 11180,
    "paper": 9136,
    "Ġcosy": 13129,
    "Ġtransf": 22458,
    "Ġsymb": 2592,
    "Ġrecoil": 18692,
    "Ġendow": 23140,
    "Ġambergris": 8705,
    "Ġspasmod": 12412,
    "Ġnarrower": 24354,
    "dismal": 23495,
    "unlike": 18156,
    "ok": 574,
    "Ġdreaded": 8288,
    "Ĥ": 229,
    "sford": 5997,
    "familiar": 19782,
    "Ġnarratives": 24353,
    "hers": 7635,
    "Ġsaint": 15506,
    "Ġpagans": 16922,
    "counter": 20277,
    "æ": 167,
    "milk": 20475,
    "Ġlargely": 14284,
    "Ġdramat": 23212,
    "Ġbreckinridge": 14521,
    "Ġmeridian": 25714,
    "Ġdishonor": 25601,
    "vineyard": 25421,
    "rece": 21233,
    "Ġprovide": 7749,
    "Ġintroduction": 8970,
    "resist": 8275,
    "ility": 623,
    "usiveness": 22290,
    "Ġcurve": 22965,
    "thyself": 19296,
    "kye": 20937,
    "Ġpersecut": 16952,
    "V": 58,
    "ex": 624,
    "entieth": 17978,
    "little": 3352,
    "ps": 4574,
    "settled": 10506,
    "Ġevinced": 7100,
    "ã": 164,
    "inian": 21181,
    "Ġelder": 7223,
    "âĢĶâĢĻâĢĿ": 20062,
    "Ġfrequencies": 4789,
    "Ġstepfather": 7221,
    "Ġid": 1907,
    "wheel": 22869,
    "Ġsoutherly": 23330,
    "backed": 9865,
    "mock": 5174,
    "Ġfancying": 12110,
    "Ġedged": 23435,
    "gledy": 25403,
    "chest": 11208,
    "Ġpervading": 20612,
    "Ġcaptivating": 26049,
    "Ġslave": 7454,
    "Ġnuts": 17951,
    "Ġconcre": 16388,
    "Ġintervals": 5598,
    "Ġcoff": 3508,
    "Ġolder": 9326,
    "lections": 4752,
    "ascertaining": 26460,
    "splash": 25209,
    "Ġwaved": 9644,
    "ggy": 13112,
    "Ġmembrane": 20502,
    "Ġleaps": 14001,
    "Ġhide": 4589,
    "Ġbetrayed": 9561,
    "Ġdreaminess": 23937,
    "Ġcrippled": 25278,
    "Ġshouting": 10522,
    "Ġflow": 1236,
    "Ġrnns": 2392,
    "Ġadjacent": 20710,
    ".âĢĻâĢĿ": 6739,
    "Ġwithin": 2162,
    "springs": 24911,
    "Ġfat": 3464,
    "Ġwantonly": 22890,
    "Ġsafie": 6617,
    "Ġastronomy": 25926,
    "Ġbecame": 2693,
    "Ġincom": 9768,
    "Ġeats": 15674,
    "Ġoffices": 14337,
    "Ġthine": 7374,
    "inions": 8401,
    "brim": 23574,
    "eye": 6224,
    "fluttering": 23970,
    "Ġglades": 19370,
    "Ġaudience": 24769,
    "Ġpattering": 18633,
    "Ġenderby": 13650,
    "separated": 20158,
    "stealthily": 23959,
    "alid": 13934,
    "Ġintercepted": 25826,
    "scho": 8759,
    "Ġfreely": 7056,
    "amped": 12031,
    "Ġfloated": 7288,
    "Ġnote": 4265,
    "Ġhuff": 21487,
    "uteronomy": 15661,
    "Ġapparel": 20434,
    "Ġchinks": 22248,
    "ceptive": 15960,
    "Ġmounting": 19975,
    "hunted": 16832,
    "Ġdespondency": 16577,
    "searching": 25103,
    "contrivance": 26316,
    "unction": 10234,
    "Ġneedn": 19227,
    "Ġcapabilities": 4379,
    "Ġabandoned": 8351,
    "ured": 1653,
    "patched": 17643,
    "musket": 25341,
    "Ġmurmur": 14589,
    "Ġsymbol": 7716,
    "secut": 7866,
    "ighb": 10423,
    "Ġaspired": 25982,
    "Ġfreshly": 23985,
    "stolen": 13981,
    "Ġaccustomed": 6861,
    "Ġcoiling": 12902,
    "ackinaw": 22422,
    "rippling": 24714,
    "Ġcommanded": 6330,
    "completed": 19992,
    "seventy": 10876,
    "Ġanalogy": 25639,
    "Ġflaw": 23009,
    "seen": 2882,
    "Ġnaught": 8127,
    "----âĢĿ": 13305,
    "Ġheartfelt": 18967,
    "Ġmajority": 13291,
    "Ġevil": 3808,
    "folly": 20861,
    "absolutely": 10645,
    "inte": 5144,
    "Ġdies": 11593,
    "Ġobserver": 11987,
    "Ġrapidity": 11103,
    "arb": 1563,
    "Ġtaller": 16688,
    "Ġmoves": 14231,
    "%": 9,
    "Ġphrases": 2799,
    "Ġori": 8408,
    "Ġcogent": 14273,
    "Ġblow": 3375,
    "gentleman": 7518,
    "xter": 9146,
    "Ġponies": 21473,
    "Ġdiff": 3114,
    "mar": 4338,
    "Ġlastly": 16204,
    "Ġunjust": 8483,
    "Ġcasting": 12098,
    "trad": 21075,
    "Ġcumbrous": 26432,
    "Ġwonderful": 4563,
    "Ġpublisher": 24063,
    "gn": 8081,
    "Ġburton": 23651,
    "sure": 5522,
    "Ġfabric": 25947,
    "mody": 16182,
    "Ġfortitude": 9884,
    "ras": 21035,
    "Ġbar": 3146,
    "Ġcoals": 16071,
    "Ġstrategy": 2431,
    "Ġslaught": 23166,
    "analysis": 26173,
    "formation": 22212,
    "ples": 6845,
    "Ġadmiral": 17304,
    "Ġaccumulating": 2723,
    "Ġspermacetti": 19051,
    "Ġvill": 3880,
    "Ġmccarthys": 19661,
    "masts": 19423,
    "enorm": 17781,
    "ene": 2167,
    "Ġwaterloo": 11979,
    "Ġmeek": 21809,
    "skylight": 25623,
    "iding": 3849,
    "reinforcement": 7826,
    "allowing": 24358,
    "Ġmunro": 25630,
    "Ġrepulsive": 14529,
    "Ġjoyfully": 19344,
    "rifled": 21046,
    "ane": 1174,
    "ug": 1766,
    "Ġenlarged": 25985,
    "Ġcrouching": 23442,
    "Ġcogn": 11003,
    "regularly": 13205,
    "Ġdiabol": 11453,
    "additional": 20462,
    "Ġworthy": 7241,
    "Ġcreates": 2007,
    "Ġmisanthropic": 26560,
    "Ġupheld": 22149,
    "Ġporing": 21464,
    "wrong": 13203,
    "Ġlatitude": 8328,
    "Ġdaunt": 19663,
    "Ġforbade": 15213,
    "quent": 2095,
    "prosperity": 20734,
    "Ġsettle": 6293,
    "Ġdiscoverers": 26036,
    "eh": 13709,
    "quietude": 24655,
    "Ġasleep": 6836,
    "reached": 13840,
    "Ġlips": 3993,
    "penn": 18826,
    "Ġostent": 13583,
    "Ġinfl": 6892,
    "Ġbrig": 11046,
    "Ġofficers": 4427,
    "Ġmachines": 1775,
    "icular": 2022,
    "Ġinputs": 842,
    "score": 18855,
    "Ġblasts": 19994,
    "Ġembatt": 18858,
    "Ġflock": 21409,
    "Ġabreast": 18394,
    "Ġpunish": 12157,
    "Ġslaughtered": 26584,
    "Ġunconnected": 18242,
    "scand": 18854,
    "Ġfragmentary": 25856,
    "Ġunceasing": 20356,
    "thickness": 25367,
    "mary": 8748,
    "Ġsummers": 23871,
    "Ġcomes": 3423,
    "Ġenveloped": 12206,
    "usages": 22287,
    "peaceful": 20445,
    "Ġsevent": 18202,
    "Ġboun": 21378,
    "ment": 695,
    "Ġancestry": 25641,
    "inces": 13827,
    "Ġcontentment": 14869,
    "influ": 9540,
    "Ġlitter": 19828,
    "sprang": 19989,
    "âĢĻ": 378,
    "Ġmaimed": 21315,
    "venth": 9294,
    "Ġpaid": 5015,
    "Ġsurrounds": 24231,
    "iction": 4270,
    "Ġnovels": 15927,
    "Ġbecomes": 6396,
    "Ġcomprehended": 11294,
    "Ġmodest": 15912,
    "Ġmiz": 10777,
    "gay": 11488,
    "Ġassisted": 11110,
    "Ġcrony": 23439,
    "Ġfocused": 16340,
    "Ġpen": 1530,
    "chester": 23804,
    "Ġspect": 3552,
    "Ġfurnishing": 16645,
    "Ġmarriage": 3185,
    "Ġeulogy": 26471,
    "pine": 13768,
    "Ġsecrets": 9054,
    "acter": 2507,
    "Ġsubdued": 11030,
    "Ġoxford": 11371,
    "ead": 2600,
    "Ġsurplus": 26303,
    "Ġunerringly": 18265,
    "Ġmeal": 9696,
    "hom": 12471,
    "Ġcentrally": 23828,
    "Ġinstantly": 3592,
    "ization": 486,
    "carpet": 25202,
    "clean": 14760,
    "Ġbeginning": 4244,
    "boast": 23250,
    "Ġindiscriminately": 20626,
    "violets": 23543,
    "appalling": 22840,
    "Ġlexicon": 25973,
    "Ġpilgrim": 25599,
    "Ġguineas": 16268,
    "Ġaud": 6661,
    "ner": 1370,
    "Ġstung": 21739,
    "Ġunprepared": 22047,
    "Ġplaster": 16082,
    "Ġbulge": 23855,
    "Ġsound": 2239,
    "axing": 18547,
    "ority": 8417,
    "Ġescaped": 6459,
    "wild": 8766,
    "Ġ130": 24781,
    "fing": 13712,
    "ichever": 13956,
    "irresistible": 18173,
    "lim": 9606,
    "Ġflames": 7939,
    "Ġdestroyed": 5271,
    "Ġchests": 19670,
    "mod": 1049,
    "eliest": 14746,
    "Ġarabic": 24978,
    "Ġpregnant": 26535,
    "Ġaids": 12226,
    "ivided": 22083,
    "awing": 18915,
    "Ġdeputation": 21835,
    "claims": 25319,
    "emone": 21924,
    "Ġconnivance": 25225,
    "Ġve": 1107,
    "bull": 13689,
    "Ġgushed": 21604,
    "Ġsheepfold": 25466,
    "Ġquaker": 10971,
    "Ġbritish": 11337,
    "homely": 25617,
    "Ġgrenadier": 21613,
    "Ġtalked": 4422,
    "germans": 20564,
    "Ġcomprise": 18585,
    "Ġincapable": 7423,
    "Ġmorbid": 16236,
    "transform": 8049,
    "Ġextant": 18690,
    "cceed": 4144,
    "Ġthreat": 5154,
    "favourable": 12261,
    "Ġnarrowed": 24355,
    "Ġlain": 17961,
    "Ġcandelabra": 26602,
    "Ġdependent": 14289,
    "Ġsea": 1206,
    "natural": 2275,
    "Ġswung": 6449,
    "Ġfair": 2838,
    "Ġnind": 17949,
    "Ġwarsaw": 26167,
    "Ġproving": 15749,
    "Ġcollege": 11424,
    "Ġenigmatical": 20596,
    "Ġcorridor": 10671,
    "Ġevening": 2653,
    "Ġroyals": 19531,
    "isco": 12578,
    "Ġagonising": 25373,
    "engineer": 23145,
    "tum": 11531,
    "cring": 20810,
    "with": 1297,
    "Ġblunder": 18818,
    "Ġpanted": 21469,
    "Ġsubstituting": 26326,
    "Ġtreating": 4285,
    "Ġtrial": 6634,
    "atical": 10771,
    "wed": 5003,
    "eteenth": 20156,
    "readers": 23844,
    "Ġanticipatingly": 26102,
    "Ġdoubt": 2221,
    "ralian": 19599,
    "oup": 2012,
    "ondescript": 22911,
    "Ġsubmerged": 11870,
    "Ġglimmer": 15140,
    "Ġapparition": 8066,
    "Ġdusk": 12325,
    "Ġaccordance": 19496,
    "Ġlassitude": 20585,
    "Ġclum": 8872,
    "Ġscrolled": 22281,
    "guessed": 25872,
    "nearer": 22442,
    "Ġrelu": 1044,
    "Ġraises": 11843,
    "constable": 24605,
    "Ġinsignific": 13179,
    "concerning": 9067,
    "Ġoath": 7833,
    "fthand": 26386,
    "Ġgrow": 2861,
    "Ġstingy": 25455,
    "hering": 12811,
    "aguy": 21907,
    "suspicious": 25390,
    "charlotte": 6473,
    "aged": 2607,
    "ful": 666,
    "Ù": 154,
    "going": 6313,
    "Ġover": 553,
    "whose": 6852,
    "Ġwhispers": 14699,
    "Ġparameter": 870,
    "allied": 7410,
    "abroad": 18108,
    "Ġstubbornness": 25380,
    "Ġrecess": 10847,
    "Ġincredulous": 9986,
    "Ġconcernment": 23643,
    "consolation": 15151,
    "Ġharpoone": 2911,
    "Ġprint": 18969,
    "anse": 12572,
    "Ġplaus": 22599,
    "Ġeliza": 6437,
    "Ġowes": 20083,
    "Ġphysiognomical": 25611,
    "Ġvishnoo": 12750,
    "Ġgang": 9207,
    "Ġsuns": 23271,
    "Ġakin": 15494,
    "Ġassembl": 20059,
    "Ġgipsies": 12406,
    "Ġexhilarating": 26337,
    "Ġauthentic": 20533,
    "Ġtheories": 13848,
    "Ġpovels": 22590,
    "reader": 23843,
    "mor": 4215,
    "Ġcause": 2407,
    "Ġcasked": 24497,
    "oglyph": 11016,
    "bordered": 17498,
    "dirty": 20833,
    "reck": 9636,
    "Ġabased": 22265,
    "ige": 12676,
    "usable": 22286,
    "Ġrecklessness": 24745,
    "Ġmechanism": 2443,
    "Ġclubbed": 26547,
    "reach": 17757,
    "assertion": 22309,
    "evident": 25520,
    "Ġproper": 1377,
    "Ġscience": 1553,
    "Ġsire": 15500,
    "Ġvisual": 5741,
    "Ġtrunks": 15968,
    "Ġyarman": 12702,
    "Ġstature": 10863,
    "horrors": 20540,
    "Ġenters": 11025,
    "Ġcheck": 7271,
    "Ġhighway": 14347,
    "carbuncle": 26382,
    "Ġestim": 3348,
    "Ġhorrors": 10479,
    "Ġpriv": 4184,
    "Ġfatally": 19392,
    "Ġlifeless": 8948,
    "Ġvertebra": 20180,
    "then": 2052,
    "Ġquakers": 22413,
    "my": 1317,
    "espe": 3500,
    "Ġmermaids": 26170,
    "Ġslumbering": 25701,
    "Ġdedu": 5585,
    "Ġsheer": 14150,
    "throne": 25657,
    "Ġmamma": 10047,
    "mers": 9610,
    "Ġbrilliancy": 20105,
    "Ġstructure": 853,
    "Ġwherever": 8523,
    "Ġencourage": 10380,
    "Ġoccur": 1086,
    "Ġhauling": 14086,
    "fem": 17537,
    "Ġaccumulates": 2891,
    "Ġexclude": 19039,
    "neck": 14233,
    "Ġloved": 4599,
    "Ġdecapitated": 20614,
    "substance": 15230,
    "Ġvelvets": 25393,
    "Ġsauc": 15888,
    "Ġminima": 3466,
    "Ġtener": 21162,
    "Ġtraversed": 18891,
    "Ġsho": 2242,
    "Ġblasphemy": 26115,
    "_)âĢĶ": 20143,
    "Ġcombinations": 22852,
    "makes": 10711,
    "Ġwhispered": 5337,
    "patient": 25342,
    "Ġupdates": 1300,
    "Ġunharmed": 15138,
    "mis": 4521,
    "Ġdepart": 4657,
    "Ġexultation": 15170,
    "Ġattended": 5391,
    "Ġsucking": 12782,
    "onist": 21249,
    "brandy": 19199,
    "drowned": 17368,
    "Ġhardy": 8565,
    "Ġeverything": 3153,
    "....": 11316,
    "Ġbloodthirsty": 26601,
    "Ġconvey": 9980,
    "Ġparliament": 18302,
    "lun": 20945,
    "ipper": 13739,
    "Ġinflu": 4907,
    "Ġfeat": 10937,
    "Ġgladness": 16591,
    "pursue": 24973,
    "vess": 7354,
    "vand": 21107,
    "hib": 15366,
    "Ġdamned": 13130,
    "Ġspas": 10922,
    "Ġwestward": 24389,
    "Ġven": 4648,
    "Ġinn": 4590,
    "impenet": 18053,
    "ues": 2080,
    "tains": 10960,
    "Ġsucked": 14130,
    "principal": 20659,
    "lp": 897,
    "Ġsuspending": 19242,
    "larger": 24202,
    "Ġvic": 5237,
    "Ġvegetables": 15220,
    "esu": 17918,
    "Ġdiscussing": 5202,
    "amore": 21840,
    "revol": 12537,
    "Ġunfeeling": 14118,
    "Ġbarbaric": 10013,
    "Ġenvironments": 24157,
    "Ġshouts": 19536,
    "Ġsundial": 15081,
    "Ġutmost": 5496,
    "Ġcheering": 11133,
    "antic": 1605,
    "oso": 12828,
    "clearer": 24066,
    "questioning": 16850,
    "Ġitalian": 12408,
    "Ġharm": 5017,
    "arp": 2026,
    "Ġsurviving": 24637,
    "baggage": 24926,
    "Ġchinese": 14181,
    "incing": 15484,
    "Ġfortune": 4240,
    "apprehens": 17405,
    "Ġdispelling": 23878,
    "ariously": 18529,
    "neat": 22440,
    "Ġphyset": 23197,
    "Ġevian": 24292,
    "Ġbeing": 1161,
    "Ġexagger": 12716,
    "iation": 7343,
    "acious": 5563,
    "ways": 1440,
    "Ġexcept": 3311,
    "spring": 7231,
    "Ġsim": 732,
    "Ġvillains": 14749,
    "iting": 2156,
    "âĢĶâĢľ_": 13201,
    "Ġflor": 8561,
    "Ġallures": 22003,
    "--âĢĺ": 22843,
    "Ġcongratulate": 9063,
    "Ġinexper": 16980,
    "Ġvalu": 5039,
    "Ġrequested": 14313,
    "Ġcandle": 8291,
    "/(": 2979,
    "Ġcle": 1509,
    "Ġdetestable": 15097,
    "Ġtrying": 4838,
    "Ġdefiance": 11068,
    "mies": 20967,
    "Ġemploys": 19429,
    "Ġmuteness": 19415,
    "Ġrepugnant": 26590,
    "Ġtent": 15466,
    "Ġstaircase": 20094,
    "Ġrepentance": 15159,
    "eel": 11483,
    "Ġintricacies": 15137,
    "withdrawn": 23024,
    "Ġhull": 5446,
    "strange": 6086,
    "Ġstudent": 14478,
    "Ġelijah": 9099,
    "Ġrepositories": 23360,
    "Ġpeddling": 24799,
    "progra": 9393,
    "card": 11475,
    "Ġdiving": 12603,
    "Ġbread": 5404,
    "assault": 22304,
    "situation": 11437,
    "Ġver": 3394,
    "ommod": 13976,
    "Ġdictate": 20150,
    "Ġvacancies": 24345,
    "trunk": 23945,
    "Ġenvelope": 7319,
    "Ġluxur": 12339,
    "Ġforeheads": 23447,
    "Ġvillagers": 19472,
    "Ġant": 4348,
    "Ġinjury": 10540,
    "promontory": 24728,
    "another": 5439,
    "Ġpainfully": 13141,
    "steel": 8298,
    "Ġhamp": 12627,
    "racted": 4776,
    "Ġsp": 457,
    "Ġrestrict": 16371,
    "Ġsteadfast": 8678,
    "staring": 18020,
    "slept": 17169,
    "Ġbir": 17853,
    "Ġinterlude": 16068,
    "stranger": 9882,
    "Ġwar": 5526,
    "Ġoriginate": 24120,
    "nuee": 17429,
    "Ġeducation": 5128,
    "tomb": 21092,
    "Ġrecollect": 8309,
    "ckles": 22090,
    "cture": 15662,
    "Ġsafe": 5103,
    "arks": 2845,
    "Ġascertaining": 17203,
    "iteness": 4394,
    "Ġlogits": 3453,
    "placidity": 25988,
    "landish": 11940,
    "Ġhinge": 25541,
    "Ġcorroboration": 26052,
    "Ġremains": 4908,
    "Ġthoughtful": 16190,
    "americ": 8155,
    "alth": 3255,
    "Ġcousin": 3707,
    "phur": 16149,
    "highly": 24764,
    "Ġspeak": 2227,
    "rrh": 26144,
    "Ġgown": 10201,
    "Ġimp": 573,
    "Ġxxxix": 24968,
    "Ġbackward": 7654,
    "Ġresol": 2667,
    "Ġhunch": 18934,
    "Ġemig": 14523,
    "vult": 21112,
    "ses": 3022,
    "Ġcondu": 18109,
    "Ġfeared": 5930,
    "Ġmemory": 2274,
    "Ġtire": 17720,
    "declaration": 25175,
    "relapse": 24014,
    "Ġselects": 4387,
    "Ġrefers": 1564,
    "bable": 8718,
    "links": 20957,
    "Ġwelfare": 12556,
    "establish": 17392,
    "presum": 12865,
    "Ġfab": 15573,
    "uary": 11537,
    "ouncing": 8494,
    "def": 1451,
    "Ġmention": 2983,
    "Ġconfidently": 24955,
    "Ġchall": 10944,
    "Ġnapoleons": 25885,
    "Ġchicha": 15934,
    "Ġclimax": 25052,
    "pretending": 17041,
    "Ġincompatible": 25680,
    "Ġpoltro": 23618,
    "Ġqualities": 7533,
    "Ġbidirectional": 3758,
    "avast": 8889,
    "Ġwrites": 23195,
    "Ġdownstream": 3777,
    "Ġduplicates": 17216,
    "infer": 10144,
    "Ġcar": 1415,
    "Ġencode": 4367,
    "Ġfascinating": 17327,
    "Ġrussian": 14349,
    "macy": 18800,
    "Ġload": 14145,
    "understanding": 1227,
    "Ġinwards": 15618,
    "Ġeveryday": 22771,
    "extraordinary": 9094,
    "hecy": 21205,
    "Ġcrane": 23438,
    "Ġdeny": 7488,
    "Ġappeals": 16313,
    "square": 15059,
    "ĵ": 246,
    "¤": 102,
    "completely": 12418,
    "served": 5043,
    "Ġjournal": 15217,
    "Ġacres": 14311,
    "Ġjourneys": 19473,
    "Ġagency": 11804,
    "Ġstretch": 6993,
    "Ġexciting": 23307,
    "Ġdeser": 3889,
    "hamlet": 23260,
    "Ġhollows": 19740,
    ":âĢĶâĢĺ": 24193,
    "motion": 17606,
    "Ġordin": 16650,
    "Ġopportunity": 4786,
    "Ġprofession": 6207,
    "forbid": 14350,
    "ositions": 10282,
    "Ġuser": 15913,
    "Ġhusband": 3619,
    "Ġlooks": 4167,
    "Ġmot": 2982,
    "Ġ131": 24782,
    "depend": 9112,
    "Ġaustralia": 15231,
    "warrior": 24798,
    "death": 6261,
    "Ġexamples": 2605,
    "Ġconduct": 3736,
    "Ġcourting": 23287,
    "Ġvideos": 13605,
    "Ġfashion": 4299,
    "Ġlandowner": 23377,
    "Ġshifting": 12765,
    "Ġlabyrinth": 13678,
    "Ġusing": 714,
    "Ġvexation": 10586,
    "urance": 10857,
    "Ġtorment": 8673,
    "Ġnotions": 14098,
    "somerset": 26322,
    "Ġrest": 1780,
    "aisance": 15073,
    "Ġpremises": 10487,
    "bury": 9106,
    "atlantic": 15522,
    "Ġxxi": 24476,
    "Ġburglar": 17354,
    "Ġprivately": 19522,
    "sight": 5994,
    "Ġcomputations": 15997,
    "(_": 7540,
    "dist": 4481,
    "estion": 18363,
    "Ġdefault": 3034,
    "Ġbasic": 24701,
    "ounix": 14163,
    "pled": 7891,
    "Ġarrived": 3749,
    "Ġcomplete": 4384,
    "Ġdisliked": 12888,
    "Ġshores": 8847,
    "Ġasking": 5651,
    "Ġroasted": 18458,
    "Ġsecured": 6745,
    "etency": 21579,
    "Ġwrithed": 17106,
    "Ġexcl": 3476,
    "Ġreap": 18026,
    "Ġcredulous": 17144,
    "Ġsustaining": 25333,
    "Ġthousands": 6748,
    "ellations": 21941,
    "certainly": 5339,
    "Ġpants": 21462,
    "deceit": 25556,
    "Ġvehemence": 26566,
    "Ġreasoner": 14438,
    "Ġsignificance": 13279,
    "ag": 377,
    "ding": 1228,
    "Ġsister": 1473,
    "Ġrelease": 19289,
    "Ġstarboard": 7607,
    "wonder": 6371,
    "Ġgaz": 4046,
    "Ġcuba": 25095,
    "softened": 20408,
    "iverer": 11714,
    "Ġcarn": 17821,
    "blasted": 20188,
    "Ġstrides": 22614,
    "Ġspoke": 2749,
    "Ġmyst": 4053,
    "Ġkentuckian": 26342,
    "Ġunlim": 18253,
    "quely": 10231,
    "igns": 8447,
    "Ġskilfully": 20522,
    "Ġquarrels": 16566,
    "dick": 11479,
    "Ġhedges": 19983,
    "Ġhypothe": 4076,
    "isance": 17847,
    "Ġbought": 8415,
    "Ġstabbing": 20302,
    "informed": 17736,
    "namely": 23670,
    "Ġintegr": 7968,
    "aloons": 20009,
    "plan": 15812,
    "Ġtiger": 11554,
    "Ġloggerhead": 13656,
    "Ġwarring": 16865,
    "Ġsensibility": 14513,
    "ioning": 21506,
    "tale": 10127,
    "Ġstrong": 1786,
    "Ġreverend": 15258,
    "Ġprizes": 13072,
    "spike": 16136,
    "Ġports": 10818,
    "Ġacquaint": 13041,
    "Ġmari": 6813,
    "shott": 11792,
    "Ġwalls": 6762,
    "Ġlur": 5226,
    "Ġrushing": 7403,
    "Ġnightgown": 23130,
    "puzzling": 26143,
    "duck": 22409,
    "activation": 3230,
    "Ġdict": 9176,
    "Ġfacet": 15582,
    "recollected": 25347,
    "lit": 9605,
    "P": 52,
    "Ġ199": 3006,
    "attended": 8952,
    "Ġclattered": 22359,
    "Ġunimag": 12772,
    "Ġperiodical": 14772,
    "Ġshrieked": 9547,
    "Ġlit": 6246,
    "jug": 17580,
    "mble": 1403,
    "Ġfri": 17878,
    "Ġarchangel": 8542,
    "Ġgradually": 3401,
    "Ġtoss": 10184,
    "Ġjustice": 5111,
    "Ġfairness": 9893,
    ").âĢĿ": 20740,
    "Ġinsignificance": 20456,
    "turned": 7306,
    ";âĢĿâĢĶ": 20759,
    "Ġfishermen": 5970,
    "Ġcontradict": 12383,
    "quest": 4538,
    "Ġarose": 7360,
    "Ġspoil": 17007,
    "determination": 19943,
    "Ġdescribed": 6606,
    "Ġessence": 13404,
    "bbings": 19275,
    "ve": 323,
    "avoiding": 25236,
    "Ġdistributed": 18660,
    "Ġgo": 613,
    "Ġsupplication": 25491,
    "Ġcomfortable": 6094,
    "Ġcompliance": 12112,
    "followed": 8338,
    "Ġhieroglyph": 11969,
    "Ġinscribed": 24938,
    "imental": 16533,
    "gging": 7696,
    "Ġdrags": 16941,
    "Ġhove": 17922,
    "Ġabhorred": 9507,
    "doc": 23372,
    "lucky": 24545,
    "Ġverify": 12085,
    "Ġbias": 1188,
    "/*": 10070,
    "veral": 2353,
    "spread": 8388,
    "looked": 6083,
    "Ġthrone": 12211,
    "cong": 10687,
    "Ġbeaut": 2391,
    "Ġmusic": 5268,
    "Ġsaville": 15889,
    "Ġheh": 21677,
    "Ġlonger": 3360,
    "Ġimmured": 24070,
    "Ġglo": 1714,
    "Ġfrancisco": 26064,
    "Ġgripping": 26186,
    "Ġworked": 6583,
    "Ġconcert": 11965,
    "loud": 11500,
    "Ġpace": 9182,
    "tures": 21068,
    "Ġcran": 11999,
    "Ġwhoever": 10973,
    "value": 18804,
    "Ġprotection": 9461,
    "make": 5793,
    "aintance": 3569,
    "hitherto": 17283,
    "volut": 1560,
    "Ġprior": 11318,
    "row": 1068,
    "Ġscorched": 17101,
    "Ġhis": 380,
    "Ġroofs": 16985,
    "Ġquit": 5246,
    "Ġresembling": 4099,
    "Ġvaults": 17153,
    "Ġfirmness": 11238,
    "Ġdist": 680,
    "itates": 13868,
    "Ġorbs": 22093,
    "mish": 17598,
    "Ġskylarking": 19485,
    "Ġdiscoursing": 26266,
    "Ġbewildered": 15212,
    "Ġshetland": 22156,
    "Ġhart": 17921,
    "Ġdevote": 10338,
    "bet": 6109,
    "inement": 11557,
    "Ġprophet": 7680,
    "Ġaveraging": 2416,
    "Ġrepented": 23358,
    "Ġemer": 5958,
    "Ġcorroborated": 26053,
    "seems": 10875,
    "speak": 5504,
    "Ġhost": 7068,
    "Ġrides": 21968,
    "Ġwindsor": 16887,
    "Ġsurpr": 2553,
    "inch": 10755,
    "Ġrightly": 13062,
    "Ġhagger": 21488,
    "ectual": 21912,
    "crum": 17511,
    "judged": 14830,
    "Ġpry": 11598,
    "Ġperceptible": 18452,
    "Ġsurtout": 23464,
    "explanations": 25234,
    "Ġoldest": 12970,
    "Ġlisten": 4674,
    "Ġblackest": 19098,
    "lled": 10107,
    "encoura": 15048,
    "ac": 740,
    "Ġmasked": 3697,
    "Ġstairs": 5541,
    "Ġthem": 639,
    "whether": 5319,
    "Ġrevisit": 21667,
    "build": 12185,
    "Ġdestroy": 5772,
    "Ġdrily": 23539,
    "Ġreproach": 9556,
    "Ġcarrying": 6071,
    "ravelled": 18014,
    "umbrance": 22115,
    "icant": 21559,
    "sicilian": 21062,
    "venge": 4659,
    "Ġelucidated": 26029,
    "Ġridge": 14818,
    "Ġdiscernment": 15067,
    "Ġgeneration": 2179,
    "Ġvap": 6837,
    "Ġgratified": 8021,
    "view": 5895,
    "Ġamusing": 11798,
    "them": 3015,
    "Ġpreserve": 7529,
    "Ġsanguinary": 25929,
    "pump": 21016,
    "Ġmajor": 13290,
    "gloom": 17139,
    "Ġwallow": 19464,
    "mult": 8747,
    "regards": 23465,
    "heim": 17746,
    "disappointment": 11425,
    "Ġforthwith": 16618,
    "izz": 7614,
    "Ġsubstit": 19539,
    "itical": 5801,
    "Ġlove": 2053,
    "Ġdeformity": 11674,
    "Ġ83": 24459,
    "sec": 6152,
    "idity": 8830,
    "Ġcombing": 22849,
    "mile": 17597,
    "Ġeastward": 13389,
    "Ġsuperfluous": 17413,
    "Ġfowls": 8690,
    "Ġunmannerly": 26517,
    "here": 2552,
    "Ġbuck": 7157,
    "ograph": 4797,
    "gravel": 22617,
    "Ġhistorical": 3646,
    "Ġbecome": 3156,
    "Ġpolite": 9881,
    "Ġderbyshire": 6586,
    "Ġwra": 5905,
    "atoes": 17775,
    "Ġdisposal": 19374,
    "Ġproced": 2581,
    "load": 12878,
    "Ġunspeak": 8850,
    "despairing": 25074,
    "Ġbehaviors": 13254,
    "Ġcrush": 9421,
    "Ġsharkish": 24506,
    "Ġfinger": 5273,
    "advent": 10220,
    "Ġintervened": 25481,
    "Ġelapsed": 7652,
    "Ġmisanthrop": 22753,
    "Ġsmall": 892,
    "ateness": 15518,
    "Ġwithstand": 10225,
    "umbria": 23928,
    "ription": 5676,
    "Ġnegro": 6447,
    "unteered": 26495,
    "Ġabide": 14187,
    "Ġstall": 12694,
    "paused": 17373,
    "fatality": 25019,
    "aration": 12597,
    "Ġsow": 17749,
    "diminished": 20838,
    "umblings": 23927,
    "Ġfeatureless": 22608,
    "lutions": 20949,
    "impressed": 12688,
    "Ġtendinous": 16931,
    "Ġhenry": 5197,
    "Ġpewter": 17185,
    "ions": 448,
    "Ġsurmise": 12293,
    "Ġguido": 2974,
    "Ġconce": 3422,
    "Ġchristendom": 16695,
    "Ġtrees": 4203,
    "Ġrejected": 12292,
    "Ġcured": 21345,
    "Ġoscillations": 2899,
    "Ġjoy": 3181,
    "Ġmilk": 6485,
    "wra": 11541,
    "Ġenumer": 12742,
    "Ġamph": 18510,
    "connection": 18867,
    "party": 8992,
    "cruet": 17026,
    "Ġlug": 15649,
    "Ġdents": 13911,
    "phology": 3005,
    "silence": 8044,
    "mont": 19168,
    "Ġprove": 5231,
    "resembled": 21245,
    "Ġsaws": 23046,
    "abern": 21787,
    "Ġpie": 13914,
    "Ġpoltroon": 26598,
    "Ġhisself": 21911,
    "Ġoutside": 5554,
    "unk": 4539,
    "Ġmyster": 5925,
    "Ġscandalous": 24879,
    "Ġhot": 4259,
    "gryphon": 15357,
    "Ġ1950": 11359,
    "sim": 6510,
    "wantonly": 25149,
    "masterly": 24530,
    "iac": 6225,
    "operation": 13500,
    "Ġmatter": 1734,
    "Ġhelmsman": 10504,
    "Ġfoe": 7679,
    "rence": 5555,
    "Ġallusions": 10906,
    "Ġheroism": 24544,
    "islands": 21374,
    "Ġferocity": 16866,
    "Ġforce": 5092,
    "sen": 21048,
    "Ġblew": 9045,
    "Ġgravel": 14101,
    "ever": 1080,
    "outre": 18320,
    "Ġmarbles": 18873,
    "Ġquohog": 10972,
    "Ġhated": 7584,
    "Ġmaketh": 15186,
    "Ġindisc": 16226,
    "Ġattract": 11830,
    "justice": 7957,
    "Ġscrut": 15943,
    "official": 24914,
    "Ġbigger": 19760,
    "Ġbulwarks": 5592,
    "Ġlack": 17963,
    "Ġappeal": 16312,
    "Ġbreeds": 23344,
    "Ġate": 8839,
    "utes": 5913,
    "Ġwasn": 6997,
    "Ġwounds": 17790,
    "evil": 11485,
    "ouched": 4637,
    "Ġmaelstrom": 19354,
    "Ġnewsp": 9338,
    "bitious": 16669,
    "Ġ127": 24472,
    "auley": 22620,
    "Ġcabaco": 13166,
    "flaming": 23967,
    "Ġrecurrent": 1804,
    "diligence": 26110,
    "otam": 21795,
    "pid": 1427,
    "ppered": 15788,
    "aver": 6785,
    "arial": 5532,
    "keys": 15856,
    "Ġobser": 2070,
    "Ġbeaufort": 13567,
    "Ġsquint": 22833,
    "haut": 20901,
    "Ġineffectual": 17383,
    "Ġ}": 21152,
    "Ġirritated": 17242,
    "Ġgener": 587,
    "Ġstretching": 10014,
    "Ġun": 423,
    "Ġpointing": 5661,
    "Ġpunctil": 20112,
    "caut": 20811,
    "Ġverd": 6919,
    "excited": 13379,
    "idol": 21763,
    "Ġrose": 3445,
    "Ġpositive": 2297,
    "!âĢĻ": 3331,
    "Ġinvestigations": 17246,
    "bedstead": 23847,
    "impe": 21705,
    "ocratic": 17245,
    "Ġneedless": 19228,
    "male": 15387,
    "big": 13684,
    "Ġhonoured": 9880,
    "Ġconsented": 11295,
    "========": 2311,
    "Ġunbending": 25464,
    "Ġstab": 10862,
    "Ġdisconsol": 18557,
    "thouse": 21979,
    "Ġadversarial": 5607,
    "Ġreadiness": 13047,
    "Ġdinnertime": 16719,
    "Ġamput": 16031,
    "Ġadvers": 4887,
    "Ġrecol": 4031,
    "Ġseemingly": 9317,
    "Ø": 153,
    "longing": 23724,
    "Ġsad": 3870,
    "Ġskiff": 16162,
    "Ġbordered": 24563,
    "Ġwarriors": 19722,
    "Ġdominic": 25381,
    "Ġexplicit": 3589,
    "ife": 1025,
    "Ġbaltic": 18793,
    "sust": 15421,
    "Ġbruited": 25773,
    "opportunity": 12272,
    "deliberated": 26118,
    "valley": 16212,
    "Ġsketches": 26270,
    "Ġimproving": 1208,
    "carefully": 13367,
    "J": 46,
    "fort": 1749,
    "instead": 14812,
    "Ġaccomplish": 14875,
    "Ġlanguor": 12845,
    "Ġpositional": 2598,
    "Ġreturning": 5325,
    "thus": 5158,
    "Ġfallen": 5967,
    "Ġadam": 2126,
    "never": 3150,
    "lid": 20944,
    "Ġadv": 1118,
    "Ġcircumnavigation": 20398,
    "Ġshaded": 14104,
    "Ġrand": 1584,
    "Ġnative": 4641,
    "companion": 9557,
    "Ġcanaan": 22161,
    "obliv": 23094,
    "ident": 3380,
    "instrument": 15237,
    "shudder": 26245,
    "Ġgift": 10840,
    "Ġmitigates": 3047,
    "Ġbeheld": 4493,
    "Ġlaborious": 13101,
    "Ġbordeaux": 24564,
    "Ġdexterously": 25295,
    "grave": 16092,
    "upt": 13797,
    "brated": 12025,
    "Ġframe": 1852,
    "Ġpeople": 2547,
    "accessible": 13638,
    "resolved": 9639,
    "trivial": 21091,
    "explanation": 12356,
    "Ġvigorous": 10566,
    "Ġmurder": 4282,
    "Ġimmediate": 6089,
    "lift": 15383,
    "Ġentries": 22742,
    "istered": 14144,
    "Ġst": 333,
    "leads": 21368,
    "temper": 10003,
    "heavily": 24534,
    "Ġnarrating": 24351,
    "Ġunscrew": 22037,
    "Ġsta": 18065,
    "Ġcens": 8412,
    "Ġdeceased": 15006,
    "Ġskies": 8920,
    "Ġaway": 1241,
    "ĠâĢľâĢĻ": 22253,
    "ipelagoes": 13670,
    "gradually": 12912,
    "Ġblankness": 24610,
    "Ġconsec": 21802,
    "Ġwinter": 5220,
    "Ġwid": 4633,
    "Ġundertaking": 8573,
    "âĢĶâĢľ": 2968,
    "scene": 14417,
    "vii": 13147,
    "anelles": 26434,
    "adru": 15728,
    "Ġporpoise": 7106,
    "bale": 20773,
    "sentence": 2938,
    "Ġquies": 18464,
    "Ġmag": 1428,
    "Ġjeer": 24122,
    "Ġcos": 2206,
    "hast": 5357,
    "Ġharpooneers": 4732,
    "anqu": 4112,
    "Ġvolume": 6769,
    "Ġwallowed": 24040,
    "constellation": 24607,
    "Ġbanners": 24858,
    "Ġbulkhead": 24511,
    "?âĢĻâĢĿ": 23641,
    "Ġsell": 7825,
    "Ġoccupant": 16651,
    "unguarded": 23665,
    "Ġdevouring": 11857,
    "Ġfunny": 7637,
    "Ġswallowed": 7943,
    "Ġeternal": 5975,
    "Ġpowers": 5419,
    "Ġfaithful": 9502,
    "surround": 16758,
    "Ġflitting": 13023,
    "Ġreco": 9788,
    "Ġshrieking": 24758,
    "melted": 25206,
    "process": 11148,
    "Ġmoderate": 10938,
    "Ġwreak": 16817,
    "prec": 3198,
    "imag": 6990,
    "Ġmartyr": 26360,
    "Ġanticipating": 17058,
    "Ġwallowing": 24041,
    "Ġoblige": 10488,
    "anged": 3588,
    "Ġclean": 5652,
    "ultaneously": 4194,
    "Ġuproar": 22152,
    "Ġinexhaustible": 16981,
    "erland": 9640,
    "knowing": 10437,
    "raise": 18011,
    "character": 6331,
    "relics": 24013,
    "emptied": 23634,
    "oc": 2835,
    "Ġnoisier": 4625,
    "bl": 4143,
    "clump": 23152,
    "Ġcarpenter": 4685,
    "Ġsporty": 19889,
    "Ġheeded": 13402,
    "ifers": 15779,
    "beloved": 19459,
    "Ġshake": 6033,
    "irc": 1730,
    "Ġsperm": 1842,
    "iloqu": 11647,
    "drifting": 19823,
    "Ġleagues": 9221,
    "Ġow": 8407,
    "Ġcalmer": 23041,
    "Ġlook": 880,
    "symp": 14608,
    "Ġmim": 3105,
    "Ġguarded": 9825,
    "const": 5938,
    "Ġpracticable": 19061,
    "isting": 5551,
    "erately": 21272,
    "methodically": 20663,
    "Ġhope": 1788,
    "Ġservox": 23868,
    "ipagos": 22352,
    "Ġcaptioning": 23019,
    "Ġchart": 10945,
    "Ġscre": 9736,
    "Ġpushed": 5909,
    "Ġpull": 5152,
    "Ġawkward": 7073,
    "Ġvillain": 8635,
    "Ġspices": 22127,
    "ruction": 4360,
    "Ġexcavating": 23310,
    "Ġsolved": 8931,
    "agne": 21902,
    "immediate": 20092,
    "Ġdraw": 3673,
    "is": 280,
    "rusted": 16506,
    "Ġtried": 3649,
    "una": 21871,
    "others": 7669,
    "rest": 1631,
    "Ġascendency": 20231,
    "Ġhugest": 17015,
    "icacy": 15655,
    "strip": 19829,
    "gale": 13723,
    "Ġunsub": 22020,
    "Ġflooded": 24959,
    "Ġmeas": 1099,
    "Ġdaboll": 25950,
    "comra": 16170,
    "balance": 12005,
    "doms": 20834,
    "Ġduring": 874,
    "acc": 2536,
    "Ġenvy": 13207,
    "eight": 9591,
    "Ġcompassion": 6487,
    "Ġbigness": 19759,
    "Ġhurrying": 11993,
    "Ġtranquilly": 12288,
    ";--": 8068,
    "Ġenthr": 22744,
    "_.": 2210,
    "Ġprosecuted": 25293,
    "Ġvoy": 2620,
    "Ġstate": 1810,
    "acies": 14277,
    "Ġevident": 6611,
    "succeed": 10328,
    "astrous": 15886,
    "whe": 1075,
    "Ġjealousy": 13575,
    "Ġorb": 22092,
    "Ġtwitch": 22672,
    "fright": 9595,
    "Ġbedrooms": 19968,
    "Ġanim": 2113,
    "Ġpawnbroker": 13657,
    "Ġchose": 7413,
    "Ġuplifted": 11646,
    "Ġswelling": 11923,
    "Ġsimilarity": 3165,
    "ishes": 6523,
    "Ġinfamous": 16362,
    "contrast": 25594,
    "ading": 5091,
    "ordinary": 4409,
    "blocks": 25517,
    "Ġliberated": 19665,
    "Ġdeliver": 9845,
    "Ġpacifics": 24373,
    "Ġoffensive": 18694,
    "Ġpudding": 17913,
    "Ġspurned": 12794,
    "flame": 16637,
    "Ġscandinav": 19959,
    "Ġwreath": 25936,
    "hatred": 24821,
    "Ġplatonian": 25118,
    "ire": 496,
    "pread": 7419,
    "bulkington": 19924,
    "Ġdisgra": 18549,
    "Ġcheating": 16364,
    "Ġsolicitude": 10039,
    "dashed": 12453,
    "Ġac": 844,
    "Ġraised": 4661,
    "Ġgreatest": 4094,
    "Ġcommunicate": 10577,
    "breadth": 20275,
    "Ġdragon": 14943,
    "Ġimaginations": 16515,
    "Ġdivineness": 25724,
    "nurs": 20998,
    "Ġinclemency": 22553,
    "Ġplaning": 22601,
    "jeroboam": 25619,
    "Ġfeedback": 23431,
    "rical": 11518,
    "Ġvillainous": 25131,
    "Ġdevotees": 25376,
    "Ġseason": 5238,
    "Ġassemblage": 26351,
    "wishes": 13806,
    "Ġagon": 10320,
    "âĢĶâĢĿ": 3299,
    "desired": 8956,
    "soup": 21057,
    "heedful": 20572,
    "Ġslender": 11938,
    "forgive": 18727,
    "Ġoccas": 2704,
    "Ġcategor": 4141,
    "africa": 26308,
    "Ġfulf": 6772,
    "Ġpatches": 4238,
    "Ġclanging": 18429,
    "Ġtorn": 5999,
    "ieves": 4006,
    "reflection": 13454,
    "beauty": 20102,
    "stories": 18023,
    "Ġpaunch": 23749,
    "Ġthereupon": 18434,
    "sche": 13016,
    "lead": 10165,
    "Ġtowed": 11265,
    "urry": 13992,
    "Ġpretty": 3863,
    "Ġblock": 2577,
    "Ġspatial": 2730,
    "Ġeyed": 12666,
    "dece": 11731,
    "meeting": 11019,
    "Ġevangelical": 25506,
    "Ġrising": 4358,
    "Ġtrappers": 23079,
    "Ġeuroc": 14958,
    "Ġ184": 16607,
    "conclusive": 25673,
    "Ġesquimaux": 25150,
    "boots": 11126,
    "Ġriots": 23890,
    "present": 1134,
    "Ġsuperstitions": 17072,
    "Ġfugitives": 25634,
    "ĠâĢĺ_": 11117,
    "Ġheadland": 22892,
    "declare": 25173,
    "Ġturtle": 4204,
    "Ġothers": 2584,
    "ersman": 11701,
    "Ġwidow": 8662,
    "Ġcall": 2075,
    "Ġdistrict": 10318,
    "neath": 12862,
    "Ġtwee": 22671,
    "Ġavoid": 5199,
    "Ġproxim": 3196,
    "ieties": 19025,
    "Ġnich": 21517,
    "Ġsailing": 5323,
    "Ġshipw": 12976,
    "Ġnovel": 6695,
    "Ġequivalent": 4802,
    "Ġparagra": 15877,
    "Ġsanctified": 25883,
    "r": 86,
    "Ġpillow": 10037,
    "Ġagrippa": 11805,
    "norm": 20984,
    "osoever": 17342,
    "Ġsul": 7570,
    "Ġdandy": 17895,
    "Ġmultitudinous": 26273,
    "imate": 4221,
    "Ġstreams": 12190,
    "Ġtort": 5901,
    "Ġpiece": 5367,
    "inople": 13828,
    "iless": 10281,
    "ibbald": 18840,
    "Ġlucases": 9009,
    "Ġresearch": 3349,
    "Ġmadame": 13149,
    "Ġpleasing": 6190,
    "_:": 17478,
    "entary": 21564,
    "Ġguar": 23043,
    "scheme": 15253,
    "Ġenrolled": 21934,
    "pressing": 19014,
    "deemed": 18315,
    "ere": 6789,
    "Ġdam": 2214,
    "Ġconfirmation": 17210,
    "Ġcontrary": 5260,
    "suppose": 8644,
    "Ġpush": 9183,
    "Ġbrace": 11211,
    "Ġlounged": 19952,
    "Ġanimating": 23422,
    "Ġreckon": 19869,
    "Ġfragments": 19019,
    "Ġholding": 4979,
    "lever": 2931,
    "Ġinhospit": 25452,
    "Ġlighten": 23257,
    "Ġshabby": 14110,
    "Ġfirm": 3873,
    "Ġturned": 2132,
    "devils": 20031,
    "vate": 21108,
    "Ġaffairs": 6877,
    "hears": 12530,
    "Ġjerking": 12243,
    "elly": 17979,
    "Ġthro": 5817,
    "whom": 8184,
    "Ġbutchers": 18272,
    "Ġhostile": 19938,
    "urious": 21700,
    "Ġfingers": 5672,
    "Ġproperties": 3117,
    "Ġderision": 16307,
    "Ġscorching": 20066,
    "Ġ52": 24321,
    "concent": 19478,
    "Ġopenly": 8572,
    "lin": 9603,
    "ivery": 17572,
    "Ġeternity": 12276,
    "Ġfootfalls": 25866,
    "Ġknowest": 12860,
    "Ġsparkling": 11356,
    "Ġdoubted": 7964,
    "Ġcontortions": 18476,
    "Ġseamen": 5063,
    "vocation": 25084,
    "loa": 18536,
    "Ġconsideration": 5191,
    "heavenly": 20043,
    "Ġlikened": 16499,
    "ividually": 22085,
    "iew": 2448,
    "irement": 18358,
    "Ġevangelists": 20338,
    "Ġhappens": 2188,
    "Ġcontributed": 16007,
    "Ġwasted": 9703,
    "Ġfathom": 17048,
    "tain": 558,
    "Ġcru": 2825,
    "acquaintance": 6938,
    "te": 994,
    "games": 20879,
    "Ġmystic": 7503,
    "besides": 8695,
    "Ġimmort": 19482,
    "frequent": 15352,
    "wholly": 10941,
    "ë": 172,
    "Ġdiscomposed": 25580,
    "Ġcelest": 9900,
    "Ġlike": 668,
    "Ġlabels": 3286,
    "Ġprev": 6264,
    "ordingly": 18514,
    "Ġsalut": 10509,
    "vocabulary": 25085,
    "exagger": 22425,
    "phys": 18712,
    "Ġcorpora": 26580,
    "Ġshocked": 9400,
    "olstad": 7613,
    "parable": 16374,
    "Ġnow": 692,
    "Ġkinds": 14503,
    "runs": 25415,
    "Ġcruisings": 25864,
    "ribution": 14302,
    "Ġissu": 6253,
    "Ġnocturnal": 20714,
    "rigged": 17062,
    "numer": 15398,
    "Ġjealous": 9468,
    "Ġhere": 1091,
    "question": 5418,
    "Ġmil": 4256,
    "Ġeffort": 8204,
    "Ġretired": 6070,
    "sentimental": 25681,
    "Ġdemanded": 8326,
    "Ġastonishment": 4794,
    "Ġrules": 1917,
    "Ġcyl": 15554,
    "flutter": 23968,
    "class": 4097,
    "Ġaction": 5796,
    "told": 7811,
    "depth": 12797,
    "Ġfortunes": 12176,
    "Ġcant": 17824,
    "Ġhen": 3503,
    "oul": 4699,
    "Ġtig": 13812,
    "Ġimbued": 17454,
    "Ġcentre": 5123,
    "Ġmorcar": 13012,
    "Ġsprung": 11249,
    "sustained": 20567,
    "freighted": 14891,
    "ered": 1681,
    "Ġkidn": 20204,
    "jammed": 25906,
    "Ġcub": 8413,
    "Ġchina": 8039,
    "Ġexhaustion": 14960,
    "Ġdoctors": 12149,
    "iod": 3842,
    "Ġnorthwards": 19545,
    "aggoo": 5130,
    "Ġlif": 10195,
    "considerably": 13444,
    "Ã¦mon": 7094,
    "Ġerrone": 14429,
    "txt": 12513,
    "Ġmarshy": 20217,
    "Ġwaiter": 16425,
    "cry": 12443,
    "âĢĻ!âĢĿ": 18167,
    "Ġneared": 14072,
    "alot": 15623,
    "Ġdefendants": 15139,
    "sacred": 17028,
    "wonted": 13492,
    "Ġfollowed": 1792,
    "eling": 6681,
    "Ġexhaled": 19681,
    "ursday": 12274,
    "doom": 23373,
    "host": 5867,
    "Ġlabors": 23323,
    "get": 1022,
    "enges": 13051,
    "icious": 7380,
    "ĠĠĠĠĠĠ": 6414,
    "Ġlion": 9675,
    "quently": 9701,
    "morrow": 4572,
    "she": 1395,
    "Ġbal": 1130,
    "Ġsuicide": 12783,
    "Ġrapture": 13495,
    "cheeks": 23805,
    "Ġunch": 18239,
    "hard": 4690,
    "Ġexcellence": 11451,
    "Ġloss": 822,
    "Ġresentment": 7530,
    "Ġclipping": 2440,
    "attention": 2110,
    "Ġsaloon": 24060,
    "apple": 22837,
    "Ġsanction": 20024,
    "Ġwhereon": 16099,
    "Ġoutput": 929,
    "Ġflickering": 23013,
    "icult": 3340,
    "ickory": 22665,
    "ased": 1269,
    "Ġgabriel": 7595,
    "gr": 2086,
    "ish": 551,
    "danced": 20827,
    "computer": 2001,
    "window": 7742,
    "Ġlash": 8438,
    "Ġapproving": 18527,
    "Ġnerves": 2628,
    "guilty": 19481,
    "Ġgriev": 16634,
    "Ġdangerous": 6612,
    "Ġhinting": 19648,
    "officer": 17054,
    "Ġsimilarly": 24308,
    "Ġgardener": 19134,
    "Ġoftener": 13564,
    "Ġfact": 1728,
    "bunger": 20400,
    "Ġdomain": 3570,
    "Ġpeered": 18668,
    "Ġfull": 2176,
    "derstand": 663,
    "chel": 11207,
    "pt": 385,
    "Ġdeveloped": 16337,
    "Ġunworthy": 11713,
    "Ġdesolation": 12266,
    "Ġsw": 1354,
    "Ġdissuade": 26256,
    "Ġinterruptions": 24186,
    "Ġfeverish": 11348,
    "Ġcomplex": 748,
    "Ġunlike": 7004,
    "Ġamazement": 7764,
    "uning": 1314,
    "Ġli": 602,
    "Ġenjoined": 18191,
    "hors": 9598,
    "Ġminim": 1324,
    "Ġcourtiers": 24135,
    "Ġsupplies": 20325,
    "brink": 23575,
    "conjecturing": 20133,
    ");": 7330,
    "ringle": 21039,
    "Ġanaly": 1178,
    "Ġimportance": 4900,
    "Ġclosed": 4605,
    "Ġquarters": 8619,
    "hinting": 17569,
    "Ġevangelist": 20337,
    "daggoo": 13706,
    "asy": 5294,
    "Ġmug": 21311,
    "Ġkate": 15903,
    "short": 6566,
    "Ġmuslin": 19381,
    "Ġzoned": 22817,
    "Ġcleared": 6074,
    "Ġhav": 12751,
    "hoisted": 19281,
    "rem": 1520,
    "Ġexecute": 7505,
    "Ġgpt": 4353,
    "dÃ¦mon": 17527,
    "Ġsuitable": 18279,
    "language": 5129,
    "Ġfumbling": 21415,
    "Ġstays": 16561,
    "scru": 16242,
    "Ġsubterr": 10348,
    "Ġpurposed": 23551,
    "maltese": 24795,
    "osely": 9264,
    "Ġsignifies": 19202,
    "Ġcalculus": 23980,
    "Ġtattooed": 11378,
    "Ġweig": 7618,
    "Ġproducing": 11897,
    "pass": 4292,
    "round": 3369,
    "Ġdisagree": 22529,
    "pulling": 25146,
    "estations": 22225,
    "ink": 756,
    "Ġoffic": 3184,
    "Ġribbed": 16804,
    "ks": 3144,
    "ilight": 12690,
    "Ġmoss": 9283,
    "Ġlively": 5449,
    "Ġexcessive": 3894,
    "Ġopening": 5045,
    "tling": 9142,
    "Ġrigged": 16717,
    "vict": 11540,
    "Ġfish": 2711,
    "tese": 21082,
    "ouraged": 22858,
    "Ġcontrol": 13078,
    "dwell": 15340,
    "Ġlookest": 22712,
    "Ġorder": 1683,
    "Ġdock": 15928,
    "altogether": 12636,
    "bill": 10075,
    "Ġclass": 810,
    "poled": 22903,
    "whis": 7897,
    "grie": 12468,
    "sub": 4660,
    "farewell": 12304,
    "Ġblind": 3718,
    "Ġprejudiced": 24809,
    "ius": 5789,
    "metal": 24765,
    "Ġslammed": 20446,
    "undertaking": 23785,
    "abama": 12706,
    "Ġecl": 18005,
    "Ġpervers": 11781,
    "Ġneural": 618,
    "Ġsticking": 13426,
    "izing": 1069,
    "paws": 21028,
    "Ġpolynesian": 26026,
    "Ġsplashed": 23746,
    "âĢĶ(": 15937,
    ".âĢĶ": 4249,
    "faced": 8079,
    "Ġarchitectures": 2910,
    "Ġpompous": 20421,
    "recover": 24622,
    "Ġowners": 7662,
    "ishments": 9272,
    "ancy": 4395,
    "Ġreside": 22536,
    "Ġghostliness": 24651,
    "Ġinvisible": 7327,
    "Ġdrunk": 9423,
    "dued": 7908,
    "Ń": 260,
    "Ġguiding": 19239,
    "assured": 10953,
    "aked": 2013,
    "castles": 14636,
    "Ġshowing": 7731,
    "Ġgrass": 5177,
    "lott": 6650,
    "Ġdeact": 18134,
    "Ġpercept": 14223,
    "Ġravines": 25831,
    "aculate": 16081,
    "Ġcalamities": 25699,
    "lovel": 22508,
    "Ġcannibal": 7773,
    "onents": 8776,
    "Ġhumans": 8929,
    "Ġfaculties": 14957,
    "Ġgrace": 5374,
    "industrious": 26239,
    "doctor": 19095,
    "Ġfid": 10803,
    "Ġpresents": 8244,
    "Ġbrimming": 22866,
    "Ġset": 1173,
    "Ġbetween": 793,
    "Ġconcerning": 4071,
    "op": 658,
    "Ġrage": 5110,
    "Ġask": 1492,
    "Ġdevoured": 16133,
    "ences": 1264,
    "Ġbooks": 4676,
    "pe": 1435,
    "Ġfloundered": 18861,
    "unsupervised": 10889,
    "cre": 4251,
    "Ġenraptured": 26500,
    "jacket": 12290,
    "Ġaccompaniments": 24482,
    "Ġmasks": 23322,
    "itaries": 21334,
    "Ġspind": 18307,
    "Ġcoopman": 25827,
    "Ġsovere": 9255,
    "Ġfashioned": 13319,
    "Ġfi": 935,
    "Ġincant": 18570,
    "ē": 212,
    "Ġshunned": 17292,
    "Ġmanor": 14196,
    "Ġmerchants": 23731,
    "Ġexcited": 5580,
    "Ġcircling": 19092,
    "grammar": 6435,
    "Ġrare": 7036,
    "Ġsignificantly": 4519,
    "Ġcorpusants": 13676,
    "attend": 11100,
    "Ġacc": 570,
    "che": 3169,
    "Ġsidel": 9635,
    "Ġavenues": 25429,
    "Ġasserted": 16949,
    "ilar": 10215,
    "vation": 4744,
    "Ġindications": 14632,
    "Ġme": 353,
    "Ġaffirm": 11885,
    "Ġenvied": 19322,
    "crossed": 16632,
    "Ġbiography": 22758,
    "Ġcautious": 12251,
    "Ġdecipher": 22438,
    "Ġsunk": 5752,
    "atory": 6125,
    "zag": 17713,
    "Ġfill": 5701,
    "Ġfever": 6558,
    "laborers": 23913,
    "human": 7088,
    "awe": 20764,
    "erranean": 9333,
    "Ġkent": 6691,
    "insanity": 23065,
    "awful": 23114,
    "Ġgrammars": 11402,
    "Ġtechnically": 12364,
    "Ġsmiled": 5940,
    "Ġserv": 3328,
    "countless": 24148,
    "acific": 4960,
    "prevent": 11793,
    "Ġenemies": 9038,
    "Ġpipe": 4322,
    "Ġintertw": 18588,
    "Ġslacked": 25188,
    "Ġreeled": 13985,
    "Ġindifference": 6725,
    "Ġpubl": 3941,
    "Ġell": 17715,
    "Ġskirts": 14352,
    "ahead": 12432,
    "protection": 19919,
    "mangled": 20980,
    "madam": 24421,
    "Ġbrute": 8925,
    "Ġexpense": 7651,
    "Ġactor": 16046,
    "Ġconfl": 11137,
    "Ġnostrils": 10943,
    "ry": 806,
    "Ġinaccessible": 13933,
    "Ġmorocco": 26573,
    "Ġbelie": 14405,
    "Ġaffronted": 22889,
    "Ġdisconcerted": 18562,
    "Ġruggedness": 26268,
    "Ġcreatures": 4139,
    "Ġseas": 3075,
    "Ġjones": 7204,
    "Ġfairer": 20460,
    "Ġumb": 11645,
    "pursued": 17281,
    "Ġsilence": 3267,
    "Ġcongregated": 20095,
    "Ġpanting": 11601,
    "encouragement": 17422,
    "Ġunavailing": 26215,
    "asserted": 22307,
    "dish": 12450,
    "Ġrequest": 6050,
    "rifice": 12501,
    "ney": 2493,
    "Ġgained": 4535,
    "Ġinert": 15619,
    "Ġconstrued": 26301,
    "Ġimitation": 22164,
    "offered": 14516,
    "mutually": 26136,
    "Ġcoleman": 22583,
    "Ġscotland": 6639,
    "½": 126,
    "Ġpe": 851,
    "Ġrecalled": 8537,
    "forster": 16161,
    "Ġconsiderations": 9409,
    "Ġ[": 6967,
    "pursu": 11392,
    "side": 2301,
    "Ġcranes": 20381,
    "Ġejac": 10203,
    "trial": 20349,
    "inav": 15482,
    "Ġstable": 2700,
    "humiliation": 24019,
    "Ġopen": 1550,
    "Ġspans": 18304,
    "acles": 8519,
    "Ġwigwam": 11428,
    "Ġpicked": 6341,
    "fra": 8374,
    "0": 20,
    "Ġentering": 6285,
    "buoy": 7760,
    "Ġelbow": 12918,
    "Ġtone": 4042,
    "quick": 6400,
    "case": 5206,
    "Ġjago": 22296,
    "olic": 14048,
    "Ġendure": 5955,
    "Ġisles": 8459,
    "Ġinscriptions": 20007,
    "ery": 1270,
    "Ġzone": 14360,
    "nothing": 3152,
    "preading": 18499,
    "Ġflag": 7242,
    "Ġplayers": 12036,
    "Ġsmells": 8890,
    "pag": 11510,
    "chron": 21691,
    "Ġrewards": 10848,
    "orders": 12870,
    "Ġquietude": 19358,
    "Ġhunting": 7259,
    "adventures": 20255,
    "Ġplayful": 19235,
    "of": 769,
    "Ġcivility": 4788,
    "elled": 4024,
    "no": 900,
    "joice": 9602,
    "Ġpeasants": 12330,
    "Ġconjured": 25099,
    "Ġeffectively": 2621,
    "three": 5239,
    "quarter": 11388,
    "Ġalter": 6542,
    "Ġconstraints": 2742,
    "rying": 3183,
    "nosed": 20991,
    "Ġclosely": 6488,
    "lorn": 12485,
    "sin": 21047,
    "easily": 17534,
    "Ġsluggishly": 25891,
    "Ġbade": 9171,
    "Ġkindness": 4098,
    "piling": 15414,
    "iantly": 13738,
    "ni": 1689,
    "Ġstrat": 16090,
    "Ġmien": 17808,
    "Ġcorn": 9349,
    "Ġexpansion": 22623,
    "Ġrap": 14305,
    "Ġse": 402,
    "Ġovertaken": 18423,
    "andering": 21864,
    "nels": 12493,
    "cupboards": 25401,
    "utored": 15660,
    "linked": 17593,
    "xic": 9145,
    "Ġexig": 21823,
    "Ġgenerates": 3665,
    "Ġfocuses": 8649,
    "Ġmaintains": 2145,
    "Ġaugmented": 15104,
    "Ġabilities": 8866,
    "rospect": 11611,
    "oft": 3591,
    "Ġsuperficial": 23455,
    "Ġtypewriter": 19097,
    "Ġ81": 24457,
    "impart": 21706,
    "¡": 99,
    "yp": 1043,
    "erted": 7361,
    "persuaded": 15072,
    "Ġdisdained": 15009,
    "Ġmidday": 23631,
    "Ġprettier": 23763,
    "Ġobliv": 16131,
    "grieved": 17316,
    "Ġsincere": 11136,
    "Ġsunlight": 13083,
    "Ġartful": 22606,
    "ician": 21562,
    "ak": 538,
    "Ġmisery": 3817,
    "Ġvanquished": 22875,
    "Ġamel": 18509,
    "Ġii": 7384,
    "Ġspell": 8855,
    "Ġripp": 11219,
    "Ġchuck": 8500,
    "Ġincreasing": 8246,
    "Ġexamine": 7734,
    "Ġguns": 16776,
    "Ġinferiority": 17115,
    "Ġamidst": 9493,
    "Ġbam": 15563,
    "Ġfeathers": 15118,
    "cing": 1014,
    "having": 5211,
    "Ġmarbank": 23034,
    "Ġreassure": 21669,
    "table": 5795,
    "Ġrabbit": 4290,
    "Ġchimneys": 16972,
    "Ġadopted": 15177,
    "Ġcarter": 18898,
    "tackles": 25624,
    "cheerful": 13574,
    "Ġbalmoral": 16206,
    "Ġangle": 8602,
    "Ġaspects": 4176,
    "Ġshowed": 4497,
    "ackled": 22421,
    "Ġidolator": 19996,
    "Ġsant": 21213,
    "Ġpaying": 9937,
    "Ġhopeless": 7462,
    "Ġresid": 22535,
    "Ġadagrad": 2904,
    "aired": 8368,
    "Ġdisorder": 16048,
    "Ġreward": 6144,
    "marrying": 19546,
    "romising": 18233,
    "recklessly": 25269,
    "andromeda": 21865,
    "prior": 21031,
    "oundering": 11744,
    "Ġint": 409,
    "Ġrot": 10967,
    "plun": 15813,
    "Ġoppressively": 25712,
    "Ġmiller": 19882,
    "spect": 3231,
    "sharp": 10305,
    "uling": 2254,
    "afric": 19178,
    "met": 6652,
    "Ġunpleasant": 7191,
    "Ġ84": 19708,
    "Ġhunts": 23155,
    "obser": 11098,
    "pleas": 3854,
    "Ġmanufact": 22325,
    "Ġdrama": 16327,
    "Ġvaried": 11846,
    "Ġhappen": 5571,
    "Ġblows": 5972,
    "behold": 12873,
    "Ġlunging": 24989,
    "Ġovertake": 15962,
    "Ġlavenza": 17970,
    "wers": 12517,
    "Ġadieu": 10050,
    "exerc": 16013,
    "band": 3055,
    "Ġaromatic": 25925,
    "Ġtheory": 5798,
    "Ġeyelids": 26107,
    "Ġbapt": 13895,
    "Ġdetected": 18850,
    "Ġ]": 15458,
    "Ġmuchness": 18706,
    "Ġrmsprop": 3355,
    "Ġundecided": 22045,
    "Ġcring": 15549,
    "onze": 21254,
    "´": 117,
    "Ġuniform": 2224,
    "rock": 15638,
    "Ġconference": 15744,
    "Ġtraits": 23073,
    "avery": 13682,
    "Ġgoes": 3855,
    "Ġtall": 4041,
    "----âĢĻ": 24095,
    "Ġdot": 4821,
    "Ġconsidering": 4616,
    "Ġlocket": 22110,
    "remind": 23185,
    "compliments": 24810,
    "Ġfeelingly": 22994,
    "angles": 18290,
    "Ġfishy": 16522,
    "Ġgenerating": 12846,
    "likes": 18814,
    "Ġfall": 2984,
    "lue": 8508,
    "Ġcount": 1814,
    "Ġforgotten": 5679,
    "Ġexplore": 15906,
    "Ġclicked": 22362,
    "Ġconver": 805,
    "invested": 17117,
    "appre": 14369,
    "Ġano": 11595,
    "Ġtimid": 6345,
    "Ġaffinity": 18785,
    "Ġcostly": 23583,
    "Ġvirgin": 7328,
    "likelihood": 4992,
    "Ġbaby": 6636,
    "Ġezek": 18009,
    "Ġserves": 4669,
    "Ġmarble": 7668,
    "Ġthirdly": 24141,
    "Ġconfident": 11138,
    "Ġcove": 22578,
    "Ġentertainment": 12220,
    "Ġsaratoga": 26423,
    "nes": 6961,
    "Ġladyship": 5046,
    "perquisites": 26531,
    "Ġsaid": 579,
    "Ġlovely": 4710,
    "Ġbud": 10168,
    "Ġdistinctions": 18532,
    "Ġhawaiian": 25366,
    "Ġburg": 23650,
    "Ġcul": 17822,
    "feet": 6568,
    "mming": 1169,
    "Ġrichest": 26211,
    "uts": 8815,
    "Ġdimly": 9487,
    "Ġseethe": 21960,
    "rons": 21038,
    "Ġrefine": 3199,
    "Ġvintage": 26209,
    "Ġrudder": 25107,
    "several": 5544,
    "built": 16825,
    "Ġprevented": 5941,
    "Ġsensitive": 13196,
    "Ġ119": 24441,
    "Ġdegraded": 19225,
    "liking": 22921,
    "Ġabuse": 18392,
    "Ġtroubled": 6615,
    "paralleled": 14505,
    "ors": 855,
    "Ġsentin": 16369,
    "Ġgallon": 24184,
    "Ġeffect": 969,
    "Ġrefresh": 10345,
    "Ġhes": 6250,
    "Ġbrack": 23832,
    "Ġhardihood": 23109,
    "Ġsub": 949,
    "culous": 11141,
    "Ġanxiety": 5408,
    "agrad": 2748,
    "Ġsnorting": 23739,
    "compliment": 11364,
    "shavings": 22455,
    "Ġdiscomp": 11864,
    "Ġengagements": 9977,
    "Ġgenealogies": 25961,
    "Ġadventures": 7747,
    "Ġsoftmax": 1687,
    "Ġgrap": 11705,
    "flitted": 23966,
    "Ġwave": 7575,
    "Ġhairy": 23863,
    "tick": 17678,
    "fearfully": 25116,
    "Ġtokens": 1771,
    "Ġdwell": 5812,
    "Ġprocess": 561,
    "alously": 15626,
    "Ġrags": 18645,
    "cheered": 23803,
    "Ġtransition": 14241,
    "Ġsuppressing": 22998,
    "Ġharbour": 19978,
    "Ġladen": 19176,
    "Ġduke": 7755,
    "Ġominous": 12422,
    "expl": 9282,
    "Ġsteer": 10386,
    "baden": 25615,
    "Ġloop": 14146,
    "Ġnaut": 13940,
    "glow": 20873,
    "alk": 1148,
    "war": 6802,
    "stopping": 19348,
    "po": 1135,
    "bag": 7542,
    "Ġhead": 1122,
    "Ġslewed": 23381,
    "Ġazure": 12372,
    "Ġprick": 14476,
    "Ġvalidation": 2357,
    "Ġoccupy": 14731,
    "Ġhoary": 23350,
    "forward": 2187,
    "ulates": 14054,
    "Ġinfer": 7683,
    "Ġverte": 9441,
    "Ġrecom": 4555,
    "Ġunder": 1634,
    "Ġtolerably": 8067,
    "Ġfren": 10805,
    "murderers": 25728,
    "nephew": 26397,
    "Ġunh": 9252,
    "Ġdeacon": 18139,
    "Ġbalmy": 22901,
    "Ġfiftieth": 24703,
    "Ġinterview": 9769,
    "azz": 8261,
    "Ġimpossible": 3543,
    "ana": 15556,
    ";": 31,
    "totally": 25417,
    "Ġlestrade": 5824,
    "Ġshift": 2282,
    "flag": 14710,
    "Ġbravely": 23835,
    "Ġbringing": 5869,
    "Ġdaily": 5986,
    "Ġdumbly": 24985,
    "Ġwearing": 12736,
    "Ġsuccess": 3609,
    "ignity": 4376,
    "Ġlaid": 3942,
    "Ġidly": 16402,
    "Ġdesigned": 7740,
    "Ġspy": 22120,
    "Ġtarshish": 12027,
    "do": 1992,
    "Ġadhering": 14140,
    "suffered": 24334,
    "Ġchoose": 5981,
    "Ġupon": 719,
    "Ġcompose": 12899,
    "Ġunrecord": 16621,
    "Ġoffences": 18693,
    "Ġpron": 6451,
    "iling": 3090,
    "Ġinestim": 15621,
    "Ġplight": 14281,
    "Ġmagnus": 18957,
    "Ġyourselves": 9028,
    "fellows": 12271,
    "Ġferoc": 14896,
    "congreg": 25398,
    "Ġtranquillize": 24757,
    "Ġsworn": 14434,
    "Ġvictory": 16653,
    "ithmetic": 18061,
    "Ġwarb": 17787,
    "unwholesome": 26497,
    "virtue": 20568,
    "Ġsuffers": 2971,
    "Ġpulley": 2973,
    "Ġsatirical": 26279,
    "Ġoft": 9194,
    "nne": 20988,
    "Ġstupidity": 15050,
    "rate": 2420,
    "ckled": 9256,
    "Ġtro": 7356,
    "sit": 13779,
    "Ġtranquill": 6630,
    "Ġunhing": 18241,
    "slee": 17168,
    "Ġpine": 8796,
    "Ġbaronial": 23791,
    "Ġwallet": 21297,
    "Ġhates": 21483,
    "Ġremainder": 9857,
    "chronicle": 26480,
    "ethe": 9676,
    "Ġstatue": 23146,
    "errand": 22905,
    "Ġmisfortunes": 7041,
    "sn": 7138,
    "acknowledged": 15201,
    "pair": 21011,
    "Ġapplying": 13091,
    "),": 1347,
    "befriend": 22489,
    "too": 4508,
    "Ġjudgment": 5765,
    "wooden": 24587,
    "makers": 20981,
    "Ġpostp": 12141,
    "Ġproviding": 1358,
    "bows": 10081,
    "Ġplanisp": 24055,
    "Ġsuperglue": 23456,
    "Ġjib": 14193,
    "Ġcircumference": 13544,
    "seam": 10874,
    "Ġrepeatedly": 9020,
    "Ġshun": 11707,
    "Ġdisinclination": 22533,
    "Ġilleg": 21615,
    "Ġfrenz": 25446,
    "Ġloomings": 24949,
    "lucases": 20209,
    "Ġdeceived": 6544,
    "Ġdra": 1591,
    "tree": 11533,
    "ecess": 17532,
    "Ġoccurred": 4463,
    "aye": 3661,
    "Ġmabel": 17323,
    "Ġche": 1761,
    "Ġromans": 16759,
    "georgiana": 26020,
    "Ġpuzzle": 11305,
    "Ġtyphoon": 12387,
    "Ġfactor": 19013,
    "mopol": 15395,
    "Ġneatly": 17016,
    "sequence": 2857,
    "crowd": 25254,
    "Ġfan": 2034,
    "gast": 20870,
    "Ġdante": 21441,
    "Ġtower": 8318,
    "Ġsway": 7571,
    "owing": 7601,
    "lynes": 15701,
    "Ġthence": 8881,
    "Ġhorizont": 6937,
    "Ġconfess": 3769,
    "Ġhor": 1661,
    "Ġraiment": 22650,
    "Ġreluct": 14370,
    "described": 18893,
    "Ġversion": 10629,
    "Ġrelative": 11881,
    "Ġrealised": 18980,
    "Ġcomplement": 23708,
    "utions": 1888,
    "crime": 14782,
    "Ġbulls": 23856,
    "armed": 7251,
    "Ġstartled": 7082,
    "orously": 8418,
    "Ġboister": 12916,
    "Ġbrood": 23098,
    "heaved": 21209,
    "deliber": 17425,
    "Ġunmo": 12770,
    "distinguish": 19571,
    "Ġstriding": 16091,
    "eyed": 11486,
    "Ġmilan": 19534,
    "Ġreleased": 2975,
    "Ġabstraction": 26539,
    "Ġextracts": 9364,
    "Ġaccomplished": 7104,
    "Ġarab": 7823,
    "Ġhammered": 13239,
    "Ġreports": 19084,
    "Ġtapers": 11551,
    "amused": 21843,
    "Ġthrill": 24541,
    "Ġstorm": 4302,
    "rudently": 16710,
    "Ġsobs": 14134,
    "Ġforbid": 7864,
    "Ġproverb": 12713,
    "Ġcorrupt": 11921,
    "Ġbay": 9168,
    "useful": 16502,
    "cruise": 24841,
    "Ġdistinction": 8885,
    "wn": 720,
    "brad": 20780,
    "==": 943,
    "Ġstillness": 12991,
    "Ġsquad": 22832,
    "sixty": 24852,
    "Ġtransc": 12863,
    "zz": 4294,
    "surprising": 16919,
    "lucifer": 25302,
    "ü": 189,
    "Ġasiatics": 20429,
    "Ġeager": 3571,
    "define": 1524,
    "Ġhosea": 17330,
    "Ġwarnings": 16881,
    "Ġmacey": 12560,
    "asible": 21539,
    "Ġmour": 6973,
    "Ġay": 15490,
    "Ġreciproc": 20620,
    "cool": 19186,
    "Ġoccupied": 5272,
    "cleanliness": 25871,
    "Ġpeak": 16124,
    "ashion": 3861,
    "Ġdisobedience": 22532,
    "Ġif": 697,
    "glorious": 19365,
    "objections": 19915,
    "pardonable": 17217,
    "Ġtallow": 14777,
    "Ġpreyed": 18366,
    "Ġstories": 10865,
    "Ġplata": 25117,
    "likely": 9022,
    "mews": 22706,
    "foreseen": 14253,
    "Ġrecommending": 24337,
    "Ġcongeal": 25980,
    "Ġvivacious": 19814,
    "huzza": 20912,
    "Ġpromptly": 23814,
    "Ġvehicle": 20137,
    "Ġchrist": 4075,
    "Ġdrawing": 3920,
    "Ġprogram": 12990,
    "endom": 15918,
    "summoned": 26591,
    "abb": 15736,
    "Ġforeboding": 20382,
    "Ġsmelling": 16064,
    "Ġsubterranean": 13610,
    "Ġpenetration": 19916,
    "Ġhackney": 20431,
    "Ġgoverness": 8601,
    "Ġsurvive": 9066,
    "Ġaccommodate": 20515,
    "Ġmasters": 11574,
    "ribute": 7224,
    "ĠĠĠĠĠĠĠĠĠĠĠĠĠĠĠĠĠĠĠĠĠĠĠĠĠĠĠĠĠĠĠĠĠĠ": 14614,
    "Ġbowed": 6242,
    "Ġlandau": 16417,
    "Ġturbid": 23610,
    "Ġswiftly": 5670,
    "orton": 11753,
    "proceed": 8976,
    "Ġiceberg": 14715,
    "Ġap": 5008,
    "breakfast": 8687,
    "Ġdeliciousness": 24125,
    "grateful": 10428,
    "Ġmiracle": 15092,
    "Ġanoint": 25537,
    "worn": 13805,
    "umes": 10917,
    "Ġsponge": 26003,
    "Ġwithdraw": 16964,
    "Ġcase": 1938,
    "Ġbrougham": 17870,
    "Ġturkey": 19218,
    "mists": 17605,
    "purpose": 10043,
    "Ġquiet": 3260,
    "Ġmatrix": 1606,
    "secre": 18127,
    "Ġhieroglyphics": 17302,
    "Ġjurymen": 16847,
    "Ġtresses": 21174,
    "era": 13846,
    "Ġunfortunately": 10909,
    "Ġspark": 6689,
    "Ġfootpath": 19337,
    "precip": 14664,
    "Ġstep": 752,
    "script": 11078,
    "Ġmizzen": 20288,
    "Ġdread": 3161,
    "Ġtravels": 11925,
    "concluding": 19479,
    "Ġburly": 19248,
    "Ġmin": 1026,
    "Ġwaxed": 21296,
    "Ġcompacted": 23506,
    "Ġscrape": 14917,
    "Ġreefed": 20301,
    "incident": 14591,
    "Ġheel": 9683,
    "Ġgouge": 26188,
    "harpooned": 24286,
    "exercise": 17459,
    "yn": 7819,
    "Ġcurly": 18842,
    "om": 315,
    "found": 4214,
    "Ġirrespective": 23371,
    "#": 7,
    "odecimoes": 25318,
    "Ġnails": 12645,
    "Ġrespond": 11176,
    "Ġmich": 21305,
    "clut": 23148,
    "tossed": 10997,
    "russian": 22186,
    "Ġchased": 8861,
    "Ġcabman": 14605,
    "carry": 19525,
    "omet": 3073,
    "dare": 12451,
    "Ġfolly": 7940,
    "Ġschedu": 1822,
    "enched": 10154,
    "dered": 2474,
    "Ġimprecations": 25820,
    "Ġquadrant": 11404,
    "Ġfurlong": 18739,
    "Ġappearing": 9840,
    "cripp": 20818,
    "Ġbatch": 889,
    "journey": 8744,
    "Ġquantity": 6948,
    "Ġunwaning": 25170,
    "desc": 1392,
    "Ġaccomplice": 24376,
    "Ġturning": 3326,
    "Ġsatire": 22897,
    "Ġcopies": 24935,
    "Ġconsume": 12955,
    "Ġpurposely": 10444,
    "up": 1285,
    "Ġmum": 13857,
    "ashes": 6015,
    "Ġbony": 12584,
    "hounds": 20906,
    "confl": 22466,
    "Ġ49": 24080,
    "Ġcontracting": 16009,
    "Ġlibrary": 6423,
    "horrible": 14600,
    "Ġincarnate": 20373,
    "franch": 24284,
    "Ġthird": 4188,
    "erie": 21270,
    "Ġwithout": 1120,
    "Ġprofessions": 11232,
    "Ġwrite": 3824,
    "hval": 20897,
    "angry": 18289,
    "sales": 17667,
    "Ġdelicate": 6480,
    "Ġpredef": 18515,
    "hair": 9122,
    "Ġlaughter": 9027,
    "Ġscratching": 20367,
    "Ġoblong": 14320,
    "Ġgunw": 6212,
    "Ġpious": 11597,
    "ositories": 22260,
    "hope": 5989,
    ">": 34,
    "Ġglobular": 19011,
    "inated": 6804,
    "blow": 9103,
    "rosc": 17954,
    "board": 3565,
    "eded": 9673,
    "Ġrivals": 20270,
    "Ġsufferer": 16257,
    "Ġadvantageously": 19544,
    "treatment": 20410,
    "Ġprofile": 16487,
    "condesc": 18505,
    "Ġdarkened": 16431,
    "ellect": 7381,
    "Ġaright": 11738,
    "Ġcomical": 11677,
    "Ġreader": 11932,
    "men": 1485,
    "Ġtension": 13823,
    "Ġimparts": 18443,
    "Ġislets": 21798,
    "Ġcovering": 13255,
    "Ġvol": 4190,
    "Ġcountenance": 3972,
    "embra": 14075,
    "Ġdestination": 19149,
    "laws": 19806,
    "Ġwhiskers": 10492,
    "Ġrachel": 11845,
    "Ġinland": 11607,
    "Ġl": 303,
    "trap": 24313,
    "fordshire": 4677,
    "Ġreceives": 20353,
    "Ġidiotic": 25588,
    "Ġenchanting": 17039,
    "Ġimpress": 6862,
    "Ġbased": 3338,
    "phren": 22769,
    "Ġunidirectional": 3425,
    "Ġpossessor": 23820,
    "Ġbeard": 11654,
    "Ġintimacy": 8700,
    "Ġsummarization": 3647,
    "Ġwhipping": 21713,
    "etts": 12657,
    "'": 11,
    "Ġstrip": 9420,
    "Ġtype": 2019,
    "largely": 19573,
    "chers": 11317,
    "Ġmortification": 12091,
    "ivened": 22962,
    "Ġsystems": 803,
    "Ġscaled": 2106,
    "Ġresting": 7961,
    "prodigious": 17466,
    "Ġproc": 5545,
    "Ġrespected": 11951,
    "Ġimpression": 5732,
    "Ġproflig": 23566,
    "Ġplace": 1651,
    "Ġloads": 22111,
    "ports": 13773,
    "Ġpeculiarity": 12930,
    "Ġsuperlatively": 26075,
    "Ġwalrus": 14972,
    "Ġcha": 6853,
    "Ġdesired": 4665,
    "bald": 16446,
    "Ġinserted": 8355,
    "Ġgrampus": 21990,
    "let": 2733,
    "Ġtrod": 15026,
    "Ġorders": 5340,
    "Ġunaccountable": 7886,
    "Ġhurrah": 9868,
    "Ġdry": 5624,
    "mysteries": 26050,
    "Ġmomentarily": 22808,
    "Ġturtles": 19219,
    "gins": 12466,
    "oting": 2746,
    "Ġpained": 19166,
    "Ġmature": 17799,
    "Ġploughing": 26259,
    "gno": 13726,
    "Ġ122": 24467,
    "coloured": 7291,
    "believing": 19460,
    "Ġheartily": 6890,
    "e": 73,
    "Ġimmensely": 13594,
    "Ġmalice": 7152,
    "Ġassented": 17337,
    "wing": 2522,
    "Ġcringing": 25941,
    "yonder": 21143,
    "Ġexhibition": 14956,
    "Ġparallelization": 3431,
    "rent": 1168,
    "treated": 21093,
    "ting": 1334,
    "Ġpoignant": 22591,
    "Ġamateur": 22482,
    "Ġsulk": 15045,
    "Ġformer": 3322,
    "bling": 10078,
    "ounted": 5030,
    "ground": 4672,
    "Ġcontinuously": 23202,
    "Ġreminiscences": 26269,
    "Ġbrook": 13045,
    "Ġ(_": 3739,
    "Ġown": 1006,
    "anum": 17835,
    "baboon": 25516,
    "Ġsuffoc": 18870,
    "Ġpass": 1038,
    "Ġcompliment": 5673,
    "Ġshaping": 22000,
    "Ġtranquillity": 7536,
    "lacings": 26134,
    "whiteness": 18370,
    "Ġbending": 12582,
    "heartedness": 24827,
    "Ġinde": 7371,
    "Ġjacobian": 2893,
    "Ġgriff": 22803,
    "Ġhumorously": 18778,
    "este": 15919,
    "Ġwholly": 4448,
    "Ġwhose": 2006,
    "Ġunche": 23427,
    "Ġgreenland": 5761,
    "Ġengland": 3859,
    "Ġsick": 4693,
    "Ġsan": 7824,
    "Ġbounce": 21391,
    "Ġestimate": 19371,
    "bourgh": 19103,
    "lect": 1219,
    "Ġfinished": 5044,
    "Ġassert": 7120,
    "Ġeleg": 6192,
    "Ġinquire": 7719,
    "Ġintercept": 14269,
    "Ġexceptional": 19369,
    "deli": 15343,
    "Ġreceiving": 4882,
    "sheets": 14441,
    "Ġspectacles": 12095,
    "Ġdagger": 21440,
    "appear": 13195,
    "Ġtechn": 9371,
    "Ġvapors": 19907,
    "Ġadieus": 25110,
    "inuating": 16201,
    "rich": 11517,
    "Ġghosts": 12230,
    "rann": 21043,
    "Ġknocking": 10559,
    "Ġlazy": 17050,
    "aste": 4601,
    "Ġundertaken": 18986,
    "writes": 4988,
    "Ġincorrupt": 19233,
    "Ġdeclared": 5595,
    "renewed": 19703,
    "Ġslackened": 15125,
    "inno": 10756,
    "Ġtaking": 3249,
    "Ġdispose": 23877,
    "Ġcoolly": 9771,
    "Ġglit": 8558,
    "Ġarrest": 7409,
    "Ġfro": 3473,
    "Ġshorter": 4499,
    "Ġcharger": 19005,
    "neville": 22443,
    "refuge": 24734,
    "Ġcoun": 4179,
    "ard": 465,
    "Ġchurned": 18384,
    "Ġlin": 10833,
    "Ġshilling": 18228,
    "Ġcold": 3027,
    "vap": 13802,
    "Ġfeeds": 16432,
    "inferior": 12392,
    "Ġfunctional": 3044,
    "Ġ92": 24590,
    "fugitive": 26131,
    "scept": 21052,
    "Ġfailure": 13313,
    "Ġmishap": 20575,
    "Ġsires": 21225,
    "plendent": 21955,
    "stump": 21650,
    "Ġsuppress": 13021,
    "Ġmice": 13858,
    "Ġflowed": 10371,
    "Ġloitered": 26525,
    "Ġprotecting": 24686,
    "Ġsen": 9156,
    "Ġgore": 17988,
    "upwards": 18863,
    "waiting": 12218,
    "Ġcharity": 8862,
    "Ġbritannica": 24680,
    "[": 63,
    "Ġenglishman": 11229,
    "Ġquery": 2480,
    "comfortable": 7320,
    "confidence": 16808,
    "Ġcontradicted": 20210,
    "jah": 17581,
    "Ġfiendish": 13326,
    "Ġunf": 4091,
    "Ġresort": 18563,
    "l": 80,
    "pun": 9617,
    "Ġsunbeam": 23273,
    "Ġdre": 1745,
    "Ġburnt": 9927,
    "Ġservices": 11217,
    "van": 7814,
    "Ġpulse": 13113,
    "sequ": 2398,
    "Ġchamounix": 14863,
    "iluvian": 18060,
    "Ġunsatisfied": 22041,
    "sleepy": 24729,
    "Ġintegrated": 13530,
    "isbury": 21375,
    "Ġdelights": 14596,
    "Ġintense": 6157,
    "Ġvastly": 23858,
    "Ġhyp": 3875,
    "twilight": 23701,
    "swells": 26148,
    "Ġdust": 5908,
    "Ġarrow": 10931,
    "breckinridge": 24073,
    "Ġpugnacious": 26451,
    "Ġincumbent": 16060,
    "Ġunfulfilled": 26509,
    "û": 188,
    "Ġvillages": 14748,
    "pres": 16026,
    "Ġambiguous": 20163,
    "Ġworshipped": 25691,
    "Ġcanted": 17831,
    "Ġsigh": 10336,
    "Ġrings": 11697,
    "Ġcuring": 21342,
    "Ġnumbers": 2889,
    "pronouncing": 25193,
    "Ġhers": 7888,
    "Ġreduce": 7942,
    "igin": 3657,
    "Ġregion": 2271,
    "Ġthat": 335,
    "Ġele": 1960,
    "Ġeconomically": 25288,
    "Ġflirt": 14422,
    "Ġduplicity": 25331,
    "apart": 15959,
    "yard": 5899,
    "fingers": 17369,
    "Ġclamped": 18432,
    "Ġwearily": 18177,
    "Ġlicence": 25096,
    "Ġsmut": 22554,
    "Ġpresumed": 10544,
    "omb": 10205,
    "ese": 4445,
    "Ġmuskets": 17056,
    "Ġworth": 4418,
    "Ġmun": 12559,
    "keen": 12779,
    "Ġlevi": 3030,
    "Ġaddress": 2270,
    "Ġobe": 5800,
    "Ġbrisk": 9802,
    "Ġfuneral": 10283,
    "Ġworker": 23038,
    "onse": 21248,
    "ognit": 19209,
    "Ġphysiology": 25332,
    "ert": 2633,
    "machine": 981,
    "oftener": 23962,
    "nostril": 26559,
    "Ġdemonstrate": 24994,
    "Ġwhaleboats": 18478,
    "Ġresign": 18564,
    "Ġty": 6657,
    "Ġauto": 23293,
    "Ġvouch": 15807,
    "Ġgrinned": 16857,
    "Ġaloft": 4304,
    "mai": 22909,
    "}": 97,
    "umbers": 10918,
    "Ġsun": 1720,
    "Ġtailed": 21167,
    "Ġtiles": 17726,
    "lady": 4434,
    "Ġgrec": 18961,
    "fiery": 13580,
    "olently": 15757,
    "indian": 11776,
    "Ġtended": 21165,
    "aunt": 8369,
    "common": 4130,
    "Ġswimmer": 19457,
    "nez": 22439,
    "Ġvertical": 16604,
    "iers": 5990,
    "Ġanimated": 7701,
    "Ġunwarranted": 25171,
    "beh": 5472,
    "welcomed": 24644,
    "chamber": 13624,
    "Ġzer": 1096,
    "Ġimpulses": 19960,
    "Ã": 132,
    "sheltered": 25585,
    "Ġarranging": 11174,
    "content": 11198,
    "Ĺ": 250,
    "Ġbeer": 10219,
    "emed": 3381,
    "Ġnephews": 24713,
    "lording": 24048,
    "Ġharbors": 24901,
    "hereditary": 26419,
    "Ġindirectly": 8939,
    "apering": 8040,
    "Ġoccasionally": 5590,
    "ileries": 18058,
    "hue": 20898,
    "degrees": 22146,
    "Ġshirr": 18231,
    "Ġsallow": 12533,
    "istrate": 7406,
    "Ġminut": 2202,
    "oriented": 2946,
    "Ġste": 1386,
    "Ġfocus": 4236,
    "Ġexpress": 2194,
    "rown": 2191,
    "Ġ$": 21149,
    "`": 68,
    "Ġseverest": 14090,
    "Ġvane": 22873,
    "Ġbuoy": 8003,
    "Ġparticulars": 5754,
    "luc": 9753,
    "Ġcraggy": 23529,
    "alter": 10826,
    "Ġcompressed": 21847,
    "Ġsubjected": 23571,
    "Ġoverpow": 14202,
    "Ġsurvivors": 25732,
    "Ġphantoms": 13485,
    "Ġpermitted": 9277,
    "Ġfeet": 2255,
    "Ġmirror": 12376,
    "Ġcrows": 24029,
    "Ġallow": 1125,
    "Ġrelate": 6875,
    "isure": 6240,
    "kinder": 24845,
    "Ġspectator": 19404,
    "por": 2150,
    "Ġgeorgiana": 8625,
    "Ġdirect": 1470,
    "evid": 11484,
    "Ġswallow": 8950,
    "Ġpenetrated": 13471,
    "Ġchief": 3382,
    "broker": 13303,
    "Ġ117": 19696,
    "Ġopal": 23624,
    "Ġoblique": 20168,
    "Ġpushing": 10819,
    "oat": 13763,
    "Ġflaming": 8563,
    "Ġmethodology": 2342,
    "Ġpouch": 21466,
    "friend": 3865,
    "Ġmitig": 1337,
    "octavo": 11385,
    "Ġimplac": 24873,
    "Ġcharlotte": 3892,
    "Ġsharks": 4498,
    "animated": 14974,
    "Ġtrap": 7671,
    "Ġdrag": 6184,
    "acled": 16080,
    "Ġweap": 6155,
    "tained": 4407,
    "Ġbroke": 5322,
    "vative": 1639,
    "Ġwides": 17788,
    "close": 9985,
    "Ġwaves": 3899,
    "ambition": 13410,
    "lovely": 16044,
    "ioneer": 15629,
    "Ġhoof": 23349,
    "cats": 17512,
    "Ġlists": 11166,
    "because": 4923,
    "receive": 12539,
    "Ġdiminishing": 4209,
    "Ġdesigns": 13013,
    "Ġschoolmaster": 16862,
    "bted": 7793,
    "Ġpoetical": 25057,
    "leagues": 21371,
    "Ġtawn": 13822,
    "Ġal": 342,
    "ired": 1443,
    "Ġgull": 15667,
    "mason": 17603,
    "Ġmiser": 18703,
    "honorable": 19900,
    "hunt": 20902,
    "twice": 14621,
    "ulia": 18148,
    "Ġfurnace": 19438,
    "Ġantichronical": 26609,
    "Ġfine": 1318,
    "Ġsubmit": 11868,
    "Ġhus": 3089,
    "noted": 22746,
    "Ġtremulous": 14985,
    "hit": 20888,
    "Ġendeavor": 16544,
    "Ġgidd": 25783,
    "zors": 21146,
    "sorrow": 12506,
    "emberley": 4173,
    "ories": 4753,
    "G": 43,
    "Ġmonarchs": 25846,
    "moid": 2451,
    "co": 2433,
    "Ġpocket": 4898,
    "humoredly": 26324,
    "problems": 11434,
    "Ġpolicy": 10457,
    "Ġhitting": 21484,
    "Ġnatives": 17950,
    "cav": 17507,
    "congenial": 25399,
    "Ġrashness": 25460,
    "Ġyoungster": 23177,
    "Ġcylinders": 25943,
    "Ġfurniture": 6476,
    "Ġsalutations": 25382,
    "Ġbritain": 16956,
    "Ġlatter": 3991,
    "crow": 9590,
    "shoals": 24717,
    "Ġshriek": 6637,
    "season": 14033,
    "Ġmerryweather": 9521,
    "Ġharpo": 1940,
    "Ġdecorated": 22437,
    "Ġsecurely": 16802,
    "hunting": 24385,
    "Ġinsist": 9890,
    "Ġdefects": 12331,
    "Ġadvertised": 17247,
    "Ġweakness": 9966,
    "enhall": 13849,
    "frock": 20119,
    "Ġferguson": 17469,
    "Ġdrive": 5055,
    "Ġarrog": 18337,
    "Ġstark": 7390,
    "Ġbosom": 6939,
    "Ġinsanity": 12045,
    "Ġascended": 8665,
    "Ġcage": 17825,
    "fishers": 24928,
    "opard": 9290,
    "Ġnecessary": 4474,
    "Ġcentaurs": 23829,
    "Ġquick": 2583,
    "olet": 13765,
    "Ġheaths": 25972,
    "Ġarchitects": 18732,
    "Ġbowing": 10475,
    "Ġ55": 24323,
    "Ġhulls": 13925,
    "Ġaffright": 9331,
    "Ġrenounce": 19466,
    "Ġarmchair": 8270,
    "situ": 9621,
    "copy": 5133,
    "Ġcharacters": 9370,
    "ø": 185,
    "Ġrevellers": 21675,
    "Ġlashings": 25097,
    "transp": 24512,
    "twain": 23699,
    "sole": 6168,
    "Ġep": 7385,
    "Ġled": 3522,
    "Ġinsurance": 23681,
    "Ġresentful": 24631,
    "Ġbefallen": 12341,
    "Ġcreativity": 3201,
    "vard": 21109,
    "whel": 7664,
    "Ġimpet": 11777,
    "Ġplanet": 14750,
    "mong": 15388,
    "Ġweal": 21917,
    "Ġwould": 651,
    "av": 700,
    "Ġwarned": 16880,
    "Ġrunning": 3953,
    "Ľ": 254,
    "Ġchemical": 10410,
    "call": 8722,
    "Ġoutermost": 22316,
    "Ġspikes": 22133,
    "Ġbrain": 2088,
    "Ġsorry": 4210,
    "yourselves": 24956,
    "Ġvocation": 10525,
    "twenty": 6607,
    "Ġmerit": 9426,
    "Ġchisel": 20366,
    "tra": 4934,
    "Ġtranspired": 16784,
    "town": 7142,
    "Ġgrounded": 23710,
    "cannibals": 25584,
    "Ġrick": 21967,
    "Ġillinois": 19136,
    "extending": 22765,
    "dogs": 25402,
    "Ġcommence": 6167,
    "Ġans": 1644,
    "Ġkicks": 19767,
    "Ġalice": 1481,
    "absolut": 8458,
    "Ġnovember": 11747,
    "Ġclin": 14204,
    "Ġprocedures": 9411,
    "Ġfeed": 2127,
    "Ġearnestness": 12123,
    "Ġgrowl": 16537,
    "Ġprone": 18968,
    "imely": 13997,
    "est": 500,
    "Ġstroll": 13351,
    "cary": 10689,
    "Ġlightly": 13082,
    "initely": 7568,
    "Ġtremendous": 8352,
    "mystical": 25317,
    "Ġkeeps": 8266,
    "_).âĢĶ": 8681,
    "hawks": 24694,
    "Ġdetermined": 2220,
    "Ġwearer": 21920,
    "will": 1965,
    "ital": 4817,
    "surprised": 9530,
    "Ġforg": 3789,
    "Ġjustify": 11072,
    "Ġamply": 22479,
    "pieces": 8754,
    "avier": 2832,
    "Ġpr": 1600,
    "Ġpaces": 13918,
    "weaknesses": 26030,
    "Ġgrope": 17994,
    "alled": 5910,
    "Ġsavann": 14684,
    "fun": 3648,
    "Ġaid": 6122,
    "linearity": 1649,
    "comput": 1991,
    "Ġplanting": 16084,
    "balanced": 14555,
    "Ġstumble": 26483,
    "Ġunsavory": 20706,
    "Ġmah": 15538,
    "Ġsolitary": 5854,
    "Ġforgive": 8009,
    "Ġsnugly": 17111,
    "securer": 25602,
    "reduced": 15803,
    "Ġeigen": 4881,
    "Ġauthorized": 16735,
    "Ġovercame": 9742,
    "Ġmoran": 9341,
    "Ġvote": 21944,
    "Ġshirt": 8848,
    "eyeing": 14945,
    "Ġblacksmiths": 19872,
    "Ġfoss": 9847,
    "Ġrear": 6535,
    "oves": 15403,
    "anging": 3551,
    "Ġrans": 21963,
    "Ġpronounced": 8350,
    "expose": 23660,
    "Ġslabs": 13058,
    "Ġinferior": 8365,
    "Ġspeeding": 23563,
    "Ġnautical": 17385,
    "rushing": 10017,
    "Ġwelcomed": 9481,
    "inates": 21179,
    "Ġmungo": 25631,
    "profound": 16423,
    "dissemble": 23490,
    "icles": 17972,
    "quitted": 21854,
    "Ġsweep": 8265,
    "comparison": 25840,
    "itory": 12564,
    "wealth": 22685,
    "Ġdraughts": 20220,
    "oid": 3125,
    "Ġbeliefs": 24582,
    "Ġconveniences": 19811,
    "kee": 18273,
    "Ġgnarled": 25165,
    "Ġperusal": 14224,
    "bra": 6219,
    "Ġsumm": 3356,
    "Ġchronic": 9928,
    "Ġreject": 7386,
    "histicated": 20900,
    "Ġmrs": 1466,
    "sherlock": 5422,
    "Ġwatch": 2745,
    "hos": 15362,
    "Ġalong": 1976,
    "Ġreadability": 2725,
    "Ġfront": 3454,
    "Ġtornado": 24621,
    "Ġspiritual": 9929,
    "Ġdeer": 12717,
    "Ġflo": 2589,
    "one": 615,
    "Ġputting": 5326,
    "Ġoffending": 22740,
    "ela": 21566,
    "club": 26380,
    "Ġphilosop": 5057,
    "Ġly": 2267,
    "Ġattained": 14077,
    "hear": 10146,
    "drawers": 19384,
    "stricken": 9883,
    "pers": 4339,
    "Ġbridegroom": 10604,
    "diff": 9113,
    "Ġreflection": 6440,
    "Ġobject": 1393,
    "Ġunprecedented": 15852,
    "Ġstart": 3258,
    "Ġgigantic": 5914,
    "somers": 19366,
    "Ġvexatious": 19780,
    "Ġvers": 7563,
    "aloud": 17940,
    "Ġbuilded": 24719,
    "fuller": 22483,
    "Ġabsence": 4894,
    "Ġroll": 5381,
    "ture": 7558,
    "derment": 22171,
    "grasp": 16429,
    "embarr": 15796,
    "bushes": 24447,
    "Ġbelongs": 8014,
    "ique": 8742,
    "world": 5058,
    "Ġprobable": 5570,
    "Ġgurglings": 26465,
    "Ġbranches": 6776,
    "Ġcontemporary": 16010,
    "Ġfunctions": 1341,
    "ullo": 12726,
    "Ġpersons": 6182,
    "Ġlegendary": 20536,
    "Ġdragging": 14474,
    "Ġecc": 11627,
    "Ġdejection": 15195,
    "Ġalternate": 19984,
    "Ġintolerable": 8481,
    "Ġimprobable": 9792,
    "ascal": 10192,
    "Ġfelix": 4848,
    "Ġsinks": 19548,
    "crated": 16696,
    "uneasy": 23685,
    "Ġpoison": 7219,
    "Ġmiscell": 16146,
    "Ġamelia": 26250,
    "zor": 15457,
    "Ġbeauties": 10445,
    "Ġscenes": 5730,
    "Ġneedle": 8274,
    "Ġimpo": 3444,
    "Ġ20": 8613,
    "Ġrestoration": 19027,
    "Ġbelrive": 18830,
    "Ġcalendar": 18877,
    "Ġblotted": 20216,
    "Ġintric": 9245,
    "Ġgamb": 17997,
    "past": 8089,
    "immortal": 21707,
    "Ġlooked": 1803,
    "hot": 8083,
    "Ġspat": 2666,
    "gunw": 17220,
    "cific": 10085,
    "Ġdeficiencies": 26570,
    "Ġjohn": 5032,
    "tub": 9143,
    "anyone": 16593,
    "Ġdair": 17892,
    "hundred": 8330,
    "nants": 17613,
    "Ġmay": 922,
    "Ġtreasures": 17047,
    "Ġinvolved": 8926,
    "underneath": 23786,
    "Ġbrix": 12580,
    "Ġopt": 772,
    "Ġrevolut": 3257,
    "Ġconstantinople": 19836,
    "Ġdoing": 3662,
    "Ġardently": 9497,
    "wherein": 19107,
    "Ġquivered": 18467,
    "Ġsight": 2111,
    "Ġmetallic": 19044,
    "Ġelias": 18635,
    "Ġstrand": 11826,
    "Ġconnecting": 18632,
    "kings": 17583,
    "Ġspirit": 3726,
    "capitals": 25080,
    "boat": 3362,
    "garity": 17554,
    "voy": 7143,
    "Ġfoam": 6891,
    "Ġmankind": 6698,
    "Ġimpaling": 22379,
    "Ġprecautions": 23725,
    "Ġass": 1503,
    "Ġrol": 3555,
    "Ġcannib": 6035,
    "seemingly": 25362,
    "emotion": 21927,
    "Ġlexic": 15715,
    "Ġattach": 14286,
    "Ġstrove": 9956,
    "actor": 11835,
    "Ġbump": 9659,
    "bowsprit": 16853,
    "leave": 7837,
    "Ġexpon": 970,
    "Ġairs": 14512,
    "Ġtombed": 25160,
    "warmest": 25027,
    "Ġgreenhorn": 23766,
    "Ġunwillingness": 20030,
    "Ġparlour": 12319,
    "Ġseaman": 8638,
    "Ġsold": 6002,
    "Ġgrieve": 14706,
    "Ġdimension": 3239,
    "Ġsli": 4748,
    "Ġpropontis": 17465,
    "Ġanyhow": 14254,
    "Ġfritters": 23255,
    "Ġpeeped": 10011,
    "superior": 9524,
    "Ġjun": 8505,
    "Ġwoodcock": 19162,
    "Ġoversight": 22342,
    "Ġcow": 13875,
    "Ġbecher": 18879,
    "Ġprom": 1525,
    "Ġlodges": 19498,
    "Ġvile": 8472,
    "uments": 5552,
    "Ġplants": 22598,
    "Ġastonishing": 10501,
    "esc": 619,
    "Ġheard": 1397,
    "halloa": 17090,
    "stationed": 25453,
    "Ġretains": 20028,
    "Ġbutcher": 18271,
    "Ġguilt": 6179,
    "Ġalgorithm": 764,
    "Ġturnpike": 23025,
    "Ġarticulated": 24433,
    "Ġnorms": 3668,
    "carte": 25400,
    "Ġview": 2763,
    "Ġgeometric": 3216,
    "header": 11931,
    "ations": 710,
    "holland": 24039,
    "Ġ13": 6718,
    "Ġfidel": 12593,
    "Ġspeakest": 23484,
    "Ġexceeding": 1581,
    "Ġgoat": 16004,
    "subst": 12162,
    "Ġapplications": 4783,
    "atious": 10151,
    "Ġstir": 5825,
    "Ġinvaders": 23479,
    "Ġhumaneval": 25582,
    "Ġthither": 6821,
    "Ġdark": 2112,
    "94": 4803,
    "Ġmusical": 23891,
    "isol": 17846,
    "Ġbottles": 16570,
    "resolutions": 26164,
    "scr": 16241,
    "barrel": 17060,
    "Ġpossess": 3202,
    "decoder": 3645,
    "Ġtows": 19561,
    "Ġactually": 5389,
    "nor": 2743,
    "Ġbefriend": 18081,
    "tremble": 17141,
    "Ġreferred": 8916,
    "Ġguardians": 14942,
    "Ġliv": 6679,
    "ifications": 9727,
    ",_": 11462,
    "mpus": 13756,
    "Ġhourly": 23297,
    "squeezing": 25913,
    "wag": 21122,
    "Ġsavoury": 23875,
    "Ġbodiless": 24226,
    "Ġdwelling": 7322,
    "esteemed": 26009,
    "sebastian": 21817,
    "Ġthews": 21276,
    "conversation": 7122,
    "Ġwedged": 24069,
    "begged": 18519,
    "Ġcompact": 2259,
    "Ġscent": 10284,
    "conclusions": 25672,
    "ep": 440,
    "Ġcongenial": 12409,
    "burnt": 20078,
    "ander": 6401,
    "Ġpeninsula": 23193,
    "Ġtags": 20570,
    "Ġlegible": 23533,
    "supervised": 1924,
    "argue": 21422,
    "Ġinterrupt": 4362,
    "Ġlaughed": 5059,
    "Ġeffaced": 18533,
    "crews": 15042,
    "Ġgaol": 19566,
    "encountered": 20391,
    "Ġbasics": 13447,
    "Ġbegin": 3095,
    "beryls": 25309,
    "Ġcadiz": 17324,
    "Ġgeography": 23368,
    "Ġbrightness": 16576,
    "ena": 11567,
    "Ġactivation": 915,
    "Ġpurpose": 2709,
    "Ġloo": 22107,
    "Ö": 151,
    "ory": 1084,
    "Ġjumbled": 22294,
    "Ġinhabitants": 7524,
    "jane": 4483,
    "cursed": 23840,
    "Ġforswe": 21771,
    "Ġprank": 23213,
    "Ġsummar": 3525,
    "elsewhere": 19867,
    "vers": 1328,
    "Ġnoiseless": 10357,
    "ŀ": 257,
    "Ġseeking": 7035,
    "Ġretrogress": 23071,
    "eding": 7165,
    "Ġdistorted": 14249,
    "shunned": 22457,
    "contr": 12055,
    "Ġcanterbury": 22162,
    "vener": 21110,
    "Ġdiscussed": 19558,
    "landsmen": 25059,
    "Ġnations": 8809,
    "Ġmore": 678,
    "Ġcreat": 1439,
    "Ġsaturn": 22898,
    "kered": 18274,
    "Ġupp": 13991,
    "Ġheaped": 18037,
    "Ġperpetual": 12301,
    "Ġrecommended": 8667,
    "Ġdepending": 14288,
    "oices": 7348,
    "Ġlifelessly": 23047,
    "Ġcigar": 9544,
    "Ġseeing": 2886,
    "gentlemen": 9503,
    "Ġskrimshander": 22796,
    "springing": 24889,
    "Ġtattooing": 15027,
    "Ġic": 9625,
    "sleep": 6511,
    "ignorantly": 25189,
    "Ġhearses": 20058,
    "laid": 10109,
    "Ġunlucky": 10049,
    "seriously": 18903,
    "Ġwouldn": 6045,
    "they": 1879,
    "Ġfrig": 13079,
    "herfield": 3630,
    "Ġ&": 6513,
    "planks": 21951,
    "aret": 7418,
    "acked": 10974,
    "ilege": 22255,
    "Ġlives": 4826,
    "Ġinnumerable": 13350,
    "Ġdomin": 10464,
    "Ġcrowned": 16841,
    "Ġsacrificed": 17421,
    "han": 12470,
    "Ġmemories": 14541,
    "Ġimped": 18440,
    "Ġag": 684,
    "Ġturks": 14598,
    "Ġvilest": 20099,
    "Ġimposed": 14213,
    "Ġupper": 5090,
    "serious": 14447,
    "Ġstiff": 6992,
    "insufferable": 21191,
    "Ġspurred": 22135,
    "Ġgospel": 18000,
    "Ġdecreas": 1647,
    "jep": 20925,
    "Ġdeposed": 16078,
    "Ġharder": 14448,
    "ercial": 21273,
    "Ġpeaceful": 9455,
    "Ġarbit": 4651,
    "rushed": 10584,
    "Ġpostpone": 17306,
    "Ġreclining": 26033,
    "relatively": 24012,
    "Ġbishop": 13901,
    "indul": 22367,
    "Ġdeduction": 14900,
    "maybe": 23989,
    "Ġcruellest": 19657,
    "Ġparticular": 2450,
    "startled": 24941,
    "beam": 16036,
    "qualities": 25043,
    "Ġsake": 4093,
    "Ġvaluable": 5608,
    "Ġoffering": 3004,
    "recur": 4438,
    "Ġlizz": 21554,
    "Ġhartshorn": 26180,
    "Ġwinged": 16995,
    "copyright": 5277,
    "Ġimmutable": 17357,
    "Ġaccounts": 7207,
    "Ġdenote": 19332,
    "Ġetc": 7084,
    "irations": 18170,
    "Ġge": 1975,
    "Ġpanelled": 19653,
    "cob": 10086,
    "desperate": 17351,
    "Ġwol": 15528,
    "orate": 10800,
    "Ġdistance": 3485,
    "coat": 5407,
    "Ġreducing": 1955,
    "sphere": 22729,
    "Ġ113": 19695,
    "Ġsufferable": 16256,
    "Ġintentions": 10607,
    "Ġspies": 22125,
    "tier": 12512,
    "Ġbery": 13897,
    "sneezes": 11446,
    "Ġresolved": 3799,
    "Ġintensely": 17017,
    "ale": 506,
    "impul": 16556,
    "verted": 10217,
    "Ġmassacre": 20546,
    "Ġincomp": 12894,
    "2": 22,
    "Ġmates": 4872,
    "E": 41,
    "hab": 1081,
    "Ġacquitted": 18896,
    "Ġnewcomer": 26040,
    "since": 5894,
    "Ġri": 3395,
    "Ġcaress": 16338,
    "cushion": 20820,
    "Ġbethink": 12377,
    "ote": 4596,
    "cous": 8721,
    "chet": 13216,
    "Ġspiteful": 19521,
    "Ġjavan": 24997,
    "gration": 9121,
    "Ġnotes": 7189,
    "Ġrise": 5637,
    "Ġtransparent": 9488,
    "covery": 11171,
    "Ġblo": 2734,
    "Ġdecisive": 18485,
    "Ġdiverse": 19207,
    "Ġgoest": 22418,
    "Ġdirected": 5579,
    "danish": 20832,
    "blood": 7779,
    "rog": 15637,
    "also": 7850,
    "trembling": 17142,
    "rmsprop": 4522,
    "Ġrestrain": 8964,
    "Ġextinguish": 14335,
    "itig": 1332,
    "distressed": 24199,
    "berries": 22716,
    "Ġtransmit": 10308,
    "Ġtainted": 21169,
    "Ġbreaths": 14856,
    "break": 6101,
    "Ġflint": 23008,
    "intellig": 5320,
    "iquette": 26132,
    "charmed": 21693,
    "aning": 2250,
    "Ġunav": 18240,
    "Ġbroom": 18906,
    "zers": 21145,
    "Ġtophet": 23572,
    "Ġinsect": 12633,
    "Ġbast": 21377,
    "Ġstress": 18069,
    "Ġapplication": 2071,
    "inously": 21185,
    "direful": 25896,
    "Ġtestimony": 14477,
    "Ġcanopy": 18321,
    "Ġthere": 564,
    "name": 6795,
    "Ġneighbors": 25804,
    "Ġkeys": 11995,
    "larking": 17594,
    "Ġgodlike": 23353,
    "bly": 6110,
    "naturalists": 23511,
    "Ġlurch": 21552,
    "hardly": 6491,
    "Ġsurest": 19056,
    "Ġserene": 8166,
    "istan": 22105,
    "Ġdisturbing": 19944,
    "rivial": 9433,
    "invari": 21183,
    "esteem": 26008,
    "Ġadorn": 12789,
    "Ġreconcile": 25291,
    "Ġfidgeted": 25889,
    "Ġcalcul": 3637,
    "Ġfight": 5366,
    "maul": 11888,
    "Ġtwisting": 18657,
    "Ġspecimen": 13020,
    "Ġcity": 4530,
    "Ġparacels": 13666,
    "Ġdictated": 25218,
    "Ġdoubled": 19641,
    "Ġchoicest": 24220,
    "Ġcaulk": 25440,
    "inking": 6709,
    "occurred": 13336,
    "rowed": 22859,
    "Ġdeliriously": 23225,
    "Ġsecre": 5493,
    "hastily": 19701,
    "83": 13679,
    "letters": 13173,
    "Ġsituation": 4074,
    "Ġtwist": 11849,
    "reserved": 13842,
    "Ġpursuits": 12074,
    "Ġgobern": 22420,
    "Ġsympt": 7012,
    "Ġrecl": 16137,
    "Ġkindliness": 23290,
    "capting": 24037,
    "Ġlinguistic": 12423,
    "Ġjon": 15946,
    "Ġcensured": 25094,
    "prove": 11147,
    "Ġdefection": 22939,
    "Ġspouted": 14674,
    "shot": 2180,
    "threadbare": 25989,
    "Ġdoubloons": 13433,
    "frightened": 17195,
    "Ġbegan": 2021,
    "div": 8075,
    "Ġburnwell": 13267,
    "Ġhysterics": 26093,
    "Ġ123": 24468,
    "Ġbasin": 19847,
    "Ġclergyman": 8711,
    "friendly": 13283,
    "Ġdirectly": 2105,
    "Ġremonstrance": 20621,
    "Ġmission": 13003,
    "Ġjustified": 11902,
    "Ġalphabetical": 17201,
    "Ġsabbee": 17255,
    "Ġwarehouses": 20416,
    "Ġgame": 3628,
    "Ġrepresented": 8938,
    "Ġdyspepsia": 20642,
    "Ġwoods": 5406,
    "Ġwilt": 9643,
    "Ġspaulding": 11729,
    "Ġmetaphysical": 26066,
    "Ġcorrespondence": 10594,
    "Ġtroublesome": 24000,
    "Ġfluctuations": 5516,
    "anger": 2170,
    "Ġembattled": 26289,
    "t": 88,
    "Ġtarts": 10753,
    "Ġwho": 612,
    "ivering": 7697,
    "Ġagric": 22512,
    "Ġmalicious": 10557,
    "Ġthings": 1959,
    "ashed": 3786,
    "Ġfolding": 19726,
    "Ġinfallible": 15069,
    "Ġawaken": 23585,
    "Ġintelligences": 12827,
    "etween": 777,
    "usation": 18401,
    "forming": 15915,
    "shortly": 12256,
    "bus": 5354,
    "opÃ¦": 12869,
    "Ġblaming": 22927,
    "Ġobstacles": 19834,
    "iving": 1725,
    "Ġcontented": 9755,
    "Ġimplies": 24872,
    "Ġke": 1151,
    "Đ": 209,
    "Ġrequire": 952,
    "Ġthirt": 13938,
    "spoke": 11023,
    "Ġnantucketer": 6914,
    "Ġyield": 5093,
    "dually": 3282,
    "easy": 9592,
    "Ġrespects": 7269,
    "impatience": 25500,
    "Ġhunted": 7453,
    "Ġcream": 22720,
    "ubines": 22956,
    "Ġmoreover": 6163,
    "Ġpavement": 9577,
    "Ġmultitude": 9324,
    "iture": 5696,
    "uture": 1061,
    "trop": 15435,
    "Ġvolcano": 24145,
    "Ġgenial": 12192,
    "Åĵ": 10744,
    "irted": 14071,
    "Ġgag": 21590,
    "Ġbelshazzar": 16224,
    "Ġconf": 1818,
    "discover": 10539,
    "centred": 25017,
    "sink": 11521,
    "Ġselves": 21221,
    "Ġwisdom": 11234,
    "Ġgout": 21593,
    "benevolently": 25600,
    "Ġtenderest": 23549,
    "riers": 18182,
    "evidence": 25521,
    "Ġbeaks": 21752,
    "Ġdolphin": 17311,
    "Ġparc": 10920,
    "Ġtreacherous": 13553,
    "Ġbumping": 25280,
    "thirds": 25046,
    "Ġcontrivance": 17183,
    "apes": 9740,
    "lorious": 17592,
    "oro": 21393,
    "Ġyourself": 2594,
    "Ġobservations": 13552,
    "oper": 7347,
    "etch": 9204,
    "Ġvaliant": 9799,
    "Ġschedules": 3387,
    "Ġcred": 8780,
    "tch": 9141,
    "Ġsensibly": 14514,
    "Ġexpatiate": 18627,
    "longer": 8612,
    "bble": 17484,
    "Ġattic": 16093,
    "gely": 10700,
    "ze": 1336,
    "Ġbart": 17857,
    "spouter": 22730,
    "Ġtinker": 15130,
    "iful": 2883,
    "Ġslack": 8955,
    "Ġeaster": 15672,
    "Ġjesty": 18405,
    "mark": 5281,
    "ropri": 2178,
    "iply": 22350,
    "Ġunfitted": 24107,
    "Ġbene": 2031,
    "always": 5708,
    "Ġopp": 2698,
    "Ġcheat": 19021,
    "ship": 1389,
    "light": 3013,
    "ban": 9584,
    "Ġasyl": 12730,
    "seamen": 13625,
    "Ġlifting": 10196,
    "Ġshillings": 15833,
    "aping": 8193,
    "Ġchowders": 18385,
    "conjectured": 25181,
    "Ġaccident": 5380,
    "triumph": 15439,
    "masculine": 24387,
    "Ġborders": 15569,
    "Ġbloody": 9888,
    "threaten": 25461,
    "Ġhooded": 12404,
    "commanded": 16988,
    "Ġcontract": 18475,
    "pane": 10120,
    "Ġconflagration": 26364,
    "Ġhug": 6979,
    "frau": 15088,
    "Ġshocking": 10435,
    "Ġmonomaniac": 9568,
    "entimes": 12653,
    "penny": 22942,
    "Ġitaly": 10867,
    "Ġincarn": 11812,
    "Ġresurrection": 12891,
    "Ġsympat": 13339,
    "dark": 5614,
    "Ġbonds": 17869,
    "Ġapproximation": 2339,
    "Ġfirmly": 8013,
    "Ġeverywhere": 9794,
    "Ġsurveying": 25325,
    "eked": 16400,
    "Ġwipe": 25764,
    "Ġaffability": 14386,
    "Ġrambles": 17184,
    "ama": 11676,
    "stupid": 12673,
    "Ġmaz": 15539,
    "Ġveil": 7933,
    "itect": 964,
    "box": 5749,
    "rib": 1944,
    "Ġtouch": 3396,
    "Ġadvertise": 25388,
    "Ġardu": 22175,
    "bul": 6951,
    "ruck": 6848,
    "Ġsurprising": 14597,
    "Ġcaval": 25769,
    "Ġhumped": 19768,
    "standers": 18482,
    "fare": 7798,
    "Ġtamer": 24976,
    "Ġpreprocess": 22230,
    "Ġprices": 15609,
    "merc": 19279,
    "atever": 3076,
    "live": 7550,
    "pening": 2833,
    "rison": 13778,
    "Ġincome": 7916,
    "immediately": 10048,
    "isted": 3298,
    "Ġsaturation": 2061,
    "iable": 3333,
    "Ġgrotesque": 26329,
    "Ġshipped": 9714,
    "eers": 20842,
    "Ġmalays": 19676,
    "modesty": 22846,
    "Ġsanct": 15062,
    "qual": 8156,
    "number": 10114,
    "Ġfrightens": 24028,
    "sofa": 26146,
    "ay": 355,
    "opy": 4459,
    "ushing": 5731,
    "Ġtribe": 10751,
    "Ġrepressed": 21665,
    "Ġcour": 1767,
    "ici": 8439,
    "Ġsoap": 14132,
    "venerable": 26408,
    "Ġinto": 649,
    "regularization": 3515,
    "Ġsomnambul": 26576,
    "Ġscheming": 23268,
    "icide": 11617,
    "Ġspears": 12921,
    "Ġlobes": 22112,
    "Ġresearches": 13138,
    "daughter": 8353,
    "tipt": 25083,
    "rabb": 15677,
    "Ġlumps": 21553,
    "bar": 7541,
    "Ġmachinery": 20483,
    "Ġbats": 13899,
    "Ġfals": 15578,
    "Ġunsuccessful": 18257,
    "Ġdown": 830,
    "ĠâĢľâĢĺ_": 25111,
    "pleasures": 24044,
    "Ġpuff": 6526,
    "doesn": 19819,
    "rough": 589,
    "peddling": 24696,
    "yea": 23085,
    "Ġfortifications": 23619,
    "Ġforemast": 12004,
    "Ġvenerable": 9093,
    "ific": 489,
    "move": 11852,
    "depths": 25663,
    "Ġsurmis": 23462,
    "Ġcovered": 5171,
    "Ġundulated": 19515,
    "Ġmost": 1021,
    "Ġaquiline": 26159,
    "Ġresolve": 13169,
    "office": 16393,
    "Ġcreditor": 24290,
    "Ġsimpler": 2047,
    "aset": 10832,
    "Ġafrica": 12343,
    "Ġtwelve": 4963,
    "Ġdynamically": 4100,
    "Ġamends": 14245,
    "worshipping": 16610,
    "Ġsain": 17750,
    "Ġrecollecting": 17113,
    "Ġunsolved": 22030,
    "Ġbenefactor": 14697,
    "Ġpawn": 12062,
    "Ġaside": 5234,
    "odiac": 14027,
    "antediluvian": 24346,
    "Ġapplies": 11955,
    "Ġslappin": 18942,
    "ces": 580,
    "end": 497,
    "hosmer": 25902,
    "page": 13770,
    "igated": 15704,
    "Ġobviously": 16810,
    "Ġtook": 1855,
    "vis": 4577,
    "Ġdef": 1199,
    "supp": 4163,
    "oughed": 22072,
    "practical": 17221,
    "Ġinspector": 6498,
    "injured": 15131,
    "Ġfav": 1753,
    "Ġmask": 1865,
    "bular": 15312,
    "iracle": 11244,
    "tering": 3809,
    "otions": 7180,
    "ings": 636,
    "duchess": 18463,
    "Ġlee": 4222,
    "Ġcompan": 2171,
    "Ġuniversal": 2231,
    "------": 12131,
    "lection": 3654,
    "prises": 23810,
    "declared": 15117,
    "Ġaudio": 24772,
    "Ġthumb": 6981,
    "Ġeventually": 8616,
    "retched": 3065,
    "ifying": 5235,
    "Ġhills": 6527,
    "Ġtroop": 24897,
    "Ġtak": 15468,
    "tit": 11527,
    "contained": 22467,
    "ĠĠĠĠĠĠĠĠĠĠĠĠĠĠ": 22561,
    "wick": 5362,
    "Ġmourning": 13477,
    "Ġstalls": 25647,
    "Ġcannon": 14153,
    "Ġattached": 5392,
    "Ġtells": 9360,
    "Ġcivilised": 24244,
    "Ġwor": 1186,
    "Ġworsh": 12997,
    "Ġnieces": 8432,
    "Ġminimizes": 2046,
    "Ġextend": 18691,
    "Ġcurling": 9340,
    "^": 66,
    "rants": 13777,
    "Ġparamet": 604,
    "Ġcab": 2634,
    "Ġprofoundest": 16860,
    "Ġtwenty": 3950,
    "supposed": 13314,
    "xible": 13807,
    "straw": 24093,
    "Ġdue": 3847,
    "Ġmach": 13856,
    "Ġautoregressive": 3433,
    "Ġbetokened": 18794,
    "Ġregiment": 6432,
    "Ġhimmalehs": 26230,
    "uvier": 9068,
    "reigned": 21241,
    "Ġheld": 3586,
    "Ġ50": 24319,
    "Ġexe": 3995,
    "Ġdoubling": 23315,
    "Ġrealities": 18981,
    "Ġmildness": 9943,
    "ief": 2045,
    "hood": 2660,
    "onomy": 12544,
    "born": 7543,
    "Ġconstables": 19072,
    "paddington": 20476,
    "Ġaccidents": 10295,
    "mel": 9127,
    "Ġservants": 6610,
    "priv": 9619,
    "Ġflourish": 17160,
    "Ġwane": 21287,
    "Ġaloud": 6252,
    "iocr": 20922,
    "Ġcapsizing": 20087,
    "pping": 1423,
    "oir": 21001,
    "Ġestate": 6316,
    "Ġunwound": 25169,
    "Ġrushed": 4089,
    "Ġinstincts": 16986,
    "Ġrigging": 5601,
    "ill": 447,
    "Ġcowards": 12570,
    "ourse": 8869,
    "Ġentertained": 9997,
    "Ġajar": 21201,
    "Ġpassions": 7929,
    "Ġembodied": 25848,
    "Ġprivilege": 11419,
    "Ġfame": 21404,
    "Ġdutch": 6327,
    "Ġsickened": 16775,
    "tie": 21067,
    "wered": 2691,
    "Ġitself": 2524,
    "subject": 6631,
    "Ġamid": 4959,
    "Ġ57": 24325,
    "message": 17371,
    "Ġwre": 5077,
    "Ġlanding": 11983,
    "desk": 23203,
    "Ġmerrily": 23730,
    "Ġlong": 795,
    "âĢľ_": 5720,
    "offices": 19063,
    "Ġpostscript": 14807,
    "Ġperemptorily": 17366,
    "Ġejaculated": 15168,
    "Ġt": 261,
    "Ġcensure": 15094,
    "Ġstockings": 19995,
    "Ġprecipice": 19939,
    "Ġsnuffed": 15071,
    "Ġsolitude": 6876,
    "Ġchase": 3946,
    "Ġslung": 23167,
    "Ġelusive": 22642,
    "Ġrenders": 13282,
    "Ġweb": 9239,
    "Ġpartially": 13121,
    "Ġmanilla": 15957,
    "Ġtraps": 23078,
    "Ġspasmodically": 17313,
    "Ġinns": 17929,
    "Ġbaker": 4696,
    "bs": 3753,
    "pred": 2804,
    "heaven": 8052,
    "ready": 2360,
    "Ġsensational": 16390,
    "Ġquaff": 22411,
    "state": 13978,
    "Ġproblem": 1272,
    "Ġspin": 7629,
    "Ġdeliber": 7268,
    "Ġcontents": 7210,
    "Ġrevenge": 5452,
    "Ġremark": 2146,
    "Ġcherished": 10590,
    "regard": 7972,
    "text": 1970,
    "awk": 23113,
    "groom": 8739,
    "aux": 14290,
    "atic": 4019,
    "Ġhesitated": 10001,
    "Ġ4": 3987,
    "Ġperch": 10298,
    "ustom": 3791,
    "mantel": 26394,
    "Ġblend": 14397,
    "Ġperformer": 18754,
    "skelter": 24490,
    "pipe": 8696,
    "rucastle": 22185,
    "fatigue": 20657,
    "Ġtwitching": 25683,
    "Ġhappened": 3715,
    "ot": 346,
    "Ġaddison": 14232,
    "Ġdenoted": 16565,
    "Ġcaravan": 26290,
    "Ġmenaced": 16291,
    "hat": 6956,
    "inguished": 6598,
    "Ġcategorization": 12134,
    "Ġatt": 775,
    "order": 1957,
    "Ġshrouded": 14968,
    "Ġunalterable": 15849,
    "Ġfumbled": 17881,
    "sli": 11522,
    "laug": 10707,
    "Ġfaintness": 24570,
    "visited": 13346,
    "Ġrumours": 24598,
    "usage": 12830,
    "third": 8167,
    "Ġfundamental": 3010,
    "Ġnew": 1194,
    "Ġthomas": 17947,
    "Ġrecip": 16138,
    "Ġinvestig": 10549,
    "Ġfilling": 13407,
    "Ġhospital": 15039,
    "rid": 5137,
    "Ġquest": 1998,
    "Ġincommunicable": 26611,
    "horizon": 23614,
    "Ġlaunched": 14925,
    "Ġrational": 8479,
    "Ġexult": 10229,
    "Ġwarm": 2423,
    "ĠĠĠĠĠĠĠĠĠĠĠĠĠĠĠĠĠĠĠĠĠĠĠĠĠ": 24442,
    "Ġgratefully": 20443,
    "Ġdwelt": 12607,
    "instinctively": 26327,
    "Ġyoke": 18095,
    "Ġpenalty": 1839,
    "os": 525,
    "Ġdiscontented": 16056,
    "Ġsubfield": 11867,
    "Ġaccidentally": 9504,
    "rin": 10121,
    "Ġremembrance": 8317,
    "residence": 19262,
    "Ġtuning": 3070,
    "Ġbleak": 10558,
    "Ġmurderers": 16811,
    "ishmael": 18420,
    "Ġstage": 7389,
    "beheld": 11799,
    "Ġseparated": 9464,
    "Ġsinging": 7723,
    "Õ": 150,
    "clo": 5613,
    "singing": 24363,
    "Ġ>": 21150,
    "imes": 1302,
    "hotel": 20048,
    "eli": 3876,
    "ellow": 3878,
    "Ġunobserved": 18249,
    "Ġpunctual": 17137,
    "Ġ89": 19711,
    "cen": 17502,
    "Ġaltar": 9228,
    "intelligence": 5882,
    "Ġrobbery": 11903,
    "entials": 22648,
    "shoe": 14966,
    "Ġcandour": 14672,
    "Ġbingleys": 18994,
    "dation": 2614,
    "Ġhydraul": 9513,
    "Ġsmoked": 10322,
    "Ġhipp": 21489,
    "chors": 11643,
    "77": 15299,
    "Ġlo": 453,
    "itically": 21328,
    "Ġsitting": 3604,
    "Ġdying": 2135,
    "Ġhissing": 15787,
    "Ġspoilt": 24807,
    "Ġpretensions": 16558,
    "bos": 17483,
    "Ġunsafe": 22038,
    "Ġhistory": 4008,
    "unaffected": 21885,
    "tern": 4224,
    "Ġcompat": 2937,
    "cloud": 11105,
    "Ġpills": 21463,
    "Ġprivate": 5345,
    "jol": 20924,
    "Ġbrighton": 6470,
    "Ġblasted": 7936,
    "Ġbeatrix": 24204,
    "inf": 6232,
    "·": 120,
    "Ġcreeping": 18684,
    "Ġfejee": 18353,
    "phon": 4129,
    "Ă": 195,
    "Ġwhalebone": 10977,
    "far": 5787,
    "aco": 12903,
    "Ġcanoes": 12802,
    "ate": 422,
    "Ġcompassionate": 24723,
    "Ġtem": 804,
    "superstitiousness": 25508,
    "Ġinquisitive": 26317,
    "birds": 15143,
    "âĢĶ_": 3197,
    "Ġfolds": 12204,
    "lyph": 10852,
    "Ġestablishment": 13578,
    "fug": 17543,
    "Ġherein": 16189,
    "Ġcoward": 7155,
    "Ġrapidly": 3641,
    "Ġamb": 9291,
    "Ġconstrained": 19238,
    "Ġnewspapers": 17186,
    "Ġprosperous": 15169,
    "Ġbarrens": 25501,
    "Ġling": 7377,
    "Ġwheel": 9717,
    "Ġrascally": 26506,
    "humored": 19451,
    "Ġ_": 839,
    "Ġexpression": 4516,
    "annica": 24561,
    "gentleness": 24844,
    "Ġgardeners": 12118,
    "Ġroanoke": 22403,
    "Ġlost": 2636,
    "Ġtistig": 26413,
    "Ġtargets": 4205,
    "Ġexamined": 6334,
    "Ġbristol": 14379,
    "Ġunrolled": 22035,
    "Ġhorseback": 14849,
    "Ġvoice": 2190,
    "Ġpeep": 6870,
    "Ġboot": 11836,
    "Ġman": 544,
    "Ġnumerous": 6920,
    "Ġclaims": 13372,
    "Ġculprit": 26172,
    "win": 6801,
    "ged": 1511,
    "Ġren": 3848,
    "susceptible": 24661,
    "mou": 10708,
    "Ġrespons": 2685,
    "crowning": 25748,
    "utional": 17983,
    "Ġrival": 10485,
    "Ġkeepers": 23538,
    "Ġwitnessing": 19597,
    "Ġfinal": 5400,
    "Ġsex": 8841,
    "Ġheadsmen": 14732,
    "Ġinco": 14260,
    "otograph": 5826,
    "Ġbig": 5805,
    "Ġimper": 4502,
    "ientious": 11689,
    "Ġmysteries": 11322,
    "ivable": 10911,
    "Ġlucky": 7758,
    "Ġloaf": 15870,
    "L": 48,
    "hours": 9124,
    "Ġmad": 2424,
    "braces": 24658,
    "Ġshrouds": 11344,
    "despond": 19799,
    "field": 3069,
    "Ġjets": 10287,
    "Ġasi": 12728,
    "Ġthroughout": 8876,
    "indef": 17735,
    "Ġcronies": 23441,
    "Ġglittering": 10052,
    "Ġwow": 15527,
    "Ġsallied": 12534,
    "Ġcet": 6669,
    "ellation": 12746,
    "pondicherry": 26400,
    "cannibal": 15223,
    "Ġdeline": 16331,
    "corpse": 24486,
    "seldom": 13786,
    "Ġceremonious": 24837,
    "camp": 15329,
    "Ġexam": 3713,
    "spoutings": 25001,
    "Ġhardships": 14450,
    "Ġfaire": 13363,
    "Ġlent": 21544,
    "il": 329,
    "acid": 11006,
    "Ġprodig": 6027,
    "cabin": 8362,
    "Ġpursuers": 13224,
    "Ġtranquil": 7310,
    "Ġpoisonous": 24887,
    "wam": 10135,
    "Ġtransformers": 1143,
    "Ġirregularity": 25324,
    "Ġsporting": 16999,
    "alse": 4186,
    "Ġnatural": 1112,
    "Ġannoyed": 17199,
    "varying": 13803,
    "Ġmount": 7362,
    "Ġearlier": 9086,
    "Ġ37": 24076,
    "ġ": 226,
    "Ġgruff": 21611,
    "Ġproceed": 3241,
    "Ġcastles": 16639,
    "resol": 17760,
    "Ġhaggard": 17329,
    "Ġparchment": 13651,
    "Ġrights": 10396,
    "remorse": 14466,
    "Ġstumped": 24942,
    "farintosh": 24553,
    "Ġservice": 6471,
    ",âĢĿâĢĶ": 14220,
    "Ġorgies": 18287,
    "Ġreserves": 19669,
    "memory": 13616,
    "Ġcamp": 9164,
    "performed": 18342,
    "Ġleaf": 15714,
    "Ġreconciled": 13586,
    "Ġbodily": 6106,
    "Ġtracks": 18889,
    "apprehension": 26114,
    "putation": 7624,
    "dislike": 23492,
    "collect": 16563,
    "ho": 2859,
    "python": 4692,
    "Ġexpressive": 8982,
    "Ġfrog": 23918,
    "Ġpresent": 1641,
    "Ġminimizing": 3467,
    "Ġinmates": 15620,
    "Ġgaunt": 11268,
    "Ġgambler": 26190,
    "geese": 22364,
    "Ġaccusation": 22375,
    "gaffman": 26390,
    "restoration": 23234,
    "semicirc": 26491,
    "description": 11093,
    "Ġowed": 10780,
    "Ġhanging": 5447,
    "oried": 10802,
    "just": 1699,
    "Ġfamed": 16325,
    "irresist": 21909,
    "Ġlurid": 19680,
    "Ġcastaway": 16640,
    "Ġdeceitful": 25733,
    "Ġ108": 19683,
    "Ġexhibiting": 19837,
    "Ġlavater": 20493,
    "Ġatmosphere": 10897,
    "Ġhop": 1460,
    "hunter": 10555,
    "Ġknob": 24407,
    "Ġcasualties": 25512,
    "poster": 11055,
    "hearse": 17748,
    "Ġcurves": 18843,
    "Ġhear": 1962,
    "expectant": 24275,
    "oke": 1859,
    "Ġpirate": 14996,
    "ignominious": 26587,
    "slide": 24556,
    "Ġlacepede": 20494,
    "Ġoak": 6128,
    "Ġtakes": 5007,
    "Ġwayward": 22871,
    "ease": 12455,
    "Ġtrous": 10958,
    "Ġze": 8545,
    "ascribed": 24708,
    "Ġpersonality": 16476,
    "Ġtwinkling": 12322,
    "Ġgrammatical": 13538,
    "Ġcountrymen": 23594,
    "Ġsolicit": 22884,
    "mitting": 17602,
    "Ġexpressing": 12007,
    "Ġform": 1024,
    "Ġsplinters": 15101,
    "Ġwhichever": 13999,
    "Ġescapes": 23505,
    "Ġblinded": 13269,
    "Ġmostly": 7663,
    "Ġcracking": 14574,
    "aught": 2681,
    "Ġentreaties": 9035,
    "Ġstick": 6025,
    "Ġtimorous": 24225,
    "loving": 18540,
    "Ġgloried": 22984,
    "gam": 10095,
    "Ġtie": 10750,
    "Ġtransp": 4770,
    "separately": 25227,
    "Ġnavigation": 9992,
    "Ġcultured": 25154,
    "Ġfell": 1974,
    "Ġhellaswag": 24343,
    "Ġsurpasses": 25268,
    "Ġsignals": 10585,
    "ancies": 11583,
    "Ġgra": 416,
    "Ġabsolut": 3913,
    "merchant": 10467,
    "undoubtedly": 13310,
    "extra": 8218,
    "Ġsamuel": 10032,
    "Ġmacro": 25939,
    "jets": 20927,
    "iasm": 8060,
    "Ġdecisions": 6702,
    "Ġnoble": 3442,
    "ault": 2306,
    "Ġuncovered": 23430,
    "Ġbarrowful": 25595,
    "educ": 10828,
    "painful": 13501,
    "!âĢĶâĢĻ": 23564,
    "Ġlend": 17962,
    "Ġmortified": 14694,
    "led": 582,
    "Ġfloat": 12030,
    "ters": 1573,
    "Ġscalable": 1597,
    "Ġlikelihood": 16500,
    "Ġrepro": 7275,
    "Ġcommissionaire": 17000,
    "Ġraging": 14307,
    "Ġpenetrating": 17011,
    "sell": 13780,
    "perai": 10276,
    "Ġknee": 7093,
    "Ġtusk": 25425,
    "Ġbleeding": 14879,
    "july": 20473,
    "Ġmotion": 4566,
    "Ġrese": 2268,
    "ploy": 2017,
    "Ġtipped": 17728,
    "oking": 4606,
    "exception": 9975,
    "countenance": 6925,
    "Ġmeddle": 19490,
    "Ġgemini": 26469,
    "Ġwonderfully": 10430,
    "Ġdecline": 9286,
    "Ġtigers": 25758,
    "Ġpat": 1832,
    "Ġcond": 3877,
    "Ġpersonified": 19177,
    "jack": 7344,
    "somebody": 14565,
    "arson": 22745,
    "Ġclaps": 22356,
    "Ġextensive": 12941,
    "Ġextremities": 19194,
    "Ġrespect": 1668,
    "eaten": 20343,
    "Ġvault": 8840,
    "george": 26019,
    "Ġdownst": 3559,
    "Ġwildest": 16509,
    "Ġbenef": 3490,
    "Ġvows": 15806,
    "Ġinseparable": 20687,
    "Ġcanada": 22160,
    "imper": 13996,
    "Ġoccasioned": 13225,
    "Ġmosses": 20162,
    "Ġcoming": 2618,
    "Ġcoats": 16072,
    "Ġmarling": 23031,
    "Ġbuoyancy": 20040,
    "counters": 25397,
    "matic": 4619,
    "weep": 22681,
    "Ġxi": 16428,
    "Ġexhausted": 8693,
    "Ġkiss": 8182,
    "Ġcleaving": 23179,
    "Ġvaulted": 25167,
    "Ġmadam": 5663,
    "Ġunnaturally": 24870,
    "Ġnarrowly": 16820,
    "Ġex": 361,
    "Ġcontinents": 16849,
    "Ġwretch": 6378,
    "Ġprovides": 1928,
    "osque": 22258,
    "anesc": 21358,
    "oment": 919,
    "Ġterm": 2264,
    "Ġamuse": 5939,
    "Ġeas": 2351,
    "Ġgrinning": 9053,
    "Ġalbertus": 25648,
    "Ġtobacco": 8366,
    "ernally": 22616,
    "Ġheroines": 19750,
    "Ġcommenced": 8531,
    "john": 11497,
    "ğ": 224,
    "consuming": 25674,
    "Ġbaling": 17859,
    "Ġascribed": 14854,
    "city": 15326,
    "reflections": 24735,
    "Ü": 157,
    "Ġtease": 18806,
    "Ġunguarded": 15848,
    "mmar": 951,
    "Ġremotest": 10051,
    "pard": 9618,
    "illing": 8174,
    "adler": 21759,
    "Ġplanted": 9773,
    "Ġgentlemen": 3643,
    "Ġsquaring": 22835,
    "Ġplaned": 24053,
    "adagrad": 9690,
    "Ġshud": 5461,
    "Ġarcher": 22176,
    "striving": 24669,
    "sing": 5138,
    "sterdam": 19089,
    ",âĢĿ": 581,
    "Ġconfided": 19035,
    "Ġseriously": 7061,
    "Ġunexplored": 26518,
    "Ġexclamation": 8698,
    "Ġembra": 6579,
    "wrapped": 15208,
    "Ġabomination": 22275,
    "theast": 21745,
    "okers": 18446,
    "Ġoppression": 23649,
    "forget": 11032,
    "Ġstool": 14461,
    "ā": 194,
    "Ġsoundings": 13131,
    "Ġworshipping": 22925,
    "Ġdeficiency": 14402,
    "hundreds": 25073,
    "Ġhoarsely": 26302,
    "Ġprophesy": 26061,
    "ructed": 7029,
    "inconsiderable": 21190,
    "Ġhaul": 11690,
    "Ġxv": 23405,
    "Ġbond": 21382,
    "popular": 26140,
    "Ġboon": 22633,
    "Ġanalog": 12609,
    "Ġsaves": 18328,
    "unusual": 21881,
    "ishness": 22340,
    "Ġchips": 14179,
    "Ġjoints": 12033,
    "object": 6884,
    "Ġ{": 21151,
    "Ġendless": 7053,
    "Ġentreat": 4510,
    "Ġstabbed": 25456,
    "Ġcordial": 16835,
    "Ġdigress": 24648,
    "regret": 16450,
    "Ġspite": 4157,
    "Ġgrudge": 20692,
    "Ġpail": 15604,
    "Ġcourtesy": 9944,
    "Ġissue": 2310,
    "Ġfog": 9661,
    "Ġsust": 7006,
    "Ġphase": 14470,
    "Ġlandless": 23375,
    "Ġcabs": 23639,
    "Ġilluminate": 17192,
    "Ġlodged": 11252,
    "Ġsaluted": 14758,
    "Ġ70": 11276,
    "Ġrobinson": 17463,
    "Ġbedroom": 7277,
    "Ġconcil": 23317,
    "Ġloc": 10914,
    "Ġnevertheless": 5040,
    "Ġmbpp": 21320,
    "Ġfleecy": 17023,
    "Ġga": 4447,
    "Ġben": 1108,
    "Ġsegment": 12754,
    "im": 327,
    "Ġrucastles": 18721,
    "worm": 15452,
    "Ġunderneath": 16336,
    "unhes": 21877,
    "Ġclearness": 23181,
    "ieving": 7031,
    "Ġcluster": 13570,
    "ustomed": 6098,
    "Ġcopper": 7425,
    "Ġwolfish": 25935,
    "Ġimpotently": 22386,
    "glimmer": 26321,
    "Ġtoiled": 12639,
    "Ġcomparatively": 9489,
    "Ġrider": 24185,
    "attempts": 17190,
    "Ġtube": 15003,
    "Ġmatted": 22907,
    "Ġpleased": 4066,
    "Ġdespaired": 14668,
    "Ġunique": 12775,
    "Ġsensit": 2945,
    "enc": 7574,
    "Ġreus": 8821,
    "erated": 21269,
    "right": 2771,
    "command": 6576,
    "Ġshin": 18227,
    "Ġtyph": 10007,
    "civil": 7796,
    "Ġspectre": 16630,
    "Ġscheduling": 2348,
    "Ġdissect": 16050,
    "Ġimpl": 7194,
    "Ġtransparen": 10541,
    "Ġalternative": 19985,
    "Ġbell": 4636,
    "Ġtunnels": 24620,
    "istical": 8489,
    "Ġconvivial": 16547,
    "Ġgazes": 24092,
    "Ġundo": 15838,
    "Ġepicurean": 20554,
    "Ġfergus": 16867,
    "Ġprofusion": 23567,
    "raint": 18316,
    "ensed": 10996,
    "Ġsqu": 1036,
    "Ġelev": 5536,
    "Ġconcoct": 19047,
    "Ġabsor": 8504,
    "Ġstair": 8455,
    "Ġpriests": 15040,
    "thousand": 5547,
    "abated": 14019,
    "Ġmanner": 2195,
    "Ġcocaine": 20720,
    "isation": 13892,
    "Ġjud": 3358,
    "Ġarrows": 18336,
    "Ġcollateral": 20070,
    "Ġcommissioned": 19894,
    "later": 20952,
    "stairs": 5155,
    "amples": 1821,
    "Ġballasted": 23977,
    "Ġundesired": 12776,
    "Ġoverpowering": 15248,
    "urches": 12680,
    "Ġfresh": 3672,
    "affold": 16562,
    "mit": 4933,
    "species": 13256,
    "Ġindian": 4133,
    "Ġwhoa": 22417,
    "Ġel": 801,
    "Ġhint": 5016,
    "Ġembarkation": 25123,
    "Ġprovided": 6577,
    "Ġcommunicates": 24547,
    "Ġhitherto": 5879,
    "bey": 10314,
    "Ġisa": 14024,
    "simon": 16973,
    "Ġsubstant": 14808,
    "Ġidentity": 2526,
    "mare": 17599,
    "Ġhospitable": 17059,
    "queness": 18147,
    "Ġlimbs": 5965,
    "Ġwal": 6517,
    "mas": 5212,
    "Ġsensation": 6895,
    "orphans": 26440,
    "onde": 21250,
    "ĠĠĠĠĠĠĠĠĠĠĠĠĠĠĠĠĠĠĠĠĠĠĠĠĠĠĠĠĠĠĠĠĠĠĠĠĠĠĠĠĠĠĠ": 12152,
    "buffalo": 20562,
    "Ġsquared": 1380,
    "feeder": 12359,
    "by": 1155,
    "morning": 4859,
    "profitable": 17071,
    "removed": 15515,
    "fates": 20857,
    "Ġlikely": 3598,
    "Ġheinous": 18038,
    "chariot": 26479,
    "Ġsmile": 4273,
    "Ġpenal": 1772,
    "Ġtahiti": 13618,
    "Ġhaughty": 11449,
    "Ġaerial": 21197,
    "urously": 18049,
    "Ġlandlessness": 23376,
    "ored": 3897,
    "Ġgrizzled": 11450,
    "Ġgirdled": 19157,
    "Ġrocking": 10969,
    "shorn": 22449,
    "Ġsolic": 7932,
    "Ġdead": 2169,
    "Ġgesture": 11399,
    "girdling": 26389,
    "warning": 25531,
    "handle": 11190,
    "Ġheap": 12675,
    "Ġkeels": 11061,
    "send": 15422,
    "Ġzeal": 9097,
    "rising": 7557,
    "Ġa": 263,
    "gro": 10094,
    "iate": 6505,
    "Ġfelt": 1746,
    "databases": 3020,
    "Ġplausible": 26553,
    "Ġentra": 18695,
    "Ġtempest": 8213,
    "Ġsnuff": 7991,
    "Ġprendergast": 26537,
    "itative": 13869,
    "whaler": 20308,
    "rew": 3650,
    "rudence": 7092,
    "Ġworst": 7444,
    "ont": 2623,
    "apan": 6860,
    "Ġoutlast": 22310,
    "ivory": 10270,
    "Ġfrozen": 9012,
    "Ġarchitect": 968,
    "signed": 21060,
    "Ġcuts": 14607,
    "mured": 6960,
    "Ġwig": 9161,
    "cial": 2649,
    "Ġdeportment": 22594,
    "Ġdownright": 16116,
    "og": 861,
    "Ġfragrant": 13085,
    "his": 1408,
    "Ġexceed": 1345,
    "Ġancestors": 25642,
    "Ġcharing": 14178,
    "Ġannoyance": 20661,
    "Ġprecisely": 6466,
    "Ġmess": 7831,
    "orily": 15570,
    "Ġinvective": 26181,
    "Ġduck": 8793,
    "Ġdetermine": 3244,
    "Ġstony": 21740,
    "Ġhardened": 14449,
    "kine": 15374,
    "Ġswells": 9826,
    "Ġspecimens": 18857,
    "Ġanybody": 5313,
    "Ġperfidious": 25666,
    "Ġmagazine": 23097,
    "mus": 10110,
    "âĢľâĢĺ": 1482,
    "Ġarisen": 11741,
    "Ġinscrut": 10033,
    "answ": 15882,
    "Ġblaze": 16218,
    "Ġcorresponds": 19820,
    "chosen": 21692,
    "husband": 8041,
    "Ġerrors": 2597,
    "Ġbeds": 14551,
    "eneva": 5118,
    "Ġcister": 13881,
    "Ġinsatiable": 19271,
    "Ġpauses": 14814,
    "Ġcounterpart": 24721,
    "felicity": 25140,
    "Ġwings": 9163,
    "proportions": 22844,
    "Ġnoticing": 18224,
    "Ô": 149,
    "address": 14880,
    "Ġstay": 3091,
    "Ġdescent": 1005,
    "Ġunkindness": 22039,
    "igh": 2028,
    "Ġexpose": 10327,
    "speps": 14332,
    "albatross": 15627,
    "oured": 2673,
    "Ġupset": 22150,
    "Ġachieved": 13165,
    "calmly": 20138,
    "Ġhiding": 9822,
    "Ġgliding": 8559,
    "greek": 25404,
    "remembered": 17350,
    "Ġswarm": 23051,
    "avings": 12021,
    "Ġconstitutional": 25125,
    "recovered": 19786,
    "Ġorganization": 7983,
    "loom": 18538,
    "Ġenable": 685,
    "Ġaltogether": 4831,
    "Ġmeta": 3139,
    "Ġinducement": 16843,
    "Ġnasty": 17442,
    "Ġtradesmen": 17105,
    "vanished": 15060,
    "ption": 7398,
    "Ġdominion": 16529,
    "Ġexasperated": 11412,
    "Ġcrews": 8990,
    "Ġsuspic": 4471,
    "Ġregulations": 18599,
    "Ġbund": 17863,
    "_.,": 14561,
    "ridge": 9496,
    "Ġunfit": 14786,
    "Ġwilling": 7421,
    "Ġsignify": 16493,
    "Ġreynolds": 10209,
    "Ġquartered": 20371,
    "Ġperformed": 8546,
    "zas": 17712,
    "Ġtom": 15630,
    "Ġforehead": 5261,
    "Ġo": 275,
    "Ġhanded": 8216,
    "wreck": 21135,
    "drab": 23895,
    "awn": 3837,
    "Ġlive": 2736,
    "Ġcons": 953,
    "Ġjealously": 24123,
    "Ġreminding": 19796,
    "corrid": 24484,
    "Ġassumptions": 5517,
    "Ġimpotent": 18444,
    "Ġoccupations": 9457,
    "Ġsur": 2183,
    "Ġsongs": 13419,
    "Ġcrab": 13143,
    "Ġtrem": 6659,
    "Ġargu": 10934,
    "rol": 5713,
    "Ġstuck": 9222,
    "Ġnoted": 15828,
    "Ġtraverse": 18890,
    "Ġcrockery": 24301,
    "Ġxxx": 7766,
    "Ġemb": 1267,
    "Ġsearch": 2591,
    "dening": 22777,
    "Ġgeological": 14532,
    "itive": 6668,
    "Ġ42": 16678,
    "Ġwhitting": 18055,
    "blacksmith": 17001,
    "Ġmonth": 2850,
    "Ġcorre": 3890,
    "flatter": 23964,
    "Ġseals": 11695,
    "Ġsloop": 25930,
    "Ġclanking": 20610,
    "Ġcynicism": 25771,
    "Ġfancies": 10424,
    "Ġsetbacks": 11063,
    "Ġbaggy": 24538,
    "Ġsqualidness": 25842,
    "Ġtorrents": 20054,
    "relations": 14733,
    "Ġconfederate": 17353,
    "mouthed": 12398,
    "Ġstepped": 7051,
    "Ġcumulative": 4211,
    "Ġemph": 14524,
    "remains": 10398,
    "Ġconfinement": 19037,
    "icts": 22404,
    "Ġglances": 10372,
    "individual": 18436,
    "Ġdurst": 20351,
    "Ġswept": 7977,
    "Ġprinted": 11947,
    "disaster": 23491,
    "tfordshire": 4811,
    "travellers": 24318,
    "Ġcrisis": 13125,
    "early": 20117,
    "courage": 17509,
    "Ġoptimization": 1391,
    "Ġtrading": 23074,
    "Ġanyone": 4460,
    "Ġfates": 15575,
    "Ġwide": 4110,
    "Ġintensity": 10015,
    "Ġcircles": 7966,
    "whal": 10940,
    "Ġwhitish": 24866,
    "udding": 11863,
    "Ġineff": 12631,
    "vert": 15712,
    "Ġastr": 15493,
    "ductive": 23933,
    "copper": 19187,
    "Ġclassical": 22646,
    "Ġconsecut": 18111,
    "Ġreinforcement": 3341,
    "Ġpatch": 4182,
    "Ġdiscu": 4366,
    "Ġour": 1010,
    "Ġinvade": 19142,
    "Ġ87": 19709,
    "forth": 9321,
    "Ġdrawings": 14722,
    "Ġprophets": 20449,
    "cried": 8724,
    "R": 54,
    "invite": 25088,
    "Ġplanks": 5564,
    "Ġcategories": 4478,
    "amp": 2606,
    "Ġunabated": 15850,
    "Ġabsorbing": 17128,
    "Ġrepel": 23355,
    "Ġeliminating": 20618,
    "foot": 9046,
    "Ġpattered": 19041,
    "Ġinvader": 23477,
    "lipped": 16215,
    "sleeve": 26108,
    "Ġingenious": 12346,
    "Ġtypewriting": 16418,
    "Ġcolossal": 11459,
    "Ġguid": 2639,
    "re": 266,
    "autions": 20766,
    "Ġfonder": 17880,
    "posted": 24635,
    "ivered": 7005,
    "-": 17,
    "Ġpresume": 8037,
    "unhesitatingly": 26496,
    "õ": 182,
    "Ġgoodge": 22820,
    "Ġsculpture": 26016,
    "written": 7994,
    "Ġgrey": 4513,
    "Ġpromoting": 3159,
    "Ġpersecutor": 26096,
    "Ġ*": 1274,
    "Ġmercy": 8998,
    "Ġhealthy": 10851,
    "Ġpra": 4349,
    "Ġwhenever": 5166,
    "Ġclear": 1947,
    "ater": 3371,
    "Ġbowled": 23767,
    "Ġgans": 5821,
    "Ġarray": 12806,
    "philips": 20033,
    "Ġdemoniac": 15063,
    "rubbed": 22187,
    "blog": 19838,
    "Ġcorner": 4372,
    "Ġphrenologists": 25608,
    "Ġassembly": 10642,
    "pick": 17634,
    "Ġlongest": 18629,
    "Ġagreement": 18542,
    "Ġpacket": 14892,
    "Ġdine": 7366,
    "Ġpractically": 13103,
    "Ġlighted": 7063,
    "contempl": 13188,
    "Ġmeddling": 24081,
    "Ġrubber": 22784,
    "Ġlustre": 15133,
    "avail": 18567,
    "Ġpredicting": 2412,
    "Ġlimited": 23544,
    "Ġvague": 6406,
    "Ġclimate": 9274,
    "Ġinherit": 25352,
    "Ġhandsomely": 25497,
    "Ġhoot": 19076,
    "commander": 16987,
    "cular": 15327,
    "Ġric": 18209,
    "ack": 614,
    "Ġbathe": 25443,
    "Ġfurthest": 22811,
    "Ġpiling": 17908,
    "urre": 10856,
    "son": 2327,
    "Ġschools": 9476,
    "Ġsmiling": 5475,
    "Ġpoet": 8208,
    "Ġcompetition": 14267,
    "Ġpopulation": 16827,
    "ingham": 21299,
    "Ġwarden": 17224,
    "Ġflooring": 23622,
    "Ġthoughtfully": 12977,
    "Ġhum": 1100,
    "Ġexcuse": 5861,
    "anned": 17839,
    "Ġrafters": 22654,
    "Ġcelebrate": 26357,
    "Ġpoint": 2055,
    "Ġviolin": 16427,
    "inquiries": 13576,
    "Ġunluck": 8484,
    "Ġcreep": 22721,
    "thirty": 12759,
    "Ħ": 231,
    "Ġlaug": 3627,
    "Ġdivide": 12108,
    "gee": 15975,
    "Ġnavy": 14915,
    "Ġproject": 5546,
    "star": 12669,
    "Ġmovements": 24359,
    "Ġbash": 12583,
    "bore": 13685,
    "Ġinhale": 20299,
    "Ġcoasts": 12161,
    "circuit": 24188,
    "Ġsty": 6251,
    "Ġsavory": 23874,
    "Ġnewton": 3533,
    "Ġsanely": 24980,
    "Ġbelief": 5855,
    "Ġwards": 17789,
    "Ġhunters": 6300,
    "Ġinfant": 11958,
    "Ġefficiently": 4034,
    "ĠÂ£": 5006,
    "iron": 3810,
    "higher": 20405,
    "disappo": 8984,
    "Ġinteractions": 12900,
    "interesting": 12199,
    "ocr": 10468,
    "Ġcircum": 8257,
    "Ġarmitage": 23580,
    "owners": 16085,
    "Ġroast": 18455,
    "Ġbaleen": 10036,
    "Ġloom": 7628,
    "Ġaug": 6234,
    "shold": 2775,
    "Ġhypocritical": 20737,
    "Ġrefrained": 14343,
    "Ġratt": 7880,
    "recol": 10150,
    "Ġbrag": 23830,
    "Ġoysters": 20577,
    "Ġexempt": 21825,
    "claps": 23150,
    "endar": 18359,
    "Ġprecision": 13186,
    "Ġcatholic": 20680,
    "Ġgangway": 20157,
    "Ġpint": 17907,
    "asons": 6014,
    "ef": 5134,
    "Ġaccompanied": 6780,
    "Ġoceans": 7995,
    "Ġgle": 7858,
    "keel": 14128,
    "rices": 4559,
    "orative": 21396,
    "Ġmanipulated": 25178,
    "Ġlawy": 9454,
    "Ġfools": 14481,
    "rain": 461,
    "Ġtrag": 13036,
    "ees": 13710,
    "Ġattain": 12744,
    "Ġplayed": 9415,
    "Ġparcels": 25465,
    "super": 5943,
    "Ġfishe": 15583,
    "repeating": 20127,
    "upid": 6581,
    "Ġtorrid": 25032,
    "Ġfrosted": 19802,
    "Ġrelationships": 2925,
    "all": 485,
    "dependence": 17167,
    "march": 13754,
    "closing": 23153,
    "Ġmists": 14630,
    "Ġfuss": 13904,
    "Ġcatch": 4442,
    "unctuous": 21884,
    "Ġsoot": 14131,
    "Ġmechanically": 14401,
    "remark": 7261,
    "Ġtens": 17723,
    "contains": 16028,
    "Ġexclaimed": 4683,
    "Ġdiligence": 17114,
    "Ġaberdeen": 26541,
    "Ġsleepy": 8267,
    "stood": 4118,
    "judge": 13335,
    "Ġvineyard": 12328,
    "Ġbrick": 8924,
    "faith": 15024,
    "Ġalmighty": 18104,
    "Ġintegrity": 12311,
    "ise": 707,
    "complexion": 14359,
    "ierce": 14390,
    "Ġcompanion": 3644,
    "Ġmassive": 9931,
    "Ġtiara": 26415,
    "..": 5783,
    "replied": 11565,
    "Ġfrighten": 13277,
    "Ġtantamount": 25625,
    "gammon": 20242,
    "london": 9609,
    "amiable": 14052,
    "Ġundulations": 19514,
    "Ġallowing": 2172,
    "Ġguided": 10460,
    "Í": 142,
    "Ġtwilight": 16119,
    "icket": 22664,
    "Ġpad": 8124,
    "hedge": 22498,
    "Ġtar": 2566,
    "Ġnapoleon": 20556,
    "Ġbanker": 8666,
    "Ġsuccor": 25662,
    "Ġshr": 4226,
    "Ġdepose": 22592,
    "Ġexpiring": 16096,
    "avish": 22542,
    "umst": 2504,
    "'m": 9582,
    "Ġhosts": 19937,
    "Ġaltitude": 26202,
    "roman": 22001,
    "noticed": 14340,
    "pig": 8752,
    "Ġimpud": 18442,
    "ogra": 4573,
    "Ġexistence": 4707,
    "Ġthee": 2624,
    "Ġfancy": 3748,
    "Ġshone": 7404,
    "asht": 4086,
    "sm": 3437,
    "inching": 21188,
    "Ġhunter": 5401,
    "Ġhammers": 13240,
    "Ġexhibit": 14955,
    "frank": 7757,
    "turning": 8316,
    "Ġsimplest": 16332,
    "Ġdetached": 10280,
    "Ġdanes": 25156,
    "Ġdragg": 23211,
    "iceland": 21563,
    "Ġhorsham": 10406,
    "100": 11464,
    "Ġextracting": 11112,
    "Ġinvite": 14562,
    "Ġtougher": 21175,
    "Ġconcealed": 7495,
    "vac": 15449,
    "Ġcucumber": 21354,
    "Ġoptimal": 1856,
    "Ġweeping": 11685,
    "Ġincreasingly": 9369,
    "represented": 20194,
    "Ġword": 1051,
    "wheeling": 22870,
    "Ġfurrow": 22810,
    "Ġdisconnected": 22522,
    "vellers": 16673,
    "Ġinter": 727,
    "atters": 18480,
    "Ġcampa": 17173,
    "shells": 26056,
    "ĠcÃ¦sar": 20578,
    "shabbily": 26246,
    "Ġtranslates": 12049,
    "Ġzig": 18743,
    "Ġunt": 2294,
    "ourably": 14376,
    "Ġwrap": 24594,
    "uming": 8491,
    "Ġpossibility": 7458,
    "Ġsaddest": 16662,
    "Ġstomach": 11652,
    "Ġenvironment": 4336,
    "W": 59,
    "towing": 17689,
    "eastern": 17533,
    "mbly": 9793,
    "Ġtrophy": 20005,
    "sighted": 19784,
    "Ġoars": 3900,
    "anxiously": 15109,
    "Ġbloom": 9887,
    "Ġabiding": 22267,
    "Ġxxii": 24478,
    "Ġbackpropagation": 1275,
    "sledge": 21056,
    "Ġbordering": 17228,
    "Ġembarrassed": 11384,
    "ibank": 6880,
    "etite": 21576,
    "pennies": 26285,
    "pate": 21009,
    "Ġsoil": 9254,
    ".)": 6783,
    "Ġwad": 13850,
    "Ġthick": 3784,
    "Ġbrightest": 13223,
    "equally": 19898,
    "Ġhatchet": 16528,
    "Ġilluminating": 25245,
    "brother": 7091,
    "Ġinconsist": 17935,
    "Ġpromising": 10399,
    "Ġcontracted": 12857,
    "urring": 21702,
    "Ġaffirmative": 15221,
    "Ġundet": 16704,
    "conceal": 25114,
    "tomahawk": 25915,
    "Ġpurchas": 19873,
    "Ġcrevice": 22724,
    "rice": 13776,
    "conve": 14243,
    "akers": 9738,
    "combination": 25486,
    "hurst": 19878,
    "Ġsuggest": 5417,
    "ividual": 5463,
    "whales": 5187,
    "Ġdoors": 6418,
    "Ġcouple": 5423,
    "Ġvest": 8162,
    "harb": 9123,
    "Ġdecember": 15007,
    "Ġmentioned": 4330,
    "hearts": 13343,
    "itiously": 13870,
    "Ġreluctant": 20523,
    "26": 10072,
    "Ġterror": 5124,
    "Ġwilson": 6629,
    "Ġswallows": 18882,
    "ll": 1136,
    "Ġwheeling": 18288,
    "ois": 9134,
    "Ġcommis": 22667,
    "Ġpencils": 23192,
    "Ġunassuming": 20507,
    "Ġdiffident": 23781,
    "Ġwhistling": 19789,
    "Ġbelow": 4064,
    "Ġepisode": 26346,
    "glasses": 11215,
    "Ġviewing": 19263,
    "Ġ[_": 15460,
    "ribs": 23361,
    "ortions": 10948,
    "Ġontario": 26204,
    "downward": 16619,
    "Ġrejoinder": 24597,
    "Ġmemoirs": 26205,
    "Ġrespectfully": 18993,
    "Ġgerman": 6141,
    "Ġdrugged": 12604,
    "Ġet": 3581,
    "Ġpantaloons": 20295,
    "Ġleaped": 8824,
    "stately": 18021,
    "Ġperth": 7022,
    "Ġ56": 24324,
    "eds": 6674,
    "idirectional": 2418,
    "azore": 23461,
    "Ġcounterpane": 11343,
    "icates": 11616,
    "Ġequilibrium": 4142,
    "hospit": 25903,
    "Ġpreposterous": 13668,
    "Ġconverted": 16110,
    "ufact": 10733,
    "dried": 20826,
    "multiple": 15106,
    "Ġhandled": 12934,
    "Ġhapless": 15810,
    "Ġstoried": 18075,
    "recogn": 13424,
    "Ġsting": 10861,
    "Ġsob": 12784,
    "Ġchil": 11749,
    "quet": 6835,
    "Ġsmoky": 22556,
    "Ġrecept": 1522,
    "iminished": 19024,
    "Ġdesires": 9456,
    "Ġseemed": 1280,
    "Ġmoderately": 22210,
    "Ġsuperflu": 14554,
    "Ġwrinkled": 7264,
    "Ġbegrim": 23014,
    "Ġfaded": 10809,
    "pth": 2380,
    "stones": 11635,
    "Ġriddles": 16732,
    "Ġstoutest": 24628,
    "Ġhandful": 9781,
    "izure": 21838,
    "favourite": 15142,
    "Ġrecesses": 17260,
    "Ġowl": 20082,
    "Ġcorpulence": 24509,
    "Ġpuffing": 12252,
    "ivance": 22080,
    "Ġcheapside": 23284,
    "Ġvag": 9707,
    "act": 787,
    "Ġindebted": 8707,
    "Ġfreshet": 25704,
    "homage": 25616,
    "Ġpeaking": 22687,
    "Ġgenerative": 5644,
    "Ġgleamed": 17077,
    "Ġelevate": 24502,
    "instant": 8651,
    "Ġpublicly": 13321,
    "Ġinvestment": 24336,
    "which": 1709,
    "Ġbildad": 3783,
    "p": 84,
    "Ġcinque": 20484,
    "Ġfreed": 7267,
    "remained": 8569,
    "occasion": 7753,
    "Ġdocument": 15018,
    "rever": 21234,
    "Ġaback": 22263,
    "ons": 709,
    "allions": 22195,
    "Ġexclusiveness": 23924,
    "gems": 20883,
    "Ġhist": 2446,
    "Ġmuscles": 12086,
    "Ġcapt": 1292,
    "Ġcheerless": 16694,
    "Ġskewer": 19619,
    "horse": 8605,
    "Ġpause": 5707,
    "¨": 106,
    "relation": 19445,
    "Ġcousins": 9914,
    "suspect": 9539,
    "Ġcentral": 7727,
    "missing": 13217,
    "Ġfavours": 23277,
    "arity": 1304,
    "awake": 14451,
    "Ġarsac": 11740,
    "Ġaround": 3610,
    "project": 16422,
    "dition": 15339,
    "Ġchoke": 22246,
    "Ġterra": 13115,
    "Ġsouthampton": 24307,
    "Ġfanc": 6743,
    "stre": 5451,
    "creatures": 7517,
    "incredible": 16498,
    "Ġliber": 5168,
    "Ġdevice": 1927,
    "oriously": 17874,
    "Ġadvert": 10571,
    "clings": 23149,
    "cape": 13696,
    "Ġincensed": 18573,
    "Ġletter": 2196,
    "Ġaudibly": 24771,
    "Ġ67": 19659,
    "Ġstraps": 19308,
    "icable": 6388,
    "Ġadmirable": 8268,
    "Ġdevoid": 18682,
    "Ġjogged": 26236,
    "Ġol": 17814,
    "Ġhunsford": 6301,
    "serpent": 16290,
    "rets": 12538,
    "Ġfobbing": 26441,
    "oted": 4597,
    "Ġabrupt": 9735,
    "publ": 17638,
    "Ġcotton": 17378,
    "Ġunmingled": 18263,
    "Ġdelightful": 6320,
    "Ġmansion": 17809,
    "binder": 17499,
    "ram": 13971,
    "Ġreception": 9838,
    "gainst": 25141,
    "discernible": 20549,
    "malice": 17604,
    "Ġtack": 5621,
    "Ġcurse": 7666,
    "Ġxavier": 2856,
    "00": 1610,
    "Ġaband": 6561,
    "Ġhappy": 2467,
    "Ġdistinctly": 7311,
    "Ġentrances": 25834,
    "aders": 21755,
    "Ġbru": 13894,
    "Ġassiduous": 26292,
    "Ġesteem": 7531,
    "plete": 10919,
    "Ġpreviously": 3921,
    "Ġtradeoff": 2659,
    "acet": 5476,
    "Ġcarav": 18899,
    "Ġanomalous": 25637,
    "ase": 1156,
    "Ġpaper": 4284,
    "conduct": 11795,
    "Ġpore": 21455,
    "omin": 4703,
    "Ġwhatsoever": 18460,
    "Ġobservant": 20108,
    "Ġwoodlands": 23521,
    "Ġcemeteries": 26375,
    "Ġsighs": 22708,
    "exciting": 19667,
    "Ġconsistent": 14527,
    "Ġlanguid": 14219,
    "Ġirreduc": 5491,
    "Ġclassifies": 11842,
    "Ġcrawl": 11375,
    "cro": 13695,
    "dishon": 20402,
    "Ġxxiv": 24477,
    "Ġsteepest": 3085,
    "appalled": 18759,
    "Ġdevelopment": 7058,
    "warks": 5004,
    "berish": 22713,
    "İ": 241,
    "Ġsteak": 9828,
    "Ġsquee": 7928,
    "Ġsuddenness": 23378,
    "Ġreel": 9213,
    "ntax": 934,
    "ı": 242,
    "Ġprospects": 9958,
    "jolly": 20930,
    "omit": 13973,
    "Ġticklish": 25034,
    "Ġencounter": 6627,
    "Ġideal": 13119,
    "Ġstrictly": 12283,
    "woes": 21132,
    "press": 1732,
    "allers": 22194,
    "Ġdreading": 23796,
    "Ġgorgeous": 20465,
    "Ġsash": 17754,
    "Ġful": 4298,
    "Ġtrif": 6268,
    "Ġcovariate": 2349,
    "Ġindulged": 13416,
    "Ġjonah": 3482,
    "Ġstores": 18071,
    "Ġmob": 16015,
    "umphed": 23517,
    "drawn": 9912,
    "Ġjoint": 12032,
    "talked": 14984,
    "Ġpick": 4258,
    "ille": 9219,
    "Ġtho": 21511,
    "resses": 16151,
    "Ġeffemin": 18535,
    "Ġnecessarily": 13249,
    "ingle": 1037,
    "Ġgrounds": 6749,
    "Ġdoze": 14174,
    "Ġassertions": 19945,
    "Ġusual": 3944,
    "Ġpatagon": 14511,
    "gypt": 8260,
    "Ġhue": 8428,
    "Ġrefusal": 10344,
    "pike": 11514,
    "ant": 436,
    "pat": 10116,
    "sailor": 14714,
    "Ġgasping": 17038,
    "solid": 16378,
    "Ġhedge": 8363,
    "iates": 13736,
    "Ġdined": 9177,
    "Ġand": 295,
    "Ġninetieth": 25357,
    "ict": 594,
    "jac": 8381,
    "offers": 16392,
    "wes": 17703,
    "Ġbethinking": 25279,
    "representativeness": 25272,
    "Ġexpands": 25237,
    "baron": 24925,
    "Ġunconquerable": 22060,
    "cloudless": 20331,
    "Ġcough": 11580,
    "mates": 5073,
    "hammad": 23261,
    "ta": 13788,
    "Ġhut": 15616,
    "Ġdistracted": 11801,
    "famous": 16916,
    "Ġadvice": 4901,
    "Ġcoolness": 16886,
    "Ġniag": 21527,
    "Ġsingers": 23769,
    "Ġethics": 15461,
    "Ġfilled": 4396,
    "Ġbucket": 8787,
    "Ġadjusted": 23457,
    "exposure": 19256,
    "Ġparamore": 22119,
    "reception": 15513,
    "Ġcheeks": 5957,
    "write": 14647,
    "Ġ1839": 20458,
    "Ġcorpor": 23036,
    "Ġlevel": 5020,
    "Ġchivalrous": 20513,
    "Ġdates": 6693,
    "Ġsuavely": 26523,
    "Ġangles": 23587,
    "Ġentertaining": 16926,
    "Ġdesmarest": 22978,
    "ayed": 12709,
    "Ġcollectively": 19966,
    "Ġdisc": 942,
    "Ġkettle": 26232,
    "arising": 17888,
    "discern": 14850,
    "(": 12,
    "Ġcaptured": 7245,
    "emporary": 15795,
    "tales": 17686,
    "stem": 571,
    "Ġimplore": 24871,
    "Ġfretfulness": 25448,
    "Ġrounding": 16273,
    "vul": 15447,
    "Ġfearing": 12812,
    "Ġforbear": 17121,
    "Ġspires": 11728,
    "Ġdevelopments": 23238,
    "perform": 15894,
    "Ġglaciers": 20172,
    "Ġearnest": 3931,
    "Ġcaterpillar": 5864,
    "Ġyouth": 4263,
    "proposal": 18760,
    "Ġblot": 9811,
    "Ġscraping": 13415,
    "Ġanimal": 2498,
    "look": 2258,
    "Ġreconciliation": 25292,
    "overcoat": 19053,
    "Ġhorner": 8958,
    "Ġquote": 18466,
    "ials": 11704,
    "Ġthieves": 15633,
    "Ġfry": 17879,
    "did": 3192,
    "Ġphant": 7055,
    "Ġdeliberation": 19967,
    "Ġdarkness": 4279,
    "Ġdays": 2078,
    "Ġbouton": 17868,
    "Ġwhereupon": 14295,
    "Ġloud": 4701,
    "Ġjet": 5307,
    "Ġdiameter": 19866,
    "dw": 3332,
    "reporting": 24494,
    "Ġharriet": 24572,
    "Ġjeopardy": 13595,
    "speptic": 23943,
    "_": 67,
    "concl": 12866,
    "plac": 15814,
    "Ġflower": 16229,
    "Ġwaterward": 23363,
    "entric": 11618,
    "entirely": 7781,
    "book": 4670,
    "ifle": 10891,
    "Ġunho": 18245,
    "Ġafforded": 8028,
    "luding": 6700,
    "Ġremarked": 3698,
    "Ġleaders": 16627,
    "Ġusher": 22211,
    "Ġadded": 2717,
    "Ġ66": 24369,
    "Ġdiscoloured": 15251,
    "iar": 2377,
    "Ġprints": 16329,
    "Ġcould": 703,
    "Ġloungers": 24862,
    "tiest": 21080,
    "advantages": 11271,
    "blows": 17165,
    "phr": 18711,
    "'(": 2976,
    "ates": 520,
    "Ġnoise": 1073,
    "Ġswandam": 11088,
    "umul": 1290,
    "Ġpresence": 5031,
    "Ġhighest": 3529,
    "Ġosc": 2836,
    "Ġirons": 7695,
    "concerted": 16671,
    "rises": 17655,
    "church": 8139,
    "Ġobliging": 13243,
    "Ġmassac": 14736,
    "Ġiron": 3234,
    "Ġbehaviour": 4386,
    "Ġshouted": 5347,
    "approaching": 15011,
    "Ġmales": 17805,
    "walking": 9981,
    "dwelling": 20563,
    "Ġdoubts": 8578,
    "beating": 22486,
    "oboam": 9357,
    "floated": 24643,
    "Ġmonuments": 22981,
    "Ġfounded": 8556,
    "lings": 8745,
    "Ġrevealing": 3926,
    "Ġunimpe": 22069,
    "Ġenjoy": 3763,
    "Ġaugment": 8691,
    "Ġmissed": 8555,
    "b": 70,
    "Ġexcurs": 23309,
    "impregnable": 26481,
    "Ġforests": 13591,
    "Ġhans": 12623,
    "Ġtram": 11091,
    "chance": 6827,
    "doubtless": 17002,
    "rived": 5373,
    "vulgar": 25918,
    "Ġextraordinary": 5414,
    "Ġretrieval": 10674,
    "hogs": 20080,
    "iscuits": 24666,
    "Ġsket": 18728,
    "Ġmaj": 3928,
    "Ġigniting": 25070,
    "Ġspectators": 19405,
    "Ġbubbling": 17325,
    "Ġperse": 6272,
    "Ġbridal": 14953,
    "Ġsplit": 7992,
    "Ġinmost": 17930,
    "Ġcosmopolitan": 20640,
    "Ġpop": 5151,
    "Ġpar": 456,
    "itional": 22471,
    "Ġleap": 5823,
    "Ġimproper": 22755,
    "Ġeighteen": 11239,
    "Ġattack": 5478,
    "lowering": 16029,
    "Ġmincer": 14365,
    "Ġceremonies": 24836,
    "Ġthan": 734,
    "announced": 19758,
    "dozen": 23374,
    "fisher": 7547,
    "lounged": 26133,
    "Ġhampshire": 15241,
    "Ġdow": 17889,
    "ov": 15399,
    "Ġlux": 8813,
    "Ġmason": 10157,
    "Ġtow": 4397,
    "wolf": 26409,
    "wrinkles": 16554,
    "desp": 6075,
    "Ġglide": 22983,
    "stein": 5505,
    "Ġremarkably": 7702,
    "Ġaudacity": 19881,
    "elder": 21569,
    "reduc": 5459,
    "Ġensemble": 1608,
    "Ġscaffold": 18400,
    "Ġbi": 917,
    "snapping": 24849,
    "Ġgathering": 14977,
    "99": 1894,
    "Ġcontemplated": 13463,
    "Ġentail": 9791,
    "Ġconciliating": 19049,
    "univers": 15770,
    "dimensional": 2347,
    "onings": 21251,
    "Ġpeels": 22688,
    "Ġpieces": 7369,
    "cellar": 20276,
    "conceivable": 17130,
    "Ġthought": 1095,
    "Ġdropped": 4472,
    "Ġirresistible": 13111,
    "Ġchambermaid": 24304,
    "second": 6543,
    "Ġsplend": 9897,
    "Ġamiable": 4271,
    "injury": 25213,
    "Ġsl": 1497,
    "jur": 17578,
    "Ġ74": 24261,
    "Ġindec": 13927,
    "Ġcrop": 10162,
    "Ġhandsom": 11124,
    "Ġpowerful": 1527,
    "abashed": 21789,
    "Ġmistifying": 23718,
    "Ġtops": 14586,
    "Ġmaxim": 3082,
    "Ġpaused": 5416,
    "consciously": 19624,
    "idy": 21761,
    "indispensable": 14209,
    "government": 25406,
    "orus": 10801,
    "Ġpince": 21468,
    "nikin": 23253,
    "ccarthy": 4888,
    "Ġrug": 16155,
    "lane": 10706,
    "Ġendurance": 23142,
    "Ġpeterson": 9482,
    "arious": 10317,
    "Ġperman": 10965,
    "Ġmarrying": 6177,
    "Q": 53,
    "þ": 191,
    "Ġsetting": 7046,
    "iance": 5279,
    "convul": 24883,
    "ca": 20792,
    "Ġchallenge": 25471,
    "Ġarrant": 23294,
    "Ġirish": 14533,
    "above": 8147,
    "Ġdirectors": 18921,
    "mess": 13752,
    "vengeance": 13355,
    "Ġkilling": 13331,
    "Ġintu": 12760,
    "Ġhearts": 4972,
    "Ġhatty": 19264,
    "presence": 18498,
    "nered": 18488,
    "Ġdavis": 25952,
    "Ġcasement": 25092,
    "Ġoutrid": 22312,
    "Ġwhipcord": 20093,
    "Ġtoday": 12640,
    "Ġsince": 1795,
    "Ġinit": 816,
    "ourers": 21447,
    "tender": 14472,
    "Ġcounsell": 25384,
    "ceiling": 21624,
    "Ý": 158,
    "Ġherds": 9715,
    "Ġquestioning": 10463,
    "orious": 6007,
    "K": 47,
    "Ġexec": 19491,
    "Ġdel": 1613,
    "grounds": 11151,
    "Ġanalyzing": 18811,
    "Ġsuch": 794,
    "Ġnames": 4533,
    "jected": 22711,
    "Ġpalpit": 16691,
    "enderby": 25215,
    "physiogn": 26264,
    "Ġfund": 2844,
    "during": 6787,
    "Ġpeeping": 16125,
    "Ġpap": 8797,
    "Ġpitch": 5767,
    "Ġdishes": 16047,
    "Ġdrown": 6815,
    "Ġgeese": 7693,
    "Ġfully": 6342,
    "cely": 3575,
    "Ġdelight": 2551,
    "Ġtempt": 5565,
    "pper": 3208,
    "7": 27,
    "dimly": 15345,
    "Ġtruthful": 23865,
    "Ġlap": 8436,
    "bearing": 9764,
    "Ġro": 593,
    "Ġsupposition": 9816,
    "Ġvagu": 13588,
    "Ġbegging": 11080,
    "deep": 1009,
    "Ġmarvel": 23032,
    "uten": 11621,
    "Ġprimitive": 25061,
    "Ġarve": 15891,
    "Ġsweeter": 23915,
    "Ġgrandfather": 19420,
    "data": 2173,
    "unned": 21880,
    "Ġmethodic": 23111,
    "se": 358,
    "opp": 6963,
    "Ġcurt": 18841,
    "lays": 14921,
    "Ġpirates": 9073,
    "ostentatious": 20651,
    "conclusion": 25671,
    "executed": 25739,
    "Ġegotistical": 26191,
    "mpt": 6653,
    "Ġcalmness": 12090,
    "Ġneat": 6999,
    "restored": 18978,
    "eminence": 20097,
    "Ġadvancement": 24475,
    "Ġrib": 4936,
    "oned": 4631,
    "vil": 2732,
    "Ġchooses": 13345,
    "Ġautomation": 13241,
    "Ġexulting": 20257,
    "Ġarabian": 9089,
    "Ġbeacon": 21753,
    "Ġrecovering": 11861,
    "Ġswell": 8949,
    "boone": 23251,
    "Ġdaint": 15592,
    "Ġbewil": 11656,
    "Ġperil": 5557,
    "asions": 12648,
    "Ġgloomy": 7504,
    "stream": 15684,
    "windows": 19533,
    "oce": 10714,
    "Ġskil": 14351,
    "baked": 20778,
    "ribut": 814,
    "lamp": 9608,
    "canoes": 16228,
    "mped": 16647,
    "Ġindepend": 3670,
    "surf": 24212,
    "Ġmanager": 11767,
    "showing": 22453,
    "Ġscrewing": 20207,
    "Ġlewis": 15716,
    "Ġpointed": 4773,
    "59": 17473,
    "Ġimbalance": 22167,
    "Ġpatter": 800,
    "Ġpalmy": 19497,
    "garious": 17558,
    "isc": 6239,
    "Ġmist": 2878,
    "Ġpagan": 7117,
    "âĢĿ;": 11669,
    "neys": 23581,
    "oles": 21004,
    "Ġdried": 7367,
    "sway": 15424,
    "Ġfoolish": 5979,
    "Ġalgorith": 562,
    "ification": 1030,
    "Ġprospect": 4706,
    "tackle": 17320,
    "rable": 11631,
    "Ġsaf": 4002,
    "Ġwe": 388,
    "Ġstones": 9223,
    "Ġresistance": 13529,
    "Ġangrily": 9406,
    "Ġvines": 12748,
    "Ġsensationalism": 26067,
    "Ġentrapped": 26262,
    "still": 4219,
    "Ġyojo": 7610,
    "county": 25396,
    "Ġhearers": 15700,
    "**:": 4737,
    "Ġsnapping": 19299,
    "fin": 5209,
    "corner": 13396,
    "lust": 15378,
    "henry": 16625,
    "special": 14704,
    "Ġbeckoned": 25793,
    "Ġmoulded": 16975,
    "Ġseating": 18201,
    "Ġungenerous": 18266,
    "Ġslang": 23157,
    "Ġrighteous": 18945,
    "Ġinstinct": 6574,
    "obed": 14445,
    "saving": 21058,
    "pleased": 8853,
    "Ġheat": 5453,
    "Ġcapricious": 20537,
    "Ġsituated": 9447,
    "Ġprudential": 17917,
    "cherish": 24552,
    "Ġpay": 3965,
    "Ġinvol": 1085,
    "committed": 18742,
    "Ġs": 265,
    "boards": 23252,
    "Ġpledge": 11599,
    "Ġadmirably": 16480,
    "thoughts": 9934,
    "Ġalfred": 21783,
    "vial": 17697,
    "Ġmetaphys": 16387,
    "Ġreckoning": 14978,
    "Ġawoke": 7286,
    "wedding": 13370,
    "Ġundertake": 14479,
    "Ġsqueezing": 25006,
    "Ġoutrageous": 20609,
    "Ġboarding": 12084,
    "Ġhansom": 13663,
    "Ġbrid": 6290,
    "Ġboots": 5942,
    "ķ": 248,
    "rese": 15507,
    "Ġgrim": 7439,
    "commanding": 24752,
    "Ġwestern": 10654,
    "Ġvent": 3998,
    "Ġglared": 13015,
    "velled": 9875,
    "brary": 5755,
    "cowardly": 25749,
    "asion": 5714,
    "andam": 10888,
    "Ġplough": 18609,
    "Ġfloating": 6604,
    "disappointed": 25191,
    "hammered": 19004,
    "Ġlooking": 2475,
    "Ġemergency": 25731,
    "anning": 10164,
    "Ġatlantic": 7000,
    "Ġflushed": 13024,
    "Ġprot": 3850,
    "itable": 5437,
    "Ġparamount": 15876,
    "Ġabhorrence": 9052,
    "Ġheading": 8935,
    "Ġclaimed": 14205,
    "hen": 3518,
    "bowl": 14890,
    "Ġ/*": 10139,
    "yes": 986,
    "pagan": 17285,
    "Ġassertion": 13488,
    "Ġengagement": 5397,
    "proper": 7471,
    "oric": 21394,
    "Ġcultivation": 17145,
    "Ġcorners": 18875,
    "lost": 8887,
    "Ġreproof": 24890,
    "o": 83,
    "Ġveracity": 23887,
    "ie": 728,
    "Ġthoughtless": 16191,
    "Ġcontin": 5382,
    "Ġyards": 5371,
    "Ġsumat": 14129,
    "Ġphyseter": 26586,
    "Ġactionable": 24559,
    "Ġchurch": 4711,
    "traversed": 19638,
    "Ġstripped": 10465,
    "Ġpleasure": 2696,
    "gallantry": 15058,
    "Ġconversation": 3329,
    "Ġpsal": 15613,
    "Ġbrah": 19355,
    "Ġsinister": 8568,
    "chari": 21686,
    "snatched": 24850,
    "Ġpigeon": 9515,
    "Ġpurport": 14581,
    "japan": 15373,
    "Ġscrawled": 24580,
    "Ġpau": 17906,
    "har": 20889,
    "Ġfurious": 10353,
    "Ġwoody": 23519,
    "Ġchaise": 9076,
    "land": 1529,
    "):": 11461,
    "Ġexplo": 2285,
    "Ġbefell": 14009,
    "aff": 3101,
    "Ġdictionaries": 12338,
    "Ġgrateful": 7659,
    "Ġobserved": 3541,
    "Ġstared": 8454,
    "Ġbouquet": 20682,
    "Ġdrooping": 9419,
    "warm": 8101,
    "Ġsemicircle": 26068,
    "Ġinquirer": 24961,
    "Ğ": 223,
    "Ġsociety": 3979,
    "Ġhorn": 6185,
    "Ġimpregnable": 26023,
    "leo": 21362,
    "Ġnest": 10188,
    "oll": 5457,
    "Ġwinding": 8235,
    "Ġnorthumbria": 24170,
    "Ġboxed": 24360,
    "Ġaffront": 18786,
    "oa": 9612,
    "empty": 23633,
    "Ġincidentally": 16954,
    "Ġporus": 24398,
    "Ġtheorem": 2324,
    "Ġoppressed": 11189,
    "morland": 24151,
    "Ġsaturday": 6452,
    "Ġeul": 21617,
    "Ġtired": 9149,
    "Ġmechan": 1191,
    "Ġhues": 21486,
    "acon": 10681,
    "5": 25,
    "Ġconceit": 7295,
    "gree": 10701,
    "aract": 17887,
    "Ġsuperlative": 26074,
    "Ġwild": 2602,
    "Ġbashaw": 25633,
    "Ġnumberless": 16413,
    "considering": 12172,
    "abling": 1082,
    "Ġost": 9649,
    "Ġundergo": 23235,
    "Ġhier": 1893,
    "Ġpreservative": 24629,
    "Ġtoy": 15631,
    ",--": 2478,
    "Ġquiescent": 26242,
    "Ġinvoluntarily": 8549,
    "Ġaddresses": 3771,
    "Ġlearnable": 3996,
    "announce": 24560,
    "satisfactory": 16893,
    "Ġkilburn": 18351,
    "Ġfifth": 11257,
    "eration": 10772,
    "terrific": 25040,
    "Ġremarks": 7474,
    "Ġsighed": 10337,
    "Ġtelling": 5747,
    "Ġforebodings": 17303,
    "torture": 26151,
    "sulphur": 25909,
    "Ġearned": 19403,
    "Ġcondemn": 13443,
    "Ġdiver": 2532,
    "Ġd": 285,
    "Ġwhither": 10214,
    "Ġcultiv": 13555,
    "Ġresnet": 5473,
    "fier": 9593,
    "history": 15014,
    "Ġpurchased": 12258,
    "Ġcompos": 22567,
    "Ġomitted": 12561,
    "Ġinvoluntary": 18772,
    "Ġmortar": 19391,
    "knows": 19171,
    "Ġfearless": 9874,
    "lone": 11499,
    "Ġpearl": 20375,
    "Ġbundle": 13425,
    "Ġparsonage": 7123,
    "Ġar": 478,
    "rights": 23671,
    "Ġpaddled": 20200,
    "ying": 1365,
    "Ġstorms": 11262,
    "Ġgale": 5822,
    "including": 23589,
    "sombre": 23852,
    "Ġpatroness": 13509,
    "Ġforesaw": 19127,
    "Ġserpentine": 11360,
    "Ġlet": 1110,
    "Ġroman": 8322,
    "Ġproportionably": 19969,
    "Ġavoided": 13258,
    "Ġtoken": 2037,
    "dost": 14534,
    "Ġrolling": 5974,
    "Ġfought": 12590,
    "Ġjetted": 24431,
    "Ġdiscrete": 2477,
    "Ġhalloa": 13315,
    "helmsman": 24287,
    "Ġpines": 12614,
    "Ġadorned": 15246,
    "wr": 3023,
    "welcome": 10000,
    "Ġcorresponding": 13437,
    "tide": 11532,
    "ificial": 603,
    "Ġampl": 22477,
    "Ġapex": 24342,
    "Ġfanny": 23387,
    "Ġparlor": 13539,
    "Ġrhone": 25230,
    "Ġharsh": 9520,
    "Ġox": 7153,
    "acity": 5735,
    "erve": 12546,
    "sue": 2077,
    "Ġeffeminacy": 20717,
    "ribly": 8254,
    "Ġintentionally": 24523,
    "Ġpeering": 8534,
    "Ġcovari": 2336,
    "Ġadequate": 20307,
    "Ġsuperb": 16444,
    "quite": 4647,
    "Ġwretchedly": 19505,
    "utral": 12660,
    "Ġtrust": 4081,
    "slipping": 25528,
    "frost": 15105,
    "corners": 17367,
    "Ġcur": 1243,
    "Ġhinges": 15211,
    "ove": 1743,
    "Ġfondly": 19615,
    "ilies": 18056,
    "Ġmingled": 12375,
    "cou": 13694,
    "anch": 15557,
    "shaped": 10307,
    "Ġsigns": 2442,
    "remed": 18952,
    "apside": 22957,
    "Ġrecumbent": 22738,
    "Ġcrazy": 8593,
    "Ġclung": 10962,
    "Ġgrating": 14354,
    "Ġsimultaneous": 22586,
    "fif": 9116,
    "ittle": 811,
    "Ġamphitheat": 26251,
    "Ġarticle": 9501,
    "Ġmarshalled": 25315,
    "Ġsearched": 15817,
    "instinct": 19542,
    "snowy": 20282,
    "asing": 5911,
    "Ġamiss": 18511,
    "í": 174,
    "destro": 13308,
    "Ġforked": 11663,
    "Ġunsupervised": 2439,
    "Ġscorn": 7900,
    "Ġunderstand": 838,
    "Ġappearances": 10451,
    "Ġinnocently": 24026,
    "Ġrack": 9312,
    "Ġimpregn": 26022,
    "geor": 15976,
    "fered": 5560,
    "oar": 12495,
    "Ġpresuming": 16793,
    "Ġgovernesses": 25127,
    "aved": 5474,
    "Ġresources": 2936,
    "Ġhindoo": 17175,
    "nearly": 8680,
    "beheaded": 22490,
    "spouting": 25000,
    "explaining": 23138,
    "ruct": 690,
    "Ġnail": 9195,
    "century": 20045,
    "arrant": 10474,
    "Ġcocked": 12901,
    "Ġanteced": 26177,
    "carries": 19526,
    "country": 6103,
    "Ġsimul": 1807,
    "Ġphr": 2682,
    "accents": 19210,
    "Ġdistension": 22501,
    "Ġlightning": 5750,
    "Ġjudged": 12081,
    "69": 17474,
    "severe": 21816,
    "sig": 2876,
    "probable": 17021,
    "rep": 5525,
    "dimens": 2316,
    "cull": 20808,
    "Ġvisitors": 7984,
    "Ġunhallowed": 17180,
    "examine": 25477,
    "except": 5383,
    "Ġanoints": 25538,
    "shiver": 16023,
    "Ġquenched": 22414,
    "assed": 6421,
    "throt": 25659,
    "Ġportent": 12079,
    "Ġunprovided": 18260,
    "âĢĶ.": 11755,
    "pret": 7212,
    "Ġtries": 9150,
    "savor": 25022,
    "Ġproble": 1109,
    "Ġgilder": 21610,
    "Ġsmiting": 12895,
    "Ġcupidity": 24535,
    "Ġluxury": 20130,
    "iterranean": 15547,
    "Ġhereby": 10358,
    "Ġholder": 6724,
    "Ġextort": 22733,
    "Ġconsid": 1812,
    "Ġterrified": 14671,
    "darker": 24516,
    "mediterranean": 16401,
    "Ġwoe": 4793,
    "Ġdropping": 7483,
    "uble": 21101,
    "Ġdears": 18135,
    "Ġappellation": 22223,
    "Ġneutral": 12738,
    "ket": 17582,
    "arying": 9800,
    "arranted": 19318,
    "Ġappertain": 22220,
    "scorn": 22988,
    "Ġspace": 1517,
    "wander": 17709,
    "Ġdisplayed": 10608,
    "Ġpeev": 22690,
    "Ġtechni": 1765,
    "Ġdishon": 12228,
    "Ġinsomuch": 23682,
    "Ġforbearance": 12326,
    "pacific": 17641,
    "Ġmeat": 8151,
    "Ġorganisation": 23582,
    "na": 13759,
    "pulous": 15415,
    "Ġimproved": 7656,
    "Ġ78": 19612,
    "Ġnatures": 16505,
    "isles": 15561,
    "Ġtearless": 24786,
    "Ġpraises": 16730,
    "Ġattempting": 14696,
    "Ġoscill": 2858,
    "Ġdefined": 11896,
    "Ġtempted": 9056,
    "Ġexcitement": 9379,
    "age": 505,
    "89": 20758,
    "Ġplaying": 6909,
    "Ġsteed": 13037,
    "Ġexacted": 23602,
    "satisfaction": 9991,
    "Ġcolour": 4462,
    "Ġscare": 18397,
    "oop": 10715,
    "Ġoar": 6236,
    "Ġjog": 18404,
    "Ġincessantly": 11411,
    "Ġanonymous": 26178,
    "catch": 17506,
    "supernatural": 19778,
    "regarding": 15070,
    "cannon": 22959,
    "chess": 16573,
    "Ġhospitality": 13512,
    "ulls": 8837,
    "Ġclutched": 13518,
    "Ġexplanations": 15908,
    "Ġendued": 14076,
    "Ġ79": 24264,
    "Ġretire": 10381,
    "Ġborrow": 10170,
    "assist": 11766,
    "Ġarrival": 4731,
    "certain": 3678,
    "fron": 24281,
    "Ġfam": 1585,
    "Ġhissed": 15786,
    "Ġsword": 6732,
    "!": 5,
    "Ġminers": 22829,
    "Ġdromed": 15596,
    "Ġpiratical": 24801,
    "alice": 3207,
    "Ġwritten": 4170,
    "Ġphrensy": 25124,
    "ld": 386,
    "Ġpor": 5225,
    "aint": 2544,
    "cerem": 15675,
    "Ġreceived": 2950,
    "Ġarbitrary": 4736,
    "Ġheadlong": 11886,
    "Ġexactly": 2769,
    "Ġkingdom": 12017,
    "Ġsteal": 16281,
    "uguese": 20731,
    "Ġ1820": 25718,
    "Ġpursu": 3238,
    "Ġotherwise": 4658,
    "Ġdorm": 4822,
    "Ġnephew": 6404,
    "Ġafrican": 20136,
    "vid": 911,
    "unity": 4153,
    "tell": 1378,
    "ĠmanÅĵuv": 18417,
    "Ġembell": 14419,
    "Ġdelicately": 24124,
    "ê": 171,
    "depart": 12263,
    "iline": 21718,
    "Ġconceived": 8149,
    "Ġmending": 17804,
    "gain": 8736,
    "Ġpurp": 2390,
    "Ġsacrifice": 9555,
    "Ġbeat": 4492,
    "Ġ24": 13190,
    "Ġviolently": 6456,
    "Ġsam": 7569,
    "Ġunprinciple": 18254,
    "Ġmoody": 8200,
    "enger": 10773,
    "Ġterms": 2565,
    "Ġxviii": 23408,
    "Ġcart": 11582,
    "Ġscorch": 20065,
    "ent": 305,
    "Ġfiled": 15577,
    "igating": 21696,
    "Ġus": 494,
    "ield": 2405,
    "clerval": 7950,
    "older": 15756,
    "Ġslaves": 23164,
    "perpetually": 20511,
    "Ġaver": 1287,
    "Ġmainten": 16111,
    "Ġmoles": 22429,
    "reated": 10302,
    "ij": 7801,
    "summon": 23414,
    "Ġshout": 4266,
    "coarse": 16486,
    "Ġwhist": 6021,
    "Ġpods": 17912,
    "Ġindic": 2888,
    "Ġtoast": 21509,
    "tro": 15432,
    "Ġashes": 7616,
    "persu": 8027,
    "Ġblocked": 19221,
    "Ġstray": 18072,
    "Ġhoneymoon": 25645,
    "Ġrelief": 6059,
    "Ġadversity": 24303,
    "Ġchange": 1990,
    "owers": 12682,
    "Ġmagnanim": 14471,
    "Ġwip": 13852,
    "Ġswish": 23050,
    "hend": 13252,
    "Ġzealand": 12348,
    "Ġsettles": 22915,
    "ortment": 22251,
    "length": 7134,
    "Ġcounty": 9030,
    "ns": 751,
    "Ġimpending": 22380,
    "Ġclair": 6269,
    "ern": 762,
    "Ġwhistles": 24624,
    "Ġfortun": 4982,
    "bred": 11469,
    "Ġterrors": 6918,
    "Ġ221": 25068,
    "Ġsmacking": 20164,
    "Ġhinted": 6011,
    "fleece": 19946,
    "pless": 6260,
    "measureless": 20234,
    "Ġboomer": 20166,
    "¾": 127,
    "Ġskirting": 22794,
    "Ġwollstonecraft": 26425,
    "Ġhurt": 7700,
    "Ġactiv": 832,
    "Ġample": 11796,
    "Ġpart": 859,
    "ersed": 10262,
    "ogr": 18673,
    "daring": 20828,
    "Ġsteadfastly": 10651,
    "constantinople": 25507,
    "Ġunrest": 11712,
    "Ġoccasions": 7987,
    "Ġrobustness": 18871,
    "proceeded": 25190,
    "Ġpillows": 24986,
    "Ġdistances": 22500,
    "Ġtoad": 21507,
    "Ġassail": 13060,
    "ousness": 10274,
    "gled": 10699,
    "Ġlowly": 11121,
    "Ġforc": 9227,
    "Ġaccumulation": 2694,
    "adventurous": 25361,
    "Ġquestionable": 19265,
    "superstitious": 17280,
    "ench": 21278,
    "Ġsteeple": 19286,
    "Ġweltering": 19584,
    "Ġclasp": 9744,
    "Ġ166": 25004,
    "Ġsphynx": 20711,
    "Ġwr": 1543,
    "rified": 15418,
    "Ġdisappointed": 7097,
    "joining": 19444,
    "tot": 10728,
    "Ġstarbuck": 2193,
    "ested": 3481,
    "Ġasse": 8158,
    "Ġmerc": 9425,
    "elab": 21567,
    "lives": 12483,
    "ox": 9133,
    "Ġsort": 1506,
    "spears": 23939,
    "Ġmonotonically": 3836,
    "agony": 14068,
    "Ġspear": 9311,
    "Ġameric": 3856,
    "lashed": 20953,
    "bestow": 16929,
    "ulating": 10887,
    "ice": 590,
    "successful": 11358,
    "emorial": 10243,
    "Ġcoiled": 11818,
    "Ġimage": 3403,
    "limbs": 20190,
    "Ġwherein": 14294,
    "Ġlengthwise": 10452,
    "Ġdisguise": 10045,
    "watching": 16930,
    "mediate": 16512,
    "narrowly": 20346,
    "Ġunwonted": 14124,
    "Ġinsular": 19267,
    "Ġsled": 21217,
    "Ġfervent": 14895,
    "Ġfundament": 2926,
    "bation": 9102,
    "Ġstands": 5258,
    "Ġdisplays": 19856,
    "Ġgilt": 21603,
    "confined": 24332,
    "Ġdaresay": 14703,
    "Ġblood": 3166,
    "unt": 2043,
    "cord": 8723,
    "Ġkrusenstern": 26377,
    "deformity": 22142,
    "Ġabode": 7899,
    "Ġgets": 10839,
    "Ġfiends": 14827,
    "Ġconsumed": 10349,
    "Ġgiven": 1626,
    "@": 36,
    "tribute": 21087,
    "Ġplaymate": 23636,
    "sch": 21049,
    "orn": 2240,
    "yden": 21142,
    "Ġoughts": 23898,
    "Ġcurls": 22966,
    "attering": 7417,
    "Ġsmite": 22555,
    "meanwhile": 10609,
    "Ġolfactories": 26171,
    "Ġoverwrites": 5033,
    "tahit": 17692,
    "irth": 5634,
    "encoun": 12296,
    "numbers": 17616,
    "Ġdiscove": 16153,
    "Ġshank": 21994,
    "fit": 6645,
    "Ġbrand": 16185,
    "Ġneglecting": 25007,
    "Ġmouthful": 16574,
    "Ġextravagant": 17278,
    "Ġdent": 13906,
    "Ġsearching": 13161,
    "arer": 3970,
    "sterns": 23364,
    "Ġdelivered": 11115,
    "Ġut": 2279,
    "Ġjerked": 19831,
    "aug": 1210,
    "Ġcomm": 837,
    "stains": 11636,
    "Ġsleet": 8975,
    "Ġswaying": 15046,
    "Ġinsatiate": 19269,
    "Ġpsychology": 11448,
    "aments": 12722,
    "invol": 12527,
    "accident": 11181,
    "tenham": 16319,
    "Ġfears": 5729,
    "usions": 6159,
    "ald": 15622,
    "Ġfrogs": 23920,
    "wling": 11544,
    "indifference": 15980,
    "Ġnominally": 17231,
    "Ġaforethought": 25428,
    "ising": 2251,
    "Ġexplained": 5935,
    "Ġ36": 14767,
    "Ġindependence": 12102,
    "Ġassaults": 15155,
    "Ġgam": 11623,
    "Ġconductor": 24005,
    "iations": 11494,
    "mency": 18925,
    "bestowed": 12223,
    "Ġrambling": 18644,
    "byter": 16211,
    "Ġappal": 18360,
    "Ġsignature": 16492,
    "Ġcontrivances": 12355,
    "Ġtranslations": 12050,
    "good": 2900,
    "Ġgrassy": 24379,
    "joint": 24007,
    "keeper": 5597,
    "_;": 6640,
    "Ġdig": 6135,
    "Ġcrammed": 16469,
    "garet": 9597,
    "Ġnoticed": 5549,
    "pest": 6964,
    "ivers": 1980,
    "peare": 18911,
    "astonishment": 10029,
    "Ġserviceable": 24718,
    "rus": 5929,
    "_?âĢĿ": 15304,
    "Ġirreproachable": 24917,
    "creat": 20799,
    "gorith": 552,
    "bun": 12436,
    "clifford": 23154,
    "ather": 739,
    "inable": 11555,
    "idered": 4553,
    "Ġhyper": 19738,
    "cess": 536,
    "Ġhercules": 14127,
    "Ġram": 11014,
    "matters": 14873,
    "Ġstoven": 23173,
    "Ġyaw": 18094,
    "Ġstripping": 23695,
    "Ġworshippers": 25693,
    "Ġequality": 16357,
    "king": 3056,
    "Ġmort": 3462,
    "Ġcan": 468,
    "ï": 176,
    "Ġtex": 15471,
    "Ġlads": 8597,
    "fortunately": 9450,
    "maritime": 24173,
    "pregn": 18500,
    "Ġnuptial": 25782,
    "Ġdocks": 14175,
    "Ġoutbreak": 22314,
    "Ġalchemists": 26487,
    "Ġcomprehending": 24445,
    "itheat": 21336,
    "Ġrevolving": 9982,
    "Ġuninterrupted": 22043,
    "Ġfixedly": 19246,
    "Ġgrizz": 10351,
    "comfort": 5647,
    "Ġovers": 14200,
    "Ġemerging": 24612,
    "rity": 13775,
    "Ġswore": 10378,
    "Ġairy": 23313,
    "Ġretribution": 16279,
    "places": 7876,
    "Ġathe": 17741,
    "Ė": 215,
    "Ġrough": 7187,
    "bbed": 6911,
    "Ġneglect": 7941,
    "Ġgpus": 3735,
    "Ġfiss": 21410,
    "knot": 13744,
    "wil": 8395,
    "Ġexperience": 1387,
    "Ġhatch": 7847,
    "involuntarily": 20413,
    "Ġsufferings": 7513,
    "combe": 7661,
    "Ġqualified": 14949,
    "ography": 13361,
    "Ġparticle": 18671,
    "escaped": 14230,
    "Ġwit": 3844,
    ".âĢĶâĢľ": 20746,
    "Ġminimum": 23037,
    "limping": 26393,
    "requirements": 24857,
    "Ġfoolscap": 24156,
    "Ġmarried": 3408,
    "brows": 17496,
    "Ġdependency": 3489,
    "inities": 21184,
    "min": 4571,
    "Ġagreeable": 4552,
    "capable": 13700,
    "Ġsubject": 2466,
    "Ġcult": 8781,
    "lodged": 25907,
    "Ġpoisoned": 24886,
    "Ġpauper": 26179,
    "Ġfidelity": 15240,
    "mockery": 24378,
    "Ġdexterous": 15147,
    "solut": 3364,
    "coiled": 16485,
    "Ġwrist": 8242,
    "arrival": 15585,
    "Ġminutest": 14559,
    "Ġunmanner": 22026,
    "Ġeludes": 26554,
    "ignor": 8961,
    "mate": 5358,
    "Ġappointed": 20101,
    "Ġscar": 3210,
    "ĠĠĠĠĠĠĠĠĠĠĠĠĠĠĠĠĠĠĠĠĠĠĠĠĠĠĠĠĠĠĠĠĠĠĠĠĠĠĠĠ": 4517,
    "Ġantiquities": 25598,
    "feren": 768,
    "ouse": 1190,
    "strade": 5065,
    "Ġglimpses": 13431,
    "cim": 8719,
    "Ġrefuse": 5739,
    "Ġbiting": 17861,
    "Ġbrush": 17864,
    "ifice": 7198,
    "Ġhil": 10821,
    "Ġfowler": 16937,
    "Ġrustic": 14964,
    ";âĢĶ": 3752,
    "Ġuntrodden": 23522,
    "ipt": 12476,
    "onies": 6806,
    "Ġsaith": 14157,
    "Ġsounded": 8590,
    "turbable": 24531,
    "Ġsave": 4054,
    "Ġclad": 12840,
    "Ġindiam": 22950,
    "composure": 24032,
    "Ġproposition": 23247,
    "Ġmutter": 23951,
    "entered": 8814,
    "Ġthimble": 15634,
    "Ġmagic": 8232,
    "Ġexpectations": 13142,
    "Ġexploit": 19161,
    "Ġwickedness": 9525,
    "trans": 5594,
    "Ġindolent": 13002,
    "ister": 1295,
    "Ġdri": 2363,
    "Ġapril": 13661,
    "addressing": 24401,
    "Ġandromeda": 21505,
    "Ġtumultuous": 10615,
    "jumped": 20245,
    "Ġplantation": 11423,
    "sil": 5282,
    "volous": 18604,
    "Ġsuppl": 11079,
    "Ġdisp": 3359,
    "Ġhumor": 11051,
    "Ġcomfortless": 23910,
    "Ġoutweigh": 22319,
    "Ġjup": 15950,
    "Ġcabinet": 23859,
    "Ġmoisture": 12357,
    "Ġsalted": 14756,
    "Ġappo": 8498,
    "Ġwife": 2588,
    "owl": 12681,
    "mph": 20971,
    "engagements": 25853,
    "sudden": 5315,
    "Ġcetacea": 20552,
    "Ġparch": 11724,
    "tranquillity": 20545,
    "Ġcitadel": 25438,
    "Ġcin": 13874,
    "Ġye": 898,
    "Ġhideousness": 16915,
    "Ġlanterns": 24577,
    "Ġstated": 9688,
    "swelled": 19609,
    "Ġserved": 8245,
    "Ġclinch": 18431,
    "Ġcontradictory": 20395,
    "fic": 20851,
    "Ġpreferment": 19852,
    "Ġpantheistic": 26335,
    "Ġwrecked": 9965,
    "Ġmechanis": 1229,
    "dict": 15338,
    "departed": 24794,
    "Ġbreathe": 9011,
    "Ġspecific": 1999,
    "Ġdeserved": 7736,
    "jewel": 20345,
    "acknowledge": 18470,
    "asher": 15643,
    "azing": 7704,
    "Ġmalignant": 14877,
    "Ġmanifold": 13559,
    "ny": 4017,
    "bbles": 13690,
    "Ġextremest": 19193,
    "Ġtemper": 955,
    "Ġsuggestions": 24453,
    "Ġwithal": 18113,
    "joined": 13274,
    "wal": 10133,
    "solitude": 23292,
    "Ġthundering": 24291,
    "ro": 301,
    "Ġmule": 13861,
    "Ġ181": 23892,
    "Ġengage": 9334,
    "surpr": 5996,
    "Ġemptied": 24347,
    "Ġyonder": 7392,
    "emason": 18186,
    "'s": 2471,
    "Ġnlp": 3058,
    "faint": 17545,
    "station": 10844,
    "nings": 9131,
    "Ġfinest": 10392,
    "allen": 22193,
    "Ġaffections": 10384,
    "extinguish": 22766,
    "athan": 2955,
    "nurtured": 25524,
    "Ġfollowing": 4065,
    "Ġadroit": 26000,
    "seven": 8463,
    "ards": 2505,
    "Ġtumbling": 13825,
    "Ġolive": 12562,
    "uncommonly": 25549,
    "Ġcrests": 25685,
    "vital": 17700,
    "Ġspire": 18306,
    "Ġmaintained": 12931,
    "sto": 3195,
    "Ġcass": 13878,
    "Ġhumming": 12983,
    "Ġstole": 7952,
    "intention": 10367,
    "uce": 11535,
    "Ġklan": 23658,
    "Ġbeque": 18080,
    "Ġoutsk": 15954,
    "Ġteasing": 11889,
    "Ġmaker": 15540,
    "Ġjenkinson": 11431,
    "resistible": 10643,
    "cheerfulness": 20179,
    "Ġagent": 6277,
    "Ġconvalescence": 23744,
    "Ġelopement": 10329,
    "Ġshooting": 11162,
    "Ġeu": 6390,
    "ifts": 12732,
    "Ġconsort": 18723,
    "Ġmight": 963,
    "miserable": 8656,
    "Ġsubsequent": 7658,
    "ylon": 24975,
    "Ġdeeply": 4717,
    "Ġemigrant": 25859,
    "Ġtarpaulin": 26157,
    "Ġerud": 20053,
    "Ġcalms": 23040,
    "Ġbr": 1074,
    "Ġserve": 9367,
    "enemy": 15525,
    "conclude": 24064,
    "Ġcompass": 4410,
    "attempted": 20173,
    "queg": 1769,
    "Ġsixteen": 8282,
    "Ġte": 1164,
    "Ġsons": 10766,
    "scence": 14416,
    "consternation": 16912,
    "Ġundeniable": 26510,
    "troubled": 17112,
    "oniously": 21256,
    "Ġincluding": 2848,
    "Ġtormenting": 15103,
    "zening": 21147,
    "Ġwere": 554,
    "Ġslices": 23163,
    "Ġmeekly": 26490,
    "affair": 14655,
    "Ġmed": 3988,
    "Ġchili": 25561,
    "zen": 5140,
    "Ġclaim": 5106,
    "ittleness": 22376,
    "Ġcornelius": 13572,
    "Ġdoctor": 5067,
    "ians": 2359,
    "mot": 17596,
    "Ġpenetrate": 12267,
    "ception": 6562,
    "Ġdiffered": 22710,
    "urred": 8448,
    "therefore": 5953,
    "lengthwise": 19948,
    "moving": 11017,
    "Ġlivelong": 25511,
    "Ġtheme": 16016,
    "Ġwaiting": 4325,
    "Ġah": 5075,
    "Ġabject": 18391,
    "Ġbeget": 9225,
    "Ġdivers": 9665,
    "hau": 17562,
    "Ġregret": 5561,
    "Ġphaet": 16316,
    "Ġwithhold": 18115,
    "ective": 18174,
    "Ġlowermost": 23240,
    "Ġfake": 5810,
    "Ġtrouble": 3692,
    "Ġauthority": 7748,
    "ivial": 15860,
    "Ġintuitions": 17340,
    "Ġleeward": 6210,
    "Ġeat": 4644,
    "Ġcuvier": 9165,
    "Ġmichigan": 26427,
    "Ġstreaming": 19672,
    "Ġposterity": 17401,
    "belief": 13280,
    "Ġeven": 1027,
    "Ġsyllables": 25298,
    "Ġfleeting": 19326,
    "secur": 18126,
    "ĠĠĠĠĠĠĠĠĠĠĠĠĠĠĠĠĠĠĠĠĠĠ": 16225,
    "Ġdiverged": 23593,
    "Ġwithered": 19463,
    "Ġrestricted": 19028,
    "Ġmouth": 3177,
    "Ġdz": 4756,
    "ab": 345,
    "peace": 13046,
    "Ġfeeble": 12282,
    "Ġtweezers": 26556,
    "Ġtrusting": 24104,
    "Ġdome": 15588,
    "Ġlegisl": 23534,
    "Ġmother": 2067,
    "Ġev": 4828,
    "Ġparish": 8854,
    "Ġsparks": 22129,
    "Ġrounded": 14437,
    "adam": 15727,
    "Ġcurses": 13010,
    "Ġblushed": 12999,
    "introdu": 8937,
    "Ġlaws": 8002,
    "onsense": 6431,
    "Ġserpent": 6737,
    "dron": 17525,
    "igner": 21698,
    "erect": 20847,
    "Ġfrosty": 14934,
    "ographical": 16786,
    "Ġtumble": 16879,
    "Ġclerical": 25568,
    "doublo": 24660,
    "Ġknowledge": 1444,
    "factories": 19842,
    "ptember": 10893,
    "nineteenth": 26138,
    "Ġdevotedly": 24750,
    "Ġposit": 1307,
    "ulence": 15763,
    "Ġ71": 24259,
    "mon": 2308,
    "Ġthrusts": 24350,
    "Ġthrob": 21515,
    "Ñ": 146,
    "princip": 17136,
    "intim": 22931,
    "sailors": 9921,
    "gloomy": 25144,
    "igations": 18042,
    "Ġcondem": 6338,
    "50": 6784,
    "Ġflame": 7448,
    "Ġbead": 21747,
    "Ġselect": 3999,
    "Ġaunts": 21199,
    "properly": 24918,
    "Ġweek": 2828,
    "Ġbandaged": 16842,
    "Ġferule": 24499,
    "ortunities": 15936,
    "Ġsouthern": 7688,
    "Ġrises": 9712,
    "Ġcountryside": 23595,
    "quished": 21851,
    "Ġpliny": 11823,
    "esting": 7412,
    "Ġcassock": 20485,
    "Ġfist": 21402,
    "Ġguardianship": 17419,
    "ferred": 16411,
    "Ġreligions": 20106,
    "Ġridicule": 13511,
    "Ġwiser": 14730,
    "Ġgoblets": 20517,
    "proceeding": 20140,
    "Ġaffrighted": 13571,
    "Ġwhip": 8451,
    "Ġreeds": 15693,
    "Ġdreamy": 14702,
    "rely": 6123,
    "Ġjoky": 18406,
    "ominy": 13977,
    "del": 4078,
    "Ġpressure": 13421,
    "Ġcomprehend": 6494,
    "ý": 190,
    "Ġcomfortably": 16615,
    "Ġrejecting": 17051,
    "Ġloth": 17965,
    "ientiously": 21938,
    "Ġannouncing": 16754,
    "hester": 9631,
    "Ġassured": 4374,
    "Ġrome": 12153,
    "Ġshades": 9462,
    "uted": 7592,
    "Ġchaff": 18382,
    "Ġsaleve": 17391,
    "strom": 15681,
    "Ġheedfully": 24521,
    "Ġced": 10784,
    "Ġbespeaking": 26310,
    "tically": 3393,
    "Ġpreside": 18365,
    "Ġrode": 15994,
    "month": 6463,
    "mankind": 14373,
    "osure": 5306,
    "Ġcrying": 10786,
    "thur": 7188,
    "Ġscoundrel": 13669,
    "law": 6115,
    "Ġrandomly": 1919,
    "Ġinfants": 16361,
    "Ġmayhew": 12947,
    "Ġaudacious": 13459,
    "cuniary": 26379,
    "Ġrev": 6988,
    "unearthly": 19272,
    "Ġinquiring": 8999,
    "relate": 24009,
    "conv": 7213,
    "Ġcock": 11000,
    "Ġaccepted": 7750,
    "aunted": 20769,
    "Ġcampaign": 20660,
    "Ġhammock": 5768,
    "library": 12996,
    "ris": 9137,
    "Ġabandon": 12255,
    "head": 1434,
    "nature": 5359,
    "Ġdeclaring": 19418,
    "solitary": 14506,
    "considerable": 10548,
    "phant": 6287,
    "Ġlaying": 7907,
    "ignific": 11953,
    "Ġpiazza": 26450,
    "uger": 21102,
    "Ġmira": 8406,
    "Ġangry": 5498,
    "Ġreveren": 13194,
    "Ġharpoon": 3615,
    "holding": 7738,
    "condem": 16342,
    "Ġcollinses": 19129,
    "rian": 10241,
    "msprop": 2626,
    "Ġexempl": 21827,
    "ject": 876,
    "Ġhumility": 12982,
    "aze": 10074,
    "rings": 10722,
    "Ġshare": 1657,
    "Ġinsists": 23677,
    "Ġdidn": 4365,
    "Ġmaty": 22906,
    "screen": 22993,
    "recollection": 25348,
    "keep": 3853,
    "Ġjagged": 18407,
    "cription": 20817,
    "fortune": 4975,
    "capt": 3839,
    "introduced": 15123,
    "Ġoffence": 12942,
    "blunder": 24128,
    "Ġmatch": 4529,
    "infernal": 24662,
    "elopement": 23156,
    "ĸ": 249,
    "Ġeluded": 12919,
    "Ġblown": 12083,
    "neglected": 25668,
    "Ġgrapple": 25811,
    "Ġdummy": 25449,
    "Ġdun": 6673,
    "fred": 20854,
    "Ġinterests": 14569,
    "Ġsprained": 15881,
    "Ġconsequent": 18110,
    "Ġburgled": 23652,
    "asked": 8911,
    "Ġenjoys": 19448,
    "Ġfactory": 23274,
    "ires": 6037,
    "mblance": 7323,
    "Ġparr": 22116,
    "small": 6472,
    "Ġscuff": 15940,
    "olidity": 18140,
    "Ġdecanting": 22435,
    "Ġtattoo": 7359,
    "Ġstages": 14004,
    "Ġdedication": 3366,
    "Ġair": 1834,
    "Ġmysticetus": 24922,
    "Ġlow": 1646,
    "vib": 21114,
    "Ġuns": 15834,
    "every": 2812,
    "collins": 6916,
    "Ġlate": 3378,
    "Ġaux": 21198,
    "sworn": 24256,
    "ă": 196,
    "consist": 14815,
    "Ġholes": 16405,
    "jewell": 25523,
    "Ġgallant": 8654,
    "Ġmutters": 23953,
    "Ġbudge": 15163,
    "ulged": 12727,
    "Ġrendering": 16657,
    "ira": 3959,
    "Ġannounced": 9034,
    "Ġrat": 4356,
    "Ġexercising": 19906,
    "Ġvacuous": 24344,
    "usive": 8191,
    "ime": 625,
    "Ġshadowed": 24043,
    "Ġcopse": 17067,
    "Ġviews": 7290,
    "Ġvain": 3629,
    "~": 98,
    "Ġfairy": 14627,
    "pleasantness": 19769,
    "Ġslanting": 23170,
    "Ġket": 18347,
    "Ġproposal": 10018,
    "onden": 13843,
    "Ġunfavourable": 17416,
    "x": 92,
    "tedious": 22629,
    "Ġconfluent": 19038,
    "Ġbarbed": 14834,
    "Ġbursting": 8655,
    "Ġped": 6817,
    "Ġhelping": 3266,
    "fel": 8733,
    "osc": 18387,
    "ike": 5000,
    "Ġchancery": 20715,
    "Ġkeen": 4613,
    "barbaric": 26358,
    "mense": 4780,
    "Ġprodigy": 19791,
    "moon": 10335,
    "Ġsustenance": 19932,
    "aphys": 15200,
    "Åĵuv": 15181,
    "Ġintrepidity": 25550,
    "Ġarmada": 23579,
    "Ġsquall": 7043,
    "fate": 17539,
    "marks": 7346,
    "Ġslumber": 13057,
    "neighbours": 24881,
    "Ġgait": 13329,
    "Ġtin": 15462,
    "Ġborder": 10169,
    "carpenter": 11427,
    "mistak": 16878,
    "altern": 17941,
    "Ġtur": 2567,
    "Ġmorocc": 22976,
    "facts": 19841,
    "nailed": 20995,
    "Ġeasiness": 23536,
    "grey": 14911,
    "dispute": 23497,
    "Ġsensations": 5259,
    "Ġdrowsiness": 26446,
    "cond": 1666,
    "various": 10397,
    "orters": 21399,
    "Ġtexas": 25922,
    "Ġobed": 8535,
    "Ġpurely": 12229,
    "Ġwhistle": 9065,
    "Ġindisposed": 26287,
    "Ġlocker": 16911,
    "Ġsol": 1103,
    "Ġimprec": 14216,
    "Ġnat": 12642,
    "Ġbowlines": 19320,
    "Ġfresher": 23206,
    "rapt": 13972,
    "Ġappals": 22221,
    "edily": 17943,
    "Ġomniscient": 20084,
    "Ġup": 463,
    "Ġpaul": 12061,
    "Ġresignation": 18566,
    "Ġtimor": 24224,
    "Ġdebts": 8035,
    "objects": 13469,
    "Ġklux": 22192,
    "Ġintrig": 21987,
    "Ġvicinity": 7315,
    "irm": 3107,
    "Ġcomprehension": 15085,
    "Ġpanegyric": 26449,
    "Ġsurpassed": 25267,
    "ð": 177,
    "Ġparched": 11725,
    "Ġdoctrine": 24197,
    "apologizing": 26544,
    "Ġscratches": 22283,
    "madness": 14881,
    "Ġranged": 10257,
    "urean": 18122,
    "Ġmediterranean": 12313,
    "lake": 13748,
    "Ġuntimely": 16465,
    ")": 13,
    "Ġforetold": 23450,
    "gives": 15356,
    "Ġstationary": 19693,
    "Ġstubbs": 23291,
    "way": 766,
    "Ġseam": 3911,
    "Ġoppress": 13171,
    "Ġartfully": 22607,
    "Ġagricultural": 26550,
    "Ġclustered": 25233,
    "Ġanno": 9667,
    "Ġcoincid": 20316,
    "Ġgrove": 12144,
    "Ġhaggerston": 26452,
    "Ġplanets": 24054,
    "inese": 12877,
    "Ġprovid": 1007,
    "Ġsymmet": 11745,
    "baby": 25515,
    "Ġconsp": 10224,
    "iarity": 8743,
    "Ġbarricade": 14660,
    "Ġwilled": 21290,
    "Ġgroping": 13664,
    "Ġsweetest": 13247,
    "securing": 19812,
    "scor": 13017,
    "Ġfinny": 23125,
    "Ġgrotes": 19562,
    "Ġstrateg": 1368,
    "Ġacceptable": 16744,
    "Ġdeductions": 19732,
    "few": 8201,
    "dr": 6221,
    "ick": 835,
    "bingleys": 19633,
    "entropy": 1436,
    "ressed": 3019,
    "Ġfranc": 16350,
    "Ġchanced": 8186,
    "prise": 7726,
    "Ġpal": 4044,
    "twig": 23698,
    "Ġmid": 2616,
    "pile": 17629,
    "Ġfasting": 16354,
    "eter": 11620,
    "domestic": 19824,
    "Ġembrace": 16990,
    "Ġintricate": 15136,
    "Ġopinions": 9414,
    "Ġforwards": 12700,
    "itute": 9651,
    "Ġrelations": 5852,
    "Ġconducted": 10502,
    "rey": 12535,
    "Ġinsert": 19904,
    "when": 1590,
    "amplified": 26494,
    "making": 2574,
    "Ġchasing": 11752,
    "speaking": 12096,
    "Ġboarders": 16600,
    "bourine": 9395,
    "Ġskill": 6872,
    "Ġlouisiana": 25076,
    "Ġphilosopher": 12181,
    "itives": 17819,
    "Ġchilly": 25562,
    "younger": 11312,
    "where": 2092,
    "Ġconfessed": 8008,
    "xim": 1094,
    "Ġpossesses": 19350,
    "Ġmoul": 15541,
    "Ġfancied": 7326,
    "agitation": 14067,
    "Ġloathed": 15873,
    "Ġcows": 15550,
    "shell": 16284,
    "Ġ101": 24409,
    "flinging": 20867,
    "Ġeggs": 12340,
    "Ġfool": 4235,
    "Ġwhimsical": 20426,
    "Ġpinioned": 21479,
    "superst": 11325,
    "ouement": 21446,
    "Ġoutstanding": 22313,
    "Ġleak": 2159,
    "Ġrobots": 11074,
    "Ġrabb": 4165,
    "Ġ23": 13189,
    "iss": 2175,
    "Ġsmothe": 18575,
    "quadrille": 20593,
    "Ġfive": 2837,
    "Ġhip": 17920,
    "comparatively": 25839,
    "Ġsolutions": 1945,
    "inex": 14095,
    "Ġcrossed": 6068,
    "Ġstreatham": 17448,
    "Ġduodecimo": 16767,
    "Ġ31": 12128,
    "raid": 3278,
    "dying": 10694,
    "opol": 12868,
    "extent": 22763,
    "rote": 4592,
    "Ġfitly": 23997,
    "Ġdetaining": 25819,
    "Ġremorseless": 13450,
    "Ġloun": 7166,
    "sprit": 11382,
    "frame": 17116,
    "noise": 14336,
    "ocris": 23707,
    "cket": 3689,
    "anced": 1282,
    "Ġchecking": 23282,
    "en": 271,
    "falling": 24361,
    "Ġfruitless": 25605,
    "Ġrenewal": 12232,
    "Ġ82": 24458,
    "sciss": 18856,
    "Ġstings": 21734,
    "Ġbearded": 15724,
    "Ġruthless": 15284,
    "Ġreach": 4049,
    "Ġprey": 6415,
    "ly": 319,
    "ried": 923,
    ").": 1273,
    "Ġstruggle": 3677,
    "Ġimpose": 22378,
    "Ġnug": 21522,
    "Ġhistories": 14687,
    "Ġmead": 8835,
    "Ġshyness": 20305,
    "Ġbowels": 9429,
    "Ġg": 310,
    "Ġbenignity": 18781,
    "Ġconfiding": 19036,
    "osa": 22256,
    "Ġredeem": 20498,
    "intosh": 22937,
    "Ġgardiners": 11157,
    "Ġbathing": 20198,
    "Ġrainy": 24341,
    "Ġintrusted": 21989,
    "Ġske": 4815,
    "Ġafter": 871,
    "atched": 6375,
    "Ġterrible": 5327,
    "Ġjoin": 4853,
    "ugnance": 12365,
    "Ġvigil": 9506,
    "Ġhook": 6453,
    "approve": 19935,
    "Ġfumes": 21416,
    "Ġloft": 5642,
    "Ġpalsied": 25779,
    "Ġpettic": 14840,
    "Ġmisunderstand": 18704,
    "¥": 103,
    "Ġmodular": 12813,
    "traces": 24315,
    "Ġeleventh": 23365,
    "impat": 11202,
    "Ġdiscovering": 13356,
    "remain": 9837,
    "Ġavenue": 13620,
    "false": 15353,
    "Ġpettiness": 24229,
    "Ġbehavioral": 11396,
    "Ġceler": 15548,
    "Ġmccauley": 26426,
    "rayed": 23562,
    "Ġdissimilar": 22528,
    "Ġstability": 1360,
    "Ġcurled": 8225,
    "Ġnecess": 3477,
    "Ġgasped": 11372,
    "were": 2561,
    "sych": 9885,
    "urged": 18047,
    "beings": 12872,
    "Ġmetropolitan": 17275,
    "fail": 17540,
    "Ġbrow": 3990,
    "Ġarter": 22174,
    "bitter": 11241,
    "Ġdestabilizing": 5053,
    "Ġhudson": 15190,
    "oward": 6020,
    "rically": 15416,
    "east": 9115,
    "Ġnurse": 9516,
    "Ġdif": 872,
    "rained": 5162,
    "Ġheire": 18036,
    "Ġfacilitate": 26098,
    "berg": 11856,
    "vessel": 11377,
    "unwillingness": 25802,
    "pin": 13766,
    "Ġreconc": 9682,
    "countenances": 24149,
    "Ġcouns": 10520,
    "Ġedinburgh": 16435,
    "Ġdeferred": 18825,
    "information": 12391,
    "Ġducking": 17146,
    "Ġcheered": 16366,
    "belongs": 25596,
    "Ġneighbor": 25803,
    "buncle": 13691,
    "Ġpleases": 16296,
    "apothecary": 26545,
    "comrade": 20623,
    "enthusiastic": 20691,
    "reference": 13839,
    "Ġcoal": 18591,
    "Ġshrivelled": 19702,
    "Ġpetersburgh": 24228,
    "ope": 4127,
    "Ġmatrimony": 13634,
    "rences": 9271,
    "Ġmetrics": 19045,
    "Ġvisibly": 22860,
    "ari": 673,
    "Ġinvitation": 5189,
    "Ġafghan": 22626,
    "arranging": 19316,
    "drove": 16993,
    "Ġtherefore": 2237,
    "Ġon": 351,
    "Ġsingled": 23770,
    "south": 8758,
    "Ġsuccessful": 9922,
    "terbury": 21821,
    "âĢĺ": 939,
    "Ġconfine": 14510,
    "Ġignoble": 19397,
    "brevi": 24072,
    "Ġstatement": 5254,
    "oct": 7554,
    "Ġkills": 15904,
    "Ġsecondary": 23332,
    "Ġfluffy": 19362,
    "Ġexploration": 2334,
    "ucket": 2484,
    "voc": 8393,
    "Ġimbu": 15884,
    "Ġrosy": 18457,
    "Ġhydraulic": 10063,
    "Ġeyebrows": 23516,
    "meditation": 19068,
    "rench": 3969,
    "oran": 8788,
    "Ġchanges": 2286,
    "Ġadd": 629,
    "ace": 716,
    "Ĉ": 201,
    "Ġcopy": 10163,
    "Ġensuring": 11191,
    "Ġslit": 13054,
    "opic": 22473,
    "matical": 13127,
    "Ġdemeanour": 17336,
    "Ġmarsh": 9820,
    "Ġpleated": 16295,
    "Ġjulia": 22299,
    "Ġmaintenance": 17461,
    "Ġunman": 12771,
    "Ġendeavors": 16545,
    "Ġcannibals": 10587,
    "Ġminor": 12965,
    "fanning": 20865,
    "Ġcheetah": 14502,
    "oping": 5559,
    "Ġsubord": 22785,
    "Ġrescue": 13341,
    "Ġcroquet": 9961,
    "Ġimbib": 22168,
    "Ġbattle": 5907,
    "Ġdevices": 2940,
    "icity": 2542,
    "moor": 22701,
    "Ġhan": 15615,
    "shake": 22447,
    "Ġmummy": 25768,
    "Ġbuffalo": 11429,
    "moonlight": 25375,
    "Ġimmortality": 26325,
    "read": 3274,
    "obvious": 9356,
    "Ġundec": 22016,
    "fixedly": 24929,
    "ascertain": 21540,
    "Ġthoughtfulness": 18773,
    "Ġsubterraneous": 20264,
    "Ġravings": 18646,
    "Ġcaut": 6521,
    "Ġsovereign": 10061,
    "Ġsolicited": 20035,
    "Ġmuttering": 10499,
    "done": 6500,
    "Ġstaid": 21735,
    "levi": 7047,
    "Ġvalley": 5850,
    "venison": 22625,
    "Ġsuits": 22074,
    "hon": 6793,
    "Ġconcuss": 19048,
    "Ġwhen": 514,
    "Ġtelescopes": 25690,
    "Ġnation": 12644,
    "Û": 156,
    "ego": 4038,
    "Ġrenew": 6145,
    "disgust": 23494,
    "Ġbillow": 14778,
    "Ġsch": 13834,
    "Ġparl": 8177,
    "Ġpall": 7582,
    "Ġparcel": 15198,
    "Ġrespectful": 16344,
    "Ġhast": 3149,
    "Ġhandwriting": 14318,
    "Ġstrengthen": 20699,
    "Ġstowed": 21736,
    ",)": 9100,
    "onstr": 12543,
    "Ġvia": 2381,
    "sword": 10726,
    "giving": 8738,
    "Ġbraced": 16579,
    "Ġsquatted": 25841,
    "crimes": 16697,
    "kilt": 4866,
    "whew": 22868,
    "Ġhousings": 21490,
    "Ġentranced": 25833,
    "Ġimpertinence": 11366,
    "avoid": 9298,
    "Ġdissol": 18551,
    "Ġmundane": 26429,
    "Ġcommunic": 5751,
    "hs": 8377,
    "Ġresigned": 9767,
    "ouses": 5163,
    "Ġcommunicating": 16889,
    "Ġstraw": 9428,
    "Ġcomputers": 2646,
    "consciousness": 13364,
    "Ġcoupled": 16851,
    "artic": 14221,
    "Ġvapor": 8699,
    "veil": 18045,
    "Ġprojecting": 9984,
    "Ġbes": 2662,
    "Ġobligation": 13244,
    "Ġ54": 24322,
    "means": 9785,
    "Ġcrumbs": 20639,
    "Ġscolded": 25472,
    "Ġill": 2192,
    "Ġwatchful": 16525,
    "difficulty": 12388,
    "Ġheightens": 24152,
    "Ġperches": 18449,
    "Ġendured": 6072,
    "Ġvacant": 9494,
    "Ġnewcastle": 16221,
    "Ġconvenience": 11331,
    "Ġfig": 3624,
    "Ġemotions": 8969,
    "Ġwhence": 5839,
    "sometimes": 5971,
    "manners": 16183,
    "Ġtraditions": 11443,
    "Ġsecrecy": 7316,
    "Ġministers": 22830,
    "arest": 4005,
    "together": 3556,
    "Ġmaterially": 12189,
    "Ġ22": 8278,
    "unning": 4494,
    "Ġbo": 796,
    "Ġjustification": 22963,
    "Ġhearty": 9844,
    "Ġgeneralization": 985,
    "cies": 1813,
    "bib": 17491,
    "merry": 16536,
    "cle": 3957,
    "Ġphys": 5653,
    "Ġinv": 2222,
    "Ġtales": 10141,
    "ential": 824,
    "Ġenthusiasm": 8064,
    "Ġcarriages": 11097,
    "Ġcontrived": 10303,
    "intments": 18820,
    "Ġdemean": 12720,
    "Ġsoliloquized": 17301,
    "block": 11470,
    "Ġbitterest": 12400,
    "Ġunparalleled": 15851,
    "Ġnowadays": 18546,
    "astic": 1867,
    "Ġperadventure": 22396,
    "Ġbarrow": 12067,
    "Ġhams": 16612,
    "Ġtwain": 16117,
    "owe": 15706,
    "Ġmidnight": 5265,
    "Ġexploring": 4306,
    "Ġmoored": 11790,
    "Ġleaky": 2345,
    "sect": 8152,
    "Ġstile": 21732,
    "Ġdrawling": 19435,
    "Ġundoubtedly": 8312,
    "Ġcrest": 12938,
    "Ġfinancial": 23127,
    "Ġdest": 2235,
    "Ġrecognise": 12041,
    "nourished": 26398,
    "Ġbeg": 1284,
    "gods": 13365,
    "vex": 21699,
    "Ġsupreme": 13606,
    "Ġadviser": 25312,
    "Ġconsulting": 13428,
    "Ġroyalty": 19735,
    "Ġconvince": 14642,
    "spanish": 14330,
    "acca": 23596,
    "Ġturban": 23612,
    "vour": 17699,
    "Ġinstant": 2705,
    "ĠdÃ¦mon": 7844,
    "Ġspent": 3966,
    "Ġtale": 5142,
    "very": 498,
    "95": 17477,
    "Ġsnodhead": 19300,
    "Ġtickets": 17094,
    "everything": 6324,
    "Ġemper": 9860,
    "Ġglobules": 26588,
    "Ġmedicine": 15204,
    "Ġties": 12524,
    "ulate": 5233,
    "lose": 12879,
    "Ġangelic": 19626,
    "Ġbeamed": 23720,
    "Ġpreach": 14172,
    "Ġbour": 4876,
    "rodu": 1817,
    "itarian": 21335,
    "Ġshad": 3852,
    "ators": 7829,
    "pse": 21008,
    "wrote": 11546,
    "Ġneighbourhood": 5126,
    "Ġprocure": 9509,
    "87": 20756,
    "Ġbarrels": 9435,
    "Ġconcussion": 26300,
    "iriously": 18171,
    "Ġthose": 1170,
    "Ġplains": 14623,
    "unbidden": 21896,
    "Ġxx": 5492,
    "Ġlucerne": 23862,
    "Ġawaited": 17074,
    "ĠĠĠĠĠĠĠĠĠĠĠĠĠĠĠĠĠĠĠ": 22947,
    "necessary": 5881,
    "Ġbolted": 12242,
    "beaten": 20314,
    "tural": 21065,
    "definition": 23117,
    "aper": 4999,
    "pie": 21010,
    "hip": 8740,
    "Ġmuzzle": 21319,
    "Ġbuffaloes": 25217,
    "Ġbranch": 8331,
    "Ġinherent": 4591,
    "conject": 8879,
    "mber": 7803,
    "Ġpatent": 11964,
    "Ġexasperate": 20096,
    "Ġhedgehogs": 25394,
    "iards": 17574,
    "bru": 12437,
    "Ġwreat": 15529,
    "Ġunmindful": 22063,
    "omn": 15679,
    "irt": 3074,
    "Ġnear": 1718,
    "Ġmethods": 3158,
    "ached": 2320,
    "Ġdoomed": 11342,
    "Ġresided": 11809,
    "spee": 9316,
    "Ġfagged": 17882,
    "Ġbackgammon": 22660,
    "batross": 9092,
    "indeed": 4488,
    "Ġcommercial": 22670,
    "Ġprincipal": 6496,
    "Ġleaves": 5021,
    "Ġsubordinate": 18722,
    "Ġcontent": 5034,
    "Ġcircumstance": 4987,
    "Ġvary": 15805,
    "Ġabhorrent": 16856,
    "marching": 25752,
    "Ġcolleg": 22854,
    "Ġcreditors": 20128,
    "heavens": 19744,
    "Ġiroquois": 26470,
    "Ġhempen": 13549,
    "Ġgraze": 18226,
    "added": 11658,
    "Ġsupernatural": 9872,
    "ifting": 6545,
    "Ġlevelled": 11284,
    "Ġrich": 2989,
    "ignomin": 23264,
    "distance": 12150,
    "Ġrickety": 26505,
    "incidentally": 20538,
    "Ġantagon": 19549,
    "Ġnine": 5369,
    "plentiful": 21953,
    "Ġpatched": 16384,
    "venant": 22624,
    "Ġlizard": 12651,
    "vicious": 21117,
    "Ġskeleton": 5514,
    "romang": 22002,
    "Ġexpedition": 10633,
    "times": 8098,
    "Ġguests": 12285,
    "Ġsymph": 22208,
    "Ġmitigating": 1616,
    "Ġjavelin": 26104,
    "Ġindispens": 22951,
    "Ġheal": 21678,
    "Č": 205,
    "Ġvexed": 9993,
    "Ġmeet": 2806,
    "Ġterrific": 6754,
    "Ġclutches": 20016,
    "retired": 11934,
    "Ġthinks": 6169,
    "inquire": 16932,
    "courageous": 26127,
    "hilar": 25081,
    "Ġpeeled": 14317,
    "Ġhag": 12622,
    "Ġstarlight": 24626,
    "per": 480,
    "Ġgleams": 17309,
    "Ġdaylight": 10350,
    "smith": 5669,
    "Ġarguments": 8036,
    "Ġoutriders": 26543,
    "Ġbust": 10167,
    "Ġunnecessary": 8851,
    "beat": 10985,
    "nx": 17607,
    "othed": 16510,
    "upp": 10130,
    "epend": 3313,
    "Ġcrooked": 11281,
    "Ġdisposed": 7083,
    "Ġcounties": 23298,
    "Ġcele": 9899,
    "rusion": 11323,
    "Ġconstraint": 16513,
    "mean": 6438,
    "c": 71,
    "unders": 13309,
    "Ġcure": 21338,
    "Ġbelly": 10369,
    "Ġissues": 9541,
    "Ġtruest": 16703,
    "Ġpinch": 15016,
    "pur": 7806,
    "Ġtissu": 25920,
    "ĠĠĠĠĠĠĠĠĠĠĠĠĠĠĠĠ": 1217,
    "iety": 2820,
    "Ġwear": 6030,
    "Ġvisits": 8222,
    "Ġscener": 10949,
    "6": 26,
    "Ġmanxman": 9565,
    "same": 5361,
    "addressed": 13384,
    "sticking": 21657,
    "Ġprompted": 23813,
    "Ġleviathan": 3287,
    "Ġcircumvent": 25064,
    "Ġwhirl": 13448,
    "Ġright": 1504,
    "outward": 22157,
    "Ġimpelled": 11780,
    "Ġhemis": 21681,
    "orts": 2558,
    "Ġtransaction": 22460,
    "roar": 17952,
    "Ġbubb": 12581,
    "Ġmiscellaneous": 17462,
    "Ġprivileged": 20111,
    "Ġplaintiffs": 13608,
    "fo": 5278,
    "Ġbest": 1971,
    "fourths": 25509,
    "example": 16011,
    "ame": 645,
    "Ġ**": 4721,
    "Ġtravelling": 11307,
    "Ġexhilar": 19682,
    "Ġrepugnance": 19086,
    "hastening": 24448,
    "Ġnineveh": 13388,
    "Ġasks": 5115,
    "indulged": 22372,
    "eed": 20840,
    "Ġresidence": 8206,
    "log": 18537,
    "Ġcounsel": 13614,
    "Ġgallons": 14817,
    "Ġwonders": 7500,
    "Ġnoiselessly": 22863,
    "careful": 14865,
    "viv": 17698,
    "classification": 4389,
    "Ġbehaved": 13253,
    "ugn": 9376,
    "Ġhomely": 25219,
    "Ġch": 512,
    "Ġcolumn": 9327,
    "Ġelij": 8908,
    "usoid": 4767,
    "Ġdivinest": 25722,
    "Ġwire": 13851,
    "reel": 21232,
    "Ġdil": 6383,
    "Ġattributed": 11831,
    "_.âĢĻâĢĿ": 17479,
    "ibid": 18839,
    "Ġsurround": 4618,
    "Ġimperilled": 19577,
    "ĠâĢĶ_": 3461,
    "mund": 13757,
    "Ġfaint": 5811,
    "lur": 13746,
    "Ġunnear": 22025,
    "Ġoverflowed": 20261,
    "kick": 20935,
    "omed": 13974,
    "Ġco": 729,
    "Ġinclu": 1101,
    "says": 13298,
    "suggest": 20374,
    "Ġwillingly": 8884,
    "Ġsealed": 15816,
    "ernation": 8211,
    "Ġscatter": 18396,
    "Ġdiminish": 14745,
    "razor": 21634,
    "metic": 14983,
    "disc": 4729,
    "Ġjung": 12833,
    "weave": 22682,
    "streets": 13394,
    "lanter": 15386,
    "Ġbuildings": 24720,
    "ffic": 22148,
    "Ġhumbug": 18779,
    "Ġnods": 19064,
    "Ġwaned": 17791,
    "anter": 9166,
    "Ġcolonial": 22857,
    "Ġeligible": 10670,
    "Ġhoe": 23347,
    "intended": 11066,
    "atively": 2697,
    "Ġsevered": 18205,
    "Ġcurb": 16232,
    "Ġpallidness": 25604,
    "Ġcommunicative": 24548,
    "folio": 10546,
    "sp": 893,
    "Ġveins": 8932,
    "Ġrestrictions": 20634,
    "Ġline": 1849,
    "Ġunconditional": 15842,
    "xi": 17710,
    "ished": 1425,
    "Ġaught": 8772,
    "cence": 9588,
    "Ġscarcely": 4010,
    "Ġobstinacy": 17420,
    "poss": 4778,
    "Ġwhaleman": 4655,
    "._]]": 5334,
    "Ġfloor": 4380,
    "thank": 4950,
    "skirted": 24489,
    "Ġpangs": 15612,
    "Ġsoft": 1458,
    "Ġcloudy": 19475,
    "Ġknight": 9726,
    "Ġgibberish": 25786,
    "Ġsherlock": 3895,
    "Ġutterance": 14763,
    "anybody": 12080,
    "Ġhurricane": 16430,
    "Ġbadge": 16683,
    "Ġdestruction": 6600,
    "Ġstra": 2987,
    "Ġply": 21450,
    "Ġestimated": 16594,
    "Ġnibbling": 17384,
    "Ġclattering": 22360,
    "Ġpell": 21453,
    "Ġproperly": 7944,
    "suited": 22635,
    "Ġinfle": 16360,
    "sixteen": 24853,
    "Ġembarr": 7447,
    "ishe": 13890,
    "Ġpale": 4532,
    "Ġgovernment": 15175,
    "Ġunintermitted": 26219,
    "Ġroots": 11185,
    "Ġassumpt": 5415,
    "Ġwidth": 16772,
    "Ġticking": 25033,
    "even": 3840,
    "isturbed": 18297,
    "Ġgregarious": 18964,
    "Ġwaning": 15532,
    "sufferable": 12174,
    "Ġstopping": 2752,
    "Ġrever": 6536,
    "list": 7551,
    "gia": 20875,
    "Ġtroubles": 19437,
    "stochastic": 3776,
    "Ġbott": 3147,
    "progression": 20380,
    "Ġbrit": 6289,
    "Ġmoving": 1676,
    "thrusting": 20258,
    "Ġsprawling": 22136,
    "Ġunearthly": 9036,
    "eth": 617,
    "Ġcrossing": 7252,
    "Ġfut": 15572,
    "sounding": 24796,
    "Ġsupported": 9817,
    "Ġgentlemanlike": 12064,
    "Ġinviting": 19143,
    "Ġunhe": 22007,
    "Ġwintry": 17433,
    "Ġourselves": 5127,
    "admire": 24943,
    "ax": 693,
    "Ġcachalot": 17834,
    "mown": 20969,
    "Ġslippery": 12164,
    "Ġescape": 2648,
    "ĠĠĠĠĠĠĠĠĠĠĠĠĠĠĠĠĠĠĠĠĠĠĠĠĠĠĠĠĠĠĠĠĠĠĠĠĠĠĠĠĠĠĠĠĠĠ": 9952,
    "Ġdrow": 21429,
    "Ġreligion": 11415,
    "Ġwerter": 15238,
    "Ġmy": 412,
    "Ġheels": 10850,
    "Ġmeanness": 22596,
    "enit": 17779,
    "Ġslink": 23161,
    "Ġapo": 9630,
    "create": 24158,
    "hued": 20910,
    "tone": 8762,
    "$": 8,
    "cock": 12024,
    "mountains": 15179,
    "least": 8784,
    "tail": 8761,
    "Ġsanguine": 25928,
    "Ġ96": 24592,
    "Ġparts": 4166,
    "shri": 14234,
    "Ġedition": 16433,
    "Ġ0": 1901,
    "boo": 16349,
    "Ġcivilized": 8664,
    "Ġtomorrow": 21510,
    "anthrop": 17381,
    "Ġoutlaws": 22320,
    "Ġpitching": 16611,
    "idually": 21766,
    "Ġcanall": 10928,
    "Ġcrumpled": 16441,
    "friendship": 24046,
    "flow": 2232,
    "Ġfatigue": 8697,
    "Ġpuzz": 5533,
    "Ġplaces": 5390,
    "Ġfreemason": 23207,
    "Ġanalysis": 2093,
    "Ġcoffin": 4430,
    "ersampling": 18219,
    "Ġpeaked": 2296,
    "Ġfol": 1289,
    "ouching": 13176,
    "rove": 21530,
    "ker": 5792,
    "Ġfir": 17877,
    "drown": 13703,
    "laughing": 15178,
    "Ġregularizer": 2337,
    "entering": 17976,
    "persecutor": 26530,
    "Ġbreeding": 14520,
    "Ġconveniently": 20077,
    "Ġremembr": 24169,
    "Ġhides": 16261,
    "Ġfantastic": 10058,
    "hello": 13362,
    "Ġtraces": 7945,
    "atter": 635,
    "latitudes": 17196,
    "thro": 12758,
    "Ġunwilling": 7885,
    "ient": 394,
    "cases": 12445,
    "Ġprehensile": 26534,
    "Ġadjust": 2154,
    "Ġmortals": 9915,
    "speed": 19407,
    "Ġenlar": 15798,
    "employ": 10895,
    "iscient": 17851,
    "Ġsanity": 24979,
    "possible": 5743,
    "aways": 15309,
    "âĢĻâĢĶ": 12733,
    "Ġbarb": 4531,
    "ided": 2787,
    "jar": 17577,
    "Ġdeeps": 16102,
    "Ġrods": 9752,
    "pemberley": 9620,
    "iqu": 7802,
    "Ġintend": 12761,
    "Ġnavel": 24576,
    "adequately": 20318,
    "Ġtruce": 24114,
    "gether": 1595,
    "Ġcreated": 2708,
    "Ġisol": 8833,
    "Ġreplete": 15695,
    "Ġthese": 819,
    "Ġlock": 5927,
    "Ġcritically": 23444,
    "Ġinside": 5448,
    "Ġinquir": 4242,
    "nevertheless": 8285,
    "Ġxxxi": 24966,
    "Ġde": 363,
    "Ġstudies": 7955,
    "Ġbefore": 809,
    "iveness": 2469,
    "Ġchoosing": 19589,
    "Ġeasy": 3455,
    "Ġentity": 10342,
    "Ġwater": 1946,
    "Ġunravel": 26214,
    "Ġrely": 8820,
    "Ġuttermost": 19486,
    "disposed": 25010,
    "fig": 8734,
    "Ġmillion": 14986,
    "especially": 3573,
    "draught": 12087,
    "Ġtertiary": 15293,
    "Ġproposed": 7460,
    "Ġtapped": 11553,
    "Ġbitt": 10796,
    "Ġstudy": 1796,
    "Ġmichael": 20678,
    "arse": 7160,
    "Ġchains": 8250,
    "shadows": 25479,
    "Ġbrowne": 13300,
    "Ġinattention": 17931,
    "struck": 7861,
    "fold": 7546,
    "iability": 20919,
    "bell": 7332,
    "Ġtemporary": 7980,
    "assemblies": 25956,
    "ropol": 10952,
    "meal": 22705,
    "diver": 20830,
    "acqu": 4842,
    "Ġslim": 18936,
    "Ġwarrior": 24496,
    "Ġomnipotent": 13547,
    "Ġcapting": 23018,
    "Ġpreface": 18367,
    "Ġgamesome": 17289,
    "phenomenon": 17648,
    "visitor": 15057,
    "gradient": 2273,
    "guarded": 13293,
    "Ġassist": 3564,
    "Ġgaff": 17993,
    "Ġwield": 21289,
    "lydia": 6826,
    "Ġq": 1088,
    "saf": 11524,
    "Ġchorus": 10946,
    "cer": 6642,
    "Ġwholesome": 16003,
    "Ġrolls": 8333,
    "events": 12315,
    "Ġbush": 23333,
    "Ġten": 2384,
    "Ġperempt": 13672,
    "Ġtransl": 2831,
    "Ġlydia": 2373,
    "asets": 2309,
    "cream": 15330,
    "preference": 22464,
    "Ġbrut": 18767,
    "Ġnameless": 7699,
    "Ġpast": 2099,
    "Ġcastor": 19425,
    "fee": 12875,
    "Ġcontinues": 18805,
    "Ġohio": 19128,
    "ix": 1801,
    "Ġnets": 21521,
    "Ġsuffocated": 20727,
    "pra": 15406,
    "Ġresist": 7915,
    "Ġwives": 12552,
    "vel": 2383,
    "Ġindelible": 25694,
    "place": 4155,
    "Ġsmart": 11813,
    "Ġcomply": 8891,
    "Ġawait": 17073,
    "obst": 11930,
    "Ġdirty": 9179,
    "event": 8076,
    "Ġhereditary": 10664,
    "Ġjob": 7015,
    "Ġramadans": 25119,
    "Ġtown": 2457,
    "Ġken": 22188,
    "Ġ200": 19294,
    "Ġmeasured": 9803,
    "method": 17284,
    "Ġpack": 5444,
    "Ġalms": 21777,
    "Ġparading": 23709,
    "Ġcrescentic": 20619,
    "ingly": 2134,
    "Ġtruck": 19510,
    "Ġreprehensible": 15696,
    "Ą": 197,
    "Ġoccup": 3742,
    "Ġrudeness": 17124,
    "draul": 9443,
    "urch": 3994,
    "Ġlocks": 11722,
    "Ġstrike": 4855,
    "Ġvincent": 15282,
    "cadence": 26125,
    "Ġexaggerated": 25650,
    "old": 799,
    "Ġimages": 1601,
    "ilities": 6991,
    "Ġhearken": 21682,
    "Ġcustody": 13646,
    "Ġunit": 1848,
    "deprived": 19897,
    "Ġrem": 954,
    "Ġprogra": 1140,
    "Ġnurtured": 19748,
    ",âĢĶ": 3168,
    "Ġwearisome": 19794,
    "Ġforfeit": 21772,
    "gings": 7549,
    "relative": 24011,
    "tarpaulins": 26405,
    "fes": 20850,
    "Ġconst": 1908,
    "Ġchannels": 26013,
    "iably": 13737,
    "Ġobjections": 8564,
    "Ġtranslation": 3084,
    "Ġdeserves": 13288,
    "existence": 16012,
    "lement": 10166,
    "consc": 4840,
    "Ġbri": 21376,
    "Ġapoplexy": 25265,
    "cnns": 3621,
    "Ġlift": 8810,
    "Ġbuoyant": 13531,
    "haven": 20911,
    "Ġcombine": 4417,
    "Ġkuiperai": 10935,
    "has": 4015,
    "apology": 22331,
    "Ġy": 341,
    "Ġtransplanted": 22462,
    "exceedingly": 9566,
    "Ġmainland": 22645,
    "Ġcobbler": 25829,
    "athy": 14322,
    "roses": 17956,
    "alescing": 23864,
    "soon": 4030,
    "etw": 406,
    "gences": 20876,
    "Ġ34": 16677,
    "collecting": 26081,
    "orting": 9733,
    "mur": 5428,
    "Ġnumber": 1978,
    "Ġunfrequ": 19507,
    "Ġsenior": 17171,
    "rians": 21922,
    "Ġderive": 10394,
    "merely": 16132,
    "Ġpips": 9848,
    "Ġoverjoyed": 17457,
    "Ġoverdone": 22343,
    "receiving": 12540,
    "Ġenlightened": 12743,
    "Ġeyelashes": 26106,
    "deploy": 22139,
    "Ġcabin": 3302,
    "lad": 5991,
    "interests": 19707,
    "Ġpredicts": 2595,
    "particularly": 8339,
    "foundered": 20866,
    "Ġwindigate": 18910,
    "amidst": 25652,
    "Ġseventeen": 26210,
    "Ġfoiled": 23242,
    "pents": 11512,
    "Ġrecord": 5316,
    "Ġinquest": 16546,
    "sion": 8093,
    "peculiar": 6886,
    "Ġasiatic": 20428,
    "Ġwreaths": 25937,
    "Ġrewarding": 13436,
    "Ġextreme": 2516,
    "nd": 11503,
    "Ġdamps": 23473,
    "Ġxxxii": 24970,
    "Ġpeg": 22686,
    "Ġbriony": 9328,
    "Ġdawned": 14993,
    "obey": 11509,
    "Ġreveal": 11200,
    "conscientious": 19625,
    "Ġtinted": 13821,
    "moil": 22702,
    "Ġinjunction": 19616,
    "Ġpent": 17901,
    "Ġstates": 1851,
    "Ġmumbled": 17807,
    "Ġbrutality": 26276,
    "Ġnantucketers": 9894,
    "Ġoverlooked": 15963,
    "Ġsufficient": 2000,
    "Ġturing": 7566,
    "Ġplan": 3884,
    "representing": 25271,
    "Ġincalculable": 17460,
    "Ġyellow": 5300,
    "Ġeight": 3904,
    "Ġmultipl": 2793,
    "Ġproblems": 2849,
    "drink": 10595,
    "Ġsubproblems": 12954,
    "Ġcooper": 16073,
    "Ġretrie": 10382,
    "Ġrec": 899,
    "rossing": 18640,
    "braid": 17494,
    "Ġsubsc": 22786,
    "attempt": 9359,
    "Ġdisgraceful": 15019,
    "Ġpole": 6433,
    "Ġuniversity": 13120,
    "dignity": 15344,
    "Ġcried": 1486,
    "Ġsimply": 7218,
    "Ġforeb": 12002,
    "Ġgratify": 19501,
    "Ġmantelpiece": 15206,
    "professor": 17249,
    "oyed": 14362,
    "niest": 19001,
    "Ġpolluted": 25593,
    "Ġaccuracy": 1079,
    "Ġshortened": 23481,
    "iag": 20915,
    "Ġcoco": 11001,
    "touching": 15090,
    "iciously": 17973,
    "moran": 24150,
    "Ġunfold": 8022,
    "wanderer": 25423,
    "jee": 17579,
    "Ġawkwardness": 13486,
    "Ġbundles": 26175,
    "Ġfaintest": 24569,
    "Ġspur": 18303,
    "abriel": 6950,
    "Ġcontempl": 6701,
    "lemag": 21370,
    "Ġattics": 22618,
    "Ġhaunted": 10253,
    "Ġgovern": 10450,
    "Ġcongealed": 25981,
    "ar": 284,
    "ancing": 1757,
    "etting": 21577,
    "Ġinno": 1445,
    "grampus": 18617,
    "Ġmovement": 9967,
    "Ġlonely": 6823,
    "Ġendeavoured": 4918,
    "Ġdistressed": 8514,
    "Ġcoin": 9770,
    "Ġanatomical": 15075,
    "Ġbas": 6380,
    "Ġsmoke": 4715,
    "/": 19,
    "Ġinspect": 5963,
    "fulness": 4311,
    "irons": 10238,
    "uncontrollable": 20594,
    "Ġfraud": 19017,
    "Ġsprain": 18305,
    "intimate": 22934,
    "Ġguernsey": 9350,
    "figured": 20121,
    "oundered": 14164,
    "Ġdisappo": 4506,
    "scales": 22991,
    "Ġrepresents": 4902,
    "man": 1053,
    "Ġlament": 7856,
    "Ġawe": 7147,
    "Ġspurn": 18309,
    "faces": 13719,
    "laughed": 20280,
    "Ġsettee": 22916,
    "irect": 5553,
    "squee": 15429,
    "Ġadvis": 9806,
    "Ġdangers": 12352,
    "Ġpurch": 6599,
    "Ġabsolutely": 4857,
    "geon": 6270,
    "Ġwindings": 18909,
    "Ġlvi": 21550,
    "Ġtroub": 22348,
    "Ġtestified": 16330,
    "zwilliam": 5074,
    "Ġprogno": 14039,
    "Ġrav": 14306,
    "Ġstanzas": 21744,
    "ouring": 6420,
    "Ġhogshead": 26367,
    "angu": 569,
    "¢": 100,
    "Ġjava": 12310,
    "vag": 8764,
    "Ġhelped": 7459,
    "meditated": 19069,
    "Ġwrath": 16315,
    "Ġinexorable": 12253,
    "wer": 8394,
    "Ġpipes": 9849,
    "Ġhyena": 24519,
    "Ġbattered": 17862,
    "Ġreusability": 13557,
    "Ġreflect": 6575,
    "etus": 21575,
    "Ġunshored": 25813,
    "Ġshut": 3943,
    "Ġfigures": 8629,
    "royal": 11393,
    "Ġcirculation": 16414,
    "Ġicy": 10747,
    "Ġornam": 15862,
    "Ġphrase": 11187,
    "Ġbloodshot": 23797,
    "Ġsquires": 16179,
    "ted": 792,
    "Ġxerxes": 23409,
    "jointed": 24008,
    "Ġgrazed": 15831,
    "commencement": 26347,
    "hooked": 23714,
    "Ġding": 12601,
    "bad": 12434,
    "itt": 572,
    "Ġmoose": 22428,
    "luxur": 25822,
    "Ġowning": 18744,
    "two": 3862,
    "ements": 11107,
    "Ġpomp": 12619,
    "Ġcrackling": 24958,
    "cares": 24309,
    "Ġwhirled": 14959,
    "Ġblame": 6446,
    "Ġinward": 11606,
    "Ġexclusion": 19394,
    "Ġnarrated": 14870,
    "Ġunceasingly": 20357,
    "frequently": 9978,
    "Ġvortex": 26208,
    "Ġdistributions": 1050,
    "Ġcertainty": 6734,
    "Ġdisenc": 22523,
    "wise": 2576,
    "Ġinsufferable": 13930,
    "Ġvancou": 22874,
    "ula": 2827,
    "significant": 25082,
    "violently": 23542,
    "ologist": 22861,
    "iber": 6506,
    "Ġetern": 7085,
    "steering": 16635,
    "Ġbeadle": 26484,
    "Ġemperors": 15158,
    "Ġnourishment": 15191,
    "Ġfasten": 11132,
    "Ġtrample": 20326,
    "someone": 14564,
    "Ġing": 5283,
    "Ġvenetian": 14846,
    "hercules": 22201,
    "Ġvind": 10249,
    "attached": 11933,
    "Ġdescribe": 2767,
    "Ġcoldness": 23757,
    "shuff": 18491,
    "Ġcaged": 21350,
    "Ġwails": 21295,
    "extric": 22764,
    "Ġchewed": 16367,
    "actorily": 25576,
    "Ġinconceivable": 17937,
    "intment": 4720,
    "Ġperson": 2368,
    "ivia": 22081,
    "tails": 21085,
    "Ġtempered": 12920,
    "Ġremind": 6057,
    "Ġcultivated": 17363,
    "Ġappend": 18361,
    "Ġnet": 3626,
    "ette": 15656,
    "spades": 14331,
    "Ġshoreless": 24295,
    "Ġmultiple": 1184,
    "Ġprocedural": 12029,
    "Ġwade": 17784,
    "Ġug": 8140,
    "Ġimbecile": 17390,
    "Ġbelieve": 2147,
    "Ġmiriam": 25273,
    "expected": 5780,
    "Ġblessings": 24176,
    "ull": 1430,
    "Ġpersever": 10002,
    "Ġmustard": 12927,
    "Ġ156": 20169,
    "more": 1032,
    "Ġrevolve": 19729,
    "influences": 25250,
    "Ġlabrador": 23325,
    "income": 15485,
    "Ġpovelson": 26552,
    "Ġcompetent": 11814,
    "Ġcrystals": 20226,
    "Ġgay": 5535,
    "interested": 9505,
    "Ġepoch": 26472,
    "train": 2033,
    "Ġpleasures": 11143,
    "Ġclouded": 13289,
    "afraid": 10441,
    "Ġcardboard": 19977,
    "Ġsperma": 19050,
    "Ġstrained": 10218,
    "acute": 22595,
    "anations": 12573,
    "Ġmemorand": 23403,
    "ourage": 2452,
    "Ġcompens": 14264,
    "Ġincalcul": 16061,
    "octial": 20003,
    "explained": 23139,
    "Ġlawyer": 10668,
    "quar": 7615,
    "Ġcompromising": 22571,
    "Ġsweetness": 9446,
    "Ġconflict": 17273,
    "Ġmutinous": 23955,
    "Ġirregular": 9864,
    "Ġcaucus": 17379,
    "--âĢľ": 12969,
    "peasant": 23108,
    "speech": 10666,
    "Ġsneezes": 24698,
    "Ġdatasets": 2387,
    "Ġresponded": 13637,
    "Ġce": 3026,
    "Ġhealthcare": 8015,
    "Ġxiii": 25591,
    "Ġfant": 9173,
    "Ġinforming": 18741,
    "ĠâĢľ": 517,
    "Ġcolours": 12971,
    "Ġwhether": 1997,
    "Ġstru": 2168,
    "oubted": 5859,
    "Ġlac": 17964,
    "continual": 20643,
    "Ġinfernal": 11959,
    "Ġtickled": 20055,
    "niece": 20994,
    "Ġtarpaul": 17730,
    "Ġdownward": 10331,
    "col": 3102,
    "tempted": 26403,
    "dan": 17515,
    "member": 20974,
    "Ġkeeping": 7283,
    "Ġvehem": 22886,
    "Ġaut": 1793,
    "Ġuneasiness": 9483,
    "Ġtoilet": 13936,
    "Ġsnaky": 23740,
    "Ġinternal": 2243,
    "Ġprofund": 13152,
    "Ġthus": 2035,
    "Ġsupport": 6728,
    "Ġbaptized": 25774,
    "consumed": 25675,
    "Ġdynamic": 5122,
    "exper": 8878,
    "Ġpri": 5813,
    "uled": 11536,
    "Ġbuzz": 23995,
    "Ġdispute": 16053,
    "Ġartificial": 783,
    "ineas": 15820,
    "ollion": 19714,
    "Ġshreds": 12767,
    "Ġcataract": 23426,
    "Ġchairs": 12822,
    "Ġ91": 24589,
    "odecimo": 11444,
    "if": 376,
    "scale": 3535,
    "soever": 11858,
    "Ġhabitation": 14802,
    "ichron": 22163,
    "Ġtaste": 5524,
    "Ġingenuity": 17163,
    "Ġvictor": 5125,
    "Ġpoem": 22587,
    "market": 16839,
    "left": 6975,
    "Ġcompared": 2226,
    "Ġprognostics": 20557,
    "Ġforgery": 25977,
    "rugged": 6849,
    "Ġconveys": 16855,
    "immedi": 8450,
    "Ġbespe": 19240,
    "Ġemma": 20693,
    "alescence": 15922,
    "Ġrecognition": 3099,
    "Ġmirth": 15542,
    "pale": 13771,
    "Ġrazor": 22653,
    "Ġliver": 14227,
    "earnest": 12397,
    "monograph": 23526,
    "Ġm": 274,
    "Ġdeck": 2137,
    "Ġtransfer": 2355,
    "Ġirresolute": 24916,
    "Ġslow": 2378,
    "Ġdeath": 2042,
    "xt": 2081,
    "Ġmaled": 21313,
    "Ġrubbed": 12952,
    "Ġglory": 6064,
    "Ġhaste": 9003,
    "Ġund": 4121,
    "Ġmajestic": 8639,
    "Ġdespair": 4011,
    "Ġstars": 6149,
    "Ġdisappearance": 9296,
    "Ġarchly": 22761,
    "coo": 11170,
    "Ġpoliceman": 15257,
    "Ġlimb": 9401,
    "ura": 1047,
    "Ġvanished": 6874,
    "edged": 15628,
    "recurring": 24194,
    "Ġchaldee": 26234,
    "Ġperuvian": 18453,
    "Ġsystemat": 18447,
    "Ġtorch": 25030,
    "Ġdamp": 8263,
    "venty": 6427,
    "Ġflung": 8562,
    "Ġunden": 22010,
    "rer": 3622,
    "tete": 10732,
    "ulity": 10886,
    "dilig": 17282,
    "Ġmainz": 22643,
    "Ġensl": 19273,
    "Ġforeman": 23446,
    "Ġdiscount": 22778,
    "cell": 10685,
    "Ġhorrid": 7998,
    "family": 7324,
    "uction": 15442,
    "biscuit": 17500,
    "pooh": 18797,
    "Ġnam": 17948,
    "Ġpropensity": 18995,
    "Ġdro": 2773,
    "Ġremote": 8919,
    "Ġoverhung": 15964,
    "athies": 22699,
    "Ġslates": 11106,
    "beards": 22488,
    "Ġunfrequently": 20738,
    "Ġclerks": 17294,
    "Ġwall": 3845,
    "Ġdisappointing": 19578,
    "Ġunimportant": 22027,
    "Ġaccorded": 24087,
    "Ġtooth": 9192,
    "Ġcoherent": 3262,
    "Ġincidents": 9299,
    "tre": 8760,
    "sea": 4763,
    "Ġmississippi": 20724,
    "theless": 4262,
    "irably": 13294,
    "Ġcorrespondent": 19821,
    "Ġbelted": 22945,
    "Ġcommerce": 11015,
    "Ġhearing": 4761,
    "Ġmaintainable": 12932,
    "apparat": 22841,
    "Ġlighter": 12650,
    "Ġraw": 3320,
    "erred": 6376,
    "ument": 5240,
    "cl": 1493,
    "cr": 4077,
    "Ġouthouse": 22311,
    "izar": 14049,
    "Ġfelicity": 7260,
    "Ġstudious": 23229,
    "Ġbumpkins": 25281,
    "spirits": 8054,
    "Ġamounted": 18512,
    "herds": 22200,
    "ifer": 11683,
    "Ġmouse": 4694,
    "Ġdistribution": 2018,
    "constant": 11324,
    "Ġaristotle": 25817,
    "Ġmaiden": 13385,
    "ads": 5718,
    "f": 74,
    "Ġcapsized": 20088,
    "becoming": 18518,
    "Ġinclined": 6622,
    "Ġ6": 5141,
    "thinking": 9013,
    "riptions": 14794,
    "Ġseer": 21956,
    "Ġbarbarously": 24819,
    "Ġdied": 4113,
    "year": 11094,
    "smitten": 23906,
    "Ġrecently": 11860,
    "Ġhavoc": 15811,
    "Ġcontextually": 11957,
    "Ġassign": 11109,
    "acceptance": 25185,
    "\",": 10678,
    "Ġshapeless": 24524,
    "Ġarrogance": 26231,
    "Ġnorm": 763,
    "Ġyoung": 1505,
    "Ġseams": 12122,
    "Ġdenny": 9001,
    "Ġsqueezed": 20034,
    "Ġinaudible": 21496,
    "Ġstraits": 7993,
    "Ġarguing": 25470,
    "Ġescaping": 13133,
    "Ġeccentric": 13648,
    "Ġtreasure": 9558,
    "Ġnick": 21520,
    "Ġeast": 5370,
    "Ġshalt": 18230,
    "Ġdepth": 2437,
    "angling": 14139,
    "Ġvort": 18193,
    "Ġenv": 3062,
    "vapor": 25755,
    "Ġdep": 738,
    "Ġvalued": 12180,
    "avern": 24792,
    "Ġquestion": 2779,
    "Ġspanish": 2829,
    "evening": 7089,
    "nameless": 19902,
[...]
