{
  "metadata": {
    "vocab_size": 26614,
    "algorithm": "BPE",
    "created_at": "2026-06-28 06:16:01",
    "special_tokens": [
      "<PAD>",
      "<SOS>",
      "<EOS>",
      "<UNK>",
      "<MASK>"
    ]
  },
  "vocab": {
    "Ġport": 3309,
    "brink": 23574,
    "orrah": 17875,
    "Ġforc": 9227,
    "mushroom": 26395,
    "================================================================": 9989,
    "Ġohio": 19128,
    "ermost": 7430,
    "your": 1984,
    "Ġcaravan": 26290,
    "journey": 8744,
    "Ġamend": 16033,
    "Ġdynamic": 5122,
    "any": 3337,
    "ilst": 8143,
    "Ġserve": 9368,
    "Ġfriends": 2653,
    "Ġencaps": 12958,
    "Ġadapted": 11040,
    "Ġchristians": 13307,
    "Ġmedic": 11246,
    "Ġcheerless": 16694,
    "Ġexpert": 18873,
    "Ġforeseeing": 23449,
    "fanning": 20865,
    "Ġforger": 15730,
    "Ġriddles": 16732,
    "Ġcirclings": 26431,
    "structure": 2270,
    "Ġ129": 24474,
    "Ġof": 298,
    "Ġcauldron": 25441,
    "Ġfiss": 21410,
    "rane": 17653,
    "Ġproperties": 3116,
    "Ġdistricts": 20262,
    "Ġineff": 12631,
    "if": 376,
    "Ġamb": 9291,
    "gal": 15354,
    "Ġwan": 15526,
    "urer": 18121,
    "Ġwestern": 10654,
    "icit": 3378,
    "circuit": 24188,
    "Ġcompanionship": 14919,
    "rible": 3224,
    "feelings": 5674,
    "Ġlightness": 23258,
    "Ġcalculated": 4474,
    "Ġcastor": 19425,
    "Ġdivers": 9665,
    "Ġwinds": 5746,
    "Ġlooking": 2475,
    "lines": 6959,
    "Ġrosy": 18457,
    "Ġcarpenter": 4684,
    "vision": 5620,
    "Ġbuoy": 8003,
    "Ġwake": 4748,
    "ĠĠĠĠĠĠĠĠĠĠĠĠĠĠĠĠĠĠĠĠĠĠĠĠĠĠĠ": 14885,
    "hast": 5357,
    "nib": 5214,
    "Ġhomely": 25219,
    "Ġappeared": 2776,
    "Ġpainfully": 13141,
    "Ġsparks": 22129,
    "Ġpant": 10817,
    "Ġunnatural": 7190,
    "marvell": 24172,
    "Ġinmost": 17930,
    "Ġmonomaniac": 9568,
    "Ġvanquished": 22872,
    "fluttering": 23970,
    "Ġor": 436,
    "stoke": 18019,
    "Ġvivid": 8057,
    "ressing": 8918,
    "Ġfile": 13902,
    "real": 10149,
    "Ġswore": 10378,
    "Ġdiscoveries": 13357,
    "pacific": 17641,
    "os": 525,
    "Ġmatrimony": 13634,
    "âĢĿ]": 21812,
    "eastward": 15128,
    "Ġhogarth": 25780,
    "Ġthroughout": 8876,
    "Ġremorse": 6441,
    "Ġ30": 10511,
    "Ġdesert": 6727,
    "aut": 1914,
    "thanked": 24331,
    "sinking": 17668,
    "Ġsolution": 9804,
    "Ġproduced": 2454,
    "Ġdistressing": 12216,
    "Ġfaced": 10808,
    "comprehend": 14359,
    "Ġdepends": 1070,
    "itations": 17817,
    "Ġconvalescence": 23744,
    "Ġindignity": 18832,
    "Ġappellation": 22219,
    "Ġcrumb": 16439,
    "Ġperiods": 13302,
    "Ġbell": 4635,
    "wling": 11544,
    "Ġad": 443,
    "Ġrefres": 14341,
    "neighbouring": 19962,
    "Ġtease": 18802,
    "Ġsakes": 18326,
    "Ġlur": 5226,
    "distinctive": 25726,
    "Ġglancing": 5399,
    "theast": 21745,
    "Ġparamet": 608,
    "ĩ": 234,
    "Ġsimulation": 2753,
    "inguish": 9396,
    "Ġtechnical": 17191,
    "Ġlucas": 3831,
    "ceed": 1076,
    "bread": 10684,
    "vicious": 21117,
    "beef": 18523,
    "Ġclinging": 10291,
    "programming": 10062,
    "discern": 14850,
    "augmented": 26286,
    "Ġtruck": 19510,
    "Ġrushes": 20506,
    "sion": 8093,
    "Ġmorality": 22975,
    "let": 2734,
    "Ġflorida": 20658,
    "government": 25406,
    "oping": 5559,
    "Ġdecoyed": 18486,
    "Ġmodeling": 2095,
    "Ġswings": 11086,
    "Ġlanc": 19763,
    "Ġtapering": 8770,
    "Ġname": 2082,
    "Ġparade": 18301,
    "unnecessary": 21877,
    "Ġdoze": 14174,
    "Ġantiquity": 15229,
    "Ġspecimen": 13020,
    "ously": 2492,
    "Ġhardest": 18912,
    "provided": 13636,
    "Ġowest": 25091,
    "Ġregulations": 18597,
    "Ġapprove": 12870,
    "oices": 7348,
    "Ġconnivance": 25225,
    "Ġapo": 9630,
    "Ġshook": 4467,
    "Ġsupervised": 3207,
    "Ġpulled": 5660,
    "Ġdreamed": 16629,
    "Ġsupp": 1264,
    "pumps": 21026,
    "Ġpositive": 2298,
    "Ġexercise": 8358,
    "Ġindelicacy": 25695,
    "ley": 1815,
    "Ġrome": 12153,
    "Ġdishonor": 25601,
    "Ġsigh": 10336,
    "Ġalways": 1699,
    "uberance": 25916,
    "Ġmuffled": 10640,
    "roses": 17956,
    "uttermost": 24940,
    "Ġmeth": 1476,
    "Ġwrought": 11942,
    "broke": 14775,
    "Ġinert": 15619,
    "Ġdial": 10810,
    "Ġvanish": 8927,
    "iasm": 8060,
    "Ġleviathans": 8281,
    "Ġentertaining": 16926,
    "lins": 2027,
    "Ġintim": 6838,
    "Ġpo": 738,
    "Ġepidemic": 20694,
    "pure": 17626,
    "Ġpartake": 18670,
    "oro": 21393,
    "Ġsoldier": 16920,
    "Ġ[\"": 19929,
    "Ġlent": 21544,
    "Ġcompar": 4770,
    "icing": 9200,
    "Ġabhorrence": 9052,
    "Ġmermaid": 17813,
    "Ġswashing": 23051,
    "different": 6501,
    "delirious": 19504,
    "Ġherd": 7887,
    "piteous": 21032,
    "Ġparlor": 13539,
    "Ġavoided": 13257,
    "ography": 13361,
    "announce": 24560,
    "Ġchannels": 26013,
    "persu": 8027,
    "unexpected": 15775,
    "flex": 24843,
    "Ġfurnace": 19438,
    "suitableness": 26260,
    "hearing": 8402,
    "Ġsor": 4143,
    "Ġcommand": 3321,
    "Ġplug": 17147,
    "Ġpacific": 5153,
    "Ġseized": 4833,
    "older": 15753,
    "bitterly": 20336,
    "Ġpredef": 18515,
    "roman": 22001,
    "explanation": 12356,
    "instinctively": 26327,
    "Ġremainder": 9857,
    "Ġfastening": 16355,
    "Ġwater": 1949,
    "Ġcheating": 16365,
    "Ġbuttoning": 17235,
    "Ġselection": 18202,
    "Ġobliged": 4284,
    "Ġnatures": 16505,
    "icide": 11617,
    "Ġabsor": 8504,
    "Ġrequisite": 18640,
    "Ġanaly": 1119,
    "Ġprogno": 14039,
    "acknowled": 10975,
    "islands": 21374,
    "Ġsyllable": 9727,
    "Ġgrey": 4512,
    "tarpaulins": 26405,
    "Ġtelegra": 11889,
    "Ġmelancholy": 5606,
    "oved": 5215,
    "Ġcolourless": 19568,
    "Ġbloodthirsty": 26601,
    "Ġintimacy": 8700,
    "Ġdevelopment": 7057,
    "Ġadmiral": 17304,
    "Ġgloomily": 14799,
    "iv": 430,
    "faced": 8079,
    "Ġlip": 6532,
    "gam": 10095,
    "Ġjudging": 16595,
    "elev": 12456,
    "brushing": 20787,
    "Ġfow": 6133,
    "vius": 23538,
    "quadrille": 20593,
    "etch": 9204,
    "pursuit": 20339,
    "Ġthickly": 12113,
    "rices": 4558,
    "noo": 9786,
    "Ġdrawers": 12103,
    "Ġemer": 5958,
    "forehead": 8515,
    "Ġwarehouse": 20415,
    "Ġcontrari": 23347,
    "Ġsquad": 22832,
    "infernal": 24662,
    "Ġalarmed": 6923,
    "unless": 9234,
    "Ġneatly": 17016,
    "linen": 25257,
    "ppings": 18176,
    "Ġhill": 5626,
    "Ġstaring": 8825,
    "yramid": 8367,
    "Ġoppressive": 20454,
    "Ġmiseries": 10346,
    "Ġoutermost": 22317,
    "Ġexquisite": 12380,
    "'t": 3142,
    "Ġjacket": 6489,
    "seven": 8463,
    "ĠâĢĶ_": 3458,
    "endering": 21283,
    "those": 4495,
    "Ġfre": 1572,
    "frightened": 17195,
    "Ġstowing": 18074,
    "Ġacquaint": 13042,
    "Ġexclude": 19039,
    "Ġbenefits": 4285,
    "Ġmodified": 14166,
    "oar": 12495,
    "Ġdemands": 19642,
    "Ġtransf": 22434,
    "purse": 20023,
    "Ġnose": 4401,
    "charm": 13989,
    "Ġaspire": 21897,
    "Ġdiscl": 9796,
    "ensibility": 22544,
    "Ġlunch": 13525,
    "Ġbalances": 2340,
    "Ġache": 18662,
    "Ġhumbled": 16195,
    "Ġexchanged": 10878,
    "mot": 17596,
    "sink": 11521,
    "Ġmastery": 23990,
    "Ġtyro": 16994,
    "Ġflamingo": 15099,
    "Ġgul": 7859,
    "tawn": 21079,
    "Ġlargely": 14284,
    "Ġsibbald": 21229,
    "Ġsl": 1497,
    "with": 1296,
    "concluding": 19479,
    "bons": 17486,
    "Ġequilib": 4134,
    "Ġsidelong": 11438,
    "Ġopal": 23624,
    "Ġretrieval": 10674,
    "Ġaccents": 14210,
    "Ġirrevocably": 15296,
    "Ġton": 15463,
    "colnett": 19329,
    "Ġnowadays": 18546,
    "Ġdepression": 21837,
    "Ġdwelt": 12602,
    "Ġundet": 16704,
    "Ġmeditation": 16680,
    "vulgar": 25918,
    "erred": 6376,
    "Ġblood": 3166,
    "Ġspiteful": 19521,
    "snowy": 20282,
    "Ġbreeds": 23346,
    "urged": 18048,
    "alse": 4181,
    "crown": 13697,
    "running": 6797,
    "ickering": 22667,
    "Ġthrilling": 19747,
    "Ġplanted": 9773,
    "Ġeuroclydon": 15295,
    "Ġstride": 22614,
    "conside": 9290,
    "vial": 17697,
    "onent": 21247,
    "Ġdong": 17887,
    "arch": 1126,
    "inea": 7623,
    "Ġdissatisfied": 14256,
    "Ġdecreed": 18484,
    "Ġax": 7822,
    "Ġarrayed": 25664,
    "Ġcr": 2149,
    "nelson": 25620,
    "Ġsi": 21211,
    "covery": 11171,
    "inspector": 13645,
    "Ġunc": 2123,
    "pan": 10716,
    "Ġcondensed": 24049,
    "Ġravine": 18647,
    "lording": 24047,
    "Ġpikes": 21475,
    "Ġabusing": 18393,
    "azed": 9398,
    "Ġdelicately": 24123,
    "Ġunseen": 3521,
    "Ġglobe": 6076,
    "Ġdear": 1539,
    "flo": 6114,
    "ak": 539,
    "reached": 13840,
    "Ġwonders": 7501,
    "Ġmary": 3842,
    "superstitious": 17280,
    "Ġdromedary": 17438,
    "Ġsubstituting": 26326,
    "Ġstowed": 21736,
    "Ġfrigates": 25707,
    "Ġhog": 13923,
    "Ġconvul": 13200,
    "thorough": 21982,
    "Ġmeeting": 5193,
    "Ġplaything": 19237,
    "alone": 10183,
    "cement": 3061,
    "search": 8464,
    "Ġwrote": 5011,
    "Ġerskine": 17431,
    "Ġspo": 6846,
    "Ġclutching": 24951,
    "itiousness": 21332,
    "mic": 12486,
    "Ġtall": 4037,
    "ments": 1398,
    "Ġdiff": 3113,
    "Ġundressed": 19512,
    "Ġvengeful": 14889,
    "Ġbulldog": 23857,
    "fa": 7336,
    "orous": 5292,
    "violence": 16477,
    "Ġoutlaws": 22321,
    "Ġenable": 685,
    "anger": 2170,
    "ned": 3490,
    "snatched": 24850,
    "could": 2872,
    "Ġdelineations": 26058,
    "Ġopportunity": 4785,
    "likewise": 13104,
    "imate": 4218,
    "Ġpersist": 16278,
    "flung": 16638,
    "Ġresearch": 3390,
    "Ġzodiac": 16170,
    "mering": 12488,
    "Ġbarrels": 9435,
    "Ġhorns": 11123,
    "affair": 14655,
    "stationed": 25453,
    "Ġdelirium": 10405,
    "scruple": 26044,
    "Ġresiding": 16058,
    "Ġsheaves": 22155,
    "Ġrese": 2282,
    "acious": 5563,
    "res": 2760,
    "ing": 273,
    "Ġduly": 13349,
    "Ġ1": 1013,
    "mason": 17603,
    "Ġmeridians": 17355,
    "caves": 20815,
    "Ġbully": 23854,
    "00": 1611,
    "user": 5105,
    "Ġisland": 4047,
    "Ġdusk": 12325,
    "Ġdent": 13905,
    "notches": 22748,
    "Ġstove": 6733,
    "Ġintelligent": 1431,
    "Ġassociations": 14962,
    "Ġsmacking": 20164,
    "Ġ2": 2926,
    "Ġspray": 7893,
    "N": 50,
    "Ġbottom": 3673,
    "bly": 6110,
    "Ġprying": 15606,
    "Ġthackeray": 26455,
    "Ġconstructed": 9385,
    "wish": 8099,
    "Ġremains": 4910,
    "Ġmortified": 14694,
    "Ġsulk": 15045,
    "Ġmotioned": 19591,
    "Ġdoct": 4453,
    "escript": 18470,
    "combe": 7662,
    "Ġmund": 21316,
    "Ġcabinets": 23860,
    "ins": 1375,
    "scream": 11077,
    "Ġexpectantly": 23522,
    "Ġharvard": 24573,
    "ues": 2079,
    "billiard": 25334,
    "patched": 17643,
    "Ġnought": 21519,
    "Ġcentrally": 23828,
    "ugl": 23287,
    "Ġunperceived": 22032,
    "sorting": 17004,
    "Ġbritain": 16956,
    "Ġrain": 5005,
    "fore": 686,
    "Ġshivering": 10265,
    "Ġsy": 490,
    "tt": 13789,
    "tears": 11036,
    "Ġwinchester": 10065,
    "Ġourselves": 5127,
    "Ġm": 274,
    "steps": 9404,
    "Ġpowerful": 1437,
    "tain": 559,
    "dz": 4738,
    "Ġhappens": 2188,
    "late": 11498,
    "Ġgod": 1936,
    "Ġpermitting": 22395,
    "kovoko": 20668,
    "Ġpersisting": 18888,
    "borean": 25743,
    "strils": 10458,
    "unquiet": 21878,
    "Ġcrushed": 9422,
    "Ġpack": 5444,
    "violent": 14578,
    "Ġtelescopes": 25690,
    "remembered": 17350,
    "attest": 23116,
    "Ġunlikely": 10908,
    "Ġrailway": 15020,
    "tenderly": 20529,
    "acknowledging": 25476,
    "witness": 10034,
    "yn": 7819,
    "amusement": 15281,
    "Ġspouted": 14674,
    "Ġbelieving": 8224,
    "zening": 21147,
    "tery": 14036,
    "Ġshot": 4543,
    "Ġstrugg": 3214,
    "ĠĊ": 12520,
    "Ġinitial": 820,
    "Ġkings": 7197,
    "Ġclung": 10958,
    "Ġmildly": 9029,
    "Ġdiabolically": 25513,
    "Ġaloud": 6252,
    "Ġbrist": 14377,
    "Ġbehold": 5049,
    "Ġgestic": 21605,
    "--âĢĺ": 22843,
    "Ġhaze": 18196,
    "Ġconqueror": 25796,
    "Ġsenior": 17171,
    "Ġtoil": 6531,
    "Ġpredicting": 2415,
    "regarded": 12006,
    "Ġdwell": 5812,
    "Ġholiday": 12995,
    "Ġconfirmed": 11139,
    "Ġdisagree": 22529,
    "Ġomens": 21326,
    "Ġisol": 8833,
    "Ġsentry": 19026,
    "commotion": 24913,
    "gerine": 22885,
    "regular": 3036,
    "Ġfunctions": 1339,
    "Ġholes": 16405,
    "Ġforswe": 21771,
    "Ġaccomplish": 14875,
    "warks": 5004,
    "Ġcrests": 25685,
    "sentimental": 25681,
    "Ġlan": 5820,
    "Ġven": 4647,
    "idated": 11660,
    "ĠĠĠĠĠĠĠĠĠĠĠĠĠĠĠĠĠĠĠĠĠĠĠĠĠĠĠĠĠĠĠĠĠĠĠĠĠĠĠĠ": 4516,
    "Ġaided": 17745,
    "inative": 15482,
    "leather": 13889,
    "Ġjustice": 5111,
    "Ġsatiated": 22899,
    "Ġpioneer": 17916,
    "Ġprotesting": 14740,
    "iable": 3333,
    "enjoyments": 25433,
    "Ġglided": 7446,
    "Ġattain": 12744,
    "Ġimposed": 14215,
    "Ġpurposes": 11168,
    "Ġflogged": 23623,
    "rat": 8755,
    "Ġoccasion": 3243,
    "aries": 6244,
    "bies": 15311,
    "peare": 18911,
    "Ġpains": 5964,
    "Ġfug": 12592,
    "Ġsearch": 2591,
    "Ġknob": 24407,
    "Ġabreast": 18394,
    "indifference": 15980,
    "Ġmeanly": 12906,
    "Ġparc": 10920,
    "task": 13792,
    "Ġglim": 9343,
    "Ġharb": 7370,
    "Ġmadame": 13149,
    "onom": 9158,
    "Ġanalyze": 1577,
    "Ġken": 22188,
    "Ġgenealogies": 25961,
    "ility": 624,
    "ened": 1385,
    "Ġdives": 17890,
    "Ġstared": 8454,
    "Ġbestow": 6455,
    "Ġcompl": 3759,
    "Ġ": 225,
    "verd": 21724,
    "incidentally": 20538,
    "foundation": 16714,
    "ę": 218,
    "ounders": 22390,
    "Ġamusements": 16913,
    "Ġtre": 2537,
    "exasper": 22424,
    "anging": 3549,
    "Ġwhiteness": 5918,
    "Ġsplend": 9897,
    "Ġinspiring": 19112,
    "nantucket": 7804,
    "Ġpervading": 20612,
    "Ġcircumstantial": 14643,
    "athans": 7433,
    "Ġcopse": 17068,
    "Ġpremium": 23902,
    "Ġmornings": 16237,
    "Ġbegged": 8230,
    "desponding": 26341,
    "retrospect": 23134,
    "Ġasserted": 16949,
    "Ġperchance": 15989,
    "urons": 3129,
    "ocean": 12399,
    "ricane": 16276,
    "Ġharpo": 1942,
    "Ġuniversally": 11998,
    "Ġbudge": 15163,
    "Ġuseful": 3556,
    "Ġbenediction": 18784,
    "Ġdecaying": 2247,
    "Ġclapham": 17265,
    "ĠĠĠĠĠĠĠĠĠĠĠĠĠĠĠĠ": 1220,
    "towards": 5002,
    "Ġmarine": 23029,
    "Ġeag": 2964,
    "Ġcrowded": 8011,
    "Ġawaited": 17074,
    "better": 7119,
    "oing": 15400,
    "pire": 9135,
    "Ġdeputation": 21836,
    "Ġlengthen": 15651,
    "Ġpursuing": 9437,
    "ountain": 2916,
    "ux": 7813,
    "Ġoutskirts": 17456,
    "Ġrebellion": 26475,
    "Ġdiscovered": 4411,
    "oir": 21001,
    "judgment": 16753,
    "Ġpsych": 10176,
    "Ġsponge": 26003,
    "heavily": 24534,
    "Ġabruptness": 25299,
    "bos": 17483,
    "Ġhandsom": 11124,
    "Ġobjective": 3765,
    "bride": 19199,
    "Ġmist": 2876,
    "Ġpreservative": 24629,
    "Ġsee": 802,
    "umbent": 12093,
    "escape": 16005,
    "Ġwantonly": 22889,
    "Ġconsideration": 5191,
    "Ġcasks": 7522,
    "iors": 9125,
    "Ġfighting": 12195,
    "Ġfoes": 11950,
    "Ġmidday": 23631,
    "shavings": 22460,
    "Ġdowry": 20684,
    "Ġevaporate": 26332,
    "vember": 10855,
    "Ġcups": 16882,
    "eked": 16400,
    "Ġheedfulness": 24522,
    "bringing": 17166,
    "Ġnine": 5369,
    "Ġcomplaints": 12262,
    "mmar": 952,
    "Ġstaying": 8283,
    "Ġwounded": 8657,
    "des": 1568,
    "Ġdestination": 19149,
    "Ġalph": 9694,
    "Ġantagon": 19549,
    "sombre": 23852,
    "!": 5,
    "Ġingenuity": 17163,
    "Ġshirt": 8848,
    "ulating": 10887,
    "Ġcoleridge": 18766,
    "Ġsnar": 13197,
    "Ġindirect": 18834,
    "Ġconsort": 18723,
    "Ġcosine": 2372,
    "accounted": 16501,
    "Ġvide": 10250,
    "Ġsweeping": 8985,
    "Ġemac": 16404,
    "Ġreach": 4045,
    "Ġball": 3622,
    "Ġnegatived": 23043,
    "Ġavert": 14424,
    "Ġtea": 5041,
    "Ġsecretly": 13270,
    "beg": 22484,
    "Ġgum": 21592,
    "p": 84,
    "Ġcolonial": 22851,
    "Ġflexible": 23773,
    "Ġmeditations": 25013,
    "Ġmarines": 16260,
    "Ġacute": 16121,
    "Ġbackstays": 22660,
    "cial": 2647,
    "Ġhandsomest": 20333,
    "Ġcouns": 10520,
    "Ġilluminating": 25245,
    "Ġremnants": 22790,
    "eding": 7165,
    "Ġpitiable": 9913,
    "spark": 18688,
    "fect": 2301,
    "ersman": 11700,
    "Ġbra": 3253,
    "turner": 19540,
    "playful": 24357,
    "type": 16171,
    "Ġthrowing": 6335,
    "Ġscru": 8190,
    "Ġexhausting": 24710,
    "Ġadvertising": 25389,
    "Ġastir": 14640,
    "Ġsuited": 12782,
    "Ġmemories": 14541,
    "Ġeclipsed": 26376,
    "method": 17284,
    "Ġpail": 15604,
    "rified": 15418,
    "contriv": 19291,
    "Ġdistension": 22502,
    "jabez": 20932,
    "Ġdrawn": 4274,
    "iquet": 17575,
    "Ġhoarsely": 26302,
    "excuse": 13380,
    "glo": 8737,
    "Ġdispute": 16053,
    "Ġtransform": 747,
    "equ": 6790,
    "Ġhollows": 19740,
    "Ġaval": 15492,
    "Ġturkish": 12259,
    "Ġworking": 5575,
    "Ġcontinents": 16849,
    "Ġnerve": 16339,
    "clever": 20812,
    "Ġberries": 13406,
    "irm": 3106,
    "Ġleap": 5823,
    "Ġlowly": 11121,
    "battle": 12440,
    "mont": 19168,
    "Ġinserted": 8355,
    "inating": 9153,
    "det": 5207,
    "Ġhearken": 21682,
    "capting": 24036,
    "Ġwarnings": 16881,
    "Ġaloft": 4302,
    "Ġproposition": 23248,
    "Ġpoetic": 17103,
    "iving": 1728,
    "meeting": 11017,
    "Ġdramat": 23215,
    "presume": 25670,
    "iest": 4035,
    "endent": 15917,
    "Ġparamore": 22119,
    "Ġunav": 18240,
    "Ġluxuries": 25163,
    "importance": 9988,
    "ī": 236,
    "Ġestates": 16458,
    "su": 795,
    "Ġtenderly": 11314,
    "rue": 1128,
    "Ġdilated": 24704,
    "Ġprospect": 4705,
    "Ġknowledge": 1446,
    "Ġvoyagings": 19235,
    "Ġinscrut": 10033,
    "onah": 3336,
    "Ġmouthfuls": 20645,
    "might": 4076,
    "Ġcordial": 16835,
    "myster": 16262,
    "Ġstrands": 25574,
    "Ġlength": 2502,
    "Ġscholars": 26112,
    "Ġ8": 5433,
    "overcome": 19048,
    "Ġsinful": 18948,
    "insanity": 23066,
    "Ġcoll": 8220,
    "Ġsult": 10767,
    "Ġitem": 12698,
    "Ġsubdued": 11030,
    "nder": 20986,
    "Ġscheming": 23268,
    "Ġtows": 19561,
    "Ġclim": 8195,
    "haired": 14765,
    "Ġsoapstone": 20509,
    "ullied": 23102,
    "Ġfettered": 24568,
    "imagination": 13479,
    "ough": 470,
    "istically": 14143,
    "uting": 15657,
    "iciency": 9574,
    "Ġnoiseless": 10356,
    "that": 850,
    "ment": 698,
    "retaining": 21244,
    "probably": 10019,
    "often": 6165,
    "society": 9971,
    "Ġpeevish": 26557,
    "'d": 12425,
    "Ġexpeditions": 24954,
    "seeing": 7078,
    "Ġfath": 7364,
    "vocation": 25084,
    "Ġire": 12666,
    "Ġsideways": 6182,
    "Ġ86": 24461,
    "reds": 12745,
    "Ġmeanings": 18608,
    "ai": 2527,
    "possess": 5983,
    "pillar": 5619,
    "Ġdeafened": 25651,
    "Ġadmitting": 19182,
    "Ġatlantic": 7000,
    "fish": 3513,
    "Ġarve": 15891,
    "Ġhulls": 13925,
    "Ġprofession": 6207,
    "Ġlean": 7603,
    "Ġharpooned": 13260,
    "Ġsulphur": 24933,
    "--âĢľ": 12969,
    "Ġdood": 22239,
    "Ġhastily": 5763,
    "Ġalleghan": 25795,
    "Ġpetulance": 24227,
    "Ġphilips": 5410,
    "Ġdescribes": 3120,
    "Ġbuy": 8299,
    "Ġemerging": 24612,
    "roll": 9196,
    "Ġexeget": 24083,
    "ried": 926,
    "Ġhoars": 19075,
    "estations": 22225,
    "Ġprophe": 13077,
    "sized": 15427,
    "Ġamongst": 8959,
    "em": 389,
    "hauteur": 26391,
    "Ġamiable": 4267,
    "Ġexpans": 18621,
    "Ġhush": 13210,
    "Ġbe": 336,
    "bohemia": 20730,
    "Ġexpress": 2195,
    "jure": 20923,
    "Ġfel": 1516,
    "iance": 5279,
    "acter": 2508,
    "atives": 2236,
    "Ġphase": 14471,
    "Ġjoints": 12033,
    "18": 20750,
    "warp": 17706,
    "Ġbleak": 10558,
    "endless": 22221,
    "Ġmiller": 19882,
    "Ġobjectionable": 16991,
    "cadence": 26125,
    "vari": 1515,
    "Ġpleasurable": 23338,
    "cur": 3269,
    "Ġstow": 21730,
    "Ġadoption": 24948,
    "Ġoutrid": 22313,
    "||": 4869,
    "Ġsickened": 16775,
    "unch": 14057,
    "tent": 21063,
    "Ġpur": 2217,
    "Ġ72": 19610,
    "Ġpale": 4531,
    "Ġemptied": 24347,
    "Ġoutrage": 15956,
    "pine": 13768,
    "ieving": 7031,
    "Ġsanctified": 25883,
    "Ġthose": 1173,
    "Ġmitigates": 3047,
    "Ġrecl": 16138,
    "Ġfloat": 12030,
    "ĠĠĠĠĠĠĠĠĠĠĠĠĠĠĠĠĠĠĠĠĠĠĠĠĠĠĠĠĠĠĠ": 19699,
    "Ġbecher": 18879,
    "sided": 17664,
    "bird": 9585,
    "Ġpupp": 10820,
    "itary": 4750,
    "spirited": 19752,
    "Ġmockery": 12105,
    "Ġ50": 24319,
    "declined": 25174,
    "humoured": 11236,
    "mbl": 5946,
    "iless": 10281,
    "viating": 14577,
    "itting": 1153,
    "comfort": 5647,
    "Ġdecently": 22439,
    "Ġintrodu": 1926,
    "Ġinverted": 12634,
    "asant": 17958,
    "Ġcases": 3961,
    "Ġeternity": 12276,
    "Ġgovernesses": 25127,
    "liable": 3817,
    "plainly": 11089,
    "Ġtrue": 1338,
    "violently": 23539,
    "Ġapology": 8327,
    "Ġnapoleons": 25885,
    "Ġreceptive": 1564,
    "ainty": 21784,
    "Ġmaled": 21313,
    "Ġ102": 24410,
    "Ġirresolute": 24916,
    "Ġpers": 1376,
    "unforeseen": 21885,
    "Ġinanimate": 13932,
    "Ġ54": 24322,
    "inian": 21181,
    "Ġsolely": 9909,
    "royal": 11393,
    "Ġcowardice": 17032,
    "Ġvoy": 2620,
    "Ġdomin": 10466,
    "lingly": 9772,
    "Ġcomforted": 19389,
    "Ġalas": 5921,
    "Ġnav": 5818,
    "Ġsisters": 3639,
    "Ġwreaths": 25937,
    "ometer": 19325,
    "Ġsongs": 13419,
    "islanders": 25442,
    "Ġindignation": 8346,
    "Ġcruis": 14624,
    "Ġsupple": 22998,
    "lour": 15379,
    "Ġmeat": 8151,
    "ect": 381,
    "Ġxlix": 25860,
    "said": 4103,
    "philosop": 9567,
    "Ġhop": 1461,
    "planted": 11696,
    "Ġsteak": 9828,
    "Ġinve": 17928,
    "peculiarities": 13470,
    "Ġhunger": 8566,
    "Ġplead": 14455,
    "Ġdrugged": 12599,
    "Ġsimilarity": 3165,
    "Ġpitchpoling": 14910,
    "agreeable": 5829,
    "Ġtawn": 13822,
    "Ġencl": 16163,
    "Ġheading": 8935,
    "ishness": 22339,
    "Ġthrough": 603,
    "Ġglimmer": 15140,
    "food": 12461,
    "======================================================================": 10067,
    "Ġbury": 12039,
    "ound": 585,
    "Ġlion": 9675,
    "verbally": 25360,
    "ô": 181,
    "Ġproof": 6153,
    "Ġell": 17715,
    "attentive": 17189,
    "Ġwilson": 6629,
    "fireside": 24692,
    "expect": 4768,
    "afford": 14654,
    "Ġreceptacle": 23189,
    "Ġdeceiving": 21834,
    "utional": 17983,
    "Ġfeeds": 16432,
    "umpled": 15874,
    "Ġsickle": 24245,
    "Ġshoved": 23488,
    "singular": 12186,
    "Ġlocked": 6034,
    "Ġgravel": 14101,
    "Ġtendency": 11329,
    "ailing": 7021,
    "Ġemaciated": 20637,
    "ro": 301,
    "leagued": 26435,
    "Ġmar": 1311,
    "Ġmanager": 11767,
    "Ġprofounder": 23567,
    "Ġsty": 6251,
    "comb": 11037,
    "Ġpeterson": 9482,
    "Ġinsure": 13177,
    "birds": 15143,
    "Ġfan": 2036,
    "Ġlament": 7856,
    "Ġgladness": 16591,
    "Ġbridge": 8348,
    "Ġsoaked": 15861,
    "Ġvind": 10249,
    "strip": 19829,
    "Ġpeleg": 3738,
    "Ġlees": 18062,
    "Ġtarpaulin": 26157,
    "inside": 23063,
    "Ġcomple": 2841,
    "Ġescaping": 13133,
    "Ġfor": 340,
    ",*": 17471,
    "wound": 21125,
    "Ġflashes": 11914,
    "Ġcult": 8781,
    "lively": 12482,
    "Ġsnaky": 23740,
    "Ġvoluntarily": 12138,
    "Ġforesight": 13126,
    "oubled": 23645,
    "Ġminds": 6303,
    "Ġwhaleman": 4654,
    "Ġmanhood": 22324,
    "Ġunconcern": 14116,
    "Ġapproach": 858,
    "sies": 21053,
    "ulty": 22564,
    "appin": 18757,
    "Ġinvis": 6902,
    "ific": 491,
    "Ġwrinkles": 8570,
    "Ġ1807": 26083,
    "Ġmoodily": 19833,
    "host": 5867,
    "Ġretrogress": 23071,
    "oqu": 7556,
    "irresistible": 18173,
    "utherland": 9578,
    "ode": 1453,
    "Ġshouting": 10522,
    "Ġstrange": 2274,
    "Ġepo": 21616,
    "Ġremembered": 5276,
    "oters": 21796,
    "Ġaudible": 19880,
    "pacing": 21020,
    "aky": 18412,
    "Ġinterpreter": 23212,
    "._": 3217,
    "Ġmajestic": 8639,
    "Ġphrase": 11187,
    "emberley": 4168,
    "irements": 22210,
    "Ġele": 1964,
    "Ġpequod": 2323,
    "Ġoughts": 23898,
    "Ġdumbly": 24985,
    "carpet": 25202,
    "umber": 5241,
    "Ġflapped": 23010,
    "pemberley": 9620,
    "Ġcouch": 12568,
    "12": 20748,
    "dark": 5614,
    "Ġtearless": 24786,
    "horrors": 20540,
    "crop": 20797,
    "Ġinvariably": 8063,
    "Ġadvisable": 11442,
    "Ġseldom": 4629,
    "Ġdrama": 16327,
    "Ġcurtains": 22969,
    "Ġfollow": 1393,
    "recogn": 13424,
    "Ġoper": 2119,
    "_;": 6640,
    "vult": 21112,
    "Ġscents": 22279,
    "Ġimmediately": 3366,
    "Ġcurb": 16232,
    "Ġkramm": 26233,
    "flesh": 13489,
    "wooden": 24587,
    "labour": 23912,
    "Ġpassengers": 13674,
    "Ġassur": 6073,
    "Ġyet": 1027,
    "Ġplaster": 16082,
    "Ġfather": 1450,
    "<EOS>": 2,
    "Ġappearing": 9841,
    "Ġundulating": 19516,
    "inery": 17733,
    "Ġextremities": 19195,
    "Ġbas": 6380,
    "gered": 9275,
    "dire": 15335,
    "Ġimpertinence": 11366,
    "articulate": 17397,
    "Ç": 136,
    "Ġwalton": 14971,
    "Ġvice": 6548,
    "Ġcasual": 11409,
    "Ġcatastrophic": 3539,
    "Ġgash": 15668,
    "okes": 9276,
    "Ġjoint": 12032,
    "Ġcele": 9899,
    "Ġhurling": 19110,
    "soever": 11858,
    "Ġsc": 530,
    "boat": 3361,
    "ased": 1266,
    "Ġproced": 2580,
    "Ġcategorization": 12134,
    "Ġcontented": 9755,
    "loved": 14250,
    "Ġmoderately": 22212,
    "Ġveteran": 17449,
    "warn": 11542,
    "Ġcirc": 1985,
    "Ġbewitching": 25976,
    "breast": 11245,
    "Ġdetailed": 12821,
    "Ġcoast": 4655,
    "Ġlong": 796,
    "Ġflowing": 14409,
    "Ġunearthly": 9036,
    "notice": 16146,
    "Ġseparated": 9464,
    "buttons": 22399,
    "Ġcity": 4529,
    "rier": 9241,
    "consolatory": 25306,
    "Ġpredefined": 20716,
    "brevi": 24071,
    "obli": 23092,
    "regard": 7972,
    "Ġimmutable": 17357,
    "lord": 3864,
    "Ġgate": 6825,
    "Ġfolks": 14425,
    "lengths": 24846,
    "account": 5329,
    "Ġobedient": 20103,
    "Ġfearless": 9874,
    "tre": 8760,
    "Ġnumbers": 2887,
    "Ġslit": 13054,
    "Ġzero": 1203,
    "Ġmisfortunes": 7041,
    "Ġbrings": 11878,
    "Ġdenominated": 15227,
    "isters": 11917,
    ".;": 20743,
    "heaving": 21206,
    "firm": 10698,
    "Ġdistrust": 8204,
    "Ġdecomposition": 5342,
    "Ġfolded": 7767,
    "Ġcommonest": 23087,
    "oth": 1186,
    "Ġmuzzle": 21319,
    "Ġreusable": 13556,
    "Ġmechan": 1163,
    "Ġtenement": 23544,
    "Ġmiddle": 4136,
    "admon": 21758,
    "floating": 12225,
    "Ġamaze": 22481,
    "Ġpuzzled": 7317,
    "Ġdisappointing": 19578,
    ".}": 20744,
    "Ġcreating": 2992,
    "Ġshipmate": 8928,
    "Ġrelig": 8550,
    "Ġpacing": 8425,
    "/*": 10070,
    "Ġliberal": 12188,
    "Ġtribes": 20479,
    "agings": 18165,
    "nephew": 26397,
    "Ġequilibrium": 4138,
    "larking": 17594,
    "Ġslipping": 13359,
    "Ġpartners": 11851,
    "abomin": 15739,
    "Ġcauses": 2563,
    "Ġposterity": 17401,
    "Ġsounds": 5190,
    ",--âĢľ": 19196,
    "Ġbeat": 4491,
    "vand": 21107,
    "Ġblinding": 14727,
    "Ġmitt": 21306,
    "Ġsatin": 12985,
    "Ġjove": 9267,
    "Ġcouple": 5423,
    "Ġlothario": 26184,
    "lay": 5890,
    "Ġphiladel": 23883,
    "extreme": 11028,
    "absurd": 21792,
    "Ġgoverness": 8600,
    "Ġsense": 3249,
    "Ġjokes": 18408,
    "aet": 15306,
    "powerful": 24847,
    "Ġunsupp": 22016,
    "¾": 127,
    "intosh": 22937,
    "Ġsmiling": 5474,
    "Ġdrought": 19277,
    "Ġsob": 12785,
    "fulness": 4309,
    "Ġleave": 2459,
    "approached": 13484,
    "Ġfitting": 21406,
    "Ġfift": 6382,
    "loun": 17588,
    "walked": 10570,
    "rendering": 22337,
    "Ġlory": 12649,
    "falling": 24361,
    "Ġresounds": 22539,
    "Ġuninter": 18246,
    "Ġstriving": 8996,
    "sebastian": 21817,
    "blazing": 24129,
    "Ġaveraging": 2419,
    "400": 20754,
    "Ġimparted": 15986,
    "Ġaft": 5737,
    "vous": 2251,
    "Ġblan": 18816,
    "Ġprank": 23217,
    "Ġhe": 318,
    "Ġdenote": 19332,
    "Ġrubber": 22784,
    "Ġdeliciousness": 24124,
    "Ġsignal": 5944,
    "dington": 11899,
    "Ġimagine": 3924,
    "abb": 15736,
    "geons": 15977,
    "Ġties": 12524,
    "entric": 11618,
    "Ġopulent": 23627,
    "Ġcaress": 16338,
    "Ġbite": 10797,
    "Ġrepenting": 25322,
    "Ġswelled": 11087,
    "Ġextended": 7923,
    "capitals": 25080,
    "Ġcrammed": 16470,
    "hour": 7340,
    "Ġagitation": 6865,
    "Ġlicensing": 20091,
    "Ġhissed": 15786,
    "Ġadmon": 15866,
    "Ġtreats": 19342,
    "Ġindustry": 18836,
    "Ġtheorem": 2326,
    "Ġdrink": 4786,
    "Ġanticipation": 17058,
    "gra": 769,
    "Ġspout": 3281,
    "iverse": 13114,
    "Ġchinese": 14183,
    "embraces": 25803,
    "Ġruthless": 15284,
    "car": 4208,
    "Ġross": 2765,
    "Ġgroping": 13664,
    "mits": 13755,
    "Ġserving": 14485,
    "Ġtuning": 3070,
    "Ġtempered": 12920,
    "Ġlibraries": 20613,
    "ils": 3179,
    "Ġarticulate": 24432,
    "its": 1151,
    "¡": 99,
    "dro": 6644,
    "Ġbalm": 22900,
    "`": 68,
    "Ġticklish": 25034,
    "Ġcalm": 3446,
    "jacket": 12290,
    "fle": 7128,
    "Ġrecommending": 24337,
    "Ġsnatching": 10472,
    "Ġenveloping": 19733,
    "Ġpaced": 7584,
    "Ġcadiz": 17324,
    "Ġsalvation": 14756,
    "dan": 17515,
    "Ġobscure": 9553,
    "spond": 5567,
    "scattered": 22992,
    "asets": 2311,
    "Ġchatting": 24747,
    "Ġsnorting": 23739,
    "Ġlinks": 13954,
    "inforcement": 3289,
    "rically": 15416,
    "chest": 11208,
    "narrow": 11507,
    "Ġquieted": 23839,
    "Ġtass": 15468,
    "Ġlevels": 12693,
    "Ġante": 17896,
    "Ġstock": 7455,
    "Ġpassing": 4315,
    "Ġirretrie": 23372,
    "blades": 24128,
    "Ġzeal": 9097,
    "Ġkitty": 3908,
    "passage": 11261,
    "Ġforces": 12699,
    "Ġblame": 6446,
    "Ġphilosophy": 7103,
    "Ġsubs": 2128,
    "invisible": 17740,
    "supposing": 24132,
    "Ġdescends": 14286,
    "Ġsalesman": 13667,
    "Ġwherein": 14294,
    "Ġneskyeuna": 26459,
    "Ġvoracity": 25986,
    "Ġlodging": 24090,
    "Ġstealing": 18893,
    "dread": 8728,
    "avenue": 25057,
    "riors": 18186,
    "Ġcons": 953,
    "Ġcir": 21339,
    "bold": 17487,
    "afternoon": 13184,
    "aborate": 14021,
    "Ġbones": 4583,
    "Ġsanguinary": 25929,
    "Ġuncivilized": 25498,
    "Ġxxi": 24476,
    "Ġforlorn": 14014,
    "wreck": 21135,
    "Ġsuspect": 5758,
    "Ġtierce": 15477,
    "Ġwon": 1667,
    "ushed": 2968,
    "Ġnarrations": 24352,
    "Ġloved": 4599,
    "treat": 12511,
    "Ġreputation": 11639,
    "oyed": 14364,
    "Ġhands": 1665,
    "Ġstingy": 25455,
    "Ġsaddest": 16662,
    "Ġcongregated": 20095,
    "Ġdiscovers": 4426,
    "Ġupright": 8493,
    "Ġglut": 18852,
    "Ġhoofs": 14527,
    "somehow": 12010,
    "gument": 20884,
    "Ġportents": 14679,
    "Ġtorture": 9064,
    "adem": 21754,
    "byter": 16213,
    "Ġdetected": 18841,
    "Ġoarsman": 8637,
    "Ġbeque": 18080,
    "ance": 478,
    "unvarying": 21884,
    "Ġbroods": 23100,
    "hun": 5210,
    "Ġinsensibly": 20074,
    "Ġsharing": 3475,
    "standing": 5558,
    "Ġjabbering": 22300,
    "Ġincognita": 26551,
    "Ġblo": 2735,
    "Ġinducement": 16843,
    "Ġpossibility": 7458,
    "Ġconcealment": 16914,
    "fishers": 24928,
    "hement": 13831,
    "pitch": 13297,
    "skeleton": 17375,
    "Ġcottages": 14726,
    "spoutings": 25001,
    "ipper": 13739,
    "Ġinvitation": 5189,
    "comp": 3815,
    "lemag": 21370,
    "nine": 13760,
    "Ġcontinuation": 22915,
    "Ġandrew": 21504,
    "Ġhorrors": 10479,
    "Ġadd": 630,
    "kindly": 14743,
    "Ġstag": 6148,
    "becomes": 22493,
    "Ġed": 2141,
    "hated": 17561,
    "Ġdisadvantages": 18558,
    "pivot": 21030,
    "spiracle": 22733,
    "Ġstarlight": 24626,
    "Ġannealing": 1555,
    "widows": 25344,
    "Ġencoder": 3634,
    "sure": 5522,
    "placidity": 25988,
    "Ġinnoc": 3794,
    "Ġperception": 9749,
    "mble": 1406,
    "ional": 1083,
    "endom": 15918,
    "raged": 9211,
    "Ġslop": 23158,
    "Ġglimpses": 13431,
    "leap": 21365,
    "Ġbern": 17858,
    "itudes": 3009,
    "ached": 2322,
    "Ġextremity": 8988,
    "needles": 20310,
    "Ġeffected": 14353,
    "Ġago": 3134,
    "Ġproceeds": 12075,
    "Ġflourish": 17160,
    "Ġsuch": 794,
    "Ġchilled": 18382,
    "apidated": 22334,
    "Ġmeaning": 1415,
    "Ġintroduce": 3201,
    "Ġsetbacks": 11063,
    "Ġadopt": 10632,
    "Ġalthough": 4148,
    "appropri": 22838,
    "angry": 18294,
    "Ġsubtile": 20378,
    "Ġgar": 10838,
    "ather": 740,
    "Ġspeeches": 22648,
    "pha": 22780,
    "verity": 14000,
    "Ġwinter": 5220,
    "Ġdominion": 16536,
    "Ġinclemency": 22552,
    "Ġhandsome": 4906,
    "aggo": 5097,
    "reproof": 25432,
    "Ġpap": 8797,
    "Ġcommander": 8624,
    "Ġindefinitely": 25221,
    "extensive": 18698,
    "orn": 2242,
    "Ġethiop": 26155,
    "Ġswimming": 5507,
    "Ġmanif": 8870,
    "pig": 8752,
    "Ġcrane": 23438,
    "Ġavailed": 23949,
    "Ġsweetheart": 19393,
    "rosc": 17954,
    "Ġsorely": 17256,
    "Ġrefreshment": 17239,
    "terr": 8153,
    "Ġavowal": 19413,
    "remonstr": 23188,
    "idel": 5299,
    "acquainted": 7313,
    "eleg": 20848,
    "Ġclad": 12837,
    "Ġorganizations": 12312,
    "Ġwidow": 8662,
    "Ġtranslates": 12049,
    "Ġcocaine": 20720,
    "dict": 15338,
    "Ġ19": 6719,
    "osc": 18387,
    "cleanliness": 25871,
    "Ġdisgra": 18549,
    ".âĢĶ": 4246,
    "thickness": 25367,
    "Ġheart": 1596,
    "satisf": 5781,
    "Ġdeject": 10880,
    "Ġperson": 2367,
    "Ġpreceding": 7529,
    "erate": 7149,
    "ortion": 11755,
    "ifle": 10891,
    "meanwhile": 10609,
    "Ġblasphemer": 26116,
    "Ġblend": 14398,
    "Ġhanding": 16128,
    "Ġconve": 5455,
    "Ġlingu": 11613,
    "yset": 21144,
    "Ġexplanation": 6692,
    "Ġembraced": 10005,
    "responsible": 25763,
    "ways": 1441,
    "dry": 13702,
    "rigging": 20004,
    "Ġunexampled": 20358,
    "Ġemphasis": 20535,
    "Ġget": 1622,
    "Ġcorpusants": 13676,
    "attent": 9358,
    "Ġqueerest": 16413,
    "maj": 18806,
    "Ġdod": 6672,
    "Ġchiefly": 5766,
    "Ġdamp": 8263,
    "Ġimag": 2675,
    "Ġprofoundly": 16859,
    "passed": 8025,
    "ourable": 4967,
    "decor": 23778,
    "Ġconfounded": 16379,
    "Ġincidents": 9298,
    "Ġdre": 1745,
    "Ġcorrespondence": 10594,
    "Ġcate": 4108,
    "Ġenergies": 25459,
    "grate": 23410,
    "Ġsimplest": 16332,
    "Ġconcealed": 7496,
    "Ġstreets": 5863,
    "Ġportrait": 10661,
    "desolation": 20448,
    "Ġmiz": 10777,
    "Ġmutineer": 19416,
    "Ġincensed": 18571,
    "Ġflower": 16230,
    "lost": 8887,
    "Ġjets": 10287,
    "Ġpyth": 21458,
    "95": 17477,
    "iers": 5990,
    "Ġhowled": 12853,
    "Ġplayers": 12036,
    "Ġcovent": 16070,
    "Ġsacred": 10930,
    "Ġfort": 2579,
    "furniture": 20241,
    "utter": 7594,
    "Ġwillingly": 8884,
    "shazz": 14241,
    "acey": 7650,
    "Ġsunlight": 13084,
    "cring": 20810,
    "Ġgenerously": 22396,
    "tahit": 17692,
    "uments": 5552,
    "Ġbroker": 23099,
    "individual": 18436,
    "Ġresided": 11809,
    "imly": 12684,
    "Ġsupplying": 19797,
    "Ġextravag": 11253,
    "paddington": 20476,
    "fortnight": 13086,
    "Ġarmchair": 8270,
    "shame": 16022,
    "Ġstrateg": 1396,
    "aust": 15308,
    "Ġscrupled": 25049,
    "Ġgerm": 13963,
    "Ġgreeting": 18964,
    "Ġwrapped": 8341,
    "indignation": 18438,
    "influence": 13577,
    "Ġseethe": 21953,
    "Ġprevention": 16089,
    "Ġornam": 15862,
    "ultaneous": 18582,
    "Ġajar": 21201,
    "Ġexist": 9231,
    "Ġserene": 8166,
    "adequately": 20318,
    "ingly": 2133,
    "Ġstump": 7606,
    "Ġauthorities": 11264,
    "Á": 130,
    "Ġinno": 1355,
    "Ġtusk": 25425,
    "ivot": 11716,
    "Ġsubl": 7235,
    "Ġhorizontally": 17012,
    "Ġcoach": 6867,
    "limbs": 20190,
    "Ġmurky": 19201,
    "iew": 2449,
    "Ġsettling": 11062,
    "Ġeaves": 15673,
    "avenza": 17104,
    "Ġunst": 18238,
    "Ġclassical": 22627,
    "Ġtweed": 22674,
    "Ġstammered": 26199,
    "putting": 14099,
    "Z": 62,
    "Ġsurvivors": 25732,
    "Ġgard": 2189,
    "Ġcalling": 5662,
    "Ġdarted": 4757,
    "emptied": 23634,
    "Ġsigns": 2444,
    "shine": 9287,
    "teness": 23203,
    "Ġfundament": 2924,
    "Ġdismay": 11807,
    "Ġcongeal": 25980,
    "Ġlearnedly": 23384,
    "Ġextracts": 9364,
    "Ġhaven": 8473,
    "Ġfriendly": 9819,
    "ores": 2413,
    "databases": 3019,
    "uled": 11536,
    "Ġglacier": 11433,
    "Ġbook": 2703,
    "Ġrejoined": 14926,
    "Ġfin": 1460,
    "Ġmule": 13861,
    "Ġelapsed": 7653,
    "Ġlik": 2523,
    "Ġpolic": 13160,
    "Ġeloped": 22642,
    "rev": 17756,
    "liament": 16216,
    "Ġcumul": 4175,
    "ones": 2744,
    "months": 9071,
    "....": 11316,
    "Ġload": 14145,
    "Ġmarvels": 11084,
    "|": 96,
    "Ġtrust": 4077,
    "Ġcommenting": 25228,
    "Ġunsounded": 15847,
    "Ġstrewed": 23420,
    "Ġbarbaric": 10013,
    "Ġremarking": 13123,
    "Ġcontemporary": 16010,
    "Ġrocky": 13386,
    "harpooneers": 8689,
    "Ġtax": 13815,
    "in": 262,
    "Ġwhiff": 21715,
    "Ġreturning": 5325,
    "Ġtantamount": 25625,
    "Ġpup": 12616,
    "ursday": 12274,
    "ĠĠĠĠĠĠĠĠĠĠĠĠĠĠĠĠĠĠĠĠĠĠĠĠĠĠĠĠĠĠĠĠĠĠĠĠĠĠĠĠĠĠĠĠĠĠĠĠ": 7988,
    "Ġfurrow": 22810,
    "Ġconfidently": 24955,
    "Ġfathers": 16294,
    "Ġattraction": 18625,
    "Ġworaciousness": 22926,
    "Ġgentleman": 3035,
    "began": 6426,
    "Ġcemeteries": 26375,
    "dancing": 12452,
    "Ġcensured": 25094,
    "Ġmarched": 18870,
    "abez": 10222,
    "Ġcataract": 23426,
    "Ġpleasanter": 19065,
    "kinder": 24845,
    "Ġrapid": 1464,
    "flagged": 23969,
    "Ġastonishment": 4793,
    "Ġlaboratory": 13611,
    "Ġadhering": 14139,
    "expression": 10547,
    "Ġindividuality": 14908,
    "Ġlestrade": 5824,
    "Ġmarried": 3408,
    "response": 25762,
    "Ġoverfitting": 1543,
    "dependence": 17167,
    "Ġinvariable": 13455,
    "Ġtransplanted": 22438,
    "94": 4803,
    "Ġarthur": 7196,
    "Ġwarped": 25035,
    "legra": 10789,
    "ulated": 6029,
    "Ġalien": 14017,
    "Ġcompare": 9301,
    "Ġcerem": 7077,
    "Ġwarmer": 19185,
    "Ġcourage": 4633,
    "Ġezekiel": 26192,
    "Ġwitty": 21291,
    "Ġsuffocated": 20727,
    "Ġconjunction": 25100,
    "rmsprop": 4521,
    "Ġsouthwards": 19632,
    "Ķ": 247,
    "Ġtemple": 7654,
    "Ġrescales": 5068,
    "Ġsupport": 6728,
    "soft": 12507,
    "Ġsons": 10766,
    "Ġalche": 21780,
    "opÃ¦": 12867,
    "Ġbil": 15562,
    "Ġinspire": 11994,
    "Ġinflamed": 13472,
    "narr": 12494,
    "confirmation": 26089,
    "Ġintimidated": 24805,
    "Ġexhib": 6349,
    "exerc": 16013,
    "Ġspeeding": 23562,
    "Ġencamp": 22797,
    "ĠĠĠĠĠ": 3524,
    "Ġpanting": 11601,
    "Ġendeavours": 8617,
    "Ġbirth": 6524,
    "Ġ{": 21151,
    "relate": 24008,
    "itates": 13868,
    "Ġmes": 17796,
    "ara": 12603,
    "Ġ15": 9323,
    "scythes": 26402,
    "Ġcolossal": 11459,
    "Ġappl": 1757,
    "Ġjumped": 7096,
    "deeply": 16176,
    "jo": 3751,
    "Ġcatherine": 2813,
    "acit": 16079,
    "Ġadditional": 7935,
    "Ġconfirmation": 17210,
    "Ġcoffin": 4427,
    "âĢľâĢĶ": 10872,
    "Ġoptimizer": 5036,
    "Ġstarting": 7728,
    "Ġresponses": 23648,
    "waving": 21130,
    "sales": 17667,
    "Ġrode": 15994,
    "Ġfejee": 18353,
    "Ġtrick": 7018,
    "riety": 12740,
    "Ġwouldst": 18499,
    "repaid": 24491,
    "Ġrueful": 25581,
    "Ġfluctuations": 5516,
    "Ġsam": 7570,
    "Ġbounce": 21391,
    "Ġdirt": 15591,
    "!)": 10068,
    "Ġdevotedly": 24750,
    "nursery": 26399,
    "hands": 5966,
    "Ġtravelling": 11307,
    "scrape": 25698,
    "Ġmccauley": 26427,
    "Ġgreece": 17070,
    "charming": 15703,
    "Ġanimation": 11152,
    "Ġhuff": 21487,
    "Ġgave": 2218,
    "Ġ123": 24468,
    "Ġargosy": 24273,
    "mosphere": 10042,
    "Ġdemanding": 16805,
    "Ġtrading": 23074,
    "Ġdrank": 16535,
    "tar": 8097,
    "Ġinsisted": 12044,
    "unders": 13308,
    "Ġplays": 12035,
    "Ġro": 595,
    "raltar": 24233,
    "Ġinside": 5448,
    "acon": 10681,
    "Ġnavy": 14915,
    "Ġmaids": 19690,
    "Ġworked": 6583,
    "Ġplane": 11821,
    "Ġdisappearing": 22530,
    "Ġaccounting": 14571,
    "tha": 15821,
    "bast": 10076,
    "Ġindisp": 18833,
    "Ġtranquil": 7310,
    "draw": 23896,
    "Ġas": 374,
    "safe": 10053,
    "Ġdid": 836,
    "idious": 11661,
    "shaven": 18494,
    "ectual": 21912,
    "Ġwave": 7576,
    "ourse": 8869,
    "urity": 8142,
    "Ġdissembling": 26254,
    "Ġmil": 4252,
    "evenings": 19461,
    "fiercely": 25256,
    "Ġconcept": 675,
    "Ġexpectation": 6904,
    "Ġpartner": 6714,
    "Ġamours": 22479,
    "bro": 4033,
    "Ġtreasures": 17047,
    "ilty": 6394,
    "tedious": 22630,
    "hard": 4689,
    "recol": 10150,
    "Ġenig": 15797,
    "Ġsucceeding": 16761,
    "compl": 6873,
    "_,âĢĻ": 12431,
    "idy": 21761,
    "Ġintegral": 25008,
    "whiteness": 18370,
    "Ġrising": 4355,
    "Ġsword": 6732,
    "Ġstation": 5297,
    "Ġhanover": 20584,
    "Ġscorching": 20066,
    "hors": 9598,
    "gir": 8082,
    "Ġdoubly": 16381,
    "Ġrelics": 16194,
    "aton": 21257,
    "agation": 1268,
    "Ġmiscell": 16148,
    "Ġrav": 14307,
    "Ġduties": 6609,
    "seeking": 17152,
    "Ġvicious": 24403,
    "Ġdy": 2428,
    "doctor": 19095,
    "ernally": 22613,
    "Ġvaulted": 25167,
    "Ġouter": 6859,
    "Ġ42": 16678,
    "Ġencouragement": 13040,
    "Ġunbending": 25464,
    "Ġmember": 8585,
    "gd": 3123,
    "Ġoccasional": 7289,
    "size": 15424,
    "Ġingen": 9049,
    "ã": 164,
    "Ġaltogether": 4831,
    "Ġweap": 6155,
    "Ġusing": 706,
    "Ġbanish": 15567,
    "Ġjaw": 3318,
    "Ġflourished": 15124,
    "Ġplaymate": 23636,
    "ex": 620,
    "Ġinexperienced": 26100,
    "Ġislanders": 19500,
    "itate": 6667,
    "Ġmomentarily": 22808,
    "Ġfron": 14487,
    "visit": 7754,
    "Ġfairest": 20461,
    "pierced": 26141,
    "Ġplanets": 24053,
    "Ġendure": 5955,
    "Ġstood": 2552,
    "Ġ44": 16679,
    "Ġvengeance": 5884,
    "Ġmummy": 25768,
    "uc": 1878,
    "Ġdances": 10812,
    "Ġchristian": 6479,
    "Ġalps": 10870,
    "Ġsports": 18310,
    "toed": 18578,
    "Ġfine": 1318,
    "Ġadvice": 4901,
    "Ġperpetual": 12301,
    "coo": 11170,
    "Ġalternate": 19984,
    "Ġbenignity": 18782,
    "urned": 9305,
    "Ġsing": 3071,
    "yl": 7818,
    "Ġpractises": 23322,
    "aculate": 16081,
    "Ġovers": 14205,
    "Ġowns": 22821,
    "Ġmagnitudes": 3821,
    "Ġbowing": 10475,
    "Ġmine": 3176,
    "phant": 6287,
    "fted": 9118,
    "Ġcrate": 19122,
    "Ġsaying": 3240,
    "Ġcuff": 17829,
    "Ġtables": 9877,
    "Ġ115": 24439,
    "Ġfol": 1287,
    "Ġhelm": 5275,
    "ricity": 23061,
    "Ġugliness": 20425,
    "Ġrobe": 18456,
    "deceptive": 22146,
    "Ġcocain": 18592,
    "neither": 9756,
    "dation": 2614,
    "Ġholder": 6724,
    "malice": 17604,
    "Ġtapping": 10752,
    "inquiry": 15141,
    "reception": 15513,
    "Ġthan": 737,
    "hro": 20890,
    "Ġattracted": 8904,
    "ead": 2600,
    "Ġimpediments": 26240,
    "outh": 2688,
    "Ġbreath": 4790,
    "Ġair": 1835,
    "Ġwise": 6811,
    "Ġintroducing": 11974,
    "Ġfinishing": 23122,
    "tempered": 13445,
    "cr": 4073,
    "Ġtwelfth": 22675,
    "Ġenormousness": 24515,
    "´": 117,
    "Ġcamberwell": 25350,
    "Ġdub": 13908,
    "Ġhowling": 8509,
    "Ġcharacteristics": 8609,
    "Ġhobbling": 25644,
    "ocr": 10468,
    "ĠĠĠĠĠĠĠĠĠĠĠĠĠĠĠĠĠĠĠĠĠĠĠĠĠĠĠĠĠĠĠĠĠĠĠĠĠĠĠĠĠĠĠ": 12152,
    "Ġburnt": 9927,
    "Ġdeprived": 8209,
    "Ġhospitality": 13512,
    "Ġbarrens": 25501,
    "quis": 7869,
    "Ġplush": 18610,
    "ici": 8439,
    "Ġafloat": 9307,
    "Ġcalls": 6744,
    "Ġcased": 21344,
    "years": 6883,
    "unearthly": 19272,
    "groom": 8739,
    "Ġ17": 5740,
    "Ġrough": 7187,
    "Ġsplitting": 4382,
    "Ġsou": 1888,
    "Ġfilters": 3928,
    "bacc": 7794,
    "Ġdevoting": 22713,
    "Ġhard": 1443,
    "ë": 172,
    "Ġtranslation": 3086,
    "Ġdistinguishing": 16496,
    "Ġfragments": 19013,
    "own": 746,
    "Ġinfallible": 15069,
    "Ġpun": 4587,
    "Ġclosest": 16763,
    "Ġembrace": 16990,
    "Ġsermon": 12374,
    "Ġreluct": 14370,
    "Ġstabbed": 25456,
    "Ġfrog": 23918,
    "Ġwaterloo": 11979,
    "Ġupd": 946,
    "br": 2479,
    "Ġarter": 22174,
    "commander": 16987,
    "Ġpunch": 9954,
    "Ġluxuriant": 20393,
    "breathing": 25335,
    "Ġpractice": 2768,
    "opening": 10312,
    "misfortunes": 16756,
    "Ġsec": 2075,
    "Ġcrime": 4616,
    "Ġpore": 21455,
    "iminished": 19024,
    "Ġforgetfulness": 14606,
    "Ġshrieked": 9547,
    "mentioned": 10623,
    "Ġbiographical": 22765,
    "Ġvital": 9242,
    "Ġ}": 21152,
    "istered": 14144,
    "Ġentrances": 25834,
    "Ġferguson": 17469,
    "for": 967,
    "ach": 433,
    "drunk": 24659,
    "Ġgra": 416,
    "bout": 20772,
    "Ġspend": 5304,
    "entire": 6824,
    "Ġattack": 5478,
    "itable": 5437,
    "altern": 17941,
    "vanished": 15060,
    "Ġprobable": 5570,
    "Ġthump": 11610,
    "Ġdick": 3495,
    "Ġleaf": 15714,
    "Ġmanly": 22322,
    "Ġmapp": 2081,
    "Ġwasn": 6997,
    "university": 25983,
    "Ġenumerating": 15243,
    "comfortably": 16875,
    "Ġstarboard": 7608,
    "deliberated": 26118,
    "innocent": 20285,
    "zers": 21145,
    "Ġstreet": 2955,
    "published": 26142,
    "remarkable": 13497,
    "Ġrequired": 7224,
    "commanding": 24752,
    "Ġshepherd": 14152,
    "Ġrepining": 23358,
    "Ġklan": 23659,
    "ginger": 13162,
    "Ġuncontrollable": 25814,
    "Ġdoth": 13907,
    "Ġfaithfulness": 24446,
    "Ġfris": 23254,
    "itect": 973,
    "Ġcolouring": 16751,
    "consciously": 19624,
    "Ġassent": 12730,
    "pall": 17628,
    "Ġinspect": 5963,
    "vent": 683,
    "lanterns": 17428,
    "Ġnewspaper": 12362,
    "inction": 6660,
    "Ġhates": 21483,
    "tubs": 15129,
    "vag": 8764,
    "possibly": 10543,
    "Ġcivilized": 8664,
    "Ġallude": 12768,
    "Ġpromoting": 3158,
    "striking": 13439,
    "bec": 4051,
    "Ġresides": 22537,
    "Ġworsted": 19993,
    "Ġsunrise": 9372,
    "worshipping": 16610,
    "phur": 16153,
    "Ġplata": 25117,
    "Ġinsp": 2100,
    "Ġdandy": 17892,
    "Ġfritters": 23255,
    "Ġunman": 12771,
    "Ġlect": 9220,
    "Ġblandly": 20322,
    "ateful": 5926,
    "animated": 14974,
    "Ġimpud": 18445,
    "Ġcompany": 3721,
    "Ġjoists": 19232,
    "Ġeagerness": 6608,
    "ivility": 12780,
    "Ġtowns": 11173,
    "strangers": 20335,
    "Ġcitizens": 25439,
    "Ġseal": 10254,
    "oppressed": 24824,
    "conda": 18993,
    "Ġunconsc": 6552,
    "owner": 18611,
    "pus": 3414,
    "Ġforeseen": 16442,
    "farewell": 12304,
    "Ġstraightway": 9016,
    "dropped": 12260,
    "isons": 17849,
    "Ġtempt": 5565,
    "Ġportly": 14678,
    "ariously": 18527,
    "errand": 22907,
    "Ġgets": 10839,
    "screw": 9346,
    "Ġchilly": 25562,
    "51": 12429,
    "Ġinsipid": 26313,
    "Ġve": 1109,
    "Ġcircumst": 2971,
    "Ġprehensile": 26534,
    "Ġunguarded": 15848,
    "Ġtunnels": 24620,
    "Ġshark": 5550,
    "Ġcontemplation": 11357,
    "Ġwomanly": 23547,
    "mathemat": 19137,
    "tempest": 16959,
    "Ġsophisticated": 1677,
    "Ġpure": 6137,
    "estab": 14170,
    "Ġlaughter": 9027,
    "Ġprobably": 4314,
    "allied": 7410,
    "ceremony": 20588,
    "Ġthoughtless": 16191,
    "Ġselfish": 7272,
    "Ġmemorable": 16426,
    "respectively": 24700,
    "Ġuninterrupted": 22041,
    "Ġbrittle": 22857,
    "Ġoutbreak": 22315,
    "Ġmemorand": 23403,
    "Ġsnow": 3706,
    "Ġelopement": 10329,
    "ban": 9584,
    "Ġbolt": 11334,
    "Ġsubstit": 19539,
    "Ġpassenger": 14368,
    "Ġoozy": 21325,
    "Ġnowhere": 12883,
    "Ġsnapping": 19299,
    "ists": 4000,
    "volume": 18600,
    "library": 12996,
    "Ġarguing": 25470,
    "Ġlectures": 17178,
    "ignorantly": 25189,
    "Ġredeem": 20498,
    "Ġquaker": 10971,
    "Ġpolar": 9410,
    "Ġfounded": 8556,
    "blacksmith": 17001,
    "Ġunsatisfied": 22039,
    "Ġmean": 743,
    "Ġdipping": 15589,
    "Ġelevation": 14898,
    "Ġpaces": 13918,
    "sweetly": 25134,
    "uated": 10131,
    "teringly": 21820,
    "Ġturks": 14598,
    "Ġtul": 21158,
    "Ġyellowish": 24430,
    "Ġemblazonings": 26046,
    "husband": 8041,
    "Ġsurvivor": 17362,
    "Ġhypothe": 4072,
    "Ġshut": 3942,
    "Ġsurrender": 16449,
    "flinging": 20867,
    "Ġcorner": 4369,
    "Ġaudience": 24769,
    "ove": 1744,
    "Ġamounts": 6704,
    "Ġeasily": 3890,
    "Ġcirculating": 23371,
    "Ġrabb": 4161,
    "spirit": 11313,
    "Ġpace": 9182,
    "bushes": 24447,
    "Ġsecurely": 16802,
    "Ġmorris": 18849,
    "Ġhypotheses": 4385,
    "Ġassiduous": 26292,
    "scornful": 26575,
    "Ġjud": 3357,
    "Ġdespair": 4010,
    "sort": 6798,
    "Ġinnumerable": 13350,
    "ula": 2826,
    "Ġcheering": 11133,
    "isk": 9167,
    "Ġdict": 9175,
    "value": 18800,
    "belong": 12120,
    "Ġvision": 1635,
    "Ġglobular": 19010,
    "zwilliam": 5074,
    "Ġclassification": 1104,
    "acles": 8519,
    "Ġdoctors": 12149,
    "sent": 759,
    "Ġstring": 11825,
    "shish": 11791,
    "Ġwatches": 11082,
    "Ġspasmod": 12412,
    "Ġtender": 5753,
    "ison": 3072,
    "Ġlady": 1588,
    "Ġmistaking": 23717,
    "Ġgouge": 26188,
    "Ġproving": 15749,
    "Ġprograms": 7239,
    "Ġprairie": 8712,
    "Ġloudly": 7312,
    "Ġstrove": 9956,
    "Ġalternately": 15031,
    "Ġburg": 23651,
    "orrow": 2913,
    "parts": 14601,
    "Ġpleasure": 2695,
    "lantern": 17427,
    "Ġsacri": 18328,
    "Ġbashaw": 25633,
    "Ġalmighty": 18104,
    "frequently": 9978,
    "Ġpump": 12618,
    "Ġdisquiet": 18552,
    "having": 5211,
    "Ġconcise": 23319,
    "Ġcaliforn": 14430,
    "stiff": 12671,
    "Ġunbroken": 18250,
    "Ġtwisting": 18657,
    "Ġsolicitude": 10039,
    "formed": 2555,
    "punct": 20191,
    "Ġ131": 24782,
    "Ġpads": 21471,
    "itheat": 21336,
    "Ġadequately": 15197,
    "Ġcompelled": 14265,
    "ascended": 24706,
    "rub": 15897,
    "Ġgloves": 8574,
    "hypothe": 25905,
    "isbury": 21375,
    "dwelt": 23869,
    "Ġdawned": 14993,
    "ria": 15795,
    "Ġlightened": 23259,
    "devil": 7894,
    "Ġhor": 1662,
    "Ä": 133,
    "Ġbutterfly": 19909,
    "message": 17371,
    "Ġpotential": 3618,
    "Ġorgans": 15863,
    "Ġexceptionable": 25503,
    "Ġdirector": 18920,
    "Ġpratt": 23218,
    "Ġforb": 11662,
    "Ġprofundity": 20451,
    "Ġkate": 15903,
    "Ġpike": 12620,
    "boscombe": 26121,
    "trembling": 17142,
    "Ġascended": 8665,
    "Ġclapping": 14203,
    "viii": 12019,
    "Ġdelusion": 18974,
    "orses": 6051,
    "Ġrecognise": 12040,
    "Ġcommodore": 12393,
    "Ġrecom": 4554,
    "Ġdau": 21423,
    "whal": 10940,
    "Ġwerter": 15238,
    "Ġvariation": 22662,
    "Ġsaucer": 20604,
    "repairing": 24495,
    "Ġincivility": 18572,
    "Ġreefed": 20301,
    "concerned": 24638,
    "Ġfrankly": 16745,
    "Ġretains": 20028,
    "ation": 320,
    "Ġalphabetical": 17201,
    "Ġsighs": 22706,
    "llable": 6879,
    "Ġthirdly": 24140,
    "Ġimmensity": 25329,
    "Ġdataset": 12816,
    "Ġserpents": 13075,
    "Ġinvincible": 23478,
    "atics": 15521,
    "Ġremot": 8543,
    "1775": 26378,
    "concent": 19478,
    "ilight": 12690,
    "Ġoutlast": 22311,
    "Ġveritable": 19379,
    "ips": 2593,
    "Ġstung": 21738,
    "Ġeternities": 19941,
    "owners": 16085,
    "s": 87,
    "whis": 7897,
    "prisoner": 20542,
    "Ġhealthcare": 8015,
    "Ġromish": 19583,
    "rough": 589,
    "Ġsleepy": 8267,
    "Ġcry": 3494,
    "Ġcards": 7581,
    "Ġnight": 1466,
    "Ġhydraul": 9513,
    "Ġobstacle": 16955,
    "Ġwarden": 17224,
    "Ġseconds": 16396,
    "Ġprecip": 7074,
    "repe": 8775,
    "t": 88,
    "Ġmonstrous": 7789,
    "Ġfootmarks": 19336,
    "©": 107,
    "namely": 23644,
    "Ġannotations": 25954,
    "Ġmis": 918,
    "Ġguests": 12285,
    "Ġrending": 19465,
    "what": 642,
    "Ġprivile": 8645,
    "ateg": 1391,
    "Ġocc": 887,
    "kington": 11203,
    "Ġcomprehensiveness": 25072,
    "Ġcuring": 21342,
    "educ": 10828,
    "Ġcoming": 2618,
    "ouraged": 22852,
    "writhed": 26080,
    "Ġwhiting": 10859,
    "Ġinjure": 16781,
    "vels": 5432,
    "Ġbenef": 3487,
    "Ġsanely": 24980,
    "Ġhour": 1810,
    "Ġplying": 17911,
    "Ġreproof": 24890,
    "grat": 5052,
    "rimsh": 17027,
    "Ġpercept": 14222,
    "likelihood": 4992,
    "proper": 7472,
    "Ġbended": 21383,
    "interests": 19707,
    "Ġamazement": 7764,
    "Ġblunder": 18818,
    "Ġsins": 13836,
    "Ġneck": 4885,
    "oner": 6124,
    "Ġcomfortable": 6094,
    "solut": 3364,
    "Ġpolitic": 23617,
    "Ġincorporate": 20453,
    "Ġearth": 2850,
    "Ġbeliefs": 24582,
    "Ġstates": 1853,
    "Ġmagical": 23096,
    "Ġhapless": 15810,
    "Ġrambling": 18644,
    "Ġgifts": 21609,
    "Ġfiver": 22766,
    "european": 26371,
    "Ġartfully": 22609,
    "Ġmim": 3104,
    "od": 353,
    "nervous": 16275,
    "Ġirregular": 9864,
    "Ġpudding": 17913,
    "Ġevince": 24293,
    "beds": 16586,
    "polar": 24583,
    "Ġaud": 6661,
    "Ġvain": 3628,
    "Ġregularization": 1179,
    "Ġimpregn": 26022,
    "Ġdamn": 11158,
    "Ġwal": 6517,
    "Ġfatigue": 8697,
    "ĠâĢľ": 516,
    "significant": 25082,
    "upwards": 18863,
    "Ġloungers": 24862,
    "powers": 25410,
    "arrested": 15598,
    "rendered": 22336,
    "Ġrake": 18643,
    "Ġwhilst": 9218,
    "stranded": 19225,
    "umblings": 23927,
    "Ġspoils": 24808,
    "Ġcongregation": 12327,
    "ihood": 20921,
    "Ġvigilant": 20183,
    "Ġautoregressive": 3431,
    "Ġfield": 1224,
    "Ġmir": 9646,
    "ufact": 10733,
    "ieve": 1660,
    "Ġcasked": 24497,
    "Ġallev": 18100,
    "inable": 11555,
    "limping": 26393,
    "Ġarchitecture": 1122,
    "Ġsimilar": 4917,
    "suspended": 15176,
    "Ġthoughtfully": 12976,
    "ships": 5486,
    "Ġjewelled": 20182,
    "carte": 25400,
    "clump": 23151,
    "Ġattested": 22625,
    "Ġerroneous": 17408,
    "ê": 171,
    "isf": 2436,
    "Ġhalls": 19524,
    "fortun": 3536,
    "Ġrun": 2354,
    "Ġvisitors": 7984,
    "Ġtrunks": 15962,
    "Ġslaught": 23163,
    "oughed": 22080,
    "bale": 20773,
    "Ġirrevoc": 15038,
    "Ġprobabilities": 4966,
    "Ġcasualties": 25512,
    "Ġupwards": 7634,
    "cell": 10685,
    "Ġcabal": 23640,
    "Ġfil": 3471,
    "stayed": 25290,
    "Ġwishes": 4794,
    "ichron": 22160,
    "impetuous": 23761,
    "Ġdelights": 14596,
    "admit": 18090,
    "Ġphilosopher": 12181,
    "Ġcolt": 11044,
    "everywhere": 23694,
    "asse": 15642,
    "Ġout": 544,
    "Ġacquainted": 5179,
    "Ġsanguine": 25928,
    "Ġmu": 17795,
    "Ġinformed": 6717,
    "present": 1139,
    "Ġinferior": 8365,
    "emotion": 21925,
    "Ġlocations": 12411,
    "Ġlard": 13946,
    "Ġfervently": 25877,
    "unks": 15772,
    "pro": 2050,
    "finds": 19926,
    "elling": 5830,
    "Ġsuperlatively": 26075,
    "ratches": 20123,
    "aintance": 3568,
    "Ġcompliment": 5673,
    "Ġscrolled": 22281,
    "ivened": 22962,
    "Ġobedience": 11413,
    "Ġinspecting": 24613,
    "Ġfainter": 14913,
    "Ġfeel": 1260,
    "Ġscar": 3209,
    "pleased": 8853,
    "grace": 5846,
    "jected": 22711,
    "Ġsoftness": 18917,
    "Ġreplay": 5047,
    "Ġyarman": 12702,
    "Ġcigarette": 20655,
    "steak": 14707,
    "Ġheav": 1852,
    "omit": 13977,
    "offers": 16392,
    "ger": 1108,
    ";": 31,
    "quohog": 21849,
    "Ġclass": 783,
    "Ġrandom": 1590,
    "complexion": 14360,
    "Ġlav": 13949,
    "Ġwitness": 4621,
    "Ġsilently": 6894,
    "disposition": 10041,
    "Ġneville": 7399,
    "riminately": 16482,
    "Ġconfirm": 9855,
    "Ġthinking": 4030,
    "philips": 20033,
    "Ġboiling": 8525,
    "Ġobey": 9518,
    "sust": 15421,
    "elfare": 11775,
    "Ġsucceed": 4544,
    "brimmed": 14588,
    "Ġhasn": 12922,
    "Ġriggers": 24154,
    "Ġextent": 7656,
    "poises": 11887,
    "Ġedged": 23435,
    "continu": 5501,
    "medium": 23637,
    "bal": 2153,
    "Ġgreatness": 12940,
    "tossing": 18580,
    "Ġuntoward": 19164,
    "Ġdecorum": 16019,
    "intercourse": 14638,
    "Ġexhilar": 19682,
    "leton": 5148,
    "Ġvinc": 14084,
    "judge": 13335,
    "Ġacquies": 11097,
    "Ġlivelihood": 24774,
    "found": 4211,
    "Ġmorose": 18848,
    "Ġchry": 22243,
    "Ġsmo": 2702,
    "Ġholds": 7974,
    "Ġslid": 7951,
    "Ġcomparison": 7099,
    "Ġcubic": 20086,
    "Ġadventurous": 16733,
    "Ġact": 689,
    "Ġramad": 8527,
    "happ": 3102,
    "princip": 17136,
    "Ġsuckling": 25997,
    "Ġends": 8237,
    "share": 14236,
    "Ġnarr": 5085,
    "azing": 7704,
    "Ġdivergence": 2729,
    "arrived": 12606,
    "Ġtoken": 2039,
    "Ġcurtain": 14411,
    "Ġinscrutable": 10672,
    "Ġtowers": 16738,
    "ella": 12746,
    "du": 605,
    "character": 6331,
    "draught": 12087,
    "Ġvigour": 24462,
    "leisure": 21369,
    "Ġchis": 11748,
    "Ġpenalizing": 13090,
    "Ġharpooning": 23976,
    "Ġabsurdly": 19958,
    "Ġapparition": 8066,
    "Ġdaughters": 4420,
    "convers": 6567,
    "Ġglue": 15671,
    "probability": 17022,
    "Ġoh": 2174,
    "Ġapproximation": 2341,
    "Ġcorroded": 18876,
    "Ġmanners": 3790,
    "Ġreaching": 7303,
    "gust": 6360,
    "Ġgorge": 13565,
    "Ġclimax": 25051,
    "living": 7133,
    "Ġother": 758,
    "town": 7142,
    "Ġunwonted": 14124,
    "Ġjew": 9467,
    "infidel": 24663,
    "Ġbusied": 19064,
    "Ġunctuous": 10266,
    "Ġits": 707,
    "Ġprivileged": 20111,
    "bears": 22487,
    "Ġallurements": 22004,
    "hus": 5072,
    "Ġrefused": 6715,
    "Ġlights": 8960,
    "Ġintervals": 5598,
    "intention": 10367,
    "Ġshreds": 12767,
    "Ġdivide": 12108,
    "Ġdisturbance": 15012,
    "sof": 17657,
    "Ġracket": 22652,
    "Ġoccurrences": 11050,
    "Ġoysters": 20577,
    "Ġmon": 1251,
    "Ġcaptive": 14426,
    "Ġdesponding": 25868,
    "enterprise": 24992,
    ".âĢĻâĢĿ": 6739,
    "oid": 3125,
    "Ġsherry": 19449,
    "Ġgreedy": 3049,
    "mblance": 7323,
    "rows": 6442,
    "chased": 18041,
    "Ġdampening": 2894,
    "Ġblasphemy": 26115,
    "Ġsurvey": 13592,
    "Ġsteadfast": 8678,
    "Ġinnovative": 1529,
    "Ġ64": 24367,
    "Ġcountenances": 11962,
    "Ġagreeing": 20017,
    "Ġfrom": 434,
    "Ġdecomp": 3810,
    "language": 5129,
    "sincere": 16907,
    "fowl": 17549,
    "Ġretained": 7173,
    "Ġdemeanour": 17336,
    "Ġimperfectly": 25727,
    "Ġbizarre": 17871,
    "f": 74,
    "Ġcheeks": 5957,
    "Ġhauling": 14086,
    "Ġhooped": 23353,
    "meat": 18673,
    "Ġsources": 10147,
    "dev": 7632,
    "Ġwounds": 17790,
    "depth": 12797,
    "Ġconquest": 15745,
    "Ġsmiting": 12895,
    "Ġheiress": 20696,
    "Ġsch": 13834,
    "Ġprofusion": 23566,
    "Ġassault": 9836,
    "Ġdeliber": 7268,
    "reasonable": 7751,
    "Ġhalyards": 21491,
    "shut": 10981,
    "izers": 18142,
    "henomen": 10494,
    "Ġcorridor": 10671,
    "Ġmitigating": 1617,
    "led": 579,
    "entirely": 7781,
    "Ġjones": 7204,
    "..": 5783,
    "stonecraft": 24356,
    "Ġlaw": 3654,
    "Ġsymptom": 13482,
    "Ġvalue": 2084,
    "Ġships": 3714,
    "Ġcavity": 20486,
    "ocity": 8277,
    "Ġmartin": 25436,
    "Ġfren": 10805,
    "Ġident": 2240,
    "balls": 12303,
    "Ġampl": 22478,
    "Ġrevolver": 14899,
    "Ġstudious": 23194,
    "mediate": 16512,
    "Ġincreas": 1696,
    "ired": 1445,
    "Ġwreat": 15529,
    "field": 3069,
    "accidents": 19212,
    "Ġunwe": 15836,
    "Ġroanoke": 22404,
    "Ġtranquo": 14842,
    "Ġdot": 4820,
    "Ġscepticism": 25927,
    "?âĢĻâĢĿ": 23641,
    "Ġtester": 21171,
    "Ġheaving": 7601,
    "Ġpurp": 2391,
    "fancy": 7337,
    "val": 1141,
    "Ġoperation": 11997,
    "Ġinsincere": 26599,
    "icken": 6711,
    "Ġlab": 1872,
    "Ġdistinctly": 7311,
    "Ġcrags": 23525,
    "okingly": 22378,
    "Ġgpt": 4350,
    "Ġunhe": 22005,
    "Ġfar": 1449,
    "Ġtechn": 9367,
    "male": 15387,
    "Ġyes": 2689,
    "Ġmighty": 4227,
    "ructure": 765,
    "engagement": 14458,
    "Ġtry": 3132,
    "Ġxxxiv": 24967,
    "Ġsooty": 25815,
    "Ġindividuals": 24546,
    "invincible": 25089,
    "Ġfilial": 16620,
    "Ġspind": 18307,
    "hitherto": 17283,
    "aid": 1923,
    "Ġimpose": 22380,
    "Ġdescried": 7918,
    "Ġuncommon": 5026,
    "Ġcomprehen": 5349,
    "veil": 18042,
    "Ġdesper": 6176,
    "Ġconstraints": 2742,
    "Ġod": 4437,
    "Ġone": 569,
    "lessness": 5317,
    "Ġtract": 21164,
    "Ġnathan": 21523,
    "Ġbegone": 11915,
    "igms": 3040,
    "Ġwithdraw": 16964,
    "Ġprominence": 18953,
    "Ġfearful": 6197,
    "Ġlump": 21549,
    "Ġdressing": 7090,
    "Ġslam": 13055,
    "declare": 25173,
    "say": 3983,
    "Ġathirst": 20597,
    "Ġhoe": 23349,
    "Ġcub": 8413,
    "ober": 15405,
    "Ġpiece": 5367,
    "persuaded": 15072,
    "Ġremorseless": 13450,
    "Ġwakeful": 24266,
    "Ġbrah": 19355,
    "Ġboards": 14300,
    "Ġvia": 2382,
    "biting": 20779,
    "omitted": 18023,
    "Ġhumble": 8551,
    "Ġglory": 6064,
    "Ġrelied": 16193,
    "Ġfood": 5080,
    "Ġcrossed": 6068,
    "ornamented": 26595,
    "listen": 13513,
    "removed": 15515,
    "Ġbruited": 25773,
    "ertain": 1208,
    "Ġtransferred": 16467,
    "Ġfrozen": 9012,
    "Ġimaginative": 19246,
    "wh": 508,
    "john": 11497,
    "ogn": 2524,
    "Ġrepresenting": 4059,
    "Ġauthoritative": 19560,
    "Ġreciproc": 20620,
    "Ġdiligently": 11405,
    "Ġcounterpane": 11343,
    "aded": 3547,
    "request": 21240,
    "drovand": 24760,
    "Ġbol": 6241,
    "Ġimmens": 9938,
    "Ġplainpal": 19276,
    "cannot": 5745,
    "Ġtanning": 17729,
    "Ġexcite": 11963,
    "Ġsust": 7006,
    "got": 6955,
    "whatever": 6694,
    "Ġargument": 7098,
    "Ġfig": 3623,
    "cooks": 25067,
    "Ġepicurean": 20554,
    "storm": 9680,
    "Ġobsequ": 14319,
    "Ġresearches": 13138,
    "ying": 1364,
    "Ġaccompan": 5513,
    "hoist": 23712,
    "Ġmum": 13857,
    "rise": 6226,
    "Ġlawy": 9453,
    "Ġ100": 14362,
    "Ġcaves": 15551,
    "omb": 10206,
    "Ġmounttop": 19976,
    "exceeded": 24999,
    "numbers": 17616,
    "Ġendeavoured": 4918,
    "ansion": 10925,
    "ensed": 10995,
    "Ġbenchmarks": 15021,
    "Ġminimum": 23037,
    "Ġvalued": 12180,
    "Ġappropriated": 23483,
    "bbles": 13690,
    "jammed": 25906,
    "gallery": 24693,
    "Ġconstantly": 11971,
    "Ġcashier": 20197,
    "sway": 15423,
    "desp": 6075,
    "Ġmelbourne": 24289,
    "thank": 4950,
    "Ġpatagonia": 25858,
    "composed": 14739,
    "aston": 7408,
    "Ą": 197,
    "ont": 2622,
    "Ġtuck": 10140,
    "Ġcrouching": 23442,
    "ick": 837,
    "Ġdemon": 7868,
    "Ġpool": 5173,
    ":--âĢľ": 24550,
    "eth": 622,
    "Ġconduct": 3733,
    "leagues": 21371,
    "thinness": 25810,
    "Ġpastures": 23418,
    "hopeless": 16917,
    "Ġtones": 8399,
    "load": 12877,
    "Ġlaughed": 5059,
    "Ġcloth": 9742,
    "ittance": 12842,
    "Ġcravat": 26307,
    "Ġfrancisco": 26064,
    "Ġimmovable": 15890,
    "oded": 11668,
    "satisfactory": 16893,
    "Ġaversion": 18865,
    "Ġhum": 1098,
    "Ġthinker": 22806,
    "iard": 9601,
    "cen": 17502,
    "Ġcastaway": 16640,
    "Ġexcess": 3342,
    "Ġreckoned": 24744,
    "Ġquarter": 3976,
    "Ġfretfully": 25447,
    "Ġnois": 4265,
    "ipotence": 22355,
    "Ġcapsizing": 20087,
    "Ġeffectual": 18732,
    "dimens": 2318,
    "Ġboots": 5943,
    "Ġperiodically": 19493,
    "Ġcommon": 1413,
    "worthy": 7732,
    "Ġtraining": 531,
    "Ġfastened": 7065,
    "bottle": 20144,
    "dr": 6221,
    "Ġbapt": 13895,
    "Ġmanifold": 13559,
    "ĠĠĠĠĠĠĠĠĠĠĠĠĠĠĠĠĠĠĠĠĠĠĠĠĠĠĠĠĠĠĠĠĠĠĠĠĠĠĠĠĠĠĠĠĠĠĠĠĠĠĠĠĠ": 20038,
    "Ġbequeathed": 20700,
    "ractions": 11632,
    "Ġunlucky": 10049,
    "Ġen": 393,
    "Ġfireside": 23528,
    "minds": 24232,
    "five": 6356,
    "Ġstocks": 23172,
    "Ġcarry": 4778,
    "tle": 2408,
    "inks": 6869,
    "osures": 22258,
    "Ġsul": 7571,
    "Ġinsupportable": 13931,
    "introduce": 25186,
    "Ġmincer": 14363,
    "Ġpon": 10175,
    "Ġlengths": 19205,
    "Ġwrath": 16314,
    "Ġbump": 9659,
    "Ġolive": 12562,
    "wand": 10738,
    "Ġbureau": 11589,
    "Ġhills": 6527,
    "Ġprescribed": 26010,
    "Ġopportunities": 19248,
    "Ġmusket": 12294,
    "Ġsplinter": 23745,
    "Ġunquestion": 18248,
    "Ġhundred": 2694,
    "ignified": 14490,
    "Ġconcentric": 20073,
    "Ġpersuaded": 5769,
    "Ġheighten": 19528,
    "itions": 4145,
    "resum": 17761,
    "Ġopen": 1552,
    "Ġdistances": 22501,
    "Ġthrusts": 24350,
    "performances": 26006,
    "minute": 11274,
    "slo": 17656,
    "opol": 12866,
    "Ñ": 146,
    "Ġwhence": 5839,
    "Ġtransformations": 3483,
    "Ġliable": 14228,
    "Ġscrutin": 26014,
    "otherwise": 7671,
    "Ġseason": 5238,
    "loo": 10319,
    "Ġsketches": 26270,
    "wondrous": 12336,
    "Ġdegener": 14047,
    "entreat": 17975,
    "Ġheath": 15699,
    "official": 24914,
    "Ġgraph": 10902,
    "Ġinscribed": 24938,
    "Ġmounted": 7832,
    "coat": 5407,
    "Ġknows": 4157,
    "Ġjamming": 17264,
    "ighbour": 3388,
    "actually": 14296,
    "Ġnarrowly": 16820,
    "Ġhope": 1790,
    "Ġprecise": 7075,
    "oned": 4630,
    "Ġadvis": 9806,
    "honest": 17003,
    "belonged": 25597,
    "Ġins": 2782,
    "Ġunho": 18245,
    "Ġmogul": 12859,
    "Ġretain": 7862,
    "Ġverdant": 15002,
    "Ġmeant": 3548,
    "Ġflooring": 23622,
    "purpose": 10043,
    "medi": 2628,
    "Ġpropos": 7062,
    "shriek": 20518,
    "Ġtradesmen": 17105,
    "Ġdesmarest": 22978,
    "Ġantiquities": 25598,
    "fi": 12459,
    "Ġmagistrate": 8233,
    "Ġfavour": 3640,
    "sacred": 17028,
    "Ġphrenologically": 20392,
    "K": 47,
    "Ġelevated": 7318,
    "Ġsuspicion": 6211,
    "fugitive": 26131,
    "assured": 10952,
    "Ġchoose": 5981,
    "risonment": 17374,
    "ile": 521,
    "osity": 14185,
    "Ġraptures": 13496,
    "Ġclimate": 9274,
    "Ġinstead": 2791,
    "Ġunwilling": 7885,
    "mole": 22698,
    "Ġconfused": 7963,
    "Ġdecember": 15007,
    "bub": 15315,
    "around": 12605,
    "Ġthen": 666,
    "Ġhorsham": 10406,
    "Ġdisease": 14257,
    "Ġabide": 14187,
    "Ġspool": 24806,
    "Ġeternally": 11369,
    "Ġstreams": 12190,
    "Ġreminding": 19796,
    "reck": 9636,
    "line": 1440,
    "Ġdisk": 22519,
    "Ġnominally": 17231,
    "Ġillustrations": 17108,
    "Ġbraz": 19356,
    "Ġenric": 21932,
    "efficient": 2870,
    "li": 1189,
    "Ġfringe": 17271,
    "Ġcruises": 23701,
    "Ġkeep": 2355,
    "Ġsnugness": 20075,
    "mount": 9129,
    "Ġholiest": 18812,
    "Ġwhether": 1999,
    "Ġhousekeeper": 7456,
    "Ġthousandth": 23680,
    "assistance": 20369,
    "Ġ119": 24441,
    "asleep": 21541,
    "atever": 3076,
    "inhabited": 13619,
    "Ġpredomin": 16035,
    "key": 5462,
    "Ġshrieking": 24758,
    "Ġnoticed": 5549,
    "ability": 716,
    "Ġdoes": 942,
    "gay": 11488,
    "ury": 3311,
    "Ġfeedforward": 2327,
    "Ġbunch": 11326,
    "honorable": 19900,
    "Ġnorton": 12646,
    "precedented": 15173,
    "Ġhval": 21484,
    "Ġturn": 1297,
    "Ġachieve": 3672,
    "speeches": 25239,
    "allowing": 24358,
    "Ġmetropol": 11145,
    "Ġattended": 5391,
    "Ġappare": 12817,
    "fo": 5278,
    "Ġrossum": 3007,
    "Ġconcentrate": 25063,
    "Ġexecutioner": 12269,
    "Ġlocker": 16911,
    "Ġpulse": 13113,
    "ĠĠĠĠĠĠĠĠĠĠĠĠĠĠĠĠĠĠĠĠĠĠĠĠĠ": 24442,
    "ferences": 10326,
    "bu": 5132,
    "unciation": 25982,
    "Ġsim": 735,
    "ances": 1336,
    "ront": 15417,
    "Ġfinancier": 26583,
    "feels": 22500,
    "Ġclimb": 15078,
    "Ġwand": 4341,
    "disgust": 23494,
    "Ġindignantly": 16939,
    "quid": 18145,
    "Ġruled": 22783,
    "Ġcasket": 19723,
    "Ġpronounced": 8350,
    "Ġundue": 25993,
    "Ġeng": 1164,
    "Ġcetacea": 20552,
    "cely": 3573,
    "9": 29,
    "illings": 14142,
    "Ġmildness": 9943,
    "thesize": 24906,
    "din": 8373,
    "akes": 2219,
    "Ġbecoming": 4396,
    "Ġtravels": 11925,
    "igin": 3655,
    "ells": 5303,
    "Ġassistants": 9450,
    "arter": 17893,
    "een": 725,
    "Ġsultry": 20287,
    "Ġind": 1221,
    "Ġoccasionally": 5590,
    "justified": 19003,
    "emorial": 10241,
    "nonsense": 17615,
    "reduc": 5459,
    "Ġmen": 1434,
    "ctors": 21587,
    "Ġwhims": 12689,
    "Ġnind": 17949,
    "Ġaxis": 12305,
    "north": 14616,
    "._)": 10480,
    "omy": 6249,
    "Ġremark": 2144,
    "ashtego": 4101,
    "Ġdeferred": 18825,
    "Ġcash": 9652,
    "Ġdairy": 20685,
    "Ġstrangely": 5677,
    "Ġheadache": 22894,
    "Ġpresumed": 10544,
    "Ġusages": 15913,
    "wind": 4250,
    "Ġris": 4886,
    "Ġextraction": 11252,
    "Ġdecorated": 22442,
    "Ġcontrad": 9754,
    "professor": 17249,
    "Ġdoesn": 7438,
    "Ġpounds": 5368,
    "zy": 2670,
    "gers": 8375,
    "Ġseems": 2483,
    "Ġunexplored": 26518,
    "Ġsmile": 4269,
    "Ġegyptian": 13585,
    "alley": 23020,
    "Ġenglishman": 11229,
    "Ġhousehold": 8567,
    "Ġstudying": 9840,
    "Ġeste": 6084,
    "Ġobserve": 4670,
    "Ġlargest": 6282,
    "crime": 14781,
    "Ġconsume": 12955,
    "Ġhackluyt": 25655,
    "bation": 9102,
    "Ġsurplus": 26303,
    "ively": 1301,
    "Ġunfrequ": 19507,
    "convalescence": 24884,
    "Ġshifting": 12765,
    "fe": 679,
    "Ġindependent": 9015,
    "Ġus": 492,
    "Ġinjury": 10540,
    "Ġclearness": 23181,
    "inkles": 7426,
    "claims": 25319,
    "whiskers": 12309,
    "Ġpervers": 11781,
    "Ġbran": 5251,
    "Ġsum": 2701,
    "Ġpom": 21449,
    "Ġweighing": 20014,
    "lo": 681,
    "Ġfugitive": 17326,
    "Ġlacey": 10197,
    "Ġreality": 7058,
    "Ġknowingly": 18480,
    "rasing": 21044,
    "Ġdemig": 20355,
    "abby": 14020,
    "Ġpalsy": 25778,
    "Ġovertook": 18429,
    "Ġdisobey": 18559,
    "roc": 9674,
    "Ġcomposure": 7217,
    "itche": 7579,
    "Ġwhalemen": 3912,
    "agery": 21904,
    "Ġfurnishes": 19439,
    "avoiding": 25236,
    "escaped": 14230,
    "eries": 6808,
    "aguy": 21907,
    "Ġinfant": 11957,
    "Ġfilling": 13407,
    "Ġsize": 1217,
    "Ġremotest": 10051,
    "atherley": 7220,
    "Ġsymbolize": 24960,
    "Ġsens": 1854,
    "Ġcable": 11579,
    "Ġabsurdities": 24878,
    "Ġdair": 17889,
    "Ġbelieved": 4367,
    "bo": 1693,
    "ostentatious": 20651,
    "Ġenraged": 10244,
    "Ġwilds": 16508,
    "Ġplunged": 8692,
    "Ġref": 913,
    "formity": 10278,
    "ripp": 6404,
    "Ġkicking": 16901,
    "Ġrucastle": 5176,
    "rig": 7557,
    "Ġsuccess": 3609,
    "Ġcalculus": 23980,
    "orney": 17873,
    "Ġwis": 3728,
    "Ġegot": 18007,
    "solution": 14686,
    "Ġcruelty": 9968,
    "dischar": 19151,
    "Ġdiscipline": 26561,
    "Ġdust": 5908,
    "Ġach": 2621,
    "Ġperil": 5557,
    "operation": 13500,
    "twelve": 14622,
    "Ġmidway": 14604,
    "Ġabhorrent": 16856,
    "Ġcooked": 13268,
    "Ġgriev": 16634,
    "quarters": 24946,
    "Ġvilest": 20099,
    "Ġrecklessly": 16983,
    "deli": 15343,
    "Ġencoura": 1363,
    "Ġfade": 21405,
    "Ġaccomplished": 7104,
    "Ġdoublo": 6078,
    "Ġhelmeted": 19687,
    "Ġsung": 23271,
    "Ġtis": 15464,
    "Ġhousings": 21490,
    "Ġmap": 2390,
    "Ġfurthest": 22811,
    "reach": 17757,
    "omin": 4702,
    "Ġmorcar": 13012,
    "Ġfond": 4754,
    "arted": 2201,
    "Ġbid": 6131,
    "Ġostentatious": 25736,
    "anum": 17835,
    "acled": 16080,
    "cheerful": 13574,
    "Ġfounder": 17883,
    "ees": 13710,
    "Ġforced": 4352,
    "itic": 11577,
    "Ġgreat": 894,
    "Ġpeep": 6870,
    "Ġ1894": 5196,
    "Ġdizzy": 21430,
    "Ġbranded": 14378,
    "reckoning": 25270,
    "berish": 22717,
    "Ġjealous": 9468,
    "remarked": 12286,
    "Ġswells": 9826,
    "Ġsacr": 7194,
    "Ġ*/": 10373,
    "ssing": 3808,
    "le": 279,
    "Ġpip": 1584,
    "Ġparchment": 13651,
    "cater": 20814,
    "Ġconceived": 8149,
    "Ġbulk": 5591,
    "rot": 21529,
    "aders": 21755,
    "Ġtick": 8108,
    "words": 7982,
    "Ġarts": 11008,
    "Ġinvestment": 24336,
    "Ġunrestrained": 25554,
    "Ġscreaming": 13422,
    "Ġay": 15490,
    "Ġstumbling": 21742,
    "Ġeverlasting": 9336,
    "Ġinvisible": 7327,
    "Ġstripped": 10464,
    "lone": 11499,
    "Ġvan": 1087,
    "shark": 14238,
    "ued": 7562,
    "Ġrescue": 13341,
    "acceler": 23597,
    "ravelled": 18014,
    "Ġincreasingly": 9370,
    "deduction": 23553,
    "Ġamelia": 26250,
    "Ġsobs": 14135,
    "teen": 6370,
    "remem": 13064,
    "Ġblue": 3454,
    "õ": 182,
    "amidst": 25652,
    "Ġimmemorially": 25383,
    "ative": 734,
    "ios": 2214,
    "Ġconfidential": 9087,
    "Ġawakened": 10453,
    "whom": 8184,
    "mansion": 20982,
    "onde": 21250,
    "creature": 5346,
    "Ġpurchas": 19873,
    "Ġtolland": 24988,
    "softened": 20408,
    "Ġsit": 4213,
    "Ġgratefully": 20443,
    "arity": 1302,
    "Ġsagacious": 14970,
    "Ġfairly": 6325,
    "Ġmizen": 17258,
    "iters": 21327,
    "Ġscorn": 7900,
    "Ġintegrated": 13530,
    "Ġsensational": 16384,
    "Ġdistributes": 4191,
    "cruising": 12277,
    "fights": 20864,
    "Ġfiftieth": 24703,
    "iner": 2671,
    "ster": 1953,
    "Ġaddresses": 3768,
    "Ġspy": 22120,
    "Ġgrieved": 8297,
    "Ġguardianship": 17419,
    "Ġalter": 6542,
    "Ġworsh": 12997,
    "Ġcanopy": 18322,
    "Ġinfl": 6893,
    "Ġrenewed": 9537,
    "Ġdazz": 11593,
    "Ġsmell": 7216,
    "Ġgently": 7171,
    "Ġherself": 1569,
    "arious": 10316,
    "Ġ43": 14768,
    "Ġfranc": 16350,
    "Ġat": 395,
    "Ġthistle": 21913,
    "Ġobstin": 14952,
    "Ġrefill": 18700,
    "Ġmythologies": 26213,
    "peculiarity": 23107,
    "pool": 16207,
    "Ġremonstrate": 22791,
    "Ġexultation": 15170,
    "Ġbarren": 11206,
    "Ġcommis": 22668,
    "salesman": 20670,
    "Ġlayers": 815,
    "persecutor": 26530,
    "orns": 12589,
    "Ġflattening": 26048,
    "Ġdisaster": 12884,
    "difficulty": 12388,
    "Ġsequences": 1751,
    "Ġweighty": 16029,
    "Ġclang": 15963,
    "Ġbanks": 6814,
    "eight": 9591,
    "Ġdownward": 10331,
    "Ġapprehending": 26090,
    "Ġvener": 8163,
    "Ġcomplet": 4421,
    "Ġearl": 7676,
    "Ġgpus": 3732,
    "Ġunfulfilled": 26509,
    "Ġhint": 5016,
    "hom": 12471,
    "Ġlagged": 21555,
    "spouting": 25000,
    "Ġmercy": 8998,
    "season": 14033,
    "ridden": 24362,
    "ames": 2951,
    "Ġse": 401,
    "glanced": 19364,
    "Ġatonement": 21939,
    "Ġfa": 4819,
    "Ġrepro": 7275,
    "ounix": 14163,
    "Ġconstruction": 9384,
    "Ġtakings": 20571,
    "Ġchaps": 14179,
    "urches": 12682,
    "¢": 100,
    "Ġdistrustful": 25054,
    "Ġreplete": 15695,
    "Ġdog": 4188,
    "Ġnewfoundland": 26569,
    "Ġsurrounding": 12160,
    "relations": 14732,
    "aches": 6570,
    "Ġvector": 1972,
    "Ġgathered": 8442,
    "Ġcutting": 4983,
    "Ġoptimizers": 18628,
    "Ġgrunted": 16166,
    "Ġverdict": 13474,
    "Ġgloss": 11956,
    "Ġconcerning": 4067,
    "Ġdinn": 23978,
    "Ġsol": 1105,
    "spr": 7435,
    "ougher": 18280,
    "Ġstrangled": 24131,
    "Ġunidirectional": 3425,
    "eyed": 11486,
    "Ġbumpkins": 25281,
    "reading": 12077,
    "Ġpetersburgh": 24228,
    "ladies": 9528,
    "Ġangels": 11178,
    "change": 6392,
    "Ġghastly": 10059,
    "plings": 11695,
    "Ġpresently": 5116,
    "Ġimitated": 18330,
    "raint": 18317,
    "Ġdefines": 1743,
    "Ġlass": 15645,
    "Ġsuggestion": 19706,
    "abeth": 906,
    "Ġfilthy": 13247,
    "presumption": 20440,
    "Ġsafe": 5103,
    "Ġattentively": 9949,
    "Ġclap": 10957,
    "Ġinfiltrated": 23281,
    "estion": 18363,
    "affections": 17356,
    "²": 115,
    "foundered": 20866,
    "Ġop": 2603,
    "Ġthemselves": 3250,
    "!âĢĶâĢĻ": 23563,
    "Ġpossibilities": 18976,
    "pers": 4336,
    "Ġabruptly": 15149,
    "Ġanimal": 2499,
    "osition": 1372,
    "oubtedly": 6943,
    "resemblance": 25933,
    "guess": 14760,
    "Ġboon": 22636,
    "Ġscalable": 1593,
    "fulfil": 16030,
    "inement": 11557,
    "Ġitself": 2522,
    "Ġexecutors": 19532,
    "lift": 15383,
    "Ġworm": 9162,
    "render": 10290,
    "cares": 24309,
    "Ġmonogram": 26574,
    "otes": 15741,
    "Ġentry": 11025,
    "Ġlirra": 21557,
    "tables": 19756,
    "portuguese": 25413,
    "neighb": 16021,
    "bergen": 14327,
    "Ġcompanions": 5865,
    "Ġbre": 1915,
    "Ġlee": 4219,
    "Ġdeterm": 1269,
    "sell": 13780,
    "scra": 13019,
    "Ġhab": 4215,
    "Ġceleb": 20224,
    "Ġsax": 10929,
    "nades": 20996,
    "Ġmuseum": 15270,
    "address": 14880,
    "'": 11,
    "Ġdestabilizing": 5053,
    "Ġsuggests": 12198,
    "loud": 11500,
    "Ġmushroom": 13235,
    "Ġwhistling": 19789,
    "spanish": 14331,
    "choose": 23669,
    "Ġexe": 3995,
    "min": 4571,
    "recked": 17762,
    "baden": 25615,
    "Ġterti": 14538,
    "discover": 10539,
    "Ġterrified": 14671,
    "lege": 17841,
    "Ġenorm": 5302,
    "ju": 13740,
    "Ġchilian": 25563,
    "Ġslammed": 20446,
    "Ġhast": 3148,
    "haps": 1674,
    "osen": 6855,
    "Ġdisc": 943,
    "Ġattitudes": 16097,
    "Ġviciss": 11292,
    "Ġproducts": 5198,
    "sat": 4810,
    "Ġthem": 639,
    "relatively": 24011,
    "import": 5668,
    "Ġdepend": 778,
    "Ġferocious": 17418,
    "represented": 20194,
    "Ġmin": 1025,
    "Ġhangs": 11605,
    "Ġthoughtful": 16190,
    "horizon": 23614,
    "Ġfiend": 4410,
    "mbling": 3345,
    "Ġvehicle": 20137,
    "Ġsubjects": 7072,
    "Ġvarying": 15808,
    "timidity": 25753,
    "ornament": 23486,
    "Ġwail": 21285,
    "Ġlob": 7628,
    "ges": 2873,
    "Ġvehem": 22886,
    "Ġparaph": 22117,
    "Ġhoops": 9387,
    "mist": 5686,
    "Ġplantation": 11423,
    "Ġunworthy": 11713,
    "Ġresumed": 11810,
    "Ġ[": 6967,
    "ias": 6362,
    "Ġsubdivisions": 26037,
    "Ġimprudently": 22384,
    "Ġwilliam": 3481,
    "undertaking": 23785,
    "Ġscrib": 22280,
    "nihil": 9849,
    "Ġanteced": 26177,
    "iah": 14414,
    "Ġwholly": 4445,
    "imes": 1300,
    "Ġprodigiously": 14931,
    "Ġcultivated": 17363,
    "fork": 20856,
    "rannical": 26401,
    "canst": 22958,
    "evidence": 25521,
    "Ġadjac": 18292,
    "ounted": 5030,
    "resnet": 4068,
    "because": 4923,
    "Ġmeditate": 16682,
    "Ġgravity": 9247,
    "whaling": 7898,
    "bitter": 11240,
    "avail": 18604,
    "flies": 19422,
    "feel": 3811,
    "Ġsad": 3867,
    "Ġquitted": 5311,
    "Ġintimately": 24804,
    "Ġcanall": 10928,
    "ago": 14064,
    "Ġtainted": 21169,
    "Ġhastened": 9004,
    "usually": 10285,
    "Ġindebted": 8707,
    "Ġpersisted": 13036,
    "Ġunique": 12775,
    "Ġbrooks": 25700,
    "grieved": 17316,
    "meetings": 20376,
    "Ġstrictest": 17042,
    "Ġbegrim": 23014,
    "concerning": 9067,
    "carb": 20809,
    "Ġtyphoon": 12387,
    "bulk": 19923,
    "Ġtransport": 11278,
    "hurrying": 14982,
    "ems": 5236,
    "hess": 4746,
    "Ġshow": 3402,
    "Ġcapabilities": 4376,
    "unusually": 15777,
    "Ġcalam": 13031,
    "Ġnoticing": 18224,
    "herent": 2530,
    "ood": 962,
    "ushing": 5731,
    "Ġankers": 21443,
    "Ġontario": 26204,
    "omnipotent": 25966,
    "bod": 12435,
    "fee": 12876,
    "Ġanonymous": 26178,
    "Ġfreshness": 23985,
    "Ġcurt": 18842,
    "Ġsuav": 22078,
    "aboard": 21791,
    "Ġstre": 2107,
    "Ġtissu": 25920,
    "Ġwear": 6030,
    "antee": 22094,
    "Ġsuperfluous": 17413,
    "Ġincome": 7916,
    "Ġexpl": 487,
    "ton": 1729,
    "Ġgrim": 7439,
    "dreams": 12335,
    "pede": 19843,
    "sche": 13016,
    "legged": 10465,
    "Ġinfrequent": 3823,
    "Ġtransformers": 1115,
    "althily": 19357,
    "tr": 3578,
    "Ġswallows": 18882,
    "ontory": 10459,
    "Ġforbidding": 17079,
    "Ġjumbled": 22294,
    "Ġtiara": 26415,
    "Ġdozing": 22240,
    "Q": 53,
    "Ġagree": 7647,
    "claimed": 9835,
    "Ġbridegroom": 10604,
    "Ġneighbour": 3807,
    "Ġloving": 8175,
    "Ġraved": 22649,
    "Ġboat": 1277,
    "ree": 874,
    "Ġtutored": 20126,
    "Ġsod": 11561,
    "reputation": 15514,
    "Ġnothing": 1357,
    "Ġregardless": 19323,
    "ousness": 10274,
    "getic": 12963,
    "smith": 5669,
    "save": 13784,
    "Ġgans": 5821,
    "Ġcrouched": 23440,
    "Ġsummers": 23871,
    "Ġbat": 10795,
    "Ġcologne": 12972,
    "Ġinqu": 2962,
    "canoes": 16229,
    "have": 2058,
    "rem": 1520,
    "marest": 20979,
    "itying": 21991,
    "Ġprincess": 23222,
    "Ġrepositories": 23362,
    "Ġminut": 2203,
    "Ġdine": 7366,
    "Ġfunere": 22256,
    "Ġperempt": 13672,
    "Ġcoburg": 18593,
    "ceiving": 3901,
    "ore": 418,
    "Ġblight": 18817,
    "arned": 21814,
    "Ġain": 6969,
    "ascertain": 21540,
    "Ġsgd": 3128,
    "Ġagainst": 1700,
    "Ġsecrets": 9054,
    "Ġutterly": 6100,
    ",âĢĿâĢĶ": 14213,
    "Ġimpressive": 14999,
    "Ġsouthampton": 24307,
    "Ġostentatiously": 20467,
    "Ġhoped": 5488,
    "pretend": 24882,
    "Ġwhe": 439,
    "Ġinstrument": 7118,
    "Ġvalidation": 2356,
    "Ġlizz": 21554,
    "sweep": 24617,
    "headed": 4318,
    "pardonable": 17217,
    "Ġbible": 9318,
    "Ġprob": 969,
    "Ġruth": 14093,
    "Ġsilent": 3411,
    "Ġpaul": 12060,
    "ourers": 21447,
    "Ġcreations": 18683,
    "Ġdirected": 5579,
    "vedale": 22707,
    "Ġshattered": 7883,
    "Ġpanther": 16819,
    "Ġaugment": 8691,
    "heidelburgh": 21210,
    "Ġsituation": 4070,
    "Ġai": 3126,
    "Ġcapacity": 10440,
    "Ġcoppers": 22580,
    "Ġbale": 7838,
    "jumped": 20245,
    "Ġkeener": 22913,
    "Ġrefresh": 10345,
    "Ġdeserted": 8636,
    "Ġderision": 16307,
    "Ġoverspread": 14206,
    "pherd": 13643,
    "Ġserves": 4668,
    "penn": 18826,
    "strength": 13974,
    "Ġhindoo": 17175,
    "lined": 12481,
    "Ġemb": 1259,
    "ogany": 18679,
    "Ġgiddy": 20495,
    "Ġhappier": 10358,
    "Ġquestion": 2778,
    "Ġquar": 3111,
    "Ġnur": 5710,
    "Ġregulate": 22584,
    "Ġspreading": 13377,
    "Ġguard": 6178,
    "Ġheavens": 5050,
    "excited": 13379,
    "Ġinexpress": 12632,
    "Ġconsulted": 13429,
    "press": 1733,
    "Ġquohog": 10972,
    "Ġspence": 22123,
    "Ġhighest": 3526,
    "ackled": 22421,
    "Ġpauper": 26179,
    "passing": 14810,
    "Ġexult": 10229,
    "Ġarchy": 14346,
    "Ġassailed": 23175,
    "Ġpity": 4941,
    "Ġconsoled": 18112,
    "Ġcompan": 2171,
    "Ġtout": 17719,
    "racted": 4775,
    "pressed": 6588,
    "hammock": 16352,
    "Ġreconciled": 13586,
    "Ġskirting": 22794,
    "counterpart": 26359,
    "ument": 5240,
    "Ġangelic": 19626,
    "magnificent": 20273,
    "Ġcapacious": 19175,
    "mal": 6794,
    "Ġgained": 4534,
    "Ġdiscretion": 10347,
    "Ġwood": 2293,
    "Ġvincent": 15282,
    "Ġshag": 9250,
    "Ġsnug": 8279,
    "Ġsail": 1676,
    "Ġbacks": 8528,
    "gratification": 24348,
    "Ġprophesy": 26061,
    "istence": 2441,
    "Ġinward": 11606,
    "Ġinsignificant": 20455,
    "Ġsort": 1507,
    "heavenly": 20043,
    "cad": 17504,
    "uce": 11535,
    "Ġsuperl": 16445,
    "Ġkilling": 13331,
    "Ġpall": 7583,
    "Ġrobberies": 22972,
    "rippling": 24713,
    "Ġapproxim": 1219,
    "Ġrisen": 9492,
    "Ġanytime": 12882,
    "Ġribs": 7101,
    "Ġseasonable": 24406,
    "apt": 728,
    ")": 13,
    "Ġugly": 8715,
    "Ġtheories": 13848,
    "ipher": 18427,
    "Ġafter": 870,
    "ravity": 21632,
    "moments": 19410,
    "antic": 1606,
    "studies": 25166,
    "Ġtumbled": 13405,
    "respective": 19845,
    "nature": 5359,
    "Ġbordeaux": 24564,
    "Ġnatives": 17950,
    "Ġpositional": 2598,
    "mystic": 25316,
    "Ġasph": 21895,
    "hit": 20888,
    "Ġbefitting": 15723,
    "Ġundoing": 22030,
    "Ġrept": 13982,
    "Ġkeenest": 12159,
    "places": 7878,
    "Ġdescending": 8902,
    "itous": 13866,
    "umbling": 6758,
    "contin": 16542,
    "Ġpiercing": 13493,
    "Ġcombination": 22865,
    "Ġparading": 23709,
    "Ġhung": 4559,
    "ef": 5134,
    "Ġevangel": 11280,
    "offensive": 16395,
    "Ġyourself": 2594,
    "Ġdiameter": 19866,
    "Ġchoicest": 24220,
    "Ġwil": 4580,
    "ess": 411,
    "Ġretrie": 10382,
    "Ġsunda": 13543,
    "hunsford": 24386,
    "Ġminor": 12965,
    "Ġimpart": 11778,
    "Ġmisunderstand": 18706,
    "**": 4685,
    "terns": 21819,
    "Ġnarratives": 24353,
    "Ġforwarded": 19041,
    "Ġaff": 1117,
    "ilburn": 18059,
    "Ġpart": 860,
    "satisfaction": 9991,
    "Ġpennies": 17270,
    "armon": 23056,
    "Ġgermany": 25785,
    "Ġimputable": 22170,
    "Ġabound": 8863,
    "Ġworms": 25216,
    "Ġaug": 6234,
    "Ġ1846": 26084,
    "Ġjavan": 24997,
    "shone": 22450,
    "Ġsuspicious": 9479,
    "Ġfurther": 1055,
    "Ġsisterly": 16300,
    "gled": 10699,
    "Ġintrepidity": 25550,
    "Ġunctuousness": 17234,
    "Ġfoam": 6891,
    "Ġblanched": 26282,
    "Ġjog": 18404,
    "Ġbent": 5149,
    "Ġsqueezing": 25006,
    "noon": 5037,
    "Ġsem": 1879,
    "Ġcleared": 6074,
    "Ġottoman": 17377,
    "Ġmust": 844,
    "Ġdeserts": 10507,
    "Ġswaying": 15046,
    "Ġemblaz": 16245,
    "text": 1974,
    "uger": 21102,
    "Ġsame": 1340,
    "Ġthreat": 5154,
    "dwelling": 20563,
    "Ġgaze": 6932,
    "Ġalbert": 12703,
    "Ġunre": 3476,
    "Ġtruly": 4795,
    "Ġadam": 2125,
    "furnish": 25338,
    "Ġfaintest": 24569,
    "Ġhilarious": 20297,
    "Ġcollected": 2611,
    "Ġpepper": 9780,
    "Ġgrounds": 6749,
    "tales": 17686,
    "coach": 23556,
    "Ġcal": 1326,
    "theless": 4258,
    "astrop": 3315,
    "coil": 23555,
    "anxiously": 15109,
    "Ġlivid": 14988,
    "glance": 16587,
    "Ġpliny": 11823,
    "desc": 1390,
    "Ġdiscredit": 22777,
    "Ġer": 8104,
    "Ġthey": 575,
    "ate": 423,
    "berg": 11857,
    "Ġadrift": 11720,
    "Ġtranspointed": 22437,
    "Ġharness": 17927,
    "Ġgirth": 13134,
    "Ġcontains": 2794,
    "Ġnameless": 7699,
    "dutch": 17218,
    "Ġfind": 1457,
    "Ġadmirers": 19685,
    "Ġintricate": 15136,
    "Ġaccomplishments": 13378,
    "ior": 2040,
    "Ġthrust": 5084,
    "iteous": 14261,
    "Ġsweep": 8265,
    "Ġbravest": 23837,
    "help": 1478,
    "Ġbelong": 3885,
    "Ġcrowds": 14738,
    "Ġbecalmed": 18086,
    "Ġmutinous": 23955,
    "Ġrudeness": 17124,
    "open": 7025,
    "agne": 21902,
    "Ġceaseless": 13487,
    "ß": 160,
    "evade": 24820,
    "Ġdrooping": 9419,
    "Ġretiring": 16279,
    "Ġcommanded": 6330,
    "che": 3169,
    "Ġovertaken": 18430,
    "inclination": 20056,
    "Ġ122": 24467,
    "vings": 9750,
    "respect": 6374,
    "Ġcurled": 8225,
    "Ġrequesting": 24632,
    "Ġvertu": 23888,
    "artic": 14224,
    "wedding": 13370,
    "teous": 16169,
    "Ġpoliteness": 8273,
    "commendation": 26348,
    "Ġreferences": 21671,
    "Ġest": 2266,
    "Ġslowly": 3617,
    "hyena": 24252,
    "date": 17517,
    "sto": 3195,
    "Ġjack": 4652,
    "shad": 10982,
    "uning": 1313,
    "msgate": 18410,
    "Ġfellows": 8256,
    "engthen": 14457,
    "Ġdorm": 4821,
    "Ġscent": 10284,
    "Ġbanquet": 15239,
    "Ġbites": 23741,
    "Ġeleventh": 23367,
    "Ġsalad": 19477,
    "Ġthings": 1963,
    "Ġdiffused": 12066,
    "Ġcompanion": 3642,
    "fight": 17538,
    "Ġcovariate": 2350,
    "order": 1961,
    ";--": 8068,
    "Ġdropout": 1559,
    "Ġanonym": 17897,
    "Ġconsisted": 10419,
    "Ġmight": 963,
    "Ġaristocratic": 20510,
    "Ġaffliction": 25844,
    "Ġalteration": 9545,
    "Ġintentions": 10607,
    "Ġtrades": 8231,
    "exactly": 10636,
    "putation": 7625,
    "tland": 21072,
    "Ġcareful": 2612,
    "Ġintroduction": 8970,
    "Ġunheard": 22020,
    "Ġdagger": 21435,
    "Ġbreed": 19071,
    "jonah": 11496,
    "Ġ4": 3985,
    "Ġinhabit": 5782,
    "Ġhermit": 15855,
    "Ġcontinu": 1167,
    "Ġcultured": 25154,
    "bald": 16446,
    "Ġloafer": 18299,
    "Ġpriority": 19761,
    "varied": 23182,
    "chel": 11207,
    "Ġgenerating": 12848,
    "acency": 12905,
    "sign": 8387,
    "Ġshun": 11707,
    "Ġfad": 17876,
    "Ġpartaking": 22694,
    "rossed": 11012,
    "lose": 12878,
    "Ġforenoon": 19126,
    "Ġparis": 8178,
    "Ġunnear": 22023,
    "bearing": 9764,
    "descend": 23083,
    "Ġmiserable": 3633,
    "Ġendured": 6072,
    "achus": 18281,
    "Ġbennet": 1576,
    "Ġlid": 6983,
    "Ġafric": 8905,
    "successful": 11358,
    "Ġcollar": 11877,
    "Ġtower": 8318,
    "Ġconversation": 3329,
    "adr": 6994,
    "Ġformless": 22825,
    "Ġcord": 5222,
    "Ġdeactivates": 20702,
    "hall": 8084,
    "Ġopened": 3510,
    "Ġbowled": 23767,
    "Ġwr": 1544,
    "Ġprejudices": 13468,
    "rive": 9706,
    "folio": 10546,
    "Ġshouldn": 14324,
    "Ġvehicles": 10659,
    "Ġinvader": 23477,
    "suff": 4961,
    "Ġbowlines": 19321,
    "Ġresist": 7915,
    "appalled": 18759,
    "ad": 337,
    "Ġdiscovering": 13356,
    "Ġsaturation": 2062,
    "Ġcorpore": 13400,
    "Ġsne": 6372,
    "Ġportcull": 23861,
    "settled": 10506,
    "Ġcasting": 12098,
    "Ġchoice": 2162,
    "Ġparasol": 22118,
    "arrang": 14652,
    "Ġmechanisms": 1578,
    "Ġindicates": 3191,
    "curiosity": 8623,
    "walton": 20248,
    "Ġroused": 7624,
    "vard": 21109,
    "Ġinstruments": 12221,
    "Ġlets": 18063,
    "norm": 20984,
    "Ġcharing": 14180,
    "swim": 16779,
    "Ġtexas": 25922,
    "Ġshuddering": 9051,
    "Ġsweeter": 23915,
    "bers": 2571,
    "fact": 6358,
    "Ġacted": 7422,
    "olstadt": 7788,
    "Ġcrunched": 19123,
    "(": 12,
    "stop": 11633,
    "immed": 9217,
    "Ġgreenness": 23765,
    "friendly": 13283,
    "worship": 19385,
    "Ġspur": 18303,
    "Ġsurvived": 14933,
    "berries": 22720,
    "pent": 3491,
    "twice": 14621,
    "blow": 9103,
    "Ġspam": 7631,
    "riet": 18183,
    "sand": 21051,
    "Ġyale": 21776,
    "Ġjun": 8505,
    "daw": 17522,
    "Ġidolator": 19996,
    "Ġcruellest": 19657,
    "Ġtelegram": 15222,
    "hullo": 17570,
    "turtle": 12209,
    "Ġahab": 1215,
    "Ġhealth": 3902,
    "Ġpos": 1007,
    "spears": 23939,
    "Ġcemet": 20679,
    "te": 994,
    "brad": 20780,
    "Ġacquirement": 19254,
    "Ġdif": 871,
    "Ġhealthy": 10851,
    "hurt": 19877,
    "Ġnobody": 6158,
    "great": 3514,
    "Ġwrest": 11570,
    "assisted": 22304,
    "Ġhieroglyphic": 25587,
    "Ġfidgeted": 25889,
    "Ġalso": 1342,
    "amples": 1822,
    "Ġinc": 702,
    "mockery": 24378,
    "Ġsarat": 21226,
    "je": 11495,
    "Ġimpulsively": 24880,
    "Ġhem": 8445,
    "onsensical": 18576,
    "Ġhateful": 19712,
    "Ġcommit": 18654,
    "Ġcran": 11999,
    "lipped": 16215,
    "andering": 21864,
    "oc": 2834,
    "?": 35,
    "ensities": 22543,
    "Ġutter": 3974,
    "Ġwretched": 4079,
    "fedallah": 25522,
    "Ġbass": 17855,
    "erde": 21267,
    "Ġdisgusting": 19893,
    "delightful": 12194,
    "Ġjest": 18403,
    "Ġchord": 22242,
    "Ġcoop": 14269,
    "full": 7419,
    "Ġcam": 10161,
    "morning": 4859,
    "Ġscience": 1541,
    "methodically": 20663,
    "eler": 1573,
    "Ġconcoct": 19043,
    "Ġtip": 15470,
    "sartain": 25622,
    "tal": 17670,
    "earn": 10696,
    "Ġrealising": 18982,
    "Ġdriving": 3616,
    "Ġclearing": 8239,
    "Ġbeheaded": 11655,
    "Ġcompos": 22566,
    "Ġspiracle": 14149,
    "Ġlurid": 19680,
    "Ġkindest": 23292,
    "itated": 4438,
    "Ġcordiality": 24395,
    "discoloured": 23496,
    "complacency": 19913,
    "scap": 22987,
    "Ġin": 291,
    "Ġaunts": 21199,
    "izarre": 17388,
    "Ġstri": 2804,
    "fingers": 17369,
    "Ġforesee": 19125,
    "Ġstrategy": 2548,
    "Ġbeacon": 21753,
    "Ġmultitudinous": 26273,
    "Ġhurriedly": 11249,
    "Ġscrew": 8867,
    "cul": 1900,
    "enge": 21279,
    "Ġ150": 22824,
    "Ġclouded": 13289,
    "Ġimputed": 12805,
    "Ġwer": 12549,
    "Ġcomplimented": 14903,
    "Ġje": 4121,
    "Ġclassifies": 11834,
    "batim": 25016,
    "Ġunt": 2295,
    "Ġimpending": 22382,
    "Ġpurse": 12009,
    "Ġconversed": 13185,
    "Ġcontinuous": 1563,
    "Ġrid": 4354,
    "Ġindependence": 12102,
    "icts": 22398,
    "Ġunreasoning": 15843,
    "Ġchivalrous": 20513,
    "black": 6768,
    "Ġneat": 6999,
    "Ġtrifled": 24674,
    "mechanically": 17299,
    "Ġungod": 22019,
    "tastes": 21095,
    "Ġhesitating": 16947,
    "Ġarrangement": 2656,
    "Ġcuts": 14607,
    "%": 9,
    "Ġnugent": 26457,
    "Ġbill": 4039,
    "Ġcand": 3275,
    "Ġcatholic": 20680,
    "Ġsubsc": 22786,
    "pping": 1423,
    "Ġtheirs": 7024,
    "Ġbashee": 19848,
    "aited": 12433,
    "Ġclasses": 4053,
    "Ġpalace": 16690,
    "Ġgreater": 3032,
    "mystical": 25317,
    "vy": 21106,
    "Ġannouncing": 16754,
    "Ġcommenced": 8531,
    "Ġminers": 22829,
    "Ġfring": 11127,
    "quick": 6400,
    "Ġside": 1384,
    "Ġplaguy": 22604,
    "Ġfeature": 745,
    "crucible": 24842,
    "Ġmerited": 23729,
    "Ġconnecting": 18632,
    "Ġhunting": 7259,
    "Ġsofa": 10270,
    "Ġste": 1386,
    "Ġcheetah": 14503,
    "Ġmonoton": 3635,
    "Ġdelight": 2549,
    "Ġstrip": 9420,
    "Ġbenjam": 22887,
    "Ġengaged": 3429,
    "Ġparmacetti": 20603,
    "Ġendangered": 16302,
    "Ġslept": 8258,
    "Ġmou": 13854,
    "Ġpondicherry": 20489,
    "Ġincreased": 2210,
    "Ġhumbly": 16196,
    "Ġpreserving": 19795,
    "Ġboisterous": 20441,
    "Ġjob": 7015,
    "Ġcautious": 12251,
    "Ġphysiognomically": 25612,
    "Ġintrusion": 12762,
    "Ġpertur": 12847,
    "Ġblessed": 6931,
    "relation": 19445,
    "Ġtomahawk": 7540,
    "Ġabject": 18391,
    "actorily": 25576,
    "Ġmoulded": 16975,
    "bee": 16036,
    "Ġobservable": 25126,
    "Ġtrod": 15026,
    "Ġconsent": 5372,
    "Ġreckless": 13457,
    "Ġutility": 23511,
    "Ġbul": 3294,
    "Ġsporting": 16999,
    "Ġtexel": 25923,
    "vocabulary": 25085,
    "alot": 15623,
    "Ġheels": 10850,
    "staking": 21639,
    "Ġoverpowering": 15248,
    "uns": 21867,
    "Ġmamm": 25090,
    "Ġunmo": 12770,
    "calm": 8934,
    "Ġabhor": 5467,
    "ð": 177,
    "rossing": 18639,
    "edmund": 17945,
    "Ġagony": 5388,
    "½": 126,
    "conversations": 24749,
    "Ġteacher": 22909,
    "ete": 9203,
    "Ġchurches": 12825,
    "invari": 21183,
    "Ġstumble": 26483,
    "Ġconsoling": 19455,
    "elzebub": 26464,
    "examined": 17266,
    "gress": 2213,
    "isol": 17846,
    "Ġcoefficient": 2883,
    "Æ": 135,
    "Ġcomplacency": 19446,
    "blending": 24126,
    "already": 6980,
    "moil": 22700,
    "bear": 10314,
    "Ġcopestone": 24936,
    "horrible": 14600,
    "Ġancient": 5443,
    "Ġdiffident": 23781,
    "Ġlovers": 9719,
    "Ġeffusion": 22497,
    "Ġstumped": 24942,
    "rally": 17651,
    "Ġwhis": 3502,
    "fluke": 25204,
    "Ġcomplicated": 14734,
    "Ġretirement": 25378,
    "Ġopposite": 5120,
    "Ġprojected": 16871,
    "clifford": 23153,
    "Ġspeaks": 11159,
    "âĢ": 294,
    "affa": 23774,
    "don": 3542,
    "Ġexchange": 15751,
    "Ġindicated": 10469,
    "thes": 7391,
    "Ġdeserved": 7736,
    "Ġcenturies": 8622,
    "Ġpockets": 8895,
    "aning": 2253,
    "besides": 8695,
    "Ġkindred": 16373,
    "Ġswords": 19896,
    "Ġbelly": 10369,
    "co": 2435,
    "Ġtangle": 25760,
    "flying": 13720,
    "cent": 8072,
    "Ġcompression": 18147,
    "seen": 2880,
    "Ġconcent": 8249,
    "Ġwedded": 16674,
    "Ġmilan": 19534,
    "edged": 15628,
    "ium": 4864,
    "Ġadvert": 10571,
    "amped": 12031,
    "Ġgritted": 22802,
    "Ġcompute": 2904,
    "autions": 20766,
    "ifference": 5632,
    "Ġhungry": 10532,
    "whar": 15925,
    "Ġdetained": 18377,
    "assertion": 22308,
    "Ġbeaches": 18084,
    "Ġbarrowful": 25595,
    "Ġpressing": 9260,
    "Ġcares": 9365,
    "grey": 14911,
    "Ġmorrow": 9342,
    "trad": 21075,
    "asper": 7854,
    "Ġunb": 10907,
    "Ġdubious": 17382,
    "boone": 23252,
    "details": 19674,
    "consult": 24168,
    "Ġsavag": 19372,
    "Ġpresume": 8037,
    "Ġchristianity": 19860,
    "sustained": 20567,
    "produced": 25414,
    "Ġburden": 8607,
    "Ġextract": 1566,
    "Ġfew": 1218,
    "utral": 12660,
    "Ġreflecting": 24751,
    "Ġby": 383,
    "ared": 771,
    "form": 496,
    "Ġdeduce": 8336,
    "Ġunwaning": 25170,
    "iffe": 21899,
    "vic": 13801,
    "Ġparty": 3508,
    "Ġsound": 2241,
    "acceptance": 25185,
    "h": 76,
    "Ġ66": 24369,
    "Ġspans": 18304,
    "happen": 19330,
    "tranqu": 14705,
    "ittingly": 18808,
    "wandering": 20283,
    "Ġsoc": 3523,
    "Ġrust": 6408,
    "Ġhails": 21947,
    "gabriel": 15359,
    "Ġemergencies": 17361,
    "tips": 13795,
    "Ġdisinclined": 22526,
    "č": 206,
    "sloop": 26145,
    "Ġgasping": 17038,
    "adieu": 26200,
    "ested": 3478,
    "Ġgreenwich": 19320,
    "bourgh": 19103,
    "Ġflood": 7715,
    "Ġcomplained": 16998,
    "Ġhideousness": 16915,
    "Ġdictator": 20152,
    "Ġsciences": 15942,
    "profound": 16424,
    "Ġutmost": 5496,
    "8": 28,
    "Ï": 144,
    "ĠĠĠĠĠĠĠĠĠĠĠĠĠĠĠĠĠĠĠĠĠĠĠĠĠĠĠĠĠĠĠĠĠĠĠ": 19257,
    "ceived": 1965,
    "Ġwaterward": 23365,
    "Ġcopper": 7425,
    "Ġcustoms": 19651,
    "Ġgowns": 25359,
    "Ġchat": 6560,
    "Ġfalsehood": 10523,
    "Ġploughed": 22605,
    "hearse": 17748,
    "Ġreward": 6144,
    "Ġprofile": 16488,
    "Ġinstinct": 6575,
    "Ġcheerfulness": 10516,
    "Ġcast": 3604,
    "Ġmeanest": 12907,
    "Ġrudimental": 25108,
    "Ġeffaced": 18528,
    "Ġprecautions": 23725,
    "ilations": 21719,
    "tete": 10732,
    "Ġunsocial": 18256,
    "Ġyanke": 18097,
    "idge": 14013,
    "Ġedinburgh": 16435,
    "Ġimmensities": 25330,
    "sequently": 14582,
    "Ġ23": 13189,
    "Ġ88": 19710,
    "Ġenjoy": 3760,
    "o": 83,
    "Ġventing": 19492,
    "nigh": 13762,
    "rote": 4592,
    "appear": 13195,
    "queer": 10362,
    "chariot": 26479,
    "extric": 22753,
    "Ġknocked": 9499,
    "Ġmutters": 23953,
    "Ġplot": 14280,
    "makes": 10711,
    "Ġswan": 23046,
    "Ġchowders": 18386,
    "wondering": 19844,
    "slowly": 9088,
    "Ġbelted": 22945,
    "amet": 582,
    "sher": 5217,
    "yourself": 6742,
    "uracy": 1072,
    "Ġkindly": 6077,
    "Ġterrors": 6918,
    "sharp": 10306,
    "Ġprayers": 12121,
    "chorus": 19810,
    "levi": 7047,
    "work": 1678,
    "Ġdesirous": 8942,
    "Ġfast": 1720,
    "Ġleathern": 15049,
    "Ġsubtlety": 24780,
    "Ġreadiness": 13047,
    "Ġhundreds": 4328,
    "Ġcomprehended": 11294,
    "Ġpane": 21460,
    "inct": 3293,
    "Ġunexpected": 6841,
    "vel": 2384,
    "george": 26019,
    "Ġcrumpled": 16441,
    "Ġunreason": 15840,
    "glancing": 11214,
    "Ġgraceful": 11296,
    "control": 16543,
    ")âĢĶâĢľ": 20742,
    "Ġadmirably": 16480,
    "Ġhappiness": 2942,
    "lee": 11584,
    "Ġconstruct": 23340,
    "Ġdey": 11674,
    "arctic": 12607,
    "Ġthenceforth": 25182,
    "Ġhappiest": 11880,
    "Ġmargin": 11918,
    "Ġsil": 1797,
    "Ġclues": 18422,
    "Ġinsip": 19266,
    "Ġdistur": 5312,
    "Ġscheduling": 2349,
    "attempts": 17190,
    "Ġmour": 6973,
    "unwillingness": 25802,
    "illuminated": 17452,
    "arches": 10816,
    "Ġiron": 3232,
    "ł": 259,
    "Ġbehaviors": 13253,
    "Ġvoc": 4449,
    "Ġwilling": 7421,
    "Ġcomplying": 18584,
    "Ġconstitutes": 13551,
    "Ġcandelab": 23846,
    "Ġmonster": 3793,
    "Ġemph": 14525,
    "ittered": 18439,
    "°": 113,
    "Ġwithdrawn": 10606,
    "Ġspleen": 26421,
    "etw": 407,
    "tons": 7560,
    "Ġlooked": 1802,
    "Ġspokes": 18313,
    "ock": 15401,
    "Ġadopted": 15177,
    "Ġhumph": 22877,
    "âĢĻâĢĶ": 12733,
    "impropriety": 21710,
    "hate": 20891,
    "cures": 20804,
    "Ġcritic": 19124,
    "Ġbel": 1216,
    "Ġlevers": 18064,
    "Ġsitu": 3493,
    "cupboards": 25401,
    "!âĢĻâĢĿ": 16592,
    "Ġroads": 13287,
    "Ġsurely": 6307,
    "Ġprecious": 5760,
    "astic": 1868,
    "Ġlap": 8436,
    "wishes": 13806,
    "Ġsomehow": 4841,
    "intments": 18820,
    "Ġbuck": 7157,
    "Ġelated": 18633,
    "Ġpays": 13295,
    "Ġupper": 5090,
    "Ġcloset": 19590,
    "Ġseparately": 13301,
    "Ġearthly": 7989,
    "threadbare": 25989,
    "Ġsmart": 11813,
    "Ġcritical": 7476,
    "Ġdetect": 1244,
    "Ġsting": 10861,
    "antage": 3878,
    "pronounced": 12344,
    "Ġsilken": 16377,
    "rann": 21043,
    "Ġwails": 21295,
    "conditionally": 24834,
    "Ġimmensely": 13594,
    "smallest": 23909,
    "Ġcaroline": 7255,
    "Ġphilipp": 23882,
    "Ġsympathising": 24297,
    "Ġrope": 4338,
    "istrate": 7406,
    "ars": 905,
    "Ġensuring": 11191,
    "Ġunex": 11711,
    "Ġri": 3395,
    "Ġmoss": 9283,
    "Ġadapts": 3816,
    "Ġstrategies": 1839,
    "jewel": 20345,
    "Ġam": 660,
    "Ġspare": 5102,
    "belt": 24032,
    "Ġmillion": 14986,
    "Ġproclaim": 18130,
    "Ġjo": 2609,
    "Ġcaus": 1727,
    "contrasted": 17305,
    "Ġosc": 2835,
    "erately": 21272,
    "Ġprison": 5403,
    "aping": 8193,
    "Ġrecall": 3854,
    "Ġplumage": 17297,
    "Ġpredicted": 2045,
    "Ġfemale": 8344,
    "rous": 3752,
    "wise": 2575,
    "Ġillness": 8589,
    "bol": 8717,
    "alarm": 15624,
    "entreaties": 26185,
    "Ġcurse": 7667,
    "leag": 21364,
    "sh": 646,
    "Ġrespond": 11176,
    "Ġmeddling": 24080,
    "Ġmixed": 6974,
    "Ġsebastian": 11694,
    "Ġevap": 19622,
    "tained": 4404,
    "Ġphysiognomy": 25610,
    "disapprobation": 19155,
    "Ġboisterously": 25682,
    "ifer": 11683,
    "Ġrefusing": 11029,
    "Ġshadow": 5596,
    "Ġnephew": 6405,
    "Ġstubbs": 23294,
    "Ġpatron": 7465,
    "Ġaback": 22263,
    "Ġcourse": 2129,
    "Ġreynolds": 10209,
    "fth": 20855,
    "Ġsurmise": 12293,
    "Ġfeminine": 15262,
    "Ġdenoted": 16565,
    "Ġendeav": 2952,
    "Ġable": 3078,
    "Ġrepairs": 19081,
    "Ġtimid": 6345,
    "pilot": 25908,
    "Ġalert": 18101,
    "mbles": 23086,
    "Ġapprobation": 10985,
    "dining": 13704,
    "Ġpettiness": 24229,
    "wam": 10135,
    "Ġthorough": 6245,
    "Ġhair": 3313,
    "Ġturkey": 19219,
    "examination": 25478,
    "Ġtinker": 15130,
    "Ġoaken": 13864,
    "oped": 6046,
    "vity": 7815,
    "Ġsobbed": 14137,
    "Ġextinguish": 14338,
    "milk": 20475,
    "Ġpadded": 25036,
    "Ġpott": 21465,
    "urs": 6989,
    "Ġaim": 10145,
    "Ġtrans": 637,
    "aph": 10954,
    "Ġbelt": 13000,
    "Ġif": 697,
    "Ġrisk": 8038,
    "avern": 24792,
    "Ġchili": 25561,
    "olstad": 7613,
    "Ġpaste": 23417,
    "rigged": 17063,
    "othic": 16214,
    "Ġranging": 8478,
    "Ġsteward": 6584,
    "Ġfreshet": 25704,
    "lynes": 15701,
    "Ġwished": 3729,
    "twist": 23697,
    "Ġbattalions": 25776,
    "Ġequality": 16357,
    "Ġcorps": 13030,
    "Ġaccomplice": 24376,
    "gardiner": 12289,
    "Ġmatch": 4528,
    "intended": 11066,
    "Ġbeth": 9657,
    "uteness": 17985,
    "Ġgallows": 12143,
    "Ġowes": 20083,
    "ibility": 2389,
    "bed": 3290,
    "Ġupset": 22150,
    "court": 7512,
    "Ġmethinks": 10392,
    "Ġincommunicable": 26611,
    "_âĢĶâĢĿ": 20762,
    "Ġtransient": 18481,
    "Ġbrow": 3988,
    "Ġ21": 11198,
    "poled": 22905,
    "uncontrollable": 20594,
    "Ġeurope": 8061,
    "Ġregards": 16075,
    "uttle": 6247,
    "tone": 8762,
    "/`)": 13659,
    "Ġremembr": 24170,
    "Ġashes": 7617,
    "Ġdetaining": 25818,
    "Ġabomin": 8188,
    "!âĢĶ": 2456,
    "Ġcompanies": 14557,
    "rates": 21037,
    "belais": 24035,
    "--": 1041,
    "Ġcircumnavigating": 25614,
    "unaccountable": 15776,
    "Ġunce": 11709,
    "Ġvigilance": 12369,
    "Ġtwenty": 3949,
    "Ġsaxon": 25468,
    "Ġsworn": 14434,
    "clean": 14759,
    "Ġexertion": 8053,
    "sisters": 13375,
    "Ġdefici": 22940,
    "Ġpinched": 17035,
    "Ġtroubling": 26546,
    "stre": 5451,
    "sideways": 14570,
    "Ġmaterials": 11288,
    "Ġ0": 1903,
    "Ġstarve": 24625,
    "degrees": 22147,
    "Ġblows": 5972,
    "Ġdiligence": 17114,
    "Ġbowls": 23768,
    "tenham": 16318,
    "Ġpaternal": 16387,
    "Ġcass": 13878,
    "Ġmaiden": 13385,
    "intim": 22931,
    "Ü": 157,
    "Ġjoyous": 14663,
    "Ġideas": 5494,
    "Ġvehemently": 26039,
    "algorithm": 3675,
    "ingle": 1038,
    "believing": 19460,
    "Ġalle": 11665,
    "rets": 12538,
    "Ġshipping": 14103,
    "Ġoutstanding": 22314,
    "Ġweedy": 15789,
    "Ġtrance": 12836,
    "Ġregarding": 13209,
    "Ġsuppl": 11079,
    "Ġadm": 2401,
    "Ġlabels": 3287,
    "Ġnourishment": 15191,
    "iling": 3092,
    "Ġextinguished": 10343,
    "Ġsatisfied": 4169,
    "Ġdem": 11673,
    "Ġauthentic": 20533,
    "Ġstole": 7952,
    "Ġwaist": 6892,
    "gunpowder": 25339,
    "Ġcompromised": 22568,
    "Ġsun": 1723,
    "Ġmocking": 24000,
    "Ġdimension": 3237,
    "iracle": 11243,
    "Ġignoble": 19397,
    "ights": 8475,
    "Ġcurls": 22966,
    "Ġdeny": 7489,
    "example": 16011,
    "Ġdefiance": 11068,
    "warm": 8101,
    "ius": 5789,
    "Ġdisasters": 16051,
    "spades": 14332,
    "Ġmob": 16015,
    "Ġmournfully": 20115,
    "Ġangrily": 9406,
    "atha": 6572,
    "<UNK>": 3,
    "Ġzig": 18742,
    "vast": 10736,
    "Ġwreath": 25936,
    "Ġacts": 2296,
    "Ġrestricted": 19028,
    "cun": 20794,
    "Ġblinded": 13269,
    "Ġpanel": 13371,
    "Ġtotal": 4993,
    "Ġbelonged": 6922,
    "Ġdownstairs": 11224,
    "Ġwollstonecraft": 26425,
    "Ġfeeling": 3081,
    "ap": 547,
    "Ġwidows": 24236,
    "eness": 2292,
    "Ġsighed": 10337,
    "ded": 2422,
    "Ġburly": 19249,
    "Ġabsorb": 25112,
    "Ġexc": 1832,
    "Ġafforded": 8028,
    "Ġinboard": 17932,
    "know": 2319,
    "Ġtradeoff": 2657,
    "Ġassoc": 6402,
    "sheep": 23084,
    "Ġpurpose": 2709,
    "unte": 21870,
    "their": 2541,
    "Ġband": 5290,
    "vative": 1519,
    "perse": 15893,
    "uten": 11621,
    "Ġsurprised": 3829,
    "Ġgravesend": 15215,
    "igate": 8822,
    "Ġclifford": 22353,
    "Ġassurances": 9999,
    "Ġwheelbarrow": 17204,
    "Ġexpensive": 12914,
    "evening": 7089,
    "Ġstall": 12694,
    "uneasiness": 23683,
    "calling": 12447,
    "Ġreceipt": 20354,
    "Ġperch": 10298,
    "stead": 10846,
    "necessary": 5881,
    "Ġwrecks": 16818,
    "Ġaltitude": 26202,
    "Ġbenevol": 5961,
    "stuff": 15684,
    "Ġcraggy": 23526,
    "church": 8139,
    "Ġmanor": 14196,
    "Ġbengal": 18783,
    "publ": 17638,
    "ever": 1077,
    "Ġvexatious": 19780,
    "Ġsuddenly": 2645,
    "ruct": 690,
    "Ġrepl": 1595,
    "Ġgenius": 8045,
    "due": 22407,
    "mid": 5617,
    "elag": 12655,
    "grounds": 11151,
    "mediterranean": 16401,
    "guarded": 13293,
    "erting": 17777,
    "swiftly": 20550,
    "Ġmutable": 23952,
    "Ġbert": 4582,
    "earthly": 24724,
    "immense": 18052,
    "Ġworrying": 22924,
    "Ġassuming": 16693,
    "esu": 17918,
    "Ġsale": 14154,
    "Ġnovel": 6695,
    "Ġreckoning": 14978,
    "Ġgeneration": 2185,
    "Ġdisinterested": 16054,
    "Ġshaping": 22000,
    "Ġplainer": 23700,
    "Ġsolar": 22882,
    "Ġsteals": 23082,
    "worm": 15452,
    ":âĢĶ": 4430,
    "blasted": 20188,
    "Ġstoutest": 24628,
    "Ġwaif": 9374,
    "put": 414,
    "Ġcelerity": 17435,
    "Ġtransaction": 22436,
    "serve": 13044,
    "Ġlays": 15987,
    "ividually": 22077,
    "Ġreferred": 8916,
    "mission": 5969,
    "Ġwhom": 1831,
    "Ġrummaged": 16910,
    "threaten": 25461,
    "Ġlogits": 3450,
    "awakened": 14452,
    "Ġmam": 8404,
    "hered": 5623,
    "hever": 13830,
    "Ġhudson": 15190,
    "readers": 23845,
    "thar": 18217,
    "Ġauthority": 7748,
    "Ġgardens": 16452,
    "assment": 9738,
    "aff": 3100,
    "doc": 23374,
    "Ġcocked": 12901,
    "Ġwhittling": 20698,
    "Ġviolet": 19090,
    "whalemen": 10431,
    "national": 20997,
    "ump": 2285,
    "Ġwooing": 19432,
    "Ġgallon": 24184,
    "Ġsuperglue": 23456,
    "Ġmarvell": 7248,
    "Ġmate": 3707,
    "oglyph": 11019,
    "Ġcaptivating": 26049,
    "lu": 597,
    "rium": 3131,
    "Ġstraighten": 24001,
    "Ġte": 1149,
    "Ġcaring": 23089,
    "Ġdismal": 11808,
    "Ġprefer": 6416,
    "apprehension": 26114,
    "Ġpoints": 5248,
    "Ġestimable": 23870,
    "Ġslee": 8974,
    "Ġsundry": 20072,
    "damn": 20022,
    "despair": 8343,
    "Ġsaleve": 17390,
    "windlass": 16721,
    "useness": 22289,
    "best": 6111,
    "Ġsheer": 14150,
    "petulance": 24299,
    "Ġmorning": 1748,
    "Ġtendons": 19807,
    "mat": 2199,
    "ezing": 10573,
    "Ġthy": 2514,
    "sick": 13783,
    "vere": 4883,
    "Ġpantry": 20294,
    "Ġfatig": 6756,
    "landlord": 9839,
    "certainly": 5339,
    "Ġ116": 24440,
    "ui": 9144,
    "ationally": 15702,
    "brought": 7285,
    "gentleman": 7519,
    "agrad": 2748,
    "Ġinhabitant": 19754,
    "Ġsurtout": 23464,
    "frankenstein": 11391,
    "bury": 9106,
    "rodu": 1817,
    "Ġnibbling": 17384,
    "urns": 10213,
    "Ġfl": 1279,
    "pires": 13774,
    "ython": 1029,
    "Ġcondescend": 19953,
    "plied": 10255,
    "Ġconveyed": 8334,
    "Ġfogs": 25282,
    "Ġa": 263,
    "midnight": 14901,
    "careful": 14865,
    "fisher": 7548,
    "Ġbeauties": 10445,
    "Ġwhal": 5454,
    "Ġworthy": 7241,
    "Ġconven": 6151,
    "event": 8076,
    "Ġsherlock": 3892,
    "Ġvectors": 1772,
    "Ġordinarily": 20648,
    "pattern": 4567,
    "Ġofficers": 4424,
    "Ġbewitched": 25975,
    "design": 18959,
    "numer": 15398,
    "Ġstro": 4595,
    "Ġsundial": 15081,
    "Ġslaughtered": 26584,
    "Ġveter": 15809,
    "Ġtri": 4813,
    "Ġbeaver": 18085,
    "Ġrevers": 21661,
    "used": 3258,
    "nical": 20990,
    "bring": 9104,
    "Ġcasement": 25092,
    "Ġoutlines": 15955,
    "derness": 11735,
    "Ġdiffered": 22708,
    "Ġlounging": 10021,
    "Ġdiscussing": 5202,
    "fainting": 20471,
    "Ġobtaining": 16130,
    "Ġdazed": 15593,
    "Ġdoran": 9179,
    "Ġsag": 6514,
    "Ġnich": 21517,
    "Ġnorthwards": 19545,
    "Ġdraught": 9846,
    "Ġirish": 14534,
    "Ġnecessary": 4472,
    "Ġstiffly": 15005,
    "alogue": 25159,
    "Ġeuropean": 20044,
    "continually": 11302,
    "ourselves": 9010,
    "annica": 24561,
    "Ġbewit": 15725,
    "tting": 17680,
    "Ġindiscreet": 22953,
    "ulus": 21861,
    "Ġallen": 5160,
    "Ġrainbows": 19647,
    "Ġapologized": 25198,
    "motion": 17606,
    "fig": 8734,
    "ness": 852,
    "sequ": 2400,
    "Ġconductor": 24004,
    "clerval": 7950,
    "ichever": 13956,
    "discovering": 24251,
    "Ġproportionate": 17043,
    "wrath": 23754,
    "Ġcoaxing": 18594,
    "embedding": 20703,
    "masts": 19423,
    "Ġexhale": 24402,
    "Ġsurest": 19054,
    "Ġincom": 9768,
    "Ġacquit": 18897,
    "Ġleech": 24153,
    "knowing": 10437,
    "Ġconstrued": 26301,
    "hopper": 23713,
    "fortunately": 9449,
    "Ġtelling": 5747,
    "Ġcategor": 4137,
    "exception": 9975,
    "Ġpelt": 15607,
    "Ġgorgeous": 20465,
    "Ġwindpipe": 23103,
    "supervised": 1912,
    "eration": 10772,
    "onym": 14649,
    "Ġviolin": 16427,
    "Đ": 209,
    "Ġexempl": 21827,
    "youngest": 19742,
    "Ġsurpl": 19132,
    "Ġwhitened": 24867,
    "Ġrhone": 25230,
    "pper": 3205,
    "corner": 13396,
    "Ġhumaneval": 25582,
    "Ġalchemists": 26487,
    "ashing": 4824,
    "plans": 21955,
    "Ġoutright": 18413,
    "ule": 6800,
    "uttered": 8440,
    "tic": 8390,
    "Ġundisturbed": 19518,
    "outs": 7008,
    "Ġspaces": 3109,
    "ah": 1833,
    "hello": 13362,
    "ingale": 21298,
    "Ġbushy": 16399,
    "Ġleghorn": 13145,
    "Ġsequential": 2130,
    "Ġclean": 5652,
    "Ġebb": 21619,
    "Ġsmoothed": 23656,
    "Ġmagnificence": 20631,
    "Ġgallant": 8654,
    "Ġskeleton": 5514,
    "enses": 10994,
    "Ġsorrow": 4628,
    "oug": 432,
    "Ġdisreputable": 22531,
    "ruded": 15901,
    "Ġhorizon": 6632,
    "Ġrealism": 18983,
    "Ġgord": 21597,
    "Ġhunch": 18934,
    "Ġmorsel": 20676,
    "ulous": 4448,
    "positive": 20566,
    "Ġsqueeze": 10038,
    "alth": 3254,
    "Ġdivinely": 25723,
    "Ġtennessee": 26596,
    "labours": 16617,
    "amid": 12721,
    "Ġcurly": 18843,
    "kne": 20934,
    "Ġhoarse": 14526,
    "mael": 6723,
    "Ġscoundrel": 13669,
    "Ġpeculiar": 3150,
    "Ġcrocod": 19627,
    "Ġgiant": 13967,
    "Ġpir": 6818,
    "Ġhated": 7585,
    "Ġpropensity": 18997,
    "Ġfreely": 7056,
    "Ġlombardy": 26463,
    "door": 6193,
    "Ġpilot": 5984,
    "Ġproposals": 10613,
    "Ġeastward": 13389,
    "Ġoverwrites": 5033,
    "Ġset": 1176,
    "reshold": 21238,
    "±": 114,
    "Ġsummits": 14683,
    "dislike": 23492,
    "perpendicular": 14162,
    "meditation": 19066,
    "M": 49,
    "Ġflap": 14421,
    "Ġdissuade": 26256,
    "painted": 17639,
    "Ġlandsc": 11146,
    "valuable": 8244,
    "Ġprofited": 19191,
    "Ġforms": 6397,
    "Ġlacepede": 20493,
    "Ġpuzzle": 11305,
    "Ġconvergence": 971,
    "Ġunfathomably": 25873,
    "Ġhiding": 9822,
    "Ġconfirming": 25321,
    "Ġeye": 2281,
    "Ġperse": 6271,
    "Ġunattended": 15841,
    "either": 6791,
    "thed": 8826,
    "Ġscho": 4434,
    "Ġmonth": 2849,
    "Ġstubbornness": 25380,
    "Ġlifeless": 8948,
    "disagreeable": 11163,
    "peter": 24298,
    "cutting": 23782,
    "offic": 7466,
    "Ġdiscours": 18716,
    "Ġweary": 5635,
    "once": 5903,
    "sho": 6425,
    "Ġexal": 10877,
    "grandfather": 25009,
    "Ġpeace": 3692,
    "Ġlifetime": 13601,
    "Ġskiff": 16161,
    "Ġinitialized": 3948,
    "Ġguide": 3213,
    "Ġwhine": 21712,
    "Ġunra": 18237,
    "Ġbankers": 24302,
    "Ġcucumber": 21354,
    "Ġswaths": 23053,
    "accomplishment": 20222,
    "gradu": 18616,
    "Ġhorsey": 24249,
    "watson": 12241,
    "Ġincisive": 18570,
    "Ġfascinating": 17327,
    "Ġsayest": 22771,
    "Ġmeanness": 22596,
    "Ġbaffled": 12401,
    "sailing": 14713,
    "hung": 8380,
    "Ġantique": 19550,
    "Ġbelrive": 18830,
    "Ġpush": 9183,
    "Ġmiscellaneous": 17462,
    "learned": 8601,
    "Ġshovel": 23489,
    "Ġnarrow": 5086,
    "Ġluxur": 12339,
    "Ġgeological": 14533,
    "Ġsnoring": 23738,
    "ggling": 19096,
    "speaking": 12096,
    "Ġniag": 21527,
    "els": 1764,
    "Ġsar": 21212,
    "Ġunaccountably": 26515,
    "Ġengrossed": 12994,
    "etuous": 21580,
    "sis": 1841,
    "Ġreceives": 20353,
    "final": 19675,
    "eches": 8077,
    "Ġconverted": 16110,
    "Ġbooks": 4675,
    "ben": 4926,
    "Ġnegative": 1465,
    "ounded": 9747,
    "Ġhospitable": 17060,
    "occup": 7752,
    "Ġvexations": 24609,
    "Ġconsecrated": 26488,
    "boilers": 26297,
    "Ġwill": 678,
    "harb": 9123,
    "Ĩ": 233,
    "laug": 10707,
    "Ġhim": 475,
    "Ġglasses": 9474,
    "Ġshortened": 23481,
    "Ġarab": 7823,
    "expected": 5780,
    "Ġwaiting": 4323,
    "Ġethere": 23948,
    "itchen": 7787,
    "anter": 9166,
    "Ġappropri": 2227,
    "urpr": 2288,
    "attended": 8952,
    "cra": 6354,
    "Ġwarned": 16880,
    "Ġpondering": 17005,
    "Ġconsternation": 9858,
    "wet": 15451,
    "means": 9784,
    "Ġpots": 9427,
    "strang": 11183,
    "Ġsundering": 23273,
    "Ġcharnel": 22249,
    "Ġstamped": 13526,
    "Ġshocks": 16456,
    "Ġimaginary": 11186,
    "pher": 11511,
    "Ġlining": 13950,
    "Ġsuite": 18277,
    "ished": 1426,
    "Ġkno": 5242,
    "neighbours": 24881,
    "03": 20747,
    "Ġsinusoidal": 4801,
    "ription": 5676,
    "Ġtrif": 6268,
    "Ġsent": 1776,
    "Ġexterm": 21826,
    "Ġfagged": 17882,
    "Ġpope": 11600,
    "Ġmethodology": 2561,
    "Ġloun": 7166,
    "Ġwhen": 514,
    "muttered": 13758,
    "wich": 11543,
    "most": 1255,
    "specimen": 26605,
    "arrange": 23764,
    "Ġsurround": 4617,
    "Ġearnestly": 5978,
    "Ġcuba": 25095,
    "Ġgolden": 5336,
    "useless": 14594,
    "represent": 9637,
    "Ġomniscient": 20084,
    "Ġgracechurch": 12196,
    "Ġscan": 22276,
    "Ġgriff": 22803,
    "Ġrefined": 18701,
    "Ġenveloped": 12206,
    "dispositions": 25011,
    "Ġrestless": 10413,
    "Ġaut": 1785,
    "Ġfolio": 11916,
    "Ġhanged": 17924,
    "tiger": 13796,
    "Ġcrosswise": 18885,
    "Ġdome": 15586,
    "visible": 10533,
    "Ġrebounds": 25967,
    "binary": 20783,
    "Ġlaure": 16909,
    "destined": 24112,
    "woes": 21132,
    "Ġhardihood": 23109,
    "Ġapproximates": 2417,
    "Ġfoundations": 11073,
    "Ġafford": 4365,
    "Ġantichronical": 26609,
    "lungs": 26135,
    "Ġseedy": 21952,
    "Ġetern": 7085,
    "Ġsovere": 9255,
    "ham": 1704,
    "Ġcentre": 5123,
    "isely": 4488,
    "Ġsteeple": 19286,
    "ror": 7351,
    "mast": 3600,
    "21": 10071,
    "impart": 21706,
    "Ġbakers": 17866,
    "Ġincline": 18569,
    "Ġsurve": 9873,
    "pate": 21009,
    "Ġloading": 15872,
    "Ġalt": 18098,
    "appearance": 5333,
    "therly": 18344,
    "Ġcust": 11581,
    "Ġreflection": 6440,
    "Ġcontinent": 14887,
    "Ġthrown": 4639,
    "Ġgossip": 18469,
    "Ġmasonry": 13598,
    "Ġfortun": 4982,
    "Ġprepare": 8646,
    "alcul": 15625,
    "mounting": 25207,
    "Ġneeds": 6605,
    "Ġglowed": 24864,
    "plague": 21956,
    "Ġrich": 2989,
    "Ġprofess": 3698,
    "Ġinflex": 20633,
    "er": 269,
    "wled": 15453,
    "iterranean": 15547,
    "Ġshrugged": 12766,
    "Ġscenery": 11456,
    "Ġcaucus": 17379,
    "Ġperceptibly": 25821,
    "reproach": 15185,
    "ishment": 3503,
    "Ġcav": 13879,
    "ron": 5216,
    "happiness": 6469,
    "Ġxliv": 23407,
    "Ġpants": 21462,
    "Ġconsp": 10224,
    "vation": 4743,
    "surrounded": 26088,
    "atic": 4017,
    "Ġoverflowed": 20261,
    "Ġlandlady": 10422,
    "Ġ156": 20169,
    "isis": 12576,
    "bolts": 11420,
    "posted": 24635,
    "Ġrobbed": 22971,
    "Ġcelebrated": 13593,
    "Ġdimmed": 24267,
    "Ġmaddened": 17244,
    "Ġstrasburgh": 18615,
    "rapidly": 15242,
    "Ġoptimal": 1857,
    "Ġmingling": 20196,
    "oniously": 21256,
    "ulation": 5458,
    "oors": 17620,
    "Ġembarrassed": 11384,
    "Ġanalysis": 1913,
    "Ġtens": 17723,
    "Ġverse": 16602,
    "zing": 7820,
    "ric": 1374,
    "ender": 9160,
    "Ġhardships": 14450,
    "orers": 14102,
    "Ġignor": 4012,
    "Ġprev": 6264,
    "organ": 15571,
    "Ġinterp": 16067,
    "Ġstrata": 26027,
    "ingolstadt": 21302,
    "Ġmelted": 19620,
    "Ġparticulars": 5754,
    "Ġbusy": 6189,
    "Ġcircum": 8257,
    "ifying": 5235,
    "Ġembracing": 14979,
    ":": 30,
    "Ġtools": 11608,
    "oons": 12496,
    "connection": 18867,
    "Ġattributed": 11833,
    "instr": 12528,
    "Ġfired": 16149,
    "olic": 14041,
    "Ġinland": 11607,
    "iverer": 11714,
    "Ġqu": 606,
    "ugnance": 12365,
    "Ġkeels": 11061,
    "trowsers": 17691,
    "irable": 5776,
    "Ġclenched": 14204,
    "itzerland": 9994,
    "Ġenriched": 26499,
    "Ġinfants": 16362,
    "Ġdefection": 22939,
    "ancy": 4392,
    "Ġbeckoned": 25793,
    "Ġenglishmen": 19428,
    "Ġbulb": 23853,
    "Ġthou": 1808,
    "irth": 5634,
    "necess": 4896,
    "naturally": 14584,
    "Ġgor": 9206,
    "Ġmessages": 24981,
    "destruction": 11255,
    "Ġlanguage": 655,
    "Ġrefuse": 5739,
    "Ġdon": 1613,
    "Ġobserved": 3538,
    "ane": 1177,
    "Ġtorpor": 25031,
    "iom": 20914,
    "Ġtenth": 13824,
    "Ġenlarged": 25985,
    "Ġportion": 7493,
    "olence": 10230,
    "Ġincreases": 3795,
    "Ġtormenting": 15103,
    "Ġmerits": 13193,
    "Ġgenerates": 3663,
    "neying": 22446,
    "Ġseamen": 5063,
    "peddling": 24696,
    "Ġcandour": 14672,
    "Ġ96": 24592,
    "Ġequival": 4782,
    "Ġfleet": 9431,
    "rrh": 26144,
    "Ġcomputers": 2644,
    "undoubtedly": 13309,
    "Ġappear": 2486,
    "Ġtake": 1580,
    "Ġpines": 12614,
    "Ġplank": 7033,
    "Ġcarved": 7946,
    "Ġproport": 2299,
    "Ġstatements": 7517,
    "Ġresource": 10993,
    "Ġ93": 24591,
    "Ġbring": 3323,
    "coarse": 16487,
    "indispensable": 14209,
    "Ġholy": 6591,
    "permitted": 18343,
    "onical": 21252,
    "Ġobeying": 13413,
    "please": 8176,
    "Ġsavagely": 26323,
    "Ġneurons": 976,
    "Ġforgetting": 3434,
    "Ġpuffing": 12252,
    "Ġmourn": 8703,
    "Ġplains": 14623,
    "lers": 10106,
    "dripping": 16905,
    "lucases": 20209,
    "bib": 17491,
    "Ġcynical": 25770,
    "stands": 22432,
    "Ġthoughtfulness": 18772,
    "devils": 20031,
    "Ġcrisis": 13125,
    "Ġyon": 9692,
    "started": 10845,
    "build": 12185,
    "Ġpraying": 19553,
    "Ġbidden": 24646,
    "Ġprendergast": 26537,
    "Ġpuzz": 5533,
    "Ġpatentee": 25586,
    "Ġmah": 15538,
    "Ġillust": 8262,
    "Ġaperture": 26160,
    "Ġcopying": 17069,
    "gard": 7339,
    "Ġresolved": 3797,
    "Ġdisposed": 7083,
    "Ġfly": 3869,
    "secondly": 16984,
    "Ġtransports": 24277,
    "ancho": 4938,
    "otograph": 5826,
    "Ġsepulchre": 20558,
    "Ġdifferent": 1427,
    "Ġskulls": 12956,
    "Ġmanifested": 17157,
    "Ġnile": 21518,
    "Ġfires": 16471,
    "Ġleading": 7297,
    "Ġroundabout": 23059,
    "Ė": 215,
    "Ġlassitude": 20585,
    "says": 13298,
    "Ġwhirlp": 16963,
    "Ġcent": 3252,
    "Ġbelief": 5855,
    "Ġindependently": 4243,
    "rily": 7622,
    "Ġpunctures": 25133,
    "company": 9460,
    "Î": 143,
    "throughout": 24084,
    "Ġmedicine": 15204,
    "Ġshares": 23245,
    "Ġapples": 22215,
    "youth": 11873,
    "Ġomit": 17815,
    "Ġgrasped": 8033,
    "ommod": 13980,
    "Ġmans": 15534,
    "Ġstreaming": 19672,
    "hurriedly": 25510,
    "gird": 20878,
    "Ġdeclines": 23960,
    "Ġtun": 5998,
    "pp": 384,
    "admiration": 11387,
    "Ġnurtured": 19748,
    "beryls": 25309,
    "Ġmid": 2616,
    "Ġminus": 18749,
    "hint": 12473,
    "entiful": 10836,
    "Ġcyn": 13885,
    "lude": 6161,
    "goes": 10426,
    "Ġphilistines": 26082,
    "Ġwriggling": 15256,
    "Ġproudly": 19741,
    "beheaded": 22490,
    "difference": 13707,
    "Ġgrows": 4985,
    "fic": 20851,
    "just": 1701,
    "features": 14815,
    "ieties": 19025,
    "Ġdom": 2825,
    "Ġchosen": 7201,
    "Ġworldly": 16329,
    "Ġferoc": 14896,
    "Ġassemblage": 26351,
    "saying": 8640,
    "Ġunaffected": 14121,
    "cabinet": 25077,
    "inished": 17734,
    "Ġsperma": 19046,
    "Ġconverse": 11842,
    "ryder": 18638,
    "Ġgratification": 24093,
    "Ġemails": 13105,
    "smiled": 16614,
    "Ġblades": 11893,
    "melancholy": 12351,
    "Ġignorance": 6618,
    "encyclopÃ¦dia": 16663,
    "Ġbroom": 18906,
    "Ġmaxim": 3083,
    "otic": 15742,
    "decoder": 3644,
    "watching": 16930,
    "Ġtrailing": 23077,
    "Ġstormy": 16728,
    "expound": 23660,
    "gus": 13724,
    "Ġdoor": 1741,
    "nui": 20999,
    "sitting": 8386,
    "hopes": 15368,
    "ped": 6365,
    "Ġpharaoh": 26585,
    "idation": 5022,
    "Ġidler": 16403,
    "nostr": 22715,
    "Ġfert": 15579,
    "Ġmoody": 8200,
    "ading": 5091,
    "Ġsaville": 15887,
    "Ġrascally": 26507,
    "Ġcontents": 7210,
    "Ġpuzzling": 14897,
    "Ġrealities": 18981,
    "trucks": 25419,
    "Ġseven": 4541,
    "Ġuser": 15912,
    "mountain": 10713,
    "Ġravines": 25831,
    "duchess": 18463,
    "gor": 543,
    "steering": 16635,
    "Ġblackest": 19098,
    "apes": 9740,
    "Ġpitiless": 19386,
    "Ġseeming": 8540,
    "Ġfacetious": 20582,
    "_âĢĶâĢĻ": 13681,
    "ĠĠĠĠĠĠĠ": 7633,
    "Ġtid": 8106,
    "Ġfever": 6558,
    "Ġperennial": 22691,
    "enance": 3371,
    "Ġeyed": 12664,
    "brim": 23573,
    "reg": 2183,
    "Ġwestward": 24389,
    "Ġminiatures": 20320,
    "\":": 9581,
    "Ġrect": 18025,
    "Ġattacked": 10567,
    "Ġcocksure": 26258,
    "blows": 17165,
    "Ġmargaret": 10376,
    "illustration": 2284,
    "puff": 21021,
    "Ġarise": 7895,
    "Ġsolved": 8931,
    ",": 16,
    "Ġdiving": 12598,
    "ball": 7792,
    "Ġinterfere": 11815,
    "Ġ77": 24263,
    "Ġagile": 22510,
    "Ġeither": 2604,
    "Ġflooded": 24959,
    "Ċ": 203,
    "evinced": 19925,
    "Ġassertions": 19945,
    "yourselves": 24956,
    "Ġconfirms": 23306,
    "Ġaffected": 5577,
    "incredible": 16498,
    "Ġbrows": 13299,
    "bable": 8718,
    "Ġspeckled": 14305,
    "lilies": 20960,
    "wheel": 22862,
    "uding": 16141,
    "Ġaccused": 8507,
    "Ġattentions": 5877,
    "send": 15422,
    "Ġtints": 17727,
    "active": 16101,
    "Ġcaps": 8414,
    "soul": 9140,
    "illating": 22104,
    "folding": 24927,
    "Ġevangelical": 25506,
    "Ġstoried": 18075,
    "att": 1456,
    "ribbed": 16410,
    "Ġresume": 18565,
    "ch": 321,
    "paper": 9136,
    "7": 27,
    "Ġepis": 19980,
    "Ġrecollecting": 17113,
    "Ġdeception": 18139,
    "Ġtearing": 14394,
    "Ġmerciless": 25246,
    "Ġedition": 16433,
    "useful": 16502,
    "Ġweighted": 2089,
    "Ġacc": 571,
    "Ġliv": 6679,
    "Ġpleased": 4062,
    "conc": 3947,
    "girl": 12316,
    "Ġcoral": 11920,
    "Ġoppress": 13171,
    "fortunate": 4791,
    "Ġwooden": 4729,
    "swiss": 24255,
    "Ġdiscomposed": 25580,
    "lutions": 20949,
    "kindred": 24046,
    "âĢĻ": 378,
    "tribute": 21087,
    "preference": 22464,
    "Ġgibe": 25959,
    "still": 4216,
    "Ġsympat": 13339,
    "Ġchanges": 2287,
    "andromeda": 21865,
    "nobody": 16134,
    "itics": 13871,
    "spin": 22728,
    "Ġstatement": 5254,
    "Ġmended": 21312,
    "Ġpenal": 1774,
    "Ġalabama": 14018,
    "Ġres": 696,
    "Ġdrinks": 24279,
    "Ġbeg": 1281,
    "Ġbiases": 2397,
    "loops": 12879,
    "eprints": 12788,
    "Ġda": 5150,
    "Ġprem": 3426,
    "Ġtold": 2184,
    "Ġmahogany": 20576,
    "Ġcoats": 16072,
    "Ġseparation": 11247,
    "Ġguido": 2973,
    "begin": 8883,
    "Ġ24": 13190,
    "caught": 8726,
    "awful": 23112,
    "ferred": 16412,
    "riving": 21928,
    "necessities": 24306,
    "gentle": 5356,
    "Ġhoky": 17926,
    "Ġpallid": 12297,
    "restored": 18978,
    "representativeness": 25272,
    "Ġmaximizing": 3167,
    "ien": 10101,
    "Ġfalsely": 20580,
    "Ġenvelopes": 24510,
    "Ġmetropolis": 17274,
    "Ġmic": 17797,
    "hor": 2572,
    "Ġwonderfully": 10430,
    "ï": 176,
    "Ġcheek": 8577,
    "Ġmasts": 6465,
    "Ġmuff": 8113,
    "contents": 12056,
    "ris": 9137,
    "Ġmarrying": 6177,
    "Ġindulge": 10582,
    "pse": 21008,
    "Ġengine": 1921,
    "Ġshoals": 13132,
    "Ġmatches": 14395,
    "Ġnever": 1019,
    "spoken": 11859,
    "Ġtwisted": 7228,
    "Ġdetested": 14177,
    "Ġinasmuch": 10825,
    "Ġhistorically": 19376,
    "Ġignited": 25069,
    "Ġincluding": 2847,
    "supplemental": 25874,
    "Ġtut": 8769,
    "ption": 7398,
    "arse": 7160,
    "abri": 6682,
    "Ġchancing": 22245,
    "Ġheadway": 18792,
    "wherever": 13117,
    "Ġhighlands": 22770,
    "zealand": 26050,
    "ercely": 12547,
    "Ġyoked": 15732,
    "Ġimprove": 1845,
    "ientious": 11688,
    "Ġdecipher": 22443,
    "civilized": 17075,
    "Ġresigned": 9767,
    "Ġflashing": 13025,
    "Ġfusion": 21412,
    "Ġviewed": 10462,
    "middle": 11310,
    "Ġponderous": 8354,
    "Ġclothing": 18424,
    "Ġfeverish": 11348,
    "Ġneedless": 19229,
    "Ġleaping": 8340,
    "thine": 15822,
    "Ġwatchful": 16527,
    "earliest": 20118,
    "Ġremoter": 20104,
    "Ġplatonian": 25118,
    "enial": 17780,
    "pushed": 21022,
    "neighboring": 20615,
    "discredit": 24250,
    "rice": 13776,
    "caused": 25519,
    "office": 16393,
    "Ġ51": 24320,
    "Ġpoisoned": 24886,
    "Ġsublimity": 26345,
    "otics": 10223,
    "Ġexh": 5232,
    "Ġour": 1006,
    "ency": 3868,
    "city": 15326,
    "direction": 17524,
    "Ġbinding": 20417,
    "Ġincantation": 26257,
    "Ġpricking": 23220,
    "Ġapex": 24342,
    "erval": 4019,
    "Ġoverall": 4358,
    "Ġrevenue": 26194,
    "sin": 21047,
    "Ġtranspired": 16784,
    "lic": 17587,
    "clergy": 18933,
    "Ġcommitted": 7431,
    "Ġjoke": 8868,
    "Ġfare": 5809,
    "Ġminority": 18752,
    "Ġelephants": 9863,
    "Ġbeats": 21749,
    "Ġmodern": 3225,
    "Ġmoles": 22429,
    "youn": 5690,
    "Ġfossils": 20221,
    "adventurous": 25361,
    "Ġequin": 14496,
    "despond": 19799,
    "plendent": 21961,
    "preced": 10309,
    "Ġbehalf": 14508,
    "Ġkeel": 6444,
    "tles": 10730,
    "urpation": 16299,
    "trying": 15437,
    "==": 944,
    "ub": 1226,
    "Ġdisposing": 19373,
    "Ġlatitudes": 9495,
    "ascal": 10192,
    "agged": 9236,
    "odious": 21809,
    "ucket": 2485,
    "Ġdiary": 24739,
    "azine": 19130,
    "Ġreveries": 11347,
    "usiveness": 22290,
    "iag": 20915,
    "Ġchiswick": 25560,
    "Ġdiffers": 23779,
    "hastened": 16845,
    "Ġprosperity": 20256,
    "freely": 16854,
    "Ġliberally": 16830,
    "Ġhorrify": 23815,
    "Ġbulkington": 14677,
    "Ġfaint": 5811,
    "Ġtobacco": 8366,
    "prevent": 11793,
    "Ġequinox": 25856,
    "Ġneighb": 14075,
    "Ġours": 4612,
    "Ġgods": 6454,
    "Ġadversarial": 5607,
    "Ġchamber": 6213,
    "mix": 20973,
    "Ġnormalizing": 1821,
    "Ġsinging": 7723,
    "Ġjoy": 3181,
    "Ġmeanwhile": 5736,
    "Ġagain": 813,
    "Ġqueequeg": 2011,
    "Ġdeeply": 4716,
    "Ġhalts": 3156,
    "Ġnetherfield": 3931,
    "Ġanoints": 25538,
    "dient": 440,
    "tern": 4221,
    "dar": 20823,
    "Ġaccord": 4025,
    "Ġstartling": 14670,
    "Ġindestruct": 22955,
    "Ġdir": 21419,
    "Ġrepressed": 21665,
    "erranean": 9333,
    "Ġbegins": 7244,
    "Ġpot": 2986,
    "Ġrotation": 25474,
    "Ġsubstitute": 16726,
    "Ġwhere": 784,
    "ul": 371,
    "presbyterian": 26368,
    "Ġchil": 11749,
    "Ĕ": 213,
    "sole": 6168,
    "Ġpowder": 11275,
    "clad": 14459,
    "Ġroll": 5381,
    "als": 2042,
    "divided": 25018,
    "frock": 20119,
    "Ġindef": 9189,
    "Ġmont": 8557,
    "Ġmizzen": 20288,
    "Ġspecies": 5112,
    "Ġuniformly": 19147,
    "Ġnecessitates": 23926,
    "Ġpractices": 19051,
    "accompl": 9879,
    "liv": 9607,
    "Ġmissionary": 25696,
    "Ġfelicity": 7260,
    "Ġimpulsive": 19961,
    "ader": 14011,
    "cused": 15331,
    "Ġperth": 7022,
    "Ġswift": 3668,
    "Ġrelates": 12977,
    "chapter": 1402,
    "three": 5239,
    "itely": 5365,
    "Ġtrem": 6659,
    "superiority": 20184,
    "Ġaffright": 9331,
    "ective": 18174,
    "afflicted": 23776,
    "Ġweal": 21916,
    "Ġconstru": 19069,
    "Ń": 260,
    "yond": 2330,
    "30": 20753,
    "gment": 4389,
    "Ġlethar": 21728,
    "Ġfoss": 9850,
    "Ġunreserved": 19395,
    "Ġtheory": 5798,
    "Ġjunk": 15951,
    "ers": 406,
    "churning": 21694,
    "Ġriv": 10746,
    "domestic": 19824,
    "Ġsigning": 22705,
    "Ġlately": 6387,
    "Ġspilled": 10924,
    "ç": 168,
    "ineffectual": 26504,
    "Ġdiscipl": 22779,
    "Ġstrain": 6023,
    "thirty": 12759,
    "ouncing": 8494,
    "Ġpopulous": 16826,
    "doing": 8584,
    "Ġunshored": 25813,
    "Ġshoe": 14566,
    "rubbery": 17341,
    "owder": 8448,
    "Ġcorpor": 23036,
    "lays": 14921,
    "Ġdisciple": 22778,
    "Ġdeclares": 16992,
    "consc": 4840,
    "Ġperched": 10299,
    "Ġunwell": 22012,
    "Ġ1825": 25719,
    "Ġprof": 2462,
    "urious": 21700,
    "Ġbuoyancy": 20040,
    "Ġaven": 10759,
    "Ġintegrity": 12311,
    "Ġcoals": 16071,
    "fooled": 24419,
    "hib": 15366,
    "surf": 24212,
    "Ġcorre": 3887,
    "ren": 550,
    "Ġrussian": 14349,
    "repeating": 20127,
    "countenances": 24149,
    "subject": 6631,
    "Ġcraft": 4375,
    "Ġmutually": 23954,
    "quakes": 21847,
    "Ġwatson": 3595,
    "Ġrefrained": 14342,
    "Ġswing": 13033,
    "Ġshutting": 14758,
    "Ġpunctually": 17138,
    "particulars": 11315,
    "Ġparac": 12792,
    "Ġrebell": 21666,
    "rons": 21038,
    "Ġinsatiable": 19271,
    "kshire": 13745,
    "Ġpull": 5152,
    "Ġdiscussed": 19558,
    "Ġperry": 22392,
    "Ġ200": 19294,
    "unity": 4149,
    "Ġerr": 1322,
    "flood": 19805,
    "Ġwithout": 1121,
    "mature": 20966,
    "Ġconfederate": 17353,
    "rollable": 13944,
    "Ġimproper": 22750,
    "Ġsticks": 14930,
    "Ġuniverse": 14123,
    "obliv": 23094,
    "Ġpronounce": 16968,
    "Ġhost": 7068,
    "Ġreverend": 15258,
    "Ġponies": 21473,
    "Ġhalf": 1673,
    "shorn": 22454,
    "Ĺ": 250,
    "Ġcomput": 604,
    "cro": 13695,
    "Ġmonitors": 3154,
    "Ġpages": 15605,
    "preserving": 25304,
    "pen": 1205,
    "allions": 22195,
    "Ġbountiful": 25944,
    "ling": 736,
    "pain": 7350,
    "laying": 19771,
    "placed": 7879,
    "Ġpar": 456,
    "Ġham": 3421,
    "Ġmistifying": 23718,
    "pence": 15408,
    "Ġstopped": 5956,
    "Ġundertaking": 8573,
    "wl": 17702,
    "Ġinquired": 7486,
    "Ġinsulted": 14991,
    "Ġwheels": 10912,
    "showing": 22458,
    "Ġticking": 25033,
    "Ġloite": 22108,
    "pip": 6654,
    "Ġarmed": 9259,
    "Ġthundering": 24291,
    "Ġstrung": 22616,
    "Ġiteratively": 3054,
    "Ġeff": 674,
    "race": 11630,
    "Ġtraged": 9351,
    "Ġcontinue": 5398,
    "Ġwrung": 14470,
    "Ġgardeners": 12118,
    "Ġcuriosities": 26288,
    "Ġdeplored": 20503,
    "Ġvillas": 24050,
    "cowardly": 25749,
    "fill": 15349,
    "Ġintrig": 21987,
    "Ġones": 3014,
    "avery": 13682,
    "Ġstrongly": 5657,
    "str": 2578,
    "Ġunlimited": 26222,
    "benefit": 24642,
    "Ġto": 297,
    "Ġpraise": 6486,
    "under": 3130,
    "bert": 4662,
    "behaved": 24463,
    "Ġlam": 21546,
    "Ġgrasshopper": 24380,
    "Ġrural": 21967,
    "dil": 11478,
    "Ġshrouded": 14968,
    "Ġesteemed": 10588,
    "Ġclusters": 25232,
    "Ġvalid": 1766,
    "secur": 18126,
    "surface": 10530,
    "Ġtech": 1663,
    "Ġconj": 8460,
    "Ġstern": 4220,
    "appre": 14369,
    "Ġdishonoured": 20389,
    "relative": 24010,
    "Ġgaff": 17993,
    "Ġexpired": 18622,
    "bingleys": 19633,
    "Ġenh": 3206,
    "mews": 22703,
    "inioned": 19285,
    "Ġswamp": 14435,
    "Ġwindsor": 16887,
    "haz": 17564,
    "apart": 15959,
    "Ġdemoniacal": 20555,
    "truck": 15440,
    "result": 12042,
    "Ġantics": 24178,
    "stra": 4044,
    "prejud": 11794,
    "congenial": 25399,
    "looks": 12016,
    "precision": 4331,
    "Ġxxx": 7766,
    "Ġdecomposes": 5506,
    "Ġbashful": 20418,
    "Ġstream": 5186,
    "Ġactions": 6278,
    "Ġlazy": 17050,
    "Ġdetest": 8500,
    "historian": 25735,
    "Ġlondon": 2839,
    "particip": 23615,
    "Ġhove": 17922,
    "ible": 1114,
    "Ġindividual": 5744,
    "í": 174,
    "Ġcoincid": 20316,
    "Ġdocumentation": 20553,
    "Ġ68": 24370,
    "Ġsubsequent": 7659,
    "satisfied": 10578,
    "Ġfierceness": 26264,
    "Ġinvolved": 8922,
    "Ġthing": 1640,
    "Ġlimited": 23541,
    "renched": 7906,
    "suspected": 12370,
    "ez": 5683,
    "Ġraving": 16112,
    "Ġreminisc": 18725,
    "idol": 21763,
    "Ġprior": 11318,
    "bless": 22309,
    "Ġconsult": 6056,
    "Ġric": 18209,
    "science": 11907,
    "Ġvalues": 2650,
    "Ġunivers": 2124,
    "seem": 10227,
    "Ġconciliating": 19045,
    "gave": 7799,
    "night": 2166,
    "Ġattach": 14292,
    "Ġaffectation": 14440,
    "ipp": 10102,
    "ivil": 6411,
    "Ġvindict": 13604,
    "awing": 18915,
    "Ġhinges": 15211,
    "adow": 18087,
    "Ġparting": 9782,
    "twilight": 23698,
    "Ġconsecut": 18111,
    "broken": 8020,
    "Ġcanted": 17831,
    "aint": 2542,
    "Ġextort": 22744,
    "Ġboard": 3383,
    "Ġlowers": 23241,
    "Ġlaws": 8002,
    "Ġrendering": 16657,
    "Ġbennets": 9805,
    "Ġboarding": 12084,
    "ulnerable": 18150,
    "rop": 541,
    "Ġbarbed": 14834,
    "Ġeyeing": 6460,
    "left": 6975,
    "Ġfuel": 13903,
    "Ġresolutely": 14609,
    "Ġsensitivity": 3067,
    "Ġexposure": 16094,
    "Ġconducted": 10502,
    "Ġexperienced": 6582,
    "acher": 6868,
    "Ġreaders": 18914,
    "tipt": 25083,
    "animate": 12574,
    "gazing": 12469,
    "Ġpeels": 22688,
    "Ġgraze": 18226,
    "humoredly": 26324,
    "Ġobstinacy": 17420,
    "Ġaugmented": 15104,
    "shudder": 26245,
    "Ġcrony": 23439,
    "Ġsmith": 16062,
    "chors": 11643,
    "Ġfra": 1719,
    "cher": 5786,
    "Ġseventh": 18204,
    "Ġhereford": 22873,
    "Ġsuicide": 12784,
    "copper": 19188,
    "Ġlips": 3991,
    "brimming": 23575,
    "ivory": 10268,
    "quee": 4128,
    "aling": 1035,
    "Ġrevealing": 3925,
    "Ġpast": 2098,
    "Ġdiagon": 24740,
    "Ġprovidence": 18745,
    "Ġobstructed": 24677,
    "itarian": 21335,
    "Ġabstra": 22268,
    "ome": 536,
    "Ġreason": 1365,
    "Ġferocity": 16866,
    "ugal": 19022,
    "Ġreclining": 26033,
    "emason": 18181,
    "urning": 12913,
    "Ġmyst": 4049,
    "arman": 11594,
    "Ġloop": 14146,
    "hero": 21203,
    "Ġsnodhead": 19300,
    "Ġconclude": 8580,
    "Ġshank": 21994,
    "Ġscotch": 12207,
    "Ġannouncement": 14832,
    "Ġcourting": 23289,
    "Ġlumber": 13951,
    "alarmed": 21500,
    "Ġwantest": 18789,
    "Ġcosmopolitan": 20640,
    "-": 17,
    "Ġimmedi": 2903,
    "Ġnum": 1346,
    "Ġgrease": 26189,
    "reeling": 21243,
    "Ġemploying": 23975,
    "wretchedness": 17252,
    "Ġmod": 495,
    "Ġseventeen": 26210,
    "repugnance": 16864,
    "Ġbounded": 16626,
    "window": 7742,
    "rics": 13034,
    "Ġforemast": 12004,
    "Ġattic": 16096,
    "ception": 6562,
    "Ġgroan": 13323,
    "skirted": 24489,
    "olog": 1102,
    "Ġpapa": 10656,
    "mpt": 6653,
    "raved": 18012,
    "Ġliber": 5168,
    "Ġlinked": 15076,
    "regards": 23465,
    "cess": 540,
    "mus": 10110,
    "Ġsatur": 1931,
    "Ġoccup": 3739,
    "Ġtwee": 22672,
    "Ġphilist": 16601,
    "cri": 17505,
    "Ġhome": 2029,
    "Ġtufted": 17014,
    "icip": 6389,
    "Ġmadden": 10447,
    "Ġvent": 3997,
    "arrow": 4176,
    "Ġwreck": 7314,
    "Ġfiercely": 12949,
    "bulkington": 19924,
    "Ġ120": 16858,
    "Ġdespaired": 14668,
    "irene": 15914,
    "Ġalbertus": 25648,
    "irresist": 21909,
    "us": 532,
    "hand": 2758,
    "Ġcoopman": 25827,
    "Ġconse": 21801,
    "Ġlambton": 10657,
    "absolutely": 10645,
    "ruction": 4357,
    "Ġp": 288,
    "Ġpeddler": 24800,
    "Ġappar": 7411,
    "lets": 7836,
    "Ġdirections": 1971,
    "quet": 6835,
    "imp": 3027,
    "ulations": 6028,
    "neighbour": 7211,
    "frank": 7757,
    "Ġwoes": 23983,
    "Ġlug": 15649,
    "Ġcap": 2361,
    "Ġgills": 17992,
    "xible": 13807,
    "Ġadvers": 4887,
    "ceiling": 21624,
    "Ġassume": 10515,
    "Ġashore": 5351,
    "Ġfeigned": 22204,
    "Ġdeity": 18134,
    "Ġcopies": 24935,
    "abling": 1079,
    "Ġtranslations": 12050,
    "Ġinattention": 17931,
    "wheeler": 16186,
    "Ġsymptoms": 8704,
    "Ġcontributed": 16007,
    "emic": 18179,
    "Ġfaultless": 24540,
    "apsed": 6295,
    "Ġimper": 4501,
    "fright": 9595,
    "uncommon": 11680,
    "Ġaromatic": 25925,
    "Ġglist": 9344,
    "Ġregarded": 5762,
    "ugn": 9377,
    "Ġprojects": 9510,
    "Ġstray": 18072,
    "Ġregard": 3064,
    "Ġridges": 16731,
    "eling": 6681,
    "Ġhelped": 7459,
    "cannon": 22959,
    "Ġsiber": 17755,
    "Ġbroiled": 18908,
    "Ġcultiv": 13555,
    "Ġshrew": 21997,
    "Ġstru": 2168,
    "Ġbodies": 8031,
    "Ġsignificance": 13279,
    "mou": 10708,
    "Ġsurface": 5119,
    "Ġhosmer": 6774,
    "hoisted": 19281,
    "Ġmaterial": 5178,
    "Ġcreditable": 19621,
    "also": 7850,
    "Ġfury": 7661,
    "robber": 21534,
    "Ġcentaurs": 23829,
    "william": 4561,
    "Ġdesperado": 19818,
    "Ġmask": 1866,
    "Ġshyness": 20305,
    "ophisticated": 22467,
    "announcement": 24562,
    "Ġsoldiers": 8686,
    "Ġ46": 19489,
    "Ġwearing": 12736,
    "Ġoct": 10158,
    "Ġnapole": 15114,
    "ivity": 1655,
    "incident": 14591,
    "Ġfilled": 4393,
    "fishermen": 17062,
    "Ġsuccessfully": 19427,
    "Ġcurric": 22967,
    "Ġmoritz": 11904,
    "Ġmouse": 4693,
    "Ġwig": 9161,
    "rin": 10121,
    "Ġpolite": 9881,
    "Ġresolving": 9418,
    "Ġwallowed": 24039,
    "arken": 18666,
    "security": 26206,
    "Ġmand": 21303,
    "Ġscrupulous": 20067,
    "Ġcompliance": 12112,
    "Ġpretended": 19312,
    "Ġflurry": 18860,
    "Ġreign": 13984,
    "ains": 5094,
    "Ġfervour": 19725,
    "æ": 167,
    "ology": 1612,
    "resent": 10769,
    "Ġspite": 4153,
    "Ġcontempl": 6701,
    "Ġbay": 9168,
    "Ġending": 18189,
    "bingley": 4927,
    "Ġmeditative": 25014,
    "bab": 11468,
    "Ġrelease": 19289,
    "Ġlapse": 17120,
    "Ġabundantly": 17156,
    "Ġelemental": 19918,
    "oment": 921,
    "Ġexpansion": 22621,
    "oton": 3606,
    "infl": 15486,
    "Ġbodings": 21389,
    "_?âĢĿ": 15304,
    "Ġbaff": 10799,
    "dismal": 23495,
    "gans": 11489,
    "Ġindel": 13001,
    "Ġadv": 1133,
    "que": 1134,
    "Ġfive": 2836,
    "Ġtruth": 3319,
    "nson": 16086,
    "assistant": 25567,
    "Ġtrowsers": 9627,
    "Ġindia": 10370,
    "icking": 8910,
    "Ġrevelry": 15135,
    "Ġdissect": 16050,
    "writer": 14648,
    "Ġroarings": 25301,
    "ks": 3143,
    "Ġsprung": 11248,
    "aset": 10832,
    "bergs": 18682,
    "Ġdanes": 25156,
    "Ġdisquis": 22524,
    "Ġaust": 4871,
    "Ġshop": 9251,
    "Ġtiar": 21166,
    "ethe": 9676,
    "Ġunlabeled": 3799,
    "Ġdepth": 2439,
    "Ġjoking": 12834,
    "Ġbeginning": 4240,
    "Ġcryst": 9916,
    "Ġbriony": 9328,
    "emph": 21923,
    "Ġimpatient": 5603,
    "ounder": 11742,
    "Ġretrogression": 26581,
    "Ġmultitud": 18746,
    "amount": 10884,
    "Ġded": 2410,
    "Ġoldest": 12970,
    "Ġyelling": 18096,
    "Ġconfided": 19035,
    "Ġjoker": 22295,
    "Ġintimate": 6549,
    "dwell": 15340,
    "Ġragged": 11844,
    "walls": 25345,
    "Ġremonstrance": 20621,
    "Ġcarrying": 6071,
    "Ġprey": 6415,
    "adventure": 17233,
    "Ġmarked": 4619,
    "py": 17624,
    "Ġsolving": 2484,
    "oquence": 11386,
    "Ġunembarrassed": 22064,
    "!âĢĿ": 846,
    "oled": 17619,
    "arthur": 14829,
    "Ġreusability": 13557,
    "Ġimpassable": 20611,
    "nel": 11504,
    "Ġdefine": 9814,
    "sle": 9138,
    "Ġbowed": 6242,
    "Ġboun": 21378,
    "Ġexhaust": 6399,
    "Ġcarried": 3693,
    "Ġyou": 366,
    "Ġunderneath": 16336,
    "Ġcrazed": 19174,
    "Ġdecisive": 18485,
    "Ġprobability": 1125,
    "Ġincident": 6280,
    "Ġreversed": 15694,
    "ades": 5631,
    "Ġpolitely": 8993,
    "daugh": 6788,
    "Ġunwillingness": 20030,
    "e": 73,
    "Ġcountryside": 23595,
    "Ġark": 10275,
    "lie": 12480,
    "Ġseveral": 2673,
    "Ġsideboard": 10385,
    "Ġcreativity": 2943,
    "ural": 507,
    "Ġswell": 8949,
    "gratulation": 24349,
    "Ġanimate": 23421,
    "Ġhertfordshire": 5377,
    "Ġcaul": 10787,
    "div": 8075,
    "Ġexamine": 7734,
    "commun": 15033,
    "lim": 9606,
    "Ġexpedition": 10634,
    "Ġwitt": 17783,
    "prospect": 23394,
    "Ġirresolution": 24915,
    "Ġpoltroon": 26598,
    "Ġpa": 2985,
    "Ġaway": 1242,
    "Ġunacquainted": 12773,
    "Ġsque": 18755,
    "consideration": 14954,
    "Ġjurors": 17343,
    "Ġhiss": 15785,
    "Ġkneel": 14805,
    "Ġforbear": 17121,
    "saddest": 25527,
    "Ġz": 997,
    "Ġprophecy": 25706,
    "Ġ270": 25130,
    "englishman": 23673,
    "Ġbasin": 19847,
    "Ġentra": 18693,
    "signed": 21060,
    "Ġringing": 13330,
    "Ġbubblingly": 25632,
    "Ġimproved": 7657,
    "ondency": 15268,
    "partiality": 13159,
    "actions": 8906,
    "mindful": 19598,
    "Ġinfidel": 13087,
    "centred": 25017,
    "Ġfaire": 13363,
    "benefact": 24641,
    "igh": 2030,
    "Ġresp": 2495,
    "Ġevents": 4471,
    "jee": 17579,
    "Ġfolding": 19726,
    "Ġcontemptuous": 24676,
    "Ġthousand": 2783,
    "since": 5894,
    "cano": 18838,
    "Ġtelescope": 17347,
    "Ġgrampus": 21990,
    "germ": 15355,
    "Ġfootsteps": 16572,
    "raid": 3278,
    "Ġclamped": 18426,
    "Ġreveal": 11199,
    "pense": 10368,
    "Ġunite": 9253,
    "Ġtrappings": 23080,
    "Ġincidentally": 16954,
    "Ġvict": 3762,
    "attachment": 13049,
    "minutely": 19592,
    "march": 13754,
    "concerted": 16671,
    "Ġpossess": 3200,
    "Ġoutweigh": 22320,
    "love": 9293,
    "fair": 10092,
    "fears": 18532,
    "Ġweapons": 10593,
    "Ġexactness": 23603,
    "Ġmutiny": 13258,
    "Ġmaintenance": 17461,
    "horses": 17567,
    "Ġderived": 8238,
    "Ġtroop": 24897,
    "Ġembodied": 25848,
    "Ġtrials": 16789,
    "Ġaudio": 24772,
    "Ġsystematically": 3911,
    "Ġblocked": 19222,
    "Ġdashes": 21432,
    "Ġmoccas": 22431,
    "Ġseventy": 7877,
    "Ġbags": 24537,
    "Ġx": 2073,
    "ultaneously": 4189,
    "Ġsympathised": 14861,
    "Ġgazing": 5875,
    "Ġdirectors": 18921,
    "ac": 742,
    "Ġfootfall": 14661,
    "Ġprovision": 14824,
    "Ġstones": 9223,
    "lock": 1471,
    "Ġperpendicular": 7209,
    "Ġunsav": 18251,
    "Ġ22": 8278,
    "Ġberg": 24536,
    "score": 18855,
    "Ġcursed": 6726,
    "commencement": 26347,
    "Ġtraveller": 8048,
    "sk": 5521,
    "castles": 14636,
    "âĢĶ": 517,
    "Ġapparent": 5466,
    "Ġhorizontal": 7782,
    "Ġsiberia": 26161,
    "Ġplucked": 15112,
    "¬": 110,
    "hunter": 10555,
    "Ġfarther": 5954,
    "Ġexasperate": 20096,
    "question": 5418,
    "Ġsurpass": 13582,
    "boxes": 16888,
    "Ġfiends": 14827,
    "fatigue": 20657,
    "prehensible": 12358,
    "enthus": 17977,
    "Ġreel": 9213,
    "toller": 20671,
    "appalling": 22840,
    "mistress": 14904,
    "wered": 2690,
    "Ġadds": 1805,
    "Ġhuge": 4699,
    "lemency": 21372,
    "chosen": 21692,
    "Ġrails": 22651,
    "favour": 9548,
    "dare": 12451,
    "Ġwashing": 9704,
    "librarian": 26568,
    "discovered": 8324,
    "Ġaint": 17744,
    "brave": 19822,
    "?âĢĿ": 700,
    "unct": 18154,
    ",âĢĶâĢľ": 10069,
    "Ġdisappeared": 5645,
    "Ġproverb": 12713,
    "wear": 22680,
    "inching": 21188,
    "takes": 21074,
    "Ġcounterbalance": 24722,
    "blood": 7779,
    "Ġretreat": 6069,
    "Ġroy": 4225,
    "Ġlawyers": 25248,
    "Ġrestrict": 16372,
    "<SOS>": 1,
    "revolver": 25627,
    "consid": 4924,
    "upset": 23016,
    "Ġyarn": 10868,
    "Ġeve": 13969,
    "teak": 22812,
    "ipotent": 10959,
    "avings": 12021,
    "ccarthy": 4888,
    "owal": 13992,
    "Ġembod": 14418,
    "last": 3802,
    "Ġwritten": 4165,
    "Ġrecorded": 11293,
    "Ġbrill": 8548,
    "exact": 7909,
    "Ġhar": 5814,
    "Ġmourning": 13477,
    "Ġpossessions": 23821,
    "Ġimpropri": 14216,
    "embraced": 25804,
    "iece": 3226,
    "Ġdisappo": 4505,
    "professional": 20274,
    "igger": 21698,
    "ubbub": 23243,
    "Ġassure": 4417,
    "Ġbespeaking": 26310,
    "Ġkrusenstern": 26377,
    "secure": 12233,
    "Ġpunishment": 9955,
    "inkling": 16088,
    "Ġbush": 23335,
    "entering": 17976,
    "ops": 5247,
    "Ġafrica": 12343,
    "Ġhushed": 13924,
    "Ġanecdote": 26354,
    "Ġcried": 1487,
    "Ġhat": 2773,
    "Ġopinion": 3140,
    "hel": 4814,
    "Ġcongreg": 8462,
    "offer": 19060,
    "unable": 14058,
    "Ġtransom": 22435,
    "Ġwounding": 19585,
    "dis": 2250,
    "Ġconsiderations": 9409,
    "wrinkles": 16555,
    "Ġodds": 13328,
    "Ġhomeward": 9391,
    "orange": 21398,
    "Ġbeaut": 2392,
    "Ġprosecut": 9697,
    "ulpt": 10885,
    "gold": 9120,
    "Ġhovering": 10178,
    "Ġthoroughly": 8347,
    "Ġpreacher": 18369,
    "swimming": 24258,
    "Ġanecd": 20153,
    "Ġoffend": 16143,
    "welcomed": 24644,
    "deployment": 26527,
    "mightily": 24101,
    "Ġastern": 6090,
    "Ġlog": 1681,
    "anything": 5518,
    "pul": 8753,
    "outon": 12800,
    "attendants": 25495,
    "Ġpondered": 15165,
    "Ġ**": 4720,
    "ar": 285,
    "function": 4796,
    "Ġdiminishing": 4205,
    "seas": 14032,
    "Ġwings": 9163,
    "Ġtransportation": 13641,
    "Ġfullest": 14812,
    "airing": 16172,
    "heum": 17747,
    "Ġpertin": 18449,
    "disc": 4728,
    "Ġaccurately": 4244,
    "Ġ79": 24264,
    "cousins": 20116,
    "Ġhemisphere": 26478,
    "two": 3858,
    "Ġextremely": 2669,
    "Ġthere": 564,
    "Ġcounsel": 13614,
    "greater": 13250,
    "ature": 518,
    "Ġunfolding": 17086,
    "azore": 23461,
    "Ġinterpretation": 19715,
    "Ġstarbuck": 2194,
    "Ġunsophisticated": 25992,
    "neath": 12863,
    "Ġstaves": 21740,
    "step": 2458,
    "Ġinterment": 22571,
    "Ġgenus": 24429,
    "Ġdisenc": 22523,
    "Ġrequisition": 22647,
    "Ġremote": 8919,
    "ă": 196,
    "acy": 3954,
    "unimportant": 18159,
    "83": 13679,
    "Ġpurporting": 19181,
    "Ġmeans": 699,
    "Ġtumbling": 13825,
    "Ġvishnoo": 12750,
    "noticed": 14340,
    "Ġsat": 1131,
    "Ġprove": 5231,
    "Ġmonoman": 7938,
    "broker": 13303,
    "Ġinnocence": 6477,
    "Ġbackbones": 22658,
    "Ġirrad": 19093,
    "Ġfitly": 23996,
    "landsmen": 25059,
    "Ġpaunch": 23747,
    "Ġspeechless": 13352,
    "Ġplainly": 4380,
    "itan": 10159,
    "geneva": 13729,
    "pad": 13767,
    "meet": 11854,
    "superior": 9524,
    "leful": 17842,
    "abhor": 12704,
    "Ġgout": 21593,
    "Ġaddress": 2272,
    "og": 872,
    "Ġhardship": 18913,
    "gentlemanlike": 20000,
    "Ġvesu": 21946,
    "unned": 21875,
    "look": 2261,
    "scenes": 16243,
    "Ġtrepidation": 19215,
    "69": 17474,
    "Ġservox": 23868,
    "Ġcordage": 19677,
    "Ġarist": 14159,
    "Ġunaccountable": 7886,
    "noted": 22747,
    "Ġrepast": 16408,
    "Ġfossil": 12385,
    "Ġpreviously": 3920,
    "Ġtalk": 1970,
    "Ġabominable": 12320,
    "Ġrelevant": 1864,
    "suggested": 17298,
    "ē": 212,
    "sar": 12502,
    "sur": 4522,
    "congreg": 25398,
    "Ġleader": 14701,
    "Ġgirls": 4278,
    "Ġmonkey": 8226,
    "marching": 25752,
    "orate": 10800,
    "Ġheaths": 25972,
    "finger": 10093,
    "Ġunpardonable": 22057,
    "Ġauxiliary": 26418,
    "Ġcyl": 15554,
    "Ġpreternatural": 12820,
    "Ġvainly": 9923,
    "iosity": 2290,
    "Ġanchors": 12610,
    "scorched": 25697,
    "Ġlingering": 11379,
    "elter": 21568,
    "Ġviii": 16411,
    "dogs": 25402,
    "Ġanno": 9667,
    "Ġpilgrimage": 17307,
    "Ġfork": 15729,
    "Ġchoke": 22246,
    "Ġcovers": 18590,
    "athed": 7828,
    "Ġdowncast": 18651,
    "Ġblaze": 16218,
    "Ġsufferer": 16257,
    "Ġfirmly": 8013,
    "Ġleft": 1761,
    "anatory": 21361,
    "Ġproceeding": 9905,
    "Ġpretensions": 16558,
    "Ġpemberley": 4588,
    "Ġloses": 15871,
    "condite": 23246,
    "sulphur": 25909,
    "bon": 13683,
    "Ġcontextual": 3742,
    "erative": 21271,
    "da": 17514,
    "Ġpsal": 15613,
    "longing": 23724,
    "Ġwhirled": 14959,
    "alling": 6036,
    "somers": 19366,
    "Ġcargo": 16288,
    "agger": 7871,
    "iled": 1765,
    "Ġalarming": 14778,
    "miss": 3171,
    "Ġfountain": 7365,
    "Ġtranquillize": 24757,
    "Ġplunge": 13442,
    "height": 21204,
    "days": 7688,
    "paradise": 20636,
    "Ġflattered": 10374,
    "Ġsmaller": 1884,
    "Ġerror": 1767,
    "Ġlbs": 11614,
    "wife": 8100,
    "000": 2562,
    "Ġreigns": 21668,
    "Ġshaded": 14104,
    "rid": 5137,
    "Ġbag": 5699,
    "Ġfacial": 10605,
    "Ġbreach": 11972,
    "Ġpatience": 3119,
    "species": 13255,
    "Ġintention": 5638,
    "Ġblast": 7445,
    "Ġearned": 19403,
    "Ġtalking": 3856,
    "Ġclearly": 6897,
    "mmed": 7913,
    "Ġple": 1470,
    "Ġah": 5075,
    "Ġsupre": 10269,
    "Ġpaddles": 15146,
    "olets": 21007,
    "Ġmalice": 7152,
    "Ġpropri": 6738,
    "Ġinterposed": 20617,
    "Ġcellar": 8058,
    "Ġindefatigable": 17177,
    "Ġbeloved": 5572,
    "Ġdisembow": 22534,
    "âĢľâĢĻ": 10221,
    "Ġrefusal": 10344,
    "gaff": 20881,
    "humanity": 24839,
    "Ġimpenitent": 26548,
    "igations": 18043,
    "ension": 6569,
    "Ġcommission": 6712,
    "Ġsailor": 3533,
    "Ġconclusion": 5985,
    "excepting": 19705,
    "Ġequally": 5257,
    "Ġhumane": 11882,
    "lob": 22504,
    "aft": 9583,
    "Ġconsol": 3814,
    "Ġaltering": 18102,
    "mccarthy": 15394,
    "Ġwhispers": 14699,
    "Ġamsterdam": 22482,
    "footed": 19688,
    "Ġstanzas": 21744,
    "Ġnimble": 21525,
    "Ġdetails": 6565,
    "amed": 4446,
    "Ġdisagreeable": 9297,
    "appointment": 24056,
    "Ġtestified": 16337,
    "Ġsched": 2337,
    "sou": 12503,
    "Ġlig": 21545,
    "footsteps": 25199,
    "jack": 7344,
    "man": 1054,
    "Ġconcealing": 23900,
    "Ġspanish": 2828,
    "Ġparcel": 15198,
    "Ġslippery": 12164,
    "resembling": 25932,
    "Ġamiss": 18511,
    "Ġstrait": 23748,
    "Ġcongratulatory": 19766,
    "opposing": 24825,
    "Ġpresented": 5183,
    "wont": 21131,
    "Ġillustrative": 25066,
    "ĠâĢĶâĢľ_": 17718,
    "Ġaisle": 21200,
    "W": 59,
    "culous": 11140,
    "estation": 15920,
    "Ġconclusions": 10553,
    "orph": 21397,
    "Ġinduced": 8670,
    "Ġjoosy": 23630,
    "Ġaimed": 20249,
    "Ġcareer": 11118,
    "Ġrepresent": 1212,
    "Ġquadru": 16002,
    "oked": 4307,
    "Ġmapple": 11150,
    "suspicious": 25390,
    "Ġstarvation": 19790,
    "ativeness": 15519,
    "Ġclaw": 22347,
    "Ġsqu": 1037,
    "fur": 6355,
    "Ġomn": 8409,
    "Ġsquaring": 22835,
    "asons": 6014,
    "Ġstarts": 16582,
    "Ġstout": 6024,
    "Ġsatirical": 26279,
    "Ġjonas": 20608,
    "Ġunfathom": 14788,
    "Ġdocument": 15018,
    "Ġdim": 4756,
    "fixed": 7549,
    "Ġsincerity": 13677,
    "lust": 15378,
    "Ġcourt": 4166,
    "diff": 9113,
    "Ġslim": 18936,
    "communication": 25881,
    "disgu": 19153,
    "watch": 6118,
    "Ġpond": 13915,
    "screen": 22993,
    "lion": 20943,
    "Ġconsists": 11976,
    "Ġcommence": 6167,
    "Ġteasing": 11888,
    "etition": 7382,
    "flour": 23963,
    "Ġsearching": 13161,
    "iss": 2175,
    "irwin": 8468,
    "clut": 23147,
    "Ġcharming": 6628,
    "metals": 24766,
    "otent": 8831,
    "Ġsubur": 12953,
    "Ġloomings": 24949,
    "wait": 11320,
    "Ġgrown": 5628,
    "Ġroared": 7023,
    "ntax": 933,
    "Ġexclusiveness": 23924,
    "Ġtrip": 16788,
    "aloes": 21499,
    "ourably": 14376,
    "ols": 2412,
    "Ġadvocate": 13675,
    "Ġbund": 17863,
    "Ġdiscerned": 25003,
    "Ġspasmodic": 20396,
    "Ġfestival": 25445,
    "bildad": 9586,
    "Ġrampart": 20317,
    "Ġvisiting": 10360,
    "Ġsandwiched": 26610,
    "Ġblackness": 9392,
    "Ġoscill": 2856,
    "danced": 20827,
    "ole": 9613,
    "Ġarmitage": 23580,
    "australian": 20560,
    "Ġaustralia": 15231,
    "Ġfattened": 25949,
    "acetty": 24464,
    "Ġintentionally": 24523,
    "Ġdost": 7637,
    "odd": 21808,
    "clusion": 16303,
    "Ġlim": 2380,
    "Ġreligion": 11415,
    "ity": 417,
    "Ġneither": 3686,
    "vable": 10132,
    "Ġreliable": 18775,
    "shells": 26056,
    "Ġtistig": 26413,
    "Ġfishe": 15583,
    "penetrate": 20323,
    "Ġsecretary": 19440,
    "Ġaggregated": 25678,
    "Ġwhirlwinds": 20463,
    "Ġbaronial": 23791,
    "deser": 10402,
    "Ġsought": 5010,
    "Ġspoon": 22131,
    "Ġwits": 15530,
    "initions": 21186,
    "Ġstructure": 854,
    "inced": 3335,
    "atisf": 21262,
    "gather": 20874,
    "perth": 22177,
    "experienced": 15120,
    "Ġmend": 8405,
    "laughing": 15178,
    "returning": 12203,
    "Ġpaddington": 17095,
    "Ġnewspapers": 17186,
    "umbled": 8492,
    "Ġkrempe": 10669,
    "Ġchal": 18378,
    "befriend": 22489,
    "Ġwrongfully": 24248,
    "aled": 3944,
    "iant": 5427,
    "Ġsubsisting": 23433,
    "word": 2489,
    "continuance": 19717,
    "concl": 12868,
    "izure": 21838,
    "Ġfanned": 19099,
    "Ġate": 8839,
    "Ġcogn": 11002,
    "inkle": 22611,
    "disreputable": 23501,
    "Ġabrupt": 9735,
    "succeeded": 15174,
    "ogue": 9785,
    "Ġplanet": 14749,
    "etymology": 14700,
    "fates": 20857,
    "Ġ112": 24437,
    "Ġliberties": 19666,
    "Ġimprecations": 25820,
    "Ġdesperate": 7776,
    "Ġguardsmen": 20629,
    "lengthwise": 19948,
    "Ġ130": 24781,
    "Ġcables": 15555,
    "Ġinquir": 4239,
    "Ġthinner": 24182,
    "Ġprairies": 20019,
    "hester": 9631,
    "onder": 3778,
    "Ġcorpulence": 24509,
    "Ġreced": 15689,
    "Ġderanged": 23170,
    "problem": 25244,
    "bbed": 6910,
    "Ġmusk": 7495,
    "Ġcomp": 723,
    "Ġconcern": 2655,
    "Ġhotels": 19535,
    "Ġwild": 2602,
    "Ġpropontis": 17465,
    "Ġinhaled": 25451,
    "dra": 3413,
    "ong": 537,
    "Ġbow": 3057,
    "Ġungrateful": 14120,
    "ertion": 12037,
    "Ġagrippa": 11805,
    "directed": 20403,
    "cold": 9589,
    "conf": 4957,
    "Ġwhiskers": 10492,
    "Ġapologize": 15127,
    "scept": 21052,
    "Ġsaturn": 22898,
    "Ġpea": 14316,
    "Ġremarkable": 4915,
    "Ġhonoured": 9880,
    "pening": 2832,
    "almost": 4943,
    "Ġhumanity": 6731,
    "Ġpeaceable": 14722,
    "reated": 10302,
    "Ġexhibit": 14955,
    "Ġresc": 4506,
    "Ġseemed": 1278,
    "cong": 10687,
    "oran": 8788,
    "admire": 24943,
    "kinson": 10025,
    "Ġbristling": 20525,
    "Ġlizzy": 3544,
    "Ġsloop": 25930,
    "eyeing": 14945,
    "Ġgiver": 21602,
    "hound": 20894,
    "mother": 5480,
    "salis": 25147,
    "ities": 1826,
    "Ġidentical": 10434,
    "Ġbringing": 5869,
    "stays": 15685,
    "feeling": 6616,
    "Ġascertaining": 17203,
    "estic": 4956,
    "Ġbrilliant": 11414,
    "Ġjeopard": 9942,
    "advantage": 8658,
    "Ġinjuring": 24268,
    "otted": 14023,
    "ray": 2438,
    "Ġelev": 5536,
    "tempted": 26403,
    "Ġappears": 5402,
    "Ġlinear": 3432,
    "train": 2035,
    "felicity": 25140,
    "Ġimp": 581,
    "Ġgrasping": 12163,
    "Ġirreduc": 5491,
    "Ġclump": 15966,
    "Ġuncont": 14115,
    "nurse": 15207,
    "Ġpursued": 6328,
    "ilar": 10215,
    "Ġchall": 10944,
    "Ġcongen": 10873,
    "Ġentrance": 7233,
    "Ġsubsets": 2345,
    "Ġnigh": 4878,
    "Ġwindward": 6885,
    "nament": 11506,
    "Ġcomment": 9232,
    "Ġrehearsed": 25971,
    "wat": 6231,
    "Ġnursing": 12212,
    "Ġimagined": 8606,
    "Ġquarrelling": 13498,
    "iscuit": 10598,
    "Ġkink": 22190,
    "Ġobed": 8535,
    "zed": 8103,
    "Ġalpine": 18105,
    "abiding": 21790,
    "www": 17251,
    "raise": 18011,
    "Ġfinished": 5044,
    "fate": 17539,
    "§": 105,
    "Ġpatriot": 23326,
    "Ġlens": 8437,
    "gging": 7697,
    "Ġimmeasurable": 26230,
    "dings": 2212,
    "Ġladder": 8597,
    "palms": 25262,
    "hack": 20895,
    "muring": 17601,
    "oe": 7553,
    "Ġimpute": 18332,
    "rict": 8092,
    "Ġword": 1053,
    "Ġsund": 8248,
    "Ġbushes": 16398,
    "presently": 9808,
    "Ġpreceded": 13427,
    "Ġoctavo": 15162,
    "Ġsuperstition": 15054,
    "delirium": 14783,
    "bran": 23572,
    "Ġspan": 11726,
    "Ġpersuas": 23944,
    "Ġribbons": 24329,
    "Ġamid": 4959,
    "omically": 13979,
    "Ġhey": 11640,
    "Ġperceiving": 8875,
    "Ġradiant": 16809,
    "closed": 23150,
    "jephro": 26392,
    "Ġtattooing": 15027,
    "finish": 24384,
    "Ġtot": 4182,
    "featured": 24169,
    "Ġindex": 17049,
    "ashions": 16416,
    "aps": 1229,
    "Ġunlock": 18243,
    "Ĝ": 221,
    "Ġconducting": 16649,
    "Ġtongue": 6347,
    "Ġcharles": 11955,
    "miraculous": 26396,
    "Ġwrists": 11113,
    "Ġincrease": 9369,
    "vill": 10735,
    "transformer": 25015,
    "yes": 984,
    "Ġcomprehending": 24445,
    "Ġcomprise": 18583,
    "unhes": 21872,
    "Ġbristol": 14379,
    "according": 12026,
    "cket": 3687,
    "Ġdismissed": 12889,
    "oblig": 16289,
    "severe": 21816,
    "Ġbos": 4875,
    "Ġlot": 6678,
    "wic": 21119,
    "uy": 21098,
    "generous": 16568,
    "Ġregretted": 13399,
    "beholding": 16039,
    "came": 4570,
    "Ġdisappoint": 24205,
    "Ġlimping": 23542,
    "Ġbasis": 16961,
    "Ġoy": 15543,
    "unted": 6998,
    "Ġprestige": 22233,
    "Ġgrief": 4620,
    "Ġv": 399,
    "clouded": 20330,
    "Ġev": 4828,
    "Ġcelestial": 10066,
    "Ġcrabs": 19173,
    "grown": 10099,
    "Ġaccordingly": 6619,
    "nett": 16219,
    "Ġtides": 13820,
    "Ġtransparency": 10676,
    "reast": 17758,
    "Ġsleep": 2399,
    "cept": 556,
    "ulance": 15764,
    "Ġspikes": 22133,
    "tea": 18740,
    ")(": 2977,
    "Ġinsc": 7586,
    "Ġk": 484,
    "Ġundertone": 23236,
    "retired": 11934,
    "Ġslewed": 23383,
    "Ġwestmorland": 24390,
    "elly": 17979,
    "ascertaining": 26460,
    "Ġdeportment": 22594,
    "Ġresignation": 18566,
    "Ġmulti": 1043,
    "pans": 13769,
    "Ġostrich": 26430,
    "air": 1000,
    "Ġmurderer": 4980,
    "onze": 21254,
    "Ġanger": 5442,
    "Ġrole": 15993,
    "Ġassail": 13060,
    "Ġrachel": 11845,
    "judged": 14830,
    "osy": 11756,
    "Ġoverwhelming": 17102,
    "Ġlay": 584,
    "Ġfrig": 13079,
    "Ġdejected": 20303,
    "Ġmouldy": 14973,
    "Ġtreatment": 12069,
    "Ġdisregard": 22525,
    "umbrance": 22115,
    "stem": 567,
    "houses": 9599,
    "Ġune": 4598,
    "linging": 16076,
    "gins": 12466,
    "Ġdarting": 7756,
    "mixed": 15393,
    "Ġworld": 1599,
    "Ġthreshold": 2809,
    "Ġbullion": 24983,
    "Ġspade": 9258,
    "ra": 314,
    "Ġquitting": 7646,
    "Ġwretchedness": 9026,
    "gently": 13728,
    "division": 20047,
    "Ġpredestinated": 18516,
    "Ġgaol": 19566,
    "Ġdesolate": 10012,
    "Ġcomfits": 21856,
    "Ġweapon": 7775,
    "~": 98,
    "Ġinconceivable": 17937,
    "Ġaffidavit": 20723,
    "Ġbolivia": 24667,
    "Ġlamb": 8812,
    "Ġunobstructed": 18264,
    "comput": 2018,
    "qualified": 17098,
    "start": 7599,
    "Ġhurrying": 11993,
    "footman": 17162,
    "Ġauthent": 14505,
    "Ġmentioned": 4329,
    "Ġsynd": 22206,
    "com": 1002,
    "dham": 20829,
    "Ġvinegar": 20098,
    "Ġheightened": 8648,
    "Ġcommonly": 3262,
    "ially": 9246,
    "dl": 20822,
    "elizabeth": 1986,
    "Ġlizard": 12651,
    "spread": 8388,
    "Ġmeek": 21806,
    "Ġflushed": 13024,
    "dignity": 15344,
    "stout": 21636,
    "Ġspont": 22128,
    "Ġlinn": 13952,
    "Ġscientific": 6857,
    "dies": 15337,
    "Ġfrenzy": 13621,
    "madam": 24421,
    "Ġsore": 10764,
    "Ġrecognised": 8995,
    "Ġrevived": 11368,
    "papers": 12499,
    "Ġpropose": 9852,
    "Ġther": 17778,
    "Ġfamiliarity": 16729,
    "Ġunfair": 19506,
    "streamed": 25965,
    "Ġ1778": 25730,
    "Ġhos": 4942,
    "Ġcivilised": 24244,
    "Ġlabel": 14515,
    "libr": 22920,
    "Ġdi": 6525,
    "imble": 10858,
    "Ġhopkins": 23127,
    "Ġanim": 2112,
    "half": 4931,
    "Ġshiver": 12764,
    "Ġmaterially": 12189,
    "Ġchristmas": 6924,
    "Ġencounter": 6627,
    "Ġlurked": 11291,
    "abash": 18107,
    "Ġnantucket": 2838,
    "cho": 2761,
    "argue": 21442,
    "Ġchronicled": 25328,
    "Ġfancies": 10424,
    "@": 36,
    "Ġrelu": 1045,
    "uttering": 12659,
    "Ġpole": 6433,
    "ckles": 22091,
    "umbers": 10918,
    "web": 18663,
    "reluct": 26163,
    "wick": 5362,
    "Ġbidding": 9536,
    "Ġdevoutly": 25832,
    "Ġprovided": 6577,
    "Ġhed": 7387,
    "Ġmassac": 14735,
    "Ġsaith": 14155,
    "fifth": 20145,
    "Ġcool": 5734,
    "Ġtoiling": 15632,
    "acks": 11786,
    "Ġbales": 21387,
    "Ġblankets": 24611,
    "Ġbeautifully": 13265,
    "uble": 21101,
    "strugg": 21653,
    "Ġirrespective": 23373,
    "Ġprim": 8243,
    "Ġmagnanim": 14472,
    "print": 23808,
    "war": 6802,
    "Ġslew": 23381,
    "Ġfuss": 13904,
    "Ġburnwell": 13266,
    "neg": 12862,
    "Ġgamy": 17998,
    "Ġsubsiding": 23432,
    "Ġridiculous": 10629,
    "Ġhercules": 14127,
    "igned": 5656,
    "Ġpreyed": 18366,
    "osa": 22257,
    "Ġimpressed": 8198,
    "Ġwra": 5905,
    "slightest": 25416,
    "Ġsupernatural": 9872,
    "Ġcarpenters": 16752,
    "Ġtossed": 5815,
    "Ġinspirited": 23419,
    "quitted": 21848,
    "Ġmustering": 18661,
    "hetically": 21207,
    "igner": 21699,
    "Ġruminated": 24599,
    "Ġthrill": 24541,
    "invested": 17117,
    "ves": 695,
    "Ġindifferent": 6174,
    "ceptibly": 22357,
    "solitary": 14507,
    "Ġcripp": 9653,
    "Ġmeddle": 19490,
    "Ġtraced": 10383,
    "prairies": 20565,
    "Ġclank": 15965,
    "Ġmethods": 3157,
    "Ġstages": 14004,
    "odes": 18119,
    "ittle": 811,
    "Ġabsurd": 7202,
    "Ġthereof": 22365,
    "ture": 7559,
    "Ġmuttered": 7086,
    "Ġdull": 6384,
    "Ġtimorous": 24225,
    "resolution": 17766,
    "consider": 6348,
    "Ġsnarled": 25716,
    "fully": 2202,
    "Ġuncles": 23429,
    "elaborate": 21573,
    "thur": 7188,
    "Ġslaves": 23165,
    "Ġjohnson": 18409,
    "isen": 10792,
    "insula": 23064,
    "Ġmarlingspike": 26579,
    "higher": 20405,
    "facts": 19841,
    "absence": 12705,
    "Ġdistrusted": 13541,
    "complain": 14357,
    "Ġafar": 14293,
    "endous": 6850,
    "Ġcoarsely": 25828,
    "Ġastonished": 7087,
    "Ġdevices": 2938,
    "Ġexplored": 23515,
    "deceiving": 22141,
    "Ġowing": 6004,
    "ouder": 17900,
    "begged": 18520,
    "Ġunclasp": 26511,
    "Ġfidget": 15188,
    "Ġstum": 21731,
    "nets": 9132,
    "87": 20756,
    "asserted": 22306,
    "Ġscolded": 25472,
    "Ġfavoring": 2344,
    "Ġsalt": 8016,
    "ĠĠĠĠĠĠĠĠĠĠĠĠĠĠĠĠĠĠĠĠĠĠĠĠĠĠ": 13387,
    "interruption": 20110,
    "foam": 24418,
    "Ġeclips": 20695,
    "Ġdelightful": 6320,
    "comparatively": 25839,
    "Ġreject": 7386,
    "witted": 17707,
    "Ġbelongs": 8014,
    "Ġpromotion": 23191,
    "disgrace": 16457,
    "ĠĠĠĠĠĠĠĠĠĠĠĠĠĠĠĠĠĠĠĠĠĠ": 16225,
    "\\": 64,
    "Ġwavering": 23278,
    "cheered": 23803,
    "Ġhigher": 1820,
    "Ġgobern": 22420,
    "Ġsuccour": 20433,
    "Ġconvolutions": 21804,
    "Ġmock": 3691,
    "Ġnoblest": 13241,
    "ĠĠĠĠĠĠĠĠĠĠĠĠĠĠĠĠĠĠĠĠĠĠĠĠĠĠĠĠĠĠĠĠĠĠ": 14614,
    "sea": 4762,
    "Ġvoluntary": 14797,
    "vely": 3866,
    "anous": 21357,
    "Ġdined": 9176,
    "Ġmalicious": 10557,
    "Ġcrockery": 24301,
    "Ġinsists": 23674,
    "Ġlaying": 7907,
    "probable": 17021,
    "fired": 20859,
    "ft": 910,
    "robustness": 26338,
    "explain": 1481,
    "ast": 473,
    "nowledge": 10289,
    "Ġdepths": 4326,
    "Ġinquest": 16547,
    "Ġpropriety": 10009,
    "drugg": 20837,
    "Ġwoodlands": 23518,
    "Ġtelesc": 12991,
    "Ġattribute": 16098,
    "terday": 4704,
    "Ġsyllables": 25298,
    "Ġmaintained": 12931,
    "sensibility": 25023,
    "Ġmumbled": 17807,
    "Ġadmiration": 5328,
    "Ġregularly": 7658,
    "Ġpilgr": 12178,
    "cre": 4248,
    "cannibal": 15223,
    "Ġfootman": 8287,
    "Ġdelay": 5748,
    "herself": 4890,
    "Ġscrawled": 24580,
    "Ġgrunt": 18735,
    "Ġmonomania": 17085,
    "Ġtwitch": 22673,
    "Ġindecision": 25781,
    "Ġne": 391,
    "musical": 25340,
    "Ġpaws": 13920,
    "sex": 12710,
    "Ġdreading": 23796,
    "Ġarduous": 26529,
    "Ġnodding": 23333,
    "imprudent": 14651,
    "deception": 22142,
    "beneath": 9534,
    "cannib": 11900,
    "Ġtw": 841,
    "caus": 11476,
    "ints": 3417,
    "holes": 12052,
    "Ġfooting": 14482,
    "Ġadvoc": 12988,
    "Ġfitzwilliam": 5771,
    "Ġteased": 18803,
    "Ġcombat": 16188,
    "Ġaux": 21198,
    "inferiors": 25346,
    "Ġhull": 5446,
    "springs": 24911,
    "failed": 20862,
    "Ġplaying": 6909,
    "Ġcrisp": 12001,
    "Ġbalanced": 12986,
    "rell": 11563,
    "Ġfinny": 23124,
    "seals": 21815,
    "mean": 6438,
    "Ġperishing": 22393,
    "Ġgoal": 10301,
    "ral": 4627,
    "course": 6104,
    "Ġnook": 15926,
    "Ġrecept": 1522,
    "ospel": 17010,
    "intelligence": 5882,
    "Ġnominal": 15167,
    "Ġmanufactured": 22328,
    "Ġindulged": 13416,
    "bitious": 16669,
    "Ġornament": 11717,
    "Ġdiversion": 17197,
    "richard": 17286,
    "Ġfinest": 10391,
    "Ġthursday": 12641,
    "ould": 428,
    "abriel": 6950,
    "consist": 14814,
    "tling": 9142,
    "_),": 7125,
    "gle": 20868,
    "ckled": 9256,
    "monster": 8591,
    "jar": 17577,
    "Ġclerval": 4653,
    "thodox": 21985,
    "nearer": 22447,
    "pt": 388,
    "Ġtightly": 13533,
    "Ġclattering": 22351,
    "Ġbuckler": 24859,
    "Ġblock": 2576,
    "Ġsenses": 8251,
    "appears": 12058,
    "Ġpie": 13914,
    "dden": 1804,
    "apparat": 22841,
    "Ġexpression": 4515,
    "Ġmice": 13858,
    "Ġfollowing": 4061,
    "Ġdollar": 25283,
    "ĠĠĠĠĠĠĠĠĠĠĠĠĠĠĠĠĠĠĠĠĠĠĠ": 18831,
    "Ġbody": 2437,
    "cet": 15324,
    "Ġunconditional": 15842,
    "commission": 22820,
    "Ġlaurel": 20653,
    "Ġperplexity": 2756,
    "Ġmaid": 5285,
    "duct": 3504,
    "Ġund": 4117,
    "Ġpowers": 5419,
    "Ġprecisely": 6466,
    "legs": 13181,
    "prick": 19341,
    "gods": 13365,
    "Ġmaddening": 17243,
    "develop": 13517,
    "culiarity": 11141,
    "mine": 5618,
    "Ġnupt": 13942,
    "ening": 3103,
    "bodily": 17314,
    "v": 90,
    "Ġlionel": 25286,
    "extrem": 18697,
    "Ġprevailing": 24673,
    "Ġrepresentation": 14404,
    "Ġbluish": 23649,
    "Ġduodecimo": 16767,
    "Ġrep": 1937,
    "Ġreally": 2156,
    "alous": 7372,
    "Ġjoky": 18406,
    "Ġstiggs": 25792,
    "Ġplun": 6281,
    "Ġbears": 6829,
    "Ġbless": 4342,
    "Ġlovel": 10271,
    "Ġapplied": 6186,
    "ca": 20792,
    "Ġfemales": 14936,
    "specim": 23941,
    "mouth": 9130,
    "whalebone": 19118,
    "Ġpeeled": 14317,
    "Ġmadam": 5663,
    "Ġsubmission": 22787,
    "alescing": 23864,
    "Ġstrengthen": 20699,
    "Ġearliest": 9830,
    "chose": 18040,
    "Ġuncertain": 4066,
    "civilities": 24971,
    "everything": 6324,
    "Ġstur": 15717,
    "Ġtheme": 16017,
    "Ġransacked": 26505,
    "Ġ81": 24457,
    "Ġprehens": 22228,
    "mn": 3575,
    "cat": 15323,
    "Ġreported": 11978,
    "commodore": 20624,
    "ma": 1152,
    "Ġamusement": 8055,
    "Ġshunned": 17292,
    "Ġintelligently": 4273,
    "Ġancestry": 25641,
    "kitchen": 17585,
    "vict": 11540,
    "Ġreasonably": 11090,
    "fer": 1960,
    "ruding": 9723,
    "itive": 6668,
    "Ġfacility": 19849,
    "Ġentertained": 9997,
    "Ġdines": 21421,
    "asion": 5714,
    "itar": 15544,
    "Ġdromed": 15594,
    "Ġadmin": 23549,
    "Ġreeled": 13985,
    "Ġjurymen": 16847,
    "Ġdec": 641,
    "Ġmental": 21318,
    "Ġbeen": 626,
    "Ġdeath": 2043,
    "simple": 13451,
    "perhaps": 4120,
    "fitters": 24761,
    "Ġ38": 24076,
    "Ġsoftly": 7947,
    "opposite": 19928,
    "Ġfantastic": 10058,
    "ieves": 4005,
    "Ġannual": 14831,
    "Ġbubble": 13534,
    "Ġinstantly": 3590,
    "yet": 3753,
    "Ġcherish": 10589,
    "Ġaffords": 16734,
    "Ġrevolve": 19729,
    "Ġnative": 4640,
    "Ġhurled": 10429,
    "ulsive": 10233,
    "Ġput": 1798,
    "Ġblurred": 22928,
    "Ġshift": 2283,
    "cried": 8724,
    "Ġmore": 677,
    "isions": 6130,
    "Ġuns": 15834,
    "ower": 992,
    "alogies": 25158,
    "Ġplanning": 14750,
    "ables": 7889,
    "Ġrang": 9244,
    "Ġsav": 3356,
    "Ġevening": 2651,
    "Ġperiod": 4003,
    "ulia": 18148,
    "qualities": 25043,
    "d": 72,
    "eric": 3469,
    "mured": 6960,
    "uniform": 18157,
    "Ġhovel": 8253,
    "Ġwarmed": 12022,
    "aged": 2607,
    "Ġori": 8408,
    "Ġtransactions": 18482,
    "Ġfamiliarly": 11303,
    "Ġtrying": 4838,
    "Ġabhorred": 9507,
    "anity": 9654,
    "Ġtennes": 23545,
    "ials": 11704,
    "Ġwhereupon": 14295,
    "enstein": 5799,
    "went": 6512,
    "Ġbang": 17854,
    "Ġbridal": 14953,
    "swelled": 19609,
    "Ġtour": 9147,
    "Ġdespised": 14666,
    "Ġyard": 5920,
    "Ġhare": 5157,
    "Ġlegible": 23530,
    "parsee": 14516,
    "conclusions": 25673,
    "Ġvolat": 24141,
    "Ġslaugh": 18937,
    "dance": 17519,
    "Ġli": 602,
    "Ġlimit": 10443,
    "Ġopens": 23625,
    "Ġwoe": 4792,
    "quired": 21846,
    "ered": 1687,
    "Ġpoisonous": 24887,
    "Ġsuck": 15858,
    "Ġmysteriously": 24601,
    "Ġaccountability": 10438,
    "Ġpossibly": 4513,
    "Ġscimet": 22285,
    "swed": 24253,
    "easily": 17534,
    "âĢĶ.": 11753,
    "ġ": 226,
    "india": 22368,
    "Ġwont": 9851,
    "Ġintroduced": 7691,
    "erson": 7002,
    "Ġdeepest": 8212,
    "Ġcedar": 15187,
    "slight": 10727,
    "Ġprophet": 7681,
    "Ġdarling": 12601,
    "stories": 18020,
    "Ġteaching": 10364,
    "Ġpositions": 2057,
    "tumultuously": 25613,
    "ternatural": 12712,
    "Ġrepeated": 3830,
    "diver": 20830,
    "Ġ105": 24413,
    "Ġattempted": 8000,
    "wonderful": 16960,
    "Ġeasy": 3452,
    "ny": 4015,
    "Ġtimbers": 14838,
    "aimed": 3952,
    "Ġoverheard": 11772,
    "Ġcompletely": 4860,
    "so": 890,
    "Ġmetallic": 19086,
    "Ġknown": 1644,
    "Ġprow": 6684,
    "Ġvales": 21943,
    "ledyard": 22379,
    "distinguished": 10526,
    "Ġballasted": 23977,
    "Ġmonotonous": 13261,
    "Ġinflicted": 11365,
    "Ġinterest": 2248,
    "Ġmassa": 19452,
    "```": 25893,
    "hen": 3515,
    "Ġdeparted": 5562,
    "tremble": 17141,
    "written": 7994,
    "warmly": 25026,
    "theories": 18078,
    "Ġsolemnisation": 24111,
    "Ġeasier": 11165,
    "fam": 5988,
    "Ġdeeper": 2083,
    "Ġfinding": 3263,
    "ha": 3980,
    "Ġbuff": 9172,
    "Ġvices": 14082,
    "Ġinterconnected": 1337,
    "foreign": 18543,
    "Ġcrown": 5287,
    "Ġbread": 5404,
    "Ġdimin": 3871,
    "Ġimply": 18444,
    "Ġhardened": 14449,
    "Ġcunning": 6238,
    "sank": 17662,
    "bes": 6641,
    "dozen": 23376,
    "harrow": 20907,
    "Ġmarks": 6746,
    "Ġshort": 2225,
    "Ġjelly": 22297,
    "\"],": 26120,
    "indeed": 4487,
    "Ġphilosop": 5057,
    "thole": 21983,
    "touched": 15438,
    "Ġapparatus": 24908,
    "ploy": 2094,
    "Ġpresenting": 18988,
    "Ġparamount": 15876,
    "Ġpointed": 4772,
    "Ġbadly": 12129,
    "Ġfrightened": 5341,
    "rifle": 21045,
    "Ġangles": 23587,
    "uit": 8392,
    "Ġugl": 12679,
    "Ġleaking": 21727,
    "anxiety": 25155,
    "Ġembellished": 25850,
    "Ġmors": 17801,
    "Ġprobed": 18733,
    "Ġhurricane": 16430,
    "Ġlabeled": 3718,
    "Ġpossessor": 23820,
    "Ġmetrics": 19087,
    "princ": 8620,
    "Ġseize": 8165,
    "Ġhon": 2538,
    "ection": 4948,
    "Ġdeliverance": 15156,
    "Ġeighteenth": 14753,
    "Ġ6": 5141,
    "Ġburn": 3683,
    "ominy": 13981,
    "elopement": 23120,
    "Ġrephr": 21676,
    "Ġsticking": 13426,
    "Ġpebbles": 16127,
    "Ġbulkhead": 24511,
    "ught": 2752,
    "encoun": 12296,
    "Ġfuller": 11156,
    "Ġcommunicate": 10577,
    "Ġaries": 21196,
    "Ġhimmalehs": 26229,
    "broad": 8642,
    "Ġsuitable": 18279,
    "omical": 9681,
    "Ġmainly": 22645,
    "Ġuncle": 3189,
    "hemat": 3127,
    "Ġped": 6817,
    "Ġdiscrimin": 2546,
    "Ġrob": 1247,
    "Ġhorner": 8958,
    "hearted": 6970,
    "Ġreservoir": 20650,
    "boo": 16349,
    "Ġportable": 19368,
    "Ġdelivery": 18975,
    "...": 24549,
    "quadr": 15761,
    "Ġsecure": 4912,
    "consent": 18503,
    "endurable": 22223,
    "whole": 6085,
    "Ġindividually": 22954,
    "Ġwhereon": 16099,
    "Ġsaws": 23044,
    "Ġdebt": 12165,
    "âĢĶâĢĺ": 7013,
    "Ġrolled": 4428,
    "ences": 1263,
    "terror": 18128,
    "Ġenforced": 21936,
    "Ġgliding": 8559,
    "Ġcalifornia": 20528,
    "archbishop": 22896,
    "Ġsmack": 9299,
    "surv": 24213,
    "Ġwiser": 14729,
    "Ġmount": 7362,
    "Ġhookah": 16970,
    "Ġcape": 5146,
    "Ġhaught": 10252,
    "Ġstooping": 13059,
    "joined": 13274,
    "Ġseasoned": 24405,
    "eel": 11483,
    "Ġcontrast": 2117,
    "Ġmor": 1249,
    "to": 715,
    "mysteries": 26051,
    "impatient": 13639,
    "Ġlessened": 19085,
    "Ġapproaching": 6283,
    "!_âĢĿ": 11376,
    "horn": 8085,
    "Ġwilt": 9643,
    "Ġbead": 21747,
    "Ġxli": 14542,
    "Ġcigaret": 16976,
    "ù": 186,
    "Ġcoherent": 3261,
    "copyright": 5277,
    "Ġcondu": 18109,
    "Ġsolicited": 20035,
    "perch": 18339,
    "Ġbreeze": 5681,
    "Ġpra": 4346,
    "Ġcolonel": 3407,
    "taller": 26150,
    "Ġtr": 552,
    "ĠvertebrÃ¦": 11435,
    "Ġbade": 9171,
    "whispering": 26103,
    "Ġtests": 8957,
    "Ġushered": 18355,
    "Ġnay": 5711,
    "inions": 8401,
    "Ġabuse": 18392,
    "puzz": 17640,
    "Ġunseason": 22047,
    "Ġmisery": 3813,
    "hog": 8379,
    "Ġbreat": 3460,
    "Ġabutted": 22272,
    "Ġabased": 22265,
    "Ġsorts": 6887,
    "Ġinterven": 10997,
    "term": 3758,
    "Ġrefinement": 18702,
    "Ġbasement": 24702,
    "adv": 4536,
    "Ġunprovided": 18260,
    "contempt": 13187,
    "Ġreigning": 15698,
    "burg": 16773,
    "netherfield": 9812,
    "atiable": 17774,
    "Ġmanip": 8871,
    "Ġfactory": 23275,
    "Ġwant": 1118,
    "enborough": 21284,
    "Ġenhance": 3268,
    "handle": 11190,
    "Ġestim": 3348,
    "Ġ275": 20109,
    "ho": 2857,
    "Ġextensive": 12943,
    "Ġscaffold": 18400,
    "Ġrestraint": 15126,
    "Ġsoften": 23121,
    "Ġembell": 14419,
    "continual": 20643,
    "Ġblazing": 11894,
    "Ġstalls": 25647,
    "symp": 14611,
    "prop": 1051,
    "&": 10,
    "Ġxii": 11989,
    "Ġjail": 22291,
    "Ġanimals": 8978,
    "conditional": 9078,
    "elab": 21567,
    "caroline": 24147,
    "links": 20957,
    "Ġpillar": 21470,
    "Ġ550": 19640,
    "Ġcompatibility": 2956,
    "residence": 19262,
    "_": 67,
    "yt": 17711,
    "Ġreception": 9838,
    "lott": 6650,
    "Ġsoftened": 11101,
    "Ġcurving": 16233,
    "Ġtells": 9360,
    "unt": 2044,
    "Ġnecessity": 7296,
    "Ġsympathise": 16794,
    "nne": 20988,
    "alter": 10826,
    "Ġled": 3519,
    "ĕ": 214,
    "Ġcompensated": 17400,
    "Ġslink": 23159,
    "Ġpeculiarly": 8286,
    "Ġanomalous": 25637,
    "Ġflattened": 26047,
    "maul": 11890,
    "Ġpossessing": 16575,
    "oak": 21002,
    "illum": 15867,
    "Ġrepeat": 7999,
    "ibid": 18839,
    "verse": 9687,
    "Ġwriters": 13542,
    "Ġliving": 3059,
    "Ġpoem": 22586,
    "ade": 883,
    "Ġconcluding": 9856,
    "greatest": 10493,
    "Ġliking": 23590,
    "Ġpostp": 12141,
    "nar": 12491,
    "ĠĠĠĠĠĠĠĠĠĠ": 18577,
    "figure": 13554,
    "ilet": 12826,
    "approb": 11042,
    "uther": 8816,
    "seldom": 13786,
    "utting": 17984,
    "Ġisrael": 21800,
    "Ġassisting": 13256,
    "Ġpaper": 4281,
    "Ġbreaches": 14521,
    "Ġperhaps": 1911,
    "Ġgenerative": 5644,
    "isle": 13891,
    "Ġsick": 4692,
    "Ġarsac": 11740,
    "Ġsixth": 16559,
    "hau": 17562,
    "Ġsoup": 7067,
    "Ġsane": 21220,
    "pieces": 8754,
    "Ġspinning": 15052,
    "ately": 1718,
    "Ġtypewriter": 19097,
    "taste": 10129,
    "owing": 7602,
    "direct": 12454,
    "Ġtag": 15467,
    "Ġwhereas": 3853,
    "a": 69,
    "matical": 13127,
    "ruit": 22184,
    "Ġunaware": 22054,
    "Ġtal": 7565,
    "Ġdesp": 3212,
    "Ġfaithfully": 14886,
    "Ġinarticulate": 21497,
    "Ġspir": 2430,
    "Ġarrange": 3118,
    "travelling": 24317,
    "accur": 14593,
    "oder": 2461,
    "Ġproposal": 10018,
    "Ġpresuming": 16793,
    "Ġintending": 11702,
    "castle": 3349,
    ">": 34,
    "harpoone": 6107,
    "Ġbalancing": 2432,
    "olds": 9310,
    "aying": 15747,
    "xology": 21140,
    "Ġineffectual": 17383,
    "Ġchiselled": 25559,
    "Ġalco": 21779,
    "speed": 19407,
    "Ġtoilings": 24742,
    "Ġcleans": 18947,
    "Ġfourth": 7706,
    "events": 12315,
    "Ġaccount": 2321,
    "eman": 5636,
    "Ġmaritime": 23034,
    "blown": 25201,
    "asingly": 17960,
    "gi": 17551,
    "Ġfishermen": 5970,
    "ind": 568,
    "Ġordered": 5832,
    "Ġvacant": 9494,
    "Ġworthless": 19564,
    "Ġembal": 11909,
    "Ġattractive": 25575,
    "condemned": 26060,
    "ĠĠĠĠĠĠĠĠĠĠĠĠĠĠĠĠĠĠĠĠĠĠĠĠĠĠĠĠĠĠĠĠĠĠĠĠĠĠĠĠĠĠĠĠ": 12151,
    "Ġsupper": 4665,
    "Ġsemicircle": 26067,
    "Ġigniting": 25070,
    "Ġ107": 24415,
    "Ġovercome": 6043,
    "Ġinde": 7371,
    "Ġmeas": 1097,
    "hug": 17563,
    "ć": 200,
    "algorithms": 8292,
    "Ġany": 687,
    "Ġtoes": 10829,
    "Ġquant": 6424,
    "feed": 9292,
    "later": 20952,
    "Ġrece": 11637,
    "Ġtamely": 24977,
    "bewil": 22495,
    "Ġbarbar": 6935,
    "Ġsharply": 9402,
    "Ġmerc": 9425,
    "indul": 22367,
    "Ġinjunction": 19616,
    "Ġsuppression": 22999,
    "script": 11078,
    "Ġdevoted": 6573,
    "Ġsmoking": 6429,
    "Ġengaging": 9335,
    "Ġenvelope": 7319,
    "Ġhit": 7163,
    "Ġsister": 1474,
    "utes": 5913,
    "suddenly": 6493,
    "Ġbradstreet": 9576,
    "onents": 8776,
    "doubtful": 24791,
    "P": 52,
    "Ġleyden": 21729,
    "Ġlungless": 24863,
    "dron": 17525,
    "Ġcore": 13877,
    "Ġportent": 12079,
    "resh": 8403,
    "Ġplanisp": 24054,
    "Ġgradually": 3401,
    "bonnet": 25742,
    "Ġsolicit": 22884,
    "Ġscandinavian": 26344,
    "Ġemm": 18002,
    "bellies": 19972,
    "amiable": 14052,
    "apple": 22837,
    "threshold": 21984,
    "Ġinscriptions": 20007,
    "Ġgryphon": 4299,
    "seemed": 4303,
    "Ġheadsmen": 14731,
    "overhearing": 19050,
    "Ġanom": 12608,
    "nights": 16448,
    "fac": 17541,
    "display": 19154,
    "ight": 404,
    "Ġkinds": 14506,
    "Ġcompact": 2262,
    "century": 20045,
    "Ġ28": 19293,
    "ources": 2790,
    "Ġcooper": 16073,
    "Ġanyways": 22517,
    "Ġdevice": 1929,
    "Ġoccurred": 4461,
    "Ġevanesc": 24294,
    "Ġjoyfully": 19344,
    "rief": 6202,
    "Ġmarking": 16468,
    "condescended": 26248,
    "Ġfun": 523,
    "Ġdiver": 2531,
    "ky": 4519,
    "Ġspending": 10923,
    "gely": 10700,
    "rods": 21535,
    "Ġenglish": 3613,
    "dog": 10692,
    "knowledge": 7479,
    "following": 10572,
    "Ġscuffle": 20607,
    "istol": 6259,
    "Ġadroop": 26001,
    "Ġinexperience": 26099,
    "Ġnobly": 22238,
    "Ġsordid": 26422,
    "Ġworks": 5858,
    "Ġmagnific": 16316,
    "Ġimpersonal": 17395,
    "arp": 2028,
    "Ġdevelop": 1597,
    "cst": 10084,
    "Ġnetworks": 598,
    "Ġherbage": 25996,
    "colour": 9902,
    "Ġmemoirs": 26205,
    "yarn": 15456,
    "Ġelevate": 24502,
    "Ġundeserving": 18268,
    "duing": 22408,
    "points": 14392,
    "Ġreadily": 5253,
    "Ġdestitute": 14565,
    "rine": 21036,
    "Ġproperty": 6450,
    "xi": 17710,
    "Ġroyals": 19531,
    "Ġpals": 13917,
    "Ġoperated": 14547,
    "Ġhapp": 1090,
    "Ġwheeling": 18288,
    "Ġtropics": 17067,
    "leaning": 10790,
    "Ġbud": 10168,
    "Ġflour": 8944,
    "Ġungenerous": 18266,
    "Ġepsom": 19981,
    "Ġshrine": 19530,
    "Ġbreathlessly": 24280,
    "opposition": 24823,
    "mary": 8748,
    "Ġtreasure": 9558,
    "Ġexponentially": 1444,
    "Ġtwist": 11849,
    "Ġtill": 1824,
    "fits": 13717,
    "hurry": 24763,
    "Ġoverladen": 22363,
    "green": 7115,
    "elfth": 22366,
    "Ġachieved": 13165,
    "Ġbats": 13899,
    "Ġbundles": 26175,
    "horse": 8605,
    "outside": 12801,
    "Ġfrank": 4418,
    "Ġrogue": 22402,
    "endeavoured": 12278,
    "vid": 917,
    "Ġstupidity": 15050,
    "racts": 14361,
    "Ġconsistence": 23354,
    "Ġcane": 10927,
    "Ġpal": 4040,
    "Ġaffrighted": 13571,
    "tolerable": 17688,
    "Ġamericans": 14742,
    "ellest": 21571,
    "Ġanne": 1530,
    "Ġriveted": 13617,
    "Ġdischarge": 18556,
    "Ġdesiring": 14412,
    "airs": 2221,
    "somewhere": 12011,
    "Ĭ": 237,
    "Ġunimportant": 22025,
    "Ġclattered": 22349,
    "sleepy": 24729,
    "Ġquakers": 22413,
    "next": 5891,
    "Ġroman": 8322,
    "Ġprotecting": 24686,
    "Ġvap": 6837,
    "conclude": 24063,
    "Ġcosmetic": 23470,
    "Ġsm": 704,
    "Ġdepose": 22592,
    "terrific": 25040,
    "Ġscraped": 16903,
    "thest": 11653,
    "Ġendeavored": 19301,
    "before": 3112,
    "akin": 11766,
    "Ġepic": 15029,
    "Ġmouthful": 16574,
    "contemplated": 20457,
    "bearings": 25371,
    "between": 5071,
    "Ġwraps": 19775,
    "Ġrudder": 25107,
    "Ġbedford": 7474,
    "Ġisinglass": 21799,
    "Ġinspection": 14544,
    "Ġcontour": 18474,
    "Ġunrolled": 22033,
    "Ġsuccession": 12099,
    "benevolent": 15232,
    "wondered": 17029,
    "Ġhumorously": 18777,
    "Ġdecency": 18483,
    "Ġparadise": 11194,
    "Ġhook": 6453,
    "grim": 19106,
    "slackened": 26094,
    "duck": 22409,
    "Ġrevive": 13478,
    "give": 4688,
    "Ġnailed": 10189,
    "eral": 9159,
    "Ġinputs": 843,
    "Ġcondemn": 13443,
    "Ġcherished": 10590,
    "Ġerad": 25028,
    "ĠĠĠĠĠĠĠĠĠĠĠĠĠĠĠĠĠĠĠĠĠĠĠĠĠĠĠĠĠĠĠĠĠĠĠĠĠĠĠĠĠĠĠĠĠ": 9951,
    "Ġwhistle": 9065,
    "mankind": 14373,
    "Ġtoday": 12640,
    "ryphon": 4160,
    "fine": 10090,
    "Ġderivatives": 2370,
    "Ġreaped": 18029,
    "Ġsustain": 10016,
    "queequeg": 4334,
    "Ġpleasant": 4167,
    "Ġcas": 8410,
    "Ġabandoned": 8351,
    "ung": 2747,
    "idable": 8145,
    "Ġreputed": 18035,
    "Ġwherefore": 8524,
    "Ġprivate": 5345,
    "alf": 4638,
    "Ġtash": 13819,
    "Ġcrozetts": 19628,
    "Ġoverlooking": 22358,
    "separation": 25226,
    "Ġbenches": 18781,
    "Ġimportance": 4900,
    "Ġsupposing": 6729,
    "inal": 15479,
    "apologizing": 26544,
    "Ġarisen": 11741,
    "yder": 10138,
    "Ġsoul": 2727,
    "andam": 10888,
    "Ġbespe": 19241,
    "ape": 1905,
    "andy": 8157,
    "Ġcolder": 22847,
    "Ġappalled": 22218,
    "native": 17611,
    "oology": 21005,
    "Ġirene": 8443,
    "Ġgre": 1585,
    "Ġsubmerged": 11870,
    "factories": 19842,
    "Ġhaughty": 11449,
    "Ġworker": 23054,
    "hind": 20893,
    "Ġenvironments": 24146,
    "Ġadversary": 12171,
    "rers": 14717,
    "prodigious": 17466,
    "tled": 3457,
    "board": 3563,
    "Ġanalogical": 25640,
    "station": 10844,
    "Ġclaimed": 14202,
    "Ġtrembled": 8701,
    "Ġintercept": 14268,
    "doub": 6223,
    "mons": 17600,
    "Ġwards": 17789,
    "Ġrespects": 7269,
    "Ġrest": 1782,
    "Ġvanished": 6874,
    "Ġexhilarating": 26337,
    "sharks": 14239,
    "Ġexpecting": 10436,
    "Ġlaud": 17967,
    "threatened": 25462,
    "Ġpacked": 9979,
    "Ġey": 8134,
    "Ġoftentimes": 20154,
    "ran": 11515,
    "Ġunsub": 22018,
    "akness": 14194,
    "ok": 573,
    "Ġdependence": 18620,
    "Ġreco": 9789,
    "Ġactually": 5389,
    "Ġstepfather": 7221,
    "child": 5538,
    "Ġformed": 3883,
    "reve": 12536,
    "Ġmarling": 23030,
    "igators": 18045,
    "Ġthroats": 24575,
    "uits": 21103,
    "Ġmanner": 2196,
    "wonted": 13492,
    "crane": 24096,
    "Ġgenerate": 1527,
    "Ġstunsail": 25543,
    "Ġ[_": 15460,
    "Ġfeebly": 24877,
    "Ġover": 557,
    "humored": 19451,
    "Ġpecks": 18669,
    "Ġinform": 996,
    "Ġ(âĢľ": 15995,
    "Ġboundless": 10495,
    "Ġbedfellow": 16436,
    "variety": 23183,
    "Ġwoeful": 19618,
    "Ġcask": 5527,
    "Ġassured": 4371,
    "Ġhans": 12623,
    "Ġhappy": 2467,
    "alyards": 18771,
    "helping": 23136,
    "ittleness": 22373,
    "Ġcomparative": 10542,
    "Ġvale": 14081,
    "assist": 11765,
    "Ġadvancement": 24475,
    "Ġdauntless": 26336,
    "Ġcontest": 18473,
    "Ġforegoing": 23448,
    "nt": 922,
    "entered": 8814,
    "ings": 636,
    "lamps": 25260,
    "critters": 14782,
    "Ġartful": 22608,
    "Ġbumps": 21390,
    "unfearing": 21889,
    "ooped": 17623,
    "Ġdisabled": 18561,
    "Ġcomputational": 1624,
    "Ġupheld": 22149,
    "Ġflint": 23008,
    "uzzle": 19582,
    "Ġislands": 6766,
    "Ġcontinually": 5042,
    "Ġsoothe": 7405,
    "Ġhalloa": 13315,
    "ript": 4150,
    "Ġmoved": 4839,
    "compan": 7301,
    "ķ": 248,
    "Ġland": 1996,
    "Ġdancing": 5703,
    "herds": 22200,
    "Ġcode": 1724,
    "playing": 19656,
    "treatment": 20410,
    "cele": 21622,
    "Ġsix": 3038,
    "Ġnonsensical": 21526,
    "ĠâĢĶâĢĶ": 25757,
    "Ġatrocious": 21940,
    "Ġjuggling": 20437,
    "thankful": 16806,
    "ket": 17582,
    "Ġmealy": 18118,
    "Ġscores": 2716,
    ",--": 2478,
    "Ġdodging": 19886,
    "Ġwashed": 15762,
    "family": 7324,
    "Ġquiet": 3259,
    "Ġduck": 8793,
    "Ġwishing": 7830,
    "histor": 13490,
    "impregn": 21711,
    "Ġrule": 1534,
    "Ġcalculating": 9924,
    "Ġlonely": 6823,
    "Ġslippers": 19614,
    "Ġcru": 2823,
    "Ġpause": 5707,
    "Ġroasted": 18458,
    "Ġclut": 7642,
    "Ġinherit": 25352,
    "Ġdaylight": 10350,
    "Ġtop": 2472,
    "Ġcus": 21341,
    "dece": 11732,
    "paint": 21017,
    "iability": 20919,
    "Ġyoungest": 7953,
    "ays": 6683,
    "Ġthinnest": 24183,
    "Ġensure": 23684,
    "Ġ37": 24075,
    "Ġthrills": 24542,
    "hear": 10146,
    "Ġbrazier": 26320,
    "Ġbreaths": 14856,
    "ela": 21566,
    "Ġinjunctions": 24269,
    "agatha": 21905,
    "fetch": 12462,
    "Ġcooped": 22578,
    "Ġclubbed": 26547,
    "Ġclients": 19731,
    "Ġremoving": 12114,
    "backpropagation": 11984,
    "Ġamateur": 22483,
    "Ġhinting": 19648,
    "Ġ85": 24460,
    "Ġmeetings": 16532,
    "Ġinsects": 25646,
    "Ġunusual": 6553,
    "constantly": 24606,
    "Ġmortification": 12091,
    "Ġburning": 5976,
    "Ġsocks": 14134,
    "Ġsine": 10763,
    "Ġfabric": 25947,
    "Ġentailed": 11026,
    "Ġdetestation": 17127,
    "pennies": 26285,
    "Ġthom": 21513,
    "prolong": 23393,
    "Ġsemblance": 20733,
    "Ġlandless": 23377,
    "chief": 4644,
    "conclusion": 25672,
    "ama": 11676,
    "Ġstreat": 15721,
    "Ġtorrid": 25032,
    "Ġst": 333,
    "Ġpedest": 14995,
    "Ġslips": 23162,
    "Ġnoting": 18221,
    "Ġorph": 9716,
    "Ġconnect": 798,
    "feature": 4310,
    "Ġrel": 1096,
    "Ġlivers": 18461,
    "remained": 8569,
    "Ġcasc": 15553,
    "interference": 23736,
    "Ġdrily": 23536,
    "0": 20,
    "»": 124,
    "Ġroylott": 7305,
    "Ġexpanded": 14290,
    "bearded": 18522,
    "Ġcreated": 2708,
    "Ġsevere": 6031,
    "breaking": 14763,
    "Ġlad": 2363,
    "Ġenjoys": 19448,
    "Ġcommonplace": 11096,
    "Ġscramble": 24578,
    "eted": 7592,
    "Ġnaturalists": 10363,
    "Ġsquint": 22833,
    "Ġdepending": 14288,
    "Ġmidst": 7985,
    "Ġspangled": 22132,
    "flight": 15351,
    "Ġtopic": 9405,
    "Ġplough": 18609,
    "Ġlamentations": 17076,
    "luding": 6700,
    "Ġheh": 21677,
    "Ġdeposit": 17268,
    "ceive": 3060,
    "Ġswash": 23050,
    "eridge": 15524,
    "Ġmanual": 14197,
    "Ġscenes": 5730,
    "itu": 1227,
    "Ġvomit": 21945,
    "Ġblankness": 24610,
    "Ġformula": 2864,
    "Ġesc": 2252,
    "Ġfrigate": 13080,
    "receive": 12539,
    "tottenham": 25418,
    "rated": 6227,
    "ivia": 22073,
    "Ġtackles": 8050,
    "ifled": 14062,
    "ccas": 15883,
    "Ġstudents": 23195,
    "mar": 4335,
    "answered": 10273,
    "icial": 12652,
    "Ġaskance": 23146,
    "marriage": 7744,
    "Ġmanxman": 9565,
    "Ġpreventing": 884,
    "smug": 23905,
    "Ġcobbler": 25829,
    "rior": 12738,
    "Ġahead": 6662,
    "Ġdiscompose": 25579,
    "Ġestimate": 19371,
    "swear": 16918,
    "Ġnantucketer": 6914,
    "yonder": 21143,
    "adam": 15727,
    "Ġbrooding": 18907,
    "Ġstoper": 14462,
    "pale": 13770,
    "Ġmaybe": 12946,
    "faith": 15024,
    "Ġvow": 10246,
    "agree": 14066,
    "Ġvoyager": 16511,
    "some": 2235,
    "osis": 18389,
    "bony": 15318,
    "Ġprincely": 24145,
    "atra": 17771,
    "Ġmyth": 18220,
    "astern": 8581,
    "Ġrises": 9712,
    "Ġellenborough": 26154,
    "Ġevalu": 2713,
    "Ġlobsters": 13516,
    "Ġsmoothe": 23655,
    "Ġprosecuted": 25293,
    "carbuncle": 26382,
    "fly": 13713,
    "grampus": 18617,
    "works": 6587,
    "Ġcondemned": 7778,
    "Ġmachine": 790,
    "alle": 1292,
    "Ġcharcoal": 19007,
    "author": 9859,
    "Ġjackets": 19601,
    "Ġflaming": 8563,
    "Ġwhaling": 2784,
    "Ġentity": 10341,
    "Ġferule": 24499,
    "Ġburgled": 23653,
    "Ġvisits": 8223,
    "breath": 15161,
    "Ġtambourine": 9564,
    "eps": 12787,
    "Ġinjustice": 9190,
    "Ġalighted": 18103,
    "Ġear": 1421,
    ".)": 6783,
    "Ġwhisper": 6205,
    "Ġcreature": 2383,
    "supp": 4159,
    "Ġcombing": 22864,
    "Ġhailed": 6407,
    "Ġlosing": 10916,
    "Ġsublime": 8065,
    "Ġxiv": 23406,
    "za": 13809,
    "Ġruskin": 25809,
    "Ġculprit": 26172,
    "Ġfeathers": 15118,
    "appeared": 4280,
    "hil": 8378,
    "l": 80,
    "idelburgh": 10560,
    "Ġsiamese": 20481,
    "Ġbegat": 18862,
    "izon": 18141,
    "Ġharpoone": 2909,
    "Ġbiggest": 24566,
    "Ġloaded": 8490,
    "id": 338,
    "Ġspades": 12793,
    "Ġherds": 9715,
    "Ġdistributed": 18660,
    "flames": 14711,
    "Ġengraved": 17081,
    "Ġemploys": 19429,
    "Ġentic": 16145,
    "Ġrumpled": 24600,
    "Ġdespairing": 14772,
    "Ġhisself": 21911,
    "Ġrequested": 14302,
    "ildad": 3529,
    "Ġswain": 18880,
    "Ġflanks": 11913,
    "Ġsqualls": 17020,
    "Ġevermore": 18811,
    "Ġshakespeare": 20306,
    "lightning": 16552,
    "aphs": 22333,
    "Ġsacrificed": 17421,
    "Ġerudite": 26350,
    "Ġobservant": 20108,
    "comprehensive": 20625,
    "execution": 20470,
    "Ġbald": 16204,
    "Ġfrosty": 14934,
    "Ġmatted": 22911,
    "Ġlunacy": 20026,
    "Ġethics": 15461,
    "Ġrational": 8479,
    "Ġoutputs": 2885,
    "Ġnecess": 3474,
    "Ġyour": 633,
    "Ġcondesc": 7181,
    "Ġtouches": 20569,
    "Ġaboriginal": 14188,
    "acting": 22628,
    "Ġmantle": 25274,
    "sticks": 25964,
    "Ġmag": 1428,
    "Ġevaluate": 2780,
    "Ġplanisphere": 26607,
    "arr": 3039,
    "Ġwouldn": 6045,
    "Ġknew": 2055,
    "ship": 1388,
    "Ġgirdle": 19156,
    "Ġtorment": 8673,
    "Ġcreatures": 4135,
    "Ġbaw": 15566,
    "abst": 21785,
    "lotte": 3330,
    "become": 14246,
    "hunters": 16833,
    "Ġtremor": 24768,
    "ivered": 7005,
    "Ġkra": 18348,
    "Ġequinoctial": 20531,
    "Ġsed": 10761,
    "Ġcister": 13881,
    "Ġsince": 1796,
    "Ġfaulty": 14906,
    "cast": 2925,
    "Ġpoland": 23616,
    "achable": 14131,
    "Ġlazarus": 15028,
    "Ġturning": 3326,
    "Ġusually": 6263,
    "pointing": 12222,
    "Ġtrampled": 20327,
    "iteness": 4391,
    "Ġversion": 10630,
    "yrin": 12519,
    "Ġconstitution": 20107,
    "gravel": 22617,
    "Ġsurprising": 14597,
    "Ġmyster": 5925,
    "Ġbuoyed": 20039,
    "olera": 21830,
    "Ġscraping": 13415,
    "cific": 10085,
    "Ġorphan": 12381,
    "Ġintensely": 17017,
    "Ġsoaring": 22083,
    "fifty": 12350,
    "iny": 4293,
    "tains": 10962,
    "Ġpeasants": 12330,
    "Ġnecessarily": 13248,
    "Ġeconomical": 25287,
    "victim": 25530,
    "utch": 21583,
    "rayed": 23559,
    "Ġindians": 14408,
    "Ġparm": 15875,
    "Ġforest": 9870,
    "Ġdynamically": 3860,
    "Ġvile": 8472,
    "Ġdevelopments": 23216,
    "thumb": 18218,
    "Ġringbolts": 24196,
    "shows": 22453,
    "Ġchips": 14181,
    "cott": 8073,
    "Ġbidirectional": 3755,
    "Ġlookest": 22716,
    "Ġconjugal": 25101,
    "Ġlick": 21547,
    "names": 16515,
    "pest": 6964,
    "Ġtumb": 21168,
    "Ġresurrection": 12891,
    "Ġenemies": 9038,
    "Ġdaresay": 14703,
    "Ġinte": 2065,
    "ribed": 7693,
    "ining": 3218,
    "Ġrounded": 14438,
    "imag": 6990,
    "Ġquick": 2582,
    "Ġsigned": 11177,
    "Ġjourneying": 25565,
    "obser": 11099,
    "sunlight": 24851,
    "Ġbehooves": 20732,
    "Ġassertion": 13488,
    "Ġexploring": 4304,
    "slide": 24556,
    "Ġlac": 17964,
    "sighted": 19784,
    "coburg": 13597,
    "Ġbeaks": 21752,
    "Ġunful": 22006,
    "Ġsom": 1275,
    "Ģ": 227,
    "Ġscanning": 18399,
    "Ġexpedite": 24953,
    "informed": 17736,
    "Ġmarry": 4416,
    "Ġcet": 6669,
    "Ġsufficient": 2002,
    "Ġprocessions": 18433,
    "continuing": 24479,
    "Ġho": 1932,
    "dissemble": 23490,
    "narwhale": 17317,
    "Ġemma": 20693,
    "Ġperturbed": 20438,
    "Ġspaulding": 11729,
    "Ġsoot": 14132,
    "Ġalliance": 18235,
    "Ġharm": 5017,
    "Ġes": 8768,
    "Ġinheritance": 25355,
    "Ġreflected": 2907,
    "swing": 15428,
    "minutes": 7513,
    "Ġfugitives": 25634,
    "Ġentr": 14335,
    "Ġphr": 2681,
    "Ġmagnitude": 1943,
    "Ġlazily": 11380,
    "Ġdism": 9766,
    "Ġfeasible": 22205,
    "Ġbrightly": 13222,
    "axing": 18547,
    "Ġsubmitted": 11869,
    "adventures": 20255,
    "Ġescorted": 23504,
    "Ġunwarrantable": 26353,
    "opy": 4456,
    "ir": 379,
    "Ġimplicate": 24876,
    "Ġconvict": 23743,
    "Ġteach": 8552,
    "Ġapprehensiveness": 16877,
    "Ġelixir": 26555,
    "measureless": 20234,
    "iple": 4806,
    "hed": 671,
    "Ġmonths": 3455,
    "Ġinstability": 3812,
    "Ġnamed": 6139,
    "ordered": 8789,
    "poles": 16208,
    "raising": 21629,
    "splash": 25209,
    "erne": 21268,
    "Ġprov": 4399,
    "chooses": 23670,
    "Ġseals": 11693,
    "swam": 24254,
    "Ġwork": 1353,
    "Ġpermanent": 13630,
    "Ġhoard": 23350,
    "rit": 21034,
    "Ġtreated": 7080,
    "Ġheeded": 13402,
    "reported": 24493,
    "Ġadmeasure": 18293,
    "Ġencircling": 26271,
    "Ġsan": 7824,
    "consp": 18504,
    "ssible": 2988,
    "manif": 14372,
    "Ġdisse": 18548,
    "Ġtickled": 20055,
    "Ġattendance": 12179,
    "Ġvexation": 10586,
    "bare": 12439,
    "ugues": 19023,
    "umps": 6317,
    "Ġpacket": 14892,
    "Ġsimultaneously": 4311,
    "lizzy": 6651,
    "Ġtuileries": 24826,
    "Ġallow": 1127,
    "Ġrepresents": 4902,
    "burst": 10537,
    "Ġavowed": 16633,
    "å": 166,
    "ense": 2052,
    "romising": 18233,
    "Ġbowditch": 19322,
    "cle": 3955,
    "Ġbuild": 6474,
    "Ġvindictive": 20468,
    "bound": 6220,
    "Ġender": 11689,
    "Ġconspicuous": 13602,
    "Ġsex": 8841,
    "ird": 2429,
    "itancy": 21331,
    "Ġasked": 2278,
    "gates": 20871,
    "Ġhereafter": 9329,
    "Ġtide": 6658,
    "younger": 11312,
    "Ġtempor": 2365,
    "rank": 21040,
    "Ġeddy": 13122,
    "converse": 22474,
    "Ġoath": 7833,
    "anche": 10788,
    "Ġmusical": 23891,
    "her": 488,
    "Ġsill": 10765,
    "Ġdangerous": 6612,
    "Ġagon": 10320,
    "served": 5043,
    "Ġelementary": 24814,
    "parted": 21015,
    "Ġliberty": 7761,
    "ich": 469,
    "ime": 625,
    "Ġreceiving": 4882,
    "Ġilluminate": 17192,
    "Ġ99": 10745,
    "Ġboldly": 9500,
    "Ġrus": 14092,
    "Ġprefers": 20512,
    "Ġselling": 21223,
    "u": 89,
    "proposal": 18762,
    "Ġpath": 2113,
    "Ġlearning": 386,
    "fed": 11487,
    "problems": 11434,
    "Ġjoined": 4563,
    "Ġ125": 24470,
    "Ġharry": 24571,
    "tro": 15432,
    "Ġinn": 4590,
    "Ġeigenvalues": 4998,
    "Ġsurveying": 25325,
    "comfortableness": 24525,
    "carries": 19526,
    "asible": 21539,
    "Ġfront": 3451,
    "protection": 19919,
    "Ġloops": 8852,
    "Ġtrotting": 19974,
    "Ġmatrix": 1607,
    "Ġpostponed": 20388,
    "Ġappointed": 20101,
    "treasures": 26152,
    "Ġfulfil": 9550,
    "ifferent": 4260,
    "distinction": 19570,
    "Ġstake": 14003,
    "por": 2148,
    "Ġpair": 5706,
    "along": 6012,
    "spring": 7231,
    "Ġrider": 24185,
    "Ġarticles": 7108,
    "Ġarising": 10933,
    "tomahawk": 25915,
    "Ġpainful": 6462,
    "Ġrheumatic": 20704,
    "Ġskirts": 14351,
    "Ġrepine": 16407,
    "Ġthoughts": 3136,
    "Ġintegration": 9867,
    "charmed": 21693,
    "Ġearls": 18903,
    "Ġplayed": 9415,
    "Ġdesigned": 7740,
    "Ġsystems": 805,
    "seized": 14034,
    "infliction": 25924,
    "Ġhusband": 3619,
    "ā": 194,
    "Ġbutter": 6842,
    "](": 11466,
    "Ġ13": 6718,
    "Ġlesson": 7276,
    "mers": 9610,
    "Ġthickness": 13276,
    "Ġyawned": 15051,
    "cating": 20801,
    "Ġtable": 2500,
    "Ġsickly": 16774,
    "Ġwire": 13851,
    "Ġcannot": 1669,
    "entions": 17974,
    "prove": 11147,
    "Ġvaliant": 9799,
    "Ġinforming": 18741,
    "Ġunappe": 22013,
    "Ġadapt": 1030,
    "icha": 11736,
    "prior": 21031,
    "Ġbalance": 2020,
    "Ġgrandfather": 19420,
    "Ġaffronted": 22888,
    "Ġsituated": 9446,
    "Ġinfluenced": 19631,
    "va": 4742,
    "itching": 21333,
    "Ġgums": 21608,
    "aceti": 7111,
    "Ġprivacy": 19523,
    "Ġirr": 10421,
    "inu": 1116,
    "wedded": 24339,
    "Ġsuperlative": 26074,
    "dead": 8179,
    "Ġmislead": 22759,
    "Ġblemish": 19678,
    "Ġsteam": 9352,
    "Ġcreative": 9829,
    "Ġchoked": 9263,
    "Ġ49": 24079,
    "Ġeastern": 11628,
    "Ġtit": 8398,
    "Ġdrop": 4344,
    "Ġglistening": 12363,
    "cain": 15325,
    "Ġimplement": 3161,
    "ict": 592,
    "Ġunfortunate": 5376,
    "Ġbraced": 16579,
    "Ġimposs": 16616,
    "cery": 20807,
    "convenient": 12235,
    "Ġprices": 15609,
    "Ġsap": 18323,
    "Ġdoted": 21431,
    "usal": 7639,
    "Ġdictionaries": 12338,
    "hoping": 17566,
    "myself": 5113,
    "Ġrevelation": 25222,
    "Ġparsonage": 7123,
    "Ġdusting": 24596,
    "Ġcogent": 14272,
    "Ġraft": 16114,
    "Ġeffemin": 18530,
    "Ġprepar": 7896,
    "tolerably": 21094,
    "Ġwolves": 25934,
    "Ġunknown": 4451,
    "ecess": 17532,
    "Ġblew": 9045,
    "Ġredoubled": 23751,
    "talked": 14984,
    "Ġaffording": 14820,
    "maritime": 24173,
    "hatchway": 25904,
    "Ġgeography": 23370,
    "calcul": 12984,
    "Ġsolomon": 11052,
    "Ġgrecian": 26296,
    "moment": 3577,
    "Ġtrustworthy": 24104,
    "Ġsusp": 2663,
    "buckets": 26123,
    "Ġwalker": 23307,
    "Ġappeased": 23196,
    "conqu": 14244,
    "Ġincredible": 9514,
    "Ġclothed": 19605,
    "arness": 11670,
    "Ġshy": 10903,
    "Ġshining": 8171,
    "iel": 11493,
    "Ġwond": 3939,
    "bbing": 6323,
    "atively": 2697,
    "Ġtreachery": 15100,
    "Ġglit": 8558,
    "Ġreciprocating": 26369,
    "Ġordering": 18998,
    "united": 14059,
    "Ġruddy": 17125,
    "Ġfluke": 14673,
    "umer": 9257,
    "Ġconvivial": 16548,
    "barrels": 15041,
    "Ġoxford": 11371,
    "Ġgrapnels": 25551,
    "Ġmainland": 22646,
    "Ġmajesty": 5201,
    "Ġlighten": 23257,
    "thread": 15824,
    "Ġvessels": 6755,
    "Ġsinners": 18949,
    "breckinridge": 24072,
    "Ġsingular": 4422,
    "Ġcosy": 13129,
    "ston": 15679,
    "Ġbegrimed": 26578,
    "Ġprodu": 1206,
    "Ġsleeps": 10446,
    "Ġpreliminaries": 25176,
    "expectation": 14855,
    "rr": 17650,
    "unw": 14056,
    "Ġmechanical": 7936,
    "Ġfoot": 3159,
    "ologist": 22880,
    "Ġimbu": 15889,
    "Ġmain": 808,
    "Ġopine": 19227,
    "Ġaddison": 14232,
    "Ġwearied": 15790,
    "Ġranges": 2882,
    "inridge": 11560,
    "Ġoverjoy": 15970,
    "ĠarchÃ¦": 22773,
    "backs": 9390,
    "Ġventilator": 8713,
    "Ġsimul": 1806,
    "Ġabusive": 22270,
    "fourths": 25509,
    "Ġmeals": 12708,
    "Ġincredulous": 9986,
    "Ġisles": 8459,
    "Ġhut": 15616,
    "breat": 10077,
    "ib": 1234,
    "grees": 20885,
    "fourth": 11328,
    "lac": 17589,
    "Ġparticularly": 5056,
    "asher": 15643,
    "Ġwit": 3840,
    "Ġflying": 5413,
    "Ġstranger": 3484,
    "tch": 9141,
    "Ġillum": 9399,
    "crow": 9590,
    "asis": 12647,
    "ene": 2167,
    "Ġresented": 22540,
    "desper": 13067,
    "Ġvertically": 19378,
    "Ġdexterously": 25295,
    "Ġinspector": 6498,
    "Ġinquis": 19302,
    "Ġreply": 4514,
    "omist": 21655,
    "Ġchagrin": 20606,
    "Ġcathedral": 17412,
    "Ġslides": 18938,
    "Ġdip": 13906,
    "Ġboth": 1657,
    "Ġacceded": 22375,
    "Ġlodge": 5779,
    "weaknesses": 26030,
    "Ġghostly": 24650,
    "Ġtenderest": 23546,
    "reserved": 13842,
    "Ġcluster": 13570,
    "lux": 14226,
[...]
