{
  "metadata": {
    "vocab_size": 26622,
    "algorithm": "BPE",
    "created_at": "2026-07-22 05:18:39",
    "special_tokens": [
      "<PAD>",
      "<SOS>",
      "<EOS>",
      "<UNK>",
      "<MASK>"
    ]
  },
  "vocab": {
    "Ġunprejudiced": 18277,
    "Ġprior": 11322,
    "leeward": 15218,
    "fra": 8377,
    "apable": 6422,
    "Ġsatisfy": 6915,
    "fun": 4146,
    "offended": 16406,
    "enborough": 21294,
    "Ġeffusions": 18541,
    "Ġans": 1647,
    "ling": 735,
    "Ġcorpore": 13404,
    "elder": 21578,
    "cular": 15336,
    "shore": 10310,
    "execution": 20480,
    "Ġhis": 380,
    "Ġblanched": 26291,
    "low": 653,
    "Ġsarat": 21236,
    "ivities": 22089,
    "ective": 18181,
    "Ġchimney": 6498,
    "Ġcommanding": 16600,
    "Ġunder": 1636,
    "Ġrehears": 15706,
    "Ġepit": 18014,
    "Ġkicks": 19779,
    "Ġaffect": 1384,
    "Ġblackstone": 23400,
    "previously": 17215,
    "Ġtax": 13819,
    "Ġquality": 3529,
    "ignant": 11132,
    "Ġculprit": 26181,
    "Ġtwitched": 20452,
    "uarded": 21114,
    "Ġtortures": 14933,
    "Ġliberties": 19680,
    "Ġwinter": 5223,
    "cra": 6354,
    "Ġthreading": 23413,
    "Ġrelieve": 8225,
    "Ġexerc": 6837,
    "Ġbackpropagation": 1281,
    "staff": 21656,
    "Ġdut": 2989,
    "fifth": 20156,
    "ww": 10741,
    "Ġwarehouse": 20425,
    "admirably": 24957,
    "Ġsports": 18319,
    "Ġinjustice": 9198,
    "bearded": 18534,
    "Ġveter": 15819,
    "Ġrighteous": 18956,
    "Ġresent": 6049,
    "parm": 21023,
    "Ġsung": 23283,
    "aston": 7409,
    "Ġfurlong": 18752,
    "way": 765,
    "Ġcrossed": 6069,
    "ictions": 14229,
    "c": 71,
    "Ġelixir": 26564,
    "Ġgate": 6828,
    "Ġsaintly": 25940,
    "Ġcrescentic": 20631,
    "Ġwards": 17797,
    "ned": 3494,
    "Ġweaver": 11688,
    "Ġofficer": 6755,
    "inct": 3293,
    "cannibal": 15232,
    "Ġwil": 4584,
    "Ġextremity": 8992,
    "Ġremotest": 10055,
    "Ġservant": 5766,
    "circle": 16747,
    "istol": 6259,
    "Ġlullaby": 20597,
    "Ġsincer": 13067,
    "Ġloudly": 7315,
    "Ġoutstretched": 14199,
    "Ġretained": 7175,
    "Ġarguments": 8037,
    "chooses": 23685,
    "Ġtash": 13823,
    "dwell": 15349,
    "Ġplanned": 14760,
    "Ġdepart": 4660,
    "housekeeper": 24113,
    "Ġraved": 22660,
    "Ġgoose": 5939,
    "Ġrover": 18465,
    "Ġsucceeding": 16771,
    "Ġder": 1497,
    "writer": 14655,
    "Ġundiscovered": 18261,
    "Ġcursed": 6731,
    "firm": 10702,
    "Ġroman": 8325,
    "ception": 6565,
    "Ġnailing": 21533,
    "Ġpencil": 11944,
    "soul": 9145,
    "Ġchocks": 13347,
    "Ġinf": 1758,
    "Ġexpatiate": 18637,
    "iple": 4810,
    "Ġtwentieth": 18672,
    "Ġsince": 1798,
    "Ġappropri": 2225,
    "Ġbrimstone": 25694,
    "Ġbedside": 19134,
    "×": 152,
    "Ġorganisation": 23596,
    "interruption": 20121,
    "orified": 21409,
    "ention": 862,
    "Ġcorpulence": 24522,
    "uated": 10135,
    "Ġinterpretation": 19728,
    "Ġteeth": 4171,
    "immediately": 10052,
    "ubb": 1651,
    "Ġdub": 13912,
    "gay": 11492,
    "Ġappe": 1542,
    "Ġreliance": 14389,
    "bingleys": 19647,
    "Ġbuckets": 17041,
    "Ġtransportation": 13643,
    "ĠĠĠĠĠĠĠĠĠĠĠĠĠĠĠĠĠĠĠĠĠĠĠĠ": 5324,
    "Ġfolding": 19738,
    "Ġproprietors": 20197,
    "Ġdesignated": 19532,
    "Ġgouge": 26197,
    ".,": 5989,
    "broken": 8021,
    "Ġsuffice": 18882,
    "Ġdeigned": 18145,
    "Ġineffable": 17338,
    "apparently": 15212,
    "iage": 17581,
    "Ġwrinkles": 8574,
    "Ġimpressed": 8201,
    "Ġjackal": 24252,
    "Ġsickening": 19617,
    "Ġwidow": 8665,
    "Ġginger": 9218,
    "rene": 5380,
    "locks": 14461,
    "Ġhard": 1440,
    "Ġtacit": 21183,
    "Ġwasn": 6999,
    "Ġprows": 19899,
    "orters": 21408,
    "avenza": 17112,
    "Ġnorthern": 7268,
    "Ġexecutors": 19544,
    "Ġspo": 6849,
    "say": 3986,
    "Ġfurrow": 22822,
    "osely": 9271,
    "Ġbaron": 19345,
    "Ġskylarking": 19497,
    "ab": 345,
    "Ġ130": 24795,
    "Ġsavory": 23885,
    "Ġconsiderable": 4009,
    "especially": 3573,
    "itively": 21338,
    "theast": 21754,
    "Ò": 147,
    "Ġslice": 23171,
    "Ġconcer": 23331,
    "ognit": 19194,
    "Ġvouch": 15817,
    "whispered": 20042,
    "Ġdaughters": 4428,
    "weaknesses": 26039,
    "character": 6331,
    "deliber": 17434,
    "Ġgaiety": 16760,
    "Ġinstructive": 19296,
    "Ġfight": 5369,
    "charitable": 23941,
    "Ġscaling": 3632,
    "Ġwert": 12556,
    "ility": 624,
    "Ġdeference": 10884,
    "Ġanyone": 4465,
    "Ġrevolve": 19741,
    "))": 1515,
    "Ġsubs": 2118,
    "abroad": 18115,
    "Ġfingertips": 24025,
    "Ġexcellence": 11455,
    "Ġapp": 492,
    "Ġtrespass": 23613,
    "Ġchest": 5189,
    "odecim": 9835,
    "Ġpittance": 15622,
    "connect": 1291,
    "Ġalbatross": 10874,
    "jonah": 11500,
    "ologically": 22868,
    "invincible": 25102,
    "six": 7143,
    "Ġcheever": 23296,
    "perils": 22187,
    "daughters": 13469,
    "Ġmiscellaneous": 17470,
    "cused": 15340,
    "reement": 15517,
    "¯": 112,
    "Ġperformer": 18769,
    "Ġheadlong": 11888,
    "Ġregarded": 5764,
    "Ġswears": 16472,
    "Ġbelike": 18842,
    "excited": 13382,
    "Ġmazes": 25949,
    "Ġsymmet": 11747,
    "Ġreserved": 7528,
    "ù": 186,
    "hate": 20902,
    "Ġunited": 6843,
    "ns": 750,
    "Ġsearching": 13165,
    "Ġalexander": 17432,
    "clay": 18942,
    "keep": 3852,
    "Ġmajority": 13293,
    "allions": 22203,
    "ra": 314,
    "prosperity": 20745,
    "inev": 21984,
    "ilet": 12829,
    "Ġpleasing": 6191,
    "Ġwithdrawn": 10611,
    "mind": 4630,
    "mblings": 19790,
    "ibilities": 13008,
    "Ġmeditative": 25027,
    "Ġcripp": 9660,
    "hypothe": 25914,
    "engaged": 7453,
    "Ġperpendicular": 7211,
    "Ġcracks": 12021,
    "Ġplaced": 3445,
    "Ġsaddest": 16671,
    "transition": 24526,
    "Ġbelieved": 4375,
    "swinging": 25921,
    "village": 25431,
    "gard": 7342,
    "Ġsmart": 11815,
    "Ġinvoked": 19156,
    "worth": 8628,
    "Ġnur": 5712,
    "Ġlewis": 15731,
    "Ġacquiescence": 20339,
    "brimming": 23590,
    "Ġkitty": 3910,
    "Ġpeddling": 24812,
    "Ġclasp": 9750,
    "quently": 9708,
    "Ġresented": 22553,
    "Ġgentle": 1889,
    "Ġandes": 12642,
    "Ġwander": 9035,
    "Ġclump": 15983,
    "Ġflapped": 23024,
    "pon": 17633,
    "Ġwhirlpool": 20664,
    "Ġmincer": 14370,
    "Ġstiffness": 24843,
    "Ġpeculiar": 3148,
    "ouses": 5166,
    "ĭ": 238,
    "Ġimprecations": 25829,
    "Ġsal": 3941,
    "Ġinstigated": 18711,
    "Ġideas": 5498,
    "billiard": 25344,
    "Ġmadame": 13153,
    "Ġflourishing": 25198,
    "Ġflow": 1235,
    "moderate": 22860,
    "Ġpasseng": 12971,
    "Ġnick": 21529,
    "utch": 21592,
    "Ġfiercely": 12952,
    "Ġhindoo": 17183,
    "driver": 15082,
    "convers": 6570,
    "Ġpalpit": 16701,
    "Ġhamper": 19399,
    "Ġcity": 4533,
    "gently": 13730,
    "Ġkink": 22198,
    "herds": 22209,
    "Ġrelevance": 5188,
    "Ġannoyance": 20671,
    "Ġexcurs": 23325,
    "Ġlegend": 14581,
    "Ġcuriously": 13023,
    "Ġdetain": 14186,
    "Ġaddu": 22109,
    "entimes": 12657,
    "Ġparadigms": 3055,
    "confused": 19657,
    "Ġmomentary": 11038,
    "Ġnotable": 18230,
    "eluded": 21581,
    "Ġsociety": 3980,
    "Ġsoc": 3526,
    "Ġrepresenting": 4062,
    "Ġjoke": 8872,
    "Ġfrank": 4426,
    "Ġjagged": 18418,
    "Ġcasual": 11413,
    "Ġowning": 18756,
    "Ġlicense": 20100,
    ".": 18,
    "Ġantagonist": 26337,
    "Ġvane": 22884,
    "Ġcombining": 22882,
    "civilized": 17082,
    "Ġpledged": 20697,
    "Ġlouis": 8359,
    "sixty": 24865,
    "Ġincredulity": 11315,
    "Ġvalidation": 2357,
    "admitted": 18098,
    "Ġannihil": 10179,
    "iantly": 13740,
    "Ġland": 1995,
    "vint": 21123,
    "Ġwer": 12552,
    "Ġhumiliating": 22893,
    "Ġhesitated": 10005,
    "Ġglove": 14497,
    "Ġprogen": 14042,
    "Ġdetaining": 25828,
    "Ġidea": 2490,
    "reat": 619,
    "Ġblubber": 5668,
    "ook": 21013,
    "Ġstraps": 19320,
    "intentions": 22948,
    "Ġtravelling": 11311,
    "Ġwarbling": 26177,
    "Ġproble": 1111,
    "aloes": 21508,
    "Ġamerican": 5064,
    "historical": 20474,
    "âĢľâĢĺ": 1481,
    "ap": 546,
    "Ġdifferent": 1425,
    "Ġrespectable": 6738,
    "Ġjam": 10954,
    "Ġprophe": 13080,
    "coming": 3563,
    "wrapped": 15217,
    "Ġwallet": 21307,
    "cano": 18850,
    "kovoko": 20678,
    "Ġonce": 1491,
    "Ġjustly": 11904,
    "Ġpedest": 15006,
    "Ġmalady": 24407,
    "imp": 3032,
    "Ġarches": 14164,
    "orily": 15578,
    "civility": 17521,
    "medi": 2635,
    "Ġconceivable": 16623,
    "Ġknotted": 17026,
    "figures": 20131,
    "Ġqualities": 7534,
    "Ġfacet": 15590,
    "Ġevol": 2817,
    "Ġperfections": 23620,
    "ax": 694,
    "pot": 10121,
    "beheaded": 22503,
    "Ġorlop": 22095,
    "alizing": 17947,
    "Ġnervous": 2407,
    "Ġaltered": 7395,
    "Ġhelmsman": 10510,
    "scy": 21064,
    "was": 1420,
    "Ġstubb": 1788,
    "Ġhorse": 4731,
    "qualified": 17106,
    "Ġtrack": 7452,
    "Ġignominy": 15093,
    "Ġrocky": 13390,
    "surround": 16768,
    "olets": 21017,
    "Ġdecreas": 1649,
    "thumb": 18226,
    "Ġprosecut": 9704,
    "Ġfigure": 4210,
    "Ġrenow": 18035,
    "Ġalarm": 4050,
    "Ġplu": 8801,
    "ipagos": 22353,
    "rannical": 26410,
    "strongly": 24698,
    "Ġcolle": 8927,
    "Ġitalian": 12411,
    "Ġunconnected": 18250,
    "shells": 26065,
    "Ġtons": 11552,
    "Ġcaterpillar": 5868,
    "Ġmoves": 14235,
    "highest": 20416,
    "Ġrevolving": 9986,
    "Ġwrung": 14474,
    "Ġserve": 9401,
    "Ġatmosphere": 10900,
    "Ġbells": 19614,
    "Ġpenetrated": 13475,
    "Ġsignific": 3830,
    "investigations": 25541,
    "Ġpunct": 8663,
    "orated": 12591,
    "oughed": 22086,
    "Ġislets": 21807,
    "Ġimprinted": 22396,
    "ilated": 18064,
    "ounded": 9753,
    "Ġpositions": 2056,
    "Ġobli": 9322,
    "Ġcondu": 18116,
    "Ġirrespective": 23386,
    "pig": 8755,
    "Ġdescribes": 3117,
    "urre": 10859,
    "fred": 20865,
    "Ġwrites": 23207,
    "ntax": 934,
    "Ġpreserve": 7414,
    "Ġrekindled": 21683,
    "ference": 1881,
    "arched": 10818,
    "gaz": 20888,
    "Ġexactness": 23617,
    "Ġexcuses": 19055,
    "Ġillustrious": 17117,
    "swaying": 25919,
    "Ġforeb": 12005,
    "tout": 21074,
    "Ġinsignificance": 20466,
    "Ġunsub": 22028,
    "Ġsimplicity": 2925,
    "Ġbowing": 10482,
    "Ġcrushed": 9430,
    "smo": 10129,
    "Ġtremor": 24782,
    "izings": 14054,
    "accident": 11184,
    "everywhere": 23705,
    ",*": 17479,
    "Ġasi": 12733,
    "Ġfulfilment": 20198,
    "ination": 2915,
    "values": 4974,
    "Ġmind": 1621,
    "convinced": 10627,
    "Ġthanked": 9465,
    "Ġser": 2067,
    "persons": 24187,
    "Ġthirteen": 15282,
    "bellies": 19982,
    "Ġindistinct": 17416,
    "usage": 12833,
    "unning": 4498,
    "Ġfortune": 4243,
    "ion": 296,
    "Ġbargain": 23801,
    "Ġadro": 15876,
    "Ġimages": 1602,
    "Ġperpet": 7646,
    "Ġappointment": 10650,
    "Ġreigns": 21677,
    "Ġploughing": 26268,
    "vi": 2375,
    "ivation": 3106,
    "Ġislands": 6768,
    "Ġunfathomably": 25882,
    "Ġboasting": 19945,
    "compl": 6877,
    "Ġcracked": 8595,
    "orough": 5702,
    "ileries": 18065,
    "Ġfergus": 16904,
    "Ġnobler": 14177,
    "narrowly": 20356,
    "Ġwipe": 25773,
    "exclaimed": 11790,
    "lished": 8385,
    "Ġinteraction": 7426,
    "longing": 23736,
    "Ġpacing": 8428,
    "Ġpreservation": 22240,
    "Ġbay": 9176,
    "bearers": 18536,
    "Ġindispensable": 11900,
    "irs": 15791,
    "Ġteaching": 10370,
    "assuming": 22318,
    "uble": 21111,
    "izens": 18150,
    "Ġmerchantmen": 19869,
    "Ġnonsensical": 21535,
    "mell": 20974,
    "_âĢĿ": 20771,
    "sufficient": 6637,
    "Ġunclad": 22058,
    "Ġyielded": 14883,
    "oration": 2207,
    "Ġinsc": 7586,
    "substance": 15239,
    "mortar": 25417,
    "Ġusage": 9736,
    "fellows": 12274,
    "hib": 15375,
    "Ġlane": 5629,
    "Ġdiver": 2534,
    "Ġloomings": 24962,
    "separated": 20170,
    "hamed": 6305,
    "Ġsolitude": 6880,
    "airs": 2220,
    "Ġxlix": 25869,
    "stee": 21651,
    "steelkilt": 10050,
    "Ġvertebra": 20192,
    "Ġcabinet": 23870,
    "abetical": 15749,
    "Ġproblem": 1267,
    "Ġbri": 21385,
    "Ġpoignant": 22606,
    "Ġhorn": 6186,
    "Ġcuvier": 9173,
    "ulum": 21869,
    "grampus": 18630,
    "furthermore": 20011,
    "alu": 969,
    "Ġtucked": 12393,
    "Ġturtle": 4207,
    "gging": 7698,
    "fortunate": 4796,
    "Ġcrowned": 16850,
    "Ġrow": 5312,
    "Ġdated": 10942,
    "commanding": 24766,
    "Ġplucked": 15121,
    "hess": 4751,
    "Ġtreacle": 14602,
    "Ġdarcy": 1342,
    "entire": 6827,
    "Ġcharitable": 23280,
    "Ġcheapside": 23300,
    "Ġkingdom": 12020,
    "Ġimmensities": 25340,
    "Ġfing": 3759,
    "Ġ97": 19784,
    "Ġpile": 8426,
    "Ġcontract": 18486,
    "Ġoctober": 17234,
    "Ġamounted": 18525,
    "Ġguid": 2644,
    "ignor": 8965,
    "Ġpropagating": 20644,
    "Ġlearnable": 3998,
    "difference": 13709,
    "Ġexclusion": 19407,
    "Ġregardless": 19335,
    "immedi": 8453,
    "ifted": 4499,
    "Ġjames": 6419,
    "ellig": 517,
    "Ġcharged": 9857,
    "Ġsubmission": 22800,
    "volut": 1562,
    "Ġunfathom": 14800,
    "owner": 18625,
    "Ġfresher": 23220,
    "Ġcircles": 7968,
    "Ġcanopy": 18330,
    "Ġwiping": 25774,
    "Ġcompar": 4775,
    "itates": 13872,
    "Ġsires": 21235,
    "wet": 15459,
    "icit": 3381,
    "Ġful": 4301,
    "though": 2117,
    "Ġgrowled": 19294,
    "Ġinsects": 25654,
    "Ġvapors": 19918,
    "Ġrind": 21974,
    "laid": 10113,
    "Ġproceeded": 5338,
    "Ġlig": 21554,
    "Ġtistig": 26422,
    "Ġmir": 9653,
    "Ġstyled": 24685,
    "Ġago": 3131,
    "bushes": 24462,
    "Ġnind": 17957,
    "Ġcapering": 21361,
    "Ġspared": 7894,
    "Ġsevent": 18208,
    "Ġhab": 4221,
    "inu": 1116,
    "religion": 20585,
    "Ģ": 227,
    "Ġsolution": 9807,
    "Ġtar": 2566,
    "Ġlangu": 575,
    "Ġicicles": 25277,
    "tall": 17681,
    "sympathy": 20551,
    "Ġlong": 793,
    "contemplated": 20467,
    "ishly": 14203,
    "Ġunabated": 15861,
    "Ġbarred": 9006,
    "Ġrussia": 26276,
    "abama": 12710,
    "Ġwindow": 2998,
    "Ġtoken": 2038,
    "Ġchapter": 2957,
    "Ġdeduction": 14910,
    "Ġexclusiveness": 23935,
    "Ġeffected": 14357,
    "yden": 21153,
    "Ġassertion": 13052,
    "Ġsituated": 9452,
    "Ġgreater": 3036,
    "Ġsimplest": 16343,
    "Ġwilled": 21300,
    "inside": 23074,
    "plainly": 11092,
    "twas": 15444,
    "murdered": 12202,
    "fashioned": 9577,
    "Ġgifts": 21618,
    "Ġbrazier": 26329,
    "Ġfinancier": 26592,
    "anned": 17847,
    "Ġassembly": 10646,
    "gyric": 19122,
    "Ġdramat": 23227,
    "Ġprudence": 13923,
    "Ġze": 8547,
    "Åĵuvre": 25896,
    "Ġbouquet": 20692,
    "Ġfast": 1717,
    "oud": 1938,
    "beauty": 20113,
    "Ġrum": 5925,
    "Ġinfle": 16375,
    "Ġtarts": 10756,
    "Ġrecord": 5319,
    "hertfordshire": 10939,
    "giana": 7801,
    "Ġfunction": 584,
    "centre": 17094,
    "amed": 4454,
    "Ġunparalleled": 15862,
    "Ġproportion": 7284,
    "clut": 23162,
    "Ġgrapes": 15223,
    "Ġthirdly": 24156,
    "care": 4930,
    "whence": 23225,
    "shell": 16294,
    "alyards": 18797,
    "Ġamph": 18523,
    "whale": 2141,
    "conditional": 9082,
    "Ġrooted": 13172,
    "ver": 331,
    "Ġimplies": 24886,
    "Ġclaims": 13375,
    "Ġbuying": 24004,
    "appointment": 24068,
    "pl": 402,
    "Ġthrowing": 6335,
    "Ġexordium": 26500,
    "Ġprotect": 6337,
    "Ġcorpora": 26589,
    "Ġdissect": 16062,
    "heavy": 10580,
    "Ġphrenologists": 25617,
    "atra": 17780,
    "ocation": 14633,
    "Ġadvertise": 25397,
    "lord": 3867,
    "write": 14654,
    "Ġthough": 992,
    "Ġfisheries": 17445,
    "Ġoutstanding": 22323,
    "Ġaccomplish": 14887,
    "appetite": 22854,
    "egyptians": 25907,
    "successfully": 15001,
    "ication": 989,
    "ateg": 1332,
    "tuning": 1585,
    "Ġolder": 9333,
    "Ġresentful": 24645,
    "Ġampl": 22490,
    "iltrated": 19316,
    "steps": 9412,
    "homage": 25625,
    "Ġlinguistic": 12426,
    "Ġbench": 7241,
    "Ġpack": 5447,
    "shold": 2778,
    "Ġdriven": 6199,
    "Ġassistant": 7301,
    "ĠcÃ¦": 15560,
    "Ġtwo": 1041,
    "izure": 21847,
    "Ġglobular": 19022,
    "Ġgrain": 15839,
    "Ġbackbone": 22669,
    "Ġimmeas": 18339,
    "Ġtranslates": 12053,
    "Ġfrederick": 15592,
    "R": 54,
    "Ġbase": 5016,
    "itime": 15553,
    "Ġrouse": 15829,
    "Ġwriting": 4671,
    "Ġparaph": 22124,
    "Ġtip": 15478,
    "Ġsand": 6236,
    "syntax": 5870,
    "87": 20767,
    "Ġsunk": 5754,
    "inquiries": 13579,
    "ushes": 22298,
    "Ġreaction": 15701,
    "vard": 21119,
    "Ġdives": 17899,
    "Ġshortness": 23493,
    "Ġrem": 954,
    "gallery": 24707,
    "girls": 12320,
    "Ġerud": 20064,
    "Ġintentionally": 24536,
    "Ġbawling": 25954,
    "Ġthrows": 14745,
    "Ġconv": 2970,
    "ĠÂ£": 5008,
    "Ġembarks": 23009,
    "Ġencompassed": 15261,
    "purp": 8091,
    "Ġadmits": 23564,
    "Ġbuild": 6474,
    "Ġalas": 5923,
    "Ġslumber": 13063,
    "Ġcl": 557,
    "Ġfifteen": 6950,
    "Ġclamorous": 24922,
    "Ġmod": 494,
    "pher": 11515,
    "daring": 20839,
    "Ġuniverse": 14127,
    "barr": 15328,
    "Ġty": 6659,
    "Ġlibrary": 6423,
    "Ġsophisticated": 1538,
    "determine": 19953,
    "Ġconvinced": 4209,
    "Ġsalutation": 12398,
    "Ġperemptorily": 17373,
    "Ġstrangers": 8316,
    "Ġlet": 1113,
    "particulars": 11319,
    "Ġexceed": 1344,
    "Ġrenowned": 26202,
    "Ġprogrammed": 11061,
    "sham": 9762,
    "Ġmour": 6976,
    "Ġconfess": 3770,
    "Ġinsertion": 26352,
    "azed": 9405,
    "Ġearnestness": 12127,
    "Ġsword": 6734,
    "iarity": 8746,
    "Ġawakened": 10459,
    "ives": 1407,
    "Ġhonors": 23614,
    "Ġbus": 1903,
    "Ġexhibiting": 19847,
    "boiling": 19012,
    "rus": 5931,
    "phur": 16157,
    "ifying": 5238,
    "Ġscold": 10953,
    "Ġupper": 5094,
    "Ġroving": 22408,
    "Ŀ": 256,
    "ptember": 10897,
    "cases": 12448,
    "suff": 4963,
    "skirted": 24473,
    "Ġandrew": 21513,
    "gives": 15365,
    "je": 11499,
    "baned": 17503,
    "ibid": 18851,
    "Ġparcels": 25474,
    "Ġinvade": 19154,
    "conjecture": 15130,
    "Ġsulphur": 24946,
    "Ġsummers": 23882,
    "Ġwidows": 24249,
    "Ġafrica": 12346,
    "forbidding": 25846,
    "Ġstat": 1490,
    "bird": 9592,
    "Ġpole": 6433,
    "Ġinnocence": 6477,
    "Ġreminding": 19806,
    "Ġunwound": 25180,
    "disappeared": 14577,
    "screen": 23002,
    "Ġpop": 5154,
    "Ġarguing": 25479,
    "Ġresnet": 5476,
    "erranean": 9340,
    "strils": 10464,
    "Ġminimax": 5862,
    "en": 271,
    "eches": 8078,
    "threatened": 25471,
    "clusion": 16315,
    "Ġmonuments": 22990,
    "Ġquietude": 19370,
    "inconsiderable": 21200,
    "Ġstaircase": 20105,
    "Ġcontemptuous": 24690,
    "Ġstarboard": 7605,
    "spin": 22745,
    "uttermost": 24953,
    "Ġjove": 9274,
    "existence": 16023,
    "eridge": 15532,
    "sequ": 2403,
    "Ġargued": 13630,
    "glad": 9011,
    "inction": 6662,
    "Ġcarpet": 9362,
    "lessly": 4559,
    "mies": 20978,
    "hoisting": 23727,
    "bouton": 17509,
    "Ġstaves": 21746,
    "¾": 127,
    "Ġcrowding": 13282,
    "Ġbleak": 10564,
    "Ġslip": 8958,
    "singing": 24377,
    "Ġlatin": 16831,
    "Ġpaced": 7584,
    "source": 11529,
    "Ġtribe": 10754,
    "urg": 8143,
    "Ġwritten": 4172,
    "dire": 15344,
    "Ġcrib": 21355,
    "Ġsurpr": 2553,
    "effort": 19226,
    "Ġpeaking": 22700,
    "arding": 22161,
    "Ġcompromised": 22581,
    "Ġjacket": 6489,
    "Ġcrowds": 14747,
    "Ġethiop": 26164,
    "Ġsporty": 19900,
    "Ġsinging": 7724,
    "Ġwherefore": 8527,
    "Ġbeef": 6833,
    "Ġdiscreet": 16493,
    "atching": 8204,
    "Ġpredestinated": 18529,
    "Ġapartment": 6635,
    "Ġobliter": 14326,
    "twig": 23706,
    "Ġapproached": 5846,
    "is": 280,
    "Ġremonstr": 16170,
    "Ġinfernal": 11964,
    "Ġnightfall": 23142,
    "Ġreally": 2160,
    "Ġbuoy": 8004,
    "Ġunwarrant": 20143,
    "orne": 17880,
    "Ġcandidate": 16711,
    "Ġsensations": 5262,
    "Ġboa": 22645,
    "Ġscruples": 15086,
    "Ġgrim": 7441,
    "Ġstalls": 25655,
    "Ġtries": 9157,
    "Ġquestion": 2782,
    "onents": 8779,
    "amp": 2610,
    "em": 389,
    "Ġmoulded": 16982,
    "surgeon": 24227,
    "Ġcompletion": 12149,
    "Ġtempestuous": 20080,
    "Ġencircling": 26280,
    "Ġrates": 1402,
    "Ġerr": 1321,
    "Ġcontinuous": 1563,
    "Ġthankful": 14746,
    "Ġpuppy": 12406,
    "shoes": 14242,
    "Ġgrimesby": 11461,
    "Ġpreprocess": 22239,
    "priv": 9626,
    "Ġimpass": 15994,
    "Ġagrees": 22526,
    "Ġplatform": 17139,
    "Ġon": 350,
    "philips": 20043,
    "Ġhowling": 8512,
    "ean": 20850,
    "Ġconfining": 23317,
    "Ġdissimilar": 22541,
    "doctor": 19108,
    "Ġdocile": 19967,
    "Ġfloats": 9420,
    "developed": 15272,
    "seek": 8840,
    "Ġtoma": 7375,
    "ampton": 18151,
    "limp": 20962,
    "Ġtap": 12527,
    "Ġdaintiest": 25962,
    "guilt": 24070,
    "Ġshud": 5464,
    "Ġsauntering": 18336,
    "Ġescape": 2652,
    "Ġburning": 5977,
    "Ġtravelled": 7772,
    "Ġauthent": 14504,
    "Ġeagerness": 6610,
    "adequate": 15211,
    "Ġtrough": 15978,
    "Ġjoyous": 14670,
    "Ġmildness": 9947,
    "Ġimpropriety": 17402,
    "olence": 10235,
    "Ġdistinct": 4613,
    "Ġapex": 24355,
    "Ġenthusiastic": 19974,
    "Ġmap": 2391,
    "Ġannihilated": 20262,
    "spades": 14337,
    "wl": 17711,
    "Ġindu": 5296,
    "co": 2437,
    "Ġforeseeing": 23462,
    "rate": 2424,
    "Ġnoblest": 13245,
    "industrious": 26248,
    "Ġconsuming": 22802,
    "plutarch": 21968,
    "nment": 21000,
    "Ġtouching": 4684,
    "Ġoars": 3897,
    "Ġgracefully": 13394,
    "Ġ128": 24492,
    "ps": 4578,
    "Ġsentimental": 24768,
    "Ġlucerne": 23874,
    "Ġdiscovery": 5412,
    "Ġfactor": 19025,
    "trad": 21085,
    "Ġnovelties": 24792,
    "unbidden": 21900,
    "Ġpotential": 3619,
    "Ġdreadfully": 7726,
    "ogy": 22706,
    "ping": 9622,
    "ician": 21571,
    "bing": 7792,
    "acceptable": 25195,
    "Ġvoluntary": 14810,
    "Ġcurtains": 23018,
    "Ġinterrupting": 19571,
    "purposes": 25034,
    "ernal": 4318,
    "measure": 10034,
    "Ġthinkings": 22819,
    "tied": 21079,
    "Ġstern": 4225,
    "bon": 13685,
    "Ġspikes": 22140,
    "remarkable": 13499,
    "Ġsucc": 12785,
    "Ġyea": 8919,
    "fright": 9602,
    "persu": 8029,
    "Ġinsol": 10185,
    "vine": 10738,
    "Ġelij": 8912,
    "Ġcheap": 13090,
    "avier": 2833,
    "grie": 12471,
    "Ġpostmark": 16735,
    "protested": 13477,
    "Ġlose": 5032,
    "Ġrachel": 11847,
    "spl": 9144,
    "Ġclerks": 17300,
    "ulatory": 15774,
    "Ġcan": 468,
    "Ġbulge": 23866,
    "idays": 21776,
    "anting": 6412,
    "Ġindist": 14412,
    "Ġenable": 685,
    "Ġeternal": 5976,
    "Ġcircumstantial": 14650,
    "Ġprevents": 2560,
    "pieces": 8757,
    "Ġ1883": 23903,
    "south": 8760,
    "instrument": 15246,
    "Ġbulls": 23867,
    "Ġjan": 11762,
    "Ġsaturday": 6452,
    "swe": 5997,
    "Ġinfatuated": 20544,
    "verity": 14004,
    "Ġpalmed": 24101,
    "Ġdardanelles": 26451,
    "shock": 19864,
    "achment": 5467,
    "Ġwindows": 4973,
    "scissors": 20737,
    "ulnerable": 18157,
    "Ġmetropolitan": 17281,
    "Ġparamet": 608,
    "parad": 16398,
    "tural": 21075,
    "Ġhung": 4563,
    "uther": 8819,
    "game": 11494,
    "started": 10848,
    "Ġshark": 5552,
    "Ġberm": 21390,
    "pumps": 21036,
    "Ġintrodu": 1922,
    "Ġfeasible": 22216,
    "Ġcopies": 24948,
    "Ġgemini": 26477,
    "arms": 10178,
    "ourage": 2454,
    "Ġfelicity": 7263,
    "Ġapril": 13663,
    "Ġdisgrace": 7217,
    "Ġindustry": 18848,
    "aswag": 21552,
    "Ġanonymous": 26187,
    "Ġproceeds": 12079,
    "Ġoriental": 9100,
    "Ġcocain": 18607,
    "afford": 14661,
    "rap": 21634,
    "pile": 17637,
    "penetrate": 20333,
    "Ġtiny": 11555,
    "pe": 1433,
    "Ġconveying": 19726,
    "Ġgranting": 18750,
    "Ġpropag": 16356,
    "attachment": 13055,
    "Ġnug": 21531,
    "Ġstream": 5190,
    "Ġsentinel": 26074,
    "Ġproperly": 7946,
    "Ġrejection": 19992,
    "Ġthereupon": 18444,
    "vessels": 10630,
    "destroy": 19521,
    "displayed": 20746,
    "Ġraft": 16125,
    "Ġgleam": 12309,
    "backed": 9869,
    "Ġunnearable": 26525,
    "Ġbehalf": 14514,
    "Ġahoy": 12185,
    "Ġflourished": 15133,
    "Ġgrief": 4624,
    "Ġagents": 9770,
    "adventurous": 25371,
    "Ġefficiently": 3858,
    "infant": 19836,
    "Ġbusks": 23350,
    "Ġinferred": 14509,
    "renewed": 19716,
    "Ġrepeatedly": 9024,
    "Ġenvy": 13199,
    "idge": 14017,
    "Ġdiffused": 12070,
    "âĢĶâĢĶâĢĿ": 15948,
    "fthand": 26395,
    "digger": 24323,
    "wandering": 20293,
    "iss": 2176,
    "Ġobliv": 16142,
    "ni": 1662,
    "unct": 18161,
    "Ġexpansion": 22634,
    "Ġloadstone": 25825,
    "Ġacting": 10994,
    "Ġsatin": 12988,
    "Ġdecomposition": 5345,
    "Ġdeserves": 13012,
    "Ġinquisitive": 26326,
    "Ġcordially": 16845,
    "Ġlanyard": 26469,
    "wis": 12519,
    "Ġdeceiving": 21843,
    "Ġhabitu": 19539,
    "Ġtranced": 18438,
    "els": 1765,
    "Ġpoor": 1709,
    "leviathans": 19947,
    "Ġxlvi": 25599,
    "Ġ25": 13195,
    "male": 15396,
    "Ġworrying": 22936,
    "Ġtemporal": 2617,
    "Ġearn": 3548,
    "Ġlovel": 10277,
    "Ġgiven": 1627,
    "Ġdrooping": 9427,
    "wards": 1273,
    "ividual": 5466,
    "injustice": 17746,
    "greek": 25413,
    "mult": 8750,
    "Ġstacks": 18081,
    "Ġinfluences": 14876,
    "Ġsubstance": 5514,
    "Ġproves": 14041,
    ".}": 20755,
    "Ġoverlapping": 26247,
    "Ġste": 1387,
    "Ġneur": 812,
    "ispensable": 9099,
    ".âĢĻâĢĿ": 6740,
    "Ġboxes": 13376,
    "Ġrust": 6408,
    "Ġwaved": 9651,
    "Ġlodging": 24104,
    "oundered": 14168,
    "servant": 14764,
    "smeer": 26156,
    "record": 16929,
    "erringly": 16220,
    "vib": 21124,
    "endured": 22227,
    "Ġcoinc": 11004,
    "othed": 16521,
    "Ġnameless": 7700,
    "Ġmoment": 990,
    "Ġanaly": 1138,
    "conjectured": 25192,
    "rever": 21244,
    "Ġneville": 7400,
    "meant": 7922,
    "Ġkindred": 16387,
    "Ġinclude": 1873,
    "Ġgazes": 24105,
    "Ġrever": 6539,
    "Ġrecalled": 8540,
    "Ġforeseen": 16452,
    "Ġroanoke": 22412,
    "Ġhinges": 15220,
    "cept": 551,
    "insensibility": 23078,
    "Ġtechnical": 17199,
    "Ġnow": 693,
    "Ġequ": 1734,
    "Ġbid": 6132,
    "Ġcrane": 23451,
    "Ġmisgivings": 15299,
    "Ġsailor": 3537,
    "Ġentertain": 6054,
    "particular": 5759,
    "Ġtowed": 11269,
    "icient": 781,
    "Ġrainbows": 19661,
    "supplemental": 25883,
    "Ġcolder": 22861,
    "special": 14710,
    "Ġhighness": 22784,
    "Ġhardship": 18924,
    "prisoner": 20552,
    "Ġcanst": 8861,
    "Ġendeavored": 19313,
    "Ġsugg": 4504,
    "Ġgalvan": 21623,
    "lungs": 26144,
    "Ġsimulation": 2758,
    "Ġhost": 7069,
    "ppa": 10245,
    "Ġtongue": 6347,
    "etition": 7384,
    "arthur": 14826,
    "://": 11469,
    "Ġenchant": 7187,
    "%": 9,
    "Ġsecretary": 19452,
    "Ġtrunks": 15979,
    "Ġjokes": 18419,
    "Ġpurposely": 10449,
    "Ġpoliceman": 15266,
    "Ġsternly": 16725,
    "arm": 1355,
    "Ġenclosure": 20634,
    "number": 10118,
    "Ġboat": 1274,
    "Ġmoments": 4848,
    "Ġfri": 17886,
    "roads": 17965,
    "Ġfact": 1728,
    "bering": 18694,
    "Ġtrampled": 20337,
    "Ġremonstrance": 20633,
    "Ġgrowth": 14636,
    "Ġpettiness": 24242,
    "inform": 10148,
    "Ġ45": 14780,
    "foundation": 16724,
    "animal": 16985,
    "roar": 17960,
    "Ġbreeding": 14528,
    "Ġimpression": 5734,
    "headsman": 16710,
    "grat": 5055,
    "Ġbusiness": 2230,
    "Ġgipsies": 12409,
    "Ġdespaired": 14675,
    "Ġjoin": 4856,
    "Ġassuring": 13051,
    "Ġcovari": 2339,
    "Ġrag": 18653,
    "ole": 9620,
    "chair": 5918,
    "Ġvast": 3297,
    "Ġhelter": 24034,
    "Ġsupposed": 4561,
    "ĠâĢľâĢĺ_": 25124,
    "Ġcovariate": 2351,
    "pents": 11516,
    "Ġviii": 16421,
    "luyt": 18470,
    "Ġsmelling": 16075,
    "Ġbluff": 16527,
    "Ġpattering": 18664,
    "blast": 9594,
    "Ġfilial": 16632,
    "Ġwaits": 23291,
    "threat": 10903,
    "Ġtitle": 11412,
    "discredit": 24263,
    "dining": 13706,
    "Ġfeared": 5932,
    "atively": 2702,
    "furn": 10095,
    "Ġmess": 7832,
    "Ġmiller": 19893,
    "ĠĠĠĠĠĠĠĠĠĠĠĠĠĠĠĠĠĠĠĠĠĠĠĠĠĠĠĠĠĠĠĠĠĠĠĠĠĠĠĠĠ": 19595,
    "Ġpair": 5708,
    "Ġturns": 4983,
    "Ġparlour": 12322,
    "Ġreceives": 20363,
    "Ġnear": 1718,
    "Ġmoderation": 12819,
    "chery": 24564,
    "reasoning": 9482,
    "Ġquant": 6424,
    "anatory": 21370,
    "Ġbrother": 2755,
    "Ġpropriety": 10013,
    "Ġexecut": 4251,
    "fail": 17548,
    "M": 49,
    "spoke": 11026,
    "retired": 11937,
    "Ġmill": 6669,
    "giving": 8741,
    "paws": 21038,
    "Ġsentin": 16384,
    "Ġmacey": 12563,
    "Ġgamb": 18005,
    "forget": 11035,
    "ork": 416,
    "):": 11465,
    "Ġscheming": 23281,
    "fury": 17555,
    "Ġnervously": 19199,
    "Ġrobert": 10972,
    "run": 10725,
    "nur": 11509,
    "justified": 19015,
    "Ġjuggling": 20447,
    "Ġrare": 7038,
    "tre": 8762,
    "xter": 9152,
    "Ġcrevice": 22738,
    "ignorantly": 25200,
    "Ġvariations": 22676,
    "Ġconditions": 8309,
    "Ġwavering": 23292,
    "Ġscreaming": 13425,
    "Ġpalsy": 25787,
    "remarks": 23198,
    "Ġwhispered": 5340,
    "Ġindelible": 25702,
    "Ġwretchedly": 19517,
    "Ġassumptions": 5521,
    "Ġzeros": 3327,
    "21": 10075,
    "Ġoriginal": 6103,
    "based": 2961,
    "flitted": 23975,
    "ure": 356,
    "Ġscorching": 20077,
    "Ġpref": 14175,
    "Ġsheath": 14155,
    "Ġdrinks": 24292,
    "Ġstreet": 2959,
    "eskye": 21457,
    "Ġdissuade": 26265,
    "Ġchilled": 18392,
    "racted": 4780,
    "Ġpatagonia": 25865,
    "jub": 20939,
    "Ġtooks": 23336,
    "Ġwave": 7576,
    "pidation": 18907,
    "Ġspacious": 18321,
    "original": 9088,
    "Ġeffusion": 22511,
    "Ġprom": 1526,
    "Ġrucastle": 5180,
    "Ġbarmaid": 19346,
    "cheer": 9443,
    "need": 10987,
    "ineas": 15830,
    "Ġdeductions": 19744,
    "creat": 20810,
    "Ġcommod": 10339,
    "Ġwinged": 17002,
    "Ġunctuous": 10272,
    "Ġmonstr": 7668,
    "Ġdiscernible": 15076,
    "Ġ90": 24604,
    "mechan": 11857,
    "Ġenforced": 21943,
    "aint": 2545,
    "Ġsomeone": 6706,
    "Ġgash": 15677,
    "Ġdried": 7369,
    "Ġtransitory": 16035,
    "Ġenumerating": 15252,
    "faint": 17553,
    "Ġengland": 3859,
    "Ġwharf": 9566,
    "Ġunmingled": 18272,
    "advent": 10226,
    "Ġwhipcord": 20104,
    "Ġtranquil": 7313,
    "teenth": 11874,
    "Ġpuff": 6528,
    "strangers": 20345,
    "Ġbunger": 9999,
    "oted": 4601,
    "Ġaudience": 24783,
    "Ġpoker": 13925,
    "Ġapoplexy": 25278,
    "escape": 16016,
    "geese": 22374,
    "chan": 1135,
    "Ġguardsmen": 20641,
    "satisfied": 10584,
    "hereafter": 19228,
    "Ġvale": 14085,
    "Ġdames": 23485,
    "Ġexponential": 1059,
    "disgrace": 16467,
    "Ġfired": 16163,
    "elastic": 17988,
    "Ġmutual": 8299,
    "Ġupdates": 1297,
    "Ġfool": 4238,
    "ĝ": 222,
    "Ġcomplimented": 14913,
    "blame": 14805,
    "istry": 22113,
    "Ġalley": 15742,
    "storm": 9687,
    "courageous": 26136,
    "opening": 10318,
    "Ġinsipid": 26322,
    "Ġsingers": 23780,
    "Ġrephrased": 26485,
    "Ġlod": 4045,
    "Ġunrelieved": 20553,
    "Ġnapoleon": 20567,
    "Ġprey": 6415,
    "Ġnarrating": 24365,
    "Ġhorrors": 10486,
    "Ġprepared": 5880,
    "Ġgateway": 24815,
    "Ġbranches": 6778,
    "Ġvirtues": 9939,
    "Ġavenues": 25438,
    "Ġbad": 3991,
    "Ġsiamese": 20491,
    "street": 6495,
    "ckles": 22098,
    "Ġlift": 8813,
    "cruising": 12280,
    "Ġgroups": 3720,
    "Ġmary": 3845,
    "cripp": 20829,
    "meth": 11506,
    "Ġwestward": 24404,
    "Ġcommanders": 23878,
    "Ġemblazonings": 26054,
    "uccas": 21115,
    "Ġladies": 3192,
    "Ġgetting": 4068,
    "Ġnin": 10192,
    "Ġlandlord": 5584,
    "Ġcommonly": 3263,
    "Ġassures": 14456,
    "Ġexulting": 20268,
    "chain": 18046,
    "Ġduke": 7756,
    "Ġavocation": 23928,
    "95": 17485,
    "waistcoat": 17367,
    "mblance": 7326,
    "etency": 21588,
    "sign": 8390,
    "adieu": 26209,
    "Ġ74": 24274,
    "rann": 21053,
    "Ġsubterr": 10354,
    "zeal": 16267,
    "hoisted": 19293,
    "lim": 9613,
    "Ġwal": 6519,
    "Ġcompliments": 8634,
    "Ġknowing": 4463,
    "presum": 12869,
    "Ġwonderfully": 10435,
    "amount": 10887,
    "stand": 632,
    "Ġdanish": 21438,
    "sens": 8096,
    "ester": 11600,
    "Ġarrangement": 2663,
    "upon": 2728,
    "block": 11474,
    "Ġbade": 9179,
    "Ġbal": 1132,
    "ching": 5159,
    "french": 9123,
    "!âĢĿâĢĶ": 8535,
    "pet": 4870,
    "Ġboldly": 9507,
    "Ġwaxed": 21306,
    "Ġtroub": 22361,
    "Ġfancying": 12114,
    "Ġshirt": 8852,
    "piece": 6657,
    "Ġencourage": 10386,
    "Ġpassion": 4560,
    "Ġacquies": 11100,
    "national": 21008,
    "stopping": 19360,
    "Ġmutter": 23960,
    "seaman": 25466,
    "breeding": 16685,
    "Ġcraft": 4383,
    "related": 24020,
    "impregn": 21720,
    "Ġnois": 4271,
    "Ġmonitors": 3152,
    "Ġrenew": 6146,
    "Ġstaff": 14009,
    "Ġdorm": 4825,
    "safe": 10057,
    "Ġwip": 13856,
    "Ġholding": 4981,
    "belief": 13284,
    "Ġcharity": 8866,
    "hand": 2763,
    "Ġsombre": 18864,
    "Ġdet": 514,
    "Ġhovering": 10183,
    "Ġquivering": 12858,
    "Ġbeg": 1280,
    "van": 7815,
    "Ġ71": 24272,
    "article": 22398,
    "undant": 14797,
    "separately": 25240,
    "Ġcovers": 18605,
    "inces": 13831,
    "Ġairth": 23329,
    "Ġoccupations": 9464,
    "Ġpredefined": 20727,
    "Ġmorbidness": 20639,
    "Ġflu": 3277,
    "Ġexped": 7652,
    "ude": 7563,
    "Ġbrushed": 15576,
    "Ġsickness": 10544,
    "Ġgovernesses": 25139,
    "Ġalbertus": 25656,
    "Ġwait": 4909,
    "astonished": 15043,
    "Ġthoroughfares": 26104,
    "domestic": 19834,
    "Ġthom": 21522,
    "Ġquitting": 7647,
    "Ġsets": 8776,
    "Ł": 258,
    "Ġpillow": 10041,
    "robust": 19739,
    "Ġaltern": 7396,
    "Ġplantation": 11427,
    "wheeling": 22877,
    "Ġwarnings": 16888,
    "derbyshire": 18331,
    "Ġflattened": 26056,
    "wedded": 24352,
    "none": 6965,
    "Ġfood": 5084,
    "Ġswallowed": 7945,
    "consid": 4926,
    "wood": 5899,
    "terms": 15757,
    "activation": 3230,
    "Ġmortified": 14700,
    "ensive": 6279,
    "paid": 15421,
    "Ġrede": 13987,
    "Ġhandles": 22707,
    "ĠâĢľâĢĶ": 9739,
    "Ġrecounted": 22740,
    "Ġsink": 4347,
    "Ġnorms": 3666,
    "Ġterrier": 23410,
    "Ġmeagre": 21816,
    "Ġadvertised": 17254,
    "Ġbarriers": 23803,
    "Ġsuper": 2154,
    "iop": 20929,
    "min": 4575,
    "·": 120,
    "Ġsomewhat": 4899,
    "Ġprovocation": 24205,
    "Ġamazement": 7765,
    "Ġbeth": 9664,
    "pow": 10721,
    "Ġventing": 19504,
    "Ġcorruption": 15233,
    "Ġclear": 1945,
    "whips": 22245,
    "Â": 131,
    "Ġuncivilized": 25506,
    "Ġgaieties": 24209,
    "trouble": 8298,
    "Ġretention": 23080,
    "hatchet": 24835,
    "Ġconvincing": 19318,
    "Ġperse": 6272,
    "Ġappearances": 10457,
    "Ġvehem": 22899,
    "_?âĢĿ": 15313,
    "Ġconsequently": 8059,
    "ission": 6457,
    "âĢĶâĢĻâĢĿ": 20073,
    "entreaties": 26194,
    "Ġevening": 2656,
    "Ġsmoked": 10328,
    "Ġworship": 10372,
    "mankind": 14378,
    "ells": 5306,
    "stranded": 19236,
    "Ġcarelessly": 11122,
    "thoughts": 9938,
    "Ġlvi": 21559,
    "spee": 9323,
    "lynes": 15710,
    "lorious": 17600,
    "Ġresiding": 16070,
    "trained": 4242,
    "Ġaperture": 26169,
    "Ġhieroglyphics": 17309,
    "Ġshared": 10269,
    "Ġsne": 6372,
    "Ġcares": 9372,
    "Ġsuspic": 4476,
    "conside": 9296,
    "Ġhorizontal": 7783,
    "Ġagile": 22523,
    "cour": 4485,
    "thr": 12760,
    "Ġrepul": 16417,
    "silly": 24437,
    "Ġbeings": 2495,
    "Ġme": 351,
    "surface": 10536,
    "Ġilliter": 23480,
    "Ġelevating": 19740,
    "Ġmccarthy": 5422,
    "Ġmaintainable": 12936,
    "Ġinspired": 2522,
    "corpse": 24506,
    "herald": 22211,
    "max": 1683,
    "Ġworkman": 16270,
    "ential": 825,
    "jacket": 12293,
    "Ġworlds": 11949,
    "Ġmeanest": 12910,
    "fain": 13716,
    "aments": 12726,
    "Ġafrican": 20147,
    "Ġaust": 4874,
    "lake": 13750,
    "Ġuncounted": 19130,
    "Ġgardens": 16462,
    "Ġshowers": 16615,
    "ellect": 7383,
    "Ġmarket": 7709,
    "Ġcocks": 18606,
    "theirs": 23615,
    "Ġshrunk": 16728,
    "moral": 14813,
    "george": 26028,
    "footsteps": 25210,
    "Ġwarsaw": 26176,
    "histicated": 20909,
    "Ġflora": 11420,
    "Ġinhale": 20309,
    "Ġequinoctial": 20541,
    "Ġdistinctly": 7314,
    "q": 85,
    "Ġunlim": 18262,
    "Ġchivalry": 25827,
    "inable": 11558,
    "Ġlecture": 13569,
    "Ġtongs": 9964,
    "ato": 17778,
    "Ġsustain": 10020,
    "yesterday": 10358,
    "hus": 5075,
    "Ġting": 8400,
    "Ġshape": 5641,
    "alogies": 25169,
    "Ġturned": 2134,
    "Ġhumbled": 16206,
    "ibly": 2997,
    "Ġvengeance": 5888,
    "Ġkrusenstern": 26386,
    "Ġstoke": 10401,
    "Ġsympathised": 14873,
    "saying": 8641,
    "Ġelevates": 24516,
    "author": 9863,
    "promise": 12251,
    "itated": 4447,
    "Ġtars": 21173,
    "Ġhaz": 12755,
    "Ġbankrupt": 16806,
    "Ġflail": 23020,
    "expression": 10553,
    "Ġvice": 6551,
    "Ġhogarth": 25789,
    "Ġperu": 14226,
    "Ġsquire": 16189,
    "Ġrapt": 7228,
    "erman": 5112,
    "Ġstudying": 9851,
    "Ġcor": 1322,
    "bearance": 22504,
    "Ġdefiance": 11071,
    "13": 20760,
    "Ġexempl": 21837,
    "enit": 17787,
    "grass": 23424,
    "Ġreports": 19097,
    "Ġgay": 5537,
    "ositions": 10289,
    "absolut": 8461,
    "anybody": 12084,
    "Ġfixedly": 19259,
    "ationally": 15711,
    "Ġcorn": 9356,
    "Ġgest": 8135,
    "Ġant": 4353,
    "Ġbutton": 10273,
    "Ġdownwards": 8532,
    "Ġheadsman": 13277,
    "Ġwearisome": 19805,
    "Ġdespise": 14672,
    "Ġagon": 10326,
    "!": 5,
    "Ġaghast": 16056,
    "punct": 20203,
    "Ġyesterday": 5335,
    "joining": 19456,
    "osh": 18399,
    "table": 5797,
    "iet": 1776,
    "Ġfled": 6673,
    "Ġlionel": 25299,
    "aviour": 11008,
    "circled": 24201,
    "case": 5209,
    "âĢľâĢĻ": 10227,
    "ici": 8442,
    "uvian": 12243,
    "consc": 4843,
    "Ġlaugh": 4117,
    "Ġbottles": 16580,
    "ctive": 11624,
    "Ġgods": 6454,
    "Ġexper": 1287,
    "Ġswish": 23062,
    "Ġact": 691,
    "este": 15930,
    "Ġjoy": 3182,
    "Ġarriving": 18346,
    "Ġdevelop": 1628,
    "Ġreciprocating": 26378,
    "queen": 12728,
    "anyone": 16603,
    "Ġindispens": 22963,
    "Ġseethings": 26511,
    "inations": 7568,
    "Ġgenial": 12195,
    "Ġbattalions": 25785,
    "sciss": 18861,
    "Ġrepenting": 25332,
    "spass": 18701,
    "stolen": 13980,
    "Ġcompliance": 12116,
    "Ġlaborers": 19068,
    "Ġdevoted": 6576,
    "scand": 18859,
    "Ġrequested": 14313,
    "affection": 7489,
    "pondicherry": 26409,
    "Ġslumbering": 25709,
    "Ġlover": 7195,
    "Ġvi": 1949,
    "Ġexpanded": 14295,
    "dish": 12453,
    "representing": 25284,
    "biting": 20790,
    "Ġalterations": 19881,
    "Ď": 207,
    "influences": 25263,
    "crowd": 25267,
    "Ġlirra": 21566,
    "Ġjoint": 12038,
    "companion": 9564,
    "Ġprecautions": 23737,
    "beards": 22501,
    "alogue": 25170,
    "ents": 1896,
    "ule": 6803,
    "°": 113,
    "`": 68,
    "Ġdistraction": 22516,
    "preservation": 22477,
    "Ġstre": 2108,
    "Ġezekiel": 26201,
    "Ġrejoice": 10214,
    "Ġscuffle": 20619,
    "oves": 15410,
    "islanders": 25451,
    "comfortable": 7323,
    "Ġglitter": 25135,
    "Ġbroke": 5325,
    "Ġaccompl": 5170,
    "Ġquieted": 23850,
    "ury": 3314,
    "Ġinside": 5451,
    "Ġsummarization": 3647,
    "Ġeveryone": 8921,
    "Ġ156": 20181,
    "Ġbeware": 8831,
    "Ġdistributed": 18674,
    "ift": 1609,
    "Ġincommod": 25317,
    "mission": 5970,
    "garden": 15036,
    "passed": 8026,
    "Ġprofess": 3699,
    "Ġinhabit": 5784,
    "Ġcurv": 3513,
    "aciousness": 18620,
    "Ġheron": 22077,
    "hunting": 24400,
    "Ġalliance": 18243,
    "Ġskiff": 16172,
    "hung": 8383,
    "Ġrepute": 18041,
    "Ġconfl": 11140,
    "rights": 23686,
    "Ġwhist": 6023,
    "ended": 1834,
    "grin": 19118,
    "Ġquadr": 8202,
    "Ġsplash": 16559,
    "Ġskirt": 18741,
    "anges": 1673,
    "Ġblanket": 8345,
    "Ġpang": 15610,
    "Ġplainpalais": 20747,
    "Ġstocks": 23187,
    "Ġmur": 2493,
    "Ġlearns": 2648,
    "Ġprinted": 11951,
    "fere": 10992,
    "they": 1879,
    "Ġselects": 4392,
    "Ġwhine": 21721,
    "Ġasking": 5653,
    "Ġhorizont": 6940,
    "Ġharpo": 1939,
    "Ġherbage": 26005,
    "Ġsnugness": 20086,
    "Ġstreng": 18077,
    "appre": 14374,
    "jud": 4487,
    "Ġcab": 2639,
    "jack": 7347,
    "Ġclanking": 20622,
    "Ġswarming": 16281,
    "damp": 15351,
    "Ġcost": 2508,
    "green": 7118,
    "evening": 7092,
    "pp": 383,
    "stir": 12673,
    "esteem": 26017,
    "Ġtreating": 4288,
    "Ġidentify": 12015,
    "Ġdist": 680,
    "future": 13718,
    "Ġbernard": 20693,
    ".âĢĿ": 464,
    "Ġdispute": 16065,
    "Ġpro": 360,
    "Ġendowed": 18936,
    "touch": 8394,
    "feature": 4095,
    "Ġphrenologically": 20402,
    "Ġcoding": 8117,
    "Ġgrud": 18003,
    "Ġdisengaged": 12889,
    "Ġdisciple": 22793,
    "Ġdisappo": 4510,
    "tot": 10732,
    "Ġknitting": 24231,
    "Ġbless": 4349,
    "Ġneighbours": 8305,
    "isp": 5531,
    "Ġexplained": 5937,
    "ino": 15486,
    "mediterranean": 16412,
    "Ġclumsy": 9586,
    "Ġbeds": 14558,
    "Ġdiscover": 4724,
    "Ġbigness": 19771,
    "born": 7544,
    "Ġflannel": 26586,
    "Ġosc": 2837,
    "kin": 7133,
    "Ġhealthcare": 8016,
    "thomas": 18227,
    "reliable": 21249,
    "gallantry": 15066,
    "foremost": 14256,
    "Ġchace": 14180,
    "Ġbeech": 18089,
    "practised": 20257,
    "Ġclustered": 25246,
    "desc": 1391,
    "Ġdistrustful": 25067,
    "Ġspeedy": 11176,
    "Ġquit": 5249,
    "asse": 15651,
    "Ġtiles": 17735,
    "Ġtiara": 26424,
    "Ġcharing": 14182,
    "Ġtear": 6726,
    "Ġvisage": 18792,
    "somewhere": 12014,
    "insupportable": 21202,
    "Ġpaths": 2571,
    "posted": 24649,
    "nonsense": 17623,
    "chase": 11646,
    "olstad": 7612,
    "Ġdisregarded": 22540,
    "Ġbushes": 16409,
    "Ġcut": 2647,
    "Ġanatomy": 12321,
    "Ġsembl": 19070,
    "sullenly": 26158,
    "aired": 8370,
    "Ġfreed": 7270,
    "Ã": 132,
    "vity": 7816,
    "Ġdru": 8424,
    "!--": 10681,
    "iated": 5892,
    "contrad": 19302,
    "Ġhear": 1962,
    "cut": 3119,
    "Ġwatched": 6297,
    "soles": 18700,
    "Ġhackney": 20441,
    "Ġoarsman": 8638,
    "Ġinsane": 19280,
    "fortunes": 6332,
    "ugl": 23301,
    "dignity": 15353,
    "transp": 24525,
    "yours": 7696,
    "Ġcynical": 25779,
    "Ġbuilding": 8062,
    "injury": 25226,
    "Ġscrews": 25188,
    "ulged": 12731,
    "Ġspanish": 2830,
    "Ġprivately": 19534,
    "arter": 17902,
    "Ġstripping": 23714,
    "Ġcaliforn": 14436,
    "Ġchivalrous": 20523,
    "Ġcries": 7156,
    "V": 58,
    "Ġquaff": 22421,
    "Ġcrimes": 8590,
    "Ġsnarl": 25723,
    "Ġclubbed": 26556,
    "Ġanswers": 7073,
    "errand": 22919,
    "Ġsunshine": 14500,
    "Ġwide": 4112,
    "Ġhollowly": 24539,
    "Ġsneezing": 12248,
    "Ġintermission": 18602,
    "Ġforesee": 19138,
    "reeling": 21253,
    "Ġknees": 6931,
    "Ġrisks": 9967,
    "Ġheathen": 10572,
    "those": 4500,
    "Ġcolouring": 16762,
    "icting": 12853,
    "Ġpul": 2040,
    "Ġterror": 5128,
    "Ġtinge": 25100,
    "Ġmiracle": 15101,
    "Ġfrighten": 13281,
    "canst": 22970,
    "diver": 20841,
    "Ġamusements": 16921,
    "Ġdeparture": 6490,
    "Ġwrenching": 17329,
    "10": 17480,
    "tube": 20419,
    "inserted": 18898,
    "exe": 11789,
    "provided": 13638,
    "Ġrepetition": 8976,
    "retirement": 23149,
    "add": 5232,
    "times": 8099,
    "Ġmisled": 22768,
    "Ġspitzbergen": 15295,
    "father": 3779,
    "Ġtren": 17730,
    "Ġranks": 21977,
    "Ġarmitage": 23594,
    "Ġmiser": 18718,
    "Ġcables": 15563,
    "acles": 8522,
    "urable": 8928,
    "Ġlazarus": 15039,
    "Ġdel": 1616,
    "Ġphrenolog": 12335,
    "lect": 1219,
    "Ġstrait": 23760,
    "Ġomin": 11579,
    "Ġlaw": 3655,
    "fluke": 25215,
    "jour": 20937,
    "Ġascertained": 25309,
    "merchant": 10473,
    "Ġembellish": 25858,
    "Ġbottom": 3674,
    "Ġcomparative": 10548,
    "Ġpond": 13919,
    "world": 5061,
    "Ġbakers": 17874,
    "Ġlone": 11615,
    "Ġbosom": 6942,
    "Ġrecent": 7437,
    "Ġscrewing": 20219,
    "Ġadjac": 18303,
    "Ġsending": 8777,
    "Ġrolled": 4436,
    "Ġdesert": 7051,
    "Ġutterance": 14773,
    "Ġprinc": 4203,
    "Ġalteration": 9552,
    "feeling": 6618,
    "Ġmut": 3582,
    "suspended": 15185,
    "violets": 23554,
    "Ġfrontispiece": 23913,
    "urrection": 12410,
    "Ġbowls": 23779,
    "professional": 20284,
    "Ġleaking": 21751,
    "Ġbored": 16115,
    "ivorous": 22091,
    "Ġfrown": 10810,
    "Ġglimpses": 13434,
    "Ġfestoon": 20303,
    "Ġknighthood": 25310,
    "Ġchanced": 8189,
    "Ġstagnant": 24668,
    "Ġsighing": 18689,
    "Ġgarden": 3828,
    "Ġag": 684,
    "kempt": 20951,
    "Ġpra": 4354,
    "possibility": 13363,
    "Ġminuteness": 19151,
    "Ġparts": 4169,
    "Ġtissu": 25929,
    "headers": 23118,
    "Ġrumors": 11325,
    "Ġsang": 12536,
    "Ġcasts": 19436,
    "Ġhil": 10824,
    "Ġchemical": 10417,
    "Ġundisturbed": 19530,
    "Ġmain": 806,
    "acting": 22640,
    "rarely": 21640,
    "Ġabove": 2937,
    "incredible": 16508,
    "alid": 12639,
    "urch": 3996,
    "Ġlengthened": 25967,
    "emberley": 4175,
    "gu": 3935,
    "Ġspect": 3553,
    "Ġsuffocated": 20738,
    "Ġinsurg": 23692,
    "throt": 25667,
    "Ġtattered": 21180,
    "Ġgallant": 8657,
    "Ġscener": 10952,
    "Ġmoran": 9347,
    "agra": 14069,
    "corrupt": 14906,
    "Ġimpulse": 10027,
    "prim": 23818,
    "pre": 649,
    "atic": 4019,
    "Ġloathed": 15884,
    "caterpillar": 26392,
    "Ġrending": 19477,
    "Ġattic": 16107,
    "Ġprecaution": 11199,
    "Ġvomit": 21953,
    "Ġmole": 11791,
    "Ġpyth": 21468,
    "ild": 1153,
    "Ġfrantically": 23269,
    "Ġfavourably": 16374,
    "Ġdamp": 8266,
    "Ġwired": 17794,
    "Ġinforming": 18754,
    "iteness": 4399,
    "Ġhair": 3316,
    "quit": 15768,
    "figure": 13556,
    "Ġpavement": 9584,
    "Ġfinny": 23138,
    "infl": 15494,
    "Ġappeased": 23206,
    "Ġang": 2515,
    "aan": 20774,
    "Ġunresting": 25561,
    "grate": 23423,
    "laden": 14939,
    "Ġroy": 4230,
    "Ġgale": 5825,
    "Ġmant": 9654,
    "Ġg": 310,
    "Ġmead": 8838,
    "Ġglo": 1714,
    "uncle": 8161,
    "zening": 21157,
    "Ġamends": 14249,
    "Ġboys": 5176,
    "ĠĠĠĠĠĠĠĠĠĠĠĠĠĠ": 22573,
    "Ġdanced": 7843,
    "warrant": 21147,
    "engines": 18939,
    "Ġvers": 7564,
    "Ġcakes": 13887,
    "Ġtut": 8772,
    "anchor": 13892,
    "Ġstepped": 7054,
    "Ġflamingo": 15108,
    "Ġstructures": 2727,
    "Ġdomain": 3456,
    "Ġhuzza": 12633,
    "Ġcarved": 7948,
    "ellest": 21580,
    "Ġsqueaking": 26283,
    "rise": 6228,
    "Ġpend": 15611,
    "Ġtoad": 21516,
    "largely": 19588,
    "Ġdiabol": 11457,
    "Ġinsensibility": 17118,
    "Ġinclinations": 19550,
    "Ġeddies": 23449,
    "commodore": 20636,
    "lessness": 5320,
    "bod": 12438,
    "Ġscarce": 8623,
    "horrible": 14607,
    "Ġcorroboration": 26062,
    "unusual": 21885,
    "Ġrecol": 4028,
    "apply": 18773,
    "Ġcurving": 16255,
    "Ġmediterranean": 12316,
    "Ġhusband": 3620,
    "bound": 6222,
    "Ġstorm": 4306,
    "teous": 16180,
    "gments": 12469,
    "inburgh": 15497,
    "Ġwrapping": 19785,
    "ounts": 4655,
    "yra": 8104,
    "Ġendeavouring": 8035,
    "Ġunfrequ": 19519,
    "dying": 10698,
    "shud": 18492,
    "safety": 20358,
    "taste": 10133,
    "Ġrebounds": 25976,
    "Ġwhittingham": 26206,
    "Ġspeak": 2227,
    "Ġfut": 15580,
    "thick": 10266,
    "Ġattain": 12749,
    "aky": 18422,
    "Ġdropt": 23687,
    "Ġstands": 5261,
    "Ġenergetic": 15205,
    "myself": 5117,
    "jug": 17588,
    "Ġbrow": 3992,
    "jabez": 20943,
    "Ġfry": 17887,
    "Ġphysiognomically": 25621,
    "frantic": 24296,
    "Ġcomposed": 8895,
    "Ġwiser": 14738,
    "Ġanchored": 17447,
    "Ġuttered": 7283,
    "Ġfevers": 22214,
    "Ġapologize": 15136,
    "iony": 9199,
    "rocket": 13947,
    "Ġincorporated": 25719,
    "Ġmerid": 13196,
    "frisco": 16797,
    "thinks": 16651,
    "ruct": 692,
    "Ġtree": 5287,
    "Ġchoicest": 24233,
    "Ġblocked": 19233,
    "Ġpy": 21458,
    "Ġenemies": 9042,
    "Ġ1839": 20468,
    "Ġvenom": 24251,
    "Ġmichaelmas": 26383,
    "staring": 18025,
    "isher": 2879,
    "Ġcousin": 3705,
    "Ġeastward": 13393,
    "Ġrail": 7227,
    "Ġend": 1482,
    "thern": 4955,
    "below": 12123,
    "jol": 20935,
    "Ġpill": 7846,
    "ators": 7830,
    "oubtedly": 6946,
    "stud": 8822,
    "dancing": 12455,
    "Ġphiladel": 23894,
    "onstr": 12547,
    "Ġfigured": 16653,
    "beautiful": 10652,
    "Ġhemis": 21690,
    "Ġpossessing": 16585,
    "Ġscanning": 18410,
    "Ġsoothingly": 25060,
    "Ġdisgust": 6708,
    "Ġcuba": 25108,
    "Ġintentions": 10612,
    "Ġpeered": 18681,
    "legged": 10471,
    "Ġbeneficial": 23940,
    "'d": 12428,
    "Ġagitated": 7649,
    "passenger": 24179,
    "ges": 2875,
    "ables": 7891,
    "resnet": 4072,
    "ivility": 12789,
    "commun": 15044,
    "Ġchip": 12824,
    "Ġvideo": 25375,
    "asons": 6016,
    "confusion": 13371,
    "ained": 3063,
    "Ġprev": 6264,
    "voice": 7817,
    "Ġstructural": 2802,
    "Ġmysticetus": 24935,
    "atus": 21269,
    "Ġadvance": 5487,
    "Ġmischief": 8544,
    "admit": 18097,
    "âĢľ_": 5722,
    "ded": 2423,
    "Ġguido": 2978,
    "Ġdisplayed": 10613,
    "Ġshol": 22000,
    "yrin": 12522,
    "hibited": 17435,
    "Ġyelling": 18103,
    "val": 5077,
    "derick": 22172,
    "naturalist": 23577,
    "Ġlanded": 7470,
    "Ġshe": 466,
    "Ġringleader": 26221,
    "Ġclipping": 2443,
    "Ġmurderous": 8318,
    "gether": 1597,
    "Ġthre": 2059,
    "Ġpearl": 20385,
    "Ġbetray": 7444,
    "Ġvillas": 24062,
    "thanking": 24343,
    "condite": 23257,
    "Ġpom": 21459,
    "Ġcooped": 22591,
    "Ġembarrassment": 10631,
    "Ġcombination": 22881,
    "Ġrustic": 14975,
    "Ġnarrations": 24366,
    "rendering": 22347,
    "Ġsanta": 26429,
    "nui": 21010,
    "==": 944,
    "emed": 3383,
    "Ġthursday": 12645,
    "aited": 12436,
    "obvious": 9363,
    "Ġnational": 13945,
    "Ġadopt": 10637,
    "quitted": 21863,
    "Ġdisposed": 7086,
    "osures": 22268,
    "Ġbefore": 807,
    "Ġloitering": 22120,
    "benevolent": 15241,
    "unconquerable": 21897,
    "Ġaccumul": 1409,
    "Ġtresses": 21184,
    "Ġminister": 18764,
    "hark": 15373,
    "Ġtelegra": 11892,
    "Ġbru": 13898,
    "Ġentered": 2847,
    "71": 20766,
    "Ġnut": 12647,
    "Ġbreathless": 12171,
    "pos": 15417,
    "Ġturkish": 12262,
    "Ġroyal": 5605,
    "Ġrumpled": 24616,
    "Ġwreck": 7317,
    "mess": 13754,
    "initely": 7569,
    "upwards": 18875,
    "clim": 18941,
    "Ġfundament": 2928,
    "culiarity": 11145,
    "does": 6195,
    "Ġvaguely": 17372,
    "Ġ89": 19724,
    "Ġmagg": 18916,
    "Ġded": 2607,
    "abominable": 20603,
    "Ġocean": 3304,
    "Ġflattering": 13030,
    "Ġfeet": 2257,
    "Ġanointing": 25547,
    "antediluvian": 24360,
    "private": 13584,
    "Ġbursting": 8658,
    "Ġspeculations": 23004,
    "Ġdisco": 3430,
    "Ġ94": 17726,
    "Ġpreparations": 12311,
    "Ġhip": 17928,
    "important": 7115,
    "Ġtomb": 8810,
    "Ġoblivion": 26040,
    "Ġphotograph": 6302,
    "ĠmanÅĵuv": 18428,
    "Ġplanning": 14759,
    "hours": 9128,
    "Ġsurpl": 19145,
    "Ġsoldiers": 8688,
    "Ġsatisfied": 4177,
    "Ġconge": 15752,
    "Ġsole": 3298,
    "beries": 22731,
    "Ġrejecting": 17058,
    "Ġfluffy": 19374,
    "Ġkidnapping": 26365,
    "Ġdistur": 5315,
    "glo": 8740,
    "Ġentailed": 11030,
    "consolation": 15160,
    "Ġneighbors": 25815,
    "oney": 3048,
    "Ġlaying": 7909,
    "Ġhail": 7401,
    "Ġfed": 5532,
    "Ġeleven": 9395,
    "soever": 11862,
    "inous": 8774,
    "Ġagree": 7648,
    "Ġimagined": 8608,
    "hurrying": 14993,
    "Ġdirt": 15599,
    "tur": 5690,
    "ifferent": 4266,
    "Ġbelfry": 26446,
    "varied": 23194,
    "Ġfurnaces": 24013,
    "clopÃ¦dia": 15264,
    "inlaid": 21199,
    "Ġdivert": 23606,
    "Ġmult": 1020,
    "maged": 15401,
    "Ġslam": 13061,
    "Ġhysterical": 26101,
    "Ġsettling": 11065,
    "Ġimprecate": 20526,
    "dÃ¦mon": 17535,
    "wheeler": 16197,
    "harb": 9127,
    "ĠâĢľ": 516,
    "enderby": 25228,
    "enger": 10776,
    "Ġalternately": 15042,
    "Ġcash": 9659,
    "ins": 1374,
    "Ġinjunctions": 24282,
    "kings": 17591,
    "Ġspires": 11730,
    "Ġsixteen": 8285,
    "aco": 12906,
    "Ġincarn": 11814,
    "plied": 10261,
    "Ġdesires": 9463,
    "Ġprecision": 13190,
    "Ġmotionless": 8326,
    "Ġinhaled": 25460,
    "Ġdistrusting": 25066,
    "Ġsplinters": 15110,
    "Ġfant": 9181,
    "Ġkent": 6694,
    "marching": 25760,
    "solitude": 23308,
    "Ġfrantic": 7958,
    "move": 11854,
    "Ġdispel": 16606,
    "Ġworked": 6586,
    "Ġcocoa": 25491,
    "Ġvariance": 1166,
    "Ġmaketh": 15195,
    "Ġembal": 11912,
    "blister": 24140,
    "Ġbiological": 1930,
    "houses": 9606,
    "Ġfollows": 7674,
    "Ġbiggest": 24579,
    "Ġutil": 4675,
    "respectively": 24714,
    "Ġfr": 1695,
    "Ġabsence": 4896,
    "Ġperth": 7024,
    "Ġdeeds": 15765,
    "Ġplanisp": 24066,
    "icilian": 20701,
    "Ġparagra": 15888,
    "Ġnieces": 8435,
    "scream": 11081,
    "Ġrevolutions": 23849,
    "Ġbundle": 13428,
    "Ġslave": 7455,
    "Ġalabama": 14022,
    "ror": 7354,
    "Ġneskye": 21537,
    "Ġcommunicating": 16896,
    "Ġtransform": 748,
    "Ġmansfield": 25947,
    "corrid": 24504,
    "Ġenraged": 10250,
    "ores": 2415,
    "octial": 20012,
    "Ġinfinity": 23294,
    "divided": 25031,
    "august": 11074,
    "Ġeventually": 8618,
    "ashing": 4827,
    "Ġconvolutions": 21813,
    "Ġpump": 12621,
    "Ġruins": 16167,
    "next": 5894,
    "Ġger": 21597,
    "shri": 14237,
    "crier": 20830,
    "Ġdangers": 12355,
    "Ġheh": 21686,
    "fetch": 12465,
    "alvan": 21510,
    "C": 39,
    "Ġprisoner": 8675,
    "process": 11151,
    "Ġforwarded": 19056,
    "Ġowned": 11876,
    "Ġguiltless": 16948,
    "Ġspirits": 3698,
    "ufactured": 15189,
    "Ġfavour": 3642,
    "Ġtend": 6121,
    "Ġtyphoons": 20244,
    "Ġstubbs": 23307,
    "Ġstepping": 9360,
    "Ġindividually": 22966,
    "Ġmun": 12562,
    "obedience": 17418,
    "Ġchild": 2259,
    "repe": 8778,
    "Ġguilty": 7253,
    "Ġspurn": 18318,
    "Ġcuff": 17837,
    "etimes": 1986,
    "Ġshrubbery": 18240,
    "henomen": 10500,
    "rifled": 21056,
    "Ġgladly": 14688,
    "bbed": 6914,
    "Ġfurlongs": 20733,
    "Ġarrested": 9567,
    "Ġtouched": 6002,
    "Ġfearlessness": 19173,
    "Ġthrown": 4643,
    "pression": 10412,
    "reserve": 17772,
    "urer": 18128,
    "Ġabsolute": 6767,
    "Ġsupremacy": 20270,
    "Ġparmacetti": 20615,
    "Ġagric": 22525,
    "Ġimpregn": 26031,
    "order": 1956,
    "Ġallegor": 25553,
    "Ġexpon": 968,
    "ę": 218,
    "Ġunbecoming": 22068,
    "Ġeasier": 11168,
    "putation": 7626,
    "Ġcontrols": 1732,
    "balance": 12008,
    "Ġwouldst": 18512,
    "moored": 22716,
    "Ġvexatious": 19791,
    "Ġcarriages": 11101,
    "Ġorganizations": 12315,
    "Ġcultured": 25165,
    "peculiar": 6890,
    "Ġinjunction": 19630,
    "Ġtossing": 8127,
    "Ġdefine": 9817,
    "Ġcarpenter": 4689,
    "Ġframed": 19048,
    "Ġarrows": 18345,
    "Ġperson": 2369,
    "Ġlimbs": 5966,
    "bout": 20783,
    "Ġyelled": 9700,
    "Ġheadland": 22906,
    "Ġpacket": 14904,
    "Ġconsternation": 9862,
    "Ġfiend": 4418,
    "Ġbrothers": 13178,
    "Ġorganize": 8995,
    "remental": 21256,
    "Ġextinction": 14340,
    "plex": 708,
    "Ġmedical": 9470,
    "Ġheard": 1396,
    "Ġcattle": 12572,
    "Ġcustody": 13648,
    "fly": 13715,
    "Ġamel": 18522,
    "Ġpersuasions": 16643,
    "Ġjourney": 3881,
    "carriage": 9949,
    "ric": 1373,
    "irted": 14074,
    "istence": 2593,
    "Ġwhaleman": 4658,
    "allowing": 24372,
    "Ġemployments": 12104,
    "emone": 21931,
    "ain": 343,
    "Ġundeceive": 25560,
    "eps": 12790,
    "Ġsailing": 5326,
    "Ġeu": 6390,
    "descend": 23095,
    "fates": 20868,
    "Ġperished": 11784,
    "hall": 8085,
    "Ġreached": 4023,
    "vative": 1557,
    "Ġgodson": 23369,
    "Ġfolds": 12206,
    "Ġincidentally": 16961,
    "Ġthey": 577,
    "Ġenvelop": 5590,
    "Ġvaults": 17161,
    "Ġrussian": 14354,
    "them": 3020,
    "Ġbunch": 11330,
    "Ġweapon": 7776,
    "Ġprayed": 16676,
    "Ġwidest": 24247,
    "ignified": 14496,
    "lung": 17599,
    "Ġsimulates": 2744,
    "Ġ32": 19499,
    "Ġunimpeachable": 26530,
    "Ġwitnessed": 14855,
    "Ġcontributed": 16019,
    "insist": 23073,
    "Ġpiercing": 13495,
    "Ġhim": 476,
    "Ġenters": 11028,
    "ĠĠĠĠĠĠĠĠĠĠĠĠĠĠĠĠĠĠĠĠĠĠĠĠĠĠĠĠĠĠĠ": 19713,
    "dimly": 15354,
    "rages": 15687,
    "Ġattends": 19664,
    "inkling": 16101,
    "Ġlivelong": 25519,
    "Ġwollstonecraft": 26434,
    "Ġaloof": 21791,
    "falgar": 26139,
    "roused": 16662,
    "Ġsubst": 4277,
    "tackles": 25632,
    "Ġinaudible": 21505,
    "scor": 13017,
    "Ġbehooves": 20743,
    "verest": 13994,
    "Ġdifficult": 3572,
    "Ġsubsiding": 23436,
    "prep": 9764,
    "bergs": 18695,
    "ague": 3907,
    "gans": 11493,
    "Ġhearse": 10425,
    "inence": 15488,
    "Ġturner": 7052,
    "Ġrickety": 26513,
    "Ġscalable": 1613,
    "Ġrecurring": 23239,
    "unched": 10241,
    "Ġlatest": 16832,
    "Ġstart": 3258,
    "customary": 25904,
    "Ġcring": 15557,
    "Ġturnkeys": 23039,
    "feelings": 5676,
    "Ġpagoda": 19798,
    "Ġstreat": 15727,
    "Ġstud": 1638,
    "mysteries": 26060,
    "Ġdelirium": 10410,
    "Ġunfitted": 24120,
    "kins": 7348,
    "Ġpace": 9191,
    "Ġrelinqu": 12982,
    "Ġubiqu": 18053,
    "Ġconsists": 11980,
    "Ġstockings": 20004,
    "Ġformations": 18761,
    "jephro": 26401,
    "Ġreligion": 11419,
    "plicable": 10262,
    "Ġsoda": 25542,
    "Ġneedle": 8277,
    "Ġingenuity": 17171,
    "despair": 8346,
    "desirable": 23218,
    "igin": 3656,
    "Ġconceived": 8151,
    "Ġdeclined": 9923,
    "Ġ81": 24476,
    "el": 306,
    "Ġsleeves": 10664,
    "Ġrueful": 25589,
    "Ġpretext": 22234,
    "their": 2544,
    "Ġlabours": 8586,
    "hush": 20915,
    "Ġquote": 18477,
    "Ġfort": 2580,
    "Ġmes": 17804,
    "Ġscheduling": 2350,
    "bald": 16456,
    "hit": 20899,
    "springs": 24924,
    "sought": 15434,
    "Ġbud": 10173,
    "Ġplaus": 22614,
    "Ġcustomary": 8672,
    "Ġwhip": 8454,
    "Ġmanufact": 22335,
    "Ġlingered": 13506,
    "Ġfads": 21423,
    "Ġunicorn": 22061,
    "Ġshop": 9258,
    "mysterious": 26061,
    "Ġmixed": 6977,
    "Ġhanover": 20595,
    "Ġglory": 6065,
    "Ġbeautifully": 13269,
    "continual": 20655,
    "too": 4512,
    "Ġeither": 2608,
    "Ġfancied": 7329,
    "itching": 21342,
    "Ġhovers": 19091,
    "hopper": 23725,
    "Ġrecognised": 8998,
    "Ġriveted": 13566,
    "ety": 3522,
    "Ġfid": 10806,
    "Ġmach": 13860,
    "Ġsurveying": 25335,
    "hamlet": 23273,
    "arrival": 15605,
    "ooped": 17631,
    "Ġarchy": 14351,
    "thrill": 25664,
    "disp": 7978,
    "Ġcau": 13884,
    "Ġclo": 6045,
    "telling": 14444,
    "Ġroaring": 10970,
    "offices": 19074,
    "Ġdeputation": 21845,
    "Ġswashing": 23065,
    "Ġacceded": 22386,
    "glim": 19375,
    "cob": 10090,
    "usages": 22297,
    "hoist": 23724,
    "Ġquakers": 22423,
    "Ġglasses": 9481,
    "Ġhav": 12754,
    "olera": 21832,
    "shout": 22444,
    "Ġconcernment": 23655,
    "Ġdeified": 18144,
    "attention": 2111,
    "roofed": 26192,
    "Ġagent": 6277,
    "adamite": 20602,
    "rier": 9248,
    "Ġbrixton": 13664,
    "Ġfurnishing": 16655,
    "Ġnarrative": 6217,
    "qu": 369,
    "Ġsensit": 2948,
    "Ġbidding": 9543,
    "fits": 13719,
    "Ġprettier": 23774,
    "Ġmaxim": 3082,
    "dozen": 23389,
    "enary": 12551,
    "Ġthickets": 24032,
    "Ġcant": 17832,
    "topp": 22575,
    "Ġceiling": 7997,
    "ulate": 5236,
    "Ġarms": 3968,
    "Ġfabulous": 25957,
    "bation": 9106,
    "Ġpret": 3034,
    "Ġ49": 24092,
    "Ġeavesdroppers": 25972,
    "Ġcaptioning": 23034,
    "murmured": 24470,
    "hyme": 19622,
    "pitch": 13300,
    "Ġconduct": 3734,
    "puff": 21031,
    "Ġinflex": 20645,
    "Ġ$": 21159,
    "larger": 24216,
    "isms": 12580,
    "unts": 12732,
    "Ġcream": 22734,
    "Ġoverlooking": 22354,
    "Ġmeadow": 17159,
    "Ġpolynes": 16089,
    "atived": 21271,
    "Ġtongues": 14874,
    "Ġprovided": 6579,
    "Ġminute": 4283,
    "Ġreg": 732,
    "complaisance": 24824,
    "Ġlantern": 7119,
    "Ġsullenly": 17180,
    "Ġeducation": 5132,
    "Ġforgot": 4687,
    "moved": 9788,
    "adow": 18094,
    "Ġhoriz": 4732,
    "Ġalready": 2719,
    "cocks": 23572,
    "Ġofficial": 7084,
    "Ġemig": 14530,
    "Ġbower": 15572,
    "sol": 1792,
    "Ġcomfortless": 23912,
    "aus": 1499,
    "Ġtorrents": 20065,
    "Ġdare": 3546,
    "acey": 7651,
    "Ġgritted": 22814,
    "anded": 5924,
    "Ġsurvey": 13595,
    "Ġsample": 3175,
    "Ġrambles": 17192,
    "setting": 13295,
    "aphs": 22342,
    "terdam": 18136,
    "Ġparchment": 13653,
    "Ġcharging": 23278,
    "Ġdashed": 6011,
    "Ġwooing": 19444,
    "iability": 20930,
    "Ġinitialization": 1249,
    "Ġproof": 6154,
    "ackled": 22431,
    "Ġevermore": 18823,
    "inridge": 11563,
    "tart": 21076,
    "Ġdeeper": 2084,
    "mid": 5619,
    "Ġstriving": 9000,
    "persuade": 13534,
    "Ġunworth": 22041,
    "rance": 5995,
    "Ġuncomfortable": 8488,
    "repid": 11567,
    "Ġviv": 6157,
    "Ġinexplicable": 12257,
    "Ġwondrously": 24074,
    "precisely": 6920,
    "usual": 5845,
    "Ġis": 347,
    "Ġabilities": 8870,
    "worm": 15460,
    "Ġomniscient": 20095,
    "Ġcompliment": 5675,
    "accustomed": 13160,
    "unks": 15781,
    "Ġro": 592,
    "Ġspinal": 12303,
    "Ġbashee": 19858,
    "Ġwid": 4636,
    "Ġecl": 18013,
    "ego": 4038,
    "counter": 20287,
    "Ġleagues": 9230,
    "Ġeddying": 16444,
    "Ġvaried": 11848,
    "Ġconsider": 2570,
    "Ġunusual": 6556,
    "Ġdash": 8123,
    "sof": 17665,
    "Ġru": 948,
    "grand": 7971,
    "variance": 2660,
    "screwed": 17195,
    "ray": 2440,
    "Ġskilfully": 20532,
    "Ġyork": 11666,
    "Ġ36": 14777,
    "Ġhun": 1495,
    "sl": 5796,
    "Ġdoubt": 2222,
    "Ġmaterials": 11292,
    "prevented": 20382,
    "Ġfidgeted": 25898,
    "orient": 2880,
    "Ġweig": 7620,
    "Ġpolite": 9884,
    "Ġwashes": 21867,
    "depths": 25671,
    "oder": 2463,
    "Ġindependent": 9019,
    "Ġi": 312,
    "ems": 5239,
    "Ġadieus": 25123,
    "Ġ121": 24485,
    "alas": 8806,
    "nep": 20996,
    "Ġapo": 9637,
    "Ġsacred": 10933,
    "Ġgraze": 18234,
    "orious": 6009,
    "Ġpeaceable": 14731,
    "attempt": 9366,
    "Ġket": 18357,
    "such": 3080,
    "reproach": 15194,
    "usoid": 4771,
    "Ġunfelt": 24122,
    "ease": 12458,
    "pull": 6799,
    "beer": 22498,
    "gossip": 23415,
    "Ġpretending": 19326,
    "chat": 21692,
    "ellation": 12748,
    "aned": 5150,
    "Ġsands": 14958,
    "joined": 13278,
    "want": 8768,
    "Ġlifts": 25368,
    "chers": 11321,
    "Ġpent": 17911,
    "Ġstatue": 23160,
    "Ġrustling": 24729,
    "wick": 5365,
    "Ġharness": 17935,
    "kitchen": 17593,
    "sharpening": 22456,
    "bred": 11473,
    "Ġsprain": 18314,
    "Ġprovince": 24203,
    "doors": 19107,
    "expanded": 23676,
    "Ġemail": 19087,
    "attend": 11106,
    "cater": 20825,
    "Ġoccasionally": 5593,
    "classification": 4394,
    "Ġflavor": 16261,
    "Ġgaff": 18001,
    "Ġdra": 1594,
    "Ġrid": 4362,
    "Ġsmoothe": 23666,
    "Ġoperate": 19129,
    "cell": 10689,
    "iferous": 17297,
    "ather": 741,
    "Ġmah": 15546,
    "anelles": 26442,
    "Ġechoed": 20432,
    "Ġunreasonably": 17458,
    "niece": 21005,
    "atherley": 7222,
    "Ġfanc": 6744,
    "Ġlime": 13951,
    "Ġcontrive": 16017,
    "Ġbreaching": 23358,
    "beating": 22499,
    "sworn": 24269,
    "Ġarom": 15499,
    "delirium": 14795,
    "Ġscholars": 26121,
    "belongs": 25605,
    "Ġcompression": 18152,
    "contains": 16041,
    "zwilliam": 5078,
    "visited": 13349,
    "Ġarched": 10935,
    "inity": 5695,
    "Ġhunt": 6184,
    "Ġaccuracy": 1112,
    "arus": 13915,
    "backpropagation": 11988,
    "Ġtossings": 25366,
    "Ġredeem": 20508,
    "Ġastonishment": 4798,
    "Ġmule": 13865,
    "wich": 11546,
    "Ġ12": 5486,
    "Ġcomforters": 25809,
    "Ġbass": 17863,
    "sight": 5996,
    "Ġwool": 19443,
    "Ġexig": 21833,
    "Ġnewton": 3534,
    "Ġjohnson": 18420,
    "seated": 11672,
    "medical": 23352,
    "Ġluxurious": 17317,
    "disputed": 23511,
    "Ġvindictiveness": 25746,
    "Ġinde": 7373,
    "Ġcomplaisance": 19459,
    "Ġseemingly": 9325,
    "Ġdisease": 14261,
    "Ġpassed": 2009,
    "Ġsurface": 5123,
    "dro": 6646,
    "oar": 12498,
    "amples": 1823,
    "employed": 17268,
    "Ġunwritten": 22039,
    "Ġknots": 15019,
    "Ġcatastrophe": 10490,
    "uits": 21113,
    "Ġlit": 6247,
    "kitty": 10109,
    "Ġsolomon": 11055,
    "waters": 11337,
    "Ġgroaned": 11270,
    "Ġchallenges": 13631,
    "Ġpowers": 5420,
    "Ġcorpor": 23050,
    "orns": 12592,
    "owing": 7602,
    "icked": 10338,
    "Ġdifficulties": 11228,
    "Ġshoulder": 5853,
    "Ġsymmetrical": 20375,
    "Ġcrags": 23538,
    "scarcely": 12387,
    "commotion": 24926,
    "Ġdire": 865,
    "Ġimmediately": 3369,
    "Ġembattled": 26297,
    "Ġunshored": 25822,
    "Ġenough": 1763,
    "Ġfoundation": 4235,
    "Ġprodigiously": 14942,
    "byshire": 6173,
    "Ġdemoniac": 15071,
    "odings": 4406,
    "Ġmentioning": 9901,
    "Ġvolat": 24157,
    "Ġfootman": 8290,
    "icket": 22678,
    "sound": 6802,
    "Ġcoarse": 14278,
    "Ġcru": 2826,
    "vel": 2426,
    "Ġinjurious": 24283,
    "omet": 3073,
    "Ġestablish": 9549,
    "astron": 22173,
    "Ġdexterously": 25308,
    "toller": 20681,
    "Ġlectures": 17186,
    "maintained": 25033,
    "Ġglide": 22992,
    "Ġdeclares": 16999,
    "Ġeasily": 3891,
    "Ġincisive": 18583,
    "inders": 15989,
    "Ġdoctor": 5070,
    ")âĢĶâĢľ": 20753,
    "posterity": 25497,
    "ample": 1361,
    "Ġnoting": 18229,
    "Ġvial": 10254,
    "Ġpeaked": 2295,
    "Ġinjure": 16791,
    "Ġinvaders": 23491,
    "igning": 12681,
    "Ġbern": 17866,
    "Ġillust": 8265,
    "Ġfrequ": 3330,
    "Ġgallows": 12147,
    "Ġwriters": 13545,
    "Ġtwitch": 22686,
    "Ġmisery": 3816,
    "Ġwhistles": 24640,
    "meanwhile": 10614,
    "Ġcardboard": 19987,
    "Ġpiping": 23222,
    "ops": 5250,
    "Ġsacrificed": 17430,
    "Ġflush": 14430,
    "evade": 24833,
    "Ġexpired": 18635,
    "Ġalleghan": 25804,
    "Ġscroll": 14195,
    "Ġform": 1021,
    "Ġprotection": 9468,
    "Ġfancy": 3747,
    "Ġsallow": 12537,
    "folding": 24940,
    "cracy": 24704,
    "delirious": 19516,
    "Ġtortoise": 16916,
    "Ġportable": 19380,
    "Ġprognostics": 20568,
    "neath": 12867,
    "ad": 337,
    "perceive": 12811,
    "Ġdefend": 9346,
    "Ġeuropean": 20054,
    "delay": 16708,
    "ks": 3141,
    "Ġt": 261,
    "cket": 3688,
    "Ġtrampling": 25501,
    "got": 6958,
    "Ġstricken": 9779,
    "Ġpermitted": 9284,
    "Ġunreasoning": 15854,
    "prejud": 11796,
    "named": 9892,
    "Ġapprehen": 16839,
    "aur": 15316,
    "Ġcet": 6672,
    "ġ": 226,
    "Ġprojected": 16878,
    "Ġtesting": 23213,
    "Ġaddressing": 11167,
    "Ġcrouched": 23453,
    "town": 7144,
    "Ġunwarrantable": 26362,
    "Ġclergy": 7644,
    "thus": 5161,
    "iences": 6960,
    "Ġfanciful": 24801,
    "Ġaspects": 4179,
    "intellect": 18833,
    "year": 11097,
    "Ġworking": 5576,
    "Ġcheering": 11136,
    "inhab": 10760,
    "Ġpairs": 4186,
    "tranquil": 25879,
    "thorough": 21990,
    "(-": 2981,
    "Ġsway": 7572,
    "outre": 18329,
    "Ġdiffidence": 14666,
    "Ġtravels": 11927,
    "Ġhum": 1098,
    "earnest": 12400,
    "Ġruns": 8597,
    "Ġadviser": 25322,
    "hur": 6650,
    "Ġcompacted": 23518,
    "Ġperdition": 16001,
    "Ġobliging": 13246,
    "deserted": 18969,
    "Ġgomorrah": 21621,
    "Ġstaying": 8286,
    "hind": 20904,
    "ĠĠĠĠĠĠĠĠĠĠĠĠĠĠĠĠĠĠĠĠĠĠĠĠĠĠĠĠĠĠĠĠĠĠĠĠĠĠĠĠĠĠĠĠĠ": 9955,
    "gs": 7341,
    "Ġunfailing": 24123,
    "olidity": 18138,
    "Ġruminated": 24615,
    "Ġunguarded": 15859,
    "Ġboundary": 11225,
    "icable": 6388,
    "rem": 1521,
    "Ġ126": 24490,
    "Ġflirt": 14429,
    "Ġunthink": 18256,
    "Ġtrump": 8198,
    "Ġdoubtful": 19159,
    "Ġsad": 3869,
    "Ġ67": 19674,
    "plendent": 21969,
    "belonged": 25606,
    "Ġcubs": 20098,
    "Ġclattering": 22371,
    "use": 2539,
    "Ġdusty": 14935,
    "Ġtranquillity": 7537,
    "ions": 448,
    "poky": 17652,
    "commander": 16994,
    "Ġprairie": 8715,
    "Ġmurmur": 14596,
    "tain": 560,
    "û": 188,
    "ug": 1768,
    "Ġsquare": 2397,
    "throne": 25665,
    "Ġrestlessness": 23304,
    "embraced": 25813,
    "Ġexpensive": 12917,
    "Ġexists": 14045,
    "vocation": 25097,
    "slack": 16901,
    "turned": 7309,
    "Ġchains": 8252,
    "Ġart": 744,
    "ii": 4016,
    "Ġheartily": 6894,
    "Ġclosing": 11774,
    "gaining": 20133,
    "Ġdri": 2363,
    "Ġmaids": 19704,
    "ign": 1702,
    "Ġelementary": 24827,
    "Ġcherry": 16943,
    "Ġdeclaration": 16646,
    "trimmed": 23957,
    "five": 6356,
    "Ġsit": 4219,
    "Ġdegree": 3704,
    "Ġsmitten": 12899,
    "agon": 7872,
    "jury": 15381,
    "Ġcumul": 4183,
    "wrote": 11549,
    "Ġelevated": 7321,
    "Ġuniform": 2224,
    "Ġexord": 21834,
    "cap": 8374,
    "Ġscare": 18407,
    "Ġesq": 15116,
    "attery": 18514,
    "critical": 19514,
    "mont": 19181,
    "Ġengrossed": 12997,
    "Ġfitness": 24008,
    "brill": 16502,
    "apes": 9746,
    "Ġdark": 2113,
    "bath": 13690,
    "tree": 11537,
    "dan": 17523,
    "congenial": 25408,
    "Ġhighly": 4847,
    "Ġxiv": 23419,
    "Ġsill": 10768,
    "ios": 2401,
    "Ġridges": 16742,
    "machine": 1028,
    "judging": 24215,
    "Ġrays": 10336,
    "Ġblaze": 16228,
    "Ġlimped": 19193,
    "uteness": 17993,
    "ca": 20803,
    "cer": 6788,
    "ship": 1389,
    "mem": 10713,
    "cake": 20814,
    "Ġfathers": 16306,
    "Ġbeggars": 20640,
    "Ġquitted": 5314,
    "Ġgentlemen": 3643,
    "eag": 20852,
    "Ġgreas": 17999,
    "Ġgrapple": 25820,
    "Ġadler": 8176,
    "Ġmarvellous": 7539,
    "Ġfrolic": 23932,
    "Ġgull": 15676,
    "ships": 5489,
    "Ġcompunction": 18600,
    "Ġhearty": 9849,
    "Ġunable": 4953,
    "fresh": 13395,
    "Ġmachine": 798,
    "pleas": 3853,
    "alf": 4642,
    "Ġfiner": 13056,
    "Ġnegative": 1463,
    "fs": 17543,
    "Ġprescribed": 26019,
    "uguese": 20742,
    "erial": 4635,
    "Ġchests": 19684,
    "Ġsmiting": 12898,
    "atural": 932,
    "Ġseparately": 13304,
    "Ġross": 2770,
    "Ġencourages": 2062,
    "Ġrelu": 1044,
    "Ġfad": 17884,
    "Ġduc": 4701,
    "Ġindications": 14639,
    "Ġ55": 24336,
    "Ġadoration": 18301,
    "Ġskeletons": 16801,
    "Ġwhereof": 16111,
    "books": 8666,
    "Ġlearned": 2022,
    "opportunity": 12275,
    "Ġindolence": 16237,
    "Ġdipping": 15597,
    "rubbery": 17348,
    "Ġ75": 19625,
    "handedness": 24933,
    "bourne": 19115,
    "aut": 1911,
    "osp": 6858,
    "mystery": 15163,
    "Ġfought": 12593,
    "Ġpaltry": 16702,
    "Ġclatter": 22364,
    "Ġstartled": 7085,
    "parable": 16399,
    "lled": 10111,
    "Ġfatigued": 13468,
    "Ġimbu": 15900,
    "Ġmonotonous": 13265,
    "Ġtornado": 24637,
    "Ġbliss": 13001,
    "Ġvint": 18202,
    "Ġrushing": 7404,
    "ppered": 15798,
    "lost": 8891,
    "wouldn": 23546,
    "Ġgallantry": 15111,
    "Ġsecurity": 8981,
    "Ġsales": 12807,
    "Ġdece": 6998,
    "Ġimpetus": 25577,
    "Ġroughs": 19965,
    "Ġmidships": 23645,
    "wish": 8101,
    "Ġdelicious": 14804,
    "Ġstrength": 4263,
    "Ġstake": 14006,
    "something": 4289,
    "ateur": 22009,
    "entiating": 3439,
    "Ġdropout": 1560,
    "idel": 5302,
    "Ġprone": 18980,
    "Ġcountrymen": 23608,
    "pour": 17638,
    "Ġlay": 586,
    "Ġarthur": 7198,
    "ices": 2138,
    "Ġanticipating": 17066,
    "Ġency": 21938,
    "Ġusual": 3946,
    "Ġhopeless": 7464,
    "Ġovertaken": 18435,
    "grief": 13732,
    "Ġfinal": 5401,
    "Ġgnawed": 25175,
    "Ġfacial": 10610,
    "Ġtapping": 10755,
    "Ġfruit": 12327,
    "Ġconfronted": 23319,
    "Ġmy": 412,
    "Ġjib": 14197,
    "Ġferguson": 17477,
    "Ġliber": 5171,
    "comfort": 5649,
    "shaped": 10313,
    "Ġages": 7029,
    "Ġerie": 20063,
    "Ġeastern": 11630,
    "wonder": 6371,
    "neighbourhood": 10028,
    "eng": 1486,
    "absurd": 21801,
    "marks": 7349,
    "hr": 20898,
    "Ġyer": 15740,
    "Ġworld": 1598,
    "entrance": 12658,
    "Ġbask": 8118,
    "uttle": 6248,
    "Ġsy": 489,
    "Ġneglect": 7943,
    "Ġpretence": 13211,
    "misfortunes": 16766,
    "Ġintercourse": 11001,
    "ly": 319,
    "history": 15025,
    "irksome": 18179,
    "Ġattribute": 16109,
    "remembered": 17357,
    "Ġmapp": 2082,
    "Ġnoble": 3441,
    ".)": 6785,
    "iary": 15378,
    "Ġscenes": 5732,
    "Ġcopper": 7427,
    "girdling": 26398,
    "Ġunintellig": 22031,
    "peculiarity": 23119,
    "Ġthroes": 24590,
    "pennies": 26294,
    "christmas": 20265,
    "Ġnavel": 24592,
    "Ġglare": 13014,
    "Ġret": 1378,
    "Ġchained": 16397,
    "ď": 208,
    "unken": 10242,
    "Ġunaccountable": 7888,
    "Ġwholly": 4453,
    "Ġcommunication": 1868,
    "Ġbride": 6291,
    "Ġrestrain": 8968,
    "Ġremembr": 24183,
    "Ġshaggy": 13572,
    "Ġfork": 15738,
    "Ġthistle": 21922,
    "Ġreconciled": 13589,
    "butt": 16005,
    "Ġweeds": 21929,
    "Ġwire": 13855,
    "Ġberyls": 25784,
    "Ġdearer": 14052,
    "Ġint": 409,
    "isome": 17856,
    "obviously": 25255,
    "bble": 17492,
    "Ġastronomy": 25935,
    "Ġbowditch": 19334,
    "ĠĠĠĠĠĠĠĠĠĠĠĠĠĠĠĠĠĠĠĠĠĠĠ": 18843,
    "Ġhope": 1791,
    "Ġgene": 15678,
    "cause": 7796,
    "vill": 10739,
    "Ġtusked": 25435,
    "Ġoperated": 14555,
    "akened": 7417,
    "name": 6798,
    "riors": 18194,
    "deprived": 19908,
    "Ġceremonies": 24849,
    "Ġsulkily": 25891,
    "Ġpleasantness": 24152,
    "Ġshowed": 4501,
    "Ġperusal": 14228,
    "adequ": 11023,
    "Ġpe": 851,
    "lighter": 20969,
    "Ġinvariably": 8063,
    "etus": 21584,
    "Ġagitates": 22527,
    "Ġcontradictory": 20405,
    "Ġsustained": 13484,
    "fancy": 7340,
    "official": 24927,
    "Ġjelly": 22307,
    "iding": 3848,
    "Ġpatron": 7463,
    "exagger": 22435,
    "ti": 8392,
    "Ġunden": 22018,
    "aurs": 20779,
    "disappo": 8988,
    "thence": 23411,
    "Ġsavannah": 17424,
    "Ġobscured": 15021,
    "Ġrepaid": 19095,
    "Ġtrem": 6661,
    "Ġrun": 2355,
    "Ġoffences": 18706,
    "Ġmanaged": 7907,
    "!_âĢĿ": 11380,
    "Ġplague": 11824,
    "personal": 24976,
    "Ġforgive": 8010,
    "Ġglanced": 5952,
    "51": 12432,
    "caroline": 24162,
    "Ġrelied": 16204,
    "thest": 11655,
    "Ġmarch": 4084,
    "astic": 1866,
    "Ġdented": 17900,
    "pict": 8388,
    "Ġobtain": 8918,
    "owl": 12684,
    "Ġav": 3472,
    "Ġsyrian": 18363,
    "Ġmakest": 25444,
    "Ġobservation": 6638,
    "bedded": 13232,
    "thouse": 21987,
    "Ġmarvelled": 18886,
    "ask": 857,
    "Ġfreighted": 16333,
    "alleled": 14416,
    "embarrassed": 20606,
    "inordinate": 21203,
    "uncommon": 11682,
    "Ġfootfall": 14668,
    "Ġcanoes": 12805,
    "Ġlodgings": 8313,
    "Ġspeckled": 14312,
    "Ġcaw": 13886,
    "Ġdiscernment": 15075,
    "Ġeconomically": 25301,
    "ibbald": 18852,
    "varying": 13807,
    "Ġcraven": 16478,
    "Ġcrav": 19185,
    "inions": 8404,
    "Ġgoing": 2068,
    "dor": 12452,
    "Ġblotches": 25324,
    "ability": 716,
    "ospit": 22270,
    "Ġrelieved": 7667,
    "Ġfitly": 24007,
    "Ġservox": 23872,
    "ines": 683,
    "Ġtraversed": 18903,
    "Ġphr": 2687,
    "Ġgeneric": 18459,
    "elstrom": 17989,
    "slept": 17177,
    "rength": 4105,
    "Ġconfine": 14516,
    "Ġchoosing": 19603,
    "----": 4059,
    "Ġfronts": 20540,
    "clothes": 9061,
    "¡": 99,
    "reluct": 26172,
    "Ġsickly": 16784,
    "using": 5471,
    "Ġvisible": 4781,
    "Ġdrawing": 3918,
    "Ġhated": 7585,
    "Ġsundry": 20083,
    "vain": 15454,
    "Ġestates": 16468,
    "lleg": 20961,
    "latitude": 25272,
    "Ġhorns": 11125,
    "Ġsensationalism": 26075,
    "Ġdistorted": 14253,
    "Ġtransport": 11282,
    "Ġx": 2075,
    "Ġrumbling": 18219,
    "_.âĢĶ": 23484,
    "Ġmansion": 17817,
    "Ġidly": 16413,
    "Ġunmolested": 15253,
    "Ġdandy": 17901,
    "Ġimmensity": 25339,
    "Ġsickened": 16785,
    "bee": 16047,
    "Ġmanaging": 22332,
    "Ġsmallest": 6430,
    "Ġpestilent": 25786,
    "Ġmonsieur": 12422,
    "foolish": 12348,
    "âĢĻ": 378,
    "Ġpanel": 13374,
    "Ġshy": 10906,
    "Ġpilgrimage": 17314,
    "Ġrevenge": 5455,
    "Ġdoor": 1740,
    "Ġoccasioned": 13231,
    "Ġovercome": 6043,
    "Ġsummer": 4794,
    "Ġhaven": 8476,
    "Ġshouted": 5350,
    "Ġexal": 10880,
    "Ġconsort": 18736,
    "Ġpup": 12619,
    "Ġallowing": 2174,
    "illing": 8177,
    "Ġslow": 2380,
    "Ġundoing": 22040,
    "Ġrefrain": 12947,
    "watson": 12244,
    "Ġcreat": 1434,
    "Ġtransformations": 3487,
    "artificial": 959,
    "Ġinsincere": 26607,
    "Ġalman": 21787,
    "deliberated": 26127,
    "Ġsport": 6691,
    "Ġleap": 5827,
    "iffe": 21908,
    "ogany": 18685,
    "touched": 15446,
    "Ġinconstant": 21502,
    "Ġashes": 7618,
    "Ġgreeting": 18974,
    "Ġmarshalled": 25325,
    "Ľ": 254,
    "fishers": 24941,
    "ulent": 21868,
    "Ġirregular": 9868,
    "Ġtep": 21170,
    "ribution": 14307,
    "Ġdestined": 7976,
    "Ġsturgeon": 20601,
    "sleep": 6512,
    ".âĢĶ": 4252,
    "subst": 12166,
    "aset": 10835,
    "Ġcask": 5530,
    "Ġreadily": 5256,
    "Ġspars": 3812,
    "walls": 25355,
    "Ġgarments": 15201,
    "threaten": 25470,
    "Ġassailants": 20456,
    "Ġferoc": 14924,
    "comrade": 20635,
    "Ì": 141,
    "Ġtroublesome": 24010,
    "early": 20128,
    "Ġcontinu": 1165,
    "Ġbleeds": 24412,
    "Ġperishing": 22405,
    "Ġappeared": 2780,
    "Ġmeet": 2807,
    "Ġmouldy": 14984,
    "Ġgri": 17995,
    "Ġboomer": 20178,
    "ashtego": 4106,
    "Ġineffect": 13933,
    "hug": 17571,
    "Ġlegit": 16481,
    "Ġdeprec": 15764,
    "opy": 4464,
    "urpation": 16311,
    "Ġformation": 2945,
    "Ġconcocted": 26308,
    "Ġbilliard": 16699,
    "fugitive": 26140,
    "fri": 20864,
    "Ġcent": 3253,
    "terogene": 21831,
    "scot": 14420,
    "Ġgratifying": 13307,
    "ä": 165,
    "Ġaccent": 10299,
    "neville": 22472,
    "Ġpoints": 5251,
    "clouded": 20340,
    "Ġless": 1935,
    "consent": 18516,
    "Ġlowermost": 23252,
    "igned": 5657,
    "tured": 13798,
    "Ġbriskly": 25321,
    "recollected": 25357,
    "Ġpreference": 9738,
    "Ġentr": 14343,
    "Ġsucked": 14140,
    "Ġbinding": 20427,
    "Ġobliquely": 12363,
    "Ġpave": 8802,
    "Ġdressing": 7093,
    "Ġcourtesy": 9948,
    "taken": 7561,
    "Ġunrestrained": 25562,
    "Ġ100": 14367,
    "Ġsocieties": 20193,
    "Ġpeasant": 13553,
    "Ġholder": 6727,
    "Ġsab": 10765,
    "condemned": 26069,
    "Ġvancouver": 26574,
    "Ġbuoyancy": 20050,
    "Ġwreaths": 25946,
    "Ġpatient": 6896,
    "ternals": 24145,
    "Ġferv": 17888,
    "Ġespecially": 3939,
    "Ġsiber": 17764,
    "Ġburnished": 24006,
    "Ġclue": 7022,
    "Ġmankind": 6701,
    "mblies": 24624,
    "Ġcharges": 23279,
    "Ġhorsey": 24262,
    "arch": 1120,
    "Ġcomm": 840,
    "Ġsaturation": 2063,
    "Ġposterity": 17410,
    "Ġ1991": 3017,
    "Ġanchors": 12613,
    "oses": 3949,
    "Ġconvert": 11842,
    "rawling": 21642,
    "Ġeffectually": 16174,
    "Ġresults": 7311,
    "Ġstupendous": 20509,
    "Ġtop": 2475,
    "ssed": 3735,
    "ights": 8478,
    "neighb": 16037,
    "ersman": 11701,
    "Ġmust": 845,
    "Ġdemonstrate": 25007,
    "Ġrifle": 18220,
    "Ġdiff": 3111,
    "Ġdeprived": 8210,
    "stately": 18026,
    "Ġcivility": 4792,
    "Ġ79": 24277,
    "conceive": 16040,
    "Ġtiger": 11557,
    "Ġamounts": 6707,
    "Ġprivate": 5348,
    "ogrand": 26270,
    "Ġforlorn": 14018,
    "analysis": 26182,
    "ħ": 232,
    "journey": 8747,
    "outer": 9675,
    "Ġsocket": 12784,
    "Ġdelights": 14603,
    "ident": 3382,
    "mental": 16057,
    "uing": 17701,
    "Ġswan": 23060,
    "ense": 2051,
    "vener": 21120,
    "Ġsuperiors": 23467,
    "Ġstain": 18071,
    "Ġtrib": 13822,
    "Ġisn": 7866,
    "Ġseemed": 1275,
    "âĢĶâĢĺ_": 24844,
    "Ġcocaine": 20731,
    "lic": 17595,
    "Ġburton": 23663,
    "crimson": 24111,
    "send": 15430,
    "loops": 12882,
    "evid": 11488,
    "riage": 2125,
    "Ġstumble": 26490,
    "Ġmodest": 15923,
    "serves": 23266,
    "sen": 21058,
    "Ġpaddington": 17103,
    "Ġtrying": 4841,
    "Ġwonders": 7502,
    "Ġsympathies": 14872,
    "Ġtraits": 23084,
    "gle": 20879,
    "Ġadapt": 1055,
    "Ġhaze": 18204,
    "Ġopposite": 5124,
    "Ġrevol": 5539,
    "Ġurged": 6783,
    "Ġformal": 2944,
    "keen": 12782,
    "Ġuniformity": 23495,
    "Ġpreaching": 15935,
    "Ġinsignificant": 20465,
    "Ġlass": 15654,
    "Ġunconsc": 6555,
    "tes": 11532,
    "orse": 5808,
    "screw": 9352,
    "Ġhauled": 11694,
    "Ġsecuring": 11993,
    "Ġvibrating": 13540,
    "Ġcloudy": 19487,
    "Ġquarrel": 7295,
    "Ġhuge": 4704,
    "Ġwomen": 4754,
    "Ġunfav": 14799,
    "Ġchestnut": 19685,
    "idation": 5026,
    "Ġswims": 12121,
    "lott": 6652,
    "wr": 3027,
    "goodbye": 12058,
    "gia": 20886,
    "material": 13132,
    "Ġvener": 8166,
    "Ġlaud": 17975,
    "Ġimpl": 7197,
    "Ġreluctant": 20533,
    "Ġbrown": 6298,
    "vices": 21125,
    "Ġeconomy": 17208,
    "Ġrubbed": 12955,
    "Ġapologizing": 25208,
    "moreover": 12969,
    "Ġwhales": 1828,
    "minutes": 7514,
    "Ġhumaneval": 25590,
    "chancing": 22915,
    "sorting": 17011,
    "Ġinfatuation": 25866,
    "Ġodor": 12151,
    "eded": 9680,
    "Ġpenet": 6892,
    "O": 51,
    "rog": 15646,
    "ĠĠĠĠĠĠĠĠĠĠĠĠĠĠĠĠĠĠĠĠĠĠĠĠĠĠĠĠĠĠĠĠĠĠĠĠĠĠĠ": 19270,
    "Ġsurvivor": 17369,
    "Ġaccomp": 4719,
    "Ġconcealing": 23909,
    "Ġgret": 21607,
    "Ġmuttering": 10505,
    "dressing": 11485,
    "uity": 12518,
    "Ġminority": 18765,
    "Ġyourself": 2596,
    "umns": 14151,
    "Ġdeceived": 6547,
    "lady": 4440,
    "Ġprehens": 22237,
    "Ġblow": 3377,
    "succeeded": 15183,
    "freely": 16863,
    "Ġfish": 2716,
    "Ġgreatness": 12944,
    "Ġproportionably": 19979,
    "transferred": 24527,
    "hurriedly": 25518,
    "Ġproxim": 3198,
    "avail": 18618,
    "deception": 22149,
    "Ġdeftly": 26501,
    "ascar": 8437,
    "Ġoverpower": 12840,
    "Ġrepel": 23370,
    "Ġtrace": 6181,
    "invol": 12531,
    "beg": 22497,
    "Ġsealed": 15823,
    "ved": 868,
    "idered": 4556,
    "(_": 7541,
    "Ġfail": 4152,
    "introdu": 8941,
    "Ġnose": 4409,
    "content": 11200,
    "bos": 17491,
    "Ġaffirm": 11887,
    "atter": 654,
    "Ġsuperl": 16455,
    "Ġslightest": 6093,
    "guilty": 19490,
    "ural": 505,
    "Ġcylinders": 25952,
    "Ġflushed": 13028,
    "Ġvertically": 19390,
    "Ġirregularity": 25334,
    "Ġperiod": 4006,
    "Ġproverb": 12717,
    "wolf": 26418,
    "Ġstrangest": 14807,
    "Ġmainly": 22656,
    "Ġfeeble": 12285,
    "Ġstrokes": 16779,
    "business": 5612,
    "Ġbusy": 6190,
    "size": 15432,
    "Ġintim": 6841,
    "Ġcreates": 2008,
    "Ġpalpable": 15214,
    "ays": 6686,
    "Ġprivileged": 20122,
    "Ġdelightful": 6320,
    "Ġdominant": 12397,
    "Ġdignity": 5706,
    "Ġdiscomposed": 25588,
    "Ġpompous": 20431,
    "Ġlighter": 12654,
    "Ġprized": 23230,
    "Ġtru": 4110,
    "Ġruth": 14096,
    "Ġrespecting": 14488,
    "Ġunluck": 8487,
    "Ġglut": 18857,
    "sterns": 23379,
    "Ġaffected": 5579,
    "Ġclad": 12843,
    "Ġlocked": 6036,
    "Ġshort": 2223,
    "Ġstrip": 9428,
    "Ġswimmer": 19469,
    "coburg": 13600,
    "understood": 13220,
    "antled": 18295,
    "Ġhuddled": 20308,
    "piling": 15422,
    "Ġmourn": 8705,
    "Ġsol": 1104,
    "rock": 15647,
    "Ġhoky": 17934,
    "dar": 20834,
    "Ġappalling": 8501,
    "Ġtie": 10753,
    "hro": 20901,
    "harpooneers": 8691,
    "Ġphenomena": 21490,
    "Ġsheltered": 19921,
    "Ġviciss": 11296,
    "Ġlists": 11169,
    "shazzar": 15297,
    ");": 7333,
    "mus": 10114,
    "Ġmingling": 20208,
    "roy": 7854,
    "erative": 21281,
    "Ġdelicate": 6480,
    "Ġut": 2279,
    "Ġmaria": 7126,
    "burst": 10543,
    "Ġ38": 24089,
    "Ġ134": 24798,
    "Ġrepeating": 11216,
    "vering": 15722,
    "limbs": 20202,
    "Ġdesmarest": 22987,
    "Ġlegible": 23544,
    "Ġplayers": 12042,
    "Ġoverheard": 11771,
    "Ġtutored": 20137,
    "quadrille": 20604,
    "Ġrome": 12157,
    "Ġscales": 4852,
    "helpless": 16800,
    "nurse": 15216,
    "Ġwhitened": 24880,
    "Ġonly": 787,
    "oker": 10966,
    "arising": 17904,
    "difficult": 10061,
    "Ġsocially": 22082,
    "Åĵuv": 15190,
    "Ġhimmale": 18343,
    "searching": 25116,
    "Ġradiating": 24348,
    "unnatural": 15779,
    "dling": 9115,
    "Ġpurchase": 12260,
    "Ġleghorn": 13149,
    "reject": 21245,
    "precip": 14671,
    "Ġbirch": 26183,
    "Ġcordage": 19691,
    "Ġjen": 9273,
    "iline": 21727,
    "tent": 21073,
    "hic": 3248,
    "Ġdictating": 20163,
    "rivest": 23534,
    "elf": 565,
    "Ġdislike": 6048,
    "incident": 14598,
    "hurt": 19888,
    "uts": 8818,
    "Ġcultiv": 13557,
    "Ġpencils": 23204,
    "Ġclasped": 17214,
    "onse": 21258,
    "omit": 13981,
    "Ġsqueezed": 20044,
    "nurs": 21009,
    "Ġmurderers": 16821,
    "becoming": 18531,
    "Ġpitiful": 13242,
    "Ġswimming": 5511,
    "Ġthinker": 22818,
    "stat": 21644,
    "Ġcrossing": 7255,
    "Ġwreat": 15537,
    "Ġstay": 3091,
    "Ġimp": 576,
    "strange": 6088,
    "Ġassign": 11103,
    "Ġlamps": 14803,
    "Ñ": 146,
    "Ġremot": 8546,
    "Ġloveliness": 13610,
    "Ġmumbled": 17815,
    "Ġlingu": 11616,
    "Ġcrawl": 11379,
    "summer": 11995,
    "Ġburned": 8632,
    "Ġalmost": 1657,
    "Ġheighten": 19540,
    "beings": 12876,
    "Ġcomment": 9239,
    "spanish": 14336,
    "sum": 2087,
    "Ġlikes": 9415,
    "gon": 17560,
    "rict": 8093,
    "persuasion": 20052,
    "Ġxl": 11991,
    "Ġsplit": 7993,
    "Ġsupple": 23005,
    "Ġemphasis": 20545,
    "Ġshriv": 15842,
    "Ġwoe": 4797,
    "Ġtriumph": 5147,
    "Ġquar": 3109,
    "Ġaband": 6564,
    "Ġembeddings": 2277,
    "Ġquoted": 22422,
    "Ġsteadily": 8052,
    "Ġgills": 18000,
    "Ġhealthy": 10854,
    "Ġalarming": 14789,
    "Ġscenery": 11460,
    "aving": 2408,
    "Ġabound": 8867,
    "Ġburglar": 17361,
    "Ġgently": 7173,
    "Ġhumility": 12984,
    "Ġrespectability": 14489,
    "serv": 3937,
    "factories": 19852,
    "Ġshipwreck": 20454,
    "wrong": 13210,
    "Ġreference": 2568,
    "Ġanteced": 26186,
    "Ġbenefited": 19409,
    "Ġhandled": 12938,
    "Ġsubmerged": 11872,
    "Ġwould": 652,
    "Ġstrife": 18626,
    "Ġinquirers": 24975,
    "Ġtwist": 11851,
    "Ġpetersburgh": 24241,
    "itical": 5803,
    "hid": 13735,
    "Ġencl": 16175,
    "sunlight": 24864,
    "Ġintending": 11704,
    "lig": 3170,
    "ittered": 18450,
    "Ġworry": 18827,
    "bitter": 11243,
    "Ġstoop": 16320,
    "Ġreminds": 13433,
    "Ġsplashed": 23758,
    "Ġtaken": 2532,
    "Ġallures": 22013,
    "Ġgraceful": 11300,
    "Ġanomalous": 25645,
    "ted": 788,
    "wail": 21135,
    "Ġanywhere": 8519,
    "omn": 15696,
    "expectations": 24289,
    "Ġcit": 10786,
    "uneven": 23696,
    "Ġgarn": 13966,
    "Ġuncl": 22020,
    "Ġripple": 25512,
    "yield": 13812,
    "Ġconceited": 12092,
    "Ġfates": 15583,
    "thinking": 9017,
    "umul": 1288,
    "Ġhomeless": 23398,
    ",âĢĶâĢĺ": 23811,
    "ches": 2150,
    "visits": 24236,
    "ones": 2749,
    "Ġcred": 8783,
    "cle": 3959,
    "Ġskip": 1844,
    "Ġlap": 8439,
    "ack": 616,
    "Ġflirting": 16259,
    "serious": 14492,
    "Ġunintelligible": 26523,
    "Ġrepine": 16418,
    "Ġcheer": 4069,
    "shone": 22445,
    "Ġreef": 10852,
    "dden": 1806,
    "stumps": 21659,
    "ene": 2169,
    "Ġ62": 24379,
    "Ġdab": 15593,
    "Ġnarwhale": 12294,
    "Ġchast": 18390,
    "Ġcoron": 4470,
    "tallow": 21094,
    "Ġfeathers": 15127,
    "Ġsupp": 1259,
    "bottom": 11430,
    "antly": 1987,
    "robber": 21543,
    "umerable": 11725,
    "gish": 20883,
    "Ġgrego": 18973,
    "Ġexactly": 2773,
    "spersed": 22749,
    "athed": 7829,
    "Ġdriving": 3617,
    "tomb": 21102,
    "_,âĢĻ": 12434,
    "made": 4812,
    "handled": 19272,
    "orm": 425,
    "argue": 21451,
    "Ġprovidence": 18757,
    "aye": 3660,
    "shooting": 16972,
    "orrowed": 19300,
    "iations": 11498,
    "neural": 3064,
    "Ġlifeless": 8952,
    "ine": 407,
    "bowed": 10687,
    "mild": 15399,
    "sweetly": 25146,
    "Ġsquat": 14371,
    "entering": 17984,
    "health": 13836,
    "softened": 20418,
    "ute": 4646,
    "live": 7551,
    "Ġbackward": 7656,
    "Ġdivided": 8633,
    "estion": 18373,
    "afer": 17489,
    "Ġhunter": 5402,
    "Ġcommunicates": 24560,
    "Ġtrumpet": 9580,
    "unaffected": 21889,
    "Ġtin": 15470,
    "[": 63,
    "arance": 4702,
    "unguarded": 23681,
    "Ġcler": 11772,
    "Ġgra": 415,
    "leaving": 10794,
    "humored": 19463,
    "years": 6887,
    "Ġdetected": 18871,
    "Ġcluster": 13573,
    "Ġanxious": 4522,
    "Ġextinguished": 10347,
    "gentle": 5359,
    "Ġhem": 8448,
    "burning": 25091,
    "Ġenduring": 16313,
    "Ġpap": 8800,
    "Ġhappiest": 11882,
    "usually": 10291,
    "Ġcentrally": 23839,
    "Ġcabin": 3303,
    "Ġoblong": 14325,
    "ostent": 16855,
    "Ġdisabled": 18573,
    "dut": 10091,
    "ilib": 4121,
    "Ġgone": 2107,
    "Ġpauper": 26188,
    "far": 5789,
    "Ġhaggerston": 26460,
    "walk": 5526,
    "Ġreckon": 19880,
    "Ġgradient": 450,
    "Ġextremely": 2675,
    "actorily": 25584,
    "Ġconnex": 10669,
    "Ġbraw": 23842,
    "Ġcharted": 22257,
    "Ġlimp": 19192,
    "Ġscuttle": 7416,
    "Ġ125": 24489,
    "Ġtrappings": 23091,
    "Ġrests": 13094,
    "pling": 8477,
    "surprised": 9537,
    "P": 52,
    "Ġprediction": 2238,
    "pop": 17639,
    "Ġlunging": 25002,
    "Ġsale": 14158,
    "commanded": 16995,
    "iously": 2683,
    "pra": 15414,
    "Ġshivered": 14111,
    "Ġwarned": 16887,
    "ern": 759,
    "Ġjollies": 20378,
    "sac": 7142,
    "Ġleast": 2065,
    "Ġreferred": 8920,
    "Ġenlarged": 25994,
    "battle": 12443,
    "race": 11632,
    "Ġalternative": 19995,
    "Ġfestival": 25454,
    "illings": 14146,
    "suit": 18650,
    "Ġoccupation": 9933,
    "Ġincarnate": 20383,
    "Ġaccursed": 9462,
    "Ġlick": 21556,
    "mistress": 14914,
    "philosop": 9574,
    "Ġresembles": 25978,
    "Ġexcused": 23324,
    "Ġtunnels": 24636,
    "Ġmade": 1050,
    "Ġensures": 3054,
    "Ġhark": 8430,
    "Ġpremature": 3726,
    "Ġmodels": 762,
    "counters": 25406,
    "Ġconsecut": 18118,
    "Ġfret": 10809,
    "Ġ82": 24477,
    "itaries": 21343,
    "Ġalche": 21789,
    "5": 25,
    "Ġwaiting": 4328,
    "Ġfleecy": 17030,
    "Ġaffliction": 25853,
    "Ġpilgr": 12182,
    "Ġinsip": 19278,
    "following": 10578,
    "Ġrevolver": 14909,
    "dington": 11901,
    "Ġfamous": 5258,
    "Ġhorrid": 7999,
    "Ġleading": 7300,
    "surprising": 16927,
    "geon": 6270,
    "Ġdevil": 3613,
    "Ġpassive": 22848,
    "Ġopenshaw": 7956,
    "rets": 12542,
    "Ġfreemason": 23221,
    "ugging": 23302,
    "Ġcalifornian": 25860,
    "ming": 3600,
    "Ġsafe": 5107,
    "Ġmenacing": 23117,
    "Ġtranspired": 16794,
    "Ġfeverish": 11353,
    "Ġbearded": 15733,
    "Ġunsolved": 22038,
    "Ġmuscle": 14695,
    "Ġmau": 21318,
    "Ġinsure": 13181,
    "Ġtwin": 12928,
    "claimed": 9839,
    "Ġlucas": 3834,
    "Ġrudeness": 17132,
    "restraint": 18990,
    "ordinary": 4414,
    "Ġtearless": 24800,
    "Ġjung": 12836,
    "ratulations": 20135,
    "Ġmoral": 6581,
    "Ġjurymen": 16856,
    "Ġnarrow": 5090,
    "Ġdescrying": 18631,
    "Ġabhorrent": 16865,
    "Ġsucking": 12787,
    "Ġstruct": 2788,
    "days": 7689,
    "Ġprofessor": 11233,
    "etts": 12661,
    "Ġhyperborean": 26348,
    "Ġperches": 18460,
    "Ġdenny": 9005,
    "benevolently": 25609,
    "Ġalleys": 25987,
    "Ġwhimsical": 20436,
    "matical": 13131,
    "Ġshock": 6083,
    "Ġfooting": 14487,
    "itute": 9658,
    "Ġbenefits": 4291,
    "Ġsuggested": 8323,
    "plentiful": 21967,
    "Ġjub": 22302,
    "Ġstamping": 20039,
    "Ġbounding": 19411,
    "weaving": 18679,
    "Ġbelf": 21388,
    "presume": 25678,
    "reigned": 21251,
    "cu": 10087,
    "Ġunconcerned": 20518,
    "Ġreason": 1383,
    "Ġawa": 7714,
    "Ġgrateful": 7661,
    "Ġfamiliar": 5515,
    "Ġaye": 3355,
    "Ġhval": 21496,
    "Ġinjection": 3469,
    "Ġengagements": 9980,
    "bowsprit": 16862,
    "Ġeffemin": 18542,
    "olently": 15760,
    "gallant": 7781,
    "apan": 6864,
    "Ġpeaks": 16137,
    "Ġfluttered": 16258,
    "stamp": 21654,
    "Ġhumped": 19780,
    "Ġpoem": 22602,
    "anx": 8786,
    "Ġsteadfastly": 10655,
    "tashtego": 9629,
    "Ġplaster": 16093,
    "Ġstable": 2705,
    "ogene": 18684,
    "Ġbingley": 1674,
    "cape": 13698,
    "Ġinsights": 13182,
    "aternity": 21274,
    "vital": 17708,
    "officers": 10632,
    "Ġnich": 21526,
    "Ġgenerator": 3385,
    "Ġshoals": 13137,
    "happening": 16574,
    "miles": 10716,
    "somers": 19378,
    "Ġopposed": 11191,
    "Ġalph": 9701,
    "Ġdescribed": 6608,
    "Ġpantaloons": 20305,
    "Ġfacilitate": 26107,
    "Ġgroans": 14838,
    "Ġconsciousness": 9951,
    "gladness": 25205,
    "Ġadvent": 4364,
    "Ġlingering": 11383,
    "pine": 13771,
    "Ġrefrained": 14348,
    "Ġnaut": 13944,
    "duing": 22418,
    "Ġdimension": 3240,
    "Ġgrey": 4517,
    "Ġbitterest": 12403,
    "incidentally": 20548,
    "imen": 12687,
    "Ġimminent": 11248,
    "Ġunderwent": 23247,
    "Ġobject": 1392,
    "Ġmaybe": 12949,
    "ent": 305,
    "Ġpoetical": 25069,
    "Ġpoultry": 17448,
    "Ġjiff": 22303,
    "Ġpovels": 22605,
    "grown": 10103,
    "Ġthrees": 23412,
    "contriv": 19303,
    "iod": 3841,
    "flo": 6115,
    "Ġinstrument": 7121,
    "Ġsupreme": 13609,
    "Ġunearthly": 9040,
    "imony": 12691,
    "Ġunquestionable": 26230,
    "Ġqueens": 16716,
    "sometimes": 5972,
    "Ġwith": 349,
    "probably": 10023,
    "Ġjour": 11764,
    "Ġenvirons": 13200,
    "rev": 17765,
    "Ġwaterproof": 19101,
    "Ġjoists": 19244,
    "§": 105,
    "Ġwickham": 2204,
    "Ġshaken": 10270,
    "penn": 18838,
    "Ġunwell": 22021,
    "counterpart": 26368,
    "Ġguiding": 19252,
    "Ġmurdering": 14822,
    "halloa": 17098,
    "yl": 7819,
    "Ġpirate": 15007,
    "oa": 9619,
    "Ġmoot": 22437,
    "Ġsuppressing": 23007,
    "Ġcourt": 4173,
    "approb": 11045,
    "Ġat": 396,
    "gal": 15363,
    "treas": 17687,
    "omen": 4088,
    "Ġmonosyllable": 20736,
    "Ġelopement": 10334,
    "Ġvigilance": 12372,
    "oniously": 21266,
    "Ġprestige": 22243,
    "honorable": 19911,
    "Ġfuller": 11159,
    "Ġdeliberation": 19977,
    "Ġdependencies": 2314,
    "Ġcleaving": 23191,
    "Ġasc": 4769,
    "ries": 3356,
    ",âĢĿ": 582,
    "ī": 236,
    "usiveness": 22300,
    "Ĺ": 250,
    "traversed": 19652,
    "two": 3862,
    "Ġpruning": 18982,
    "Ġthoughtful": 16201,
    "Ġtechn": 9376,
    "Ġegypt": 9685,
    "eral": 9166,
    "search": 8467,
    "Ġshoal": 12017,
    "Ġmouths": 7493,
    "Ġlongitude": 11014,
    "engagements": 25862,
    "Ġphilips": 5411,
    "Ġdragon": 14954,
    "shunned": 22457,
    "Ġdeny": 7490,
    "bowing": 24469,
    "ort": 523,
    "Ġtwee": 22685,
    "Ġshunned": 17298,
    "avern": 24805,
    "Ġhandsomer": 20342,
    "splice": 17178,
    "gathered": 13733,
    "Ġdetermines": 2368,
    "po": 1137,
    "shining": 18494,
    "Ġspecies": 5116,
    "lets": 7837,
    "Ġstrainings": 24643,
    "Ġha": 400,
    "Ġdischarged": 15228,
    "Ġperpetual": 12304,
    "pen": 1203,
    "Ġdone": 1818,
    "Ġpolluted": 25602,
    "Ġimplements": 2489,
    "Ġdair": 17898,
    "ceptive": 15971,
    "Ġtwins": 16129,
    "Ġaversion": 18877,
    "masters": 16843,
    "ipotent": 10960,
    "fate": 17547,
    "Ġpreviously": 3920,
    "conceal": 25127,
    "Ġhealth": 3904,
    "sit": 13782,
    "punctual": 26364,
    "patter": 4343,
    "Ġtwinkled": 14316,
    "Ġmoving": 1677,
    "amb": 5724,
    "Ġperceiving": 8879,
    "Ġarabic": 24991,
    "Ġemploy": 3615,
    "Ġforeman": 23459,
    "justice": 7959,
    "intim": 22943,
    "Ġpods": 17922,
    "Ġbefallen": 12344,
    "Ġlodged": 11255,
    "Ġruin": 6056,
    "ackinaw": 22432,
    "oup": 2013,
    "Ġdecay": 1010,
    "Ġdoubts": 8583,
    "Ġhunger": 8570,
    "lers": 10110,
    "Ġinvesting": 19659,
    "Ġgross": 11626,
    "haul": 14775,
    "Ġto": 297,
    "Ġemployed": 5203,
    "Ġreferences": 21680,
    "Ġemm": 18010,
    "Ġshyness": 20315,
    "Ġgpt": 4358,
    "Ġdrive": 5058,
    "beat": 10989,
    "Ġcomply": 8894,
    "hopeless": 16925,
    "increasing": 20279,
    "Ġbed": 2145,
    "Ġlegendary": 20546,
    "Ġbeards": 21757,
    "uberance": 25925,
    "Ġtuning": 3070,
    "imately": 12689,
    "mounting": 25218,
    "Ï": 144,
    "Ġturban": 23625,
    "Ġprudent": 9193,
    "Ġparametric": 2395,
    "Ġbrows": 13302,
    "Ġadmitting": 19198,
    "rudent": 6482,
    "Ġvill": 3879,
    "ittleness": 22383,
    "Ġthimble": 15642,
    "Ġpivot": 13926,
    "Ġgliding": 8562,
    "Ġmurdered": 6464,
    "Ġconspicuous": 13605,
    "geor": 15987,
    "Ġshudder": 9054,
    "cupboards": 25410,
    "Ġarrived": 3737,
    "Ġjavan": 25010,
    "Ġaf": 782,
    "ice": 591,
    "ortations": 22265,
    "Ġproofs": 19823,
    "Ġwax": 10779,
    "âĢĻâĢĶ": 12737,
    "like": 1884,
    "Ġsciences": 15953,
    "Ġbricks": 13563,
    "Ġyards": 5374,
    "nib": 5217,
    "end": 497,
    "Ġhover": 15625,
    "Ġresolved": 3800,
    "Ġlining": 13954,
    "iture": 5698,
    "oes": 4441,
    "information": 12394,
    "adding": 21765,
    "Ġdundee": 17004,
    "Ġburden": 8609,
    "Ġ184": 16617,
    "Ġvexation": 10591,
    "langu": 4811,
    "mun": 20972,
    "batt": 20788,
    "carp": 9113,
    "Ġphren": 8575,
    "dismay": 19165,
    "04": 10683,
    "Ġbodings": 21398,
    "Ġdisconsol": 18569,
    "Ġmagnus": 18967,
    "icacy": 15664,
    "Ġgettest": 23240,
    "land": 1530,
    "Ġassailed": 23122,
    "Ġadmirals": 20393,
    "Ġmeets": 7398,
    "Ġlightnings": 16362,
    "Ġstreets": 5867,
    "traces": 24328,
    "papers": 12503,
    "osed": 1958,
    "aware": 16305,
    "Ġfountains": 13504,
    "Ġabruptness": 25312,
    "Ġpines": 12617,
    "Ġrode": 16004,
    "answered": 10279,
    "Ġwides": 17796,
    "Ġupright": 8496,
    "Ġseeing": 2886,
    "veh": 12682,
    "rings": 10726,
    "easy": 9599,
    "compar": 14364,
    "folio": 10552,
    "Ġbuckle": 17040,
    "mp": 3728,
    "silence": 8045,
    "Ġfrom": 434,
    "Ġmachinery": 20493,
    "Ġthirty": 4946,
    "Ġakin": 15501,
    "Ġsexes": 25179,
    "Ġlater": 6018,
    "please": 8179,
    "Ġembark": 8563,
    "Ġleisurely": 24760,
    "Ġweight": 658,
    "Ġjewels": 12370,
    "Ġwhereon": 16110,
    "Ġfossils": 20232,
    "Ġnoah": 10945,
    "rack": 18018,
    "Ġbreathe": 9015,
    "Ġample": 11798,
    "Ġadored": 18302,
    "Ġul": 6831,
    "rant": 11520,
    "Ġexpose": 10333,
    "Ġleak": 2161,
    "doing": 8588,
    "conversations": 24763,
    "Ġstripped": 10472,
    "Ġgunwale": 7328,
    "Ġstuffed": 13412,
    "Ġsuperlatively": 26084,
    "Ġadhes": 22110,
    "nostril": 26568,
    "Ġcruellest": 19672,
    "vic": 13805,
    "blind": 16715,
    "romised": 14115,
    "exped": 16535,
    "Ġelab": 22650,
    "Ġattack": 5481,
    "Ġcanal": 8184,
    "Ġbeaver": 18092,
    "ineffectual": 26515,
    "Ġtore": 6532,
    "Ġmoustache": 20492,
    "Ġ59": 24340,
    "Ġwafted": 14507,
    "Ġcigar": 9551,
    "Ġgnashed": 20142,
    "Ġloun": 7168,
    "Ġdeposed": 16087,
    "moments": 19423,
    "firmly": 20289,
    "Ġ177": 13414,
    "Ġnast": 15644,
    "nose": 17618,
    "oice": 1380,
    "Ġadoption": 24961,
    "Ġmagnet": 10396,
    "pans": 13772,
    "avery": 13684,
    "Ġportent": 12083,
    "Ġbel": 1214,
    "Ġpick": 4260,
    "Ġamput": 16043,
    "lighted": 23764,
    "Ġcommenced": 8534,
    "Ġberg": 24549,
    "ouch": 2784,
    "axing": 18559,
    "diligence": 26119,
    "bus": 5357,
    "Ġgreatest": 4096,
    "Ġtrout": 22360,
    "Ġnewcomer": 26049,
    "rain": 462,
    "ibles": 18798,
    "anning": 10169,
    "dil": 11482,
    "christian": 17240,
    "voices": 21127,
    "Ġhelen": 16665,
    "Ġarsac": 11742,
    "Ġdrow": 21433,
    "off": 1885,
    "Ġharvest": 13417,
    "Ġpetticoat": 15303,
    "Ġchiswick": 25568,
    "Ġheads": 3742,
    "presented": 12990,
    "Ġdefinitions": 22953,
    "Ġhump": 5857,
    "objections": 19926,
    "fortune": 4977,
    "Ġwounds": 17798,
    "Ġbudge": 15172,
    "Ġdepresses": 25806,
    "cook": 8272,
    "Ġstroll": 13354,
    "Ġjapan": 7641,
    "Ġpregnant": 26544,
    "itional": 22478,
    "Ġdevotees": 25386,
    "Ġdepressions": 25807,
    "Ġindiscreet": 22965,
    "Ġpained": 19179,
    "Ġflashing": 13029,
    "Ġlakeman": 6989,
    "procure": 23408,
    "Ġuneasiness": 9490,
    "Ġwonder": 2119,
    "ne": 647,
    "worse": 14696,
    "Ġpursued": 6328,
    "occupation": 15064,
    "Ġvastly": 23869,
    "Ġsoup": 7068,
    "Ġdistingu": 2518,
    "Ġidolator": 20005,
    "diff": 9117,
    "moonlight": 25385,
    "Ġpeculiarity": 12933,
    "ape": 1904,
    "Ġminor": 12968,
    "Ġshrill": 12143,
    "Ġfang": 21410,
    "uation": 17702,
    "Ġreaders": 18926,
    "repeated": 12340,
    "Ġportion": 7494,
    "Ġcaved": 21360,
    "header": 11933,
    "Ġweighing": 20024,
    "Ġheavier": 13103,
    "Ġtransient": 18504,
    "Ġsanely": 24993,
    "ternatural": 12716,
    "Ġmiraculous": 13549,
    "elizabeth": 1985,
    "Ġmanagement": 8195,
    "Ġdears": 18143,
    "Ġquicker": 16518,
    "gledy": 25412,
    "Ġamusement": 8055,
    "destiny": 16712,
    "Ġpremises": 10493,
    "ober": 15413,
    "Ġvehemence": 26575,
    "Ġwere": 558,
    "Ġlim": 2381,
    "Ġbeard": 11656,
    "Ġdependence": 18632,
    "profess": 10633,
    "azore": 23474,
    "Ġgasfitters": 25051,
    "Ġserenely": 13508,
    "Ġfavours": 23293,
    "Ġdiscerned": 25016,
    "Ġ84": 19721,
    "gaffman": 26399,
    "uendoes": 26416,
    "Ġintact": 21994,
    "Ġinscrut": 10037,
    "Ġfleeting": 19338,
    "Ġnote": 4267,
    "empl": 5725,
    "Ġbarnacled": 25544,
    "Ġsupervised": 3180,
    "support": 9476,
    "Ġedinburgh": 16445,
    "confirmed": 19658,
    "zza": 24180,
    "feit": 16051,
    "waiter": 24602,
    "Ġsoph": 1532,
    "Ġsighed": 10343,
    "plan": 15826,
    "Ġrise": 5639,
    "resist": 8278,
    "Ġdissatisfied": 14260,
    "waves": 10746,
    "Ġsurmises": 17063,
    "Ġaddress": 2270,
    "Ġembedding": 2103,
    "inno": 10759,
    "Ġsnatching": 10479,
    "Ġbrand": 16195,
    "Ġpossessed": 5198,
    "eneva": 5122,
    "vously": 21126,
    "unk": 4542,
    "Ġshiny": 14109,
    "appin": 18772,
    "Ġcharacters": 9377,
    "Ġhandsomest": 20343,
    "Ġvessels": 6757,
    "stoke": 18027,
    "Ġtemples": 18647,
    "Ġcontextually": 11959,
    "Ġpitied": 14697,
    "Ġaccomplishment": 19678,
    "Ġdiscl": 9800,
    "Ġback": 828,
    "Ġhoars": 19090,
    "bil": 20781,
    "burnt": 20089,
    "dropping": 14992,
    "hos": 15371,
    "der": 470,
    "principle": 10654,
    "utored": 15669,
    "Ġbook": 2708,
    "Ġcarbuncle": 14450,
    "sip": 10729,
    "Ġdecap": 16032,
    "Ġpallor": 13517,
    "Ġcongratulated": 19777,
    "Ġblackness": 9398,
    "remind": 23197,
    "ause": 1313,
    "Ġneedles": 11187,
    "superior": 9531,
    "io": 3804,
    "Ġmariners": 6068,
    "urously": 18057,
    "Ġrelent": 18786,
    "Ġflanks": 11915,
    "Ġordained": 19455,
    "sing": 5142,
    "Ġsutherland": 10153,
    "inion": 2877,
    "continu": 5505,
    "Ġinhab": 5087,
    "Ġlearnedly": 23397,
    "kind": 3866,
    "spite": 16150,
    "Ġbloom": 9890,
    "Ġlancaster": 26349,
    "nourished": 26407,
    "Ġpositional": 2601,
    "encounter": 20400,
    "Ġtreacher": 8606,
    "Ġinvent": 7166,
    "Ġindolent": 13005,
    "Ġancestry": 25649,
    "Ġforemost": 12006,
    "Ġquivered": 18478,
    "paint": 21027,
    "uce": 11539,
    "Ġaverages": 2399,
    "Ġsmut": 22566,
    "rollable": 13948,
    "dangerous": 20250,
    "Ġ102": 24425,
    "Ġhasten": 10485,
    "Ġmoby": 3665,
    "Ġbalances": 2341,
    "Ġclapping": 14210,
    "nuee": 17438,
    "Ġspread": 5164,
    "Ġprize": 11950,
    "leaves": 12578,
    "Ġunc": 2126,
    "Ġlounged": 19962,
    "pertaining": 22188,
    "actions": 8910,
    "Ġreprehensible": 15705,
    "Ġnerves": 2629,
    "Ġscreening": 25313,
    "Ġrobustness": 18881,
    "cerem": 15684,
    "Ġinexpressible": 17339,
    "Ġpon": 10180,
    "Ġmob": 16026,
    "Ġgeneralization": 984,
    "Ĭ": 237,
    "Ġbeggar": 9355,
    "ivot": 11718,
    "Ġpaddled": 20212,
    "Ġale": 9161,
    "Ġlegisl": 23545,
    "tut": 15441,
    "Ġspeeding": 23575,
    "hes": 1395,
    "Ġaloud": 6253,
    "Ġev": 4831,
    "Ġapprehension": 7116,
    "Ġsect": 17760,
    "Ġskills": 1838,
    "bit": 3932,
    "Ġledger": 19413,
    "Ġdiscoursing": 26275,
    "?âĢĿ": 700,
    "Ġspam": 7632,
    "Ġcele": 9902,
    "uncontrollable": 20605,
    "acknowledged": 15210,
    "Ġstalked": 20437,
    "sn": 7140,
    "umber": 5244,
    "stre": 5454,
    "Ġaudible": 19891,
    "poss": 4782,
    "Ġtrucks": 19523,
    "Ġcalm": 3448,
    "Ġand": 295,
    "shutters": 20320,
    "Ġmoody": 8203,
    "ouse": 1190,
    "llable": 6882,
    "Ġwhisky": 23942,
    "Ġslyness": 25279,
    "utes": 5915,
    "Ġriddles": 16743,
    "Ġcin": 13878,
    "Ġinfiltrated": 23295,
    "fiercely": 25269,
    "Ġcaptivating": 26058,
    "Ġincident": 6280,
    "lingering": 18615,
    "cating": 20812,
    "Ġconstruct": 23353,
    "Ġbrigandish": 25496,
    "cho": 2766,
    "behind": 6781,
    "Ġdistinctions": 18547,
    "measured": 19997,
    "Ġsunken": 14499,
    "secut": 7867,
    "Ġslaugh": 18949,
    "Ġsquid": 11878,
    "Ġcalculates": 13267,
    "Ġimpertin": 6936,
    "attentive": 17197,
    "Ġupward": 9726,
    "Ġchry": 22253,
    "Ġgreenhorn": 23777,
    "Ġple": 1468,
    "Ġflower": 16241,
    "melted": 25217,
    "ment": 688,
    "Ġinches": 5850,
    "antee": 22101,
    "ic": 304,
    "y": 93,
    "Ġwhole": 1663,
    "these": 3241,
    "Ġofficious": 19358,
    "Ġ(âĢľ": 16006,
    "Ġslaughtered": 26593,
    "rence": 5557,
    "armon": 23068,
    "Ġlothario": 26193,
    "Ġmelting": 24301,
    "Ġrobbed": 22974,
    "edged": 15636,
    "Ġthoughts": 3134,
    "Ġbales": 21396,
    "phants": 9324,
    "Ġcomputations": 16010,
    "Ġsubsisting": 23437,
    "Ġrewards": 10851,
    "Ġhasty": 10484,
    "Ġoctavo": 15171,
    "uning": 1312,
    "Ġxerxes": 23422,
    "Ġconception": 10319,
    "Ġasleep": 6839,
    "Ġpotency": 14653,
    "Ġfishing": 9669,
    "Ġfull": 2177,
    "chie": 21696,
    "Ġsaturn": 22910,
    "adr": 6996,
    "Ġbreaches": 14527,
    "Ġundaunted": 24132,
    "ohn": 4564,
    "Ġbachelors": 24873,
    "Ġawaited": 17081,
    "furnished": 20251,
    "Ġlayers": 815,
    "Ġvote": 21952,
    "ituted": 13876,
    "Ġ70": 11280,
    "otion": 4948,
    "formality": 22230,
    "honey": 20914,
    "istan": 22112,
    "Ġabstract": 17189,
    "removing": 17774,
    "esty": 4311,
    "d": 72,
    "Ġig": 3503,
    "Ġtradesman": 20082,
    "devil": 7896,
    "Ġmonth": 2851,
    "Ġsnugly": 17119,
    "Ġsus": 18286,
    "Ġcouple": 5425,
    "Ġopportunities": 19260,
    "Ġangry": 5502,
    "civil": 7797,
    "Ġunlocked": 14123,
    "Ġtimidly": 11342,
    "requirements": 24870,
    "Ġclattered": 22369,
    "Ġsult": 10770,
    "Ġretain": 7863,
    "Ġspasmodic": 20406,
    "phere": 21028,
    "Ġinsatiable": 19283,
    "believe": 8306,
    "Ġplacing": 8904,
    "Ġadam": 2128,
    "Ġsnatched": 10478,
    "Ġmock": 3692,
    "Ġdit": 21427,
    "Ġintroduction": 8974,
    "Ġfrigate": 13083,
    "Ġtracing": 18900,
    "xes": 21150,
    "Ġvelv": 10624,
    "type": 16182,
    "Ġstock": 7456,
    "Ġsurv": 6082,
    "meet": 11856,
    "scept": 21062,
    "Ġjanuary": 13654,
    "owe": 15714,
    "Ġchrist": 4075,
    "Ġpassing": 4321,
    "swed": 24266,
    "inuating": 16212,
    "Ġshall": 1143,
    "Ġflukes": 5269,
    "umphed": 23526,
    "ierce": 14395,
    "Ġcorrob": 16275,
    "Ġdoubtless": 6196,
    "Ġstem": 15725,
    "oftentimes": 19431,
    "400": 20765,
    "Ġtack": 5623,
    "Ġexhibit": 14966,
    "Ġclubb": 22368,
    "Ġorder": 1684,
    "Ġpaw": 12620,
    "Ġethere": 23959,
    "arp": 2025,
    "Ġcetace": 14998,
    "Ġobservations": 13384,
    "Ġrece": 11639,
    "complied": 19923,
    "Ġassertions": 20118,
    "dressed": 10699,
    "Ġ1836": 25729,
    "tee": 16179,
    "Ġmarked": 4623,
    "Ġprocedural": 12034,
    "Ġtexas": 25931,
    "Ġfowl": 11334,
    "Ġchilly": 25570,
    "Ġhardships": 14455,
    "anyth": 5441,
    "Ġcombined": 8552,
    "Ġseething": 18209,
    "Ġnumbers": 2889,
    "hering": 12814,
    "Ġishmael": 7397,
    "neurons": 3130,
    "Ġsweetness": 9451,
    "Ġfiles": 21420,
    "reasonable": 7752,
    "Ġcalhoun": 23054,
    "Ġaccur": 3712,
    "Ġdepression": 21846,
    "Ġtrains": 10950,
    "Ġsuddenly": 2651,
    "Ġcharles": 11958,
    "Ġbourgh": 5072,
    "wise": 2576,
    "Ġoptimization": 1487,
    "ĠâĢľ_": 6699,
    "Ġdefe": 21841,
    "protected": 19931,
    "comput": 2037,
    "Ġleaping": 8343,
    "Ġbrah": 19367,
    "Ġtraged": 9358,
    "Ġjura": 14196,
    "stones": 11636,
    "Ġimplicate": 24889,
    "Ġstepdaughter": 22622,
    "Ġreplace": 14481,
    "Ġengraved": 17088,
    "Ġsuburban": 17352,
    "reflections": 24749,
    "Ġknocked": 9506,
    "culine": 19078,
    "Ġhelper": 24035,
    "custom": 15341,
    "Ġtorpor": 25044,
    "Ġscratches": 22293,
    "server": 14491,
    "Ġsneering": 24711,
    "Ġpay": 3965,
    "ians": 2359,
    "Ġjup": 15961,
    "Ġcumbrous": 26440,
    "Ġmummy": 25777,
    "proof": 16432,
    "Ġmoul": 15549,
    "Ġsequel": 14360,
    "Ġautomation": 13221,
    "Ġbutts": 15864,
    "Ġbusied": 19079,
    "Ġrecital": 16149,
    "Ġcetology": 10012,
    "Ġsubdiv": 16168,
    "Ġlistened": 4475,
    "unc": 15775,
    "Ġplane": 11823,
    "Ġthere": 563,
    "Ġclink": 22365,
    "dances": 17529,
    "Ġabreast": 18405,
    "manner": 6171,
    "por": 2151,
    "Ġstupid": 7604,
    "Ġundone": 24130,
    "access": 11183,
    "Ġsaying": 3243,
    "Ġhates": 21492,
    "humoredly": 26333,
    "deceptive": 22153,
    "¥": 103,
    "decease": 25565,
    "Ġflew": 5591,
    "blot": 20793,
    "Ġdetective": 14427,
    "embra": 14076,
    "ifts": 12736,
    "Ġtri": 4817,
    "resolutions": 26173,
    "Ġcraggy": 23539,
    "venth": 9301,
    "duchess": 18474,
    "vation": 9150,
    "someone": 14571,
    "Ġhurricane": 16440,
    "Ġwatson": 3596,
    "Ġidol": 7468,
    "Ġluckless": 16807,
    "blades": 24143,
    "Ġlaure": 16917,
    "Ġhidden": 1372,
    "Ġbuttoning": 17243,
    "Ġfavourable": 7960,
    "Ġabsurdly": 19968,
    "Ġtrim": 15977,
    "igms": 3044,
    "Ġbordered": 24576,
    "Ġcour": 1769,
    "ass": 538,
    "Ġmonogram": 26583,
    "blog": 19848,
    "Ġbrought": 2520,
    "Ġgrating": 14359,
    "Ġdraws": 19446,
    "Ġlisten": 4676,
    "Ġexclamations": 11366,
    "mown": 20980,
    "ely": 622,
    "compassion": 12369,
    "Ġvacancy": 9048,
    "Ġmorris": 18854,
    "Ġresemble": 15699,
    "Ġgeorgiana": 8627,
    "Ġluggage": 25966,
    "wam": 10140,
    "Ġarbit": 4654,
    "Ġpride": 3825,
    "Ġodorous": 19580,
    "©": 107,
    "rapid": 12671,
    "Ġhumph": 22892,
    "Ġoutdone": 22325,
    "Ġmalignity": 10562,
    "Ġsplice": 19319,
    "Ġinconven": 7587,
    "Ġmisfortune": 5571,
    "Ġcategorization": 12138,
    "Ġanalyze": 1568,
    "miseries": 16767,
    "Ġspecial": 2102,
    "Ġfaces": 6010,
    "Ġupstairs": 5840,
    "liv": 9614,
    "adjust": 21766,
    "anum": 17843,
    "Ġloaf": 15881,
    "Ġineff": 12634,
    "Ġrept": 13986,
    "plunging": 25996,
    "Ġlest": 6395,
    "Ġdoubly": 16395,
    "ston": 15688,
    "oriously": 17882,
    "beryls": 25319,
    "Ġwont": 9854,
    "ascended": 24720,
    "izz": 7616,
    "cy": 650,
    "brad": 20791,
    "Ġgout": 21602,
    "achable": 14141,
    "Ġ122": 24486,
    "goes": 10431,
    "Ġfond": 4759,
    "Ġspilling": 22141,
    "Ġ*": 1269,
    "Ġfronted": 25863,
    "Ġowner": 8925,
    "Ġshutting": 14770,
    "eli": 3875,
    "vate": 21118,
    "Ġhooks": 14978,
    "Ġbush": 23348,
    "morrow": 4576,
    "Ġkrempe": 10673,
    "Ġmiguel": 25775,
    "drawing": 10492,
    "Ġcompletely": 4863,
    "Ġtennessee": 26604,
    "Ġdecent": 10985,
    "Ġscream": 5936,
    "Ġoverwhel": 8197,
    "Ġbrag": 23841,
    "icle": 10837,
    "Ġpliny": 11825,
    "ustration": 2258,
    "Ġmuster": 16131,
    "Ġque": 4163,
    "Ġlights": 8964,
    "entered": 8817,
    "writ": 16563,
    "salesman": 20680,
    "Ġwhy": 1761,
    "Ġkneeling": 12144,
    "gentlemen": 9510,
    "Ġrelics": 16205,
    "throughout": 24097,
    "range": 3496,
    "quet": 6838,
    "Ġcottagers": 6763,
    "Ġbreaths": 14868,
    "Ġinjured": 9043,
    "Ġstreaming": 19686,
    "Ġdissu": 18562,
    "Ġdress": 4021,
    "Ġimmens": 9942,
    "Ġhudson": 15199,
    "obed": 14451,
    "cked": 2768,
    "90": 12433,
    "Ġdistinguished": 8275,
    "Ġtyphoon": 12390,
    "triumph": 15447,
    "whether": 5322,
    "ried": 925,
    "Ġsc": 530,
    "reduced": 15813,
    "altogether": 12640,
    "Ġhundred": 2699,
    "women": 15463,
    "Ġadmin": 23563,
    "sin": 21057,
    "gam": 10099,
    "Ġphilistines": 26091,
    "trifling": 19425,
    "Ġsquint": 22845,
    "Ġmisty": 16550,
    "Ġsuspicions": 9485,
    "Ġheadstrong": 14392,
    "Ġdates": 6696,
    "Ġpenal": 1775,
    "bra": 6221,
    "Ġconst": 1909,
    "Ġcapacity": 10445,
    "Ġpresence": 5035,
    "Ġafforded": 8030,
    "ificial": 600,
    "precaution": 23830,
    "Ġquickly": 4244,
    "Ġabruptly": 15158,
    "eenth": 12461,
    "Ġboarded": 13238,
    "Ġdeceased": 15017,
    "ientious": 11691,
    "Ġassumpt": 5416,
    "Ġready": 3400,
    "Ġkith": 22197,
    "Ġmostly": 7665,
    "speed": 19420,
    "Ġhunsford": 6301,
    "Ġtragic": 15263,
    "Ġneighbor": 25814,
    "Ġscept": 15509,
    "Ġheadway": 18805,
    "ivil": 6411,
    "wretchedness": 17259,
    "surprise": 9536,
    "hob": 20908,
    "Ġtrembling": 7483,
    "Ġobey": 9525,
    "iers": 5992,
    "assured": 10955,
    "Ġpad": 8126,
    "Ġperry": 22404,
    "Ġsharpen": 13571,
    "Ġsymptom": 13485,
    "Ġrestless": 10420,
    "Ġappellation": 22221,
    "Ġtattoo": 7362,
    "Ġoverlooked": 15974,
    "Ġripe": 13263,
    "withstanding": 8949,
    "iate": 6506,
    "ĠcÃ¦sar": 20589,
    "Ġtrunk": 7207,
    "sufferable": 12178,
    "Ġshamefully": 24730,
    "iled": 1766,
    "Ġvenetian": 14858,
    "orders": 12874,
    "Ġunflinching": 26520,
    "lightning": 16562,
    "Ġsensible": 4978,
    "Ġlinked": 15085,
    "fen": 20860,
    "artic": 14224,
    "Ġmuffled": 10644,
    "Ġunfulfilled": 26517,
    "Ġglobu": 23282,
    "profitable": 17062,
    "arle": 21447,
    "Ġquohog": 10975,
    "cruet": 17033,
    "Ü": 157,
    "Ġbos": 4878,
    "Ġrats": 21978,
    "Ġunaccount": 22032,
    "hecy": 21215,
    "Ġdoors": 6418,
    "Ġ83": 24478,
    "Ġweights": 898,
    "oms": 4597,
    "ompl": 4539,
    "Ġ179": 19765,
    "Ġboarders": 16610,
    "Ġdug": 21437,
    "Ġthrob": 21524,
    "Ġcons": 953,
    "Ġderivative": 3001,
    "onical": 21262,
    "etwork": 441,
    "Ġdissolved": 18566,
    "Ġproduct": 3535,
    "Ġcleanse": 24540,
    "Ġambiguous": 20175,
    "lucifer": 25315,
    "que": 1141,
    "everlasting": 18784,
    "Ġdamn": 11161,
    "Ġabrid": 22279,
    "Ġnodes": 1964,
    "Ġhyper": 19750,
    "farewell": 12307,
    "threw": 21989,
    "purse": 20033,
    "Ġunobserved": 18258,
    "Ġlandlessness": 23391,
    "ermaid": 14302,
    "Ġmake": 1283,
    "Ġpossession": 5592,
    "Ġcountries": 13097,
    "Ġcooked": 13272,
    "thinness": 25819,
    "Ġarithmetic": 18348,
    "Ġmanoir": 22337,
    "Ġfainter": 14925,
    "Ġpouring": 12624,
    "unimportant": 18166,
    "Ġtwitching": 25691,
    "Ġpersistence": 3348,
    "Ġgramm": 8173,
    "Ġluck": 4883,
    "Ġappal": 18365,
    "Ġdiscoloured": 15260,
    "mer": 2835,
    "Ġah": 5079,
    "Ġax": 7823,
    "Ġphantom": 8708,
    "Ġtrous": 10962,
    "Ġmovements": 24373,
    "Ġcruelly": 13377,
    "regularly": 13212,
    "Ġfashions": 17894,
    "Ġvertu": 23899,
    "Ġease": 5631,
    "endeavoured": 12281,
    "audible": 17140,
    "Ġremo": 3788,
    "Ġfrighted": 24038,
    "Ġgleams": 17316,
    "Ġscience": 1534,
    "uber": 15452,
    "intolerable": 22947,
    "Ġinevitable": 15175,
    "Ġconcepts": 4554,
    "Ġpoisonous": 24900,
    "j": 78,
    "Ġmont": 8560,
    "unusually": 15786,
    "Ġsecretly": 13274,
    "elope": 14464,
    "sugg": 11844,
    "scorched": 25705,
    "Ġtepid": 26421,
    "Ġcategor": 4142,
    "Ġviolet": 19103,
    "ist": 449,
    "highly": 24778,
    "Ġbeliever": 25854,
    "family": 7327,
    "Ġascend": 9963,
    "rested": 13077,
    "ce": 313,
    "Ġmorrow": 9348,
    "ĠâĢľâĢĻ": 22261,
    "Ġvag": 9713,
    "Ġemper": 9864,
    "Ġchicha": 15945,
    "0": 20,
    "Ġprocured": 8679,
    "mand": 3894,
    "Ġexhib": 6349,
    "Ġaccompaniments": 24502,
    "Ġominous": 12425,
    "degree": 12801,
    "Ġintegrity": 12314,
    "Ġforb": 11664,
    "formed": 2557,
    "bs": 3752,
    "Ġadequ": 10916,
    "Ġferule": 24581,
    "penny": 22954,
    "sebastian": 21825,
    "Ġgrotesque": 26338,
    "Ġascertain": 9712,
    "surely": 10575,
    "Ġunlab": 3791,
    "Ġdinn": 23989,
    "Ġsympathy": 6346,
    "Ġprecisely": 6466,
    "Ġgloomy": 7506,
    "Ġgranite": 22817,
    "Ġside": 1385,
    "Ġgable": 15673,
    "Ġnonce": 23241,
    "Ġtimely": 19607,
    "war": 6805,
    "Ġhast": 3146,
    "Ġpulling": 5866,
    "Ġknife": 7312,
    "petulance": 24312,
    "Ġmast": 2901,
    "Ġegyptian": 13588,
    "gratulation": 24363,
    "Ġvoracity": 25995,
    "Ġadieu": 10054,
    "sex": 12714,
    "Ġslop": 23173,
    "fourth": 11332,
    "Ġheedfulness": 24535,
    "Ġinstant": 2710,
    "utterly": 20019,
    "Ġestate": 6316,
    "threadbare": 25998,
    "Ġmuse": 13863,
    "miss": 3171,
    "Ġtemporary": 7982,
    "ologies": 18780,
    "Ġnecessitates": 23937,
    "Ġartic": 5317,
    "ĠĠĠĠĠĠĠĠĠĠĠĠĠĠĠĠĠĠĠĠĠĠĠĠĠĠĠĠĠĠĠĠĠĠĠĠĠĠĠĠĠĠĠĠĠĠĠĠĠĠĠĠĠ": 20048,
    "Ġcommitting": 22683,
    ".--": 20756,
    "Ġpsychology": 11452,
    "hers": 7637,
    "Ġoverhung": 15975,
    "Ø": 153,
    "Ġma": 3252,
    "rudence": 7095,
    "omorrah": 18032,
    "izers": 18149,
    "estation": 15931,
    "crews": 15050,
    "Ġczar": 12574,
    "stiff": 12675,
    "Ġblast": 7447,
    "Ġassiduous": 26301,
    "Ġu": 324,
    "nour": 20998,
    "hideous": 25416,
    "Ġmasking": 2421,
    "Ġdistracted": 11804,
    "Ġgolden": 5339,
    "Ġhuman": 1317,
    "Ġpeep": 6874,
    "total": 17257,
    "Ġinvests": 14879,
    "collect": 16573,
    "Ġmode": 8502,
    "Ġphysiology": 25342,
    "Ġminus": 18762,
    "Ġstings": 21740,
    "Ġmuteness": 19427,
    "Ġdisplaying": 16973,
    "Ġdent": 13909,
    "Ġmended": 21321,
    "Ġ132": 19906,
    "dipped": 20847,
    "Ġgrassy": 24394,
    "Ġnash": 5822,
    "Ġcompensated": 17409,
    "uge": 4018,
    "Ġcrop": 10167,
    "merit": 19292,
    "Ġmistaking": 23729,
    "ihood": 20932,
    "Ġshrieked": 9554,
    "ernsey": 8905,
    "Ġcrate": 19135,
    "othing": 6997,
    "Ġmince": 22839,
    "vedale": 22720,
    "ella": 12747,
    "Ġshoved": 23501,
    "Ġrenders": 13286,
    "ible": 1115,
    "matic": 4622,
    "flesh": 13491,
    "lucky": 24558,
    "Ġtugged": 17294,
    "Ġdistended": 16053,
    "Ġdescending": 8906,
    "already": 6983,
    "Ġdiana": 21443,
    "Ġswings": 11089,
    "Ġobst": 6284,
    "glings": 23860,
    "Ġallegro": 25803,
    "hot": 8084,
    "gabriel": 15368,
    "orial": 8419,
    "Ġhero": 5717,
    "Ġbedford": 7475,
    "compass": 9466,
    "Ġaccidents": 10301,
    "Ġlany": 21560,
    "Ġenlightened": 12746,
    "less": 927,
    "Ġdesirous": 8946,
    "Ġve": 1108,
    "Ġextra": 4057,
    "Ġep": 7386,
    "recollection": 25358,
    "Ġcharmed": 16772,
    "ezing": 10579,
    "Ġincomp": 12897,
    "Ġmetropolis": 17280,
    "Ġacquitted": 18910,
    "Ġheroes": 10582,
    "Ġplay": 2633,
    "Ġdanger": 3521,
    "Ġgreedy": 3052,
    "Ġell": 17724,
    "northern": 23678,
    "destroyed": 15268,
    "Ġcon": 348,
    "Ġsleeping": 6319,
    "Ġconstitutional": 25138,
    "Ġhideous": 5984,
    "Ġencoding": 4778,
    "Ġscot": 5645,
    "Ġallurements": 22014,
    "urmountable": 15287,
    "Ġcopy": 10168,
    "lesome": 12965,
    "Ġread": 1446,
    "Ġnewcom": 16230,
    "Ġbrim": 12976,
    "Ġorders": 5343,
    "Ġdecanting": 22459,
    "kindled": 16670,
    "uesday": 8642,
    "Ġdipped": 15600,
    "Ġwhose": 2006,
    "Ġepidemic": 20705,
    "Ġpoised": 22603,
    "Ġsupposition": 9819,
    "Ġsigning": 22718,
    "conducted": 25580,
    "Ġfix": 2510,
    "dismal": 23508,
    "Ġpatches": 4240,
    "epilogue": 22104,
    "amid": 12725,
    "Ó": 148,
    "thrusting": 20269,
    "Ġbowsprit": 16570,
    "Ġinherent": 4595,
    "cig": 17511,
    "otam": 21804,
    "pushed": 21032,
    "Ġastir": 14647,
    "Ġdepths": 4332,
    "mir": 20973,
    "Ġelig": 9781,
    "Ġpuzzling": 14907,
    "africa": 26317,
    "Ġrefined": 18716,
    "wanderer": 25432,
    "Ġswart": 14439,
    "Ġcupidity": 24548,
    "start": 7599,
    "steering": 16645,
    "ogra": 4577,
    "Ġradiant": 16819,
    "Ġpaling": 21469,
    "Ġinherit": 25362,
    "weather": 7231,
    "ster": 1948,
    "Ġnewly": 9344,
    "Ġfilm": 23933,
    "ator": 1920,
    "going": 6313,
    "Ġbumping": 25293,
    "Ġreckoned": 24758,
    "ctors": 21596,
    "Ġweeks": 4568,
    "Ġpuzz": 5535,
    "reader": 23854,
    "Ġwhaler": 7521,
    "Ġcountenances": 11967,
    "claim": 9838,
    "ignomin": 23277,
    "level": 2657,
    "child": 5540,
    "Ġwond": 3942,
    "Ġsinned": 18961,
    "Ġvoyage": 3053,
    "Ġrecomm": 4998,
    "dia": 2135,
    "advise": 24230,
    "Ġseize": 8168,
    "Ġinexorable": 12256,
    "Ġwick": 2003,
    "Ġpersonality": 16486,
    "vessel": 11381,
    "Ġbumpkins": 25294,
    "behaviour": 11305,
    "irection": 2387,
    "bulwarks": 12273,
    "Ġhelping": 3266,
    "twill": 21083,
    "Ġsuperiority": 14624,
    "eastern": 17541,
    "fer": 1974,
    "Ġreview": 19878,
    "Ġparadise": 11197,
    "Ġexter": 7613,
    "strike": 14959,
    "Ġcot": 13880,
    "Ġtreasures": 17054,
    "constellation": 24623,
    "ints": 3419,
    "Ġasserted": 16304,
    "ee": 1660,
    "Ġsurprising": 14604,
    "Ġwoeful": 19632,
    "Ġcrows": 24040,
    "inspector": 13647,
    "Ġblindly": 12111,
    "augment": 18840,
    "continuance": 19730,
    "Ġissuing": 16956,
    "Ġapartments": 19627,
    "Ġ1890": 23902,
    "tenham": 16330,
    "common": 4131,
    "Ġsimultaneously": 4317,
    "bling": 10082,
    "oregressive": 3426,
    "ermost": 7432,
    "Ġbaltic": 18807,
    "Ġstriking": 6089,
    "Ġhowl": 12855,
    "Ġunconquerable": 22067,
    "ifications": 9733,
    "Ġhuff": 21494,
    "Ġgarb": 21609,
    "Ġinwards": 15626,
    "ado": 11659,
    "wind": 4256,
    "model": 4279,
    "lanterns": 17437,
    "Ġexplanations": 15919,
    "gan": 2197,
    "Ġringing": 13334,
    "Ġach": 2626,
    "composed": 14748,
    "Ġconfirms": 23320,
    "etween": 775,
    "Ġswelling": 11925,
    "Ġquito": 24423,
    "Ġconversing": 14640,
    "Ġcoachman": 15011,
    "Ġluxuriant": 20403,
    "Ġobstructed": 24691,
    "Ġaccumulated": 11931,
    "talk": 6658,
    "Ġlament": 7857,
    "Ġoverhead": 11770,
    "Ġex": 362,
    "Ġrecovering": 11861,
    "polar": 24599,
    "Ġattendance": 12183,
    "Ġbury": 12044,
    "Ġtemper": 955,
    "Ġproblems": 2850,
    "Ġpersecutor": 26105,
    "âĢĻ-": 18173,
    "Ġmarvels": 11087,
    "Ġwhistled": 24639,
    "Ġstretch": 6995,
    "Ġfatality": 12096,
    "Ġterrors": 6921,
    "Ġscound": 12832,
    "Ġvitality": 15180,
    "question": 5419,
    "Ġcott": 3709,
    "prints": 23820,
    "Ġod": 4446,
    "Ġloos": 15880,
    "Ġevanesc": 24307,
    "presbyterian": 26377,
    "quadr": 15770,
    "\",": 10682,
    "Ġserpent": 6745,
    "Ġbehind": 2810,
    "cries": 17518,
    "Ġregretted": 13403,
    "damn": 20032,
    "Ġinvolved": 8926,
    "agement": 4192,
    "Ġcentaurs": 23840,
    "Ġimpelling": 22392,
    "recked": 17771,
    "seat": 18131,
    "Ġbelshazzar": 16234,
    "Ġrefine": 3133,
    "Ġprofessions": 11234,
    "Ġrepro": 7278,
    "Ġratio": 5069,
    "Ġjoys": 13224,
    "contempl": 13192,
    "Ġimpatiently": 8340,
    "combe": 7664,
    "Ġsinews": 20296,
    "Ġentrance": 7236,
    "Ġwol": 15536,
    "unbounded": 21891,
    "Ġconfiding": 19051,
    "Ġsurviving": 24651,
    "asiness": 8130,
    "Ġaudacity": 19892,
    "Ġowners": 7663,
    "revol": 12541,
    "Ġbats": 13903,
    "Ġcompose": 12902,
    "july": 20483,
    "Ġbarrel": 23800,
    "iverse": 13117,
    "examined": 17273,
    "Ġattics": 22638,
    "Ġstanders": 19027,
    "exceedingly": 9573,
    "Ġfate": 4758,
    "itative": 13873,
    "Ġhos": 4944,
    "Ġpausing": 8655,
    "abash": 18114,
    "arris": 13213,
    "swallowed": 14864,
    "Ġoverwhelmed": 11407,
    "latin": 25271,
    "Ġmarling": 23045,
    "expectant": 24288,
    "word": 2492,
    "ublic": 11229,
    "racts": 14362,
    "Ġ118": 19711,
    "Ġtendinous": 16939,
    "iliation": 10863,
    "Ġjulia": 22309,
    "Ġdejection": 15204,
    "omist": 21664,
    "rigible": 24944,
    "effect": 8605,
    "Ġbough": 13897,
    "surd": 6937,
    "Ġdoll": 10816,
    "Ġbarbs": 10537,
    "arcy": 1271,
    "cring": 20821,
    "tering": 3809,
    "benefit": 24656,
    "yourself": 6743,
    "oura": 1061,
    "rol": 5715,
    "ws": 7358,
    "enges": 13057,
    "relations": 14741,
    "Ġvigorous": 10573,
    "Ġtarquin": 23622,
    "brÃ¦": 11179,
    "Ġranges": 2884,
    "Ġdiscrimin": 2549,
    "Ġcreator": 7260,
    "clinging": 20832,
    "Ġreliable": 18788,
    "Ġimpudence": 26250,
    "ater": 3373,
    "Ġconfirm": 9859,
    "Ġknown": 1645,
    "squall": 13523,
    "Ġabraham": 18406,
    "Ġcaulk": 25449,
    "flight": 15360,
    "Ġdevoutly": 25841,
    "Ġbalmy": 22913,
    "Ġdefendants": 15148,
    "Ġlamp": 4118,
    "Ġinadequate": 17944,
    "Ġdissembling": 26263,
    "Ġastern": 6091,
    "Ġkick": 5841,
    "Ġpitching": 16621,
    "Ġcorresponds": 19830,
    "Ġextracted": 16322,
    "leful": 17850,
    "ldog": 21923,
    "acity": 5737,
    "Ġsuperseded": 26233,
    "rab": 7597,
    "oak": 21012,
    "impropriety": 21719,
    "hailed": 17573,
    "Ġswaying": 15054,
    "omics": 21669,
    "count": 4216,
    "Ġdilatory": 24719,
    "Ġpolice": 4678,
    "Ġvesu": 21954,
    "Ġincorrect": 2735,
    "fanc": 20874,
    "Ġbamboo": 17444,
    "Ġunsavory": 20717,
    "atre": 17779,
    "Ġbuckskin": 19960,
    "ront": 15425,
    "ending": 1988,
    "Ġsust": 7009,
    "tle": 2411,
    "Ġsuperficial": 23468,
    "ript": 4157,
    "Ġimmaculate": 19496,
    "amy": 8470,
    "typewritten": 26047,
    "Ġrestrict": 16386,
    "fig": 8737,
    "Ġroom": 1462,
    "Ġcleared": 6075,
    "Ġfaire": 13366,
    "Ġpea": 14321,
    "Ġlocal": 1198,
    "Ġawkwardness": 13489,
    "Ġencouragement": 13043,
    "speechless": 25404,
    "Ġtemple": 7655,
    "therly": 18354,
    "Ġcontribut": 12859,
    "Ġagreement": 18554,
    "Ġappro": 644,
    "Ġfonder": 17889,
    "Ġburke": 19262,
    "Ġarsacidean": 20373,
    "Ġantagon": 19564,
    "Ġcooking": 16656,
    "Ġmuslin": 19393,
    "Ġsupercil": 23466,
    "Ġcovent": 16081,
    "Ġworried": 22935,
    "aped": 3766,
    "Ġchick": 22254,
    "Ġpromote": 23202,
    "Ġbecomes": 6396,
    "Ġextended": 7925,
    "Ġexistence": 4711,
    "Ġhammock": 5770,
    "Ġsimilarly": 24321,
    ",âĢĻ": 2328,
    "Ġhighest": 3530,
    "Ġunreason": 15851,
    "Ġconcentrated": 15091,
    "Ġneatness": 19942,
    "Ġkeeled": 18818,
    "Ġseeming": 8543,
    "Ġstirs": 14928,
    "acetti": 13399,
    "amusement": 15290,
    "enses": 10997,
    "comb": 11040,
    "Ġsepulchre": 20569,
    "churning": 21703,
    "vellers": 16683,
    "Ġbridge": 8351,
    "Ġrelevant": 1862,
    "tottenham": 25427,
    "boilers": 26306,
    "Ġdate": 7842,
    "Ġfringed": 17278,
    "Ġanat": 8125,
    "judgment": 16764,
    "Ġcrack": 7710,
    "Ġundesired": 12779,
    "Ġinsolent": 13602,
    "Ġsou": 1886,
    "Ġvillages": 14756,
    "idents": 6151,
    "familiar": 19793,
    "Ġappears": 5403,
    "Ġharpoon": 3616,
    "Ġbands": 14895,
    "Ġreputed": 18042,
    "andes": 18158,
    "Ġbar": 3143,
    "Ġdiscussed": 19573,
    "Ġhypotheses": 4393,
    "stood": 4120,
    "Ġstarvation": 19801,
    "Ġinterested": 6458,
    "be": 670,
    "Ġseeking": 7037,
    "Ġanne": 1528,
    "Ġgeography": 23383,
    "orate": 10803,
    "learnt": 23541,
    "Ġwedged": 24080,
    "Ġh": 290,
    "esc": 613,
    "Ġwast": 21866,
    "Ġwintry": 17441,
    "any": 3339,
    "Ġsteelkilt": 5677,
    "Ġpresented": 5187,
    "imens": 1749,
    "Ġfurnished": 6475,
    "pencil": 18839,
    "Ġnature": 2542,
    "Ġconcussion": 26309,
    "oct": 7555,
    "voc": 8396,
    "Ġworks": 5861,
    "Ġhat": 2777,
    "urements": 18130,
    "Ġsho": 2244,
    "Ġundeviating": 15225,
    "resp": 13842,
    "Ġem": 1921,
    "Ġbestow": 6455,
    "Ġsqueezing": 25019,
    "Ġswore": 10384,
    "Ġrocked": 12852,
    "ert": 2428,
    "Ġluxury": 20141,
    "ceased": 21632,
    "Ġexisted": 15761,
    "Ġhereafter": 9336,
    "Ġsuffoc": 18883,
    "Ġfel": 1517,
    "Ġrashness": 25469,
    "althy": 8434,
    "Ġcrater": 16448,
    "nantucketer": 24985,
    "Ġtormented": 8677,
    "indignation": 18449,
    "Ġconfirmation": 17218,
    "Ġclosed": 4609,
    "Ġneatly": 17023,
    "Ġphysiognomical": 25620,
    "Ġobeisance": 19769,
    "Ġplease": 4729,
    "Ġanticipation": 17065,
    "Ġthose": 1170,
    "complained": 25847,
    "Ġeverywhere": 9798,
    "plate": 18215,
    "Ġmum": 13861,
    "ospel": 17017,
    "Ġgrievances": 20555,
    "Ġbland": 11067,
    "Ġindifference": 6728,
    "repairing": 24511,
    "osition": 1370,
    "inted": 2654,
    "Ġ86": 24480,
    "Ġmeryton": 4445,
    "condesc": 18518,
    "mpt": 6655,
    "Ġassum": 4066,
    "bour": 2074,
    "Ġcurds": 23017,
    "Ġfeminine": 15271,
    "opatra": 22487,
    "arpaul": 14542,
    "Ġcompl": 3761,
    "tles": 10734,
    "Ġtrample": 20336,
    "eed": 20851,
    "Ġw": 272,
    "Ġdistributing": 22689,
    "Ġ1671": 25018,
    "Ġacre": 22691,
    "Ġposted": 16734,
    "onian": 17776,
    "smoking": 23921,
    "ote": 4600,
    "Ġescorted": 23516,
    "Ġemergency": 25739,
    "betrayed": 24654,
    "Ġpiling": 17918,
    "Ġshroud": 6483,
    "Ġsafer": 22174,
    "Ġordinarily": 20659,
    "Ġentail": 9795,
    "Ġports": 10821,
    "tan": 4747,
    "Ġcocoan": 20325,
    "Ġsimil": 2535,
    "Ġseasons": 9438,
    "Ġbarrels": 9442,
    "Ġpondicherry": 20499,
    "approach": 24846,
    "Ġedward": 19132,
    "Ġpushed": 5911,
    "interred": 23747,
    "Ġequals": 4733,
    "blood": 7780,
    "crime": 14793,
    "Ġprematurely": 24014,
    "Ġfathoms": 9087,
    "Ġinquired": 7487,
    "Ġsemantic": 1955,
    "ascertaining": 26468,
    "Ġwaistcoat": 12271,
    "preced": 10315,
    "Ġveteran": 17457,
    "Ġgrieve": 14713,
    "uit": 8395,
    "Ġmute": 19426,
    "Ġrule": 1535,
    "Ġinquire": 7720,
    "resting": 23244,
    "Ġsan": 7825,
    "Ġremorseless": 13453,
    "Ġclimb": 15087,
    "Ġadmon": 15877,
    "Ġbankers": 24315,
    "Ġlowest": 11124,
    "umbria": 23939,
    "hereabouts": 23619,
    "Ġdamps": 23486,
    "Ġincommunicable": 26619,
    "prophet": 16191,
    "Ġcities": 17835,
    "Ġsacri": 18337,
    "biscuit": 17508,
    "mped": 16657,
    "Ġsometimes": 2167,
    "yder": 10143,
    "Ġimpenit": 22395,
    "Ġconcentric": 20084,
    "Ġplowdon": 26455,
    "Ġthrow": 3786,
    "Ġsuicide": 12788,
    "trivial": 21101,
    "Ġsnug": 8282,
    "Ġgazette": 19511,
    "Ġbewitching": 25985,
    "osa": 22267,
    "lat": 9611,
    "affect": 13216,
    "chester": 23815,
    "disinterested": 23512,
    "unction": 10240,
    "Ġreplete": 15704,
    "Ġvales": 21951,
    "izar": 14053,
    "Ġwow": 15535,
    "letters": 13177,
    "Ġunprotected": 22071,
    "respond": 12545,
    "Ġcalamity": 17355,
    "Ġ96": 24608,
    "Ġowed": 10783,
    "Ġarise": 7897,
    "Ġshin": 18235,
    "Ġpilot": 5986,
    "ertain": 1206,
    "Ġglaring": 11908,
    "Ġcanall": 10931,
    "impression": 15717,
    "Ġsteeply": 23734,
    "bounded": 13441,
    "Ġseason": 5241,
    "Ġetc": 7087,
    "feed": 9299,
    "grant": 10432,
    "Ġgurglings": 26473,
    "Ġboisterously": 25690,
    "Ġhackluyt": 25663,
    "to": 713,
    "quin": 21859,
    "Ġswell": 8953,
    "Ġtapped": 11556,
    "Ġspecially": 11999,
    "Ġleaks": 16457,
    "Ġtam": 7822,
    "Ġexposes": 22632,
    "mits": 13758,
    "etting": 21586,
    "conceivable": 17138,
    "Ġind": 1218,
    "es": 288,
    "Ġowing": 6006,
    "braid": 17502,
    "binary": 20794,
    "Ġstormy": 16738,
    "Ġgu": 1327,
    "tailed": 17693,
    "Ġsecrecy": 7319,
    "Ġfagged": 17891,
    "Ġreluct": 14375,
    "congratulations": 20288,
    "subsided": 25839,
    "themselves": 6543,
    "pence": 15416,
    "silenced": 24438,
    "Ġremember": 2684,
    "Ġseated": 4544,
    "Ġobsole": 22710,
    "Ġmoved": 4842,
    "erves": 2514,
    "painted": 17647,
    "dening": 22790,
    "Ġescaped": 6459,
    "itzerland": 9998,
    "Ġaut": 1737,
    "Ġnest": 10193,
    "Ġmeddling": 24093,
    "Ġwrenched": 12558,
    "Ġparents": 6754,
    "Ġcoffins": 13254,
    "rods": 21544,
    "Ġcherub": 23299,
    "wil": 8398,
    "Ġjoosy": 23643,
    "Ġspout": 3282,
    "tumultuously": 25622,
    "Ġweigh": 10896,
    "Ġsouthwards": 19646,
    "rapt": 13976,
    "cream": 15339,
    "Ġclair": 6269,
    "Ġbeck": 14012,
    "Ġsingle": 1691,
    "Ġbam": 15571,
    "Ġcases": 3963,
    "Ġdrunken": 12052,
    "sell": 13783,
    "Ġpers": 1406,
    "Ġnightgown": 23143,
    "?--": 15311,
    "impatience": 25508,
    "Ġforc": 9234,
    "Ġcomplet": 4429,
    "Ġscrib": 22290,
    ".;": 20754,
    "warn": 11545,
    "Ġscenarios": 26551,
    "hatch": 15372,
    "bo": 1688,
    "Ġsustaining": 25343,
    "Ġepo": 21625,
    "spread": 8391,
    "Ġ11": 5321,
    "Ġcastaways": 19438,
    "dragging": 16619,
    "Ġbake": 21389,
    "wh": 508,
    "Ġcruc": 16545,
    "ethics": 8881,
    "Ġlivel": 11360,
    "Ġfeelingly": 23003,
    "Ġbraved": 23845,
    "Ġenig": 15807,
    "Ġassigned": 16303,
    "âĢĶâĢĻ": 8190,
    "Ġdimens": 3145,
    "Ġcontents": 7212,
    "ij": 7802,
    "Ġunknown": 4459,
    "Ġjeopardy": 13598,
    "Ġmoles": 22439,
    "note": 14344,
    "irous": 8842,
    "Ġjuggler": 26375,
    "parameter": 3002,
    "hullo": 17578,
    "Ġpatiently": 19928,
    "Ġshallow": 14398,
    "Ġforemast": 12007,
    "Ġmoodily": 19843,
    "Ġasylum": 13667,
    "Ġevery": 926,
    "employ": 10898,
    "dug": 18473,
    "liable": 3820,
    "Ġbathing": 20210,
    "written": 7995,
    "pierced": 26150,
    "lested": 14894,
    "darkened": 24530,
    "Ġclerval": 4657,
    "Ġdiscre": 2418,
    "Ġnoiselessly": 22870,
    "alk": 1151,
    "Ġavast": 9919,
    "barrow": 15329,
    "Ġsideboard": 10391,
    "sailors": 9925,
    "Ġstuck": 9227,
    "blue": 13694,
    "Ġforgetting": 3437,
    "Ġvisibly": 22894,
    "Ġridicule": 13513,
    "Ġevaluate": 2618,
    "ibule": 13007,
    "Ġdelight": 2551,
    "stern": 8447,
    "Ġactions": 6278,
    "terrible": 8468,
    "ult": 723,
    "Ġfeedback": 23446,
    "Ġrus": 14095,
    "Ġfemale": 8347,
    "osite": 4895,
    "Ġpainfully": 13145,
    "illed": 2630,
    "Ġresign": 18576,
    "Ġrubbing": 9327,
    "Ġwaned": 17799,
    "Ġinterpret": 5494,
    "Ġsteal": 16291,
    "Ġ1846": 26093,
    "ickering": 22680,
    "Ġpurposes": 11171,
    "countenances": 24164,
    "cil": 8723,
    "Ġdepl": 14047,
    "Ġpetulance": 24240,
    "Ġreve": 2934,
    "Ġlays": 15998,
    "eliest": 14754,
    "Ġloops": 8856,
    "º": 123,
    "Ġvirgin": 7331,
    "deformity": 22150,
    "Ġtougher": 21185,
    "Ġunlimited": 26231,
    "Ġcloudless": 16677,
    "ways": 1439,
    "Ġcol": 1060,
    "Ġforefinger": 16453,
    "Ġarmies": 16504,
    "Ġpleased": 4067,
    "Ġmungo": 25639,
    "ong": 536,
    "Ġinstruction": 14346,
    "Ġtables": 9880,
    "Ġthoughtfully": 12979,
    "Ġprime": 10409,
    "cnns": 3621,
    "icy": 6141,
    "Ġextracts": 9371,
    "Ġfreshe": 13072,
    "Ġretrie": 10388,
    "Ġbanking": 19643,
    "Ġvisiting": 10367,
    "cture": 15671,
    "½": 126,
    "shadow": 20321,
    "isons": 17857,
    "talked": 14995,
    "Ġmercy": 9002,
    "ĠâĢĶâĢľ_": 17727,
    "Ġduring": 872,
    "Ġbarren": 11209,
    "mas": 5215,
    "advanced": 19601,
    "Ġcontrol": 13081,
    "Ġsurpassing": 20476,
    "ilingly": 21729,
    "dy": 3864,
    "arness": 11673,
    "pursu": 11396,
    "Ġsakes": 18335,
    "Ġnets": 21530,
    "atched": 6375,
    "Ġlifting": 10201,
    "later": 20963,
    "Ġdepth": 2441,
    "wed": 5005,
    "Ġdaily": 5988,
    "Ġcreating": 2999,
    "abases": 3008,
    "pike": 11518,
    "Ġmadly": 16496,
    "Ġxxv": 19729,
    "Ġware": 12554,
    "Ġinv": 2216,
    "tormented": 13646,
    "Ġcrosswise": 18897,
    "Ġcranes": 20391,
    "Ġcomprehend": 6494,
    "Ġreminisc": 18738,
    "Ġdivin": 13276,
    "Ġdeg": 3281,
    "ursday": 12277,
    "Ġpromotion": 23203,
    "Ġfold": 5533,
    "death": 6261,
    "intosh": 22949,
    "Ġcatches": 23440,
    "Ġvess": 3296,
    "possession": 12222,
    "Ġsqu": 1036,
    "Ġbloodthirst": 23810,
    "dried": 20837,
    "Ġincess": 8433,
    "Ġposture": 24177,
    "bbings": 19287,
    "Ġimmutable": 17364,
    "Ġcolonnades": 26284,
    "Ġharbour": 19988,
    "Ġhorrible": 4907,
    "semicirc": 26499,
    "Ġmilk": 6485,
    "reported": 24509,
    "Ġwatching": 4857,
    "murder": 10570,
    "ë": 172,
    "powerful": 24860,
    "love": 9300,
    "Ġburnt": 9930,
    "ould": 427,
    "Ġexcellent": 4241,
    "Ġcomprehended": 11298,
    "Ġirre": 7469,
    "g": 75,
    "Ġvillainous": 25143,
    "Ġbarbarians": 19600,
    "ighter": 7969,
    "Ġcords": 14890,
    "shiver": 16030,
    "Ġthickening": 24033,
    "ittarius": 22384,
    "Ġpleated": 16307,
    "Ġobliterated": 17413,
    "secondly": 16991,
    "Ġscan": 22286,
    "Ġsocks": 14135,
    "Ġelbow": 12920,
    "Ġbacked": 12926,
    "Ġtenants": 23557,
    "announcement": 24575,
    "enari": 21290,
    "heavens": 19756,
    "Ġterms": 2565,
    "standing": 5560,
    "Ġcomfortably": 16624,
    "batim": 25029,
    "Ġtelescope": 17354,
    "Ġnegatived": 23057,
    "skeleton": 17383,
    "Ġlarger": 1398,
    "beloved": 19471,
    "enth": 6683,
    "oment": 919,
    "Ġcolumb": 22863,
    "Ġpounds": 5371,
    "Ġeh": 6990,
    "Ġblaming": 22939,
    "Ġswearing": 16473,
    "Ġstudious": 23249,
    "Ġmidst": 7987,
    "Ġpaces": 13922,
    "ory": 1082,
    "pass": 4295,
    "Ġepid": 18012,
    "Ġconveys": 16864,
    "Ġpoetry": 15088,
    "Ġremembered": 5279,
    "scans": 22995,
    "Ġbenefactor": 14703,
    "Ġstop": 2504,
    "ock": 15409,
    "infor": 3308,
    "Ġspears": 12924,
    "ours": 3429,
    "saddest": 25535,
    "Ġtasted": 12530,
    "Ġdisgra": 18561,
    "coll": 23788,
    "settle": 16680,
    "relative": 24021,
    "Ġsurprise": 3831,
    "Ġdecember": 15018,
    "Ġflashes": 11916,
    "Ġpleasurable": 23351,
    "wishes": 13810,
    "Ġaft": 5739,
    "Ġrider": 24199,
    "Ġgin": 13964,
    "Ġmish": 15543,
    "._": 3218,
    "Ġdesponding": 25877,
    "ronted": 14888,
    "iquette": 26141,
    "Ġclothed": 19619,
    "Ġpaying": 9941,
    "msman": 9276,
    "Ġfills": 12594,
    "reme": 2427,
    "Ġhardly": 2436,
    "inting": 9816,
    "Ġloaded": 8493,
    "Ġrazor": 22664,
    "Ġcold": 3031,
    "minute": 11278,
    "ourably": 14381,
    "Ġinterruption": 9479,
    "Ġdampening": 2896,
    "structure": 2243,
    "Ġrespectful": 16354,
    "Ġits": 706,
    "fted": 9122,
    "stop": 11635,
    "Ġrabb": 4168,
    "Ġways": 5397,
    "produ": 10724,
    "Ġpersisting": 18908,
    "hmael": 7345,
    "Ġliar": 22415,
    "Ġshapes": 14112,
    "Ġwherever": 8526,
    "Ġlatent": 19669,
    "Ġrumours": 24614,
    "Ġeddystone": 25717,
    "inioned": 19297,
    "Ġrings": 11699,
    "Ġdesigns": 13013,
    "tired": 21081,
    "icil": 17979,
    "Ġfairer": 20470,
    "Ġuproar": 22159,
    "arily": 4129,
    "Ġatlantic": 7002,
    "yond": 2330,
    "Ġenticing": 22756,
    "Ġlogic": 13079,
    "Ġlodge": 5781,
    "Ġhorr": 3189,
    "animated": 14985,
    "Ġsulky": 13516,
    "urned": 9312,
    "brew": 11477,
    "william": 4565,
    "Ġperfect": 2559,
    "Ġaction": 5798,
    "aging": 2236,
    "Ġstumbling": 21748,
    "needles": 20323,
    "iii": 14784,
    "aming": 5831,
    "Ġexpost": 18636,
    "immense": 18059,
    "Ġforgiven": 24036,
    "Ġcorridor": 10675,
    "Ġwallow": 19476,
    "ribed": 7694,
    "Ġinsular": 19279,
    "icant": 21568,
    "seeing": 7081,
    "Ġunra": 18245,
    "Ġvis": 1101,
    "Ġexceptional": 19381,
    "Ġgould": 17997,
    "capt": 3838,
    "Ġwaterloo": 11983,
    "Ġexercise": 8361,
    "engthen": 14462,
    "by": 1157,
    "Ġdeactivates": 20713,
    "Ġlayer": 1009,
    "Ġmould": 6521,
    "Ġsling": 21229,
    "become": 14250,
    "Ġwilson": 6631,
    "Ġmak": 10781,
    "data": 2181,
    "Ġtended": 21175,
    "Ġforgotten": 5681,
    "Ġadmired": 7983,
    "officer": 17061,
    "Ġpalsied": 25788,
    "noo": 9790,
    "knowledge": 7480,
    "Ġmoist": 9291,
    "Ġsavages": 9914,
    "autumn": 23354,
    "constantly": 24622,
    "Ġmist": 2878,
    "ĠdÃ¦mon": 7845,
    "Ġmargin": 11921,
    "Ġattract": 11834,
    "joy": 3336,
    "lashed": 20964,
    "msgate": 18426,
    "Ġveget": 11886,
    "Ġnatures": 16515,
    "Ġblight": 18829,
    "unforeseen": 21894,
    "some": 2232,
    "Ġbread": 5405,
    "ieves": 4008,
    "Ġtem": 802,
    "Ġauthor": 4382,
    "elect": 20856,
    "wrath": 23765,
    "Ġcomputation": 964,
    "Ġinfinitely": 8967,
    "Ġsized": 11565,
    "sided": 17672,
    "slo": 17664,
    "nearest": 16036,
    "aud": 8524,
    "Ġcorpus": 13033,
    "Ġflitting": 13027,
    "Ġjane": 1759,
    "Ġquantity": 6951,
    "example": 16022,
    "Ġaccepted": 7751,
    "bran": 23587,
    "ensity": 11813,
    "Ġsavoury": 23886,
    "Ġstrides": 22624,
    "dom": 6224,
    "Ġlavater": 20504,
    "fork": 20867,
    "Ġpedestrian": 25888,
    "Ġpreparing": 8650,
    "ither": 1548,
    "on": 267,
    "Ġfurious": 10359,
    "Ġglacier": 11437,
    "including": 23603,
    "asy": 5297,
    "Ġoverwhelming": 17110,
    "Ġexhale": 24417,
    "Ġsafely": 9029,
    "Į": 239,
    "f": 74,
    "yonder": 21154,
    "Ġiron": 3234,
    "pipe": 8698,
    "Ġclapham": 17272,
    "situ": 9628,
    "Ġbour": 4879,
    "Ġinvested": 7282,
    "landish": 11943,
    "Ġgloom": 4205,
    "elfth": 22376,
    "intense": 22945,
    "Ġnominally": 17239,
    "Ġtide": 6660,
    "Ġpredomin": 16046,
    "Ġlogs": 16355,
    "of": 768,
    "ff": 461,
    "idirectional": 2422,
    "jac": 8384,
    "Ġthackeray": 26463,
    "Ġvineyarder": 25615,
    "Ġopulent": 23640,
    "Ġtattooed": 11382,
    "Ġmarble": 7670,
    "Ġremoving": 12118,
    "correspond": 13401,
    "Ġmor": 1246,
    "athy": 14327,
    "shadows": 25488,
    "Ġcellars": 24679,
    "Ġplunging": 14962,
    "Ġhabit": 6773,
    "stays": 15694,
    "Ġspecks": 14311,
    "ravelled": 18022,
    "Ġnapoleons": 25894,
    "blubber": 15244,
    "cific": 10089,
    "fow": 20863,
    "onel": 3087,
    "ama": 11678,
    "Ġmarine": 23044,
    "Ġbackbones": 22670,
    "Ġpossible": 2587,
    "Ġhistories": 14694,
    "Ġgibberish": 25795,
    "ame": 643,
    "Ġvocation": 10531,
    "Ġprobable": 5572,
    "Ġsplin": 8620,
    "Ġartfully": 22611,
    "Ġdrowning": 19914,
    "itten": 3442,
    "Ġpresided": 20218,
    "Ġundulations": 19526,
    "ian": 1234,
    "Ġqueerest": 16423,
    "Ġasked": 2278,
    "Ġcashier": 20209,
    "Ġlambton": 10661,
    "simon": 16980,
    "Ġaforethought": 25437,
    "whaling": 7900,
    "Ġorganization": 7985,
    "help": 1475,
    "Ġanswering": 7479,
    "Ġcyp": 21352,
    "endless": 22226,
    "Ġaug": 6235,
    "row": 1069,
    "Ġspont": 22135,
    "prudently": 21043,
    "eryton": 4097,
    "Ġpurchasing": 19885,
    "Ġvariants": 1793,
    "Ġenjoyments": 24026,
    "Ġrefusal": 10350,
    "itigated": 23056,
    "felicity": 25152,
    "Ġpersian": 11098,
    "Ġmagnifying": 16329,
    "Ġfearfulness": 23522,
    "there": 1422,
    "Ġabund": 8868,
    "Ġglue": 15680,
    "Ġdev": 882,
    "Ġjustine": 4972,
    "chors": 11645,
    "Ġdoted": 21440,
    "Ġcrumbs": 20651,
    "Ġpalms": 8645,
    "Ġreproachfully": 25264,
    "glance": 16597,
    "cele": 21631,
    "transformers": 8717,
    "ription": 5678,
    "verdict": 21735,
    "Ġholes": 16416,
    "Ġbreaking": 6310,
    "maid": 8555,
    "harbors": 20158,
    "Ġwhiteness": 5920,
    "Ġconveniences": 19821,
    "Ġreser": 5849,
    "ĳ": 244,
    "Ġshovel": 23502,
    "Ġabsurdities": 24891,
    "Ġcomprehending": 24460,
    "astonishment": 10033,
    "Ġmounts": 17814,
    "Ġsin": 1511,
    "Ġparties": 7040,
    "Ġcreative": 9833,
    "Ġcommercial": 22684,
    "tinted": 17691,
    "Ġlivelihood": 24788,
    "sperm": 5206,
    "Ġpleadings": 25861,
    "last": 3805,
    "eman": 5638,
    "assist": 11768,
    "Ġnile": 21527,
    "Ġdepicting": 22599,
    "trust": 21087,
    "va": 4748,
    "mcc": 13756,
    "ember": 1953,
    "Ġprevailed": 7778,
    "Ġwood": 2291,
    "Ġemir": 23361,
    "Ġresembled": 18040,
    "Ġsupport": 6729,
    "Ġconjoined": 21812,
    "Ġcommon": 1411,
    "raged": 9219,
    "Ġcop": 7580,
    "Ġcharming": 6630,
    "Ġprotesting": 14749,
    "Ġarg": 4770,
    "holmes": 4437,
    "Ġunfolded": 10642,
    "stepfather": 19205,
    "Ġwoof": 14729,
    "Ġpurp": 2392,
    "authority": 13593,
    "worship": 19397,
    "Ġadequate": 20317,
    "accomp": 10461,
    "Ġhes": 6251,
    "Ġcrowder": 19466,
    "À": 129,
    "Ġworshipper": 25700,
    "dorff": 15245,
    "Ġannual": 14830,
    "Ġsaith": 14159,
    "Ġshar": 9256,
    "Ġpartiality": 9404,
    "attending": 18928,
    "Ġblasphe": 17415,
    "Ġvehemently": 26048,
    "Ġjavelin": 26113,
    "Ġpiny": 21477,
    "Ġappropriate": 2249,
    "crimin": 17516,
    "Ġadhering": 14144,
    "Ġplank": 7035,
    "Ġbrain": 2088,
    "Ġtickled": 20066,
    "gled": 10703,
    "achusetts": 20720,
    "Ġstrasburgh": 18627,
    "vers": 1326,
    "floated": 24657,
    "Ġstandard": 14502,
    "stains": 11637,
    "Ġreach": 4049,
    "abated": 14023,
    "Ġvehicles": 10663,
    "Ġinteresting": 4331,
    "Ġcheerful": 6623,
    "heed": 15504,
    "Ġaffability": 14391,
    "Ġblacks": 23399,
    "prove": 11150,
    "Ġcontains": 2797,
    "Ġsuspicion": 6213,
    "native": 17619,
    "Ġaver": 1284,
    "Ġwretched": 4083,
    "Ġviol": 2073,
    "ancies": 11586,
    "uth": 3019,
    "Ġobtruded": 20732,
    "weeks": 14320,
    "Ġcoff": 3509,
    "Ġtwain": 16128,
    "sc": 1254,
    "capital": 15096,
    "ille": 8827,
    "Ġ{": 21161,
    "Ġtantamount": 25633,
    "Ġbowled": 23778,
    "Ġretrogress": 23082,
    "Ġdance": 4449,
    "disgust": 23507,
    "rese": 15514,
    "Ġwrecks": 16828,
    "past": 8090,
    "Ġgreenness": 23776,
    "Ġconjecture": 9538,
    "Ġtell": 1467,
    "Ġthorough": 6246,
    "Ġrevers": 21670,
    "affectionate": 24934,
    "oro": 21402,
    "Ġvoy": 2625,
    "Ġpossessor": 23831,
    "Ġterrific": 6756,
    "Ġpreside": 18375,
    "Ġrelates": 12980,
    "Ġnotwithstanding": 9719,
    "constit": 24620,
    "anoke": 21368,
    "fe": 678,
    "ho": 2859,
    "Ġden": 3103,
    "ize": 773,
    "joint": 24017,
    "Ġboyhood": 24027,
    "overs": 17629,
    "Ġconsequences": 11339,
    "hinting": 17577,
    "Ġsorrowful": 10542,
    "Ġdivulged": 16658,
    "Ġdish": 6137,
    "Ġbradstreet": 9583,
    "Ġturbid": 23623,
    "Ġcringing": 25950,
    "extinguished": 16160,
    "qualities": 25056,
    "inching": 21198,
    "Ġdesperation": 19827,
    "Ġadmirably": 16492,
    "Ġapparently": 6780,
    "unnecessary": 21886,
    "Ġdetested": 14187,
    "Ġtravel": 5953,
    "Ġfatally": 19404,
    "Ġbod": 4585,
    "Ġcyn": 13889,
    "Ġducking": 17154,
    "Ġblasphemer": 26125,
    "Ġthreaten": 24388,
    "Ġdecoding": 3079,
    "Ġunprofitable": 18276,
    "aire": 10684,
    "Ġfo": 1653,
    "Ġdeformed": 14050,
    "Ġsalisbury": 24073,
    "Ġlungless": 24876,
    "Ġconvolutional": 2163,
    "Ġtwopence": 18673,
    "Ġbattery": 21401,
    "Ġclouded": 13291,
    "isition": 11588,
    "Ġsea": 1207,
    "Ġeighteen": 11241,
    "Ġcruisings": 25873,
    "Ġperilously": 24520,
    "Ġdisplays": 19866,
    "formal": 14172,
    "Ġugly": 8718,
    "Ġsparsity": 4211,
    "Ġutilize": 4802,
    "Ġcrow": 3807,
    "Ġbe": 336,
    "its": 1148,
    "inously": 21195,
    "gument": 20895,
    "des": 1569,
    "ineff": 21985,
    "every": 2813,
    "Ġintercept": 14273,
    "itude": 1416,
    "Ġspake": 18317,
    "Ġunsafe": 22046,
    "Ġcloth": 9749,
    "Ġexploit": 19174,
    "Ġbegged": 8233,
    "Ġsaville": 15898,
    "Ġbattle": 5909,
    "Ġhalyards": 21500,
    "Ġnathan": 21532,
    "a": 69,
    "Ġknee": 7096,
    "Ġinvulnerable": 19158,
    "azine": 19143,
    "Ġintrospective": 20610,
    "slow": 7811,
    "Ġmem": 2071,
    "concealed": 25128,
    "servation": 11244,
    "Ġperformed": 8550,
    "Ġlashing": 11618,
    "car": 4215,
    "cherries": 19767,
    "Ġdispositions": 13237,
    "Ġsurmount": 20008,
    "ivers": 1982,
    "bpp": 20782,
    "Ġbubblingly": 25640,
    "coo": 11174,
    "Ġgrampus": 21998,
    "Ġratt": 7882,
    "alley": 14415,
    "oundering": 11746,
    "Ġcontemptible": 16960,
    "mical": 9132,
    "Ġdisturb": 7110,
    "Ġlinen": 12408,
    "Ġmirth": 15550,
    "tahit": 17700,
    "ubbub": 23253,
    "Ġholy": 6594,
    "Ġsticks": 14941,
    "abriel": 6953,
    "learn": 2333,
    "Ġcouns": 10526,
    "Ġbaff": 10802,
    "Ú": 155,
    "Ġfrightful": 7736,
    "å": 166,
    "Ġlucifers": 16598,
    "pun": 9624,
    "Ġdeserts": 10520,
    "Ġcho": 4550,
    "Ġcouldn": 7650,
    "Ġlets": 18083,
    "Ġcollinses": 19142,
    "anks": 3917,
    "accursed": 20549,
    "silver": 19703,
    "reck": 9643,
    "Ġincred": 5648,
    "Ġhonestly": 19980,
    "Ġgraph": 10905,
    "wand": 10742,
    "crop": 20808,
    "Ġwilderness": 14851,
    "Ġabstained": 25244,
    "Ġtuileries": 24839,
    "Ġtranscend": 25675,
    "Ġstowing": 18078,
    "Ġdecide": 9293,
    "Ġmulti": 1042,
    "ation": 320,
    "Ġchurchyard": 16787,
    "Ġraving": 16123,
    "Ġspoil": 17014,
    "sartain": 25631,
    "friend": 3865,
    "Ġremedy": 18737,
    "Ġbespe": 19253,
    "interrupted": 11421,
    "stars": 18024,
    "high": 6651,
    "Ġjuggl": 20446,
    "treated": 21103,
    "Ġaverse": 11085,
    "Ġbars": 13900,
    "Ġundo": 15849,
    "bene": 6113,
    "Ġoverhanging": 22358,
    "Ġbalance": 2019,
    "Ġwedded": 16684,
    "Ġbreakers": 12057,
    "atha": 6575,
    "Ġcoco": 11003,
    "supposing": 24148,
    "Ġvesuvius": 26509,
    "Ġblasts": 20003,
    "Ġboundless": 10501,
    "Ġparty": 3512,
    "Ġcath": 17834,
    "Ġlin": 10836,
    "omin": 4707,
    "footman": 17170,
    "Ġpreternatural": 12823,
    "puzzling": 26152,
    "Ġretirement": 25388,
    "back": 2015,
    "Ġlobsters": 13518,
    "Ġgreen": 3051,
    "Ġerrand": 11088,
    "Ġvery": 635,
    "Ġimpenitent": 26557,
    "Ġwine": 6813,
    "reason": 4421,
    "Ġaffectation": 14446,
    "Ġimm": 3967,
    "orton": 11756,
    "Ġmistakes": 16551,
    "Ġmercenary": 17201,
    "ave": 980,
    "happen": 19342,
    "Ġhurrying": 11996,
    "appeared": 4286,
    "Ġsmite": 22567,
    "Ġinputs": 844,
    "Ġpower": 1242,
    "Ġscrawled": 24596,
    "Ġslides": 18950,
    "Ġtoe": 13939,
    "Ġsoot": 14133,
    "Ġruff": 14353,
    "Ġobsolete": 26567,
    "warmth": 20062,
    "Ġexchanged": 10881,
    "zers": 21155,
    "Ġrobes": 16239,
    "Ġfit": 3684,
    "bohem": 19013,
    "Ġpush": 9192,
    "Ġsavor": 23884,
    "accompanied": 12423,
    "urried": 21710,
    "coarse": 16498,
    "us": 532,
    "Ġemerging": 24628,
    "empty": 23646,
    "Ġwhatsoever": 18471,
    "Ġunexpectedly": 19919,
    "Ġfrosted": 19812,
    "ceive": 3062,
    "illar": 5105,
    "Ġmodified": 14171,
    "scrape": 25706,
    "Ġcompos": 22579,
    "Ġoft": 9202,
    "Ġoverjoy": 15972,
    "Ġdictionaries": 12341,
    "draughts": 20396,
    "Ġshifting": 12768,
    "Ġbathe": 25452,
    "lovely": 16055,
    "ogn": 2389,
    "Ġascending": 14865,
    "Ġbolivia": 24681,
    "affections": 17363,
    "Ġdocks": 14179,
    "Ġearnestly": 5980,
    "buffalo": 20573,
    "Ġtransaction": 22465,
    "discoveries": 25394,
    "Ġreversed": 15703,
    "suitable": 18651,
    "Ġquarters": 8621,
    "Ġleaves": 5025,
    "angels": 22107,
    "Ġglow": 7172,
    "historian": 25743,
    "Ġschools": 9483,
    "Ġacute": 16132,
    "forty": 9379,
    "bless": 22319,
    "Ġequality": 16368,
    "/*": 10074,
    "meantime": 9095,
    "isle": 13895,
    "doom": 23388,
    "wound": 21136,
    "Ġfling": 9667,
    "rushed": 10590,
    "Ġaccumulation": 2698,
    "Ġimmersed": 19495,
    "glass": 9911,
    "Ġmoluccas": 25637,
    "Ġschoolmasters": 19732,
    "Ġmile": 7153,
    "glow": 20884,
    "Ġmartin": 25445,
    "Ġtowers": 16749,
    "promote": 24741,
    "Ġwhar": 7390,
    "agreeable": 5832,
    "endure": 22225,
    "irty": 4052,
    "Ġsympath": 4864,
    "Ġincrease": 9374,
    "Ġpublished": 11245,
    "Ġtightly": 13535,
    "matters": 14885,
    "Ġfurs": 18751,
    "uttural": 21595,
    "committed": 18758,
    "reflect": 19874,
    "reeable": 3612,
    "Ġbrougham": 17878,
    "Ġmeth": 1419,
    "Ġfar": 1449,
    "Ġhimself": 1351,
    "Ġrounded": 14443,
    "relapse": 24024,
    "Ġsettles": 22929,
    "Ġimpersonal": 17403,
    "avish": 22607,
    "Ġspermacetti": 19062,
    "Ġbare": 6133,
    "enemy": 15533,
    "turtle": 12211,
    "ran": 11519,
    "grounds": 11154,
    "Ġcreation": 6439,
    "Ġtending": 17733,
    "Ġwes": 8781,
    "ssible": 2993,
    "Ġhistory": 4010,
    "Ġdiscipline": 26570,
    "sledge": 21066,
    "Ġthreat": 5157,
    "Ġcrumpled": 16451,
    "men": 1483,
    "oqu": 7556,
    "Ġspeeches": 22667,
    "Ġkuiperai": 10938,
    "heaving": 21216,
    "Ġprojects": 9517,
    "ĠâĢĺ_": 11118,
    "eray": 21275,
    "Ġconceits": 19400,
    "streamed": 25974,
    "somerset": 26331,
    "inent": 9635,
    "quely": 10237,
    "Ġseams": 12126,
    "Ġelias": 18644,
    "minutely": 19606,
    "icherry": 15143,
    "Ġbug": 11591,
    "imental": 16544,
    "acle": 4722,
    "infliction": 25933,
    "mend": 20976,
    "Ġdefray": 22950,
    "Ġsight": 2112,
    "Ġfranc": 16361,
    "proachable": 23409,
    "magnifying": 25401,
    "yielded": 25765,
    "resent": 10772,
    "asting": 12806,
    "ified": 3224,
    "owards": 4598,
    "Ġcontemplate": 19902,
    "Ġwarb": 17795,
    "Ġventure": 7739,
    "Ġfascinating": 17334,
    "belated": 24046,
    "Ġconfirming": 25331,
    "shad": 10983,
    "ounds": 4162,
    "Ġfinanc": 23139,
    "Ġerror": 1767,
    "gazed": 15369,
    "Ġsprings": 16697,
    "Ġattentively": 9953,
    "Ġmay": 923,
    "Ġextracting": 11113,
    "self": 615,
    "Ġplan": 3883,
    "phew": 6368,
    "Ġsaves": 18333,
    "ui": 9149,
    "utherland": 9585,
    "Ġrad": 4964,
    "Ġyourselves": 9032,
    "Ġtouches": 20580,
    "rints": 12504,
    "liness": 8749,
    "03": 20758,
    "Ġvagabond": 20214,
    "hampshire": 23275,
    "regret": 16460,
    "Ġglens": 18858,
    "Ġtrustworthy": 24118,
    "Ġskirts": 14356,
    "Ġlistening": 6318,
    "Ġkentuck": 19901,
    "supper": 12923,
    "Ġbest": 1971,
    "Ġeth": 17725,
    "ccess": 3181,
    "come": 2378,
    "Ġblan": 18828,
    "Ġlav": 13953,
    "reast": 17767,
    "pping": 1423,
    "Ġtom": 15638,
    "Ġdwelling": 7325,
    "Ġsolic": 7934,
    "retched": 3066,
    "swim": 16789,
    "Ġgentlemanly": 19327,
    "Ġdest": 2234,
    "Ġnibbling": 17392,
    "Ġcarted": 21356,
    "Ġbattered": 17870,
    "Ġdie": 3964,
    "Ġpoverty": 9310,
    "Ġconsent": 5375,
    "Ġcommands": 16599,
    "Ġargu": 10937,
    "Ġrang": 9251,
    "Ġmomentous": 16178,
    "Ġregard": 3065,
    "suppose": 8647,
    "Ġpulley": 2977,
    "quakes": 21862,
    "Ġamb": 9298,
    "Ġtemptations": 24521,
    "hil": 8381,
    "Ġalone": 2569,
    "shriek": 20528,
    "Ġparlor": 13542,
    "creation": 14817,
    "twice": 14628,
    "Ġhundreds": 4334,
    "preading": 18509,
    "Ġdownstairs": 11227,
    "Ġstuff": 5719,
    "sion": 8094,
    "has": 4015,
    "Ġdownright": 16127,
    "her": 488,
    "depth": 12800,
    "zag": 17722,
    "Ġyield": 5097,
    "Ġspectacle": 10502,
    "Ġhints": 8432,
    "him": 1936,
    "Ġonto": 14031,
    "sche": 13016,
    "Ġshoulders": 5568,
    "Ġadditional": 7937,
    "Ġstroke": 6939,
    "arling": 10817,
    "Ġriv": 9153,
    "Ġexclaiming": 13642,
    "bingley": 4929,
    "Ġlouisa": 13548,
    "Ġjur": 12834,
    "unhesitatingly": 26504,
    "Ġovercame": 9748,
    "Ġjabez": 11766,
    "lizzy": 6653,
    "undertaking": 23796,
    "sed": 4181,
    "Ġodd": 6626,
    "Ġinconveniences": 24952,
    "september": 14039,
    "mile": 17605,
    "Ġterti": 14544,
    "rusted": 16517,
    "Ġsquared": 1379,
    "amongst": 24686,
    "unsuitable": 21899,
    "Ġmorocc": 22984,
    "Ġfemales": 14947,
    "Ġprocess": 564,
    "Ġanticipated": 13512,
    "Ġheightened": 8651,
    "token": 21091,
    "Ġvel": 7188,
    "useness": 22299,
    "Ġpaunch": 23759,
    "Ġwitness": 4625,
    "ought": 829,
    "Ġloud": 4705,
    "Ġheaved": 9388,
    "Ġrecom": 4558,
    "Ġunceasing": 20366,
    "Ġdivined": 19453,
    "eted": 7592,
    "Ġoff": 902,
    "Ġinquiries": 5680,
    "chariot": 26487,
    "Ġobligation": 13247,
    "Ġunequal": 14853,
    "Ġaqu": 17751,
    "Ġkeener": 22924,
    "Ġdecidedly": 9515,
    "Ġnarwhales": 24915,
    "Ġforce": 5096,
    "Ġgoblets": 20527,
    "fts": 18709,
    "Ġtorm": 5437,
    "88": 20768,
    "Ġdivergence": 2734,
    "Ġfleshy": 24630,
    "libr": 22932,
    "Ġadmiring": 16491,
    "sat": 4814,
    "Ġrole": 16003,
    "Ġshorter": 4503,
    "Ġspasmod": 12415,
    "Ġpursuits": 12078,
    "Ġseal": 10260,
    "Ġnantucketer": 6917,
    "Ġmice": 13862,
    "Ġsins": 13840,
    "Ġnine": 5372,
    "Ġdiabolical": 20351,
    "Ġshrinking": 14816,
    "ahit": 9387,
    "Ġpouch": 21476,
    "Ġpause": 5709,
    "Ġpropose": 9856,
    "Ġherein": 16200,
    "Ġpioneer": 17926,
    "Ġformidable": 8222,
    "Ġbegging": 11084,
    "mond": 20983,
    "admiration": 11391,
    "Ġmethodically": 23124,
    "marrying": 19559,
    "Ġcrosses": 23071,
    "autions": 20777,
    "Ġoverladen": 22359,
    "Ġmedit": 8019,
    "Ġsnar": 13204,
    "fore": 686,
    "further": 7536,
    "drawn": 9915,
    "Ġrequisition": 22674,
    "Ġdying": 2137,
    "league": 17852,
    "Ġtheirs": 7026,
    "Ġmessage": 13524,
    "Ġlux": 8816,
    "pooh": 18812,
    "Ġmagnitude": 1940,
    "Ġjenny": 20173,
    "Ġrom": 4528,
    "simple": 13454,
    "mod": 1056,
    "Ġsatirical": 26288,
    "likelihood": 4994,
    "Ġexultation": 15179,
    "Ġvariously": 18666,
    "nineteenth": 26147,
    "Ġestablishment": 13581,
    "Ġforbear": 17129,
    "eled": 2358,
    "relatively": 24022,
    "shabb": 18497,
    "pure": 17634,
    "unting": 21880,
    "Ġlighting": 13084,
    "Ġbiographical": 22775,
    "Ġclinch": 18442,
    "E": 41,
    "Ġnames": 4536,
    "fatigue": 20667,
    "Â·": 21158,
    "bulkington": 19935,
    "ious": 770,
    "poke": 18811,
    "Ġswe": 2289,
    "Ġdawned": 15004,
    "bern": 20785,
    "Ġtransom": 22464,
    "Ġlivery": 16008,
    "Ġpunctual": 17145,
    "Ġhesitate": 16954,
    "Ġdrugged": 12602,
    "```": 25902,
    "Ġfuriously": 9804,
    "Ġgames": 11627,
    "warks": 5006,
    "Ġtroops": 24911,
    "wretch": 17717,
    "itories": 15554,
    "Ġcounterpart": 24735,
    "def": 1451,
    "Ġpresume": 8038,
    "Ġlargely": 14289,
    "likewise": 13106,
    "Ġeyelashes": 26115,
    "Ġsucceeded": 6106,
    "torture": 26160,
    "Ġgrows": 4987,
    "Ġjinglers": 26027,
    "Ġsandwic": 24678,
    "restrained": 16346,
    "Ġclassifies": 11838,
    "Ġempires": 19088,
    "lesson": 22783,
    "Ġsurve": 9877,
    "Ġdeath": 2041,
    "Ġpreprocessing": 26545,
    "Ġrising": 4363,
    "Ġboone": 11840,
    "¸": 121,
    "Ġlikewise": 5387,
    "rous": 3754,
    "spout": 7924,
    "set": 3936,
    "Ġpipes": 9847,
    "whosoever": 22247,
    "Ġsequentially": 4916,
    "Ġmeta": 3268,
    "foot": 9050,
    "condem": 16352,
    "banish": 20792,
    "Ġbison": 21395,
    "allic": 12813,
    "Ġlassitude": 20596,
    "Ġclimax": 25065,
    "Ġrake": 18655,
    "ashes": 6017,
    "Ġbone": 4699,
    "flatter": 23973,
    "Ġsplinter": 23757,
    "Ġcircumspect": 15092,
    "Ġacknowled": 6350,
    "welcome": 10004,
    "pitchpoling": 25733,
    "thes": 7393,
    "Ġsaved": 6693,
    "Ġreporting": 24671,
    "Ġstiffly": 15016,
    "Ġlacepede": 20503,
    "Ġincreases": 3798,
    "Ġcomplacency": 19458,
    "Ġoccurrence": 14386,
    "atiable": 17783,
    "welt": 12521,
    "weep": 22694,
    "mbly": 9797,
    "speckled": 23953,
    "mockery": 24393,
    "Ġmustering": 18675,
    "how": 1646,
    "Ġexcavating": 23326,
    "Ġlubber": 17451,
    "jewel": 20355,
    "companions": 15034,
    "believing": 19472,
    "consequ": 18519,
    "Ġconsc": 4278,
    "key": 5465,
    "Ġdismay": 11809,
    "parts": 14608,
    "Ġultimate": 12350,
    "natured": 7113,
    "Ġaccountability": 10443,
    "eze": 20857,
    "awn": 3836,
    "Ġhanging": 5450,
    "Ġdeadly": 5406,
    "iance": 5282,
    "oriental": 23731,
    "Ġeasterly": 25971,
    "Ġmeasurement": 19433,
    "Ġdiscrimination": 23618,
    "Ġoutlast": 22320,
    "Ġbroods": 23112,
    "Ġdimensions": 16581,
    "Ġchancing": 22255,
    "contents": 12060,
    "Ġcripple": 11444,
    "destro": 13313,
    "Ġdiscovering": 13359,
    "Ġbeloved": 5574,
    "dissatisfied": 26620,
    "Ġmexico": 15288,
    "deli": 15352,
    "Ġunsh": 14118,
    "Ġvon": 14084,
    "Ġregular": 947,
    "obscure": 23107,
    "Ġstaring": 8828,
    "rucastle": 22193,
    "Ġillness": 8591,
    "urity": 8144,
    "æ": 167,
    "vast": 10740,
    "Ġminimum": 23051,
    "Ġmassacre": 20557,
    "Ġinsensibly": 20085,
    "Ġdeduced": 12207,
    "frau": 15097,
    "Ġbet": 1133,
    "Ġslanting": 23183,
    "Ġresearches": 13134,
    "»": 124,
    "alescence": 15933,
    "Ġdiverse": 19221,
    "apse": 14202,
    "Ġxii": 11992,
    "fing": 13714,
    "fug": 17551,
    "Ġrevered": 23744,
    "Ġtoilette": 20501,
    "gover": 10706,
    "Ġincredulous": 9990,
    "Ġrash": 10901,
    "rows": 6442,
    "knot": 13746,
    "learned": 8596,
    "resolved": 9646,
    "Ġregained": 18611,
    "rope": 3183,
    "Ġwapping": 21303,
    "hunted": 16841,
    "humorously": 24029,
    "fishermen": 17069,
    "ev": 6955,
    "Ġepoch": 26479,
    "Ġhoops": 9394,
    "Ġplunder": 22617,
    "Ġhiss": 15795,
    "¨": 106,
    "absent": 21796,
    "Ġadvanced": 1513,
    "Ġcovering": 13259,
    "Ġparading": 23721,
    "mayhew": 24000,
    "stationed": 25462,
    "flinging": 20878,
    "iogn": 20931,
    "Ġcart": 11585,
    "Ġsibbald": 21239,
    "plain": 1356,
    "boast": 23263,
    "Ġpunish": 12161,
    "ony": 3028,
    "Ġquoin": 22425,
    "Ġhyster": 16880,
    "Ġnaturalist": 22888,
    "Ġwhitting": 18062,
    "absolute": 17130,
    "Ġaccelerating": 1620,
    "Ġinfamy": 14510,
    "Ġstam": 18072,
    "Ġdetail": 634,
    "Ġwrig": 13069,
    "Ġdagger": 21444,
    "rodu": 1819,
    "Ġabed": 22272,
    "cated": 20813,
    "Ġunravel": 26223,
    "eldom": 4420,
    "Ġconsid": 1814,
    "Ġwar": 5529,
    "Ġsolace": 16209,
    "ĠĠĠĠĠĠĠĠĠĠĠĠĠĠĠĠĠĠĠĠĠĠĠĠĠĠĠĠĠĠĠĠ": 2743,
    "Ġcemeteries": 26384,
    "Ġsplend": 9900,
    "trade": 19649,
    "berries": 22733,
    "admon": 21767,
    "for": 972,
    "Ġtranslation": 3084,
    "<PAD>": 0,
    "Ġconcentrate": 25076,
    "abilizing": 2926,
    "moor": 22714,
    "har": 20900,
    "Ġlobes": 22119,
    "reserved": 13846,
    "iscreet": 20691,
    "Ġendeared": 26506,
    "Ġsaid": 579,
    "Ġnotion": 7883,
    "ances": 1337,
    "Ġsun": 1720,
    "Ġmechanis": 1177,
    "Ġverd": 6922,
    "rential": 22928,
    "bes": 6644,
    "Ġarmada": 23593,
    "Ġdevious": 22726,
    "Ġdines": 21430,
    "Ġtags": 20581,
    "Ġvindication": 25374,
    "combination": 25495,
    "sacred": 17035,
    "Ġimmediate": 6090,
    "Ġsable": 15506,
    "Ġade": 22108,
    "Ġspeaking": 4027,
    "boys": 13361,
    "Ġeul": 21624,
    "boom": 19010,
    "additional": 20472,
    "choice": 21697,
    "goin": 23414,
    "Ġlowered": 6737,
    "desper": 13071,
    "Ġmodeling": 2095,
    "step": 2460,
    "Ġaccompanied": 6782,
    "ĠĠĠĠĠĠĠ": 7633,
    "words": 7984,
    "entions": 17982,
    "tru": 10733,
    "Ġfrequent": 3286,
    "Ġseparated": 9471,
    "Ġprodigy": 19802,
    "Ġdollar": 25296,
    "Ġsatisfactory": 11195,
    "offing": 23342,
    "Ġbelong": 3887,
    "ruin": 22191,
    "Ġcarpets": 18914,
    "itud": 2932,
    "Ġconciliating": 19060,
    "Ġexchanging": 18139,
    "fortun": 3540,
    "Ġadult": 18300,
    "bottle": 20155,
    "Ġdrunkard": 20188,
    "perse": 15904,
    "illation": 14145,
    "harbor": 13565,
    "benevol": 12227,
    "Ġunwe": 15847,
    "Ġdexterity": 25307,
    "ately": 1716,
    "uced": 13803,
    "Ġmanifold": 13561,
    "Ġentreaties": 9039,
    "Ġcalms": 23052,
    "atious": 10156,
    "twenty": 6609,
    "Ġhappier": 10364,
    "regiment": 16461,
    "Ġobe": 5802,
    "_;": 6643,
    "Ġpenny": 16323,
    "Ġnegro": 6447,
    "tremble": 17149,
    "considered": 9587,
    "rasing": 21054,
    "Ġsyn": 15921,
    "headed": 4324,
    "Ġboth": 1656,
    "Ġdedu": 5587,
    "reputation": 15521,
    "Ġridiculous": 10634,
    "Ġintently": 8171,
    "neglected": 25677,
    "Ġcontortions": 18487,
    "Ġinvestment": 24349,
    "compared": 24042,
    "Ġassist": 3565,
    "Ġgen": 5299,
    "ulls": 8841,
    "Ġtrip": 16798,
    "Ġtheore": 1830,
    "Ġfavourite": 5273,
    "accur": 14600,
    "Ġmeditations": 25026,
    "otic": 15751,
    "Ġdead": 2171,
    "Ġextremest": 19209,
    "covenant": 23573,
    "ection": 4950,
    "Ġholidays": 22931,
    "Ġyou": 366,
    "Ġheire": 18043,
    "Ġomit": 17823,
    "Ġlocking": 18307,
    "Ġtreated": 7083,
    "Ġswiss": 18893,
    "Ġedge": 5192,
    "comprehensive": 20637,
    "Ġpeak": 16135,
    "dep": 6789,
    "Ġscho": 4443,
    "Ġwhitney": 11377,
    "Ġsenior": 17179,
    "Ġmilan": 19546,
    "plague": 21964,
    "Ġmiddle": 4141,
    "Ġgibe": 25968,
    "stubb": 6019,
    "vulgar": 25927,
    "Ġmagistrate": 8236,
    "hever": 13834,
    "Ġcongenial": 12412,
    "Ġguar": 23055,
    "Ġauthority": 7749,
    "ste": 3584,
    "Ġtumble": 16886,
    "frequently": 9981,
    "Ġshortly": 6197,
    "Ġconcerning": 4071,
    "Ġhal": 1359,
    "latter": 15390,
    "Ġobjectionable": 16998,
    "Ġ50": 24332,
    "Ġmetallic": 19071,
    "conf": 4959,
    "Ġlate": 3380,
    "Ġenquired": 21945,
    "Ġpreyed": 18376,
    "smart": 23917,
    "beef": 18535,
    "Ġturkey": 19230,
    "instance": 24181,
    "Ġmeditating": 20051,
    "i": 77,
    "towns": 24867,
    "mathematics": 26313,
    "Ġcrisp": 12004,
    "ria": 15805,
    "Ġwarmer": 19200,
    "Ġgang": 9215,
    "Ġwrithed": 17114,
    "adopt": 25552,
    "taffrail": 15449,
    "Ġlength": 2503,
    "sun": 7141,
    "Ġatt": 783,
    "Ġident": 2239,
    "Ġamateur": 22495,
    "Ġbravery": 23844,
    "dun": 17524,
    "Ġspangled": 22139,
    "Ġwarp": 8114,
    "Ġstained": 11653,
    "valu": 1572,
    "Ġhurling": 19123,
    "Ġhunts": 23169,
    "Ġconcert": 11969,
    "meeting": 11022,
    "repaid": 24507,
    "watches": 14957,
    "glancing": 11217,
    "ilies": 18063,
    "Ġhurry": 4915,
    "iments": 4947,
    "ez": 5685,
    "collected": 13217,
    "Ġalike": 8148,
    "tempestuous": 26106,
    "Ġassumed": 9472,
    "Ġallowed": 4060,
    "Ġsparks": 22136,
    "Ġdecisions": 6705,
    "Ġcrawled": 17051,
    "Ġslumbers": 18953,
    "Ġap": 5010,
    "Ġquadruped": 17466,
    "Ġnoteworthy": 24175,
    "Ġcomprises": 22582,
    "nevertheless": 8288,
    "itar": 15552,
    "Ġrevive": 13459,
    "Ġgown": 10207,
    "Ġhire": 21491,
    "snapping": 24862,
    "Ġtransparen": 10547,
    "ouri": 21454,
    "Ġadmitted": 8990,
    "Ġbinnacle": 8120,
    "Ġcompetition": 14271,
    "Ġwhalebone": 10980,
    "Ġslighted": 16577,
    "Ġhairs": 13235,
    "Ġmacy": 19365,
    "Ġautumnal": 19029,
    "Ġpainter": 19180,
    "Ġhazard": 20440,
    "Ġpromises": 10406,
    "fairly": 17227,
    "Ġinvariable": 13458,
    "tipt": 25096,
    "Ġsupposing": 6730,
    "somebody": 14572,
    "Ġglossy": 15235,
    "Ġdeep": 791,
    "omed": 13982,
    "Ġfreedom": 9086,
    "seldom": 13789,
    "Ġcommence": 6168,
    "Ġexplanatory": 22208,
    "Ġvineyard": 12331,
    "ahab": 4294,
    "expose": 23675,
    "Ġexcept": 3315,
    "Ġpet": 4590,
    "Ġtrad": 9830,
    "else": 6535,
    "publ": 17646,
    "Ġviolently": 6456,
    "Ġsk": 960,
    "Ġbewil": 11658,
    "adders": 24415,
    "third": 8170,
    "Ġpale": 4535,
    "unfortunate": 15783,
    "Ġcosmetic": 23483,
    "utral": 12664,
    "delights": 19714,
    "Ġexpression": 4520,
    "cious": 6645,
    "Ġfurthest": 22823,
    "Ġjunk": 15962,
    "gin": 4932,
    "Ġjeopard": 9946,
    "olet": 13768,
    "Ġop": 2606,
    "Ġunful": 22016,
    "thither": 21988,
    "Ġnot": 413,
    "Ġcelestial": 10070,
    "Ġprevailing": 24687,
    "Ġcountryside": 23609,
    "dissemble": 23503,
    "Ġenrapt": 21944,
    "police": 10589,
    "Ġmanner": 2195,
    "ruined": 18356,
    "Ġfoaming": 19003,
    "Ġeven": 1025,
    "fashion": 8081,
    "Ġcaut": 6523,
    "Ġprophetic": 20028,
    "Ġworaciousness": 22938,
    "Ġreaches": 18038,
    "Ġmutinous": 23964,
    "Ġsounds": 5194,
    "allest": 5488,
    "Ġmustard": 12930,
    "ving": 595,
    "Ġrevelation": 25235,
    "Ġgothic": 18007,
    "e": 73,
    "Ġportents": 14686,
    "Ġopt": 810,
    "trunk": 23956,
    "Ġproject": 5548,
    "Ġcurric": 23016,
    "Ġaugmentation": 20125,
    "Ġshipped": 9720,
    "Ġentrapped": 26271,
    "rolling": 9064,
    "Ġcoaxing": 18609,
    "wer": 8397,
    "grasp": 16439,
    "Ġsingularly": 12150,
    "carry": 19537,
    "mortals": 25418,
    "wearing": 22697,
    "lyph": 10855,
    "Ġpleasanter": 19080,
    "relate": 24019,
    "nay": 7137,
    "restored": 18989,
    "imagine": 19941,
    "Ġsharply": 9410,
    "Ġpassions": 7931,
    "ension": 6572,
    "Ġsteak": 9831,
    "whose": 6856,
    "carrying": 16722,
    "Ġcommunity": 19021,
    "icted": 5938,
    "Ġinfat": 14508,
    "exciting": 19681,
    "Ġcheshire": 13091,
    "bub": 15324,
    "Ġfragmentary": 25867,
    "Ġdaybreak": 18739,
    "Ġchaos": 17016,
    "Ġjustification": 22977,
    ",âĢĶ": 3168,
    "Ġchill": 11752,
    "Ġfears": 5731,
    "Ġflight": 6583,
    "Ġmystery": 5513,
    "Ġlurk": 13386,
    "Ġramad": 8530,
    "Ġstagger": 10596,
    "gings": 7550,
    "¢": 100,
    "Ġjackets": 19615,
    "returning": 12205,
    "Ġyaw": 18101,
    "Ġrifled": 21981,
    "ource": 5247,
    "adm": 7609,
    "kshire": 13747,
    "Ġlowly": 11123,
    "Ġbath": 9665,
    "ald": 15630,
    "athered": 6975,
    "Ġexclaimed": 4686,
    "Ġloath": 7892,
    "Ġstones": 9228,
    "shame": 16028,
    "leader": 25361,
    "Ġdwelt": 12605,
    "successively": 24793,
    "ounding": 22401,
    "itect": 973,
    "Ġunimaginable": 15254,
    "Ġe": 311,
    ")": 13,
    "heart": 4529,
    "Ġberths": 20124,
    "Ġjobs": 24845,
    "Ġfounder": 17892,
    "vings": 9758,
    "alone": 10188,
    "Ġsuitable": 18289,
    "Ġtempor": 2367,
    "starbuck": 6020,
    "Ġrecovered": 5484,
    "inese": 12883,
    "Ġsincere": 11139,
    "isive": 10796,
    "nothing": 3149,
    "Ġbil": 15570,
    "Ġcomprehensive": 15095,
    "hated": 17569,
    "Ġdeal": 3607,
    "Ġsmokes": 22569,
    "Ġwoven": 9928,
    "iless": 10287,
    "Ġnavigation": 9995,
    "grey": 14921,
    "prospect": 23407,
    "ksome": 10108,
    "Ġwrote": 5013,
    "Ġansw": 2203,
    "Ġpitch": 5769,
    "Ġornam": 15873,
    "Ġhumane": 11884,
    "Ġverses": 17071,
    "Ġcoils": 9309,
    "Ġrecall": 3857,
    "Ġflights": 24767,
    "above": 8149,
    "Ġhoped": 5491,
    "Ġandromeda": 21514,
    "Ġcommunicate": 10583,
    "Ġglance": 4236,
    "happy": 4431,
    "ross": 805,
    "Ġexagger": 12720,
    "vari": 1516,
    "Ġdrought": 19289,
    "Ġ>": 21160,
    "impress": 18058,
    "Ġdogs": 7742,
    "Ġangelic": 19640,
    "single": 10130,
    "Ġlady": 1589,
    "Ġcoal": 18604,
    "draught": 12091,
    "draul": 9448,
    "Ġdecanter": 22460,
    "mark": 5284,
    "ich": 469,
    "Ġtides": 13824,
    "Ġre": 317,
    "backward": 2689,
    "Ġquite": 1741,
    "Ġrese": 2208,
    "Ġapplying": 13093,
    "irably": 13297,
    "poster": 11058,
    "Ġsplendid": 17221,
    "cherish": 24565,
    "lant": 20957,
    "iag": 20926,
    "Ġobsequ": 14324,
    "Ġpretend": 7722,
    "beaut": 8515,
    "Ġalpine": 18112,
    "Ġsermon": 12377,
    "Ġslacked": 25199,
    "education": 20310,
    "Ġengraving": 17087,
    "unhes": 21881,
    "Ġplayfulness": 23648,
    "Ġver": 3396,
    "jaw": 13744,
    "Ġfurled": 22821,
    "Ġconceive": 8464,
    "Ġmaintenance": 17469,
    "Ġdefection": 22951,
    "until": 6599,
    "description": 11096,
    "Ġname": 2083,
    "Ġcock": 11002,
    "Ġbee": 21755,
    "expressing": 16811,
    "Ġexpense": 7653,
    "unless": 9241,
    "Ġfixed": 2691,
    "Ġsav": 3359,
    "Ġelix": 22652,
    "_âĢĶâĢĻâĢĿ": 25749,
    "Ġund": 4122,
    "Ġmannish": 26246,
    "arled": 21449,
    "powder": 17653,
    "clu": 20809,
    "forgetting": 25494,
    "Ġcommodores": 25384,
    "Ġunheeded": 18270,
    "Ġimaginations": 16526,
    "occasionally": 13522,
    "Ġmass": 3783,
    "teen": 6370,
    "Ġ53": 19653,
    "ently": 1617,
    "_": 67,
    "Ġarctic": 12810,
    "Ġchimer": 24618,
    "Ġentries": 22755,
    "Ġtroubles": 19449,
    "Ġxxxi": 24979,
    "imely": 14001,
    "ener": 559,
    "Ġcombines": 1181,
    "ional": 1084,
    "Ġprecip": 7077,
    "Ġabstra": 22278,
    "tie": 21077,
    "Ġprofessors": 14733,
    "rim": 7139,
    "Ġrecoil": 18698,
    "Ġ40": 14778,
    "Ġplainly": 4388,
    "Ġchurch": 4717,
    "remembrance": 25710,
    "atum": 21268,
    "Ġstrike": 4858,
    "Ġirretrie": 23385,
    "Ġcontinental": 19717,
    "Ġmalays": 19690,
    "Ġjav": 7903,
    "iety": 2821,
    "Ġ135": 24799,
    "perai": 10282,
    "reference": 13843,
    "raltar": 24246,
    "iam": 2511,
    "Ġmutters": 23962,
    "houn": 20903,
    "Ġgirth": 13139,
    "Ġlat": 5091,
    "Ġplanks": 5566,
    "Ġsmell": 7218,
    "Ġpugnacious": 26459,
    "Ġunmanner": 22034,
    "Ġfoam": 6895,
    "Ġointment": 21333,
    "tend": 17682,
    "Ġrecre": 22739,
    "Ġwashing": 9711,
    "faith": 15035,
    "Ġgrounds": 6751,
    "iliating": 12696,
    "Ġbodily": 6107,
    "oology": 21015,
    "Ġfritters": 23268,
    "itals": 17828,
    "Ġtackles": 8051,
    "onsensical": 18589,
    "59": 17481,
    "Ġstammered": 26208,
    "oided": 11512,
    "Ġgentleman": 3039,
    "Ġweighed": 8713,
    "_:": 17486,
    "Ġthunder": 4826,
    "Ġforesaw": 19140,
    "itating": 9657,
    "listen": 13515,
    "dam": 7798,
    "ĠlinnÃ¦us": 15283,
    "Ġvisual": 5743,
    "icirc": 15662,
    "ofs": 11830,
    "anthrop": 17389,
    "â": 163,
    "indulged": 22382,
    "Ġafghan": 22637,
    "rising": 7558,
    "Ġburgled": 23664,
    "Ġprynne": 25548,
    "crown": 13699,
    "useful": 16512,
    "Ġrheumatic": 20715,
    "Ġlow": 1648,
    "happened": 9440,
    "sold": 15433,
    "aggra": 21912,
    "conce": 8513,
    "Ġinsinuating": 19282,
    "Ġreigned": 13990,
    "aff": 3098,
    "Ġhulls": 13929,
    "kington": 11206,
    "iful": 2883,
    "ia": 1253,
    "Ġreus": 8824,
    "Ġsettee": 22930,
    "Ġinstructions": 11198,
    "Ġstudied": 11119,
    "loaded": 22522,
    "Ġdespond": 14674,
    "Ġaback": 22273,
    "igen": 4832,
    "water": 4871,
    "Ġding": 12599,
    "Ġdoubling": 23330,
    "brit": 19212,
    "old": 797,
    "Ġinser": 6823,
    "Ġbefell": 14013,
    "Ġsatir": 18806,
    "fac": 17549,
    "Ġrand": 1587,
    "bits": 17496,
    "sheltered": 25593,
    "peace": 13049,
    "Ġfoot": 3157,
    "led": 583,
    "hospit": 25912,
    "passage": 11265,
    "Ġrehearsed": 25980,
    "alter": 10829,
    "Ġsplendour": 20234,
    "Ġrepresent": 1210,
    "Ġfame": 21413,
    "perch": 18349,
    "Ġawoke": 7289,
    "scheme": 15262,
    "Ġinj": 4764,
    "Ġspace": 1506,
    "icide": 11620,
    "Ġentirely": 3436,
    "fight": 17546,
    "Ġrapidly": 3364,
    "Ġweeping": 11687,
    "Ġimperial": 9487,
    "pul": 8756,
    "Ġaccusations": 22387,
    "Ġcommonplace": 11099,
    "Ġinvoking": 19157,
    "Ġbeholding": 8671,
    "infernal": 24676,
    "Ġharry": 24587,
    "Ġhierarchical": 1924,
    "eff": 2538,
    "Ġbark": 10801,
    "ö": 183,
    "Ġblown": 12087,
    "zes": 11551,
    "Ġdro": 2776,
    "Ġtenderness": 12216,
    "Ġdistance": 3486,
    "Ġdeterm": 1266,
    "_,âĢĿ": 6220,
    "Ġexpectations": 13146,
    "Ġpasture": 14550,
    "Ġdiscussion": 17202,
    "Ġrank": 6258,
    "Ġesteemed": 10593,
    "Ġastr": 15500,
    "Ġseparating": 16695,
    "och": 21011,
    "needle": 20322,
    "lays": 14932,
    "ider": 21771,
    "chor": 6147,
    "superstitiousness": 25516,
    "Ġoptimizer": 5040,
    "acqu": 4845,
    "Ġtakes": 5009,
    "Ġic": 9632,
    "despond": 19809,
    "umbers": 10921,
    "Ġresidual": 1678,
    "ay": 355,
    "Ġexhilar": 19696,
    "Ġentitled": 8541,
    "sleepy": 24743,
    "Ġswiftness": 9929,
    "Ġshed": 8183,
    "Ġdwell": 5815,
    "Ġverte": 9447,
    "Ġwhichever": 14003,
    "Ġintimately": 24817,
    "Ġtweed": 22687,
    "miraculous": 26405,
    "fishing": 20869,
    "Ġperformance": 1307,
    "Ġoceans": 7996,
    "ieving": 7033,
    "Ġsystems": 799,
    "Ġswallows": 18894,
    "irst": 878,
    "pendicular": 6500,
    "Ġsheep": 10929,
    "Ġdistricts": 20273,
    "ĠâĢĶ": 13814,
    "Ġjury": 5379,
    "Ġmortal": 4685,
    "Ġindividuals": 24559,
    "Ġoffspring": 16154,
    "mming": 1169,
    "Ġmat": 1147,
    "Ġcorre": 3888,
    "Ġjavelins": 26114,
    "Ġlocket": 22117,
    "Ġprobabilities": 4968,
    "Ġharmony": 16824,
    "od": 352,
    "considerable": 10554,
    "Ġenthus": 7235,
    "Ġamidst": 9500,
    "itu": 1222,
    "Ġslew": 23394,
    "Ġsuffered": 5651,
    "Ġnamed": 6140,
    "Ġrepair": 11981,
    "inea": 7625,
    "Ġmarching": 16709,
    "Ġpert": 22403,
    "disreputable": 23514,
    "intercourse": 14645,
    "features": 14801,
    "Ġzoology": 22828,
    "Ġdistinction": 8889,
    "quis": 7871,
    "Ġflatt": 16256,
    "Ġgum": 21601,
    "telesc": 22825,
    "judged": 14844,
    "Ġtable": 2502,
    "treasures": 26161,
    "Ġapparatus": 24921,
    "Ġancient": 5446,
    "Ġprivile": 8648,
    "tol": 17680,
    "Ġdeparted": 5564,
    "er": 269,
    "Ġmaelstrom": 19366,
    "Ġdriver": 16482,
    "Ġimmense": 4954,
    "Ġincome": 7918,
    "Ġbelrive": 18841,
    "network": 1901,
    "Ġfrowning": 13624,
    "bib": 17499,
    "Ġsensitive": 13202,
    "cient": 4572,
    "ature": 525,
    "Ġclose": 3035,
    "ued": 7562,
    ")(": 2982,
    "Ġoutset": 15964,
    "Ġfervent": 14923,
    "Ġtang": 13817,
    "Ġdeceitfulness": 25742,
    "Ġincor": 2614,
    "Ġquenched": 22424,
    "err": 1140,
    "instances": 13321,
    "Ġmuttered": 7089,
    "fitting": 1508,
    "generosity": 23795,
    "Ġlikeness": 11182,
    "Ġlogger": 11956,
    "Ġformer": 3325,
    "Ġnic": 7378,
    "Ġbubble": 13536,
    "Ġclenched": 14211,
    "Ġrev": 6537,
    "orrah": 17883,
    "Ġinterpreter": 23224,
    "Ġviews": 7293,
    "ifer": 11684,
    "Ġriots": 23982,
    "ula": 2828,
    "inates": 21189,
    "Ġshuttle": 12129,
    "Ġhoary": 23365,
    "importance": 9991,
    "Ġreverber": 19879,
    "than": 4091,
    "decor": 23789,
    "Ġemboldened": 23010,
    "Ġoutriders": 26552,
    "Ġreceptive": 1565,
    "Ġwand": 4348,
    "Ġgrimes": 11037,
    "Ġdrove": 4986,
    "Ġbrush": 17872,
    "Ġsatire": 22909,
    "if": 375,
    "Ġearthquake": 14635,
    "itted": 2444,
    "Ġlanterns": 24593,
    "Ġmountains": 4433,
    "called": 6292,
    "Ġthanking": 18616,
    "Ġmists": 14637,
    "guest": 19489,
    "Ġbarrow": 12071,
    "Ġpertur": 12851,
    "Ġmariner": 7250,
    "Ġwronged": 24260,
    "kerchief": 7526,
    "Ġwanted": 4970,
    "metals": 24780,
    "Ġquest": 1999,
    "Ġoften": 1952,
    "twinkle": 23710,
    "Ġoffence": 12945,
    "Ġperils": 6273,
    "Ġdoublo": 6080,
    "ĠĠĠĠĠĠĠĠĠĠĠĠĠĠĠĠĠĠĠĠĠĠĠĠĠĠĠĠĠĠĠĠĠĠĠĠĠĠĠĠĠĠĠ": 12156,
    "cas": 20804,
    "Ġperched": 10305,
    "Ġsore": 10767,
    "intending": 22944,
    "Ġduration": 20362,
    "draw": 23905,
    "Ġoily": 13867,
    "closing": 23167,
    "Ġbleached": 24411,
    "bb": 2804,
    "quake": 11681,
    "Ġaccommodate": 20525,
    "Ġupdate": 2468,
    "heaven": 8053,
    "Ġconce": 3424,
    "Ġlovers": 9725,
    "Ġbowlines": 19333,
    "ishment": 3507,
    "Ġdeeps": 16113,
    "rugged": 6853,
    "partner": 19232,
    "Ġgamesome": 17295,
    "Ġsodden": 25543,
    "Ġfragrant": 13098,
    "Ġpays": 13298,
    "Ġcathedral": 17421,
    "curiosity": 8625,
    "Ġvari": 834,
    "abounding": 25988,
    "Ġprendergast": 26546,
    "Ġprairies": 20029,
    "Ġstrewed": 23433,
    "Ġtests": 8960,
    "Ġguardianship": 17428,
    "ust": 493,
    "Ġinscrutable": 10676,
    "Ġbarbarously": 24832,
    "Ġabating": 22274,
    "anch": 15565,
    "ordered": 8792,
    "udg": 22781,
    "Ġstreatham": 17456,
    "Ġmaw": 15545,
    "gryphon": 15366,
    "Ġunprincipled": 20718,
    "Ġessential": 7524,
    "Ġbrief": 6979,
    "Ġwearing": 12740,
    "sad": 11524,
    "whalemen": 10436,
    "Ġremove": 7501,
    "Ġpocket": 4900,
    "inguish": 9403,
    "itz": 6007,
    "Ġdisd": 7032,
    "Í": 142,
    "windward": 24173,
    "Ġapplied": 6187,
    "Ġjudges": 14692,
    "Ġheld": 3585,
    "rief": 6204,
    "fleece": 19956,
    "fishery": 10035,
    "hat": 6959,
    "Ġlurks": 11294,
    "Ġverbal": 19389,
    "Ġhats": 14626,
    "Ġmayhap": 18724,
    "solute": 16608,
    "Ġconviction": 6326,
    "ething": 1603,
    "Ġslippery": 12168,
    "Ġchips": 14183,
    "lar": 4489,
    "Ġchuck": 8503,
    "Ġblueprints": 13174,
    "Ġwillingly": 8888,
    "Ġclos": 4552,
    "Ġcalled": 1969,
    "sher": 5220,
    "Ġsisters": 3641,
    "Ġupp": 13995,
    "Ġconsume": 12958,
    "Ġeulogy": 26478,
    "Ġrival": 12524,
    "Ġringbolts": 24210,
    "Ġsuspended": 5667,
    "occupied": 12305,
    "Ġcalculate": 13266,
    "Ġhappily": 9337,
    "Ġsubfield": 11869,
    "Ġso": 430,
    "presumption": 20450,
    "Ġcave": 10788,
    "willingness": 24769,
    "Ġprobably": 4320,
    "Ġwink": 11571,
    "steaks": 23967,
    "Ġsweetly": 23925,
    "Ġreverend": 15267,
    "oing": 15408,
    "Ġinterference": 8897,
    "beholding": 16050,
    "Ġshutter": 16681,
    "Ġsells": 21232,
    "aft": 9590,
    "gunwale": 20672,
    "study": 15125,
    "Ġjacobian": 2893,
    "Ġprophets": 20459,
    "thousand": 5549,
    "Ġblock": 2577,
    "Ġmoods": 14961,
    "porary": 14559,
    "Ġprogress": 5027,
    "class": 4099,
    "Ġstates": 1851,
    "Ġbehold": 5052,
    "Ġwatery": 6296,
    "Ġdusky": 13551,
    "recursion": 13331,
    "Ġbald": 16215,
    "Ġdummy": 25458,
    "Ġassistance": 6333,
    "Ġprocesses": 3634,
    "branch": 23591,
    "ingle": 1037,
    "shortly": 12259,
    "sle": 9142,
    "accessible": 13640,
    "Ġparch": 11726,
    "Ġexplain": 545,
    "Ġcolonel": 3409,
    "Ġparl": 8180,
    "hills": 13737,
    "Ġfallen": 5968,
    "Ġpoky": 21486,
    "Ġsoftly": 7949,
    "mistak": 16885,
    "Ġplayful": 19248,
    "Ġbird": 3758,
    "Ġstratag": 26037,
    "Ġspecimen": 13020,
    "Ġquee": 1978,
    "Ġhardy": 8568,
    "changing": 10857,
    "Ġimproper": 22762,
    "unexpected": 15784,
    "reading": 12081,
    "ivided": 22090,
    "Ġprophes": 16357,
    "meditation": 19081,
    "Ġtraced": 10389,
    "ital": 4821,
    "Ġsinful": 18959,
    "consequential": 26259,
    "Ġrest": 1784,
    "Ġproduce": 4374,
    "Ġrefers": 1567,
    "Ġmeetings": 16543,
    "Ġabusing": 18404,
    "Ġgirl": 3083,
    "riers": 18192,
    "Ġlees": 18082,
    "Ġsquad": 22844,
    "Ġexcepting": 14687,
    "irresistible": 18180,
    "Ġlightness": 23271,
    "Ġlasting": 18804,
    "own": 746,
    "Ġfoundering": 21426,
    "continued": 8678,
    "velope": 17710,
    "Ġbr": 1074,
    "fights": 20875,
    "Ġmanipulation": 10662,
    "Ġlabelled": 23339,
    "Ġcell": 6238,
    "thank": 4952,
    "Ġstring": 11827,
    "Ġmethods": 3155,
    "Ġtrans": 645,
    "killer": 20484,
    "oss": 10119,
    "Ġperchance": 16000,
    "....": 11320,
    "ishnoo": 10958,
    "sa": 8759,
    "educated": 17266,
    "Ġsepar": 4002,
    "Ġcontent": 5038,
    "atever": 3076,
    "Ġpracticable": 19077,
    "Ġbetokened": 18808,
    "cd": 15331,
    "Ã¦st": 24188,
    "acks": 11788,
    "Ġass": 1441,
    "gee": 15986,
    "Ġpine": 8799,
    "Ġnowadays": 18558,
    "Ġattitude": 8908,
    "Ġgrease": 26198,
    "scruple": 26052,
    "twist": 23708,
    "Ġavenue": 13622,
    "Ġincluded": 8934,
    "solved": 7686,
    "loo": 10325,
    "Ġsimple": 1622,
    "Ġlake": 5230,
    "Ġstun": 11651,
    "moid": 2453,
    "Ġgoodness": 6059,
    "Ġaston": 3702,
    "Ġmappings": 2149,
    "Ġchair": 3662,
    "pacific": 17649,
    "Ġbeing": 1163,
    "Ġcondensed": 24061,
    "Ġsurtout": 23477,
    "cks": 3077,
    "Ġlizz": 21563,
    "Ġdegrees": 7297,
    "da": 17522,
    "Ġordin": 16660,
    "Ġsil": 1799,
    "-": 17,
    "elab": 21576,
    "Ġsalut": 10514,
    "'(": 2980,
    "Ġfif": 4220,
    "Ġequilib": 4139,
    "python": 4696,
    "steep": 19429,
    "espe": 3500,
    "ribes": 23377,
    "Ġhow": 599,
    "cuniary": 26388,
    "Ġsober": 10913,
    "follows": 24541,
    "topic": 10533,
    "safie": 20357,
    "Ġcame": 1299,
    "Ġorph": 9722,
    "Ġpartners": 11853,
    "Ġdere": 21840,
    "helmsman": 24300,
    "Ġrealise": 16347,
    "Ġmoon": 4612,
    "Ġvalues": 2659,
    "fooled": 24434,
    "sudden": 5318,
    "Ġaristotle": 25826,
    "shipped": 18495,
    "Ġcontin": 5383,
    "Ġblanche": 18831,
    "Ġtropics": 17074,
    "Ġbenjam": 22900,
    "Ġlack": 17971,
    "harpoons": 24298,
    "sherlock": 5424,
    "Ġguinea": 8951,
    "Ġflesh": 5969,
    "Ġmonomania": 17092,
    "Ġbetween": 789,
    "Ġblotting": 25323,
    "Ġdesperado": 19828,
    "Ġconnection": 5482,
    "Ġappointed": 20112,
    "indeed": 4493,
    "embed": 18189,
    "Ġsleek": 23395,
    ")âĢĶ": 20752,
    "Ġcoloured": 11048,
    "ergy": 2361,
    "Ġ1950": 11364,
    "Ġstumped": 24955,
    "Ġpow": 4641,
    "Ġvernal": 23897,
    "Ġpreferment": 19862,
    "Ġpaddling": 25298,
    "Ġsooty": 25824,
    "Ġinco": 14264,
    "keel": 14132,
    "part": 2575,
    "Ġpractical": 3160,
    "Ġ5": 4937,
    "âĢĺ": 940,
    "Ġcher": 6130,
    "ons": 709,
    "disgu": 19166,
    "Ġconfident": 11141,
    "Ġharpooning": 23987,
    "arrangement": 17423,
    "whims": 22246,
    "completed": 20001,
    "Ġgossiping": 26252,
    "dled": 9114,
    "etian": 13962,
    "Ġyoke": 18102,
    "Þ": 159,
    "Ġsmoking": 6429,
    "Ġsocial": 7008,
    "Ġ34": 16687,
    "ulated": 6031,
    "Ġdisregard": 22538,
    "Ġremorselessly": 16974,
    "Ġstifle": 18080,
    "Ġintrig": 21995,
    "umnal": 18309,
    "Ġpel": 17912,
    "Ġanomalously": 25646,
    "Ġcascade": 20590,
    "imet": 21712,
    "stool": 23827,
    "poling": 12220,
    "Ġmisconduct": 22770,
    "Ġoverwrites": 5037,
    "Ġtoes": 10832,
    "Ġrural": 21972,
    "Ġconnections": 971,
    "Ġnor": 1552,
    "Ġcircumnavigating": 25623,
    "Ġ48": 24091,
    "Ġric": 18217,
    "Ġpilgrim": 25608,
    "distinguished": 10532,
    "Ġmainland": 22657,
    "Ġnom": 21525,
    "doubt": 6784,
    "burned": 25092,
    "gra": 769,
    "Ġsuperstitions": 17079,
    "vy": 21116,
    "attentions": 13576,
    "Ġhence": 4991,
    "Ġaccorded": 24099,
    "means": 9789,
    "dick": 11483,
    "obliv": 23106,
    "Ġroughly": 17047,
    "Ġxxxix": 24981,
    "Ġtransformed": 22621,
    "Ġauthors": 10414,
    "Ġsummits": 14690,
    "Ġlargest": 6282,
    "dropout": 3195,
    "Ġlook": 879,
    "Ġfrosty": 14945,
    "contin": 16552,
    "Ġcontradicted": 20222,
    "Ġmonarch": 14418,
    "Ġeagerly": 4992,
    "Ġghostly": 24664,
    "india": 22378,
    "Ġeat": 4647,
    "Ġobservable": 24392,
    "Ġtenderly": 11318,
    "vitality": 20487,
    "Ġpau": 17916,
    "Ġpretty": 3863,
    "Ġvest": 8165,
    "Ġmeek": 21815,
    "Ġfastening": 16366,
    "Ġdexter": 9707,
    "Ġanatomical": 15084,
    "finding": 17020,
    "proves": 23405,
    "Ġluxuries": 25174,
    "ralian": 19613,
    "ģ": 228,
    "Ġantip": 24191,
    "Ġmalay": 24406,
    "Ġinspector": 6499,
    "Ġmethodology": 2311,
    "Ġvices": 14086,
    "Ġwr": 1545,
    "Ġ41": 24090,
    "Ġwondrous": 4740,
    "Ġimmensely": 13597,
    "Ġmuscles": 12090,
    "Ġproposals": 10618,
    "liament": 16226,
    "Ġwhilst": 9226,
    "corrob": 24505,
    "Ġdost": 7638,
    "stooped": 23829,
    "Ġneed": 2612,
    "commanders": 16996,
    "assistance": 20379,
    ",)": 9104,
    "Ġgord": 21606,
    "Ġfarewell": 9526,
    "provid": 11152,
    "Ġmort": 3462,
    "treat": 12514,
    "Ġheat": 5456,
    "Ġfootsteps": 16582,
    "Ġrobe": 18467,
    "Ġbrut": 18781,
    "tw": 2814,
    "Ġbasket": 9579,
    "turns": 14915,
    "tawn": 21089,
    "Ġarrang": 2473,
    "Ġencountered": 8324,
    "ernity": 18628,
    "Ġextract": 1512,
    "Ġcompasses": 11271,
    "Ġungracious": 18267,
    "Ġmagnificent": 9844,
    "Ġstores": 18075,
    "overspreading": 26148,
    "Ġdefer": 18834,
    "Ġincessant": 15105,
    "Ġthickness": 13280,
    "Ġenables": 726,
    "Ġvanished": 6878,
    "Ġfaith": 5353,
    "soup": 21067,
    "gn": 8082,
    "rennial": 22348,
    "Ġtim": 4582,
    "Ġfidelity": 15249,
    "asable": 21547,
    "Ġhearken": 21691,
    "Ġdinnertime": 16729,
    "meetings": 20386,
    "Ġobjective": 3769,
    "Ġelectric": 15202,
    "Ġhussey": 7725,
    "liber": 18825,
    "Ġatonement": 21949,
    "Ġphrases": 2801,
    "Ġtum": 5694,
    "Ġcorpusants": 13678,
    "Ġloitered": 26533,
    "Ġ108": 19697,
    "Ġuncouth": 14557,
    "Ġunchanged": 22036,
    "Ġticking": 25046,
    "vous": 8767,
    "shows": 22448,
    "Ġcelest": 9903,
    "Ġmitig": 1336,
    "Ġquill": 12857,
    "Ġindulged": 13419,
    "ourers": 21456,
    "akeman": 6267,
    "Ġelijah": 9103,
    "Ġdispatched": 23890,
    "Ġinsepar": 17941,
    "Ġexpl": 487,
    "Ġunfeeling": 14122,
    "Ġpia": 21471,
    "Ġnotorious": 18231,
    "Ġarab": 7824,
    "Ġmasters": 11577,
    "interest": 5423,
    "icular": 2021,
    "Ġseasonable": 24421,
    "Ġinfirm": 19032,
    "Ġlawn": 7381,
    "Ġpractically": 13107,
    "Ġexasper": 8469,
    "sure": 5525,
    "returned": 7766,
    "Ġphrensy": 25137,
    "Ġconfines": 23316,
    "Ġretired": 6071,
    "Ġresponsiveness": 2898,
    "Ġpalaces": 24102,
    "Ġlabyrinth": 13680,
    "Ġcoffin": 4435,
    "Ġshillings": 15844,
    "esu": 17909,
    "Ġwre": 5081,
    "ioneer": 15637,
    "Ġbatt": 13902,
    "seriously": 19014,
    "happ": 3100,
    "Ġpredecessor": 26262,
    "oting": 2751,
    "Ġimprove": 1871,
    "ambition": 13413,
    "pequod": 7055,
    "Ġdelusion": 18985,
    "Ġconquer": 14030,
    "avering": 24806,
    "Ġreeled": 13989,
    "Ġday": 956,
    "jackets": 24908,
    "Ġrepresents": 4904,
    "Ġderbyshire": 6589,
    "Ġsacrificial": 24884,
    "Ġfocus": 4239,
    "mutually": 26145,
    "Ġgiddy": 20505,
    "Ġtuesday": 9633,
    "Ġunseasonable": 26528,
    "sme": 17666,
    "Ġrally": 21973,
    "Ġdestructive": 23498,
    "Ġjoll": 11765,
    "Ġgro": 4403,
    "Ġbang": 17862,
    "Ġsurvived": 14944,
    "Ġtarred": 23621,
    "Ġprincely": 24161,
    "hist": 7132,
    "Ġtransp": 4774,
    "resides": 23683,
    "hound": 20905,
    "bold": 17495,
    "iterranean": 15555,
    "asions": 12652,
    "Ġmarshal": 20229,
    "Ġstubborn": 10421,
    "uring": 818,
    "revenge": 13845,
    "Ġforbid": 7865,
    "gold": 9124,
    "Ġardu": 22182,
    "ļ": 253,
    "Ġwhom": 1831,
    "athan": 2958,
    "Ġmatrix": 1607,
    "Ġloses": 15882,
    "aves": 3598,
    "across": 10330,
    "embers": 21933,
    "Ġfilling": 13411,
    "Ġtrust": 4081,
    "urs": 6991,
    "Ġamaz": 5386,
    "Ġschoolmaster": 16871,
    "Ġselected": 9715,
    "Ġfishe": 15591,
    "istic": 967,
    "Ġcruelty": 9972,
    "inder": 9159,
    "Ġcomput": 604,
    "scru": 16250,
    "iforn": 14067,
    "Ġpoetic": 17111,
    "claims": 25330,
    "zed": 8105,
    "Ġremoved": 5277,
    "Ġcards": 7581,
    "amous": 15767,
    "explanations": 25247,
    "Ġremark": 2147,
    "Ġsuspected": 9066,
    "Ġabroad": 8869,
    "Ġwinding": 8238,
    "ils": 3179,
    "Ġnoisier": 4628,
    "Ġmanhood": 22333,
    "Ġaustral": 12174,
    "Ġbreak": 2869,
    "individual": 18447,
    "Ġpoured": 8803,
    "Ġmemo": 18124,
    "Ġgallied": 19570,
    "Ġimpregnable": 26032,
    "Ġunrecord": 16633,
    "Ġfidget": 15197,
    "Ġskrimshander": 22808,
    "Ġcastles": 16649,
    "Ġendeavour": 4681,
    "Ġdad": 12600,
    "rived": 3046,
    "discover": 10545,
    "Ġguardians": 14953,
    "ersburgh": 18223,
    "Ġexact": 2546,
    "mort": 10714,
    "Ġcaps": 8416,
    "Ġperennial": 22704,
    "Ġcultivation": 17153,
    "Ġdefence": 11070,
    "pshire": 21033,
    "load": 12880,
    "greater": 13255,
    "Ġnext": 2140,
    "dis": 2250,
    "Ġmaintained": 12935,
    "Ġfine": 1316,
    "iron": 3608,
    "Ġaccident": 5381,
    "Ġhostile": 19949,
    "Ġtant": 12526,
    "vag": 8766,
    "seemed": 4309,
    "Ġsanguinary": 25938,
    "Ġchief": 3384,
    "Ġapplications": 4787,
    "birth": 15330,
    "Ġwhitish": 24879,
    "Ġgives": 5022,
    "Ġindisp": 18845,
    "Ġdowncast": 18663,
    "Ġsubstituting": 26335,
    "Ġpurplish": 19153,
    "doms": 20845,
    "Ġbloody": 9891,
    "Ġproced": 2581,
    "Ġsquares": 11173,
    "Ġsubjects": 7075,
    "Ġshreds": 12770,
    "Ġprompt": 3188,
    "Ġheaps": 11643,
    "Ġinflict": 15012,
    "Ġgrazed": 15841,
    "jure": 20934,
    "Ġglances": 10378,
    "breakfast": 8689,
    "Ġacceptance": 14841,
    "Ġretiring": 16288,
    "Ġqueequeg": 2011,
    "Ġcommunicated": 9065,
    "Ġunexplored": 26527,
    "cim": 8722,
    "Ġclutch": 15061,
    "Ġelsewhere": 7713,
    "Ġtherein": 11775,
    "Ġcasement": 25105,
    "Ġdon": 1615,
    "Ġtallow": 14787,
    "Ġmanipulated": 25189,
    "insula": 23075,
    "Ġadv": 1142,
    "daggoo": 13708,
    "Ġdearest": 5460,
    "Ġbridegroom": 10609,
    "lour": 15388,
    "Ġfurn": 3710,
    "mic": 12489,
    "Ġdesper": 6177,
    "Ġdrugg": 17127,
    "luc": 9759,
    "Ġgips": 10844,
    "Ġbriefly": 11372,
    "widows": 25354,
    "Ġconvict": 23755,
    "Ġplacid": 11826,
    ":--âĢľ": 24563,
    "eminent": 25117,
    "Ġinfallibly": 10044,
    "Ġreduced": 11924,
    "casks": 20411,
    "Ġimpunity": 14220,
    "attest": 23131,
    "Ġboats": 2643,
    "mons": 17608,
    "Ġpag": 6012,
    "Ġmot": 2986,
    "Ġgazed": 6478,
    "izon": 18148,
    "Ġembarked": 17142,
    "pressed": 6590,
    "ishe": 13894,
    "Ġantilles": 24193,
    "Ġarose": 7363,
    "itance": 13871,
    "disappearing": 23513,
    "ilburn": 18066,
    "Ġsuggests": 12200,
    "Ġgazing": 5879,
    "Ġstump": 7603,
    "Ġ500": 24341,
    "vens": 21121,
    "vis": 4581,
    "Ġhor": 1661,
    "eline": 2235,
    "Ġaffidav": 18801,
    "angible": 22106,
    "Ġsadder": 24060,
    "Ġthreshold": 2811,
    "escaped": 14234,
    "Ġaudibly": 24785,
    "Ġmerc": 9433,
    "69": 17482,
    "uled": 11540,
    "Ġclients": 19743,
    "expense": 22436,
    "Ġcertainly": 2500,
    "Ġrevisit": 21676,
    "deser": 11948,
    "precipitance": 25876,
    "Ġarist": 14163,
    "Ġinnocent": 4923,
    "Ġagreeably": 24965,
    "Ġspeed": 2451,
    "_),": 7127,
    "Ġchis": 11750,
    "Ġwasting": 12729,
    "Ġincalculable": 17468,
    "Ġassembl": 20070,
    "Ġparticulars": 5756,
    "Ġcap": 2362,
    "wig": 17713,
    "Ġbrazen": 23847,
    "hair": 9126,
    "Ġintention": 5640,
    "Ġboarding": 12088,
    "instinct": 19554,
    "Ġexpanding": 25251,
    "urp": 1471,
    "terns": 21828,
    "lun": 20956,
    "Ġbishop": 13905,
    "chop": 21694,
    "Ġconstraints": 2745,
    "²": 115,
    "Ġvalleys": 14929,
    "lement": 10171,
    "Ġdominion": 16534,
    "Ġmurderer": 4982,
    "Ġgap": 21605,
    "Ġcordial": 16844,
    "indifferent": 14212,
    "ously": 2465,
    "forks": 26396,
    "Ġxi": 16438,
    "Ġgrammatical": 13541,
    "things": 6034,
    "lydon": 13992,
    "infall": 21197,
    "Ġtransplanted": 22467,
    "aking": 975,
    "Ġhitherto": 5883,
    "Ġpast": 2098,
    "Ġimpotently": 22397,
    "Ġcommendation": 13612,
    "waist": 13420,
    "Ġinterchange": 16080,
    "queg": 1772,
    "Ġreputation": 11641,
    "lengths": 24859,
    "ual": 945,
    "Ġhereabouts": 12977,
    "pump": 21026,
    "Ġmasked": 3695,
    "Ġcholera": 22260,
    "Ġmessages": 24994,
    "Ġdied": 4115,
    "Ġaudio": 24786,
    "Ġknelt": 12160,
    "estations": 22233,
    "Ġapothecary": 13660,
    "acet": 5479,
    "Ġwaldman": 11349,
    "Ġsaleve": 17398,
    "Ġgrove": 12148,
    "Ġinfamous": 16377,
    "Ġprovides": 1927,
    "assembled": 21551,
    "Ġfishermen": 5971,
    "Ġcalls": 6746,
    "parted": 21025,
    "ensation": 22555,
    "agony": 14072,
    "hammock": 16363,
    "Ġcourses": 10418,
    "wal": 10138,
    "flu": 9121,
    "Ġjar": 15959,
    "Ġclues": 18440,
    "Ġhesitation": 13443,
    "door": 6194,
    "Ġeveryday": 22782,
    "Ġgl": 1251,
    "Ġsigned": 11172,
    "Ġdomin": 10467,
    "Ġnoiseless": 10362,
    "Ġremote": 8923,
    "ut": 308,
    "Ġchasing": 11754,
    "Ġpurch": 6601,
    "Ġaveraging": 2420,
    "idea": 9307,
    "arrived": 12609,
    "osy": 11758,
    "heedful": 20583,
    "Ġbethinking": 25292,
    "================": 3724,
    "Ġbob": 22646,
    "Ġeditions": 19133,
    "Ġimaginative": 19258,
    "eer": 15355,
    "quick": 6400,
    "Ġmorbid": 16244,
    "politeness": 16914,
    "Ġdecrease": 4204,
    "up": 1282,
    "Ġminut": 2202,
    "currents": 23852,
    "kily": 20947,
    "ity": 418,
    "expected": 5782,
    "Ġuniversity": 13124,
    "prevent": 11795,
    "era": 13850,
    "ugnance": 12368,
    "Ġnearer": 5304,
    "Ġnourishment": 15200,
    "Ġcos": 2206,
    "Ġignorantly": 19506,
    "heat": 15503,
    "Ġowest": 25104,
    "Ġwish": 2097,
    "Ġunmindful": 22070,
    "loud": 11504,
    "Ġhumming": 12985,
    "Ġshell": 11736,
    "narr": 12497,
    "ister": 1293,
    "Ġdesigned": 7741,
    "acy": 3958,
    "Ġing": 5286,
    "Ġsignificance": 13283,
    "Ġquaint": 18476,
    "Ġquiet": 3260,
    "Ġwreath": 25945,
    "Ġwretchedness": 9030,
    "representativeness": 25285,
    "Ġabstracted": 17190,
    "Ġindignant": 12240,
    "anqu": 4114,
    "Ă": 195,
    "ories": 4757,
    "Ġstories": 10868,
    "Ġperfidious": 25674,
    "voyage": 7786,
    "Ġreasoned": 23093,
    "labours": 16626,
    "satisf": 5783,
    "bitious": 16678,
    "Ġuncertain": 4070,
    "Ġtech": 1694,
    "Ġmorose": 18853,
    "indifference": 15991,
    "onings": 21261,
    "Ġassemblage": 26360,
    "yingly": 23069,
    "organic": 25955,
    "date": 17525,
    "iza": 6256,
    "Ġchatting": 24761,
    "Ġrobins": 16240,
    "Ġfingers": 5674,
    "ignominious": 26595,
    "intelligent": 16853,
    "Ġmisfortunes": 7043,
    "Ġgardiner": 3237,
    "Ġproposition": 23260,
    "flutterings": 26614,
    "nes": 6964,
    "Ġlob": 7629,
    "Ġge": 1976,
    "heum": 17756,
    "alle": 1238,
    "Ġorbs": 22094,
    "ow": 325,
    "Ġmiriam": 25286,
    "Ġinfluence": 5519,
    "bureau": 20799,
    "throw": 14101,
    "Ġcollectively": 19976,
    "Ġrandomly": 1918,
    "Ġundergone": 18996,
    "Ġtyrant": 24781,
    "Ġdam": 2214,
    "Ġbarber": 23798,
    "Ġricher": 12759,
    "bethink": 25752,
    "Ġab": 528,
    "Ġfriday": 14494,
    "Ġtoil": 6533,
    "invari": 21193,
    "dance": 17527,
    "Ġpassage": 3886,
    "Ġhaw": 10257,
    "Ġeach": 893,
    "Ġsubstitute": 16736,
    "Ġisol": 8837,
    "Ġmizzen": 20298,
    "suitableness": 26269,
    "Ġshaping": 22008,
    "Ġinterrupted": 6343,
    "Ġseasoned": 24420,
    "Ġdomineer": 23670,
    "Ġglancing": 5400,
    "arians": 18538,
    "elsewhere": 19877,
    "Ġcultivated": 17370,
    "Ġseventy": 7879,
    "Ġcurious": 3363,
    "aly": 1110,
    "rises": 17663,
    "Ġheredit": 9224,
    "Ġforging": 18100,
    "rible": 3225,
    "ered": 1682,
    "Ġportra": 9012,
    "Ġ37": 24088,
    "Ġunman": 12774,
    "ever": 1078,
    "Ġenric": 21939,
    "Ġsmothered": 20730,
    "Ġcentre": 5127,
    "Ġjaw": 3321,
    "30": 20764,
    "Ġworn": 6445,
    "Ġargemone": 24287,
    "Ġprying": 15614,
    "build": 12188,
    "aying": 15756,
    "Ġunfrequent": 24121,
    "Ġfoes": 11954,
    "Ġjavel": 17091,
    "ocr": 10474,
    "Ġmischie": 22772,
    "had": 1946,
    "cousins": 20127,
    "Ġstiff": 6994,
    "monsters": 19183,
    "Ġadjusted": 23470,
    "consternation": 16920,
    "pest": 6967,
    "ingley": 1546,
    "musket": 25351,
    "Ġbeaut": 2393,
    "Ġcobb": 14276,
    "Ġmouldings": 24751,
    "Ġcircular": 13112,
    "Ġunconsciously": 10008,
    "Ġpage": 6981,
    "Ġmovable": 22440,
    "combined": 20329,
    "Ġconstructed": 9392,
    "oll": 5459,
    "afflicted": 23787,
    "offered": 14524,
    "studied": 17157,
    "ĠĠĠĠĠĠĠĠĠĠĠĠĠĠĠĠĠĠĠĠĠĠĠĠĠĠĠĠĠĠĠĠĠĠĠĠĠĠĠĠĠĠĠĠĠĠĠĠĠ": 20046,
    "enormous": 26175,
    "Ġhey": 11642,
[...]
