{
  "metadata": {
    "vocab_size": 26616,
    "algorithm": "BPE",
    "created_at": "2026-07-13 05:35:24",
    "special_tokens": [
      "<PAD>",
      "<SOS>",
      "<EOS>",
      "<UNK>",
      "<MASK>"
    ]
  },
  "vocab": {
    "Ġbreach": 11978,
    "Ġ89": 19715,
    "Ġbravely": 23842,
    "Ġthump": 11614,
    "Ġconscientious": 16729,
    "Ġtheoretically": 3569,
    "Ġenjoyed": 8008,
    "Ġsway": 7571,
    "desolate": 25717,
    "Ġcareless": 11120,
    "hatch": 15368,
    "saying": 8644,
    "listen": 13516,
    "opotam": 22484,
    "Ġanybody": 5314,
    "achus": 18284,
    "dream": 8731,
    "Ġforked": 11667,
    "Ġperches": 18449,
    "owers": 12690,
    "Ġsharpened": 17368,
    "stubb": 6018,
    "Ġyourself": 2591,
    "species": 13261,
    "Ġlamb": 8817,
    "Ġpurely": 12236,
    "Ġwiser": 14733,
    "Ġimproper": 22755,
    "Ġloungers": 24863,
    "Ġshoving": 23493,
    "Ġlocked": 6035,
    "Ġbesides": 3517,
    "Ġfossiliferous": 25610,
    "Ġswept": 7978,
    "Ġseethe": 21960,
    "Ġnail": 9198,
    "Ġoverflowed": 20265,
    "'": 11,
    "thank": 4950,
    "Ġsharkish": 24506,
    "borean": 25744,
    "Ġpains": 5965,
    "persuasion": 20047,
    "Ġflourished": 15129,
    "ioneer": 15636,
    "Ġdents": 13914,
    "Ġimplement": 3026,
    "Ġmanly": 22328,
    "Ġfew": 1208,
    "Ġfinds": 6300,
    "Ġmatch": 4530,
    "progress": 11992,
    "Ġentailed": 11029,
    "Ġglorious": 11077,
    "Ġfangs": 12603,
    "Ġscho": 4436,
    "ization": 489,
    "Ġcognitive": 13637,
    "Ġdwelt": 12611,
    "supper": 12925,
    "Ġscope": 15948,
    "Ġcro": 4874,
    "Ġperils": 6273,
    "Ġdissuade": 26258,
    "catch": 17509,
    "pockets": 16214,
    "seam": 10876,
    "Ġ10": 5250,
    "Ġmarine": 23036,
    "Ġturkey": 19221,
    "Ġbeck": 14012,
    "material": 13132,
    "Ġchose": 7412,
    "hib": 15371,
    "Ġengraving": 17081,
    "Ġupbraided": 26530,
    "Ġgiven": 1625,
    "Ġwaters": 3599,
    "venth": 9298,
    "nical": 20993,
    "Ġmermaids": 26171,
    "rights": 23678,
    "Ġcarried": 3696,
    "rants": 13781,
    "Ġhud": 10824,
    "Ġrheumatic": 20707,
    "Ġ113": 19699,
    "Ġnovelty": 13466,
    "Ġnind": 17952,
    "cially": 3493,
    "Ġstocks": 23179,
    "semble": 1527,
    "Ġwrecked": 9969,
    "bered": 4505,
    "Ġgrapple": 25812,
    "Ġaspects": 4172,
    "Ġamph": 18511,
    "Ġdemonstrate": 24997,
    "signed": 21064,
    "Ġfloated": 7287,
    "Ġcoffee": 6760,
    "study": 15121,
    "inking": 6710,
    "Ġenorm": 5304,
    "Ġspam": 7631,
    "Ġtumult": 7115,
    "Ġparent": 14647,
    "Ġenticements": 26035,
    "Ġrenewed": 9541,
    "Ġpasseng": 12976,
    "sharks": 14241,
    "Ġexcuse": 5862,
    "onse": 21252,
    "urry": 13997,
    "Ġnewfoundland": 26571,
    "Ġrecording": 24434,
    "ol": 362,
    "Ġthumb": 6981,
    "Ġmilliner": 19886,
    "aneous": 7239,
    "suspect": 9543,
    "discernible": 20553,
    "turner": 19544,
    "wandered": 20288,
    "agement": 4186,
    "avish": 22598,
    "creation": 14808,
    "Ġcheeks": 5958,
    "mes": 1200,
    "Ġbachelors": 24861,
    "Ġwhis": 3508,
    "gossip": 23407,
    "Ġdubious": 17386,
    "muring": 17603,
    "Ġexperience": 1380,
    "greatest": 10496,
    "Ġpatience": 2793,
    ";âĢĶ": 3752,
    "Ġmur": 2487,
    "lands": 8241,
    "gave": 7799,
    "Ġwhirlwinds": 20468,
    "Ġonly": 787,
    "Ġgrasped": 8034,
    "clay": 18933,
    "Ġunbecoming": 22064,
    "Ġcentrally": 23835,
    "Ġcommanded": 6331,
    "Ġdotted": 16794,
    "Ġhunch": 18937,
    "destroyed": 15264,
    "Ġdollar": 25284,
    "Ġrem": 955,
    "eler": 1573,
    "Ġminds": 6304,
    "Ġequally": 5258,
    "Ġcredited": 25157,
    "descend": 23089,
    "tremble": 17144,
    "Ġimproving": 1213,
    "Ġplaus": 22603,
    "Ġstyle": 6945,
    "harb": 9126,
    "Ġarch": 938,
    "pair": 21014,
    "Ġinterior": 8898,
    "Ġinvariable": 13459,
    "sword": 10728,
    "chop": 21691,
    "Ġarea": 14189,
    "Ġunwilling": 7885,
    "Ġpleasure": 2692,
    "Ġgrizzled": 11452,
    "didst": 19352,
    "da": 17516,
    "onde": 21254,
    "colnett": 19332,
    "ulent": 21864,
    "Ġquickly": 4240,
    "Ġcontribute": 12867,
    "ĥ": 230,
    "Ġbelly": 10372,
    "lun": 20948,
    "Ġelias": 18634,
    "Ġtaste": 5524,
    "Ġmidway": 14606,
    "Ġhandsome": 4907,
    "Ġbestow": 6455,
    "Ġdesignated": 19524,
    "verd": 21731,
    "Ġlimping": 23548,
    "Ġstool": 14464,
    "Ġsee": 799,
    "bers": 2568,
    "Ġtranslations": 12056,
    "urous": 10215,
    "itt": 571,
    "onsense": 6431,
    "Ġreappearance": 21670,
    "Ġencourage": 10383,
    "unexpected": 15782,
    "Ġchronic": 9932,
    "composed": 14743,
    "Ġvowed": 14086,
    "Ġengagement": 5397,
    "Ġaccidents": 10298,
    "cence": 9591,
    "Ġenvelope": 7318,
    "Ġcamberwell": 25351,
    "Ġgleams": 17313,
    "Ġconfessor": 24022,
    "uvier": 9071,
    "tails": 21089,
    "figure": 13558,
    "ernal": 4312,
    "begins": 18523,
    "Ġanyhow": 14257,
    "mightily": 24105,
    "Ġencode": 4365,
    "delirium": 14787,
    "Ġungenerous": 18264,
    "izing": 1066,
    "pidation": 18887,
    "Ġobtruded": 20724,
    "Ġtransitory": 16022,
    "Ġresembles": 25970,
    "Ġrobust": 1366,
    "Ġcalm": 3452,
    "croquet": 25748,
    "Ġclubbed": 26549,
    "lers": 10109,
    "marks": 7345,
    "Ġchace": 14181,
    "Ġamazement": 7764,
    "ĠĠĠĠĠĠĠĠĠĠĠĠĠĠĠĠĠĠĠĠĠĠĠĠĠ": 24442,
    "Ġfields": 2143,
    "Ġunravel": 26216,
    "Ġchord": 22249,
    "stud": 8824,
    "nervous": 16280,
    "Ġtransported": 11281,
    "Ġplight": 14284,
    "Ġnav": 5819,
    "Ġforbid": 7865,
    "Ġoffer": 4845,
    "Ġattested": 22632,
    ").": 1271,
    "resnet": 4069,
    "sence": 3306,
    "Ġbeckoning": 20505,
    "become": 14249,
    "Ġfascinating": 17331,
    "Ġmuseum": 15275,
    "Ġspaces": 3109,
    "gins": 12473,
    "Ġtrance": 12845,
    "Ġechoed": 20427,
    "Ġtest": 1597,
    "Ġhatter": 4111,
    "ady": 998,
    "duct": 3510,
    "ateg": 1353,
    "Ġdecember": 15009,
    "Ġdemocracy": 25459,
    "tables": 19760,
    "Ġtowers": 16740,
    "Ġgi": 15670,
    "sust": 15425,
    "Ġ1991": 3017,
    "awn": 3838,
    "Ġluxury": 20135,
    "superior": 9528,
    "Ġdevote": 10342,
    "astonishment": 10033,
    "Ġvales": 21950,
    "Ġbluish": 23651,
    "owing": 7602,
    "abbering": 21800,
    "Ġfondness": 16782,
    "Ġdauntless": 26338,
    "Ġelement": 6897,
    "Ġnorris": 23204,
    "Ġenric": 21938,
    "forbid": 14357,
    ",âĢĿ": 579,
    "Ġtremor": 24767,
    "Ġslily": 23167,
    "voc": 8394,
    "Ġsquares": 11171,
    "Ġinn": 4591,
    "Ġroaring": 10970,
    "Ġclimate": 9278,
    "uncle": 8159,
    "Ġsket": 18728,
    "Ġinfamous": 16368,
    "entions": 17977,
    "Ġcalmer": 23047,
    "Ġpods": 17917,
    "months": 9074,
    "Ġbattery": 21397,
    "taining": 7205,
    "Ġdusky": 13552,
    "Ġbarnacled": 25537,
    "helped": 18927,
    "Ġremorseless": 13454,
    "flutter": 23974,
    "Ġtroubled": 6617,
    "impregn": 21717,
    "Ġgods": 6454,
    "Ġbrim": 12981,
    "avo": 8519,
    "Ġreproofs": 24893,
    "itoring": 21335,
    "Ġhieroglyph": 11975,
    "ines": 673,
    "Ġbison": 21391,
    "myst": 9825,
    "Ġmagn": 1558,
    "Ġdriver": 16476,
    "Ġlivelihood": 24773,
    "vigorous": 25918,
    "Ġ76": 24265,
    "Ġprudential": 17922,
    "emotion": 21934,
    "itching": 21338,
    "Ġlar": 765,
    "sun": 7140,
    "Ġrider": 24188,
    "reckoning": 25271,
    "Ġneutral": 12750,
    "laden": 14932,
    "therefore": 5954,
    "computer": 1973,
    "Ġscript": 18400,
    "Ġbinnacle": 8119,
    "Ġhighness": 22778,
    "especially": 3575,
    "ursday": 12281,
    "Ġnever": 1019,
    "Ġcon": 348,
    "Ġoutsk": 15960,
    "concluding": 19484,
    "Ġdew": 14046,
    "rable": 11635,
    "drawn": 9916,
    "Ġstand": 1733,
    "bpp": 20774,
    "Ġmisunderstand": 18707,
    "Ġguns": 16778,
    "Ġconstant": 6310,
    "Ġintimate": 6550,
    "Ġhereditarily": 25225,
    "Ġsmelt": 16069,
    "Ġprecious": 5760,
    "Ġcritic": 19123,
    "confess": 12180,
    "Ġpuppy": 12409,
    "ek": 1906,
    "Ġmamma": 10051,
    "Ġvia": 2381,
    "square": 15062,
    "Ġrevolve": 19733,
    "examine": 25478,
    "Ġquartered": 20376,
    "uniform": 18160,
    "attle": 4466,
    "kinson": 10029,
    "ense": 2050,
    "Ġjokes": 18409,
    "Ġdistinctly": 7310,
    "Ġdisd": 7031,
    "comed": 8546,
    "Ġattribute": 16104,
    "Ġsecurely": 16804,
    "Ġconciliating": 19046,
    "Ġ116": 24440,
    "Ġsoftness": 18919,
    "ody": 1481,
    "gaffman": 26392,
    "Ġnat": 12651,
    "death": 6262,
    "ourably": 14378,
    "Ġharrow": 17928,
    "Ġhemisphere": 26480,
    "Ġransacked": 26507,
    "Ġuproar": 22159,
    "crowd": 25255,
    "Ġcorpore": 13404,
    "ado": 11661,
    "Ġimbecile": 17395,
    "Ġcup": 5697,
    "Ġsun": 1718,
    "ģ": 228,
    "Ġtire": 17722,
    "Ġintense": 6158,
    "Ġclaw": 22354,
    "Ġcelest": 9904,
    "deduction": 23674,
    "Ġwhirl": 13452,
    "ip": 555,
    "icuous": 10837,
    "mons": 17602,
    "Ġdoubloon": 6944,
    "function": 4685,
    "repro": 10772,
    "Ġembraces": 19874,
    "stee": 21654,
    "Ġcourtship": 24137,
    "Ġheinous": 18041,
    "Ġanalyze": 1508,
    "Ġremembering": 14612,
    "Ġdescends": 14290,
    "Ġadaptively": 3596,
    "Ġtester": 21175,
    "Ġoverpow": 14210,
    "Ġmagnanimous": 17414,
    "Ġtoward": 17949,
    "ravity": 21638,
    "Ġbuilded": 24718,
    "Ġconventional": 25548,
    "Ġacknowled": 6351,
    "Ġflew": 5588,
    "passenger": 24168,
    "remarks": 23192,
    "cific": 10088,
    "arding": 22161,
    "Ġbandages": 24427,
    "Ġstumbling": 21746,
    "returns": 23143,
    "idol": 21770,
    "clearer": 24073,
    "Ġtranspointed": 22444,
    "atical": 10773,
    "Ġrise": 5637,
    "limp": 20954,
    "Ġpleasanter": 19067,
    "Ġmarlings": 23039,
    "englishman": 23680,
    "atmosphere": 21267,
    "Ġaught": 8777,
    "Ġbuttoned": 25369,
    "ī": 236,
    "Ġcounties": 23305,
    "proportion": 16183,
    "Ġthoughtfulness": 18776,
    "Ġfinal": 5400,
    "Ġalex": 15137,
    "Ġscaramouch": 23830,
    "Ġyear": 3285,
    "Ġknitted": 19592,
    "fates": 20860,
    "Ġspeakest": 23489,
    "Ġdispel": 16598,
    "Ġassuredly": 14825,
    "Ġvap": 6836,
    "racted": 4775,
    "Ġpitches": 23905,
    "Ġafraid": 3533,
    "ython": 1029,
    "Ġforbearance": 12332,
    "Ġtiles": 17728,
    "Ġgrapp": 14104,
    "Ġ1778": 25730,
    "Ġjolly": 6857,
    "Ġhymn": 24518,
    "Ġhobbling": 25645,
    "Ġevery": 927,
    "Ġgolden": 5337,
    "Ġhandles": 22700,
    "Ġincarn": 11818,
    "Ġcharge": 5325,
    "flame": 16640,
    "Ġknave": 11274,
    "Ġmodel": 509,
    "allest": 5485,
    "Ġskulls": 12964,
    "Ġhoars": 19079,
    "Ġcosmopolitan": 20643,
    "Ġcunning": 6239,
    "Ġsect": 17753,
    "Ġintimidated": 24802,
    "Ġin": 291,
    "ean": 20842,
    "Ġasked": 2275,
    "Ġern": 8397,
    "Ġ-": 1942,
    "Ġende": 21936,
    "cleanliness": 25872,
    "Ġassumpt": 5415,
    "Ġchip": 12831,
    "Ġabroad": 8869,
    "it": 276,
    "indispensable": 14212,
    "Ġaut": 1793,
    "Ġglacier": 11435,
    "cr": 4012,
    "Ġlard": 13950,
    "Ġgener": 592,
    "Ġwrapt": 24596,
    "_).": 5887,
    "Ġmight": 964,
    "Ġrelates": 12985,
    "Ġspo": 6845,
    "Ġglided": 7446,
    "Ġgl": 1256,
    "Ġcommander": 8628,
    "Ġsagacity": 16976,
    "Ġunjust": 8485,
    "rested": 13078,
    "Ġadmires": 19688,
    "inations": 7567,
    "Ġevalu": 2839,
    "Ġspat": 2662,
    "Ġcorpora": 26582,
    "phr": 18704,
    "Ġstarboard": 7605,
    "Ġopera": 23429,
    "Ġcaval": 25770,
    "Ġbrah": 19360,
    "sockets": 22738,
    "queen": 12733,
    "Ġdozing": 22247,
    "fine": 10093,
    "Ġboiling": 8527,
    "Ġtoil": 6532,
    "Ġdivulged": 16651,
    "Ġbas": 6380,
    "erect": 20850,
    "Ġhouse": 1505,
    "Ġslighter": 18942,
    "Ġdescend": 7426,
    "Ġjerk": 16952,
    "Ġventil": 8019,
    "quished": 21858,
    "Ġtimid": 6346,
    "mp": 3730,
    "odecimoes": 25319,
    "Ġgum": 21598,
    "bacc": 7794,
    "Ġcheapside": 23290,
    "Ġautomation": 13245,
    "telling": 14442,
    "Ġpolitic": 23620,
    "neighbouring": 19967,
    "Ġinduce": 7762,
    "Ġdenominated": 15232,
    "Ġanswerable": 23474,
    "advantage": 8662,
    "retched": 3068,
    "assault": 22310,
    "ounts": 4652,
    "ule": 6800,
    "Ġtransl": 2828,
    "tut": 15437,
    "ithing": 11652,
    "described": 18896,
    "Ġswaying": 15049,
    "Ġsilver": 7463,
    "Ġabundance": 17158,
    "Ġtale": 5142,
    "Ġalarming": 14784,
    "impressed": 12697,
    "Ġweeping": 11690,
    "inkled": 5477,
    "Ġmemorable": 16431,
    "abil": 2006,
    "¦": 104,
    "Ġskirt": 18729,
    "bingley": 4928,
    "obvious": 9360,
    "Ġframed": 19058,
    "Ġfem": 6135,
    "Ġinterm": 14271,
    "Ġbraz": 19361,
    "fur": 6356,
    "haust": 5777,
    "been": 3343,
    "care": 4929,
    "Ġartificial": 797,
    "Ġunderstand": 831,
    "Ġbeadle": 26486,
    "sensibility": 25026,
    "Ġimpersonal": 17400,
    "ifies": 6687,
    "Ġdiscove": 16159,
    "Ġobsolete": 26560,
    "Ġrubbing": 9324,
    "reme": 2423,
    "Ġlaug": 3631,
    "momentum": 4991,
    "Ġplu": 8803,
    "Ġverdict": 13478,
    "Ġpencils": 23198,
    "Ġpresent": 1641,
    "Ġnapoleons": 25886,
    "Ġflesh": 5969,
    "Ġlogs": 16350,
    "Ġardu": 22193,
    "john": 11500,
    "best": 6112,
    "assed": 6421,
    "Ġmouths": 7491,
    "Ġincome": 7917,
    "pass": 4290,
    "Ġmodesty": 12823,
    "constantinople": 25508,
    "Ġaccusation": 22382,
    "footsteps": 25200,
    "insurance": 18890,
    "Ġ0": 1902,
    "ske": 13785,
    "Ġnoisier": 4625,
    "Ġhave": 445,
    "Ġwashed": 15772,
    "instruct": 19545,
    "Ġpoorly": 9857,
    "Ġcemeteries": 26377,
    "Ġclinched": 17397,
    "Ġdependen": 1828,
    "ited": 1747,
    "pause": 12505,
    "Ġinglorious": 24424,
    "Ġcured": 21350,
    "Ġdetached": 10282,
    "Ġprefers": 20517,
    "countenances": 24153,
    "ony": 3031,
    "grounds": 11153,
    "Ġdespond": 14670,
    "Ġsteadfast": 8682,
    "precaution": 23825,
    "face": 3680,
    "Ġsqueaking": 26276,
    "bad": 12440,
    "Ġindispens": 22957,
    "trimmed": 23952,
    "Ġsatisf": 2805,
    "Ġrear": 6536,
    "Ġpertin": 18450,
    "Ġtrail": 16285,
    "Ġaverted": 16258,
    "Ġspiteful": 19525,
    "Ġbelow": 4061,
    "Ġnod": 1887,
    "Ġsummoned": 9914,
    "Ġcollege": 11426,
    "live": 7550,
    "Ġcoronet": 6345,
    "lodged": 25908,
    "Ġbeds": 14555,
    "successively": 24778,
    "Ġburying": 19254,
    "Ġresponses": 23650,
    "Ġremorselessly": 16969,
    "Ġtreats": 19347,
    "fluke": 25205,
    "Ġbrigandish": 25488,
    "ese": 4444,
    "Ġprotesting": 14744,
    "itime": 15552,
    "pid": 1370,
    "Ġvestibule": 13539,
    "Ġpad": 8125,
    "tom": 15438,
    "Ġtigris": 25760,
    "Ġadhes": 22106,
    "Ġbern": 17860,
    "Ġsauc": 15892,
    "apart": 15965,
    "Ġarriving": 19219,
    "000": 2558,
    "ble": 542,
    "Ġphiladel": 23888,
    "Ġaccent": 10296,
    "Ġmoose": 22435,
    "Ġderivative": 3000,
    "Ġmortification": 12099,
    "Ġflights": 24752,
    "eliest": 14749,
    "aciousness": 18607,
    "jol": 20927,
    "Ġgrey": 4513,
    "Ġimpulses": 19965,
    "Ġsy": 491,
    "Ġwarsaw": 26168,
    "servant": 15038,
    "bolts": 11422,
    "cked": 2761,
    "aloud": 17943,
    "Ġboat": 1278,
    "Ġwound": 4529,
    "sorrow": 12513,
    "Ġhugh": 15006,
    "happened": 9436,
    "unt": 2042,
    "Ġburnished": 24001,
    "Ġchinese": 14186,
    "tee": 16176,
    "onian": 17769,
    "Ġcultivation": 17148,
    "Ġunconditional": 15848,
    "Ġarchangel": 8544,
    "empl": 5724,
    "says": 13303,
    "Ġrifts": 21982,
    "seventy": 10878,
    "unning": 4493,
    "Ġbills": 17862,
    "Ġpractices": 19063,
    "produ": 10722,
    "Ġpacific": 5153,
    "Ġcharacteristic": 12052,
    "ones": 2741,
    "Ġimprinted": 22397,
    "flow": 2206,
    "Ġflann": 23015,
    "Ġyielding": 12191,
    "Ġtangled": 13830,
    "Ġanew": 11432,
    "Ġspile": 22131,
    "Ġthan": 736,
    "Ġcomplete": 4383,
    "without": 4848,
    "Ġverbal": 19382,
    "Ġinstantaneously": 23662,
    "Ġreturn": 1710,
    "Ġwor": 1190,
    "uberance": 25917,
    "Ġhaunts": 18199,
    "Ġmanifold": 13563,
    "Ġsus": 18280,
    "Ġglac": 9348,
    "Ġsuccessful": 9926,
    "avery": 13687,
    "iners": 4937,
    "Ġoutrage": 15962,
    "Ġunchanging": 22045,
    "extinguish": 22769,
    "Ġviolates": 3165,
    "Ġflinging": 13588,
    "Ġwallet": 21301,
    "arians": 18524,
    "ruin": 22180,
    "Ġorder": 1686,
    "orney": 17875,
    "Ġtennes": 23551,
    "Ġxviii": 23413,
    "Ġolive": 12570,
    "Ġfruit": 12330,
    "Ġrelevant": 1862,
    "elze": 21576,
    "Ġgaiety": 16751,
    "remonstr": 23194,
    "church": 8140,
    "entiful": 10838,
    "Ġfortunately": 12184,
    "ignorant": 13566,
    "dance": 17521,
    "naturalist": 23439,
    "Ġdiffered": 22714,
    "roses": 17959,
    "bewil": 22502,
    "reduced": 15815,
    "rougham": 15997,
    "Ġsubt": 11872,
    "pier": 17637,
    "Ġcircumstances": 3928,
    "Ġpurpose": 2706,
    "allow": 5104,
    "edd": 1223,
    "Ġadding": 2403,
    "Ġgangs": 21612,
    "queequeg": 4335,
    "Ġdeck": 2139,
    "with": 1299,
    "Ġsullenly": 17175,
    "Ġbay": 9171,
    "Ġlabrador": 23331,
    "contempt": 13193,
    "Ġblaming": 22933,
    "Ġgemini": 26471,
    "Ġag": 682,
    "lady": 4433,
    "Ġworthy": 7240,
    "Ġheart": 1594,
    "umul": 1290,
    "ableness": 8149,
    "Ó": 148,
    "Ġregularly": 7658,
    "Ġdiamond": 15603,
    "serve": 13051,
    "Ġrepl": 1593,
    "Ġstave": 11654,
    "Ġdisagree": 22536,
    "Ġemphasis": 20539,
    "Ġfight": 5366,
    "Ġprojects": 9514,
    "Ġhare": 5157,
    "Ġbowled": 23771,
    "Ġrever": 6537,
    "Ġcate": 4108,
    "actor": 11841,
    "holland": 24046,
    "Ġdirect": 1472,
    "Ġembedding": 2102,
    "continually": 11304,
    "protested": 13477,
    "Ġgreenwich": 19323,
    "resting": 23234,
    "Ġleaves": 5021,
    "Ġpadded": 25039,
    "Ġenjoys": 19453,
    "Ġdrugged": 12608,
    "Ġoat": 21326,
    "Ġincreased": 2211,
    "ruction": 4358,
    "Ġsupported": 9821,
    "Ġsutherland": 10151,
    "Ġour": 1010,
    "Ġsuper": 2155,
    "Ġjup": 15956,
    "Ġorgans": 15869,
    "imet": 21709,
    "Ġthunder": 4825,
    "Ġlaudanum": 20693,
    "Ġgryphon": 4299,
    "sequence": 2855,
    "ember": 1954,
    "Ġnineveh": 13392,
    "arrow": 4178,
    "iences": 6956,
    "Ġdexterity": 25295,
    "Ġquivering": 12864,
    "Ġpipeline": 2442,
    "Ġwarring": 16867,
    "Ġresource": 10995,
    "Ġexped": 7651,
    "so": 892,
    "youth": 11879,
    "Ġmidnight": 5266,
    "pe": 1441,
    "Ġinhospit": 25453,
    "Ć": 199,
    "Ġchivalrous": 20518,
    "verb": 10219,
    "Ġasser": 6258,
    "Ġmenaced": 16296,
    "soc": 5175,
    "wishing": 21131,
    "Ġgrows": 4985,
    "Ġpeddler": 26181,
    "Ġcigaret": 16978,
    "Ġtied": 7356,
    "Ġlounged": 19957,
    "strikes": 24671,
    "settle": 16664,
    "riend": 1187,
    "disposition": 10045,
    "Ġremarking": 13127,
    "Ġintricacies": 15142,
    "Ġensl": 19276,
    "erve": 12554,
    "Ġoverthrown": 18431,
    "jub": 20931,
    "Ġtriumphantly": 11289,
    "saving": 21062,
    "Ġnowadays": 18547,
    "Ġfunny": 7638,
    "Ġrefine": 2959,
    "Ġfirst": 939,
    "isting": 5551,
    "Ġoutstanding": 22320,
    "ĠĠĠĠĠĠĠĠĠĠĠĠĠĠĠĠĠĠĠĠĠĠĠĠĠĠĠĠĠĠĠĠĠĠĠĠĠĠĠĠĠ": 19585,
    "Ġrelationship": 2312,
    "Ġinjection": 3471,
    "Ġhamper": 19392,
    "Ġfoss": 9853,
    "Ġramsgate": 18644,
    "Ġsouthwards": 19636,
    "Ġtall": 4038,
    "Ġicicles": 25265,
    "Ġeste": 6084,
    "Ġhumiliation": 16202,
    "Ġstrategies": 1838,
    "Ġcases": 3962,
    "Ġfrocks": 23926,
    "Ġspur": 18304,
    "embra": 14079,
    "Ġfulfilled": 11364,
    "killed": 15380,
    "scotch": 25852,
    "Ġtradeoff": 2656,
    "oysius": 14369,
    "Ġwithdraw": 16966,
    "Ġdisdained": 15012,
    "avoid": 9308,
    "oric": 21399,
    "vis": 4578,
    "Ġuncont": 14118,
    "Ġdrunken": 12054,
    "Ġigniting": 25073,
    "Ġkrus": 18350,
    "Ġdaniel": 15115,
    "Ġshave": 22000,
    "Ġapologized": 25199,
    "Ġunsounded": 15853,
    "Ġrecital": 16141,
    "gainst": 25144,
    "Ġconnex": 10668,
    "absolut": 8460,
    "Ġlies": 5297,
    "Ġunsupp": 22021,
    "Ġadequately": 15202,
    "Ġinstincts": 16988,
    "speaking": 12103,
    "ran": 11518,
    "Ġexploding": 2107,
    "iments": 4945,
    "ores": 2413,
    "Ġsooty": 25816,
    "Ġcontinent": 14891,
    "oky": 8198,
    "ogue": 9783,
    "excited": 13383,
    "kerchief": 7525,
    "Ġinfamy": 14503,
    "irable": 5776,
    "tish": 17679,
    "sal": 8761,
    "Ġpresum": 4839,
    "turned": 7305,
    "Ġanticipation": 17059,
    "ĠĠĠĠĠ": 3530,
    "Ġburned": 8634,
    "Ġminima": 3468,
    "sartain": 25623,
    "Ġbi": 919,
    "two": 3863,
    "Ġathirst": 20601,
    "Ġleisure": 6540,
    "ocity": 8278,
    "brushing": 20790,
    "Ġworsh": 13004,
    "Ġcanst": 8861,
    "Ġjerked": 19835,
    "Ġstirs": 14920,
    "consolatory": 25307,
    "Ġsal": 3940,
    "finally": 9502,
    "Ġthickly": 12120,
    "cart": 10692,
    "pooh": 18801,
    "Ġfurs": 18741,
    "Ġrevealed": 6752,
    "Ġhumaneval": 25583,
    "luded": 4226,
    "Ġwoof": 14724,
    "Ġix": 12674,
    "Ġvictoria": 14876,
    "follow": 5680,
    "Ġsevered": 18204,
    "mish": 17600,
    "Ġexpired": 18622,
    "Ġancles": 21449,
    "Ġjacob": 1897,
    "bbing": 6324,
    "cing": 1014,
    "Ġprecise": 7076,
    "Ġgets": 10841,
    "ij": 7801,
    "Ġcaring": 23097,
    "Ġplaited": 14286,
    "Ġsurveying": 25326,
    "sen": 21052,
    "boots": 11128,
    "remed": 18955,
    "Ġendeavours": 8621,
    "breaking": 14767,
    "infallibly": 26419,
    "echo": 15352,
    "Ġseclusion": 18207,
    "beloved": 19464,
    "anguish": 15987,
    "cou": 13699,
    "infant": 19830,
    "Ġcreep": 22730,
    "boscombe": 26122,
    "Ġobservant": 20113,
    "acceler": 23600,
    "produce": 20285,
    "sacrifice": 13495,
    "browed": 25895,
    "somebody": 14568,
    "Ġ----": 7145,
    "Ġhopelessly": 16382,
    "heim": 17748,
    "Ġobjects": 5578,
    "Ġadvised": 16209,
    "Ġhastening": 19338,
    "ð": 177,
    "vanity": 24977,
    "Ġemboldened": 22969,
    "Ġtorn": 6000,
    "Ġunwarrantable": 26346,
    "Ġglo": 1713,
    "Ġefforts": 11809,
    "becoming": 18517,
    "assertion": 22315,
    "Ġweltering": 19588,
    "Ġinboard": 17935,
    "aurus": 20563,
    "Ġsignature": 16496,
    "Ġledgers": 23941,
    "ival": 4225,
    "Ġhalls": 19528,
    "Ġshetland": 22163,
    "Ġconnecting": 18632,
    "Ġrobberies": 23026,
    "Ġsurplus": 26304,
    "har": 20892,
    "illum": 15873,
    "Ġuser": 15918,
    "Ġcoars": 14274,
    "Ġchoice": 2166,
    "Ġdeliverance": 15161,
    "Ġforefinger": 16444,
    "contented": 14636,
    "Ġproduces": 2092,
    "Ġaven": 10761,
    "Ġbackwater": 18650,
    "parts": 14603,
    "involved": 25627,
    "eat": 11485,
    "Ġconfeder": 25708,
    "Ġcontrols": 1730,
    "elope": 14469,
    "pyramid": 21032,
    "collect": 16566,
    "aan": 20766,
    "Ġpall": 7583,
    "years": 6882,
    "aying": 15754,
    "Ġex": 361,
    "Ġfurnishes": 19444,
    "represent": 9640,
    "Ġdwelling": 7321,
    "Ġbitterest": 12406,
    "Ġsubordinate": 18723,
    "Ġdrawing": 3920,
    "Ġcoolness": 16888,
    "woods": 13422,
    "Ġlavater": 20499,
    "off": 1885,
    "detective": 24383,
    "Ġfrequently": 4680,
    "E": 41,
    "Ġretarded": 23075,
    "Ġelixir": 26557,
    "sink": 11524,
    "Ġtraces": 7946,
    "icable": 6388,
    "Ġsqueeze": 10042,
    "Ġcombat": 16188,
    "Ġconse": 21808,
    "Ġconstitution": 20112,
    "generous": 16571,
    "mastod": 23977,
    "Ġheal": 21684,
    "Ġassert": 7121,
    "Ġprovincial": 20652,
    "Ġho": 1930,
    "Ġnaturalists": 10365,
    "Ġcircumstance": 4987,
    "london": 9612,
    "Ġaforethought": 25429,
    "Ġdanes": 25160,
    "Ġescorted": 23510,
    "Ġwick": 2004,
    "Ġconsec": 21809,
    "Ġhearts": 4972,
    "Ġnupt": 13946,
    "librarian": 26570,
    "Ġdeliberate": 15025,
    "disappearing": 23506,
    "structure": 2331,
    "Ġrejoiced": 8687,
    "learn": 2390,
    "Ġcharlotte": 3892,
    "ior": 2038,
    "Ġconsort": 18724,
    "Ġimpregnable": 26024,
    "Ġserious": 4323,
    "Ġkick": 5838,
    "itche": 7579,
    "Ġcrumbs": 19124,
    "Ġsufferer": 16264,
    "ighted": 8478,
    "Ġwild": 2601,
    "cord": 8727,
    "Ġop": 2602,
    "Ġblood": 3169,
    "Ġinfatuated": 20536,
    "Ġfeast": 10280,
    "Ġcrocod": 19631,
    "Ġrecurring": 23231,
    "prof": 7470,
    "Ġacquiesce": 20332,
    "Ġarchy": 14350,
    "enth": 6681,
    "coo": 11172,
    "ums": 10275,
    "Ġtexture": 19162,
    "spouter": 22742,
    "ic": 304,
    "Ġadjac": 18293,
    "stun": 18021,
    "Ġtoils": 10188,
    "Ġopens": 23628,
    "Ġeuroc": 14962,
    "skirted": 24489,
    "Ġpronouncing": 16971,
    "Ġbeam": 2878,
    "Ġlain": 17964,
    "Ġdeafened": 25652,
    "Ġmagg": 18907,
    "Ġdecline": 9290,
    "ezing": 10576,
    "Ġregular": 936,
    "Ġunful": 22011,
    "rudential": 16711,
    "Ġdreams": 7496,
    "Ġfairer": 20465,
    "Ġglare": 13017,
    "roll": 9199,
    "Ġporch": 19683,
    "namely": 23670,
    "Ġsinners": 18952,
    "Ġontario": 26206,
    "Ġknowingly": 18481,
    "Ġexper": 1293,
    "week": 12937,
    "Ġfoolishly": 19785,
    "Ġwane": 21291,
    "Ġsalt": 8017,
    "Ġignoble": 19402,
    "bey": 10316,
    "condesc": 18506,
    "Ġinvaluable": 10185,
    "Ġlady": 1587,
    "resent": 10771,
    "Ġblan": 18819,
    "rayed": 23565,
    "Ġmak": 10780,
    "Ġjot": 11767,
    "Ġbars": 13900,
    "Ġbitterness": 8024,
    "Ġfootpath": 19340,
    "Ġphilosopher": 12188,
    "cannibal": 15228,
    "Ġsuccession": 12106,
    "Ġscratch": 25565,
    "Ġpreserving": 19799,
    "Ġang": 2509,
    "astic": 1866,
    ".;": 20746,
    "upon": 2720,
    "kings": 17585,
    "Ġ>": 21154,
    "Ġincorrect": 2727,
    "Ġconfidence": 6591,
    "befall": 22499,
    "ientious": 11695,
    "Ġpostponed": 20393,
    "Ġmerely": 3773,
    "Ġwinged": 16997,
    "Ġunpitying": 25661,
    "Ġbranch": 8332,
    "Ġremoval": 12122,
    "Ġsin": 1516,
    "Ġcorpse": 6640,
    "Ġgilder": 21616,
    "Ġverdure": 10615,
    "Ġflee": 7080,
    "merely": 16138,
    "deli": 15348,
    "Ġpassengers": 13679,
    "histicated": 20903,
    "«": 109,
    "Ġalche": 21787,
    "Ġsimilar": 4918,
    "Ġpillows": 24989,
    "Ġinhab": 5083,
    "Ġdestructive": 23490,
    "Ġdecreases": 3410,
    "Ġobjective": 3768,
    "Ġmincer": 14367,
    ":--âĢľ": 24550,
    "nered": 18495,
    "Ġenlarged": 25986,
    "Ġevaluate": 2925,
    "Ġtreacle": 14597,
    "Ġnearing": 15800,
    "masters": 16836,
    "streets": 13398,
    "Ġfugitive": 17330,
    "dilig": 17285,
    "Ġcapable": 5054,
    "Ġskewer": 19623,
    "Ġannoyed": 17202,
    "Ġinqu": 2967,
    "Ġtiger": 11557,
    "Ã¦mon": 7095,
    "commendation": 26351,
    "Ġsl": 1499,
    "Ġviolet": 19092,
    "Ġdependent": 14296,
    "Ġvener": 8164,
    "gument": 20887,
    "Ġbrows": 13304,
    "Ġgod": 1934,
    "spect": 3233,
    "itancy": 21336,
    "70": 17478,
    "Ġinaudible": 21502,
    "Ġpenetrating": 17013,
    "vicinity": 20483,
    "luyt": 18455,
    "Ġdeal": 3611,
    "Ġgazed": 6478,
    "Ġpreventing": 883,
    "Ġcottagers": 6761,
    "Ġasp": 15785,
    "Ġsomething": 1794,
    "Ġrandom": 1588,
    "compliments": 24807,
    "Ġfalls": 14646,
    "stein": 5505,
    "Ġbowsman": 11255,
    "Ġdreadful": 4921,
    "having": 5211,
    "Ġsweetest": 13252,
    "Ġexpiration": 22626,
    "Ġtempestuous": 20074,
    "Ġminutest": 14562,
    "Ġscreen": 17208,
    "Ġlately": 6387,
    "Ġtint": 13820,
    "Ġfunctional": 3049,
    "ames": 2954,
    "humor": 19455,
    "ē": 212,
    "Ġwipe": 25765,
    "ishly": 14202,
    "Ġcheat": 19019,
    "Ġretirement": 25379,
    "Z": 62,
    "Ġbounds": 9921,
    "promising": 24725,
    "geese": 22371,
    "seamen": 13629,
    "Ġpropontis": 17468,
    "beside": 19879,
    "Ġangels": 11180,
    "_âĢĶâĢĻ": 13686,
    "Ġexploring": 4304,
    "americans": 25045,
    "Ġkramm": 26235,
    "variance": 2653,
    "Ġevangelists": 20342,
    "Ġwager": 17794,
    "Ġspirits": 3700,
    "Ġcode": 1719,
    "Ġdirecting": 16304,
    "happen": 19333,
    "Ġactivation": 918,
    "data": 2263,
    "Ġheavens": 5050,
    "ush": 3635,
    "Ġdelicious": 14795,
    "Ġexamine": 7734,
    "ivance": 22079,
    "Ġslime": 23164,
    "extrem": 18709,
    "Ġstalls": 25648,
    "Ġindex": 17050,
    "women": 15459,
    "Ġtoe": 13939,
    "Ġparadise": 11196,
    "Ġstalk": 12703,
    "Ġchannels": 26014,
    "Ġreserves": 19673,
    "quee": 4128,
    "grat": 5052,
    "Ġpatterns": 1216,
    "inordinate": 21197,
    "etime": 12665,
    "ignific": 11960,
    "Ġstil": 15722,
    "wered": 2687,
    "Ġwooing": 19437,
    "opposition": 24820,
    "pulous": 15419,
    "Ġsubmit": 11874,
    "soldiers": 25912,
    "Ġdramat": 23216,
    "Ġrascally": 26509,
    "Ġstation": 5299,
    "Ġimaginary": 11188,
    "ĠâĢĶâĢľ_": 17720,
    "hump": 12482,
    "Ġthy": 2511,
    "porary": 14554,
    "Ġfamily": 1966,
    "Ġbaker": 4697,
    "Ġoakshott": 12234,
    "Ġviewing": 19266,
    "Ġinexpressible": 17336,
    "ier": 1135,
    "unbounded": 21889,
    "Ġpours": 17914,
    "Ġpreliminaries": 25177,
    "folio": 10549,
    "Ġstrove": 9960,
    "sixty": 24853,
    "Ġundoing": 22035,
    "Ġcontemptuous": 24677,
    "Ġcounters": 24142,
    "Ġmoves": 14234,
    "Ġview": 2760,
    "induce": 22378,
    "Ġbrook": 13052,
    "Ġwestern": 10657,
    "Ġcloak": 9537,
    "Ġlantern": 7117,
    "complet": 11385,
    "oda": 15753,
    "Ġswap": 23055,
    "ely": 620,
    "Ġexpert": 18869,
    "Ġovertaken": 18430,
    "Ġsolic": 7933,
    "shake": 22454,
    "Ġrebell": 21672,
    "Ġvain": 3633,
    "Ġinexpress": 12641,
    "Ġdiscl": 9800,
    "iece": 3230,
    "piteous": 21036,
    "Ġweigh": 10895,
    "Ġrate": 1061,
    "hereditary": 26421,
    "transform": 8050,
    "Ġconqueror": 25797,
    "Ġprob": 972,
    "Ġclin": 14204,
    "Ġbreaks": 13188,
    "zers": 21149,
    "Ġfreshe": 13073,
    "Ġdignity": 5704,
    "Ġwaterproof": 19090,
    "Ġlooking": 2474,
    "rusion": 11325,
    "Ġsimpler": 2046,
    "onze": 21258,
    "jumping": 20248,
    "Ġcupboard": 16885,
    "Ġconvenience": 11333,
    "Ġflung": 8565,
    "Ġfragrant": 13107,
    "Ġtrunk": 7204,
    "Ġenormousness": 24515,
    "Ġmiserably": 12953,
    "gives": 15361,
    "Ġgild": 15673,
    "Ġfibres": 12956,
    "arian": 10318,
    "Ġdevils": 7229,
    "Ġlong": 793,
    "Ġrelieve": 8224,
    "Ġtargets": 4202,
    "Ġaccurate": 13247,
    "aciously": 12913,
    "animal": 16980,
    "Ġstam": 18068,
    "Ġdrought": 19281,
    "Ġshadowed": 24050,
    "Ġrigger": 19533,
    "Ġ102": 24410,
    "Ġsplendid": 17216,
    "Ġestimates": 3750,
    "*": 14,
    "+": 15,
    "Ġrespectable": 6737,
    "Ġpequod": 2320,
    "Ġaccounted": 10297,
    "Ġregretted": 13403,
    "¸": 121,
    "Ġarchitectures": 2908,
    "Ġshe": 466,
    "hard": 4691,
    "rollable": 13948,
    "make": 5793,
    "Ġrisk": 8039,
    "Ġshun": 11713,
    "roots": 15647,
    "Ġpracticable": 19064,
    "Ġneedles": 11186,
    "Ġsullen": 9160,
    "Ġpoints": 5249,
    "Ġgoblet": 25824,
    "Ġwint": 15536,
    "star": 12678,
    "Ġunmethodically": 22070,
    "Ġmonarch": 14418,
    "Ġold": 1056,
    "conve": 14246,
    "aration": 12613,
    "Ġdebar": 24274,
    "Ġcards": 7581,
    "Ġineffable": 17335,
    "Ġfavoring": 2342,
    "scho": 8763,
    "Ġwhe": 438,
    "wise": 2572,
    "Ġnotes": 7188,
    "Ġterrors": 6917,
    "plumed": 21965,
    "Ġanomaly": 25637,
    "Ġcirc": 1985,
    "Ġchal": 18379,
    "Ġcasualties": 25513,
    "18": 20753,
    "Ġsacred": 10932,
    "committed": 18739,
    "Ġdutch": 6328,
    "Ġfools": 14484,
    "pregn": 18499,
    "displayed": 20738,
    "Ġicebergs": 23978,
    "Ġstore": 8455,
    "Ġexhilarating": 26339,
    "Ġsnarl": 25714,
    "Ġinnovative": 1622,
    "orn": 2241,
    "Ġparading": 23713,
    "Ġplaced": 3449,
    "port": 10721,
    "Ġcaresses": 26060,
    "uned": 21875,
    "Ġmarvellous": 7538,
    "probable": 17023,
    "ugnance": 12371,
    "Ġdisown": 22528,
    "nature": 5360,
    "couldn": 23720,
    "terr": 8154,
    "will": 1968,
    "osp": 6853,
    "Ġcranial": 25593,
    "Ġharmony": 16816,
    "Ġextrem": 2473,
    "Ġattitudes": 16103,
    "holmes": 4431,
    "Ġtrib": 13822,
    "gers": 8376,
    "happiest": 19334,
    "icy": 6141,
    "william": 4563,
    "Ġfaultless": 24540,
    "ull": 1435,
    "painter": 24897,
    "Ġsupple": 22997,
    "Ġser": 1673,
    "Ġprograms": 7238,
    "Ġrefined": 18699,
    "conclusion": 25672,
    "pton": 15798,
    "Ġscreaming": 13426,
    "Ġrefusal": 10347,
    "Ġmisery": 3817,
    "Ġoverseeing": 22364,
    "Ġjoyful": 13225,
    "Ġdespairing": 14776,
    "Ġconcerning": 4068,
    "Ġgarden": 3828,
    "odiac": 14031,
    "tips": 13799,
    "marching": 25753,
    "Ġdock": 15934,
    "Ġspoil": 17009,
    "Ġbreathe": 9015,
    "innacle": 7519,
    "Ġintellectual": 11403,
    "ene": 2170,
    "Ġguide": 3216,
    "Ġbetrayed": 9564,
    "Ġlatterly": 24086,
    "accepted": 20139,
    "Ġeternal": 5976,
    "Ġconverted": 16118,
    "ivial": 15863,
    "side": 2298,
    "loose": 11808,
    "Ġtormented": 8678,
    "Ġage": 3899,
    "timidity": 25754,
    "Ġtoo": 1163,
    "petulance": 24301,
    "headsman": 16699,
    "oboam": 9361,
    "combination": 25487,
    "Ġindividually": 22960,
    "Ġbottled": 23797,
    "Ġ73": 24263,
    "Ġexists": 14044,
    "osque": 22266,
    "Ġterrier": 23402,
    "stained": 21658,
    "sterns": 23371,
    "Ġshipping": 14107,
    "Ġspool": 24803,
    "famous": 16918,
    "ources": 2787,
    "Ġrevellers": 21681,
    "nurse": 15212,
    "eff": 2533,
    "pocket": 9814,
    "comm": 7439,
    "Ġunacquainted": 12781,
    "Ġox": 7153,
    "(": 12,
    "arrived": 12615,
    "velling": 14765,
    "Ġhistory": 4007,
    "Ġtowing": 9196,
    "Ġmarbles": 18874,
    "nour": 20990,
    "A": 37,
    "<PAD>": 0,
    "Ġappointed": 20106,
    "Ġdews": 21842,
    "Ġbands": 14887,
    "scr": 16243,
    "Ġexcursion": 26591,
    "ily": 1031,
    "vess": 7353,
    "Ġunfav": 14791,
    "Ġsoldiers": 8690,
    "eteenth": 20160,
    "Ġlevi": 3036,
    "Ġchase": 3947,
    "Ġyoun": 1409,
    "Ġsymbolize": 24963,
    "reputable": 15520,
    "certain": 3679,
    "Ġwasting": 12736,
    "Ġchristianity": 19863,
    "vinegar": 25421,
    "Ġkink": 22197,
    "ined": 1260,
    "Ġfleet": 9435,
    "pleasanter": 24052,
    "Ġgrasshopper": 24380,
    "Ġveiled": 16204,
    "asions": 12657,
    "Ġexerc": 6832,
    "Ġdetested": 14177,
    "suppose": 8648,
    "oct": 7554,
    "Ġmari": 6813,
    "replied": 11568,
    "Ġmisconduct": 22763,
    "Ġsc": 532,
    "Ġproved": 4885,
    "âĢľ_": 5720,
    "Ġreel": 9216,
    "contained": 22476,
    "Ġsearched": 15820,
    "Ġclosed": 4606,
    "Ġmistake": 6204,
    "Ġestablishment": 13582,
    "bulwarks": 12277,
    "Ġthe": 270,
    "Ġlunatic": 24993,
    "arrival": 15604,
    "agreeable": 5830,
    "Ġmamm": 25093,
    "Ġregard": 3067,
    "!": 5,
    "Ġmonomania": 17086,
    "self": 617,
    "Ġscandinavian": 26347,
    "Ġaccursed": 9448,
    "Ġhappens": 2188,
    "compar": 14362,
    "Ġsurf": 19133,
    "Ġopposite": 5120,
    "Ġthrough": 604,
    "acquired": 24298,
    "Ġterminated": 23513,
    "evidently": 20348,
    "Ġfidgeted": 25890,
    "Ġspare": 5102,
    "Ġnaval": 16901,
    "ullied": 23110,
    "horizon": 23617,
    "Ġany": 688,
    "Ġdelusion": 18974,
    "Ġsteak": 9832,
    "Ġclassifies": 11842,
    "Ġdragon": 14947,
    "Ġprone": 18969,
    "bee": 16041,
    "Ġorchard": 22098,
    "rels": 6666,
    "Ġkingdom": 12023,
    "Ġsundry": 20077,
    "Ġvote": 21951,
    "Ġhelmet": 19690,
    "Ġshoulder": 5849,
    "disappointed": 25192,
    "Ġpiling": 17913,
    "inexplicable": 25809,
    "Ġlances": 6984,
    "Ġast": 2963,
    "slanting": 24558,
    "Ġsuspecting": 14913,
    "Ġarrow": 10933,
    "Ġpanic": 11288,
    "Ġvex": 5949,
    "Ġfactor": 19013,
    "f": 74,
    "Ġeating": 8136,
    "Ġwithdra": 6398,
    "gardiner": 12295,
    "Ġfoolish": 5980,
    "Ġaccents": 14213,
    "atible": 17774,
    "oved": 5215,
    "Ġmarshy": 20221,
    "rich": 11520,
    "Ġpince": 21474,
    "Ġcou": 5288,
    "concealed": 25118,
    "subsided": 25832,
    "arranged": 19321,
    "passing": 14814,
    "ray": 2436,
    "cient": 4570,
    "Ġcultiv": 13559,
    "Ġexceptions": 13233,
    "Ġincurable": 22556,
    "Ġcried": 1488,
    "Ġcomplying": 18585,
    "accurately": 25862,
    "then": 2051,
    "engaged": 7451,
    "last": 3806,
    "Ġrolls": 8334,
    "proved": 11991,
    "ortunity": 4404,
    "Ġscheming": 23272,
    "inferior": 12398,
    "Ġyore": 21782,
    "Ġunwell": 22017,
    "Ġdefinition": 14408,
    "single": 10129,
    "Ġerrors": 2595,
    "mut": 17597,
    "allah": 5839,
    ");": 7329,
    "Ġprotruding": 16661,
    "white": 4603,
    "rically": 15420,
    "Ġupbraiding": 26228,
    "eks": 4729,
    "Ġnantucketers": 9898,
    "hind": 20896,
    "Ġallude": 12786,
    "ology": 1497,
    "26": 10076,
    "ulates": 14058,
    "Ġrehears": 15704,
    "Ġconditions": 8307,
    "Ġdefe": 21839,
    "Ġspeak": 2228,
    "Ġaustralia": 15236,
    "arpo": 1752,
    "antucket": 2642,
    "Ġengland": 3860,
    "sustained": 20571,
    "analy": 17840,
    "Ġappellation": 22226,
    "Ġgreedy": 3054,
    "daughters": 13469,
    "ethe": 9679,
    "written": 7995,
    "Ġconve": 5455,
    "Ġdoubling": 23321,
    "Ġscholar": 26112,
    "gs": 7337,
    "Ġgag": 21596,
    "wretchedness": 17255,
    "faces": 13723,
    "Ġbound": 3522,
    "Ġable": 3080,
    "Ġrecomm": 4996,
    "uncomfortable": 18163,
    "olets": 21010,
    "Ġintensity": 10019,
    "ufact": 10735,
    "Ġanomalous": 25638,
    "Ġeverything": 3155,
    "Ġhammers": 13244,
    "otam": 21802,
    "Ġaddressing": 11166,
    "trying": 15441,
    "Ġpeeping": 16131,
    "aguy": 21914,
    "Ġunfrequently": 20741,
    "Ġmagnific": 16322,
    "Ġsnake": 12065,
    "Ġdraughts": 20224,
    "Ġgnawed": 25168,
    "Ġjourney": 3882,
    "Ġfinger": 5274,
    "Ġscratching": 20372,
    "Ġjamming": 17267,
    "Ġcult": 8786,
    "tart": 21070,
    "Ġrocked": 12861,
    "Ġfrigates": 25707,
    "fra": 8375,
    "Ġfejee": 18354,
    "wood": 5898,
    "Ġdoxology": 22248,
    "Ġgirls": 4278,
    "Ġspilling": 22141,
    "Ġrash": 10900,
    "boil": 18999,
    "Ġdefined": 11902,
    "Ġstraps": 19312,
    "Ġbelfry": 26440,
    "iogn": 20923,
    "landlord": 9843,
    "Ġauthors": 10418,
    "grained": 20885,
    "Ġimmortal": 8018,
    "Ġstrand": 11832,
    "speech": 10669,
    "Ġrequest": 6051,
    "Ġhistor": 3391,
    "lev": 1238,
    "Ġgib": 13968,
    "Ġdangerous": 6615,
    "Ġmason": 10160,
    "ery": 1268,
    "diligence": 26111,
    "Ġshirr": 18232,
    "Ġtakings": 20575,
    "Ĭ": 237,
    "Ġcontain": 1555,
    "Ġtelescopes": 25691,
    "dington": 12070,
    "Ġsquee": 7929,
    "apple": 22845,
    "Ġblades": 11899,
    "ir": 378,
    "be": 668,
    "inement": 11560,
    "Ġrandomly": 1920,
    "Ġvisited": 5948,
    "linked": 17595,
    "Ġancest": 12620,
    "fav": 6648,
    "Ġwrapped": 8342,
    "Ġhus": 3091,
    "tumbled": 21093,
    "oid": 3124,
    "tures": 21072,
    "fee": 12886,
    "none": 6961,
    "Ġtired": 9152,
    "Ġforward": 1836,
    "avor": 14279,
    "Ġfishy": 16526,
    "mentioned": 10626,
    "Ġcustoms": 19655,
    "Ġborder": 10172,
    "Ġcows": 15557,
    "Ġimmersed": 19488,
    "airs": 2220,
    "Ġpocket": 4899,
    "Ġascend": 9963,
    "Ġmanoir": 22335,
    "Ġrenders": 13287,
    "Ġrevelations": 25224,
    "ordinary": 4408,
    "trap": 24334,
    "Ġgases": 21605,
    "Ġseat": 4949,
    "iation": 7342,
    "Ġstanding": 2999,
    "rippling": 24712,
    "ret": 1477,
    "Ġ[_": 15464,
    "Ġgunw": 6213,
    "Ġconstructed": 9389,
    "locked": 7678,
    "am": 367,
    "ituted": 13876,
    "Ġbumps": 21395,
    "Ġflattened": 26049,
    "incing": 15488,
    "Ġivory": 4476,
    "Ġinsisted": 12050,
    "Ġmitigates": 3052,
    "Ġhonestly": 19975,
    "Ġfairness": 9897,
    "Ġpredefined": 20720,
    "tain": 559,
    "Ġspleen": 26423,
    "Ġaddition": 1144,
    "tiger": 13800,
    "Ġsweetheart": 19398,
    "hosmer": 25903,
    "Ġcontribut": 12865,
    "attain": 21264,
    "Ġclimb": 15083,
    "means": 9789,
    "Ġmast": 2899,
    "indul": 22374,
    "plex": 708,
    "Ġslabs": 13065,
    "Ġack": 5622,
    "odecimo": 11446,
    "Ġcommons": 22677,
    "ignomin": 23268,
    "Ġply": 21456,
    "Ġimputed": 12814,
    "Ġgaol": 19570,
    "Ġexhibition": 14960,
    "belt": 24040,
    "Ġadmon": 15872,
    "osoever": 17346,
    "Ġcitizens": 25440,
    "Ġtore": 6531,
    "vit": 13804,
    "Ġstabbing": 20306,
    ".âĢĶâĢľ": 20749,
    "Ġcables": 15562,
    "Ġunfaltering": 24114,
    "Ġnaught": 8128,
    "Ġstash": 18070,
    "emorial": 10246,
    "Ġbec": 1348,
    "Ġwhispered": 5338,
    "Ġgrizz": 10355,
    "Ġrumors": 11323,
    "Ġrumours": 24599,
    "ables": 7891,
    "Ġcomposedly": 25184,
    "intellect": 18824,
    "Ġfagged": 17884,
    "leful": 17844,
    "Ġstr": 757,
    "Ġconvince": 14644,
    "Ġblotches": 25315,
    "Ġannounced": 9037,
    "Ġcourtiers": 24138,
    "Ġbosom": 6938,
    "Ġdisplaying": 16968,
    "Ġdiscuss": 9477,
    "Ġcurses": 13027,
    "Ġthrilling": 19751,
    "generosity": 23788,
    "iff": 3908,
    "Ġstigma": 25792,
    "Ġappearing": 9844,
    "rudent": 6482,
    "iform": 2200,
    "resist": 8276,
    "½": 126,
    "Ġconvolutions": 21811,
    "asses": 7017,
    "Ġfolded": 7767,
    "Ġassuring": 13068,
    "achusetts": 20712,
    "flying": 13724,
    "Ġsixteen": 8283,
    "eral": 9162,
    "justice": 7958,
    "Ġglobules": 26590,
    "instr": 12536,
    "Ġvalley": 5851,
    "Ġhercules": 14130,
    "Ġanswers": 7071,
    "Ġbeseeching": 26312,
    "roofed": 26185,
    "adieu": 26202,
    "Ġoct": 10161,
    "Ġexquisitely": 20205,
    "Ġprofoundly": 16861,
    "Ġaddress": 2269,
    "Ġincrust": 22554,
    "Ġbreeding": 14524,
    "owder": 8450,
    "Ġbuy": 8300,
    "compl": 6872,
    "Ġconvergence": 975,
    "Ġcrown": 5289,
    "moid": 2449,
    "Ġunwaning": 24830,
    "Ġsubterraneous": 20268,
    "mured": 6959,
    "Ġnobler": 14178,
    "Ġemploys": 19434,
    "bug": 17495,
    "Ġattic": 16102,
    "Ġdreading": 23800,
    "Ġmanned": 9274,
    "Ġhover": 15624,
    "combined": 20323,
    "Ġdeserved": 7736,
    "hampshire": 23266,
    "Ġfamiliarity": 16731,
    "Ġcaptain": 1603,
    "Ġmounted": 7832,
    "ometer": 19328,
    "Ġreceptacle": 23195,
    "Ġsympathising": 24299,
    "iven": 1239,
    "istical": 8491,
    "ously": 2490,
    "declaration": 25176,
    "slept": 17172,
    "prev": 12873,
    "articulate": 17398,
    "Ġsalvation": 14760,
    "Ġthrees": 23404,
    "Ġsitting": 3608,
    "Ġbells": 19604,
    "suff": 4961,
    ".": 18,
    "ively": 1280,
    "Ġheroism": 24544,
    "Ġreliable": 18779,
    "utch": 21589,
    "Ġostentatious": 25737,
    "Ġtranced": 18422,
    "Ġintimately": 24801,
    "Ġcoolly": 9775,
    "Ġscold": 10952,
    "Ġbrotherly": 16531,
    "Ġlabeled": 3720,
    "Ġdoubtless": 6196,
    "macy": 18805,
    "Ġoblige": 10491,
    "Ġsurtout": 23469,
    "Ġroad": 3883,
    "urns": 10216,
    "Ġleagues": 9226,
    "parsee": 14513,
    "Ġupper": 5090,
    "atching": 8202,
    "icip": 6389,
    "Ġyes": 2686,
    "Ġinsincere": 26601,
    "Ġsluggishly": 25892,
    "Ġexcellent": 4237,
    "roqu": 21537,
    "Ġtort": 5902,
    "Ġovertake": 15976,
    "Ġsolicitude": 10043,
    "Ġsammy": 24933,
    "Ġere": 3688,
    "print": 23814,
    "knives": 14916,
    "Ġdistressing": 12223,
    "ception": 6563,
    "Ġmartin": 25437,
    "precedented": 15178,
    "%": 9,
    "chess": 16576,
    "ripp": 6404,
    "Ġoverpower": 12848,
    "Ġmystic": 7503,
    "Ġdisturbing": 19949,
    "oquence": 11388,
    "Ġspeeches": 22665,
    "ena": 11571,
    "utted": 15665,
    "always": 5708,
    "-": 17,
    "Ġdisobedience": 22539,
    "Ġparaph": 22124,
    "thrill": 25657,
    "Ġlens": 8439,
    "Ġoperation": 12003,
    "opened": 7913,
    "Ġlane": 5627,
    "ifted": 4494,
    "ade": 881,
    "Ġbefriend": 18084,
    "Ġmeridians": 17358,
    "backs": 9394,
    "alously": 15633,
    "Ġtormenting": 15108,
    "Ġcomfortably": 16617,
    "egyptians": 25899,
    "inkles": 7425,
    "flinging": 20870,
    "Ġfasten": 11134,
    "Ġmat": 1145,
    "Ġadventure": 5981,
    "Ġagon": 10323,
    "astes": 11743,
    "Ġ1869": 19387,
    "Ġbrimstone": 25687,
    "they": 1878,
    "Ġforbe": 8459,
    "Ġcharger": 19005,
    "Ġcrane": 23442,
    "Ġforesaw": 19128,
    "beating": 22493,
    "Ġtheoretic": 23313,
    "fleece": 19951,
    "Ġuncontrollable": 25815,
    "Ġunlim": 18251,
    "Ġno": 511,
    "Ġmartyr": 26362,
    "Ġevidently": 6759,
    "Ġremaining": 6189,
    "pur": 7806,
    "shattered": 22458,
    "hamlet": 23264,
    "cigar": 26125,
    "Ġcre": 889,
    "lies": 15385,
    "itatingly": 25278,
    "Ġsteam": 9356,
    "usually": 10287,
    "Ġwhilst": 9221,
    "reject": 21239,
    "Ġcelestial": 10070,
    "soles": 18690,
    "fol": 4863,
    "Ġlighten": 23261,
    "etuous": 21586,
    "acious": 5562,
    "altering": 12646,
    "Ġconceive": 8463,
    "retrie": 18926,
    "chers": 11319,
    "Ġfring": 11129,
    "pped": 1997,
    "rogress": 21539,
    "Ġbald": 16210,
    "pleasing": 14745,
    "Ġmirror": 12382,
    "globe": 25145,
    "ceased": 21629,
    "idays": 21774,
    "hitherto": 17286,
    "Ġresc": 4507,
    "Ġsales": 12813,
    "Ġuninter": 18244,
    "Ġsurpasses": 25269,
    "Ġmain": 807,
    "Ġcontention": 22430,
    "Ġelij": 8912,
    "Ġagain": 813,
    "isions": 6131,
    "Ġborders": 15576,
    "next": 5892,
    "Ġflooded": 24962,
    "roar": 17955,
    "Ġgover": 2461,
    "young": 7320,
    "accompl": 9883,
    "theories": 18081,
    "Ġmoulton": 17438,
    "Ġhospital": 15042,
    "Ġmark": 2328,
    "Ġcoals": 16079,
    "Ġflannel": 26579,
    "lengths": 24847,
    "Ġapproximates": 2417,
    "powers": 25411,
    "Ġdelic": 4132,
    "Ġchag": 15935,
    "Ġheartily": 6889,
    "reputation": 15518,
    "Ġremembr": 24173,
    "Ġnursery": 19753,
    "Ġnosegay": 24195,
    "ouri": 21450,
    "izz": 7615,
    "ration": 2003,
    "fed": 11490,
    "Ġbreak": 2867,
    "Ġbulkhead": 24511,
    "Ġdirt": 15598,
    "iless": 10284,
    "Ġchief": 3380,
    "Ġskip": 1843,
    "Ġsoap": 14133,
    "Ġsuffered": 5649,
    "Ġdenying": 14660,
    "Ġisinglass": 21806,
    "Ġelastic": 4362,
    "Ġexcell": 10419,
    "Ġnotable": 18223,
    "Ġperennial": 22699,
    "Ġburke": 19253,
    "compassion": 12372,
    "Ġasks": 5115,
    "visitors": 13352,
    "usions": 6160,
    "Ġcol": 1063,
    "Ġoutfits": 22325,
    "Ġbruited": 25774,
    "Ġq": 1086,
    "Ġrele": 2915,
    "wretch": 17710,
    "Ġsyntax": 958,
    "aping": 8194,
    "Ġinfl": 6892,
    "Ġsunda": 13546,
    "Ġleviathans": 8282,
    "exertion": 16020,
    "seas": 14036,
    "Ġbridges": 24683,
    "Ġaffirmative": 15226,
    "Ġafresh": 18625,
    "Ġunluck": 8486,
    "Ġslaugh": 18940,
    "Ġtouched": 6001,
    "Ġcause": 2410,
    "Ġ150": 22829,
    "drawing": 10489,
    "Ġoppression": 23655,
    "Ġdented": 17893,
    "erc": 5905,
    "Ġmimic": 3143,
    "Ġconcocted": 26300,
    "Ġfeeds": 16437,
    "Ġcurving": 16250,
    "Ġdist": 678,
    "arctic": 12616,
    "âĢĿ--": 21820,
    "inity": 5693,
    "Ġconquer": 14030,
    "centred": 25020,
    "<EOS>": 2,
    "Ġdoll": 10815,
    "spirited": 19756,
    "Ġholmes": 1309,
    "Ġenjoyment": 7299,
    "estate": 12827,
    "Ġbakers": 17868,
    "Ġthinks": 6170,
    "Ġfrowning": 13626,
    "against": 5871,
    "Ġcomplain": 6686,
    "haps": 1672,
    "alyards": 18770,
    "deser": 10481,
    "Ġpun": 4588,
    "Ń": 260,
    "Ġglory": 6065,
    "Ġmadly": 16487,
    "pronounced": 12350,
    "Ġscra": 5842,
    "determine": 19947,
    "favour": 9552,
    "Ġlaughing": 5339,
    "treatment": 20415,
    "nurs": 21001,
    "Ğ": 223,
    "iment": 2814,
    "Ġdecanter": 22448,
    "Ġbegone": 11920,
    "bloom": 24690,
    "laughed": 20284,
    "shortly": 12263,
    "Ġfound": 1248,
    "Ġunass": 14116,
    "Ġmourning": 13481,
    "Ġfest": 10806,
    "Ġterminating": 23514,
    "sixteen": 24854,
    "stre": 5451,
    "âĢĻ,": 14075,
    "Ġassu": 21901,
    "contracting": 19296,
    "cri": 17508,
    "Ġlexicon": 25975,
    "ssing": 3812,
    "Ġunob": 22015,
    "Ġbetray": 7441,
    "poke": 18800,
    "iature": 8745,
    "Ġswung": 6449,
    "Ġdeposition": 18612,
    "Ġentangled": 10346,
    "eng": 1489,
    "occupation": 15059,
    "Ġmonosyllable": 20728,
    "Ġear": 1424,
    "Ġtendency": 11331,
    "Ġvenom": 24241,
    "string": 15690,
    "Ġbake": 21385,
    "Ġinjured": 9042,
    "Ġresentful": 24632,
    "Ġairs": 14512,
    "Ġcompanion": 3647,
    "Ġgirdled": 19161,
    "Ġimpertin": 6932,
    "inridge": 11563,
    "Ú": 155,
    "Ġviewed": 10465,
    "Ġhousings": 21496,
    "explaining": 23147,
    "Ġtwelve": 4963,
    "Ġpull": 5152,
    "plicable": 10259,
    "ton": 1725,
    "Ġdisengaged": 12895,
    "Ġattempts": 10493,
    "recol": 10153,
    "blooded": 20026,
    "Ġdarkness": 4276,
    "Ġvol": 4187,
    "jep": 20928,
    "Ġlongitude": 11013,
    "scream": 11078,
    "Ġimpossibility": 20649,
    "gged": 3781,
    "heaven": 8053,
    "directed": 20408,
    "capting": 24044,
    "Ġriver": 5411,
    "Ġclue": 7021,
    ":": 30,
    "Ġfaculties": 14961,
    "och": 21003,
    "Ġschedu": 1823,
    "Ġinstituted": 18702,
    "Ġproves": 14041,
    "Ġeigen": 4882,
    "Ġboxed": 24360,
    "Ġaffect": 1385,
    "mother": 5480,
    "Ġdetain": 14176,
    "causing": 25519,
    "harbors": 20151,
    "not": 909,
    "Ġtrooped": 24900,
    "Ġvagabond": 20206,
    "Ġtelegraph": 25584,
    "enances": 10156,
    "neat": 22466,
    "chains": 9688,
    "bare": 12445,
    "Ġbarn": 11590,
    "Ġtempor": 2364,
    "view": 5896,
    "Ġsoft": 1460,
    "Ġfrequ": 3327,
    "Ġdishonoured": 20394,
    "Ġpresumed": 10547,
    "Ġunspeakably": 25173,
    "Ġsuff": 1305,
    "slow": 7810,
    "rugged": 6848,
    "Ġsubl": 7234,
    "Ġherself": 1569,
    "Ġphysiognomically": 25613,
    "Ġmeadow": 17154,
    "pictures": 15094,
    "Ġmorsel": 20680,
    "Ġahab": 1217,
    "Ġbelrive": 18833,
    "erness": 6434,
    "Ġwent": 1539,
    "time": 3146,
    "Ġruddy": 17128,
    "Ġpips": 9850,
    "ropy": 1103,
    "Ġdictionary": 15116,
    "Ġassertion": 13492,
    "Ġinstead": 2788,
    "Ġglossy": 15231,
    "agged": 9240,
    "Ġcoins": 11823,
    "Ġkneel": 14809,
    "rece": 21237,
    "Ġconspicuous": 13606,
    "Ġnur": 5710,
    "Ġcompleted": 9000,
    "arson": 22751,
    "Ġtiny": 11555,
    "conjectured": 25182,
    "orously": 8420,
    "asmuch": 10197,
    "Ġintelligences": 12836,
    "Ġmoul": 15548,
    "Ġcontinuation": 22920,
    "cheerful": 13578,
    "Ġchanges": 2284,
    "Ġpugn": 21483,
    "rigible": 24932,
    "Ġequival": 4784,
    "Ġjoppa": 12041,
    "Ġexpect": 2303,
    "Ġruin": 6056,
    "Ġcomputing": 2219,
    "Ġsquat": 14371,
    "Ġbacked": 12930,
    "Ġwatch": 2742,
    "Ġsnuff": 7992,
    "Ġnightmare": 18921,
    "Ġgaz": 4043,
    "Ġsubject": 2464,
    "Ġrouted": 24908,
    "Ġprime": 10406,
    "ot": 346,
    "Ġfeathers": 15123,
    "Ġ44": 16681,
    "whosoever": 22244,
    "rodden": 21538,
    "Ġcount": 1815,
    "Ġmoist": 9288,
    "come": 2375,
    "otently": 21804,
    "Ġincreases": 3799,
    "firm": 10700,
    "Ġdodging": 19889,
    "warrior": 24797,
    "Ġchamber": 6214,
    "Ġacceptance": 14830,
    "deaux": 22152,
    "Ġjudging": 16597,
    "thodox": 21992,
    "Ġthomas": 17950,
    "lest": 5290,
    "islands": 21379,
    "Ġfritters": 23258,
    "Ġsquires": 16186,
    "influence": 13581,
    "irty": 4049,
    "Ġroyals": 19535,
    "ortunities": 15944,
    "vate": 21112,
    "Ġwaggish": 25435,
    "rical": 11521,
    "Ġsister": 1476,
    "50": 6784,
    "Ġpalpable": 15209,
    "Ġplead": 14458,
    "rosings": 15648,
    "Ġfright": 3800,
    "Ġsnatches": 16547,
    "Ġjoining": 13167,
    "Ġblasphe": 17410,
    "Ġclim": 8196,
    "Ġelapsed": 7653,
    "ornament": 23492,
    "Ġethics": 15465,
    "Ġcircles": 7967,
    "Ġrichness": 19313,
    "Ġlunch": 13528,
    "Ġdecayed": 22828,
    "Ġignited": 25072,
    "Ġgidd": 25784,
    "itions": 4146,
    "ence": 393,
    "reigned": 21245,
    "uv": 6230,
    "Ġscreamed": 9527,
    "Ġextant": 18679,
    "capital": 15092,
    "declined": 25175,
    "Ġequivalent": 4803,
    "aker": 3666,
    "Ġdebated": 9043,
    "sof": 17659,
    "uger": 21106,
    "Ġrefreshment": 17242,
    "cob": 10089,
    "Ġafloat": 9311,
    "Ġsighs": 22712,
    "Ġconven": 6152,
    "stern": 8446,
    "Ġoctober": 17229,
    "Ġreach": 4046,
    "Ġcurrents": 13028,
    "Ġmomentarily": 22816,
    "moran": 24154,
    "Ġgreenness": 23769,
    "Ġoutbreak": 22321,
    "Ġowes": 20088,
    "Ġspade": 9262,
    "doom": 23380,
    "?âĢĿâĢĶ": 12901,
    "message": 17375,
    "Ġheel": 9687,
    "Ġcreations": 18686,
    "·": 120,
    "gloomy": 25147,
    "Ġdifficulties": 11227,
    "Ġliveliness": 13646,
    "Ġbrightly": 13228,
    "Ġincognita": 26553,
    "Ġfrog": 23925,
    "Ġberm": 21386,
    "Ġscandalous": 24880,
    "measured": 19993,
    "creatures": 7517,
    "Ġdistraction": 22509,
    "Ġdexterous": 15152,
    "Ġhysterics": 26094,
    "Ġreproachfully": 25252,
    "ige": 12685,
    "Ġwhile": 607,
    "Ġgarn": 13966,
    "Ġliberated": 19669,
    "Ġremonstr": 16165,
    "column": 19331,
    "slackened": 26095,
    "opard": 9294,
    "._": 3221,
    "olog": 1046,
    "Ġgranting": 18738,
    "Ġbusied": 19066,
    "Ġpolitical": 19225,
    "Ġfrightful": 7735,
    "Ġoverboard": 6045,
    "Ġdepart": 4657,
    "Ġattempted": 8001,
    "Ġremembered": 5277,
    "bree": 15318,
    "going": 6314,
    "founded": 16715,
    "Ġtener": 21166,
    "Ġwindings": 18911,
    "safie": 20351,
    "âĢĶâĢľ_": 13207,
    "injustice": 17739,
    "Ġdough": 8422,
    "Ġbackground": 18649,
    "itig": 1331,
    "Ġtransplanted": 22445,
    "Ġath": 15805,
    "Ġcolder": 22860,
    "Ġhappening": 14386,
    "scratch": 26044,
    "Ġupheld": 22156,
    "Ġclamped": 18427,
    "Ġdining": 6977,
    "Ġdiscoverers": 26037,
    "Ġmainz": 22657,
    "Ġperceptibly": 25822,
    "Ġ40": 14771,
    "Ġmerest": 14034,
    "Ġbourgh": 5069,
    "cottagers": 20051,
    "enge": 21283,
    "Ġswift": 3672,
    "Ġpipes": 9851,
    "adding": 21765,
    "ernsey": 8905,
    "Ġbeneficial": 23934,
    "Ġconvalescence": 23748,
    "Ġmassa": 19457,
    "Ġcareful": 2611,
    "express": 4896,
    "Ġdiscol": 12958,
    "ez": 5683,
    "family": 7323,
    "Ġseated": 4542,
    "gorge": 22336,
    "unavoid": 14065,
    "Ġinputs": 845,
    "pointing": 12229,
    "Ġthankful": 14741,
    "Ġafter": 870,
    "withstand": 23030,
    "maid": 8554,
    "Ġfor": 340,
    "Ġstranger": 3489,
    "Ġkrem": 9729,
    "despicable": 24638,
    "Ġpillow": 10041,
    "Ġmou": 13858,
    "Ġpasture": 14545,
    "Ġoutward": 7904,
    "Ġourselves": 5127,
    "Ġrussian": 14353,
    "soon": 4028,
    "thankful": 16808,
    "aze": 10078,
    "Ġ1": 1015,
    "Ġweights": 898,
    "nect": 663,
    "filled": 9597,
    "etw": 408,
    "Ġupp": 13995,
    "regularization": 3518,
    "Ġegg": 8823,
    "Ġsubterranean": 13614,
    "Ġamaz": 5385,
    "helm": 12176,
    "Ġradney": 6775,
    "mbly": 9796,
    "Ġplanned": 14755,
    "Ġalgorithm": 768,
    "for": 966,
    "Ġreturns": 11930,
    "standing": 5558,
    "kers": 7133,
    "Ġnovember": 11753,
    "rades": 8592,
    "ls": 1291,
    "Ġpunctual": 17140,
    "Ġcourses": 10413,
    "ctor": 13963,
    "Ġgirl": 3085,
    "Ġoccurred": 4462,
    "Ġsprout": 24092,
    "Ġriggers": 24158,
    "tomorrow": 25915,
    "Ġamidst": 9497,
    "fes": 20853,
    "Ġfingertips": 24020,
    "Ġjohnson": 18410,
    "mits": 13759,
    "Ġcordon": 24394,
    "approach": 24834,
    "Ġobeyed": 12221,
    "Ġbeef": 6829,
    "Ġrepay": 19083,
    "Ġempires": 19077,
    "Ġreception": 9842,
    "ript": 4151,
    "Ġsickness": 10541,
    "Ġworms": 25217,
    "Ġyoung": 1509,
    "Ġshrine": 19534,
    "Ġdiscovers": 4428,
    "Ġloses": 15877,
    "Ġenchanting": 17040,
    "Ġchange": 1993,
    "cure": 11476,
    "slipping": 25529,
    "Ġinsens": 8277,
    "Ġgravesend": 15220,
    "Ġdelivery": 18975,
    "lose": 12888,
    "Ġcheating": 16370,
    "oking": 4607,
    "loved": 14253,
    "adjust": 21763,
    "arling": 10816,
    "Ġconvent": 11671,
    "Ġmy": 412,
    "laz": 15389,
    "Ġeventually": 8620,
    "Ġunaccountable": 7886,
    "bask": 20778,
    "Ġintimacy": 8704,
    "pit": 3983,
    "control": 16546,
    "Ġsucc": 12792,
    "Ġinfiltrated": 23285,
    "at": 268,
    "stumps": 21662,
    "Ġsentences": 2679,
    "Ġmartha": 16266,
    "Ġwoke": 21292,
    "Ġright": 1507,
    "Ġdispute": 16060,
    "ĠĠĠĠĠĠĠĠĠĠĠĠĠĠĠĠĠĠĠĠĠĠĠĠĠĠĠĠĠĠĠĠĠĠĠ": 19260,
    "privilege": 25264,
    "Ġbethink": 12383,
    "compasses": 19461,
    "Ġpatches": 4236,
    "score": 18852,
    "Ġrebounds": 25968,
    "Ġfra": 1876,
    "/(": 2983,
    "Ġreadily": 5254,
    "Ġtashtego": 4486,
    "Ġconge": 15750,
    "cig": 17506,
    "Ġspain": 15884,
    "coward": 13704,
    "ivation": 3108,
    "Ġowing": 6005,
    "furnish": 25339,
    "spiracle": 22744,
    "isol": 17848,
    "everything": 6325,
    "writ": 16556,
    "Ġbulge": 23860,
    "Ġnourishment": 15196,
    "ê": 171,
    "Ġdick": 3501,
    "versed": 9828,
    "Ġtried": 3651,
    "Ġforgotten": 5679,
    "Ġperceive": 6700,
    "Ġblush": 14406,
    "Ġsteersman": 13045,
    "clump": 23158,
    "94": 4804,
    "Ġtim": 4579,
    "Ġme": 352,
    "par": 1850,
    "irwin": 8470,
    "Ġwhat": 598,
    "Ġslender": 11944,
    "Ġsavagely": 26325,
    "Ġexasper": 8468,
    "missionary": 24616,
    "Ġantichronical": 26611,
    "Ġfailed": 6673,
    "Ġsquaw": 22842,
    "Ġchaff": 18384,
    "Ġquench": 22423,
    "Ġmustering": 18666,
    "Ġreigned": 13990,
    "command": 6577,
    "Ġmoonshine": 19600,
    "given": 8377,
    "alid": 13938,
    "ades": 5631,
    "withstanding": 8948,
    "Ġcolourless": 19572,
    "Ġfour": 2214,
    "Ġspec": 1262,
    "tent": 21067,
    "grieved": 17320,
    "yed": 3272,
    "Ġsimon": 5172,
    "male": 15392,
    "admirably": 24947,
    "Ġmaker": 15547,
    "Ġportable": 19373,
    "light": 3018,
    "warm": 8102,
    "Ġhedgehogs": 25395,
    "weaknesses": 26031,
    "aring": 1478,
    "Ġfanciful": 24787,
    "Ġjealously": 24126,
    "waters": 11335,
    "Ġobstetrics": 24679,
    "Ġmount": 7361,
    "isons": 17851,
    "tubes": 25212,
    "Ġcobbler": 25831,
    "Ġlust": 9200,
    "drunk": 24660,
    "ilted": 21726,
    "ċ": 204,
    "Ġhopeless": 7462,
    "Ġintercept": 14272,
    "Ġapr": 12537,
    "hundreds": 25076,
    "Ġoffers": 12951,
    "Ġherring": 14129,
    "Ġlistener": 16477,
    "Ġpoison": 7218,
    "Ġlining": 13954,
    "Ġslit": 13061,
    "Ġengineering": 3027,
    "Ġrepent": 9866,
    "Ġsentiment": 6589,
    "unicorn": 21893,
    "ha": 3981,
    "Ġergo": 25032,
    "Ġchall": 10946,
    "Ġjurors": 17347,
    "children": 9058,
    "Ġchristians": 13312,
    "Ġunable": 4951,
    "riet": 18182,
    "Ġmusic": 5269,
    "Ġpoising": 22594,
    "aited": 12439,
    "Ġrambles": 17187,
    "Ġsalutation": 12401,
    "Ġunfrequent": 24111,
    "hester": 9634,
    "antial": 8489,
    "owards": 4595,
    "Ġintrodu": 1924,
    "accusations": 23601,
    "Ġalighted": 18106,
    "revenge": 13845,
    "masculine": 24387,
    "delay": 16697,
    "wid": 10137,
    "Ġmusical": 23896,
    "crippled": 26386,
    "Ġsuspense": 9421,
    "Ġladies": 3195,
    "historian": 25735,
    "sheltered": 25586,
    "conclusions": 25673,
    "Ġapprised": 18362,
    "utional": 17986,
    "bildad": 9589,
    "Ġimmaculate": 19489,
    "Ġface": 1720,
    "vapor": 25756,
    "æ": 167,
    "Ġunsh": 14117,
    "Ġbed": 2152,
    "Ġcondesc": 7181,
    "Ġimportance": 4901,
    "phia": 22759,
    "Ġdames": 23477,
    "Ġhatch": 7848,
    "wet": 15455,
    "bank": 10082,
    "Ġtoes": 10831,
    "consp": 18505,
    "dripping": 16907,
    "Ġyer": 15738,
    "Ġxxi": 24476,
    "Ġpist": 12621,
    "Ġabrid": 22276,
    "Ġtags": 20574,
    "Ġsnatch": 14641,
    "Ġcollected": 2610,
    "rut": 8092,
    "Ġstarbuck": 2194,
    "acute": 22599,
    "wish": 8100,
    "Ġincluded": 8959,
    "throwing": 11707,
    "Ġanatomical": 15080,
    "Ġfam": 1586,
    "barrow": 15324,
    "Ġpurest": 14942,
    "Ġunrel": 14698,
    "dil": 11480,
    "con": 653,
    "Ġgenerally": 4156,
    "Ġfaintness": 24571,
    "Ġquebec": 24134,
    "Ġdom": 2684,
    "carb": 20812,
    "Ġenabled": 9299,
    "Ġmetaphys": 16409,
    "Ġlove": 2052,
    "exper": 8882,
    "Ġfast": 1715,
    "wind": 4251,
    "Ġstab": 10864,
    "Ġanaly": 1107,
    "unvarying": 21891,
    "Ġobliterated": 17408,
    "vered": 4832,
    "Ġclosing": 11776,
    "Ġunf": 4089,
    "Ġdaughter": 2868,
    "gypt": 8261,
    "Ġmeasurement": 19426,
    "Ġsequences": 1748,
    "Ġcommunicate": 10580,
    "Ġfaded": 10811,
    "little": 3350,
    "Ġsounds": 5190,
    "edded": 8557,
    "Ġforenoon": 19127,
    "Ġfairy": 14629,
    "rin": 10124,
    "Ġenraptured": 26502,
    "stately": 18024,
    "Ġmurder": 4279,
    "smoke": 17225,
    "Ġthoroughly": 8348,
    "Ġsubsets": 2343,
    "feelings": 5674,
    "Ġfreshly": 23990,
    "Ġpaw": 12626,
    "Ġflank": 8229,
    "jewel": 20349,
    "oundering": 11750,
    "sh": 645,
    "abode": 21795,
    "Ġnovelist": 24776,
    ")âĢĶ": 20744,
    "Ġfaces": 6009,
    "Ġsour": 21219,
    "soup": 21061,
    "Ġportents": 14681,
    "Ġparade": 18302,
    "Ġtu": 6968,
    "Ġcomplex": 745,
    "thereby": 14450,
    "Åĵuvre": 25888,
    "figures": 20125,
    "Ġincompetent": 25680,
    "Ġhowl": 12859,
    "crooked": 25747,
    "cating": 20804,
    "Ġhook": 6453,
    "Ġawed": 23587,
    "Ġspit": 22128,
    "olen": 9703,
    "Ġtimidly": 11340,
    "ignantly": 23267,
    "additional": 20467,
    "Ġforeshad": 23456,
    "Ġcorrect": 2431,
    "Ġcolonel": 3408,
    "Ġswerve": 14440,
    "Ġbowlines": 19324,
    "call": 8726,
    "Ġrobes": 16261,
    "ute": 4643,
    "Ġenergetic": 15201,
    "Ġobject": 1395,
    "Ġdad": 12606,
    "Ġre": 317,
    "Ġmadden": 10449,
    "watson": 12248,
    "Ġdampening": 2894,
    "ameter": 2957,
    "Ġinsp": 2099,
    "Ġhappy": 2465,
    "ands": 21870,
    "romised": 14115,
    "Ġamongst": 8962,
    "Ġfamous": 5256,
    "cious": 6645,
    "toss": 22570,
    "Ġvale": 14084,
    "Ġwaste": 9237,
    "dangerous": 20243,
    "Ġstability": 1361,
    "fitted": 17546,
    "ulnerable": 18153,
    "Ġelusive": 22649,
    "Ġphaeton": 17467,
    "liament": 16221,
    "Ġcrucifix": 26080,
    "playful": 24357,
    "Ġplain": 2816,
    "Ġranged": 10260,
    "Ġinconvenient": 20013,
    "ouraged": 22855,
    "Ġdeduce": 8337,
    "tempest": 16961,
    "Ġparch": 11730,
    "Ġdug": 21433,
    "Ġshyness": 20309,
    "tone": 8766,
    "mechanically": 17303,
    "Ġocean": 3303,
    "Ġcircular": 13114,
    "Ġdair": 17891,
    "Æ": 135,
    "Ġcrying": 10788,
    "olly": 3226,
    "Ġutterance": 14766,
    "uncont": 15778,
    "chorus": 19814,
    "Ô": 149,
    "Ġbefall": 8833,
    "Ġcompacted": 23512,
    "Ġprocessing": 886,
    "Ġsailing": 5324,
    "acqu": 4844,
    "Ġskylarking": 19490,
    "Ġlucases": 9013,
    "ashtego": 4101,
    "Ġtapers": 11554,
    "Ġplun": 6282,
    "Ġsuggestion": 19710,
    "Ġacquaintance": 4131,
    "gish": 20875,
    "Ġgun": 4703,
    "Ġtranquill": 6632,
    "Ġic": 9628,
    "Ġdz": 4757,
    "studies": 25170,
    "Ġindulging": 16906,
    "Ġglitter": 25126,
    "Ġgovernor": 16492,
    "Ġsense": 3251,
    "Ġuprising": 12808,
    "Ġarchipelagoes": 14351,
    "Ġdra": 1592,
    "reached": 13844,
    "Ġsides": 4580,
    "squall": 13524,
    "consolation": 15156,
    "Ġdependence": 18626,
    "Ġpresented": 5183,
    "Ġchurned": 18386,
    "Ġsubsided": 14552,
    "oney": 3050,
    "Ġsheets": 9725,
    "Ġusher": 22216,
    "Ġmention": 2987,
    "Ġbegging": 11081,
    "Ġtherefore": 2237,
    "Ġinquirers": 24965,
    "erately": 21276,
    "Ġobeisance": 19761,
    "ack": 611,
    "Ġcolony": 18766,
    "esc": 619,
    "augment": 18831,
    "Ġindian": 4129,
    "Ġrow": 5246,
    "Ġwhittling": 20702,
    "rival": 12748,
    "down": 3473,
    "Ġseedy": 21959,
    "Ġgust": 21600,
    "Ġpaul": 12066,
    "ods": 8839,
    "Ġenlivened": 26209,
    "flo": 6115,
    "supposed": 13319,
    "Ġrelish": 14387,
    "Ġwing": 6667,
    "Ġwhirling": 12253,
    "vert": 15719,
    "omist": 21641,
    "Ġminimax": 5859,
    "Ġcomprehensiveness": 25075,
    "Ġsuddenly": 2644,
    "Ġapply": 1774,
    "Ġbeth": 9660,
    "Ġmoisture": 12363,
    "mists": 17606,
    "itement": 7835,
    "horror": 13162,
    "Ġwrite": 3824,
    "relations": 14736,
    "Ġnational": 13945,
    "bred": 11471,
    "Ġfountains": 13505,
    "Ġcheering": 11135,
    "wantonly": 25153,
    "Ġpleasures": 11144,
    "Ġparm": 15881,
    "Ġwits": 15535,
    "guinea": 16675,
    "inger": 6812,
    "Ġscuff": 15947,
    "gu": 3958,
    "Ġmiser": 18706,
    "Ġaunt": 3179,
    "tomb": 21096,
    "Ġmant": 9650,
    "Ġcertainty": 6735,
    "existence": 16018,
    "Ġhinting": 19652,
    "Ġinvite": 14566,
    "Ġrepresented": 8941,
    "Ġfathom": 17049,
    "perse": 15902,
    "insist": 23067,
    "quickness": 19853,
    "Ġlightning": 5750,
    "gates": 20874,
    "initely": 7568,
    "multiple": 15111,
    "Ġtestimony": 14479,
    "Ġforehead": 5262,
    "Ġclutches": 20021,
    "thoughts": 9938,
    "supposing": 24136,
    "Ġhanging": 5447,
    "orum": 12596,
    "levelled": 23645,
    "lit": 9608,
    "valley": 16216,
    "Ġdagger": 21440,
    "irr": 12742,
    "waistcoat": 17364,
    "85": 13685,
    "Ġrequisition": 22667,
    "approached": 13488,
    "Ġfrankenstein": 7096,
    "Ġpersecutor": 26097,
    "nue": 15400,
    "Ġrifle": 18213,
    "itage": 17818,
    "Ġniece": 5712,
    "into": 3683,
    "shook": 19858,
    "Ġhabit": 6771,
    "Ġreaches": 18034,
    "uments": 5552,
    "uity": 12522,
    "Ġchances": 9266,
    "Ġduration": 20356,
    "tarpaulins": 26407,
    "Ġoverl": 18428,
    "Ġcanted": 17833,
    "Ġanom": 12617,
    "glue": 17558,
    "bar": 7541,
    "Ġexpanse": 14293,
    "Ġrushing": 7402,
    "Ġsilly": 7686,
    "Ġseptember": 18206,
    "Ġwast": 21868,
    "deceptive": 22153,
    "ancho": 4938,
    "Ġcombined": 8549,
    "dipped": 20839,
    "separated": 20162,
    "Ġmanners": 3794,
    "ogr": 18656,
    "Ġinfant": 11964,
    "Ġwade": 17786,
    "Ġass": 1506,
    "Ġand": 295,
    "cannibals": 25585,
    "under": 3130,
    "Ġhop": 1462,
    "Ġjump": 4503,
    "Ġdeline": 16335,
    "Ġsums": 2901,
    "Ġwindigate": 18912,
    "Ġcannib": 6036,
    "Ġemerging": 24613,
    "insanity": 23071,
    "Ġsands": 14951,
    "Ġencamped": 22806,
    "Ġhorrid": 7999,
    "Ġturkish": 12266,
    "gg": 1995,
    "Ĩ": 233,
    "Ġfootfall": 14663,
    "Ġinsolence": 20256,
    "Ġwrists": 11115,
    "lue": 8510,
    "Ġtrample": 20330,
    "Ġfurrow": 22818,
    "Ġgranted": 22810,
    "Ġgallied": 19559,
    "consciously": 19628,
    "social": 11025,
    "grie": 12475,
    "Ġexhausting": 24709,
    "spades": 14338,
    "Ġepistle": 24905,
    "lakeman": 13754,
    "Ġinterlude": 16074,
    "Ġoriginally": 7303,
    "Ġcannibals": 10590,
    "cible": 20808,
    "uneasy": 23689,
    "profess": 10631,
    "utmost": 21591,
    "Ġremo": 3789,
    "Ġdetaining": 25819,
    "Ġcorrid": 9827,
    "Ġincommod": 25308,
    "aky": 18413,
    "Ġinstantaneous": 14613,
    "Ġparsonage": 7124,
    "Ġtri": 4814,
    "Ġcanopy": 18322,
    "preser": 9763,
    "Ġmidst": 7986,
    "Ġdifference": 1490,
    "Ġelsewhere": 7712,
    "Ġplays": 12042,
    "Ġresponded": 13641,
    "storied": 18027,
    "Ġpromptly": 23820,
    "Ġdischarge": 18557,
    "ber": 884,
    "Ġexcellence": 11453,
    "Ġplum": 11826,
    "Ġemergency": 25731,
    "jonah": 11499,
    "Ġtests": 8960,
    "Ġmouthfuls": 20648,
    "taste": 10132,
    "sadly": 25527,
    "misfortunes": 16758,
    "Ġsignals": 10588,
    "higher": 20410,
    "illing": 8175,
    "Ġunstructure": 2995,
    "Ġlikened": 16502,
    "hunter": 10558,
    "inctions": 17734,
    "Ġfamil": 4321,
    "personal": 24966,
    "Ġcontest": 18474,
    "Ġgoverness": 8605,
    "Ġhoof": 23356,
    "Ġnetherfield": 3933,
    "Ġused": 2058,
    "Ġrifled": 21983,
    "Ġexecutioner": 12276,
    "Ġshar": 9253,
    "Ġbenefit": 8294,
    "Ġcath": 17828,
    "Ġingratitude": 17471,
    "Ġsurmises": 17057,
    "Ġwrongfully": 24251,
    "ifling": 15787,
    "Ġcoincidences": 26365,
    "blown": 25202,
    "h": 76,
    "blocks": 25518,
    "Ġunimag": 12780,
    "stood": 4115,
    "ected": 7873,
    "permitted": 18343,
    "Ġsuperlatively": 26076,
    "Ġredundant": 16554,
    "Ġshuttle": 12131,
    "Ġimbued": 17458,
    "back": 2016,
    "Ġopinions": 9418,
    "Ġtenth": 13829,
    "Ġweeps": 24950,
    "Ġnarrow": 5086,
    "Ġtapped": 11556,
    "Ġwreak": 16819,
    "ured": 1653,
    "Ġthreads": 13121,
    "lour": 15384,
    "sleeve": 26109,
    "Ġvessels": 6756,
    "pat": 10119,
    "Ġtwos": 18661,
    "ple": 455,
    "fishermen": 17063,
    "aborate": 14025,
    "ego": 4035,
    "Ġdines": 21426,
    "harrow": 20910,
    "Ġmisty": 16543,
    "rim": 7138,
    "ners": 3271,
    "insisted": 23070,
    "hunted": 16834,
    "Ġbuttons": 12787,
    "Ġ21": 11200,
    "Ġdat": 494,
    "unerative": 21900,
    "obed": 14449,
    "rowsers": 8698,
    "ire": 495,
    "char": 3507,
    "Ġgeneric": 18454,
    "Ġparticle": 18675,
    "etics": 21584,
    "Ġthroughout": 8880,
    "Ġdoubloons": 13437,
    "write": 14649,
    "Ġaccompanied": 6780,
    "poverty": 22910,
    "04": 10682,
    "opatra": 22482,
    "Ġcongrat": 5828,
    "Ġelegant": 7532,
    "Ġhails": 21954,
    "Ġresist": 7916,
    "iciously": 17976,
    "arpaul": 14538,
    "Ġcruel": 5121,
    "Ġneighbours": 8303,
    "minutely": 19596,
    "Ġbrushed": 15575,
    "one": 616,
    "Ġbehalf": 14510,
    "inois": 17740,
    "Ġape": 21199,
    "eu": 17532,
    "Ġshaster": 22002,
    "Ġhereford": 22882,
    "guilt": 24074,
    "Ġrevisit": 21673,
    "elfth": 22373,
    "Ġcorporeally": 25729,
    "Ġconcept": 676,
    "Ġdisc": 944,
    "Ġwigwam": 11430,
    "themselves": 6541,
    "iety": 2817,
    "Ġscanning": 18401,
    "Ġsteeply": 23726,
    "Ġsins": 13840,
    "Ġimprovement": 7966,
    "Ġdrawers": 12110,
    "ounds": 4155,
    "Ġphil": 3384,
    "Ġthrills": 24542,
    "urg": 8142,
    "Ġvastly": 23863,
    "tall": 17675,
    "Ġrud": 8479,
    "Ġenhance": 3218,
    "5": 25,
    "Ġdam": 2215,
    "Ġplutarch": 22607,
    "profound": 16429,
    "Ġfeebly": 24878,
    "ounder": 11748,
    "Ġottoman": 17381,
    "Ġchuck": 8503,
    "Ġbart": 17858,
    "throt": 25660,
    "Ġbursting": 8659,
    "Ġhig": 754,
    "Ġsgd": 3128,
    "ropout": 1321,
    "erns": 8782,
    "Ġsingular": 4424,
    "Ġcandour": 14675,
    "Ġswallowed": 7944,
    "Ġfang": 21406,
    "Ġdegenerating": 25800,
    "inted": 2647,
    "raise": 18014,
    "renewed": 19707,
    "Ġbolivia": 24668,
    "Ġpat": 1782,
    "Ġdiscre": 2416,
    "belongs": 25597,
    "prodig": 16430,
    "impotence": 23763,
    "arp": 2026,
    "ricade": 13042,
    "Ġappeared": 2773,
    "Ġfedallah": 6109,
    "Ġjon": 15952,
    "othed": 16513,
    "Ġmosses": 20166,
    "aimed": 3954,
    "Ġfate": 4755,
    "Ġconfinement": 19038,
    "Ġentering": 6286,
    "send": 15426,
    "Ġsurely": 6308,
    "carpet": 25203,
    "Ġsimplest": 16336,
    "Ġbriefly": 11369,
    "Ġveteran": 17453,
    "Ġglassy": 19563,
    "line": 1444,
    "ut": 308,
    "unned": 21882,
    ";--": 8069,
    "Ġbirds": 5874,
    "Ġgrowing": 6751,
    "proposal": 18756,
    "Ġintervals": 5598,
    "copy": 5133,
    "Ġrepresentations": 1873,
    "pine": 13772,
    "Ġshipwreck": 20449,
    "omited": 21644,
    "Ġsenseless": 12083,
    "esty": 4305,
    "Ġstate": 1809,
    "Ġunconcern": 14119,
    "imodal": 17450,
    "Ġtyp": 1131,
    "Ġaberdeen": 26543,
    "Ġprogrammed": 11059,
    "spite": 16144,
    "Ġbou": 17854,
    "plied": 10258,
    "Ġretreated": 13436,
    "Ġimperilled": 19581,
    "fif": 9119,
    "ppa": 10242,
    "Ġdarted": 4759,
    "landish": 11946,
    "Ġrestrained": 16376,
    "Ġchestnuts": 24381,
    "Â£": 4813,
    "Ġadmeasurements": 26227,
    "Ġze": 8547,
    "Ġducking": 17149,
    "Ġcent": 3254,
    "pth": 2380,
    "geor": 15982,
    "Ġtwig": 11854,
    "hammer": 14491,
    "nable": 13765,
    "Ġbubbles": 11400,
    "ichever": 13960,
    "arest": 4004,
    "Ġhavoc": 15817,
    "Ġlocations": 12417,
    "Ġthereby": 7644,
    "Ġsighed": 10340,
    "Ġcott": 3711,
    "Ġcomparing": 14267,
    "acher": 6867,
    "Ġdejected": 20307,
    "ondon": 2704,
    "Ġgrasp": 4664,
    "(-": 2981,
    "Ġbat": 10797,
    "ghan": 19458,
    "Ġfellow": 2774,
    "hush": 20908,
    "Ġprogram": 12997,
    "Ġkettle": 26234,
    "engines": 18930,
    "opÃ¦": 12878,
    "ills": 1626,
    "N": 50,
    "Ġhed": 7386,
    "jury": 15377,
    "Ġfrederick": 15591,
    "resemblance": 25934,
    "Ġcomplet": 4423,
    "burg": 16775,
    "imagination": 13483,
    "invincible": 25092,
    "carried": 16713,
    "lead": 10168,
    "Ġsolving": 2481,
    "speed": 19412,
    "Ġwatery": 6297,
    "Ġhooded": 12410,
    "parlour": 16394,
    "immense": 18055,
    "Ġparacelsus": 15270,
    "plings": 11701,
    "Ġscoundrel": 13674,
    "Ġdistrustful": 25057,
    "Ġholds": 7975,
    "Ġperplexity": 2753,
    "movable": 14327,
    "ally": 530,
    "Ġparents": 6753,
    "\\": 64,
    "Ġborne": 6352,
    "Ġpersecut": 16954,
    "ilet": 12835,
    "Ġsqualls": 17022,
    "tisement": 6767,
    "shoulders": 16587,
    "Ġremarked": 3698,
    "Ġdarcy": 1342,
    "Ġwardrobe": 17228,
    "Ġtemptation": 8681,
    "Ġvulture": 17342,
    "Ġcalmed": 16272,
    "Ġpromised": 5181,
    "oard": 4810,
    "Ġwouldn": 6046,
    "housekeeper": 24103,
    "Ġhole": 6079,
    "return": 5489,
    "Ġvirgin": 7327,
    "Ġpredecessor": 26255,
    "recollection": 25349,
    "ingale": 21302,
    "willingly": 11987,
    "ampton": 18147,
    "tr": 3582,
    "Ġly": 2267,
    "onness": 21257,
    "Ġannual": 14835,
    "Ġunprotected": 22067,
    "Ġform": 1023,
    "Ġmagnetic": 17243,
    "Ġdynam": 3166,
    "desolation": 20462,
    "iciency": 9577,
    "nor": 2739,
    "Ġmainmast": 9782,
    "habit": 16193,
    "snap": 24849,
    "Ġwee": 21922,
    "official": 24915,
    "Ġprospects": 9962,
    "Ġpirates": 9076,
    "Ġdecision": 2673,
    "Ġethere": 23954,
    "familiar": 19786,
    "Ġhint": 5016,
    "gracechurch": 24582,
    "Ġpervading": 20616,
    "Ġisa": 14028,
    "Ġsavannah": 17419,
    "Ġicy": 10749,
    "Ġentreated": 9954,
    "ologist": 22852,
    "Ġthrust": 5084,
    "Ġmate": 3710,
    "Ġtower": 8319,
    "Ġaudacity": 19884,
    "Ġdisinclination": 22540,
    "ows": 1917,
    "Ġinfluences": 14868,
    "whenever": 11885,
    "snatched": 24851,
    "gabriel": 15364,
    "Ġcell": 6238,
    "avast": 8900,
    "Ġconsummation": 17428,
    "s": 87,
    "great": 3520,
    "ress": 930,
    "pole": 9336,
    "Ġrig": 4223,
    "û": 188,
    "lee": 11588,
    "Ġpersuaded": 5769,
    "seen": 2879,
    "told": 7811,
    "Ġhorror": 3776,
    "Ġgros": 14826,
    "Ġmaelstrom": 19359,
    "mediterranean": 16408,
    "Ġice": 3607,
    "knows": 19174,
    "orrah": 17877,
    "Ġprof": 2460,
    "Ġcomputer": 1196,
    "Ġbare": 6133,
    "Ġthrob": 21521,
    "Ġdilatory": 24704,
    "Ġweary": 5635,
    "droppers": 24758,
    "Ġbruised": 25773,
    "Ġencomp": 12968,
    "intment": 4721,
    "threaten": 25462,
    "Ġinaccessible": 13937,
    "oug": 432,
    "Ġfidget": 15193,
    "Ġinsince": 23682,
    "osy": 11762,
    "Ġadventurous": 16735,
    "irene": 15921,
    "Ġtalents": 15047,
    "Ġberth": 8683,
    "recognised": 15266,
    "Ġtheory": 5799,
    "slowly": 9092,
    "Ġcamp": 9167,
    "travelling": 24338,
    "Ġpossession": 5589,
    "Ġgoblets": 20522,
    "Ġpap": 8802,
    "born": 7543,
    "connect": 1295,
    "Ġ83": 24459,
    "Ġfri": 17880,
    "Ġleap": 5825,
    "Ġspermacetti": 19048,
    "either": 6791,
    "Ġshores": 8852,
    "Ġimportant": 1111,
    "goldsmith": 20150,
    "Ġfashioned": 13324,
    "Ġreliably": 22883,
    "yden": 21146,
    "Ġst": 332,
    "avings": 12027,
    "Ġdread": 3163,
    "Ġmaria": 7125,
    "Ġmerged": 19299,
    "Ġground": 2846,
    "inhab": 10759,
    "Ġcool": 5734,
    "Ġposs": 1615,
    "opy": 4458,
    "ume": 4837,
    "ored": 3898,
    "Ġsteady": 4849,
    "manifested": 20529,
    "Ġvelocity": 10623,
    "Ġunconsciously": 10008,
    "Ġnarration": 13506,
    "Ġsquatted": 25843,
    "Ġsire": 15504,
    "Ġcreative": 9833,
    "other": 1315,
    "Ġformerly": 7493,
    "Ġnecessitates": 23933,
    "Ġpile": 8425,
    "Ġroasted": 18461,
    "Ġproportional": 2523,
    "Ġsurpass": 13586,
    "ermaid": 14301,
    "Ġcedar": 15192,
    "Ġfinally": 4667,
    "necessary": 5882,
    "Ġdisaster": 12893,
    "Ġpol": 2574,
    "accompanied": 12426,
    "Ġlump": 21555,
    "Ġhoarsely": 26303,
    "amplified": 26496,
    "comp": 3819,
    "mer": 2831,
    "uer": 21103,
    "Ġexal": 10879,
    "imble": 10860,
    "mon": 2306,
    "poured": 17639,
    "solid": 16384,
    "Ġsciences": 15949,
    "Ġconfirms": 23311,
    "shri": 14237,
    "Ġrelations": 5853,
    "Ġmaids": 19694,
    "Ġtraffic": 23086,
    "Ġintroduce": 3206,
    "Ġstraggling": 23753,
    "Ġprovoke": 14829,
    "Ġsympathised": 14865,
    "nett": 16224,
    "Ġwindibank": 7256,
    "plunging": 25988,
    "Ġgifted": 17999,
    "overspreading": 26140,
    "Ġbroiled": 18910,
    "Ġharpoon": 3619,
    "Ġribbed": 16806,
    "ale": 506,
    "putation": 7625,
    "Ġoppressively": 25711,
    "pents": 11515,
    "phil": 7925,
    "Ġregression": 4410,
    "1775": 26380,
    "vener": 21114,
    "Ġflat": 8228,
    "Ġpersuasion": 10501,
    "Ġislanders": 19505,
    "develop": 13520,
    "Ġriv": 10748,
    "Ġhackluyt": 25656,
    "Ġpossible": 2582,
    "whatever": 6695,
    "Ġspire": 18307,
    "Ġ1883": 23901,
    "loud": 11503,
    "Ġrustling": 24714,
    "ooping": 21009,
    "Ġpomp": 12628,
    "Ġwon": 1667,
    "Ġembarrassment": 10629,
    "transp": 24512,
    "Ġhappiness": 2944,
    "osity": 14188,
    "Ġhoney": 12638,
    "{": 95,
    "Ġfiendish": 13331,
    "Ġwhisper": 6206,
    "Ġspires": 11734,
    "Ġjustly": 11908,
    "ureau": 10229,
    "purp": 8091,
    "icate": 9204,
    "Ġoath": 7833,
    "Ġce": 3033,
    "absolute": 17125,
    "question": 5418,
    "Ġshocked": 9404,
    "Ġfris": 23257,
    "hold": 3982,
    "beef": 18521,
    "Ġmyself": 1456,
    "Ġvincent": 15287,
    "Ġtwin": 12934,
    "horse": 8609,
    "Ġfrosted": 19806,
    "Ġsnoo": 21231,
    "follows": 24528,
    "Ġdesponding": 25869,
    "prec": 3203,
    "Ġperilously": 24507,
    "Ġrods": 9757,
    "ertain": 1210,
    "Ġmort": 3464,
    "Ġ15": 9327,
    "Ġtrappings": 23085,
    "Ġtransformers": 1129,
    "Ġsincere": 11138,
    "Ġstoop": 16314,
    "angle": 22108,
    "Ġwer": 12557,
    "Ġmabel": 17327,
    "Ġsickle": 24248,
    "brous": 19201,
    "characteristic": 24686,
    "istle": 15874,
    "warp": 17708,
    "Ġoverdone": 22363,
    "sales": 17669,
    "Ġplowdon": 26449,
    "Ġhaunt": 18198,
    "Ġtunnel": 14933,
    "anks": 3919,
    "idirection": 2411,
    "×": 152,
    "ensities": 22550,
    "Ġclasses": 4054,
    "snowy": 20286,
    "concl": 12875,
    "mighty": 9469,
    "Ġpals": 13921,
    "Ġtortured": 14927,
    "Ġstature": 10865,
    "Ġanticip": 7507,
    "Ġsemi": 11973,
    "ancy": 4394,
    "itud": 2930,
    "than": 4088,
    "ickory": 22674,
    "Ġsymbols": 2795,
    "Ġ115": 24439,
    "Ġsloop": 25931,
    "quarrel": 20018,
    "preading": 18498,
    "started": 10847,
    "Ġprophecy": 25706,
    "Ġembattled": 26290,
    "erring": 11058,
    "<MASK>": 4,
    "underneath": 23790,
    "oyed": 14368,
    "Ġingen": 9052,
    "flight": 15356,
    "Ġoceans": 7996,
    "orable": 8120,
    "iles": 2860,
    "Ġtro": 7355,
    "Ġdestiny": 8986,
    "Ġadm": 2402,
    "Ġphara": 23202,
    "Ġprocuring": 16872,
    "Ġtransmit": 10307,
    "thirty": 12768,
    "Ġdepending": 14295,
    "Ġallures": 22073,
    "bishop": 13698,
    "yingly": 23063,
    "Ġoccurring": 2790,
    "aud": 8523,
    "comprehens": 16174,
    "Ġbarrel": 23793,
    "Ġinsensible": 12329,
    "Ġwilt": 9646,
    "kilt": 4867,
    "fish": 3519,
    "Ġupright": 8495,
    "Ġhurricane": 16435,
    "Ġsorely": 17259,
    "Ġaudits": 24769,
    "Ġmuttering": 10502,
    "Ġbewil": 11660,
    "Ġcondition": 6764,
    "Ġcontrivances": 12361,
    "Ġerecting": 24653,
    "ection": 4948,
    "shown": 22453,
    "Ġblock": 2573,
    "Ġspouting": 9442,
    "engine": 18929,
    "Ġpreservation": 24631,
    "Ġgenerator": 3381,
    "Ġnominally": 17234,
    "Ġopine": 19230,
    "Ġovercome": 6044,
    "asional": 17962,
    "authority": 13594,
    "taking": 5689,
    "Ġgood": 1002,
    "itically": 21333,
    "Ġdorm": 4823,
    "isher": 2876,
    "Ġlick": 21553,
    "Ġofficially": 24839,
    "Ġpeevish": 26559,
    "ouring": 6420,
    "Ġeloquent": 16114,
    "Ġpeninsula": 23199,
    "Ġtass": 15473,
    "feature": 4310,
    "abulary": 4801,
    "Ġcalculating": 9928,
    "ĠĠĠĠĠĠĠĠĠĠĠĠĠĠĠĠ": 1221,
    "ppers": 7618,
    "Ġirrevocably": 15301,
    "Ġcope": 17832,
    "Ġsepar": 3999,
    "female": 20669,
    "Ġimmemorial": 10513,
    "Ġcommenting": 25229,
    "esteem": 26009,
    "tout": 21068,
    "ateful": 5927,
    "impatient": 13643,
    "Ġproduce": 4367,
    "Ġdog": 4190,
    "Ġhowever": 1306,
    "bb": 2799,
    "volutions": 16325,
    "Ġlass": 15652,
    "Ġnose": 4403,
    "Ġoctavo": 15167,
    "Ġcommod": 10336,
    "Ġenvy": 13186,
    "Ġtravelling": 11309,
    "Ġantichron": 24184,
    "trial": 20353,
    "Ġmostly": 7664,
    "Ġrucastle": 5176,
    "Ġloite": 22115,
    "Ġcomparative": 10545,
    "iminished": 19022,
    "Ġjudiciously": 23881,
    "Ġver": 3394,
    "sweetly": 25137,
    "needle": 20316,
    "Ġarchitecture": 1118,
    "Ġimpatience": 7509,
    "Ġpen": 1533,
    "Ġinsertion": 26345,
    "Ġencoding": 4776,
    "Ġpry": 11603,
    "Ġpour": 13917,
    "Ġmiriam": 25274,
    "companions": 15026,
    "Ġpersisted": 13047,
    "Ġpitching": 16613,
    "Ġunwearied": 20605,
    "Ġcontortions": 18477,
    "ulous": 4450,
    "Ġbeside": 5192,
    "Ġstrictly": 12289,
    "Ġjunk": 15957,
    "knowledge": 7478,
    "illings": 14145,
    "Ġbegan": 2021,
    "dled": 9114,
    "Ġcarav": 18903,
    "Ġtapering": 8775,
    "malicious": 19904,
    "Ġcousins": 9918,
    "Ġwarehouse": 20420,
    "Ġmuchness": 18711,
    "Ġascertaining": 17206,
    "Ġverily": 16605,
    "beneath": 9538,
    "Ġsalary": 13297,
    "Ġconcentric": 20078,
    "Ġtrifle": 10604,
    "sticking": 21663,
    "erest": 10699,
    "Ġharbor": 10030,
    "pleasure": 5978,
    "================": 3725,
    "sequent": 6830,
    "oice": 1383,
    "pil": 15411,
    "rison": 13782,
    "Ġlightly": 13087,
    "Ġmajesty": 5201,
    "zek": 16247,
    "Ġvor": 15808,
    "Ġbingley": 1677,
    "Ġmatrimony": 13638,
    "corrid": 24484,
    "relig": 15515,
    "a": 69,
    "Ġaccordance": 19501,
    "shirt": 22457,
    "Ġwinc": 9645,
    "reed": 6373,
    "inction": 6662,
    "Ġfrozen": 9016,
    "Ġreign": 13988,
    "Ġcompares": 20169,
    "Ġrack": 9315,
    "Ġcontributes": 15254,
    "anim": 6522,
    "discharging": 26306,
    "Ġalle": 11669,
    "melted": 25207,
    "Ġarguments": 8037,
    "Ġbristles": 25845,
    "Ġperpendicularly": 11376,
    "Ġestimate": 19376,
    "Ġkeener": 22917,
    "chanced": 18807,
    "Ġbelted": 22951,
    "ribs": 23368,
    "Ġcum": 21345,
    "Ġjapan": 7640,
    "Ġcor": 1323,
    "Ġoscillations": 2897,
    "Ġgigantic": 5915,
    "Ġperform": 1035,
    "classes": 12140,
    "ilib": 4116,
    "uther": 8821,
    "Ġdeaths": 14539,
    "Ġsneering": 24696,
    "mbling": 3344,
    "doesn": 19823,
    "fulfilment": 26025,
    "itative": 13873,
    "Ġharris": 13930,
    "iced": 3903,
    "Ġatmosphere": 10899,
    "Ġbash": 12592,
    "Ġfoundling": 22973,
    "damp": 15347,
    "ivable": 10912,
    "Ġproportions": 16469,
    "Ġpetty": 19598,
    "Ġstolen": 14010,
    "fitting": 1512,
    "thomas": 18220,
    "Ġconcrete": 20639,
    "iron": 3443,
    "steam": 23963,
    "million": 25752,
    "connection": 18870,
    "Ġfoundering": 21422,
    "Ġunwillingly": 15852,
    "sprit": 11384,
    "Ġbeauty": 3772,
    "Ġpurposely": 10446,
    "context": 3405,
    "topp": 22569,
    "Ġfa": 4821,
    "Ġsaleve": 17394,
    "Ġplucked": 15117,
    "remediable": 26296,
    "zar": 11550,
    "corpse": 24486,
    "Ġplaintiffs": 13612,
    "Ġhose": 12633,
    "mies": 20970,
    "rying": 3188,
    "Ġreaders": 18916,
    "arily": 4124,
    "igantic": 5539,
    "Ġebony": 18011,
    "Ġportions": 19372,
    "Ġeditions": 19154,
    "glad": 9011,
    "Ġwhim": 14002,
    "meet": 11860,
    "rann": 21047,
    "Ġvolcanoes": 24148,
    "Ġcopied": 20011,
    "Ġgre": 1584,
    "counterpart": 26361,
    "sper": 4435,
    "aper": 4999,
    "respectable": 19849,
    "Ġvoice": 2190,
    "open": 7026,
    "Ġtren": 17723,
    "Ġscrolled": 22293,
    "Ġsteamer": 17191,
    "elev": 12463,
    "Ġsto": 1501,
    "Ġtackles": 8051,
    "Ġmortals": 9919,
    "Ġ79": 24267,
    "Ġprow": 6685,
    "liter": 11504,
    "Ġfuture": 1097,
    "avoiding": 25237,
    "Ġhes": 6251,
    "Ġste": 1389,
    "Ġappeal": 16318,
    "Ġimper": 4501,
    "Ġtame": 17724,
    "lined": 12488,
    "Ġconsequent": 18113,
    "Ġreeled": 13989,
    "Ġconfirmed": 11141,
    "mention": 7213,
    "Ġdressing": 7091,
    "Ġmuff": 8114,
    "igate": 8827,
    "ina": 21182,
    "Ġdivers": 9668,
    "Ġinev": 10184,
    "twinkle": 23706,
    "pure": 17628,
    "Ġdrives": 14580,
    "Ġknight": 9730,
    "90": 12436,
    "march": 13758,
    "Ġeffeminacy": 20719,
    "Ġpelt": 15614,
    "Ġfanatic": 23395,
    "deepest": 22839,
    "istered": 14147,
    "barbs": 20240,
    "Ġstreets": 5864,
    "Ġpractised": 23338,
    "dost": 14537,
    "Ġbonnet": 10658,
    "Ġforming": 7043,
    "Ġirreproachable": 24918,
    "Ġthirteen": 15278,
    "Ġtoast": 21515,
    "Ġbudge": 15168,
    "Ġhaggard": 17333,
    "Ġblackest": 19100,
    "station": 10846,
    "Ġindiscreet": 22959,
    "Ġundulated": 19519,
    "Ċ": 203,
    "Ġcasks": 7521,
    "Ġstaff": 14009,
    "Ġspecial": 2101,
    "Ġsleep": 2400,
    "matters": 14877,
    "Ġrecollect": 8310,
    "savage": 15079,
    "ļ": 253,
    "Ġfireside": 23534,
    "omin": 4704,
    "Ġmind": 1618,
    "Ġcollectively": 19971,
    "Ġexclusiveness": 23931,
    "Ġforty": 5719,
    "Ġsaints": 20677,
    "richard": 17289,
    "mb": 904,
    "Ġmapp": 2080,
    "Ġneedle": 8275,
    "Ġu": 324,
    "Ġpanting": 11606,
    "Ġtoilings": 24741,
    "Ġrocks": 6862,
    "Ġhorseback": 14853,
    "joy": 3334,
    "Ġdeterm": 1269,
    "orrowed": 19292,
    "originally": 24940,
    "bore": 13690,
    "Ġattacking": 24465,
    "Ġdeceitful": 25733,
    "together": 3559,
    "Ġvi": 1951,
    "Ġlamp": 4113,
    "Ġtinkling": 25213,
    "entreat": 17978,
    "Ġspangled": 22139,
    "Ġsepulchre": 20562,
    "Ġplainer": 23707,
    "Ġstride": 22619,
    "Ġcatastrophic": 3545,
    "Ġderived": 8239,
    "Ġbeg": 1283,
    "vard": 21113,
    "Ġsprings": 16688,
    "reshold": 21242,
    "Ġcattle": 12578,
    "Ġsharply": 9406,
    "fold": 7546,
    "Ġdespite": 19356,
    "Ġconsented": 11297,
    "Ġbeggar": 9352,
    "dressing": 11484,
    "Ġsanguinary": 25930,
    "Ġstables": 23659,
    "uck": 1233,
    "Ġbrought": 2515,
    "Ġenvirons": 13187,
    "Ġhereby": 10361,
    "Ġchrysalis": 26540,
    "Ġexplanatory": 22206,
    "Ġdefray": 22944,
    "Ġfinest": 10395,
    "Ġdilated": 24703,
    "contr": 12061,
    "Ġstrands": 25575,
    "Ġtying": 15476,
    "Ġhor": 1660,
    "Ġroared": 7024,
    "restored": 18978,
    "Ġsake": 4091,
    "Ġgrunted": 16172,
    "tray": 21080,
    "Ġinconsiderable": 21498,
    "pen": 1206,
    "thumb": 18219,
    "Ġflanks": 11918,
    "palms": 25263,
    "Ġusurpation": 18357,
    "ordered": 8794,
    "Ġturing": 7566,
    "ann": 5803,
    "Ġcaw": 13886,
    "niece": 20997,
    "Ġtour": 9150,
    "heeded": 13837,
    "fer": 1958,
    "Ġtho": 21517,
    "viating": 14581,
    "Ġreject": 7385,
    "Ġnumerical": 4244,
    "Ġdistinguish": 2725,
    "Ġendowed": 18925,
    "una": 21873,
    "Ġfitting": 21411,
    "bowl": 14894,
    "Ġwaking": 11573,
    "weed": 14318,
    "adru": 15735,
    "Ġannals": 17900,
    "Ġstile": 21736,
    "cheap": 23806,
    "Ġregarded": 5762,
    "Ġvideo": 25366,
    "Ġlin": 10835,
    "Ġhilariously": 25451,
    "neighbour": 7210,
    "Ġolfactories": 26172,
    "Ġadvantages": 9811,
    "Ġdespise": 14668,
    "Ġimperson": 14223,
    "Ġnaturalist": 22911,
    "iter": 4392,
    "Ġwearily": 18180,
    "overed": 2853,
    "?âĢĻâĢĿ": 23644,
    "ingly": 2136,
    "ruding": 9727,
    "linging": 16082,
    "Ġshocks": 16459,
    "empty": 23636,
    "Ġunostentatious": 22069,
    "xic": 9148,
    "dis": 2249,
    "ree": 873,
    "buncle": 13696,
    "Ġdisput": 14258,
    "idual": 1562,
    "cons": 4308,
    "Ġdebts": 8036,
    "Ġinvitation": 5188,
    "Ġfals": 15585,
    "Ġpain": 2300,
    "subject": 6633,
    "Ġstaircase": 20099,
    "elsewhere": 19870,
    "Ġhapp": 1091,
    "Ġdrawn": 4274,
    "Ġinland": 11611,
    "Ġrag": 18637,
    "Ġstrike": 4857,
    "Ġsaloon": 24067,
    "ness": 853,
    "pal": 9619,
    "icit": 3377,
    "Ġworking": 5574,
    "Ġtarget": 2820,
    "ers": 406,
    "Ġcuvier": 9168,
    "methodically": 20666,
    "Ġabstraction": 26541,
    "Ġbowing": 10477,
    "Ġgreen": 3053,
    "Ġscreams": 24604,
    "Ġhaze": 18197,
    "Ġsiam": 13841,
    "cary": 10693,
    "ading": 5091,
    "Ġphren": 8574,
    "Ġve": 1108,
    "shabb": 18494,
    "Ġamounts": 6705,
    "à": 161,
    "Ġrollicking": 24451,
    "Ġslack": 8958,
    "Ġsuperseded": 26226,
    "iveness": 2467,
    "dozen": 23381,
    "Ġsensation": 6895,
    "Ġtimorous": 24228,
    "Ġconstrained": 19242,
    "clerval": 7951,
    "jac": 8382,
    "Ġreflected": 2907,
    "Ġthieves": 15640,
    "Ġiron": 3236,
    "ires": 6038,
    "Ġarve": 15906,
    "Ġnews": 3822,
    "Ġintending": 11708,
    "Ġbleak": 10561,
    "Ġqueens": 16705,
    "almost": 4943,
    "Ġcolossal": 11461,
    "Ġoriginate": 24123,
    "Ġrapt": 7224,
    "Ġinstruments": 12228,
    "wards": 1277,
    "Ġindec": 13931,
    "alizing": 17942,
    "Ġaspect": 3095,
    "Ġtrying": 4840,
    "Ġprecisely": 6466,
    "derment": 22170,
    "Ġarise": 7896,
    "Ġconference": 15751,
    "hammered": 19004,
    "Ġshilling": 18229,
    "herfield": 3634,
    "telescope": 26564,
    "Ġbohem": 8528,
    "Ġune": 4599,
    "etch": 9207,
    "Ġoxford": 11373,
    "c": 71,
    "Ġgasping": 17039,
    "ichron": 22172,
    "Ġvag": 9711,
    "appre": 14374,
    "Ġdegree": 3706,
    "Ġsam": 7569,
    "Ġcenturies": 8626,
    ").âĢĿ": 20743,
    "Ġjabez": 11770,
    "Ġstill": 1154,
    "Ġhues": 21492,
    "vity": 7815,
    "Ġapartment": 6635,
    "lied": 6507,
    "Ġbulwarks": 5592,
    "erable": 1916,
    "Ġperish": 8878,
    "Ġvindictive": 20473,
    "Ġentrapped": 26264,
    "Ġanimating": 23427,
    "Ġflush": 14427,
    "ther": 482,
    "rador": 19129,
    ".âĢĿ": 464,
    "Ġ97": 19777,
    "royal": 11395,
    "Ġeber": 18006,
    "Ġobjection": 6586,
    "fi": 12466,
    "Ġirrevoc": 15041,
    "Ġwindow": 2998,
    "lively": 12489,
    "cano": 18841,
    "prick": 19346,
    "Ġinsignific": 13183,
    "from": 1990,
    "oblivious": 26584,
    "Ġirr": 10423,
    "ee": 1659,
    "asets": 2307,
    "rows": 6442,
    "Ġfuneral": 10285,
    "opement": 10314,
    "Ġloftiest": 16876,
    "avenue": 25060,
    "Ġcompromised": 22575,
    "projecting": 26074,
    "Ġcommunity": 19009,
    "Ġstrat": 16096,
    "Ġcloudy": 19480,
    "cannon": 22965,
    "far": 5787,
    "Ġcannibal": 7773,
    "Ġscrupled": 25052,
    "Ġmechanically": 14400,
    "lifeless": 24314,
    "Ġimpetus": 25570,
    "Ġwondrously": 24069,
    "Ġbiases": 2397,
    "main": 8088,
    "Ġconsistent": 14530,
    "Ġtyphoons": 20237,
    "Ġalan": 10871,
    "Ġcreditors": 20133,
    "Ġrevers": 21667,
    "Ġlawless": 19438,
    "Ġtended": 21169,
    "Ġassaults": 15160,
    "Ġinsatiate": 19272,
    "Ġinsular": 19270,
    "Ġturban": 23615,
    "Ġeng": 1160,
    "Ġfrenchman": 11285,
    "Ġcategor": 4137,
    "door": 6194,
    "Ġdominion": 16520,
    "rary": 4576,
    "Ġarid": 22191,
    "Ġpass": 1038,
    "Ġnative": 4641,
    "Ġindividuals": 24546,
    "Ġcircus": 19093,
    "fig": 8738,
    "Ġinclemency": 22559,
    "Ġdissembling": 26256,
    "sounding": 24795,
    "Ġglued": 20592,
    "wherein": 19109,
    "Ġult": 9077,
    "married": 9952,
    "Ġwolfish": 25936,
    "finer": 17548,
    "Ġlying": 4827,
    "Ġfearfully": 23515,
    "Ġcabal": 23643,
    "Ġhelplessness": 25074,
    "Ġelectric": 15198,
    "Ġimprudent": 12854,
    "sigma": 3003,
    "Ġworlds": 11951,
    "Ġhiding": 9826,
    "Ġworker": 23042,
    "cess": 537,
    "ster": 1950,
    "monkey": 19172,
    "Ġtheories": 13852,
    "Ġricher": 12765,
    "Ġintervening": 17270,
    "Ġlegitimate": 20644,
    "Ġuseful": 3562,
    "critical": 19499,
    "Ġwhose": 2007,
    "aloons": 20014,
    "pinn": 21028,
    "Ġmixed": 6974,
    "Ġinjurious": 24273,
    "sleepy": 24728,
    "Ġshriek": 6639,
    "Ġcensure": 15099,
    "Ġindians": 14413,
    "usual": 5841,
    "appo": 3917,
    "eon": 8733,
    "Ġworship": 10369,
    "remain": 9841,
    "Ġverge": 23890,
    "fort": 1746,
    "Ġresolution": 5500,
    "Ġwriter": 11949,
    "Ġsavesoul": 26229,
    "Ġmanip": 8875,
    "Ġcuriously": 13026,
    "inguish": 9400,
    "Ġarbitrary": 4737,
    "Ġabst": 9269,
    "Ġpattern": 1335,
    "Ġscream": 5935,
    "ards": 2503,
    "igating": 21702,
    "ought": 829,
    "Ġmich": 21308,
    "yramid": 8368,
    "Ġstretching": 10018,
    "Ġbrack": 23839,
    "Ġfolios": 23021,
    "breath": 15166,
    "marry": 13327,
    "Ġextra": 4055,
    "Ġpers": 1399,
    "Ġor": 437,
    "Ġcolonies": 14379,
    "Ġpassed": 2009,
    "mixed": 17607,
    "inition": 11559,
    "contrary": 23731,
    "z": 94,
    "hearty": 14837,
    "Ġlap": 8438,
    "Ġseeth": 21957,
    "Ġcritics": 23447,
    "Ġmassac": 14739,
    "Ġflo": 2585,
    "Ġcall": 2073,
    "kily": 20939,
    "Ġgeneralize": 3099,
    "Ġelements": 2664,
    "sm": 3438,
    "'m": 9585,
    "Ġpersisting": 18898,
    "ake": 749,
    "known": 3571,
    "Ġincalculable": 17463,
    "Ġlanguid": 14216,
    "[_": 5131,
    "Ġtink": 9151,
    "Ġwoollen": 12108,
    "Ġbend": 9173,
    "Ġbillow": 14783,
    "Ġcastors": 23979,
    "bull": 13694,
    "Ġinteractions": 12909,
    "lude": 6162,
    "preserving": 25305,
    "Ġpractice": 2890,
    "Ġah": 5075,
    "Ġbred": 9172,
    "Ġnarr": 5085,
    "Ġhood": 10825,
    "Ġmet": 1913,
    "Ġowl": 20087,
    "Ġrustic": 14968,
    "Ġepic": 15032,
    "isl": 21378,
    "Ġarchly": 22782,
    "Ġarose": 7359,
    "mor": 4212,
    "hawks": 24695,
    "loa": 18531,
    "Ġ29": 23732,
    "Ġprettier": 23767,
    "Ġfestoon": 20297,
    "Ġrequesting": 24633,
    "mai": 22915,
    "escript": 18472,
    "ledyard": 22387,
    "ning": 950,
    "V": 58,
    "Ġmassacre": 20550,
    "Ġalman": 21785,
    "Ġneedless": 19232,
    "Ġdeaden": 23464,
    "Ġdissipate": 13636,
    "Ġnorthumbria": 24174,
    "Ġhoriz": 4727,
    "Ġphysiognomy": 25611,
    "Ġgraceful": 11298,
    "cannot": 5745,
    "amused": 21850,
    "dict": 15341,
    "Ġlonged": 6436,
    "clo": 5613,
    "Ġmushroom": 13239,
    "Ġguessed": 11284,
    "Ġsho": 2243,
    "cuniary": 26381,
    "Ġcharm": 4549,
    "Ġancient": 5443,
    "Ġequality": 16362,
    "Ġmockery": 12112,
    "Ġmasking": 2419,
    "Ġflu": 3277,
    "ick": 839,
    "Ġinclu": 1101,
    "Ġmuttered": 7087,
    "arat": 9183,
    "Ġnarrower": 24354,
    "abroad": 18111,
    "Ġpra": 4347,
    "Ġrighteous": 18948,
    "bran": 23576,
    "treas": 17681,
    "complain": 14361,
    "Ġ65": 24368,
    "Ġfarthing": 14457,
    "easily": 17536,
    "Ġtuileries": 24824,
    "Ġfeatureless": 22597,
    "thole": 21990,
    "Ġcostly": 23586,
    "Ġtop": 2470,
    "Ġheightened": 8652,
    "intention": 10370,
    "Ġfilters": 3930,
    "Ġvigorously": 11301,
    "Ġfict": 21408,
    "Ġunhappiness": 14120,
    "Ġencountered": 8322,
    "Ġtinted": 13825,
    "lived": 12491,
    "invite": 25091,
    "historical": 20469,
    "Ġfel": 1520,
    "lone": 11502,
    "Ġtul": 21162,
    "clut": 23154,
    "Ġwonders": 7500,
    "Ġsurpr": 2548,
    "Ġerrone": 14433,
    "Ġbroom": 18908,
    "Ġforgetting": 3437,
    "consc": 4842,
    "Ġaffords": 16736,
    "Ġimpud": 18446,
    "forks": 26389,
    "various": 10400,
    ".}": 20747,
    "Ġsold": 6003,
    "Ġattend": 5035,
    "Ġrolling": 5975,
    "ckinridge": 11723,
    "Ġcomprehensive": 15091,
    "ĠĠĠĠĠĠĠĠĠĠĠĠĠĠĠĠĠĠĠĠĠĠĠĠĠĠĠĠĠĠĠĠĠĠĠĠĠĠĠĠĠĠ": 24212,
    "Ġaustrian": 24302,
    "reat": 618,
    "Ġpainfully": 13145,
    "third": 8168,
    "ubines": 22962,
    "endure": 22229,
    "absurd": 21799,
    "mme": 22504,
    "Ġsweat": 13143,
    "Ġbucket": 8792,
    "uel": 6966,
    "suitableness": 26262,
    "Ġpanelled": 19657,
    "Ġherb": 15860,
    "Ġdaugh": 2290,
    "Ġlowermost": 23243,
    "sed": 4174,
    "Ġearthquake": 14630,
    "Ġobstin": 14956,
    "ither": 1550,
    "Ġproductions": 22949,
    "pshire": 21026,
    "illes": 12700,
    "Ġboil": 16108,
    "Ġtransformations": 3488,
    "ulatory": 15771,
    "key": 5462,
    "Ġwhistles": 24625,
    "Ġcogn": 11004,
    "Ġdexter": 9704,
    "collecting": 26082,
    "Ġrecords": 12200,
    "Ġlines": 4535,
    "Ġannealing": 1556,
    "dreams": 12341,
    "Ġunobstructed": 18262,
    "procure": 23400,
    "Ġhall": 4182,
    "rect": 1598,
    "Ġdazed": 15600,
    "Ġintercourse": 11000,
    "Ġvengeance": 5885,
    "Ġlac": 17967,
    "Ġlivers": 18462,
    "Ġlocks": 11728,
    "osite": 4894,
    "ugues": 19021,
    "generative": 4331,
    "Ġstress": 18069,
    "Ġpressure": 13425,
    "whence": 23214,
    "relatively": 24017,
    "icilian": 20694,
    "Ġventure": 7739,
    "Ġton": 15467,
    "Ġinhabitants": 7524,
    "Ġresolutely": 14611,
    "Ġxiv": 23411,
    "vine": 10736,
    "Ġrecourse": 22727,
    "Ġaltern": 7393,
    "Ġfelix": 4850,
    "Ġflourishing": 25188,
    "ĠâĢľ": 517,
    "Ġuseless": 7038,
    "Ġspiced": 22137,
    "vell": 3960,
    "Ġpathways": 11155,
    "meditation": 19071,
    "shame": 16026,
    "Ġvict": 3764,
    "Ġwires": 21298,
    "mont": 19171,
    "Ġgrind": 18736,
    "ucumber": 19055,
    "ciousness": 20819,
    "Ġinhale": 20303,
    "Ġcircumvent": 25067,
    "Ġrequiring": 2919,
    "Ġohio": 19130,
    "Ġboast": 7035,
    "Ġeff": 681,
    "Ġsimpl": 1581,
    "Ġdirection": 1791,
    "Ġplayful": 19239,
    "Ġ1950": 11361,
    "guessed": 25873,
    "bbed": 6910,
    "anged": 3590,
    "Ġcontact": 9284,
    "Ġhon": 2536,
    "Ġjail": 22298,
    "------": 12138,
    "honey": 20907,
    "Ġfavourably": 16365,
    "embarrassed": 20667,
    "suggest": 20379,
    "Ġ55": 24319,
    "Ġobligations": 12097,
    "felicity": 25143,
    "Ġthames": 13941,
    "Ġholland": 10368,
    "currents": 23848,
    "Ġcasket": 19727,
    "securer": 25603,
    "bury": 9110,
    "Ġslipped": 6492,
    "Ġrealising": 18982,
    "Ġperception": 9753,
    "deemed": 18316,
    "copper": 19191,
    "Ġsafie": 6619,
    "encountered": 20396,
    "hither": 11495,
    "Ġglut": 18849,
    "ellig": 522,
    "Ġnormalizes": 1861,
    "Ġthinner": 24185,
    "Ġpredicts": 2592,
    "cabinet": 25080,
    "consol": 9765,
    "teak": 22820,
    "Ġline": 1847,
    "buff": 15322,
    "Ġscreening": 25301,
    "Ġloveliest": 20264,
    "shall": 4551,
    "Ġsuffice": 18871,
    "Ġwink": 11572,
    "Ġbedrooms": 19973,
    "alarmed": 21506,
    "Ġdef": 1203,
    "brevi": 24077,
    "ur": 326,
    "special": 14708,
    "oves": 15406,
    "Ġcry": 3500,
    "Ġcoarsely": 25830,
    "Ġgamesome": 17292,
    "Ġalternating": 15033,
    "poles": 16213,
    "agne": 21909,
    "oin": 17619,
    "acter": 2505,
    "Ġconsecut": 18114,
    "Ġsoot": 14132,
    "Ġsurgeons": 23468,
    "Ġincreasing": 8248,
    "Ġpest": 13916,
    "Ġcivilities": 14851,
    "Ġindebted": 8711,
    "Ġendeavouring": 8035,
    "strained": 21661,
    "Ġfavours": 23283,
    "baked": 20781,
    "Ġcommand": 3321,
    "Ġorgan": 2501,
    "Ġfree": 3373,
    "mur": 5428,
    "Ġannihilated": 20255,
    "Ġtilted": 20416,
    "antly": 1988,
    "Ġsensibility": 14515,
    "Ġassure": 4419,
    "Ġpatiently": 19920,
    "acon": 10684,
    "Ġpeterson": 9486,
    "Ġhim": 475,
    "seemed": 4303,
    "Ġdiscredit": 22786,
    "Ġradiant": 16811,
    "Ġblu": 2683,
    "Ġsubstitute": 16728,
    "insufferable": 21195,
    "Ġshrouds": 11346,
    "ifference": 5632,
    "Ġaltar": 9231,
    "orne": 17874,
    "Ġearliest": 9834,
    "Ġhourly": 23304,
    "sings": 4250,
    "Ġwitness": 4622,
    "thirst": 15829,
    "Ġlot": 6679,
    "Ġrejected": 12298,
    "Ġthw": 21518,
    "Ġexactness": 23606,
    "Ġuninhabited": 22051,
    "endeavoured": 12285,
    "Ġlit": 6247,
    "grin": 19107,
    "Ġprivileged": 20116,
    "throne": 25658,
    "fac": 17543,
    "Ġtalked": 4421,
    "88": 20760,
    "Ġpeddling": 21485,
    "etymology": 14704,
    "Ġrevolutions": 23845,
    "injury": 25214,
    "Ġpairs": 4180,
    "Ġspas": 10924,
    "Ġmasoned": 20254,
    "Ġgenerative": 5644,
    "whom": 8185,
    "west": 10741,
    "Ġtaught": 6803,
    "Ġpresumption": 10548,
    "Ġmace": 21312,
    "Ġtalks": 23373,
    "Ġlimits": 3458,
    "Ġpatent": 11966,
    "Ġchaos": 17011,
    "Ġtug": 11553,
    "eridge": 15529,
    "Ġrenow": 18030,
    "Ġterribly": 10427,
    "occasionally": 13523,
    "Ġextracted": 16297,
    "ourage": 2450,
    "employed": 17264,
    "resides": 23675,
    "search": 8466,
    "eastern": 17535,
    "Ġimpetuous": 25571,
    "Ŀ": 256,
    "agre": 18167,
    "Ġrelate": 6874,
    "Ġfiner": 13057,
    "Ġraving": 16115,
    "Ġrepeating": 11215,
    "Ġfanning": 23393,
    "Ġmercifully": 20181,
    "Ġfir": 17879,
    "Ġsavi": 18326,
    "mist": 5686,
    "Ġadjusted": 23462,
    "Ò": 147,
    "closed": 23157,
    "beginning": 13564,
    "man": 1054,
    "suspended": 15181,
    "Ġmusty": 22685,
    "repe": 8780,
    "Ġhandkerchief": 8917,
    "Ġbermud": 26441,
    "necessarily": 19634,
    "Ġperemptory": 25741,
    "Ġarom": 15495,
    "Ġsuccessfully": 19432,
    "cracy": 24691,
    "Ġremonstrate": 22797,
    "Ġ128": 24473,
    "stem": 572,
    "uning": 1313,
    "immed": 9220,
    "Ġlurked": 11293,
    "apprehension": 26115,
    "Ġwhichever": 14003,
    "Ġamusing": 11804,
    "Ġtheir": 643,
    "Ġlookest": 22718,
    "Ġskill": 6871,
    "Ġpromise": 4196,
    "ased": 1267,
    "Ġpurple": 10435,
    "Ġwondrous": 4736,
    "Ġbird": 3758,
    "Ġextremely": 2666,
    "Ġgordon": 26469,
    "Ġdoct": 4455,
    "tis": 4104,
    "propagation": 1240,
    "Ġgard": 2189,
    "Ġquarters": 8623,
    "itz": 6006,
    "Ġglobu": 23273,
    "possibility": 13365,
    "Ġbeen": 626,
    "Ġtrait": 23077,
    "Ġbildad": 3785,
    "Ġod": 4439,
    "Ġpigs": 19750,
    "oy": 1028,
    "Ġembeddings": 2115,
    "Ġnervousness": 23559,
    "Ġrese": 2279,
    "lux": 14228,
    "Ġmisfortune": 5569,
    "boom": 18998,
    "eries": 6808,
    "romang": 22009,
    "Ġprometheus": 15296,
    "Ġgall": 4352,
    "Ġfish": 2709,
    "Ġheiress": 20700,
    "amouch": 21849,
    "Ġrail": 7223,
    "Ġconveying": 19717,
    "Ġbow": 3061,
    "Ġtophet": 23575,
    "...": 24549,
    "fered": 5560,
    "liking": 22927,
    "Ġcapering": 21357,
    "Ġdefects": 12337,
    "Ġmaterials": 11290,
    "Ġsublim": 19970,
    "pict": 8386,
    "Ġjustinian": 22972,
    "yd": 21145,
    "ium": 4865,
    "banked": 25338,
    "reproof": 25433,
    "Ġblast": 7444,
    "wrath": 23758,
    "Ġflattering": 13033,
    "Ġexamined": 6335,
    "Ġetern": 7086,
    "Ġradiating": 24331,
    "Ġdurst": 20355,
    "Ġfloats": 9416,
    "liable": 3821,
    "Ġdiverted": 14594,
    "Ġniagara": 26460,
    "rimin": 2422,
    "tarpaul": 21100,
    "Ġseaward": 22950,
    "Ġaver": 1286,
    "violently": 23545,
    "onely": 6516,
    "Ġphrenologically": 20397,
    "tube": 20414,
    "Ġbelf": 21384,
    "introdu": 8940,
    "Ġtries": 9153,
    "Ġreckless": 13461,
    "Ġadmirals": 20388,
    "Ġdie": 3963,
    "obliv": 23102,
    "Ġsallies": 21232,
    "won": 8395,
    "Ġworth": 4417,
    "Ġheaped": 18040,
    "Ġexclaiming": 13644,
    "cond": 1662,
    "receiving": 12548,
    "government": 25407,
    "hound": 20897,
    "Ġcivilized": 8668,
    "awk": 23119,
    "object": 6883,
    "persecutor": 26531,
    "ieties": 19023,
    "ophisticated": 22483,
    "Ġdisasters": 16058,
    "Ġlimited": 23547,
    "Ġsermons": 20197,
    "Ġbordeaux": 24565,
    "Ġleft": 1758,
    "Ġbrill": 8551,
    "Ġbehaved": 13258,
    "Ġflamingo": 15104,
    "dreaded": 25141,
    "Ġslanting": 23175,
    "Ġwr": 1547,
    "Ġhookah": 16972,
    "Ġprefer": 6416,
    "Ġmoustache": 20487,
    "osa": 22264,
    "Ġfrigid": 17355,
    "Ġassociations": 14966,
    "400": 20757,
    "fierce": 25256,
    "Ġodor": 12154,
    "ships": 5486,
    "coloured": 7290,
    "ander": 6401,
    "ident": 3378,
    "keepers": 16662,
    "guarded": 13298,
    "Ġheire": 18039,
    "Ġcranes": 20386,
    "Ġover": 554,
    "Ġlime": 13951,
    "Ġ(`": 12858,
    "Ġimpaling": 22391,
    "Ġelig": 9781,
    "enc": 7574,
    "Ġendwise": 23140,
    "Ġtwitch": 22681,
    "Ġdiscussed": 19562,
    "Ġshipmates": 6721,
    "Ġbrotherhood": 23673,
    "Ġisolation": 17153,
    "anth": 13890,
    "whel": 7665,
    "Ġpalp": 11251,
    "Ġwaving": 8578,
    "Ġlate": 3376,
    "Ġhysterical": 26093,
    "leave": 7837,
    "Ġproc": 5545,
    "fortunate": 4793,
    "Ġskeletons": 16793,
    "Ġforemast": 12010,
    "apothecary": 26547,
    "Ġhag": 12631,
    "semic": 21825,
    "Ġobe": 5801,
    "Ġinsolent": 13603,
    "racing": 21634,
    "Ġcircumference": 13547,
    "Ġyounger": 5253,
    "Ġpawnbroker": 13661,
    "Ġgalvan": 21620,
    "increase": 20271,
    "Ġforged": 12710,
    "nowadays": 22342,
    "Ġstating": 15726,
    "beryls": 25310,
    "Ġpropagating": 20636,
    "Ġharb": 7369,
    "Ġ61": 24364,
    "Ġvenetian": 14850,
    "Ġpermission": 9282,
    "forehead": 8517,
    "Ġmaketh": 15191,
    "acks": 11792,
    "ethics": 8881,
    "Ġfrank": 4420,
    "Ġsangu": 15507,
    "Ġlichen": 20095,
    "Ġuniversally": 12004,
    "roc": 9677,
    "appeared": 4280,
    "iod": 3843,
    "Ġhates": 21489,
    "Ġretention": 23074,
    "¡": 99,
    "jaw": 13746,
    "Ġlomb": 21562,
    "gunwale": 20665,
    "quiet": 6155,
    "Ġdiscriminator": 3392,
    "expression": 10550,
    "Ġprojected": 16873,
    "Ġmantle": 25275,
    "likewise": 13108,
    "Ġwhatsoever": 18456,
    "ham": 1702,
    "Ġclasping": 20212,
    "vag": 8768,
    "Ġblessed": 6930,
    "Ġstrasburgh": 18615,
    "Ġviolation": 23409,
    "Ġbatch": 890,
    "Ġrecord": 5317,
    "Ġfresher": 23210,
    "nerable": 16279,
    "Ġadie": 8490,
    "prom": 6509,
    "Ġsadness": 13290,
    "Ġluxuriant": 20398,
    "Ġbristling": 20530,
    "orious": 6008,
    "Ġvalid": 1696,
    "Ġvial": 10251,
    "Ġthief": 11613,
    "held": 3844,
    "pate": 21012,
    "lar": 4483,
    "Ġ177": 13415,
    "Ġconcealed": 7495,
    "Ġsensible": 4976,
    "Ġchildren": 3770,
    "Ġflorida": 20661,
    "winter": 10742,
    "unimportant": 18162,
    "Ġguid": 2636,
    "Ġconfirming": 25322,
    "Ġlistless": 16478,
    "Ġcandidates": 4334,
    "Ġdoom": 6417,
    "Ġdrawback": 23993,
    "Ġhugest": 17017,
    "Ġopenness": 18959,
    "Ġglen": 18848,
    "ething": 1601,
    "Ġknocked": 9503,
    "necess": 4897,
    "Ġtenderest": 23552,
    "Ġballs": 9018,
    "Ġpretension": 23766,
    "fect": 2297,
    "likelihood": 4992,
    "Ġoverwhelmed": 11405,
    "###": 3830,
    "illuminated": 17456,
    "Ġomn": 8411,
    "appin": 18760,
    "Ġrallied": 14099,
    "Ġimpl": 7194,
    "Ġlaz": 7377,
    "foam": 24418,
    "Ġgives": 5018,
    "beat": 10988,
    "Ġcin": 13878,
    "Ġeyel": 17097,
    "Ġmonster": 3797,
    "terrible": 8467,
    "bitter": 11242,
    "Ġshot": 4545,
    "apering": 8041,
    "Ġringle": 18211,
    "Ġdisease": 14260,
    "threshold": 21991,
    "Ġdestabilizing": 5053,
    "ě": 220,
    "Ġforeseen": 16443,
    "Ġconjure": 17126,
    "Ġcy": 13877,
    "Ġsaved": 6691,
    "Ġfishing": 9665,
    "yth": 983,
    "conjectures": 25181,
    "Ġspasmodically": 17317,
    "Ġdomestic": 6909,
    "Ġnorms": 3669,
    "beauty": 20107,
    "Ġstre": 2106,
    "Ġexplanations": 15914,
    "subjects": 19878,
    "Ġprice": 10405,
    "Ġtreas": 7357,
    "germans": 20568,
    "Ġshamefully": 24715,
    "Ġsquint": 22841,
    "Ġprevailing": 24674,
    "Ġtranquil": 7309,
    "Ġoaken": 13868,
    "Ġgenerously": 22405,
    "Ġdong": 17889,
    "Ġmeditations": 25016,
    "Ġstruggled": 9908,
    "Ġknew": 2053,
    "Ġgladstone": 23872,
    "Ġsamples": 2964,
    "gro": 10097,
    "arthur": 14833,
    "Ġnois": 4266,
    "Ġyour": 634,
    "Ġla": 5913,
    "passed": 8026,
    "igators": 18047,
    "thing": 1482,
    "Ġli": 602,
    "Ġgreatest": 4092,
    "morn": 20978,
    "Ġblows": 5973,
    "Ġdistension": 22508,
    "Ġwilful": 10537,
    "national": 21000,
    "Ġ13": 6719,
    "Ġwrench": 12562,
    "Ġgleam": 12312,
    "ralian": 19603,
    ",âĢĻâĢĶ": 23530,
    "liked": 10511,
    "scure": 22986,
    "irm": 3106,
    "ifts": 12741,
    "Ġshakes": 10906,
    "Ġinflict": 15003,
    "Ġwe": 387,
    "ists": 4000,
    "Ġparcel": 15203,
    "Ġgrievous": 13265,
    "mus": 10113,
    "Ġmasked": 3697,
    "Ġconcuss": 19045,
    "Ġhanding": 16134,
    "bonnet": 25743,
    "Ġbidirectional": 3757,
    "Ġuse": 833,
    "Ġjoes": 19233,
    "Ġscrutin": 26015,
    "Ġhost": 7069,
    "Ġincomp": 12903,
    "Ġcommunication": 1868,
    "execution": 20475,
    "Ġpraises": 16732,
    "emper": 18188,
    "Ġdepicting": 22611,
    "Ġcaus": 1722,
    "perils": 22187,
    "reeable": 3615,
    "conjecturing": 20137,
    "leg": 2812,
    "langu": 4808,
    "Ġeager": 3573,
    "Ġexaggerated": 25651,
    "Ġdownwards": 8531,
    "rian": 10244,
    "Ġallusion": 7626,
    "Ġstren": 15724,
    "pract": 10122,
    "Ġgo": 615,
    "Ġcarrying": 6072,
    "Ġone": 568,
    "mysteries": 26052,
    "Ġwantonly": 22896,
    "Ġghostliness": 24652,
    "?_": 8070,
    "lock": 1471,
    "lifted": 15390,
    "Ġtamer": 24979,
    "mad": 5281,
    "Ġmarch": 4081,
    "?âĢĻ": 2639,
    "stone": 5089,
    "Ġnet": 3630,
    "ilated": 18060,
    "Ġcollar": 11883,
    "rus": 5930,
    "cket": 3690,
    "Ġpower": 1183,
    "county": 25397,
    "Ġnine": 5369,
    "Ġslippers": 19618,
    "Ġbewildered": 15217,
    "fast": 3070,
    "Ġidentifies": 12019,
    "Ġcloset": 19594,
    "Ġexception": 11218,
    "Ġstarted": 4148,
    "merged": 11195,
    "kward": 6957,
    "illed": 2622,
    "Ġresnet": 5473,
    "Ġsupplement": 23000,
    "Ġfaire": 13368,
    "hroom": 12481,
    "Ġchambers": 16801,
    "Ġtimor": 24227,
    "glings": 23854,
    "Ġcondescending": 24869,
    "Ġravine": 18643,
    "Ġdedu": 5584,
    "Ġmish": 15541,
    "Ġfert": 15586,
    "Ġreneg": 21678,
    "Ġlanes": 19768,
    "Ġbelike": 18832,
    "Ġunfl": 22020,
    "Ġdangling": 17177,
    "ulls": 8842,
    "Ġamply": 22487,
    "Ã": 132,
    "Ġmexico": 15284,
    "======================================================================": 10071,
    "Ġminimum": 23045,
    "Ġpuzzling": 14901,
    "pistol": 17644,
    "Ġtrembled": 8705,
    "Ġmightiest": 12965,
    "Ġwake": 4750,
    "Ġapex": 24342,
    "^{": 15308,
    "oke": 1857,
    "Ġintegration": 9871,
    "byshire": 6173,
    "seated": 11675,
    "Ġrib": 4936,
    "Ġinve": 17931,
    "Ġguardsmen": 20633,
    "¨": 106,
    "algorith": 3375,
    "web": 18668,
    "local": 22513,
    "hyp": 15370,
    "Ġsentinel": 26066,
    "Ġpirate": 14998,
    "Ġtroubles": 19442,
    "grass": 23416,
    "raved": 18015,
    "Ġshapeless": 24524,
    "Ġcage": 17827,
    "derness": 11741,
    "them": 3020,
    "zing": 7820,
    "Ġindicated": 10471,
    "Ġty": 6659,
    "Ġstowing": 18074,
    "Ġrol": 3558,
    "dorff": 15241,
    "Ġbarbary": 24219,
    "dismay": 19156,
    "Ġmature": 17801,
    "riminately": 16485,
    "ihood": 20924,
    "Ġtrain": 514,
    "Ġhills": 6527,
    "mblings": 19783,
    "grown": 10102,
    "Ġsplice": 19311,
    "\"],": 26121,
    "Ġwid": 4633,
    "Ġingolstadt": 8333,
    "Ġupdate": 2463,
    "rib": 1943,
    "Ġwrinkled": 7263,
    "hogs": 20085,
    "ested": 3483,
    "Ġte": 1179,
    "mysterious": 26053,
    "buttons": 22404,
    "friendship": 24053,
    "Ġperfection": 19220,
    "ux": 7813,
    "Ġset": 1175,
    "apology": 22338,
    "Ġsane": 21224,
    "adders": 24400,
    "overlooked": 23325,
    "Ġwhistling": 19793,
    "Ġdivide": 12115,
    "Ġunhing": 18239,
    "#": 7,
    "Ġprophet": 7681,
    "menced": 23149,
    "artificial": 967,
    "gment": 4391,
    "Ġbarren": 11208,
    "Ġpersevering": 20236,
    "Ġbridge": 8349,
    "Ġcot": 13880,
    "Ġinformation": 1045,
    "Ġlook": 880,
    "Ġidentical": 10436,
    "atered": 22076,
    "Ġpleased": 4063,
    "Ġfootmen": 23799,
    "apolog": 22337,
    "Ġcaptiv": 16260,
    "Ġlooks": 4164,
    "uttered": 8442,
    "Ġentit": 22747,
    "Ġmarched": 18873,
    "er": 269,
    "Ġnonsensical": 21532,
    "Ġindestruct": 22961,
    "Ġfolk": 10378,
    "Ġdissolved": 18555,
    "bow": 5424,
    "Ġbenefactor": 14700,
    "Ġdirections": 1970,
    "Ġmastiff": 23727,
    "Ġembrace": 16992,
    "Ġeleven": 9393,
    "Ġscenarios": 26544,
    "particularly": 8340,
    "flaming": 23973,
    "Ġdrowning": 19906,
    "leman": 21371,
    "Ġtil": 12529,
    "Ġspecimen": 13023,
    "Ġcaul": 10789,
    "wra": 11544,
    "pivot": 21033,
    "Ġmachinery": 20488,
    "Ġsacri": 18329,
    "ences": 1263,
    "offers": 16398,
    "alt": 12644,
    "vings": 9754,
    "thou": 4710,
    "Ġwakes": 11575,
    "Ġproficiency": 19195,
    "Ġbaggy": 24538,
    "Ġquiver": 16007,
    "Ġclerks": 17298,
    "onday": 6064,
    "Ġcrammed": 16473,
    "alas": 8808,
    "Ġtub": 7146,
    "Ġdisposal": 19379,
    "solved": 7685,
    "furnished": 20244,
    "Ġaffected": 5577,
    "Ġbrine": 18773,
    "Ġslates": 11109,
    "Ġjourneys": 19478,
    "Ġmarvell": 7247,
    "strang": 11185,
    "Ġauthoritative": 19564,
    "Ġworm": 9165,
    "Ġprince": 18972,
    "ided": 2783,
    "iner": 2668,
    "aned": 5147,
    "rob": 5534,
    "Ġrhone": 25231,
    "Ġdefines": 1740,
    "Ġquicker": 16510,
    "emed": 3379,
    "Ġlifetime": 13605,
    "Ġinsensibly": 20079,
    "Ġprinciple": 6770,
    "rucastle": 22182,
    "mped": 16650,
    "table": 5795,
    "Ġavoid": 5199,
    "Ġisolated": 13562,
    "Ġglit": 8562,
    "Ġropes": 10750,
    "Ġexhaled": 19685,
    "Ġjeroboam": 10603,
    "blast": 9590,
    "aph": 10956,
    "Ġinfrequent": 3827,
    "Ġneur": 812,
    "luent": 16000,
    "oc": 2832,
    "Ġgreedily": 18966,
    "Ġsyllable": 9732,
    "oo": 7553,
    "horses": 17569,
    "Ġscolding": 15204,
    "Ġagrees": 22520,
    "Ġexec": 19495,
    "Ġcheered": 16372,
    "Ġlearning": 386,
    "holloa": 19467,
    "sor": 7351,
    "Ġmemorand": 23408,
    "sentence": 2938,
    "Ġhumbled": 16200,
    "Ġunsatisfied": 22044,
    "Ġforcing": 3225,
    "Ġpunctilious": 26355,
    "n": 82,
    "Ġgulf": 10638,
    "Ġacquired": 13048,
    "Ġobservations": 13556,
    "this": 1443,
    "Ġhitherto": 5880,
    "Ġdears": 18139,
    "Ġpike": 12629,
    "strongly": 24685,
    "Ġquick": 2579,
    "k": 79,
    "treasures": 26153,
    "iations": 11497,
    "floor": 14939,
    "comparatively": 25841,
    "Ġdifficulty": 5770,
    "Ġplatonian": 25121,
    "wear": 22688,
    "Ġturns": 4981,
    "Ġforb": 11666,
    "Ġbreathlessly": 24283,
    "Ġcondu": 18112,
    "remarked": 12292,
    "expressive": 24307,
    "Ġpray": 3902,
    "Ġsophisticated": 1544,
    "iam": 2507,
    "indebted": 26159,
    "Ġmultitud": 18748,
    "Ġvii": 13112,
    "proceeding": 20144,
    "dee": 11737,
    "Ġbanished": 10619,
    "Ġdealer": 23980,
    "Ġendeavour": 4678,
    "tha": 15827,
    "enses": 10996,
    "seemingly": 25363,
    "Ġdrops": 9035,
    "Ġfumbling": 21420,
    "steady": 14712,
    "Ġparliament": 18303,
    "surd": 6933,
    "Ġphantoms": 13489,
    "bouton": 17504,
    "Ġcreate": 2090,
    "Ġloath": 7890,
    "maged": 15397,
    "Ġresearches": 13142,
    "Ġurged": 6781,
    "Ġess": 5691,
    "narr": 12501,
    "Ġrabbit": 4287,
    "Ġinfidel": 13091,
    "impulse": 20647,
    "Ġpail": 15611,
    "swallow": 24260,
    "shape": 10984,
    "Ġviciously": 24404,
    "Ġpresence": 5031,
    "Ġimmeasurable": 26232,
    "inching": 21192,
    "Ġdynamically": 4033,
    "Ġmaintainable": 12941,
    "Ġcoco": 11002,
    "mar": 4336,
    "Ġfacility": 19852,
    "Ġadieus": 25113,
    "Ġfrequent": 3286,
    "Ġconvulsive": 19309,
    "incl": 8110,
    "Ġcolour": 4461,
    "Ġshield": 22003,
    "Ġtwins": 16124,
    "Ġtext": 2266,
    "Ġcontributed": 16013,
    "lections": 4753,
    "mystical": 25318,
    "Ġstaving": 21741,
    "Ġoftener": 13568,
    "Ġprofessional": 7298,
    "Ġstig": 14005,
    "ations": 711,
    "bolt": 25138,
    "Ġcl": 553,
    "itiousness": 21337,
    "Ġimpotent": 18448,
    "Ġastir": 14642,
    "Ġlovel": 10274,
    "Ġunfitted": 24110,
    "cheer": 9440,
    "force": 12966,
    "suspected": 12376,
    "Ġanticipated": 13513,
    "regulated": 23471,
    "ted": 788,
    "some": 2233,
    "Ġdecisive": 18486,
    "Ġlived": 3990,
    "response": 25763,
    "rabbit": 20594,
    "lutions": 20952,
    "rig": 7556,
    "Ġpoetic": 17104,
    "Ġhealth": 3906,
    "Ġbree": 5012,
    "Ġbrigs": 20325,
    "Ġdisobey": 18560,
    "Ġtechni": 1807,
    "Ġarrest": 7408,
    "Ġscr": 11765,
    "Ġansw": 2204,
    "Ġuneasy": 8665,
    "urons": 3129,
    "Ġunstructured": 3004,
    "Ġupstairs": 5837,
    "homely": 25618,
    "neying": 22467,
    "Ġburden": 8611,
    "Ġbeliefs": 24583,
    "visitor": 15060,
    "ood": 963,
    "Ġjovial": 19236,
    "lac": 17591,
    "Ġguess": 4904,
    "Ġenjoined": 18192,
    "â": 163,
    "sledge": 21060,
    "Ġrepugn": 23366,
    "Ġgenuine": 14888,
    "Ġgipsies": 12412,
    "tale": 10130,
    "Ġdescending": 8906,
    "ferences": 10329,
    "Ġhand": 859,
    "Ġintended": 5548,
    "osition": 1374,
    "Ġabusive": 22277,
    "Ġpout": 17908,
    "swelled": 19613,
    "Ġdepicted": 14287,
    "transition": 24513,
    "steering": 16638,
    "Ġporter": 15615,
    "Ġconstraint": 16515,
    "evident": 25521,
    "Ġgro": 4397,
    "Ġascending": 14857,
    "prises": 23816,
    "nostr": 22745,
    "Ġpre": 507,
    "Ġcoincid": 20320,
    "observation": 17272,
    "Ġsoc": 3528,
    "justified": 19003,
    "Ġcompact": 2260,
    "tallow": 21088,
    "augmented": 26288,
    "chard": 21690,
    "Ġdau": 21428,
    "Ã¦": 4338,
    "swimming": 24261,
    "Ġdisturbance": 15015,
    "âĢĻ-": 18175,
    "Ġagitated": 7648,
    "narrated": 25622,
    "Ġreeds": 15700,
    "Ġpleated": 16301,
    "Ġital": 10868,
    "wished": 13808,
    "Ġhappily": 9334,
    "Ġexcluded": 16388,
    "Ġwithal": 18116,
    "Ġbrown": 6299,
    "dening": 22784,
    "impat": 11204,
    "Ġconcil": 23323,
    "Ġwarmest": 16486,
    "Ġignorant": 5344,
    "composure": 24038,
    "uneasiness": 23690,
    "deav": 2671,
    "Ġfling": 9663,
    "parted": 21018,
    "ceiving": 3905,
    "Ġsoothe": 7404,
    "Ġgrin": 5482,
    "Ġtorrents": 20059,
    "Ġcarriage": 3952,
    "Ġenemy": 5605,
    "itates": 13872,
    "Ġsixpence": 19319,
    "Ġfl": 1281,
    "Ġsickbed": 24249,
    "Ġassist": 3567,
    "hip": 8744,
    "Ġpupp": 10822,
    "Ġden": 3105,
    "Ġcircumnav": 12430,
    "Ġfood": 5080,
    "pain": 7349,
    "oken": 4306,
    "anced": 1288,
    "Ġlima": 10444,
    "Ġcongratulatory": 19770,
    "Ġbedside": 19125,
    "Ġchoked": 9267,
    "Ġacquaintances": 17353,
    "Ġtrespass": 23602,
    "looking": 4032,
    "Ġviol": 2070,
    "Ġflit": 23009,
    "Ġboots": 5944,
    "Ġalgorith": 558,
    "Ġdictated": 25219,
    "Ġbigot": 24566,
    "ac": 741,
    "Ġwithdrawn": 10609,
    "Ġbill": 4040,
    "Ġstaves": 21744,
    "throughout": 24091,
    "Ġtrades": 8232,
    "Ġdenny": 9004,
    "Ġforms": 6397,
    "ses": 3029,
    "Ġinner": 9673,
    "Ġthee": 2621,
    "Ġtidings": 11399,
    "Ġperceived": 4715,
    "Ġmild": 4145,
    "Ġpounds": 5368,
    "remem": 13071,
    "wheel": 22875,
    "Ġaugust": 10600,
    "waited": 24586,
    "Ġtension": 13827,
    "Ġsmile": 4270,
    "Ġwoll": 21296,
    "Ġpalsy": 25779,
    "examined": 17269,
    "de": 460,
    "Ġstarve": 24626,
    "pleasant": 5875,
    "ents": 1895,
    "Ġconnection": 5479,
    "inforcement": 3171,
    "Ġvisibly": 22869,
    "Ġmechanical": 7937,
    "ough": 472,
    "straw": 24099,
    "cat": 15327,
    "Ġloitered": 26527,
    "Ġdepths": 4327,
    "mentioning": 24886,
    "Ġprecision": 13192,
    "Ġlongbourn": 3512,
    "Ġcoaxing": 18599,
    "Ġhe": 318,
    "Ġrivers": 9445,
    "gazing": 12476,
    "hid": 13737,
    "Ġnarwhale": 12297,
    "Ġ18": 3407,
    "Ġdeity": 18137,
    "spout": 7923,
    "batt": 20780,
    "danish": 20835,
    "rove": 21536,
    "Ġcastaways": 19431,
    "pin": 13770,
    "Ġsembl": 19056,
    "Ġquar": 3111,
    "Ġuns": 15840,
    "kick": 20938,
    "Ġrum": 5924,
    "talking": 10010,
    "Ġchased": 8865,
    "Ġpollard": 20389,
    "gest": 5426,
    "glow": 20876,
    "Ġcarpet": 9359,
    "Ġcombining": 22858,
    "commander": 16989,
    "ar": 285,
    "ivers": 1983,
    "arb": 1566,
    "ousand": 2429,
    "Ġsketches": 26272,
    "!âĢĶâĢĻ": 23567,
    "Ġunprinciple": 18252,
    "Ġinitials": 11016,
    "Ġabiding": 22274,
    "ividually": 22084,
    "Ġhos": 4942,
    "away": 4626,
    "Ġacquirement": 19257,
    "cott": 8074,
    "Ġfalsely": 20585,
    "Ġcounted": 12144,
    "Ġdoc": 7199,
    "Ġrough": 7186,
    "crated": 16685,
    "enari": 21284,
    "Ġslow": 2378,
    "Ġusing": 709,
    "Ġcyp": 21348,
    "Ġfowler": 16939,
    "Ġbarque": 23792,
    "able": 454,
    "Ġeverywhere": 9799,
    "taller": 26151,
    "belais": 24043,
    "Ġheh": 21683,
    "Ġinclude": 1872,
    "âĢĶâĢĶâĢĿ": 15943,
    "still": 4217,
    "stocks": 23823,
    "Ġphysiology": 25333,
    "Ġfainted": 8796,
    "Ġuntouched": 16467,
    "Ġbriskly": 25312,
    "Ġcorre": 3890,
    "Ġdetermine": 3245,
    "ocation": 14627,
    "Ġannot": 15606,
    "lucases": 20213,
    "Ġcease": 7077,
    "Ġmoulded": 16977,
    "urday": 13998,
    "delight": 5345,
    "Ġloads": 22118,
    "profitable": 17056,
    "ographical": 16788,
    "Ġ69": 19664,
    "Ġpencil": 11947,
    "Ġtutored": 20131,
    "Ġblasp": 14405,
    "gravel": 22623,
    "left": 6975,
    "all": 485,
    "Ġfaster": 3199,
    "Ġartist": 12918,
    "Ġadvancing": 6877,
    "elf": 565,
    "farmer": 25900,
    "Ġshook": 4468,
    "Ġworld": 1596,
    "osop": 4405,
    "casks": 20406,
    "Ġvintage": 26211,
    "contrivance": 26317,
    "unhes": 21879,
    "facts": 19845,
    "thickness": 25368,
    "Ġhieroglyphics": 17306,
    "Ġtemple": 7654,
    "athy": 14326,
    "Ġpoet": 8208,
    "lion": 20946,
    "Ġrightly": 13069,
    "Ġjoy": 3186,
    "tea": 18743,
    "Ġthroat": 7770,
    "Ġheap": 12684,
    "icacy": 15662,
    "announced": 19762,
    "cup": 10694,
    "Ġsymphony": 26534,
    "Ġfeasible": 22212,
    "Ġmand": 21307,
    "Ġren": 3849,
    "Ġoverjoyed": 17461,
    "impenetrable": 26198,
    "Ġimbu": 15895,
    "Ġtents": 13821,
    "udding": 11869,
    "ening": 3103,
    "Ġjoist": 19234,
    "seem": 10230,
    "Ġtinged": 20086,
    "calabash": 22897,
    "Ġcetace": 14991,
    "stains": 11640,
    "ifix": 21907,
    "mbles": 23092,
    "ratulations": 20129,
    "dashing": 20838,
    "Ġwoodcock": 19165,
    "Ġpeep": 6869,
    "wearing": 22692,
    "dug": 18463,
    "bringing": 17169,
    "ousings": 18336,
    "Ġwil": 4581,
    "Ġinterview": 9773,
    "irations": 18171,
    "Ġleaders": 16630,
    "que": 1162,
    "Ġcheap": 13092,
    "fell": 6952,
    "kins": 7344,
    "ĠĠĠĠĠĠĠĠĠĠĠĠĠĠĠĠĠĠĠĠĠĠĠĠĠĠĠĠĠĠĠĠĠĠĠĠĠĠĠĠĠĠĠĠĠĠĠĠĠĠĠĠĠĠĠĠĠĠĠĠ": 19262,
    "Ġdons": 17890,
    "owners": 16090,
    "Ġbask": 8117,
    "Ġautom": 3433,
    "Ġcounsel": 13618,
    "Ġsubmitted": 11875,
    "Ġmeas": 1099,
    "Ġcircumspect": 15088,
    "whales": 5187,
    "Ġmanif": 8874,
    "fedallah": 25523,
    "Ġfix": 2506,
    "frisco": 16789,
    "adopt": 25545,
    "Ġjung": 12842,
    "Ġtrampled": 20331,
    "Ġflight": 6581,
    "¶": 119,
    "Ġgodfre": 14531,
    "recked": 17764,
    "wand": 10740,
    "Ġmonuments": 22982,
    "gely": 10702,
    "forgotten": 12420,
    "Ġunbroken": 18248,
    "Ġconceivable": 16615,
    "Ġpowers": 5419,
    "Ġadditionally": 1174,
    "Ġcomprehen": 5350,
    "Ġunspeakable": 10059,
    "ids": 21767,
    "quarter": 11390,
    "Ġtenderness": 12220,
    "Ġexcept": 3312,
    "Ġcruis": 14625,
    "vable": 10135,
    "stove": 21655,
    "Ġcreamy": 14334,
    "Ġvehicles": 10662,
    "meth": 11505,
    "ante": 11725,
    "Ġorganize": 8994,
    "Ġminuteness": 19140,
    "illating": 22111,
    "Ġindependently": 4245,
    "_,": 2798,
    "Ġpict": 3503,
    "Ġadvances": 12992,
    "Ġnightgown": 23136,
    "Ġchast": 18381,
    "Ġpurch": 6600,
    "Ġefficiently": 3767,
    "hands": 5967,
    "Ġsupplies": 20329,
    "urre": 10858,
    "Ġdilig": 8350,
    "Ġvacantly": 16817,
    "Ġdissip": 10994,
    "Ġrephr": 21682,
    "lested": 14886,
    "Ġendeavoured": 4919,
    "yea": 23091,
    "leaped": 17845,
    "Ġbreaking": 6311,
    "Ġpark": 5465,
    "eprints": 12798,
    "sche": 13019,
    "Ġmetal": 9391,
    "Ġexpand": 9310,
    "Ġtattered": 21174,
    "lanter": 15391,
    "steelkilt": 10050,
    "Ġsoliloqu": 11889,
    "Ġoff": 902,
    "Ġavenue": 13624,
    "bed": 3494,
    "Ġfuller": 11158,
    "Ġbroke": 5323,
    "Ġrapid": 1426,
    "Ġgenerate": 1576,
    "Ġinspiring": 19114,
    "Ġargu": 10936,
    "ĳ": 244,
    "Ġoun": 13866,
    "Ġdetained": 18371,
    "Ġfielding": 16235,
    "Ġfren": 10807,
    "Ġjury": 5378,
    "Ġbraces": 14672,
    "Ġmisgivings": 15295,
    "Ġshuddered": 11302,
    "bethink": 25745,
    "Ġsupp": 1264,
    "Ġconstantly": 11977,
    "Ġcommodores": 25375,
    "garn": 20872,
    "scra": 13022,
    "Ġgips": 10843,
    "Ġwebster": 20164,
    "Ġbulk": 5591,
    "Ġflexible": 23777,
    "Ġforesight": 13130,
    "ign": 1703,
    "Ġbasic": 24700,
    "proof": 16427,
    "Ġcontentment": 14873,
    "Ġdemoniacal": 20559,
    "sum": 2086,
    "elopement": 23190,
    "Ġoften": 1953,
    "Ġpaddock": 25040,
    "Ġcolumns": 14380,
    "mblies": 24609,
    "Ġeducated": 16787,
    "Ġclasp": 9747,
    "Ġmetallic": 19073,
    "Ġinsignificance": 20460,
    "Ġbite": 10799,
    "commission": 22815,
    "tal": 17672,
    "watery": 19829,
    "Ġintric": 9249,
    "uding": 16156,
    "itable": 5437,
    "Ġparis": 8179,
    "gments": 12474,
    "Ġincites": 22555,
    "uttural": 21592,
    "Ġhatches": 12049,
    "rew": 3652,
    "Ġcautiousness": 19868,
    "Ġwindows": 4971,
    "kindled": 16663,
    "Ġven": 4648,
    "--âĢľ": 12977,
    "Ġwaxed": 21300,
    "Ġamends": 14248,
    "Ġlany": 21557,
    "Ġgallery": 10527,
    "lik": 3918,
    "Ġcoldness": 23761,
    "Ġtorments": 13397,
    "Ġhosmer": 6774,
    "tossed": 10998,
    "Ġafghan": 22630,
    "Ġpledged": 20690,
    "Ġcommonplaces": 16292,
    "peculiarities": 13474,
    "Ġgrapes": 15219,
    "Ġasleep": 6835,
    "Ġchick": 22251,
    "box": 5749,
    "heard": 5009,
    "industrious": 26241,
    "Ġwig": 9164,
    "oology": 21008,
    "Ġbough": 13897,
    "Ġlest": 6395,
    "Ġwaterward": 23370,
    "Ġpainful": 6462,
    "getting": 12972,
    "avering": 24792,
    "Ġcogent": 14276,
    "Ġthinker": 22812,
    "Ġembarkation": 25125,
    "mph": 20973,
    "Ġsnuffing": 25015,
    "grees": 20888,
    "Ġgraze": 18227,
    "ination": 2911,
    "Ġbroad": 3643,
    "Ġperiodical": 14775,
    "rud": 4188,
    "Ġmeditative": 25017,
    "stories": 18026,
    "Ġpreced": 6040,
    "Ġruffled": 25837,
    "Ġdifferently": 10392,
    "Ġtoss": 10187,
    "oglyph": 11017,
    "Ġgaieties": 24198,
    "towing": 17691,
    "Ġincluding": 2850,
    "cil": 8724,
    "Ġinducements": 24968,
    "Ġproof": 6154,
    "exceeded": 25002,
    "Ġincreas": 1694,
    "outon": 12809,
    "Ġsearch": 2588,
    "mary": 8752,
    "Ġbade": 9174,
    "Ġswaths": 23061,
    "ceiling": 21630,
    "Ġprestige": 22240,
    "Ġeffort": 8205,
    "Ġexceed": 1344,
    "Ġequinox": 25856,
    "persuade": 13535,
    "Ġmaiden": 13389,
    "nest": 10116,
    "extreme": 11031,
    "Ġ199": 3010,
    "george": 26020,
    "Ġceasing": 23759,
    "Ġoutlandish": 12844,
    "Ġbashaw": 25634,
    "Ġiteratively": 3058,
    "Ġlanguor": 12853,
    "bidden": 19740,
    "Ġnlp": 3062,
    "Ġminded": 23230,
    "Ġlabelled": 23330,
    "may": 3682,
    "inced": 3335,
    "Ġrevolved": 9987,
    "Ġpolice": 4675,
    "Ġeligible": 10673,
    "wicked": 24449,
    "Ġharpo": 1940,
    "Ġblubber": 5666,
    "³": 116,
    "Ġchronicler": 20232,
    "Ġmaled": 21317,
    "Ġfigured": 16646,
    "science": 11913,
    "Ġmurmur": 14591,
    "Ġcommendation": 13613,
    "rally": 17653,
    "Ġdreaminess": 23943,
    "Ġtechnique": 2638,
    "Ġeasiness": 23539,
    "creature": 5347,
    "goes": 10428,
    "Ġhuzza": 12639,
    "nib": 5214,
    "approaching": 15014,
    "Ġsigh": 10339,
    "thest": 11657,
    "Ġtravels": 11931,
    "Ġincor": 2609,
    "Ġreservoir": 20653,
    "worse": 14693,
    "smitten": 23912,
    "Ġfierceness": 26267,
    "Ġpantry": 20298,
    "Ġsynd": 22214,
    "Ġslipping": 13364,
    "consider": 6349,
    "provided": 13640,
    "Ġshattered": 7884,
    "Ġwithout": 1120,
    "Ġveneration": 25047,
    "steel": 8299,
    "ched": 1549,
    "Ġassures": 14468,
    "Ġsorry": 4207,
    "Ġabandoned": 8352,
    "Ġtransports": 24280,
    "Ġcalculates": 13269,
    "Ġcheer": 4066,
    "alization": 732,
    "poster": 11057,
    "handle": 11192,
    "complaisance": 24808,
    "Ġsp": 457,
    "loo": 10322,
    "Ġnapkins": 25165,
    "Ġstrongly": 5657,
    "churning": 21700,
    "Ġmeetings": 16535,
    "fs": 17537,
    "Ġappearance": 3702,
    "Ġdecided": 5471,
    "inery": 17735,
    "activation": 3232,
    "arched": 10817,
    "Ġtolerable": 6948,
    "Ġsensit": 2946,
    "Ġputting": 5327,
    "Ġspoke": 2746,
    "encoura": 15051,
    "hint": 12480,
    "Ġpictured": 16625,
    "ĠcÃ¦sar": 20583,
    "iated": 5890,
    "Ġprocess": 562,
    "aped": 3766,
    "Ġknown": 1642,
    "Ġseverest": 14093,
    "Ġminute": 4277,
    "deceit": 25557,
    "Ġgable": 15671,
    "Ġthoughtlessness": 16197,
    "Ġcontradicted": 20214,
    "reflected": 24732,
    "cases": 12452,
    "Ġopulence": 23629,
    "Ġcrotch": 9966,
    "Ġbring": 3323,
    "ices": 2138,
    "Ġdrowsy": 26446,
    "Ġforging": 18096,
    "hamed": 6306,
    "counter": 20281,
    "maker": 12497,
    "Ġreceiving": 4883,
    "Ġdet": 508,
    "Ġcottages": 14730,
    "boys": 13363,
    "Ġcombination": 22857,
    "Ġstow": 21734,
    "etency": 21585,
    "Ġproducts": 5198,
    "su": 792,
    "alogue": 25163,
    "Ġseap": 15818,
    "sequently": 14585,
    "Ġlaugh": 4112,
    "cannib": 11906,
    "Ġpott": 21471,
    "Ġdishonor": 25602,
    "Ġpillar": 21476,
    "Ġerred": 21159,
    "parable": 16393,
    "g": 75,
    "rade": 9682,
    "Ġmariner": 7246,
    "Ġshock": 6082,
    "Ġswing": 13040,
    "kn": 5791,
    "Ġwaif": 9377,
    "Ġphyset": 23203,
    "virt": 15454,
    "Ġmaxim": 3084,
    "india": 22375,
    "Ġimputable": 22177,
    "chat": 21689,
    "Ġunfortunately": 10910,
    "Ġprofundities": 20456,
    "Ġoft": 9197,
    "Ġselects": 4386,
    "Ġexclusion": 19399,
    "Ġinte": 2063,
    "ok": 573,
    "Ġapplying": 13095,
    "Ġfive": 2835,
    "Ġrecognise": 12032,
    "Ġcart": 11586,
    "Ġcumberland": 21358,
    "Ġneighbourhood": 5126,
    "adam": 15734,
    "Ġspeed": 2447,
    "departed": 24793,
    "what": 642,
    "food": 12468,
    "ors": 855,
    "Ġarmchair": 8271,
    "Ġdifferences": 18715,
    "Ġflower": 16236,
    "neg": 12871,
    "Ġdraught": 9847,
    "anter": 9169,
    "erick": 13851,
    "ny": 4015,
    "Ġpresto": 22234,
    "Ġactually": 5389,
    "done": 6500,
    "okers": 18442,
    "Ġdit": 21423,
    "cely": 3577,
    "Ġgenius": 8046,
    "Ġrat": 4354,
    "Ġmodes": 22217,
    "Ġcarelessly": 11121,
    "ss": 396,
    "Ġteaching": 10367,
    "Ġhints": 8431,
    "Ġraft": 16117,
    "Ġsecretly": 13275,
    "Ġclump": 15972,
    "Ġdocuments": 10026,
    "usage": 12838,
    "Ġundulating": 19520,
    "rail": 10207,
    "Ġtragic": 15259,
    "joke": 20932,
    "Ġequal": 4133,
    "Ġdiab": 10614,
    "Ġrequires": 1049,
    "Ġplate": 8902,
    "Ġlun": 7856,
    "Ġwoman": 2385,
    "Ġund": 4117,
    "Ġcuriosity": 2594,
    "Ġroads": 13292,
    "Ġleak": 2161,
    "Ġtoiling": 15639,
    "Ġhousemaid": 14467,
    "Ġsledge": 8111,
    "Ġgerm": 13967,
    "aye": 3663,
    "etimes": 1987,
    "value": 18803,
    "prepare": 20215,
    "absolutely": 10648,
    "Ġcit": 10785,
    "Ġstung": 21742,
    "acquaintance": 6937,
    "Ġquery": 2478,
    "Ġlabour": 7273,
    "Ġwalrus": 14976,
    "Ġmagnet": 10393,
    "Ġdropout": 1561,
    "Ġsleeper": 8604,
    "Ġrobbed": 23025,
    "notwithstanding": 22754,
    "source": 11528,
    "mews": 22720,
    "Ġbathing": 20202,
    "Ġnug": 21528,
    "Ġappend": 18361,
    "Ġskeleton": 5514,
    "Ġdipped": 15599,
    "Ġpersonality": 16479,
    "Ġtotal": 4993,
    "neurons": 3133,
    "Ġscotland": 6641,
    "Ġthrusts": 24350,
    "icorn": 15661,
    "rain": 461,
    "attacked": 23126,
    "Ġfinished": 5044,
    "anoke": 21364,
    "Ġdevil": 3616,
    "rushing": 10021,
    "Ġafterwards": 3534,
    "impatiently": 20474,
    "Ġhat": 2770,
    "Ġwallowing": 24048,
    "Ġburgled": 23658,
    "leviathan": 7784,
    "makes": 10713,
    "Ġcring": 15556,
    "Ġlirra": 21563,
    "Ġcities": 17829,
    "ivering": 7698,
    "Ġcastles": 16642,
    "Ġlieutenant": 15265,
    "Ġantique": 19554,
    "pan": 10718,
    "uled": 11539,
    "alot": 15630,
    "unalterable": 21890,
    "min": 4572,
    "put": 414,
    "specific": 10500,
    "Ġboasting": 19939,
    "ris": 9140,
    "Ġperseus": 10606,
    "plenty": 14094,
    "Ġactions": 6279,
    "Ġencounter": 6629,
    "Ġtech": 1755,
    "?_âĢĿ": 12320,
    "Ġrachel": 11849,
    "Ġstaggered": 9542,
    "Ġpistols": 17332,
    "hills": 13739,
    "Ġsplashing": 16553,
    "Ġstaid": 21739,
    "Ġflog": 23624,
    "Ġresponsible": 9889,
    "Ġenchant": 7184,
    "Ġaw": 2508,
    "Ġ117": 19700,
    "Ġestablish": 9546,
    "tic": 8391,
    "Ġsevere": 6032,
    "Ġwarming": 23560,
    "Ġpapered": 20134,
    "Ġabstained": 25232,
    "Ġfinishing": 23129,
    "Ġdesign": 4130,
    "Ġid": 1907,
    "Ġswell": 8952,
    "interesting": 12206,
    "Ġrashly": 20308,
    "cst": 10087,
    "Ġshrubbery": 18233,
    "troubled": 17113,
    "Ġloathsome": 13530,
    "Ġeasterly": 25963,
    "Ġspecksnyder": 17406,
    "ellation": 12755,
    "Ġmisled": 22761,
    "Ġant": 4346,
    "Ġunsupplied": 22043,
    "gladness": 25195,
    "Ġinterpret": 5490,
    "suspicious": 25391,
    "pop": 17633,
    "Ġpreserved": 9265,
    "Ġ*/": 10376,
    "Ġmanage": 7641,
    "perceived": 8862,
    "Ġoy": 15550,
    "Ġmounts": 17808,
    "errand": 22912,
    "Ġnephews": 24713,
    "ishmael": 18421,
    "Ġexcess": 3341,
    "Ġstone": 4646,
    "Ġoutline": 15958,
    "Ġcontin": 5382,
    "ipelag": 12850,
    "season": 14037,
    "Ġridges": 16733,
    "Ġoverladen": 22366,
    "ai": 2524,
    "Ġswish": 23056,
    "Ġminority": 18754,
    "Ġrepeated": 3834,
    "Ġown": 1008,
    "Ġcooked": 13273,
    "load": 12887,
    "Ġfanny": 23394,
    "despairing": 25077,
    "Ġscales": 4851,
    "Ġseventy": 7878,
    "Ġgenus": 24429,
    ",âĢĶ": 3172,
    "strangely": 17279,
    "ped": 6963,
    "Ġreturned": 2889,
    "Ġdard": 21425,
    "ots": 3293,
    "the": 334,
    "Ġsliding": 9367,
    "Ġrequ": 826,
    "Ġbeating": 8145,
    "Ġintend": 12770,
    "Ġunhappily": 18260,
    "umes": 10919,
    "Ġgene": 15676,
    "Ġtrivial": 10145,
    "zetts": 17716,
    "ibbald": 18844,
    "Ġyounge": 16291,
    "Ġindifference": 6726,
    "Ġen": 392,
    "Ġimaginations": 16518,
    "Ġbrisk": 9806,
    "cork": 20798,
    "leep": 4635,
    "ram": 13975,
    "Ġurgent": 16871,
    "iates": 13740,
    "my": 1316,
    "Ġthank": 3795,
    "Ġveritable": 19384,
    "suit": 18629,
    "Ġrun": 2352,
    "Ġdispatched": 23884,
    "aware": 16299,
    "shadows": 25480,
    "ook": 21006,
    "Ġreduces": 2341,
    "Ġvirginia": 13502,
    "exclaimed": 11794,
    "Ġaccompan": 5513,
    "Ġstraw": 9432,
    "exp": 2735,
    "omp": 2471,
    "Ġwisest": 11234,
    "ishop": 9745,
    "pursued": 17284,
    "Ġdeliver": 9849,
    "Ġvillain": 8639,
    "Ġlift": 8815,
    "exasper": 22431,
    "Ġcoward": 7155,
    "ortations": 22262,
    "ater": 3368,
    "Ġvalue": 2084,
    "Ġpres": 9735,
    "Ġteasing": 11895,
    "Ġcontinuous": 1564,
    "ignor": 8964,
    "circuit": 24191,
    "Ġobtained": 7431,
    "hair": 9125,
    "Ġshrill": 12146,
    "Ġoperated": 14549,
    "Ġbroadened": 23988,
    "Ġcontinuing": 14399,
    "Ġways": 5396,
    "Ġcopying": 17070,
    "europe": 20668,
    "Ġ}": 21156,
    "Ġalphabetical": 17204,
    "sea": 4764,
    "Ġ179": 19757,
    "taken": 7560,
    "Ġunbelief": 22049,
    "Ġ80": 24456,
    "urer": 18124,
    "Ġwaylaid": 22878,
    "frequent": 15357,
    "Ġplanet": 14753,
    "Ġunearthly": 9039,
    "tribute": 21091,
    "Ġknighthood": 25298,
    "Ġgravity": 9251,
    "ĕ": 214,
    "zealand": 26047,
    "Ġslo": 15509,
    "Ġenglishman": 11231,
    "Ġfo": 1650,
    "uttering": 12668,
    "Ġdividing": 12116,
    "Ġbalanced": 12995,
    "uch": 876,
    "Ġcoffins": 13255,
    "useness": 22286,
    "Ġ71": 24262,
    "Ġnatural": 1139,
    "Í": 142,
    "angry": 18295,
    "Ġinasmuch": 10827,
    "Ġstick": 6026,
    "Ġcaut": 6521,
    "Ġfins": 9666,
    "Ġprepare": 8650,
    "displeasure": 23499,
    "school": 10058,
    "battering": 20788,
    "Ġpropont": 16353,
    "affection": 7487,
    "riers": 18184,
    "fluttering": 23976,
    "Ġdiscovering": 13361,
    "Ġplants": 22602,
    "Ġmaddening": 17245,
    "fic": 20854,
    "Ġconsequ": 6255,
    "stationed": 25454,
    "Ġenables": 726,
    "Ġbewitched": 25976,
    "Ġdeclines": 23966,
    "Ġregularization": 1172,
    "reen": 21234,
    "Ġgallant": 8658,
    "arter": 17895,
    "Ġcont": 621,
    "Ġcust": 11585,
    "mmed": 7914,
    "Ġsufferings": 7513,
    "thed": 8831,
    "unless": 9238,
    "Ġseldom": 4630,
    "ificent": 8184,
    "Ġunprejudiced": 18267,
    "Ġdisinterested": 16061,
    "Ġcommissionaire": 17002,
    "Ġentic": 16150,
    "Ġsuffocated": 20730,
    "Ġacceded": 22380,
    "Ġjackets": 19605,
    "Ġhandful": 9786,
    "Ġconfound": 23306,
    "Ġcham": 4893,
    "Ġsovere": 9259,
    ",)": 9104,
    "Ġpiteous": 17920,
    "Ġfemale": 8345,
    "ezes": 9994,
    "merry": 16539,
    "Ġrounded": 14441,
    "entitled": 21571,
    "Ġbounding": 19403,
    "Ġsmallest": 6430,
    "Ġdecent": 10980,
    "Ġinflexibly": 26372,
    "tar": 8098,
    "cul": 1898,
    "Ġvari": 834,
    "Ġgrow": 2859,
    "Ġsprung": 11249,
    "Ġsung": 23274,
    "Ġnought": 21525,
    "Ġpredicted": 2043,
    "Ġsees": 8847,
    "Ġuncovered": 23435,
    "Ġeffusion": 22516,
    "Ġ38": 24082,
    "hoist": 23716,
    "aggo": 5097,
    "Ġashore": 5352,
    "bal": 2157,
    "Ġagent": 6278,
    "Ġspinning": 15055,
    "Ġunintermitted": 26221,
    "Ġunwelcome": 12785,
    "fair": 10095,
    "Ġcurly": 18856,
    "tend": 17676,
    "Ġnameless": 7699,
    "ular": 714,
    "Ġgardiners": 11159,
    "Ġfringed": 17275,
    "Ġmundane": 26431,
    "Ġfurthermore": 1167,
    "iling": 3092,
    "Ġvarieties": 14313,
    "dwell": 15345,
    "Ġclicked": 22359,
    "Ġdarling": 12610,
    "rebellum": 26166,
    "complacency": 19916,
    "Ġanyone": 4459,
    "Ġmakest": 25436,
    "Ġaright": 11744,
    "Ġhoky": 17929,
    "Ġchild": 2258,
    "dispute": 23503,
    "twain": 23703,
    "Ġgently": 7171,
    "Ġauthentic": 20538,
    "gradually": 12921,
    "Ġlightened": 23263,
    "lydon": 13992,
    "Ġpotency": 14648,
    "nails": 17616,
    "Ġassociate": 13453,
    "ensation": 22549,
    "Ġadmired": 7982,
    "Ġlogic": 13081,
    "thee": 9693,
    "Ġarts": 11010,
    "ras": 21039,
    "avail": 18605,
    "igner": 21704,
    "planks": 21964,
    "Ġinstigated": 18703,
    "liber": 18816,
    "Ġeulogy": 26472,
    "aits": 20768,
    "Ġconnectivity": 3670,
    "cordiality": 25140,
    "Ġperiods": 13307,
    "cod": 12448,
    "Ġshol": 21999,
    "Ġoblivion": 26032,
    "urch": 3993,
    "Ġxii": 11995,
    "Ġprop": 1682,
    "speaks": 19722,
    "crime": 14777,
    "Ġfurniture": 6476,
    "relation": 19450,
    "numerous": 17434,
    "derest": 18315,
    "bearer": 18519,
    "Ġripp": 11221,
    "Ġstro": 4596,
    "Ġmuffled": 10643,
    "inconsiderable": 21194,
    "Ġmurdered": 6464,
    "Ġunceasingly": 20362,
    "Ġbending": 12591,
    "batim": 25019,
    "sl": 5794,
    "Ġcig": 6520,
    "Ġret": 1381,
    "Ġlanterns": 24578,
    "tram": 19646,
    "Ġ84": 19712,
    "Ġrepaid": 19084,
    "sounded": 12271,
    "amed": 4448,
    "Ġgenerating": 12857,
    "Ġvirtuous": 14758,
    "Ġimply": 18445,
    "accomplishments": 25327,
    "rigging": 20009,
    "bright": 8992,
    "Ġcommun": 1706,
    "hypothe": 25906,
    "Ġsummarization": 3650,
    "Ġlowest": 11124,
    "Ġdemeanour": 17340,
    "Ġinhuman": 13932,
    "Ġpresenting": 18988,
    "orient": 2877,
    "Ġoblivious": 26033,
    "unities": 15775,
    "Ġcontinuously": 23208,
    "Ġcommend": 10337,
    "Ġintrusted": 21996,
    "Ġripples": 25506,
    "Ġflail": 23010,
    "Ġfanned": 19101,
    "Ġdelightful": 6321,
    "Ġfished": 21413,
    "Ġprovinces": 24193,
    "Ġmasses": 10506,
    "secur": 18129,
    "Ġtranquo": 14846,
    "sicilian": 21066,
    "Ġeul": 21621,
    "Ġcan": 468,
    "Ġunlocking": 20708,
    "proceed": 8979,
    "Ġoars": 3900,
    "arboard": 7265,
    "Ġswe": 2287,
    "Ġentreaty": 10532,
    "Ġcholera": 22257,
    "lower": 8884,
    "Ġfeet": 2256,
    "signs": 16542,
    "everywhere": 23701,
    "Ġextend": 18680,
    "Ġdestroying": 14732,
    "inting": 9817,
    "Ġremind": 6058,
    "Ġvul": 10250,
    "Ġtickled": 20060,
    "Ġremembrance": 8318,
    "col": 3101,
    "Ġreplay": 5047,
    "Ġcaterpillar": 5865,
    "Ġbid": 6132,
    "Ġsword": 6733,
    "increased": 20273,
    "Ġsuspend": 14610,
    "mechanical": 25579,
    "Ġsashes": 21228,
    "recursion": 13332,
    "found": 4211,
    "speeches": 25240,
    "Ġpreaching": 15930,
    "Ġwaiter": 16363,
    "ribly": 8255,
    "Ġmicroscopic": 26375,
    "Ġindia": 10373,
    "Ġeternity": 12283,
    "Ġdone": 1817,
    "Ġinquirer": 24964,
    "Ġtot": 4184,
    "mean": 6438,
    "Ġrespond": 11178,
    "ak": 539,
    "Ġvigilant": 20187,
    "Ġfed": 5530,
    "romeda": 17265,
    "_.": 2212,
    "Ġfeeling": 3083,
    "Ġoblig": 3450,
    "Ġmournful": 12340,
    "Ġrope": 4339,
    "bable": 8722,
    "fields": 14655,
    "Ġtropics": 17068,
    "Ġprolonged": 8358,
    "rue": 1128,
    "Ġprognost": 15285,
    "crossed": 16635,
    "ject": 874,
    "Ġclothes": 4997,
    "ine": 404,
    "untary": 9870,
    "Ġmccarthy": 5145,
    "warmest": 25030,
    "Ġlast": 1121,
    "Ġ99": 10747,
    "Ġdomineering": 23654,
    "presum": 12874,
    "lines": 6958,
    "Ġbran": 5252,
    "exerc": 16019,
    "Ġtal": 7564,
    "Ġapprehens": 5682,
    "Ġlouisa": 13548,
    "burst": 10540,
    "credit": 12453,
    "Ġahead": 6664,
    "Ġreeling": 18035,
    "Ġsparkled": 13465,
    "Ġcetacea": 20556,
    "testing": 12521,
    "minds": 24235,
    "Ġlips": 3991,
    "Ġpit": 3421,
    "Ġaverred": 18866,
    "£": 101,
    "Ġdrily": 23542,
    "Ġthese": 820,
    "Ġepo": 21622,
    "Ġbowsprit": 16563,
    "Ġextravag": 11254,
    "Ġmile": 7151,
    "flakes": 23971,
    "Ġhands": 1663,
    "adequately": 20322,
    "Ġgoethe": 22428,
    "Ġglimmer": 15145,
    "hollow": 24045,
    "Ġsustain": 10020,
    "shortened": 24747,
    "Ġgrammars": 11404,
    "Ġtrade": 2545,
    "Ġwholesome": 16009,
    "emberley": 4169,
    "Ġsurrounded": 5879,
    "Ġspeech": 4611,
    "elly": 17982,
    "oons": 12503,
    "raged": 9214,
    "unnatural": 15777,
    "Ġcoal": 18594,
    "ksome": 10107,
    "erting": 17779,
    "Ġamount": 8513,
    "exception": 9979,
    "Ġhussey": 7724,
    "Ġimproves": 22756,
    "Ġcontext": 1693,
    "philips": 20038,
    "reader": 23850,
    "ittance": 12852,
    "Ġgrop": 12670,
    "Ġemotions": 8972,
    "Ġthine": 7373,
    "Ġrudder": 25110,
    "Ġmach": 13860,
    "Ġvillagers": 19477,
    "ours": 3428,
    "interrupt": 8619,
    "Ġdamps": 23478,
    "Ġchasing": 11758,
    "Ġconsecrate": 26491,
    "have": 2056,
    "Ġinduced": 8674,
    "venerable": 26410,
    "Ġnature": 2537,
    "half": 4932,
    "Ġunt": 2291,
    "Ġrecommend": 7103,
    "Ġparr": 22123,
    "Ġrule": 1535,
    "Ġtrouble": 3693,
    "Ġreverse": 16984,
    "Ġissu": 6254,
    "met": 6654,
    "Ġdiligence": 17115,
    "sheets": 14445,
    "cooee": 12422,
    "Ġhappiest": 11886,
    "eh": 13713,
    "Ġaye": 3351,
    "Ġhundreds": 4329,
    "Ġalter": 6543,
    "counters": 25398,
    "Ġchurning": 15941,
    "direful": 25897,
    "ĠâĢľâĢĺ_": 25114,
    "Ġoblong": 14324,
    "Ġeagle": 13205,
    "Ġcandid": 4098,
    "Ġmightier": 18730,
    "Ġwhereas": 3858,
    "sighted": 19788,
    "Ġfow": 6134,
    "Ġsust": 7008,
    "cater": 20817,
    "Ġcommit": 18659,
    "Ġcosy": 13133,
    "Ġcharnel": 22256,
    "winds": 10524,
    "Ġcocain": 18597,
    "Ġinquiries": 5678,
    "enance": 3369,
    "Ġregimentals": 19860,
    "ifications": 9731,
    "Ġperu": 14225,
    "earnest": 12403,
    "Ġinvoluntarily": 8550,
    "iana": 7049,
    "Ġkicking": 16903,
    "tan": 4743,
    "ermost": 7429,
    "boats": 6205,
    "venor": 16101,
    "Ġlecture": 13570,
    "Ġaffectionately": 13171,
    "diver": 20833,
    "voyage": 7785,
    "cheeks": 23809,
    "dish": 12457,
    "Ġgums": 21614,
    "Ġnoon": 6560,
    "required": 17031,
    "Ġpassers": 18759,
    "childhood": 16870,
    "Ġstory": 2900,
    ".--": 20748,
    "Ġfates": 15582,
    "_.)": 7277,
    "Ġjuicy": 25371,
    ",âĢĿâĢĶ": 14218,
    "Ġcaulk": 25441,
    "voy": 7144,
    "Ġhorn": 6186,
    "emptied": 23637,
    "Ġsurmount": 20004,
    "Ġsubord": 22791,
    "Ġinvestig": 10552,
    "hval": 20900,
    "Ġadjacent": 20713,
    "ductive": 23939,
    "nearest": 16030,
    "watches": 14950,
    "Ġabreast": 18395,
    "Ġhealed": 21686,
    "an": 278,
    "Ġscrews": 25178,
    "Ġwanted": 4968,
    "Ġglue": 15678,
    "Ġattachment": 6050,
    "Ġarm": 2491,
    "Ġmany": 1105,
    "completed": 19997,
    "Ġalacrity": 15741,
    "wail": 21128,
    "clifford": 23160,
    "nne": 20991,
    "Ġachieves": 4380,
    "Ġdescried": 7919,
    "Ġpersistence": 3246,
    "Ġcathedral": 17416,
    "Ġplat": 8522,
    "Ġcrockery": 24303,
    "Ġ54": 24318,
    "Ġbattle": 5908,
    "Ġvolition": 14800,
    "bro": 4034,
    "Ġrose": 3448,
    "Ġsurgeon": 8984,
    "obtain": 23099,
    "trivial": 21095,
    "Ġal": 342,
    "int": 1201,
    "Ġdefine": 9818,
    "Ġdisk": 22526,
    "Ġstructural": 2797,
    "Ġparamore": 22126,
    "Ġboundary": 11224,
    "azore": 23466,
    "Ġindirect": 18837,
    "dreadful": 11423,
    "Ġloom": 7629,
    "blazing": 24133,
    "backed": 9869,
    "Ġrover": 18457,
    "weight": 2939,
    "tumultuous": 20402,
    "Ġnow": 692,
    "Ġlet": 1112,
    "Ġcanv": 7010,
    "Ġair": 1834,
    "Ġerroneous": 17412,
    "Ġgaff": 17996,
    "fatigue": 20660,
    "jure": 20926,
    "Ġtight": 8108,
    "Ġheadstrong": 14391,
    "Ġfaintest": 24570,
    "Ġdeliriously": 23229,
    "Ġinadequate": 17939,
    "Ġdisastrous": 16064,
    "Ġsubfield": 11873,
    "teen": 6370,
    "Ġimmens": 9942,
    "Ġins": 2779,
    "Ġcough": 11584,
    "Ġimprec": 14222,
    "itated": 4440,
    "Ġreads": 23118,
    "Ġrobinson": 17466,
    "cop": 20803,
    "bearings": 25372,
    "Ġsupercil": 23458,
    "ville": 6087,
    "Ġinterconnected": 1338,
    "Ġclut": 7642,
    "asc": 6386,
    "ias": 6363,
    "stolen": 13985,
    "âĢĶ(": 15942,
    "Ġnervously": 19187,
    "Ġcounter": 6481,
    "stall": 21649,
    "Ġenthusiasm": 8065,
    "oices": 7347,
    "Ġpurposes": 11170,
    "Ġempire": 11147,
    "odes": 18119,
    "een": 727,
    "Ġledger": 19405,
    "Ġitaly": 10869,
    "_.âĢĶ": 23476,
    "Ġusage": 9733,
    "Ġairth": 23320,
    "Ġwar": 5526,
    "Ġenters": 11027,
    "starbuck": 6019,
    "dri": 5888,
    "Ġcondescension": 10621,
    "Ġmalignant": 14881,
    "Ġapprove": 12879,
    "ologically": 22853,
    "worn": 13809,
    "more": 1032,
    "Ġinterruptions": 24189,
    "Ġgradual": 20604,
    "determination": 19948,
    "Ġtun": 5999,
    "Ġprotruded": 19473,
    "Ġeccentric": 13652,
    "Ġfur": 993,
    "Ġrespectfully": 18994,
    "Ġjewell": 19523,
    "omnipotent": 25965,
    "Ġunconscious": 9550,
    "vessels": 10628,
    "Ġrepining": 23363,
    "spe": 3563,
    "recovered": 19790,
    "goodness": 19291,
    "¼": 125,
    "sies": 21057,
    "Ġthose": 1171,
    "Ġfame": 21409,
    "urpation": 16305,
    "employ": 10897,
    "Ġchronicle": 20231,
    "few": 8203,
    "ĭ": 238,
    "Ġusages": 15919,
    "Ġfleeting": 19329,
    "Ġtheme": 16023,
    "Ġcele": 9903,
    "isite": 15567,
    "Ġhoarse": 14528,
    "Ġreason": 1393,
    "Ġpositions": 2055,
    "Ġplaid": 22604,
    "whal": 10942,
    "Ġdolphins": 20399,
    "Ġafrica": 12349,
    "Ġconstables": 19070,
    "Ġsallied": 12542,
    "Ġmerchant": 6467,
    "Ġsombre": 18861,
    "sus": 6229,
    "Ġsuppl": 11080,
    "udg": 22774,
    "green": 7116,
    "Ġbrains": 2628,
    "Ġbanners": 24859,
    "Ġunheeded": 18259,
    "relics": 24018,
    "james": 15376,
    "orts": 2553,
    "Ġgrew": 5182,
    "Ġderiv": 1735,
    "unwholesome": 26499,
    "Ġmaze": 23834,
    "Ġfalling": 6914,
    "scarcely": 12390,
    "complexion": 14364,
    "Ġlessons": 7692,
    "ibilities": 13012,
    "Ġmission": 13010,
    "ov": 15403,
    "ura": 1047,
    "Ġcast": 3609,
    "Ē": 211,
    "confused": 19642,
    "lan": 15381,
    "secre": 18130,
    "equ": 6790,
    "Ġheroes": 10579,
    "Ġhartshorn": 26182,
    "cheon": 23805,
    "Ġdocile": 19962,
    "Ġexperiments": 23024,
    "sters": 6391,
    "Ġphrensy": 25127,
    "Ġmaty": 22913,
    "Ġignorantly": 19498,
    "Ġthirdly": 24145,
    "Ġforces": 12708,
    "asting": 12812,
    "Ġfulfil": 9554,
    "Ġdearly": 10404,
    "Ġmorose": 18845,
    "Ġsensations": 5260,
    "university": 25984,
    "penetrating": 25491,
    "Ġserv": 3328,
    "nantucketer": 24975,
    "Ġinwards": 15625,
    "shaven": 18493,
    "Ġthinkings": 22813,
    "_?âĢĿ": 15309,
    "Ġsources": 10150,
    "reply": 19725,
    "Ġsevent": 18201,
    "Ġbeer": 10222,
    "B": 38,
    "Ġthackeray": 26457,
    "sweet": 8689,
    "Ġresult": 4460,
    "retion": 9366,
    "judged": 14834,
    "Ġcanoes": 12811,
    "bestow": 16931,
    "Ġrides": 21978,
    "flutterings": 26608,
    "_.âĢĻâĢĿ": 17482,
    "Ġbaleen": 10040,
    "Ġconsequences": 11337,
    "Ġzeros": 3324,
    "Ġextremities": 19198,
    "Ġagricultural": 26552,
    "Ġnuts": 17954,
    "accident": 11183,
    "Ġincredible": 9518,
    "ective": 18177,
    "Ġenabling": 1081,
    "Ġripe": 13238,
    "cull": 20811,
    "Ġheavier": 13104,
    "phere": 21021,
    "screw": 9349,
    "Ġsaddest": 16665,
    "Ġexcitement": 9384,
    "cous": 8725,
    "Ġbless": 4343,
    "Ġchairs": 12832,
    "earth": 6502,
    "Ġconsolation": 6209,
    "Ġcuts": 14609,
    "Ġscheme": 7065,
    "deserted": 19344,
    "raised": 15683,
    "Ġshepherd": 14155,
    "Ġcurves": 18857,
    "warrant": 21140,
    "ogene": 18657,
    "ced": 695,
    "Ġleast": 2062,
    "Ġlionel": 25287,
    "Ġspies": 22132,
    "lipped": 16220,
    "icates": 11620,
    "expose": 23666,
    "dances": 17523,
    "inent": 9631,
    "Ġslavish": 23176,
    "Ġfocuses": 8653,
    "Ġcheetah": 14504,
    "Ġirish": 14536,
    "gies": 13729,
    "Ġentered": 2845,
    "ouder": 17902,
    "Ġjagged": 18408,
    "Ġamber": 7027,
    "esley": 17904,
    "Ġassoc": 6402,
    "Ġhastily": 5763,
    "Ġrespite": 13157,
    "paint": 21020,
    "Ġuncork": 23433,
    "persons": 24177,
    "Ġflutter": 16252,
    "Ġreasonably": 11094,
    "atig": 13848,
    "Ġthird": 4185,
    "amet": 584,
    "arthy": 4824,
    "Ġmuskets": 17058,
    "Ġjingling": 26018,
    "Ġdum": 10813,
    "Ġintermission": 18588,
    "Ġagitation": 6864,
    "Ġjavelin": 26105,
    "Ġcostume": 16498,
    "Ġyesterday": 5333,
    "Ġdetestable": 15102,
    "Ġsimul": 1805,
    "Ġfry": 17881,
    "caves": 20818,
    "sank": 17664,
    "Ġincredulous": 9990,
    "Ġupbra": 22158,
    "sooner": 14780,
    "Ġgnashed": 20136,
    "riety": 12749,
    "Ġcorp": 5575,
    "Ġpick": 4255,
    "Ġbloss": 19258,
    "Ġtransparen": 10544,
    "Ġlightness": 23262,
    "shish": 11797,
    "dropping": 14985,
    "embedding": 20360,
    "baggage": 24927,
    "Ġstra": 2992,
    "Ġplainly": 4382,
    "tornadoes": 26154,
    "revival": 26163,
    "Ġsorrows": 13358,
    "Ġcorpor": 23044,
    "canallers": 22967,
    "Ġconcentrate": 25066,
    "Ġhapless": 15816,
    "tottenham": 25419,
    "ities": 1826,
    "Ġfatt": 15583,
    "rised": 10126,
    "Ġinequal": 21500,
    "strange": 6086,
    "ostent": 16848,
    "widely": 25344,
    "aggra": 21910,
    "uttle": 6248,
    "Ġceased": 6468,
    "Ġclout": 22350,
    "Ġdragging": 14477,
    "Ġorange": 8488,
    "Ġthrusting": 10555,
    "Ġshaft": 18230,
    "Ġrudimental": 25111,
    "®": 111,
    "Ġbubblingly": 25633,
    "Ġbunch": 11328,
    "omn": 15686,
    "Ġexpatiate": 18624,
    "izings": 14054,
    "Ġproflig": 23569,
    "Ġwarmed": 12028,
    "Ġrely": 8825,
    "ra": 314,
    "alle": 1296,
    "twas": 15440,
    "Ġplus": 3885,
    "dough": 15338,
    "Ġbamboo": 17440,
    "Ġtennessee": 26598,
    "Ġmeditation": 16707,
    "listener": 24931,
    "anish": 2615,
    "Ġcornelius": 13576,
    "aution": 9390,
    "rust": 2578,
    "Ġjiff": 22300,
    "raising": 21635,
    "verity": 14004,
    "analysis": 26174,
    "clinging": 20824,
    "Ġalph": 9698,
    "Ġtimidity": 24688,
    "scence": 14421,
    "diss": 17525,
    "osh": 18389,
    "Ġsporty": 19892,
    "Ġcomrade": 11682,
    "Ġwindlass": 7255,
    "carriage": 9949,
    "Ġdeadly": 5405,
    "Ġscotch": 12214,
    "Ġbanker": 8670,
    "Ġchina": 8040,
    "specul": 23946,
    "abomin": 15746,
    "Ġvigour": 24462,
    "Ġdecks": 6899,
    "Ġforgetfulness": 14608,
    "Ġexter": 7396,
    "Ġfancies": 10426,
    "ilar": 10218,
    "mod": 1070,
    "wes": 17705,
    "uge": 4016,
    "Ġg": 310,
    "concerted": 16674,
    "Ġcapture": 3383,
    "irted": 14074,
    "greg": 6649,
    "Ġprosecut": 9701,
    "distinguished": 10529,
    "Ġslices": 23168,
    "Ġpulley": 2977,
    "Ġcru": 2822,
    "Ġstrained": 10221,
    "Ġgospel": 18003,
    "Ġpam": 21457,
    "Ġsoup": 7068,
    "flitted": 23972,
    "provoke": 26072,
    "Ġprovid": 1009,
    "Ġsplin": 8622,
    "sprinkling": 24913,
    "deep": 1033,
    "Ġbarrier": 16572,
    "ort": 523,
    "Ġdecide": 9289,
    "Ġstationary": 19697,
    "Ġmarried": 3409,
    "13": 20752,
    "leeward": 15214,
    "yarn": 15460,
    "rarely": 21637,
    "Ġpleasurable": 23343,
    "covered": 11479,
    "hall": 8085,
    "shott": 11798,
    "uture": 1088,
    "Ġinvari": 6529,
    "Ġpiqu": 21480,
    "elfare": 11781,
    "Ġgallantry": 15107,
    "america": 17098,
    "Ġplank": 7034,
    "Ġconfess": 3769,
    "nament": 11509,
    "bbings": 19278,
    "Ġfairest": 20466,
    "iterranean": 15554,
    "Ġintrospective": 20603,
    "Ġdaughters": 4422,
    "oning": 7572,
    "Ġinside": 5448,
    "Ġpolluted": 25594,
    "soul": 9143,
    "acknowledging": 25477,
    "Ġwhal": 5454,
    "Ġperfectly": 3703,
    "Ġstrangers": 8314,
    "decoder": 3648,
    "iscuit": 10601,
    "should": 3262,
    "Ġsaint": 15510,
    "training": 2516,
    "Ġobedience": 11415,
    "Ġbuilding": 8063,
    "Ġsoon": 1229,
    "illustration": 2281,
    "Ġschol": 17380,
    "monograph": 23529,
    "ler": 3495,
    "moby": 8538,
    "Ġexperiment": 11922,
    "Ġpy": 21454,
    "Ġsur": 2183,
    "Ġrally": 21975,
    "Ġnoted": 15834,
    "Ġfat": 3466,
    "repairing": 24495,
    "okingly": 22385,
    "Ġplunged": 8696,
    "Ġglanced": 5952,
    "Ġdisplay": 6428,
    "humorously": 24024,
    "Ġdante": 21441,
    "whisper": 17084,
    "abern": 21794,
    "Ġjustify": 11074,
    "Ġjoyfully": 19349,
    "Ġmarling": 23037,
    "ites": 3901,
    "olic": 14045,
    "Ġstatue": 23152,
    "Ġcalf": 16271,
    "Ġrep": 1935,
    "gra": 769,
    "yielded": 25757,
    "Ġsaintly": 25932,
    "Ġwhites": 21720,
    "Ġinconsistency": 26184,
    "woof": 21142,
    "io": 3805,
    "Ġwearer": 21926,
    "Ġgomorrah": 21618,
    "Ġaids": 12233,
    "mmar": 953,
    "pping": 1428,
    "erative": 21275,
    "Ġsweep": 8266,
    "Ġrambling": 18640,
    "Ġspl": 2985,
    "Ġsympathies": 14864,
    "narrow": 11510,
    "foremost": 14255,
    "amy": 8469,
    "ĠĠĠĠĠĠĠĠĠĠĠĠĠĠĠĠĠĠĠĠĠĠĠĠĠĠĠĠĠĠĠĠĠĠĠĠĠĠĠĠĠĠĠĠĠ": 9955,
    "Ġguards": 16273,
    "Ġunw": 7004,
    "jane": 4482,
    "lucifer": 25302,
    "Ġhog": 13927,
    "shone": 22452,
    "Ġdepl": 14047,
    "Ġsubjected": 23574,
    "Ġwomen": 4751,
    "Ġjoined": 4565,
    "spin": 22739,
    "Ġfortnight": 6201,
    "Ġhammer": 6094,
    "Ġexcite": 11970,
    "strangers": 20339,
    "fearfully": 25119,
    "Ġtrustworthy": 24108,
    "Ġapple": 14171,
    "ency": 3871,
    "Ġlasted": 11055,
    "Ġcannot": 1668,
    "Ġoverhear": 15979,
    "Ġblasphemy": 26116,
    "Ġbuzz": 24000,
    "ackinaw": 22425,
    "Ġstole": 7953,
    "lesc": 11041,
    "Ġsched": 2335,
    "Ġmanufactured": 22334,
    "oriously": 17876,
    "Ġteaches": 18812,
    "Ġdevout": 14335,
    "Ġscud": 14193,
    "Ġtreatise": 19348,
    "eenth": 12465,
    "Ġexertion": 8054,
    "Ġconfided": 19036,
    "Ġenchantment": 24870,
    "Ġencourages": 2059,
    "valuable": 8246,
    "pierced": 26142,
    "Ġcant": 17826,
    "Ġwicked": 5961,
    "Ġintruder": 25992,
    "ction": 502,
    "otent": 8836,
    "ivates": 18276,
    "quarters": 24949,
    "Ġmuse": 13863,
    "Ġhydraul": 9517,
    "Ġvow": 10249,
    "laying": 19775,
    "agery": 21911,
    "Ġgraphs": 25464,
    "Ġinquiring": 9002,
    "Ġpolicy": 10459,
    "Ġadam": 2126,
    "trans": 5594,
    "Ġcrushing": 20179,
    "susp": 10599,
    "Ġlurk": 13386,
    "br": 2477,
    "Ġscrupulous": 20072,
    "lorn": 12492,
    "ward": 705,
    "embraces": 25806,
    "hob": 20902,
    "Ġsixty": 7722,
    "bery": 9790,
    "Ġextracts": 9362,
    "Ġinvoking": 19147,
    "Ġmeridian": 25713,
    "Ġfobbing": 26443,
    "eag": 20844,
    "crimson": 24090,
    "Ġcompanions": 5866,
    "Ġvit": 10248,
    "Ġincludes": 2010,
    "offic": 7465,
    "Ġoutrid": 22319,
    "Y": 61,
    "reduc": 5460,
    "Ġgrimes": 11036,
    "Ġexciting": 23314,
    "Ġwelfare": 12564,
    "Ġrequisite": 18651,
    "like": 1884,
    "mounting": 25208,
    "Ġdoorway": 14499,
    "Ġbaked": 21389,
    "¢": 100,
    "Ġdiabolism": 25515,
    "Ġabsolutely": 4859,
    "Ġciv": 3308,
    "Ġpeasants": 12336,
    "Ġprofile": 16490,
    "icted": 5937,
    "Ġpatagon": 14506,
    "icated": 7591,
    "Ġinsure": 13181,
    "Ġpointing": 5661,
    "oon": 6365,
    "Ġprivacy": 19527,
    "Ġvoids": 25808,
    "Ġoverall": 4359,
    "windlass": 16723,
    "suffered": 24330,
    "Ġasse": 8160,
    "itute": 9654,
    "Ġtwisted": 7227,
    "Ġwield": 21293,
    "Ġglimpses": 13435,
    "ilt": 2970,
    "itying": 21998,
    "Ġconduct": 3736,
    "Ġcompose": 12908,
    "atisf": 21266,
    "Ġtranslates": 12055,
    "stige": 21664,
    "Ġrehearsed": 25972,
    "perpendicular": 14162,
    "desponding": 26343,
    "ilogue": 21728,
    "Ġmeantime": 6207,
    "ispens": 8336,
    "ized": 1530,
    "Ġenjoyments": 24021,
    "Ġaversion": 18867,
    "Ġguest": 7248,
    "Ġmeanings": 18608,
    "unching": 18161,
    "Ġsits": 10770,
    "Ġampl": 22485,
    "._]]": 5335,
    "Ġdeception": 18142,
    "Ġlicense": 20094,
    "Ġtaking": 3250,
    "Ġchannel": 26013,
    "happ": 3102,
    "\"": 6,
    "Ġabruptly": 15154,
    "Ġseem": 913,
    "Ġreef": 10851,
    "Ġdoctrine": 24200,
    "Ġplaning": 22605,
    "hent": 12539,
    "Ġadmirers": 19689,
    "Ġsimply": 7217,
    "quadrille": 20598,
    "moments": 19415,
    "asion": 5714,
    "frau": 15093,
    "Ġnewcomers": 26042,
    "Ġsoaked": 15865,
    "reast": 17760,
    "Ġclattered": 22356,
    "erval": 4019,
    "Ġliber": 5168,
    "Ġmiserable": 3638,
    "Ġmonica": 22983,
    "Ġarticulate": 24432,
    "Ġsocieties": 20185,
    "private": 13585,
    "astern": 8584,
    "Ġ119": 24441,
    "Ġimperfect": 13343,
    "Ġcarefully": 6305,
    "Ġwhenever": 5166,
    "Ġdiversion": 17200,
    "Ġserved": 8247,
    "Ġclub": 8877,
    "Ġplanning": 14754,
    "Ġpaternal": 16381,
    "compass": 9463,
    "Ġunfavourable": 17420,
    "https": 11687,
    "Ġcomely": 21852,
    "genteel": 19952,
    "Ġtom": 15637,
    "grasp": 16434,
    "etrics": 21588,
    "emph": 21932,
    "Ġadmirable": 8269,
    "comrade": 18740,
    "Ġemir": 23353,
    "Ġlinks": 13958,
    "destruction": 11256,
    "Ġboasted": 16110,
    "Ġreligion": 11417,
    "accompan": 11454,
    "Ġjoys": 13224,
    "Ġprojecting": 9988,
    "Ġrasc": 21981,
    "Ġstones": 9224,
    "ronted": 14880,
    "Ġpip": 1635,
    "eland": 11623,
    "Ġtalker": 23374,
    "Ġvalu": 5038,
    "during": 6787,
    "rudence": 7093,
    "Ġautonom": 10417,
    "========": 2309,
    "stad": 7598,
    "Ġwronged": 24250,
    "Ġfainting": 16899,
    "oftentimes": 19424,
    "Ġunappe": 22018,
    "Ġwondering": 7971,
    "Ġrags": 18641,
    "Ġislands": 6766,
    "bble": 17487,
    "Ġtrace": 6181,
    "idy": 21768,
    "Ġbritannica": 24681,
    "Ġsubtle": 6717,
    "Ġselection": 18203,
    "aboard": 21798,
    "Ġlord": 2968,
    "Ġsuspicious": 9483,
    "athies": 22705,
    "hear": 10149,
    "skull": 24488,
    "Ġfraud": 19057,
    "painted": 17641,
    "act": 783,
    "Ġdestitute": 14569,
    "intelligent": 16846,
    "swift": 14855,
    "cold": 9592,
    "Ġdes": 1252,
    "stop": 11638,
    "Ġenumer": 12751,
    "Ġwholly": 4447,
    "Ġrespectively": 23250,
    "12": 20751,
    "Ġdisco": 3429,
    "Ġmiddle": 4136,
    "Ġgn": 8822,
    "Ġdelightfully": 13161,
    "biscuit": 17503,
    "Ġchiselled": 25560,
    "unsupervised": 10891,
    "cture": 15669,
    "sofa": 26147,
    "Ġreplacing": 3454,
    "Ġfable": 15581,
    "uit": 8393,
    "Ġstartling": 14673,
    "Ġprobability": 1125,
    "Ġshortly": 6197,
    "Ġforwards": 12709,
    "Ġwhirled": 14963,
    "Ġthoroughfare": 16946,
    "Ġminiatures": 20324,
    "Ġcompass": 4409,
    "unfort": 21880,
    "het": 5435,
    "Ġlooked": 1801,
    "Ġdistribution": 2018,
    "Ġ$": 21153,
    "Ġlysander": 13141,
    "meaning": 2906,
    "Ġlocking": 18299,
    "Ġchil": 11755,
    "Ġpeaceable": 14726,
    "Ġundisturbed": 19522,
    "Ġhump": 5854,
    "Ġay": 15494,
    "Ġservants": 6611,
    "Ġpreference": 9736,
    "Ġtra": 1384,
    "Ġapproving": 18515,
    "Ġarrayed": 25665,
    "Ġfishes": 11594,
    "Ġapologizing": 25198,
    "Ġinferences": 17937,
    "Ġ126": 24471,
    "mccarthy": 15398,
    "Ġsash": 17756,
    "representation": 20199,
    "taffrail": 15445,
    "oar": 12502,
    "zag": 17715,
    "confl": 22475,
    "Ġhurried": 4031,
    "gradient": 2272,
    "Ġconceals": 23907,
    "Ġwaterloo": 11985,
    "abouts": 9456,
    "idge": 14017,
    "Ġrather": 1496,
    "Ġsunny": 13089,
    "Ġsaws": 23052,
    "Ġaval": 15496,
    "Ġdrive": 5055,
    "Ġthanks": 6708,
    "Ġvolume": 6769,
    "Ġlulled": 17971,
    "Ġpeels": 22696,
    "Ġdro": 2769,
    "Ġsperma": 19047,
    "draught": 12095,
    "freely": 16856,
    "Ġweedy": 15796,
    "Ġforeheads": 23452,
    "Ġghost": 6143,
    "snow": 10726,
    "Ġwish": 2096,
    "Ġinterruption": 9476,
    "Ġrus": 14096,
    "Ġcourtesy": 9948,
    "related": 24015,
    "Ġraging": 14308,
    "wanted": 10745,
    "Ġhellaswag": 24343,
    "izers": 18145,
    "Ġland": 1996,
    "wondrous": 12342,
    "Ġfever": 6559,
    "boilers": 26298,
    "talk": 6658,
    "Ġimpediments": 26242,
    "stache": 15694,
    "haw": 6362,
    "based": 2962,
    "Ġcook": 3714,
    "bec": 4052,
    "Ġimpo": 3447,
    "Ġfallen": 5968,
    "Ġcoats": 16080,
    "Ġhotels": 19539,
    "deployment": 26529,
    "ayed": 12718,
    "Ġcontradict": 12389,
    "Ġexposing": 11836,
    "alluring": 18353,
    "Ġmighty": 4228,
    "Ġregrets": 18593,
    "Ġsuppressing": 22999,
    "Ġcandelabra": 26604,
    "Ġthreats": 13380,
    "Ġnewcomer": 26041,
    "Ġhull": 5446,
    "sing": 5138,
    "Ġpatted": 16379,
    "Ġintroduces": 3269,
    "Ġcurtains": 23007,
    "tastes": 21099,
    "affrail": 11207,
    "feet": 6569,
    "Ġswim": 3823,
    "Ġcomfortless": 23916,
    "Ġbehooves": 20735,
    "Ġmallet": 17812,
    "Ġluxurious": 17314,
    "Ġharry": 24572,
    "Ġmoritz": 11910,
    "Ġcur": 1273,
    "Ġapt": 9158,
    "orrow": 2913,
    "Ġlizz": 21560,
    "Ġgentlemanly": 19318,
    "Ġunforeseen": 22053,
    "Ġsensitive": 13202,
    "ensing": 12902,
    "Ġimposs": 16618,
    "Ġzoned": 22823,
    "Ġvast": 3295,
    "Ġtit": 8400,
    "Ġtrained": 8504,
    "Ġharvest": 13418,
    "Ġconsuming": 22795,
    "Ġlistening": 6319,
    "Ġspecific": 2001,
    "Ġcordially": 16838,
    "utterly": 20015,
    "Ġsmothe": 18574,
    "Ġpaste": 23422,
    "Ġecstasy": 11633,
    "Ġconsume": 12963,
    "Ġcoronation": 13337,
    "Ġeffusions": 18537,
    "cav": 17510,
    "Ġsheepfold": 25467,
    "im": 327,
    "Ġsoar": 18278,
    "Ġgrateful": 7660,
    "Ġadmeasure": 18294,
    "ity": 417,
    "Ġweig": 7619,
    "robust": 19731,
    "finished": 10557,
    "Ġwide": 4107,
    "Ġscound": 12839,
    "Ġregent": 18590,
    "Ġsavoury": 23880,
    "Ġhesitating": 16949,
    "Ġraise": 6167,
    "Ġferule": 24499,
    "Ġ98": 24594,
    "Ġinsight": 16533,
    "admit": 18093,
    "Ġsig": 868,
    "Ġemma": 20697,
    "Ġcrawl": 11377,
    "performances": 26007,
    "Ġslaves": 23172,
    "Ġimpending": 22392,
    "Ġundu": 15841,
    "Ġsprang": 5064,
    "Ġessays": 19747,
    "Ġbeautiful": 3675,
    "Ġmale": 9651,
    "Ġunnear": 22028,
    "particip": 23618,
    "behold": 12883,
    "asht": 4083,
    "Ġfrost": 6096,
    "Ġmutineer": 19421,
    "Ġvalidation": 2354,
    "inj": 9154,
    "digger": 24312,
    "Ġlashes": 17969,
    "_)âĢĶ": 20147,
    "Ġjer": 6267,
    "ments": 1401,
    "new": 1467,
    "quid": 18149,
    "after": 2895,
    "Ġpowder": 11277,
    "entropy": 1442,
    "acters": 9312,
    "idea": 9304,
    "Ġwed": 7575,
    "leaves": 12584,
    "Ġspurred": 22142,
    "Ġtrop": 7565,
    "Ġinsights": 13182,
    "balanced": 14558,
    "hunting": 24385,
    "Ġpost": 4271,
    "Ġlad": 2361,
    "cring": 20813,
    "Ġcocked": 12910,
    "Ġtwitched": 20447,
    "repugnance": 16866,
    "Ġdistributions": 1051,
    "âĢľâĢĻ": 10224,
    "Ġcrush": 9425,
    "designated": 26320,
    "ptic": 21928,
    "Ġoysters": 20582,
    "Ġdiscernment": 15072,
    "vicious": 21121,
    "dinah": 20084,
    "vens": 21115,
    "Ġdevelop": 1664,
    "oton": 3610,
    "Ġchemistry": 11462,
    "Ġbodings": 21394,
    "Ġreplace": 14478,
    "Ġdance": 4442,
    "Ġ94": 17719,
    "worship": 19390,
    "Ġinstance": 2543,
    "principle": 10653,
    "heavy": 10577,
    "furn": 10094,
    "uries": 6148,
    "hmael": 7341,
    "conceive": 16033,
    "argue": 21447,
    "Ġfift": 6382,
    "Ġfarmhouse": 24987,
    "Ġseries": 7061,
    "Ġfug": 12601,
    "portent": 25413,
    "Ġdiffers": 23783,
    "Ġelizabeth": 1130,
    "pun": 9620,
    "professor": 17252,
    "Ġhorse": 4726,
    "Ġsequel": 14360,
    "Ġdispositions": 13236,
    "Ġrecoil": 18685,
    "Ġle": 333,
    "Ġaccord": 4025,
    "Ġeither": 2603,
    "Ġround": 1369,
    "Ġoffices": 14341,
    "osing": 3692,
    "gammon": 20246,
    "circumstances": 8047,
    "sailor": 14718,
    "Ġprodu": 1207,
    "Ġunscrew": 22040,
    "vol": 734,
    "anc": 6379,
    "Ġdrawled": 23992,
    "Ġtraits": 23078,
    "Ġdeactivates": 20706,
    "Ġtip": 15474,
    "Ġgloried": 22985,
    "Ġmincing": 18752,
    "Ġcoming": 2616,
    "Ġbaby": 6638,
    "already": 6980,
    "Ġreco": 9791,
    "Ġordinarily": 20651,
    "gal": 15359,
    "Ġgroping": 13669,
    "Ġindisposed": 26289,
    "Ġshiny": 14109,
    "Ġfuel": 13907,
    "ivorous": 22083,
    "Ġtask": 1311,
    "aging": 2236,
    "ofs": 11834,
    "Ġtradesmen": 17106,
    "Ġbreaches": 14523,
    "sherlock": 5422,
    "Ġwhistle": 9068,
    "Ġpilgrim": 25600,
    "mant": 20967,
    "Ġsord": 21222,
    "unsuitable": 21897,
    "Ġunhallowed": 17183,
    "Ġstoried": 18075,
    "Ġtempt": 5565,
    "Ġhasty": 10479,
    "Ġnewcom": 16225,
    "Ġscrewing": 20211,
    "Ġhideous": 5983,
    "Ġpoets": 11825,
    "Ġpictures": 5503,
    "lonely": 20959,
    "awe": 20767,
    "Ġcentre": 5123,
    "Ġadduced": 26526,
    "Ġtruck": 19514,
    "Ġresid": 22542,
    "Ġtrap": 7672,
    "puzz": 17642,
    "Ġcomical": 11681,
    "lier": 20951,
    "fixed": 7548,
    "Ġdrown": 6815,
    "Ġappet": 9734,
    "Ġmeant": 3553,
    "wake": 11548,
    "Ġwherever": 8525,
    "Ġdebility": 24275,
    "shadow": 20315,
    "inct": 3291,
    "Ġobliged": 4284,
    "hereabouts": 23608,
    "Ġcaution": 11348,
    "idav": 18095,
    "glimmer": 26323,
    "Ġbal": 1133,
    "byter": 16217,
    "Ġvexations": 24610,
    "Ġuniform": 2225,
    "Ġannounce": 13342,
    "breckinridge": 24078,
    "gaining": 20127,
    "Ġcongregational": 25105,
    "ils": 3184,
    "arus": 13915,
    "Ġpermitted": 9281,
    "icher": 9205,
    "Ġsecondary": 23334,
    "Ġfifth": 11259,
    "Ã¦us": 14820,
    "oring": 1858,
    "Ġjudges": 14687,
    "Ġproducing": 11903,
    "Ġchemical": 10412,
    "Ġprosecution": 12385,
    "quin": 21857,
    "descending": 16287,
    "Ġquieted": 23846,
    "Ġuttering": 16463,
    "Ġchapel": 9526,
    "Ġupd": 947,
    "peril": 18340,
    "Ġweak": 5098,
    "Ġtube": 15005,
    "Ġchili": 25562,
    "oko": 18441,
    "course": 6105,
    "Ġridicule": 13514,
    "fiend": 13664,
    "Ġeurope": 8062,
    "spl": 9142,
    "Ġwondered": 11127,
    "Ġpopulation": 16829,
    "Ġartfully": 22615,
    "Ġinto": 649,
    "Ġtusk": 25426,
    "Ġconj": 8462,
    "Ġalluding": 18270,
    "Ġreasoned": 23088,
    "Ġweighted": 2089,
    "Ġsaving": 15891,
    "Ġwip": 13856,
    "Ġarms": 3967,
    "matic": 4619,
    "Ġshaded": 14108,
    "hung": 8381,
    "Ġneighbors": 25805,
    "Ġmask": 1864,
    "Ġexpanding": 25239,
    "Ġstraining": 11329,
    "Ġad": 440,
    "mond": 20976,
    "middle": 11312,
    "Ġmoral": 6580,
    "sch": 21053,
    "gun": 10099,
    "Ġyellowish": 24430,
    "bench": 16805,
    "Ġcatches": 23430,
    "engthen": 14460,
    "Ġnervous": 2404,
    "Ġfoaming": 18992,
    "aul": 6353,
    "circle": 16738,
    "Ġpretty": 3864,
    "brace": 16944,
    "field": 3071,
    "Ġperiod": 4003,
    "Ġremove": 7499,
    "devilish": 17083,
    "ump": 2282,
    "Ġchival": 14185,
    "Ġevolved": 9894,
    "Ġpia": 21467,
    "urity": 8143,
    "Ġgratitude": 5599,
    "Ġleatherhead": 20017,
    "ways": 1445,
    "balance": 12011,
    "Ġterror": 5124,
    "french": 9122,
    "Ġcushion": 17835,
    "Ġnavigators": 19766,
    "Ġwal": 6517,
    "Ġtwelfth": 22683,
    "eline": 2426,
    "Ġaunts": 21203,
    "Ġsuperiority": 14618,
    "Ġmichaelmas": 26376,
    "Ġmail": 17802,
    "resentment": 15189,
    "Ġdemanding": 16807,
    "conscientious": 19629,
    "Ġlays": 15989,
    "Ġdrinking": 12173,
    "Ġeconomical": 25288,
    "Ġassurance": 7774,
    "Ġtiara": 26417,
    "flung": 16641,
    "Ġlodges": 19503,
    "torn": 17684,
    "Ġfusion": 21417,
    "anting": 6412,
    "Ġsuggests": 12205,
    "Ġaghast": 16050,
    "gigantic": 15363,
    "Ġbundles": 26176,
    "drink": 10598,
    "Ġinstruction": 14347,
    "Ġsurvive": 9069,
    "el": 306,
    "âĢľâĢĶ": 10874,
    "Ġdecipher": 22450,
    "Ġsimulation": 2750,
    "Ġwilds": 16511,
    "Ġtanning": 17731,
    "](": 11468,
    "ious": 770,
    "ortion": 11761,
    "Ġswash": 23058,
    "abez": 10225,
    "prejudiced": 17300,
    "Ġboys": 5194,
    "Ġtherein": 11780,
    "conda": 18993,
    "paying": 25412,
    "Ġcuba": 25098,
    "ushed": 2973,
    "serpent": 16295,
    "Ġprouder": 18973,
    "ju": 13744,
    "gratulation": 24349,
    "Ġglowing": 12287,
    "Ġpigeon": 9519,
    "confusion": 13373,
    "scru": 16244,
    "Ġnew": 1198,
    "pulled": 25148,
    "Ġdigesting": 19812,
    "Ġcraggy": 23532,
    "Ġsaturn": 22904,
    "Ġstout": 6025,
    "Ġpraying": 19557,
    "Ġspiritual": 9933,
    "Ġvis": 1072,
    "Ġslavery": 16311,
    "Ġsport": 6689,
    "Ġaccelerate": 23227,
    "unct": 18157,
    "Ġharp": 17926,
    "concerned": 24639,
    "Ġchanc": 18385,
    "henry": 16628,
    "unworthy": 18164,
    "Ġhurrah": 9872,
    "gan": 2198,
    "Ġfatigue": 8701,
    "Ġlouder": 13471,
    "Ġgems": 9211,
    "impart": 21712,
    "discoveries": 25386,
    "Ġrush": 5925,
    "Ġdarting": 7756,
    "Ġdevoting": 22735,
    "sy": 2833,
    "Ġdesist": 16240,
    "Ġheed": 5630,
    "Ġderives": 16312,
    "Ġsuav": 22091,
    "Ġpostmark": 16727,
    "Ġushered": 18356,
    "Ġfeminine": 15267,
    "Ġvictims": 19807,
    "Ġordering": 18997,
    "viv": 17700,
    "Ġcleaning": 23183,
    "Ġmiguel": 25767,
    "Ġemigrant": 25860,
    "firmly": 20283,
    "Ġgrappling": 25813,
    "mitting": 20975,
    "arers": 12134,
    "gaz": 20880,
    "¾": 127,
    "Ġnorton": 12655,
    "Ġreligions": 20111,
    "yesterday": 10356,
    "Ġwheel": 9721,
    "noted": 22752,
    "anity": 9657,
    "Ġindustry": 18839,
    "Ġexploit": 19164,
    "twist": 23704,
    "pounds": 21027,
    "ourney": 3556,
    "Ġskills": 1837,
    "Ġannihil": 10177,
    "service": 15039,
    "relieved": 13280,
    "acetty": 24464,
    "Ġhempen": 13553,
    "Ġobserved": 3544,
    "Ġstirred": 12222,
    "Ġbennett": 16327,
    "Ġpop": 5151,
    "inc": 2519,
    "Ġrespectability": 14487,
    "absent": 21793,
    "shoes": 14242,
    "Ġfoes": 11955,
    "establish": 17396,
    "Ġfelicity": 7259,
    "duck": 22416,
    "Ġoftentimes": 20158,
    "Ġshowers": 16607,
    "ith": 330,
    "Ġrobots": 11084,
    "Ġashen": 21903,
    "Ġpious": 11602,
    "Ġsaturation": 2060,
    "Ġamput": 16038,
    "Ġpuzzled": 7316,
    "uce": 11538,
    "Ġcloth": 9746,
    "Ġfoundation": 4230,
    "Ġperhaps": 1909,
    "fashioned": 9573,
    "readiness": 19366,
    "Ġphrenolog": 12338,
    "Ġfossil": 12391,
    "Ġjournal": 15222,
    "mason": 17604,
    "emy": 14078,
    "Ġhas": 824,
    "perch": 18339,
    "benevol": 12231,
    "Ġbeheld": 4492,
    "Ġarrival": 4732,
    "oof": 15408,
    "Ġsometimes": 2168,
    "Ġbell": 4636,
    "toes": 22568,
    "Ġfade": 21410,
    "Ġcased": 21349,
    "Ġsoph": 1537,
    "morland": 24155,
    "ă": 196,
    "Ġreceives": 20357,
    "Ġhip": 17923,
    "Ġje": 4121,
    "Ġfrequented": 16588,
    "Ġpersons": 6183,
    "project": 16428,
    "Ġairy": 23319,
    "Ġinseparable": 20691,
    "ithmetic": 18064,
    "Ġbottles": 16573,
    "Ġshadow": 5596,
    "Ġpockets": 8899,
    "guard": 12133,
    "Ġguided": 10462,
    "Ġstudent": 14482,
    "eman": 5636,
    "dz": 4740,
    "acy": 3956,
    "Ġpaddled": 20204,
    "Ġpoisoned": 24887,
    "Ġassid": 18947,
    "Ġmoods": 14954,
    "feed": 9296,
    "Ġapproximate": 2340,
    "Ġro": 599,
    "poison": 14395,
    "Ġobserver": 11993,
    "rael": 21632,
    "ature": 518,
    "public": 17648,
    "Ġfarm": 7840,
    "endeavouring": 15018,
    "Ġspout": 3282,
    "Ġthrone": 12218,
    "Ġajar": 21205,
    "unbe": 21876,
    "Ġforswe": 21778,
    "Ġchimneys": 16974,
    "Ġoffspring": 16149,
    "Ġsunrise": 9375,
    "Ġindignation": 8347,
    "Ġ96": 24593,
    "Ġshuddering": 9054,
    "Ġdelirium": 10407,
    "Ġneglected": 10380,
    "ixed": 4853,
    "Ġinterests": 14572,
    "Ġlayers": 817,
    "Ġhearties": 18967,
    "Ġpurplish": 19142,
    "aft": 9586,
    "Ġcrescentic": 20625,
    "Ġaddressed": 5263,
    "S": 55,
    "Ġfronts": 19002,
    "Ġdistributes": 4193,
    "Ġcoopman": 25829,
    "Ġbodies": 8032,
    "Ġslashing": 23173,
    "Ġshalt": 18231,
    "Ġrestraint": 15131,
    "traced": 19648,
    "Ġsubsisted": 19119,
    "mere": 11859,
    "garious": 17560,
    "Ġaft": 5737,
    "Ġreleased": 2979,
    "Ġens": 2786,
    "unlike": 18159,
    "Ġtales": 10144,
    "Ġoutlines": 15961,
    "Ġfrequencies": 4790,
    "Ġsupport": 6728,
    "cake": 20806,
    "Ġsupremacy": 20263,
    "Ġfinery": 23130,
    "Ġwafted": 14500,
    "blubber": 15240,
    "Ġreputed": 18038,
    "Ġrelevance": 5184,
    "Ġyears": 1890,
    "Ġprophesy": 26062,
    "rel": 3756,
    "Ġdisabled": 18562,
    "prosperity": 20737,
    "less": 928,
    "Ġheightens": 24156,
    "Ġadver": 5641,
    "pick": 17636,
    "abs": 11670,
    "Ġattain": 12753,
    "Ġgilded": 17448,
    "Ġvariants": 1790,
    "france": 24284,
    "Ą": 197,
    "Ġdraw": 3674,
    "Ġbelieves": 14411,
    "lover": 18534,
    "Ġadvantage": 4317,
    "Ġprocedure": 2808,
    "Ġunaccountably": 26517,
    "Ġevolve": 3002,
    "Ġforbear": 17124,
    "Ġspoils": 24805,
    "Ġassented": 17341,
    "Ġincul": 22553,
    "ssian": 3400,
    "arled": 21445,
    "terrors": 25044,
    "Ġdire": 866,
    "Ġhandle": 3135,
    "Ġcrack": 7709,
    "Ġfierce": 7436,
    "bedroom": 14701,
    "contrasted": 17309,
    "Ġincident": 6281,
    "Ġvillainous": 25134,
    "hav": 20899,
    "Ġslu": 13839,
    "osal": 11763,
    "Ġengine": 1919,
    "ella": 12754,
    "Ġsolely": 9913,
    "Ġwatchman": 23671,
    "libra": 22928,
    "broke": 14781,
    "ahit": 9385,
    "Ġperpet": 7645,
    "Ġattained": 14081,
    "Ġexeget": 24087,
    "reas": 990,
    "Ġsyrian": 18355,
    "Ġhorr": 3192,
    "Ġdiverged": 23596,
    "requent": 3653,
    "among": 6257,
    "orm": 425,
    "Ġwho": 613,
    "Ġfurlongs": 20725,
    "eg": 17531,
    "Ġfashionable": 19547,
    "ohog": 9846,
    "Ġbone": 4696,
    "Ġcolonnades": 26277,
    "gate": 12471,
    "Ġcommon": 1415,
    "Ġantilles": 24182,
    "ply": 6366,
    "Ġmusk": 7494,
    "Ġbattalions": 25777,
    "zwilliam": 5074,
    "Ġdates": 6694,
    "Ġmisgiv": 14348,
    "amaz": 21848,
    "lotte": 3330,
    "Ġmiracle": 15097,
    "Ġuntoward": 19167,
    "Ġreiter": 21669,
    "arking": 16129,
    "Ġexertions": 13413,
    "Õ": 150,
    "Ġey": 8135,
    "Ġoutskirts": 17460,
    "hurry": 24762,
    "Ġintelligent": 1425,
    "Ġmonths": 3460,
    "Ġcens": 8414,
    "Ġweeks": 4566,
    "entrance": 12663,
    "Ġtunes": 24620,
    "Ġsegment": 12763,
    "closing": 23159,
    "imper": 14000,
    "Ġinhaled": 25452,
    "comprehensive": 20629,
    "Ġbier": 22771,
    "Ġcuff": 17831,
    "Ġsabbath": 17257,
    "Ġskylight": 24076,
    "Ġshooting": 11164,
    "skelter": 24490,
    "Ġpacing": 8427,
    "Ġesteemed": 10591,
    "Ġalterations": 19873,
    "Ġsod": 11564,
    "Ġnorth": 4320,
    "Ġrequirements": 9798,
    "proble": 9397,
    "Ġlibraries": 20617,
    "thence": 23403,
    "ago": 14068,
    "Ġmayhap": 18712,
    "Ġincoherent": 17403,
    "paid": 15417,
    "Ġlights": 8963,
    "sad": 11523,
    "Ġwaves": 3921,
    "âĢĿ": 354,
    "apped": 5395,
    "individual": 18437,
    "Ġchamois": 16802,
    "wouldn": 23538,
    "Ġeighteenth": 14757,
    "exagger": 22432,
    "Ġvehemence": 26568,
    "coff": 9112,
    "achines": 1721,
    "irect": 5553,
    "Ġexpon": 970,
    "ryphon": 4162,
    "coffin": 10665,
    "Ġstreaked": 19115,
    "Ġcat": 2121,
    "Ġhemp": 9218,
    "Ġenvironments": 24023,
    "Ġjoyously": 19350,
    "Ġappetite": 12388,
    "Ġtalk": 1969,
    "Ġagreeing": 20022,
    "Ġdisorder": 16055,
    "Ġtricks": 13487,
    "chest": 11210,
    "Ġsorrowful": 10539,
    "Ġislets": 21805,
    "ph": 914,
    "rously": 17656,
    "Ġamounted": 18513,
    "Ġpasses": 2676,
    "got": 6954,
    "gressive": 2752,
    "ersman": 11706,
    "augh": 1779,
    "excellent": 8044,
    "Ġshell": 11740,
    "Ġsimilarity": 3168,
    "eds": 6530,
    "melancholy": 12357,
    "Ġcompanionship": 14923,
    "Ġhosea": 17334,
    "Ġpewter": 17188,
    "lacings": 26135,
    "non": 9614,
    "rederick": 14089,
    "Ġpew": 9318,
    "Ġtracks": 18892,
    "Ġ221": 25071,
    "Ġlargest": 6283,
    "ics": 3257,
    "papers": 12506,
    "Ġtry": 3132,
    "Ġtweezers": 26558,
    "Ġhier": 1893,
    "beings": 12882,
    "Ġawaiting": 11392,
    "cursed": 23847,
    "Ġhindoo": 17178,
    "Ġrushed": 4087,
    "front": 12175,
    "estion": 18363,
    "expectations": 24279,
    "Ġthereof": 22372,
    "Ġprocesses": 3637,
    "Ġqualities": 7533,
    "odox": 21815,
    "haustible": 16893,
    "Ġsell": 7825,
    "buffalo": 20566,
    "Ġworldly": 16332,
    "thouse": 21986,
    "chamber": 13628,
    "Ġcharcoal": 19007,
    "Ġaugment": 8695,
    "hig": 12479,
    "Ġtent": 15470,
    "Ġpoetical": 25059,
    "Ġspitzbergen": 15291,
    "Ġtearless": 24785,
    "scot": 14420,
    "Ġrueful": 25582,
    "Ġtunnels": 24621,
    "welcomed": 24645,
    "Ġdanish": 21434,
    "alk": 1150,
    "Ġhaws": 21955,
    "ĠĠĠĠĠĠĠĠĠĠĠĠĠĠĠĠĠĠĠĠĠĠĠĠĠĠĠĠĠĠĠĠĠĠĠĠĠ": 14616,
    "Ġyankees": 26203,
    "Ġstealing": 18895,
    "Ġattent": 4361,
    "Ġravines": 25833,
    "Ġventured": 7501,
    "Ġstores": 18071,
    "car": 4209,
    "Ġpassionate": 11275,
    "Ġstanzas": 21748,
    "Ġcoer": 22584,
    "Ġprincipal": 6496,
    "escaped": 14233,
    "Ġjoints": 12040,
    "blow": 9107,
    "Ġoverpowering": 15253,
    "nurtured": 25525,
    "Ġbehaviour": 4385,
    "Ġlouis": 8357,
    "Ġprejudices": 13472,
    "Ġjob": 7016,
    "Ġaccomplished": 7105,
    "Ġloathed": 15879,
    "Ġadditional": 7936,
    "moving": 11019,
    "Ġardently": 9501,
    "Ġfollies": 16259,
    "numbers": 17618,
    "Ġcusack": 26435,
    "Ġdispirited": 23885,
    "Ġneskyeuna": 26461,
    "mountains": 15184,
    "Ġcautious": 12258,
    "Ġflashes": 11919,
    "Ġfinancial": 23133,
    "Ġarrows": 18344,
    "coach": 23562,
    "Ġlieuten": 13330,
    "Ġnods": 19062,
    "ulence": 15769,
    "puzzling": 26144,
    "Ġbankrupt": 16798,
    "Ġheav": 1848,
    "furthest": 19844,
    "Ġcontemplate": 19894,
    "Ġtyro": 16996,
    "Ġanecdote": 26356,
    "rapt": 13976,
    "Ġaccommodate": 20520,
    "ougher": 18279,
    "topic": 10530,
    "Ġmonarchs": 25851,
    "doubted": 17528,
    "Ġstrateg": 1354,
    "salis": 25150,
    "Ġdu": 4585,
    "resembled": 21249,
    "Ġnotorious": 18224,
    "Ġbroken": 3453,
    "Ġsolace": 16203,
    "Ġenumerating": 15248,
    "Ġmechan": 1168,
    "thur": 7187,
    "Ġwhist": 6022,
    "Ġwalker": 23312,
    "Ġfruits": 17121,
    "Ġindign": 6174,
    "sis": 1901,
    "zz": 4292,
    "Ġcorroded": 18877,
    "Ġslave": 7453,
    "Ġpopular": 6217,
    "Ġarrant": 23301,
    "Ġpeeling": 22697,
    "Ġsunshine": 14496,
    "makers": 20984,
    "madam": 24421,
    "Ġdefiance": 11070,
    "hero": 21207,
    "Ġclearness": 23186,
    "Ġstru": 2171,
    "Ġcoefficient": 2882,
    "Ġfrosty": 14938,
    "drown": 13708,
    "pull": 6796,
    "Ġsewing": 21958,
    "summer": 11998,
    "Ġj": 533,
    "doubt": 6782,
    "inarticulate": 21198,
    "est": 500,
    "strength": 13983,
    "Ġpresuming": 16795,
    "about": 3589,
    "Ġdeputation": 21843,
    "Ġounce": 15276,
    "romising": 18234,
    "Ġmarked": 4620,
    "Ġjavel": 17085,
    "?--": 15307,
    "Ġperemptorily": 17370,
    "cloth": 11941,
    "Ġprodig": 6028,
    "seeking": 17155,
    "Ġugl": 12688,
    "Ġoarsmen": 7737,
    "atic": 4017,
    "precipitance": 25868,
    "Ġpurchases": 24755,
    "Ġmutinous": 23961,
    "tch": 9144,
    "Ġkne": 4265,
    "err": 1140,
    "sto": 3200,
    "Ġmeadows": 11424,
    "Ġbelonged": 6921,
    "bye": 5950,
    "Ġmanhat": 22331,
    "jeroboam": 25620,
    "hearth": 15502,
    "elter": 21574,
    "Ġvertical": 16606,
    "ķ": 248,
    "Ġraptures": 13499,
    "Ġi": 312,
    "Ġapparition": 8067,
    "Ġdisinclined": 22533,
    "ġ": 226,
    "Ġdemean": 12729,
    "amuse": 14055,
    "Ġbestirred": 20454,
    "clock": 3935,
    "money": 8753,
    "Ġdictator": 20156,
    "Ġwonderfully": 10432,
    "Ġplanks": 5563,
    "Ġtwenty": 3951,
    "brad": 20782,
    "Ġcelerity": 17439,
    "Ġrearing": 12683,
    "Ġ88": 19714,
    "kill": 13747,
    "Ġsof": 18277,
    "Ġletter": 2197,
    "Ġnoise": 1069,
    "Ġdances": 10814,
    "gr": 2085,
    "Ġgoal": 10304,
    "Ġmaximizing": 3170,
    "Ġshouting": 10525,
    "Ġadmits": 23557,
    "ington": 21304,
    "Ġtrading": 23081,
    "rons": 21042,
    "Ġwildness": 14605,
    "Ġclergy": 7643,
    "note": 14345,
    "Ġdepends": 1095,
    "mock": 5174,
    "Ġmining": 22832,
    "ounded": 9751,
    "mr": 1899,
    "Ġerected": 12238,
    "Ġtrusting": 24107,
    "Ġnotwithstanding": 9717,
    "progra": 9398,
    "renched": 7907,
    "father": 3780,
    "jet": 13745,
    "Ġunthinkingly": 26222,
    "zza": 24169,
    "Ġmountains": 4427,
    "sufficient": 6637,
    "fear": 8515,
    "Ġejac": 10206,
    "icting": 12862,
    "Ġmicrosc": 20679,
    "perpetually": 20515,
    "Ġclang": 15969,
    "Ġuncl": 22016,
    "Ġcontract": 18476,
    "yond": 2327,
    "Ġsubjects": 7073,
    "rise": 6227,
    "Ġclaim": 5106,
    "goin": 23406,
    "decor": 23782,
    "hun": 5210,
    "Ġabandon": 12262,
    "Ġriding": 14098,
    "bruary": 15239,
    "comfort": 5647,
    "figured": 20126,
    "Ġwhalemen": 3915,
    "jackets": 24896,
    "adventurous": 25362,
    "Ġplaint": 10328,
    "violent": 14582,
    "Ġdoings": 18377,
    "Ġpilot": 5985,
    "zors": 21150,
    "erxes": 21278,
    "Ġreport": 6192,
    "magistrate": 19865,
    "Ġprofessions": 11233,
    "Ġinevitable": 15171,
    "widows": 25345,
    "congreg": 25399,
    "oled": 17621,
    "Ġturnpike": 23032,
    "Ġgreenhorn": 23770,
    "Ġserpentine": 11362,
    "Ġflea": 23775,
    "Ġdiver": 2528,
    "Ġquarrel": 7291,
    "construction": 19781,
    "Ġappare": 12826,
    "Ġprompt": 3191,
    "concerns": 24072,
    "pequod": 7053,
    "Ġdeeps": 16119,
    "Ġprophets": 20453,
    "kes": 3681,
    "uncommon": 11685,
    "Ġinfinity": 23284,
    "gue": 12472,
    "Ġwapping": 21297,
    "Ġascent": 19621,
    "howling": 18990,
    "Ġadro": 15871,
    "pulling": 25149,
    "Ġthing": 1637,
    "kovoko": 20672,
    "Ġfilm": 23929,
    "Ġpiece": 5367,
    "Ġwandering": 8657,
    "Ç": 136,
    "Ġsmack": 9303,
    "confidence": 16810,
    "Ġaperture": 26161,
    "Ġnote": 4262,
    "Ġquarter": 3977,
    "Ġac": 847,
    "miserably": 24213,
    "Ġrecalled": 8539,
    "rolled": 9062,
    "Ġpursuits": 12081,
    "Ġdisappoint": 24208,
    "Ġzodiac": 16178,
    "Ġbrid": 6291,
    "Ġmarking": 16471,
    "pet": 4868,
    "arks": 2844,
    "Ġcontents": 7209,
    "ob": 1421,
    "Ġezekiel": 26194,
    "altern": 17944,
    "plate": 18208,
    "following": 10575,
    "presbyter": 20621,
    "Ġfavourite": 5271,
    "Ġlinguistic": 12429,
    "import": 5668,
    "chosen": 21698,
    "izarre": 17392,
    "religion": 20578,
    "Ġmine": 3181,
    "Ġpress": 5932,
    "Ġforebodings": 17307,
    "quakes": 21860,
    "Ġacknowledges": 24689,
    "duodecimo": 16006,
    "monsters": 19173,
    "backward": 2680,
    "Ġceaseless": 13491,
    "Ġoffending": 22746,
    "alescing": 23869,
    "turning": 8317,
    "you": 1006,
    "opolising": 25677,
    "constit": 24605,
    "narrative": 17322,
    "Ġtr": 552,
    "degree": 12807,
    "Ġloved": 4600,
    "ilent": 21723,
    "cap": 8373,
    "Ġcontinents": 16851,
    "point": 6063,
    "Ġstabbed": 25457,
    "fulfil": 16036,
    "could": 2871,
    "Ġdressed": 5081,
    "Ġunembarrassed": 22071,
    "Ġcleansed": 26295,
    "ugging": 23292,
    "Ġfurther": 1055,
    "Ġfrightens": 24034,
    "Ġchecked": 9379,
    "walks": 19724,
    "ricity": 23066,
    "Ġorgies": 18286,
    "acles": 8521,
    "Ġbrad": 8791,
    "ease": 12462,
    "Ġclearly": 6896,
    "Ġnam": 17951,
    "solitude": 23299,
    "outside": 12810,
    "Ġhears": 8139,
    "ĺ": 251,
    "Ġlongest": 18631,
    "Ġhissing": 15794,
    "Ġresign": 18565,
    "akeman": 6268,
    "Ġcow": 13879,
    "crack": 19843,
    "paused": 17377,
    "strong": 6323,
    "å": 166,
    "Ġvictim": 6098,
    "Ġapplied": 6187,
    "eight": 9594,
    "ruff": 15899,
    "Ġmystery": 5509,
    "Ġsnatching": 10474,
    "trembling": 17145,
    "Ġdest": 2235,
    "ĠĠĠĠĠĠĠĠĠĠĠĠĠĠĠĠĠĠĠĠĠĠĠĠĠĠĠĠ": 9978,
    "Ġturbid": 23613,
    "Ġdimensions": 16574,
    "rose": 6014,
    "Ġconcise": 23324,
    "le": 279,
    "Ġglimpse": 6943,
    "Ġshown": 5159,
    "gee": 15981,
    "Ġgreece": 17071,
    "Ġwasn": 6997,
    "actorily": 25577,
    "Ġaffections": 10387,
    "Ġgazes": 24098,
    "headed": 4319,
    "Ġbilliard": 16690,
    "Ġelevated": 7317,
    "houn": 20895,
    "tuesday": 17692,
    "ref": 6515,
    "uth": 3019,
    "desk": 23811,
    "Ġdimin": 3874,
    "Ġschools": 9480,
    "Ġprospect": 4707,
    "Ġstri": 2802,
    "Ġoutriders": 26545,
    "Ġopposed": 11190,
    "Ġjour": 11768,
    "gradu": 18617,
    "Ġusually": 6264,
    "Ġprodigy": 19795,
    "Ġfounded": 8560,
    "Ġerudite": 26353,
    "narwhale": 17321,
    "Ġrelentless": 26279,
    "unting": 21878,
    "Ġinstinct": 6576,
    "Ġleader": 14705,
    "stay": 9684,
    "Ġmeddle": 20580,
    "Ġextent": 7656,
    "Ġmariners": 6068,
    "evenings": 19466,
    "Ġreiterating": 26476,
    "gallery": 24694,
    "practised": 20250,
    "unavoidable": 17393,
    "Ġsocks": 14134,
    "ished": 1430,
    "Ġark": 10279,
    "Ġenticing": 22749,
    "bale": 20776,
    "hetic": 12208,
    "Ġhav": 12760,
    "Ġsoapstone": 20514,
    "Ġeloped": 22648,
    "ĠvertebrÃ¦": 11437,
    "theast": 21752,
    "pressed": 6588,
    "Ġmortal": 4682,
    "stripped": 16947,
    "Ġstructured": 2974,
    "Ġunivers": 2125,
    "thine": 15828,
    "Ġtissu": 25921,
    "actually": 14300,
    "voyages": 24856,
    "Ġbumpkins": 25282,
    "Ġhams": 16614,
    "Ġsaid": 576,
    "Ġchalk": 15937,
    "Ġgripping": 26188,
    "Ġbrandy": 11051,
    "Ġjove": 9271,
    "Ġmuzzle": 21324,
    "Ġpills": 21469,
    "Ġwall": 3846,
    "out": 467,
    "top": 4485,
    "mund": 13761,
    "rians": 21929,
    "Ġconcluding": 9860,
    "Ġcomforts": 14696,
    "Ġhold": 2242,
    "nx": 17609,
    "Ġstim": 18066,
    "charles": 14702,
    "Ġuntamed": 19166,
    "nes": 6960,
    "eronomy": 15528,
    "bel": 3839,
    "Ġbecher": 18880,
    "eck": 20846,
    "Ġstatistics": 1683,
    "ersed": 10262,
    "Ġroyal": 5602,
    "Ġbrixton": 13667,
    "Ġ103": 24411,
    "Ġconv": 2971,
    "Ġearlier": 9090,
    "Ġindirectly": 8942,
    "Ġcomfort": 3442,
    "expressed": 9044,
    "appearance": 5334,
    "Ġencircling": 26273,
    "Ġcubic": 20091,
    "Ġfemin": 13439,
    "companion": 9560,
    "Ġalms": 21784,
    "witted": 17709,
    "Ġfac": 6381,
    "Ġlink": 8130,
    "monster": 8595,
    "Ġstayed": 7998,
    "lott": 6652,
    "Ġunerringly": 18263,
    "Ġrobins": 16262,
    "inspector": 13649,
    "Ġboard": 3382,
    "Ġpredestinated": 18542,
    "stamp": 21657,
    "Ġmistaking": 23721,
    "Ġconst": 1908,
    "Ġincarnation": 25574,
    "usion": 3300,
    "Ġclink": 22352,
    "Ġgushed": 21610,
    "Ġbranded": 14382,
    "Ġsurrey": 14561,
    "intense": 22939,
    "Ġexpedition": 10637,
    "oa": 9615,
    "Ġpreface": 18368,
    "Ġoust": 21327,
    "Ġnearer": 5303,
    "Ġeddying": 17119,
    "und": 4086,
    "Ġcoppers": 22588,
    "architect": 22901,
    "Ġhousekeeping": 18946,
    "Ġpouring": 12630,
    "Ġfluid": 11214,
    "Ġbeat": 4491,
    "Ġturtle": 4201,
    "onsensical": 18577,
    "iony": 9194,
    "izure": 21845,
    "Ġpart": 860,
    "Ġrecommending": 24333,
    "Ġnook": 15932,
    "or": 282,
    "Ġseizure": 21961,
    "Ġchimney": 6497,
    "varying": 13807,
    "remained": 8572,
    "least": 8789,
    "sure": 5522,
    "early": 20122,
    "Ġdistinguished": 8273,
    "Ġstray": 18072,
    "inisc": 15491,
    "Ġfurled": 22817,
    "Ġhum": 1100,
    "Ġhelmeted": 19691,
    "prior": 21035,
    "stars": 18022,
    "ceed": 1077,
    "ishnoo": 10957,
    "inspect": 11561,
    "-------": 20392,
    "Ġstingy": 25456,
    "entric": 11622,
    "wow": 21124,
    "awake": 14455,
    "Ġauger": 21206,
    "Ġmute": 19419,
    "Ġsimil": 2530,
    "Ġred": 3005,
    "Ġindolence": 16232,
    "bil": 20773,
    "Ġretains": 20033,
    "Ġsherlock": 3896,
    "again": 3399,
    "ard": 465,
    "yset": 21148,
    "Ġbordered": 24564,
    "Ġgive": 1712,
    "rals": 21045,
    "omically": 13979,
    "ca": 20795,
    "eye": 6225,
    "Ġmatters": 4974,
    "Ġbetter": 1173,
    "prophet": 16182,
    "syntax": 5867,
    "Ġinestimable": 17445,
    "created": 12455,
    "Ġmemoirs": 26207,
    "stead": 10848,
    "Ġavast": 9923,
    "ul": 370,
    "solut": 3362,
    "report": 13402,
    "urned": 9309,
    "oss": 10118,
    "Ġbeggars": 20632,
    "ctic": 8443,
    "Ġpent": 17905,
    "Ġcheerfulness": 10519,
    "Ġaspired": 25985,
    "ernation": 8212,
    "Ġwear": 6031,
    "hyena": 24255,
    "'s": 2469,
    "Ġspades": 12802,
    "Ġegyptians": 25290,
    "Ġindications": 14634,
    "Ġwriters": 13545,
    "barrel": 17062,
    "Ġandromeda": 21511,
    "swallowed": 14856,
    "Ġrecently": 11863,
    "Ġsettle": 6294,
    "Ġabuse": 18393,
    "iosity": 2453,
    "Ġafternoon": 6053,
    "distraction": 24203,
    "iriously": 18172,
    "Ġintentionally": 24523,
    "Ġsummoning": 23877,
    "comfortableness": 24525,
    "Ġleaps": 14011,
    "eness": 2288,
    "antediluvian": 24346,
    "ason": 1276,
    "Ġhelping": 3267,
    "icating": 15659,
    "ian": 1241,
    "expectant": 24278,
    "Ġhob": 12635,
    "Ġduplicity": 25332,
    "Ġneg": 1332,
    "Ġtwopence": 18664,
    "idirectional": 2420,
    "cre": 4249,
    "urring": 21708,
    "Ġcapricious": 20541,
    "Ġestimated": 16596,
    "birds": 15148,
    "Ġaudience": 24768,
    "Ġdense": 8123,
    "ullen": 8235,
    "sex": 12719,
    "Ġresol": 2663,
    "Ġceiling": 7997,
    "racting": 10354,
    "Ġwrung": 14473,
    "Ġchink": 15936,
    "Ġinher": 10182,
    "Ġdinners": 23985,
    "Ġar": 481,
    "Ġprize": 11952,
    "Ġtremulous": 14989,
    "Ġinherit": 25353,
    "astron": 22173,
    "Ġreservo": 16833,
    "Ġballasted": 23983,
    "anely": 17838,
    "Ġdimens": 3149,
    "ntax": 935,
    "ensils": 22552,
    "dece": 11738,
    "jaws": 20934,
    "Ġdo": 512,
    "Ġwretchedly": 19509,
    "Ġunobserved": 18247,
    "hastened": 16847,
    "Ġtapping": 10754,
    "iration": 4541,
    "Ġmutually": 23960,
    "Ġundulates": 24120,
    "Ġsherry": 19454,
    "Ġvacuous": 24344,
    "Ġmethodic": 23093,
    "ourable": 4967,
    "Ġanomalously": 25639,
    "lop": 20950,
    "Ġsatisfied": 4170,
    "Ġremarkably": 7702,
    "Ġmeanwhile": 5736,
    "Ġcommended": 18660,
    "Ġturbul": 23614,
    "lessly": 4557,
    "Ġanoint": 25538,
    "Ġeast": 5370,
    "comput": 1965,
    "Ġchrist": 4072,
    "Ġpreparing": 8651,
    "announce": 24561,
    "Ġrepented": 23365,
    "Ġgans": 5822,
    "Ġpunctually": 17141,
    "anum": 17837,
    "Ġconstru": 19069,
    "Ġungovernable": 20711,
    "Ġpill": 7846,
    "Ġbuoyed": 20044,
    "Ġsituated": 9451,
    "Ġconquered": 14029,
    "Ġrigged": 16719,
    "Ġunconsc": 6553,
    "Ġlands": 6595,
    "Ġshutting": 14762,
    "Ġutterly": 6101,
    "bethinking": 25746,
    "rived": 5373,
    "refusal": 24735,
    "Ġinferred": 14502,
    "Ġunhinged": 26218,
    "!âĢĶ": 2454,
    "Ġ62": 24365,
    "grate": 23415,
    "Ġswimming": 5507,
    "Ġkey": 2100,
    "Ġxl": 11994,
    "Ġinterfere": 11821,
    "Ġlizard": 12660,
    "Ġdistorted": 14252,
    "Ġdaylight": 10353,
    "Ġneural": 622,
    "Ġbirth": 6524,
    "Ġphilosophers": 10554,
    "mistak": 16880,
    "Ġsafely": 9028,
    "Ø": 153,
    "Ġemm": 18005,
    "Ġmorris": 18846,
    "obser": 11101,
    "Ġunallied": 22032,
    "silly": 24422,
    "abriel": 6949,
    "Ġmarks": 6747,
    "Ġrob": 1294,
    "plish": 18209,
    "crazy": 24692,
    "Ġde": 364,
    "hecy": 21209,
    "Ġserviceable": 24717,
    "Ġwork": 1320,
    "aw": 1451,
    "Ġcurling": 9350,
    "Ġcargo": 16293,
    "Ġpleadings": 25854,
    "immortal": 21713,
    "Ġther": 17780,
    "elves": 2159,
    "Ġrelating": 2703,
    "whatsoever": 18488,
    "gratitude": 16818,
    "Ġstrides": 22620,
    "league": 17846,
    "Ġoutstretched": 14198,
    "coiled": 16488,
    "Ġappertain": 22223,
    "Ġpublic": 4333,
    "Ġdress": 4020,
    "Ġdivineness": 25724,
    "Ġpicking": 11261,
    "Ġcapsizing": 20092,
    "Ġintrude": 25991,
    "Ġconceit": 7294,
    "Ġresiding": 16065,
    "Ġprofessors": 14728,
    "Ġgouldings": 26189,
    "....": 11318,
    "Ġdesolation": 12273,
    "Ġtogether": 1877,
    "Ġdigest": 24648,
    "Ġneatness": 19935,
    "extracts": 22770,
    "agers": 5633,
    "Ġdeg": 3281,
    "disgrace": 16460,
    "Ġdaring": 8121,
    "names": 16529,
    "crown": 13702,
    ";": 31,
    "Ġgen": 5298,
    "Ġexcurs": 23316,
    "Ġsquad": 22840,
    "Ġpunctil": 20117,
    "ep": 444,
    "Ġavoided": 13263,
    "arnel": 18127,
    "Ġshoals": 13136,
    "unwilling": 14064,
    "disputed": 23504,
    "bennet": 5353,
    "exped": 16527,
    "Ġoverbearing": 12849,
    "south": 8762,
    "ingu": 2119,
    "Ġemblem": 20501,
    "Ġforests": 13595,
    "Ġundet": 16703,
    "cares": 24311,
    "Ġtract": 21168,
    "Ġgroups": 3721,
    "Ġrecent": 7434,
    "Ġderivatives": 2368,
    "Ġfounder": 17885,
    "Ġrect": 18028,
    "Ġfad": 17878,
    "hounds": 20909,
    "Ġtemples": 18645,
    "tubs": 15134,
    "Ġsheer": 14153,
    "Ġodorous": 19569,
    "Ġjuggl": 20441,
    "Ġspell": 8859,
    ";âĢĿ": 7790,
    "Ġmaw": 15544,
    "stool": 23822,
    "equally": 19901,
    "Ġdiscriminative": 4328,
    "immediate": 20097,
    "Ġensuing": 12313,
    "Ġmelbourne": 24291,
    "www": 17254,
    "Ġindu": 5295,
    "cies": 1813,
    "Ġsteadily": 8052,
    "Ġnominal": 15172,
    "Ġaquiline": 26160,
    "Ġspect": 3555,
    "Ġsafer": 22174,
    "Ġsuperhuman": 23457,
    "final": 19679,
    "Ġvaguely": 17369,
    "unusual": 21883,
    "gunpowder": 25340,
    "Ġsuperficial": 23460,
    "Ġwitnesses": 9489,
    "Ġupwards": 7634,
    "Ġbeheaded": 11659,
    "Ġmaintain": 857,
    "Ġdefendants": 15144,
    "Ġtossings": 25357,
    "aintance": 3572,
    "Ġlifts": 25359,
    "nights": 16449,
    "Ġdrawings": 14725,
    "gus": 13728,
    "Ġadler": 8174,
    "Ġsanguine": 25929,
    "Ġnast": 15643,
    "Ġcarry": 4780,
    "fitters": 24760,
    "Ġrestored": 7067,
    "Ġsupplication": 25492,
    ";âĢĿâĢĶ": 20762,
    "zas": 17714,
    "Ġmarriage": 3190,
    "Ġwired": 17788,
    "Ġcore": 13881,
    "Ġalso": 1343,
    "Ġallegro": 25795,
    "ts": 959,
    "Ġbrimming": 22872,
    "tooth": 18580,
    "onious": 15521,
    "dignity": 15349,
    "disapprobation": 19159,
    "Ġdiabolically": 25514,
    "Ġson": 2984,
    "algorithm": 3727,
    "Ġtongues": 14866,
    "Ġnear": 1716,
    "usive": 8190,
    "dra": 3415,
    "Ġarranged": 9880,
    "involuntarily": 20418,
    "Ġmedical": 9473,
    "Ġmiscell": 16154,
    "Ġpal": 4041,
    "Ġdimension": 3241,
    "fortnight": 13090,
    "Ġdyspepsia": 20645,
    "Ġshop": 9255,
    "Ġluckless": 16799,
    "conducted": 25573,
    "Ġstrip": 9424,
    "Ġprairie": 8716,
    "Ġspouted": 14677,
    "Ġse": 401,
    "Ġexcel": 3570,
    "quick": 6400,
    "Ġfearfulness": 23516,
    "Ġbridal": 14957,
    "Ġwax": 10778,
    "Ġsmiled": 5941,
    "Į": 239,
    "Ġrevelation": 25223,
    "tranqu": 14709,
    "Ġconveniently": 20082,
    "Ġirritated": 17244,
    "pardon": 10068,
    "Ġexpression": 4516,
    "Ġessential": 7523,
    "Ġprincely": 24150,
    "vice": 15452,
    "Ġomnipotent": 13551,
    "fifty": 12356,
    "corner": 13400,
    "Ġstrangeness": 16706,
    "abiding": 21797,
    "lp": 899,
    "singing": 24363,
    "Ġconfronted": 23310,
    "Ġhaul": 11696,
    "Ġfeat": 10939,
    "his": 1414,
    "Ġowen": 15098,
    "Ġsteal": 16286,
    "Ġsag": 6514,
    "rate": 2421,
    "Ġaston": 3704,
    "rank": 21044,
    "pute": 8849,
    "fted": 9121,
    "pul": 8757,
    "Ġoverpowered": 15292,
    "Ġapartments": 19617,
    "Ġoxen": 19954,
    "endurable": 22232,
    "tasted": 17689,
    "Ġtuples": 13480,
    "Ġcasc": 15560,
    "remark": 7260,
    "Ġlandlady": 10424,
    "Ġsidelong": 11440,
    "Ġformation": 2942,
    "Ġrails": 22652,
    "unders": 13313,
    "atics": 15526,
    "shroud": 20313,
    "Ġreduced": 11928,
    "Ġtold": 2185,
    "floated": 24644,
    "idered": 4554,
    "operations": 19978,
    "warning": 25532,
    "asleep": 21547,
    "Ġbank": 4878,
    "Ġrelatives": 12986,
    "Ġgrunt": 18737,
    "Ġsooner": 5573,
    "Ġplausible": 26555,
    "Ġmar": 1312,
    "jour": 20929,
    "Ġrooms": 5180,
    "Ġsworn": 14438,
    "continued": 8679,
    "itchen": 7787,
    "Ġaxe": 15064,
    "Ġtipped": 17730,
    "Ġ135": 24784,
    "nearly": 8684,
    "Ġmanilla": 15963,
    "Ġagonising": 25374,
    "travellers": 24339,
    "Ġreverence": 12063,
    "holes": 12058,
    "recurring": 24197,
    "Ġfastidious": 14494,
    "Ġdel": 1613,
    "Ġask": 1493,
    "ient": 394,
    "Ġexecuted": 9475,
    "Ġencl": 16170,
    "Ġregiment": 6432,
    "Ġexplained": 5936,
    "Ġabsor": 8506,
    "Ġstrung": 22621,
    "Ġkra": 18349,
    "Ġwithered": 19468,
    "Ġinterrupt": 4360,
    "Ġcircumspection": 25885,
    "Ġears": 4490,
    "Ġinferiority": 17116,
    "Ġdecomposes": 5506,
    "Ġdazzling": 15215,
    "Ġshameful": 19854,
    "Ġgamy": 18001,
    "Ġpore": 21461,
    "quod": 2165,
    "pencil": 18830,
    "Ġtook": 1853,
    "Ġroar": 9756,
    "tains": 10964,
    "Ġpause": 5707,
    "ı": 242,
    "fury": 17549,
    "kered": 18275,
    "Ġupdating": 2688,
    "Ġterrify": 19364,
    "parameter": 3012,
    "Ġsigned": 11179,
    "Ġfrosts": 19805,
    "musket": 25342,
    "Ġmechanisms": 1578,
    "Ġmarines": 16265,
    "Ġobstructed": 24678,
    "Ġpenalizing": 13094,
    "uzzle": 19586,
    "ror": 7350,
    "rist": 10125,
    "Ġcarted": 21353,
    "hundred": 8331,
    "Ġbeards": 21755,
    "Ġclapham": 17268,
    "Ġincess": 8432,
    "Ġrepenting": 25323,
    "Ġreconciliation": 25293,
    "dissemble": 23496,
    "iantly": 13742,
    "Ġfar": 1452,
    "Ġnodded": 11974,
    "Ġhistorically": 19381,
    "Ġcard": 7362,
    "Ġgurgling": 17449,
    "Ġwelcome": 5604,
    "chapter": 1404,
    "Ġspreading": 13381,
    "Ġtimely": 19597,
    "Ġnorthern": 7264,
    "Ġscandal": 9084,
    "Ġork": 18285,
    "Ġtransformer": 2634,
    "Ġcautiously": 16979,
    "ger": 1106,
    "Ġbutt": 14128,
    "street": 6495,
    "Ġformality": 22831,
    "isation": 13896,
    "Ġposted": 16726,
    "Ġwarrior": 24496,
    "blind": 16704,
    "Ġpulling": 5863,
    "I": 45,
    "Ġrounds": 18886,
    "invol": 12535,
    "Ġhammock": 5768,
    "Ġfreezing": 23886,
    "eternal": 17985,
    "Ġcontrari": 23352,
    "Ġstable": 2696,
    "rods": 21541,
    "Ġkeepers": 23541,
    "Ġaffrighted": 13575,
    "Ġlack": 17966,
    "aunted": 20772,
    "Ġprehens": 22235,
    "Ġcho": 4548,
    "Ġtown": 2455,
    "record": 16923,
    "hemat": 3127,
[...]
