{
  "metadata": {
    "vocab_size": 26623,
    "algorithm": "BPE",
    "created_at": "2026-08-15 02:49:19",
    "special_tokens": [
      "<PAD>",
      "<SOS>",
      "<EOS>",
      "<UNK>",
      "<MASK>"
    ]
  },
  "vocab": {
    "Ġvacantly": 16826,
    "Ġcruising": 6916,
    "clifford": 23172,
    "Ġcolumbus": 26574,
    "Ġexercised": 24813,
    "Ġstrokes": 16780,
    "Ġinc": 702,
    "Ġenvironmental": 24246,
    "Ġconfined": 7466,
    "Ġtheme": 16033,
    "Ġirresolution": 24929,
    "cott": 8075,
    "Ġmeekly": 26499,
    "Ġpacifics": 24386,
    "Ġkicks": 19783,
    "Ġdeprec": 15770,
    "Ġglo": 1712,
    "50": 6787,
    "crime": 14788,
    "Ġgloried": 23005,
    "Ġequals": 4733,
    "Ġpewter": 17195,
    "mies": 20981,
    "ution": 4355,
    "paint": 21030,
    "Ġsmall": 893,
    "Ġcareer": 11121,
    "Ġropes": 10752,
    "ustom": 3792,
    "baked": 20792,
    "Ġflying": 5414,
    "Ġforever": 14560,
    "asting": 12812,
    "topp": 22583,
    "Ġsin": 1513,
    "oin": 17626,
    "Ġcowards": 12580,
    "itty": 3555,
    "Ġshrill": 12149,
    "blooded": 20036,
    "readily": 19377,
    "Ġfiend": 4417,
    "marvell": 24185,
    "Ġbour": 4880,
    "Ġopenshaw": 7959,
    "Ġstoried": 18082,
    "nobody": 16148,
    "Ġetern": 7090,
    "Ġnarrowly": 16831,
    "Ġsold": 6007,
    "Ġperry": 22402,
    "www": 17260,
    "Ġdisguise": 10052,
    "Ġmalays": 19694,
    "uteness": 17996,
    "remediable": 26305,
    "Ġharpooneers": 4737,
    "Ġhat": 2774,
    "lowering": 16045,
    "isters": 11925,
    "Ġgarments": 15205,
    "ture": 7558,
    "Ġmule": 13868,
    "hearts": 13351,
    "Ġdecayed": 22841,
    "Ġbearing": 5303,
    "Ġdiscovered": 4418,
    "sigma": 3003,
    "Ġbountiful": 25954,
    "Ġsurest": 19071,
    "sun": 7143,
    "impulse": 20659,
    "agger": 7876,
    "Ġdecay": 1011,
    "Ġsnapped": 9902,
    "ulled": 14062,
    "Ġ48": 24094,
    "kerchief": 7525,
    "Ġimprovements": 14532,
    "Ġclimates": 25066,
    "active": 16117,
    "unmistakable": 21909,
    "Ġbounty": 26446,
    "bted": 7796,
    "Ġgay": 5537,
    "Ġapprehen": 16840,
    "espe": 3500,
    "boil": 19012,
    "Ġhump": 5858,
    "Ġextensive": 12954,
    "Ġinterests": 14577,
    "Ġmarked": 4623,
    "us": 531,
    "Ġtor": 8109,
    "Ġnothing": 1362,
    "Ġgret": 21614,
    "arbuck": 2027,
    "Ġphara": 23217,
    "Ġwow": 15539,
    "Ġembod": 14406,
    "glimmer": 26332,
    "Ġclo": 6046,
    "Ġvary": 15820,
    "3": 23,
    "away": 4630,
    "jumping": 20259,
    "settle": 16682,
    "rene": 5380,
    "Ġdiscriminative": 4330,
    "fury": 17556,
    "Ġscept": 15512,
    ")âĢĶâĢľ": 20756,
    "Ġprize": 11954,
    "Ġambiguous": 20179,
    "delivered": 24112,
    "Ġdevouring": 11863,
    "Ġoptimize": 1622,
    "ay": 355,
    "Ġfolds": 12212,
    "adem": 21771,
    "adam": 15742,
    "Ġappre": 5168,
    "initely": 7568,
    "doesn": 19833,
    "whisper": 17090,
    "enced": 4298,
    "Ġarchangel": 8548,
    "Ġneskyeuna": 26468,
    "Ġdifficulties": 11229,
    "Ġarthur": 7198,
    "Ġinference": 9680,
    "oted": 4601,
    "ried": 926,
    "Ġassemblage": 26363,
    "urry": 14000,
    "shott": 11799,
    "Ġunchanged": 22044,
    "Ġremoter": 20120,
    "Ġking": 2303,
    "Ġpropri": 6741,
    "except": 5384,
    "zers": 21159,
    "Ġsincere": 11140,
    "Ġluxuries": 25178,
    "Ġplaying": 6913,
    "Ġsanta": 26430,
    "Ġhaz": 12762,
    "Ġcanterbury": 22182,
    "Ġhung": 4563,
    "Ġhideousness": 16924,
    "Ġsuspicions": 9488,
    "Ġbuoy": 8006,
    "Ġservox": 23876,
    "produce": 20295,
    "hemat": 3130,
    "swallowed": 14867,
    "Ġunseen": 3525,
    "Ġsauce": 15903,
    "Ġavowed": 16631,
    "iscient": 17861,
    "Ġsashes": 21238,
    "59": 17483,
    "Ġchristianity": 19873,
    "Ġheaped": 18047,
    "hawks": 24709,
    "Ġreproof": 24904,
    "Ġunbounded": 18269,
    "Ġway": 1087,
    "mushroom": 26405,
    "Ġinstructing": 3123,
    "south": 8764,
    "Ġrows": 10568,
    "Ġspinning": 15062,
    "Ġpupella": 20435,
    "illes": 12702,
    "Ġexam": 3711,
    "Ġ87": 19726,
    "Ġdusk": 12333,
    "Ġmining": 22845,
    "jewel": 20359,
    "Ġchival": 14188,
    "consol": 9769,
    "Ġcatch": 4446,
    "Ġhoping": 11109,
    "attachment": 13062,
    "Ġferry": 24611,
    "Ġwaiter": 16376,
    "Ġowen": 15106,
    "ports": 13779,
    "Ġlake": 5230,
    "Ġberries": 13414,
    "Ġimmedi": 2905,
    "Ġcircle": 4979,
    "swiss": 24270,
    "Ġexterm": 21843,
    "Ġlick": 21563,
    "Ġconcentrate": 25079,
    "Ġrustic": 14978,
    "Ġsneezing": 12254,
    "ity": 416,
    "Q": 53,
    "Ġcholera": 22268,
    "Ġprofessor": 11234,
    "Ġwooden": 4736,
    "detective": 24397,
    "Ġtry": 3135,
    "avenza": 17112,
    "Ġswept": 7981,
    "Ġwhitewashed": 14477,
    "Ġnatives": 17961,
    "feit": 16055,
    "Ġfitzwilliam": 5773,
    "Ġconnectivity": 3667,
    "stepfather": 19208,
    "considerably": 13451,
    "Ġsize": 1216,
    "Ġbolivia": 24682,
    "Ġfluctuating": 24431,
    "Ġsuspicious": 9489,
    "Ġfoiled": 23257,
    "obstructed": 15238,
    "Ġreproach": 9565,
    "marching": 25761,
    "lucky": 24557,
    "Ġdella": 21452,
    "Ġskill": 6876,
    "Ġreply": 4518,
    "Ġsad": 3868,
    "Ġnarration": 13508,
    "Ġpatagonia": 25866,
    "hung": 8385,
    "Ġmarty": 20303,
    "Ġinsinuating": 19285,
    "thirst": 15838,
    "admitted": 18101,
    "hour": 7343,
    "Ġcoins": 11824,
    "Ġdeath": 2043,
    "oes": 4439,
    "Ġretrogress": 23089,
    "handsome": 13183,
    "Ġmarine": 23049,
    "Ġbingley": 1676,
    "Ġsign": 2393,
    "Ġtwine": 14318,
    "ern": 748,
    "Ġwint": 15543,
    "apsed": 6297,
    "Ġlocal": 1199,
    "Ġassumed": 9474,
    "pain": 7353,
    "ceptible": 10964,
    "Ġaware": 5758,
    "Ġsneeze": 24712,
    "Ġdy": 2578,
    "Ġfolio": 11924,
    "Ġcamp": 9174,
    "Ġunnear": 22041,
    "Ġtistig": 26423,
    "Ġcountenances": 11971,
    "Ġfastidious": 14499,
    "table": 5797,
    "Ġvillagers": 19489,
    "iary": 15382,
    "ctu": 5092,
    "Ġbrood": 23116,
    "ses": 3029,
    "Ġhiding": 9828,
    "operation": 13505,
    "Ġcobb": 14279,
    "Ġcocoanuts": 26373,
    "awing": 18929,
    "Ġoverboard": 6048,
    "Ġbay": 9178,
    "Ġflew": 5590,
    "Ġproducing": 11906,
    "Ġtears": 4231,
    "Ġburned": 8636,
    "Ġtendons": 19821,
    "ggy": 13120,
    "Ġprognostics": 20572,
    "lingering": 18615,
    "inced": 3336,
    "Ġmoulded": 16983,
    "astonished": 15045,
    "riot": 18193,
    "arts": 6568,
    "Ġsearched": 15829,
    "Ġsensit": 2947,
    "Ġlays": 15999,
    "Ġnet": 3627,
    "Ġskul": 22813,
    "Ġtobacc": 7855,
    "Ġfrown": 10811,
    "Ġstrangled": 24146,
    "method": 17292,
    "Ġendeavor": 16557,
    "Ġstealing": 18908,
    "against": 5875,
    "Ġpractical": 3165,
    "sleeping": 13460,
    "Ġswash": 23072,
    "Ġhil": 10825,
    "Ġstare": 10868,
    "neighbourhood": 10031,
    "doub": 6227,
    "Ġincident": 6282,
    "altering": 12648,
    "Ġrevolutionized": 3367,
    "anqu": 4108,
    "Ġreconc": 9692,
    "Ġshan": 9258,
    "Ġglue": 15686,
    "Ġfaced": 10812,
    "Ġinterpreter": 23227,
    "ban": 9593,
    "Ġsubl": 7238,
    "covering": 15345,
    "Ġpy": 21464,
    "Ġgrounds": 6753,
    "Ġtattooing": 15040,
    "Ġwes": 8785,
    "falsehood": 25911,
    "Ġabound": 8870,
    "Ġinjure": 16792,
    "Ġprospect": 4710,
    "Ġshrimp": 24170,
    "discoveries": 25395,
    "Ġenables": 724,
    "Ġunquestion": 18258,
    "Ġinhale": 20313,
    "Ġinherit": 25363,
    "brain": 13692,
    "Ġcapable": 5057,
    "include": 23605,
    "Ġcruel": 5125,
    "Ġexternal": 8716,
    "Ġsoldier": 16929,
    "Ġdemanded": 8331,
    "Ġwaving": 8583,
    "judged": 14847,
    "denial": 18729,
    "erce": 6129,
    "Ġcooking": 16658,
    "âĢĶâĢĶâĢĿ": 15953,
    "owal": 13999,
    "pped": 2000,
    "Ġfrosty": 14948,
    "anum": 17845,
    "Ġcolds": 23771,
    "Ġardu": 22196,
    "Ġlargest": 6284,
    "Ġinconsistency": 26193,
    "Ġstarts": 16594,
    "unken": 10244,
    "Ġdeceit": 13487,
    "ling": 736,
    "Ġscor": 8195,
    "ilent": 21733,
    "Ġfacil": 16970,
    "ger": 1108,
    "yingly": 23132,
    "Ġadventures": 7750,
    "Ġliberated": 19683,
    "Ġdraughts": 20235,
    "Ġoarsmen": 7739,
    "Ġsoothed": 10035,
    "arrow": 4180,
    "Ġcontrad": 9763,
    "º": 123,
    "Ġdeposition": 18618,
    "ilogue": 21738,
    "Ġbackgammon": 22681,
    "Ġautoregressive": 3430,
    "Ġdeficient": 18839,
    "Ġmagistrate": 8238,
    "Ġsoo": 15876,
    "Ġgap": 21612,
    "leaning": 10794,
    "Ġremark": 2143,
    "Ġcommod": 10341,
    "feeling": 6621,
    "Ġunkindness": 22055,
    "Ġresolutely": 14617,
    "Ġgathering": 14991,
    "elfth": 22384,
    "Ġknees": 6931,
    "Ġdeduce": 8341,
    "Ġident": 2240,
    "Ġplow": 21472,
    "Ġaccosted": 13677,
    "reduc": 5462,
    "sighted": 19799,
    "Ġterti": 14545,
    "iating": 3207,
    "Ġpublic": 4336,
    "dressing": 11487,
    "elves": 2157,
    "Ġfurlong": 18755,
    "Ġappeals": 16328,
    "Ġsombre": 18874,
    "Ġdissect": 16067,
    "Ġstoper": 14470,
    "Ġextracts": 9374,
    "Ġrose": 3441,
    "Ġalert": 18111,
    "Ġpeople": 2545,
    "Ġsongs": 13426,
    "Ġsabbee": 17264,
    "aug": 1212,
    "Ġbor": 5807,
    "Ġupheld": 22164,
    "Ġschemes": 11135,
    "inexplicable": 25818,
    "Ġrim": 21981,
    "Ġcolon": 18779,
    "Ġsquid": 11883,
    "Ġlatter": 3990,
    "Ġintentions": 10614,
    "vain": 15457,
    "Ġburgl": 13180,
    "Ġromantic": 8033,
    "Ġfirst": 937,
    "Ġadding": 2404,
    "Ġsticks": 14944,
    "Ġsewing": 21967,
    "Ġcitadel": 25448,
    "Ġsecure": 4915,
    "Ġdefect": 8562,
    "Ġfault": 5704,
    "orough": 5702,
    "Ġmamm": 25106,
    "Ġwindigate": 18923,
    "Ġostent": 13590,
    "writ": 16565,
    "cannon": 22980,
    "Ġwhoever": 10977,
    "grammar": 6436,
    "Ġprotracted": 19484,
    "Ġsuperiority": 14624,
    "Ġfastened": 7068,
    "Ġunder": 1633,
    "Ġplanisphere": 26616,
    "cheap": 23817,
    "Ġforetold": 23465,
    "fluttering": 23985,
    "pervised": 1554,
    "ressing": 8925,
    "Ġprodigiously": 14945,
    "jaw": 13747,
    "Ġgeorge": 3749,
    "Ġhumour": 7935,
    "Ġinventing": 24875,
    "Ġevenly": 4127,
    "Ġband": 5295,
    "Ġdisse": 18561,
    "Ġ71": 24274,
    "Ġbridal": 14967,
    "lipped": 16230,
    "Ġhunger": 8574,
    "enough": 6813,
    "z": 94,
    "Ġdepose": 22611,
    "Ġscarce": 8627,
    "rious": 11694,
    "Ġapr": 12540,
    "Ġballs": 9021,
    "Ġflows": 13017,
    "Ġmonstr": 7670,
    "Ġ34": 16688,
    "atherley": 7222,
    "custom": 15344,
    "Ġgordon": 26476,
    "beef": 18533,
    "cig": 17513,
    "Ġvines": 12758,
    "Ġgur": 21605,
    "dead": 8184,
    "aunt": 8373,
    "Ġescort": 23519,
    "Ġpages": 15619,
    "Ġaffected": 5579,
    "Ġfurs": 18754,
    "Ġstaggered": 9548,
    "Ġwore": 6378,
    "stud": 8826,
    "Ġintellectual": 11406,
    "Ġskrimshander": 22816,
    "imly": 12695,
    "without": 4851,
    "Ġdying": 2134,
    "Ġguilt": 6182,
    "Ġhabit": 6774,
    "punct": 20207,
    "Ġtout": 17729,
    "Ġappet": 9739,
    "Ġpollard": 20399,
    "Ġreasoner": 14438,
    "Ġpupp": 10824,
    "Ġdirector": 18934,
    "Ġobstacle": 16963,
    "Ġwhalebone": 10981,
    "Ġimmortal": 8020,
    "Ġhedgehog": 10650,
    "Ġrhine": 12362,
    "Ġfasting": 16369,
    "Ġexperiences": 13033,
    "Ġobserved": 3542,
    "Ġinsect": 12643,
    "Ġprodigy": 19806,
    "irm": 3110,
    "Ġcoll": 8225,
    "acid": 11010,
    "Ġxxxiv": 24985,
    "Ġgrasshopper": 24394,
    "Ġconstructed": 9394,
    "presbyterian": 26379,
    "hoisting": 23730,
    "umbs": 14697,
    "iding": 3849,
    "Ġtasted": 12537,
    "Ġcaring": 23107,
    "remain": 9844,
    "Ġevenness": 22849,
    "classes": 12143,
    "Ġexcl": 3477,
    "Ġrightly": 13073,
    "Ġdistribut": 842,
    "--âĢľ": 12979,
    "moon": 10343,
    "Ġtoller": 9097,
    "Ġoppressed": 11193,
    "Ġarms": 3967,
    "please": 8181,
    "Ġbilliard": 16699,
    "ment": 693,
    "raised": 15691,
    "Ġvind": 10257,
    "Ġgain": 4832,
    "Ġretains": 20043,
    "Ġbowing": 10484,
    "dom": 6226,
    "Ġhint": 5020,
    "Ġshower": 11715,
    "Ġchap": 5938,
    "Ġeloped": 22663,
    "Ġunscrew": 22053,
    "Ġportentous": 15241,
    "oblig": 16303,
    "Ġarabic": 24996,
    "Ġdisappointing": 19596,
    "gia": 20889,
    "Ġwail": 21299,
    "Ġnecessitates": 23944,
    "Ġdif": 870,
    "Ġshreds": 12777,
    "Ġcoarsely": 25839,
    "Ġnocturn": 18386,
    "Ġthroat": 7773,
    "Ġtemptations": 24520,
    "Ġjabbering": 22318,
    "Ġwag": 10779,
    "load": 12888,
    "arranted": 19333,
    "Ġdreaminess": 23954,
    "bank": 10085,
    "Ġdomain": 3287,
    "ator": 1921,
    "keeping": 8640,
    "seem": 10235,
    "Ġchiefly": 5768,
    "onian": 17777,
    "Ġnewcomers": 26052,
    "Ġtruest": 16711,
    "tom": 15445,
    "Ġthunder": 4828,
    "Ġwet": 6521,
    "sust": 15432,
    "Ġhair": 3315,
    "Ġgriefs": 16782,
    "Ġglens": 18868,
    "lished": 8387,
    "ean": 20853,
    "rapt": 13979,
    "Ġtail": 3091,
    "Ġantichronical": 26618,
    "Ġwhit": 7180,
    "Ġengrossed": 13004,
    "Ġimputation": 22184,
    "Ġpor": 5228,
    "Ġrecourse": 22753,
    "else": 6537,
    "influence": 13584,
    "forster": 16180,
    "remed": 18967,
    "ortment": 22272,
    "final": 19693,
    "Ġoutput": 929,
    "Ġenem": 4713,
    "Ġprevented": 5946,
    "affording": 23790,
    "Ġplanets": 24071,
    "Ġassembled": 9245,
    "Ġcurly": 18857,
    "magnetic": 20566,
    "Ġsystematically": 4227,
    "Ġsauntering": 18336,
    "Ĺ": 250,
    "fitted": 17553,
    "Ġin": 291,
    "Ġraving": 16126,
    "hateful": 20922,
    "Ġabsolute": 6768,
    "Ġremembering": 14618,
    "beauty": 20118,
    "allic": 12820,
    "cloudless": 20345,
    "confl": 22489,
    "insufferable": 21205,
    "Ġrests": 13099,
    "Ġunstructured": 3004,
    "Ġabutted": 22290,
    "requ": 7151,
    "Ġidentifies": 12019,
    "Ġintimidated": 24815,
    "Ġhastening": 19349,
    "Ġreplay": 5049,
    "gates": 20885,
    "Ġpines": 12624,
    "alter": 10830,
    "ailing": 7025,
    "Ġcrawford": 24907,
    "grampus": 18631,
    "Ġxxii": 24497,
    "Ġdeliberation": 19982,
    "robustness": 26349,
    "talking": 10013,
    "ism": 4878,
    "Ġbul": 3292,
    "Ġbrow": 3989,
    "arches": 10820,
    "Ġpoky": 21492,
    "Ġhearties": 18979,
    "peculiarity": 23125,
    "reason": 4420,
    "Ġlonely": 6826,
    "drawers": 19401,
    "pt": 387,
    "project": 16437,
    "urpr": 2285,
    "Ġrnns": 2391,
    "naturally": 14579,
    "riptions": 14809,
    "Ġpreliminary": 10063,
    "Ġchinks": 22266,
    "ulls": 8845,
    "Ġconquer": 14033,
    "Ġgloomily": 14815,
    "eight": 9600,
    "Ġalluded": 7889,
    "Ġsalt": 8019,
    "lemag": 21384,
    "Ġofficio": 23829,
    "Ġrepresentations": 1873,
    "Ġsword": 6736,
    "ruction": 4363,
    "Ġswords": 19910,
    "determination": 19959,
    "Ġbarque": 23803,
    "Ġinhospit": 25462,
    "osp": 6858,
    "Ġbad": 3988,
    "Ġgovernment": 15188,
    "Ġthoroughfares": 26105,
    "Ġstaying": 8288,
    "Ġboarding": 12094,
    "omach": 11641,
    "Ġformations": 18763,
    "Ġvision": 1626,
    "Ġthoughtlessness": 16207,
    "Ġcommendation": 13616,
    "Ġhousehold": 8575,
    "Ġvivacious": 19828,
    "Ġsaleve": 17401,
    "spass": 18699,
    "Ġ17": 5742,
    "Ġeasily": 3890,
    "ulates": 14061,
    "pregn": 18510,
    "Ġglowing": 12289,
    "Ġnail": 9205,
    "uel": 6970,
    "mouth": 9136,
    "chains": 9694,
    "Åĵuv": 15194,
    "Ġder": 1498,
    "hidden": 17380,
    "acknowledged": 15214,
    "Ġpane": 21476,
    "Ġreduce": 7946,
    "Ġpiping": 23258,
    "Ġaccess": 9755,
    "oided": 11514,
    "Ġcher": 6132,
    "Ġfavoured": 16377,
    "always": 5710,
    "Ġlearn": 365,
    "Ġuntouched": 16477,
    "Ġcubs": 20103,
    "Ġnotions": 14105,
    "fing": 13717,
    "Ġmagazine": 23115,
    "Ġcompelled": 14272,
    "Ġgroves": 16752,
    "Ġfrom": 435,
    "Ġbleached": 24410,
    "suspicions": 25401,
    "Ġvisited": 5951,
    "Ġinnumerable": 13358,
    "Ġheaded": 11058,
    "Ġtwitch": 22693,
    "Ġoffences": 18703,
    "Ġneck": 4889,
    "Ġdidst": 11854,
    "vitiated": 25764,
    "plexy": 18589,
    "Ġcorrespondence": 10601,
    "aset": 10836,
    "qu": 367,
    "Ġsolicit": 22905,
    "gentlemen": 9513,
    "Ġmermaid": 17823,
    "Ġemblazonings": 26050,
    "Ġideas": 5498,
    "Ġsyllables": 25312,
    "iny": 4296,
    "scissors": 20740,
    "Ġshipping": 14110,
    "Ġlod": 4042,
    "dilig": 17290,
    "hus": 5075,
    "pilot": 25918,
    "Ġstatements": 7516,
    "Ġcrate": 19134,
    "Ġquart": 11792,
    "ribly": 8258,
    "Ġaggreg": 12891,
    "Ġed": 2241,
    "Ġnecessarily": 13258,
    "Ġhumane": 11889,
    "Ġnapoleons": 25895,
    "Ġshrouded": 14982,
    "Ġtwins": 16134,
    "Ġpressure": 13428,
    "Ġital": 10870,
    "Ġinstinct": 6580,
    "Ġprotection": 9471,
    "Ġoptim": 775,
    "tps": 11540,
    "duty": 20253,
    "Ġslaves": 23184,
    "ellest": 21587,
    "Ġcomposed": 8898,
    "Ġpugnacious": 26460,
    "Ġwallet": 21311,
    "Ġgunw": 6216,
    "Ġnewspapers": 17196,
    "scor": 13028,
    "length": 7138,
    "umpled": 15890,
    "Ġpals": 13924,
    "Ġsuddenness": 23398,
    "Ġfled": 6676,
    "Ġsubs": 2116,
    "Ġsod": 11566,
    "Ġrepresent": 1210,
    "Ġinflexibly": 26381,
    "Ġpress": 5936,
    "Ġ1839": 20473,
    "ingale": 21312,
    "Ġinhabited": 12192,
    "Ġomn": 8415,
    "hanging": 10106,
    "icions": 21576,
    "Ġmeanwhile": 5738,
    "Ġscoresby": 10470,
    "iers": 5995,
    "mates": 5076,
    "Ġshapes": 14115,
    "ented": 4354,
    "acceptance": 25197,
    "puzzling": 26153,
    "onial": 11571,
    "Ġcha": 6857,
    "scores": 23010,
    "Ġinsomuch": 23697,
    "Ġexulting": 20272,
    "byshire": 6175,
    "reasonable": 7754,
    "Ġcrane": 23452,
    "first": 3934,
    "miserably": 24224,
    "anything": 5522,
    "acit": 16095,
    "mult": 8754,
    "Ġslumber": 13070,
    "Ġear": 1423,
    "Ġfrosts": 19815,
    "Ġcolleague": 17169,
    "Ġwild": 2604,
    "zar": 11552,
    "Ġderiv": 1736,
    "earth": 6504,
    "Ġobtruded": 20735,
    "onent": 21261,
    "ivial": 15873,
    "Ġwasted": 9713,
    "Ġbrain": 2085,
    "Ġretreating": 19812,
    "Ġpounds": 5371,
    "Ġpoetical": 25072,
    "Ġbuild": 6475,
    "Ġperemptorily": 17376,
    "Ġtime": 690,
    "Ġatrocious": 21956,
    "Ġsuperiors": 23469,
    "Ġarve": 15911,
    "prairies": 20580,
    "stamp": 21661,
    "Ġchamounix": 14878,
    "Ġultimate": 12355,
    "Ġvariety": 8536,
    "Ġcomparing": 14271,
    "Ġinfant": 11967,
    "Ġwrongfully": 24263,
    "Ġ1671": 25021,
    "Ġreturning": 5329,
    "ris": 9143,
    "ivot": 11723,
    "surrounded": 26098,
    "ontory": 10467,
    "acing": 2718,
    "Ġdrowned": 9561,
    "Ġmagical": 23114,
    "bre": 3979,
    "southern": 20422,
    "Ġsummoned": 9916,
    "rible": 3229,
    "Ġlizard": 12662,
    "allah": 5842,
    "Ġwebster": 20176,
    "Ġrepressed": 21681,
    "Ġhorribly": 16354,
    "Ġventure": 7741,
    "Ġgrandeur": 8633,
    "reeable": 3611,
    "intellig": 5324,
    "Ġordin": 16662,
    "Ġprayers": 12131,
    "violets": 23559,
    "unwilling": 14067,
    "Ġaugmented": 15117,
    "beholding": 16053,
    "vity": 7817,
    "Ġsoliloqu": 11890,
    "Ġties": 12535,
    "elevating": 20419,
    "tahit": 17701,
    "Ġindians": 14418,
    "Ġruin": 6059,
    "Ġdaggoo": 5444,
    "magnifying": 25402,
    "Ġdisconsol": 18570,
    "Ġaper": 17753,
    "wow": 21135,
    "myster": 16274,
    "Ġstrangeness": 16715,
    "christmas": 20269,
    "Ġmisanthropic": 26570,
    "madly": 24434,
    "istol": 6261,
    "Ġdiving": 12608,
    "Ġpol": 2579,
    "Ġegg": 8825,
    "Ġnevertheless": 5043,
    "Ġdiscoverer": 26045,
    "abhorred": 17345,
    "Ġrogue": 22420,
    "Ġfaster": 3199,
    "?_": 8071,
    "unning": 4497,
    "Ġbubbling": 17335,
    "Ġglim": 9353,
    "Ġguise": 14441,
    "Ġenig": 15812,
    "ney": 2494,
    "rah": 8140,
    "Ġetext": 23964,
    "ructure": 761,
    "figures": 20136,
    "aviour": 11009,
    "Ġconsummate": 25321,
    "ibid": 18854,
    "Ġhapless": 15825,
    "Ġworms": 25230,
    "subsided": 25841,
    "Ġseasoned": 24419,
    "Ġdiv": 3731,
    "Ġdiverse": 19225,
    "Ġnarrated": 14885,
    "Ġeasiness": 23552,
    "Ġricher": 12766,
    "Ġarrang": 2471,
    "Ġpartner": 6719,
    "kings": 17592,
    "Ġcontextual": 3744,
    "Ġtol": 6680,
    "gather": 20888,
    "Ġnervously": 19201,
    "Ġnavy": 14928,
    "Ġmorcar": 13022,
    "Ġcommunic": 5753,
    "Ġloo": 22122,
    "zas": 17722,
    "Ġbulls": 23871,
    "general": 7490,
    "ilar": 10223,
    "occupied": 12310,
    "Ġarmies": 16505,
    "4": 24,
    "|": 96,
    "Ġvalid": 1799,
    "Ġscr": 11766,
    "Ġships": 3714,
    "Ġhave": 444,
    "Ġprovinces": 24204,
    "adamite": 20607,
    "Ġdexter": 9710,
    "Ġdetestable": 15110,
    "Ġpatterns": 1213,
    "Ġconnection": 5482,
    "Ġoffic": 3189,
    "Ġrosy": 18470,
    "meal": 22732,
    "Ġpedest": 15076,
    "Ġwaited": 4911,
    "Ġnonsense": 6986,
    "Ġconv": 2970,
    "straight": 9946,
    "Ġdespise": 14674,
    "Ġdictating": 20167,
    "b": 70,
    "Ġaccuse": 14217,
    "Ġstriding": 16107,
    "Ġsong": 5906,
    "Ġy": 341,
    "burn": 8374,
    "Ġdatasets": 2386,
    "Ġcan": 474,
    "Ġnot": 413,
    "Ġburns": 16534,
    "swift": 14866,
    "plentiful": 21975,
    "Ġfaults": 12218,
    "begins": 18535,
    "pers": 4341,
    "Ġunfailing": 24123,
    "Ġmeasure": 3593,
    "ceived": 1964,
    "oney": 3052,
    "Ġfelt": 1746,
    "Ġqueer": 4483,
    "Ġcompre": 4452,
    "ac": 743,
    "forest": 22536,
    "irr": 12745,
    "Ġfulfilled": 11368,
    "Ġimbecile": 17402,
    "Ġlaws": 8005,
    "Ġmuchness": 18720,
    "Ġcloudless": 16679,
    "Ġminutely": 14568,
    "althy": 8437,
    "flutterings": 26615,
    "Ġlip": 6536,
    "Ġaffidavit": 20737,
    "Ġtusks": 17262,
    "Ġwhalemen": 3912,
    "Ġpunct": 8667,
    "Â": 131,
    "keepers": 16671,
    "mystic": 25327,
    "leag": 21378,
    "Ġchinese": 14189,
    "Ġprofessions": 11235,
    "Ġreceiving": 4886,
    "Ġcomput": 607,
    "Ġmatch": 4532,
    "Ġostens": 25289,
    "Ġperished": 11785,
    "Ġfunny": 7639,
    "Ġforlorn": 14021,
    "closing": 23171,
    "Ġconcentrated": 15095,
    "slave": 16903,
    "vulgar": 25928,
    "enth": 6685,
    "unquiet": 21895,
    "Ġmerc": 9436,
    "cures": 20818,
    "Ġextract": 1567,
    "perceived": 8865,
    "Ġmiraculous": 13553,
    "Ġmuslin": 19398,
    "Ġobeisance": 19773,
    "Ġwhel": 15880,
    "Ġaccompanying": 11309,
    "neglect": 25677,
    "Ġcheerily": 13314,
    "impress": 18061,
    "school": 10061,
    "Ġengraved": 17088,
    "eman": 5638,
    "Ġgoney": 14552,
    "26": 10079,
    "Ġdiet": 13916,
    "Ġreigning": 15713,
    "Ġincline": 18583,
    "Ġpractised": 23333,
    "Ġpostp": 12151,
    "Ġdeeply": 4723,
    "iem": 20930,
    "farmer": 25909,
    "Ġvillains": 14760,
    "Ġott": 13872,
    "Ġuses": 1208,
    "Ġsteer": 10394,
    "Ġturnkeys": 23046,
    "Ġcompetent": 11821,
    "Ġplays": 12044,
    "Ġhorsey": 24264,
    "Ġnewcastle": 16236,
    "bl": 4139,
    "Ġbruised": 25782,
    "idual": 1558,
    "Ġcalculate": 13271,
    "Ġmoderately": 22235,
    "erial": 4636,
    "Ġgiving": 4084,
    "Ġrivals": 20164,
    "Ġwis": 3728,
    "Ġspind": 18315,
    "Ġcigarette": 20668,
    "Ġfemales": 14950,
    "whenever": 11886,
    "responsible": 25773,
    "er": 269,
    "icient": 795,
    "Ġgreenwich": 19334,
    "agonies": 21923,
    "Ġstories": 10869,
    "Ġonly": 792,
    "iscreet": 20695,
    "Ġcrisis": 13134,
    "Ġbeaufort": 13574,
    "Ġhelped": 7460,
    "Ġenthusiasm": 8066,
    "make": 5795,
    "refuge": 24747,
    "okened": 15998,
    "mot": 17605,
    "Ġforty": 5721,
    "Ġdivision": 19459,
    "Ġlime": 13954,
    "Ġinjured": 9045,
    "Ġwilliam": 3484,
    "mush": 20990,
    "der": 467,
    "embarrassed": 20677,
    "Ġagency": 11811,
    "Ġunsatisfied": 22057,
    "Ġxxxvi": 24987,
    "Ġaccompl": 5170,
    "Ġbenchmarks": 15034,
    "Ġphrensy": 25140,
    "Ġobjecting": 18910,
    "Ġgasps": 24879,
    "Ġsurgeon": 8987,
    "Ġ126": 24489,
    "misrepresented": 24225,
    "Ġdeuteronomy": 15772,
    "Ġmamma": 10054,
    "Ġhorns": 11126,
    "Ġnoiselessly": 22879,
    "Ġstature": 10867,
    "allows": 15921,
    "inguished": 6602,
    "uber": 15455,
    "Ġintervals": 5599,
    "Ġmuseum": 15283,
    "Ġunmingled": 18273,
    "Ġappointment": 10652,
    "Ġdisregarded": 22548,
    "infl": 15497,
    "turn": 4294,
    "Ġdesolation": 12275,
    "Ġvesu": 21962,
    "startled": 24957,
    "priv": 9628,
    "verty": 8457,
    "Ġcyp": 21357,
    "Ġascend": 9966,
    "Ġhuddled": 20312,
    "Ġallude": 12778,
    "Ġstren": 15732,
    "Ġmil": 4255,
    "Ġjacket": 6490,
    "Ġadvice": 4904,
    "Ġwilderness": 14854,
    "Ġblasphe": 17418,
    "Ġsunken": 14500,
    "Ġintroduced": 7693,
    "Ġrecovering": 11868,
    "umul": 1289,
    ".": 18,
    "counters": 25407,
    "Ġunreasonably": 17461,
    "Ġhumped": 19784,
    "lantern": 17439,
    "Ġemb": 1184,
    "Ġyell": 21791,
    "Ġnames": 4536,
    "inu": 1118,
    "aved": 5478,
    "Ġadequately": 15210,
    "Ġfumbled": 17892,
    "Ġstalls": 25656,
    "Ġargue": 16794,
    "Ġstammered": 26210,
    "ribution": 14314,
    "cheerfulness": 20195,
    "Ġdenomin": 12074,
    "illings": 14148,
    "combe": 7663,
    "taining": 7208,
    "engineer": 23163,
    "peculiar": 6890,
    "coward": 13705,
    "hole": 5589,
    "bodily": 17324,
    "Ġcyl": 15568,
    "Ġwoeful": 19636,
    "Ġautonomous": 10681,
    "Ġjackson": 24255,
    "rance": 5998,
    "Ġrmsprop": 3354,
    "motives": 26147,
    "importance": 9994,
    "Ġroaring": 10972,
    "Ġconsecrate": 26498,
    "Ġdescription": 7431,
    "Ġoaken": 13871,
    "Ġdressed": 5085,
    "cob": 10092,
    "reds": 12755,
    "neg": 12872,
    "Ġshooting": 11166,
    "Ġexploded": 15924,
    "avoiding": 25250,
    "Ġlac": 17975,
    "Ġascending": 14868,
    "abond": 15753,
    "Ġvexation": 10593,
    "Ġinser": 6823,
    "alike": 17953,
    "Ġdisgu": 8210,
    "Ġrussia": 26278,
    "gged": 3780,
    "Ġchemistry": 11465,
    "Ġor": 437,
    "Ġpreferred": 14979,
    "beautiful": 10654,
    "bb": 2801,
    "Ġsat": 1133,
    "Ġponderous": 8359,
    "Ġhog": 13930,
    "Ġlombardy": 26472,
    "Ġtalent": 12303,
    "Ġensued": 11399,
    "asp": 3340,
    "unalterable": 21900,
    "Ġarduous": 26540,
    "tormented": 13650,
    "Ġcried": 1487,
    "Ġdynamic": 5128,
    "Ġexordium": 26501,
    "heads": 4093,
    "Ġgroup": 2039,
    "crowd": 25268,
    "Ġspoiled": 11369,
    "kinson": 10032,
    "Ġneighbor": 25815,
    "theirs": 23618,
    "confidential": 25886,
    "Ġconference": 15759,
    "Ġundulations": 19530,
    "Ġconducting": 16661,
    "Ġnought": 21535,
    "Ġdey": 11679,
    "Ġporus": 24412,
    "Ġpurchas": 19887,
    "Ġconsulted": 13436,
    "icil": 17982,
    "precise": 19366,
    "cater": 20828,
    "Ġsociable": 19420,
    "Ġmonths": 3454,
    "Ġpersecutor": 26106,
    "air": 1001,
    "Ġsteel": 3888,
    "fen": 20863,
    "Ġvis": 1095,
    "drink": 10602,
    "ĠâĢĺ": 1629,
    "Ġweltering": 19602,
    "xes": 21154,
    "'m": 9591,
    "Ġtransformed": 22629,
    "riumph": 4922,
    "Ġinnocent": 4924,
    "Ġexh": 5235,
    "lo": 680,
    "ghan": 19470,
    "Ġunguarded": 15864,
    "Ġlead": 3524,
    "thankful": 16817,
    "Ġsav": 3356,
    "Ġupper": 5094,
    "Ġauger": 21216,
    "cannib": 11908,
    "Ġelud": 22661,
    "rapidly": 15255,
    "bond": 17499,
    "hook": 12059,
    "Ġlantern": 7121,
    "Ġchick": 22262,
    "Ġslight": 3120,
    "saving": 21072,
    "Ġkindness": 4095,
    "Ġdiverted": 14600,
    "maintained": 25036,
    "Ġperceptible": 18459,
    "Ġjar": 15964,
    "Ġdeduced": 12213,
    "Ġsimpl": 1577,
    "meantime": 9098,
    "antic": 1600,
    "Ġhabitual": 24802,
    "Ġlaz": 7380,
    "plunging": 25997,
    "ingley": 1544,
    "Ġconjure": 17133,
    "Ġcottage": 4740,
    "wharf": 20621,
    "atived": 21275,
    "Ġvariation": 22682,
    "Ġtropics": 17073,
    "Ġfrantic": 7960,
    "Ġsurvivor": 17372,
    "atching": 8206,
    "Ġcircumst": 2975,
    "uled": 11542,
    "Ġhorror": 3774,
    "Ġshouting": 10530,
    "Ġserpents": 13125,
    "evade": 24830,
    "ner": 1376,
    "Ġpop": 5154,
    "Ġpursue": 6316,
    "thouse": 21995,
    "Ġacquitted": 18912,
    "lasting": 8013,
    "Ġbrother": 2750,
    "mblance": 7326,
    "Ġcounty": 9036,
    "sculpt": 16257,
    "Ġsexes": 25183,
    "Ġunfelt": 24122,
    "Ġelse": 2483,
    "Ġcoward": 7158,
    "Ġfronted": 23273,
    "Ġballasted": 23994,
    "Ġfeeling": 3086,
    "iony": 9201,
    "Ġultimately": 17174,
    "Ġmorocco": 26583,
    "Ġrossum": 3014,
    "Ġadm": 2403,
    "Ġpads": 21487,
    "Ġgentle": 1889,
    "Ġumbrell": 13655,
    "Ġsteersman": 13050,
    "Ġsweet": 3467,
    "intense": 22954,
    "cur": 3269,
    "Ġlessened": 19100,
    "Ġhom": 9196,
    "hurried": 11359,
    "Ġhealth": 3903,
    "Ġcondu": 18119,
    "rive": 4712,
    "Ġgroom": 13972,
    "Ġpup": 12626,
    "Ġexempl": 21844,
    "Ġbiological": 1931,
    "pitching": 24089,
    "Ġplanted": 9780,
    "inex": 14098,
    "Ġaboriginal": 14194,
    "Ġpacing": 8431,
    "ortal": 6267,
    "Ġsufferer": 16271,
    "Ġmeasureless": 14720,
    "Ġjup": 15966,
    "ears": 20858,
    "Ġquohog": 10976,
    "Ġdam": 2217,
    "Ġdiversity": 25298,
    "roll": 9206,
    "Ġdazzling": 15223,
    "flood": 19819,
    "bringing": 17176,
    "Ġpilgr": 12188,
    "Ġcommanding": 16601,
    "Ġbelonging": 8312,
    "Ġgraph": 10906,
    "Ġforeign": 9878,
    "Ġimmortality": 26336,
    "Ġsummons": 13240,
    "Ġcane": 10933,
    "msprop": 2628,
    "Ġimprecations": 25831,
    "ensions": 14265,
    "Ġbandaged": 16852,
    "Ġevidently": 6762,
    "Ġwishes": 4800,
    "Ġlads": 8602,
    "residence": 19277,
    "Ġpint": 17920,
    "charlotte": 6474,
    "Ġexponentially": 1445,
    "perth": 22188,
    "macy": 18817,
    "Ġimbec": 14162,
    "Ġlivelong": 25520,
    "Ġimpertinence": 11372,
    "Ġtar": 2565,
    "Ġimpatient": 5606,
    "Ġnational": 13948,
    "Ġintegration": 9874,
    "Ġproves": 14044,
    "Ġcaptive": 14436,
    "Ġcompression": 18156,
    "sure": 5525,
    "Ġplacing": 8907,
    "miseries": 16768,
    "Ġroll": 5382,
    "Ġquill": 12864,
    "outer": 9677,
    "mits": 13761,
    "fat": 8081,
    "Ġgreedy": 3056,
    "Ġeast": 5373,
    "Ġlxi": 21574,
    "Ġkingdom": 12023,
    "Ġroman": 8327,
    "watches": 14960,
    "Ġturbid": 23626,
    "oton": 3606,
    "Ġbroker": 23117,
    "Ġshield": 22012,
    "Ġtucked": 12398,
    "Ġwhenever": 5169,
    "itaries": 21348,
    "Ġheaps": 11646,
    "bless": 22327,
    "Ġused": 2060,
    "eff": 2536,
    "staking": 21655,
    "Ġdestroy": 5774,
    "disposed": 25026,
    "Ġfren": 10809,
    "Ġestim": 3348,
    "expected": 5782,
    "Ġpathways": 11157,
    "turbable": 24543,
    "claps": 23168,
    "Ġstove": 6737,
    "interrupt": 8621,
    "heaving": 21220,
    "Ġtorch": 25046,
    "ated": 732,
    "Ġforests": 13598,
    "Ġmaelstrom": 19371,
    "Ġdeaths": 14544,
    "reached": 13847,
    "Ġconcisely": 19058,
    "Ġspermacetti": 19063,
    "Ġprompt": 3191,
    "Ġdevelop": 1662,
    "Ġpistol": 7849,
    "Ġrever": 6541,
    "bergs": 18707,
    "named": 9899,
    "ister": 1293,
    "Ġle": 333,
    "Ġmarshy": 20232,
    "Ġrefine": 2958,
    "hammer": 14496,
    "alanche": 13941,
    "circumstances": 8049,
    "Ġsystems": 791,
    "Ġoccurring": 2793,
    "Ġbent": 5152,
    "Ġstate": 1811,
    "Ġlungs": 8366,
    "reserve": 17773,
    "Ġchanged": 5245,
    "Ġvagueness": 25746,
    "Ġproduced": 2454,
    "gpt": 5359,
    "Ġbeen": 627,
    "state": 13980,
    "urned": 9315,
    "Ġrelied": 16208,
    "pede": 19943,
    "Ġsharper": 17189,
    "sho": 6426,
    "Ġbows": 4082,
    "Ġprecipice": 19955,
    "accessible": 13644,
    "left": 6979,
    "Ġeagle": 13208,
    "ip": 557,
    "Ġvinc": 14091,
    "Ġsalisbury": 24079,
    "circle": 16748,
    "great": 3518,
    "Ġserve": 9404,
    "affrail": 11209,
    "weaknesses": 26040,
    "retched": 3070,
    "Ġchaise": 9082,
    "ortion": 11762,
    "majesty": 26291,
    "opes": 10318,
    "Ġgeese": 7696,
    "Ġembal": 11899,
    "culous": 11144,
    "ula": 2827,
    "Ġjoint": 12041,
    "Ġfiled": 15591,
    "Ġancestors": 25651,
    "Ġresembles": 25979,
    "ivation": 3111,
    "onic": 7829,
    "Ġadmission": 23570,
    "Ġarticles": 7113,
    "Ġburton": 23669,
    "employ": 10899,
    "Ġanat": 8127,
    "Ġlurk": 13390,
    "Ġcrawled": 17051,
    "abilities": 3237,
    "istrate": 7407,
    "Ġflattered": 10382,
    "Ġdireful": 11021,
    "abated": 14026,
    "Ġpromised": 5185,
    "Ġrefuse": 5741,
    "Ġcabinets": 23875,
    "Ġdined": 9186,
    "silly": 24436,
    "Ġsave": 4051,
    "pockets": 16224,
    "pires": 13780,
    "letons": 14620,
    "Ġsens": 1851,
    "Ġcommodores": 25385,
    "Ġfluctu": 5271,
    "gradient": 2272,
    "Ġdisk": 22540,
    "icken": 6716,
    "wound": 21140,
    "ĥ": 230,
    "Ġsequences": 1752,
    "Ġtranslations": 12058,
    "Ġtents": 13824,
    "Ġbarbarians": 19604,
    "Ġdemocracy": 25468,
    "designated": 26329,
    "Ġshaded": 14111,
    "Ġforging": 18103,
    "Ġemotion": 7692,
    "kne": 20948,
    "wretch": 17718,
    "Ġwhittingham": 26208,
    "Ġidea": 2489,
    "Ġsprout": 24102,
    "Ġashen": 21913,
    "Ġroute": 11386,
    "ester": 11603,
    "ilib": 4115,
    "grim": 19121,
    "Ġriots": 23988,
    "Ġsweating": 16474,
    "Ġsemantic": 1956,
    "Ġwhistles": 24642,
    "indef": 17745,
    "Ġobserving": 6088,
    "luded": 4228,
    "aimed": 3956,
    "ased": 1267,
    "Ġrosings": 4611,
    "Ġanswerable": 23485,
    "Ġneighbouring": 12126,
    "fever": 22519,
    "ħ": 232,
    "°": 113,
    "Ġturner": 7054,
    "treasures": 26162,
    "yield": 13815,
    "Ġloops": 8859,
    "Ġsanely": 24998,
    "Ġkins": 22207,
    "Ġlass": 15660,
    "prints": 23826,
    "Ġquivered": 18479,
    "Ġsobbing": 14142,
    "opius": 18522,
    "Ġtongues": 14877,
    "Ġsides": 4583,
    "Ġcorridor": 10677,
    "Ġclearness": 23199,
    "Ġrescales": 5071,
    "Ġchopping": 24233,
    "Ġpurporting": 19197,
    "Ġmourning": 13485,
    "child": 5540,
    "Ġunnaturally": 24884,
    "Ġparis": 8183,
    "Ġmute": 19431,
    "Ġcrosswise": 18901,
    "Ġsimultaneous": 22605,
    "Ġtypewritten": 16434,
    "Ġjoyful": 13230,
    "Ġprint": 18982,
    "Ġprocedure": 2810,
    "Ġvacuous": 24357,
    "fe": 674,
    "Ġuncompromised": 20618,
    "circumstance": 7766,
    "hester": 9640,
    "Ġmurmur": 14597,
    "ineer": 11704,
    "Ġridic": 7509,
    "Ġbravery": 23850,
    "gins": 12474,
    "Ġoutrages": 18427,
    "Ġadmiral": 17313,
    "conda": 19006,
    "Ġtho": 21527,
    "ublic": 11230,
    "discernible": 20564,
    "Ġsped": 22133,
    "Ġcrutch": 23459,
    "Ġdesolate": 10019,
    "lad": 5996,
    "Ġsitu": 3497,
    "Ġbarred": 9008,
    "Ġboarders": 16611,
    "Ġnative": 4645,
    "Ġbeaver": 18095,
    "Ġprompted": 23830,
    "lested": 14897,
    "Ġhyper": 19754,
    "Ġlivelihood": 24787,
    "Ġsuff": 1301,
    "Ġcontact": 9290,
    "Ġprogram": 13000,
    "Ġbrilliancy": 20121,
    "bred": 11474,
    "wished": 13811,
    "calmed": 16218,
    "Ġcorre": 3887,
    "invisible": 17750,
    "Ġtis": 15475,
    "Ġmightiest": 12968,
    "difficulty": 12396,
    "Ġprofoundest": 16870,
    "ustomed": 6102,
    "Ġsundry": 20088,
    "Ġsurmise": 12301,
    "Ġfortun": 4984,
    "©": 107,
    "taste": 10135,
    "uments": 5554,
    "Ġbonds": 17879,
    "Ġteacup": 16226,
    "Ġresignation": 18580,
    "Ġgripping": 26197,
    "phere": 21031,
    "Ġsurp": 9643,
    "ify": 1357,
    "disagreeable": 11167,
    "newsp": 23150,
    "Ġhogshead": 26378,
    "Ġhousings": 21506,
    "Ġmatrimonial": 25499,
    "spir": 5740,
    "Ġhearers": 15715,
    "Ġacres": 14320,
    "ipotence": 22380,
    "ograph": 4802,
    "Ġcalam": 13042,
    "Ġskylarking": 19502,
    "Ġfatally": 19409,
    "produced": 25424,
    "ged": 1512,
    ",âĢĻâĢĶ": 23543,
    "ention": 853,
    "enger": 10777,
    "Ġinforming": 18757,
    "Ġmoving": 1678,
    "Ġshed": 8185,
    "zag": 17723,
    "onement": 21269,
    "Ġimpro": 919,
    "ample": 1369,
    "my": 1313,
    "iel": 11499,
    "once": 5907,
    "Ġassault": 9837,
    "eers": 20856,
    "opp": 6966,
    "Ġpinch": 15029,
    "Ġstab": 10866,
    "wig": 17714,
    "Ġdiscontented": 16073,
    "Ġdetestation": 17137,
    "Ġboard": 3383,
    "Ġpolitical": 19238,
    "instrument": 15250,
    "pse": 21021,
    "renched": 7911,
    "Ġpeep": 6874,
    "Ġworld": 1592,
    "numerous": 17442,
    "Ġdisabled": 18574,
    "east": 9121,
    "Ġpry": 11605,
    "Ġmult": 1020,
    "circled": 24201,
    "Ġ6": 5145,
    "Ġtight": 8111,
    "Ġhaws": 21964,
    "Ġattics": 22638,
    "Ġfever": 6563,
    "Ġengagements": 9983,
    "Ġrest": 1782,
    "rougham": 16007,
    "Ġdeprived": 8213,
    "ruck": 6852,
    "Ġmyster": 5930,
    "conversations": 24762,
    "hush": 20918,
    "port": 10724,
    "thern": 4955,
    "Ġheire": 18046,
    "security": 26217,
    "Ġgaining": 9501,
    "Ġcleanse": 24539,
    "oors": 17629,
    "Ġbeech": 18092,
    "Ġunimpe": 22084,
    "Ġconfirming": 25332,
    "Ġregained": 18606,
    "Ġim": 476,
    "convul": 24897,
    "sory": 17668,
    "Ġidler": 16417,
    "Ġtombed": 25175,
    "Ġkrus": 18360,
    "Ġconflagration": 26375,
    "aged": 2609,
    "Ġheredit": 9226,
    "Ġentreating": 24220,
    "Ġsurgeons": 23479,
    "alliance": 22213,
    "trowsers": 17700,
    "'s": 2472,
    "Ġconfl": 11141,
    "Ġtrim": 15976,
    "drab": 23911,
    "Ġrippling": 17285,
    "Ġignorant": 5347,
    "itement": 7837,
    "Ġaims": 15505,
    "Ġcannibals": 10594,
    "Ġascended": 8672,
    "Ġsoles": 22097,
    "valley": 17710,
    "ceremony": 20604,
    "Ġring": 4456,
    "movable": 14331,
    "Ġamply": 22500,
    "Ġenumerating": 15256,
    "Ġabsolutely": 4862,
    "Ġscotch": 12215,
    "Ġmem": 2163,
    "Ġclassify": 1560,
    "Ġinfallible": 15081,
    "sch": 21063,
    "Ġincl": 4271,
    "Ġmagician": 25074,
    "irations": 18180,
    "Ġwaylaid": 22888,
    "Ġhish": 21927,
    "awakened": 14461,
    "Ġlig": 21561,
    "ampling": 12735,
    "Ġonce": 1492,
    "augment": 18843,
    "Ġwalls": 6765,
    "Ġsacred": 10932,
    "breakfast": 8693,
    "att": 1457,
    "Ġdarcy": 1343,
    "Ġobstructed": 24692,
    "constellation": 24625,
    "Ġreappearance": 21680,
    "Ġesquimaux": 25165,
    "Ġfangs": 12604,
    "Ġclos": 4552,
    "sorts": 21073,
    "Ġconfine": 14516,
    "Ġobliquely": 12368,
    "Ġbuttoning": 17245,
    "Ġsufficient": 2005,
    "Ġshadowed": 24060,
    "sign": 8392,
    "chariot": 26488,
    "Ġwrest": 11576,
    "Ġcalendar": 18890,
    "Ġdistinguished": 8277,
    "Ġcompiled": 22588,
    "Ġknows": 4158,
    "atible": 17782,
    "Ġdep": 739,
    "Ġmac": 15549,
    "Ġundeceive": 25561,
    "itations": 17827,
    "Ġsuperhuman": 23467,
    "Ġsight": 2109,
    "blue": 13698,
    "jam": 15383,
    "slanting": 24570,
    "visits": 24237,
    "soft": 12517,
    "Ġpl": 745,
    "Ġdisastrous": 16074,
    "Ġforcing": 3226,
    "Ġdominic": 25391,
    "Ġbegone": 11922,
    "dipped": 20850,
    "Ġsofa": 10278,
    "Ġdoctrine": 24211,
    "Ġvibrated": 25061,
    "thinking": 9020,
    "Ġantiquity": 15242,
    "Ġculprit": 26182,
    "pict": 8390,
    "Ġslanting": 23187,
    "Ġimpenetrable": 17407,
    "Ġnomin": 10197,
    "Ġharmony": 16825,
    "Ġhieroglyphic": 25596,
    "windows": 19549,
    "semic": 21834,
    "Ġunreserved": 19413,
    "Ġspectrum": 4479,
    "Ġporing": 21480,
    "aders": 21772,
    "gods": 13373,
    "Ġdri": 2360,
    "finds": 19940,
    "Ġpopulous": 16837,
    "Ġausten": 5886,
    "Ġbolt": 11339,
    "Ġwreck": 7317,
    "Ġpron": 6452,
    "fair": 10098,
    "Ġalco": 21796,
    "ingly": 2133,
    "compl": 6877,
    "Ġaccelerate": 23238,
    "laws": 19820,
    "/`": 12435,
    "Ġturbul": 23627,
    "Ġcease": 7081,
    "Ġdecember": 15019,
    "Ġoutermost": 22334,
    "Ġwin": 9650,
    "Ġshaft": 18238,
    "Ġirreproachable": 24931,
    "Ġpitches": 23914,
    "Ġblade": 11900,
    "Ġnoisier": 4628,
    "Ġcrooked": 11286,
    "gives": 15369,
    "Ġsigh": 10344,
    "Ġintact": 22002,
    "Ġattractive": 25584,
    "Ġmagic": 8237,
    "unknown": 10894,
    "Ġhumorous": 10368,
    "Ġobservation": 6641,
    "car": 4213,
    "Ġpeeping": 16141,
    "saying": 8645,
    "Ġthird": 4187,
    "Ġrokovoko": 22421,
    "Ġwherein": 14303,
    "respond": 12552,
    "Ġtension": 13830,
    "Ġpear": 11857,
    "mightily": 24115,
    "Ġbathing": 20214,
    "Ġowest": 25107,
    "ominy": 13988,
    "Ġrespectable": 6740,
    "Ġprofile": 16501,
    "Ġfewer": 16238,
    "Ġtemperature": 1002,
    "buffalo": 20577,
    "Ġviolation": 23421,
    "love": 9303,
    "Ġbiscuit": 12596,
    "Ġchancing": 22263,
    "body": 2306,
    "ppings": 18186,
    "abri": 6687,
    "Ġcontrived": 10311,
    "Ġprec": 2922,
    "Ġcarted": 21362,
    "ateg": 1363,
    "Ġmodel": 514,
    "completely": 12426,
    "Ġmethodically": 23193,
    "pinn": 21038,
    "Ġeluded": 12929,
    "Ġomniscient": 20100,
    "ĠcÃ¦": 15566,
    "Ġcomfortably": 16625,
    "Ġcarpenter": 4689,
    "Ġredness": 19325,
    "Ġwednesday": 9090,
    "Ġmicrosc": 20689,
    "Ġgovernments": 20281,
    "Ġseam": 3908,
    "Ġbenefited": 19414,
    "Ġstables": 23671,
    "Ġcomputational": 1623,
    "Ġberm": 21395,
    "Ġulster": 15009,
    "Ġdomes": 23652,
    "Ġhos": 4944,
    "iture": 5698,
    "Ġfather": 1452,
    "Ġscore": 9746,
    "hearing": 8408,
    "Ġallowing": 2174,
    "calling": 12456,
    "infer": 10151,
    "Ġindulged": 13423,
    "Ġwrench": 12564,
    "conception": 22492,
    "nect": 662,
    "Ġheavens": 5053,
    "pans": 13775,
    "ial": 412,
    "Ġbeloved": 5574,
    "Ġdipped": 15606,
    "Ġmoose": 22448,
    "Ġunsettled": 14129,
    "dering": 5310,
    "Ġtransformers": 1113,
    "Ġstarboard": 7605,
    "guest": 19494,
    "Ġsweeping": 8991,
    "Ġphilipp": 23898,
    "Ġabund": 8871,
    "Ġwake": 4754,
    "Ġvoids": 25817,
    "Ġimprinted": 22413,
    "raham": 18024,
    "actor": 11843,
    ".;": 20757,
    "Ġdeployment": 11205,
    "Ġslaughtered": 26594,
    "Ġsleeves": 10666,
    "engagements": 25864,
    "Ġsuffering": 8952,
    "envelope": 17792,
    "{": 95,
    "Ġremarking": 13132,
    "threatened": 25472,
    "puff": 21034,
    "Ġboys": 5176,
    "Ġrooms": 5184,
    "quar": 7617,
    "chorus": 19824,
    "Ġnorris": 23218,
    "Ġlikelihood": 16511,
    "Ġcigar": 9554,
    "Ġthickening": 24039,
    "Ġaltered": 7395,
    "Ġsculpture": 26026,
    "orte": 14190,
    "wam": 10142,
    "Ġalive": 4404,
    "Ġcitations": 25447,
    "chiefly": 14860,
    "evening": 7094,
    "Ġyear": 3284,
    "Ġdeactivates": 20717,
    "Ġx": 2072,
    "wers": 12526,
    "brance": 7287,
    "Ġbuck": 7160,
    "Ġflu": 3276,
    "-------": 20402,
    "Ġincome": 7921,
    "Ġaccordingly": 6624,
    "ferred": 16415,
    "ioneer": 15643,
    "Ġelevation": 14911,
    "Ġperish": 8881,
    "nants": 17622,
    "acted": 11014,
    "Ġwaning": 15544,
    "Ġdwelt": 12612,
    "Ġepaulets": 24919,
    "Ġdauntless": 26347,
    "================": 3723,
    "Ġver": 3393,
    "Ġmo": 630,
    "Ġpresume": 8040,
    "Ġfondly": 19633,
    "Ġrap": 14311,
    "let": 2734,
    "Ġstands": 5262,
    "Ġsultan": 15196,
    "Ġsavor": 23888,
    "Ġsa": 472,
    "Ġentailed": 11030,
    "Ġbrides": 22881,
    "fordshire": 4681,
    "Ġloom": 7630,
    "amiable": 14060,
    "Ġfaithful": 9512,
    "worshipping": 16621,
    "Ġcobbler": 25840,
    "Ġdealing": 14053,
    "Ġsubst": 4274,
    "Ġvolumes": 14814,
    "Ġ62": 24378,
    "Ġcovent": 16088,
    "Ġeducation": 5132,
    "cigar": 26134,
    "Ġtapped": 11558,
    "Ġassertion": 13059,
    "Ġje": 4121,
    "Ġanyone": 4463,
    "Ġenvirons": 13228,
    "creation": 14820,
    "Ġyoung": 1505,
    "Ġought": 3418,
    "ied": 942,
    "Ġhurled": 10436,
    "Ġdiscompose": 25588,
    "Ġsuccor": 25671,
    "gloomy": 25159,
    "float": 19818,
    "arding": 22169,
    "igation": 5922,
    "Ġprelimin": 8867,
    "Ġperforms": 11882,
    "occ": 4489,
    "formation": 22232,
    "Ġvap": 6840,
    "range": 3496,
    "hide": 10708,
    "ino": 15489,
    "Ġmuttering": 10507,
    "cannibals": 25593,
    "Ġwisest": 11236,
    "eral": 9168,
    ":--": 5786,
    ",--": 2479,
    "regularization": 3516,
    "Ġhorr": 3192,
    "twig": 23709,
    "swells": 26158,
    "Ġlump": 21565,
    "Ġtuning": 3075,
    "Ġimpropriety": 17405,
    "Ġsite": 17763,
    "Ġsmothe": 18587,
    "Ġmixed": 6978,
    "apes": 9749,
    "Ġwight": 12560,
    "Ġresembled": 18043,
    "Ġfourth": 7709,
    "spite": 16152,
    "Ġdepressed": 10887,
    "Ġassistance": 6335,
    "Ġprecisely": 6467,
    "Ġagonized": 25383,
    "Ġfoss": 9854,
    "raved": 18023,
    "drifting": 19837,
    "venth": 9304,
    "carries": 19542,
    "Ġunconscious": 9556,
    "jointed": 24024,
    "Ġtask": 1308,
    "spond": 5569,
    "Ġinvestigation": 9048,
    "Ġrec": 899,
    "ogy": 22728,
    "Ġdomin": 10468,
    "Ġagonies": 14257,
    "oms": 4597,
    "Ġperiodical": 14786,
    "Ġstrife": 18628,
    "grant": 10434,
    "Ġvent": 3998,
    "obviously": 25256,
    "Ġponder": 6822,
    "Ġshortly": 6199,
    "Ġbart": 17867,
    "Ġprosperity": 20271,
    "Ġoriginate": 24133,
    "Ġpit": 3419,
    "feren": 767,
    "Ġquadrant": 11409,
    "Ġblending": 14409,
    "ê": 171,
    "oa": 9621,
    "regard": 7977,
    "Ġheadway": 18806,
    "Ġliberty": 7764,
    "Ġmiseries": 10354,
    "Ġbrawny": 13619,
    "Ġtable": 2501,
    "brous": 19216,
    "Ġcomplacency": 19463,
    "umbling": 6616,
    "Ġdish": 6139,
    "el": 306,
    "Ġsequential": 2130,
    "Ġpunish": 12167,
    "Ġwade": 17794,
    "constant": 11329,
    "Ġorganize": 8997,
    "warrior": 24810,
    "Ġrichest": 26222,
    "nurs": 21012,
    "ĵ": 246,
    "terrors": 25057,
    "bewil": 22515,
    "Ġsalad": 19496,
    "Ġtrusting": 24117,
    "Ġhenry": 5201,
    "travelling": 24350,
    "partly": 14610,
    "Ġdepend": 777,
    "Ġslipper": 24280,
    "Ġbrill": 8555,
    "Ġeleventh": 23385,
    "brit": 19215,
    "Ġig": 3503,
    "secut": 7870,
    "Ġwander": 9037,
    "ē": 212,
    "Ġbetokened": 18810,
    "Ġchaff": 18395,
    "Ġloath": 7895,
    "church": 8143,
    "acity": 5737,
    "Ġsisters": 3641,
    "Ġsc": 532,
    "Ġexc": 1831,
    "Ġcertain": 1556,
    "Ġpolice": 4679,
    "69": 17484,
    "Ġillustrate": 25081,
    "Ġorange": 8492,
    "Ġheavenly": 12092,
    "Ġsystem": 572,
    "Ġtempted": 9062,
    "pleased": 8860,
    "ictions": 14232,
    "Ġgood": 999,
    "al": 292,
    "Ġvine": 8477,
    "rivest": 23540,
    "aloft": 8813,
    "Ġsuperstition": 15066,
    "Ġfrayed": 23344,
    "ures": 838,
    "Ġtraged": 9361,
    "Ġgallop": 19573,
    "ight": 403,
    "terbury": 21838,
    "composed": 14751,
    "Ġpoll": 12036,
    "Ġrenders": 13291,
    "Ġsket": 18741,
    "Ġlizz": 21570,
    "Ġdutch": 6329,
    "Ġnorm": 762,
    "concluded": 11248,
    "kily": 20950,
    "Ġham": 3420,
    "Ġeagerness": 6612,
    "Ġextending": 11032,
    "vic": 13808,
    "evenings": 19478,
    "ahead": 12440,
    "th": 407,
    "Ġhab": 4219,
    "itu": 1226,
    "eyed": 11492,
    "mighty": 9475,
    "Ġshake": 6038,
    "Ġabased": 22283,
    "anxious": 15121,
    "Ġjonas": 20624,
    "Ġobvious": 4966,
    "comparatively": 25850,
    "Ġfidelity": 15253,
    "performed": 18349,
    "ail": 566,
    "Ġquar": 3114,
    "Ġup": 463,
    "greg": 6652,
    "icting": 12862,
    "Ġunprejudiced": 18278,
    "asked": 8918,
    "Ġdetected": 18862,
    "Ġcanes": 22178,
    "Ġcontemplation": 11363,
    "kovoko": 20682,
    "Ġcongen": 10877,
    "Ġtant": 12533,
    "Ġimpact": 10306,
    "uss": 8769,
    "Ġyawning": 12306,
    "understanding": 1084,
    "those": 4499,
    "Ġcrad": 21361,
    "Ġgospel": 18011,
    "itable": 5440,
    "Ġdecreases": 3409,
    "entrance": 12665,
    "Ġsymptoms": 8710,
    "Ġhail": 7401,
    "reproof": 25442,
    "Ġgodlike": 23374,
    "erranean": 9343,
    "Ġjavel": 17091,
    "Ġrobert": 10974,
    "insula": 23082,
    "Ġrhyme": 21994,
    "Ġdizzy": 21445,
    "Ġregion": 2270,
    "like": 1884,
    "web": 18678,
    "intended": 11070,
    "Ġtwinkling": 12330,
    "hooked": 23729,
    "uge": 4017,
    "Ġirr": 10428,
    "Ġshaped": 15848,
    "Ġrolls": 8338,
    "questioning": 16860,
    "aded": 3550,
    "Ġvault": 8848,
    "Ġlar": 765,
    "strils": 10466,
    "Ġsteelkilt": 5677,
    "ument": 5242,
    "Ġinert": 15633,
    "contents": 12064,
    "Ġtrappers": 23097,
    "atha": 6577,
    "desperate": 17366,
    "Ġduring": 873,
    "Ġanchor": 7370,
    "res": 2761,
    "extrem": 18723,
    "Ġplough": 18623,
    "Ġcompromised": 22589,
    "Ġmel": 4822,
    "Ġinner": 9679,
    "Ġaimed": 20264,
    "Ġpur": 2218,
    "iarity": 8750,
    "Ġefficient": 1065,
    "mon": 2307,
    "iness": 1281,
    "Ġpersuasions": 16645,
    "Ġrecently": 11867,
    "Ġscant": 22300,
    "Ġwa": 1754,
    "recollect": 17233,
    "agings": 18175,
    "Ġjames": 6420,
    "hypothe": 25915,
    "Ġruns": 8600,
    "sheets": 14450,
    "Ġtoiling": 15646,
    "Ġwrithing": 11952,
    "ress": 930,
    "walk": 5526,
    "Ġafric": 8912,
    "Ġblotted": 20231,
    "igan": 21712,
    "Ġvulgarity": 25374,
    "Ġsparkling": 11362,
    "aking": 973,
    "pacing": 21033,
    "Ġprotesting": 14752,
    "approbation": 11463,
    "quent": 2092,
    "Ġromans": 16770,
    "Ġglossy": 15239,
    "Ġharm": 5021,
    "apers": 3483,
    "Ġsolitudes": 22904,
    "servant": 14767,
    "Ġopportunity": 4791,
    "Ġgust": 21610,
    "Ġboiling": 8531,
    "Ġintolerable": 8487,
    "Ġscra": 5845,
    "Ġunderstood": 5656,
    "coming": 3563,
    "Ġmeetings": 16544,
    "Ġappropri": 2228,
    "Ġmead": 8842,
    "business": 5612,
    "Ġshe": 466,
    "Ġstave": 11655,
    "inct": 3291,
    "atisf": 21276,
    "lane": 10711,
    "Ġdaintiest": 25963,
    "Ġpointing": 5662,
    "ssible": 2992,
    "ises": 3654,
    "Ġwhitened": 24881,
    "Ġtranslates": 12057,
    "Ġcontraction": 16023,
    "izers": 18144,
    "Ġdromedary": 17449,
    "described": 18909,
    "bitterly": 20350,
    "Ġpatriot": 23295,
    "Ġstreet": 2959,
    "Ġthan": 737,
    "Ġspecialized": 3921,
    "Ġwre": 5081,
    "asc": 6387,
    "Ġimplement": 2807,
    "eping": 5837,
    "Ġhalloa": 13323,
    "Ġhypothesis": 14798,
    "Ġmy": 410,
    "Ġexhausting": 24723,
    "icorn": 15669,
    "Ġexhilarating": 26348,
    "handkerchief": 14625,
    "glim": 19380,
    "Ġtraffic": 23099,
    "Ġcaravan": 26301,
    "anguish": 15997,
    "Ġupbraided": 26537,
    "appalled": 18774,
    "Ġawkwardness": 13493,
    "countless": 24163,
    "Ġsharpen": 13575,
    "arnel": 18137,
    "Ġrecursive": 4787,
    "Ġrapturously": 24902,
    "Ġcommander": 8630,
    "Ġfet": 5810,
    "otograph": 5829,
    "Ġcurvature": 3574,
    "Ġsought": 5012,
    "thoughts": 9941,
    "Ġscene": 3100,
    "Ġmoss": 9293,
    "Ġmasterless": 24009,
    "Ġconfessor": 24034,
    "attle": 4471,
    "Ġfishery": 4174,
    "Ġlabeled": 3718,
    "tiger": 13803,
    "Ġcasement": 25108,
    "Ġsang": 12543,
    "Ġmerid": 13200,
    "Ġglobe": 6080,
    "Ġsuckling": 26007,
    "Ġdiscovers": 4433,
    "))": 1515,
    "Ġbackward": 7656,
    "Ġconveniently": 20093,
    "Ġconcoct": 19059,
    "Ġblight": 18832,
    "liberal": 26293,
    "Ġsebastian": 11701,
    "Ġcalmer": 23061,
    "queer": 10371,
    "Ġlips": 3992,
    "Ġswings": 11091,
    "Ġdisconsolate": 20732,
    "Ġexciting": 23328,
    "spikes": 10348,
    "Ġscaramouch": 23841,
    "shows": 22471,
    "laughed": 20294,
    "ĠdÃ¦mon": 7846,
    "henomen": 10502,
    "Ġvesture": 20076,
    "Ġnormalizing": 1820,
    "flesh": 13495,
    "Ġoverwhelmed": 11408,
    "ux": 7815,
    "visitor": 15069,
    "ties": 2760,
    "neck": 14240,
    "begged": 18530,
    "Ġsurvived": 14947,
    "vision": 5622,
    "Ġpitied": 14699,
    "uiperai": 10669,
    "õ": 182,
    "Ġnotes": 7191,
    "entreaties": 26196,
    "Ġforced": 4358,
    "Ġbleeding": 14894,
    "clergyman": 20742,
    "achalot": 15875,
    "aves": 3598,
    "icious": 7382,
    "Ġbill": 4040,
    "Ġlongest": 18644,
    "principal": 20672,
    "spin": 22744,
    "Ġjam": 10955,
    "Ġ-": 1942,
    "Ġarbitrary": 4742,
    "Ġdigest": 24662,
    "Ġunmanufactured": 20447,
    "Ġdecisions": 6707,
    "Ġtransform": 749,
    "zetts": 17724,
    "Ġestimates": 3748,
    "Ġconsolation": 6212,
    "staring": 18028,
    "Ġcus": 21355,
    "Ġharry": 24584,
    "eminent": 25120,
    "ieving": 7035,
    "ĠĠĠĠĠĠĠĠĠĠĠĠĠĠĠĠ": 1219,
    "Ġabomin": 8193,
    "Ġstamping": 20044,
    "Ġinexhaustible": 16989,
    "Ġcarries": 7676,
    "Ġnoah": 10946,
    "Ġproximity": 3221,
    "ojo": 7352,
    "Ġbridges": 24697,
    "Ġtainted": 21183,
    "wards": 1276,
    "vers": 1326,
    "Ġswarm": 23071,
    "Ġnoses": 18384,
    "Ġstolen": 14013,
    "Ġincorruption": 26319,
    "mitting": 20986,
    "Ġdrawn": 4277,
    "Ġshaking": 6556,
    "Ġbenefactor": 14705,
    "merit": 19295,
    "Ġuntutored": 19181,
    "official": 24928,
    "aneously": 4058,
    "Ġapprehension": 7118,
    "surpr": 6001,
    "Ġornaments": 17462,
    "Ġlinear": 3431,
    "Ġtul": 21172,
    "volume": 18604,
    "Ġmountains": 4432,
    "Ġchili": 25570,
    "Ġshook": 4473,
    "Ġpagoda": 19802,
    "igated": 15719,
    "Ġencamped": 22819,
    "Ġweight": 658,
    "Ġproblem": 1271,
    "duchess": 18475,
    "alo": 7588,
    "Ġworst": 7447,
    "ignor": 8967,
    "Ġpruning": 18983,
    "Ġfearless": 9881,
    "Ġcommence": 6170,
    "Ġpursu": 3240,
    "Ġpestilent": 25787,
    "Ġoldest": 12980,
    "Ġlightened": 23277,
    "Ġrestored": 7069,
    "Ġluxuriant": 20408,
    "Ġmand": 21317,
    "Ġtantalizing": 20427,
    "Ġbarbar": 6938,
    "Ġauthorized": 16747,
    "surely": 10577,
    "ft": 912,
    "Ġchrysalis": 26548,
    "resp": 13845,
    "urously": 18060,
    "Ġtinted": 13828,
    "Ġcase": 1938,
    "twilight": 23712,
    "brought": 7288,
    "Ġellenborough": 26164,
    "shut": 10985,
    "intolerable": 22956,
    "Ġsoftware": 18932,
    "Ġnaturalist": 22915,
    "dogs": 25412,
    "nature": 5363,
    "arrang": 14660,
    "draw": 23912,
    "Ġvirt": 3907,
    "Ġdirectors": 18935,
    "Ġagonizing": 17248,
    "Ġmidst": 7989,
    "Ġbeats": 21766,
    "ė": 216,
    "Ġwest": 5222,
    "aguy": 21924,
    "Ġtweezers": 26566,
    "Ġczar": 12581,
    "Ġadmirals": 20398,
    "Ġreputed": 18045,
    "ouses": 5166,
    "Ã¦mon": 7099,
    "straw": 24109,
    "dra": 3413,
    "Ġsplashing": 16562,
    "Ġbewitched": 25985,
    "behold": 12884,
    "Ġbillow": 14794,
    "Ġmizen": 17267,
    "Ġdeceitful": 25741,
    "dor": 12458,
    "gar": 5617,
    "itted": 2444,
    "Ġpossess": 3205,
    "mblings": 19794,
    "Ġprovocation": 24205,
    "Ġlanc": 19779,
    "Ġeludes": 26564,
    "ives": 1410,
    "Ġfulfilment": 20202,
    "Ġlogits": 3448,
    "Ġanalogical": 25649,
    "Ġlawless": 19450,
    "Ġdreamt": 23953,
    "pense": 10376,
    "Ġexe": 3994,
    "falgar": 26140,
    "wic": 21134,
    "Ġwantest": 18804,
    "Ġwelcomed": 9491,
    "neat": 22463,
    "H": 44,
    "keenest": 25670,
    "Ġcommerce": 11019,
    "Ġexpiring": 16112,
    "Ġbrilliantly": 25136,
    "Ġcreeping": 18696,
    "why": 2830,
    "gence": 876,
    "Ġobstin": 14966,
    "uvian": 12249,
    "Ġcollection": 8226,
    "Ġshortness": 23496,
    "Ġpul": 2042,
    "Ġstem": 15731,
    "Ġchimer": 24620,
    "Ġthis": 382,
    "Ġhier": 1892,
    "necessity": 13374,
    "Ġsuggest": 5418,
    "Ġdetailed": 12831,
    "Ġinteresting": 4328,
    "Ġminers": 22847,
    "Ġslay": 16320,
    "Ġinsc": 7586,
    "ii": 4015,
    "Ġranges": 2883,
    "Ġplane": 11828,
    "Ġstair": 8460,
    "immediately": 10055,
    "51": 12437,
    "matic": 4622,
    "Ġmercifully": 20193,
    "Ġplutarch": 22623,
    "akened": 7417,
    "Ġlistening": 6320,
    "coburg": 13604,
    "later": 20966,
    "Ġtypes": 8942,
    "hos": 15375,
    "inating": 9162,
    "Ġentrapped": 26273,
    "Ġhelter": 24040,
    "Ġsafely": 9031,
    "Ġgritted": 22821,
    "Ġquicker": 16519,
    "precaution": 23836,
    "Ġdesire": 3717,
    "torm": 11536,
    "pits": 15422,
    "cr": 4013,
    "ationally": 15717,
    "manif": 14380,
    "Ġinserting": 19919,
    "Ġcister": 13888,
    "Ġdistributions": 1050,
    "ability": 717,
    "Ġstructural": 2799,
    "mission": 5973,
    "Ġgoring": 21617,
    "Ġwhatever": 3476,
    "barrel": 17067,
    "Ġreligions": 20122,
    "Ġdrag": 6187,
    "gard": 7342,
    "¾": 127,
    "wand": 10743,
    "Ġvanquished": 22891,
    "frau": 15101,
    "itt": 571,
    "Ġunderground": 18997,
    "Ġcommonest": 23105,
    "Ġcharles": 11962,
    "Ġtakings": 20586,
    "handedness": 24934,
    "fig": 8741,
    "boys": 13366,
    "Ġhid": 1316,
    "Ġenlivened": 26218,
    "Ġbenjam": 22908,
    "specul": 23957,
    "Ġnasty": 17453,
    "Ġbeef": 6833,
    "pertaining": 22191,
    "sunlight": 24865,
    "stood": 4114,
    "Ġreader": 11940,
    "Ġdante": 21451,
    "Ġimpressed": 8203,
    "Ġtom": 15644,
    "artificial": 1044,
    "Ġdone": 1816,
    "Ġbulb": 23868,
    "Ġprodu": 1204,
    "Ġrefusing": 11031,
    "ctors": 21603,
    "anybody": 12090,
    "inking": 6714,
    "Ġdesigned": 7743,
    "Ġpoles": 11007,
    "Ġawaken": 23602,
    "Ġintelligence": 567,
    "Ġfund": 2844,
    "Ġcomp": 723,
    "type": 16189,
    "Ġghostliness": 24666,
    "Ġloses": 15887,
    "Ġmoment": 991,
    "Ġwithdraw": 16972,
    "sentimental": 25690,
    "Ġitalian": 12416,
    "inger": 6816,
    "Ġbale": 7840,
    "Ġtruly": 4801,
    "Ġfolded": 7770,
    "Ġinspect": 5967,
    "transformers": 8721,
    "craft": 12253,
    "roy": 7856,
    "_.âĢĶ": 23487,
    "uctive": 17705,
    "Ġfishes": 11596,
    "mariners": 19564,
    "Ġcreator": 7256,
    "Ġspr": 4024,
    "ands": 21880,
    "Ġrekindled": 21690,
    "suited": 22657,
    "Ġunsupplied": 22056,
    "Ġstern": 4188,
    "prop": 1045,
    "arch": 1101,
    "english": 2776,
    "endering": 21297,
    "Ġenveloping": 19749,
    "Ġstrike": 4860,
    "he": 264,
    "ici": 8445,
    "tears": 11041,
    "urs": 6992,
    "Ġsending": 8782,
    "Ġretirement": 25389,
    "seals": 21831,
    "Ġshowers": 16616,
    "cific": 10091,
    "Ġfortitude": 9890,
    "king": 3062,
    "coast": 10457,
    "Ġhumming": 12993,
    "hers": 7637,
    "È": 137,
    "ething": 1597,
    "melted": 25218,
    "Ġmak": 10782,
    "Ġmississ": 18852,
    "Ġminut": 2205,
    "combination": 25496,
    "Ġsuccessful": 9927,
    "Ġencomp": 12970,
    "tackle": 17330,
    "arious": 10324,
    "ax": 694,
    "00": 1606,
    "Ġadvised": 16214,
    "Ġtrail": 16295,
    "Ġorphan": 12389,
    "Ġhonors": 23617,
    "luck": 5735,
    "Ġsine": 10767,
    "Ġtack": 5623,
    "Ġshud": 5464,
    "Ġinfall": 7963,
    "Â£": 4817,
    "Ġrept": 13989,
    "mistak": 16886,
    "Ġcaw": 13889,
    "Ġworrying": 22945,
    "Ġsolid": 6444,
    "X": 60,
    "Ġposter": 14282,
    "Ġpaced": 7584,
    "Ġbene": 2034,
    "ai": 2528,
    "Ġpatter": 829,
    "Ġanomalous": 25646,
    "Ġconnections": 970,
    "ount": 1116,
    "occupation": 15068,
    "Ġtarget": 2822,
    "considerable": 10556,
    "Ġexcellence": 11456,
    "dorff": 15249,
    "carefully": 13375,
    "bohem": 19014,
    "ountain": 2921,
    "roses": 17967,
    "Ġwholesome": 16019,
    "Ġsends": 14804,
    "ositories": 22278,
    "allied": 7411,
    "Ġwinds": 5748,
    "itely": 5368,
    "Ġtranqu": 4608,
    "resist": 8280,
    "Ġimprove": 1924,
    "Ġsple": 21228,
    "hatred": 24831,
    "osa": 22274,
    "Ġdanger": 3521,
    "Ġrudder": 25123,
    "ackled": 22439,
    "Ġinsulated": 23694,
    "Ġcheetah": 14510,
    "omas": 12684,
    "Ġdefilements": 26296,
    "Ġfierceness": 26274,
    "Ġherd": 7892,
    "Ġradiating": 24343,
    "Ġundaunted": 24131,
    "Ġbulldog": 23872,
    "introduced": 15136,
    "batt": 20791,
    "Ġfro": 3474,
    "Ġkeel": 6445,
    "Ġsenate": 25228,
    "Ġtribes": 20494,
    "Ġlavater": 20509,
    "Ġminister": 18766,
    "clusion": 16319,
    "Ġsow": 17759,
    "Ġentertained": 10004,
    "Ġseer": 21965,
    "Ġseparation": 11252,
    "Ġheroines": 19766,
    "Ġouthouse": 22329,
    "Ġwrig": 13076,
    "Ġduplicates": 17226,
    "Ġbond": 21396,
    "Ġfloundered": 18876,
    "Ġreckoning": 14992,
    "sin": 21061,
    "harpooneer": 8694,
    "Ġthistle": 21930,
    "Ġvineyards": 25122,
    "progress": 11993,
    "Ġsympathies": 14875,
    "hering": 12821,
    "achable": 14137,
    "Ġcounter": 6482,
    "Ġabomination": 22293,
    "sick": 13789,
    "seven": 8469,
    "Ġcomment": 9241,
    "reference": 13846,
    "gor": 546,
    "Ġscound": 12840,
    "pered": 4199,
    "Ġseventy": 7882,
    "Ġdispleasure": 16066,
    "as": 302,
    "their": 2542,
    "Ġcho": 4550,
    "impregn": 21727,
    "ir": 379,
    "Ġess": 5693,
    "Ġbreathes": 13253,
    "Ġaf": 785,
    "Ġagainst": 1698,
    "Ġgrate": 12971,
    "Ġclassifies": 11841,
    "courageous": 26137,
    "flight": 15364,
    "Ġalan": 10873,
    "Ġshoal": 12020,
    "izz": 7614,
    "returning": 12211,
    "Ġdishonoured": 20404,
    "nant": 17618,
    "Ġprob": 969,
    "meas": 7436,
    "swiftly": 20565,
    "Ġalternative": 20000,
    "neying": 22464,
    "Ġunite": 9263,
    "Ġarising": 10937,
    "Ġcontemporary": 16026,
    "paying": 25421,
    "Ġoverhead": 11778,
    "Ġhurry": 4916,
    "Ġvisible": 4782,
    "Ġpresentiment": 19001,
    "Ġhellish": 10558,
    "meaning": 2908,
    "Ġundivided": 24132,
    "Ġgambler": 26201,
    "occupations": 24982,
    "ladies": 9538,
    "fireside": 24707,
    "Ġreassure": 21685,
    "Ġsteep": 2889,
    "Ġernest": 8723,
    "Ġsupports": 3053,
    "Ġinexpress": 12642,
    "sprang": 20003,
    "Ġslim": 18951,
    "odiac": 14038,
    "pump": 21029,
    "Ġfamiliarly": 11308,
    "erde": 21281,
    "Ġimmensity": 25340,
    "Ġsensibility": 14518,
    "Ġunra": 18246,
    "until": 6601,
    "Ġguided": 10469,
    "Ġ13": 6723,
    "pression": 10414,
    "Ġthro": 5820,
    "l": 80,
    "Ġdesigns": 13024,
    "Ġwrinkled": 7267,
    "Ġvilest": 20115,
    "meeting": 11023,
    "supplementary": 20563,
    "Ġpinioned": 21496,
    "Ġtwisted": 7230,
    "Ġphysiology": 25343,
    "Ġchain": 1843,
    "upp": 10136,
    "skull": 24471,
    "Ġinsatiable": 19286,
    "collins": 6919,
    "Ġgladness": 16602,
    "chamber": 13630,
    "Ġfling": 9669,
    "Ġplaster": 16098,
    "Ġweeks": 4568,
    "Ġverse": 16613,
    "Ġattending": 3283,
    "sleepers": 24743,
    "Ġfavourite": 5274,
    "Ġpea": 14324,
    "wherefore": 19123,
    "coo": 11175,
    "Ġlewis": 15737,
    "Ġresurrection": 12901,
    "Ġessence": 13412,
    "Ġconfederate": 17362,
    "liked": 10514,
    "Ġchurch": 4717,
    "Ġsacrific": 15030,
    "Ġprehens": 22245,
    "Ġwhom": 1830,
    "Ġangel": 4857,
    "rant": 11522,
    "Ġcoincidence": 25493,
    "iners": 4939,
    "Ġcomputations": 16018,
    "Ġfring": 11131,
    "Ġsatire": 22916,
    "ieved": 3231,
    "Ġimpunity": 14226,
    "oubted": 5864,
    "âĢĿ]": 21829,
    "Ġ19": 6724,
    "Ġplaning": 22621,
    "Ġapologized": 25210,
    "caut": 20825,
    "heeded": 13840,
    "iac": 6229,
    "Ġexasper": 8472,
    "Ġmouldy": 14987,
    "Ġfountain": 7367,
    "Ġplied": 22617,
    "ipotent": 10965,
    "Ġcities": 17837,
    "Ġtelescope": 17357,
    "un": 373,
    "Ġeffectual": 18743,
    "Ġstubb": 1786,
    "Ġidiotic": 25597,
    "Ġfisher": 3224,
    "Ġconsequences": 11340,
    "heavens": 19760,
    "Ġprincipally": 11314,
    "Ġliterally": 15128,
    "Ġchosen": 7203,
    "scream": 11081,
    "omed": 13985,
    "Ġxxxi": 24984,
    "Ġaut": 1801,
    "Ġaspire": 21914,
    "Ġdismay": 11814,
    "Ġtens": 17733,
    "waving": 21145,
    "equal": 15006,
    "ercial": 21287,
    "enstein": 5802,
    "Ġfortunes": 12186,
    "increase": 20282,
    "Ġuninjured": 22068,
    "Ġimproper": 22779,
    "Ġgovernor": 16503,
    "Ġindebted": 8713,
    "Ġhoky": 17937,
    "kitty": 10111,
    "Ġeddying": 17126,
    "ensity": 11818,
    "Ġexpectation": 6908,
    "dred": 2529,
    "Ġfeasts": 25380,
    "appointment": 24074,
    "Ġbelly": 10377,
    "respectively": 24713,
    "Ġimprecate": 20531,
    "Ġnervous": 2406,
    "Ġphenomena": 21497,
    "Ġassistant": 7301,
    "spell": 22745,
    "Ġcarried": 3694,
    "Ġfurrow": 22831,
    "Ġprogrammed": 11062,
    "Ġfisheries": 17448,
    "Ġcarving": 14451,
    "Ġflash": 8234,
    "Ġexpect": 2304,
    "Ġplayfulness": 23655,
    "Ġrug": 16171,
    "Ġabsorb": 25128,
    "Ġperennial": 22711,
    "Ġchilian": 25572,
    "Ġstrings": 11834,
    "Ġintroduction": 8976,
    "ogn": 2496,
    "Ġtexel": 25933,
    "abular": 4767,
    "Ġmarking": 16480,
    "Ġwithin": 2162,
    "Ġhadn": 9727,
    "Ġgenial": 12201,
    "/`)": 13665,
    "Ġsincerity": 13683,
    "Ġmayhew": 12957,
    "Ġcarelessly": 11123,
    "claim": 9841,
    "Ġafresh": 18643,
    "gloves": 25158,
    "besides": 8701,
    "Ġrepublican": 17423,
    "Ġbarbs": 10539,
    "Ġmissionary": 25705,
    "kept": 11722,
    "inted": 2650,
    "Ġrequires": 967,
    "Ġugliness": 20440,
    "fleece": 19961,
    "Ġsilently": 6899,
    "Ġstriving": 9002,
    "avating": 18620,
    "Ġseries": 7073,
    "Ġinducement": 16853,
    "rade": 9688,
    "ryder": 18661,
    "pondicherry": 26410,
    "joke": 20943,
    "impul": 16568,
    "Ġnimble": 21541,
    "Ġshudder": 9056,
    "Ġlegit": 16484,
    "Ġbundles": 26185,
    "Ġimpose": 22406,
    "Ġendeav": 2955,
    "Ġind": 1220,
    "Ġgrey": 4516,
    "Ġgrow": 2861,
    "ruff": 15915,
    "Ġherbage": 26006,
    "Ġpains": 5968,
    "treated": 21107,
    "Ġmou": 13861,
    "Ġungenerous": 18276,
    "walking": 9988,
    "Ġvenom": 24253,
    "iced": 3899,
    "¦": 104,
    "Ġfleet": 9442,
    "Ġjesty": 18417,
    "mannered": 22867,
    "ccas": 15904,
    "Ġunfathomably": 25883,
    "Ġincarnate": 20388,
    "comparison": 25851,
    "Ġhedge": 8368,
    "Ġcouple": 5425,
    "iop": 20932,
    "Ġstrategy": 2398,
    "Ġimpl": 7197,
    "shire": 3024,
    "Ġvigilance": 12377,
    "romeda": 17271,
    "'(": 2979,
    "Ġspars": 3813,
    "ressed": 3025,
    "ics": 3256,
    "Ġtick": 8112,
    "Ġanxious": 4521,
    "officer": 17061,
    "Ġoffspring": 16160,
    "Ġleaky": 2344,
    "verse": 9697,
    "marked": 9054,
    "sentiment": 12921,
    "Ġmurdering": 14825,
    "additional": 20477,
    "Ġabraham": 18407,
    "Ġbased": 3339,
    "Ġevent": 2951,
    "Ġtrifled": 24689,
    "Ġsickness": 10546,
    "Ġsalutation": 12403,
    "\\": 64,
    "Ġmissed": 8563,
    "cannot": 5747,
    "Ġa": 263,
    "char": 3505,
    "Ġreliably": 22894,
    "ront": 15428,
    "Ġbought": 8421,
    "Ġmurmured": 7481,
    "Ġlurch": 21568,
    "Ġgifts": 21625,
    "Ġimp": 587,
    "Ġcoasts": 12171,
    "latitudes": 17206,
    "fatigue": 20670,
    "direction": 17533,
    "Ġdeliber": 7271,
    "Ġassuring": 13058,
    "Ġconvulsive": 19319,
    "going": 6315,
    "Ġapothecary": 13664,
    "Ġscandal": 9087,
    "Ġheal": 21694,
    "tot": 10733,
    "Ġ*": 1273,
    "Ġgradual": 20615,
    "chan": 1146,
    "Ġsteadfastly": 10657,
    "Ġgaieties": 24209,
    "satisfactory": 16901,
    "tasted": 17696,
    "Ġtech": 1675,
    "forbearance": 22817,
    "Ġwarrant": 17804,
    "Ġjumping": 13348,
    "Ġtiara": 26425,
    "change": 6393,
    "Ġstoutest": 24646,
    "Ġinde": 7373,
    "mole": 22718,
    "isation": 13899,
    "Ġyelled": 9703,
    "Ġoffensive": 18704,
    "rodu": 1817,
    "Ġgrooves": 16753,
    "Ġcruelty": 9975,
    "Ġrejoiced": 8689,
    "Ġapple": 14172,
    "Ġchaos": 17017,
    "Ġrepelled": 19098,
    "inting": 9819,
    "Ġdilated": 24717,
    "breeding": 16686,
    "Ġboister": 12926,
    "Ġlaboratory": 13618,
    "iring": 1706,
    "Ġproudly": 19757,
    "Ġgardens": 16462,
    "amet": 591,
    "Ġexamine": 7737,
    "Ġstra": 2991,
    "Ġware": 12561,
    "Ġheightens": 24167,
    "Ġintellect": 8174,
    "Ġordinarily": 20662,
    "Ġscope": 15958,
    "Ġterm": 2265,
    "Ġcronies": 23455,
    "Ġhistor": 3390,
    "road": 6682,
    "Ġsmelt": 16079,
    "Ġboth": 1656,
    "inition": 11561,
    "performances": 26016,
    "Ġponies": 21489,
    "Ġreigned": 13993,
    "fairly": 17229,
    "Ė": 215,
    "Ġsyrian": 18364,
    "Ġpitiable": 9919,
    "Ġlegisl": 23550,
    "ı": 242,
    "Ġconcert": 11973,
    "je": 11501,
    "races": 21643,
    "relieved": 13284,
    "Ġbeckoned": 25803,
    "Ġinflu": 4912,
    "the": 334,
    "Ġcloudy": 19492,
    "Ġrecesses": 17269,
    "short": 6571,
    "rusion": 11328,
    "iest": 4036,
    "az": 2181,
    "istered": 14150,
    "Ġmaz": 15553,
    "Ġinherited": 25364,
    "Ġinarticulate": 21513,
    "Ġbalmoral": 16221,
    "Ġenchant": 7187,
    "Ġfatality": 12103,
    "wond": 8775,
    "emorial": 10249,
    "Ġpeev": 22710,
    "effort": 19230,
    "ª": 108,
    "idea": 9310,
    ")(": 2981,
    "influences": 25264,
    "Ġcared": 8789,
    "Ġstud": 1510,
    "Ġchrist": 4072,
    "Ġcheerfulness": 10524,
    "Ġexistence": 4711,
    "clearer": 24084,
    "bulkington": 19938,
    "Ġvindictive": 20483,
    "Ġabilities": 8873,
    "Ġdebated": 9046,
    "imitably": 21724,
    "compassion": 12374,
    "izabeth": 910,
    "Ġrich": 2993,
    "Ġbred": 9179,
    "tempered": 13452,
    "Ġluck": 4884,
    "crated": 16694,
    "Ġabhorrence": 9058,
    "Ġmacro": 25949,
    "chose": 18050,
    "Ġremarkable": 4918,
    "Ġpierced": 12288,
    "Ġdream": 3539,
    "reader": 23860,
    "animal": 16986,
    "enary": 12558,
    "agreeable": 5832,
    "Ġperformed": 8552,
    "Ġwreath": 25946,
    "Ġmansfield": 25948,
    "braces": 24673,
    "comfortably": 16883,
    "choose": 23687,
    "ward": 706,
    "Ġglimmer": 15153,
    "Ġdeposed": 16094,
    "Ġspinal": 12308,
    "abode": 21805,
    "metals": 24779,
    "Ġdeposit": 17277,
    "housekeeper": 24113,
    "Ġjinglers": 26028,
    "Ġconsented": 11300,
    "Ġev": 4833,
    "rep": 5528,
    "Ġallows": 3234,
    "04": 10685,
    "Ġadvertisement": 6944,
    "ker": 5794,
    "Ġfearfulness": 23526,
    "Ġblasts": 20008,
    "Ġostr": 21337,
    "Ġresented": 22561,
    "colnett": 19343,
    "wandering": 20297,
    "Ġslammed": 20462,
    "Ġstrove": 9963,
    "Ġphrenolog": 12340,
    "Ġgravely": 7887,
    "clu": 20812,
    "Ġ179": 19769,
    "itated": 4445,
    "Ġprovidence": 18760,
    "Ġadvantageously": 19561,
    "Ġsolomon": 11056,
    "Ġjupiter": 17466,
    "maltese": 24807,
    "Ġtossed": 5818,
    "cell": 10692,
    "Ġtorrents": 20070,
    "Ġutensils": 23530,
    "Ġmaw": 15551,
    "Ġspringing": 10526,
    "Ġshunned": 17301,
    "Ġintervening": 17276,
    "activation": 3232,
    "Ġamounts": 6709,
    "testing": 12523,
    "Ġimparts": 18464,
    "Ġbefallen": 12349,
    "Ġglances": 10380,
    "Ġbeliever": 25859,
    "Ġsuffer": 4728,
    "dem": 10698,
    "Ġsquires": 16194,
    "Ġrowing": 10308,
    "Ġlurks": 11295,
    "garious": 17567,
    "Ġwrap": 24609,
    "fic": 20865,
    "Ġvinegar": 20114,
    "Ġreliance": 14392,
    "Ġhowling": 8515,
    "establishment": 26123,
    "Ġloathing": 15080,
    "ough": 470,
    "Ġdeformed": 14055,
    "Ġregularly": 7659,
    "Ġhorizon": 6637,
    "beheld": 11806,
    "ille": 8831,
    "Ġentangled": 10350,
    "Ġwardrobe": 17235,
    "Ġlabyrin": 13111,
    "Ġheedful": 19755,
    "Ġfeed": 2127,
    "ercely": 12557,
    "Ġacknowledge": 13409,
    "Ġgems": 9218,
    "Ġimpenit": 22412,
    "reve": 12547,
    "ories": 4758,
    "Ġvari": 832,
    "ucy": 15454,
    "Ġepidemic": 20709,
    "Ġfil": 3475,
    "Ġrobust": 1358,
    "Ġincredulity": 11316,
    "sor": 7355,
    "thesize": 24920,
    "Ġcoverage": 4289,
    "Ġeach": 892,
    "ĠĠĠĠĠĠĠĠĠĠĠĠĠĠĠĠĠĠĠĠĠĠĠĠĠĠĠĠĠĠĠĠĠĠĠĠĠĠĠ": 19273,
    "Ġdefined": 11905,
    "Ġministers": 22848,
    "arp": 2029,
    "Ġ46": 19506,
    "diff": 9119,
    "Ġinns": 17940,
    "Ġretreat": 6073,
    "Ġwrapping": 19789,
    "were": 2558,
    "Ġpolluted": 25602,
    "persecutor": 26538,
    "destroyed": 15272,
    "bering": 18706,
    "icuous": 10839,
    "Ġstars": 6152,
    "unks": 15787,
    "Ġformerly": 7494,
    "Ġbatch": 889,
    "Ġmad": 2428,
    "Ġdiscrimination": 23621,
    "Ġresources": 2938,
    "Ġluggage": 25967,
    "Ġjabez": 11771,
    "Ġlearnable": 3995,
    "Ġsof": 18292,
    "Ġattempts": 10498,
    "initions": 21200,
    "mill": 13758,
    "Ġ90": 24603,
    "Ġleak": 2159,
    "Ġsinners": 18964,
    "Ġheated": 21695,
    "Ġamusing": 11805,
    "Ġmax": 2009,
    "foot": 9052,
    "har": 20903,
    "queens": 22922,
    "Ġharpooneer": 3773,
    "Ġsatisfaction": 5669,
    "recl": 15519,
    "Ġ125": 24488,
    "protection": 19933,
    "tr": 3580,
    "Ġmaximizing": 3170,
    "Ġardour": 8045,
    "Ġresides": 22558,
    "Ġsort": 1506,
    "Ġcomfortless": 23918,
    "Ġendeavors": 16558,
    "Ġproble": 1112,
    "Ġthoughtless": 16206,
    "Ġintegrated": 13535,
    "Ġblanket": 8347,
    "Ġstorms": 11267,
    "Ġextort": 22764,
    "Ġdifference": 1490,
    "urbed": 15721,
    "Ġineffable": 17341,
    "Ġvalue": 2082,
    "Ġahead": 6667,
    "Ġwives": 12562,
    "ump": 2282,
    "ective": 18184,
    "Ġrocks": 6867,
    "Ġvowed": 14090,
    "Ġretrie": 10390,
    "endeav": 7153,
    "Ġcoronet": 6346,
    "hours": 9130,
    "akeman": 6269,
    "hand": 2759,
    "Ġfan": 2037,
    "Ġdeemed": 7615,
    "ampl": 21869,
    "Ġsighing": 18687,
    "Ġaccumul": 1412,
    "Ġlimits": 3452,
    "Ġirreducible": 5523,
    "indispensable": 14215,
    "este": 15935,
    "gu": 3935,
    "Ġjavelins": 26115,
    "handled": 19275,
    "commer": 22827,
    "ifference": 5634,
    "Ġdaresay": 14712,
    "Ġfor": 340,
    "Ġmethods": 3161,
    "frost": 15118,
    "ocratic": 17254,
    "Ġarticulated": 24447,
    "divers": 15354,
    "hurt": 19891,
    "Ġprudent": 9195,
    "Ġdissatisfied": 14262,
    "Ġwatching": 4859,
    "fedallah": 25531,
    "ichever": 13963,
    "twain": 23710,
    "Ġprehensile": 26544,
    "huzza": 20926,
    "verbally": 25371,
    "pipe": 8702,
    "such": 3085,
    "Ġlottery": 19901,
    "Ġspont": 22139,
    "Ġoccupied": 5276,
    "ization": 482,
    "comfort": 5649,
    "pillar": 5621,
    "itious": 8786,
    "Ġcheck": 7274,
    "quadrille": 20609,
    "Ġfavours": 23298,
    "Ġrested": 9387,
    "Ġretain": 7866,
    "exception": 9981,
    "Ġpawnbroker": 13663,
    "Ġbarrels": 9445,
    "Ġflock": 21424,
    "Ġhighland": 18725,
    "Ġhalts": 3159,
    "accusations": 23615,
    "gaffman": 26400,
    "patter": 4251,
    "usable": 22294,
    "Ġoft": 9204,
    "Ġclassification": 1109,
    "Ġpanthe": 19671,
    "capital": 15100,
    "Ġprophetic": 20033,
    "ilet": 12836,
    "tempest": 16967,
    "Ġoverpowering": 15261,
    "unch": 14064,
    "letters": 13181,
    "Ġbidden": 24661,
    "fif": 9122,
    "urches": 12693,
    "displeasure": 23510,
    "Ġunimpeachable": 26531,
    "Ġsquaring": 22855,
    "Ġcalves": 13043,
    "Ġ235": 25720,
    "ibank": 6884,
    "Ġis": 347,
    "rippa": 11346,
    "Ġfamilies": 8030,
    "jected": 22729,
    "Ġsprinkled": 19512,
    "Ġenrolled": 21950,
    "Ġhun": 1496,
    "Ġunimaginable": 15258,
    "Ġwooded": 23535,
    "prospect": 23412,
    "Ġdais": 24385,
    "ached": 2320,
    "Ġhover": 15631,
    "Ġimputable": 22185,
    "Ġwaif": 9383,
    "Ġ54": 24330,
    "flow": 2208,
    "Ġcum": 21354,
    "Ġing": 5287,
    "hearty": 14848,
    "Ġhailing": 11698,
    "Ġhungry": 10540,
    "Ġtraining": 529,
    "ado": 11662,
    "extensive": 18724,
    "Ġhearses": 20074,
    "Ġunf": 4088,
    "ĠĠĠĠĠĠĠĠĠĠĠĠĠĠĠĠĠĠĠĠĠĠĠĠĠĠĠĠĠĠĠĠĠĠĠĠĠ": 14622,
    "Ġphrenologically": 20407,
    "doubted": 17535,
    "Ġsplend": 9903,
    "Ġlees": 18085,
    "Ġhartshorn": 26191,
    "Ġmended": 21325,
    "Ġblurred": 22949,
    "uses": 11765,
    "Ġmercy": 9004,
    "Ġravine": 18658,
    "ool": 17627,
    "Ġvote": 21960,
    "end": 499,
    "Ġseizing": 7881,
    "harmony": 25759,
    "mistress": 14917,
    "called": 6294,
    "surd": 6937,
    "blow": 9110,
    "vit": 13807,
    "atics": 15532,
    "total": 17259,
    "Ġrevolut": 3257,
    "Ġmumbled": 17817,
    "gether": 1591,
    "Ġconceive": 8466,
    "Ġlying": 4831,
    "Ġamelia": 26262,
    "ref": 6518,
    "ferences": 10334,
    "mews": 22733,
    "wall": 10143,
    "Ġchief": 3381,
    "Ġwinc": 9651,
    "male": 15400,
    "cham": 10857,
    "Ġattained": 14084,
    "Ġtechnique": 2399,
    "discoloured": 23513,
    "oses": 3949,
    "Ġsubmitted": 11876,
    "ĠĠĠĠĠĠĠĠĠĠĠĠĠĠĠĠĠĠĠĠĠĠĠĠĠĠĠ": 14900,
    "Ġrachel": 11850,
    "Ġspout": 3281,
    "Ġraising": 8916,
    "Ġsworn": 14444,
    "Ġrelinquish": 17356,
    "Ġsensationalism": 26076,
    "Ġhydraul": 9523,
    "Ġsufferable": 16270,
    "Ġperformance": 1305,
    "Ġperfidious": 25675,
    "Ġhose": 12634,
    "Ġmodified": 14174,
    "Ġtallow": 14793,
    "uned": 21885,
    "Ġapology": 8332,
    "Ġparties": 7042,
    "Ġgun": 4706,
    "Ġimmensities": 25341,
    "Ġstrands": 25583,
    "Ġadroop": 26011,
    "Ġcler": 11775,
    "Ġbesee": 19257,
    "Ġweapon": 7778,
    "Ġhost": 7071,
    "Ġvolat": 24157,
    "Ġfort": 2581,
    "Ġafore": 10762,
    "Ġerection": 24015,
    "Ġmonotonous": 13270,
    "Ġap": 5010,
    "Ġmishap": 20590,
    "Ġbaltic": 18808,
    "iousness": 4902,
    "Ġteaches": 18820,
    "assertion": 22323,
    "Ġsperm": 1842,
    "uous": 4142,
    "Ġrecommence": 16823,
    "Ġsap": 18332,
    "onet": 12553,
    "cri": 17515,
    "Ġeyeing": 6461,
    "Ġalike": 8150,
    "walls": 25356,
    "Ġsuperseded": 26234,
    "enes": 5221,
    "athed": 7830,
    "Ġharem": 9717,
    "Ġabsurdities": 24892,
    "Ġdesmarest": 22999,
    "Ġbathed": 17875,
    "ials": 11711,
    "Ġro": 598,
    "engagement": 14466,
    "Ġdashed": 6014,
    "omn": 15702,
    "Ġscandalous": 24893,
    "sis": 1905,
    "Ġsharply": 9413,
    "ļ": 253,
    "Ġdecomp": 3814,
    "roylott": 20040,
    "Ġopinion": 3143,
    "Ġdams": 16466,
    "Ġskipper": 22815,
    "Ġantip": 24191,
    "outre": 18331,
    "Ġsupreme": 13613,
    "ens": 701,
    "ibles": 18800,
    "Ġchestnut": 19689,
    "bly": 6113,
    "ceed": 1077,
    "Ġdeduction": 14913,
    "Ġele": 1958,
    "falling": 24374,
    "Ġenchanting": 17046,
    "Ġeavesdroppers": 25973,
    "Ġentrances": 25845,
    "Ġvac": 5029,
    "Ġdiligently": 11410,
    "vice": 15459,
    "akers": 9748,
    "Ġhours": 2820,
    "Ġline": 1848,
    "Ð": 145,
    ",âĢĶâĢĺ": 23815,
    "acknowled": 10979,
    "Ġparamount": 15896,
    "tone": 8768,
    "Ġstiffness": 24841,
    "Ġshamefully": 24729,
    "Ġteach": 8559,
    "Ġtuples": 13484,
    "Ġdreading": 23811,
    "Ġpickle": 16733,
    "Ġclum": 8879,
    "neglected": 25678,
    "clock": 3933,
    "Ġoutrid": 22330,
    "Ġenjoys": 19465,
    "goes": 10433,
    "Ġventil": 8021,
    "Ġhorrors": 10488,
    "Ġshoving": 23504,
    "jolly": 20944,
    "Ġsister": 1474,
    "Ġovers": 14211,
    "Ġbutter": 6845,
    "Ġunwe": 15852,
    "poor": 6064,
    "olerably": 11677,
    "Ġsulky": 13519,
    "Ġincul": 22567,
    "piling": 15425,
    "comprehensive": 20641,
    "comp": 3819,
    "iber": 6508,
    "¼": 125,
    "Ġsince": 1795,
    "Ġable": 3083,
    "ork": 418,
    "Ģ": 227,
    "imprisonment": 23775,
    "Ġelement": 6902,
    "Ġannoy": 17208,
    "heat": 15506,
    "Ġtwice": 4666,
    "investments": 25541,
    "Ġshipw": 12985,
    "Ġcub": 8420,
    "ĠĠĠĠĠĠĠĠĠĠĠĠĠĠĠĠĠĠĠĠĠĠĠĠĠĠĠĠĠĠĠĠĠĠĠ": 19272,
    "morland": 24166,
    "Ġcoffins": 13259,
    "Ġhedges": 19998,
    "Ġspoil": 17015,
    "arranging": 19331,
    "brilliancy": 26087,
    "Ġspent": 3965,
    "heaven": 8055,
    "Ġdummy": 25459,
    "Ġsorting": 3235,
    "advantage": 8665,
    "Ġunfolding": 17093,
    "inea": 7624,
    "Ġgir": 2255,
    "bastian": 10679,
    "Ġporch": 19697,
    "Ġrobbed": 23035,
    "Ġsignification": 19198,
    "Ġat": 395,
    "icable": 6389,
    "sixteen": 24867,
    "rigged": 17069,
    "jacket": 12298,
    "frantic": 24297,
    "Ġbroad": 3640,
    "vi": 2371,
    "Ġcomforts": 14700,
    "Ġmarbles": 18886,
    "twelvemonth": 25872,
    "Ġdel": 1610,
    "atherine": 2598,
    "Ġperplexity": 2756,
    "v": 90,
    "Ġimposing": 11788,
    "Ġverdure": 10619,
    "Ġobedience": 11418,
    "Ġpick": 4257,
    "Ġprobed": 18747,
    "following": 10580,
    "Ġalterations": 19884,
    "elze": 21586,
    "Ġgenius": 8048,
    "Ġinstances": 5570,
    "Ġchallenges": 13635,
    "Ġimaginary": 11190,
    "Ġcontributed": 16024,
    "Ġconsult": 6060,
    "Ġfurnaces": 24019,
    "Ġdiscoursing": 26277,
    "Ġbriefly": 11373,
    "ibule": 13014,
    "prise": 7729,
    "expressing": 16812,
    "Ġtoss": 10191,
    "Ġnaturally": 2469,
    "fr": 4809,
    "Ġrun": 2352,
    "broad": 8648,
    "Ġpeg": 22706,
    "jaws": 20945,
    "Ġhourly": 23318,
    "uring": 820,
    "Ġthenceforth": 25194,
    "form": 497,
    "Ġallured": 14119,
    "ifts": 12743,
    "Ġafforded": 8032,
    "Ġtread": 9419,
    "tumultuous": 20412,
    "Ġmodesty": 12826,
    "mere": 11860,
    "Ġlovel": 10279,
    "Ġgrows": 4987,
    "Ġhertfordshire": 5378,
    "Ġconvenience": 11336,
    "blocks": 25526,
    "Ġtroop": 24911,
    "Ġarrangement": 2657,
    "Ġhistories": 14695,
    "Ġtransported": 11284,
    "Ġriddle": 14837,
    "canallers": 22982,
    "Ġsincer": 13074,
    "phr": 18730,
    "Ġalluding": 18245,
    "Ġperfume": 25674,
    "Ĉ": 201,
    "Ġexploit": 19177,
    "cruising": 12286,
    "Ġ76": 24277,
    "Ġconstrain": 2630,
    "70": 17485,
    "Ġloud": 4705,
    "irra": 15798,
    "rifled": 21060,
    "perplex": 18348,
    "Ġdishonor": 25611,
    "Ġvalleys": 14930,
    "Ġprender": 22250,
    "Ġdisinclined": 22547,
    "ized": 1529,
    "Ġwhaling": 2784,
    "speed": 19425,
    "Ġstructures": 2721,
    "Ġsummits": 14691,
    "fact": 6360,
    "Ġcovered": 5173,
    "ony": 3031,
    "Ġagitation": 6869,
    "clings": 23167,
    "explanations": 25248,
    "Ġinformation": 1046,
    "murder": 10572,
    "Ġincreasing": 8251,
    "Ġpraise": 6487,
    "ined": 1258,
    "ocation": 14633,
    "Ġsubstantiated": 25885,
    "Ġcompl": 3759,
    "pha": 22796,
    "Ġsubmerged": 11877,
    "Ġmason": 10164,
    "Ġfurnished": 6476,
    "Ġremarks": 7474,
    "Ġcringed": 25952,
    "limping": 26403,
    "Ġsenseless": 12086,
    "Ġgum": 21608,
    "Ġgoodge": 22839,
    "Ġdisturb": 7112,
    "Ġcrow": 3808,
    "isome": 17858,
    "spending": 18701,
    "Ġbuy": 8304,
    "hammad": 23279,
    "iom": 20928,
    "holland": 24056,
    "Ġassociation": 24724,
    "Ġwidower": 24250,
    "Ġimpediments": 26251,
    "perpendicular": 14165,
    "Ġbo": 798,
    "accompan": 11457,
    "abil": 2010,
    "Ġunreasoning": 15859,
    "Ġprotect": 6339,
    "Ġnext": 2137,
    "quick": 6401,
    "Ġutil": 4676,
    "Ġsettlement": 19849,
    "Ġvisage": 18787,
    "Ġriding": 14101,
    "Ġindu": 5298,
    "clair": 18947,
    "striving": 24684,
    "Ġcapital": 7983,
    "ead": 2602,
    "awake": 14460,
    "riend": 1187,
    "uine": 13805,
    "cooee": 12424,
    "Ġren": 3848,
    "tent": 21077,
    "Ġbuying": 24010,
    "Ġcop": 7580,
    "Ġpassers": 18771,
    "Ġconting": 18485,
    "will": 1969,
    "Ġfocuses": 8656,
    "Ġchapel": 9532,
    "swear": 16927,
    "Ġcup": 5699,
    "Ġcet": 6675,
    "Ġchill": 11757,
    "Ġsoftened": 11108,
    "jerked": 25628,
    "ubb": 1649,
    "derness": 11742,
    "Ġbehalf": 14515,
    "Ġwilled": 21304,
    "Ġdrank": 16547,
    "shown": 22469,
    "Ġfalsehood": 10531,
    "ments": 1402,
    "Ġmaintained": 12941,
    "Ġinterrupt": 4365,
    "bed": 3492,
    "bat": 8073,
    "ually": 2772,
    "Ġreserv": 14264,
    "Ġbroom": 18919,
    "derstand": 633,
    "Ġsprang": 5067,
    "Ġrespond": 11181,
    "gd": 3126,
    "Ġare": 526,
    "umbers": 10922,
    "paddington": 20491,
    "splinter": 25224,
    "Ġsnar": 13206,
    "Ġcorpusants": 13682,
    "Ġfreshets": 25713,
    "Ġdefine": 9820,
    "Ġconcrete": 20651,
    "Ġpagan": 7122,
    "Ġcorpulence": 24521,
    "Ġuser": 15929,
    "Ġcork": 12576,
    "Ġfict": 21417,
    "safe": 10060,
    "Ġbewildered": 15225,
    "opol": 12879,
    "Ġinvesting": 19658,
    "ċ": 204,
    "Ġcommunications": 16368,
    "Ġruminated": 24617,
    "â": 163,
    "Ġprofuse": 23581,
    "Ġxxv": 19733,
    "Ġhuggins": 24839,
    "Ġaccidentally": 9514,
    "Ġenvelopes": 24522,
    "supp": 4160,
    "Ġbacks": 8534,
    "Ġasia": 11687,
    "illing": 8179,
    "evid": 11490,
    "Ġsecrecy": 7319,
    "¶": 119,
    "rages": 15693,
    "Ġ[_": 15471,
    "eastern": 17542,
    "Ġcin": 13881,
    "Ġsealed": 15828,
    "Ġforeshad": 23466,
    "Ġsometimes": 2166,
    "pate": 21022,
    "Ġsanction": 20039,
    "\"]": 17480,
    "riminately": 16496,
    "ckery": 22102,
    "Ġproposed": 7461,
    "Ġmahogany": 20592,
    "gone": 6506,
    "Ġevermore": 18825,
    "Ġspear": 9323,
    "igin": 3656,
    "Ġty": 6662,
    "Ġdiscount": 22799,
    "unct": 18164,
    "lleg": 20964,
    "Ġenormousness": 24527,
    "Ġslashing": 23185,
    "Ġcomfits": 21868,
    "Ġtacit": 21187,
    "pall": 17637,
    "Ġsuggested": 8325,
    "possibly": 10551,
    "Ġtawn": 13829,
    "Ġpersistence": 3011,
    "Ġcr": 2149,
    "Ġsubstances": 24178,
    "Ġcru": 2825,
    "Ġmassachusetts": 24037,
    "Ġvanishing": 1346,
    "Ġbam": 15577,
    "Ġval": 1724,
    "thought": 3851,
    "Ġsuccessive": 10508,
    "Ġcrocod": 19645,
    "Ġfountains": 13507,
    "Ġweakened": 16834,
    "Ġconsequence": 5544,
    "affairs": 14664,
    "Ġtormenting": 15116,
    "tackles": 25633,
    "fishery": 10038,
    "Ġfailure": 13321,
    "adding": 21775,
    "Ġunceasing": 20371,
    "Ġgestures": 13540,
    "drawn": 9918,
    "thank": 4952,
    "numer": 15409,
    "Ġwiser": 14741,
    "Ġnug": 21538,
    "Ġwhosoever": 21732,
    "Ġoverflowing": 17247,
    "Ġporthole": 24413,
    "Ġdisobey": 18572,
    "sus": 6232,
    "Ġgroans": 14841,
    "Ġutility": 23529,
    "removing": 17775,
    "wel": 6120,
    "Ġpirates": 9079,
    "Ġapolog": 9049,
    "Ġcanoe": 9731,
    "Ġstaring": 8832,
    "aying": 15762,
    "out": 468,
    "Ġslate": 11944,
    "Ġide": 2122,
    "few": 8207,
    "Ġcomplying": 18598,
    "Ġcheever": 23301,
    "Ġgrievous": 14717,
    "Ġperiods": 13310,
    "Ġenh": 3294,
    "Ġweave": 21935,
    "xim": 1092,
    "Ġcham": 4895,
    "conveyed": 20534,
    "Ġsquall": 7047,
    "rob": 5536,
    "patient": 25353,
    "Ġglist": 9354,
    "Ġroot": 2651,
    "Ġalleys": 25988,
    "Ġharris": 13933,
    "irting": 11690,
    "Ġoverwhel": 8201,
    "Ġregions": 10331,
    "fits": 13722,
    "._]]": 5338,
    "Ġtowing": 9203,
    "Ġobservable": 24391,
    "Ġtragic": 15267,
    "woes": 21147,
    "Ġapproximate": 2340,
    "Ġreven": 18039,
    "Ġpom": 21465,
    "Ġfunere": 22279,
    "Ġfully": 6344,
    "Ġrides": 21987,
    "pshaw": 21040,
    "ipagos": 22381,
    "Ġcurbstone": 26053,
    "Ġvirtuous": 14765,
    "Ġcoiling": 12912,
    "iful": 2882,
    "Ġlumps": 21569,
    "Ġenjoy": 3760,
    "Ġmess": 7833,
    "Ġuncomfortable": 8491,
    "Ġproviding": 1365,
    "Ġimpropri": 14225,
    "Ĝ": 221,
    "Ġdraught": 9850,
    "Ġindiscriminately": 20642,
    "Ġbrink": 18784,
    "Ġmakes": 3652,
    "Ġcapabilities": 4383,
    "Ġreveal": 11203,
    "unting": 21888,
    "Ġgills": 18003,
    "cause": 7798,
    "wed": 5798,
    "pest": 6968,
    "Ġseconds": 16407,
    "Ġveget": 11891,
    "Ñ": 146,
    "Ġli": 601,
    "points": 14400,
    "Ġpercept": 14222,
    "rons": 21052,
    "rugged": 6853,
    "syntax": 5872,
    "resentment": 15197,
    "Ġcopestone": 24952,
    "bers": 2572,
    "pleasanter": 24062,
    "Ġcircum": 8261,
    "Ġmaketh": 15199,
    "Ġserves": 4674,
    "eer": 15359,
    "Ġdiscipline": 26571,
    "eel": 11489,
    "oblivious": 26592,
    "Ġinit": 819,
    "orses": 6055,
    "Ġbash": 12593,
    "Ġarm": 2493,
    "Ġbubb": 12591,
    "skeleton": 17386,
    "ariously": 18537,
    "anch": 15571,
    "Ġrelative": 11888,
    "tal": 17679,
    "Ġrephr": 21692,
    "Ġut": 2277,
    "Ġmurky": 19219,
    "Ġsteal": 16296,
    "tfordshire": 4816,
    "Ġflung": 8569,
    "Ġthere": 564,
    "Ġinch": 7852,
    "Ġth": 299,
    "Ġscarlet": 13232,
    "Ġperturbation": 20454,
    "Ġwax": 10780,
    "account": 5333,
    "Ġknock": 9978,
    "Ġcalculated": 4480,
    "Ġhousekeeper": 7457,
    "vill": 10740,
    "Ġbeds": 14559,
    "Ġrolling": 5978,
    "ed": 293,
    "Ġthoughtfulness": 18786,
    "Ġtinker": 15143,
    "Ġvest": 8167,
    "Ġdeveloped": 16355,
    "Ġxii": 11995,
    "Ġnewcom": 16235,
    "famous": 16925,
    "Ġstabbing": 20316,
    "Ġbottomless": 12114,
    "only": 3309,
    "Ġwhereon": 16115,
    "Ġunivers": 2125,
    "Ġsleeve": 20154,
    "Ġund": 4117,
    "Ġgreek": 10637,
    "Ġcoachman": 15012,
    "ators": 7831,
    "Ġmouldings": 24750,
    "Ġduty": 4070,
    "Ġsmite": 22575,
    "burg": 16784,
    "call": 8729,
    "ounds": 4156,
    "acrity": 14287,
    "rate": 2422,
    "Ġcar": 1419,
    "Ġhardest": 18925,
    "amore": 21870,
    "fulness": 4313,
    "ven": 783,
    "Ġcogn": 11006,
    "Ġmovement": 9974,
    "Ġgothic": 18010,
    "floor": 14949,
    "soundest": 24809,
    "Ġadvantage": 4319,
    "loaded": 22529,
    "Ġvisitors": 7988,
    "Ġloungers": 24876,
    "Ġdirty": 9188,
    "Ġthen": 664,
    "Ġattent": 4366,
    "vital": 17709,
    "Ġnecessity": 7299,
    "Ġventured": 7502,
    "Ġmungo": 25640,
    "Ġvultures": 25662,
    "hoist": 23727,
    "ricane": 16291,
    "Ġfinds": 6301,
    "Ġsol": 1104,
    "Ġdesperate": 7779,
    "Ġhelper": 24041,
    "ho": 2858,
    "Ġfished": 21423,
    "Ġapprehending": 26101,
    "ex": 624,
    "orrowed": 19303,
    "define": 1527,
    "threw": 21997,
    ",*": 17481,
    "Ġfluke": 14682,
    "ale": 505,
    "Ġstick": 6030,
    "Ġexpense": 7653,
    "Ġevaluation": 16540,
    "âĢĻ": 378,
    "Ġinjunctions": 24284,
    "Ġstepfather": 7223,
    "ergy": 2358,
    "Ġdefe": 21850,
    "Ġspans": 18312,
    "Ġcommit": 18669,
    "Ġpreparing": 8654,
    "Ġmodes": 22234,
    "Ġpleasing": 6193,
    "Ġbless": 4347,
    "Ġdiamond": 15610,
    "decease": 25566,
    "Ġdividing": 12119,
    "lid": 20958,
    "Ġselfish": 7275,
    "Ġparametric": 2392,
    "Ġfidel": 12603,
    "Ġemployment": 8634,
    "eled": 2355,
    "inence": 15491,
    "Ġhumbug": 18793,
    "Ġbehind": 2808,
    "organic": 25956,
    "ientious": 11696,
    "leaves": 12585,
    "Ġtraditions": 11448,
    "papers": 12509,
    "Ġpist": 12622,
    "Ġpretensions": 16570,
    "Ġworm": 9172,
    "etical": 13964,
    "secured": 16947,
    "Ġnecks": 18197,
    "Ġinv": 2219,
    "Ġpython": 1070,
    "Ġpalms": 8649,
    "Ġoccurred": 4467,
    "Ġivory": 4481,
    "Ġconscious": 7746,
    "atiable": 17784,
    "Ġvirtue": 4925,
    "Ġliveliness": 13648,
    "/(": 2982,
    "Ġcorrupt": 11928,
    "missed": 11213,
    "chel": 11211,
    "Ġboards": 14308,
    "Ġgild": 15681,
    "Ġfanning": 23406,
    "unwittingly": 25811,
    "ivering": 7700,
    "Ġhysterics": 26103,
    "Ġtruck": 19526,
    "holloa": 19479,
    "Ġphysiognomy": 25620,
    "makers": 20995,
    "Ġpausing": 8659,
    "isms": 12587,
    "blades": 24142,
    "Ġaustral": 12180,
    "orous": 5297,
    "bles": 7021,
    "Ġslee": 8980,
    "Ġpersever": 10009,
    "Ġinnocently": 24043,
    "quished": 21857,
    "skinned": 25397,
    "Ġmoney": 3417,
    "amouch": 21872,
    "nerable": 16289,
    "Ġrejecting": 17058,
    "Ġmirth": 15556,
    "Ġsingers": 23784,
    "Ġclamped": 18438,
    "Ġcaptured": 7248,
    "Ġflowing": 14419,
    "ly": 319,
    "Ġexcepting": 14688,
    "search": 8470,
    "Ġpallor": 13520,
    "Ġsnoring": 23754,
    "Ġdesires": 9465,
    "victim": 25539,
    "Ġfile": 13909,
    "Ġmout": 17808,
    "Ġmanners": 3793,
    "Ġyarn": 10872,
    "Ġintimacy": 8706,
    "reflected": 24746,
    "Ġest": 2264,
    "ud": 895,
    "wherever": 13126,
    "Ġbouquet": 20696,
    "Ġsmell": 7218,
    "Ġhasn": 12932,
    "Ġ109": 24430,
    "hero": 21217,
    "render": 10298,
    "Ġwrit": 8246,
    "Ġcaul": 10791,
    "Ġfrenzy": 13627,
    "culiarity": 11145,
    "Ġsettles": 22936,
    "Ġtriumphal": 24384,
    "fol": 4866,
    "cad": 17514,
    "avast": 8903,
    "Ġexcited": 5583,
    "Ġdisclose": 16170,
    "Ġswamp": 14445,
    "Ġapologies": 25208,
    "Ġnewly": 9347,
    "Ġwintry": 17444,
    "asing": 5916,
    "Ġsharkish": 24518,
    "Ġall": 422,
    "vanished": 15072,
    "enormous": 26176,
    "completed": 20006,
    "Ġcrowder": 19471,
    "Ġunho": 18255,
    "Ġerroneous": 17420,
    "Ġlarboard": 11013,
    "Ġvor": 15819,
    "Ġcordial": 16845,
    "https": 11688,
    "fters": 20874,
    "jep": 20939,
    "Ġprovide": 7752,
    "Ġgrammars": 11407,
    "Ġunspeakable": 10062,
    "Ġpouring": 12631,
    "Ġclams": 20001,
    "included": 19224,
    "advice": 12165,
    "rees": 5439,
    "Ġstagnant": 24669,
    "Ġirreparable": 20011,
    "Ġstress": 18076,
    "terror": 18138,
    "ourably": 14384,
    "Ġunanswerable": 26530,
    "franch": 24298,
    "venor": 16114,
    "Ġdisagree": 22550,
    "Ġmalady": 24406,
    "ihood": 20935,
    "Ġaverages": 2396,
    "teness": 23221,
    "li": 1189,
    "Ġslappin": 18957,
    "ending": 1991,
    "mell": 20977,
    "sw": 4747,
    "Ġreconciled": 13593,
    "Ġnocturnal": 20728,
    "persuasion": 20057,
    "Ġobstetrics": 24693,
    "event": 8079,
    "Ġlast": 1124,
    "Ġfresher": 23224,
    "amp": 2608,
    "main": 8090,
    "mis": 4524,
    "Ġcomplex": 742,
    "ode": 1454,
    "Ġoffice": 4967,
    "itz": 6010,
    "Ġproduces": 2091,
    "Ġfeatures": 1432,
    "dwelt": 23884,
    "title": 17295,
    "Ġcos": 2210,
    "Ġtoo": 1167,
    "Ġshape": 5641,
    "Ġices": 21167,
    "Ġbreaches": 14527,
    "Ġvertical": 16615,
    "Ġtake": 1576,
    "Ġgrec": 18974,
    "communication": 25890,
    "Ġtrading": 23094,
    "Ġfilthy": 13257,
    "Ġbat": 10799,
    "itheat": 21350,
    "Ġspoken": 4841,
    "Ġtakes": 5009,
    "intern": 23750,
    "sych": 9901,
    "anations": 12583,
    "commodore": 20640,
    "Ġleading": 7300,
    "tenderly": 20544,
    "Ġharness": 17938,
    "generous": 16580,
    "Ġtints": 17737,
    "Ġmounttop": 19991,
    "schoolmaster": 15173,
    "Ġprosecut": 9707,
    "Ġsun": 1717,
    "Ġspeculations": 23016,
    "however": 4379,
    "nosed": 21005,
    "Ġexact": 2544,
    "affa": 23789,
    "knight": 20953,
    "Ġunless": 4089,
    "oct": 7554,
    "gazing": 12478,
    "sartain": 25632,
    "conv": 7215,
    "Ġlastly": 16219,
    "Ġsubsc": 22806,
    "Ġworshipped": 25700,
    "Ġinclu": 1100,
    "Ġunche": 23446,
    "Ġfailing": 12145,
    "mounting": 25219,
    "Ġnoiseless": 10364,
    "Ġguess": 4906,
    "Ġpalpitated": 26095,
    "Ġscream": 5939,
    "Ġderision": 16323,
    "Ġmisconduct": 22773,
    "sively": 13791,
    "Ġobtain": 8921,
    "Ġretire": 10389,
    "Ġregent": 18605,
    "Ġresumed": 11817,
    "Ġclaret": 22368,
    "billiard": 25345,
    "ī": 236,
    "vineyard": 25431,
    "Ġtransportation": 13647,
    "rich": 11523,
    "Ġapothe": 12381,
    "Ġtheirs": 7028,
    "Ġwrenching": 17332,
    "Ġoblivion": 26041,
    "stupid": 12683,
    "Ġgate": 6828,
    "Ġwriters": 13548,
    "Ġwealthy": 18188,
    "inferences": 17749,
    "Ġrelics": 16209,
    "Ġlazily": 11385,
    "vinegar": 25430,
    "Ġbedford": 7476,
    "Ġdecidedly": 9518,
    "Ġreasoned": 23057,
    "chop": 21701,
    "non": 9620,
    "ouching": 13184,
    "Ġdreaming": 11227,
    "auley": 22640,
    "Ġconcre": 16400,
    "Ġbites": 23757,
    "tubs": 15142,
    "Ġfamine": 16340,
    "Ġundeviating": 15229,
    "Ġmantle": 25288,
    "ouring": 6421,
    "compliment": 11370,
    "nameless": 19916,
    "asy": 5299,
    "uttle": 6250,
    "Ġexquisite": 12388,
    "Ġlightnings": 16366,
    "clearly": 25207,
    "Ġfact": 1728,
    "places": 7883,
    "Ġprivile": 8652,
    "Ġceremonies": 24850,
    "Ġ500": 24336,
    "Ġcoupled": 16861,
    "Ġpity": 4943,
    "croquet": 25756,
    "Ġprofund": 13160,
    "Ġcaptain": 1599,
    "Ġcove": 22599,
    "Ġdir": 21434,
    "Ġpulverize": 23409,
    "ady": 996,
    "Ġdearer": 14057,
    "motion": 17615,
    "beer": 22505,
    "Ġrespectfully": 19007,
    "Ġsocietal": 11441,
    "Ġneedn": 19243,
    "Ġinstigated": 18716,
    "Ġungovernable": 20722,
    "pleasant": 5879,
    "poled": 22923,
    "something": 4286,
    "Ġrepositories": 23381,
    "Ġshop": 9261,
    "pend": 6368,
    "andy": 8162,
    "overs": 17630,
    "Ġsammy": 24946,
    "icip": 6390,
    "Ġplot": 14288,
    "Ġgets": 10843,
    "avish": 22614,
    "Ġpropont": 16362,
    "one": 616,
    "Ġsail": 1673,
    "Ġreciprocating": 26380,
    "Ġlarge": 1067,
    "Ġreminded": 10005,
    "Ġfiltering": 23941,
    "Ġguest": 7253,
    "itates": 13875,
    "helm": 12179,
    "placidity": 25998,
    "Ġmadness": 6605,
    "mistakable": 20665,
    "Ġpushed": 5914,
    "wrapped": 15221,
    "Ġcheerfully": 12142,
    "persecut": 22192,
    "Ġcrossed": 6072,
    "Ġdub": 13915,
    "Ġcourtship": 24148,
    "Ġanoints": 25547,
    "accents": 19227,
    "Ġpettic": 14855,
    "Ġgardiners": 11161,
    "Ġkitty": 3909,
    "uation": 17703,
    "Ġstruggle": 3675,
    "upright": 23037,
    "porpoise": 16446,
    "Ġcare": 1636,
    "Ġdive": 10179,
    "hideous": 25417,
    "Ġloth": 17976,
    "Ġsucked": 14136,
    "exceedingly": 9575,
    "Ġbears": 6832,
    "Ġsnuff": 7994,
    "Ġjustly": 11909,
    "Ġcarpets": 18916,
    "altern": 17952,
    "yond": 2328,
    "onness": 21267,
    "chari": 21702,
    "Ġinside": 5451,
    "Ġlarger": 1403,
    "Ġimmersed": 19500,
    "Ġcompunction": 18599,
    "Ġyounger": 5256,
    "Ġcustody": 13652,
    "unavoid": 14068,
    "bedroom": 14706,
    "angu": 570,
    "Ġdinnertime": 16730,
    "mortar": 25418,
    "Ġshrouds": 11349,
    "prosperity": 20748,
    "Ġreflecting": 24764,
    "Ġabatement": 22291,
    "Ġglimmered": 20186,
    "eness": 2288,
    "Ġarmed": 9269,
    "ental": 7171,
    "onsensical": 18590,
    "over": 1845,
    "Ġinfants": 16380,
    "poke": 18812,
    "Ġrespective": 16357,
    "featured": 24083,
    "Ġmonomaniac": 9577,
    "Ġsailors": 4278,
    "Ġcontro": 1687,
    "Ġcolder": 22872,
    "gradu": 18630,
    "Ġamused": 11804,
    "sort": 6802,
    "Ġext": 907,
    "Ġvirtues": 9942,
    "dispute": 23514,
    "Ġaband": 6566,
    "flu": 9123,
    "action": 3726,
    "itten": 3439,
    "lips": 13754,
    "committed": 18752,
    "Ġdisorder": 16065,
    "accountable": 7114,
    "stun": 18026,
    "Ġauthors": 10423,
    "Ġimagined": 8612,
    "Ġpowerful": 1584,
    "riet": 18192,
    "Ġasyl": 12742,
    "Ġderanged": 23189,
    "Ġomnipotent": 13554,
    "extreme": 11033,
    "Ġamiss": 18525,
    "Ġfordham": 21790,
    "bohemia": 20744,
    "Ġtheoretically": 3567,
    "lied": 6509,
    "Ġaccent": 10301,
    "Ġshutting": 14773,
    "Ġapproximation": 2339,
    "Ġbrad": 8793,
    "caterpillar": 26393,
    "idled": 21782,
    "Ġdelayed": 9527,
    "Ġmalacca": 24407,
    "Ġgabriel": 7596,
    "Ġpreventing": 884,
    "Ġspiritual": 9935,
    "front": 12178,
    "Ġbeauties": 10452,
    "Ġimplies": 24887,
    "embarr": 17300,
    "Ġautomatically": 3676,
    "Ġstoop": 16324,
    "ute": 4647,
    "Ġimpreg": 16005,
    "tracks": 19663,
    "Ġseal": 10262,
    "cottagers": 20061,
    "Ġsizes": 1521,
    "Ġannounced": 9039,
    "Ġchecked": 9384,
    "became": 10521,
    "Ġrom": 4528,
    "Ġvainly": 9929,
    "acious": 5565,
    "Ġsummarization": 3647,
    "pointed": 9815,
    "breaths": 25347,
    "Ġdoomed": 11347,
    "Ġcred": 8787,
    "Ġsinful": 18963,
    "Ġfrigates": 25715,
    "Ġannihil": 10181,
    "Ġconfusion": 7276,
    "erves": 2513,
    "Ġ130": 24794,
    "exagger": 22445,
    "Ġprepare": 8653,
    "signs": 16551,
    "local": 22527,
    "Ġloaf": 15886,
    "Ġflaming": 8570,
    "Ġraptures": 13501,
    "Ġportly": 14686,
    "Ġpest": 13919,
    "Ġtelesc": 13001,
    "Ġbones": 4587,
    "Ġmoses": 21327,
    "Ġmultitud": 18761,
    "Ġpreced": 6044,
    "zor": 15468,
    "athy": 14330,
    "Ġfourteen": 12014,
    "unwillingness": 25812,
    "Ġdiffusion": 23795,
    "Ġstopping": 2751,
    "Ġsmiting": 12905,
    "Ġcreditors": 20144,
    "scr": 16254,
    "Ġbury": 12048,
    "glow": 20887,
    "Ġpicturesque": 14908,
    "Ġlaborious": 13110,
    "Ġhandsom": 11127,
    "Ġnib": 13946,
    "Ġposition": 1950,
    "Ġmarchant": 14800,
    "Ġacquirement": 19269,
    "sharpening": 22479,
    "droppers": 24772,
    "Ġfisherman": 12083,
    "tical": 10134,
    "Ġearning": 23955,
    "Ġtiger": 11559,
    "pton": 15805,
    "dÃ¦mon": 17536,
    "Ġhearsed": 25055,
    "ouder": 17910,
    "Ġlatitude": 8333,
    "looks": 12022,
    "Ġspiral": 14592,
    "zwilliam": 5078,
    "Ġgr": 977,
    "Ġeldest": 6576,
    "Ġsmart": 11820,
    "plate": 18216,
    "bil": 20784,
    "mansion": 20996,
    "Ġwriter": 11951,
    "Ġfacing": 10178,
    "rogress": 21549,
    "Ġsqualls": 17028,
    "Ġagatha": 6870,
    "Ġwilfully": 16777,
    "Ġsubsisted": 19130,
    "Ġlifelessly": 23067,
    "mor": 4216,
    "Ġrome": 12163,
    "Ġsubt": 11873,
    "ot": 346,
    "Ġbooks": 4680,
    "Ġcollins": 2180,
    "Ġdragg": 23229,
    "pect": 1252,
    "Ġfierc": 18722,
    "Ġdough": 8426,
    "Ġflatt": 16258,
    "Ġvelv": 10626,
    "Ġpikes": 21491,
    "Ġconvergence": 971,
    "Ġproflig": 23582,
    "Ġath": 15814,
    "Ġbrooks": 25709,
    "horses": 17576,
    "imp": 3035,
    "Ġanatomy": 12326,
    "Ġcreate": 2089,
    "Ġbanqu": 12595,
    "q": 85,
    "bene": 6115,
    "Ġfortnight": 6203,
    "Ġhimmalehs": 26240,
    "&": 10,
    "dually": 3282,
    "entirely": 7784,
    "aching": 5835,
    "Ġbetray": 7444,
    "Ġfamous": 5259,
    "inno": 10760,
    "dece": 11739,
    "congratulations": 20292,
    "wer": 8400,
    "acquaintance": 6941,
    "Ġ118": 19715,
    "Ġunsc": 22027,
    "alogies": 25173,
    "Ġhabits": 6929,
    "ants": 1393,
    "Ġbeards": 21765,
    "Ġbidirectional": 3755,
    "Ġaustrian": 24314,
    "allingly": 22212,
    "horner": 23629,
    "Ġintelligible": 15955,
    "Ġornament": 11725,
    "lic": 17596,
    "urre": 10860,
    "Ġdimin": 3872,
    "Ġ95": 19787,
    "Ġs": 265,
    "Ġtrif": 6270,
    "Ġrattler": 25013,
    "uch": 877,
    "Ġunman": 12781,
    "reward": 15518,
    "Ġthirst": 7590,
    "Ġlined": 15662,
    "sometimes": 5975,
    "Ġcruc": 16546,
    "Ġdesk": 11912,
    "blubber": 15248,
    "Ġfoolishly": 19796,
    "Ġbreaking": 6312,
    "Ê": 139,
    "mountains": 15192,
    "equally": 19912,
    "Ġsarat": 21240,
    "ishment": 3507,
    "Ġconvivial": 16560,
    "I": 45,
    "disgu": 19170,
    "Ġarchitecture": 1126,
    "sorting": 17012,
    "ositions": 10290,
    "Ġshaster": 22011,
    "speaks": 19735,
    "Ġdorm": 4827,
    "ĠĠĠĠĠĠĠĠĠĠĠĠĠĠĠĠĠĠĠĠĠĠĠĠĠĠĠĠĠĠĠĠĠĠĠĠĠĠĠĠĠĠĠĠĠĠĠĠĠĠĠĠĠĠĠĠĠĠĠĠ": 19274,
    "ken": 2802,
    "attentions": 13580,
    "quis": 7874,
    "Ġroasted": 18471,
    "Ġtwelvemonth": 12185,
    "Ġcousins": 9920,
    "Ġsupercil": 23468,
    "Ġnlp": 3064,
    "explaining": 23159,
    "Ġpleated": 16311,
    "Ġcorrected": 10456,
    "bree": 15326,
    "Ġrollicking": 24465,
    "symp": 14641,
    "forget": 11036,
    "Ġconfinement": 19051,
    "lust": 15391,
    "Þ": 159,
    "Ġ132": 19909,
    "sav": 8099,
    "cape": 13702,
    "output": 4407,
    "pagan": 17293,
    "imprudence": 16569,
    "irc": 1730,
    "Ġ111": 24450,
    "f": 74,
    "Ġswiss": 18895,
    "Ġlikeness": 11183,
    "Ġstory": 2902,
    "Ġshame": 6411,
    "jabez": 20946,
    "Ġgleamed": 17084,
    "Ġmount": 7364,
    "Ġunmolested": 15257,
    "Ġextraction": 11257,
    "Ġdis": 695,
    "dist": 4485,
    "Ġvineyard": 12336,
    "oc": 2835,
    "Ġlookest": 22731,
    "iceland": 21579,
    "Ġprofessed": 14735,
    "Ġlory": 12660,
    "Ġbodily": 6109,
    "Ġrigid": 16727,
    "Ġoverthrow": 18443,
    "Ġreading": 5118,
    "Ġbirch": 26184,
    "Ġprodigies": 19807,
    "inal": 15490,
    "consciousness": 13372,
    "tail": 8767,
    "Ġnow": 692,
    "pig": 8759,
    "natural": 2276,
    "susceptible": 24676,
    "Ġcentury": 8295,
    "Ġnephews": 24727,
    "including": 23606,
    "Ġ40": 14782,
    "games": 20893,
    "youth": 11880,
    "examination": 25488,
    "lim": 9615,
    "Ġnice": 6681,
    "parsee": 14522,
    "Ġstoke": 10403,
    "Ġlists": 11170,
    "Ġsubtile": 20393,
    "mr": 1898,
    "created": 12457,
    "ources": 2790,
    "Ġunprepared": 22062,
    "ould": 428,
    "Ġunclasp": 26520,
    "Ġsanity": 24997,
    "gall": 6361,
    "Ġidly": 16416,
    "ruding": 9732,
    "mm": 672,
    "Ġcomes": 3422,
    "Ġcollapsed": 15093,
    "Ġlively": 5452,
    "Ġsqualid": 14375,
    "Ġremarkably": 7705,
    "catch": 17516,
    "Ġruefully": 17309,
    "chambers": 25464,
    "Ġchocks": 13352,
    "Ġcracking": 14582,
    "bery": 9800,
    "Ġwages": 13860,
    "Ġdisconcerted": 18575,
    "Ġmessage": 13527,
    "saf": 11530,
    "aired": 8372,
    "unearthly": 19287,
    "Ġrude": 7237,
    "Ġunlocking": 20719,
    "Ġcoldness": 23772,
    "Ġseeming": 8546,
    "omitted": 18034,
    "Ġextras": 22765,
    "ines": 673,
    "Ġbuckle": 17040,
    "Ġraging": 14313,
    "anting": 6413,
    "Ġcheerful": 6626,
    "Ġprocure": 9519,
    "Ġcolt": 11048,
    "lessly": 4559,
    "Ġprincely": 24161,
    "bearded": 18532,
    "Ġplata": 25133,
    "self": 618,
    "impenetrable": 26207,
    "Ġnaval": 16907,
    "Ġinclude": 1872,
    "Ġcarefully": 6306,
    "Ġsubtlety": 24793,
    "solid": 16394,
    "Ġinvaders": 23494,
    "Ġmiz": 10781,
    "Ġinquiry": 6485,
    "Ġarticle": 9511,
    "Ġmyth": 18229,
    "Ġmolasses": 25637,
    "fal": 17545,
    "rential": 22935,
    "Ġesq": 15120,
    "Ġply": 21466,
    "Ġtested": 23244,
    "Ġwhelm": 26008,
    "yl": 7820,
    "Ġconcept": 678,
    "Ġnorthwards": 19562,
    "Ġsafie": 6622,
    "Ġprocessions": 18445,
    "waistcoat": 17370,
    "unconquerable": 21905,
    "Ġbos": 4879,
    "deliberated": 26128,
    "Ġindic": 2887,
    "Ġframework": 2104,
    "Ġadmits": 23569,
    "Ġconverted": 16129,
    "Ġbattered": 17872,
    "Ġunrem": 18254,
    "Ġordered": 5836,
    "Ġassuming": 16703,
    "Ġlimber": 16490,
    "Ġwildness": 14611,
    "Ġpensive": 21488,
    "Ġconsternation": 9865,
    "ples": 6848,
    "Ġpicture": 4861,
    "Ġcostume": 16506,
    "Ġcoff": 3509,
    "interest": 5423,
    "Ġheiress": 20711,
    "ug": 1767,
    "german": 11497,
    "Ġadagrad": 2904,
    "repaid": 24506,
    "Ġsoothingly": 25063,
    "shaped": 10316,
    "Ġbutler": 18280,
    "Ġcreature": 2380,
    "Ġunpleasing": 22067,
    "hogs": 20096,
    "Ġdevotees": 25387,
    "kingly": 20952,
    "Ġriver": 5413,
    "Ġcro": 4877,
    "Ġsuppressing": 23019,
    "ivates": 18285,
    "Ġdisgracing": 26266,
    "Ġindiscreet": 22974,
    "uncommonly": 25558,
    "Ġjing": 15963,
    "Ġadjusting": 3412,
    "orters": 21413,
    "Ġbelf": 21393,
    "Ġlandlord": 5584,
    "Ġsilver": 7465,
    "Ġdoted": 21446,
    "Ġheighten": 19544,
    "Ġsituated": 9455,
    "maul": 11895,
    "Ġaccomplishment": 19682,
    "acceler": 23614,
    "Ġinsensible": 12331,
    "ultural": 22586,
    "Ġregimentals": 19870,
    "birth": 15333,
    "Ġshiver": 12774,
    "Ġovertake": 15986,
    "Ġaffectation": 14449,
    "inquir": 9545,
    "Ġcause": 2411,
    "ridge": 9506,
    "Ġtattered": 21184,
    "Ġsigned": 11173,
    "Ġbison": 21400,
    "cried": 8731,
    "pleasing": 14753,
    "Ġsummoning": 23887,
    "Ġwrecked": 9972,
    "Ġhour": 1812,
    "rival": 4170,
    "Ġbrutality": 26287,
    "Ġen": 392,
    "hr": 20901,
    "Ġlibraries": 20629,
    "Ġincorrect": 2731,
    "orum": 12597,
    "Ġdisenc": 22544,
    "ann": 5805,
    "Ġcode": 1719,
    "Ġunc": 2124,
    "Ġweaken": 21936,
    "reclining": 20588,
    "strike": 14962,
    "information": 12399,
    "vial": 17707,
    "fabulous": 20487,
    "proachable": 23414,
    "isa": 17855,
    "think": 3608,
    "Ġtransplanted": 22456,
    "Ġthrilling": 19763,
    "Ġpendulous": 25965,
    "Ġendeavouring": 8037,
    "Ġont": 18126,
    "Ġinform": 997,
    "word": 2490,
    "trained": 4239,
    "cat": 15335,
    "Ġlistless": 16487,
    "Ġstyled": 24686,
    "Ġresolution": 5504,
    "Ġuseful": 3559,
    "Ġmeryton": 4443,
    "dition": 15350,
    "Ġsensibly": 14519,
    "Ġlodgings": 8315,
    "Ġshoulder": 5853,
    "Ġhor": 1661,
    "Ġsubstit": 19555,
    "Ġilluminate": 17202,
    "dying": 15352,
    "Ġopening": 5047,
    "Ġrestrained": 16389,
    "Ġharpoone": 2911,
    "Ġvapory": 17014,
    "Ġhighlands": 22790,
    "Ġjust": 1240,
    "Ġgardiner": 3239,
    "declaration": 25187,
    "fre": 5427,
    "fering": 17551,
    "Ġelasticity": 19576,
    "Ġjustine": 4972,
    "Ġsheltered": 19924,
    ".âĢĻ": 1716,
    "Ġwomanly": 23566,
    "Ġgushed": 21620,
    "Ġlinks": 13961,
    "shooting": 16973,
    "aust": 15321,
    "Ġadvanced": 1439,
    "Ġmoral": 6584,
    "thanked": 24339,
    "Ġcontinuing": 14405,
    "Ġbomb": 17877,
    "Ġtransferred": 16464,
    "Ġquench": 22434,
    "Ġboom": 9319,
    "Ġillustrative": 25082,
    "Ġlandsc": 11150,
    "crop": 20811,
    "Ġdishon": 12237,
    "Ġrelu": 1043,
    "Ġblush": 14411,
    "Ġprevention": 16104,
    "Ġalternating": 15043,
    "rians": 21944,
    "_,": 2800,
    "Ġirrevocably": 15309,
    "¢": 100,
    "beards": 22508,
    "Ġedged": 23502,
    "anchor": 13895,
    "Ġflood": 7718,
    "Ġdilatory": 24718,
    "Ġaccusation": 22396,
    "Ġmarching": 16707,
    "Ġwester": 25167,
    "Ġrelease": 19304,
    "Ġnapkins": 25176,
    "Ġflann": 23031,
    "Ġbuoyed": 20054,
    "scence": 14428,
    "monsters": 19186,
    "Ġmatrimony": 13640,
    "Ġcough": 11586,
    "lone": 11505,
    "Ġamounted": 18526,
    "Ġmistake": 6207,
    "tranqu": 14714,
    "Ġdimensions": 16583,
    "Ġcalcul": 3638,
    "orate": 10804,
    "Ġfunctions": 1340,
    "Ġjub": 22310,
    "Ġhappier": 10366,
    "Ġoutright": 18425,
    "Ġfanatic": 23408,
    "Ġmoulton": 17445,
    "Ġpaying": 9944,
    "discovery": 12021,
    "Ġbrotherly": 16539,
    "Ġderive": 10402,
    "bordered": 17508,
    "Ġprogen": 14045,
    "Ġenergies": 25469,
    "Ġeverlasting": 9346,
    "Ġtormented": 8681,
    "Ġperchance": 16001,
    "erringly": 16225,
    "Ġre": 317,
    "Ġkept": 3346,
    "feet": 6573,
    "Ġconcentric": 20089,
    "Ġwrapped": 8346,
    "Ġlivery": 16013,
    "Ġvillanous": 24069,
    "Ġ135": 24798,
    "Ġdesirable": 8947,
    "Ġextent": 7657,
    "Ġpublisher": 24081,
    "Ġlimb": 9412,
    "Ġstretching": 10021,
    "Ġowner": 8928,
    "Ġdesired": 4669,
    "Ġcuring": 21356,
    "expectations": 24291,
    "kers": 7136,
    "Ġbrings": 11885,
    "Ġducking": 17156,
    "Ġaudio": 24785,
    "Ġcoinc": 11005,
    "Ġsneezes": 24711,
    "place": 4152,
    "Ġhenceforth": 19659,
    "delay": 16706,
    "stre": 5454,
    "vener": 21124,
    "Ġidolator": 20010,
    "asingly": 17971,
    "iamond": 14598,
    "--": 1039,
    "fifth": 20160,
    "Ġchag": 15945,
    "exasper": 22444,
    "Ġrece": 11642,
    "Ġheathenish": 13622,
    "meanwhile": 10616,
    "Ġtumble": 16887,
    "Ġgrappling": 25822,
    "Ġintervene": 25490,
    "alions": 21514,
    "Ġtheories": 13855,
    "harbor": 13569,
    "Ġruth": 14100,
    "quired": 21858,
    "Ġcharacteristics": 8615,
    "osque": 22276,
    "couldn": 23732,
    "Ġswears": 16475,
    "Ġhammock": 5770,
    "news": 23149,
    "Ġpecks": 18683,
    "Ġnumberless": 16428,
    "recurring": 24208,
    "precisely": 6920,
    "ye": 1407,
    "Ġguido": 2977,
    "Ġcrew": 2497,
    "six": 7145,
    "absolutely": 10651,
    "Ġjerking": 12252,
    "Ġseemed": 1278,
    "Ġlining": 13957,
    "Ġluff": 15665,
    "quietude": 24670,
    "Ġbelieve": 2144,
    "toes": 22582,
    "Ġfearlessness": 19176,
    "Ġerrors": 2599,
    "Ġaccompan": 5517,
    "Ġthrill": 24553,
    "Ġfel": 1517,
    "hairs": 20916,
    "mid": 5619,
    "eprints": 12799,
    "Ġrevive": 13463,
    "Ġshocking": 10442,
    "Ġslopes": 18955,
    "Ġlamented": 25009,
    "cake": 20817,
    "Ġpra": 4352,
    "Ġpivot": 13929,
    "Ġguiltless": 16949,
    "dreams": 12343,
    "Ġintrospect": 15841,
    "uguese": 20745,
    "Ġmarshalled": 25326,
    "Ġhowever": 1303,
    "Ġafrican": 20151,
    "redible": 15817,
    "hilar": 25097,
    "gratulation": 24362,
    "Ġleg": 2333,
    "Ġchoke": 22264,
    "Ġclosing": 11777,
    "rubbery": 17351,
    "Ġdesponding": 25878,
    "Ġped": 7847,
    "opement": 10319,
    "kinder": 24859,
    "weary": 22703,
    "angles": 18305,
    "treas": 17688,
    "expose": 23678,
    "Ġhulls": 13932,
    "Ġparty": 3512,
    "disapprobation": 19172,
    "aft": 9592,
    "raid": 3278,
    "Ġegypt": 9687,
    "scarcely": 12392,
    "Ġseethe": 21969,
    "iquette": 26142,
    "Ġreynolds": 10217,
    "seek": 8844,
    "attracted": 13061,
    "joint": 24023,
    "swept": 19800,
    "Ġprofusion": 23583,
    "Ġgeomet": 3193,
    "gument": 20898,
    "Ġgrope": 18005,
    "dening": 22795,
    "Ġtok": 1245,
    "Ġbitterly": 8319,
    "Ġacute": 16137,
    "summoned": 26600,
    "Ġnovels": 15943,
    "shr": 10984,
    "Ġsitting": 3604,
    "Ġimpotently": 22414,
    "Ġwoods": 5407,
    "Ġgentlemanlike": 12073,
    "tempt": 21092,
    "behaved": 24481,
    "Ġrespons": 2684,
    "Ġraw": 3322,
    "tenham": 16333,
    "Ġstrait": 23764,
    "Ġcalifornia": 20543,
    "Ġwarriors": 19739,
    "remarks": 23207,
    "Ġlinguistic": 12431,
    "takes": 21089,
    "rights": 23689,
    "regret": 16460,
    "Ġgrimesby": 11462,
    "Ġobservations": 13388,
    "iting": 2156,
    "folding": 24941,
    "Ġschoolmasters": 19736,
    "Ġearliest": 9836,
    "Ġprejud": 6855,
    "mechan": 11862,
    "Ġdegrees": 7297,
    "Ġcastles": 16651,
    "sum": 2084,
    "homage": 25626,
    "justine": 7685,
    "Ġcaroline": 7258,
    "shipmates": 11933,
    "Ġcatching": 9487,
    "lightning": 16564,
    "Ġprophe": 13085,
    "prises": 23827,
    "Ġsketch": 16178,
    "Ġcomprehending": 24459,
    "Ġperilous": 7771,
    "roads": 17968,
    "Ġmim": 3108,
    "room": 2178,
    "Ġbible": 9328,
    "Ġoccas": 2703,
    "number": 10120,
    "Ġ120": 16868,
    "fourths": 25518,
    "calculating": 25698,
    "Ġsources": 10154,
    "Ġharpo": 1940,
    "rent": 1172,
    "Ġlikely": 3597,
    "Ġimplore": 24886,
    "stains": 11640,
    "comprehend": 14366,
    "Ġcobbling": 20536,
    "Ġfugitives": 25643,
    "ornament": 23503,
    "ppered": 15804,
    "Ġanalyzing": 18823,
    "Ġevils": 9026,
    "Ġfarther": 5958,
    "furniture": 20256,
    "coarse": 16500,
    "itect": 976,
    "acon": 10687,
    "Ġcurve": 22984,
    "Ġpreparations": 12316,
    "Ġimpenitent": 26558,
    "Ġravings": 18657,
    "Ġchoose": 5986,
    "Ġ134": 24797,
    "rann": 21057,
    "Ġactuated": 18558,
    "stave": 21656,
    "Ġensuing": 12315,
    "Ġweighing": 20029,
    "Ġshepherd": 14158,
    "ider": 21779,
    "uncomfortable": 18170,
    "Ġadrift": 11727,
    "theless": 4261,
    "Ġundergone": 18998,
    "Ġsuns": 23289,
    "Ġcaulk": 25450,
    "bill": 10082,
    "Ġvain": 3630,
    "Ġpropontis": 17475,
    "Ġacting": 10995,
    "Ġchis": 11755,
    "Ġsearch": 2593,
    "Ġsen": 9165,
    "Ġcompletely": 4864,
    "shadows": 25489,
    "Ġstarvation": 19805,
    "waiter": 24601,
    "Ġinve": 17939,
    "Ġshelves": 15010,
    "omeness": 18033,
    "gangway": 20680,
    "nantucket": 7806,
    "mankind": 14381,
    "ifix": 21917,
    "ivance": 22087,
    "Ġassure": 4424,
    "lance": 12488,
    "phys": 18731,
    "illity": 18306,
    "iriously": 18181,
    "Ġwidest": 24249,
    "Ġinsignificance": 20470,
    "Ġunhe": 22023,
    "Ġlam": 21562,
    "Ġparliament": 18323,
    "Ġswallow": 8956,
    "uer": 21113,
    "Ġdisplays": 19869,
    "ster": 1959,
    "qual": 8160,
    "verb": 10224,
    "india": 22386,
    "offic": 7467,
    "cost": 19204,
    "Ġaccost": 12853,
    "Ġmorning": 1749,
    "Ġjoining": 13171,
    "written": 7997,
    "Ġanointing": 25548,
    "Ġsallow": 12544,
    "pull": 6800,
    "Ġenlightened": 12753,
    "throne": 25666,
    "combined": 20333,
    "Ġdefray": 22959,
    "Ġtalk": 1970,
    "Ġunobserved": 18259,
    "conscientious": 19643,
    "rec": 6008,
    "onged": 18422,
    "Ġincompatible": 25689,
    "Ġrehearsed": 25981,
    "Ġprediction": 2204,
    "paradise": 20652,
    "Ġwreak": 16828,
    "Ġderbyshire": 6591,
    "Ġsatisfactory": 11196,
    "Ġforce": 5096,
    "Ġdaughter": 2870,
    "intu": 22951,
    "ullied": 23120,
    "Ġbas": 6381,
    "Ġbalmy": 22920,
    "Ġactivations": 2720,
    "bu": 5136,
    "Ġezekiel": 26203,
    "Ġunderstand": 834,
    "Ġautumn": 14513,
    "Ġcaval": 25779,
    "Ġwarmly": 8993,
    "Ġtorture": 9071,
    "Ġprepar": 7901,
    "Ġexplo": 2283,
    "Ġhopkins": 23146,
    "ommod": 13987,
    "Ġlowermost": 23254,
    "Ġcliffs": 15984,
    "Ġimprudent": 12858,
    "Ġsupplication": 25501,
    "apothecary": 26555,
    "Ġgranting": 18750,
    "Ġinfancy": 10416,
    "ilder": 15725,
    "Ü": 157,
    "Ġhist": 2447,
    "ilities": 6994,
    "print": 23825,
    "Ġcrimin": 6905,
    "Ġtuesday": 9635,
    "Ġpotential": 3619,
    "Ġamusement": 8057,
    "Ġrecording": 24448,
    "office": 16409,
    "uten": 11626,
    "Ġceasing": 23770,
    "ush": 3632,
    "Ġnovel": 6700,
    "pulling": 25161,
    "Ġbearded": 15739,
    "Ġvit": 10253,
    "Ġconjured": 25115,
    "Ġexclusion": 19412,
    "Ġgrief": 4624,
    "Ġtrough": 15977,
    "Ġbinding": 20432,
    "Ġpyramid": 8808,
    "rosings": 15656,
    "Ġpork": 21471,
    "Ġintimate": 6554,
    "Ġimpass": 16003,
    "Ġimmeas": 18341,
    "harb": 9129,
    "Ġincreases": 3798,
    "Ġmere": 2714,
    "atter": 651,
    "Ġheavily": 6743,
    "Ġshrivelled": 20616,
    "agrad": 2748,
    "Ġknowing": 4461,
    "wear": 22700,
    "_),": 7129,
    "Ġpromote": 23211,
    "Ġupdates": 1297,
    "Ġinspirited": 23436,
    "Ġindependent": 9022,
    "figure": 13560,
    "Ġcommercial": 22691,
    "Ġn": 300,
    "Ġcling": 11776,
    "Ġports": 10822,
    "Ġflea": 23786,
    "Ġsoundings": 13140,
    "eli": 3874,
    "Ġmonument": 16252,
    "Ġbanker": 8673,
    "prom": 6511,
    "Ġinterest": 2248,
    "ĠÂ£": 5008,
    "Ġobscurely": 20203,
    "stir": 12680,
    "Ġreceive": 4708,
    "zek": 16283,
    "civility": 17522,
    "compass": 9469,
    "bos": 17493,
    "Ġbaboon": 19710,
    "Ġcharacteristic": 12054,
    "corpse": 24505,
    "Ġslavish": 23188,
    "plutarch": 21976,
    "Ġmoonlight": 9964,
    "_)": 9108,
    "Ġaccommodate": 20530,
    "Ġcuts": 14615,
    "son": 2327,
    "solving": 3102,
    "bbed": 6914,
    "Ġrecollections": 10519,
    "Ġguardians": 14956,
    "Ġjoke": 8875,
    "Ġabode": 7904,
    "Ġindelicacy": 25704,
    "Ġeagerly": 4992,
    "Ġspanish": 2829,
    "spe": 3561,
    "Ġplayful": 19251,
    "Ġdaint": 15604,
    "complet": 11388,
    "Ġsuicide": 12794,
    "tumult": 12429,
    "gings": 7549,
    "Ġcollected": 2613,
    "Ġwounding": 19603,
    "Ġaristocratic": 20526,
    "Ġinquirers": 24980,
    "Ġpyramids": 15126,
    "pp": 384,
    "ry": 809,
    "Ġjollies": 20383,
    "iar": 2375,
    "Ġexplore": 15923,
    "Ġjeroboam": 10607,
    "Ġfiftieth": 24716,
    "Ġadequate": 20321,
    "paws": 21041,
    "Ġcatches": 23444,
    "Ġpoints": 5251,
    "Ġprodig": 6032,
    "adel": 15741,
    "hoping": 17575,
    "Ġexped": 7652,
    "Ġintricate": 15149,
    "ordinate": 12882,
    "skylight": 25762,
    "science": 11914,
    "ran": 11521,
    "pro": 2050,
    "Ġimperson": 14228,
    "Ġpence": 17915,
    "Ġloose": 4653,
    "mistake": 24541,
    "eng": 1489,
    "Ġtest": 1619,
    "ivered": 7009,
    "grow": 10104,
    "fted": 9124,
    "they": 1878,
    "Ġcharger": 19019,
    "Ġgenerate": 1488,
    "Ġres": 697,
    "Ġ1846": 26094,
    "Ġhardware": 4907,
    "Ġhazard": 20445,
    "hammock": 16367,
    "derick": 22173,
    "Ġlights": 8966,
    "then": 2053,
    "Ġbeg": 1282,
    "Ġceleb": 20239,
    "Ġwand": 4346,
    "Ġbru": 13901,
    "Ġcloser": 8666,
    "Ġforgot": 4688,
    "Ġpat": 1738,
    "Ġ150": 22842,
    "uneasy": 23700,
    "Ġshuddering": 9057,
    "Ġplaguy": 22624,
    "Ġreign": 13991,
    "inces": 13834,
    "Ġhatchway": 13529,
    "Ġtalking": 3860,
    "Ġprevents": 2557,
    "aco": 12913,
    "page": 13776,
    "inioned": 19300,
    "##": 2314,
    "Ġsleepless": 14590,
    "Ġwitnessed": 14858,
    "Ġtemptation": 8684,
    "gely": 10705,
    "Ġmicha": 17821,
    "Ġgunwales": 12247,
    "Ġpatroness": 13514,
    "clothes": 9063,
    "Ġsecondary": 23350,
    "Ġslaughter": 20743,
    "Ġfamiliar": 5515,
    "Ġswearing": 16476,
    "Ġcandidate": 16709,
    "Ġreach": 4046,
    "athan": 2957,
    "ainty": 21801,
    "roots": 15655,
    "sentence": 2940,
    "Ġbalances": 2338,
    "Ġachieve": 3673,
    "Ġweap": 6158,
    "Ġsensation": 6900,
    "pretend": 24896,
    "ahit": 9390,
    "resolved": 9648,
    "orne": 17882,
    "Ġdimension": 3241,
    "Ġint": 411,
    "Ġfetch": 7772,
    "Ġbled": 17866,
    "Ġexpectantly": 23541,
    "Ġhush": 13217,
    "Ġcatastrophic": 3543,
    "Ġhurried": 4032,
    "Ġconstantinople": 19850,
    "Ġhookah": 16978,
    "Ġpositives": 4320,
    "Ġhired": 10184,
    "?_âĢĿ": 12322,
    "Ġsemicircular": 26078,
    "ren": 549,
    "Ġcondesc": 7184,
    "Ġrequirements": 9793,
    "paid": 15424,
    "wat": 6234,
    "traced": 19662,
    "kicked": 20956,
    "estim": 14175,
    "Ġcontemptible": 16961,
    "Ġpaths": 2571,
    "break": 6104,
    "Ġklan": 23676,
    "Ġfris": 23271,
    "plicable": 10264,
    "Ġanalogy": 25648,
    "Ġdegree": 3704,
    "affections": 17365,
    "Ġaddress": 2269,
    "drew": 7337,
    "Ġcy": 13880,
    "john": 11503,
    "Ġairth": 23336,
    "libra": 22943,
    "Ġsisterly": 16318,
    "ville": 6205,
    "Ġtraversed": 18907,
    "Ġdelivery": 18987,
    "Ġthomas": 17958,
    "Ġpinched": 17042,
    "hes": 1400,
    "Ġiii": 7863,
    "otam": 21812,
    "Ġthemselves": 3251,
    "alling": 6041,
    "Ġdefects": 12339,
    "Ġroofs": 16993,
    "Ġpostpone": 17316,
    "Ġimm": 3966,
    "ody": 1480,
    "Ġrecollected": 8314,
    "unity": 4150,
    "ableness": 8152,
    "example": 16027,
    "Ġexecut": 4247,
    "Ġpossessed": 5198,
    "Ġce": 3033,
    "nineteenth": 26148,
    "Ġrambled": 20183,
    "Ġshall": 1144,
    "Ġcinque": 20499,
    "Ġvisitor": 5334,
    "expressed": 9047,
    "Ġcravat": 26317,
    "Ġhappening": 14390,
    "Ġhindoo": 17185,
    "Ġstatistical": 11110,
    "sex": 12721,
    "Ġmeasurement": 19438,
    "Ġsundering": 23290,
    "Ġdit": 21433,
    "Ġbeaches": 18094,
    "oding": 1462,
    "Ġpauper": 26189,
    "Ġther": 17787,
    "Ġreligion": 11420,
    "Ġespe": 21168,
    "ru": 481,
    "studies": 25181,
    "surgeon": 24228,
    "Ġsymphony": 26541,
    "Ġhuman": 1315,
    "Ġmask": 1864,
    "Ġbare": 6135,
    "Ġgeometric": 3220,
    "Ġtransitory": 16032,
    "Ġboarded": 13242,
    "Ġterrific": 6758,
    "tried": 13800,
    "kind": 3865,
    "favourable": 12270,
    "Ġgenerator": 3382,
    "Ġcarved": 7950,
    "Ġsax": 10931,
    "Ġmississippi": 20738,
    "trying": 15448,
    "heavy": 10582,
    "Ġknob": 24421,
    "Ġlongbourn": 3510,
    "Ġwhistled": 24641,
    "Ġfortunate": 6218,
    "Ġnations": 8816,
    "Ġpieces": 7371,
    "lik": 3915,
    "Ġseverest": 14096,
    "Ġplunge": 13449,
    "Ġhypocritical": 20751,
    "Ġassiduous": 26303,
    "isher": 2878,
    "Ġunconcerned": 20523,
    "traces": 24348,
    "Ġarctic": 12818,
    "Ġbulky": 13237,
    "Ġtremendous": 8357,
    "Ġdoubtfully": 23495,
    "Ġcynicism": 25781,
    "pard": 9627,
    "Ġspurned": 12803,
    "dwell": 15353,
    "Ġcommanders": 23882,
    "log": 18547,
    "Ġdisappeared": 5647,
    "Ġmanaging": 22340,
    "attery": 18513,
    "Ġconsiderable": 4007,
    "vil": 2743,
    "Ġcash": 9661,
    "Ġcauldron": 25451,
    "Ġtags": 20585,
    "Ġhonourable": 10464,
    "Ġexcell": 10424,
    "Ġdistillation": 16059,
    "Ġsevent": 18209,
    "Ġcraggy": 23545,
    "affection": 7488,
    "Ġcranial": 25601,
    "Ġdirectly": 2102,
    "mong": 15401,
    "Ġexisted": 15765,
    "Ġbeyond": 2460,
    "Ġpleasantest": 24150,
    "Ġpurplish": 19155,
    "infliction": 25934,
    "mention": 7216,
    "apparent": 11045,
    "Ġcyn": 13892,
    "ike": 5002,
    "Ġmaker": 15554,
    "ä": 165,
    "Ġtypewriting": 16433,
    "d": 72,
    "Ġoccasion": 3246,
    "buff": 15330,
    "murderer": 13400,
    "Ġhay": 11610,
    "Ġdistorted": 14255,
    "hood": 2659,
    "athom": 12946,
    "ete": 9213,
    "sand": 21065,
    "Ġadvertising": 25399,
    "pass": 4293,
    "Ġcircumnavigation": 20413,
    "ips": 2595,
    "Ġwatchful": 16538,
    "cou": 13700,
    "Ġrationally": 18224,
    "atory": 6128,
    "garn": 20883,
    "preserving": 22484,
    "Ġrenow": 18038,
    "Ġroanoke": 22422,
    "Ġbowl": 11208,
    "igators": 18055,
    "Ġpromises": 10408,
    "Ġjetted": 24445,
    "Ġmislead": 22772,
    "tubes": 25225,
    "Ġsimple": 1617,
    "Ġconvent": 11672,
    "Ġbeheaded": 11660,
    "Ġundue": 26003,
    "rical": 11524,
    "Ġ3": 3986,
    "culiar": 2821,
    "Ġlivel": 11361,
    "Ġalarmed": 6926,
    "Ġpadd": 9678,
    "magnificent": 20287,
    "Ġarrange": 3121,
    "Ġvint": 18203,
    "dock": 16431,
    "Ġcadiz": 17334,
    "Ġschools": 9486,
    "nothing": 3154,
    "shriek": 20533,
    "Ġacquiesced": 25503,
    "Ġexpand": 9316,
    "ocris": 23722,
    "Ġsavoury": 23890,
    "erate": 7152,
    "--âĢĺ": 22864,
    "Ġincorporate": 20467,
    "Ġchann": 15949,
    "Ġperform": 1033,
    "ipelagoes": 13676,
    "becomes": 22513,
    "bride": 19217,
    "Ġeffusion": 22530,
    "Ġregret": 5563,
    "Ġeffeminacy": 20731,
    "Ġswish": 23070,
    "Ġpressing": 9270,
    "pherd": 13649,
    "Ġfollies": 16268,
    "convers": 6572,
    "icity": 2541,
    "Ġhansom": 13669,
    "Ġoutweigh": 22337,
    "Ġslugg": 15280,
    "holes": 12060,
    "aths": 22716,
    "Ġcetacean": 25888,
    "arched": 10819,
    "Ġanticipatingly": 26112,
    "400": 20768,
    "Ġanimated": 7704,
    "Ġhomage": 12361,
    "Ġhide": 4593,
    "beaten": 20328,
    "Ġspark": 6693,
    "ù": 186,
    "Ġpresto": 22243,
    "Ġirre": 7469,
    "Ġchooses": 13353,
    "watching": 16939,
    "gover": 10707,
    "Ġado": 7628,
    "Ġproducts": 5202,
    "calculation": 25697,
    "Ġplatonian": 25134,
    "Ġswerve": 14446,
    "Ġportraits": 20156,
    "Ġspur": 18311,
    "Ġav": 3472,
    "Ġobtru": 18686,
    "elope": 14474,
    "Ġcorrob": 16277,
    "Ġteneriffe": 26424,
    "eler": 1570,
    "Ġadieus": 25126,
    "Ġscenarios": 26552,
    "magistrate": 19875,
    "stands": 22441,
    "utely": 8135,
    "Ġpsych": 10183,
    "Ġungover": 18265,
    "accomp": 10463,
    "Ġencoding": 4779,
    "erland": 9649,
    "Ġdeeps": 16125,
    "Ġcommitting": 22690,
    "Ġfe": 490,
    "Ġamendment": 26034,
    "Ġsinew": 25441,
    "life": 4935,
    "Ġcour": 1768,
    "Ġambition": 11437,
    "uttermost": 24956,
    "Ġrounds": 18899,
    "Ġdisreputable": 22552,
    "narrative": 17328,
    "Ġperse": 6274,
    "Ġseasonable": 24420,
    "Ġretrogression": 26591,
    "merged": 11197,
    "Ġinvite": 14571,
    "pitchpoling": 25733,
    "offices": 19076,
    "Ġsublime": 8067,
    "Ġlashed": 9208,
    "dum": 17527,
    "oniously": 21270,
    "chastic": 2332,
    "Ġextinguish": 14348,
    "Ġchalk": 15947,
    "ti": 8394,
    "Ġbending": 12592,
    "Ġpresided": 20222,
    "norm": 20998,
    "anyth": 5441,
    "Ġam": 660,
    "Ġroused": 7625,
    "had": 1947,
    "Ġvehem": 22907,
    "Ġpoet": 8212,
    "grave": 16108,
    "hurriedly": 25519,
    "carbuncle": 26392,
    "Ġeul": 21631,
    "dec": 3113,
    "crown": 13703,
    "Ġbachel": 7161,
    "Ġforc": 9236,
    "Ġoozy": 21339,
    "Ġmalice": 7155,
    "yards": 9632,
    "Ġeyelashes": 26116,
    "Ġrope": 4343,
    "Ġturban": 23628,
    "Ġcontradictory": 20410,
    "whom": 8189,
    "Ġchicha": 15950,
    "phren": 22797,
    "whole": 6089,
    "Ġveter": 15824,
    "Ġezek": 18020,
    "rench": 3968,
    "Ġbefell": 14016,
    "Ġassumpt": 5416,
    "boats": 6208,
    "Ġextend": 18713,
    "Ç": 136,
    "Ġgown": 10209,
    "Ġsag": 6517,
    "Ġhanged": 17935,
    "Ġmaddened": 17253,
    "Ġfills": 12601,
    "safety": 20362,
    "ography": 13369,
    "Ġstopped": 5960,
    "Ġresounds": 22560,
    "decoder": 3645,
    "smitten": 23925,
    "Ġwaifing": 25257,
    "Ġunavailing": 26226,
    "Ġenv": 3184,
    "Ġletting": 10369,
    "Ġreasonably": 11089,
    "leisure": 21383,
    "vember": 10859,
    "Ġconvolutions": 21821,
    "dri": 8076,
    "azing": 7707,
    "decl": 8863,
    "hor": 2573,
    "alvan": 21517,
    "Ġacquiescence": 20343,
    "Ġoriginal": 6105,
    "vedale": 22725,
    "Ġbuzz": 24011,
    "walked": 10578,
    "eed": 20854,
    "thence": 23416,
    "Ġrig": 4224,
    "Ġcharging": 23283,
    "Ġexamining": 8008,
    "death": 6263,
    "family": 7327,
    "Ġstoner": 7181,
    "Ġscorched": 17109,
    "Ġsting": 10865,
    "Ġencoder": 3636,
    "Ġambitious": 18527,
    "Ġfears": 5731,
    "daylight": 19067,
    "ideas": 18595,
    "brushing": 20801,
    "Ġbore": 5083,
    "christian": 17242,
    "inclined": 10645,
    "arb": 1563,
    "lot": 3208,
    "dr": 6225,
    "Ġtrials": 16800,
    "Ġcondem": 6340,
    "Ġshel": 6850,
    "Ġresistance": 13534,
    "Ġphilosop": 5060,
    "mselves": 2863,
    "Ġforbade": 15226,
    "Ġmetropol": 11149,
    "Ġtouches": 20584,
    "Ġhabitations": 24801,
    "Ġcruisers": 25873,
    "Ġpipes": 9856,
    "shapes": 22477,
    "Ġradney": 6778,
    "Ġexecutioner": 12278,
    "Ġbiting": 17871,
    "Ġindignation": 8351,
    "Ġagain": 816,
    "Ġyouth": 4262,
    "flo": 6117,
    "Ġstrenuously": 17458,
    "Ġvict": 3762,
    "danced": 20841,
    "awed": 10398,
    "pulous": 15426,
    "Ġmiserably": 12955,
    "F": 42,
    "cement": 2919,
    "uplifted": 17704,
    ":âĢĶ": 4437,
    "Ġcrests": 25694,
    "urity": 8146,
    "Ġexpost": 18641,
    "Ġphysiognomical": 25621,
    "Ġtriumph": 5147,
    "Ġprovided": 6582,
    "Ġperpetual": 12309,
    "Ġsimultaneously": 4314,
    "spr": 7437,
    "Ġmuteness": 19432,
    "Ġhelping": 3266,
    "protest": 24825,
    "Ġsay": 932,
    "necessarily": 19648,
    "Ġdevote": 10346,
    "Ġcomplement": 23723,
    "Ġhead": 1125,
    "Ġlawy": 9463,
    "Ġsmut": 22574,
    "ely": 622,
    "Ġwrath": 16329,
    "Ġeucl": 24722,
    "Ġrefrain": 12953,
    "grad": 2569,
    "Ġstretched": 5924,
    "Ġfuriously": 9807,
    "belong": 12130,
    "children": 9061,
    "Ġwaste": 9243,
    "Ġcure": 21352,
    "abern": 21803,
    "Ġducks": 25172,
    "twice": 14628,
    "Ġabruptly": 15162,
    "Ġchronic": 9934,
    "Ġremember": 2678,
    "Ġcom": 368,
    "ribut": 817,
    "mock": 5178,
    "Ġrover": 18467,
    "Ġbewitching": 25986,
    "illa": 12800,
    "whence": 23228,
    "Ġforcibly": 10067,
    "accordingly": 19229,
    "Ġcausal": 3410,
    "Ġworry": 18830,
    "Ġthroes": 24587,
    "disappearing": 23517,
    "Ġmonitors": 3157,
    "iltrated": 19318,
    "Ġsnatched": 10480,
    "cod": 12450,
    "ela": 21582,
    "Ġshakes": 10908,
    "ones": 2744,
    "Ġingolstadt": 8337,
    "Ġdeclining": 23976,
    "lod": 15390,
    "Ġdisposed": 7088,
    "rin": 10127,
    "Ġignited": 25085,
    "Ġpaints": 23539,
    "springing": 24903,
    "Ġunbecoming": 22076,
    "Ġventing": 19508,
    "omorrah": 18035,
    "Ġfreshness": 24002,
    "Ġinvolved": 8929,
    "ĠĠĠĠĠĠĠĠĠĠĠĠĠĠĠĠĠĠĠĠĠĠĠĠĠĠĠĠĠĠĠĠĠĠĠĠĠĠĠĠĠ": 19599,
    "Ġweek": 2828,
    "Ġhumph": 22897,
    "prevailed": 17354,
    "Ġsuperfluous": 17425,
    "Ġcashier": 20213,
    "Ġleeward": 6214,
    "ee": 1660,
    "Ġbrag": 23847,
    "iability": 20933,
    "Ġsnaky": 23756,
    "Ġwicked": 5964,
    "Ġ\"": 6122,
    "urmountable": 15291,
    "meditated": 19085,
    "Ġchuck": 8507,
    "Ġwolfish": 25945,
    "ryphon": 4162,
    "slack": 16902,
    "Ġkeenest": 12169,
    "Ġheedless": 14915,
    "trem": 17690,
    "anges": 1674,
    "Ġprolong": 6835,
    "jewell": 25532,
    "Ġinvincible": 23493,
    "naturedly": 24854,
    "carried": 16723,
    "binder": 17509,
    "Ġbrahma": 26330,
    "tum": 11537,
    "Ġfrequencies": 4794,
    "tured": 13801,
    "shells": 26066,
    "Ġnominal": 15180,
    "ipper": 13744,
    "Ġconsecutive": 20716,
    "Ġlife": 1355,
    "Ġtreachery": 15113,
    "upt": 13804,
    "Ġuntamed": 19179,
    "Ġpoul": 15624,
    "Ġhandy": 12943,
    "Ġ92": 24605,
    "Ġembeddings": 1954,
    "Ġbadly": 12139,
    "Ġnoon": 6564,
    "ca": 20806,
    "ria": 15810,
    "Ġramsgate": 18659,
    "Ġwoven": 9931,
    "ds": 4692,
    "Ġinco": 14266,
    "Ġcongratulatory": 19782,
    "Ġquenched": 22432,
    "herds": 22218,
    "Ġciv": 3310,
    "Ġeleg": 6195,
    "boy": 4744,
    "Ġnodded": 11975,
    "Ġquaint": 18477,
    "pivot": 21043,
    "ular": 713,
    "appre": 14377,
    "itioned": 22487,
    "noticed": 14350,
    "albatross": 15641,
    "dwelling": 20578,
    "Ġbec": 1350,
    "Ġintending": 11709,
    "lev": 1234,
    "Ġwilds": 16520,
    "Ġfant": 9183,
    "ste": 3584,
    "Ġrobustness": 18893,
    "talked": 14998,
    "elab": 21583,
    "Ġduration": 20366,
    "Ġunappalled": 22077,
    "lu": 595,
    "Ġgardener": 19149,
    "remarked": 12294,
    "etence": 21590,
    "Ġsurrender": 16459,
    "bit": 3932,
    "scotch": 25861,
    "Ġriddles": 16744,
    "Ġparmacetti": 20619,
    "Ġcornelius": 13579,
    "Ġ98": 24608,
    "hom": 12480,
    "despicable": 24653,
    "esley": 17912,
    "Ġg": 310,
    "een": 725,
    "Ġerad": 25044,
    "Ġfamily": 1967,
    "Ġgasping": 17045,
    "Ġclimax": 25067,
    "limbs": 20206,
    "$": 8,
    "infall": 21201,
    "Ġconsequent": 18120,
    "Ġblacks": 23404,
    "Ġpaste": 23434,
    "lee": 11590,
    "announce": 24573,
    "Ġcontrast": 2118,
    "stalk": 21657,
    "Ġwrapt": 24610,
    "Ġparadise": 11198,
    "Ġknot": 7015,
    "Ġadvancing": 6881,
    "bran": 23589,
    "raise": 18022,
    "vii": 13155,
    "apidated": 22352,
    "databases": 3026,
    "nament": 11512,
    "Ġgi": 15678,
    "sustained": 20582,
    "Ġbloodshed": 23813,
    "Ġstreets": 5868,
    "Ġnumerical": 4245,
    "col": 3105,
    "Ġvers": 7563,
    "Ġinquirer": 24979,
    "rough": 588,
    "Ġsweetest": 13255,
    "Ġdot": 4826,
    "Ġsays": 3562,
    "ird": 2430,
    "Ġtradesman": 20087,
    "geons": 15993,
    "Ġedges": 3829,
    "depth": 12807,
    "Ġpregn": 22246,
    "Ġvariants": 1791,
    "Ġcapst": 8601,
    "ske": 13787,
    "Ġbureau": 11595,
    "Ġobserve": 4678,
    "queg": 1771,
    "Ġclue": 7024,
    "Ġbiases": 2395,
    "Ġsubsisting": 23441,
    "Ġrescue": 13349,
    "Ġdreaded": 8293,
    "ple": 454,
    "Ġreappeared": 21678,
    "crooked": 25755,
    "Ġuneasily": 24244,
    "Ġsmallest": 6431,
    "Ġlobster": 11394,
    "Ġsignals": 10453,
    "algorith": 3435,
    "Ġsingle": 1693,
    "Ġhealthy": 10855,
    "od": 353,
    "Ġclutched": 13523,
    "astonishment": 10036,
    "Ġprosecution": 12387,
    "Ġleave": 2459,
    "precision": 4334,
    "Ġbudge": 15176,
    "displayed": 20749,
    "Ġsul": 7570,
    "asher": 15658,
    "Ġodd": 6629,
    "Ġfinal": 5401,
    "Ġthreshold": 2809,
    "Ġadvocate": 13681,
    "Ġcritics": 23457,
    "Ġswims": 12127,
    "Ġsob": 12795,
    "Ġinclinations": 19554,
    "Ġemigrant": 25869,
    "illating": 22119,
    "kindly": 14755,
    "Ġrobinson": 17473,
    "Ġthr": 5711,
    "nered": 18500,
    "ineering": 21980,
    "Ġdistrust": 8208,
    "Ġdishes": 16064,
    "Ġprocedures": 9422,
    "Ġjud": 3357,
    "feel": 3815,
    "Ġexultation": 15183,
    "stochastic": 3775,
    "pervading": 18970,
    "Ġrelates": 12988,
    "Ġbrief": 6980,
    "Ġmay": 923,
    "prepare": 20227,
    "Ġharrow": 17936,
    "resol": 17770,
    "Ġathe": 17751,
    "Ġaccumulation": 2693,
    "astern": 8589,
    "Ġtag": 15478,
    "Ġmoisture": 12365,
    "knife": 6945,
    "clim": 18944,
    "breat": 10084,
    "Ġbluish": 23666,
    "limin": 8388,
    "epilogue": 22115,
    "Ġluxur": 12347,
    "go": 2063,
    "Ġcaught": 3730,
    "Ġneedless": 19244,
    "connections": 14437,
    "Ġark": 10284,
    "Ġsynthe": 26017,
    "Ġseething": 18210,
    "Ġnursed": 16893,
    "Ġconsiderably": 7717,
    "Ġarg": 4771,
    "Ġcontributes": 15262,
    "arrange": 23779,
    "lings": 8752,
    "sc": 1257,
    "Ġthickly": 12123,
    "sticking": 21667,
    "estinated": 15937,
    "Ġostrich": 26439,
    "Ġdwell": 5815,
    "mount": 9135,
    "crane": 24099,
    "desolation": 20472,
    "eager": 12466,
    "rs": 7809,
    "hem": 6668,
    "Ġupward": 9729,
    "Ġblew": 9051,
    "Ġsharing": 3479,
    "subs": 14309,
    "Ġicebergs": 23989,
    "Ġwon": 1667,
    "Ġdiadem": 24754,
    "thanking": 24338,
    "determine": 19958,
    "Ġassociated": 12256,
    "Ġanonymous": 26188,
    "atre": 17780,
    "Ġdaboll": 25960,
    "olidity": 18142,
    "pre": 648,
    "Ġepsom": 19996,
    "rust": 2583,
    "reme": 2425,
    "chain": 18049,
    "obliged": 20646,
    "Ġraise": 6169,
    "Ġthinking": 4030,
    "itime": 15559,
    "Ġirregularity": 25335,
    "L": 48,
    "certainly": 5343,
    "ĠĠĠĠĠĠĠĠĠĠ": 18591,
    "petulance": 24313,
    "Ġavert": 14434,
    "ulus": 21878,
    "Ġwhist": 6026,
    "Ġcake": 12577,
    "halloa": 17098,
    "country": 6106,
    "buried": 14863,
    "Ġsymmetry": 20379,
    "Ġgangs": 21622,
    "Ġearned": 19421,
    "ĠâĢĻ": 3045,
    "Ġjackal": 24254,
    "omin": 4707,
    "Ġbennett": 16337,
    "Ġground": 2847,
    "Ġlocking": 18308,
    "object": 6888,
    "landlord": 9846,
    "Ġwaters": 3595,
    "overcoat": 19065,
    "Ġdata": 517,
    "Ġhooded": 12412,
    "Ġpainful": 6463,
    "Ġphyseter": 24494,
    "posture": 16936,
    "Ġ27": 8620,
    "Ġhumor": 11055,
    "Ġlat": 5091,
    "Ġreco": 9797,
    "rucastle": 22201,
    "id": 338,
    "Ġproportions": 16479,
    "enances": 10160,
    "swell": 17672,
    "Ġstudded": 18962,
    "Ġdepths": 4329,
    "conquerable": 17409,
    "Ġshare": 1658,
    "Ġtie": 10754,
    "Ġcatherine": 2813,
    "Ġdepicted": 14283,
    "Ġefforts": 11810,
    "Ġniece": 5714,
    "Ġinscriptions": 20021,
    "Ġimparted": 16006,
    "securing": 19826,
    "Ġdormouse": 4928,
    "offered": 14525,
    "ified": 3228,
    "Ġrh": 9253,
    "iction": 4269,
    "Ġmeth": 1476,
    "Ġmightier": 18745,
    "Ġclerical": 25577,
    "Ġbarrel": 23804,
    "Ġclues": 18435,
    "Ġflavor": 16263,
    "whispering": 26113,
    "Ġhandsomer": 20346,
    "Ġcretan": 22740,
    "grie": 12477,
    "Ġlatterly": 24096,
    "fl": 3599,
    "Ġreminds": 13437,
    "Ġslouched": 13069,
    "Ġsubjects": 7077,
    "Ġdiabolically": 25522,
    "Ġorganization": 7987,
    "Ġheaviest": 23342,
    "Ġthunders": 15649,
    "Ġsluggishly": 25901,
    "Ġfull": 2177,
    "Ġmonica": 23003,
    "Ġbelieving": 8229,
    "Ġsteadily": 8054,
    "Ġfriesland": 26451,
    "Ġaffecting": 2322,
    "halfway": 24325,
    "Ġprecision": 13194,
    "Ġschedules": 3386,
    "rary": 4579,
    "Ġappalling": 8504,
    "Ġlandless": 23395,
    "Ġstirring": 10587,
    "ourers": 21462,
    "Ġtyros": 26111,
    "Ġfifty": 4627,
    "Ġdeaf": 12729,
    "hetic": 12209,
    "courage": 17519,
    "crimson": 24100,
    "div": 8078,
    "inese": 12886,
    "heedful": 20587,
    "hend": 13261,
    "Ġfootmen": 23810,
    "Ġembatt": 18827,
    "Ġrepel": 23376,
    "Ġsty": 6254,
    "indifferent": 14214,
    "incing": 15495,
    "Ġsweat": 13147,
    "Ġvillas": 24068,
    "Ġunlim": 18263,
    "Ġfame": 21418,
    "Ġwind": 1433,
    "dropping": 14995,
    "Ġrecital": 16157,
    "Ġpump": 12628,
    "Ġstreng": 18080,
    "Ġstump": 7603,
    "ulated": 6034,
    "Ġbroke": 5326,
    "och": 21014,
    "Ġtwin": 12935,
    "Ġchoice": 2165,
    "Ġif": 698,
    "Ġdisquiet": 18565,
    "unched": 10243,
    "Ġdisease": 14263,
    "Ġstake": 14009,
    "drowned": 17378,
    "Ġforbidding": 17086,
    "Ġbraz": 19373,
    "aving": 2407,
    "Ġtipt": 21186,
    "Ġfoolish": 5984,
    "Ġblan": 18831,
    "fire": 6359,
    "shortened": 24761,
    "Ġglaciers": 20188,
    "Ġimpressions": 9562,
    "Ġwick": 2008,
    "belonged": 25607,
    "âĢĶ.": 11760,
    "Ġstructure": 849,
    "ake": 751,
    "uction": 15453,
    "Ġvol": 4190,
    "Ġwhereupon": 14304,
    "Ġdistrusting": 25069,
    "Ġmajority": 13298,
    "doublo": 24675,
    "Ġgruff": 21627,
    ".}": 20758,
    "Ġneskye": 21544,
    "Ġavalanche": 16632,
    "Ġample": 11803,
    "reat": 611,
    "moral": 14816,
    "mystery": 15167,
    "spent": 12949,
    "Ġforgotten": 5681,
    "Ġmaintains": 2142,
    "storied": 18032,
    "Ġvintage": 26220,
    "bub": 15328,
    "Ġphilosophers": 10559,
    "real": 10156,
    "Ġindignant": 12246,
    "purse": 20038,
    "Ġdolph": 12386,
    "Ġargosy": 24288,
    "rinted": 21056,
    "Ġstates": 1850,
    "Ġwood": 2289,
    "medical": 23360,
    "Ġgpt": 4356,
    "case": 5209,
    "Ġfifth": 11262,
    "disreputable": 23518,
    "iforn": 14070,
    "Ġcoils": 9312,
    "hampshire": 23280,
    "baby": 25524,
    "Ġhelp": 1640,
    "Ġstared": 8459,
    "Ġtrod": 15039,
    "Ġanticipated": 13515,
    "Ġ110": 24449,
    "Ġtidings": 11402,
    "Ġmurderer": 4982,
    "Ġstable": 2699,
    "here": 2550,
    "Ġpack": 5447,
    "Ġturns": 4983,
    "Ġcaps": 8419,
    "Ġrese": 2113,
    "Ġadviser": 25323,
    "Ġsatirical": 26290,
    "Ġblubber": 5668,
    "ording": 9771,
    "Ġfrequented": 16597,
    "Ġdearest": 5460,
    "Ġruddy": 17135,
    "Ġprepared": 5882,
    "Ġbrave": 6331,
    "virtue": 20583,
    "imper": 14003,
    "gardiner": 12297,
    "Ġkeeled": 18822,
    "france": 24296,
    "Ġbarely": 16945,
    "sheltered": 25594,
    "Ġmutter": 23966,
    "apprehension": 26124,
    "Ġgrim": 7441,
    "Ġdoubloon": 6948,
    "everybody": 8616,
    "okes": 9286,
    "ivity": 1607,
    "Ġregularization": 1175,
    "resemblance": 25943,
    "Ġawa": 7716,
    "Ġdestroyer": 13419,
    "Ġresuming": 12900,
    "Ġfalsely": 20596,
    "smoking": 23927,
    "possible": 5745,
    "Ġpursuits": 12084,
    "Ġmappings": 2146,
    "Ġhussey": 7727,
    "ushed": 2972,
    "Ġworn": 6446,
    "Ġcomprise": 18597,
    "december": 25567,
    "Ġrelationships": 2928,
    "Ġundiscovered": 18262,
    "Ġalacrity": 15749,
    "Ġresid": 22556,
    "Ġreplying": 19598,
    "acency": 12915,
    "tier": 12521,
    "Ġprof": 2462,
    "Ġthing": 1637,
    "horror": 13166,
    "univers": 15784,
    "Ġmeanly": 12916,
    "Ë": 140,
    "fully": 2203,
    "Ġinjuring": 24283,
    "Ġled": 3523,
    "Ġuniversally": 12004,
    "Ġargument": 7103,
    ".âĢĶâĢľ": 20760,
    "Ġheaved": 9391,
    "inquire": 16941,
    "mag": 6510,
    "Ġmanilla": 15973,
    "Ġgraze": 18235,
    "Ġpedd": 17919,
    "Ġtwit": 12936,
    "Ġcongrat": 5830,
    "ezes": 9996,
    "Ġacid": 22699,
    "rabbit": 20605,
    "aper": 5001,
    "Ġknight": 9735,
    "nin": 17617,
    "Ġstaves": 21754,
    "Ġindestruct": 22976,
    "gon": 17561,
    "Ġenumer": 12752,
    "\",": 10684,
    "okers": 18454,
    "Ġarom": 15502,
    "otted": 14030,
    "Ġfeared": 5935,
    "Ġafternoon": 6056,
    "Ġbehoo": 19047,
    "rusted": 16518,
    "Ġmainz": 22672,
    "distressed": 24213,
    "Ġwindows": 4973,
    "cet": 15336,
    "Ġreview": 19881,
    "Ġsustenance": 19948,
    "scot": 14427,
    "reported": 24508,
    "Ġceaseless": 13494,
    "enched": 10161,
    "waiting": 12227,
    "Ġmart": 10783,
    "Ġkidnapping": 26367,
    "Ġcountrymen": 23611,
    "Ġnotion": 7886,
    "ispens": 8340,
    "Ġreversed": 15709,
    "Ġunhinged": 26227,
    "Ġcommons": 22689,
    "cordiality": 25152,
    "Ġmonomania": 17092,
    "tornadoes": 26163,
    "Ġanswering": 7478,
    "jo": 3751,
    "Ġringle": 18221,
    "words": 7986,
    "swam": 24269,
    "Ġher": 427,
    "eg": 17538,
    "Ġquitting": 7647,
    "Ġinvariably": 8065,
    "Ġscreen": 17215,
    "laug": 10712,
    "Ġbarbed": 14849,
    "Ġdisco": 3427,
    "Ġinstantaneously": 23674,
    "ater": 3370,
    "appalling": 22861,
    "Ġvenerable": 9100,
    "Ġhospitals": 24937,
    "Ġscuffle": 20623,
    "Ġharpoon": 3615,
    "Ġproposition": 23264,
    "Ġwed": 7575,
    "Ġcalmly": 7736,
    "ary": 987,
    "itled": 7578,
    "othe": 2616,
    "corrob": 24504,
    "painting": 17053,
    "Ġcastor": 19442,
    "Ġrepair": 11984,
    "zen": 5144,
    "alty": 17949,
    "agony": 14075,
    "rably": 21646,
    "Ġfist": 21416,
    "Ġtaffrail": 15486,
    "Ġdeepest": 8217,
    "Ġbeams": 14638,
    "Ġremarked": 3696,
    "ev": 6955,
    "Ġweather": 3997,
    "invariably": 26426,
    "Ġsurprise": 3832,
    "Ġinscrutable": 10678,
    "Ġoverwhelm": 25068,
    "bitious": 16680,
    "Ġwhalers": 8050,
    "Ă": 195,
    "reliable": 21253,
    "off": 1885,
    "Ġperverseness": 13659,
    "Ġpil": 5018,
    "Ġroods": 22419,
    "Ġpince": 21484,
    "Ġdumb": 7845,
    "Ġpurest": 14952,
    "ance": 480,
    "Ġinvoking": 19159,
    "Ġseem": 914,
    "mured": 6963,
    "Ġwarmup": 3922,
    "history": 15027,
    "Ä": 133,
    "Ġroots": 11189,
    "arson": 22766,
    "Ġfarthing": 14462,
    "bound": 6224,
    "Û": 156,
    "Ġseating": 18208,
    "Ġprior": 11323,
    "Ġfolios": 23039,
    "jeroboam": 25629,
    "ancient": 9664,
    "âĢĶâĢĻâĢĿ": 20078,
    "Ġglittering": 10059,
    "origin": 7582,
    "attacked": 23138,
    "rupt": 3212,
    "Ġpigs": 19762,
    "Ġmemoirs": 26216,
    "Ġramadans": 25135,
    "co": 2437,
    "Ġirrespective": 23391,
    "reach": 17767,
    "Ġheld": 3585,
    "Ġbulkington": 14685,
    "rot": 21545,
    "owl": 12691,
    "msgate": 18424,
    "stop": 11638,
    "member": 20988,
    "draught": 12098,
    "ophisticated": 22496,
    "oried": 10806,
    "Ġprinces": 23235,
    "forever": 22537,
    "princip": 17146,
    "reporting": 24509,
    "Ġdissip": 10996,
    "Ġproject": 5548,
    "manned": 18778,
    "tish": 17686,
    "Ġpie": 13921,
    "Ġforge": 8461,
    "Ġsecond": 1880,
    "Ġbronze": 22883,
    "noise": 14333,
    "apter": 1194,
    "ired": 1446,
    "floated": 24658,
    "Ġunicorn": 22069,
    "orns": 12599,
    "Ġstun": 11654,
    "returned": 7768,
    "Ġwoman": 2383,
    "minute": 11279,
    "Ġaugmentation": 20130,
    "iloqu": 11652,
    "onomy": 12555,
    "Ġwasting": 12736,
    "Ġingrat": 16850,
    "successively": 24792,
    "Ġdiddled": 22684,
    "collinses": 19936,
    "fer": 1904,
    "Ġharpoons": 5660,
    "Ġhovers": 19091,
    "ject": 875,
    "Ġstall": 12704,
    "help": 1479,
    "says": 13306,
    "Ġinconvenient": 20022,
    "Ġexploring": 4308,
    "Ġfath": 7366,
    "Ġgaping": 13975,
    "showing": 22476,
    "thine": 15837,
    "Ġpondicherry": 20504,
    "Ġstumped": 24958,
    "cess": 539,
    "Ġenticing": 22758,
    "Ġgrant": 11878,
    "Ġgallons": 14835,
    "oken": 4310,
    "Ġincluding": 2851,
    "Ġundoing": 22048,
    "Ġbenefits": 4288,
    "ineas": 15834,
    "companions": 15036,
    "Ġamel": 18523,
    "Ġhandsomely": 25506,
    "rove": 21546,
    "Ġsoaring": 22098,
    "ara": 12613,
    "Ġrelate": 6879,
    "Ġshri": 5726,
    "Ġforms": 6398,
    "Ġdesper": 6179,
    "Ġdecoyed": 18498,
    "Ġinboard": 17943,
    "Ġmaids": 19708,
    "deal": 12806,
    "gems": 20897,
    "Ġanon": 9675,
    "Ġthrough": 603,
    "Ġquee": 1982,
    "Ġfloor": 4384,
    "Ġmanor": 14202,
    "trad": 21088,
    "ates": 519,
    "Ġextreme": 2518,
    "Ġignominy": 15097,
    "Ġburst": 4386,
    "Ġvoyager": 16523,
    "aries": 6247,
    "Ġspir": 2432,
    "roar": 17963,
    "Ġfetched": 24580,
    "rip": 9250,
    "Ġfa": 4825,
    "Ġprescribed": 26020,
    "Ġdreams": 7497,
    "Ġaccorded": 24103,
    "unpardonable": 21904,
    "Ġbrighter": 16201,
    "Ġrake": 18654,
    "Ġsubproblems": 12964,
    "Ġcontained": 7681,
    "Ġst": 332,
    "Ġbass": 17865,
    "disappo": 8990,
    "Ġforeman": 23461,
    "Ġfoundling": 22992,
    "suspicious": 25400,
    "Ġric": 18220,
    "Ġwelded": 9580,
    "Ġpuzzle": 11310,
    "Ġreconciliation": 25306,
    "Ġannihilation": 15177,
    "Ġfebruary": 15927,
    "wondrous": 12344,
    "Ġinheritance": 25366,
    "assist": 11772,
    "Ġjealously": 24136,
    "Ġsetting": 7050,
    "breathing": 25346,
    "writing": 7723,
    "genteel": 19962,
    "Ġdeliciousness": 24138,
    "Ġintens": 7006,
    "Ġflowers": 8946,
    "Ġeyebrows": 23531,
    "Ġnods": 19077,
    "ez": 5685,
    "Ġwigwam": 11433,
    "howling": 19002,
    "especially": 3573,
    "ested": 3481,
    "turning": 8321,
    "masculine": 24401,
    "Ġilluminated": 20190,
    "violently": 23558,
    "iable": 3334,
    "everywhere": 23708,
    "Ġapproved": 16046,
    "bourne": 19117,
    "dle": 3306,
    "Ġsemantics": 2894,
    "ord": 665,
    "Ġmurderous": 8320,
    "asserted": 22325,
    "ches": 2147,
    "Ġdistraction": 22523,
    "Ġnook": 15942,
    "_âĢĶ": 11472,
    "awn": 3837,
    "Ġpaw": 12627,
    "Ġstrugg": 3219,
    "Ġoftener": 13571,
    "prince": 23828,
    "waters": 11338,
    "Ġintric": 9255,
    "expression": 10555,
    "Ġresolves": 23664,
    "wouldn": 23551,
    "ractions": 11637,
    "Ġplanning": 14762,
    "pierced": 26151,
    "Ġpanting": 11608,
    "Ġundu": 15851,
    "Ġgrat": 4055,
    "Ġcovers": 18610,
    "Ġwealth": 7622,
    "stolidity": 21670,
    "Ġheight": 4221,
    "Ġmant": 9656,
    "½": 126,
    "close": 9992,
    "Ġconnect": 800,
    "Ġahoy": 12191,
    "Ġreasonable": 7252,
    "mockery": 24392,
    "Ġtrusted": 10525,
    "biting": 20794,
    "Ġaccurate": 13281,
    "Ġtun": 6003,
    "resnet": 4069,
    "Ġdamp": 8268,
    "Ġxx": 5496,
    "istical": 8495,
    "private": 13588,
    "Ġaux": 21212,
    "Ġahab": 1214,
    "rd": 17658,
    "mad": 5284,
    "appo": 3914,
    "bet": 6112,
    "Ġconsist": 1932,
    "inv": 8406,
    "Ġendeavours": 8623,
    "Ġeasiest": 23553,
    "Ġxv": 23422,
    "adders": 24414,
    "evident": 25529,
    "gener": 3127,
    "Ġjoosy": 23647,
    "Ġreciproc": 20637,
    "Ġturkey": 19234,
    "Ġsplendid": 17223,
    "for": 962,
    "Ġascent": 19635,
    "Ġcommissioned": 19908,
    "tashtego": 9631,
    "bber": 4571,
    "Ġbeneath": 3238,
    "estations": 22241,
    "Ġmerrily": 23746,
    "Ġresigned": 9775,
    "Ġendow": 23151,
    "brandy": 19218,
    "Ġsuspic": 4475,
    "Ġgift": 10844,
    "cup": 10697,
    "Ġmuch": 922,
    "Ġang": 2514,
    "Ġspread": 5164,
    "jane": 4487,
    "ever": 1078,
    "Ġconfirmed": 11143,
    "Ġshore": 4839,
    "part": 2575,
    "Ġwept": 7186,
    "Ġsanguine": 25938,
    "wise": 2576,
    "Ġaugust": 10604,
    "Ġalow": 18109,
    "attacks": 23139,
    "iliary": 21740,
    "nine": 13766,
    "asse": 15657,
    "ĠĠĠĠĠĠĠĠĠĠĠĠĠĠĠĠĠĠĠĠĠĠĠĠĠ": 24456,
    "bermaid": 20803,
    "Ġalb": 14022,
    "£": 101,
    "Ġoutset": 15969,
    "Ġconstitutional": 25141,
    "Ġstrong": 1787,
    "Ġasc": 4770,
    "Ġchemical": 10417,
    "deck": 4504,
    "Ġneville": 7400,
    "Ġapparently": 6781,
    "Ġdiminishing": 4210,
    "establish": 17403,
    "Ġpiling": 17921,
    "thither": 21996,
    "Ġbarrow": 12076,
    "Ġdrooping": 9430,
    "tic": 8395,
    "Ġade": 22112,
    "coat": 5408,
    "Ġ55": 24331,
    "omen": 4085,
    "Ġmerited": 23745,
    "Ġrouted": 24921,
    "Ġanom": 12618,
    "ar": 285,
    "etency": 21595,
    "Ġconsum": 9805,
    "Ġbol": 6244,
    "Ġbrush": 17874,
    "cherish": 24564,
    "ores": 2414,
    "[": 63,
    "Ġenterprise": 8647,
    "Ġcomprehen": 5353,
    "onical": 21266,
    "Ġans": 1646,
    "Î": 143,
    "Ġdaniel": 15123,
    "admirably": 24960,
    "urrection": 12415,
    "Ġhood": 10827,
    "permitted": 18350,
    "Ġgentlemen": 3643,
    "Ġcards": 7581,
    "racing": 21644,
    "Ġregularizer": 2337,
    "Ġstains": 21755,
    "icles": 17983,
    "Ġcucumber": 21368,
    "Ġstubbs": 23312,
    "âĢľâĢĺ": 1485,
    "Ġrecounted": 22752,
    "Ġdepended": 9783,
    "Ġweig": 7620,
    "using": 5471,
    "Ġblinded": 13277,
    "mers": 9619,
    "libr": 22941,
    "sli": 11528,
    "Ġsurrounded": 5884,
    "Ġlighten": 23275,
    "bec": 4052,
    "Ġreached": 4022,
    "Ġpondered": 15178,
    "ui": 9151,
    "Ġwatery": 6298,
    "Ġbarricade": 14668,
    "Ġfuture": 1063,
    "om": 316,
    "Ġwise": 6815,
    "brevi": 24087,
    "Ġdrawers": 12113,
    "Ġcistern": 17391,
    "Ġrespects": 7272,
    "Ġdomestic": 6912,
    "Ġabed": 22280,
    "Ġprevailing": 24688,
    "Ġtarshish": 12035,
    "Ġtrem": 6664,
    "irable": 5778,
    "bidden": 19752,
    "stirred": 20438,
    "Ġsalut": 10516,
    "Ġadapted": 11043,
    "deceptive": 22161,
    "cele": 21638,
    "Ġelated": 18648,
    "Ġpoliceman": 15270,
    "emberley": 4169,
    "vex": 21711,
    "âĢĻ-": 18176,
    "Ġisolation": 17160,
    "shroud": 20325,
    "Ġan": 286,
    "matlock": 23484,
    "Ġcongregation": 12335,
    "Ġacceded": 22394,
    "Ġhorrify": 23832,
    "Ġpythag": 26457,
    "Ġthroughout": 8883,
    "Ġbubbles": 11403,
    "recogn": 13431,
    "longer": 8618,
    "Ġinterruptions": 24200,
    "mut": 17604,
    "ital": 4823,
    "Ġfallen": 5971,
    "mel": 9133,
    "iard": 9610,
    "strom": 15695,
    "Ġmeantime": 6210,
    "Ġforth": 3462,
    "Ġpeculiarity": 12940,
    "Ġcriminals": 19935,
    "what": 642,
    "bourn": 3301,
    "socket": 22742,
    "Ġscents": 22302,
    "Ġclients": 19747,
    "Ġreplaced": 13079,
    "`": 68,
    "ĸ": 249,
    "ascertaining": 26469,
    "Ġcurves": 18858,
    "oof": 15415,
    "Ġsalary": 13301,
    "Ġgenuine": 14899,
    "Ġnormal": 1202,
    "secure": 12242,
    "Ġvery": 637,
    "acher": 6872,
    "slide": 24568,
    "Ġobtained": 7434,
    "haul": 14779,
    "Ġmuhammad": 26179,
    "Ġinfl": 6898,
    "Ġgarb": 21616,
    "dling": 15351,
    "taking": 5691,
    "Ġkelson": 18361,
    "Ġbehav": 3541,
    "Ġmisgivings": 15303,
    "Ġtestified": 16348,
    "swallow": 24272,
    "shrugged": 22475,
    "Ġmanager": 11774,
    "Ġshavings": 14116,
    "pow": 10722,
    "whaling": 7903,
    "tese": 21096,
    "Ġcrevice": 22741,
    "involuntarily": 20428,
    "danish": 20846,
    "owder": 8453,
    "asol": 21553,
    "Ġappo": 8503,
    "Ġapproached": 5847,
    "Ġparlour": 12327,
    "Ġstoutly": 16933,
    "Ġexposure": 16113,
    "Ġsust": 7010,
    "Ġhated": 7585,
    "Ġqualified": 14963,
    "Ġcab": 2634,
    "Ġheinous": 18048,
    "satisfied": 10586,
    "Ġprettier": 23778,
    "vess": 7357,
    "beth": 13693,
    "athans": 7435,
    "Ġdevices": 2942,
    "Ġjurymen": 16857,
    "Ġtablets": 13162,
    "acca": 23613,
    "ordingly": 18528,
    "omy": 6252,
    "ĠĠĠĠĠĠĠĠĠĠĠĠĠĠĠĠĠĠĠĠĠĠĠĠĠĠĠĠĠĠĠĠĠĠ": 14621,
    "Ġacquaint": 13053,
    "repressed": 21256,
    "dinah": 20095,
    "rop": 541,
    "excited": 13386,
    "Ġparting": 9789,
    "Ġrevived": 11352,
    "Ġ32": 19504,
    "apothe": 22350,
    "Ġcupboard": 16891,
    "Ġchatting": 24760,
    "Ġslumbers": 18956,
    "orton": 11761,
    "clam": 13065,
    "neighboring": 20632,
    "uesday": 8646,
    "Ġselects": 4391,
    "Ġexamples": 2607,
    "Ġappointed": 20117,
    "Ġgriev": 14715,
    "Ġmont": 8565,
    "Ġhurriedly": 11254,
    "Ġplayfully": 19253,
    "Ġlingered": 13509,
    "merc": 19294,
    "Ġloop": 14152,
    "Ġfeedback": 23450,
    "Ġdegenerated": 20519,
    "nam": 2859,
    "Ġpatent": 11965,
    "Ġpeninsula": 23214,
    "Ġmouths": 7492,
    "Ġtwig": 11855,
    "humoured": 11241,
    "Ġredden": 15706,
    "Ġyour": 635,
    "sail": 3622,
    "rely": 6126,
    "Ġappearing": 9847,
    "Ġaversion": 18880,
    "Ġmasking": 2420,
    "Ġnearer": 5306,
    "Ġpropensity": 19009,
    "currents": 23858,
    "brim": 23590,
    "Ġprofanely": 23585,
    "apside": 22977,
    "Ġends": 8242,
    "centred": 25033,
    "Ġholes": 16420,
    "ustry": 18372,
    "comfortableness": 24537,
    "Ġenthusiastic": 19979,
    "Ġknots": 15021,
    "Ġprovides": 1928,
    "Ġconfronted": 23324,
    "tiest": 21094,
    "Ġfielding": 16243,
    "Ġcomparable": 24293,
    "mathematics": 26314,
    "Ġsalted": 14770,
    "ws": 7358,
    "bows": 10087,
    "Ġtingling": 15104,
    "Ġimmured": 24085,
    "Ġvicinity": 7318,
    "Ġgiants": 25970,
    "Ġmadam": 5665,
    "back": 2019,
    "onstr": 12554,
    "Ġexal": 10881,
    "sprit": 11387,
    "Ġrebellion": 26484,
    "S": 55,
    "Ġadmirers": 19703,
    "Ġbroadened": 23999,
    "aur": 15320,
    "million": 25760,
    "Ġmomentum": 1598,
    "Ġpower": 1279,
    "prep": 9767,
    "Ġremem": 4316,
    "emin": 8475,
    "Ġcaliforn": 14440,
    "Ġqu": 605,
    "Ġclair": 6271,
    "Ġengineering": 3027,
    "J": 46,
    "serv": 3937,
    "Ġdelusion": 18986,
    "arpo": 1756,
    "Ġadded": 2717,
    "Ġgrounded": 23725,
    "shortly": 12265,
    "Ġinestim": 15635,
    "Ġspeech": 4614,
    "Ġ114": 24452,
    "Ġtickets": 17102,
    "Ġ77": 24278,
    "Ġfavourable": 7962,
    "umns": 14153,
    "Ġadopted": 15190,
    "prisoner": 20556,
    "ellation": 12757,
    "Ġindec": 13934,
    "Ġtell": 1468,
    "Ġsecurely": 16813,
    "Ġuntoward": 19180,
    "Ġsqueezing": 25022,
    "Ġbeard": 11659,
    "feared": 11807,
    "conve": 14249,
    "Ġexult": 10237,
    "Ġexaggerate": 25658,
    "Ġfurnish": 9025,
    "Ġindisposed": 26299,
    "consult": 24182,
    "Ġdifferently": 10396,
    "Ġbreckinridge": 14529,
    "Ġestimation": 11222,
    "question": 5419,
    "Ġbracelets": 25511,
    "Ġrival": 12531,
    "rennial": 22356,
    "sterdam": 19105,
    "romising": 18242,
    "Ġfurthest": 22832,
    "rod": 10835,
    "entric": 11624,
    "Ġnurtured": 19764,
    "Ġrelations": 5857,
    "greatest": 10501,
    "^{": 15316,
    "eland": 11625,
    "Ġforfeit": 21789,
    "Ġpepper": 9787,
    "presents": 18811,
    "Ġexplain": 545,
    "perhaps": 4120,
    "Ġhotel": 8657,
    "thrusting": 20273,
    "94": 4808,
    "friendly": 13292,
    "drunk": 24674,
    "Ġeigenvalues": 5000,
    "etrics": 21598,
    "Ġparagraph": 17464,
    "Ġdashes": 21447,
    "Ġphys": 5493,
    "ational": 5718,
    "occurred": 13345,
    "Ġcustomary": 8676,
    "pan": 10721,
    "Ġspell": 8861,
    "Ġpursuit": 4739,
    "timidity": 25763,
    "alarms": 21518,
    "Ġalleghan": 25805,
    "Ġgoes": 3855,
    "Ġobey": 9528,
    "Ġph": 1547,
    "Ġwafted": 14506,
    "Ġnovelty": 13470,
    "Ġspeakest": 23500,
    "ifling": 15795,
    "ange": 1015,
    "Ġmiss": 1229,
    "Ġingratitude": 17478,
    "lement": 10173,
    "manifested": 20539,
    "Ġhackney": 20446,
    "ancial": 21374,
    "Ġoverladen": 22377,
    "Ġminority": 18767,
    "Ġmoored": 11797,
    "Ġhovering": 10185,
    "Ġuplifted": 11651,
    "Ġnotable": 18231,
    "Ġfrancis": 26073,
    "Ġforbe": 8462,
    "Ġbowditch": 19336,
    "portuguese": 25423,
    "Ġflounders": 23032,
    "string": 15697,
    "Ġcandelabra": 26611,
    "preserver": 18511,
    "Ġvolcanoes": 24159,
    "mayhew": 24006,
    "gained": 20894,
    "Ġimpulse": 10030,
    "fluke": 25216,
    "Ġdiscuss": 9483,
    "Ġdeadly": 5406,
    "Ġrapt": 7228,
    "upper": 11544,
    "Ġconcussion": 26310,
    "tons": 7559,
    "Ġincred": 5648,
    "concerns": 24596,
    "Ġmuskets": 17063,
    "Ġounce": 15284,
    "Ġoversampling": 20529,
    "Ġcased": 21358,
    "Ġlamps": 14805,
    "Ġtribute": 15485,
    "Ġdiscove": 16169,
    "esc": 617,
    "sound": 6803,
    "Ġhaunt": 18206,
    "Ġplu": 8805,
    "Ġpaddled": 20216,
    "Ġelijah": 9106,
    "bath": 13694,
    "erted": 6670,
    "Ġbir": 17863,
    "ssing": 3812,
    "Ġ101": 24423,
    "food": 12470,
    "abiding": 21807,
    "Ġepicures": 25889,
    "ounced": 4956,
    "ashions": 16430,
    "Ġeve": 13976,
    "Ġsweep": 8270,
    "Ġpunctually": 17148,
    "Ġepit": 18017,
    "Ġcolour": 4466,
    "ĠâĢľâĢĻ": 22269,
    "cary": 10696,
    "Ġsober": 10915,
    "Ġcherish": 10596,
    "Ġformed": 3884,
    "gradually": 12922,
    "Ġtaller": 16698,
    "batross": 9099,
    "con": 654,
    "Ġben": 1111,
    "Ġrouse": 15835,
    "Ġabsent": 7018,
    "endar": 18373,
    "Ġautomation": 13254,
    "Ġreduces": 2341,
    "Ġtails": 9907,
    "Ġextraordinary": 5415,
    "animate": 12584,
    "Ġremaining": 6191,
    "Ġvigour": 24480,
    "language": 5133,
    "Ġastonishing": 10509,
    "Ġflat": 8232,
    "brace": 16951,
    "Ġindisc": 16241,
    "asters": 8439,
    "Ġmayhap": 18721,
    "Ġbegins": 7247,
    "Ġvehemently": 26049,
    "Ġcases": 3962,
    "augh": 1783,
    "Ġpiazza": 26459,
    "Ġrush": 5929,
    "Ġspending": 10926,
    "Ġterra": 13123,
    "Ġbaptized": 25784,
    "Ġfins": 9672,
    "Ġcumul": 4179,
    "Ġobedient": 20119,
    "Ġbeauty": 3771,
    "itage": 17826,
    "Ġens": 2789,
    "cries": 17520,
    "ther": 483,
    "Ġlightly": 13090,
    "iors": 9131,
    "Ġactivation": 917,
    "Ġuncle": 3194,
    "Ġembarkation": 25138,
    "diver": 20844,
    "licted": 20969,
    "Ġwoof": 14732,
    "bons": 17496,
    "join": 12121,
    "Ġassailants": 20461,
    "llable": 6883,
    "succeeded": 15187,
    "adie": 18098,
    "earn": 10701,
    "Ġliv": 6684,
    "Ġlustrous": 20171,
    "azz": 8266,
    "Ġpurp": 2389,
    "bib": 17501,
    "Ġrevealing": 3925,
    "Ġmartin": 25446,
    "Ġattempted": 8003,
    "Åĵuvre": 25897,
    "Ġacutely": 14321,
    "Ġdisposal": 19391,
    "Ġexists": 14047,
    "Ġmelted": 19638,
    "Ġwails": 21309,
    "raising": 21645,
    "Ġindian": 4129,
    "Ġpurely": 12238,
    "estone": 18375,
    "Ġdisinclination": 22554,
    "low": 655,
    "isely": 4493,
    "Ġlovely": 4715,
    "reinforcement": 7828,
    "delights": 19718,
    "grounds": 11155,
    "Ġ183": 13245,
    "Ġvilla": 14758,
    "Ġcultivation": 17155,
    "Ġsecluded": 11997,
    "Ġinstructed": 19298,
    "Ġtahit": 10758,
    "aze": 10081,
    "Ġpremeditated": 22249,
    "Ġcorpor": 23058,
    "Ġbaron": 19347,
    "chooses": 23688,
    "Ġvisions": 12987,
    "Ġgamy": 18009,
    "Ġindignantly": 16948,
    "legs": 13188,
    "Ġlift": 8817,
    "surf": 24226,
    "groom": 8746,
    "Ġcanvassed": 19949,
    "attempts": 17200,
    "uff": 2733,
    "Ġassaults": 15168,
    "Ġpau": 17918,
    "cousin": 10658,
    "Ġdeception": 18152,
    "Ġcables": 15569,
    "Ġreaped": 18040,
    "Ġstark": 7392,
    "orrow": 2917,
    "Ġvariance": 1170,
    "Ġbow": 3063,
    "killer": 20489,
    "Ġ99": 10750,
    "Ġbuttoned": 25379,
    "Ġvalu": 1441,
    "Ġguessed": 11287,
    "misfortunes": 16767,
    "pie": 21023,
    "Ġcontent": 5038,
    "Ġduly": 13357,
    "Ġinstinctively": 13466,
    "yours": 7697,
    "Ġpeering": 8540,
    "income": 15496,
    "Ġsw": 1359,
    "Ġswinging": 7451,
    "pursuit": 20353,
    "Ġfollowing": 4062,
    "Ġminimizing": 3465,
    "nikin": 23256,
    "Ġtattooings": 24914,
    "Ġannihilated": 20266,
    "Ġinfinitely": 8969,
    "Ġrusty": 14977,
    "hyena": 24267,
    "Ġche": 1763,
    "fellows": 12280,
    ".âĢĿ": 464,
    "Ġcolumns": 14383,
    "Ġsuddenly": 2647,
    "Ġdens": 21437,
    "mir": 20976,
    "Ġwel": 4530,
    "ific": 492,
    "Ġquery": 2482,
    "pat": 10122,
    "/*": 10077,
    "pretending": 17048,
    "instinct": 19558,
    "Ġfounded": 8564,
    "Ġexhibit": 14969,
    "Ġ103": 24425,
    "ber": 905,
    "idge": 14020,
    "iage": 17582,
    "Ġrounded": 14447,
    "Ġmotives": 7487,
    "Ġperceptibly": 25830,
    "Ġuncommonly": 7762,
    "Ġinn": 4594,
    "Ġsink": 4345,
    "Ġpropriety": 10016,
    "yielded": 25766,
    "Ġinvaluable": 10189,
    "Ġknitted": 19606,
    "Ġchasing": 11759,
    "Ġtranced": 18433,
    "Ġeffusions": 18552,
    "Ġsuck": 15874,
    "footed": 19706,
    "Ġdecapitated": 20631,
    "Ġvoy": 2621,
    "Ġreal": 1632,
    "Ġdivulged": 16660,
    "lin": 9612,
    "Ġdoubting": 13106,
    "Ġend": 1473,
    "smoke": 17232,
    "unfort": 21890,
    "pronounce": 25204,
    "igations": 18053,
    "Ġaccur": 3737,
    "Ġdreadfully": 7728,
    "estate": 12828,
    "Ġserm": 9642,
    "Ġuneasy": 8668,
    "national": 21011,
    "Ġelig": 9784,
    "stretch": 13982,
    "ividual": 5466,
    "aloes": 21515,
    "Ġscru": 8196,
    "willingness": 24768,
    "ier": 1138,
    "Ġinvader": 23492,
    "Ġbab": 5294,
    "Ġestablish": 9552,
    "arted": 2202,
    "ivility": 12790,
    "Ġwhitney": 11378,
    "Ġdestitute": 14574,
    "landsmen": 25075,
    "Ġpermanently": 25483,
    "Ġplaint": 10333,
    "âĢĶâĢľ": 2971,
    "Ġaltogether": 4836,
    "ropy": 1103,
    "dost": 14542,
    "moby": 8542,
    "Ġelectric": 15206,
    "irregular": 21925,
    "fortunately": 9458,
    "Ġfulfil": 9560,
    "Ġattain": 12754,
    "Ġdialogue": 12410,
    "browed": 25904,
    "Ġpreyed": 18377,
    "Ġxlix": 25870,
    "Ġthrust": 5088,
    "Ġcordage": 19695,
    "Ġtarpaulin": 26167,
    "ib": 1233,
    "Ġsuperst": 7706,
    "Ġundertaking": 8581,
    "Ġthings": 1963,
    "Ġhighly": 4849,
    "across": 10332,
    "Ġ16": 7930,
    "wrote": 11551,
    "bee": 16050,
    "Ġbottles": 16582,
    "restraint": 18992,
    "Ġpain": 2301,
    "eaten": 20357,
    "Ġfoe": 7682,
    "Ġevangelical": 25515,
    "Ġzodiac": 16188,
    "secondly": 16992,
    "Ġse": 401,
    "lie": 12489,
    "Ġhollowly": 24538,
    "icating": 15667,
    "Ġascertained": 25310,
    "Ġcontempt": 6277,
    "departure": 15246,
    "Ġarmitage": 23596,
    "mons": 17609,
    "Ġdwelling": 7325,
    "ault": 2305,
    "labour": 23920,
    "particip": 23631,
    "umps": 6319,
    "Ġdepth": 2441,
    "set": 3936,
    "murdered": 12208,
    "Ġconverts": 2805,
    "Ġduc": 4701,
    "Ġsubsequently": 16174,
    "Ġlaw": 3655,
    "Ġsp": 456,
    "Ġphotograph": 6304,
    "Ġcongenial": 12417,
    "tha": 15836,
    "Ġcombines": 1166,
    "pigs": 17150,
    "Ġignor": 4012,
    "Ġcorpora": 26590,
    "heredit": 21222,
    "malicious": 19915,
    "mai": 22929,
    "Ġveil": 7938,
    "Ġconceived": 8153,
    "Ġprodigious": 8058,
    "cripp": 20832,
    "tastes": 21109,
    "Ġaudible": 19894,
    "Ġbod": 4585,
    "ignant": 11133,
    "welt": 12527,
    "thes": 7393,
    "base": 20790,
    "Ġclutch": 15063,
    "Ġoccurs": 1855,
    "ĠĠĠĠĠĠĠĠĠĠĠĠĠĠĠĠĠĠĠĠĠĠĠĠĠĠĠĠĠĠĠĠĠĠĠĠ": 23680,
    "aced": 2408,
    "Ġuncertain": 4067,
    "ieged": 22595,
    "Ġconquest": 15760,
    "kington": 11207,
    "une": 2787,
    "Ġcrushing": 20191,
    "Ġparent": 14653,
    "gered": 9285,
    "Ġgreedily": 18978,
    "beware": 16052,
    "deprived": 19911,
    "Ġpatients": 24823,
    "Ġadmeasure": 18303,
    "2": 22,
    "Ġrushing": 7404,
    "Ġelsewhere": 7715,
    "Ġshoulders": 5568,
    "Ġuns": 15850,
    "Ġstalked": 20442,
    "Ġiv": 4044,
    "Ġanalysis": 1961,
    "Ġreproached": 24905,
    "Ġolfactories": 26181,
    "alleled": 14423,
    "wled": 15464,
    "Ġnobler": 14179,
    "Ġemerged": 8690,
    "itiously": 13877,
    "til": 17680,
    "cket": 3688,
    "Ġpromising": 10407,
    "](": 11471,
    "encoun": 12304,
    "urance": 10861,
    "Ġeyes": 1334,
    "Ġacknowledges": 24703,
    "anzas": 17850,
    "enjoyment": 17266,
    "dered": 2475,
    "Ġtooth": 9202,
    "zz": 4295,
    "attoo": 6811,
    "Ġhig": 754,
    "Ġhelps": 9376,
    "qualities": 25058,
    "Ġsoldiers": 8692,
    "moored": 22721,
    "Ġpronounce": 16976,
    "Ġexperiments": 23021,
    "Ġinhuman": 13935,
    "Ġcanada": 22180,
    "knell": 24567,
    "arer": 3969,
    "ĠĠĠĠĠĠĠĠĠĠĠĠĠĠĠĠĠĠĠĠĠĠĠĠĠĠĠĠĠĠĠĠĠĠĠĠĠĠĠĠĠĠĠĠĠĠĠĠĠĠĠĠĠ": 20053,
    "Ġaghast": 16061,
    "Ġarguments": 8039,
    "Ġringing": 13339,
    "Ġwhim": 14005,
    "rolled": 9065,
    "erred": 6377,
    "hroom": 12483,
    "Ï": 144,
    "Ġstilly": 25983,
    "frame": 17124,
    "Ġpaused": 5417,
    "Ġteased": 18819,
    "Ġundone": 24129,
    "urday": 14001,
    "Ġber": 5700,
    "angle": 22116,
    "Ġwhirling": 12255,
    "Ġrumors": 11326,
    "untarily": 6314,
    "disgraceful": 26086,
    "Ġliving": 3065,
    "lessness": 5321,
    "ires": 6042,
    "Ġmischief": 8547,
    "Ġincreas": 1694,
    "Ġcombined": 8554,
    "Ġvalued": 11939,
    "Ġinvest": 4980,
    "vessels": 10632,
    "Ġstrand": 11833,
    "Ġsadly": 7305,
    "hearth": 15508,
    "Ġhumaneval": 25591,
    "Ġsab": 10766,
    "Ġoffices": 14341,
    "Ġyarns": 15207,
    "Ġwallowed": 24057,
    "oundered": 14170,
    "Ġvirgin": 7331,
    "Ġhereditarily": 25238,
    "Ġpath": 2112,
    "Ġdrug": 11415,
    "Ġregretted": 13407,
    "Ġass": 1444,
    "Ġembraces": 19885,
    "declined": 25186,
    "Ġangels": 11182,
    "Ġjelly": 22315,
    "believe": 8308,
    "Ġquieted": 23856,
    "dire": 15347,
    "Ġcountless": 16396,
    "Ġintroducing": 11981,
    "Ġprofound": 5501,
    "superstitiousness": 25517,
    "Ġplague": 11829,
    "Ġdischarged": 15232,
    "whar": 15941,
    "Ġcharacter": 2795,
    "Ġguitar": 16281,
    "Ġledger": 19418,
    "Ġcor": 1321,
    "leagues": 21385,
    "Ġgrowl": 16550,
    "Ġleviathanic": 12088,
    "Ġchewed": 16386,
    "oro": 21407,
    "Ġresnet": 5476,
    "Ġnaturalists": 10370,
    "Ġpreserved": 9271,
    "Ġsympat": 13347,
    "pattern": 4339,
    "Ġelixir": 26565,
    "war": 6806,
    "Ġkn": 4549,
    "Ġfain": 5811,
    "inspect": 11563,
    "dial": 20838,
    "Ġhospitality": 13517,
    "van": 7816,
    "Ġpolic": 13168,
    "Ġherring": 14132,
    "ently": 1611,
    "Ġadhering": 14145,
    "satisfy": 16900,
    "hardly": 6492,
    "Ġrank": 6260,
    "compar": 14365,
    "berries": 22763,
    "Ġconstant": 6311,
    "whether": 5323,
    "fooled": 24433,
    "embedding": 20370,
    "ispiece": 19741,
    "bye": 5953,
    "Ġsubur": 12963,
    "Ġrecess": 10851,
    "Ġwoe": 4798,
    "iries": 18179,
    "osures": 22275,
    "ust": 496,
    "encyclopÃ¦dia": 16674,
    "Ġoctavo": 15175,
    "Ġapply": 1778,
    "chased": 18051,
    "Ġlest": 6396,
    "Ġbias": 1192,
    "Ġintrospective": 20614,
    "Ġgeneration": 2139,
    "Ġshrieking": 24771,
    "Ġcaptains": 7458,
    "uding": 16154,
    "Ġfade": 21420,
    "lovel": 22528,
    "Ġtumbling": 13831,
    "Ġb": 281,
    "Ġpace": 9193,
    "because": 4926,
    "chants": 21705,
    "tremendous": 20686,
    "Ġbarriers": 23807,
    "Ġdedicated": 19203,
    "Ġgenerating": 12855,
    "Ġnoisy": 13325,
    "Ġunfolded": 10644,
    "Ġdestroying": 14740,
    "Ġunmo": 12780,
    "Ġpremises": 10495,
    "Ġunusually": 15860,
    "stump": 21660,
    "_?âĢĿ": 15317,
    "Ġ72": 19628,
    "Ġhumility": 12992,
    "Ġbolted": 12251,
    "Ġapartments": 19631,
    "seriously": 19015,
    "Ġseek": 4512,
    "recollected": 25358,
    "Ġtenderness": 12222,
    "achine": 602,
    "Ġ66": 24382,
    "wishes": 13813,
    "Ġsteepest": 3090,
    "etts": 12668,
    "ze": 1352,
    "Ġshipwrecked": 25696,
    "Ġfeature": 750,
    "Ġshyness": 20319,
    "Ġthence": 8888,
    "stall": 21653,
    "zed": 8107,
    "compan": 7304,
    "Ġthoroughfare": 16953,
    "urous": 10220,
    "Ġdisappearing": 22551,
    "Ġscratch": 25573,
    "heed": 15507,
    "grief": 13735,
    "ridden": 24375,
    "Ġgait": 13338,
    "Ġlabour": 7277,
    "unwholesome": 26506,
    "xi": 17720,
    "Ġstanders": 19028,
    "nson": 16105,
    "Ġbehaviors": 13263,
    "accurately": 25871,
    "Ġconciliating": 19061,
    "gypt": 8265,
    "rudential": 16721,
    "inks": 6873,
    "Ġsalmon": 24077,
    "Ġprincipal": 6497,
    "uarded": 21118,
    "Ġsatir": 18807,
    "Ġcontrols": 1732,
    "Ġul": 6831,
    "trifling": 19430,
    "Ġch": 512,
    "Ġsplash": 16561,
    "Ġgene": 15684,
    "ha": 3981,
    "Ġresist": 7920,
    "Ġviii": 16425,
    "Ġtrumpet": 9582,
    "Ġglitter": 25139,
    "Ġunce": 11716,
    "Ġmeditating": 20056,
    "securer": 25612,
    "Åĵ": 10749,
    "Ġmeditations": 25029,
    "Ġ11": 5322,
    "is": 280,
    "Ġnation": 12655,
    "10": 17482,
    "Ġcomplaints": 12271,
    "Ġarithmetic": 18354,
    "anct": 21370,
    "Ġmetaphysical": 26080,
    "85": 13686,
    "continually": 11307,
    "N": 50,
    "Ġcotton": 17389,
    "Ġtune": 17735,
    "Ġdiver": 2532,
    "solitude": 23313,
    "recovered": 19801,
    "Ġcompar": 4776,
    "Ġhoneymoon": 25654,
    "Ġimprobable": 9801,
    "obtained": 23111,
    "Ġfactor": 19026,
    "coiled": 16499,
    "Ġpoem": 22606,
    "Ġconsisted": 10426,
    "inn": 5367,
    "Ġreckon": 19883,
    "Ġislands": 6769,
    "Ġwhite": 1538,
    "ative": 734,
    "Ġconstraints": 2741,
    "Ġfamiliarity": 16740,
    "strade": 5068,
    "ery": 1268,
    "blast": 9596,
    "Ġpaus": 4302,
    "odious": 21826,
    "assed": 6422,
    "Ġwrites": 23216,
    "Ġfobbing": 26450,
    "ensical": 18581,
    "Ġscenari": 22307,
    "Ġearthquake": 14635,
    "Ġhval": 21503,
    "monster": 8597,
    "ances": 1337,
    "Ġschedu": 1822,
    "Ġembrace": 16998,
    "flame": 16649,
    "whilst": 18383,
    "Ġshelter": 17016,
    "Ġtraverse": 18906,
    "feeder": 12367,
    "image": 9695,
    "aternity": 21278,
    "Ġpale": 4535,
    "Ġperemptory": 25749,
    "oriously": 17884,
    "ke": 429,
    "Ġenlar": 15813,
    "Ġfuel": 13910,
    "mare": 17608,
    "circuit": 24202,
    "Ġhorsham": 10413,
    "Ġbrim": 12983,
    "Ġstrides": 22635,
    "wander": 17719,
    "Ġjunk": 15967,
    "Ġhundred": 2694,
    "Ġanimate": 23438,
    "jumped": 20260,
    "Ġgirdled": 19174,
    "isted": 3298,
    "Ġunquestionable": 26232,
    "Ġcentrally": 23845,
    "Ġindistinct": 17419,
    "thing": 1481,
    "Ġpeleg": 3740,
    "Ġsample": 3179,
    "hed": 668,
    "Ġbowls": 23783,
    "countenances": 24164,
    "Ġmultiplied": 23704,
    "Ġboon": 22655,
    "versed": 9830,
    "ine": 404,
    "Ġincivility": 18586,
    "Ġ116": 24454,
    "furn": 10097,
    "Ġgold": 3277,
    "deserts": 25605,
    "Ġperils": 6275,
    "Ġsuitable": 18289,
    "ace": 714,
    "Ġfut": 15586,
    "inion": 2876,
    "tort": 17684,
    "winds": 10529,
    "Ġprivilege": 11424,
    "Ġfern": 21419,
    "infernal": 24677,
    "Ġenlist": 21949,
    "Ġencamp": 22818,
    "Ġdispirited": 23895,
    "morning": 4863,
    "Ġdat": 495,
    "Ġirene": 8449,
    "Ġincoherent": 17411,
    "Ġabrupt": 9744,
    "_)âĢĶ": 20158,
    "masters": 16844,
    "Ġgesture": 11404,
    "indirectly": 18449,
    "Ġappe": 1540,
    "Ġnewton": 3534,
    "Ġwherever": 8529,
    "Ġdundee": 17005,
    "Ġcocaine": 20734,
    "ugging": 23307,
    "Ġpierce": 17043,
    "Ġcosine": 2369,
    "Ġswift": 3669,
    "Ġweb": 9249,
    "dishonourable": 26376,
    "arken": 18681,
    "sided": 17673,
    "Ġripe": 13268,
    "Ġanim": 2111,
    "Ġafter": 869,
    "Ġwretchedly": 19521,
    "Ġearly": 2077,
    "track": 24347,
    "Ġclouds": 5777,
    "Ġpenet": 6892,
    "writes": 4990,
    "Ġcabs": 23658,
    "Ġhousemaid": 14472,
    "Ġsucceed": 4548,
    "gryphon": 15370,
    "interview": 19311,
    "Ġinestimable": 17452,
    "commend": 20005,
    "Ġarrows": 18351,
    "Ġbizarre": 17881,
    "Ġmoist": 9294,
    "Ġforbear": 17131,
    "po": 1141,
    "Ġprimal": 17115,
    "?âĢĻ": 2642,
    "Ġdismantled": 20230,
    "Ġposted": 16735,
    "Ġfireplace": 13152,
    "his": 1413,
    "Ġadmires": 19702,
    "Ġdeficiency": 14412,
    "Ġtelling": 5749,
    "embow": 21943,
    "refusal": 24749,
    "curiosity": 8629,
    "Ġdut": 2988,
    "Ġrewarding": 13443,
    "clothed": 19753,
    "hereditary": 26429,
    "Ġubiquitous": 26206,
    "Ġdestro": 3722,
    "vitality": 20492,
    "Ġreduced": 11929,
    "ileries": 18068,
    "cre": 4250,
    "Ġaccompaniments": 24501,
    "ements": 11113,
    "oysius": 14373,
    "ĠâĢľ_": 6701,
    "Ġwestward": 24403,
    "appe": 2945,
    "Ġslain": 8959,
    "longbourn": 9900,
    "hitherto": 17291,
    "ort": 522,
    "Ġegress": 21634,
    "speech": 10672,
    "Ġprofession": 6211,
    "Ġnursing": 12220,
    "partiality": 13167,
    "penet": 11074,
    "mysteries": 26060,
    "Ġineff": 12641,
    "Ġfishers": 19369,
    "Ġfanciful": 24800,
    "am": 369,
    "Ġlet": 1115,
    "landed": 18969,
    "Ġdelicately": 24137,
    "Ġhanover": 20600,
    "leagued": 26444,
    "apped": 5396,
    "eon": 8736,
    "itude": 1418,
    "Ġpapered": 20145,
    "Ġtackles": 8053,
    "Ġisolated": 13564,
    "bring": 9111,
    "Ġransacked": 26514,
    "invincible": 25105,
    "Ġdissolved": 18567,
    "do": 1997,
    "Ġinches": 5850,
    "airing": 16190,
    "Ġdumplings": 15202,
    "Ġaccumulates": 2890,
    "Ġtren": 17731,
    "ulence": 15778,
    "before": 3115,
    "city": 15338,
    "Ġbegg": 16264,
    "Ġthom": 21529,
    "Ġenormity": 19712,
    "Ġbarber": 23802,
    "beam": 16051,
    "Ġconvincing": 19320,
    "eck": 20857,
    "Ġtwist": 11856,
    "Ġcarn": 17831,
    "bweb": 20804,
    "Ġunfrequent": 24121,
    "cares": 24323,
    "Ġbadge": 16691,
    "Ġmacey": 12570,
    "meadow": 18693,
    "engthen": 14465,
    "cour": 4484,
    "Ġalpha": 13594,
    "ages": 828,
    "Ġprim": 8248,
    "rigging": 20018,
    "Ġoppression": 23667,
    "field": 3074,
    "Ġso": 434,
    "Ġitem": 12709,
    "Ġasiatic": 20443,
    "Ġmoluccas": 25638,
    "ĠvertebrÃ¦": 11440,
    "icted": 5941,
    "Ġprom": 1528,
    "leviathan": 7787,
    "Ġprot": 3850,
    "Ġpew": 9324,
    "R": 54,
    "Ġpermission": 9288,
    "Ġgrasped": 8036,
    "acquainted": 7316,
    "spring": 7234,
    "Ġgross": 11629,
    "Ġsmokes": 22577,
    "Ġwilt": 9652,
    "weave": 22702,
    "âĢľâĢĶ": 10876,
    "Ġstamped": 13531,
    "Ġgreat": 896,
    "finger": 10099,
    "born": 7543,
    "Ġmeets": 7398,
    "]": 65,
    "nd": 11509,
    "fellow": 6796,
    "has": 4014,
    "Ġinsurg": 23695,
    "Ġimbalanced": 18344,
    "likeness": 19493,
    "capting": 24054,
    "pane": 10126,
    "Ġmanxman": 9574,
    "ĠĠĠĠĠĠĠĠĠĠĠĠĠĠĠĠĠĠĠĠĠĠĠĠĠĠĠĠĠĠĠĠĠĠĠĠĠĠĠĠĠĠĠĠĠĠĠĠĠĠĠ": 20052,
    "benevolent": 15245,
    "Ġbigness": 19775,
    "uger": 21116,
    "Ġdu": 4588,
    "Ġtrick": 7022,
    "Ġblessing": 11268,
    "Ġrobots": 11085,
    "Ġteasing": 11896,
    "Ġgrowled": 19297,
    "Ġmelbourne": 24303,
    "Ġencaps": 12969,
    "Ġire": 12677,
    "Ġengraving": 17087,
    "Ġaids": 12235,
    "etch": 9214,
    "hercules": 22219,
    "Ġnegatived": 23065,
    "Ġspies": 22136,
    "brad": 20793,
    "Ġyears": 1890,
    "vels": 5435,
    "ills": 1627,
    "Ġcolumn": 9337,
    "Ġstraighten": 24018,
    "data": 2295,
    "covery": 11176,
    "Ġalcoves": 26495,
    "lances": 15395,
    "Ġprofited": 19209,
    "Ġriverside": 25261,
    "Ġbended": 21397,
    "journey": 8751,
    "cleanliness": 25882,
    "scotland": 20542,
    "Ġexcite": 11972,
    "Ġmaty": 22927,
    "Ġshaved": 22015,
    "smooth": 20262,
    "Ġforemast": 12010,
    "Ġconversation": 3330,
    "Ġreadily": 5257,
    "Ġdisent": 22541,
    "Ġvertu": 23904,
    "Ġpatronage": 17060,
    "Ġreefed": 20315,
    "```": 25903,
    "steel": 8303,
    "rrh": 26154,
    "block": 11475,
    "presume": 25679,
    "Ġthy": 2516,
    "Ġprice": 10410,
    "ĠĠĠĠĠĠĠĠĠĠĠĠĠĠ": 22581,
    "mpt": 6658,
    "Ġgaze": 6935,
    "Ġalexander": 17435,
    "ugal": 19035,
    "afric": 19194,
    "herfield": 3631,
    "lour": 15392,
    "hastened": 16855,
    "Ġancestry": 25650,
    "Ġemotions": 8975,
    "Ġintroduces": 3268,
    "Ġhigher": 1819,
    "started": 10849,
    "Ġvows": 15821,
    "Ġconfeder": 25716,
    "Ġent": 904,
    "Ġbitten": 21402,
    "Ġberkshire": 16892,
    "Ġgrain": 15844,
    "Ġchambers": 16810,
    "plish": 18217,
    "now": 548,
    "Ġunharmed": 15151,
    "Ġsoothing": 8177,
    "mosphere": 10049,
    "Ġelder": 7226,
    "Ġproceeding": 9911,
    "Ġbreast": 8974,
    "Ġcontemptuous": 24691,
    "Ġmoments": 4850,
    "Ġrepeating": 11217,
    "bearers": 18534,
    "Ġwounded": 8664,
    "Ġlvi": 21566,
    "Ġstratag": 26038,
    "Ġep": 7386,
    "Ġrepul": 16421,
    "mic": 12495,
    "Ġwhaler": 7520,
    "Ġdivert": 23609,
    "Ġpres": 9740,
    "unguarded": 23683,
    "foreign": 18556,
    "Ġlouisa": 13551,
    "Ġbrute": 8933,
    "Ġloftiest": 16882,
    "Ġshrinking": 14819,
    "mother": 5483,
    "Ġposit": 1304,
    "Ġmeta": 3616,
    "Ġunconcern": 14123,
    "subjects": 19889,
    "Ġmari": 6817,
    "Ġbanking": 19647,
    "Ġcaprice": 14585,
    "Ġleyden": 21761,
    "aciousness": 18621,
    "imodal": 17457,
    "Ġstir": 5826,
    "dimensional": 2346,
    "Ġmadly": 16498,
    "Ġapparent": 5469,
    "Ġnind": 17960,
    "Ġem": 1922,
    "Ġ107": 24429,
    "Ġadvisable": 11447,
    "Ġsons": 10770,
    "Ġze": 8551,
    "Ġbetween": 794,
    "wheel": 22885,
    "miles": 10717,
    "Ġslam": 13068,
    "Ġthirteen": 15286,
    "Ġlayer": 1010,
    "practised": 20261,
    "Ġunpitying": 25669,
    "telescope": 26572,
    "investigations": 25542,
    "Ġpoetic": 17111,
    "Ġtorrid": 25048,
    "arity": 1300,
    "Ġbugs": 13653,
    "apprehens": 17417,
    "Ġ1778": 25738,
    "Ġliking": 23607,
    "Ġplanet": 14761,
    "Ġcouples": 16862,
    "bowl": 14905,
    "Ġtotally": 9480,
    "Ġsupplement": 23020,
    "Ġdome": 15600,
    "gration": 9127,
    "ping": 9624,
    "Ġcaged": 21364,
    "Ġmeeting": 5197,
    "opard": 9300,
    "silent": 9979,
    "Ġwarbling": 26178,
    "Ġhonor": 5666,
    "approb": 11046,
    "gledy": 25413,
    "Ġsnail": 19312,
    "Ġnobleman": 19407,
    "justice": 7961,
    "stretched": 10213,
    "Ġpacked": 9985,
    "Ġmorrow": 9352,
    "Ġdisliked": 12898,
    "Ġscratching": 20382,
    "pra": 15417,
    "wl": 17712,
    "Ġsn": 2950,
    "Ġwhirlp": 16971,
    "Ġpoorly": 9860,
    "Ġrotation": 25484,
    "Ġdungeon": 17004,
    "ropout": 1319,
    "afer": 17491,
    "Ġretiring": 16293,
    "Ġruff": 14356,
    "_.âĢĻâĢĿ": 17489,
    "Ġhermits": 22086,
    "Ġreality": 7062,
    "Ġadds": 1807,
    "astrop": 3317,
    "Ġsnatches": 16556,
    "Ġspermaceti": 8973,
    "Ġproceeded": 5339,
    "Ġbreathed": 11223,
    "whose": 6856,
    "softened": 20423,
    "Ġpredict": 684,
    "autumn": 23359,
    "Ġruinous": 24649,
    "Ġgros": 14840,
    "Ġcleaving": 23197,
    "proble": 9402,
    "Ġdress": 4020,
    "Ġuncivilized": 25507,
    "kitchen": 17594,
    "Ġsurmis": 23478,
    "thee": 9699,
    "sir": 5003,
    "Ġloite": 22123,
    "Ġinvariable": 13462,
    "Ġtraced": 10391,
    "Ġstig": 14008,
    "old": 801,
    "Ġforces": 12710,
    "Ġstarbuck": 2194,
    "Ġlodges": 19515,
    "doors": 19109,
    "foolish": 12353,
    "Ġoverfitting": 1542,
    "capitals": 25096,
    "Ġi": 312,
    "Ġshort": 2226,
    "Ġcorners": 18888,
    "gallant": 7783,
    "Ġ86": 24479,
    "Ġmaid": 5290,
    "Ġhandsomest": 20347,
    "Ġwindibank": 7260,
    "Ġbefriend": 18091,
    "relatively": 24028,
    "inkles": 7428,
    "Ġmoodily": 19847,
    "Ġlocker": 16920,
    "Ġunmindful": 22078,
    "Ġfaithfulness": 24460,
    "Ġhark": 8433,
    "Ġclank": 15981,
    "Ġtrouble": 3691,
    "Ġmustard": 12937,
    "complete": 15047,
    "Ġcrowded": 8014,
    "hunsford": 24400,
    "archical": 1925,
    "continue": 16871,
    "everlasting": 18785,
    "inable": 11560,
    "izure": 21848,
    "iantly": 13743,
    "grieved": 17326,
    "ma": 1151,
    "Ġlover": 7195,
    "Ġexcessively": 9449,
    "analy": 17848,
    "Ġhaunted": 10261,
    "Ġdiscoloured": 15264,
    "Ġflee": 7084,
    "abouts": 9460,
    "Ġlard": 13953,
    "Ġmournful": 12342,
    "Ġdeceiving": 21852,
    "uendoes": 26417,
    "ckinridge": 11724,
    "Ġread": 1448,
    "Ġmaj": 3927,
    "bedded": 12449,
    "Ġseedy": 21968,
    "Ġinvention": 19966,
    "grandfather": 25025,
    "Ġwhisker": 23949,
    "Ġdiversion": 17207,
    "Ġsk": 960,
    "wonders": 17153,
    "Ġalbert": 12714,
    "Ġreckoned": 24757,
    "Ġsnow": 3707,
    "positive": 20581,
    "becoming": 18529,
    "Ġdaring": 8124,
    "squall": 13526,
    "Ġcirc": 1987,
    "Ġdissu": 18563,
    "profitable": 17078,
    "retaining": 21258,
    "Ġappro": 657,
    "ronted": 14891,
    "Ġlabels": 3286,
    "bag": 7542,
    "Ġghosts": 12239,
    "below": 12129,
    "jet": 13746,
    "Ġextremely": 2669,
    "Ġdesp": 3217,
    "dw": 3333,
    "Ġsacrificed": 17433,
    "extra": 8223,
    "Ġassume": 10523,
    "hold": 3982,
    "hamlet": 23278,
    "entropy": 1437,
    "know": 2316,
    "season": 14040,
    "Ġafrica": 12351,
    "Ġtimidly": 11343,
    "Ġsurprised": 3833,
    "Ġseren": 7402,
    "Ġspoils": 24818,
    "kilt": 4870,
    "own": 746,
    "Ġshy": 10907,
    "and": 372,
    "Ġkent": 6696,
    "Ġnourishment": 15204,
    "Ġlothario": 26195,
    "Ġmagnet": 10397,
    "conclusions": 25681,
    "senses": 25038,
    "profess": 10641,
    "Ġwhelmed": 26009,
    "Ġencouragement": 13051,
    "untering": 15788,
    "Ġof": 298,
    "Ġdrove": 4986,
    "gris": 8264,
    "icle": 10838,
    "proves": 23410,
    "Ġwall": 3845,
    "Ġwhittling": 20713,
    "reply": 19738,
    "Ġtemperate": 16176,
    "Ġindomitableness": 26581,
    "emed": 3380,
    "Ġmur": 2491,
    "paused": 17384,
    "Ġposterity": 17413,
    "Ġcocoa": 25492,
    "í": 174,
    "Ġmock": 3692,
    "difficult": 10064,
    "happ": 3106,
    "Ġunlo": 22025,
    "atig": 13851,
    "Ġfoul": 7162,
    "Ġsiberia": 26171,
    "umes": 10921,
    "Ġincommun": 25319,
    "wonder": 6372,
    "bey": 10321,
    "Ġconceals": 23916,
    "stock": 13231,
    "ole": 9622,
    "profound": 16438,
    "Ġaccidents": 10303,
    "Ġisa": 14031,
    "Ġafar": 14302,
    "agitation": 14074,
    "Ġexamination": 8007,
    "nails": 17623,
    "Ġfitly": 24013,
    "Ġepis": 19995,
    "pleasures": 24061,
    "Ġunpleasant": 7193,
    "mense": 4785,
    "Ġpunchbowl": 20245,
    "ras": 21049,
    "dragged": 16619,
    "earthquakes": 24738,
    "monograph": 23542,
    "uish": 5434,
    "estion": 18374,
    "Ġinnoc": 3797,
    "plex": 705,
    "Ġlifts": 25369,
    "Ġviol": 2070,
    "apse": 14204,
    "Ġproperty": 6451,
    "Ġrefres": 14344,
    "itate": 6673,
    "Ġ2": 2931,
    "oing": 15411,
    "forced": 11035,
    "Ġ112": 24451,
    "Ġebony": 18019,
    "ans": 458,
    "Ġformidable": 8224,
    "Ġtempor": 2363,
    "Ġstrikes": 13189,
    "Ġpitiless": 19403,
    "ard": 465,
    "c": 71,
    "Ġeddy": 13552,
    "facts": 19855,
    "angling": 14146,
    "Ġnewfound": 22950,
    "pick": 17643,
    "Ġconversations": 9435,
    "ret": 1475,
    "Ġfruits": 17128,
    "Ġarose": 7363,
    "attering": 7421,
    "cons": 4312,
    "ego": 4035,
    "Ġrepeatedly": 9027,
    "Ġgravel": 14108,
    "Ġunfav": 14802,
    "Ġbusks": 23356,
    "Ġparallel": 1415,
    "Ġfancying": 12120,
    "Ġsixty": 7725,
    "Ġmirror": 12384,
    "Ġcannon": 14161,
    "Ġengineer": 11980,
    "prot": 6903,
    "Ġsake": 4090,
    "Ġascribed": 14869,
    "robe": 15654,
    "rail": 10212,
    "henomena": 20285,
    "restored": 18991,
    "Ġindication": 22970,
    "Ġkl": 2737,
    "Ġbubblingly": 25641,
    "Ġtribe": 10755,
    "ougher": 18290,
    "Ġincommunicable": 26620,
    "Ġtent": 15477,
    "endeavour": 17038,
    "Ġcultured": 25169,
    "Ġweedy": 15806,
    "Ġinmost": 17941,
    "Ġdeclaring": 19435,
    "Ġslyness": 25280,
    "Ġthirt": 13945,
    "Ġtrampling": 25502,
    "Ġwashington": 17212,
    "Ġfar": 1451,
    "Ġquarrel": 7295,
    "Ġkeen": 4617,
    "ouse": 1193,
    "Ġleap": 5827,
    "Ġdon": 1609,
    "Ġherb": 15870,
    "Ġunsh": 14121,
    "Ġinduced": 8677,
    "Ġbedroom": 7280,
    "Ġson": 2983,
    "ginger": 13170,
    "Ġeigen": 4885,
    "Ġsailed": 4892,
    "Ġalgorith": 561,
    "Ġcylinders": 25953,
    "Ġdusty": 14938,
    "uniform": 18167,
    "Ġoaths": 13528,
    "this": 1438,
    "Ġshouldn": 14332,
    "Ġslope": 14468,
    "sion": 8096,
    "ortunity": 4409,
    "Ġcelebrated": 13600,
    "irectly": 6943,
    "Ġergo": 25045,
    "work": 1806,
    "Ġconqueror": 25806,
    "Ġspotted": 12146,
    "otherwise": 7673,
    "lifeless": 24326,
    "Ġbedfellow": 16450,
    "Ġinjurious": 24285,
    "consuming": 25683,
    "stove": 21659,
    "Ġfragrant": 13109,
    "Ġerrone": 14439,
    "Ġunrest": 11719,
    "Ġsomnambul": 26586,
    "Ġnugent": 26466,
    "ction": 502,
    "rous": 3752,
    "Ġbowed": 6245,
    "Ġpalp": 11255,
    "repid": 11569,
    "secur": 18135,
    "corrupt": 14909,
    "Ġvitality": 15184,
    "Ġstraining": 11332,
    "Ġengravings": 15078,
    "Ġfocus": 4236,
    "interested": 9515,
    "Ġfirmly": 8016,
    "splash": 25223,
    "me": 882,
    "Ġconstraint": 16525,
    "Ġwhereby": 11842,
    "Ġgentleman": 3042,
    "finer": 17555,
    "compose": 24047,
    "Ġhall": 4184,
    "Ġroarings": 25316,
    "Ġtiller": 8971,
    "Ġmultiplicity": 19289,
    "Ġmultitude": 9334,
    "representing": 25285,
    "Ġbaw": 15580,
    "Ġintended": 5550,
    "Ġpoison": 7221,
    "Ġcellars": 24680,
    "wife": 8104,
    "meth": 11508,
    "Ġgoverning": 2796,
    "Ġreceptive": 1562,
    ";âĢĿâĢĶ": 20773,
    "Ġwife": 2590,
    "ada": 14017,
    "Ġnodding": 23353,
    "careful": 14880,
    "Ġliveliest": 24788,
    "Ġaquiline": 26169,
    "surv": 24227,
    "Ġassurances": 10006,
    "Ġyield": 5097,
    "Ġseriously": 7074,
    "Ġdenial": 13220,
    "Ġconcil": 23339,
    "Ġinsincere": 26608,
    "Ġpalsy": 25788,
    "Ġhaul": 11697,
    "nantucketer": 24990,
    "Ġsho": 2245,
    "alleging": 22991,
    "Ġlessen": 14539,
    "heavenly": 20058,
    "Ġentered": 2846,
    "Ġmaxim": 3087,
    "purposes": 25037,
    "Ġgrecian": 26306,
    "aways": 15322,
    "Ġdiligence": 17122,
    "blog": 19852,
    "Ġtumb": 21182,
    "Ġsub": 950,
    "Ġviolin": 16440,
    "Ġstiggs": 25802,
    "Ġjew": 9476,
    "Ġsupply": 6070,
    "Ġarsac": 11747,
    "fun": 3778,
    "Ġmalignity": 10564,
    "handed": 7483,
    "Ġwaterloo": 11986,
    "Ġshow": 3401,
    "promised": 12258,
    "Ġreason": 1318,
    "Ġhappiest": 11887,
    "Ġ22": 8283,
    "icing": 9210,
    "towing": 17698,
    "iscuit": 10605,
    "musket": 25352,
    "Ġcant": 17834,
    "regarding": 15082,
    "Ġsuite": 18287,
    "doc": 23392,
    "cher": 5788,
    "conceivable": 17140,
    "Ġadam": 2126,
    "excuse": 13387,
    "Ġorgies": 18295,
    "necess": 4899,
    "Ġprized": 23233,
    "Ġsternly": 16720,
    "bingley": 4930,
    "lucifer": 25315,
    "Ġround": 1373,
    "Ġverses": 17070,
    "result": 12050,
    "Ġstacked": 21757,
    "Ġinsufficient": 9681,
    "awk": 23130,
    "Ġzigzag": 26283,
    "Ġnumerous": 6923,
    "cav": 17517,
    "Ġpolitics": 19239,
    "Ġleaving": 3904,
    "Ġsulk": 15055,
    "cases": 12454,
    "Ġsur": 2182,
    "Ġrow": 5248,
    "injury": 25227,
    "Ġcrav": 19188,
    "Ġdepart": 4661,
    "Ġgraves": 11713,
    "Ġsoft": 1459,
    "Ġimagine": 3924,
    "arking": 16139,
    "lighter": 20972,
    "moonlight": 25386,
    "offers": 16408,
    "generative": 4333,
    "loom": 18548,
    "Ġfab": 15587,
    "Ġmorass": 22993,
    "Ġtechniques": 2868,
    "Ġcate": 4107,
    "Ġresolved": 3800,
    "Ġtrowsers": 9636,
    "Ġtrifles": 16959,
    "Ġindiam": 22971,
    "Ġattach": 14297,
    "iece": 3230,
    "Ġattachment": 6053,
    "Ġinsurgents": 26609,
    "Ġkindled": 19042,
    "terms": 15763,
    "reas": 989,
    "Ġclump": 15982,
    "olog": 1102,
    "Ġstudy": 1666,
    "Ġdoesn": 7440,
    "Ġchoked": 9273,
    "aly": 1135,
    "Ġvoices": 7880,
    "Ġcondemn": 13450,
    "reception": 15523,
    "iosity": 2249,
    "Ġspan": 11731,
    "Ġlandau": 16432,
    "gro": 10100,
    "cruet": 17034,
    "Ġobsc": 7043,
    "Ġashamed": 6404,
    "just": 1699,
    "Á": 130,
    "wide": 10144,
    "counterpart": 26370,
    "Ġthrown": 4644,
    "Ġlo": 452,
    "Ġknowest": 12870,
    "Ġpromotion": 23212,
    "Ġmonogram": 26584,
    "Ġhandling": 8919,
    "wreat": 21141,
    "america": 17106,
    "converse": 22493,
    "Ġwidely": 8035,
    "Ġmanufactured": 22346,
    "Ġextinguished": 10353,
    "reputation": 15524,
    "scrape": 25707,
    "Ġcrockery": 24315,
    "thy": 2994,
    "oid": 3128,
    "Ġ14": 9332,
    "Ġgrotesque": 26340,
    "Ġinformed": 6722,
    "Ġsurpassed": 25281,
    "Ġlamb": 8819,
    "Ġwronged": 24262,
    "Ġentertainment": 12229,
    "iro": 20927,
    "persons": 24187,
    "occasionally": 13525,
    "endent": 15933,
    "ten": 1555,
    "Ġpend": 15617,
    "Ġvapor": 8705,
    "Ġaverred": 18879,
    "Ġ{": 21165,
    "Ġconfidently": 24973,
    "Ġcontentment": 14884,
    "Ġvisibly": 22893,
    "Ġwaits": 23296,
    "ĠĠĠĠĠĠĠĠĠĠĠĠĠĠĠĠĠĠĠĠĠĠĠĠĠĠĠĠĠĠĠ": 19717,
    "Ġquantity": 6951,
    "sacred": 17036,
    "stolen": 13983,
    "Ġsavannah": 17427,
    "hued": 20924,
    "Ġdiscernment": 15064,
    "Ġvib": 8169,
    "Ġwhispered": 5341,
    "itchen": 7790,
    "speptic": 23960,
    "Ġarch": 938,
    "uneven": 23699,
    "Ġhesitated": 10008,
    "Ġwoollen": 12111,
    "rison": 13784,
    "rubbed": 22203,
    "revolver": 25636,
    "wling": 11549,
    "Ġ0": 1899,
    "Ġasi": 12740,
    "Ġobtaining": 16146,
    "illum": 15883,
    "whaleman": 23451,
    "<": 32,
    "Ġwrung": 14478,
    "Ġsteeply": 23738,
    "suit": 18645,
    "Ġsixth": 16571,
    "jug": 17589,
    "Ġceti": 24786,
    "ernally": 22628,
    "Ġhalting": 16287,
    "Ġhorseback": 14864,
    "Ġprivately": 19538,
    "Ġpraises": 16742,
    "Ġminimax": 5863,
    "pulled": 25160,
    "mer": 2834,
    "emason": 18191,
    "Ġcircumstantial": 14651,
    "Ġsomnam": 23024,
    "Ġjealousy": 13582,
    "ted": 793,
    "Ġconfused": 7967,
    "oundering": 11751,
    "Ġbranch": 8336,
    "na": 13765,
    "Ġhappy": 2468,
    "asiness": 8132,
    "Ġwip": 13859,
    "Ġtenth": 13832,
    "Ġ73": 24275,
    "humoredly": 26335,
    "Ġdinah": 9462,
    "Ġunappe": 22030,
    "Ġpredecessor": 26264,
    "Ġdistingu": 2517,
    "iance": 5283,
    "neville": 22466,
    "Ġland": 1999,
    "Ġanytime": 12892,
    "icilian": 20705,
    "\"],": 26130,
    "madam": 24435,
    "Ġreminisc": 18739,
    "gathered": 13736,
    "Ġsobs": 14141,
    "Ġgot": 2278,
    "Ġacted": 7424,
    "depths": 25672,
    "Ġsandwiched": 26619,
    "Ġcats": 8985,
    "Ġsounding": 8269,
    "Ġpark": 5468,
    "slouched": 24569,
    "longing": 23740,
    "Ġproved": 4888,
    "breadth": 20289,
    "Ġwapping": 21307,
    "Ġencode": 4370,
    "Ġreser": 5849,
    "gentleness": 24858,
    "Ġpersuaded": 5771,
    "Ġlan": 5823,
    "Ġpersonages": 23556,
    "Ġconfusing": 23323,
    "etymology": 14709,
    "ctuous": 9215,
    "Ġlaudanum": 20704,
    "amy": 8473,
    "Ġlit": 6249,
    "Ġbequest": 21767,
    "Ã": 132,
    "Ġfainted": 8798,
    "turkish": 24545,
    "Ġdesert": 7053,
    "Ġfavourites": 16656,
    "Ġoffing": 16158,
    "Ġplaited": 14291,
    "Ġpast": 2096,
    "Ġdod": 6678,
    "Ġhoney": 12639,
    "Ġglass": 4375,
    "receive": 12550,
    "Ġdevotedly": 24763,
    "Ġduck": 8800,
    "Ġchannel": 26022,
    "Ġremot": 8549,
    "Ġexplanatory": 22217,
    "ential": 826,
    "Ġrevellers": 21691,
    "Ġtickled": 20071,
    "Ġincommod": 25318,
    "Ġboundless": 10503,
    "cul": 1897,
    "herself": 4893,
    "Ġleisurely": 24759,
    "ty": 1000,
    "Ġaudacity": 19895,
    "Ġcabaco": 13174,
    "Ġdictionary": 15124,
    "Ġpuffed": 14990,
    "Ġwell": 902,
    "Ġconcealing": 23915,
    "Ġsteed": 13049,
    "Ġoblong": 14328,
    "Ġeconomical": 25301,
    "Ġinspiring": 19127,
    "Ġcit": 10787,
    "Ġfleshy": 24632,
    "Ġsound": 2242,
    "Ġmathematics": 12081,
    "cc": 473,
    "Ġamaz": 5386,
    "polar": 24598,
    "Ġrampart": 20331,
    "shark": 14244,
    "studied": 17159,
    "ogany": 18691,
    "afterwards": 7485,
    "Ġspecks": 14315,
    "Ġprecautions": 23741,
    "urements": 18133,
    "Ġoverpower": 12849,
    "saturday": 14872,
    "Ġ1894": 5199,
    "Ġgratitude": 5602,
    "himself": 3972,
    "Ġexchanged": 10882,
    "illed": 2627,
    "settled": 10515,
    "Ġchilled": 18394,
    "ince": 4344,
    "Ġcloak": 9543,
    "Ġresign": 18577,
    "atical": 10775,
    "Ġherself": 1565,
    "Ġsource": 6809,
    "Ġtreas": 7361,
    "Ġyours": 4122,
    "Ġdrama": 16341,
    "Ġnavigation": 9998,
    "xic": 9153,
    "Ġblanche": 18834,
    "Ġseized": 4838,
    "Ġvales": 21959,
    "Ġcolonies": 14382,
    "tub": 9150,
    "Ġfresh": 3670,
    "Ġamput": 16048,
    "Ġstock": 7456,
    "Ġconsidered": 4615,
    "==": 945,
    "Ġproficiency": 19210,
    "lose": 12889,
    "memory": 13623,
    "hear": 10153,
    "weep": 22701,
    "university": 25993,
    "eter": 10206,
    "Ġloving": 8180,
    "Ġcomposing": 16081,
    "Ġnerve": 15651,
    "Ġvoyagings": 19250,
    "harpo": 4810,
    "Ġslipping": 13367,
    "Ġclusters": 25246,
    "buck": 17500,
    "Ġadmitted": 8992,
    "Ġrely": 8827,
    "Ġentities": 11869,
    "dan": 17524,
    "Ġfall": 2987,
    "Ġmidships": 23649,
    "remark": 7264,
    "crew": 7544,
    "akness": 14200,
    "Ġpants": 21478,
    "lun": 20959,
    "pyramid": 21042,
    "Ġmottled": 20691,
    "enge": 21293,
    "Ġrepulses": 26079,
    "Ġinvolves": 1099,
    "Ġconjugal": 25117,
    "deploy": 22154,
    "luent": 16010,
    "Ġslice": 23175,
    "simply": 20683,
    "bes": 6647,
    "Ġother": 759,
    "Ġleaping": 8345,
    "Ġcramped": 23546,
    "Ġdisgusting": 19907,
    "Ġplanisp": 24072,
    "Ġappetite": 12390,
    "Ġtrades": 8236,
    "Ġplaned": 24070,
    "Ġdecorum": 16035,
    "Ġparacelsus": 15278,
    "Ġnatures": 16516,
    "Ġensl": 19288,
    "Ġengland": 3859,
    "Ġvul": 10255,
    "ğ": 224,
    "Ġfaltering": 17895,
    "Ġtyphoon": 12395,
    "Ġgrammatical": 13544,
    "Ġunob": 18252,
    "Ġexpl": 488,
    "ubbub": 23255,
    "rap": 21641,
    "Ġswore": 10386,
    "exceed": 7915,
    "frozen": 25154,
    "welcome": 10007,
    "begin": 8890,
    "Ġsucc": 12791,
    "humorously": 24035,
    "ne": 645,
    "Ġreporting": 24672,
    "vari": 1516,
    "agre": 18174,
    "too": 4511,
    "Ġfold": 5533,
    "grown": 10105,
    "Ġflight": 6586,
    "fes": 20864,
    "Ġwhitish": 24880,
    "Ġtand": 21173,
    "inked": 12920,
    "Ġstaggers": 24668,
    "ahab": 4292,
    "etition": 7384,
    "Ġengra": 7878,
    "Ġoct": 10165,
    "Ġnay": 5713,
    "edily": 17954,
    "customary": 25905,
    "ums": 10280,
    "Ġrepresents": 4905,
    "grained": 20896,
    "Ġgore": 17999,
    "Ġminimize": 7055,
    "Ġpallet": 21494,
    "asleep": 21557,
    "Ġrule": 1534,
    "fs": 17544,
    "Ġcaterpillar": 5869,
    "Ġdangling": 17184,
    "Ġ1000": 3118,
    "Ġlordly": 23758,
    "Ġscrupulous": 20083,
    "Ġpsychology": 11453,
    "omics": 21676,
    "during": 6791,
    "Ġterms": 2564,
    "Ġscepticism": 25937,
    "opence": 18521,
    "idy": 21778,
    "Ġtranque": 14206,
    "Ġexpanded": 14300,
    "atered": 22020,
    "rily": 7623,
    "Ġanalyze": 1643,
    "bones": 8375,
    "tall": 17682,
    "intelligence": 5888,
    "Ġvice": 6553,
    "Ġfringe": 17279,
    "Ġgrieve": 14716,
    "Ġ&": 6516,
    "Ġnovember": 11754,
    "erve": 9169,
    "Ġinvestment": 24344,
    "Ġdegradation": 2633,
    "larking": 17603,
    "Ġindividuality": 14921,
    "Ġomen": 11581,
    "visual": 24236,
    "Ġplunging": 14965,
    "withdrawn": 23044,
    "clopÃ¦": 13066,
    "Ġsim": 735,
    "odecimoes": 25330,
    "Ġcask": 5530,
    "Ġimmaculate": 19501,
    "Ġchimneys": 16980,
    "Ġdistinguish": 2729,
    "Ġscales": 4854,
    "gave": 7802,
    "Ġjury": 5379,
    "Ġspool": 24816,
    "Ġterrify": 19376,
    "Ġscaling": 3633,
    "Ġdaunt": 19681,
    "ladyship": 14846,
    "Ġtempered": 12930,
    "deadly": 17108,
    "seat": 18134,
    "Ġjustification": 22989,
    "Ġdrown": 6819,
    "Ġexcused": 23329,
    "Ġmam": 8410,
    "aware": 16309,
    "Ł": 258,
    "Ġexempt": 21842,
    "itying": 22007,
    "Ġdevelopment": 7063,
    "entiating": 3436,
    "willingly": 11988,
    "charming": 15718,
    "Ġpopularly": 12248,
    "Ġsinking": 7310,
    "Ġstirs": 14929,
    "Ġaffront": 18802,
    "farm": 15363,
    "Ġhorses": 6386,
    "Ġbrought": 2519,
    "edy": 2860,
    "destined": 24126,
    "ivil": 6412,
    "Ġinitialization": 1251,
    "ĠĠĠĠĠĠĠĠĠĠĠĠĠĠĠĠĠĠĠĠĠĠĠĠĠĠĠĠĠĠĠĠĠ": 12049,
    "Ġrenegades": 26485,
    "Ġsepul": 14095,
    "Ġresulting": 24212,
    "Ġilliter": 23483,
    "shoe": 14980,
    "Ġhieroglyphics": 17311,
    "Ġ113": 19713,
    "elstrom": 17992,
    "results": 20400,
    "Ġladder": 8603,
    "Ġescape": 2648,
    "Ġunsocial": 18266,
    "arboard": 7269,
    "Ġshared": 10271,
    "Ġtanning": 17739,
    "bell": 7335,
    "Ġbrightness": 16588,
    "Ġliar": 22423,
    "Ġdetermining": 14430,
    "oubtedly": 6946,
    "unexpected": 15790,
    "deceiving": 22156,
    "Ġwearily": 18187,
    "doubtless": 17010,
    "Ġproblems": 2848,
    "Ġderived": 8243,
    "Ġpitchpoling": 14923,
    "Ġarcher": 22197,
    "obedience": 17421,
    "uncontrollable": 20610,
    ".*": 7334,
    "excepting": 19722,
    "Ġtrain": 515,
    "Ġfeeding": 7976,
    "Ġai": 3129,
    "Ġpenetrate": 12276,
    "Ġj": 533,
    "hurrying": 14996,
    "Ġascertaining": 17213,
    "ong": 536,
    "mast": 3601,
    "Ġabhor": 5470,
    "scru": 16255,
    "Ġbreaks": 13190,
    "cused": 15343,
    "ulation": 5461,
    "Ġjoy": 3186,
    "osis": 18401,
    "usive": 8194,
    "noted": 22767,
    "Ġfug": 12602,
    "Ġimpressive": 15011,
    "garnished": 26398,
    "Ġgrimes": 11038,
    "Ġfevers": 22221,
    "Ġbelow": 4060,
    "Ġsoliloquized": 17310,
    "Ġexplicit": 3588,
    "'t": 3145,
    "uttering": 12670,
    "Ġlucifers": 16599,
    "distance": 12160,
    "Ġdom": 2625,
    "Ġforget": 2635,
    "hammered": 19018,
    "addition": 13391,
    "Ġtheatre": 21291,
    "pistol": 17651,
    "roman": 22017,
    "provid": 11153,
    "Ġapplications": 4789,
    "ersman": 11705,
    "Ġemig": 14530,
    "Ġcult": 8788,
    "Ġsignature": 16491,
    "Ġcheerless": 16704,
    "ette": 15671,
    "Ġconstantly": 11978,
    "favourite": 15155,
    "Ġpalace": 16700,
    "recklessly": 25283,
    "Ġarc": 14166,
    "Ġvexations": 24627,
    "Ġsuit": 5727,
    "Ġcocain": 18612,
    "known": 3569,
    "forward": 2186,
    "cd": 15334,
    "unless": 9244,
    "Ġstorm": 4304,
    "Ġ550": 19653,
    "acquired": 24310,
    "Ġmowers": 17822,
    "Ġbiographical": 22778,
    "Ġaccusations": 22395,
    "Ġunearthly": 9042,
    "Ġgallantry": 15115,
    "penn": 18841,
    "Ġdeser": 4061,
    "aunted": 20783,
    "Ġartic": 5318,
    "Ġbirds": 5878,
    "Ġdistance": 3485,
    "ver": 331,
    "71": 20769,
    "Ġunrel": 14703,
    "comb": 11039,
    "Ġdetails": 6570,
    "Ġsubterraneous": 20279,
    "eration": 10776,
    "Ġfloats": 9423,
    "asmuch": 10201,
    "Ġsecurity": 8983,
    "opening": 10320,
    "contracting": 19307,
    "Ġhell": 5023,
    "Ġlords": 14649,
    "unimportant": 18169,
    "pair": 21024,
    "Ġconverse": 11852,
    "Ġgang": 9217,
    "othing": 6998,
    "hill": 15374,
    "Ġunique": 12785,
    "human": 7093,
    "ĕ": 214,
    "assault": 22321,
    "Ġisle": 8840,
    "thole": 21999,
    "wish": 8103,
    "âĢĶ.âĢĿ": 22270,
    "befriend": 22509,
    "Ġsorry": 4211,
    "mrs": 3746,
    "Ġshrink": 14818,
    "knives": 14925,
    "Ġdiction": 8801,
    "Ġbarrowful": 25604,
    "'re": 12434,
    "Ġscandinavian": 26356,
    "bruary": 15247,
    "Ġdeficiencies": 26580,
    "character": 6333,
    "anc": 6380,
    "excitement": 19686,
    "holder": 13290,
    "Ġhere": 1089,
    "Ġinterview": 9937,
    "Ġones": 3021,
    "Ġswan": 23068,
    "Ġresent": 6052,
    "relative": 24027,
    "Ġlif": 10202,
    "Ġinsects": 25655,
    "Ġcoiled": 11825,
    "apolog": 22348,
    "Ġdeliriously": 23240,
    "aud": 8527,
    "Ġsubtle": 6721,
    "Ġdetest": 8506,
    "Ġtempestuous": 20085,
    "Ġguide": 3218,
    "iag": 20929,
    "immed": 9227,
    "Ġflour": 8950,
    "Ġexerc": 6836,
    "Ġescaped": 6460,
    "dangerous": 20254,
    "Ġmost": 1018,
    "Ġmeanings": 18622,
    "mur": 5430,
    "Ġtranquil": 7313,
    "Ġchuckled": 10653,
    "Ġdistinctions": 18545,
    "examined": 17275,
    "Ġpugn": 21493,
    "Ġmuzzle": 21333,
    "attempt": 9369,
    "bler": 11477,
    "took": 6167,
    "Ġentity": 10349,
    "Ġasse": 8164,
    "Ġwillow": 18543,
    "Ġentit": 22756,
    "steps": 9415,
    "ts": 959,
    "Ġbel": 1215,
    "por": 2148,
    "missionary": 24633,
    "visited": 13354,
    "Ġtaking": 3249,
    "burgh": 6776,
    "Ġwarmest": 16497,
    "ificent": 8188,
    "Ġunbroken": 18260,
    "Ġgreeting": 18976,
    "neys": 23597,
    "Ġwraps": 19790,
    "Ġpathetic": 19031,
    "Ġcorp": 5577,
    "Ġprank": 23231,
[...]
