{
  "metadata": {
    "vocab_size": 26614,
    "algorithm": "BPE",
    "created_at": "2026-05-18 06:12:16",
    "special_tokens": [
      "<PAD>",
      "<SOS>",
      "<EOS>",
      "<UNK>",
      "<MASK>"
    ]
  },
  "vocab": {
    "silver": 19689,
    "gus": 13724,
    "Ġperpetual": 12301,
    "Ġjoosy": 23630,
    "Ġoutline": 15952,
    "thine": 15822,
    "Åĵuvre": 25887,
    "Ġprovoke": 14825,
    "windibank": 24160,
    "Ġminima": 3463,
    "arest": 4004,
    "anel": 21355,
    "Ġcolours": 12971,
    "flo": 6114,
    "ounix": 14163,
    "Ġacquit": 18897,
    "Ġobject": 1395,
    "Ġbasement": 24702,
    "Ġirre": 7468,
    "Ġindispens": 22951,
    "Ġbelt": 13000,
    "Ġoxford": 11371,
    "attending": 18916,
    "actor": 11835,
    "Ġlately": 6387,
    "trip": 21090,
    "Ġinsensibility": 17110,
    "Ġstone": 4646,
    "pleasing": 14742,
    "inev": 21962,
    "Ġlumps": 21553,
    "fulfil": 16034,
    "Ġsingularly": 12146,
    "Ġsecuring": 11990,
    "arrang": 14652,
    "levi": 7047,
    "Ġignor": 4011,
    "oft": 3589,
    "Ġalph": 9694,
    "Ġventilator": 8713,
    "Ġhomeward": 9391,
    "Ġdying": 2136,
    "day": 1859,
    "Ġscolding": 15199,
    "Ġdismally": 20213,
    "bly": 6110,
    "smoke": 17222,
    "Ġtrunks": 15963,
    "Ġsleep": 2404,
    "macy": 18805,
    "Ġrmsprop": 3356,
    "ientific": 6547,
    "Ġprospect": 4706,
    "perai": 10275,
    "lesome": 12962,
    "Ġacknowledgment": 16957,
    "Ġfee": 7199,
    "hued": 20910,
    "Ġpasseng": 12968,
    "Ġunwearied": 20601,
    "Ġhurricane": 16430,
    "Ġrambling": 18641,
    "Ġhus": 3095,
    "commanded": 16988,
    "Ġbandaged": 16842,
    "Ġaccidents": 10295,
    "Ġaverted": 16253,
    "Ġpretext": 22226,
    "Ġincantation": 26257,
    "Ġhymn": 24518,
    "Ġhap": 18195,
    "abetical": 15740,
    "eminently": 25105,
    "ple": 455,
    "seeing": 7078,
    "Ġseized": 4833,
    "Ġexile": 12714,
    "Ġauthorities": 11264,
    "commer": 22801,
    "del": 4076,
    "âĢĿ;": 11668,
    "taining": 7206,
    "Ġinsepar": 17933,
    "lour": 15379,
    "sticking": 21657,
    "Ġpour": 13913,
    "finds": 19926,
    "Ġbernard": 20683,
    "Ġcordiality": 24395,
    "Ġunluck": 8484,
    "chiefly": 14845,
    "Ġreader": 11932,
    "Ġanalyzing": 18795,
    "Ġdischarged": 15219,
    "cottage": 9569,
    "ructive": 18538,
    "up": 1284,
    "circ": 4390,
    "uber": 15444,
    "Ġsinking": 7307,
    "Ġrestored": 7066,
    "etime": 12656,
    "Ġomens": 21326,
    "Ġloathing": 15066,
    "Ġbri": 21376,
    "stretching": 20497,
    "Ġsexes": 25168,
    "atical": 10771,
    "stone": 5089,
    "Ġnugent": 26457,
    "prof": 7698,
    "Ġadvers": 4887,
    "Ġmagical": 23096,
    "Ġtravelling": 11307,
    "dared": 13701,
    "reinforcement": 7826,
    "swelled": 19609,
    "Ġpreser": 6040,
    "Ġperv": 15988,
    "Ġ166": 25004,
    "palms": 25262,
    "waters": 11333,
    "arm": 1357,
    "gather": 20874,
    "¤": 102,
    "Ġdistinguished": 8272,
    "Ġsoften": 23120,
    "Ġthrilling": 19747,
    "Ġresumed": 11810,
    "topp": 22563,
    "Ġlangs": 13953,
    "Ġdent": 13905,
    "Ġlearned": 2025,
    "Ġsuited": 12781,
    "Ġdocks": 14175,
    "Ġoverlook": 10959,
    "daughters": 13465,
    "quin": 21850,
    "Ġensures": 3056,
    "eryton": 4093,
    "Ġexpon": 968,
    "calm": 8934,
    "Ġwars": 17785,
    "Ġneville": 7399,
    "awed": 10390,
    "3": 23,
    "Ġpalpitated": 26085,
    "ougher": 18275,
    "tottenham": 25418,
    "Ġalive": 4400,
    "ulgences": 21862,
    "oundered": 14164,
    ",âĢĿâĢĶ": 14220,
    "utting": 17984,
    "Ġnobleman": 19390,
    "ivia": 22081,
    "Ġpal": 4040,
    "hurriedly": 25510,
    "Ġsurm": 7476,
    "malice": 17604,
    "examined": 17266,
    "Ġregard": 3068,
    "Ġinve": 17928,
    "itty": 3553,
    "iminished": 19026,
    "constantinople": 25507,
    "oice": 1383,
    "inement": 11557,
    "whatever": 6694,
    "aet": 15306,
    "allowance": 16824,
    "Ġsteady": 4847,
    "Ġclanging": 18429,
    "Ġrank": 6258,
    "Ġchalk": 15931,
    "Ġbounds": 9917,
    "uck": 1231,
    "Ġyouthful": 16723,
    "Ġimplore": 24872,
    "Ġconsp": 10224,
    "ere": 6789,
    "Ġheav": 1850,
    "Ġsincere": 11136,
    "ï": 176,
    "local": 22506,
    "Ġoft": 9194,
    "Ġinvaluable": 10182,
    "Ġaggreg": 12881,
    "Ġstaves": 21737,
    "Ġram": 11012,
    "Ġoverthrown": 18426,
    "Ġplying": 17911,
    "Ġwindibank": 7256,
    "Ġgoney": 14545,
    "Ġsped": 22122,
    "Ġdeliverance": 15156,
    "Ġeag": 2969,
    "Ġzigzag": 26272,
    "ishness": 22339,
    "reader": 23844,
    "Ġfurlong": 18740,
    "Ġfooting": 14482,
    "gods": 13365,
    "fi": 12459,
    "Ġresidence": 8206,
    "Ġplaint": 10325,
    "Ġsakes": 18326,
    "hoping": 17566,
    "Ġkelson": 18350,
    "Ġtreasure": 9558,
    "Ġtricks": 13483,
    "uneven": 23684,
    "iture": 5696,
    "Ġequatorial": 13508,
    "pattern": 4074,
    "false": 15353,
    "repressed": 21242,
    "historical": 20464,
    "unnatural": 15770,
    "fanc": 20863,
    "Ġsky": 3968,
    "oppressed": 24824,
    "iop": 20918,
    "baked": 20778,
    "Ġcottages": 14727,
    "people": 7676,
    "Ġwheel": 9717,
    "Ġpresto": 22227,
    "ispens": 8335,
    "imag": 6990,
    "instinctively": 26327,
    "orphans": 26440,
    "brim": 23574,
    "widely": 25343,
    "Ġtarts": 10753,
    "Ġflushed": 13025,
    "Ġdepressed": 10882,
    "glit": 23848,
    "Ġrough": 7187,
    "hamlet": 23260,
    "dressed": 10695,
    "Ġresolute": 19244,
    "Ġimpart": 11778,
    "Ġeaster": 15672,
    "Ġthirdly": 24141,
    "Ġkid": 9724,
    "Ġsuperfluous": 17413,
    "Ġsolomon": 11052,
    "uger": 21102,
    "Ġladies": 3195,
    "aching": 5831,
    "Ġvapor": 8699,
    "Ġlakes": 8130,
    "based": 2962,
    "Ġforgetfulness": 14606,
    "Ġsums": 2903,
    "emic": 18184,
    "Ġautumnal": 19056,
    "Ġaccomplishments": 13378,
    "Ġtechnical": 17191,
    "Ġdisp": 3360,
    "uarded": 21104,
    "upon": 2721,
    "Ġshaping": 22000,
    "Ġsulky": 13514,
    "Ġexpected": 3694,
    "Ġflapped": 23011,
    "marry": 13322,
    "tempest": 16959,
    "redit": 3876,
    "Ġspurred": 22135,
    "Ġfind": 1456,
    "shiver": 16024,
    "smile": 23903,
    "remembered": 17350,
    "Ġstrat": 16090,
    "Ġproceeding": 9905,
    "Ġfeebly": 24877,
    "Ġsets": 8773,
    "Ġvenge": 5420,
    "taffrail": 15441,
    "Ġsatirical": 26279,
    "friend": 3862,
    "Ġinfallible": 15069,
    "pect": 1254,
    "exception": 9975,
    "Ġdesirable": 8941,
    "civility": 17513,
    "operations": 19973,
    "pless": 6260,
    "ocity": 8277,
    "Ġplatform": 17131,
    "Ġoverheard": 11769,
    "Ġwint": 15531,
    "Ġedition": 16433,
    "preser": 9759,
    "Ġupdates": 1298,
    "anish": 2617,
    "Ġfad": 17876,
    "conquerable": 17398,
    "Ġnailed": 10189,
    "Ġhandsomely": 25497,
    "Ġpreternatural": 12820,
    "Ġ106": 24414,
    "Ġexcuses": 19041,
    "Ġresemble": 15690,
    "apprehension": 26114,
    "quickly": 14961,
    "Ġsanction": 20024,
    "Ġbressed": 21385,
    "Ġstreng": 18070,
    "Ġbuffaloes": 25217,
    "ineer": 11697,
    "Ġencamp": 22799,
    "folding": 24927,
    "Ġnarrowed": 24355,
    "Ġproceed": 3244,
    "âĢĿ)": 21808,
    "Ġobstin": 14952,
    "acqu": 4842,
    "Ġwitnesses": 9485,
    "justice": 7957,
    "Ġdifferen": 935,
    "slept": 17169,
    "ason": 1247,
    "Ġfootman": 8287,
    "Ġra": 805,
    "mus": 10110,
    "beating": 22486,
    "bits": 17488,
    "raid": 3280,
    "allied": 7410,
    "sound": 6799,
    "Ġclock": 9532,
    "single": 10126,
    "companions": 15023,
    "Ġconflagration": 26364,
    "Ġskin": 5038,
    "Ġ90": 24588,
    "Ġgeneral": 1862,
    "small": 6472,
    "Ġcocks": 18592,
    "Ġgather": 6534,
    "hearse": 17748,
    "Ġdub": 13908,
    "alleled": 14428,
    "vid": 915,
    "onness": 21253,
    "Ġphr": 2681,
    "Ġnantucket": 2838,
    "Ġbrut": 18768,
    "doors": 19094,
    "sof": 17657,
    "Ġrepair": 11977,
    "Ġjingling": 26017,
    "mel": 9127,
    "Ġminutes": 3003,
    "enched": 10154,
    "Ġmarvellous": 7538,
    "ledyard": 22388,
    "rose": 6013,
    "Ġguitar": 16269,
    "ney": 2496,
    "Ġtears": 4232,
    "Ġspr": 4024,
    "Ġrecognised": 8995,
    "Ġfour": 2213,
    "madam": 24421,
    "um": 454,
    "Ġchronicler": 20228,
    "Ġstanzas": 21741,
    "Ġturnpike": 23026,
    "spir": 5738,
    "Ġoutput": 929,
    "Ġcasc": 15553,
    "entire": 6824,
    "Ġgarb": 21600,
    "Ġupbraided": 26528,
    "Ġbreaching": 23345,
    "wedded": 24339,
    "teous": 16172,
    "Ġwil": 4580,
    "Ġstudy": 1810,
    "Ġhazarded": 25654,
    "Ġprice": 10403,
    "Ġpam": 21451,
    "Ġenh": 2827,
    "Ġinev": 10181,
    "Ġshowing": 7731,
    "dismay": 19152,
    "Ġtoo": 1165,
    "Ġensl": 19273,
    "Ġverge": 23885,
    "av": 740,
    "Ġchaplain": 19911,
    "ubl": 3593,
    "Ġunctuousness": 17234,
    "ĠĠĠĠĠĠĠĠĠĠĠĠĠĠĠĠĠĠĠĠĠĠĠĠĠ": 24442,
    "Ġfrigate": 13080,
    "Ġins": 2780,
    "Ġhappening": 14382,
    "Ġsang": 12532,
    "access": 11180,
    "Ġrainbows": 19647,
    "Ġextremely": 2669,
    "Ġmolasses": 25628,
    "Ġ115": 24439,
    "emason": 18186,
    "Ġswell": 8949,
    "Ġinvite": 14564,
    "alyards": 18780,
    "liber": 18813,
    "angry": 18289,
    "moored": 22701,
    "Ġscaled": 2105,
    "Ġfaint": 5811,
    "Ġnoted": 15828,
    "Ġfig": 3622,
    "caterpillar": 26383,
    "==": 945,
    "Ġsimilarity": 3170,
    "Ġwrongfully": 24248,
    "Ġpay": 3962,
    "Ġcomical": 11677,
    "om": 315,
    "Ġreciproc": 20620,
    "impatience": 25500,
    "Ġjewelled": 20182,
    "ole": 9613,
    "omit": 13973,
    "Ġfootpaths": 26318,
    "Ġsay": 932,
    "Ġhardened": 14449,
    "Ġdyspepsia": 20642,
    "Ġmoderately": 22214,
    "Ġhappier": 10359,
    "orrow": 2916,
    "adventurous": 25361,
    "Ġcensus": 15095,
    "Ġshadowed": 24043,
    "Ġirreduc": 5491,
    "private": 13581,
    "Ġcompany": 3719,
    "bushes": 24447,
    "cats": 17512,
    "acey": 7649,
    "Ġcognitive": 13633,
    "Ġeasier": 11165,
    "bo": 1689,
    "Ġpreside": 18365,
    "orses": 6051,
    "collar": 19327,
    "edged": 15628,
    "accusations": 23598,
    "th": 407,
    "Ġimposing": 11779,
    "Ġgur": 21589,
    "Ġconsulted": 13429,
    "Ġsurviving": 24637,
    "Ġcompliment": 5673,
    "Ġjewels": 12367,
    "ording": 9763,
    "inks": 6869,
    "Ġreverence": 12057,
    "Ġimprisonment": 22384,
    "opard": 9290,
    "Ġgn": 8817,
    "smote": 23907,
    "Ġletters": 3792,
    "Ġmahogany": 20576,
    "Ġshouldn": 14324,
    "sensibility": 25023,
    "Ġdeep": 798,
    "Ġwives": 12552,
    "Ġvomit": 21945,
    "able": 451,
    "sent": 759,
    "idirectional": 2424,
    "surd": 6934,
    "cup": 10690,
    "proud": 9903,
    "Ġsolicit": 22882,
    "lested": 14882,
    "):": 11461,
    "Ġbent": 5149,
    "Ġindolence": 16227,
    "Ò": 147,
    "latin": 25258,
    "unexpected": 15775,
    "hawks": 24694,
    "Ġwished": 3727,
    "fer": 1985,
    "Ġleech": 24154,
    "Ġxlix": 25860,
    "Ġfeatures": 1432,
    "b": 70,
    "Ġflat": 8227,
    "Ġturban": 23612,
    "Ġsqualidness": 25842,
    "hunted": 16832,
    "Ġbodily": 6106,
    "Ġanchored": 17439,
    "Ġstaggers": 24653,
    "render": 10290,
    "Ġtangle": 25760,
    "Ġthreat": 5154,
    "Ġbro": 1430,
    "iless": 10281,
    "Ġprecipitate": 19940,
    "ensing": 12896,
    "Ġfergus": 16867,
    "royal": 11393,
    "Ġunquestionable": 26221,
    "Ġmending": 17804,
    "!âĢĶ": 2458,
    "ucy": 15443,
    "Ġcomo": 21844,
    "Ġfools": 14481,
    "ued": 7561,
    "inging": 5906,
    "Ġleaves": 5021,
    "Ġcrouched": 23442,
    "Ġimitate": 14157,
    "hue": 20898,
    "Ġlullaby": 20586,
    "Ġtransparen": 10541,
    "Ġfirm": 3870,
    "Ġalong": 1981,
    "whisper": 17083,
    "Ġmay": 922,
    "influences": 25250,
    "Ġforesight": 13127,
    "Ġmakes": 3649,
    "abri": 6682,
    "tolerable": 17688,
    "deliver": 19503,
    "Ġgraces": 18225,
    "revenge": 13841,
    "Ġlonely": 6823,
    "indignation": 18438,
    "Ġinexpressible": 17332,
    "Ġscales": 4849,
    "ingham": 21299,
    "Ġremembering": 14610,
    "brimmed": 14588,
    "irc": 1729,
    "enes": 5218,
    "Ġmarshy": 20217,
    "Ġcavity": 20486,
    "Ġaffect": 1385,
    "Ġwondrously": 24062,
    "flies": 19422,
    "Ġai": 3130,
    "omed": 13974,
    "Ġsuavely": 26523,
    "Ġthreaten": 24374,
    "arpaul": 14536,
    "Ġdragged": 6889,
    "Ġmessages": 24981,
    "Ġamazement": 7764,
    "Ġrifled": 21976,
    "Ġdiscomp": 11864,
    "Ġglove": 14491,
    "Ġabhor": 5467,
    "Ġunbelief": 22042,
    "Ġfatig": 6756,
    "Ġxerxes": 23409,
    "Ġcommitting": 22670,
    "ê": 171,
    "Ġdelivery": 18974,
    "tis": 4104,
    "Ġclum": 8872,
    "Ġdock": 15928,
    "Ġcanall": 10928,
    "pigs": 17140,
    "Ġmatrimony": 13634,
    "indifference": 15981,
    "Ġhoisted": 5959,
    "other": 1313,
    "Ġcrash": 12000,
    "Ġvul": 10247,
    "watches": 14946,
    "willingness": 24755,
    "Ġrest": 1782,
    "inguish": 9396,
    "Ġclinched": 17393,
    "Ġexercise": 8358,
    "Ġmusty": 22677,
    "Ġtradesmen": 17105,
    "Ġpyth": 21458,
    "mical": 9128,
    "itatingly": 25277,
    "pat": 10116,
    "Ġqueens": 16706,
    "Ġrelieved": 7665,
    "Ġgolden": 5336,
    "xim": 1092,
    "Ġmislead": 22753,
    "Ġpolite": 9881,
    "confl": 22468,
    "run": 10721,
    "Ġlighter": 12650,
    "ing": 273,
    "Ġblows": 5972,
    "idered": 4553,
    "Ġmistakes": 16540,
    "×": 152,
    "consternation": 16912,
    "eg": 17529,
    "fere": 10987,
    "shot": 2179,
    "Ġfainting": 16897,
    "wards": 1278,
    "Ġembalmed": 13655,
    "Ġblessed": 6931,
    "Ġflog": 23621,
    "Ġmental": 21318,
    "Ġlob": 7627,
    "Ġmors": 17801,
    "Ġken": 22188,
    "Ġaffording": 14820,
    "ilet": 12826,
    "ideas": 18582,
    "tranquil": 25870,
    "Ġlock": 5927,
    "investigations": 25533,
    "infall": 21187,
    "Ġj": 533,
    "Ġsprained": 15881,
    "Ġgossiping": 26243,
    "Ġlessened": 19087,
    "Ġinconvenience": 9563,
    "introduction": 15122,
    "fle": 7128,
    "Ġinferred": 14502,
    "Ġbeck": 14008,
    "Ġtwenty": 3948,
    "mistak": 16878,
    "Ġprinciples": 10010,
    "jolly": 20930,
    "tim": 13790,
    "Ġashes": 7616,
    "quod": 2164,
    "ilies": 18056,
    "Ġpul": 2041,
    "Ġquill": 12854,
    "Ġmagnus": 18957,
    "Ġalbertus": 25648,
    "Ġprotecting": 24686,
    "omeness": 18015,
    "Ġbott": 3151,
    "Ġbitt": 10796,
    "Ġbutton": 10267,
    "Ġhighness": 22768,
    "olic": 14041,
    "Ġswelled": 11088,
    "unmistakable": 21892,
    "Ġavocation": 23950,
    "yed": 3273,
    "mic": 12486,
    "ury": 3312,
    "sil": 5282,
    "umul": 1289,
    "vol": 733,
    "Ġobedient": 20103,
    "landish": 11940,
    "Ġdestro": 3720,
    "Ü": 157,
    "proportions": 22831,
    "relu": 17759,
    "Ġencoura": 1366,
    "Ġlabelled": 23326,
    "ield": 2411,
    "Ġvoluntary": 14798,
    "Ġhooped": 23353,
    "Ġambergris": 8705,
    "Ġelevate": 24502,
    "Ġdomineer": 23669,
    "personal": 24963,
    "Ġshower": 11708,
    "Ġparadigms": 3057,
    "Ġcourtesy": 9944,
    "ory": 1082,
    "argue": 21442,
    "Ġcommissioned": 19894,
    "lied": 6507,
    "ism": 4874,
    "Ġpine": 8796,
    "vac": 15449,
    "Ġanno": 9667,
    "estruct": 22224,
    "insisted": 23065,
    "unciation": 25982,
    "cas": 20793,
    "windward": 24159,
    "Ġ135": 24785,
    "Ġrusty": 14963,
    "turning": 8316,
    "stairs": 5155,
    "Ġindebted": 8707,
    "Ġplutarch": 22603,
    "least": 8784,
    "Ġdecreases": 3409,
    "gia": 20875,
    "dropping": 14981,
    "Ġinf": 1758,
    "salis": 25147,
    "rove": 21530,
    "Ġbest": 1976,
    "Ġgloom": 4202,
    "Ġconjoined": 21803,
    "Ġenergy": 2555,
    "Ġexceed": 1344,
    "Ġmonarch": 14412,
    "Ġmournful": 12334,
    "Ġeveryday": 22766,
    "cil": 8720,
    "Ġling": 7377,
    "Ġlurked": 11291,
    "Ġyonder": 7392,
    "Ġtranslation": 3090,
    "regularly": 13205,
    "Ġtrustees": 24106,
    "think": 3607,
    "Ġhugest": 17015,
    "Ġresist": 7915,
    "twinkle": 23702,
    "around": 12605,
    "Ġprophecy": 25706,
    "falgar": 26130,
    "Ġdeclared": 5595,
    "ayed": 12709,
    "Ġblasphemy": 26115,
    "isl": 21373,
    "Ġadmitting": 19183,
    "Ġimpulsively": 24880,
    "Ġprimary": 25060,
    "ronted": 14876,
    "Ġnamed": 6139,
    "Ġjesty": 18405,
    "adier": 18089,
    "Ġceasing": 23756,
    "Ġsays": 3560,
    "Ġseaman": 8638,
    "bread": 10684,
    "Ġthink": 988,
    "rant": 11516,
    "englishman": 23675,
    ".âĢĻâĢĿ": 6739,
    "banish": 20781,
    "angered": 16176,
    "Ġoffences": 18693,
    "Ķ": 247,
    "Ġmoonshine": 19596,
    "mb": 914,
    "Ġtigris": 25759,
    "Ġcoupled": 16851,
    "Ġgoethe": 22421,
    "smiled": 16614,
    "Ġprinc": 4200,
    "Ġinjunction": 19616,
    "Ġic": 9625,
    "Ġblinded": 13268,
    "gered": 9275,
    "Ġnatures": 16505,
    "Ġstig": 14001,
    "aye": 3657,
    "Ġtougher": 21175,
    "Ġgirls": 4281,
    "Ġshould": 864,
    "Ġeas": 2355,
    "rium": 3135,
    "Ġimmaculate": 19484,
    "saturday": 14857,
    "Ġmultiplication": 2871,
    "ographical": 16786,
    "Ġquoted": 22412,
    "impossible": 8823,
    "Ġorganizations": 12312,
    "project": 16423,
    "Ġgazette": 19499,
    "effectually": 25128,
    "Ġcharacteristic": 12046,
    "Ġdoors": 6418,
    "Ġdistrusting": 25053,
    "Ġbefall": 8828,
    "bular": 15312,
    "Ġdeadly": 5405,
    "Ġsuccess": 3608,
    "rary": 4575,
    "rist": 10122,
    "Ġoun": 13862,
    "Ġtrop": 7565,
    "Ġshow": 3402,
    "Ġfairness": 9892,
    "Ġeffemin": 18544,
    "adie": 18088,
    "Ġnoiselessly": 22859,
    "ail": 566,
    "Ġmeaning": 1415,
    "Ġmurderous": 8315,
    "Ġrecollected": 8310,
    "Ġdy": 2524,
    "Ġinnocence": 6477,
    "Ġabuse": 18392,
    "Ġportrait": 10661,
    "announced": 19758,
    "Ġwearied": 15790,
    "Ġdoctrine": 24197,
    "Ġseating": 18199,
    "unavoid": 14061,
    "ires": 6037,
    "ĠĠĠĠĠĠĠĠĠĠĠĠĠĠĠĠ": 1218,
    "Ġrect": 18025,
    "Ġabutted": 22272,
    "Ġspas": 10922,
    "Ġcoat": 4554,
    "Ġangular": 19207,
    "seized": 14034,
    "Ġdisrespect": 18553,
    "Ġpertur": 12847,
    "Ġnews": 3818,
    "Ġcabman": 14605,
    "exact": 7909,
    "utely": 8131,
    "Ġrole": 15994,
    "Ġdesperation": 19817,
    "apparat": 22843,
    "ation": 320,
    "Ġwonderfully": 10430,
    "_),": 7125,
    "itiously": 13870,
    "Ġinterment": 22572,
    "Ġpry": 11598,
    "Ġtapers": 11551,
    "ignominious": 26587,
    "Ġmot": 2987,
    "Ġdevote": 10339,
    "Ġsupervised": 3283,
    "Ġattics": 22618,
    "ringle": 21039,
    "Ġebony": 18008,
    "Ġradney": 6775,
    "rous": 3750,
    "uzz": 4524,
    "Ġfierce": 7437,
    "Ġmonitors": 3159,
    "Ġrouse": 15820,
    "agger": 7871,
    "Ġpleasure": 2695,
    "const": 5938,
    "Ġ133": 24783,
    "Ġdiscoverers": 26036,
    "Ġlump": 21549,
    "ab": 345,
    "Ġaloud": 6252,
    "tips": 13795,
    "Ġinfirm": 19022,
    "Ġmonogram": 26574,
    "Ġstories": 10865,
    "Ġwindow": 2999,
    "Ġjaws": 5593,
    "Ġblackness": 9392,
    "Ġconstruction": 9385,
    "educ": 10828,
    "hed": 672,
    "Ġsqueaking": 26274,
    "waistcoat": 17360,
    "Ġelectric": 15193,
    "Ġregression": 4411,
    "Ġsheaves": 22155,
    "reposed": 24492,
    "Ġpane": 21460,
    "coffin": 10662,
    "haustible": 16891,
    "neighboring": 20615,
    "attery": 18497,
    "Ġevaluate": 3059,
    "introdu": 8937,
    "ipper": 13739,
    "Ġpist": 12612,
    "america": 17097,
    "Ġskies": 8920,
    "weaknesses": 26030,
    "Ġshamefully": 24716,
    "Ġinexplicable": 12254,
    "Ġcasts": 19424,
    "Ġintricacies": 15137,
    "Ġshore": 4834,
    "Ġvarious": 3508,
    "Ġdeject": 10880,
    "Ġmist": 2877,
    "erval": 4019,
    "Ġweary": 5635,
    "Ġsultry": 20287,
    "Ġthews": 21276,
    "Ġstrip": 9420,
    "Ġarticulated": 24433,
    "Ġsleepers": 13148,
    "Ġdownright": 16116,
    "Ġending": 18189,
    "turn": 4294,
    "ari": 673,
    "impressed": 12688,
    "Ġmir": 9646,
    "rock": 15638,
    "Ġcream": 22720,
    "Ġlecture": 13566,
    "Ġsolely": 9909,
    "remediable": 26294,
    "isance": 17847,
    "eag": 20841,
    "Ġlunch": 13525,
    "pictures": 15089,
    "comprehend": 14356,
    "bitts": 26122,
    "Ġclim": 8196,
    "Ġmaternal": 11059,
    "aution": 9387,
    "ructure": 753,
    "disgu": 19153,
    "iled": 1766,
    "prepar": 22463,
    "suddenly": 6493,
    "Ġattach": 14289,
    "prosperity": 20734,
    "Ġoperations": 2297,
    "\"],": 26120,
    "Ġcontracting": 16009,
    "Ġstarboard": 7604,
    "whosoever": 22237,
    "mountains": 15179,
    "Ġdefine": 9814,
    "Ġtoil": 6531,
    "Ġlofty": 6217,
    "Ġlondon": 2839,
    "ibule": 13004,
    "Ġends": 8237,
    "Ġexploding": 2108,
    "Ġreward": 6144,
    "Ġjung": 12833,
    "Ġdeprec": 15755,
    "rice": 13776,
    "Ġpurest": 14938,
    "ival": 4228,
    "Ġtexture": 19159,
    "Ġsenate": 25214,
    "Ġwickedness": 9525,
    "cut": 3126,
    "Ġsperm": 1841,
    "Ġsar": 21212,
    "Ġd": 284,
    "imperturbable": 25790,
    "Ġsli": 4748,
    "Ġhasten": 10478,
    "dance": 17519,
    "Ġstream": 5186,
    "Ġannouncing": 16754,
    "Ġjealousy": 13575,
    "shriek": 20518,
    "Ġspo": 6846,
    "itation": 1781,
    "ieth": 10704,
    "Ġwretchedness": 9026,
    "ger": 1105,
    "Ġview": 2761,
    "Ġornaments": 17451,
    "Ġdrink": 4787,
    "Ġhoot": 19076,
    "Ġworthy": 7241,
    "Ġobstinate": 11336,
    "Ġvarieties": 14309,
    "Ġdad": 12597,
    "Ġwelded": 9571,
    "hig": 12472,
    "Ġsheepfold": 25466,
    "Ġsubord": 22785,
    "Ġal": 342,
    "Ġpatroness": 13509,
    "Ġmarch": 4082,
    "Ġhigh": 931,
    "Ġresounds": 22539,
    "Ġdaugh": 2290,
    "scotland": 20526,
    "Ġzoned": 22817,
    "Ġmim": 3109,
    "Ġmysteriously": 24601,
    "Ġontario": 26204,
    "Ġbroke": 5322,
    "animal": 16978,
    "Ġsensation": 6896,
    "Ġbiographical": 22759,
    "prevailed": 17344,
    "Ġindiscriminately": 20626,
    "outward": 22157,
    "riety": 12741,
    "Ġunclasp": 26511,
    "Ġtarshish": 12027,
    "kine": 15374,
    "Ġcontro": 1685,
    "Ġdoll": 10813,
    "Ġla": 5912,
    "Ġperish": 8874,
    "Ġswan": 23049,
    "ti": 8389,
    "magistrate": 19862,
    "yden": 21142,
    "studied": 17149,
    "heed": 15497,
    "ouch": 2779,
    "four": 6113,
    "Ġenglishman": 11229,
    "Ġreliance": 14384,
    "Ġextensive": 12938,
    "attoo": 6807,
    "mselves": 2862,
    "Ġliable": 14228,
    "Ġlulled": 17968,
    "alcul": 15625,
    "Ġoppose": 16518,
    "estinated": 15921,
    "Ġ77": 24263,
    "Ġpuzzle": 11305,
    "Ġ130": 24781,
    "Ġjerking": 12243,
    "Ġnewcom": 16220,
    "consequential": 26249,
    "Ġjungfrau": 15247,
    "Ġthither": 6821,
    "ishments": 9272,
    "ically": 858,
    "Ġimmemorial": 10510,
    "oric": 21394,
    "Ġnich": 21517,
    "Ġforbidding": 17079,
    "Ġgem": 21591,
    "brill": 16490,
    "Ġsoft": 1457,
    "Ġpure": 6137,
    "Ġstoner": 7178,
    "myst": 9821,
    "Ġwoll": 21292,
    "Ġominous": 12422,
    "Ġsolid": 6443,
    "Ġstructural": 2797,
    "amplified": 26494,
    "Ġrehears": 15697,
    "Ġbible": 9318,
    "neville": 22448,
    "Ġscientific": 6857,
    "amp": 2606,
    "Ġeduc": 4785,
    "Ġlaying": 7907,
    "Ġheroine": 24543,
    "Ġpapa": 10656,
    "Ġpauper": 26179,
    "Ġinspire": 11994,
    "Ġstreaked": 19113,
    "Ġlo": 453,
    "ct": 309,
    "Ġnewcomer": 26040,
    "lays": 14921,
    "Ġjourneys": 19473,
    "Ġprefers": 20512,
    "unable": 14058,
    "Ġfairly": 6325,
    "Ġpom": 21449,
    "Ġimposed": 14214,
    "ches": 2150,
    "Ġleader": 14701,
    "carte": 25400,
    "volutional": 1936,
    "band": 3060,
    "Ġdetestation": 17127,
    "bpp": 20771,
    "kers": 7132,
    "living": 7133,
    "Ġepoch": 26471,
    "exceedingly": 9566,
    "Ġtawny": 20480,
    "Ġjupiter": 17455,
    "Ġgnarled": 25165,
    "abomin": 15739,
    "Ġallowed": 4058,
    "Ġkinds": 14505,
    "ara": 12603,
    "13": 20749,
    "Ġledgers": 23935,
    "Ġrains": 24340,
    "ceptive": 15960,
    "pread": 7419,
    "bottom": 11426,
    "exc": 5169,
    "Ġinclined": 6622,
    "ched": 1544,
    "Ġcentury": 8290,
    "Ġpairs": 4182,
    "unte": 21870,
    "Ġexecution": 6927,
    "Ġexposing": 11832,
    "Ġskilfully": 20522,
    "Ġa": 263,
    "design": 18958,
    "Ġeffect": 971,
    "Ġbales": 21387,
    "Ġfalsely": 20580,
    "clo": 5613,
    "keenest": 25661,
    "Ġready": 3398,
    "Ĺ": 250,
    "mes": 1196,
    "Ġstricken": 9775,
    "Ġmoral": 6578,
    "Ġpresumed": 10544,
    "astern": 8581,
    "straw": 24093,
    "Ġmorcar": 13012,
    "Ġdisconsolate": 20718,
    "Ġsliding": 9363,
    "whom": 8184,
    "Ġalert": 18101,
    "Ġdon": 1613,
    "Ġconsideration": 5191,
    "Ġaffability": 14386,
    "guard": 12126,
    "Ġundue": 25993,
    "pan": 10716,
    "Ġconcluding": 9856,
    "kward": 6958,
    "enborough": 21284,
    "yea": 23085,
    "emporary": 15795,
    "Ġrumbling": 18211,
    "Ġungover": 18252,
    "iferous": 17291,
    "ium": 4864,
    "Ġforgery": 25977,
    "acle": 4715,
    "oe": 7552,
    "Ġelixir": 26555,
    "Ġscarcity": 23824,
    "omen": 4086,
    "'d": 12425,
    "gers": 8375,
    "dutch": 17218,
    "Ġsigns": 2447,
    "Ġsadder": 24049,
    "branch": 23577,
    "Ġlabeled": 3716,
    "ituted": 13872,
    "very": 499,
    "Ġpagoda": 19787,
    "Ġpanting": 11601,
    "Ġfolds": 12204,
    "apolog": 22329,
    "Ġminuteness": 19138,
    "glance": 16587,
    "andes": 18151,
    "Ġpeter": 10535,
    "Ġfade": 21405,
    "Ġruinous": 24633,
    "Ġseparated": 9464,
    "Ġgrowing": 6750,
    "Ġdistension": 22501,
    "Ġphara": 23196,
    "Ġwheeling": 18288,
    "Ġweeping": 11685,
    "etence": 21574,
    "xes": 21139,
    "Ġstatistical": 11105,
    "Ġespe": 21154,
    "Ġordered": 5832,
    "Ġindiscreet": 22953,
    "crime": 14782,
    "Ġbespe": 19241,
    "Ġpraise": 6486,
    "Ġtwist": 11849,
    "Ġvine": 8471,
    "Ġtorments": 13393,
    "Ġalphabetical": 17201,
    "Ġcompliments": 8632,
    "Ġtail": 3092,
    "Ġpence": 17903,
    "Ġwalk": 1825,
    "Ġroofs": 16985,
    "combe": 7659,
    "Ġsuperiority": 14616,
    "Ġdaresay": 14703,
    "Ġscreams": 24603,
    "04": 10679,
    "Ġhop": 1460,
    "Ġhaul": 11690,
    "Ġcharm": 4548,
    "Ġhearse": 10420,
    "Ġwalks": 8966,
    "Ġharpoone": 2912,
    "pier": 17635,
    "shish": 11791,
    "Ġblood": 3171,
    "Ġcir": 21339,
    "sweep": 24617,
    "Ġintru": 15825,
    "Ġvisible": 4777,
    "draughts": 20386,
    "remes": 21236,
    "Ġkindred": 16376,
    "early": 20117,
    "Ġbeast": 7179,
    "afric": 19179,
    "grat": 5052,
    "Ġweal": 21916,
    "gressive": 2752,
    "proceeded": 25190,
    "months": 9071,
    "Ġmultiple": 1186,
    "crowded": 20189,
    "Ġintention": 5638,
    "Ġconvict": 23744,
    "vously": 23504,
    "Ġequilib": 4135,
    "Ġjelly": 22297,
    "churning": 21694,
    "Ġpowder": 11275,
    "Ġlobster": 11389,
    "Ġp": 288,
    "Ġfluffy": 19362,
    "Ġbrimstone": 25686,
    "Ġsecrecy": 7316,
    "untary": 9866,
    "Ġcame": 1300,
    "umps": 6317,
    "Ġwithin": 2163,
    "59": 17473,
    "Ġtheory": 5798,
    "Ġconsec": 21802,
    "Ġcemet": 20679,
    "Ġthr": 5709,
    "ggy": 13112,
    "bout": 20772,
    "contemplated": 20457,
    "Ġspeedily": 7711,
    "Ġaerial": 21197,
    "esley": 17919,
    "Ġhumble": 8551,
    "flagged": 23969,
    "shel": 11928,
    "Ġcry": 3495,
    "Ġvane": 22869,
    "ogy": 22703,
    "sloop": 26145,
    "Ġfossiliferous": 25609,
    "Ġstepmother": 16087,
    "Ġbouton": 17868,
    "Ġfiled": 15577,
    "Ġpractices": 19063,
    "Ġscolded": 25472,
    "Ġcomprised": 14270,
    "Ġmood": 6276,
    "Ġsequential": 2131,
    "Ġjealous": 9468,
    "Ġcrowned": 16841,
    "Ġpartaking": 22694,
    "Ġanswered": 2851,
    "Ġrearing": 12674,
    "Ġwes": 8778,
    "Ġcetacean": 25878,
    "extensive": 18709,
    "Ġknew": 2055,
    "Ġhearers": 15700,
    "Ġmol": 12558,
    "Ġprone": 18968,
    "coil": 23558,
    "Ġvaulted": 25167,
    "Ġrumors": 11321,
    "Ġuninter": 18243,
    "Ġlevels": 12695,
    "blows": 17165,
    "Ġunderstand": 838,
    "Ġemails": 13105,
    "consciously": 19624,
    "Ġdough": 8420,
    "Ġ500": 24328,
    "elag": 12655,
    "anelles": 26434,
    "Ġtem": 806,
    "Ġconceivable": 16613,
    "pleasures": 24044,
    "Ġabatement": 22273,
    "arbuck": 2026,
    "pretty": 10621,
    "Ġcandid": 4098,
    "Ġrates": 1404,
    "Ġgross": 11624,
    "Ġactionable": 24559,
    "reporting": 24494,
    "fashioned": 9570,
    "Ġhails": 21947,
    "Ġstoutest": 24628,
    "zz": 4295,
    "fun": 3774,
    "Ġclenched": 14207,
    "Ġwrung": 14469,
    "sisters": 13375,
    "Ġwail": 21285,
    "ĠĠĠĠĠ": 3526,
    "wled": 15453,
    "stretched": 10207,
    "Ġimplac": 24874,
    "ishes": 6523,
    "Ġslipped": 6492,
    "Ġvillains": 14749,
    "Ġarchbishop": 18717,
    "fitting": 1508,
    "sleepy": 24729,
    "standard": 22428,
    "Ġassoc": 6402,
    "Ġobliter": 14321,
    "Ġrept": 13982,
    "Ġvillages": 14748,
    "excited": 13379,
    "ributed": 8214,
    "Ġlate": 3378,
    "horizon": 23614,
    "Ġegyptians": 25289,
    "Ġgood": 1000,
    "lesc": 11038,
    "Ġerad": 25028,
    "Ġundeniable": 26510,
    "disagreeable": 11163,
    "meal": 22705,
    "Ġflowing": 14409,
    "Ġallies": 18267,
    "regular": 3042,
    "Ġoffence": 12942,
    "Ġdarkly": 19114,
    "Ġgrace": 5374,
    "Ġbankrupt": 16796,
    "Ġseclusion": 18206,
    "Ġjup": 15950,
    "causing": 25518,
    "Ġpapers": 4021,
    "Ġleast": 2064,
    "Ġabroad": 8865,
    "Ġdesponding": 25868,
    "Ġprouder": 18972,
    "================================================================": 9989,
    "Ġacceptable": 16744,
    "dashed": 12453,
    "Ġinfant": 11959,
    "musket": 25341,
    "Ġcorroboration": 26053,
    "Ġescort": 23505,
    "Ġaccent": 10293,
    "Ġdo": 510,
    "Ġeasterly": 25962,
    "Ġbund": 17863,
    "_,âĢĻ": 12431,
    "Ġanchors": 12610,
    "uits": 21103,
    "Ġadagrad": 2904,
    "Ġlightning": 5750,
    "Ġenquired": 21937,
    "Ġunimag": 12771,
    "Ġdecoding": 3084,
    "ustration": 2258,
    "Ġnautical": 17385,
    "Ġpods": 17912,
    "Ġdip": 13906,
    "Ġencountering": 11269,
    "Ġscrolled": 22281,
    "dan": 17515,
    "principal": 20659,
    "comparatively": 25839,
    "Ġbanks": 6814,
    "decided": 13214,
    "Ġclaimed": 14205,
    "Ġseason": 5238,
    "Ġallusion": 7625,
    "Ġprint": 18969,
    "Ġmadman": 13150,
    "Ġthrew": 3973,
    "properly": 24918,
    "Ġconcentric": 20073,
    "Ġinsensible": 12323,
    "Ġrand": 1583,
    "considering": 12172,
    "nowledge": 10289,
    "edily": 17943,
    "Ġfeelingly": 22994,
    "Ġchopping": 24219,
    "Ġestimated": 16594,
    "Ġepid": 18004,
    "got": 6955,
    "Ġantiquity": 15229,
    "Ġsavory": 23874,
    "Ġhe": 318,
    "Ġsongs": 13419,
    "Ġtraps": 23078,
    "Ġdiameter": 19866,
    "Ġmizzen": 20288,
    "Ġprecautions": 23726,
    "uniform": 18157,
    "Ġpallet": 21478,
    "conspicuous": 26247,
    "Ġclasped": 17206,
    "Ġpropag": 16346,
    "ester": 11602,
    "Ġpersuaded": 5769,
    "Ġbenefactor": 14697,
    "Ġvap": 6837,
    "rible": 3228,
    "Ġconclusion": 5985,
    "withstand": 23024,
    "become": 14246,
    "biscuit": 17500,
    "Ġtorn": 5999,
    "strils": 10458,
    "bes": 6641,
    "Ġhand": 859,
    "Ġblo": 2733,
    "itely": 5365,
    "Ġinvari": 6529,
    "Ġeuropean": 20044,
    "Ġnorthward": 13320,
    "Ġrepresenting": 4060,
    "Ġwhalebone": 10977,
    "Ġprizes": 13072,
    "loveliness": 26549,
    "critters": 14783,
    "tal": 17670,
    "Ġfresh": 3667,
    "unknown": 10890,
    "ourselves": 9010,
    "Ġbidding": 9536,
    "ow": 326,
    "Ġugly": 8715,
    "hatherley": 17568,
    "Ġgreeting": 18963,
    "Ġvig": 5460,
    "Ġbasin": 19847,
    "Ġmad": 2430,
    "subjects": 19875,
    "Ġfrightened": 5341,
    "Ġphrenolog": 12332,
    "bab": 11468,
    "anged": 3586,
    "Ġmantelpiece": 15206,
    "umbling": 6758,
    "Ġembal": 11908,
    "Ġshadows": 8012,
    "Ġadmirals": 20383,
    "Ġfantastic": 10058,
    "Ġenglish": 3612,
    "keys": 15856,
    "Ġspind": 18307,
    "Ġundisturbed": 19518,
    "Ġnumbers": 2888,
    "ards": 2507,
    "Ġbeliever": 25845,
    "Ġplatonian": 25118,
    "Ġskulls": 12956,
    "Ġequality": 16357,
    "Ġdinah": 9452,
    "Ġdey": 11674,
    "inlaid": 21189,
    "Ġindisc": 16226,
    "Ġall": 422,
    "now": 548,
    "icorn": 15654,
    "god": 4863,
    "Ġduck": 8793,
    "suspended": 15176,
    "ilated": 18057,
    "Ġmould": 6519,
    "Ġcringing": 25941,
    "Ġting": 8397,
    "dishon": 20402,
    "work": 1694,
    "Ġincensed": 18572,
    "Ġpush": 9183,
    "ldog": 21914,
    "been": 3344,
    "Ġplanning": 14751,
    "extraordinary": 9094,
    "experience": 17158,
    "Ġindul": 5856,
    "generative": 4332,
    "Ġzer": 1094,
    "reduc": 5459,
    "gr": 2086,
    "Ġfeels": 6882,
    "lantern": 17427,
    "Ġponderous": 8354,
    "Ġethiop": 26155,
    "arrested": 15598,
    "Ġpolar": 9410,
    "Ġrev": 6988,
    "Ġimpertinent": 9077,
    "lights": 13202,
    "Ġtriumphantly": 11287,
    "Ġdeified": 18137,
    "desperate": 17351,
    "Ġviolates": 3168,
    "Ġconcentrated": 15082,
    "perth": 22173,
    "Ġpig": 5705,
    "Ġhiss": 15785,
    "Ġdisasters": 16051,
    "Ġsecret": 3718,
    "angel": 5726,
    "Ġpaint": 7707,
    "lotte": 3331,
    "crooked": 25746,
    "Ġbrix": 12580,
    "Ġcam": 10161,
    "Ġpreference": 9732,
    "Ġcakes": 13883,
    "impud": 23759,
    "sombre": 23852,
    "form": 495,
    "Ġimitated": 18329,
    "Ġerection": 23998,
    "okers": 18441,
    "Ġadmitted": 8986,
    "Ġjer": 6266,
    "Ġpowerful": 1535,
    "ish": 550,
    "Ġcostume": 16494,
    "Ġdisk": 22519,
    "Ġrepine": 16408,
    "datasets": 11952,
    "Ġunwillingly": 15846,
    "Ġconsoled": 18112,
    "performed": 18339,
    "Ġundoing": 22028,
    "stretch": 13980,
    "Ġfitting": 21406,
    "Ġpresuming": 16793,
    "Ġsiam": 13837,
    "ghan": 19453,
    "Ġunexplored": 26518,
    "Ġuppermost": 15277,
    "hauteur": 26391,
    "rushed": 10584,
    "alter": 10826,
    "ck": 436,
    "Ġread": 1446,
    "Ġgreatly": 5849,
    "Ġterra": 13115,
    "Ġowning": 18744,
    "Ġfaltering": 17884,
    "Ġcertain": 1556,
    "Ġuniversity": 13120,
    "admiration": 11387,
    "Ġlomb": 21556,
    "Ġjourneying": 25565,
    "Ġming": 9645,
    "pure": 17626,
    "boats": 6204,
    "Ġpleas": 1908,
    "princ": 8620,
    "Ġclosed": 4605,
    "Ġeconomical": 25287,
    "Ġoffspring": 16143,
    "abst": 21785,
    "Ġcheering": 11133,
    "mering": 12488,
    "Ġopposing": 12039,
    "Ġbagging": 24539,
    "iber": 6506,
    "Ġhugh": 15004,
    "Ġuttered": 7280,
    "Ĕ": 213,
    "Ġdowncast": 18652,
    "Ġsoles": 22076,
    "Ġprocession": 11773,
    "means": 9785,
    "Ġcalcul": 3635,
    "genteel": 19947,
    "Ġarctic": 12809,
    "rendered": 22336,
    "vitality": 20477,
    "akeman": 6267,
    "Ġapproached": 5843,
    "Ġinfrequent": 3823,
    "childhood": 16868,
    "Ġroads": 13286,
    "Ġabomination": 22275,
    "Ġkith": 22189,
    "pit": 3982,
    "Ġfrequently": 4680,
    "Ġvoyages": 6908,
    "Ġthistle": 21913,
    "Ġleaned": 7607,
    "Ġcontrolled": 23248,
    "Ġsuspect": 5758,
    "Ġseamen": 5063,
    "Ġsetbacks": 11063,
    ":": 30,
    "Ġoverflow": 10291,
    "Ġinevitable": 15166,
    "Ġkilling": 13331,
    "Ġoperated": 14547,
    "Ġregularly": 7657,
    "aste": 4601,
    "Ġrelics": 16193,
    "arming": 8951,
    "Ġbacking": 16115,
    "penn": 18826,
    "Ġnail": 9195,
    "@": 36,
    "Ġthw": 21512,
    "Ġwafted": 14500,
    "Ġsalut": 10509,
    "Ġpills": 21463,
    "ner": 1372,
    "Ġtut": 8769,
    "echo": 15347,
    "Ġsupp": 1266,
    "Ġwor": 1188,
    "Ġimages": 1601,
    "reme": 2428,
    "darted": 20831,
    "Ġunreasonably": 17450,
    "Ġaround": 3609,
    "Ġvort": 18193,
    "understanding": 1126,
    "miserable": 8656,
    "Ġrepay": 19081,
    "Ġoakshott": 12227,
    "cheon": 23802,
    "Ġallurements": 22067,
    "Ġresulting": 24198,
    "Ġsqueezed": 20034,
    "oup": 2016,
    "Ġruins": 16156,
    "ractions": 11632,
    "aborate": 14021,
    "Ġobserved": 3540,
    "Ġoh": 2174,
    "Ġfavourable": 7958,
    "Ġalternate": 19984,
    "lucas": 15150,
    "zors": 21146,
    "ill": 447,
    "Ġhidden": 1376,
    "Ġdissipate": 13632,
    "Ġpleasures": 11143,
    "Ġnieces": 8432,
    "Ġheadlands": 22894,
    "Ġsaturation": 2062,
    "fell": 6953,
    "tack": 12510,
    "Ġcatching": 9477,
    "Ġinstance": 2548,
    "Ġsweat": 13139,
    "Ġbrink": 18770,
    "Ġpants": 21462,
    "Ġaffinity": 18787,
    "Ġseventeen": 26210,
    "Ġparchment": 13651,
    "dish": 12450,
    "tro": 15432,
    "splice": 17170,
    "thirds": 25046,
    "ell": 396,
    "Ġpier": 7162,
    "rod": 10831,
    "Ġtamely": 24977,
    "Ġharpooned": 13259,
    "Ġelated": 18634,
    "Ġfactor": 19012,
    "Ġcrumbs": 20639,
    "Ġbalmoral": 16205,
    "Ġcaut": 6521,
    "roll": 9196,
    "razor": 21634,
    "Ġvile": 8472,
    "Ġtrustworthy": 24105,
    "Ġwashes": 21858,
    "Ġendow": 23138,
    "Ġsort": 1506,
    "Ġstre": 2107,
    "Ġenticing": 22743,
    "Ġnaked": 8126,
    "Ġfacil": 16962,
    "Ġunful": 22004,
    "Ġimpulsive": 19961,
    "Ġreef": 10849,
    "iable": 3334,
    "Ġwounds": 17790,
    "ots": 3296,
    "Ġtou": 15465,
    "Ġsucc": 12780,
    "Ġrich": 2996,
    "isive": 10793,
    "Ġlikes": 9407,
    "alous": 7372,
    "Ġinvoked": 19144,
    "natured": 7110,
    "ortment": 22254,
    "Ġcanaller": 25467,
    "obvious": 9356,
    "Ġunlocked": 14118,
    "ulates": 14054,
    "Ġgiant": 13967,
    "Ġpreserving": 19795,
    "between": 5071,
    "Ġpenetrated": 13471,
    "Ġintervene": 25480,
    "ream": 2709,
    "Ġhay": 11604,
    "likewise": 13103,
    "Ġhelplessly": 20076,
    "Ġrevive": 13478,
    "Ġtro": 7356,
    "Ġcrozetts": 19628,
    "trees": 10731,
    "burst": 10537,
    "python": 4692,
    "Ġdromedary": 17438,
    "Ġmetropolis": 17274,
    "Ġneedn": 19228,
    "wing": 2522,
    "isol": 17846,
    "Ġchamber": 6213,
    "))": 1514,
    "Ġembarrassed": 11384,
    "musical": 25340,
    "inct": 3294,
    "Ġintimacy": 8700,
    "Ġcrimson": 16440,
    "Ġfo": 1652,
    "admit": 18090,
    "Ġcur": 1246,
    "Ġdiscre": 2420,
    "Ġem": 1924,
    "pron": 9005,
    "Ġgayer": 24501,
    "Ġcontract": 18475,
    "sold": 15425,
    "Ġle": 333,
    "Ġdiscern": 7925,
    "Ġplunge": 13442,
    "Ġgardeners": 12118,
    "Ġhanding": 16128,
    "readers": 23845,
    "forks": 26387,
    "Ġtormenting": 15103,
    "Ġsimil": 2534,
    "Ġvelocity": 10620,
    "proceeding": 20140,
    "Ġwitness": 4622,
    "Ġwandered": 6930,
    "denial": 18714,
    "gans": 11489,
    "Ġinvolves": 1118,
    "Ġbre": 1915,
    "minutes": 7512,
    "Ġpraying": 19553,
    "Ġtropical": 17065,
    "Ġunassuming": 20507,
    "Ġunnecessary": 8851,
    "Ġbrah": 19355,
    "Ġtemporal": 2613,
    "Ġextreme": 2518,
    "supers": 22630,
    "given": 8376,
    "Ġbriskly": 25311,
    "Ġbasis": 16961,
    "Ġpicturesque": 14893,
    "iating": 3207,
    "otions": 7180,
    "committed": 18734,
    "Ġpict": 3497,
    "lorious": 17592,
    "cutting": 23783,
    "Ġaverse": 11081,
    "Ġunidirectional": 3426,
    "level": 2653,
    "Ġroughly": 17040,
    "zeal": 16257,
    "Ġpain": 2302,
    "Ġcot": 13876,
    "rogress": 21533,
    "Ġpreliminaries": 25176,
    "unhes": 21872,
    "sign": 8387,
    "Ġsepulch": 15283,
    "Ġcells": 13884,
    "wers": 12517,
    "Ġtrampled": 20327,
    "Ġindex": 17049,
    "Ġconnections": 970,
    "ean": 20839,
    "fairly": 17219,
    "handle": 11190,
    "repeating": 20127,
    "Ġvoyager": 16511,
    "Ġlurks": 11290,
    "xic": 9145,
    "Ġsteward": 6584,
    "Ġfold": 5531,
    "mid": 5617,
    "Ġparagra": 15877,
    "suspicious": 25390,
    "Ġboasting": 19934,
    "Ġfemales": 14936,
    "vulgar": 25918,
    "heat": 15496,
    "Ġexperiment": 11911,
    "Ġarmy": 11739,
    "mospheric": 17091,
    "Ġappropri": 2226,
    "Ġix": 12665,
    "Ġcurbstone": 26042,
    "pro": 2050,
    "Ġerr": 1321,
    "Ġgrieve": 14706,
    "spades": 14335,
    "igations": 18042,
    "asing": 5911,
    "Ġbuildings": 24720,
    "Ġmasking": 2423,
    "imprisonment": 23761,
    "Ġconfound": 23301,
    "close": 9985,
    "Ġconcussion": 26300,
    "Ġrelinqu": 12980,
    "Ġrounds": 18885,
    "Ġsnoo": 21227,
    "Ġcomparison": 7099,
    "Ġslee": 8974,
    "Ġcher": 6129,
    "Ġsav": 3358,
    "Ġcruel": 5121,
    "Ġseap": 15812,
    "Ġdomes": 23668,
    "Ġlowerings": 23645,
    "Ġaccess": 9746,
    "vessels": 10625,
    "Ġacceded": 22376,
    "Ġconfirmation": 17210,
    "Ġblank": 5950,
    "Ġoverhear": 15968,
    "alarmed": 21500,
    "ford": 2822,
    "smug": 23905,
    "agon": 7870,
    "bethinking": 25745,
    "Ġcravat": 26307,
    "Ġdimension": 3242,
    "door": 6193,
    "mbly": 9794,
    "Ġthunders": 15635,
    "Ġpunctil": 20112,
    "Ġpaternal": 16360,
    "eds": 6674,
    "fancy": 7337,
    "Ġdelivered": 11115,
    "halfway": 24311,
    "Ġrephrased": 26477,
    "Ġhardware": 4904,
    "Ġamateur": 22482,
    "Ġoverlooked": 15966,
    "reeling": 21243,
    "vative": 1589,
    "Ġginger": 9210,
    "Ġminiature": 11039,
    "Ġgravely": 7882,
    "Ġacquiesce": 20328,
    "brit": 19198,
    "Ġgene": 15669,
    "Ġblameless": 19858,
    "Ġtomb": 8807,
    "eding": 7165,
    "Ġstagger": 10591,
    "Ġpasture": 14543,
    "qual": 8156,
    "Ġhovel": 8253,
    "Ġunfinished": 19508,
    "ch": 321,
    "Ġhereford": 22872,
    "usually": 10285,
    "Ġtemporary": 7980,
    "Ġrising": 4357,
    "rents": 5308,
    "notwithstanding": 22748,
    "activity": 22628,
    "Ġheaviest": 23321,
    "Ġ14": 9322,
    "Ġtire": 17720,
    "Ġmining": 22826,
    "torn": 17682,
    "kles": 17584,
    "Ġdante": 21436,
    "dependence": 17167,
    "Ġreleased": 2980,
    "Ġcyn": 13885,
    "400": 20754,
    "Ġworkman": 16262,
    "weigh": 18665,
    "ange": 1016,
    "Ġindependently": 4247,
    "Ġquiet": 3262,
    "?--": 15302,
    "unpardonable": 21887,
    "Ġsee": 804,
    "Ġdidn": 4364,
    "Ġarrangement": 2658,
    "considerable": 10548,
    "antic": 1606,
    "Ġexcite": 11964,
    "Ġmarvels": 11084,
    "Ġgriefs": 16771,
    "Ġsable": 15499,
    "bird": 9585,
    "Ġbecame": 2692,
    "stealthily": 23959,
    "Ġunden": 22006,
    "miniature": 16765,
    "Ġdefe": 21832,
    "Ġirretrie": 23372,
    "Ġmin": 1024,
    "Ġgentlemanlike": 12064,
    "odious": 21812,
    "Ġassuredly": 14821,
    "Ġprairies": 20019,
    "greater": 13249,
    "scarcely": 12384,
    "consuming": 25674,
    "Ġalleg": 14016,
    "Ġlover": 7193,
    "Ġunrelieved": 20544,
    "Ġproprietors": 20185,
    "fishery": 10031,
    "Ġcompassionate": 24723,
    "Ġwon": 1664,
    "zening": 21147,
    "Ġask": 1491,
    "Ġreplying": 19580,
    "Ġdifficulty": 5770,
    "Ġquieted": 23840,
    "tomorrow": 25914,
    "Ġconjugal": 25101,
    "peleg": 16292,
    "Ġshaster": 21995,
    "Ġarchitect": 989,
    "Ġbennets": 9805,
    "Ġrebell": 21666,
    "Ġmerest": 14029,
    "Ġdrunken": 12048,
    "lipped": 16215,
    "code": 15328,
    "Ġpouring": 12621,
    "Ġphilipses": 24452,
    "Ġincrust": 22548,
    "Ġevil": 3805,
    "kl": 4865,
    "Ġclouded": 13289,
    "Ġott": 13865,
    "Ġsoothingly": 25047,
    "suitable": 18630,
    "iloquent": 21722,
    "spring": 7231,
    "Ġlift": 8810,
    "Ġconscious": 7743,
    "Ġhysterical": 26092,
    "Ġmaximizing": 3172,
    "Ġroman": 8322,
    "Ġnavies": 16900,
    "Ġoutlined": 22317,
    "Ġbelieved": 4370,
    "enari": 21280,
    "Ġhereby": 10358,
    "Ġpit": 3420,
    "buff": 15317,
    "ato": 17769,
    "Ġcomposition": 1686,
    "Ġaccompl": 5167,
    "Ġrattler": 24995,
    "pped": 2000,
    "Ġsundering": 23272,
    "Ġcalls": 6744,
    "jug": 17580,
    "Ġeasiness": 23536,
    "Ġhissing": 15787,
    "Ġstables": 23653,
    "Ġkindness": 4096,
    "Ġabominably": 20064,
    "borean": 25743,
    "Ġ61": 24364,
    "definition": 23115,
    "hmael": 7342,
    "sartain": 25622,
    "hollow": 24038,
    "sentimental": 25681,
    "Ġlashings": 25097,
    "similar": 13452,
    "Ġbunch": 11326,
    "Ġbarren": 11206,
    "Ġlawyers": 25248,
    "Ġcivilly": 19602,
    "Ġminers": 22828,
    "Ġorthodox": 22092,
    "Ġhunted": 7453,
    "ĠĠĠĠĠĠĠĠĠĠĠĠĠĠĠĠĠĠĠĠĠĠĠĠĠĠĠĠĠĠĠĠĠĠĠĠ": 23662,
    "Ġtents": 13817,
    "bro": 4033,
    "aiian": 23591,
    "Ġpedro": 14994,
    "Ġbegin": 3101,
    "Ġalice": 1481,
    "itering": 17818,
    "Ġhaven": 8473,
    "otence": 14022,
    "missionary": 24615,
    "Ġemir": 23348,
    "Ġbaptized": 25774,
    "inted": 2649,
    "dispute": 23499,
    "Ġmedium": 16681,
    "Ġrecovery": 11441,
    "Ġuntidy": 23522,
    "Ġori": 8408,
    "astonished": 15032,
    "Ġanimated": 7701,
    "Ġcraggy": 23529,
    "dering": 5305,
    "Ġunfolding": 17086,
    "Ġbug": 11588,
    "remark": 7261,
    "elope": 14467,
    "Ġwhistle": 9065,
    "Ġkiss": 8182,
    "Ġrage": 5110,
    "expected": 5780,
    "Ġregions": 10324,
    "Ġolfactories": 26171,
    "Ġork": 18284,
    "blue": 13692,
    "Ġgrated": 22803,
    "Ġsidelong": 11438,
    "Ġherb": 15854,
    "oise": 15403,
    "pun": 9617,
    "sympathy": 20541,
    "Ġfine": 1316,
    "Ġvigorously": 11299,
    "Ġmeasured": 9803,
    "Ġcaravan": 26290,
    "Ġperempt": 13672,
    "Ġnecks": 18179,
    "Ġaffirmative": 15221,
    "frankly": 20020,
    "Ġtuesday": 9626,
    "Ġreduces": 2345,
    "lab": 3456,
    "Ġpedest": 14995,
    "jephro": 26392,
    "Ġframe": 1848,
    "Ġdelirium": 10405,
    "Ġdeclaring": 19418,
    "approach": 24833,
    "Ġerror": 1767,
    "knowledge": 7478,
    "Ġmoody": 8200,
    "ity": 417,
    "Ġsymph": 22208,
    "tossed": 10997,
    "reckoning": 25270,
    "Ġbriefly": 11367,
    "Ġstarry": 16923,
    "Ġbaggy": 24538,
    "Ġnoisy": 13317,
    "completely": 12418,
    "Ġtough": 13814,
    "laugh": 10108,
    "Ġpursued": 6328,
    "Ġnatur": 17333,
    "ending": 1992,
    "Ġenjoyments": 24016,
    "Ġbig": 5805,
    "Ġdue": 3843,
    "dishonourable": 26365,
    "Ġthrone": 12211,
    "Ġstripping": 23695,
    "obey": 11509,
    "third": 8167,
    "Ġrod": 9279,
    "Ġlegal": 10439,
    "Ġ1991": 3018,
    "Ġcyl": 15554,
    "walls": 25345,
    "Ġvector": 1973,
    "isc": 6239,
    "lier": 20948,
    "Ġtastes": 15476,
    "nature": 5359,
    "Ġloves": 10915,
    "clouded": 20330,
    "Ġwalked": 3142,
    "Ġcracked": 8594,
    "Ġfortunes": 12176,
    "Ġexcessively": 9439,
    "fins": 13718,
    "sius": 13787,
    "Ġdug": 21428,
    "Ġimaginary": 11186,
    "Ġconstitution": 20107,
    "Ġremot": 8543,
    "Ġblunder": 18818,
    "hoisting": 23715,
    "Ġdomin": 10462,
    "Ġhandling": 8912,
    "Ġvicissitudes": 12417,
    "aul": 6352,
    "desponding": 26341,
    "Ġjoist": 19231,
    "rals": 21041,
    "Ġscrape": 14917,
    "Ġdevice": 1929,
    "Ġrabb": 4163,
    "ert": 2632,
    "Ġembed": 1441,
    "Ġseverity": 15815,
    "Ġlengthen": 15651,
    "dread": 8728,
    "tray": 21076,
    "Ġpiling": 17908,
    "Ġanimate": 23421,
    "Ġoutsk": 15954,
    "ied": 941,
    "ibility": 2395,
    "Ġlimber": 16478,
    "Ġdisguises": 25055,
    "Ġprop": 1680,
    "seaman": 25457,
    "Ġwarm": 2429,
    "Ġunaccountable": 7885,
    "Ġbefell": 14009,
    "fortunately": 9449,
    "Ġelias": 18635,
    "Ġglimmering": 25240,
    "Ġlimb": 9401,
    "Ġwhaling": 2782,
    "Ġrepairs": 19083,
    "departed": 24794,
    "ized": 1526,
    "boo": 16349,
    "Ġhorses": 6385,
    "initely": 7568,
    "Ġca": 21337,
    "Ġitems": 9691,
    "Ġsturgeon": 20590,
    "varieties": 23183,
    "Ġpromoting": 3164,
    "Ġneurons": 975,
    "overing": 6306,
    "je": 11495,
    "Ġcontentment": 14869,
    "Ġlengthwise": 10452,
    "dancing": 12452,
    "anting": 6412,
    "official": 24914,
    "otent": 8831,
    "opy": 4459,
    "Ġbrand": 16184,
    "Ġgamb": 17997,
    "Ġbowls": 23769,
    "Ġothers": 2584,
    "Ġlighting": 13081,
    "Ġchoking": 15932,
    "stem": 574,
    "iline": 21718,
    "surrounded": 26088,
    "Ġdesk": 11904,
    "Ġriddle": 14819,
    "shirt": 22455,
    "ifferent": 4264,
    "Ġmaid": 5285,
    "distressed": 24199,
    "antly": 1991,
    "Ġloving": 8175,
    "network": 1956,
    "Ġminded": 23227,
    "thankful": 16806,
    "Ġclothe": 4712,
    "tor": 15431,
    "repaid": 24491,
    "Ġtaking": 3251,
    "Ġcarav": 18901,
    "Ġobstructed": 24677,
    "Ġdreaming": 11223,
    "Ġcloak": 9533,
    "Ġearthy": 23711,
    "Ġabsurdities": 24878,
    "quakes": 21853,
    "swinging": 25912,
    "itigated": 23044,
    "Ġpersonal": 7479,
    "script": 11077,
    "Ġwave": 7575,
    "assured": 10953,
    "Ġobliterated": 17404,
    "Ġposter": 14278,
    "Ġbuck": 7157,
    "useful": 16502,
    "Ġcommands": 16589,
    "Ġdesignated": 19520,
    "ress": 930,
    "Ġsyrian": 18354,
    "Ġlater": 6016,
    "Ġeyelids": 26107,
    "rapidly": 15242,
    "Ġvibrated": 25045,
    "Ġlimits": 3453,
    "hent": 12531,
    "Ġsof": 18281,
    "Ġstormy": 16728,
    "officer": 17054,
    "Ġtransformer": 2636,
    "Ġmeditative": 25014,
    "Ġgaieties": 24195,
    "Ġfacility": 19849,
    "Ġappertain": 22216,
    "red": 398,
    "Ġsweep": 8265,
    "inform": 10143,
    "itself": 7834,
    "cond": 1666,
    "aways": 15309,
    "train": 2035,
    "Ġtablet": 19205,
    "Ġallowance": 14388,
    "Ġturnkeys": 23027,
    "Ġadjac": 18294,
    "catherine": 7127,
    "Ġuneasily": 24230,
    "elstrom": 17981,
    "Ġfewer": 16223,
    "Ġprodigiously": 14931,
    "olstadt": 7788,
    "Ġsight": 2110,
    "drovand": 24760,
    "Ġattack": 5478,
    "Ġshutter": 16670,
    "Ġgrowth": 14628,
    "Ġhaz": 12752,
    "Ġapiece": 16813,
    "screaming": 20324,
    "Ġscar": 3212,
    "infer": 10144,
    "wester": 21137,
    "Ġah": 5075,
    "Ġvexatious": 19780,
    "Ġsum": 2700,
    "Ġdeterminate": 23003,
    "ies": 582,
    "Ġpalmed": 24088,
    "Ġworkflow": 2371,
    "Ġoverhanging": 22351,
    "Ġunhappily": 18259,
    "Ġade": 22101,
    "caps": 20806,
    "Ġhire": 21482,
    "mission": 5969,
    "science": 11906,
    "Ġintervened": 25481,
    "voy": 7143,
    "Ġaccumulating": 2722,
    "Ġfurnish": 9018,
    "Ġsummit": 7730,
    "Ġbeauties": 10445,
    "Ġundeserving": 18265,
    "Ġcherub": 23286,
    "mael": 6723,
    "Ġ25": 13191,
    "Ġperiodically": 19493,
    "Ġgenealogies": 25961,
    "Ġdepicted": 14277,
    "spike": 16137,
    "Ġmand": 21303,
    "seek": 8836,
    "Ġricher": 12756,
    "Ġpowers": 5419,
    "acity": 5734,
    "disposition": 10041,
    "Ġkeys": 11995,
    "Ġbroad": 3637,
    ";âĢĶ": 3747,
    "Ġhovering": 10178,
    "Ġmixed": 6974,
    "fast": 3073,
    "Ġswords": 19896,
    "overcoat": 19050,
    "Ġgleaming": 24993,
    "law": 6115,
    "board": 3564,
    "Ġmatrim": 11060,
    "Ġresearches": 13123,
    "Ġbanquet": 15239,
    "amouch": 21842,
    "Ġceti": 24773,
    "Ġperforming": 7927,
    "Ġmaz": 15539,
    "Ġcalms": 23040,
    "iary": 15369,
    "Ġshelter": 17008,
    "Ġplunder": 22602,
    "Ġgrasping": 12163,
    "Ġcrippled": 25278,
    "Ġperceived": 4714,
    "lands": 8240,
    "Ġrecesses": 17260,
    "Ġconsequence": 5542,
    "Ġborn": 5224,
    "Ġidea": 2490,
    "utes": 5913,
    "Ġthinkings": 22809,
    "Ĩ": 233,
    "Ġexhilarating": 26337,
    "Ġgoodge": 22820,
    "westward": 25424,
    "Ġflatt": 16246,
    "ultaneous": 18583,
    "Ġincrease": 9369,
    "imen": 12683,
    "tout": 21064,
    "Ġbecause": 2208,
    "Ġdisconcerted": 18562,
    "Ġdebts": 8035,
    "Ġflew": 5588,
    "Ġshameful": 19851,
    "Ġwhims": 12689,
    "Ġobeisance": 19757,
    "Ġparm": 15875,
    "Ġcove": 22578,
    "charles": 14698,
    "Ġcorrespondence": 10594,
    "bulwarks": 12270,
    "Ġlearnable": 3995,
    "Ġunp": 12768,
    "Ġastonishment": 4794,
    "sleeping": 13453,
    "wheels": 14380,
    "Ġglimp": 6065,
    "Ġwhereon": 16099,
    "summon": 23414,
    "Ġearthly": 7989,
    "Ġpremium": 23902,
    "Ġdistinguishing": 16495,
    "Ø": 153,
    "Ġdevotedly": 24750,
    "proceed": 8976,
    "Ġglo": 1714,
    "Ġtreated": 7080,
    "grant": 10427,
    "Ġep": 7384,
    "Ġcapsizing": 20087,
    "vity": 7815,
    "Ġemotion": 7689,
    "Ġrevolving": 9982,
    "illity": 18296,
    "appears": 12058,
    "Ġcronies": 23443,
    "Ġstealing": 18894,
    "Ġsincerity": 13677,
    "ibilities": 13005,
    "Ġlogs": 16344,
    "Ġoccasioned": 13225,
    "Ġeven": 1025,
    "Ġinquirers": 24962,
    "Ġfacts": 2286,
    "Ġrending": 19465,
    "Ġmamm": 25090,
    "Ġconsented": 11295,
    "ra": 314,
    "Ġstrict": 7222,
    "Ġdynamically": 4138,
    "Ġoverpow": 14203,
    "pha": 22773,
    "Ġundet": 16704,
    "boscombe": 26121,
    "Ġwhistling": 19789,
    "Ġupp": 13991,
    "rooms": 10432,
    "ilburn": 18059,
    "etical": 13957,
    "Ġaltitude": 26202,
    "aved": 5476,
    "Ġsacrifice": 9555,
    "Ġwallow": 19464,
    "isen": 10792,
    "Ġunconsciously": 10004,
    "Ġbe": 336,
    ".)": 6783,
    "indust": 18435,
    "Ġlack": 17963,
    "esty": 4308,
    "Ġcommentaries": 20159,
    "nor": 2740,
    "Ġsolitary": 5854,
    "Ġsupply": 6066,
    "field": 3074,
    "evid": 11484,
    "Ġdispatched": 23879,
    "Ġprayer": 16666,
    "Ġnurse": 9516,
    "myself": 5113,
    "Ġhide": 4589,
    "Ġvicious": 24403,
    "cun": 20794,
    "ick": 835,
    "Ġprudential": 17917,
    "heartily": 24215,
    "like": 1886,
    "steps": 9404,
    "Ġindef": 9189,
    "adventure": 17233,
    "osque": 22259,
    "Ġdistingu": 2517,
    "Ġutter": 3974,
    "Ġjacob": 1900,
    "Ġfocus": 4237,
    "Ġanguish": 5584,
    "Ġbec": 1348,
    "atically": 2812,
    "librarian": 26568,
    "Ġof": 298,
    "Ġprinces": 23218,
    "ĠÂ£": 5006,
    "Ġconfinement": 19038,
    "Ġtelegra": 11889,
    "hopeless": 16917,
    "=": 33,
    "Ġsqueeze": 10038,
    "Ġerie": 20052,
    "hered": 5623,
    "Ġbritain": 16956,
    "Ġgraphs": 25463,
    "Ġchewing": 23284,
    "Ġincurable": 22550,
    "ittance": 12842,
    "Ġvisits": 8222,
    "responsible": 25763,
    "Ġacquaintances": 17349,
    "Ġaqu": 17742,
    "removing": 17764,
    "Ġcrop": 10162,
    "wanted": 10743,
    "Ġtass": 15469,
    "Ġservice": 6471,
    "iling": 3096,
    "mies": 20967,
    "Ġsutherland": 10148,
    "vember": 10855,
    "itching": 21333,
    "pour": 17630,
    "Ġfortifications": 23619,
    "Ġmoran": 9341,
    "Ġit": 339,
    "commod": 16167,
    "uble": 21101,
    "Ġproblems": 2848,
    "Ġemig": 14524,
    "Ġdissolved": 18554,
    "onze": 21254,
    "Ġlane": 5627,
    "Ġthro": 5817,
    "famous": 16916,
    "âĢĶ.âĢĿ": 22252,
    "Ġunclad": 22047,
    "them": 3021,
    "Ġexaggerate": 25649,
    "Ġdevilish": 11228,
    "fields": 14653,
    "obtain": 23091,
    "Ġtoes": 10829,
    "astonishment": 10029,
    "hardly": 6491,
    "Ġbraved": 23835,
    "Ġowed": 10780,
    "noted": 22746,
    "Ġlace": 13948,
    "Ġid": 1911,
    "Ġvocabulary": 4995,
    "acc": 2537,
    "Ġrevelation": 25222,
    "cst": 10084,
    "Ġseize": 8165,
    "Ġbrief": 6976,
    "Ġlun": 7855,
    "Ġanoints": 25538,
    "Ġpocket": 4898,
    "Ġapoplexy": 25265,
    "Ġcheek": 8577,
    "necessity": 13366,
    "Ġphyset": 23197,
    "Ġopposite": 5120,
    "Ġconfluent": 19039,
    "Ġfrequencies": 4789,
    "Ġfinal": 5400,
    "fights": 20864,
    "yth": 982,
    "Ġdiscoursing": 26266,
    "Ġheroism": 24544,
    "Ġinfants": 16365,
    "Ġeddying": 16434,
    "itious": 8779,
    "Ġhoped": 5488,
    "Ġexecutioner": 12269,
    "Ġdetection": 3347,
    "Ġbaling": 17859,
    "Ġtoiling": 15632,
    "Ġinarticulate": 21497,
    "Ġunmolested": 15244,
    "nne": 20988,
    "Ġinclude": 1876,
    "Ġsurmisings": 26593,
    "Ġmoderate": 10938,
    "Ġprecious": 5760,
    "Ġingen": 9049,
    "Ġcircum": 8257,
    "Ġcomputation": 964,
    "Ġidentical": 10434,
    "fro": 8732,
    "braid": 17494,
    "Ġsubordinate": 18722,
    "Ġabhorrence": 9052,
    "Ġnoises": 18373,
    "Ġcondu": 18109,
    "Ġfowls": 8690,
    "Ġpillar": 21470,
    "Ġtribe": 10751,
    "ourage": 2455,
    "helmsman": 24287,
    "Ġinfancy": 10409,
    "Ġdiverged": 23593,
    "Ġknowing": 4458,
    "Ġimpelling": 22382,
    "Ġcrowds": 14739,
    "excitement": 19668,
    "Ĉ": 201,
    "bedstead": 23847,
    "Ġfeverish": 11348,
    "Ġfrantically": 23255,
    "assin": 22302,
    "izens": 18143,
    "Ġmorning": 1750,
    "Ġquenched": 22414,
    "Ġcovari": 2340,
    "Ġsenior": 17171,
    "wal": 10133,
    "Ġtraditions": 11443,
    "impress": 18051,
    "begone": 12875,
    "Ġfact": 1727,
    "Ġapology": 8327,
    "ulls": 8837,
    "Ġknocking": 10559,
    "Ġfragment": 14497,
    "Ġobtruded": 20721,
    "Ġtongues": 14862,
    "Ġeffective": 1249,
    "Ġkne": 4268,
    "Ġobsequ": 14319,
    "Ġdistur": 5312,
    "Ġmincing": 18750,
    "Ġtoad": 21507,
    "Ġdiversity": 25284,
    "Ġdexterous": 15147,
    "Ġsubmitted": 11869,
    "Ġperadventure": 22395,
    "Ġshyness": 20305,
    "hum": 3777,
    "fra": 8374,
    "aud": 8521,
    "Ġsmothe": 18574,
    "Ġbristles": 25843,
    "Ġum": 10211,
    "Ġmethodic": 23141,
    "methodically": 20663,
    "Ġenergetic": 15196,
    "Ġassociate": 13449,
    "Ġdevoured": 16135,
    "_": 67,
    "Ġtides": 13820,
    "Ġprying": 15606,
    "izers": 18142,
    "backward": 2683,
    "Ġabstra": 22268,
    "Ġperformance": 1306,
    "Ġforced": 4354,
    "Ġgrapple": 25811,
    "Ġperpendicular": 7209,
    "Ġwaifing": 25243,
    "Ġenlar": 15798,
    "Ġklan": 23658,
    "Ġbravery": 23834,
    "hom": 12471,
    "culiar": 2820,
    "ediction": 17944,
    "Ġbradstreet": 9576,
    "Ġcarpenters": 16752,
    "Ġfork": 15729,
    "Ġearlier": 9086,
    "Ġimpression": 5732,
    "oes": 4435,
    "Ġdispleasure": 16049,
    "chairs": 21690,
    "ibly": 2998,
    "barbaric": 26358,
    "Ġsullenly": 17172,
    "Ġchronicled": 25328,
    "Ġimplicit": 19956,
    "five": 6356,
    "morland": 24152,
    "Ġsymphony": 26532,
    "repeated": 12337,
    "treat": 12511,
    "Ġbumps": 21390,
    "pshaw": 21027,
    "Ġcompre": 4450,
    "Ġcigaret": 16976,
    "Ġwashing": 9704,
    "Ġdeficient": 18824,
    "menced": 23143,
    "Ġfolio": 11917,
    "Ġswain": 18880,
    "farewell": 12304,
    "iences": 6957,
    "reserve": 17765,
    "Ġthroughout": 8876,
    "Ġalighted": 18103,
    "Ġreserved": 7515,
    "angible": 22099,
    "Ġwisdom": 11233,
    "friendly": 13282,
    "seventy": 10876,
    "Ġraiment": 22646,
    "ication": 967,
    "Ġdistrust": 8203,
    "tisement": 6767,
    "Ġcoarse": 14276,
    "Ġcarriages": 11098,
    "Ġan": 286,
    "Ġevident": 6611,
    "Ġard": 5164,
    "Ġfunctions": 1340,
    "Ġwelcomed": 9481,
    "Ġpathetic": 19021,
    "Ġpurporting": 19182,
    "Ġmystic": 7503,
    "Ġcalendar": 18876,
    "ulent": 21859,
    "gathered": 13731,
    "Ġyielding": 12184,
    "fourths": 25509,
    "Ġgraph": 10902,
    "Ġencoder": 3633,
    "chors": 11643,
    "shad": 10982,
    "accomplishment": 20222,
    "butter": 11783,
    "Ġselfishness": 12287,
    "varied": 23181,
    "Ġwho": 613,
    "Ġanne": 1527,
    "expectant": 24275,
    "Ġdere": 21831,
    "Ġcompasses": 11267,
    "ised": 1063,
    "hilar": 25081,
    "Ġinjustice": 9190,
    "peare": 18911,
    "Ġsavesoul": 26227,
    "hotel": 20048,
    "Ġsince": 1795,
    "Ġcrawled": 17044,
    "nades": 20996,
    "Ġequ": 1734,
    "magnitude": 17248,
    "Ġangle": 8602,
    "Ġcharcoal": 19007,
    "Ġstair": 8455,
    "Ġpermitted": 9277,
    "appointment": 24057,
    "Ġlassitude": 20585,
    "fed": 11487,
    "og": 865,
    "Ġadmin": 23552,
    "Ġchart": 10946,
    "Ġvital": 9242,
    "blunder": 24128,
    "Ġretrogression": 26581,
    "honey": 20904,
    "urs": 6989,
    "enjoyment": 17257,
    "pronounce": 25192,
    "Ġbert": 4582,
    "ints": 3417,
    "atigable": 15269,
    "catch": 17506,
    "izar": 14049,
    "Ġdegrees": 7294,
    "Ġtoy": 15631,
    "Ġentries": 22742,
    "distinguished": 10526,
    "Ġundecided": 22041,
    "Ġrational": 8479,
    "Ġplead": 14454,
    "Ġtiara": 26415,
    "greeting": 24554,
    "Ġwine": 6810,
    "Ġinattention": 17931,
    "Ġbrighton": 6470,
    "itude": 1417,
    "pire": 9135,
    "Ġdissuade": 26256,
    "Ġarrowy": 25469,
    "Ġswept": 7977,
    "entered": 8814,
    "Ġmexico": 15279,
    "ĠĠĠĠĠĠĠĠĠĠĠĠĠĠĠĠĠĠĠĠĠĠĠĠĠĠĠĠĠĠĠĠĠĠĠĠĠĠĠĠĠĠĠĠĠĠĠĠĠĠĠ": 20037,
    "```": 25893,
    "Ġlanterns": 24577,
    "Ġcolonial": 22855,
    "burn": 8370,
    "Ġunite": 9253,
    "consolatory": 25306,
    "Ġremorse": 6441,
    "carriage": 9945,
    "Ġhalyards": 21491,
    "stache": 15687,
    "Ġdeb": 4764,
    "happily": 14657,
    "Ġimpenitent": 26548,
    "Ġtornado": 24621,
    "fifty": 12350,
    "barbs": 20236,
    "tick": 17678,
    "feed": 9292,
    "Ġmeek": 21806,
    "Ġmadam": 5663,
    "speaking": 12096,
    "Ġexe": 3994,
    "Ġcritics": 23445,
    "christmas": 20254,
    "Ġhospital": 15039,
    "Ġarguments": 8036,
    "Ġmajestic": 8639,
    "Ġeyelashes": 26106,
    "allions": 22195,
    "abulary": 4800,
    "row": 1068,
    "Ġmen": 1434,
    "Ġcanterbury": 22164,
    "complet": 11383,
    "Ġhue": 8428,
    "Ġtables": 9877,
    "pulous": 15415,
    "laughed": 20280,
    "Ġsaxon": 25468,
    "Ġabomin": 8188,
    "Ġfrocks": 23919,
    "Ġspecimen": 13020,
    "Ġmaintains": 2146,
    "Ġtahitian": 25427,
    "Ġtapped": 11553,
    "wow": 21120,
    "Ġlowly": 11121,
    "Ġho": 1933,
    "Ġtrembled": 8701,
    "Ġanimals": 8978,
    "Ġ6": 5141,
    "awe": 20764,
    "Ġcand": 3277,
    "Ġfasten": 11132,
    "Åĵ": 10744,
    "Ġthin": 4349,
    "splinter": 25210,
    "opius": 18508,
    "Ġnailing": 21524,
    "Ġwails": 21295,
    "manners": 16182,
    "Ġmiddle": 4137,
    "Ġpartake": 18670,
    "relations": 14733,
    "failed": 20862,
    "Ġninety": 13600,
    "prevented": 20372,
    "boil": 18999,
    "prophecy": 22832,
    "Ġspoke": 2746,
    "Ġregularization": 1183,
    "bru": 12437,
    "Ġbraces": 14669,
    "Ġsplendour": 20223,
    "umberland": 16837,
    "gin": 4930,
    "Ġroylott": 7305,
    "Ġdecomposition": 5342,
    "fare": 7798,
    "Ġused": 2060,
    "Ġduke": 7755,
    "Ġrejo": 5915,
    "jackets": 24895,
    "Ġenemies": 9038,
    "Ġrhine": 12354,
    "Ġmischie": 22756,
    "Ġevening": 2652,
    "atre": 17770,
    "sufferable": 12174,
    "Ġreigned": 13986,
    "Ġmotives": 7486,
    "Ġfrayed": 23276,
    "Ġdiscredit": 22779,
    "watson": 12241,
    "Ġvenerable": 9093,
    "elves": 2158,
    "offices": 19061,
    "Ġhatchways": 24987,
    "empty": 23633,
    "Ġunobstructed": 18261,
    "Ġranges": 2883,
    "Ġovers": 14201,
    "plague": 21956,
    "from": 1993,
    "Ġwe": 387,
    "Ġculprit": 26172,
    "troubled": 17112,
    "Ġdignified": 15595,
    "Ġegress": 21618,
    "vit": 13800,
    "Ġimmut": 13296,
    "Ġrashness": 25460,
    "Ġroarings": 25301,
    "jerked": 25618,
    "Ġdeuteronomy": 15757,
    "Ġqueerest": 16412,
    "melancholy": 12351,
    "Ġexpectation": 6904,
    "iments": 4945,
    "Ġpassing": 4317,
    "rength": 4100,
    "Ġperplex": 2715,
    "Ġmetaphys": 16391,
    "cription": 20817,
    "Ġhermits": 22071,
    "Ġresources": 2938,
    "Ġleads": 12094,
    "Ġhurling": 19110,
    "Ġamid": 4959,
    "swept": 19785,
    "Ġroom": 1462,
    "Ġ125": 24470,
    "Ġcanvassed": 19933,
    "phenomenon": 17648,
    "kings": 17583,
    "ben": 4926,
    "fit": 6645,
    "Ġlistless": 16474,
    "Ġconsult": 6056,
    "Ġparading": 23709,
    "Ġgiants": 25960,
    "Ġruddy": 17125,
    "stad": 7597,
    "misrepresented": 24211,
    "oing": 15400,
    "Ġpettic": 14840,
    "Ġfamiliarity": 16729,
    "irms": 18168,
    "supplement": 14796,
    "0": 20,
    "Ġpleasing": 6190,
    "Ġinevitably": 17230,
    "Ġpersist": 16272,
    "hill": 15361,
    "loss": 22504,
    "Ġimpertin": 6933,
    "Ġgrimes": 11035,
    "broken": 8020,
    "Ġuninhabited": 22044,
    "Ġwash": 9702,
    "Ġacknowledged": 7534,
    "Ġproduce": 4369,
    "ogany": 18675,
    "appin": 18758,
    "eff": 2538,
    "Ġlatent": 19654,
    "legs": 13181,
    "irmed": 9238,
    "homage": 25616,
    "ern": 773,
    "Ġstunsail": 25543,
    "neighb": 16021,
    "quer": 11678,
    "Ġparade": 18301,
    "Ġnominally": 17231,
    "Ġhansom": 13663,
    "Ġconfirm": 9855,
    "Ġhospitality": 13512,
    "iancy": 13006,
    "Ġabject": 18391,
    "Ġfer": 5529,
    "pretend": 24882,
    "Ġneighbourhood": 5126,
    "extreme": 11029,
    "ta": 13788,
    "hosmer": 25902,
    "urches": 12680,
    "Ġecho": 12663,
    "ien": 10101,
    "Ġbenjam": 22889,
    "Ġcomplaint": 24776,
    "oon": 6364,
    "Ġverdant": 15002,
    "Ġperilously": 24507,
    "Ġevinced": 7100,
    "successfully": 14990,
    "ston": 15680,
    "ikes": 8086,
    "Ġsentences": 2682,
    "Ġdiary": 24739,
    "Ġsi": 21211,
    "Ġassaulted": 25320,
    "Ġinspector": 6498,
    "Ġmicroscopic": 26373,
    "Ġcomprehensive": 15086,
    "Ġinject": 2711,
    "iger": 8446,
    "landsmen": 25059,
    "Ġnimble": 21525,
    "Ġhob": 12626,
    "Ġtester": 21171,
    "Ġmoment": 992,
    "Ġidol": 7467,
    "Ġtear": 6722,
    "Ġspouted": 14674,
    "surprising": 16919,
    "Ġlime": 13947,
    "questioning": 16850,
    "electricity": 26385,
    "Ġmeas": 1096,
    "word": 2491,
    "Ġbewitched": 25975,
    "stre": 5451,
    "Ġswelling": 11923,
    "geese": 22364,
    "story": 9212,
    "copper": 19188,
    "prairies": 20565,
    "Ġreaped": 18029,
    "ule": 6800,
    "Ġsmiled": 5940,
    "Ġinspiring": 19112,
    "pract": 10119,
    "Ġeasy": 3452,
    "insufficient": 15488,
    "Ġbandages": 24427,
    "Ġcoincid": 20316,
    "Ġvalue": 2085,
    "wish": 8099,
    "shud": 18490,
    "rab": 7596,
    "wind": 4254,
    "Ġmelting": 24288,
    "Ġbedfellows": 23439,
    "Ġacute": 16121,
    "Ġvenetian": 14846,
    "putting": 14099,
    "Ġcharted": 22247,
    "Ġcommonplace": 11096,
    "Ġunqualified": 22054,
    "self": 617,
    "Ġcrossed": 6068,
    "Ġsalesman": 13667,
    "Ġprobed": 18732,
    "ethe": 9676,
    "Ġphilosophers": 10551,
    "Ġspoken": 4836,
    "Ġzero": 1200,
    "´": 117,
    "Ġpursuers": 13224,
    "ouching": 13176,
    "alike": 17942,
    "Ġindirectly": 8939,
    "idel": 5299,
    "omited": 21638,
    "Ġshaft": 18229,
    "Ġbeer": 10219,
    "Ġscud": 14190,
    "Ġrides": 21971,
    "erer": 8731,
    "forgetting": 25485,
    "Ġneg": 1332,
    "Ġleaps": 14007,
    "mysterious": 26052,
    "octavo": 11385,
    "Ġpeevish": 26557,
    "comfort": 5647,
    "pemberley": 9620,
    "hens": 3936,
    "Ġcollecting": 12284,
    "Ġordering": 18997,
    "yet": 3751,
    "sey": 5543,
    "Ġheh": 21677,
    "Ġsmote": 18575,
    "Ġremarkably": 7702,
    "Ġcomplaints": 12262,
    "Ġstartled": 7082,
    "oboam": 9357,
    "little": 3353,
    "Ġlamentations": 17076,
    "Ġcontortions": 18476,
    "Ġpistol": 7846,
    "Ġretirement": 25378,
    "vishnoo": 21118,
    "ceremony": 20588,
    "imely": 13997,
    "neys": 23581,
    "Ġspecksnyder": 17402,
    "Ġspell": 8855,
    "Ġrefuse": 5739,
    "antique": 18287,
    "linked": 17593,
    "ologically": 22874,
    "Ġinfluenced": 19631,
    "umnal": 18300,
    "clopÃ¦dia": 15255,
    "Ġneighb": 14073,
    "forest": 22514,
    "Ġcommunicated": 9061,
    "taken": 7560,
    "Ġspiced": 22130,
    "awk": 23111,
    "inates": 21179,
    "pick": 17634,
    "Ġmanilla": 15957,
    "Ġchoose": 5981,
    "ordinary": 4409,
    "Ġcompanionship": 14919,
    "Ġendure": 5955,
    "ready": 2362,
    "returning": 12203,
    "grateful": 10428,
    "oce": 10714,
    "Ġunembarrassed": 22062,
    "Ġdolphins": 20394,
    "Ġamongst": 8959,
    "Ġpervading": 20612,
    "Ġrules": 1919,
    "Ġproposal": 10018,
    "Ġdecap": 16018,
    "Ġrecalled": 8537,
    "Ġshowers": 16605,
    "Ġdozen": 8185,
    "undant": 14791,
    "Ġdays": 2077,
    "Ġdearest": 5457,
    "greatest": 10493,
    "Ġperceiving": 8875,
    "Ġunrivalled": 26519,
    "return": 5489,
    "Ġpepper": 9780,
    "Ġintruding": 21988,
    "impul": 16556,
    "absence": 12705,
    "Ġshone": 7404,
    "smiles": 14692,
    "Ġrenewing": 19809,
    "ying": 1368,
    "humorously": 24018,
    "Ġdisputes": 25825,
    "Ġdexterity": 25294,
    "Ġconvulsively": 25717,
    "Ġsin": 1511,
    "count": 4214,
    "ratches": 20123,
    "period": 15893,
    "produce": 20281,
    "fill": 15349,
    "Ġcrowding": 13277,
    "Ġreprehensible": 15696,
    "leaned": 21367,
    "Ġdusting": 24596,
    "Ġclimes": 12841,
    "Ġdiscreet": 16481,
    "Ġremind": 6057,
    "socket": 22725,
    "Ġcorpus": 13029,
    "Ġcult": 8781,
    "iced": 3900,
    "Ġdirected": 5579,
    "Ġhove": 17922,
    "action": 3724,
    "Ġlouder": 13467,
    "influ": 9540,
    "bantering": 25253,
    "Ġcompletion": 12145,
    "Ġmanoir": 22328,
    "Ġaustral": 12170,
    "Ġgretna": 26468,
    "istry": 22106,
    "ching": 5156,
    "omon": 10206,
    "Ġmak": 10778,
    "quely": 10231,
    "alization": 731,
    "Ġaltogether": 4831,
    "Ġsuppl": 11078,
    "achine": 604,
    "Ġrespective": 16342,
    "Ġdau": 21423,
    "posterity": 25488,
    "Ġfriends": 2654,
    "lynes": 15701,
    "Ġdiscoloured": 15251,
    "Ġdams": 16455,
    "Ġyankees": 26201,
    "continually": 11302,
    "ture": 7558,
    "Ġperil": 5557,
    "strike": 14948,
    "crowning": 25748,
    "Ġfidel": 12593,
    "descend": 23083,
    "Ġlimping": 23545,
    "favourite": 15142,
    "opposition": 24823,
    "scrape": 25698,
    "Ġvideo": 25365,
    "serv": 7451,
    "iz": 365,
    "Ġpretend": 7721,
    "Ġdisinterested": 16054,
    "Ġsuffusing": 23028,
    "Ġblacksmiths": 19872,
    "Ġsugg": 4500,
    "vered": 4830,
    "Ġcannon": 14153,
    "ulating": 10887,
    "garet": 9597,
    "Ġclimates": 25051,
    "ralian": 19599,
    "oil": 7805,
    "Ġbore": 5079,
    "hot": 8083,
    "distance": 12150,
    "Ġlat": 5087,
    "fire": 6357,
    "Ġopposition": 16519,
    "Ġundo": 15838,
    "quit": 15759,
    "Ġbanners": 24858,
    "Ġelig": 9777,
    "Ġ182": 13235,
    "Ġencouragement": 13040,
    "Ġ200": 19294,
    "Ġwax": 10776,
    "ump": 2282,
    "Ġ2": 2929,
    "profess": 10634,
    "Ġaffords": 16734,
    "sailor": 14714,
    "rob": 5534,
    "Ġcorrectly": 9403,
    "inguished": 6598,
    "detective": 24383,
    "du": 605,
    "ott": 1874,
    "ace": 714,
    "Ġdefiance": 11068,
    "uttural": 21586,
    "Ġweariness": 19793,
    "Ġunderneath": 16336,
    "ignorance": 17161,
    "animate": 12574,
    "conjecture": 15121,
    "Ġamply": 22479,
    "Ġdeliriously": 23226,
    "Ġefforts": 11805,
    "Ġmartin": 25436,
    "Ġbeating": 8144,
    "Ġarrived": 3744,
    "join": 12111,
    "Ġshades": 9462,
    "Ġcommencement": 12236,
    "Ġgain": 4827,
    "soft": 12507,
    "Ġoughts": 23898,
    "solving": 3102,
    "Ġnerves": 2627,
    "Ġrelinquish": 17346,
    "Ġhinge": 25541,
    "Ġtempestuous": 20069,
    "robotics": 11306,
    "Ġexchange": 15751,
    "Ġspecies": 5112,
    "Ġmillion": 14986,
    "phew": 6368,
    "van": 7814,
    "Ġlim": 2385,
    "Ġwages": 13853,
    "Ġverse": 16602,
    "Ġbarbarous": 13475,
    "opportunity": 12272,
    "Ġmowers": 17812,
    "hs": 8377,
    "Ġuniformly": 19147,
    "broke": 14776,
    "Ġwines": 21286,
    "Ġofficially": 24838,
    "everybody": 8610,
    "Ġstrictly": 12283,
    "mblings": 19779,
    "ì": 173,
    "Ġsagacious": 14970,
    "ornament": 23488,
    "Ġrapidly": 3162,
    "Ġincredulity": 11311,
    "dimly": 15345,
    "Ġbrace": 11211,
    "shapes": 22459,
    "Ġxavier": 2855,
    "Ġforget": 2634,
    "Ġscandalous": 24879,
    "Ġfurther": 1056,
    "Ġfaith": 5350,
    "Ġsocially": 22078,
    "Ġovercome": 6042,
    "althily": 19357,
    "waiting": 12218,
    "Ġmeans": 699,
    "ren": 549,
    "tese": 21082,
    "Ġwrist": 8242,
    "Ġconge": 15743,
    "encountered": 20391,
    "afraid": 10441,
    "Ġclanking": 20610,
    "adoes": 11659,
    "Ġfarm": 7840,
    "Ġtry": 3136,
    "<EOS>": 2,
    "Ġguido": 2979,
    "Ġuneasy": 8661,
    "Ġadmiral": 17304,
    "pressing": 19013,
    "impregnable": 26481,
    "Ġsur": 2183,
    "Ġglens": 18852,
    "aus": 1500,
    "Ġpurchase": 12257,
    "ech": 4391,
    "dling": 9111,
    "'(": 2981,
    "circumamb": 26087,
    "Ġwant": 1119,
    "Ġbou": 17852,
    "Ġfacial": 10605,
    "Ġgri": 17987,
    "Ġchanc": 18383,
    "Ġrighteous": 18945,
    "sander": 11526,
    "tw": 2811,
    "Ġhundredth": 16517,
    "Ġscope": 15941,
    "Ġcomponents": 8893,
    "Ġscratches": 22283,
    "lips": 13749,
    "professor": 17249,
    "Ġdiffusion": 23781,
    "ju": 13740,
    "Ġdiscipline": 26561,
    "Ġkept": 3346,
    "isure": 6240,
    "employed": 17261,
    "Ġmummy": 25768,
    "event": 8076,
    "binnacle": 20786,
    "Ġtheology": 21275,
    "Ġweedy": 15789,
    "Ġsignification": 19203,
    "left": 6975,
    "already": 6980,
    "wise": 2576,
    "Ġsmell": 7216,
    "Ġtyphoons": 20233,
    "Ġredness": 19310,
    "Ġparsonage": 7123,
    "scuttle": 11907,
    "Ġwhisper": 6205,
    "Ġdramat": 23213,
    "Ġjoin": 4853,
    "Ġexultation": 15170,
    "Ġresting": 7961,
    "Ġfalse": 4345,
    "Ġreturning": 5325,
    "separately": 25227,
    "Ġcrows": 24029,
    "Ġresides": 22537,
    "##": 2318,
    "supp": 4162,
    "Ġbulkhead": 24511,
    "uttermost": 24940,
    "Ġdegenerating": 25799,
    "Ġdemonstrate": 24994,
    "Ġcracks": 12018,
    "Ġpetrified": 19595,
    "Ġwindward": 6885,
    "recurrent": 4994,
    "Ġhitherto": 5879,
    "anqu": 4109,
    "Ġhold": 2242,
    "Ġeclips": 20695,
    "Ġembodied": 25848,
    "inex": 14091,
    "wide": 10137,
    "Ġeverybody": 4511,
    "Ġunaffected": 14120,
    "Ġwomanly": 23550,
    "Ġunmingled": 18260,
    "urements": 18123,
    "Ġcreative": 9831,
    "Ġindelicacy": 25695,
    "Ġdeparture": 6490,
    "Ġmasks": 23323,
    "Ġenvelop": 5587,
    "Ġreadiness": 13047,
    "Ġprecipitous": 24835,
    "endeavoured": 12278,
    "Ġutterly": 6100,
    "Ġsolving": 2486,
    "Ġflesh": 5968,
    "Ġprivilege": 11419,
    "Ġagent": 6277,
    "Ġcapstan": 9098,
    "kempt": 20940,
    "Ġdinner": 4245,
    "Ġdecorated": 22442,
    "Ġviewing": 19263,
    "Ġforwarded": 19042,
    "Ġsovereign": 10061,
    "union": 15767,
    "verted": 10217,
    "Ġpirate": 14996,
    "Ġthroat": 7770,
    "unfort": 21873,
    "isome": 17848,
    "Ġwrote": 5011,
    "aur": 15307,
    "plete": 10919,
    "Ġsque": 18756,
    "Ġpistols": 17328,
    "Ġprogra": 1145,
    "Ġinboard": 17932,
    "Ġpiazza": 26450,
    "most": 1257,
    "critical": 19502,
    "poster": 11056,
    "opic": 22473,
    "as": 302,
    "Ġprofited": 19192,
    "Ġwalker": 23307,
    "Ġdry": 5624,
    "urean": 18122,
    "cture": 15662,
    "agatha": 21905,
    "Ġhasn": 12924,
    "Ġprodigious": 8056,
    "Ġoakum": 16934,
    "Ġreplete": 15695,
    "ario": 14247,
    "Ġgans": 5821,
    "Ġoutdone": 22315,
    "Ġbrooks": 25700,
    "intense": 22933,
    "commun": 15033,
    "Ġborne": 6351,
    "Ġtransactions": 18482,
    "Ġstamp": 7863,
    "Ġpawn": 12061,
    "Ġcongregation": 12327,
    "Ġante": 17896,
    "Ġinput": 610,
    "Ġaroused": 15901,
    "Ġchamp": 18380,
    "Ġrolled": 4431,
    "promontory": 24728,
    "ex": 623,
    "december": 25558,
    "weakness": 16122,
    "Ġtandem": 26411,
    "acceler": 23597,
    "Ġsubl": 7235,
    "Ġcongregational": 25102,
    "stall": 21643,
    "embow": 21928,
    "Ġfashions": 17885,
    "rip": 9240,
    "Ġreus": 8821,
    "abs": 11666,
    "sleeves": 26109,
    "ibles": 18786,
    "Ġargemone": 24274,
    "Ġintermission": 18588,
    "cannibal": 15223,
    "Ġinstantly": 3590,
    "Ġdisappointed": 7097,
    "limping": 26393,
    "Ġrolls": 8333,
    "Ġwrinkled": 7264,
    "Ġattendance": 12179,
    "ased": 1268,
    "moor": 22699,
    "Ġspend": 5304,
    "spee": 9316,
    "Ġprosper": 10228,
    "Ġsocietal": 11436,
    "icking": 8910,
    "Ġlucy": 17969,
    "Ġpartiality": 9397,
    "Ġwarmed": 12022,
    "Ġoffice": 4965,
    "Ġdusky": 13548,
    "anch": 15557,
    "Ġamazing": 9976,
    "Ġexclaim": 11221,
    "Ġdiscipl": 22781,
    "Ġreplen": 11114,
    "Ġassociates": 24712,
    "Ġindecision": 25781,
    "Ġseaward": 22944,
    "Ġinno": 1406,
    "Ġfulf": 6772,
    "Ġessence": 13404,
    "Ġineff": 12631,
    "Ġabsence": 4894,
    "Ġhelp": 1641,
    "^{": 15303,
    "gypt": 8260,
    "Ġagitation": 6865,
    "Ġtread": 9408,
    "Ġdoubt": 2221,
    "Ġvillas": 24051,
    "Ġroast": 18455,
    "Ġentreaty": 10529,
    "anyth": 5438,
    "Ġdevoid": 18688,
    "Ġtells": 9360,
    "Ġtrace": 6181,
    "Ġprofits": 16488,
    "cigar": 26124,
    "aciously": 12893,
    "sweetly": 25134,
    "Ġamidst": 9493,
    "Ġconsc": 4276,
    "Ġeliminating": 20618,
    "Ġmaketh": 15186,
    "Ġgruff": 21611,
    "idation": 5022,
    "Ġgibe": 25959,
    "Ġwreat": 15529,
    "Ġcasualty": 20340,
    "hap": 17559,
    "Ġjacobians": 2893,
    "Ġchronic": 9928,
    "presbyterian": 26368,
    "Ġdistinctions": 18532,
    "ax": 692,
    "Ġsticking": 13426,
    "\",": 10678,
    "steady": 14708,
    "Ġunimpeachable": 26522,
    "Ġstupidity": 15049,
    "Ġsemicircular": 26069,
    "Ġsaloon": 24060,
    "beth": 13687,
    "august": 11071,
    "Ġvelvet": 12396,
    "rusion": 11323,
    "Ġsomewhat": 4897,
    "Ġmultimodal": 18747,
    "Ġbarbar": 6935,
    "Ġstrangely": 5677,
    "Ġnext": 2139,
    "involuntarily": 20413,
    "ourable": 4967,
    "paint": 21017,
    "copyright": 5277,
    "Ġmonoman": 7938,
    "Ġdead": 2170,
    "Ġpersons": 6180,
    "Ġarbit": 4651,
    "sh": 647,
    "Ġblowing": 10484,
    "Ġsavannah": 17415,
    "guinea": 16672,
    "romised": 14111,
    "Ġnormalizing": 1821,
    "Ġnorthern": 7265,
    "former": 11746,
    "james": 15371,
    "Ġunit": 1847,
    "tide": 11532,
    "malicious": 19901,
    "twas": 15436,
    "instruct": 19541,
    "athan": 2957,
    "Ġsituation": 4071,
    "Ġdelay": 5748,
    "Ġclient": 5556,
    "Ġsuppressed": 11909,
    "cob": 10086,
    "Ġbulls": 23856,
    "measured": 19988,
    "Ġplaus": 22599,
    "Ġproud": 5654,
    "Ġduplicate": 17215,
    "acquainted": 7313,
    "Ġstraightway": 9016,
    "mix": 20973,
    "leness": 4691,
    "uther": 8816,
    "bur": 4687,
    "Ġtaffrail": 15475,
    "unworthy": 18161,
    "Ġbuoyancy": 20040,
    "chet": 13216,
    "founded": 16713,
    "Ġstain": 18064,
    "rack": 18010,
    "mo": 863,
    "Ġrecogn": 2637,
    "reject": 21235,
    "Ġappalling": 8499,
    "Ġgroup": 2038,
    "away": 4626,
    "Ġdisturbed": 8671,
    "asburgh": 15644,
    "ullen": 8234,
    "Ġlost": 2635,
    "Ġclung": 10961,
    "Ġreg": 732,
    "Ġwhales": 1827,
    "Ġinferiority": 17115,
    "farm": 15350,
    "Ġfollies": 16254,
    "Ġperverseness": 13653,
    "Ġstops": 3169,
    "Ġtossings": 25356,
    "Ġearth": 2850,
    "Ġaghast": 16045,
    "oun": 483,
    "Ġwithdraw": 16964,
    "Ġcables": 15555,
    "Ġdisordered": 16052,
    "andy": 8157,
    "omination": 21639,
    "Ġlamps": 14790,
    "Ġindividuality": 14908,
    "Ġchowders": 18385,
    "Ġcourtiers": 24135,
    "Ġsympathy": 6346,
    "Ġstepping": 9353,
    "Ġwedding": 4858,
    "Ġbeth": 9657,
    "Ġlogger": 11951,
    "ago": 14064,
    "reast": 17758,
    "Ė": 215,
    "Ġsquare": 2401,
    "spirit": 11313,
    "granting": 23412,
    "Ġnat": 12642,
    "Ġgales": 12662,
    "Ġhappiest": 11880,
    "Ġspasmodic": 20396,
    "Ġnor": 1549,
    "Ġpompous": 20421,
    "turner": 19540,
    "Ġbiting": 17861,
    "Ġstruct": 2783,
    "ological": 1885,
    "Ġbusier": 23336,
    "Ġknowingly": 18480,
    "Ġfare": 5809,
    "Ġafore": 10758,
    "minded": 9037,
    "Ġcomposedly": 25185,
    "Ġoaths": 13523,
    "Ġassemblage": 26351,
    "Ġunintelligible": 26514,
    "Ġarisen": 11741,
    "ippers": 17576,
    "Ġadmirable": 8268,
    "sure": 5522,
    "Ġstriding": 16091,
    "Ġscarlet": 13221,
    "phil": 7924,
    "Ġaccur": 3709,
    "ipp": 10102,
    "Ġcrust": 21349,
    "Ġglimmer": 15140,
    "Ġunscrew": 22033,
    "regiment": 16451,
    "nut": 12492,
    "Ġadroit": 26000,
    "drawing": 10486,
    "nails": 17614,
    "Ġwantonly": 22891,
    "Ġtrance": 12836,
    "represent": 9637,
    "Ġmelted": 19620,
    "Ġadieu": 10050,
    "visual": 24222,
    "Ġaffair": 4464,
    "morning": 4859,
    "Ġenters": 11025,
    "opened": 7912,
    "twice": 14620,
    "zwilliam": 5074,
    "oam": 8751,
    "ily": 1031,
    "cket": 3684,
    "Ġignoble": 19397,
    "Ġdetermined": 2220,
    "Ġsynd": 22207,
    "Ġvariants": 1791,
    "ake": 750,
    "errand": 22907,
    "Ġdaring": 8120,
    "Ġbrain": 2088,
    "Ġhinges": 15211,
    ".,": 5987,
    "Ġlurking": 11289,
    "Ġnomine": 26456,
    "tuesday": 17690,
    "Ġafforded": 8028,
    "observing": 25494,
    "Ġappearing": 9840,
    "Ġbottomless": 12104,
    "presented": 12987,
    "Ġemployed": 5200,
    "Ġimmediate": 6089,
    "Ġshoes": 7071,
    "Ġfavoring": 2347,
    "Ġhouses": 6138,
    "Ġequinox": 25855,
    "Ġconstructed": 9386,
    "somewhere": 12011,
    "longing": 23725,
    "especially": 3571,
    "Ġcra": 2333,
    "trem": 17681,
    "Ġfowler": 16937,
    "Ġhead": 1124,
    "mists": 17605,
    "Ġexert": 5722,
    "Ġwhis": 3503,
    "Ġbeatrix": 24204,
    "Ġ65": 24368,
    "Ġpled": 17905,
    "itors": 2915,
    "Ġboarded": 13232,
    "Ġwire": 13851,
    "etwork": 444,
    "Ġrubbed": 12952,
    "feeling": 6616,
    "Ġbelshazzar": 16224,
    "Ġbanished": 10616,
    "constantly": 24606,
    "Ġrepugnance": 19086,
    "**": 4686,
    "Ġoldest": 12970,
    "Ġjoyful": 13219,
    "pine": 13768,
    "otherwise": 7670,
    "Ġgoring": 21601,
    "Ġalike": 8146,
    "Ġthrill": 24541,
    "Ġjack": 4653,
    "Ġshank": 21994,
    "haired": 14766,
    "Ġhind": 9188,
    "Ġdefer": 18822,
    "Ġtaurus": 21177,
    "Ġsulkily": 25882,
    "Ġmoving": 1676,
    "uzza": 11270,
    "Ġthick": 3781,
    "Ġdong": 17887,
    "Ġdaily": 5986,
    "overhearing": 19051,
    "beer": 22485,
    "Ġhart": 17921,
    "Ġthinnest": 24183,
    "Ġmoments": 4845,
    "pyramid": 21029,
    "Ġmix": 7576,
    "Ġchick": 22244,
    "larger": 24202,
    "Ġimpartial": 15218,
    "Ġfresher": 23206,
    "enced": 4298,
    "Ġwife": 2588,
    "Ġder": 1498,
    "Ġsunda": 13543,
    "Ġdemig": 20355,
    "Ġsometimes": 2166,
    "Ġloathed": 15873,
    "Ġintuitions": 17340,
    "m": 81,
    "values": 4973,
    "Ġfelix": 4848,
    "Ġcomparing": 14267,
    "treacle": 25148,
    "Ġnorthumbria": 24171,
    "Ġforeman": 23448,
    "Ġmechanically": 14397,
    "dening": 22772,
    "Ġyard": 5920,
    "white": 4602,
    "powerful": 24847,
    "necess": 4896,
    "Ġcathedral": 17412,
    "Ġassailed": 23174,
    "Ġexerc": 6833,
    "Ġspangled": 22132,
    "Ġdictating": 20151,
    "Ġstash": 18067,
    "Ġmalady": 24392,
    "corpse": 24486,
    "Ġsoliloqu": 11883,
    "Ġtrifles": 16951,
    "ro": 301,
    "Ġhun": 1494,
    "Ġamiss": 18512,
    "Ġ42": 16678,
    "Ġprofund": 13152,
    "stein": 5505,
    "Ġtattooed": 11378,
    "Ġadvancing": 6879,
    "adm": 7608,
    "pertaining": 22176,
    "Ġeveryone": 8917,
    "cat": 15323,
    "Ġgrant": 11871,
    "Ġreduced": 11922,
    "Ġlobsters": 13516,
    "Ġpurplish": 19140,
    "Ġarist": 14161,
    "Ġecl": 18005,
    "Ġcried": 1486,
    "quohog": 21855,
    "Ġstorms": 11262,
    "Ġuncivilized": 25498,
    "confirm": 16807,
    "Ġbutler": 18270,
    "Ġfigured": 16643,
    "Ġjustine": 4970,
    "Ġhumans": 8929,
    "Ġdraw": 3668,
    "oring": 1861,
    "Ġsalvation": 14757,
    "Ġglistened": 20171,
    "deceiving": 22141,
    "Ġchat": 6560,
    "Ġexcel": 3566,
    "boat": 3363,
    "uity": 12515,
    "Ġchapters": 10473,
    "Ġweighing": 20014,
    "Ġsmith": 16065,
    "Ġgret": 21598,
    "Ġpropagating": 20632,
    "Ġflag": 7242,
    "Ġimpressed": 8198,
    "Ġdisappeared": 5645,
    "Ġcontemptuously": 19832,
    "Ġchisel": 20366,
    "kind": 3863,
    "Ġbriony": 9328,
    "Ġdines": 21421,
    "Ġlif": 10195,
    "Ġfoliage": 18867,
    "drifting": 19823,
    "<": 32,
    "Ġz": 999,
    "Ġaberde": 22274,
    "tered": 2229,
    "tossing": 18581,
    "Ġscarcely": 4008,
    "Ġaperture": 26160,
    "property": 19998,
    "hip": 8740,
    "Ġtemperate": 16160,
    "Ġsecrets": 9054,
    "Ġconqueror": 25796,
    "Ġscale": 1547,
    "Ġexcurs": 23311,
    "wet": 15451,
    "Ġhaught": 10252,
    "creation": 14805,
    "Ġ36": 14767,
    "Ġdeal": 3606,
    "aloud": 17940,
    "Ġ134": 24784,
    "Ġreadily": 5253,
    "Ġabiding": 22267,
    "Ġdataset": 12818,
    "money": 8749,
    "arse": 7160,
    "Ġboa": 22634,
    "concealed": 25115,
    "Ġcoffin": 4430,
    "antediluvian": 24346,
    "Ġeditions": 19120,
    "matters": 14873,
    "Ġjoll": 11763,
    "Ġumbrell": 13649,
    "omnipotent": 25964,
    "ĠĠĠĠĠĠĠĠĠĠĠĠĠĠĠĠĠĠĠĠĠĠĠĠĠĠĠĠĠĠĠĠĠĠĠĠĠĠ": 16524,
    "destroy": 19509,
    "Ġchinese": 14181,
    "lock": 1469,
    "Ġrisk": 8038,
    "Ġcontinuously": 23202,
    "O": 51,
    "Ġconject": 6026,
    "Ġhadn": 9718,
    "Ġenraged": 10244,
    "works": 6587,
    "imony": 12687,
    "Ġmien": 17808,
    "Ġsaluted": 14758,
    "Ġhaughty": 11449,
    "suffered": 24334,
    "unhappy": 10237,
    "Ġwarriors": 19722,
    "gal": 15354,
    "else": 6533,
    "yramid": 8367,
    "Ġdeclare": 6614,
    "Ġaft": 5737,
    "Ġwhispers": 14699,
    "Ġspirits": 3695,
    "Ġhast": 3153,
    "make": 5793,
    "Ġwaved": 9644,
    "15": 12428,
    "Ġaustralia": 15231,
    "ifying": 5235,
    "Ġpiteous": 17915,
    "Ġflutter": 16247,
    "Ġdev": 894,
    "Ġhorror": 3771,
    "rus": 5929,
    "Ġbravest": 23838,
    "orously": 8418,
    "Ġcrags": 23528,
    "nowled": 5470,
    "Ġaccompanying": 11304,
    "Ġugliness": 20425,
    "Ġachieves": 4381,
    "Ġsed": 10761,
    "pennies": 26285,
    "dissatisfied": 26612,
    "Ġprimitive": 25061,
    "Ġatone": 15800,
    "insult": 16278,
    "Ġkilled": 4955,
    "Ġhipp": 21489,
    "Ġoccurs": 1858,
    "Ġelopement": 10329,
    "Ġgin": 13960,
    "Ġshroud": 6483,
    "plendent": 21961,
    "eminent": 25104,
    "nuts": 15397,
    "Ġsympathetic": 17358,
    "Ġserpents": 13075,
    "Ġresented": 22540,
    "Ġtheore": 1829,
    "Ġfalls": 14644,
    "Ġsaleve": 17390,
    "pents": 11512,
    "Ġpenetrating": 17011,
    "behold": 12874,
    "Ġthoughtfully": 12977,
    "Ġkeeps": 8266,
    "Ġadvance": 5484,
    "Ġvariously": 18653,
    "Ġdraughts": 20220,
    "burned": 25079,
    "phur": 16151,
    "Ġimple": 1801,
    "Ġpalpable": 15205,
    "Ġstared": 8454,
    "Ġrevers": 21661,
    "istle": 15868,
    "na": 13759,
    "nurse": 15207,
    "'": 11,
    "Ġkindest": 23292,
    "Ġmanners": 3790,
    "cig": 17503,
    "Ġexecute": 7505,
    "urg": 8141,
    "Ġtons": 11549,
    "consolation": 15151,
    "Ġplainpal": 19276,
    "Ġidleness": 11144,
    "Ġmanipulation": 10658,
    "pencil": 18827,
    "Ġinstituted": 18701,
    "Ġsubstitute": 16726,
    "excellent": 8043,
    "Ġcosmetic": 23472,
    "Ġsurprising": 14597,
    "ok": 571,
    "such": 3085,
    "Ġpersonages": 23540,
    "Ġpanel": 13371,
    "sway": 15423,
    "Ġincarnation": 25573,
    "Ġorganize": 8991,
    "irations": 18170,
    "Ġpianoforte": 15272,
    "Ġsurtout": 23466,
    "Ġscrutiny": 26015,
    "Ġcared": 8782,
    "Ġtanning": 17729,
    "Ġspoon": 22131,
    "Ġenjoyed": 8007,
    "ister": 1294,
    "Ġcitadel": 25438,
    "turbable": 24531,
    "Ġunfailing": 24110,
    "Ġspile": 22124,
    "Ġfulfilment": 20186,
    "Ġoverwhelm": 25050,
    "Ġaristotle": 25817,
    "gree": 10701,
    "instr": 12528,
    "Ġagrippa": 11804,
    "Ġtravels": 11925,
    "miraculous": 26396,
    "spe": 3559,
    "pardon": 10064,
    "strongly": 24684,
    "Ġhieroglyph": 11969,
    "Ġbecher": 18879,
    "Ġton": 15463,
    "Ġgallied": 19555,
    "Ġlizzie": 26462,
    "Ġdeclining": 23961,
    "Ġencourages": 2061,
    "inities": 21184,
    "Ġsmacking": 20164,
    "Ġspeeches": 22660,
    "mira": 20978,
    "Ġ83": 24459,
    "Ġbrother": 2747,
    "Ġauthent": 14516,
    "watery": 19825,
    "ries": 3355,
    "Ġnaught": 8127,
    "voice": 7816,
    "71": 20755,
    "Ġtrepidation": 19215,
    "ility": 622,
    "coiled": 16485,
    "Ġbu": 3679,
    "Ġalche": 21780,
    "^": 66,
    "Ġsangu": 15503,
    "ena": 11567,
    "Ġtwelfth": 22675,
    "Ġhairs": 13229,
    "Ġshrimp": 24156,
    "Ġrubbing": 9320,
    "steelkilt": 10046,
    "renched": 7906,
    "Ġsuspects": 16890,
    "Ġamerican": 5061,
    "Ġlegit": 16471,
    "blot": 20782,
    "Ġtutored": 20126,
    "Ġsources": 10147,
    "Ġconcepts": 4551,
    "Ġimpossible": 3542,
    "Ġintruder": 25991,
    "Ġsubs": 2128,
    "Ġhistorical": 3643,
    "Ġdoubtfully": 23478,
    "throwing": 11701,
    "Ġdefined": 11896,
    "Ġzeros": 3325,
    "ried": 925,
    "Ġthe": 270,
    "Ġparticular": 2453,
    "idy": 21761,
    "aders": 21755,
    "concern": 6099,
    "Ġcombing": 22847,
    "rum": 3415,
    "requiem": 24856,
    "greatly": 16623,
    "Ġcon": 348,
    "aan": 20763,
    "tender": 14472,
    "bounded": 13438,
    "which": 1708,
    "Ġacid": 22679,
    "Ġdarting": 7756,
    "dum": 17518,
    "Ġviolin": 16427,
    "rine": 21036,
    "hering": 12811,
    "Ġfruits": 17118,
    "Ġmumbled": 17807,
    "_,âĢĿ": 6218,
    "Ġsmelt": 16066,
    "pening": 2832,
    "Ġtremor": 24768,
    "Ġenclosure": 20622,
    "des": 1566,
    "Ġexquisitely": 20201,
    "Ġdelightfully": 13157,
    "Ġsyllables": 25298,
    "Ġdangers": 12352,
    "Ġglorious": 11075,
    "Ġab": 529,
    "ĠâĢĻ": 3043,
    "Ġglowing": 12280,
    "tstone": 21083,
    "ges": 2873,
    "appetite": 22844,
    "í": 174,
    "mon": 2309,
    "Ġincredible": 9514,
    "Ġwarsaw": 26167,
    "Ġpassionate": 11273,
    "Ġcrate": 19122,
    "confirmation": 26089,
    "mitting": 17602,
    "Ġpious": 11597,
    "Ġprosecut": 9697,
    "Ġvote": 21944,
    "ª": 108,
    "admire": 24943,
    "Ġmemory": 2274,
    "ering": 1267,
    "glanced": 19364,
    "Ġcareer": 11118,
    "Ġclad": 12840,
    "parm": 21013,
    "frame": 17116,
    "oward": 6020,
    "Ġelapsed": 7652,
    "Ġattorney": 18621,
    "Ġord": 3733,
    "Ġblindly": 12107,
    "Ġcollected": 2611,
    "Ġcheerfulness": 10516,
    "proportion": 16178,
    "battering": 20785,
    "waving": 21130,
    "Ġessex": 20125,
    "Ġenvironment": 4291,
    "cask": 12444,
    "Ġforthwith": 16618,
    "Ġsiber": 17755,
    "bear": 10315,
    "Ġincluded": 8930,
    "ensical": 18568,
    "right": 2768,
    "Ġvagabond": 20202,
    "Ġbirch": 26174,
    "slight": 10727,
    "Ġcontrive": 16008,
    "Ġviolence": 5962,
    "Ġunworthy": 11713,
    "Ġdepress": 14045,
    "plate": 18207,
    "Ġunra": 18234,
    "Ġprev": 6264,
    "Ġprisoner": 8672,
    "Ġcarrying": 6071,
    "pled": 7891,
    "Ġpossessing": 16575,
    "leading": 15559,
    "phia": 22775,
    "Ġtash": 13819,
    "Ġscroll": 14191,
    "Ġverses": 17063,
    "Ġir": 1995,
    "Ġdri": 2365,
    "Ġwholesome": 16003,
    "creature": 5346,
    "Ġtobacc": 7852,
    "laying": 19771,
    "ructed": 7027,
    "leagued": 26435,
    "flinging": 20867,
    "ounts": 4652,
    "Ġabstraction": 26539,
    "Ġchilian": 25563,
    "ellation": 12746,
    "oting": 2743,
    "Ġgestures": 13535,
    "ft": 909,
    "roofed": 26183,
    "member": 20974,
    "Ġdiscussed": 19558,
    "Ġsnatches": 16543,
    "Ġclassify": 1635,
    "Ġcistern": 17380,
    "Ġconceived": 8149,
    "Ġimitation": 22168,
    "ites": 3898,
    "itive": 6668,
    "iac": 6225,
    "may": 3676,
    "Ġdepressions": 25798,
    "Ġannouncement": 14832,
    "gorge": 22334,
    "Ġsimilitude": 19210,
    "Ġf": 283,
    "Ġdishon": 12228,
    "Ġembod": 14418,
    "liness": 8746,
    "nui": 20999,
    "udding": 11863,
    "ome": 535,
    "insanity": 23066,
    "testing": 12514,
    "Ġfearful": 6197,
    "ville": 6087,
    "Ġosc": 2835,
    "Ġsummarization": 3644,
    "Ġmeasureless": 14709,
    "herds": 22200,
    "Ġimproper": 22749,
    "Ġdistracted": 11801,
    "v": 90,
    "Ġunsupplied": 22036,
    "Ġundressed": 19512,
    "Ġsplash": 16548,
    "Ġmaddening": 17243,
    "onday": 6063,
    "Ġproport": 2296,
    "Ġbalance": 2022,
    "Ġwidower": 24235,
    "bunger": 20400,
    "mil": 13751,
    "Ġcerem": 7077,
    "bbles": 13690,
    "Ġfedallah": 6108,
    "oided": 11508,
    "Ġstung": 21735,
    "Ġlevelled": 11284,
    "thinness": 25810,
    "vels": 5432,
    "Ġparticip": 16129,
    "agos": 21901,
    "utarch": 15659,
    "Ġgentleness": 8709,
    "who": 2450,
    "numbers": 17616,
    "Ġcran": 11999,
    "Ġsly": 9632,
    "Ġfaithfully": 14886,
    "pay": 10718,
    "Ġlobes": 22112,
    "swing": 15428,
    "Ġscrew": 8867,
    "hurrying": 14982,
    "_âĢĶâĢĿ": 20762,
    "Ġamused": 11797,
    "Ġetc": 7084,
    "Ġsurrounds": 24231,
    "odecim": 9830,
    "Ġearn": 3546,
    "Ġsqueezing": 25006,
    "Ġperhaps": 1913,
    "riminately": 16482,
    "enchanted": 26424,
    "Ġemperors": 15158,
    "culous": 11141,
    "Ġattested": 22619,
    "Ġbristling": 20525,
    "Ġpill": 7845,
    "onies": 6806,
    "Ġ109": 24416,
    "Ġroses": 11784,
    "Ġaversion": 18866,
    "Ġthanking": 18603,
    "Ġpang": 15602,
    "Ġmultiplicity": 19274,
    "detached": 19673,
    "boy": 4738,
    "sister": 5139,
    "Ġsurface": 5119,
    "mag": 6508,
    "vest": 6230,
    "dinner": 11406,
    "ion": 296,
    "Ġannesley": 19576,
    "Ġenormousness": 24515,
    "Ġbrawn": 10481,
    "Ġadvoc": 12994,
    "rench": 3966,
    "Ġwealthy": 18178,
    "Ġ45": 14770,
    "Ġcin": 13874,
    "Ġinvulnerable": 19146,
    "none": 6962,
    "Ġledger": 19400,
    "rels": 6664,
    "Ġanger": 5442,
    "Ġtoll": 7851,
    "Ġunderstood": 5655,
    "swaying": 25910,
    "Ġopera": 23424,
    "Ġimpress": 6862,
    "Ġknights": 15148,
    "Ġaslant": 21898,
    "Ġthings": 1964,
    "Ġresults": 7308,
    "Ġfanc": 6743,
    "vicious": 21117,
    "Ġmoonlight": 9957,
    "Ġrecognise": 12038,
    "Ġlive": 2734,
    "Ġcrime": 4616,
    "Ġrelaxed": 12981,
    "Ġmentioned": 4331,
    "ancholy": 5070,
    "Ġdislike": 6047,
    "Ġvehicle": 20137,
    "Ġsquint": 22834,
    "icle": 10834,
    "Ġdrawling": 19435,
    "Ġcommons": 22669,
    "Ġlinear": 3432,
    "osity": 14185,
    "thumb": 18218,
    "roman": 22001,
    "Ġdazz": 11593,
    "Ġcalmly": 7733,
    "Ġmiz": 10777,
    "Ġintertw": 18587,
    "Ġwides": 17788,
    "Ġjolly": 6858,
    "Ġassist": 3563,
    "Ġengineer": 11973,
    "iluvian": 18060,
    "Ġstrikes": 13180,
    "Ġpopulous": 16826,
    "Ġjumped": 7096,
    "breaking": 14764,
    "cele": 21622,
    "Ġretired": 6070,
    "plain": 1359,
    "olen": 9699,
    "lacing": 17590,
    "Ġrim": 21965,
    "income": 15485,
    "getting": 12964,
    "atics": 15521,
    "Ġsaville": 15887,
    "Ġet": 3579,
    "kye": 20937,
    "Ġvaliantly": 22796,
    "reluct": 26163,
    "Ġdesertion": 24787,
    "Ġdialogue": 12402,
    "icher": 9202,
    "Ġecc": 11627,
    "Ġmisunderstood": 18705,
    "impression": 15708,
    "grey": 14911,
    "Ġshrinking": 14804,
    "Ġreliability": 22876,
    "Ġvast": 3298,
    "Ġrepeating": 11213,
    "Ġxiv": 23406,
    "Ġmechan": 1182,
    "Ġcharlotte": 3889,
    "garious": 17558,
    "Ġcommanding": 16590,
    "ais": 8070,
    "Ġhalting": 16273,
    "Ġgladly": 14681,
    "Ġdelicate": 6480,
    "uv": 6229,
    "valuable": 8246,
    "Ġcleanse": 24527,
    "arpo": 1757,
    "rudential": 16709,
    "Ġspam": 7630,
    "Ġundulations": 19514,
    "lined": 12481,
    "educated": 17259,
    "Ġalluded": 7886,
    "Ġselects": 4387,
    "Ġsandwiched": 26610,
    "scap": 22985,
    "allingly": 22196,
    "Ġstands": 5258,
    "Ġconst": 1912,
    "Ġmuchness": 18706,
    "Ġunless": 4090,
    "vengeance": 13355,
    "coff": 9108,
    "tic": 8390,
    "Ġadviser": 25312,
    "Ġ74": 24261,
    "Ġperem": 12929,
    "Ġnupt": 13942,
    "y": 93,
    "Ġhebrew": 13987,
    "Ġawfulness": 23586,
    "icult": 3341,
    "affa": 23775,
    "dignity": 15344,
    "elaborate": 21573,
    "Ġcomprehended": 11294,
    "inces": 13827,
    "Ġchemist": 11134,
    "Ġtram": 11092,
    "osc": 18387,
    "ptic": 21921,
    "Ġtottenham": 24140,
    "Ġcoarsely": 25828,
    "Ġbounce": 21391,
    "Ġassumptions": 5517,
    "Ġaccomplished": 7104,
    "rian": 10241,
    "Ġcompetition": 14269,
    "Ġexplicit": 3587,
    "cd": 15322,
    "Ġpadded": 25036,
    "Ġplanet": 14750,
    "breckinridge": 24073,
    "Ġhurriedly": 11250,
    "Ġcaution": 11346,
    "Ġjackets": 19601,
    "Ġusurpation": 18358,
    "ously": 2494,
    "Ġtroubled": 6615,
    "Ġspices": 22127,
    "Ġdrought": 19277,
    "Ġapr": 12529,
    "ashion": 3857,
    "Ġhurst": 5582,
    "Ġbrass": 11048,
    "Ġdragg": 23212,
    "Ġpinioned": 21479,
    "hated": 17561,
    "Ġimpotent": 18446,
    "ugl": 23288,
    "cess": 536,
    "Ġnowhere": 12883,
    "xi": 17710,
    "limbs": 20190,
    "Ġdistributions": 1049,
    "Ġslackened": 15125,
    "Ġinconsiderable": 21492,
    "ends": 6038,
    "Ġdespise": 14665,
    "Ġspitzbergen": 15286,
    "Ġatlantic": 7000,
    "soo": 18686,
    "ustry": 18356,
    "Ġpersecutor": 26096,
    "poky": 17644,
    "Ġflea": 23772,
    "Ġcem": 17823,
    "commission": 22802,
    "Ġqueen": 3213,
    "Ġacqu": 1416,
    "Ġtowns": 11173,
    "latitudes": 17196,
    "Ġinfall": 7959,
    "club": 26380,
    "oline": 6834,
    "Ġstatements": 7516,
    "Ġapproaching": 6283,
    "Ġrepining": 23358,
    "hob": 20899,
    "Ġrealism": 18982,
    "Ġsine": 10763,
    "warrior": 24798,
    "duchess": 18463,
    "setting": 13283,
    "thither": 21980,
    "Ġunpitying": 25660,
    "ime": 625,
    "Ġlooking": 2477,
    "escape": 16004,
    "Ġjuly": 17236,
    "Ġreject": 7386,
    "Ġsires": 21225,
    "returned": 7765,
    "Ġrushes": 20506,
    "Ġforeseen": 16442,
    "Ġscience": 1578,
    "lilies": 20960,
    "uish": 5431,
    "Ġsimulates": 2738,
    "backs": 9390,
    "degra": 22138,
    "itect": 981,
    "Ġjura": 14192,
    "sensible": 20050,
    "suggest": 20374,
    "Ġintently": 8168,
    "»": 124,
    "tears": 11037,
    "iogn": 20920,
    "Ġharris": 13926,
    "establishment": 26113,
    "Ġstraight": 3700,
    "Ġrisks": 9963,
    "Ġmonogra": 22977,
    "rical": 11518,
    "Ġsavage": 4010,
    "rown": 2191,
    "Ġworker": 23036,
    "Ġscenari": 22284,
    "Ġprovinc": 16742,
    "Ġcrossing": 7253,
    "Ġtarn": 21157,
    "Ġcorrect": 2436,
    "Ġbarely": 16936,
    "Ġhatherley": 7848,
    "ents": 1898,
    "Ġemm": 18002,
    "Ġincalculable": 17460,
    "Ġhandkerchief": 8913,
    "Ġfishing": 9662,
    "appo": 3914,
    "concerning": 9067,
    "Ġarri": 2556,
    "stranded": 19225,
    "epilogue": 22097,
    "sorting": 17004,
    "Ġapplications": 4784,
    "Ġomitted": 12561,
    "thought": 3847,
    "Ġalterations": 19870,
    "erm": 785,
    "ored": 3895,
    "Ġdownstairs": 11224,
    "pul": 8753,
    "Ġboasted": 16104,
    "Ġchaise": 9076,
    "Ġchili": 25561,
    "awn": 3833,
    "Ġjoints": 12033,
    "prejudice": 25571,
    "Ġthirst": 7589,
    "Ġrecords": 12193,
    "Ġhimself": 1351,
    "Ġinvariably": 8063,
    "ppo": 18175,
    "Ġrests": 13092,
    "Ġartful": 22607,
    "invari": 21183,
    "Ġtortoise": 16908,
    "enjoyments": 25433,
    "Ġconsist": 1935,
    "Ġdrows": 21433,
    "pur": 7806,
    "Ġfair": 2837,
    "Ġcoincidence": 25483,
    "credit": 12446,
    "Ġencounters": 19579,
    "Ġunlab": 3788,
    "Ġadie": 8488,
    "Ġclatter": 22354,
    "buried": 14848,
    "Ġarchipelagoes": 14347,
    "bucket": 17493,
    "bowed": 10683,
    "past": 8089,
    "data": 2346,
    "iday": 8829,
    "Ġintended": 5548,
    "you": 1006,
    "Ġlanyard": 26461,
    "Ġdear": 1538,
    "Ġsubproblems": 12954,
    "Ġsummer": 4790,
    "izarre": 17388,
    "naturedly": 24840,
    "droppers": 24759,
    "hab": 1079,
    "six": 7141,
    "Ġhero": 5715,
    "Ġgryphon": 4302,
    "udg": 22760,
    "Ġenlarged": 25985,
    "cnns": 3619,
    "Ġgilded": 17444,
    "Ġsuck": 15857,
    "Ġprudent": 9184,
    "clut": 23148,
    "Ġcoils": 9302,
    "Ġire": 12666,
    "Ġperf": 12846,
    "Ġhar": 5814,
    "Ġagric": 22511,
    "actually": 14296,
    "ura": 1072,
    "Ġfestival": 25445,
    "yellow": 9624,
    "Ġformal": 2943,
    "Ġcopied": 20006,
    "quake": 11679,
    "Ġrent": 11638,
    "Ġarchly": 22776,
    "ateur": 22068,
    "imp": 3034,
    "Ġbehalf": 14507,
    "tern": 4225,
    "wolf": 26409,
    "Ġimplies": 24873,
    "Ġquadrant": 11404,
    "Ġcomfortless": 23910,
    "Ġgi": 15663,
    "erting": 17777,
    "Ġjib": 14193,
    "idean": 14265,
    "Ġjonah": 3480,
    "gging": 7696,
    "ahab": 4292,
    "Ġ5": 4935,
    "İ": 241,
    "shaken": 16023,
    "Ġdomain": 3513,
    "Ġbequeathed": 20700,
    "Ġdrawer": 13263,
    "ken": 2800,
    "substance": 15230,
    "Ġtiresome": 26156,
    "Ġphysical": 7522,
    "gi": 17551,
    "Ġpopulation": 16827,
    "Ġunheard": 22018,
    "Ġdash": 8121,
    "ually": 2769,
    "ument": 5240,
    "conversation": 7122,
    "Ġtackle": 9512,
    "Ġdespondence": 25869,
    "Ġinsects": 25646,
    "Ġfrown": 10807,
    "Ġbank": 4877,
    "binder": 17499,
    "Ġcoldness": 23758,
    "Ġrooms": 5180,
    "nantucket": 7804,
    "Ġoccas": 2703,
    "Ġdab": 15585,
    "Ġhelmeted": 19687,
    "Ġstaying": 8283,
    "readily": 19360,
    "Ġtenderest": 23549,
    "wealth": 22685,
    "killer": 20474,
    "Ġblinding": 14728,
    "Ġfrankness": 16746,
    "resemblance": 25933,
    "Ġindicate": 23721,
    "unwho": 21874,
    "Ġsaf": 4001,
    "Ġredden": 15691,
    "kindred": 24047,
    "Ġconceive": 8461,
    "Ġ1839": 20458,
    "antee": 22094,
    "dramatic": 19383,
    "Ġaffected": 5577,
    "Ġmonotonically": 3832,
    "surgeon": 24214,
    "Ġexcessive": 3892,
    "allies": 14165,
    "Ġensued": 11394,
    "Ġcategorization": 12134,
    "thr": 12757,
    "Ġjohnson": 18409,
    "Ġcom": 368,
    "Ġoppressed": 11189,
    "Ġqual": 6274,
    "Ġunable": 4951,
    "Ġundertaking": 8573,
    "Ġsullen": 9157,
    "ners": 3272,
    "pagans": 25525,
    "Ġoutside": 5554,
    "Ġwert": 12553,
    "Ġjabez": 11764,
    "Ġjump": 4504,
    "Ġrejected": 12292,
    "Ġisn": 7865,
    "accepting": 20134,
    "Ġskewer": 19619,
    "Ġunlabeled": 3799,
    "oking": 4606,
    "whalebone": 19118,
    "Ġdeity": 18134,
    "Ġinj": 4760,
    "comrade": 20623,
    "Ġsettlement": 19835,
    "Ġtriumphal": 24371,
    "sk": 5521,
    "Ġjollies": 20368,
    "ual": 946,
    "Ġrejoice": 10208,
    "deployment": 26527,
    "Ġsubsisting": 23433,
    "tashtego": 9622,
    "Ġhalts": 3161,
    "Ġjumping": 13340,
    "Ġpursuit": 4733,
    "vital": 17700,
    "Ġspread": 5161,
    "Ġdial": 10810,
    "inspector": 13645,
    "âĢĶâĢľ": 2972,
    "Ġtrip": 16788,
    "Ġeasily": 3891,
    "quick": 6400,
    "Ġrobberies": 23002,
    "54": 15298,
    "Ġtechnically": 12364,
    "Ġharry": 24571,
    "ography": 13361,
    "Ġtrain": 511,
    "Ġdespondency": 16577,
    "anything": 5518,
    "Ġturtles": 19220,
    "ide": 721,
    "performances": 26006,
    "Ġepo": 21616,
    "Ġgoble": 14230,
    "shoulder": 16583,
    "ells": 5303,
    "Ġquit": 5246,
    "Ġbugs": 13647,
    "Ġimmensities": 25330,
    "Ġlies": 5295,
    "Ġchiselled": 25559,
    "Ġtoiled": 12639,
    "possession": 12219,
    "beg": 22484,
    "descending": 16283,
    "Ê": 139,
    "utterly": 20010,
    "wins": 21128,
    "aces": 2068,
    "Ġeleven": 9389,
    "Ġshares": 23243,
    "Ġ123": 24468,
    "Ġwhile": 608,
    "Ġbarrier": 16569,
    "astrous": 15883,
    "nez": 22444,
    "Ġautomation": 13288,
    "Ġbroken": 3448,
    "Ġpreceded": 13427,
    "Ġsultan": 15183,
    "Ġinquirer": 24961,
    "supplied": 10519,
    "buncle": 13691,
    "Ġapothecary": 13658,
    "Ġsqualid": 14368,
    "Ġcobb": 14274,
    "Ġcele": 9899,
    "Ġthan": 736,
    "Ġtongs": 9960,
    "Ġassur": 6073,
    "ouement": 21446,
    "Ġnearing": 15792,
    "Ġcolumb": 22853,
    "Ġgambler": 26190,
    "Ġresearch": 3071,
    "Ġdiscriminator": 3392,
    "Ġpunctual": 17137,
    "Ġashore": 5351,
    "Ġdisturbing": 19944,
    "Ġmoreover": 6163,
    "Ġexplanations": 15908,
    "vial": 17697,
    "Ġheave": 7599,
    "Ġcontained": 7678,
    "Ġalas": 5921,
    "request": 21240,
    "qu": 369,
    "Ġdiffers": 23780,
    "imet": 21703,
    "Ġpeak": 16124,
    "Ġdumplings": 15189,
    "Ġweltering": 19584,
    "coat": 5407,
    "Ġrespects": 7269,
    "Ġcollateral": 20070,
    "resol": 17760,
    "Ġgrassy": 24379,
    "Ġnook": 15926,
    "Ġswimmer": 19457,
    "although": 8805,
    "Ġmargaret": 10376,
    "shavings": 22460,
    "Ġmere": 2713,
    "Ġdoub": 1835,
    "Ġsult": 10767,
    "Ġnear": 1718,
    "Ġgomorrah": 21612,
    "ridge": 9496,
    "mens": 20968,
    "Ġadversity": 24303,
    "regards": 23467,
    "Ġgrasp": 4664,
    "Ġresolution": 5500,
    "iver": 2049,
    "Ġmajest": 24058,
    "Ġmagnanim": 14471,
    "gainst": 25141,
    "imble": 10858,
    "Ġjet": 5307,
    "berwell": 22717,
    "ĠĠĠĠĠĠĠĠĠĠĠĠĠĠĠĠĠĠĠĠĠĠĠĠ": 5321,
    "sen": 21048,
    "Ġsermons": 20193,
    "Ġones": 3022,
    "toed": 18579,
    "Ġcastor": 19425,
    "Ġcommenting": 25228,
    "Ġpains": 5964,
    "peddling": 24696,
    "ade": 881,
    "Ġcreature": 2388,
    "olent": 8154,
    "Ġdirty": 9178,
    "Ġsymmetry": 20364,
    "Ġannals": 17898,
    "Ġmiriam": 25273,
    "ĠĠĠĠĠĠĠĠĠĠĠĠĠĠĠĠĠĠĠĠĠĠĠĠĠĠĠĠ": 9974,
    "pth": 2386,
    "Ġbottom": 3671,
    "guess": 14761,
    "Ġalgorithm": 772,
    "Ġinstigated": 18702,
    "Ġbearded": 15724,
    "iceland": 21563,
    "Ġlain": 17961,
    "Ġselling": 21223,
    "eze": 20846,
    "Ġflo": 2589,
    "aning": 2251,
    "ones": 2741,
    "fingers": 17369,
    "Ġmouldings": 24737,
    "doesn": 19819,
    "islands": 21374,
    "erce": 6126,
    "Ġcampaign": 20660,
    "Ġhussey": 7724,
    "Ġshetland": 22156,
    "Ġexclaiming": 13640,
    "Ġcassock": 20485,
    "Ġsent": 1776,
    "Ġpictured": 16622,
    "Ġdetermines": 2370,
    "Ġwildest": 16509,
    "Ġawake": 8271,
    "point": 6062,
    "Ġcloser": 8659,
    "Ġfring": 11127,
    "Ġwaldman": 11345,
    "Ġscuff": 15940,
    "Ġtaller": 16688,
    "dost": 14535,
    "Ç": 136,
    "move": 11852,
    "ispensable": 9095,
    "Ġoars": 3897,
    "what": 642,
    "Ġdarling": 12601,
    "ants": 1389,
    "meant": 7920,
    "Ġshrivelled": 19702,
    "Ġmemories": 14541,
    "Ġmerc": 9425,
    "smooth": 20247,
    "arat": 9180,
    "Ġconception": 10313,
    "superiority": 20184,
    "Ġholiday": 12995,
    "ears": 20844,
    "iom": 20914,
    "neg": 12862,
    "ened": 1387,
    "cient": 4569,
    "Ġstingy": 25455,
    "Ġconscientious": 16727,
    "momentum": 4991,
    "recollect": 17223,
    "Ġlucas": 3831,
    "Ġoffers": 12943,
    "Ġstop": 2504,
    "Ġcoron": 4465,
    "commodore": 20624,
    "Ġarmada": 23579,
    "Ġchanges": 2284,
    "Ġtragedy": 10667,
    "ems": 5236,
    "Ġlbs": 11614,
    "Ġultimately": 17164,
    "structure": 2303,
    "oak": 21002,
    "Ġbacks": 8528,
    "Ġrestricted": 19030,
    "Ġnotable": 18222,
    "Ġwer": 12549,
    "bil": 20770,
    "Ġiceberg": 14715,
    "Ġmonday": 6127,
    "iation": 7343,
    "Ġheathenish": 13615,
    "Ġpur": 2215,
    "Ġpens": 21457,
    "enderby": 25215,
    "Ġcologne": 12972,
    "ected": 7872,
    "Ġmemb": 14028,
    "Ġbehaved": 13251,
    "Ġcompat": 2939,
    "tormented": 13644,
    "Ġshy": 10903,
    "Ġprot": 3846,
    "declaration": 25175,
    "Ġjeopardy": 13595,
    "Ġdrowned": 9551,
    "latitude": 25259,
    "Ġwinchester": 10065,
    "Ġcrumpled": 16441,
    "Ġtrees": 4203,
    "theless": 4262,
    "ived": 1532,
    "atig": 13844,
    "ipotence": 22345,
    "insufferable": 21191,
    "Ġadult": 18291,
    "Ġsymptom": 13482,
    "¾": 127,
    "Ġfossils": 20221,
    "Ġwhence": 5839,
    "drew": 7334,
    "beam": 16036,
    "Ġfretfulness": 25448,
    "abhorred": 17335,
    "Ġsuppose": 2866,
    "Ġbel": 1215,
    "Ġessays": 19743,
    "Ġgalvan": 21614,
    "maid": 8553,
    "Ġrivers": 9441,
    "Ġsolutions": 1948,
    "resting": 23231,
    "Ġproflig": 23566,
    "rifled": 21046,
    "Ġechoed": 20422,
    "Ġdutch": 6327,
    "masculine": 24387,
    "Ġbomb": 17867,
    "heard": 5009,
    "sized": 15427,
    "ĠĠĠĠĠĠĠ": 7631,
    "Ġmill": 6666,
    "tracks": 19637,
    "è": 169,
    "Ġbowditch": 19322,
    "Ġepic": 15029,
    "Ļ": 252,
    "Ġinherited": 25353,
    "Ġcourage": 4634,
    "Ġbasics": 13447,
    "Ġclaps": 22356,
    "bitt": 17485,
    "jah": 17581,
    "gover": 10702,
    "Ġpleasanter": 19067,
    "super": 5942,
    "purposes": 25021,
    "clouds": 25496,
    "som": 3293,
    "didn": 9006,
    "Ġcaptiv": 16255,
    "Ġstrasburgh": 18614,
    "Ġbored": 16103,
    "Ġeclipsed": 26376,
    "Ġwronged": 24247,
    "Ġlying": 4825,
    "attracted": 13048,
    "Ġparty": 3509,
    "ß": 160,
    "allest": 5485,
    "Ġemergency": 25731,
    "plainly": 11091,
    "height": 21204,
    "destruction": 11256,
    "eliest": 14746,
    "uteronomy": 15661,
    "Ġspokes": 18313,
    "Ġclattering": 22361,
    "Ġswim": 3819,
    "pin": 13766,
    "jets": 20927,
    "atha": 6572,
    "Ġconfusion": 7273,
    "intention": 10367,
    "Ġprometheus": 15291,
    "bask": 20775,
    "Ġunmindful": 22059,
    "Ġhammered": 13238,
    "Ġscold": 10950,
    "venerable": 26408,
    "hard": 4690,
    "sided": 17664,
    "Ġenvy": 13207,
    "Ġinspect": 5963,
    "Ġcompass": 4410,
    "ampled": 18884,
    "ine": 404,
    "Ġboundless": 10495,
    "âĢĶâĢĺ": 7013,
    "Ġunacquainted": 12772,
    "familiar": 19782,
    "wick": 5362,
    "Ġsworn": 14435,
    "-": 17,
    "Ġclearly": 6897,
    "Ġannihilation": 15164,
    "ban": 9584,
    "Ġrefers": 1563,
    "Ġhawaiian": 25366,
    "Ġseconds": 16397,
    "Ġplump": 14282,
    "Ġmines": 21307,
    "Ġcaroline": 7254,
    "puff": 21021,
    "amiable": 14052,
    "patter": 4015,
    "knew": 9126,
    "Ġpl": 743,
    "Ġthrows": 14737,
    "Ġsupplication": 25491,
    "Ġcontribut": 12856,
    "Ġimply": 18443,
    "Ġsneezes": 24698,
    "mechanical": 25578,
    "Ġconsuming": 22789,
    "gratification": 24348,
    "startled": 24941,
    "ineffectual": 26504,
    "Ġ1807": 26083,
    "ise": 707,
    "Ġforster": 5230,
    "ripp": 6405,
    "Ġwallet": 21297,
    "Ġbiography": 22758,
    "usage": 12830,
    "Ġblacks": 23386,
    "Ġanticipated": 13510,
    "Ġmonument": 16237,
    "Ġbalances": 2342,
    "Ġmission": 13003,
    "Ġtreatise": 19343,
    "Ġmass": 3779,
    "ama": 11676,
    "Ġdestroyed": 5271,
    "ises": 3651,
    "aths": 22696,
    "Ġabide": 14187,
    "Ġmilitary": 11258,
    "parable": 16382,
    "plied": 10255,
    "Ġjoyfully": 19344,
    "Ġaverred": 18865,
    "Ġpapered": 20129,
    "itage": 17816,
    "Ġlodges": 19498,
    "Ġcrawling": 17045,
    "urpation": 16299,
    "Ġhobbling": 25644,
    "Ġpuppy": 12403,
    "Ġlit": 6246,
    "Ġforbearing": 25098,
    "Ġintermix": 22575,
    "worshipping": 16610,
    "ernity": 18618,
    "hullo": 17570,
    "Ġpermitting": 22396,
    "Ġbulk": 5591,
    "·": 120,
    "Ġhairy": 23863,
    "Ġfacilitate": 26098,
    "osa": 22257,
    "uch": 878,
    "Ġbough": 13893,
    "Ġcorpore": 13400,
    "merc": 19279,
    "heaven": 8052,
    "Ġquest": 2003,
    "flour": 23963,
    "foam": 24418,
    "Ġgabriel": 7595,
    "Ġethics": 15461,
    "_.âĢĶ": 23473,
    "subtle": 24243,
    "Ġdoor": 1741,
    "Ġduring": 874,
    "Ġarticle": 9501,
    "recursion": 13327,
    "Ġhosmer": 6774,
    "toes": 22562,
    "Ġattributed": 11831,
    "Ġboneless": 19604,
    "Ġagitates": 22513,
    "Ġdenying": 14658,
    "eldest": 22798,
    "middle": 11310,
    "Ġbell": 4636,
    "Ġsurvive": 9066,
    "avers": 17480,
    "Ġcalifornia": 20528,
    "nonsense": 17615,
    "Ġtimorous": 24225,
    "Ġmost": 1019,
    "und": 4117,
    "Ġcompress": 21846,
    "Ġcabin": 3304,
    "Ġchoosing": 19589,
    "Ġboots": 5943,
    "Ġpast": 2098,
    "Ġraven": 16111,
    "Ġinspired": 2521,
    "Ġaccusation": 22378,
    "above": 8147,
    "tables": 19756,
    "Ġawakened": 10453,
    "Ġdiction": 8794,
    "frozen": 25139,
    "Ġcircumspection": 25884,
    "bury": 9106,
    "Ġadhes": 22103,
    "Ġoffer": 4843,
    "haut": 20901,
    "Ġclaret": 22360,
    "Ġgratefully": 20443,
    "Ġmira": 8406,
    "Ġyawning": 12298,
    "Ġsurmise": 12293,
    "Ġdevoted": 6573,
    "Ġcretan": 22723,
    "Ġbub": 8117,
    "cock": 12024,
    "Ġlocked": 6034,
    "rics": 13035,
    "Ġdwelling": 7322,
    "mor": 4216,
    "Ġharpooneer": 3770,
    "Ġrefres": 14341,
    "infl": 15486,
    "reg": 2184,
    "Ġexceptions": 13228,
    "Ġel": 803,
    "Ġlist": 2367,
    "Ġbanqu": 12585,
    "omp": 2475,
    "liable": 3817,
    "Ġpilgr": 12178,
    "Ġroof": 6564,
    "Ġstiffness": 24830,
    "Ġamazed": 14888,
    "storied": 18024,
    "Ġhappily": 9330,
    "vate": 21108,
    "singing": 24363,
    "ichron": 22165,
    "Ġreflections": 5945,
    "related": 24010,
    "Ġwhine": 21712,
    "ferent": 4194,
    "ĠvertebrÃ¦": 11435,
    "lemagne": 26436,
    "Ġwet": 6518,
    "avast": 8897,
    "gentle": 5356,
    "Ġreminded": 9998,
    "Ġguiding": 19240,
    "Ġdoubtful": 19141,
    "greg": 6647,
    "Ġknighthood": 25297,
    "Ġcotton": 17378,
    "smeer": 26147,
    "Ġtweezers": 26556,
    "Ġgasping": 17038,
    "Ġforlorn": 14014,
    "Ġinestimable": 17441,
    "Ġgradients": 612,
    "Ġacceler": 1610,
    "shaw": 6864,
    "Ġnightgown": 23128,
    "aulding": 11339,
    "Ġingenious": 12346,
    "Ġobtained": 7432,
    "september": 14035,
    "Ġkl": 2735,
    "Ġcomely": 21845,
    "Ġlanes": 19764,
    "sequently": 14583,
    "Ġscorch": 20065,
    "Ġ16": 7926,
    "Ġup": 462,
    "Ġaccordance": 19496,
    "aff": 3104,
    "Ġprotesting": 14741,
    "named": 9888,
    "¯": 112,
    "Ġearl": 7675,
    "vere": 4883,
    "Ġtools": 11608,
    "shr": 10980,
    "Ġtransaction": 22436,
    "Ġted": 13811,
    "Ġpeaked": 2294,
    "Ġsane": 21220,
    "Û": 156,
    "Ġirrevocably": 15296,
    "<UNK>": 3,
    "Ġappetites": 20205,
    "Ġred": 3007,
    "would": 2354,
    "admitted": 18091,
    "Ġelephants": 9863,
    "Ġsudden": 2001,
    "Ġseizing": 7876,
    "Ġchests": 19670,
    "Ġsch": 13834,
    "Ġvoids": 25807,
    "Ġfond": 4755,
    "umns": 14147,
    "crimin": 17508,
    "Ġconsternation": 9858,
    "Ġdan": 8792,
    "punct": 20191,
    "800": 17476,
    "Ġuncertain": 4067,
    "allow": 5104,
    "jud": 4482,
    "resent": 10769,
    "Ġattacking": 24465,
    "orters": 21399,
    "Ġas": 374,
    "Ġrefusing": 11028,
    "Ġcrowd": 6336,
    "mortar": 25408,
    "card": 11475,
    "bath": 13688,
    "acted": 11010,
    "lid": 20944,
    "irene": 15912,
    "Ġforeshad": 23453,
    "Ġungenerous": 18263,
    "Ġer": 8104,
    "Ġabed": 22262,
    "Ġsize": 1216,
    "hinting": 17569,
    "Ġtus": 10749,
    "Ġpred": 670,
    "lers": 10106,
    "tish": 17677,
    "Ġencoding": 4774,
    "Ġdined": 9176,
    "Ġromantic": 8030,
    "fect": 2299,
    "osures": 22258,
    "Ġain": 6969,
    "Ġnursed": 16885,
    "Ġmargin": 11919,
    "Ġsaratoga": 26423,
    "Ġuninterrupted": 22039,
    "Ġphrensy": 25124,
    "cong": 10687,
    "Ġgathered": 8442,
    "Ġdrawing": 3917,
    "Ġlou": 6822,
    "aries": 6244,
    "Ġ78": 19612,
    "impl": 21704,
    "Ġfavourably": 16363,
    "jane": 4483,
    "Ġtwink": 8215,
    "Ġrecommence": 16812,
    "Ġoversight": 22348,
    "listened": 15043,
    "get": 1020,
    "Ġcouple": 5423,
    "Ġcurds": 22969,
    "Ġunsub": 22016,
    "parad": 16381,
    "diminished": 20838,
    "Ġunusually": 15844,
    "Ġweap": 6155,
    "Ġrelish": 14383,
    "Ġrepose": 6741,
    "Ġtask": 1309,
    "Ġarise": 7895,
    "Ġbespeaking": 26310,
    "Ġanalyze": 1564,
    "increas": 10454,
    "harpoone": 6107,
    "Ġderiv": 1736,
    "Ġintelligible": 15939,
    "Ġcupidity": 24535,
    "Ġtrem": 6659,
    "Ġclattered": 22359,
    "Ġtake": 1577,
    "uvian": 12240,
    "Ġarr": 1798,
    "writes": 4988,
    "Ġunresting": 25553,
    "Ġdivert": 23592,
    "some": 2234,
    "girdling": 26389,
    "Ġagreement": 18540,
    "negro": 18489,
    "pips": 21019,
    "Ġbachelors": 24860,
    "¹": 122,
    "stained": 21652,
    "Ġvacancies": 24345,
    "Ġcordially": 16836,
    "Ġmurderers": 16811,
    "comb": 11034,
    "fear": 8513,
    "Ġthoroughfares": 26095,
    "ourably": 14376,
    "squee": 15429,
    "ĠcÃ¦sar": 20578,
    "Ġenviron": 4207,
    "ĺ": 251,
    "Ġfearlessness": 19160,
    "Ġconnex": 10665,
    "Ġcolt": 11043,
    "Ġoblique": 20168,
    "Ġdrops": 9032,
    "Ġimmens": 9938,
    "Ġpitchpoling": 14910,
    "Ġreefed": 20301,
    "separation": 25226,
    "Ġflapp": 23008,
    "Ġspurn": 18309,
    "conviction": 19963,
    "Ġsecondly": 14519,
    "elizabeth": 1989,
    "itically": 21328,
    "Ġlove": 2054,
    "Ġpride": 3822,
    "Ġdiabol": 11453,
    "gged": 3776,
    "Ġrenders": 13281,
    "chastic": 2336,
    "Ġblaming": 22927,
    "putable": 10901,
    "Ġspringing": 10518,
    "Ġ59": 24327,
    "Ġinstruction": 14343,
    "Ġlonged": 6436,
    "1775": 26378,
    "Ġmountainous": 16599,
    "Ġlivid": 14988,
    "Ġsubsequently": 16158,
    "Ġking": 2305,
    "pher": 11511,
    "Ġmanxman": 9565,
    "Ġamaze": 22480,
    "Ġpossessed": 5195,
    "Ġdevil": 3611,
    "Ġascendency": 20231,
    "Ġamusements": 16913,
    "Ġbequest": 21750,
    "sixty": 24852,
    "Ġloosed": 22109,
    "visitors": 13347,
    "ountain": 2919,
    "Ġjuggl": 20436,
    "âĢĶâĢĻâĢĿ": 20062,
    "Ġvain": 3627,
    "Ġwilliam": 3482,
    "disreputable": 23503,
    "Ġ21": 11198,
    "crimson": 24098,
    "thanked": 24331,
    "Ġpallidness": 25604,
    "ô": 181,
    "Ġbutcher": 18271,
    "ivering": 7697,
    "Ġgait": 13329,
    "cr": 4075,
    "Ġprosecuted": 25293,
    "anzas": 17840,
    "Ġfortunate": 6214,
    "Ġsoliloquized": 17301,
    "Ġvision": 1553,
    "Ġfaire": 13363,
    "unken": 10236,
    "Ġlifelessly": 23047,
    "ipt": 12476,
    "Ġspeaker": 19148,
    "Ġadmire": 5263,
    "Ġperchance": 15989,
    "Ġvancouver": 26565,
    "ortunities": 15938,
    "delirium": 14784,
    "Ġcompar": 4771,
    "istrate": 7406,
    "american": 11400,
    "Ġbeside": 5192,
    "Ġremedy": 18724,
    "Ġhearken": 21682,
    "ety": 3520,
    "Ġinstructing": 3125,
    "stir": 12670,
    "Ġbelong": 3885,
    "instances": 13318,
    "Ġnoticed": 5549,
    "copy": 5133,
    "searching": 25103,
    "Ġ75": 19611,
    "Ġstiffest": 24829,
    "Ġgouldings": 26187,
    "Ġangles": 23587,
    "Ġsource": 6805,
    "Ġdeposited": 25484,
    "Ġunnaturally": 24870,
    "Ġapproxim": 1217,
    "Ġthreads": 13116,
    "Ġchin": 4891,
    "Ġthread": 14539,
    "Ġnecess": 3475,
    "meantime": 9091,
    "nnight": 20992,
    "olently": 15754,
    "Ġcutting": 4983,
    "Ġprices": 15609,
    "Ġsickness": 10538,
    "Ġack": 5622,
    "Ġghost": 6142,
    "Ġgemini": 26469,
    "Ġoriginate": 24120,
    "Ġmariners": 6067,
    "rib": 1947,
    "Ġhears": 8138,
    "Ġmanhandle": 22326,
    "egypt": 15348,
    "Ġberth": 8679,
    "Ġexpose": 10327,
    "Ġextinguish": 14327,
    "Ġanchor": 7368,
    "Ġreynolds": 10209,
    "Ġadvisable": 11442,
    "Ġeffort": 8204,
    "Ġwhist": 6021,
    "Ġceiling": 7996,
    "Ġbarricade": 14660,
    "ities": 1826,
    "Ġcomp": 723,
    "Ġtranscend": 25667,
    "Ġac": 844,
    "arious": 10317,
    "Ġhers": 7888,
    "Ġclamorous": 24909,
    "Ġassizes": 11109,
    "speckled": 23942,
    "Ġopportunity": 4786,
    "mrs": 3742,
    "Ġmurdered": 6464,
    "Ġprophes": 16347,
    "Ġaloft": 4305,
    "chancing": 22915,
    "Ġtrans": 637,
    "Ġapologizing": 25197,
    "Ġwhirled": 14959,
    "Ġvacantly": 16815,
    "Ġappetite": 12382,
    "spoutings": 25001,
    "attain": 21260,
    "rowed": 22858,
    "hoisted": 19281,
    "flesh": 13489,
    "thread": 15824,
    "Ġdeprived": 8207,
    "Ġchief": 3382,
    "rud": 4190,
    "Ġoarsman": 8637,
    "orns": 12589,
    "define": 1524,
    "Ġblanket": 8342,
    "fuller": 22483,
    "ose": 718,
    "Ġdemoniac": 15063,
    "Ġcleaning": 23177,
    "impenetrable": 26196,
    "Ġindefinitely": 25221,
    "or": 282,
    "Ġrevolt": 24504,
    "Ġparr": 22116,
    "Ġshaggy": 13569,
    "Ġwait": 4907,
    "Ġdreamed": 16629,
    "irty": 4048,
    "Ġdoted": 21431,
    "!_âĢĿ": 11376,
    "umerable": 11723,
    "Ġsteer": 10386,
    "Ġtows": 19561,
    "Ġserve": 9368,
    "Ġcard": 7363,
    "phantoms": 24679,
    "Ġclutched": 13518,
    "Ġsumat": 14129,
    "uc": 1878,
    "Ġgives": 5018,
    "ounced": 4954,
    "eler": 1571,
    "success": 6710,
    "Ġpitiful": 13237,
    "police": 10583,
    "virt": 15450,
    "Ġmeals": 12708,
    "Ġdied": 4110,
    "passenger": 24166,
    "ushes": 22288,
    "alled": 5910,
    "Ġstile": 21729,
    "Ġforgot": 4684,
    "Ġcondescension": 10618,
    "glory": 23850,
    "Ġflame": 7448,
    "aly": 1099,
    "playful": 24357,
    "Ġopenness": 18956,
    "etimes": 1990,
    "Ġsparsity": 4209,
    "Ġethiopian": 26613,
    "Ġbecalmed": 18086,
    "Ġgive": 1712,
    "aphys": 15200,
    "igns": 8447,
    "Ġflows": 13007,
    "gaff": 20881,
    "Ġaspect": 3099,
    "inkling": 16088,
    "letter": 6201,
    "shelf": 20379,
    "Ġharvard": 24573,
    "Ġuseful": 3558,
    "Ġmoustache": 20482,
    "Ġgour": 21595,
    "Ġwooden": 4730,
    "18": 20750,
    "Ġunceasing": 20356,
    "shout": 22449,
    "Ġfleecy": 17023,
    "Ġinflex": 20633,
    "Ġevid": 3499,
    "Ġplane": 11821,
    "Ġwoe": 4793,
    "patched": 17643,
    "Ġmortified": 14694,
    "Ġnetwork": 452,
    "Ġcomputing": 2218,
    "Ġcauldron": 25441,
    "Ġouthouse": 22311,
    "Ġwelfare": 12556,
    "Ġtedious": 15266,
    "devils": 20031,
    "clopÃ¦": 13053,
    "Ġrude": 7234,
    "years": 6883,
    "dia": 2134,
    "Ġdashed": 6009,
    "Ġrejoicing": 13420,
    "swells": 26148,
    "Ġdispose": 23877,
    "Ġmodel": 512,
    "Ġequal": 4134,
    "Ġhell": 5019,
    "Ġgallop": 19554,
    "Ġshunned": 17292,
    "Ġvictoria": 14872,
    "joice": 9602,
    "clerval": 7950,
    "Ġdeepest": 8212,
    "Ġreserves": 19669,
    "Ġwade": 17784,
    "master": 5687,
    "Ġpeasant": 13550,
    "Ġsummons": 13230,
    "Ġshowed": 4497,
    "Ġwiping": 25765,
    "ars": 905,
    "Ġindividual": 5744,
    "Ġamphitheat": 26252,
    "Ġsewing": 21951,
    "Ġdeliciousness": 24125,
    "comm": 7439,
    "Ġquitting": 7645,
    "Ġmaritime": 23035,
    "ird": 2431,
    "Ġstamped": 13526,
    "Ġpunctilious": 26352,
    "older": 15753,
    "Ġtrifling": 10602,
    "secondly": 16984,
    "Ġpencil": 11941,
    "Ġingolstadt": 8332,
    "Ġinverted": 12634,
    "daggoo": 13706,
    "Ġvillainous": 25131,
    "Ġnovember": 11747,
    "features": 14722,
    "ĠĠĠĠĠĠĠĠĠĠĠĠ": 12900,
    "etts": 12657,
    "Ġreceiving": 4882,
    "Ġmau": 21309,
    "Ġhypocritical": 20737,
    "Ġmonarchs": 25846,
    "Ġpatchwork": 24139,
    "Ġconjured": 25099,
    "Ġperfectly": 3698,
    "comparison": 25840,
    "[_": 5131,
    "Ġwar": 5526,
    "onah": 3337,
    "Ġnewcomers": 26041,
    "orse": 5806,
    "Ġdonkey": 23225,
    "Ġapproximation": 2343,
    "ĵ": 246,
    "Ġint": 409,
    "Ġener": 10896,
    "Ġmeanings": 18608,
    "Ġanyways": 22517,
    "strangers": 20335,
    "Ġhowled": 12853,
    "apologizing": 26544,
    "finished": 10554,
    "Ġtucked": 12390,
    "Ġfishy": 16522,
    "Ġmund": 21317,
    "were": 2561,
    "Ġmark": 2332,
    "Ġlands": 6594,
    "Ġgarn": 13962,
    "Ġpassionately": 16764,
    "Ġris": 4886,
    "Ġgrief": 4621,
    "Ġfortunately": 12177,
    "ater": 3371,
    "Ġbelief": 5855,
    "Ġsphere": 15880,
    "mechan": 11855,
    "Ġdivided": 8631,
    "Ġenig": 15797,
    "Ġsummary": 19401,
    "Ġsupplied": 8943,
    "possible": 5743,
    "acles": 8518,
    "persuaded": 15072,
    "yt": 17711,
    "Ġfeet": 2257,
    "ĠĠĠĠĠĠĠĠĠĠĠĠĠĠĠĠĠĠĠĠĠĠĠĠĠĠĠĠĠĠĠĠĠĠĠĠĠĠĠĠ": 4517,
    "networks": 2409,
    "Ġcoffins": 13248,
    "deser": 10402,
    "harpoons": 24285,
    "sto": 3200,
    "Ġattending": 3286,
    "icious": 7380,
    "Ġhurtling": 24957,
    "eminence": 20097,
    "Ġhorribly": 16340,
    "Ġtri": 4813,
    "Ġinhabitants": 7524,
    "Ġprogeny": 17387,
    "anyone": 16593,
    "ino": 15478,
    "Ġberyl": 20488,
    "Ġnoticing": 18224,
    "Ġhare": 5157,
    "driver": 14920,
    "Ġceased": 6468,
    "creat": 20799,
    "Ġalt": 18098,
    "Ġrelatives": 12979,
    "sequent": 6831,
    "elevating": 20404,
    "Ġadded": 2716,
    "Ġinadequate": 17936,
    "monster": 8591,
    "Ġobstetrics": 24678,
    "Ġincome": 7916,
    "telling": 14439,
    "Ġdraws": 19434,
    "further": 7535,
    "Ġbachel": 7158,
    "Ġmaria": 7124,
    "analy": 17838,
    "itud": 2931,
    "Ġpromotion": 23190,
    "Ġsisterly": 16301,
    "Ġmutually": 23954,
    "Ġenveloping": 19733,
    "spirited": 19752,
    "Ġglory": 6064,
    "Ġvan": 1087,
    "Ġreported": 11978,
    "Ġfolks": 14425,
    "Ġpossible": 2586,
    "buttoned": 13631,
    "every": 2810,
    "Ġestimation": 11218,
    "Ġdup": 21425,
    "Ġprotection": 9461,
    "Ġape": 21195,
    "Ġthimble": 15634,
    "Ġdelicately": 24124,
    "interest": 5421,
    "uncontrollable": 20594,
    "W": 59,
    "Ġevalu": 2993,
    "Ġutility": 23513,
    "Ġenc": 966,
    "Ġprograms": 7239,
    "aurs": 20768,
    "Ġaxis": 12305,
    "Ġbaffled": 12401,
    "seriously": 18904,
    "Ġmanx": 7904,
    "Ġproceeded": 5335,
    "Ġbabel": 24426,
    "irr": 12734,
    "Ġstrangled": 24132,
    "ender": 9160,
    "Ġscant": 22277,
    "Ġtipped": 17728,
    "skelter": 24490,
    "ø": 185,
    "inate": 6233,
    "Ġglasses": 9474,
    "Ġscore": 9737,
    "Ġblundering": 26283,
    "Ġteaching": 10364,
    "Ġfurs": 18739,
    "Ġdreamy": 14702,
    "Ġsurpassed": 25267,
    "Ġattention": 1168,
    "pleasure": 5977,
    "comra": 16166,
    "Ġblame": 6446,
    "Ġdisaster": 12884,
    "Ġmoulton": 17434,
    "Ġsweeter": 23915,
    "ishmael": 18420,
    "recognised": 15261,
    "Ġinclu": 1098,
    "Ġseen": 1369,
    "Ġpledged": 20686,
    "feeder": 12359,
    "Ġcured": 21345,
    "inuating": 16201,
    "message": 17371,
    "coarse": 16486,
    "Ġrepresentations": 1877,
    "explained": 23137,
    "Ġsteed": 13038,
    "Ġtransition": 14233,
    "Ġcoquet": 22580,
    "occupations": 24964,
    "Ġelegance": 11332,
    "Ġpsych": 10176,
    "hatred": 24821,
    "loved": 14250,
    "Ġgenerations": 10965,
    "Ġevangelist": 20337,
    "Ġknotted": 17019,
    "Ġcadiz": 17324,
    "Ġimputable": 22170,
    "isher": 2878,
    "maintained": 25020,
    "reflection": 13454,
    "Ġdisgu": 8205,
    "Ġstole": 7952,
    "Ġbaron": 19333,
    "ruff": 15897,
    "Ġflower": 16229,
    "atherley": 7220,
    "tiness": 21070,
    "whence": 23211,
    "Ġresc": 4507,
    "Ġstaff": 14005,
    "norm": 20984,
    "Ġimprovement": 7965,
    "Ġstating": 15719,
    "goodness": 19287,
    "Ġconclusions": 10553,
    "Ġsentinel": 26065,
    "queer": 10363,
    "Ġsubtlety": 24780,
    "gard": 7339,
    "ounders": 22391,
    "terogene": 21822,
    "Ġempire": 11145,
    "Ġdireful": 11018,
    "Ġdated": 10939,
    "Ġinexper": 16980,
    "Ġnecessarily": 13247,
    "Ġbags": 24537,
    "Ġrescued": 24206,
    "time": 3149,
    "Ġyanke": 18097,
    "estate": 12817,
    "Ġrecumbent": 22739,
    "Ġcords": 14878,
    "Ł": 258,
    "eral": 9159,
    "Ġobed": 8535,
    "Ġthough": 994,
    "reason": 4416,
    "confid": 14866,
    "Ġminimax": 5858,
    "Ġimped": 18442,
    "dra": 3413,
    "Ġphilosophy": 7103,
    "iding": 3845,
    "Ġstraggling": 23750,
    "reed": 6373,
    "ĝ": 222,
    "agreeable": 5829,
    "courageous": 26127,
    "Ġwhitney": 11373,
    "tailed": 17685,
    "Ġnapole": 15114,
    "Ġsun": 1720,
    "Ġdella": 21437,
    "stays": 15686,
    "Ġcupboard": 16883,
    "Ġimpul": 7208,
    "Ġob": 861,
    "itals": 17820,
    "Ġrecur": 1621,
    "Ġadvocate": 13675,
    "Ġagrees": 22512,
    "quitted": 21854,
    "neural": 3067,
    "perils": 22175,
    "highly": 24764,
    "strip": 19829,
    "n": 82,
    "Ġpolished": 11182,
    "dr": 6221,
    "fing": 13712,
    "Ġhumbly": 16195,
    "ĠĠĠĠĠĠĠĠĠĠĠĠĠĠĠĠĠĠĠĠĠĠĠĠĠĠĠĠĠĠĠĠĠĠĠĠĠĠĠĠĠĠĠĠĠĠĠĠĠĠĠĠĠĠĠĠĠĠĠĠ": 19259,
    "Ġalcoves": 26486,
    "Ġbuttons": 12778,
    "rem": 1520,
    "common": 4127,
    "Ġfossil": 12385,
    "abama": 12706,
    "_).âĢĶ": 8681,
    "itoring": 21330,
    "elius": 13285,
    "Ġbut": 424,
    "rear": 21231,
    "Ġhandle": 3139,
    "ython": 1029,
    "Ġgerman": 6141,
    "Ġtrespass": 23599,
    "Ġstride": 22613,
    "Ġlived": 3990,
    "Ġro": 597,
    "Ġlinks": 13954,
    "Ġbar": 3150,
    "ernal": 4314,
    "gerine": 22883,
    "itively": 21329,
    "Ġarrival": 4731,
    "Ġwonderful": 4563,
    "Ġcautiously": 16977,
    "foundered": 20866,
    "Ġdanes": 25156,
    "Ġhandspike": 22693,
    "letters": 13173,
    "Ġped": 6817,
    "Ġtended": 21165,
    "Ġje": 4122,
    "ribs": 23363,
    "ĠĠĠĠĠĠĠĠĠĠĠĠĠĠĠĠĠĠĠĠĠĠĠĠĠĠĠĠĠĠĠĠĠĠĠĠĠĠĠĠĠĠĠĠ": 12151,
    ".;": 20743,
    "Ġgilt": 21603,
    "Ġdecapitated": 20614,
    "Ġsnug": 8279,
    "Ġwat": 1287,
    "Ġfully": 6342,
    "Ġproves": 14037,
    "illum": 15867,
    "qualities": 25043,
    "Ġcontain": 1550,
    "nobody": 16133,
    "neath": 12863,
    "residence": 19262,
    "Ġpacing": 8425,
    "proper": 7471,
    "Ġottoman": 17377,
    "ulate": 5233,
    "ial": 410,
    "mmed": 7913,
    "Ġcharacteristics": 8609,
    "Ġdist": 680,
    "orton": 11754,
    "Ġunconditional": 15842,
    "itating": 9650,
    "rever": 21234,
    "developed": 15263,
    "Ġmarbles": 18872,
    "dee": 11731,
    "Ġclients": 19731,
    "Ġexplain": 545,
    "Ġocean": 3305,
    "disp": 7976,
    "million": 25751,
    "ineas": 15819,
    "folly": 20861,
    "Ġpresume": 8037,
    "fac": 17541,
    "Ġenter": 4029,
    "anter": 9166,
    "sleet": 20148,
    "observation": 17269,
    "Ġcloset": 19590,
    "Ġtag": 15467,
    "congenial": 25399,
    "Ġemployments": 12100,
    "Ġpartners": 11851,
    "Ġalb": 14015,
    "Ġnecessitates": 23926,
    "bolts": 11420,
    "Ġsavi": 18325,
    "according": 12026,
    "Ġeber": 18003,
    "Ġquaker": 10971,
    "ribly": 8254,
    "obser": 11099,
    "Ġvanishing": 1345,
    "Ġgrows": 4985,
    "bbings": 19275,
    "igators": 18044,
    "el": 306,
    "Ġ$": 21149,
    "uncommonly": 25549,
    "Ġwhimsical": 20426,
    "Ġsore": 10764,
    "Ġjoys": 13218,
    "Ġinmates": 15620,
    "perpetually": 20510,
    "Ġlasted": 11053,
    "Ġcow": 13875,
    "stuff": 15685,
    "delirious": 19504,
    "Ġpillow": 10037,
    "abases": 3008,
    "Ġsiamese": 20481,
    "enses": 10995,
    "benevolently": 25600,
    "inclined": 10639,
    "heading": 5487,
    "Ġwhoever": 10975,
    "islanders": 25442,
    "gradually": 12912,
    "Ġvor": 15804,
    "Ġpoky": 21476,
    "Ġpropont": 16348,
    "Ġrepul": 16407,
    "desire": 14473,
    "Ġcaptioning": 23020,
    "mountain": 10713,
    "rically": 15416,
    "alogue": 25159,
    "engthen": 14456,
    "Ġaunts": 21199,
    "ittle": 812,
    "iverse": 13114,
    "Ġspiritual": 9929,
    "Ġdevelop": 1678,
    "ured": 1654,
    "looks": 12016,
    "carpenter": 11427,
    "Ġstudies": 7955,
    "Ġimputed": 12805,
    "Ġsled": 21217,
    "Ġforgiven": 24025,
    "Ġimagined": 8606,
    "aches": 6569,
    "Ġsuddenness": 23380,
    "Ġmake": 1285,
    "Ġcold": 3033,
    "cellar": 20276,
    "Ġanswers": 7070,
    "Ġtestified": 16330,
    "Ġbuttoning": 17235,
    "atory": 6125,
    "ocratic": 17245,
    "Ġlaure": 16909,
    "Ġeternities": 19941,
    "Ġmovement": 9967,
    "ĠmanÅĵuv": 18417,
    "Ġrenew": 6145,
    "precaution": 23820,
    "Ġimplements": 2489,
    "Ġphyseter": 26586,
    "Ġtrading": 23074,
    "Ġmother": 2067,
    "Ġsorrowful": 10536,
    "Ġsafe": 5103,
    "Ġfavoured": 16362,
    "Ġquoin": 22415,
    "Ġfobbing": 26441,
    "onet": 12542,
    "Ġspoil": 17007,
    "Ġsetting": 7046,
    "Â£": 4812,
    "clergy": 18933,
    "gaining": 20122,
    "complete": 15034,
    "Ġworn": 6445,
    "Ġinsect": 12633,
    "dler": 13705,
    "Ġconversation": 3330,
    "daw": 17522,
    "Ġactive": 7914,
    "Ġpeace": 3690,
    "lets": 7836,
    "succeeded": 15174,
    "Ġdeath": 2043,
    "ospit": 22260,
    "Ġunmannerly": 26517,
    "delightful": 12194,
    "jected": 22711,
    "Ġlingo": 24903,
    "Ġretreats": 16928,
    "Ġegypt": 9678,
    "Ġbaleful": 24982,
    "eu": 17530,
    "Ġausten": 5880,
    "smart": 23904,
    "Ġrushed": 4087,
    "medical": 23339,
    "Ġdyspeps": 16498,
    "Ġmagnitude": 1945,
    "Ġvainly": 9923,
    "Ġgust": 21594,
    "received": 9638,
    "Ġimmeas": 18330,
    "eld": 965,
    "iii": 14774,
    "Ġtrailing": 23077,
    "Ġincommunicable": 26611,
    "?âĢĿâĢĶ": 12895,
    "Ġpacific": 5153,
    "Ġself": 1779,
    "Ġheavier": 13100,
    "Ġemerged": 8684,
    "Ġadmirer": 16838,
    "Ġdistinguish": 2726,
    "Ġdur": 11591,
    "appalling": 22842,
    "Ġprof": 2464,
    "different": 6501,
    "prior": 21031,
    "Ġcollectively": 19966,
    "Ġimmersed": 19483,
    "schoolmaster": 15160,
    "Ġrailway": 15020,
    "Ġbow": 3062,
    "Ġbewil": 11656,
    "ek": 1909,
    "somerset": 26322,
    "Ġsweating": 16461,
    "conclusive": 25673,
    "Ġdread": 3166,
    "believed": 9932,
    "Ġchose": 7413,
    "Ġelimin": 16106,
    "Ġhasty": 10477,
    "Ġrelentless": 26277,
    "Ġmisanthropic": 26560,
    "Ġrelation": 2141,
    "Ġmouthful": 16574,
    "aurus": 20559,
    "diff": 9113,
    "Ġappeared": 2774,
    "Ġtranquill": 6630,
    "Ġtur": 2567,
    "fluttering": 23970,
    "Ġultimate": 12347,
    "Ġpace": 9182,
    "Ġgrasped": 8033,
    "Ġprodigy": 19791,
    "Ġinitialized": 3947,
    "algorithm": 3860,
    "Ġcaused": 5048,
    "Ġweb": 9239,
    "Ġsending": 8774,
    "ias": 6362,
    "then": 2053,
    "attacked": 23118,
    "Ġthomson": 26454,
    "Ġimpetus": 25569,
    "Ġdenied": 9000,
    "Ġunsolved": 22026,
    "Ġpicture": 4856,
    "Ġconsisting": 8971,
    "Ġpebbles": 16127,
    "Ġcarpets": 18902,
    "Ġtrib": 13818,
    "Ġconcise": 23319,
    "icest": 21561,
    "immediate": 20092,
    "dropped": 12260,
    "Ġst": 332,
    "Ġeurope": 8061,
    "Ġmorocc": 22974,
    "house": 4077,
    "Ġberm": 21381,
    "Ġappears": 5402,
    "Ġtelescope": 17347,
    "Ġpurses": 23477,
    "ad": 337,
    "rity": 13775,
    "Ġalmanac": 26485,
    "Ġremo": 3784,
    "Ġ19": 6719,
    "Ġexclaimed": 4683,
    "establish": 17392,
    "Ġpublisher": 24063,
    "Ġmasts": 6465,
    "Ġefficiently": 3969,
    "isson": 23462,
    "Ġpurse": 12009,
    "Ġselection": 18202,
    "ahawk": 23313,
    "ruded": 15899,
    "offensive": 16396,
    "iamond": 14590,
    "Ġdecline": 9286,
    "brilliancy": 26077,
    "Ġx": 2073,
    "ution": 4351,
    "Ġpads": 21471,
    "Ġsoothed": 10028,
    "Ġferguson": 17469,
    "Ġassumed": 9465,
    "Ġdecks": 6900,
    "Ġrasc": 21974,
    "pond": 21012,
    "Ġaccomplishment": 19664,
    "Ġcanal": 8181,
    "Ġcelest": 9900,
    "Ġprotested": 9933,
    "Ġsimilarly": 24308,
    "Ġostrich": 26430,
    "Ġjac": 1899,
    "Ġrever": 6536,
    "ost": 5360,
    "Ġfleeting": 19326,
    "Ġadm": 2406,
    "Ġunwarrantable": 26353,
    "Ġathirst": 20597,
    "guest": 19480,
    "Ġsilvery": 13093,
    "batt": 20777,
    "Ġmaterial": 5178,
    "Ġgrinning": 9053,
    "Ġhates": 21483,
    "Ġour": 1009,
    "Ġoverlooking": 22347,
    "Ġconj": 8460,
    "conveyed": 20519,
    "Ġwretch": 6378,
    "nantucketer": 24972,
    "Ġmod": 496,
    "Ġcylinders": 25943,
    "Ġspikes": 22133,
    "Ġunheeded": 18258,
    "Ġalchemists": 26487,
    "ume": 4835,
    "Ġpeaks": 16126,
    "ancial": 21360,
    "Ġattend": 5035,
    "iana": 7048,
    "recklessly": 25269,
    "Ġstroll": 13351,
    "rabb": 15677,
    "Ġeventually": 8616,
    "pense": 10368,
    "umblings": 23927,
    "iciency": 9574,
    "ife": 1023,
    "idge": 14013,
    "lins": 2027,
    ":--": 5784,
    "Ġprofessors": 14725,
    "scoured": 22988,
    "Ġmoves": 14231,
    "Ġphren": 8571,
    "obst": 11930,
    "season": 14033,
    "se": 358,
    "Ġintegral": 25008,
    "Ġcleared": 6074,
    "jub": 20928,
    "inion": 2876,
    "voyage": 7785,
    "Ġcurrents": 13011,
    "nowhere": 18418,
    "Ġesteemed": 10588,
    "Ġmemoirs": 26205,
    "Ġcommon": 1413,
    "Ġfocuses": 8649,
    "Ġfur": 993,
    "city": 15326,
    "Ġdefile": 18823,
    "chamber": 13624,
    "Ġbusy": 6189,
    "ology": 1592,
    "Ġdiscoveries": 13357,
    "Ġforesaw": 19127,
    "blacksmith": 17001,
    "idence": 4304,
    "Ġdizzy": 21430,
    "Ġratt": 7880,
    "warmest": 25027,
    "Ġfall": 2989,
    "sustained": 20567,
    "poison": 14391,
    "large": 6625,
    "Ġaltered": 7393,
    "Ġfollows": 7672,
    "Ġheat": 5453,
    "Ġunfl": 22013,
    "Ġdormouse": 4925,
    "jol": 20924,
    "Ġparamet": 607,
    "Ġasiatic": 20428,
    "Ġsecre": 5493,
    "Ġperu": 14222,
    "Ġconsiderations": 9409,
    "Ġeast": 5370,
    "headers": 23106,
    "Ġ221": 25068,
    "learning": 2511,
    "Ġhuff": 21487,
    "Ġtranspointed": 22437,
    "regarded": 12006,
    "Ġyield": 5093,
    "Ġbecome": 3160,
    "gunwale": 20662,
    "yd": 21141,
    "oo": 7553,
    "Ġtesting": 23220,
    "ctuous": 9205,
    "Ġpup": 12616,
    "[": 63,
    "fisher": 7547,
    "rested": 13073,
    "Ġwandering": 8653,
    "iah": 14414,
    "ccarthy": 4888,
    "terror": 18128,
    "whales": 5187,
    "cull": 20808,
    "endless": 22221,
    "arabian": 26446,
    "Ġabridged": 26540,
    "Ġcustomary": 8669,
    "Ġvouch": 15807,
    "ittered": 18439,
    "ople": 2321,
    "exam": 10976,
    "Ġsell": 7825,
    "Ġshears": 18319,
    "Ġostentatiously": 20467,
    "learnt": 23526,
    "hurry": 24763,
    "Ġclos": 4549,
    "Ġunlocking": 20705,
    "ezes": 9990,
    "unities": 15768,
    "Ġspout": 3284,
    "speps": 14336,
    "Ġexerting": 21829,
    "Ġdragging": 14474,
    "Ġrocky": 13386,
    "Ġcordon": 24394,
    "fulness": 4312,
    "Ġconvey": 9980,
    "Ġslack": 8955,
    "dil": 11478,
    "virtue": 20568,
    "Ġdeformed": 14046,
    "libra": 22922,
    "Ġphrases": 2796,
    "Ġourselves": 5127,
    "Ġsteeple": 19286,
    "winds": 10521,
    "Ġwakeful": 24266,
    "Ġproduced": 2456,
    "Ġskil": 14350,
    "Ġramad": 8527,
    "Ġterr": 3274,
    "Ġgrip": 11626,
    "Ġelevation": 14898,
    "Ġsex": 8841,
    "petulance": 24299,
    "Ġprejudiced": 24809,
    "lan": 15376,
    "shipmates": 11926,
    "Ġworse": 4719,
    "Ġwond": 3938,
    "itory": 12564,
    "Ġhues": 21486,
    "furniture": 20241,
    "Ġcoffee": 6760,
    "Ġnocturnal": 20714,
    "Ġspent": 3963,
    "Ġgrimesby": 11457,
    "naught": 20993,
    "Ġdissip": 10992,
    "Ġmat": 1148,
    "vy": 21106,
    "oment": 919,
    "Ġamusing": 11798,
    "Ġmorbidness": 20627,
    "Ġscal": 1551,
    "bweb": 20790,
    "wrong": 13203,
    "Ġviolently": 6456,
    "Ġwoodcock": 19162,
    "ermost": 7430,
    "Ġlav": 13949,
    "Ġherd": 7887,
    "itics": 13871,
    "stave": 21646,
    "Ġale": 9154,
    "Ġdilated": 24704,
    "Ġassented": 17337,
    "geons": 15977,
    "Ġpriv": 4183,
    "Ġchildish": 13136,
    "ry": 808,
    "conceive": 16027,
    "bidden": 19736,
    "impat": 11202,
    "Ġpollard": 20384,
    "ic": 304,
    "foundation": 16714,
    "Ġanecdote": 26354,
    "Ġpacket": 14892,
    "Ġuncouth": 14549,
    "Ġtrades": 8231,
    "mixed": 15393,
    "Ġreach": 4045,
    "examine": 25477,
    "Ġdesperate": 7776,
    "frau": 15088,
    "ĥ": 230,
    "Ġdiscovering": 13356,
    "alf": 4639,
    "Ġsunshine": 14494,
    "Ġardently": 9497,
    "carrying": 16712,
    "ĠâĢľ": 516,
    "ure": 356,
    "emin": 8470,
    "continual": 20643,
    "Ġtower": 8318,
    "Ġwilfully": 16766,
    "Ġtracing": 18890,
    "Ġflexible": 23774,
    "rons": 21038,
    "dark": 5614,
    "emorial": 10243,
    "Ġconcert": 11965,
    "Ġunicorn": 22050,
    "syntax": 5867,
    "Ġneighbor": 25803,
    "anders": 18152,
    "ľ": 255,
    "Ġcheever": 23283,
    "flight": 15351,
    "Ġzone": 14361,
    "Ġrecommendation": 17025,
    "Ġupward": 9720,
    "Ġmanor": 14196,
    "Ġappe": 1539,
    "Ġtokens": 1773,
    "Ġcarriage": 3949,
    "Ġrepeat": 7999,
    "iftings": 23223,
    "Ġgods": 6454,
    "bit": 3931,
    "Ġprov": 4402,
    "Ġsanely": 24980,
    "Ġinequalities": 26453,
    "Ġdenoted": 16565,
    "Ġplaned": 24053,
    "Ġcarpet": 9355,
    "part": 2575,
    "Ġappear": 2488,
    "Ġimputation": 22169,
    "Ġensuring": 11191,
    "asted": 4650,
    "stock": 13220,
    "Ġguardians": 14942,
    "Ġspeaks": 11159,
    "Ġintrodu": 1925,
    "Ġyale": 21776,
    "horrors": 20540,
    "Ġyarn": 10868,
    "Ġlatterly": 24083,
    "Ġpretty": 3859,
    "Ġcanv": 7009,
    "Ġcroquet": 9961,
    "ifting": 6545,
    "Ġspare": 5102,
    "Ġfabric": 25947,
    "Ġcau": 13880,
    "borough": 20784,
    "och": 21000,
    "Ġpleadings": 25852,
    "Ġungrateful": 14119,
    "Ġloads": 22111,
    "mn": 3575,
    "Ġportly": 14678,
    "Ġemail": 19074,
    "Ġconjectures": 16925,
    "Ġbeacon": 21753,
    "Ġfellow": 2775,
    "appropri": 22840,
    "Ġveiled": 16199,
    "Ġfastening": 16355,
    "Ġnets": 21521,
    "impenet": 18053,
    "Ġdow": 17886,
    "Ġundulated": 19515,
    "Ġbawling": 25945,
    "Ġearls": 18903,
    "Ġwand": 4343,
    "Ġsprings": 16687,
    "opatra": 22474,
    "peculiar": 6886,
    "Ġcommunicative": 24548,
    "Ġconsidering": 4615,
    "Ġcurly": 18842,
    "Ġindestruct": 22955,
    "Ġuncovered": 23430,
    "remembrance": 25702,
    "Ġagreeing": 20017,
    "Ġplata": 25117,
    "Ġintolerably": 15827,
    "Ġenduring": 16302,
    "nerable": 16275,
    "Ġpaddington": 17095,
    "Ġprepar": 7896,
    "Ġsharpen": 13568,
    "tram": 19634,
    "Ġcholera": 22250,
    "Ġsensible": 4976,
    "Ġimpass": 15983,
    "consumed": 25675,
    "Ġengraving": 17080,
    "Ġsuitable": 18279,
    "Ġscruples": 15077,
    "Ġcause": 2413,
    "Ġnight": 1464,
    "impatient": 13639,
    "Ġlocker": 16911,
    "Ġtrous": 10957,
    "fourth": 11328,
    "Ġ1894": 5196,
    "onym": 14649,
    "fitzwilliam": 11352,
    "Ġinstructions": 11195,
    "Ġsmaller": 1884,
    "Ġviolent": 5117,
    "Ġencaps": 12959,
    "Ġsucceed": 4545,
    "sn": 7138,
    "engines": 18927,
    "neither": 9756,
    "marest": 20979,
    "Ġtrowsers": 9627,
    "Ġworking": 5574,
    "Ġaugmentation": 20114,
    "Ġengagements": 9977,
    "Ġbounded": 16626,
    "Ġmercifully": 20177,
    "race": 11630,
    "Ġlouis": 8356,
    "Ġoccur": 1083,
    "Ġye": 901,
    "Ġmarshal": 20218,
    "reception": 15513,
    "afternoon": 13184,
    "Ġburned": 8630,
    "icient": 799,
    "ally": 532,
    "aphs": 22332,
    "deep": 1040,
    "trying": 15437,
    "indulged": 22372,
    "deacon": 22144,
    "Ġamours": 22478,
    "Ġworld": 1597,
    "key": 5462,
    "Ġremem": 4315,
    "Ġdevouring": 11858,
    "Ġshilling": 18228,
    "southern": 20407,
    "Ġcrush": 9421,
    "Ġscaramouch": 23825,
    "staking": 21645,
    "Ġleaning": 5228,
    "R": 54,
    "ica": 10198,
    "Ġfailure": 13313,
    "fr": 4804,
    "Ġcoming": 2618,
    "cords": 25136,
    "approve": 19935,
    "ĠĠĠĠĠĠĠĠĠĠĠĠĠĠĠĠĠĠĠĠĠĠĠĠĠĠĠ": 14885,
    "aren": 10073,
    "Ġdecl": 3588,
    "Ġlinguistic": 12423,
    "erred": 6376,
    "Ġble": 5223,
    "Ġshoals": 13133,
    "Ġramadans": 25119,
    "Ġgroan": 13323,
    "Ġconducted": 10502,
    "ceptibly": 22340,
    "Ġbottles": 16570,
    "cour": 4480,
    "youn": 5690,
    "Ġhag": 12622,
    "Ġinterference": 8894,
    "Ġadaptation": 3158,
    "Ġfruit": 12324,
    "Ġhemp": 9215,
    "oper": 7347,
    "Ġwoods": 5406,
    "Ġtemples": 18646,
    "Ġlexic": 15721,
    "Ġcleaned": 23179,
    "Ġcompanions": 5865,
    "adieu": 26200,
    "Ġmanner": 2195,
    "Ġdropping": 7483,
    "wam": 10135,
    "Ġprofoundest": 16860,
    "inside": 23063,
    "Ġascribe": 16782,
    "Ġimbu": 15889,
    "olets": 21007,
    "aneous": 7240,
    "Ġfollow": 1396,
    "chery": 24551,
    "ital": 4817,
    "Ġbehooves": 20732,
    "bber": 4568,
    "acknowledge": 18468,
    "insula": 23064,
    "Ġunfelt": 24109,
    "Ġbob": 22635,
    "Ġidolator": 19996,
    "Ġrat": 4355,
    "pag": 11510,
    "Ġbenignity": 18783,
    "Ġbowl": 11204,
    "Ġcalculate": 13261,
    "Ġproceeds": 12075,
    "Ġdodge": 19885,
    "enter": 7857,
    "ġ": 226,
    "Ġsho": 2243,
    "Ġtrough": 15962,
    "athy": 14322,
    "Ġfiddle": 25444,
    "Ġillustration": 19135,
    "paus": 13772,
    "angu": 567,
    "harb": 9123,
    "ompl": 4536,
    "Ġcontrasting": 11154,
    "Ġwid": 4633,
    "Ġand": 295,
    "Ġindistinct": 17407,
    "Ġsatisfying": 23696,
    "Ġnephews": 24713,
    "archical": 1927,
    "er": 269,
    "Ġhumanity": 6731,
    "Ġboot": 11837,
    "proble": 9393,
    "power": 7136,
    "Ġbusks": 23337,
    "tone": 8762,
    "Ġsailor": 3535,
    "murder": 10564,
    "Ġspecial": 2102,
    "ri": 390,
    "miserably": 24210,
    "Ġdozing": 22240,
    "Ġcoward": 7155,
    "Ġjan": 11760,
    "aby": 18106,
    "illed": 2624,
    "Ġduty": 4070,
    "Ġcontinued": 2923,
    "Ġrepel": 23357,
    "Ġbreat": 3460,
    "ators": 7829,
    "Ġopenshaw": 7954,
    "ermaid": 14297,
    "Ġmaty": 22909,
    "Ġinspection": 14544,
    "Ġbetokened": 18796,
    "Ġexclusion": 19394,
    "quadrille": 20593,
    "Ġ116": 24440,
    "organic": 25946,
    "Ġmari": 6813,
    "Ġfals": 15578,
    "Ġmotioned": 19591,
    "Ġinsure": 13177,
    "wl": 17702,
    "Ġweight": 657,
    "load": 12878,
    "Ġcomes": 3424,
    "Ġdenial": 13213,
    "Ġforemast": 12004,
    "Ġtrail": 16281,
    "Ġshocked": 9400,
    "Ġguardianship": 17419,
    "tures": 21068,
    "valley": 16212,
    "second": 6543,
    "Ġstagnant": 24654,
    "satisf": 5781,
    "Ġcorrespondent": 19821,
    "advise": 24217,
    "Ġheight": 4221,
    "everlasting": 18771,
    "unquiet": 21878,
    "imly": 12684,
    "Ġembarkation": 25123,
    "albatross": 15627,
    "Ġloite": 22108,
    "believe": 8303,
    "athom": 12936,
    "Ġstout": 6024,
    "Ġcring": 15549,
    "Ġorphans": 20203,
    "Ġchimer": 24602,
    "Ġemploys": 19429,
    "Ġchas": 18378,
    ")": 13,
    "Ġpart": 860,
    "Ġbrig": 11047,
    "Ġcompos": 22567,
    "Ġpersonally": 8599,
    "rs": 7807,
    "relatively": 24012,
    "Ġfinishing": 23121,
    "outh": 2687,
    "Ġspirit": 3722,
    "jumping": 20244,
    "Ġsub": 950,
    "Ġattempting": 14696,
    "ices": 2137,
    "Ġrewarding": 13436,
    "posture": 16927,
    "Ġcondescend": 19953,
    "Ġinserted": 8355,
    "Ġregain": 22584,
    "Ġdit": 21418,
    "Ġstoutly": 16924,
    "Ġsimilar": 4917,
    "rating": 7808,
    "Ġnods": 19062,
    "wherein": 19107,
    "fits": 13717,
    "born": 7543,
    "Ġbathed": 17865,
    "://": 11465,
    "however": 4375,
    "procure": 23395,
    "wich": 11543,
    "sprang": 19989,
    "encoura": 15048,
    "Ġsaid": 578,
    "Ġshortened": 23483,
    "rees": 5436,
    "Ġeng": 1162,
    "Ġchivalry": 25818,
    "fes": 20850,
    "ways": 1440,
    "possibility": 13360,
    "lie": 12480,
    "Ġlaboratory": 13611,
    "Ġconsol": 3814,
    "Ġwarmly": 8987,
    "created": 12448,
    "Ġbasic": 24701,
    "Ġrevisit": 21667,
    "Ġcoburg": 18594,
    "Ġunpardonable": 22055,
    "veral": 2356,
    "north": 14615,
    "Ġawait": 17073,
    "Ġfingertips": 24015,
    "iest": 4035,
    "exp": 2736,
    "ontory": 10459,
    "Ġende": 21929,
    "Ġ>": 21150,
    "Ġtorch": 25030,
    "Ġemploying": 23975,
    "oyed": 14364,
    "devil": 7894,
    "Ġrealising": 18981,
    "Ġbluff": 16516,
    "Ġger": 21588,
    "Ġgay": 5535,
    "Ġenjoyment": 7300,
    "ousand": 2433,
    "Ġcro": 4873,
    "rusted": 16506,
    "Ġnarrated": 14870,
    "Ġsurpass": 13582,
    "iam": 2512,
    "fashion": 8080,
    "mare": 17599,
    "tre": 8760,
    "Ġorganization": 7983,
    "Ġbegging": 11080,
    "pr": 3177,
    "dun": 17516,
    "Ġadapt": 1033,
    "Ġreaches": 18031,
    "Ġrudder": 25107,
    "Ġuneasiness": 9483,
    "Ġfifty": 4624,
    "Ġadvis": 9809,
    "Ġpursu": 3241,
    "unning": 4494,
    "Ġchain": 1842,
    "oded": 11669,
    "speaks": 19718,
    "buttons": 22398,
    "doctor": 19095,
    "Ġscreening": 25300,
    "Ġdot": 4820,
    "Ġchapel": 9522,
    "Ġstars": 6149,
    "Ġcontented": 9755,
    "Ġtumult": 7114,
    "Ġpor": 5225,
    "adel": 15726,
    "Ġindignantly": 16939,
    "Ġcornelius": 13572,
    "oked": 4310,
    "Ġconfidential": 9087,
    "Ġlose": 5028,
    "Ġadequ": 10913,
    "Ġhogarth": 25780,
    "mile": 17597,
    "Ġshapeless": 24524,
    "Ġsegmentation": 17339,
    "ssible": 2995,
    "smith": 5669,
    "Ġthre": 2059,
    "Ġsystem": 586,
    "hammer": 14489,
    "Ġ15": 9323,
    "Ġfugitive": 17326,
    "Ġuplifted": 11646,
    "rodu": 1818,
    "Ġtemperature": 1004,
    "boone": 23251,
    "Ġmonuments": 22979,
    "Ġticking": 25033,
    "Ġbucket": 8787,
    "Ġbroadway": 23981,
    "Ġwits": 15530,
    "Ġenchantment": 24869,
    "arle": 21438,
    "Ġlaughed": 5059,
    "ver": 331,
    "borrowed": 20791,
    "backed": 9865,
    "Ġpenetrate": 12267,
    "Ġsciences": 15942,
    "Ġrattling": 11395,
    "Ġdeveloped": 16345,
    "Ġlegend": 14575,
    "Ġverdure": 10612,
    "clothes": 9057,
    "Ġrecompense": 14837,
    "Ġhesitate": 16946,
    "bots": 10082,
    "ackled": 22417,
    "Ġty": 6657,
    "Ġpicked": 6341,
    "Ġsat": 1133,
    "rated": 6227,
    "interruption": 20110,
    "Ġpredecess": 18525,
    "Ġthereof": 22365,
    "Ġplayed": 9415,
    "Ġdivinely": 25723,
    "anation": 5803,
    "Ġrambles": 17184,
    "Ġgreece": 17069,
    "gement": 13727,
    "._]]": 5334,
    "bert": 4663,
    "Ġjo": 2609,
    "tempted": 26403,
    "ling": 735,
    "urp": 1471,
    "man": 1052,
    "shoe": 14966,
    "Ġchowder": 10279,
    "Ġwhar": 7388,
    "Ġmercenary": 17193,
    "lik": 3915,
    "Ġconfounded": 16385,
    "Ġrendering": 16657,
    "Ġquivering": 12855,
    "Ñ": 146,
    "Ġaugust": 10597,
    "Ġconcl": 5095,
    "oglyph": 11017,
    "sect": 8152,
    "franch": 24284,
    "crew": 7544,
    "asiness": 8128,
    "Ġxi": 16428,
    "shaven": 18494,
    "Ġsatiated": 22899,
    "Ġwhaler": 7520,
    "alle": 1293,
    "eastern": 17533,
    "Ā": 193,
    "describe": 1513,
    "Ġdubious": 17382,
    "Ġlords": 14641,
    "plicable": 10256,
    "aying": 15746,
    "utional": 17983,
    "reply": 19721,
    "Ġaffection": 2640,
    "Ġunfav": 14787,
    "mblies": 24608,
    "Ġwrecked": 9965,
    "Ġtails": 9901,
    "Ġsands": 14947,
    "allers": 22194,
    "Ġdomineering": 23670,
    "Ġdav": 15587,
    "het": 5435,
    "ouse": 1191,
    "me": 868,
    "Ġglaciers": 20172,
    "Ġprey": 6415,
    "Ġgibberish": 25786,
    "response": 25762,
    "Ġdamning": 19139,
    "Ġtinkling": 25212,
    "Ġagonising": 25373,
    "Ġhomely": 25219,
    "Ġglared": 13015,
    "Ġtame": 17722,
    "Ġbrixton": 13662,
    "Ġauto": 23324,
    "Ġvexed": 9993,
    "Ġbitter": 4173,
    "injury": 25213,
    "Ġsam": 7569,
    "ery": 1270,
    "Ġrecom": 4555,
    "flukes": 25205,
    "supposed": 13314,
    "Ġquartered": 20371,
    "Ġdefinition": 14403,
    "Ġoverpowering": 15248,
    "alice": 3209,
    "excuse": 13380,
    "ench": 21278,
    "Ġbower": 15564,
    "Ġjoy": 3186,
    "Ġanom": 12608,
    "orified": 21400,
    "Ġmagnet": 10389,
    "Ġhaggard": 17329,
    "Ġoverladen": 22352,
    "Ġencircling": 26271,
    "Ġmichael": 20678,
    "Ġobscurely": 20187,
    "Ġdeck": 2138,
    "Ġdisenc": 22523,
    "slipped": 25529,
    "bloom": 24689,
    "Ġgospel": 18000,
    "Ġdarted": 4758,
    "Ġcents": 17828,
    "increased": 20269,
    "gam": 10095,
    "Ġcertainty": 6734,
    "anc": 6379,
    "Ġtargets": 4205,
    "reported": 24493,
    "situation": 11437,
    "ignomin": 23264,
    "Ġdiv": 3729,
    "sort": 6798,
    "Ġsinners": 18949,
    "Ġexhaled": 19681,
    "Ġyouth": 4263,
    "Ġkeeled": 18807,
    "Ġline": 1849,
    "Ġalliance": 18268,
    "Ġcommodores": 25374,
    "Ġjoyously": 19345,
    "progra": 9394,
    "Ġimplement": 3070,
    "Ġjen": 9266,
    "Ġmundane": 26429,
    "ugging": 23289,
    "Ġruth": 14093,
    "Ġbid": 6131,
    "Ġsyllable": 9728,
    "Ġinvoking": 19145,
    "Ġthemselves": 3253,
    "variety": 23182,
    "Ġrefined": 18699,
    "bug": 17492,
    "med": 1910,
    "Ġthoughtfulness": 18773,
    "destiny": 16702,
    "ecess": 17532,
    "serve": 13044,
    "roqu": 21531,
    "disguise": 26306,
    "abominable": 20592,
    "Ġdeformity": 11675,
    "Ġcosy": 13130,
    "erve": 12546,
    "ran": 11515,
    "Ġamusement": 8055,
    "Ġretained": 7173,
    "Ġhom": 9186,
    "knows": 19171,
    "Ġxxx": 7766,
    "source": 11525,
    "liking": 22921,
    "Ġsouls": 6308,
    "Ġelud": 22641,
    "times": 8098,
    "Ġvoices": 7875,
    "Ġcities": 17827,
    "Ġmapp": 2081,
    "religion": 20574,
    "Ġcontroverted": 23249,
    "hurried": 11353,
    "Ġdenny": 9001,
    "Ġinfer": 7683,
    "Ġproposition": 23247,
    "icy": 6140,
    "rise": 6226,
    "Ġedges": 3824,
    "Ġtrad": 9827,
    "Ġaware": 5756,
    "Ġspermacetti": 19048,
    "Ġdisturbance": 15012,
    "rest": 1629,
    "Ġpanelled": 19653,
    "Ġproficiency": 19193,
    "Ġdrunk": 9423,
    "Ġappar": 7411,
    "Ġrepairing": 25589,
    "Ġbusied": 19066,
    "Ġcoopers": 20520,
    "irous": 8838,
    "Ġcommunicating": 16889,
    "order": 1962,
    "Ġmouthfuls": 20645,
    "Ġbizarre": 17871,
    "utility": 21584,
    "Ġcracking": 14574,
    "Ġtraverse": 18892,
    "chased": 18041,
    "ciousness": 20816,
    "Ġphilips": 5410,
    "Ġug": 8140,
    "Ġmabel": 17323,
    "guilt": 24067,
    "Ġmarling": 23031,
    "romeda": 17262,
    "Ġcoil": 11816,
    "Ġwhy": 1761,
    "Ġstake": 14002,
    "brevi": 24072,
    "extra": 8218,
    "Ġpardon": 5727,
    "whalemen": 10431,
    "Ġstranger": 3485,
    "i": 77,
    "adr": 6994,
    "Ġbilliard": 16689,
    "Ġlizz": 21554,
    "Ġlory": 12649,
    "unusually": 15777,
    "sample": 12504,
    "Ġdotted": 16792,
    "Ġadmirers": 19685,
    "bony": 15318,
    "Ġjoined": 4564,
    "Ġindulge": 10582,
    "Ġcord": 5222,
    "Ġside": 1386,
    "nigh": 13762,
    "sleepers": 24730,
    "advanced": 19587,
    "turtle": 12209,
    "bruary": 15234,
    "pig": 8752,
    "_.âĢĻâĢĿ": 17479,
    "ressed": 3025,
    "Ġdigress": 24648,
    "ulsive": 10233,
    "Ġthereby": 7643,
    "Ġgowns": 25359,
    "Ġabstained": 25231,
    "kill": 13743,
    "Ġmig": 13855,
    "Ġinvade": 19142,
    "Ġbal": 1134,
    "Ġfiner": 13050,
    "Ġcreating": 3000,
    "Ġvest": 8162,
    "yielded": 25756,
    "Ġslaugh": 18937,
    "Ġirksome": 13110,
    "Ġinvited": 6903,
    "Ġskip": 1844,
    "Ġintrig": 21987,
    "Ġmachine": 781,
    "Ġapparel": 20434,
    "Ġincreasingly": 9370,
    "Ġgips": 10841,
    "moon": 10335,
    "Ġworshipped": 25691,
    "uary": 11537,
    "Ġfairest": 20461,
    "Ġchanged": 5243,
    "£": 101,
    "planks": 21957,
    "Ġmock": 3688,
    "Ġsigh": 10336,
    "distant": 13333,
    "hogs": 20080,
    "Ġmariner": 7247,
    "Ġgrandfather": 19420,
    "expressing": 16801,
    "Ġconceals": 23901,
    "Ġpastures": 23418,
    "Ġholes": 16406,
    "Ġimprinted": 22386,
    "tical": 10128,
    "Ġserves": 4669,
    "Ġvitality": 15171,
    "Ġsettle": 6293,
    "bing": 7791,
    "ĠĠĠĠĠĠĠĠĠĠĠĠĠĠĠĠĠĠĠĠĠĠ": 16225,
    "weight": 2941,
    "Ġabhorrent": 16856,
    "Ġspectrum": 4475,
    "Ġgrappling": 25812,
    "ravity": 21632,
    "Ġempt": 5051,
    "caves": 20815,
    "Ġjar": 15948,
    "Ġlament": 7856,
    "Ġshrew": 21997,
    "T": 56,
    "limp": 20951,
    ".}": 20744,
    "Ġdirecting": 16298,
    "cim": 8719,
    "Ġbarbara": 24818,
    "Ġunobserved": 18246,
    "Ġhopeless": 7463,
    "Ġbeh": 1800,
    "clam": 13052,
    "Ġuse": 848,
    "Ġteacup": 16210,
    "Ġdisguise": 10045,
    "either": 6791,
    "Ġboldly": 9500,
    "Ġfunction": 590,
    "Ġrelief": 6059,
    "oles": 21004,
    "Ġsculpture": 26016,
    "atisf": 21262,
    "weep": 22681,
    "arth": 4444,
    "Ġsplashing": 16549,
    "Ġstandard": 14496,
    "wretched": 10741,
    "Ġknight": 9726,
    "Ġholding": 4979,
    "istan": 22105,
    "Ġscholar": 26111,
    "Ġprogramming": 1181,
    "Ġvalid": 1699,
    "Ġunivers": 2124,
    "uns": 21867,
    "Ġconsolation": 6208,
    "Ġdetest": 8502,
    "Ġhoriz": 4726,
    "Ġpropos": 7062,
    "Ġamends": 14245,
    "ular": 715,
    "ocations": 23706,
    "ez": 5683,
    "Ġbast": 21377,
    "Ġspots": 11727,
    "Ġslu": 13835,
    "prick": 19341,
    "Ġyears": 1893,
    "Ġoccurring": 2791,
    "Ġcall": 2074,
    "ineering": 21964,
    "sentiment": 12911,
    "country": 6103,
    "Ġpeculiarity": 12930,
    "4": 24,
    "Ġgrazed": 15831,
    "Ġheadache": 22895,
    "Ġsincerely": 7962,
    "Ġringleader": 26212,
    "Ġsupposed": 4558,
    "apan": 6860,
    "acceptance": 25184,
    "Ġnineveh": 13388,
    "Ġscraps": 16902,
    "Ġcheer": 4066,
    "Ġtart": 12525,
    "forecastle": 10990,
    "esc": 614,
    "Ġembraces": 19871,
    "Ġpronounced": 8350,
    "Ġadoration": 18292,
    "Ġadjusts": 8980,
    "Ġsm": 704,
    "Ġunexampled": 20358,
    "Ġforming": 7042,
    "discoloured": 23498,
    "Ġaddressing": 11164,
    "lance": 12479,
    "calmed": 16202,
    "Ġstrangest": 14795,
    "Ġstrewed": 23420,
    "intu": 22930,
    "Ġbred": 9169,
    "Ġregained": 18597,
    "Ġenveloped": 12206,
    "fork": 20856,
    "astron": 22166,
    "Ġwhitt": 18054,
    "]": 65,
    "ably": 1846,
    "province": 26072,
    "Ġoppress": 13171,
    "Ġenergies": 25459,
    "Ġascertain": 9705,
    "char": 3502,
    "handed": 7482,
    "Ġapprove": 12870,
    "Ġfarthing": 14453,
    "but": 592,
    "auley": 22620,
    "lane": 10706,
    "uth": 3020,
    "chari": 21686,
    "Ġremoter": 20104,
    "pens": 17632,
    "Ġbaw": 15566,
    "icism": 13955,
    "Ġopenly": 8572,
    "Ġcomplying": 18585,
    "globe": 25142,
    "ó": 180,
    "contin": 16541,
    "mistaken": 12208,
    "urmount": 13994,
    "reading": 12077,
    "Ġcompanion": 3641,
    "reck": 9636,
    "Ġtheoretic": 23308,
    "dismal": 23497,
    "Ġmodels": 762,
    "Ġentities": 11862,
    "occurred": 13336,
    "Ġbrimming": 22862,
    "Ġbewildered": 15212,
    "raise": 18011,
    "vineyard": 25421,
    "scattered": 22990,
    "Ġcumberland": 21353,
    "l": 80,
    "Ġredu": 1354,
    "presbyter": 20616,
    "Ġrepulsive": 14530,
    "Ġstirs": 14916,
    "Ġdisdain": 8359,
    "Ġbeaks": 21752,
    "Ġboys": 5194,
    "Ġkno": 5242,
    "Ġcathed": 14548,
    "Ġcurios": 18845,
    "ages": 826,
    "Ġbelieves": 14406,
    "Ġacquies": 11097,
    "Ġso": 433,
    "journey": 8744,
    "mistake": 24529,
    "Ġdischar": 11806,
    "Ġguard": 6178,
    "Ġsnuffing": 25012,
    "lar": 4484,
    "Ġswallow": 8950,
    "Ġbracelets": 25502,
    "fatal": 17088,
    "Ġrather": 1493,
    "gallant": 7780,
    "grieved": 17316,
    "ather": 741,
    "Ġexclam": 6757,
    "Ġunlim": 18250,
    "Ġtattoo": 7359,
    "Ġentrances": 25833,
    "atic": 4017,
    "Ġjuggler": 26366,
    "Ġenormous": 5609,
    "phys": 18716,
    "Ġthrice": 10575,
    "Ġapprehensiveness": 16877,
    "pushed": 21022,
    "night": 2167,
    "Ġbargain": 23791,
    "terns": 21819,
    "apping": 5851,
    "Ġseething": 18201,
    "Ġspear": 9313,
    "Ġmusket": 12294,
    "Ġnlp": 3063,
    "oured": 2672,
    "Ġsalutation": 12395,
    "Ġbarred": 9002,
    "cused": 15331,
    "Ġimperial": 9480,
    "Ġinformation": 1047,
    "Ġcal": 1326,
    "object": 6884,
    "Ġstiff": 6992,
    "Ġcompose": 12902,
    "Ġboundary": 11222,
    "accursed": 20539,
    "Ġstowing": 18071,
    "Ġgeneration": 2292,
    "speech": 10666,
    "aced": 2419,
    "Ġboughs": 20487,
    "seemed": 4306,
    "stricken": 9883,
    "supportable": 12368,
    "doubtful": 24791,
    "Ġtradesman": 20071,
    "Ġrefusal": 10344,
    "Ġhesitating": 16947,
    "Ġacceptance": 14826,
    "Ġturkish": 12259,
    "escaped": 14229,
    "ques": 2841,
    "Ġage": 3896,
    "Ġcharts": 12823,
    "delights": 19700,
    "Ġrabbit": 4290,
    "Ġ128": 24473,
    "circum": 16737,
    "Ġcounties": 23300,
    "Ġstigma": 25791,
    "popular": 26140,
    "Ġreasoned": 23048,
    "Ġfoaming": 18992,
    "Ě": 219,
    "Ġneared": 14072,
    "Ġsentiments": 7960,
    "Ġabated": 18390,
    "Ġthou": 1808,
    "Ġpot": 2992,
    "Ġjudge": 5502,
    "Ġgent": 7383,
    "Ġincreased": 2209,
    "Ġpupella": 20420,
    "Ġraw": 3321,
    "spouting": 25000,
    "fin": 5209,
    "Ġencouraged": 9354,
    "Ġstabbing": 20302,
    "owers": 12682,
    "Ġregent": 18596,
    "\\": 64,
    "hearth": 15498,
    "Ġinstantaneous": 14611,
    "Ġpipes": 9844,
    "Ġrinal": 21977,
    "gang": 17553,
    "cocks": 23560,
    "Ġsideboard": 10385,
    "majesty": 26280,
    "has": 4012,
    "Ġsternly": 16715,
    "Ġtopsails": 19194,
    "Ġincl": 4272,
    "generosity": 23785,
    "fatality": 25019,
    "india": 22368,
    "Ġpertin": 18449,
    "Ġrifle": 18212,
    "noo": 9787,
    "call": 8722,
    "Ġclimate": 9274,
    "Ġrespectable": 6736,
    "Ġreco": 9790,
    "ang": 442,
    "Ġparac": 12792,
    "unavoidable": 17389,
    "redible": 15802,
    "Ġstreatham": 17448,
    "berries": 22718,
    "etition": 7382,
    "Ġwavering": 23279,
    "rices": 4559,
    "?âĢĿ": 700,
    "Ġreproached": 24891,
    "Ġemerge": 14927,
    "example": 16011,
    "Ġwalls": 6762,
    "Ġrejoined": 14926,
    "Ġbolt": 11334,
    "irable": 5776,
    "Ġsmoking": 6429,
    "zen": 5140,
    "Ġrede": 13983,
    "communication": 25881,
    "pounds": 21024,
    "Ġvillage": 5774,
    "Ġvisions": 12973,
    "Ġcarter": 18900,
    "Ġjenny": 20161,
    "inc": 2523,
    "Ġslice": 23157,
    "Ġfamed": 16325,
    "luent": 15996,
    "entle": 1739,
    "approaching": 15011,
    "lies": 15380,
    "Ġwhitting": 18055,
    "hall": 8084,
    "Ġyounger": 5252,
    "Ġmachinery": 20483,
    "Ġbread": 5404,
    "ampling": 12723,
    "ckinridge": 11717,
    "Ġacquiescence": 20329,
    "Ġbarb": 4531,
    "Ġattached": 5392,
    "Ġprecipices": 12275,
    "abilizing": 2925,
    "dire": 15335,
    "Ġrecre": 22736,
    "hem": 6663,
    "Ġcrisp": 12001,
    "touch": 8391,
    "scence": 14416,
    "Ġlieu": 19563,
    "Ġhorner": 8958,
    "cal": 1121,
    "Ġshrieks": 12197,
    "Ġhousekeeper": 7456,
    "threadbare": 25989,
    "Ġinformed": 6717,
    "Ġnile": 21518,
    "custom": 15332,
    "black": 6768,
    "Ġconsequently": 8059,
    "chooses": 23672,
    "history": 15014,
    "leader": 25351,
    "hunters": 16833,
    "iliating": 12692,
    "thes": 7391,
    "Ġfished": 21408,
    "Ġoverhung": 15967,
    "Ġxv": 23405,
    "Ġ33": 16676,
    "Ġhastily": 5763,
    "Ġbengal": 18784,
    "Ġfaults": 12210,
    "Æ": 135,
    "Ġwhosoever": 21716,
    "Ġthoroughfare": 16944,
    "stopping": 19348,
    "sadly": 25526,
    "Ġnapkins": 25161,
    "hands": 5966,
    "account": 5329,
    "pump": 21016,
    "ious": 769,
    "âĢĻ-": 18166,
    "Ġnooks": 26011,
    "chers": 11317,
    "ision": 1854,
    "Ġpensive": 21472,
    "tch": 9141,
    "Ġlangsdorff": 15275,
    "Ġrequire": 892,
    "Ġpoignant": 22594,
    "peasant": 23108,
    "Ġcivilities": 14847,
    "Ġappertaining": 26533,
    "ildad": 3531,
    "Ġbenevolence": 9526,
    "even": 3836,
    "Ġvect": 1223,
    "Ġinhabit": 5782,
    "Ġloudly": 7312,
    "Ġlanc": 19763,
    "Ġwhe": 439,
    "Ġnortheast": 23199,
    "fil": 12460,
    "Ġpigs": 19746,
    "Ġvariations": 22663,
    "Ġcheerless": 16694,
    "Ġcorporeally": 25729,
    "Ġvowed": 14083,
    "Ġglistening": 12363,
    "Ġsens": 1853,
    "Ġdouble": 4940,
    "ly": 319,
    "rop": 540,
    "lude": 6161,
    "impropriety": 21710,
    "Ġconsecrate": 26489,
    "biqu": 17497,
    "Ġmeadow": 17151,
    "Ġjavan": 24997,
    "ceptible": 10956,
    "Ġexamples": 2605,
    "ely": 624,
    "ientiously": 21938,
    "ulations": 6028,
    "Ġsaxe": 13627,
    "Ġexercised": 24803,
    "Ġmainly": 22653,
    "mystery": 15154,
    "Ġbeaufort": 13567,
    "Ġvictor": 5125,
    "clinging": 20821,
    "rain": 460,
    "Ġhardest": 18912,
    "Ġmagnific": 16318,
    "Ġasserted": 16949,
    "Ġquote": 18466,
    "Ġmort": 3459,
    "Ġwallowing": 24041,
    "ourers": 21447,
    "ah": 1832,
    "Ġdramatic": 4850,
    "nay": 7135,
    "Ġadduced": 26524,
    "quarter": 11388,
    "lo": 681,
    "conjectured": 25181,
    "Ġalien": 14017,
    "Ġrippling": 17277,
    "Ġconveys": 16855,
    "Ġcongregated": 20095,
    "Ġavalanche": 17432,
    "Ġsuperlative": 26074,
    "Ġpreced": 6039,
    "Ġwarp": 8112,
    "](": 11466,
    "Ġhessian": 3547,
    "Ġexactly": 2767,
    "Ġscaffold": 18400,
    "imately": 12685,
    "Ġconfl": 11137,
    "Ġerred": 21155,
    "Ġpecks": 18669,
    "Ġtie": 10750,
    "Ġparagraph": 17453,
    "Ġmonotonous": 13260,
    "Ġconfessed": 8008,
    "Ġcarry": 4779,
    "Ġfoster": 18991,
    "Ġwriting": 4668,
    "Ġdestined": 7974,
    "Ġash": 4832,
    "Ġfow": 6133,
    "Ġcosmopol": 16454,
    "Ġlook": 880,
    "Ġgaunt": 11268,
    "Ġhist": 2449,
    "consc": 4840,
    "Ġbegun": 7243,
    "barbar": 20237,
    "Ġowner": 8921,
    "Ġnuptial": 25782,
    "Ġindirect": 18834,
    "Ġfatal": 5871,
    "pid": 1373,
    "Ġhoist": 11975,
    "Ġtierce": 15477,
    "Ġsneezing": 12245,
    "Ġpiratical": 24801,
    "Ġvibrating": 13537,
    "avoiding": 25236,
    "Ġceases": 19311,
    "Ġdemon": 7868,
    "Ġflap": 14421,
    "Ġmissionary": 25696,
    "Ġdisputing": 25824,
    "Ġdut": 2990,
    "Ġconnect": 800,
    "yn": 7819,
    "bad": 12434,
    "Ġfluke": 14673,
    "iza": 6255,
    "Ġtol": 6675,
    "Ġrespite": 13153,
    "Ġhelps": 9366,
    "ock": 15401,
    "Ġimportance": 4900,
    "Ġnegro": 6447,
    "Ġdimly": 9487,
    "Ġsensibility": 14513,
    "Ġarg": 4766,
    "evident": 25520,
    "Ġmatrimonial": 25489,
    "Ġgigantic": 5914,
    "Ġassiduous": 26292,
    "Ġbland": 11064,
    "vering": 15713,
    "Ġcomplet": 4424,
    "itative": 13869,
    "remental": 21246,
    "Ġarrang": 2472,
    "edmund": 17945,
    "Ġhorizontal": 7782,
    "Ġmathematics": 12071,
    "ascertaining": 26460,
    "display": 19154,
    "Ġcompelled": 14268,
    "gardiner": 12289,
    "Ġkey": 2101,
    "haz": 17564,
    "Ġjobs": 24832,
    "!_": 7329,
    "Ġsucceeding": 16761,
    "captain": 3952,
    "Ġhistories": 14687,
    "Ġcommended": 18656,
    "Ġbeneficial": 23929,
    "iscuits": 24666,
    "wishing": 21127,
    "turned": 7306,
    "Ġcharacteristically": 23690,
    "Ġdinn": 23978,
    "Ġswung": 6449,
    "Ġaunt": 3179,
    "Ġuncl": 22009,
    "Ġdreary": 10408,
    "Ġfashionable": 19543,
    "simply": 20669,
    "cruise": 24841,
    "Ġcalf": 16266,
    "Ġodd": 6624,
    "rippa": 11341,
    "warp": 17706,
    "Ġhangs": 11605,
    "Ġgown": 10201,
    "Ġmiraculous": 13546,
    "Ġbare": 6132,
    "narrow": 11507,
    "Ġdelayed": 9517,
    "Ġdeplored": 20503,
    "bat": 8071,
    "Ġrewards": 10848,
    "Ġblooming": 17212,
    "hee": 10760,
    "bud": 10682,
    "rows": 6442,
    "Ġseventy": 7877,
    "Ġshar": 9249,
    "Ġproble": 1110,
    "Ġaudacious": 13459,
    "Ġpennies": 17270,
    "fering": 17542,
    "Ġtin": 15462,
    "Ġardu": 22186,
    "kinson": 10025,
    "Ġgrizz": 10351,
    "Ġsheets": 9721,
    "Ġadventure": 5980,
    "Ġinsane": 19268,
    "tawn": 21079,
    "Ġpremeditated": 22231,
    "Ġdestabilizing": 5053,
    "Ġthrowing": 6335,
    "Ġconfid": 7686,
    "Ġboxed": 24360,
    "consol": 9761,
    "Ġshame": 6410,
    "Ġprivately": 19522,
    "Ġsaddest": 16662,
    "civilities": 24971,
    "Ġvisibly": 22857,
    "Ġwis": 3726,
    "Ġbehind": 2807,
    "Ġgrew": 5182,
    "servant": 15035,
    "ellig": 523,
    "po": 1140,
    "Ġmanagement": 8192,
    "feel": 3811,
    "Ġexcept": 3313,
    "Ġaspire": 21897,
    "Ġscenarios": 26542,
    "Ġcant": 17824,
    "appearance": 5333,
    "direful": 25896,
    "Ġmean": 742,
    "Ġsandwich": 19827,
    "Ġplank": 7033,
    "elze": 21570,
    "respectively": 24700,
    "Ġ44": 16679,
    "Ġthat": 335,
    "Ġstandpoint": 23275,
    "Ġidentifies": 12013,
    "oug": 430,
    "Ġresponded": 13637,
    ",": 16,
    "Ġpaddles": 15146,
    "Ġcrusad": 23705,
    "Ġsalutations": 25382,
    "special": 14704,
    "Ġdeparted": 5563,
    "Ġinterpreter": 23210,
    "cking": 4267,
    "acid": 10994,
    "sex": 12710,
    "Ġerrand": 11085,
    "bus": 5354,
    "pale": 13771,
    "comed": 8544,
    "Ġsingled": 23771,
    "initions": 21186,
    "Ġgul": 7859,
    "ctic": 8441,
    "Ġhumming": 12983,
    "Ġnatives": 17950,
    "Ġreminiscences": 26269,
    "Ġreplace": 14475,
    "Ġtub": 7146,
    "wondrous": 12336,
    "Ġswearing": 16463,
    "returns": 23132,
    "aver": 6785,
    "Ġscr": 11758,
    "transom": 19734,
    "shott": 11792,
    "Ġrh": 9243,
    "abashed": 21789,
    "hav": 20896,
    "Ġneatly": 17016,
    "Ġestablishment": 13578,
    "dressing": 11481,
    "stand": 627,
    "cross": 3574,
    "Ġkentuck": 19890,
    "Ġchilly": 25562,
    "Ġdetached": 10280,
    "Ġretention": 23069,
    "Ġbiggest": 24566,
    "among": 6256,
    "Ġmagician": 25058,
    "erc": 5904,
    "Ġbarbs": 10531,
    "pity": 17627,
    "za": 13809,
    "spikes": 10341,
    "erable": 1917,
    "Ġlik": 2526,
    "Ġinquir": 4243,
    "err": 1142,
    "softened": 20408,
    "Ġmelbourne": 24289,
    "byshire": 6172,
    "Ġmott": 17803,
    "Ġalmost": 1656,
    "Ġcampa": 17173,
    "Ġfulfil": 9550,
    "horror": 13158,
    "Ġimpro": 910,
    "they": 1881,
    "Ġrested": 9378,
    "Ġbutter": 6842,
    "quadr": 15761,
    "Ġshed": 8180,
    "Ġscrewing": 20207,
    "ictions": 14225,
    "Ġheavily": 6740,
    "wild": 8766,
    "harm": 13734,
    "Ĵ": 245,
    "Ġegyptian": 13585,
    "peculiarities": 13470,
    "Ġpy": 21448,
    "curious": 10482,
    "ox": 9133,
    "Ġprofessor": 11230,
    "Ġhumorously": 18778,
    "Ĭ": 237,
    "Ġdefray": 22938,
    "Ġnarrative": 6215,
    "jo": 3749,
    "Ġeggs": 12340,
    "Ġservant": 5764,
    "Ġroasted": 18458,
    "eur": 7545,
    "Ġgeese": 7693,
    "Ġmole": 11789,
    "aged": 2607,
    "Ġunflinching": 26512,
    "Ġnoon": 6559,
    "Ġlawless": 19433,
    "Ġafternoon": 6052,
    "Ġbeaches": 18084,
    "mortals": 25409,
    "Ġnotions": 14098,
    "drunk": 24659,
    "Ġimagination": 5759,
    "Ġinconsistency": 26182,
    "Ġswear": 6461,
    "Ġsubstituting": 26326,
    "Ġcarelessly": 11120,
    "recogn": 13424,
    "silenced": 24423,
    "Ġpreprocess": 22230,
    "flu": 9117,
    "Ġmine": 3181,
    "Ġcarcase": 14443,
    "Ġhunt": 6183,
    "Ġexperiences": 13022,
    "Ġrobbery": 11910,
    "Ġdun": 6673,
    "Ġrecital": 16140,
    "Ġloomed": 12299,
    "Ġbennet": 1574,
    "immed": 9217,
    "Ġeffaced": 18542,
    "Ġflourished": 15124,
    "pleasanter": 24045,
    "Ġlocal": 1198,
    "ject": 876,
    "Ġengage": 9334,
    "Ġload": 14145,
    "quired": 21852,
    "Ġpulled": 5660,
    "Ġtip": 15470,
    "Ġuncontrollable": 25814,
    "Ġgas": 8132,
    "parlour": 16383,
    "cano": 18838,
    "Ġsides": 4579,
    "protected": 19920,
    "Ġutterance": 14763,
    "akened": 7415,
    "slide": 24556,
    "Ġslo": 15505,
    "Ġflour": 8944,
    "Ġunfathomably": 25873,
    "inkers": 22612,
    "Ġcuts": 14607,
    "Ġbinnacle": 8118,
    "Ġhonorable": 16876,
    "Ġwonder": 2116,
    "Ġfetched": 24567,
    "Ġsh": 419,
    "Ġmagnetic": 17240,
    "Ġfren": 10805,
    "Ġreligions": 20106,
    "Ġchorus": 10947,
    "Ġplayfulness": 23635,
    "Ġagency": 11803,
    "Ġthroats": 24575,
    "adders": 24400,
    "Ġprolong": 6832,
    "Ġunmanner": 22022,
    "Ġpantheistic": 26335,
    "Ġcalmed": 16267,
    "Ġviciously": 24404,
    "Ġenigmatical": 20596,
    "looking": 4032,
    "Ġrails": 22647,
    "imson": 12686,
    "Ġmug": 21311,
    "Ġoccupy": 14731,
    "Ġsailors": 4278,
    "rell": 11563,
    "apprec": 22841,
    "cet": 15324,
    "Ġenorm": 5302,
    "Ġholmes": 1307,
    "pute": 8844,
    "Ġarrive": 6907,
    "Ġimpending": 22381,
    "roused": 16652,
    "Ġhorse": 4725,
    "...": 24549,
    "wn": 720,
    "Ġenjoy": 3758,
    "Ġallured": 14124,
    "Ġlistener": 16473,
    "Ġaggregated": 25678,
    "Ġreckoned": 24744,
    "abez": 10222,
    "Ġsuppress": 13021,
    "Ġmanaging": 22322,
    "mccarthy": 15394,
    "Ġflowers": 8940,
    "aky": 18411,
    "changing": 10854,
    "purp": 8090,
    "Ġcorpulence": 24509,
    "Ġcuff": 17829,
    "Ġdecaying": 2245,
    "Ġblankness": 24610,
    "Ġvers": 7563,
    "drab": 23895,
    "Ġhyster": 16873,
    "Ġbackwater": 18650,
    "Ġperformed": 8546,
    "Ġuninjured": 22049,
    "Ġtyp": 1132,
    ")âĢĶâĢľ": 20742,
    "vanished": 15060,
    "cest": 12442,
    "Ġhunger": 8566,
    "Ġwhether": 2002,
    "Ġastr": 15493,
    "Ġcrevice": 22724,
    "Ġindian": 4130,
    "Ġbash": 12583,
    "contrad": 19290,
    "Ġrevived": 11368,
    "Ġdig": 6135,
    "confidence": 16808,
    "ditch": 17528,
    "Ġhideousness": 16915,
    "Ġmechanical": 7936,
    "Ġpurchases": 24756,
    "Ġexhausted": 8693,
    "tempered": 13445,
    "entrance": 12654,
    "heaving": 21206,
    "ascribed": 24708,
    "ifix": 21900,
    "igating": 21696,
    "Ġyet": 1026,
    "always": 5708,
    "Ġrom": 4525,
    "Ġpassed": 2012,
    "Ġcounsell": 25384,
    "Ġcontradictory": 20395,
    "Ġwriters": 13542,
    "ample": 1364,
    "Ġalarming": 14779,
    "Ġconsider": 2570,
    "others": 7669,
    "Ġpercept": 14223,
    "Ġinexorable": 12253,
    "church": 8139,
    "Ġoppressively": 25712,
    "coun": 10686,
    "Ġbliss": 12998,
    "Ġwestern": 10654,
    "footed": 19688,
    "Ġparaphrasing": 26526,
    "Ġfonder": 17880,
    "sideways": 14572,
    "heaved": 21209,
    "ht": 375,
    "Ġscrews": 25177,
    "Ġshiny": 14105,
    "Ġinform": 998,
    "ven": 780,
    "Ġthis": 382,
    "iated": 5889,
    "rug": 18341,
    "Ġprofess": 3696,
    "Ġegot": 18007,
    "Ġdisadvantages": 18558,
    "sharks": 14239,
    "lost": 8887,
    "althy": 8431,
    "Ġslighted": 16567,
    "Ġsorts": 6887,
    "oqu": 7555,
    "market": 16839,
    "africa": 26308,
    "Ġpatches": 4238,
    "Ġmingling": 20196,
    "Ġstreets": 5863,
    "Ġcomply": 8891,
    "Ġsurrey": 14560,
    "Ġsinned": 18950,
    "âĢĶâĢĺ_": 24831,
    "Ġwhalers": 8047,
    "Ġcolonnades": 26275,
    "forward": 2187,
    "edy": 2859,
    "heart": 4526,
    "Ġcross": 1374,
    "wreck": 21135,
    "Ġexhibition": 14956,
    "Ġwrap": 24594,
    "receive": 12539,
    "arr": 3045,
    "Ġpiqu": 21474,
    "Ġchild": 2259,
    "Ġstack": 21730,
    "designated": 26295,
    "pole": 9332,
    "Ġextremity": 8988,
    "Ġboarding": 12084,
    "supervised": 1857,
    "Ġinscribed": 24938,
    "Ġpiled": 8424,
    "Ġconquer": 14026,
    "k": 79,
    "Ġboard": 3384,
    "ĠĠĠĠĠĠĠĠĠĠĠĠĠĠĠĠĠĠĠĠĠĠĠĠĠĠĠĠĠĠĠĠĠĠĠĠĠĠĠĠĠĠĠĠĠĠĠ": 16755,
    "conclude": 24064,
    "Ġprehens": 22228,
    "ident": 3380,
    "Ġslaughtered": 26584,
    "Ġpassage": 3884,
    "Ġmeantime": 6206,
    "Ġvilla": 14747,
    "Ġdelight": 2551,
    "Ġshift": 2280,
    "england": 18928,
    "Ğ": 223,
    "becoming": 18516,
    "cept": 552,
    "Ġannual": 14831,
    "Ġstacked": 21740,
    "ĠâĢĺ_": 11116,
    "occupied": 12302,
    "Ġbelonged": 6922,
    "Ġappeased": 23194,
    "Ġrollicking": 24451,
    "Ġattractive": 25575,
    "Ġdisagree": 22529,
    "develop": 13517,
    "toller": 20671,
    "talking": 10006,
    "arp": 2028,
    "Ġupbraiding": 26226,
    "Ġaccomplice": 24376,
    "Ġmansfield": 25938,
    "Ġdecrease": 4201,
    "Ġsword": 6732,
    "Ġfrankenstein": 7095,
    "Ġknelt": 12156,
    "asingly": 17960,
    "Ġdisdained": 15009,
    "Ġweek": 2826,
    "Ġmonsters": 11074,
    "Ġreigns": 21668,
    "wor": 3416,
    "Ġemblematical": 25788,
    "Ġhoarsely": 26302,
    "Ġtown": 2459,
    "preservation": 25305,
    "Ġelegant": 7532,
    "ships": 5486,
    "withdrawn": 23025,
    "Ġuncommon": 5026,
    "Ġresidual": 1677,
    "felicity": 25140,
    "handsome": 13175,
    "Ġanswer": 2599,
    "asible": 21539,
    "Ġexpedition": 10633,
    "dying": 10694,
    "Ġslam": 13055,
    "iar": 2383,
    "atiate": 12545,
    "Ġfunctional": 3049,
    "Ġrueful": 25581,
    "urning": 12914,
    "Ġ24": 13190,
    "asc": 6386,
    "add": 5229,
    "Ġvines": 12748,
    "iter": 4393,
    "atches": 13845,
    "Ġlikely": 3596,
    "Ġejaculation": 20253,
    "resolved": 9639,
    "Ġrecip": 16139,
    "nam": 2778,
    "Ġinhuman": 13928,
    "Ġpronouncing": 16969,
    "isation": 13892,
    "crawling": 16958,
    "ru": 480,
    "Ġpeeled": 14317,
    "Ġbride": 6291,
    "Ġblu": 2686,
    "fen": 20849,
    "wickham": 5883,
    "remote": 23186,
    "Ġabandoned": 8351,
    "Ġsevere": 6031,
    "sleep": 6511,
    "Ġwarring": 16865,
    "Ġconfide": 13097,
    "wanderer": 25423,
    "Ġunfaltering": 24111,
    "Ġartic": 5314,
    "Ġobser": 2070,
    "Ġacre": 22678,
    "Ġrebounds": 25967,
    "embedding": 20703,
    "Ġwent": 1536,
    "Ġwants": 5742,
    "starbuck": 6018,
    "Ġfailed": 6671,
    "bres": 11471,
    "courage": 17509,
    "moved": 9783,
    "owal": 13995,
    "Ġnose": 4404,
    "Ġremaining": 6188,
    "Ġclust": 9273,
    "Ġnurtured": 19748,
    "Ġafloat": 9307,
    "eli": 3873,
    "Ġ87": 19709,
    "Ġtaught": 6803,
    "Ġagainst": 1698,
    "ė": 216,
    "Ġgroom": 13965,
    "Ġnantucketers": 9893,
    "cool": 19187,
    "finger": 10093,
    "cursed": 23841,
    "Ġivory": 4477,
    "achines": 1723,
    "Ġabruptness": 25299,
    "embarr": 15796,
    "I": 45,
    "answer": 11730,
    "Ġpassers": 18757,
    "gish": 20872,
    "Ġprogrammed": 11058,
    "Ġbetake": 22904,
    "Ġfattened": 25949,
    "Ġkindled": 19031,
    "Ġthousandth": 23683,
    "Ġscimet": 22285,
    "Ġquiescent": 26242,
    "perform": 15892,
    "ameter": 2804,
    "alescing": 23864,
    "Ġnecessity": 7296,
    "Ġsurv": 6081,
    "Ġenvelope": 7319,
    "Ġintercept": 14271,
    "Ġherself": 1567,
    "Ġringle": 18210,
    "holder": 13280,
    "Ġconnivance": 25225,
    "Ġ179": 19753,
    "enc": 7574,
    "Ġincidents": 9298,
    "ates": 518,
    "Ġhearses": 20058,
    "Ġbronze": 22863,
    "Ġvariety": 8530,
    "ulged": 12727,
    "Ġampl": 22477,
    "Ġseasonable": 24406,
    "Ġpore": 21455,
    "Ġfile": 13902,
    "paused": 17373,
    "Ġcauses": 2564,
    "determination": 19943,
    "sets": 17660,
    "Ġfron": 14487,
    "Ġfrequented": 16585,
    "chain": 18039,
    "writ": 16553,
    "Ġrag": 18638,
    "Ġcumulative": 4212,
    "Ġcad": 12565,
    "Ġincoherent": 17399,
    "anatory": 21361,
    "gratitude": 16816,
    "okes": 9276,
    "Ġintrepid": 11703,
    "inous": 8771,
    "promised": 12249,
    "numerous": 17430,
    "Ġdeadliest": 14557,
    "elab": 21567,
    "also": 7850,
    "Ġapartments": 19613,
    "orne": 17872,
    "Ġimmutable": 17357,
    "Ġhumaneval": 25582,
    "Ġdepart": 4657,
    "Ġdipped": 15592,
    "Ġguernsey": 9350,
    "Ġfigures": 8629,
    "real": 10149,
    "Ġindistinctly": 26117,
    "Ġlifts": 25358,
    "Ġattacked": 10567,
    "dreadful": 11421,
    "Ġdeduction": 14900,
    "Ġscotland": 6639,
    "Ġprocure": 9509,
    "Ġpatent": 11958,
    "Ġcharacter": 2793,
    "âĢĶâĢĶâĢĿ": 15937,
    "Ġrevelations": 25223,
    "Ġprofoundly": 16859,
    "Ġamounted": 18513,
    "elsewhere": 19867,
    "Ġstretching": 10014,
    "Ġcubic": 20086,
    "brad": 20780,
    "Ġminimizes": 2047,
    "Ġfreshness": 23985,
    "Ġreduce": 7942,
    "Ġsuperlatively": 26075,
    "present": 1139,
    "Ġprow": 6684,
    "Ġdigest": 24647,
    "Ġabsorbing": 17128,
    "rously": 17654,
    "commander": 16987,
    "Ġfet": 5807,
    "ed": 293,
    "achable": 14131,
    "Ġround": 1370,
    "Ġhandsomer": 20332,
    "en": 271,
    "Ġintellect": 8169,
    "tically": 3393,
    "coll": 23778,
    "uing": 17693,
    "Ġfriesland": 26442,
    "Ġarchitectures": 2910,
    "Ġbethinking": 25279,
    "Ġfeedback": 23431,
    "Ġmechanisms": 1575,
    "Ġpreservation": 24630,
    "congreg": 25398,
    "interred": 23736,
    "Ġresembled": 18033,
    "verbally": 25360,
    "ryphon": 4164,
    "Ġpursue": 6314,
    "americ": 8155,
    "Ġconjunction": 25100,
    "dare": 12451,
    "da": 17514,
    "keeping": 8634,
    "Ġimport": 1017,
    "Ġpondered": 15165,
    "Ġdisplay": 6428,
    "otle": 21794,
    "Ġloo": 22107,
    "Ġ96": 24592,
    "strugg": 21659,
    "Ġabusive": 22270,
    "Ġschemes": 11131,
    "Ġbought": 8415,
    "omics": 21640,
    "Ġdavy": 25951,
    "Ġencouraging": 2262,
    "Ġboun": 21378,
    "articulate": 17397,
    "deserving": 17241,
    "een": 725,
    "Ġsolemnisation": 24112,
    "porpoise": 16437,
    "Ġsocieties": 20181,
    "ley": 1816,
    "Ġheartily": 6890,
    "Ġbars": 13896,
    "Ġappre": 5165,
    "paid": 15413,
    "Ġrecurrent": 1803,
    "Ġstumble": 26482,
    "Ġcurious": 3362,
    "progress": 11986,
    "Ġbeing": 1164,
    "Ġeaglet": 19303,
    "prehens": 9288,
    "cular": 15327,
    "Ġcontinuous": 1560,
    "Ġreign": 13984,
    "Ġassumpt": 5415,
    "Ġmeagre": 21807,
    "Ġfighting": 12195,
    "Ġban": 7156,
    "lightning": 16552,
    "Ġtar": 2566,
    "sper": 4436,
    "Ġalternating": 15030,
    "Ġheaded": 11054,
    "Ġbison": 21386,
    "oused": 6556,
    "Ġware": 12551,
    "act": 784,
    "Ġirish": 14534,
    "Ġforked": 11663,
    "Ġwhitened": 24867,
    "Ġassures": 14464,
    "Ġneeds": 6605,
    "ficial": 17548,
    "never": 3154,
    "Ġblessing": 11263,
    "Ġdum": 10811,
    "Ġstro": 4595,
    "Ġcommunion": 19008,
    "Ġsherlock": 3893,
    "Ġengraved": 17081,
    "Ġcompleted": 8997,
    "Ġdetermining": 14420,
    "awing": 18915,
    "examination": 25478,
    "Ġmeet": 2803,
    "Ġcircles": 7966,
    "brown": 15316,
    "usion": 3302,
    "Ġminus": 18749,
    "Ġchildhood": 13137,
    "Ġtalker": 23369,
    "Ġdumb": 7843,
    "Ġdictator": 20152,
    "ellent": 3759,
    "honest": 17003,
    "Ġwaylaid": 22868,
    "Ġslate": 11936,
    "Ġfierc": 18711,
    "Ġnaturalist": 22896,
    "Ġdescending": 8901,
    "deck": 4501,
    "Ġmuseum": 15270,
    "Ġpipeline": 2273,
    "Ġexpiration": 22622,
    "Ġlivers": 18461,
    "racing": 21628,
    "Ġrepugnant": 26590,
    "Ġjurors": 17343,
    "Ġample": 11796,
    "Ġdoomed": 11342,
    "Ġguards": 16268,
    "dispositions": 25011,
    "shipping": 10307,
    "Ġdoctors": 12149,
    "gladness": 25194,
    "Ġfelt": 1748,
    "Ġeucl": 24709,
    "alog": 8804,
    "Ġdollars": 11455,
    "Ġarticles": 7108,
    "Ġarranged": 9876,
    "Ġexploring": 4307,
    "Ġendeared": 26498,
    "Ġse": 401,
    "Ġtunes": 24619,
    "amet": 577,
    "À": 129,
    "shed": 8094,
    "home": 7341,
    "Ġformula": 2865,
    "Ġadditional": 7934,
    "eastward": 15128,
    "Ġrelig": 8550,
    "itia": 11578,
    "dried": 20826,
    "Ġwhiting": 10859,
    "mell": 20963,
    "Ġanyhow": 14254,
    "Ġspeed": 2452,
    "Ġprejud": 6851,
    "Ġencompassed": 15252,
    "irt": 3079,
    "Ġpike": 12620,
    "ensive": 6279,
    "calculation": 25688,
    "Ġfirmness": 11238,
    "blog": 19838,
    "faith": 15024,
    "condem": 16341,
    "03": 20747,
    "Ġemph": 14525,
    "Ġswiftness": 9926,
    "Ġseethe": 21953,
    "Ġantelope": 24180,
    "Ġrainy": 24341,
    "worse": 14690,
    "Ġplant": 8899,
    "Ġnowadays": 18546,
    "Ô": 149,
    "Ġadvert": 10571,
    "Ġpath": 2113,
    "ca": 20792,
    "Ġfumbled": 17881,
    "Ġwrought": 11942,
    "Ġpreparation": 13528,
    "Ġswings": 11087,
    "Ġrogue": 22402,
    "social": 11023,
    "Ġclapping": 14206,
    "programming": 10062,
    "Ġsoul": 2725,
    "Ġdaughters": 4423,
    "him": 1941,
    "Ġblacksmith": 6595,
    "Ġcreates": 2011,
    "Ġsplintered": 11418,
    "ause": 1312,
    "question": 5418,
    "Ġtranspired": 16784,
    "Ġreb": 15688,
    "own": 746,
    "dock": 16417,
    "Ġinclement": 22551,
    "Ġmeta": 3236,
    "Ġdais": 24372,
    "bation": 9102,
    "Ġtime": 689,
    "Ġantichronical": 26609,
    "Ġtak": 15468,
    "wa": 5896,
    "Ġdebated": 9040,
    "Ġpinched": 17035,
    "Ġgir": 2254,
    "Ġmicrosc": 20675,
    "Ġresign": 18564,
    "Ġpeaceable": 14723,
    "Ġnameless": 7699,
    "ifling": 15780,
    "Ġswears": 16462,
    "Ġcity": 4530,
    "dies": 15337,
    "Ġcreated": 2707,
    "lections": 4752,
    "anning": 10164,
    "complained": 25838,
    "Ġplum": 11820,
    "Ġcorners": 18874,
    "Ġhardihood": 23109,
    "crimes": 16697,
    "Ġengaging": 9335,
    "morrow": 4572,
    "pleas": 3850,
    "Ġeffectively": 2691,
    "attendants": 25495,
    "Ġprovocation": 24191,
    "Ġstores": 18068,
    "Ġmil": 4256,
    "Ġelab": 22640,
    "isters": 11918,
    "Ġthump": 11610,
    "Ġreligious": 25121,
    "mysteries": 26051,
    "Ġinvent": 7164,
    "Ġawaiting": 11390,
    "answered": 10273,
    "Ġwithered": 19463,
    "Ġstick": 6025,
    "Ġimpregn": 26022,
    "Ġanother": 1738,
    "lydia": 6826,
    "don": 3543,
    "into": 3677,
    "igate": 8822,
    "Ġpages": 15605,
    "Ġmoulded": 16975,
    "rushing": 10017,
    "Ġinstrument": 7118,
    "Ġbreeding": 14522,
    "Ġacts": 2293,
    "Ġinvolving": 18765,
    "Ġleaking": 21742,
    "claimed": 9835,
    "Ġchallenges": 13629,
    "Ġimprobable": 9793,
    "rians": 21922,
    "Ġthreatening": 16828,
    "Ġvaguely": 17365,
    "Ġassociation": 24711,
    "nar": 12491,
    "Ġtendency": 11329,
    "Ġconference": 15744,
    "Ġriotous": 20543,
    "Ġslight": 3122,
    "Ġfanning": 23388,
    "Ġoblivion": 26031,
    "step": 2460,
    "Ġadmeasurements": 26225,
    "oration": 2207,
    "Ġmyth": 18220,
    "ceiving": 3902,
    "table": 5795,
    "Ġevils": 9019,
    "Ġgoal": 10301,
    "Ġunprincipled": 20707,
    "Ġreport": 6191,
    "walked": 10570,
    "Ġtrif": 6268,
    "Ġfilm": 23922,
    "christian": 17232,
    "discover": 10539,
    "Ġfestoon": 20293,
    "trans": 5594,
    "announcement": 24562,
    "ys": 3958,
    "ienced": 5685,
    "Ġce": 3032,
    "Ġelderly": 13494,
    "Ġnodded": 11968,
    "Ġnod": 1889,
    "bale": 20773,
    "Ġassisted": 11111,
    "do": 1997,
    "gentlemanlike": 20000,
    "arent": 4251,
    "Ġtruthful": 23865,
    "Ġawkwardness": 13486,
    "Ġlessons": 7691,
    "want": 8765,
    "Ġmeditation": 16680,
    "abash": 18107,
    "Ġtelescopes": 25690,
    "Ġgum": 21592,
    "rougham": 15991,
    "town": 7142,
    "Ġpleasantest": 24136,
    "Ġexactness": 23603,
    "Ġunob": 22008,
    "on": 267,
    "Ġdetected": 18853,
    "library": 12996,
    "allen": 22193,
    "Ġsignify": 16493,
    "Ġexpans": 18623,
    "ust": 493,
    "âĢĻ!âĢĿ": 18167,
    "Ġwherever": 8523,
    "kindly": 14744,
    "Ġlocket": 22110,
    "Ġsill": 10765,
    "con": 654,
    "Ġfled": 6670,
    "Ġbegins": 7244,
    "Ġclings": 15970,
    "Ġmature": 17799,
    "Ġreptile": 15276,
    "baron": 24925,
    "Ġcentrally": 23829,
    "Ġslipper": 24265,
    "val": 1158,
    "rable": 11631,
    "Ġbenefits": 4288,
    "Ġpaddock": 25037,
    "ogne": 12937,
    "Ġcachalot": 17834,
    "Ġportentous": 15228,
    "orand": 21395,
    "Ġpatron": 7462,
    "Ġunited": 6840,
    "Ġmeetings": 16532,
    "Ġlongest": 18632,
    "Ġbelieving": 8224,
    "calabash": 22892,
    "Ġsharks": 4498,
    "Ġbreaths": 14856,
    "Ġpalaces": 24089,
    "blasted": 20188,
    "ge": 559,
    "Ġpag": 6010,
    "Ġticklish": 25034,
    "steak": 14707,
    "Ġforce": 5092,
    "Ġloth": 17965,
    "fulfilment": 26025,
    "roded": 17955,
    "Ġsociable": 19402,
    "andromeda": 21865,
    "Ġperilous": 7768,
    "Ġsoftware": 18918,
    "Ġspat": 2665,
    "Ġsurveying": 25325,
    "invest": 11559,
    "rough": 588,
    "clothed": 19737,
    "Ġluxuriant": 20393,
    "andering": 21864,
    "Ġprofessed": 14724,
    "Ġvolcano": 24145,
    "Ġconductor": 24005,
    "Ġproper": 1379,
    "ropout": 1320,
    "Ġaugmented": 15104,
    "smo": 10125,
    "saddest": 25527,
    "pride": 11210,
    "Ġvehicles": 10659,
    "Ġwrecks": 16818,
    "Ġslices": 23162,
    "llable": 6878,
    "od": 355,
    "dataset": 23256,
    "Ġconsists": 11976,
    "ricade": 13036,
    "Ġcenturies": 8622,
    "Ġmarks": 6746,
    "egyptians": 25898,
    "Ġpresum": 4837,
    "Ġinsertion": 26343,
    "Ġproprietor": 12371,
    "neighbour": 7211,
    "Ġrallied": 14095,
    "Ġgreedy": 3054,
    "Ġannoyance": 20661,
    "ph": 938,
    "Ġarose": 7360,
    "Ġvacant": 9494,
    "Ġeve": 13969,
    "desol": 13066,
    "Ġhim": 476,
    "Ġdispleased": 18555,
    "Ġwhereof": 16100,
    "jewell": 25523,
    "Ġoffend": 16142,
    "fortunate": 4792,
    "Ġtrade": 2550,
    "afford": 14654,
    "dick": 11479,
    "women": 15455,
    "Ġalfred": 21783,
    "inative": 15482,
    "Ġable": 3083,
    "Ġclut": 7641,
    "Ġbulwarks": 5592,
    "Ġus": 494,
    "sweeping": 24618,
    "derick": 22159,
    "deceit": 25556,
    "Ġii": 7385,
    "collect": 16563,
    "Ġpaddled": 20200,
    "Ġrugged": 18720,
    "_.,": 14563,
    "Ġrepublican": 17411,
    "Ġw": 272,
    "Ġrecourse": 22738,
    "pl": 402,
    "Ġdoubtless": 6195,
    "Ġfurious": 10354,
    "metic": 14983,
    "Ġrepaid": 19082,
    "Ġredeem": 20498,
    "Ġinhospit": 25452,
    "Ġsubstantiated": 25875,
    "Ġhelm": 5275,
    "Ġdeeds": 15756,
    "length": 7134,
    "Ġfem": 6134,
    "suspicions": 25391,
    "Ġdependence": 18619,
    "Ġswaying": 15046,
    "deception": 22142,
    "Ġmonths": 3455,
    "asper": 7854,
    "Ġdefection": 22939,
    "olet": 13765,
    "H": 44,
    "Ġbudge": 15163,
    "ferred": 16414,
    "Ġsilly": 7685,
    "Ġquarto": 17295,
    "Ġsolemn": 4099,
    "Ġoysters": 20577,
    "process": 11148,
    "Ġadvantages": 9810,
    "Ġloading": 15872,
    "izing": 1069,
    "illes": 12691,
    "Ġcontin": 5382,
    "context": 3404,
    "Ġencomp": 12960,
    "Ġclubb": 22358,
    "Ġfound": 1245,
    "ricity": 23061,
    "Ġinhab": 5083,
    "resist": 8275,
    "Ġswallows": 18882,
    "Ħ": 231,
    "Ġdeigned": 18138,
    "rich": 11517,
    "Ġarrow": 10931,
    "Ġmode": 8497,
    "Ġwarmup": 3921,
    "Ġjokes": 18408,
    "vess": 7354,
    "loops": 12880,
    "ont": 2622,
    "Ġext": 883,
    "calcul": 12984,
    "vast": 10736,
    "¢": 100,
    "behaviour": 11301,
    "ors": 855,
    "Ġwhiteness": 5918,
    "Ġcoins": 11817,
    "Ġinvis": 6902,
    "crack": 19839,
    "exertion": 16014,
    "Ġdedu": 5583,
    "wol": 21121,
    "Ġsail": 1672,
    "Ġcontaining": 2231,
    "Ġbroom": 18906,
    "listen": 13513,
    "Ġtests": 8957,
    "Ġmurder": 4282,
    "Ġimpat": 4457,
    "murmured": 24455,
    "joke": 20929,
    "Ġprogress": 5023,
    "figures": 20120,
    "howling": 18990,
    "freighted": 14891,
    "Ġcondescended": 19954,
    "ofs": 11828,
    "Ġhonourable": 10456,
    "Ġ68": 24370,
    "Ġseeking": 7035,
    "Ġmerid": 13192,
    "Ġretarded": 23070,
    "Ġloosened": 26002,
    "Ġmachinations": 25767,
    "meat": 18676,
    "Ġobscured": 15010,
    "abb": 15736,
    "Ġinnocent": 4921,
    "angled": 6844,
    "Ġfundamentals": 14635,
    "ĠĠĠĠĠĠĠĠĠĠĠĠĠĠĠĠĠĠĠĠĠĠĠĠĠĠĠĠĠĠĠĠĠĠĠĠĠ": 14614,
    "notice": 16145,
    "uction": 15442,
    "days": 7687,
    "reshold": 21238,
    "Ï": 144,
    "Ġdisse": 18548,
    "goin": 23401,
    "Ĳ": 243,
    "Ġexpressing": 12007,
    "Ġ235": 25713,
    "uation": 17694,
    "sim": 6510,
    "Ġcranial": 25592,
    "Ġpolluted": 25593,
    "Ġinterruptions": 24186,
    "Ġay": 15490,
    "Ġdistance": 3483,
    "Ġrender": 8304,
    "Ġheroic": 14907,
    "slanting": 24558,
    "likelihood": 4992,
    "linen": 25257,
    "Ġeluded": 12919,
    "osition": 1375,
    "rmsprop": 4522,
    "Ġnotwithstanding": 9713,
    "mock": 5174,
    "mar": 4337,
    "Ġguessed": 11282,
    "conf": 4957,
    "Ġpall": 7582,
    "Ġprojected": 16871,
    "Ġpressure": 13421,
    "Ġproperty": 6450,
    "beloved": 19459,
    "Ġquiver": 16001,
    "Ġinde": 7371,
    "Ġincom": 9768,
    "books": 8663,
    "captains": 12125,
    "ĠĠĠĠĠĠĠĠĠĠĠĠĠĠĠĠĠĠĠĠĠĠĠ": 18831,
    "Ġpossession": 5589,
    "crowd": 25254,
    "itives": 17819,
    "umbered": 22114,
    "Ġhabitu": 19527,
    "Ġdespite": 19351,
    "Ġmodest": 15916,
    "piling": 15414,
    "ilt": 2970,
    "ondon": 2706,
    "mp": 3725,
    "Ġminutely": 14562,
    "adem": 21754,
    "Ġfaintest": 24569,
    "Ġlard": 13946,
    "slipping": 25528,
    "strangely": 17276,
    "Ġautonomous": 10675,
    "Ġmultitudinous": 26273,
    "offing": 23329,
    "Ġreel": 9213,
    "desolate": 25703,
    "shook": 19855,
    "Ġthus": 2037,
    "Ġintelligences": 12827,
    "apable": 6422,
    "isticated": 1636,
    "caroline": 24148,
    "Ġlanguid": 14210,
    "Ġcreate": 2091,
    "set": 3865,
    "Ġvestige": 20061,
    "Ġbright": 3214,
    "Ġdiddled": 22664,
    "projecting": 26073,
    "Ġprosperity": 20256,
    "sec": 6152,
    "expanded": 23661,
    "Ġendowed": 18924,
    "Ġwindlass": 7255,
    "Ġplaintiffs": 13608,
    "itting": 1151,
    "prison": 14662,
    "Ġonly": 786,
    "swift": 14851,
    "Ġcruise": 12047,
    "mediterranean": 16402,
    "Ġguests": 12285,
    "unct": 18154,
    "Ġgenerously": 22397,
    "addition": 13383,
    "Ġnur": 5710,
    "Ġgro": 4398,
    "Ġdiscriminative": 4329,
    "Ġgirl": 3089,
    "Ġindel": 13001,
    "rasing": 21044,
    "Ġaccusations": 22377,
    "inence": 15480,
    "pre": 650,
    "Ġcy": 13873,
    "Ġincident": 6280,
    "accounted": 16501,
    "Ġconduct": 3731,
    "Ġinexhaustible": 16981,
    "Ġjovial": 19233,
    "Ġwrath": 16315,
    "headed": 4320,
    "Ġthousands": 6748,
    "Ġ117": 19696,
    "cuniary": 26379,
    "._)": 10480,
    "Ġturbul": 23611,
    "âĢĶâĢĻ": 8187,
    "respond": 12541,
    "Ġink": 8802,
    "Ġproduces": 2093,
    "Ġagreeable": 4552,
    "Ġdevout": 14333,
    "ces": 579,
    "tahit": 17692,
    "pires": 13774,
    "Ġhorsham": 10406,
    "Ġflaw": 23010,
    "Ġoil": 3374,
    "attacks": 23119,
    "Ġdriver": 16472,
    "Ġartistic": 18612,
    "ezing": 10573,
    "Ġlantern": 7116,
    "shore": 10305,
    "Ġshocks": 16456,
    "Ġaloof": 21782,
    "readiness": 19361,
    "antingly": 22095,
    "culine": 19065,
    "Ġenumerating": 15243,
    "ladder": 19783,
    "Ġlean": 7605,
    "Ġsuperseded": 26223,
    "amusement": 15281,
    "bree": 15313,
    "Ġberyls": 25775,
    "Ġeaten": 14844,
    "ook": 21003,
    "Ġscott": 22278,
    "Ġserpent": 6737,
    "marvell": 24172,
    "cold": 9589,
    "crop": 20797,
    "Ġrendered": 5773,
    "walking": 9981,
    "Ġtearing": 14394,
    "Ġcooper": 16076,
    "Ġmagnificence": 20631,
    "Ġties": 12524,
    "gate": 12464,
    "Ġconclude": 8580,
    "Ġdespaired": 14668,
    "Ġkeeping": 7283,
    "civil": 7796,
    "prit": 19340,
    "51": 12429,
    "Ġactuated": 18545,
    "Ġextravagant": 17278,
    "Ġspot": 4155,
    "embarrassed": 20595,
    "Ġharrow": 17925,
    "elve": 4642,
    "Ġpredictions": 1454,
    "Ġeagerly": 4990,
    "introduce": 25186,
    "Ġsoutherly": 23330,
    "lled": 10107,
    "Ġjustify": 11072,
    "Ġtopmost": 14587,
    "Ġuntimely": 16465,
    "Ġsole": 3299,
    "Ġchildren": 3766,
    "Ġenjoys": 19448,
    "Ġrudimental": 25108,
    "inquir": 9535,
    "Ġtransom": 22435,
    "bordered": 17498,
    "Ġrichest": 26211,
    "Ġdivers": 9665,
    "onse": 21248,
    "Ġstaple": 26198,
    "Ġrapturously": 24888,
    "Ġsails": 5256,
    "Ġconsecrated": 26488,
    "hor": 2573,
    "Ġinstead": 2789,
    "cham": 10853,
    "Ġwalled": 15533,
    "forty": 9373,
    "ricted": 15419,
    "Ġbrilliantly": 25120,
    "disapprobation": 19155,
    "Ġinvincible": 23480,
    "ar": 285,
    "ww": 10737,
    "Ġsog": 22075,
    "march": 13754,
    "Ġdecidedly": 9508,
    "fier": 9593,
    "Ġcriminal": 7537,
    "particip": 23615,
    "discharging": 26305,
    "twilight": 23701,
    "took": 6164,
    "growing": 13732,
    "Ġcomplied": 14734,
    "Ġissuing": 16948,
    "apside": 22957,
    "G": 43,
    "Ġnorton": 12646,
    "Ġguarded": 9825,
    "shortly": 12256,
    "orting": 9734,
    "Ġcandidates": 4335,
    "Ġstrands": 25574,
    "Ġwishing": 7830,
    "iality": 8843,
    "Ġacquitted": 18898,
    "Ġright": 1504,
    "stige": 21658,
    "Ġmacro": 25939,
    "Ġfriendly": 9819,
    "ree": 875,
    "Ġinsight": 16530,
    "Ġapparelled": 20435,
    "abular": 4762,
    "soever": 11857,
    "romising": 18233,
    "garden": 15025,
    "Ġpersonality": 16475,
    "Ġinexperience": 26099,
    "Ġhunch": 18934,
    "sych": 9894,
    "Ġlouisiana": 25076,
    "Ġfloating": 6604,
    "Ġliv": 6679,
    "Ġfootfall": 14661,
    "gener": 3128,
    "enhall": 13849,
    "Ġrussian": 14349,
    "assistant": 25567,
    "Ġleaf": 15720,
    "vel": 2390,
    "Ġlashing": 11615,
    "Ġsooner": 5573,
    "swell": 17663,
    "Ġcredit": 4818,
    "Ġvent": 3997,
    "Ġroundabout": 23059,
    "Ġsquires": 16180,
    "wail": 21124,
    "hatchway": 25904,
    "Ġbear": 3655,
    "Ġpeels": 22688,
    "Ġtearless": 24786,
    "Ġburying": 19251,
    "Ġventil": 8019,
    "Ġtrappers": 23079,
    "ined": 1261,
    "Ġlayers": 817,
    "compliments": 24810,
    "legged": 10466,
    "Ġbodiless": 24226,
    "walks": 19720,
    "gely": 10700,
    "Ġgrown": 5628,
    "higher": 20405,
    "nurtured": 25524,
    "Ġscraping": 13415,
    "frank": 7757,
    "furthest": 19840,
    "ortunity": 4405,
    "Ġmagnanimous": 17410,
    "Ġhandspikes": 12935,
    "Ġrelating": 2705,
    "Ġactual": 3735,
    "Ġstrategy": 2535,
    "Ġadver": 5641,
    "ating": 664,
    "Ġsnarled": 25716,
    "Ġseemingly": 9317,
    "live": 7550,
    "Ġstil": 15715,
    "Ġbod": 4581,
    "Ġhaggerston": 26452,
    "che": 3174,
    "Ġprophet": 7680,
    "drove": 16993,
    "Ġdro": 2770,
    "complacency": 19913,
    "Ġtempest": 8213,
    "Ġunerringly": 18262,
    "rix": 1573,
    "Ġbreckinridge": 14523,
    "contrasted": 17305,
    "Ġsnapping": 19299,
    "harpooned": 24286,
    "ā": 194,
    "Ġcastaways": 19426,
    "congratulations": 20278,
    "corrid": 24484,
    "Ġinfidel": 13087,
    "Ġunctuous": 10266,
    "cul": 1901,
    "Ġtoe": 13935,
    "Ġdiffused": 12066,
    "specim": 23941,
    "Ġsplendidly": 25327,
    "sy": 2874,
    "supernatural": 19778,
    "Ġdl": 3377,
    "Ġwoodlands": 23520,
    "Ġeducation": 5128,
    "ahead": 12432,
    "sorts": 21059,
    "passed": 8025,
    "stately": 18021,
    "giana": 7800,
    "Ġfinished": 5044,
    "Ġhigher": 1820,
    "pieces": 8754,
    "Ġwatchful": 16525,
    "Ġaccounts": 7207,
    "compl": 6873,
    "oves": 15402,
    "atra": 17771,
    "Ġquarter": 3976,
    "Ġresuming": 12890,
    "Ġforts": 21769,
    "Ġgrimly": 17052,
    "urmountable": 15278,
    "Ġ(_": 3734,
    "Ġinterpretation": 19715,
    "emotions": 15794,
    "Ġoffended": 7040,
    "Ġhoney": 12629,
    "âĢĿâĢĶ": 5721,
    "hind": 20893,
    "doubted": 17526,
    "crossing": 19409,
    "inspect": 11558,
    "Ġuprising": 12799,
    "Ġsnar": 13197,
    "Ġbears": 6829,
    "Ġcollins": 2180,
    "msman": 9268,
    "Ġhorizon": 6632,
    "Ġbeseeching": 26311,
    "endent": 15917,
    "Ġconsolidation": 5060,
    "laug": 10707,
    "Ġtroub": 22342,
    "Ġduly": 13349,
    "Ġmisfortune": 5569,
    "Ġcirculation": 16415,
    "Ġanecd": 20153,
    "Ġnecessary": 4474,
    "Ġgamesome": 17289,
    "joining": 19444,
    "Ġmaps": 2965,
    "Ġmouse": 4694,
    "Ġenthusiasm": 8064,
    "Ġboldness": 24428,
    "Ġease": 5629,
    "Ġexpl": 486,
    "Ġfarthest": 23113,
    "onian": 17767,
    "Ġathe": 17741,
    "Ġcister": 13881,
    "Ġvulgarity": 25363,
    "Ġduties": 6609,
    "Ġasc": 4765,
    "entropy": 1437,
    "Ġreside": 22536,
    "Ġcrow": 3804,
    "Ġfeed": 2126,
    "Ġclue": 7020,
    "Ġscream": 5934,
    "mankind": 14373,
    "atered": 22069,
    "Ġharbor": 10026,
    "belonged": 25597,
    "specific": 10497,
    "correspond": 13397,
    "street": 6495,
    "Ġglued": 20587,
    "Ġwhereby": 11834,
    "Ġ1": 1014,
    "mere": 11853,
    "Ġclergyman": 8711,
    "Ġattempted": 8000,
    "Õ": 150,
    "iates": 13736,
    "Ġincompatible": 25680,
    "Ġcritic": 19124,
    "pen": 1202,
    "Ġ79": 24264,
    "Ġwheelbarrow": 17204,
    "stars": 18019,
    "serious": 14447,
    "exercise": 17459,
    "Ġsolved": 8931,
    "Ġbooks": 4676,
    "Ġimpulse": 10023,
    "Ġproducts": 5198,
    "Ġknitted": 19588,
    "Ġaspired": 25984,
    "Ġcommodore": 12393,
    "Ġwinter": 5220,
    "Ġwearing": 12736,
    "Ġunbounded": 18256,
    "connections": 14427,
    "Ġmile": 7151,
    "compassion": 12366,
    "Ġshillings": 15833,
    "una": 21866,
    "Ġfancies": 10424,
    "Ġgriev": 16634,
    "Ġsequence": 1977,
    "Ġsupre": 10268,
    "ans": 458,
    "Ġtakings": 20571,
    "Ġbells": 19600,
    "Ġsinful": 18948,
    "hing": 980,
    "Ġdealing": 14044,
    "Ġdining": 6977,
    "Ġgenerates": 3661,
    "restrained": 16334,
    "unteered": 26495,
    "Ġactivation": 917,
    "usable": 22286,
    "Ġvolume": 6769,
    "Ġrefill": 18698,
    "ĠĠĠĠĠĠĠĠĠĠĠĠĠĠĠĠĠĠĠĠĠĠĠĠĠĠĠĠĠĠĠĠĠĠ": 14613,
    "Ġhence": 4989,
    "Ġrecomm": 4996,
    "ral": 4628,
    "Ġsurrounded": 5878,
    "Ġpainted": 7978,
    "Ġgliding": 8559,
    "Ġstud": 1634,
    "Ġcoco": 11001,
    "Ġperusal": 14224,
    "iction": 4270,
    "knife": 6942,
    "Ġbremen": 23343,
    "Ġpian": 13916,
    "ĠĠĠĠĠĠĠĠĠĠĠĠĠĠĠĠĠĠĠĠĠĠĠĠĠĠĠĠĠĠĠĠĠĠĠĠĠĠĠ": 19258,
    "Ġveins": 8932,
    "Ġdrily": 23539,
    "Ġobligation": 13242,
    "der": 468,
    "motion": 17606,
    "paddington": 20476,
    "!âĢĿâĢĶ": 8532,
    "Ġvale": 14081,
    "Ġgrampus": 21990,
    "Ġbumpkin": 20199,
    "Ġhans": 12623,
    "Ġbody": 2440,
    "mortal": 10112,
    "Ġperson": 2372,
    "Ġexpand": 9306,
    "mong": 15388,
    "Ġinvisible": 7327,
    "Ġelizabeth": 1131,
    "compose": 24030,
    "Ġbricks": 13561,
    "Ġnursery": 19749,
    "Ġcoach": 6868,
    "grampus": 18617,
    "crews": 15042,
    "book": 4670,
    "Ġbildad": 3780,
    "ze": 1299,
    "Ġconsistence": 23354,
    "Ġdarkened": 16431,
    "Ġanew": 11430,
    "Ġ107": 24415,
    "ynolds": 10035,
    "Ġseal": 10254,
    "parted": 21015,
    "Ġmistake": 6203,
    "ptember": 10894,
    "tipt": 25083,
    "dangerous": 20239,
    "Ġbranch": 8331,
    "Ġcar": 1418,
    "Ġsuperglue": 23458,
    "intending": 22932,
    "Ġheel": 9683,
    "ho": 2858,
    "Ġate": 8839,
    "Ġexposure": 16097,
    "swallow": 24257,
    "Ġpresided": 20206,
    "Ġviv": 6156,
    "Ġhardships": 14450,
    "Ġprized": 23216,
    "Ġmultipl": 2790,
    "Ġlogic": 13076,
    "Ġmail": 17800,
    "Ġduncan": 13460,
    "Ġdistribution": 2020,
    "Ġcalled": 1974,
    "Ġsong": 5902,
    "Ġcocked": 12904,
    "Ġboom": 9309,
    "Ġentangled": 10343,
    "isf": 2439,
    "Ġk": 484,
    "Ġrigging": 5601,
    "offered": 14518,
    "Ġhelping": 3268,
    "Ġfixing": 13155,
    "bond": 17489,
    "Ġunthink": 18244,
    "Ġobjectionable": 16991,
    "ently": 1615,
    "Ġslay": 16305,
    "intercourse": 14638,
    "Ġcramped": 23530,
    "tempestuous": 26097,
    "hush": 20905,
    "Ġbetray": 7442,
    "affect": 13211,
    "Ġenthusiastic": 19964,
    "Ġmeanly": 12906,
    "Ġardent": 9969,
    "Ġtingling": 15091,
    "Ġvindict": 13604,
    "Ġtint": 13816,
    "Ġexeget": 24084,
    "Ġobserver": 11987,
    "Ġfilthy": 13246,
    "Ġcourting": 23290,
    "Ġtow": 4397,
    "Ġslung": 23165,
    "Ġbelonging": 8307,
    "Ġshows": 8482,
    "Ġprobability": 1128,
    "iliar": 15711,
    "Ġruff": 14348,
    "countenances": 24150,
    "postp": 24634,
    "Ġ1836": 25721,
    "sell": 13780,
    "Ġsimplicity": 2924,
    "atural": 923,
    "Ġprovid": 1008,
    "Ġrenegades": 26476,
    "ated": 729,
    "Ġdomains": 6612,
    "prom": 6509,
    "Ġdeceived": 6544,
    "Ġmoses": 21314,
    "Ġresentment": 7530,
    "leton": 5148,
    "ruction": 4359,
    "Ġ34": 16677,
    "Ġavail": 11226,
    "Ġquohog": 10972,
    "sc": 1260,
    "Ġperfections": 23607,
    "esteemed": 26009,
    "Ġrumpled": 24600,
    "cracy": 24690,
    "Ġstings": 21731,
    "Ġ=": 1076,
    "Ġrobert": 10970,
    "Ġnorm": 761,
    "ļ": 253,
    "wic": 21119,
    "resolutions": 26164,
    "Ġmart": 10779,
    "Ġprojects": 9510,
    "Ġfountains": 13502,
    "warks": 5004,
    "Ġsmilingly": 22558,
    "Ġelaborate": 18637,
    "Ġsow": 17749,
    "pers": 4338,
    "Ġperpet": 7644,
    "Ġincorruption": 26309,
    "eray": 21265,
    "Ġextracting": 11104,
    "aloft": 8806,
    "Ġnarrating": 24351,
    "Ġregarding": 13209,
    "Ġpratt": 23215,
    "Ġanvil": 11596,
    "Ġregulate": 22585,
    "Ġstabilizing": 3654,
    "Ġconstraints": 2739,
    "Ġcub": 8413,
    "Ġunappe": 22011,
    "Ġreasoner": 14433,
    "Ġkrempe": 10669,
[...]
