{
  "metadata": {
    "vocab_size": 26614,
    "algorithm": "BPE",
    "created_at": "2026-05-22 06:05:03",
    "special_tokens": [
      "<PAD>",
      "<SOS>",
      "<EOS>",
      "<UNK>",
      "<MASK>"
    ]
  },
  "vocab": {
    "bulkington": 19924,
    "Ġtenement": 23546,
    "Ġasiatic": 20428,
    "Ġbook": 2704,
    "Ġpave": 8799,
    "Ġjupiter": 17455,
    "Ġrum": 5923,
    "Ġcandle": 8291,
    "Ġenraptured": 26500,
    "Ġprior": 11318,
    "Ġstate": 1809,
    "ware": 3936,
    "insurance": 18887,
    "wed": 5003,
    "shoes": 14241,
    "Ġscru": 8190,
    "istle": 15868,
    "english": 2774,
    "Ġkne": 4267,
    "Ġdemocracy": 25458,
    "avo": 8519,
    "Ġlanterns": 24577,
    "Ġforbearing": 25098,
    "ustry": 18361,
    "la": 10705,
    "Ġsealed": 15816,
    "Ġinstructions": 11196,
    "apprehens": 17405,
    "Ġabraham": 18395,
    "uding": 16145,
    "ituted": 13872,
    "eliest": 14745,
    "extric": 22759,
    "Ġmaty": 22906,
    "Ġnecessarily": 13247,
    "dig": 4929,
    "Ġroanoke": 22404,
    "gown": 9596,
    "Ġinit": 817,
    "opp": 6963,
    "fishery": 10031,
    "ears": 20844,
    "Ġprudence": 13919,
    "Ġleviathan": 3287,
    "Ġrepulses": 26070,
    "Ġrio": 23889,
    "sequent": 6831,
    "metic": 14983,
    "Ġsentence": 6187,
    "ructure": 749,
    "Ġunwilling": 7885,
    "then": 2052,
    "Ġconfederate": 17353,
    "Ġwrapped": 8341,
    "Ġdaintiest": 25953,
    "Ġeasily": 3893,
    "Ġcloth": 9742,
    "Ġrheumatic": 20704,
    "Ġgoblet": 25823,
    "hyme": 19608,
    "Ġsherry": 19449,
    "Ġix": 12663,
    "aways": 15309,
    "icious": 7380,
    "dragged": 16608,
    "insula": 23063,
    "Ġ133": 24783,
    "Ġemir": 23348,
    "ositories": 22261,
    "Ġshouts": 19536,
    "Ġthis": 382,
    "ther": 481,
    "04": 10679,
    "Ġpractice": 3011,
    "footsteps": 25199,
    "zek": 16270,
    "Ġprofessions": 11231,
    "Ġmanufactured": 22327,
    "Ġinterchange": 16072,
    "Ġaffl": 14385,
    "Ġunjustifiable": 25109,
    "Ġaffliction": 25844,
    "itz": 6005,
    "Ġbaker": 4695,
    "Ġinaccessible": 13933,
    "Ġimag": 2677,
    "tailed": 17685,
    "Ġphysiognomically": 25612,
    "Ĵ": 245,
    "rix": 1575,
    "Ġhomeless": 23385,
    "Ġgem": 21591,
    "Ġmelted": 19620,
    "Ġhardest": 18912,
    "Ġavoid": 5199,
    "Ġfired": 16150,
    "Ġalternative": 19985,
    "Ġmundane": 26429,
    "cherries": 19755,
    "Ġappare": 12814,
    "mant": 20964,
    "recursion": 13327,
    "ede": 21503,
    "Ġrust": 6408,
    "Ġwis": 3730,
    "bone": 5612,
    "Ġremedy": 18724,
    "Ġdiscipl": 22782,
    "Ġwaterloo": 11979,
    "Ġpropensity": 18995,
    "interred": 23735,
    "gentleman": 7518,
    "ious": 769,
    "lakeman": 13750,
    "tenderly": 20529,
    "Ġtoken": 2038,
    "ener": 560,
    "Ġdatasets": 2388,
    "Ġlist": 2366,
    "Ġgolden": 5336,
    "Ġagreed": 7029,
    "Ġgot": 2280,
    "cook": 8269,
    "olerable": 7182,
    "Ġostens": 25275,
    "Ġdrawing": 3919,
    "Ġawkwardness": 13486,
    "east": 9115,
    "Ġincarnate": 20373,
    "Ġprayer": 16666,
    "Ġbrawn": 10481,
    "accustomed": 13156,
    "Ġnewcomers": 26041,
    "nonsense": 17615,
    "Ġmilky": 9946,
    "import": 5668,
    "Ġbachelor": 7786,
    "Ġepidemic": 20694,
    "Åĵuvre": 25887,
    "bol": 8717,
    "Ġexperiment": 11917,
    "Ġbedfellow": 16436,
    "Ġpallidness": 25604,
    "Ġfuel": 13903,
    "sou": 12503,
    "enhall": 13849,
    "Ġcalcul": 3640,
    "Ġinfants": 16362,
    "histor": 13490,
    "Ġcommitted": 7431,
    "Ġflushed": 13024,
    "Ġpet": 4585,
    "Ġseaman": 8638,
    "Ġsaturn": 22897,
    "Ġdisadvantages": 18558,
    "Ġflooded": 24959,
    "Ġobstructed": 24677,
    "Ġto": 297,
    "Ģ": 227,
    "commence": 19990,
    "Ġthrone": 12211,
    "regard": 7972,
    "Ġepis": 19980,
    "Ġelder": 7223,
    "engines": 18927,
    "ting": 1334,
    "Ġparticip": 16129,
    "thoughtfully": 24043,
    "Ġheroines": 19750,
    "Ġsubdiv": 16157,
    "Ġtuples": 13476,
    "Ġfrocks": 23919,
    "fol": 4862,
    "assault": 22303,
    "Ġdoors": 6418,
    "Ġbal": 1131,
    "damn": 20022,
    "Ġsacrific": 15017,
    "Ġmust": 844,
    "ĠĠĠĠĠĠ": 6414,
    "Ġlagged": 21555,
    "Ġsharply": 9402,
    "belonged": 25597,
    "Ġblasp": 14400,
    "Ġfellows": 8256,
    "begging": 22494,
    "Ġ98": 24593,
    "Ġexcept": 3311,
    "Ġthoroughly": 8347,
    "derest": 18314,
    "Ġsor": 4147,
    "N": 50,
    "Ġfoundling": 22965,
    "gay": 11488,
    "contains": 16029,
    "disappointed": 25191,
    "Ġkate": 15903,
    "Ġbeautifully": 13266,
    "Ġholiest": 18812,
    "caught": 8726,
    "Ġfamine": 16327,
    "Ġendless": 7053,
    "Ġspo": 6846,
    "Ġornam": 15862,
    "Ġshells": 20362,
    "Ġprolonged": 8357,
    "Ġvessels": 6755,
    "Ġirreduc": 5491,
    "Ġferrule": 24500,
    "iage": 17573,
    "Ġfurious": 10353,
    "tut": 15433,
    "omeness": 18015,
    "ü": 189,
    "Ġenabling": 1080,
    "Ġeddy": 13122,
    "Ġexpect": 2307,
    "Ġencounter": 6627,
    "displayed": 20735,
    "prisoner": 20542,
    "Ġcountries": 13094,
    "Ġexciting": 23308,
    "Ġfaithfulness": 24446,
    "construction": 19777,
    "fold": 7546,
    "atherley": 7220,
    "unte": 21870,
    "Ġheighten": 19528,
    "vulgar": 25918,
    "Ġhissed": 15786,
    "hate": 20891,
    "Ġcran": 11999,
    "enstein": 5799,
    "forehead": 8515,
    "Ġcircumspection": 25884,
    "immedi": 8450,
    "Ġjudged": 12081,
    "Ġfif": 4217,
    "Ġvalid": 1687,
    "ourably": 14376,
    "has": 4016,
    "Ġbiggest": 24566,
    "Ġresidual": 1678,
    "Ġtake": 1579,
    "attentive": 17189,
    "Ġfertile": 20581,
    "Ġsons": 10766,
    "Ġslightly": 7293,
    "Ġoce": 3030,
    "Ġsuggestive": 11297,
    "Ġrobe": 18458,
    "Ġnarratives": 24353,
    "insufferable": 21191,
    "Ġantics": 24178,
    "Ġgoodge": 22819,
    "food": 12461,
    "Ġfable": 15574,
    "ruin": 22173,
    "forth": 9321,
    "positive": 20566,
    "Ġnewton": 3530,
    "Ġinfluence": 5515,
    "numerous": 17430,
    "ribed": 7692,
    "Ġexhilarating": 26337,
    "Ġintroduces": 3267,
    "Ġcensure": 15094,
    "Ġambition": 11432,
    "Ġinstructive": 19285,
    "Ġdoll": 10813,
    "mn": 3578,
    "ated": 731,
    "Ġfurthest": 22812,
    "Ġconsist": 1933,
    "ý": 190,
    "iably": 13737,
    "Ġzones": 22815,
    "disp": 7975,
    "Ġwitnessed": 14843,
    "arks": 2845,
    "Ġformless": 22825,
    "aches": 6569,
    "Ġassociated": 12247,
    "queg": 1769,
    "remembrance": 25702,
    "Ġdefiance": 11068,
    "Ġcomple": 2841,
    "Ġexpanding": 25238,
    "Ġcompletely": 4860,
    "bits": 17488,
    "Ġmealy": 18118,
    "appl": 9325,
    "Ġpalmed": 24090,
    "Ú": 155,
    "Ġdreadful": 4920,
    "Ġ103": 24411,
    "Ġfurled": 22810,
    "\"],": 26120,
    "Ġsomebody": 7911,
    "ked": 5616,
    "Ġjav": 7901,
    "Ġpleasures": 11142,
    "Ġmomentum": 1603,
    "Ġdefend": 9339,
    "riages": 10242,
    "riend": 1186,
    "Ġcharmingly": 24221,
    "Ġveil": 7933,
    "Ġbo": 794,
    "Ġsisterly": 16300,
    "ioneer": 15629,
    "err": 1139,
    "Ġrestrictions": 20634,
    "ops": 5247,
    "Ġguns": 16776,
    "Ġpon": 10175,
    "Ġder": 1499,
    "Ġbehind": 2808,
    "Ġbelieve": 2147,
    "account": 5329,
    "Ġrestore": 9379,
    "prevented": 20372,
    "Ġclasping": 20208,
    "Ġmem": 2068,
    "Ġgrandeur": 8627,
    "Ġdistillation": 16043,
    "devils": 20031,
    "Ġkent": 6691,
    "Ġcentury": 8290,
    "Ġsakes": 18331,
    "Ġdivineness": 25724,
    "Ġinequalities": 26453,
    "stories": 18023,
    "Ġchance": 3316,
    "noo": 9787,
    "Ġcomposure": 7217,
    "garnished": 26388,
    "ichron": 22165,
    "Ġstum": 21728,
    "ĠĠĠĠĠĠĠĠĠĠ": 18577,
    "Ġlater": 6016,
    "sun": 7139,
    "Ġextending": 11022,
    "Ġling": 7377,
    "comfortableness": 24525,
    "Ġmasses": 10503,
    "Ġexhib": 6349,
    "Ġaccord": 4029,
    "Ġdetailed": 12821,
    "Ġclumsy": 9579,
    "veral": 2355,
    "Ġdiscrimination": 23604,
    "position": 15412,
    "Ġworshipper": 25692,
    "Ġdetermine": 3242,
    "tr": 3581,
    "Ġexult": 10229,
    "dled": 9110,
    "Ġinv": 2221,
    "sive": 4145,
    "osity": 14185,
    "Ġmeta": 3432,
    "kles": 17584,
    "Ġdividing": 12109,
    "becomes": 22493,
    "eyes": 5684,
    "Ġsavoury": 23875,
    "enesis": 24388,
    "aw": 1447,
    "Ġprovides": 1929,
    "Ġacceptable": 16744,
    "Ġabstracted": 17182,
    "assured": 10952,
    "urning": 12913,
    "commer": 22820,
    "Ġconnection": 5479,
    "Ġsharpened": 17364,
    "ica": 10198,
    "Ġamazement": 7764,
    "Ġclearing": 8239,
    "Ġpadd": 9669,
    "Ġindispensable": 11898,
    "batross": 9092,
    "Ġhealthcare": 8015,
    "dl": 20822,
    "chanced": 18805,
    "reasoning": 9475,
    "Ġdataset": 12813,
    "Ġrecounted": 22731,
    "Ġswerve": 14436,
    "Ġven": 4647,
    "Ġproceedings": 9906,
    "direct": 12454,
    "Ġquohog": 10972,
    "Ġsusp": 2666,
    "Ġexpress": 2193,
    "Ġmans": 15534,
    "Ġnugent": 26457,
    "Ġcentaurs": 23829,
    "Ġbeheld": 4491,
    "Ġseparation": 11248,
    "Ġwhat": 599,
    "Ġtoil": 6531,
    "antage": 3881,
    "notice": 16146,
    "Ġrheum": 18216,
    "Ġyarns": 15194,
    "Ġmaking": 1778,
    "flutter": 23968,
    "Ġmanifested": 17157,
    "Ġwaist": 6892,
    "ails": 6160,
    "Ġhum": 1100,
    "oysius": 14362,
    "sooner": 14775,
    "Ġsurprising": 14597,
    "Ġopportunities": 19248,
    "Ġbalances": 2342,
    "Ġgait": 13329,
    "ssed": 3736,
    "icket": 22665,
    "Ġapr": 12529,
    "Ġstands": 5258,
    "alloyed": 22198,
    "Ġtreasures": 17047,
    "Ġdrowning": 19903,
    "Ġflesh": 5968,
    "Ġpuffed": 14976,
    "Ġerrors": 2597,
    "Ġfac": 6381,
    "sideways": 14572,
    "privilege": 25263,
    "Ġimmutable": 17357,
    "librarian": 26568,
    "Ġattribute": 16095,
    "Ġpilgr": 12178,
    "Ġsaturation": 2061,
    "Ġchanced": 8186,
    "Ġkrus": 18349,
    "Ġfossil": 12385,
    "diver": 20830,
    "actor": 11835,
    "Ġchoicest": 24220,
    "Ġpractical": 3164,
    "Ġdevelop": 1611,
    "kers": 7132,
    "Ġunfold": 8022,
    "Ġboy": 3023,
    "Ġhaught": 10252,
    "warnings": 20350,
    "Ġfir": 17877,
    "eration": 10772,
    "Ġbenignity": 18781,
    "mercenary": 26315,
    "ament": 2439,
    "))": 1515,
    "Ġgranite": 22805,
    "sticking": 21657,
    "Ġslu": 13835,
    "Ġpick": 4257,
    "Ġsmokes": 22557,
    "Ġeveryday": 22766,
    "Ġmannish": 26237,
    "Ġavowed": 16633,
    "fit": 6645,
    "Ġregions": 10324,
    "redible": 15802,
    "Ġkrusen": 20713,
    "anging": 3550,
    "sets": 17660,
    "Ġwilled": 21290,
    "overcoat": 19046,
    "gling": 10097,
    "Ġphilosopher": 12181,
    "Ġdubious": 17382,
    "Ġcomplexion": 8210,
    "Ġinverted": 12634,
    "Ġcloak": 9533,
    "Ġrubber": 22784,
    "irectly": 6940,
    "Ġsins": 13836,
    "Ġdistressing": 12216,
    "snap": 24848,
    "Ġconstitutes": 13551,
    "Ġcom": 367,
    "quick": 6400,
    "Ġequ": 1734,
    "Ġstuff": 5717,
    "Ġsignature": 16492,
    "Ġabout": 633,
    "Ġacceded": 22373,
    "begin": 8883,
    "Ġassum": 4068,
    "sub": 4659,
    "`": 68,
    "Ġlive": 2736,
    "Ġshipw": 12976,
    "Ġtemples": 18637,
    "Ġ96": 24592,
    "real": 10149,
    "leaving": 10791,
    "Ġnumerical": 4245,
    "Ġce": 3031,
    "lanter": 15386,
    "Ġentertain": 6053,
    "disappointment": 11425,
    "Ġimperial": 9480,
    "Ġconfirms": 23305,
    "Ġ102": 24410,
    "Ġmathemat": 3201,
    "Ġeyelashes": 26106,
    "murdered": 12200,
    "era": 13846,
    "shriek": 20518,
    "itching": 21333,
    "pall": 17628,
    "ultaneous": 18583,
    "mighty": 9466,
    "Ġestimates": 3749,
    "Ġwarrant": 17794,
    "personal": 24963,
    "Ġegress": 21620,
    "Ġperpendicular": 7209,
    "Ġrather": 1496,
    "Ġmouthfuls": 20645,
    "Ġstruggled": 9904,
    "Ġ1671": 25005,
    "lucky": 24545,
    "Ġghostly": 24650,
    "Ġzeros": 3323,
    "Ġsufferable": 16255,
    "erde": 21267,
    "ishments": 9272,
    "lorious": 17592,
    "mastod": 23971,
    "Ġmischie": 22757,
    "rence": 5555,
    "handed": 7482,
    "rect": 1599,
    "izar": 14049,
    "Ġpickle": 16722,
    "Ġpunctil": 20112,
    "overfitting": 13098,
    "Ġparalle": 1409,
    "dro": 6644,
    "Ġfright": 3799,
    "Ġtestament": 23212,
    "derbyshire": 18322,
    "itance": 13867,
    "atches": 13845,
    "singular": 12186,
    "Ġpursued": 6328,
    "Ġarranged": 9876,
    "transferred": 24514,
    "bath": 13688,
    "Ġstoutly": 16924,
    "Ġsegment": 12754,
    "Ġconvince": 14642,
    "Ġunconcern": 14116,
    "Ġcont": 620,
    "zing": 7820,
    "Ġmovable": 22430,
    "Ġhistorically": 19376,
    "Ġproflig": 23566,
    "Ġconjunction": 25100,
    "Ġsemi": 11967,
    "Ġbenches": 18780,
    "illuminated": 17452,
    "plenty": 14087,
    "Ġincreasing": 8246,
    "Ġstreaming": 19672,
    "Ġadmiration": 5328,
    "warrior": 24798,
    "Ġattempting": 14696,
    "Ġhom": 9186,
    "Ġlessened": 19087,
    "Ġunctuous": 10266,
    "Ġexclaim": 11221,
    "Ġwisdom": 11233,
    "Ġcha": 6853,
    "tete": 10732,
    "vanished": 15060,
    "Ġcorrupt": 11921,
    "burn": 8370,
    "Ġdramatic": 4850,
    "Ġfeeds": 16432,
    "Ġserpentine": 11360,
    "erie": 21269,
    "Ġindians": 14408,
    "Ġsus": 18275,
    "umerable": 11723,
    "Ġdescending": 8901,
    "Ġtesting": 23210,
    "Ġindulged": 13416,
    "lydia": 6826,
    "Ġcomplacency": 19446,
    "ubbub": 23241,
    "minded": 9037,
    "Ġlounging": 10021,
    "Ġarri": 2555,
    "Ġshipwreck": 20444,
    "overcome": 19045,
    "Ġoverthrow": 18431,
    "Ġboundary": 11222,
    "ojo": 7349,
    "illings": 14142,
    "Ġwil": 4579,
    "Ġvicious": 24403,
    "Ġwaving": 8575,
    "Ġlapl": 19776,
    "advantages": 11271,
    "Ġmomentary": 11035,
    "valu": 1717,
    "Ġfamil": 4321,
    "Ġadds": 1805,
    "Ġremember": 2680,
    "thou": 4708,
    "Ġpods": 17914,
    "Ġgrammatical": 13538,
    "Ġcommonly": 3262,
    "Ġseized": 4833,
    "Ġtimely": 19593,
    "viv": 17698,
    "mediate": 16512,
    "Ġstern": 4222,
    "Ġbit": 2965,
    "Ġnourishment": 15191,
    "Ġinvader": 23477,
    "Ġunrem": 18244,
    ").âĢĿ": 20740,
    "Ġd": 284,
    "Ġgirl": 3086,
    "Ġeventually": 8616,
    "Ġcontinuation": 22914,
    "hued": 20910,
    "promote": 24727,
    "Ġsphynx": 20711,
    "horner": 23613,
    "Ġprudential": 17919,
    "Ġhurriedly": 11250,
    "Ġunwinding": 22057,
    "street": 6495,
    "Ġportly": 14678,
    "Ġindelicacy": 25695,
    "ifting": 6545,
    "Ġisland": 4052,
    "Ġanatomical": 15075,
    "Ġlimbs": 5965,
    "Ġsweatings": 25710,
    "bb": 2801,
    "Ġalthough": 4152,
    "pow": 10717,
    "Ġmob": 16015,
    "Ġsurgeon": 8981,
    "perpet": 14158,
    "Ġprincely": 24148,
    "Ġteacup": 16213,
    "Ġregrets": 18601,
    "ocean": 12399,
    "iet": 1773,
    "Ġmarbank": 23036,
    "Ġcounterbalance": 24722,
    "Ġsovere": 9255,
    "Ġhumans": 8929,
    "cary": 10689,
    "blame": 14793,
    "Ġactivity": 7919,
    "tedious": 22630,
    "Ġdiary": 24739,
    "Ġkissed": 10044,
    "smart": 23904,
    "knot": 13744,
    "teringly": 21820,
    "erial": 4631,
    "carriage": 9945,
    "Ġbennets": 9805,
    "offer": 19058,
    "Ġharness": 17927,
    "uries": 6147,
    "Ġblasts": 19994,
    "Ġcred": 8780,
    "Ġcorner": 4370,
    "Ġboat": 1276,
    "Ġdrawn": 4276,
    "Ġcrevice": 22725,
    "Ġplanisp": 24056,
    "ort": 520,
    "Ġquart": 11785,
    "Ġenchanting": 17039,
    "excited": 13379,
    "Ġimport": 1011,
    "ulance": 15764,
    "Ġneck": 4885,
    "aux": 14288,
    "Ġrebounds": 25967,
    "Ġprayers": 12121,
    "ju": 13740,
    "Ġsworn": 14434,
    "Ġseverely": 14932,
    "Ġproblem": 1270,
    "Ġwaylaid": 22868,
    "Ġtom": 15630,
    "Ġisol": 8833,
    "Ġobserv": 8586,
    "introdu": 8937,
    "order": 1959,
    "Ġstruggle": 3677,
    "Ġhorseman": 19606,
    "herself": 4890,
    "Ġpatagon": 14511,
    "Ġexplicit": 3590,
    "seat": 18125,
    "ivil": 6411,
    "knife": 6942,
    "Ġguar": 23043,
    "oubtedly": 6943,
    "lightened": 12063,
    "Ġ1825": 25719,
    "Ġtap": 12523,
    "Ġforbidden": 17078,
    "Ġenergies": 25459,
    "Ġtailed": 21167,
    "symp": 14608,
    "Ġthoughts": 3139,
    "hval": 20897,
    "reast": 17758,
    "Ġwhispers": 14699,
    "Ġhasty": 10477,
    "forgive": 18727,
    "stumps": 21656,
    "Ġdistrustful": 25054,
    "amongst": 24672,
    "having": 5211,
    "Ġfeelings": 2452,
    "asse": 15642,
    "bond": 17489,
    "Ġinvol": 1036,
    "Ġfocused": 16340,
    "Ġunless": 4093,
    "Ġprecisely": 6466,
    "lish": 1950,
    "oa": 9612,
    "Ġwidows": 24236,
    "ours": 3426,
    "Ġseasonable": 24406,
    "leeward": 15209,
    "Ġminimizes": 2046,
    "abulary": 4800,
    "roqu": 21531,
    "alluring": 18352,
    "Ġdeceitful": 25733,
    "Ġfishe": 15583,
    "token": 21081,
    "Ġendeared": 26498,
    "Ġforehead": 5261,
    "elze": 21570,
    "Ġdying": 2136,
    "Ġrevisit": 21667,
    "mean": 6438,
    "camp": 15329,
    "Ġnature": 2539,
    "Ġsubstitute": 16726,
    "Ġreaders": 18914,
    "Ġmisunderstood": 18705,
    "Ġ84": 19708,
    "Ġtou": 15465,
    "nantucketer": 24972,
    "Ġspurn": 18307,
    "anth": 13886,
    "Ġinsects": 25646,
    "Ġreferences": 21671,
    "Ġresist": 7915,
    "Ġvisible": 4777,
    "Ġponderous": 8354,
    "Ġrichness": 19310,
    "Ġaccur": 3553,
    "Ġ(âĢľ": 15993,
    "Ġinterconnected": 1339,
    "Ġsluggish": 25890,
    "notches": 22750,
    "Ġfug": 12592,
    "Ġfuneral": 10282,
    "Ġreconciliation": 25292,
    "Ġpassionate": 11273,
    "Ġgiven": 1625,
    "Ġvalues": 2654,
    "Ġconfusion": 7273,
    "Ġstretch": 6993,
    "Ġcollecting": 12284,
    "sig": 2876,
    "akers": 9738,
    "Ġshows": 8482,
    "anct": 21356,
    "itect": 974,
    "Ġcon": 348,
    "Ġrecess": 10847,
    "puff": 21021,
    "Ġflour": 8944,
    "Ġbustle": 17227,
    "Ġintegration": 9867,
    "wondered": 17029,
    "atching": 8202,
    "guessed": 25872,
    "Ġultimate": 12347,
    "Ġpuzzle": 11305,
    "Ġalluded": 7884,
    "tawn": 21079,
    "Ġcomforter": 20505,
    "Ġmy": 412,
    "Ġrusty": 14963,
    "Ġarmy": 11739,
    "ssing": 3811,
    "Ġsmall": 894,
    "Ġtended": 21165,
    "prep": 9757,
    "Ġbrides": 22861,
    "Ġ550": 19640,
    "instrument": 15237,
    "Ġste": 1387,
    "Ġchorus": 10946,
    "Ġprojects": 9510,
    "Ġced": 10784,
    "Ġregained": 18599,
    "Ġ92": 24590,
    "likely": 9022,
    "Ġmachinations": 25767,
    "Ġsine": 10763,
    "special": 14704,
    "Ġpian": 13916,
    "Ġunremitting": 26217,
    "Ġcouns": 10520,
    "Ġcursed": 6727,
    "Ġmanoir": 22328,
    "scream": 11076,
    "fem": 17537,
    "steak": 14707,
    "acting": 22627,
    "Ġpenet": 6888,
    "Ġcasualty": 20340,
    "Ġstingy": 25455,
    "Ġcath": 17826,
    "etence": 21574,
    "Ġroses": 11784,
    "ĠĠĠĠĠĠĠĠĠĠĠĠĠĠĠĠĠĠĠĠĠĠĠĠĠĠĠĠĠĠĠĠĠĠĠĠĠĠĠĠĠĠĠĠĠĠĠĠĠĠĠ": 20037,
    "Ġwindigate": 18910,
    "ippers": 17576,
    "Ġimprec": 14216,
    "brows": 17496,
    "Ġencodings": 4775,
    "Ġdocks": 14177,
    "Ġpolluted": 25593,
    "Ġbedrooms": 19968,
    "frequented": 25900,
    "disposed": 25010,
    "overing": 6306,
    "Ġres": 696,
    "Ġunimag": 12772,
    "outh": 2689,
    "Ġdol": 9664,
    "libr": 22920,
    "Ġelectric": 15193,
    "slave": 16895,
    "disposition": 10041,
    "Ġtickled": 20055,
    "Ġaxis": 12305,
    "aside": 10191,
    "Ġprosecuted": 25293,
    "Ġeffects": 7236,
    "favour": 9548,
    "Ġbackstays": 22651,
    "Ġrelated": 3716,
    "hig": 12472,
    "Ġdeception": 18139,
    "Ġhumorous": 10360,
    "Ġdem": 11673,
    "spirited": 19752,
    "butt": 15992,
    "aud": 8521,
    "ratches": 20123,
    "Ġfaced": 10808,
    "Ġdesirable": 8941,
    "Ġpeaking": 22687,
    "ind": 567,
    "Ġpretence": 13206,
    "glow": 20873,
    "patient": 25342,
    "endeavour": 17031,
    "Ġhemis": 21681,
    "acqu": 4842,
    "fed": 11487,
    "Ġreconc": 9682,
    "ively": 1305,
    "dom": 6222,
    "assumed": 22305,
    "aciousness": 18567,
    "Ġpredictions": 1456,
    "Ġhoofs": 14527,
    "Ġmanagement": 8192,
    "Ġpinched": 17035,
    "Ġhertfordshire": 5377,
    "restored": 18978,
    "Ġopal": 23624,
    "atively": 2697,
    "compan": 7301,
    "Ġignited": 25069,
    "Ġcompre": 4447,
    "Ġconcernment": 23643,
    "Ġrobinson": 17463,
    "Ġverily": 16603,
    "Ġsheeted": 19830,
    "Ġoutcast": 18414,
    "pity": 17627,
    "necessity": 13366,
    "brit": 19197,
    "Ġcontinu": 1165,
    "Ġfires": 16471,
    "Ġevaporate": 26332,
    "Ġgenerates": 3666,
    "earnest": 12397,
    "irements": 22209,
    "Ġutility": 23513,
    "Ġsemicircle": 26067,
    "Ġinconsistency": 26182,
    "Ġmerely": 3772,
    "ë": 172,
    "Ġsouls": 6308,
    "Ġcrouched": 23440,
    "Ġdandy": 17892,
    "Ġshel": 6847,
    "dream": 8727,
    "Ġintervened": 25481,
    "Ġounce": 15271,
    "Ġbelieves": 14406,
    "Ġmodeling": 2095,
    "Ġmass": 3783,
    "Ġ183": 13236,
    "Ġsain": 17750,
    "oh": 1578,
    "horr": 14599,
    "disagreeable": 11163,
    "Ġmasoned": 20250,
    "itering": 17818,
    "icirc": 15653,
    "skull": 24488,
    "Ġsaints": 20673,
    "Ġblind": 3717,
    "prehensible": 12358,
    "Ġgay": 5535,
    "Ġcirculation": 16415,
    "intern": 23734,
    "passing": 14811,
    "odox": 21813,
    "Ġroast": 18457,
    "crimson": 24100,
    "Ġgates": 10200,
    "round": 3367,
    "Ġdistributes": 4196,
    "acency": 12894,
    "Ġmor": 1250,
    "Ġqueen": 3210,
    "atherine": 2596,
    "Ġshoulders": 5566,
    "Ġglowing": 12280,
    "Ġescapes": 23507,
    "Ġfore": 2152,
    "Ġfirmness": 11238,
    "Ġgu": 1327,
    "Ġshark": 5550,
    "iles": 2862,
    "Ġhurt": 7700,
    "Ġslightest": 6092,
    "Ġmomentous": 16168,
    "Ġinterrupting": 19556,
    "Ġshall": 1140,
    "Ġreliability": 22876,
    "Ġswelling": 11923,
    "Ġrippling": 17277,
    "Ġredu": 1356,
    "voyages": 24855,
    "Ġjoes": 19230,
    "Ġhumane": 11882,
    "ishness": 22339,
    "doubtless": 17002,
    "abode": 21788,
    "Ġhand": 859,
    "Ġscream": 5934,
    "Ġshower": 11708,
    "Ġinvariably": 8063,
    "Ġsparing": 22122,
    "scrape": 25698,
    "Ġloveliest": 20260,
    "Ġarticulated": 24433,
    "Ġforegoing": 23448,
    "corpse": 24486,
    "concerning": 9067,
    "Ġclout": 22344,
    "mews": 22711,
    "Ġbreast": 8968,
    "Ġbrothers": 13174,
    "nearly": 8680,
    "Ġinstrument": 7118,
    "fl": 3601,
    "pus": 3413,
    "Ġfedallah": 6108,
    "Ġapprehending": 26090,
    "Ġdiminished": 16665,
    "Ġgros": 14822,
    "objection": 19914,
    "Ġofficer": 6753,
    "oqu": 7555,
    "afterwards": 7484,
    "Ġfelix": 4848,
    "Ġcheered": 16367,
    "Ġfearless": 9874,
    "Ġexpressly": 16453,
    "equal": 14992,
    "ĠĠĠĠĠĠĠĠĠĠĠĠ": 12900,
    "Ġfilling": 13407,
    "appeared": 4282,
    "kingly": 20938,
    "Ġportable": 19368,
    "Ġfirmest": 16664,
    "Ġ107": 24415,
    "Ġintimacy": 8700,
    "Ġharshly": 25249,
    "Ġwebster": 20160,
    "Ġpuffing": 12252,
    "razor": 21634,
    "Ġundone": 24118,
    "Ġshouted": 5347,
    "plan": 15812,
    "Ġexordium": 26492,
    "test": 13791,
    "ism": 4874,
    "oning": 7572,
    "Ġpierced": 12279,
    "simply": 20669,
    "Ġ123": 24468,
    "Ġtrades": 8231,
    "keeping": 8634,
    "clim": 18929,
    "Ġyounger": 5252,
    "cked": 2762,
    "sis": 1870,
    "Ġpel": 17904,
    "Ġturkish": 12259,
    "Ġscatter": 18397,
    "Ġwretched": 4084,
    "Ġeyelids": 26107,
    "Ġpace": 9183,
    "beholding": 16039,
    "mbly": 9794,
    "Ġrecommending": 24337,
    "Ġpitches": 23899,
    "gaz": 20877,
    "rador": 19158,
    "igated": 15704,
    "lashed": 20953,
    "mer": 2833,
    "Ġextend": 18686,
    "Ġebb": 21621,
    "Ġcigars": 12250,
    "Ġbecalmed": 18086,
    "Ġchanged": 5243,
    "achalot": 15859,
    "Ġsolitary": 5854,
    "Ġcocaine": 20720,
    "Ġwallow": 19464,
    "res": 2759,
    "Ġcandidates": 4334,
    "elab": 21567,
    "Ġstoop": 16308,
    "Ġenlist": 21933,
    "Ġwhitish": 24866,
    "iner": 2673,
    "iliary": 21723,
    "elling": 5830,
    "Ġevenings": 18753,
    "Ġgroup": 2037,
    "Ġimpress": 6862,
    "Ġflowing": 14410,
    "Ġtowering": 16739,
    "viating": 14579,
    "Ġstiffest": 24829,
    "Ġaz": 9629,
    "Ġacquiesced": 25493,
    "Ġdepicted": 14283,
    "Ġnot": 413,
    "autumn": 23339,
    "Ġweight": 659,
    "Ġperplexed": 23657,
    "rative": 17652,
    "Ġmeridian": 25714,
    "Ġchin": 4891,
    "Ġsombre": 18859,
    "heeded": 13833,
    "ampl": 21845,
    "Ġfeverish": 11348,
    "slowly": 9088,
    "Ġreconcile": 25291,
    "Ġcabaco": 13166,
    "leman": 21366,
    "ages": 828,
    "Ġtu": 6968,
    "Ġinj": 4760,
    "Ġdecreed": 18484,
    "coming": 3562,
    "penn": 18826,
    "Ġtrop": 7565,
    "Ġmiss": 1229,
    "Ġtechnique": 2598,
    "wicked": 24449,
    "Ġbidden": 24646,
    "Ġhuman": 1318,
    "Ġboughs": 20487,
    "Ġcap": 2363,
    "Ġtacit": 21173,
    "Ġwhirl": 13448,
    "Ġannouncing": 16754,
    "Ġorange": 8486,
    "Ġat": 395,
    "_),": 7125,
    "vers": 1326,
    "Ġtinkling": 25212,
    "Ġadviser": 25312,
    "Ġsulkily": 25882,
    "reflect": 19864,
    "Ġdesires": 9456,
    "ignation": 11128,
    "lour": 15379,
    "avating": 18606,
    "ildad": 3529,
    "Ġeigenvalues": 4998,
    "Ġinvolves": 1073,
    "Ġsouthwards": 19632,
    "Ġarmed": 9259,
    "inst": 4296,
    "ickory": 22666,
    "Ġpupella": 20420,
    "Ġhyp": 3875,
    "Ġdames": 23472,
    "Ġfreshets": 25705,
    "kward": 6958,
    "Ġwinged": 16995,
    "sweetly": 25134,
    "acher": 6867,
    "Ġagony": 5388,
    "Ġunflinching": 26512,
    "boilers": 26297,
    "while": 2936,
    "Ġ1839": 20458,
    "Ġdoubted": 7965,
    "Ġschol": 17376,
    "_,âĢĻ": 12431,
    "tottenham": 25418,
    "Ġpreface": 18367,
    "Ġadoption": 24948,
    "ued": 7561,
    "scru": 16238,
    "Ġtener": 21162,
    "Ġaff": 1115,
    "Ġundoubtedly": 8312,
    "Ġenlarged": 25985,
    "Ġpurport": 14581,
    "Ġexec": 19491,
    "emotion": 21927,
    "score": 18849,
    "mblance": 7323,
    "Ġwill": 680,
    "na": 13759,
    "Ġwrig": 13065,
    "Ä": 133,
    "Ġhaven": 8473,
    "Ġunpleasant": 7191,
    "Ġsits": 10768,
    "Ġdisappearance": 9296,
    "Ġsteel": 3891,
    "Ġphrase": 11187,
    "Ġportions": 19367,
    "Ġunsettled": 14122,
    "Ġpapered": 20129,
    "Ġintentionally": 24523,
    "mechanical": 25578,
    "stairs": 5155,
    "Ġconsort": 18723,
    "Ġchairs": 12823,
    "Ġinjection": 3465,
    "Ġsublim": 19965,
    "Ġshad": 3852,
    "drifting": 19823,
    "Ġlent": 21544,
    "Ġ9": 5900,
    "Ġpedro": 14994,
    "omy": 6248,
    "Ġceased": 6468,
    "distraction": 24200,
    "Ġrides": 21968,
    "Ġforcing": 3222,
    "Ġinsignificance": 20456,
    "Ġsuddenness": 23380,
    "Ġdisliked": 12888,
    "Ġmastiff": 23723,
    "accomp": 10455,
    "Ġslang": 23157,
    "Ġcapacious": 19175,
    "Ġimputed": 12804,
    "Ġimpenit": 22385,
    "oblig": 16289,
    "Ġflashing": 13025,
    "Ġey": 8134,
    "irement": 18355,
    "eries": 6808,
    "dwell": 15340,
    "nel": 11504,
    "Ġtraffic": 23080,
    "Ġbohemian": 17133,
    "impregn": 21711,
    "Ġcastaway": 16640,
    "changed": 7175,
    "Ġsuburban": 17345,
    "headed": 4319,
    "nns": 1892,
    "Ġbeloved": 5572,
    "bul": 6951,
    "Ġofficers": 4425,
    "sterns": 23366,
    "plish": 18200,
    "Ġethiopian": 26613,
    "Ġmalays": 19676,
    "ive": 426,
    "Ġascended": 8665,
    "Ġorgies": 18285,
    "opotam": 22476,
    "ate": 421,
    "perceived": 8858,
    "oped": 6046,
    "Ġswayed": 15047,
    "aled": 3945,
    "Ġunlabeled": 3802,
    "Ġauthorized": 16735,
    "Ġsanctified": 25883,
    "Ġbefall": 8828,
    "studies": 25166,
    "Ġsymbolize": 24960,
    "Ġgreat": 896,
    "spect": 3230,
    "Ġpuzzled": 7317,
    "Ġcreep": 22722,
    "corn": 13698,
    "type": 16175,
    "Ġdaw": 21427,
    "Ġfastening": 16355,
    "Ġindisp": 18833,
    "Ġpicturesque": 14893,
    "Ġdescent": 989,
    "Ġdictating": 20151,
    "Ġposture": 24164,
    "appro": 7044,
    "Ġmagazine": 23097,
    "ific": 490,
    "Ġfat": 3460,
    "inno": 10756,
    "mem": 10709,
    "Ġoct": 10158,
    "daring": 20828,
    "Ġpull": 5152,
    "unwillingness": 25802,
    "Ġstunsail": 25543,
    "Ġgrasp": 4663,
    "Ġpursu": 3237,
    "Ġsleepless": 14582,
    "uits": 21103,
    "Ġuniversal": 2230,
    "Ġresented": 22540,
    "ladyship": 14828,
    "Ġdollars": 11455,
    "Ġfled": 6670,
    "Ġpike": 12620,
    "Ġprinces": 23222,
    "Ġspiracle": 14149,
    "Ġmissionary": 25696,
    "Ġderick": 9363,
    "Ġunworthy": 11713,
    "Ġseasons": 9430,
    "cool": 19187,
    "considerably": 13444,
    "]]": 5205,
    "viii": 12019,
    "utarch": 15659,
    "Ġvolat": 24144,
    "canoes": 16228,
    "Ġhydraulic": 10063,
    "de": 459,
    "Ġhose": 12624,
    "Ġ93": 24591,
    "Ġ36": 14766,
    "Ġrucastle": 5176,
    "Ġspitzbergen": 15286,
    "py": 17624,
    "idual": 1561,
    "silent": 9973,
    "father": 3779,
    "Ġdepartments": 24242,
    "Ġottoman": 17377,
    "eties": 10837,
    "Ġprofundities": 20452,
    "Ġerect": 6143,
    "Ġapplicable": 19015,
    "Ġsulky": 13514,
    "intervals": 10637,
    "Ġpalsied": 25779,
    "repeated": 12337,
    "atered": 22004,
    "along": 6012,
    "Ġcelest": 9900,
    "Ġimpartial": 15218,
    "alter": 10826,
    "Ġbarren": 11206,
    "Ġestimate": 19371,
    "Ġvehement": 16200,
    "steaks": 23958,
    "Ġtemporary": 7980,
    "Ġcoincidence": 25483,
    "Ġforgot": 4683,
    "Ġsurpass": 13582,
    "vict": 11540,
    "shaven": 18499,
    "allet": 11082,
    "ouraged": 22857,
    "minute": 11274,
    "hon": 6793,
    "principle": 10650,
    "Ĺ": 250,
    "Ġarisen": 11741,
    "Ġabaft": 22271,
    "Ġspecially": 11996,
    "Ġfavourite": 5270,
    "atives": 2232,
    "Ġnarwhales": 24902,
    "Ġfourth": 7706,
    "Ġwhar": 7388,
    "Ġperson": 2369,
    "rie": 2787,
    "Ġdignified": 15595,
    "inations": 7567,
    "Ġenslaved": 26314,
    "Ġquenched": 22414,
    "collar": 19327,
    "gon": 17552,
    "Ġcomputational": 1624,
    "Ġsigma": 1540,
    "Ġregards": 16078,
    "Ġspringing": 10518,
    "conjecture": 15121,
    "Ġobservable": 25126,
    "Ġdig": 6135,
    "Ġexceeding": 1581,
    "marked": 9048,
    "ult": 722,
    "Ġinvite": 14563,
    "pitching": 24075,
    "Ġdrags": 16941,
    "Ġflooring": 23622,
    "rogress": 21533,
    "Ġcanallers": 13626,
    "oring": 1859,
    "ien": 10101,
    "Ġcampaign": 20660,
    "Ġemper": 9860,
    "Ġpassages": 12967,
    "hush": 20905,
    "Ġoverhanging": 22359,
    "Ġjonas": 20608,
    "Ġregal": 16077,
    "Ġjunk": 15951,
    "Ġoblivion": 26031,
    "given": 8376,
    "Ġhoof": 23351,
    "preserving": 25304,
    "resting": 23233,
    "Ġappalled": 22215,
    "icilian": 20690,
    "Ġreserved": 7515,
    "Ġdependencies": 2315,
    "Ġ**": 4720,
    "Ġabroad": 8865,
    "Ġoverlooking": 22355,
    "Ġunprinciple": 18254,
    "Ġtraitors": 23075,
    "Ġchaos": 17009,
    "Ġexercising": 19906,
    "understand": 1133,
    "ething": 1602,
    "agings": 18165,
    "Ġlestrade": 5825,
    "Ġunfortunately": 10909,
    "thus": 5158,
    "accomplishment": 20222,
    "stern": 8444,
    "Ġjeopard": 9942,
    "unlike": 18156,
    "Ġtired": 9149,
    "ugues": 19019,
    "Ġdiscrimin": 2546,
    "soo": 18687,
    "ta": 13788,
    "irably": 13294,
    "Ġkeys": 11995,
    "Ġjoint": 12032,
    "admit": 18090,
    "itan": 10159,
    "shone": 22452,
    "Ġdishon": 12228,
    "ement": 1503,
    "Ġfulfil": 9550,
    "ented": 4349,
    "everlasting": 18771,
    "Ġconsummation": 17424,
    "acceler": 23597,
    "tered": 2227,
    "Ġ47": 14770,
    "Ġcommand": 3320,
    "Ġreadability": 2726,
    "ĠâĢľ_": 6696,
    "Ġanalyze": 1643,
    "Ġsupreme": 13606,
    "Ġarchitect": 978,
    "Ġideas": 5494,
    "sky": 12508,
    "Ġaston": 3703,
    "Ġber": 5698,
    "Ġgoverned": 23570,
    "times": 8098,
    "Ġex": 361,
    "Ġlumber": 13951,
    "Ġribs": 7101,
    "Ġbidding": 9536,
    "Ġloss": 822,
    "seized": 14034,
    "Ġhunsford": 6301,
    "concluded": 11243,
    "Ġsolitude": 6876,
    "Ġstiggs": 25792,
    "Ġexclamation": 8698,
    "Ġbulb": 23852,
    "Ġnetwork": 451,
    "Ġrealistic": 5860,
    "Ġchr": 3690,
    "Ġincidents": 9298,
    "her": 488,
    "stars": 18019,
    "Ġloggerhead": 13656,
    "bride": 19199,
    "Ġbully": 23853,
    "Ġrevenge": 5452,
    "ex": 623,
    "huzza": 20912,
    "Ġtormented": 8674,
    "embarr": 15796,
    "Ġaffright": 9331,
    "Ġminimum": 23039,
    "Ġcocain": 18595,
    "Ġdiscovers": 4427,
    "Ġfossiliferous": 25609,
    "nep": 20985,
    "eteenth": 20156,
    "Ġremoved": 5274,
    "Ġrepute": 18034,
    "aspect": 10193,
    "jur": 17578,
    "Ġwal": 6517,
    "Ġcrisis": 13125,
    "Ġschedules": 3385,
    "Ġindifference": 6725,
    "july": 20473,
    "Ġskul": 22794,
    "Ġscaramouch": 23824,
    "injustice": 17737,
    "Ġsteersman": 13039,
    "estic": 4956,
    "henry": 16625,
    "Ġluxurious": 17310,
    "including": 23589,
    "iny": 4295,
    "girls": 12317,
    "started": 10845,
    "Ġquality": 3525,
    "striving": 24669,
    "Ġpatronage": 17053,
    "establishment": 26113,
    "Ġchosen": 7201,
    "Ġgentlemanly": 19315,
    "onze": 21254,
    "imitably": 21708,
    "Ġestablished": 9069,
    "Ġdoctors": 12149,
    "cloth": 11935,
    "Ġdispatched": 23879,
    "cul": 1898,
    "Ġrecumbent": 22733,
    "asht": 4087,
    "Ġarms": 3969,
    "Ġalche": 21780,
    "Ġcircumnavigating": 25614,
    "Ġunob": 22012,
    "Ġgravesend": 15215,
    "assisted": 22304,
    "ø": 185,
    "Ġindolence": 16226,
    "evidently": 20344,
    "Ġ99": 10745,
    "hitherto": 17283,
    "clump": 23153,
    "Ġslaugh": 18937,
    "Ġ1991": 3016,
    "Ġunanswerable": 26521,
    "Ġconveyed": 8334,
    "ety": 3518,
    "countless": 24150,
    "Ġrefused": 6715,
    "Ġcultured": 25154,
    "Ġgreenhorn": 23766,
    "enchanted": 26424,
    "Ġamiss": 18512,
    "Ġlowers": 23239,
    "accounted": 16500,
    "Ġreappearance": 21664,
    "Ġmatrimonial": 25489,
    "Ġbeings": 2489,
    "Ġnind": 17949,
    "inders": 15978,
    "declined": 25174,
    "ober": 15405,
    "Ġunintellig": 22023,
    "descend": 23082,
    "Ġglimmering": 25240,
    "Ġuncont": 14115,
    "Ġparallel": 1413,
    "Ġcupboard": 16883,
    "Ġderision": 16307,
    "Ġharb": 7370,
    "Ġsummary": 19401,
    "Ġsluggishly": 25891,
    "clearer": 24067,
    "erxes": 21274,
    "Ġcus": 21341,
    "Ġruff": 14348,
    "Ġloves": 10915,
    "Ġcongratulatory": 19766,
    "Ġdistinctions": 18535,
    "Ġgracious": 8846,
    "Ġprincipally": 11309,
    "Ġconversation": 3328,
    "azine": 19130,
    "Ġfangs": 12594,
    "health": 13832,
    "took": 6164,
    "spe": 3560,
    "Ġtigers": 25758,
    "Ġener": 10896,
    "Ġcalmer": 23041,
    "Ġsigmoid": 2461,
    "Ġle": 333,
    "Ġlend": 17962,
    "atics": 15521,
    "unnecessary": 21877,
    "murder": 10564,
    "Ġhit": 7163,
    "Ġwalk": 1824,
    "Ġcherub": 23284,
    "embow": 21928,
    "rodden": 21532,
    "Ġrosy": 18459,
    "forming": 15913,
    "Ġgoes": 3855,
    "Ġcorroded": 18875,
    "Ġenter": 4033,
    "Ġimpregnable": 26023,
    "Ġfresh": 3672,
    "opard": 9290,
    "depths": 25663,
    "Ġterrors": 6918,
    "Ġjoints": 12033,
    "batch": 1982,
    "elder": 21569,
    "Ġaccompany": 9486,
    "Ġrattle": 10899,
    "ulged": 12727,
    "Ġpagoda": 19787,
    "gazing": 12469,
    "Ġwhir": 6393,
    "Ġtradesmen": 17105,
    "Ġenchant": 7185,
    "Ġdramat": 23217,
    "Ġmayhew": 12947,
    "pleasure": 5977,
    "hered": 5623,
    "##": 2317,
    "Ġwond": 3940,
    "Ġchilled": 18382,
    "ign": 1702,
    "Ġoutsk": 15954,
    "Ġduring": 872,
    "Ġsore": 10764,
    "Ġelegance": 11332,
    "sex": 12710,
    "Ġproblems": 2849,
    "Ġsuperb": 16444,
    "Ġslapped": 23169,
    "skeleton": 17375,
    "called": 6292,
    "recurrent": 4994,
    "Ġpercept": 14223,
    "Ġfactory": 23274,
    "Ġabound": 8863,
    "hens": 3938,
    "easily": 17534,
    "Ġreads": 23110,
    "topp": 22563,
    "Ġ1820": 25718,
    "fre": 5425,
    "Ġexhale": 24402,
    "labours": 16617,
    "Ġquadruped": 17458,
    "square": 15059,
    "Ġrain": 5005,
    "Ġsodden": 25535,
    "Ġwhole": 1662,
    "earliest": 20118,
    "Ġindefatigable": 17177,
    "proud": 9903,
    "Ġscalding": 16317,
    "Ġpaddock": 25037,
    "Ġnightfall": 23127,
    "Ġexclusion": 19394,
    "comes": 5394,
    "vedale": 22707,
    "slee": 17168,
    "Ġimprecate": 20516,
    "Ġrealised": 18980,
    "groom": 8739,
    "Ġdelights": 14596,
    "pans": 13769,
    "glim": 19363,
    "Ġbenef": 3487,
    "Ġboisterous": 20441,
    "Ġshadowed": 24044,
    "{": 95,
    "Ġtorrid": 25032,
    "iloquent": 21722,
    "ental": 7168,
    "Ġimportance": 4900,
    "Ġboot": 11837,
    "breeze": 20561,
    "Ġstream": 5186,
    "Ġalleg": 14016,
    "Ġaffront": 18786,
    "Ġdefect": 8554,
    "stand": 630,
    "iel": 11493,
    "Ġpal": 4045,
    "Ġbetake": 22902,
    "ben": 4926,
    "obliged": 20630,
    "Ġcalhoun": 23042,
    "Ġsuit": 5725,
    "warmest": 25027,
    "rived": 5373,
    "Ġflow": 1240,
    "Ġreappeared": 21662,
    "Ġobe": 5800,
    "C": 39,
    "depend": 9112,
    "âĢĺ": 940,
    "Ġnour": 10830,
    "Ġexamination": 8004,
    "sac": 7140,
    "Ġungrateful": 14120,
    "Ġbernard": 20683,
    "Ġfellow": 2777,
    "rian": 10241,
    "Ġmbpp": 21320,
    "plex": 712,
    "Ġmilan": 19534,
    "!": 5,
    "Ġnursery": 19749,
    "Ġwhere": 784,
    "oquent": 12497,
    "Ġlewis": 15722,
    "Ġuncontrollable": 25814,
    "Ġbackbones": 22649,
    "ess": 409,
    "scratch": 26042,
    "awful": 23112,
    "abby": 14020,
    "uzzle": 19582,
    "wrong": 13205,
    "Ġlodger": 24092,
    "Ġpam": 21452,
    "Ġcurses": 13019,
    "ispiece": 19724,
    "iastic": 12477,
    "Ġspeak": 2226,
    "Ġplainly": 4381,
    "Ġbroadway": 23981,
    "Ġincred": 5646,
    "Ġgabriel": 7595,
    "baned": 17495,
    "weep": 22681,
    "slackened": 26094,
    "Ġtransparent": 9488,
    "Ġingenuity": 17163,
    "Ġconvers": 2907,
    "opius": 18508,
    "church": 8139,
    "isted": 3298,
    "asy": 5294,
    "Ġphant": 7055,
    "royal": 11393,
    "Ġnoises": 18374,
    ")âĢĶ": 20741,
    "Ġapply": 1776,
    "Ġtarts": 10753,
    "death": 6261,
    "Ġcoast": 4655,
    "Ġglad": 3324,
    "Ġtolerably": 8067,
    "Ġdesol": 6881,
    "Ġanswering": 7477,
    "indef": 17735,
    "Ġconcerns": 11965,
    "usiveness": 22290,
    "winter": 10740,
    "remed": 18952,
    "Ġburgl": 13172,
    "Ġplying": 17913,
    "Ġjoll": 11763,
    "Ġtravels": 11925,
    "Ġannealing": 1554,
    "Ġarea": 14186,
    "Ġunbounded": 18259,
    "Ġelegant": 7532,
    "Ġomens": 21326,
    "deceit": 25556,
    "Ġflattering": 13026,
    "gast": 20870,
    "ruding": 9723,
    "frock": 20119,
    "retrospect": 23133,
    "Ġcommunic": 5751,
    "despatched": 19800,
    "Ġmagnitudes": 3824,
    "Ġtolland": 24988,
    "Ġprognost": 15280,
    "Ġupward": 9720,
    "lynes": 15701,
    "everywhere": 23696,
    "iss": 2174,
    "Ġgrasshopper": 24380,
    "Ġsquatted": 25841,
    "ibles": 18784,
    "Ġwitnessing": 19597,
    "cery": 20807,
    "way": 764,
    "Ġpropriety": 10009,
    "ouncement": 11743,
    "scans": 22979,
    "Ġboston": 22635,
    "Ġswim": 3822,
    "Ġencouragement": 13040,
    "Ġconfeder": 25708,
    "Ġcareful": 2614,
    "itional": 22465,
    "inking": 6709,
    "Ġperseverance": 13596,
    "Ġunde": 11710,
    "Ġfunere": 22256,
    "sometimes": 5971,
    "chamber": 13624,
    "approached": 13484,
    "Ġsearch": 2591,
    "Ġtie": 10750,
    "Ġrece": 11637,
    "inconsiderable": 21190,
    "writ": 16552,
    "una": 21866,
    "avery": 13682,
    "Ġgarn": 13962,
    "Ġscandal": 9081,
    "Ġirrad": 19093,
    "Ġfelt": 1746,
    "Ġwing": 6665,
    "aviour": 11005,
    "towards": 5002,
    "Ġbutterfly": 19909,
    "Ġcategorization": 12134,
    "pun": 9617,
    "Ġdragging": 14476,
    "official": 24914,
    "Ġdrag": 6184,
    "Ġtahit": 10754,
    "Ġrespond": 11176,
    "Ġsm": 704,
    "Ġstuffed": 13408,
    "akin": 11765,
    "addition": 13383,
    "Ġancestors": 25642,
    "Ġartist": 12909,
    "Ġhabit": 6771,
    "angs": 5834,
    "screwed": 17187,
    "less": 927,
    "acked": 10973,
    "Ġbelly": 10369,
    "shine": 9288,
    "Ġmisanthrop": 22756,
    "Ġhams": 16612,
    "Ġmisunderstand": 18704,
    "ucumber": 19056,
    "Ġdevouring": 11856,
    "swell": 17663,
    "Ġnobody": 6158,
    "Ġintricacies": 15137,
    "Ġprivate": 5345,
    "ĠĠĠĠĠĠĠĠĠĠĠĠĠĠĠĠĠĠĠĠĠĠĠĠĠĠĠĠĠĠĠĠĠ": 12041,
    "Ġcele": 9899,
    "Ġimper": 4500,
    "Ġworrying": 22924,
    "Ġbetween": 790,
    "Ġsom": 1274,
    "Ġvect": 1223,
    "Ġwalked": 3141,
    "Ġcabinets": 23859,
    "asible": 21539,
    "Ġlevi": 3034,
    "thrusting": 20258,
    "Ġanteced": 26177,
    "Ġlanded": 7469,
    "appointment": 24058,
    "Ġwitnesses": 9485,
    "idirection": 2411,
    "noon": 5037,
    "gloves": 25143,
    "icking": 8910,
    "ids": 21760,
    "Ġdang": 9174,
    "Ġunduly": 25994,
    "Ġdaresay": 14703,
    "Ġthere": 564,
    "Ġwards": 17789,
    "Ġappro": 658,
    "Ġyonder": 7392,
    "Ġfatigued": 13464,
    "Ġsecrets": 9054,
    "Ġexploded": 15907,
    "Ġconstrain": 2632,
    "Ġlinks": 13954,
    "Ġnatural": 1132,
    "dining": 13704,
    "Ġinaudible": 21496,
    "tale": 10127,
    "bene": 6112,
    "Ġporing": 21465,
    "pets": 17636,
    "thirst": 15823,
    "Ġfacts": 2290,
    "bted": 7793,
    "ipping": 2204,
    "complain": 14357,
    "Ġvineyards": 25106,
    "Ġalgorithms": 856,
    "infl": 15486,
    "secured": 16938,
    "Ġdreamt": 23936,
    "rib": 1945,
    "Ġost": 9649,
    "arctic": 12607,
    "Ġterms": 2564,
    "Ġbesides": 3511,
    "Ġabilities": 8866,
    "Ġworlds": 11945,
    "Ġmarlingspike": 26579,
    "Ġbrowne": 13300,
    "dawson": 26128,
    "Ġreverence": 12057,
    "Ġwinds": 5746,
    "Ġspool": 24806,
    "ppers": 7617,
    "deliberated": 26118,
    "Ġcurvature": 3575,
    "Ġwakes": 11571,
    "Ġthird": 4188,
    "Ġsafety": 6339,
    "13": 20749,
    "Ġcasks": 7521,
    "Ġthro": 5817,
    "hyp": 15365,
    "Ġlayer": 1014,
    "Ġpause": 5707,
    "Â": 131,
    "Ġlaud": 17967,
    "Ġworthless": 19564,
    "ared": 770,
    "Ġobtained": 7432,
    "Ġrefres": 14342,
    "pendicular": 6499,
    "occupations": 24964,
    "Ġsatisfying": 23695,
    "Ġbegat": 18862,
    "about": 3588,
    "Ġglass": 4369,
    "Ġwaves": 3920,
    "consent": 18503,
    "Ġmistaken": 4986,
    "commodore": 20624,
    "Ġstript": 23692,
    "magnifying": 25392,
    "oses": 3947,
    "Ġseer": 21956,
    "Ġbarricade": 14660,
    "Ġ182": 13235,
    "drive": 8682,
    "big": 13684,
    "Ġhealthy": 10851,
    "Ġdisquiet": 18552,
    "?_": 8069,
    "uneven": 23683,
    "Ġpersonality": 16476,
    "Ġhoped": 5488,
    "Ġash": 4832,
    "inferences": 17739,
    "Ġmessage": 13522,
    "iscreet": 20681,
    "Ġconducting": 16649,
    "happiest": 19331,
    "aying": 15746,
    "Ġovercame": 9745,
    "Ġsadder": 24050,
    "orse": 5806,
    "estion": 18362,
    "smitten": 23906,
    "Ġminiatures": 20320,
    "Ġplayed": 9415,
    "Ġportcullis": 26603,
    "Ġinstability": 3815,
    "ote": 4595,
    "Ġillum": 9399,
    "Ġfootfalls": 25866,
    "liberal": 26281,
    "Ġyore": 21775,
    "stepfather": 19190,
    "Ġwakeful": 24266,
    "Ġloving": 8175,
    "che": 3171,
    "Ġprogeny": 17387,
    "Ġhumble": 8551,
    "Ġshy": 10903,
    "Ġbox": 5109,
    "Ġbiographical": 22765,
    "Ġ0": 1901,
    "Ġcottage": 4733,
    "raged": 9211,
    "antingly": 22095,
    "za": 13809,
    "Ġsugg": 4498,
    "Ġapprobation": 10985,
    "Ġdistressed": 8514,
    "cherish": 24552,
    "rrh": 26144,
    "Ġmurmuring": 23578,
    "Ġjewell": 19519,
    "Ġreel": 9213,
    "sides": 12505,
    "fitters": 24761,
    "Ġrats": 21970,
    "Ġfinery": 23122,
    "o": 83,
    "racted": 4776,
    "Ġhide": 4588,
    "Ġimpotent": 18446,
    "Ġtobacco": 8366,
    "reproof": 25432,
    "Ġattacks": 12202,
    "Ġtradeoff": 2661,
    "rights": 23670,
    "susp": 10596,
    "idered": 4551,
    "rig": 7556,
    "Ġdepartment": 24241,
    "call": 8722,
    "Ġindistinctly": 26117,
    "rating": 7808,
    "grant": 10427,
    "Ġdeuteronomy": 15757,
    "û": 188,
    "ivided": 22077,
    "charitable": 23930,
    "Ġsunda": 13543,
    "period": 15898,
    "Ġrummaged": 16910,
    "surgeon": 24214,
    "Ġruined": 12951,
    "Ġflock": 21409,
    "Ġslyness": 25266,
    "tery": 14036,
    "Ġshoved": 23490,
    "Ġunc": 2124,
    "Ġinclu": 1101,
    "Ġreplacing": 3448,
    "Ġcomforts": 14693,
    "Ġencouraged": 9354,
    "Ġwrists": 11113,
    "concerned": 24638,
    "Ġhoisting": 9861,
    "Ġlat": 5087,
    "plete": 10919,
    "lake": 13748,
    "Ġspirits": 3699,
    "Ġblanket": 8342,
    "further": 7535,
    "Ġcannibals": 10587,
    "Ġhos": 4942,
    "Ġ[_": 15460,
    "Ġwigwam": 11428,
    "inferiors": 25346,
    "Ġpausing": 8652,
    "Ġczar": 12571,
    "especially": 3574,
    "stayed": 25290,
    "\\": 64,
    "Ġvelocity": 10620,
    "Ġpiece": 5367,
    "Ġintercept": 14271,
    "Ġquite": 1741,
    "Ġproposed": 7460,
    "Ġfacet": 15582,
    "Ġunderneath": 16337,
    "Ġthickness": 13276,
    "Ġsmothe": 18574,
    "Ġaccompanied": 6780,
    "Ġkelson": 18350,
    "Ġhip": 17920,
    "Ġextravag": 11254,
    "etrics": 21582,
    "ording": 9763,
    "shortly": 12256,
    "Ġmathematical": 3349,
    "Ġhull": 5446,
    "Ġseats": 14088,
    "Ġuns": 15834,
    "zza": 24167,
    "Ġstraw": 9428,
    "Ġfavoured": 16359,
    "Ġpapa": 10656,
    "Ġskrimshander": 22797,
    "fa": 7336,
    "Ġsaintsbury": 26372,
    "inform": 10143,
    "bit": 3933,
    "Ġmetaphys": 16405,
    "ivance": 22074,
    "Ġshrunk": 16718,
    "Ġprospect": 4705,
    "Ġperiodical": 14771,
    "met": 6652,
    "osoever": 17342,
    "urpr": 2289,
    "Ġbelief": 5855,
    "Ġtongs": 9960,
    "Ġreciprocating": 26369,
    "Ġviciously": 24404,
    "ĠĠĠĠĠĠĠĠĠĠĠĠĠĠĠĠĠĠĠĠĠĠĠĠĠĠĠĠĠĠĠĠĠĠĠĠĠĠĠĠ": 4515,
    "Ġdegraded": 19226,
    "Ġtrout": 22340,
    "Ġcabin": 3302,
    "Ġcondesc": 7181,
    "arab": 21439,
    "advise": 24217,
    "Ġantique": 19550,
    "Ġconstrained": 19239,
    "Ġpreluding": 18368,
    "Ġjury": 5378,
    "Ġdismally": 20213,
    ".]": 15297,
    "Ġaffecting": 2326,
    "Ġuse": 854,
    "ellect": 7381,
    "Ġgeneric": 18448,
    "ag": 377,
    "Ġcounsell": 25384,
    "Ġrobustness": 18888,
    "clifford": 23155,
    "rusted": 16506,
    "Ġstarry": 16923,
    "Ġjudge": 5502,
    "Ġshapeless": 24524,
    "Ġvex": 5948,
    "aret": 7417,
    "Ġgrace": 5374,
    "anders": 18152,
    "Ġindividually": 22954,
    "older": 15753,
    "quite": 4646,
    "Ġaval": 15492,
    "Ġcranes": 20381,
    "book": 4669,
    "Ġstripping": 23694,
    "Ġshortly": 6196,
    "regards": 23465,
    "christmas": 20254,
    "kitchen": 17585,
    "Ġfaith": 5350,
    "Ġcoward": 7155,
    "Ġupset": 22150,
    "Ġices": 21153,
    "Ġnowadays": 18546,
    "Ġabiding": 22267,
    "Ġsatisf": 2807,
    "Ġintact": 21986,
    "Ġinquis": 19303,
    "ificent": 8183,
    "biting": 20779,
    "Ġresignation": 18566,
    "Ġanomalously": 25638,
    "Ġtweezers": 26556,
    "Ġdinnertime": 16719,
    "agement": 4189,
    "Ġserpent": 6737,
    "Ġ/*": 10139,
    "Ġreduces": 2345,
    "Ġpurchas": 19873,
    "rossing": 18639,
    "Ġmanipulation": 10658,
    "throt": 25659,
    "Ġmulti": 1046,
    "anthrop": 17381,
    "Ġcouch": 12568,
    "cursed": 23840,
    "Ġhud": 10822,
    "hold": 3985,
    "Ġpositions": 2056,
    "Ĩ": 233,
    "awakened": 14452,
    "Ġdecoding": 3082,
    "Ġstud": 1560,
    "Ġfamed": 16326,
    "Ġcathedral": 17412,
    "Ġknock": 9972,
    "Ġstudded": 18958,
    "Ġrock": 5310,
    "uv": 6229,
    "Ġtrag": 13037,
    "Ġwasted": 9703,
    "Ġshaken": 10264,
    "Ġsteady": 4847,
    "Ġvalu": 5038,
    "Ġreproach": 9556,
    "Ġprof": 2459,
    "Ġobliging": 13241,
    "Ġble": 5223,
    "Ġprecautions": 23725,
    "Ġinfatuation": 25856,
    "!âĢĶ": 2453,
    "Ġ150": 22824,
    "Ġvelv": 10619,
    "Ġvacancy": 9044,
    "Ġundoing": 22032,
    "soft": 12507,
    "istan": 22105,
    "attachment": 13049,
    "Ġwidth": 16772,
    "Ġachieve": 3675,
    "ilar": 10215,
    "Ġaft": 5737,
    "Ġlinear": 3431,
    "sufferable": 12174,
    "recollected": 25347,
    "valley": 16212,
    "Ġpaces": 13918,
    "Ġfootpath": 19337,
    "Ġhus": 3093,
    "Ġagencies": 18542,
    "haps": 1670,
    "Ġdesire": 3718,
    "Ġproxim": 3198,
    "Ġaristotle": 25817,
    "goldsmith": 20146,
    "Ġseeth": 21957,
    "earnestly": 17312,
    "Ġproportional": 2523,
    "Ġungover": 18255,
    "Ġcurrent": 13017,
    "Ġirritated": 17242,
    "Ġbending": 12582,
    "Ġunintermitted": 26219,
    "Ġincrust": 22548,
    "Ġknitting": 24218,
    "Ġcobbler": 25829,
    "Ġrounds": 18884,
    "suppose": 8644,
    "utes": 5913,
    "repeat": 25151,
    "10": 17472,
    "Ġupdating": 2692,
    "Ġforfeit": 21772,
    "erative": 21271,
    "Ġabide": 14187,
    "Ġru": 948,
    "vessels": 10625,
    "Ġdip": 13906,
    "Ġsty": 6251,
    "Ġalbino": 20501,
    "Ġinterposed": 20617,
    "Ġdesc": 771,
    "Ġq": 1086,
    "Ġdiamond": 15596,
    "Ġcraft": 4376,
    "Ġothers": 2584,
    "Ġexhibit": 14955,
    "Ġtides": 13820,
    "Ġoffended": 7040,
    "afternoon": 13186,
    "Ġjoy": 3183,
    "rigible": 24931,
    "adem": 21754,
    "Ġabutted": 22272,
    "Ġbennet": 1576,
    "Ġthief": 11609,
    "Ġharrow": 17925,
    "Ġtreat": 3175,
    "Ġholding": 4979,
    "Ġpermission": 9278,
    "Ġcordon": 24394,
    "pagan": 17285,
    "Ġclanging": 18423,
    "J": 46,
    "share": 14237,
    "Ġmott": 17803,
    "Ġheard": 1400,
    "Į": 239,
    "Ġreduce": 7942,
    "stubb": 6017,
    "dog": 10692,
    "uming": 8491,
    "garet": 9597,
    "Ġdocuments": 10022,
    "Ġcul": 17822,
    "Ġguide": 3213,
    "Ġamusing": 11798,
    "hollow": 24039,
    "itable": 5437,
    "Ġcontinental": 19704,
    "customary": 25895,
    ";âĢĿ": 7790,
    "phil": 7924,
    "Ġdistances": 22501,
    "swiftly": 20550,
    "Ġmuster": 16120,
    "anger": 2170,
    "Ġpound": 12613,
    "occup": 7752,
    "aws": 8236,
    "Ġproud": 5654,
    "their": 2541,
    "Ġparted": 5928,
    "Ġcusack": 26433,
    "Ġbackbone": 22648,
    "Ġbattered": 17862,
    "Ġam": 661,
    "ure": 356,
    "manner": 6170,
    "free": 8735,
    "utterly": 20010,
    "bering": 18681,
    "Ġmeridians": 17355,
    "farmer": 25899,
    "Ġderive": 10394,
    "sc": 1258,
    "Ġpersonages": 23539,
    "Ġhut": 15616,
    "Ġpresenting": 18987,
    "scap": 22980,
    "offing": 23329,
    "Ġfive": 2837,
    "terror": 18128,
    "Ġchose": 7413,
    "furn": 10091,
    "ites": 3900,
    "Ġlowering": 7986,
    "interests": 19707,
    "temper": 10003,
    "cut": 3124,
    "Ġins": 2781,
    "Ġcommotion": 9779,
    "Ġasph": 21895,
    "purse": 20023,
    "erce": 6126,
    "Ġconvenience": 11331,
    "Ġadmiral": 17304,
    "Ġrenounce": 19466,
    "Ġlot": 6678,
    "Ġprovince": 24189,
    "Ġlevels": 12695,
    "Ġjudiciously": 23876,
    "Ġpermit": 9748,
    "Ġdangerously": 23934,
    "Ġstrangeness": 16707,
    "Ġvagabond": 20202,
    "doms": 20834,
    "Ġpreparation": 13528,
    "thousands": 16872,
    "rity": 13775,
    "Ġstronger": 8578,
    "Ġlothario": 26184,
    "ian": 1239,
    "Ġactivations": 2722,
    "Ġapprehended": 26091,
    "Ġtransparency": 10676,
    "Ġcomposing": 16068,
    "Ġladder": 8597,
    "Ġflorid": 17135,
    "Ġpubl": 3941,
    "==": 945,
    "Ġimbu": 15885,
    "separation": 25226,
    "Ġannoyed": 17199,
    "Ġlikewise": 5386,
    "Ġdejection": 15195,
    "Ġplaned": 24054,
    "Ġsatisfy": 6912,
    "Ġpoetical": 25056,
    "bastian": 10673,
    "Ġlancaster": 26340,
    "Ġfeeble": 12282,
    "á": 162,
    "enet": 10152,
    "Ġoverjoy": 15970,
    "metals": 24766,
    "Ġtusks": 17253,
    "Ġmagistrate": 8233,
    "ribes": 23364,
    "conclusive": 25673,
    "Ġcoats": 16075,
    "Ġtranspointed": 22437,
    "say": 3987,
    "Ġextraordinary": 5414,
    "Ġcolour": 4460,
    "Ġwilds": 16508,
    "watching": 16930,
    "Ġseclusion": 18208,
    "Ġlandlord": 5581,
    "Ġsli": 4748,
    "luyt": 18454,
    "national": 20997,
    "Ġelevating": 19728,
    "inlaid": 21189,
    "Ġoblique": 20168,
    "Ġemploys": 19429,
    "Ġimmens": 9938,
    "lucases": 20209,
    "sister": 5139,
    "Ġjealousy": 13575,
    "Ġdreaming": 11223,
    "harrow": 20907,
    "erne": 21268,
    "wheeler": 16186,
    "Ġsettee": 22918,
    "uns": 21867,
    "Ġcoals": 16074,
    "irous": 8838,
    "elled": 4025,
    "approach": 24833,
    "Ġconduct": 3735,
    "ements": 11108,
    "hecy": 21205,
    "Ġsallies": 21228,
    "Ġmonsieur": 12419,
    "intellect": 18821,
    "Ġties": 12524,
    "Ġbeaufort": 13567,
    "li": 1188,
    "Ġfields": 2142,
    "ouring": 6420,
    "bro": 4038,
    "):": 11461,
    "bulwarks": 12270,
    "Ġspecks": 14304,
    "congenial": 25399,
    "Ġcertainly": 2496,
    "violets": 23542,
    "etent": 10199,
    "brÃ¦": 11175,
    "fish": 3513,
    "Ġfloating": 6604,
    "Ġseparating": 16685,
    "Ġabusing": 18393,
    "attention": 2109,
    "neat": 22445,
    "Ġoutskirts": 17456,
    "mindful": 19598,
    "darkness": 9511,
    "Ġform": 1025,
    "Ġproper": 1377,
    "local": 22507,
    "Ġseas": 3077,
    "Ġty": 6657,
    "again": 3397,
    "story": 9212,
    "infliction": 25924,
    "Ġregarded": 5762,
    "Ġplaying": 6909,
    "rad": 2253,
    "Ġconjoined": 21803,
    "nur": 11505,
    "mary": 8748,
    "eter": 11620,
    "Ġperth": 7022,
    "always": 5708,
    "Ġunerring": 15845,
    "Ġinitialization": 1253,
    "Ġsoap": 14133,
    "sk": 5521,
    "Ġprofessor": 11230,
    "Ġthrobbing": 16898,
    "land": 1530,
    "S": 55,
    "Ġfarther": 5954,
    "Ġvast": 3296,
    "Ġavenues": 25429,
    "Ġplaced": 3443,
    "Ġtill": 1823,
    "Ġensigns": 23687,
    "subject": 6631,
    "H": 44,
    "Ġhandling": 8912,
    "akened": 7415,
    "asets": 2311,
    "Ġextraction": 11253,
    "persuaded": 15072,
    "Ġox": 7153,
    "kerchief": 7525,
    "Ġvector": 1970,
    "estruct": 22220,
    "Ġgoose": 5937,
    "asc": 6386,
    "Ġgreece": 17069,
    "Ġintric": 9245,
    "Ġpictured": 16622,
    "mbles": 23086,
    "Ġliterary": 25162,
    "Ġgrown": 5628,
    "Ġ2": 2930,
    "oding": 1462,
    "Ġrichest": 26211,
    "Ġhood": 10823,
    "Ġforemast": 12004,
    "Ġlost": 2638,
    "Ġfaultless": 24540,
    "har": 20889,
    "Ġamount": 8511,
    "Ġshyness": 20305,
    "Ġcurled": 8226,
    "scales": 22984,
    "summit": 23415,
    "Ġ28": 19294,
    "Ġsamples": 2963,
    "bulk": 19923,
    "Ġblunder": 18818,
    "Ġtoo": 1164,
    "return": 5489,
    "lessly": 4554,
    "Ġblotting": 25313,
    "é": 170,
    "Ġbillows": 7502,
    "Ġpertur": 12848,
    "ohnson": 16324,
    "irted": 14070,
    "Ġbumps": 21390,
    "Ġtune": 17725,
    "Ġagents": 9765,
    "Ġcapital": 7979,
    "Ġimproving": 1210,
    "Ġgrasped": 8033,
    "Ġswaying": 15046,
    "Ġbreadth": 10563,
    "thoughts": 9934,
    "steady": 14708,
    "Ġbringing": 5869,
    "Ġtist": 21161,
    "elijah": 19471,
    "Ġsocially": 22084,
    "Ġconfl": 11137,
    "Ġpharaoh": 26585,
    "haw": 6361,
    "Ġcontradictory": 20395,
    "Ġsecretary": 19440,
    "Ġlads": 8596,
    "Ġ52": 24321,
    "Ġdella": 21437,
    "Ġsnug": 8279,
    "Ġinduced": 8670,
    "Ġemail": 19074,
    "Ġholes": 16407,
    "Ġinvited": 6903,
    "Ġwhereon": 16099,
    "emone": 21924,
    "Ġweeks": 4564,
    "paint": 21017,
    "manifested": 20524,
    "Ġflirting": 16247,
    "augmented": 26286,
    "Ġincarn": 11812,
    "itories": 15546,
    "desol": 13066,
    "olently": 15754,
    "Ġbennett": 16323,
    "Ġmons": 10156,
    "Ġcabal": 23640,
    "Ġaggreg": 12881,
    "Ġthinking": 4034,
    "imet": 21703,
    "haven": 20911,
    "Ġdarling": 12601,
    "creature": 5346,
    "augment": 18828,
    "Ġcongenial": 12409,
    "Ġdivulged": 16648,
    "Ġours": 4611,
    "Ġquiescent": 26242,
    "manned": 18763,
    "Ġaltering": 18102,
    "Ġlavater": 20494,
    "Ġentering": 6285,
    "Ġspilled": 10923,
    "Ġacting": 10991,
    "Ġobjection": 6585,
    "reme": 2425,
    "Ġincrease": 9368,
    "Ġcelerity": 17435,
    "Ġearthquake": 14628,
    "Ġhogarth": 25780,
    "Ġexpost": 18624,
    "Ġland": 1996,
    "Ġnatur": 17333,
    "Ġblessed": 6931,
    "wheel": 22865,
    "Ġbreeds": 23344,
    "_)âĢĶ": 20143,
    "Ġcurb": 16241,
    "Ġproject": 5546,
    "Ġshipped": 9714,
    "pursu": 11392,
    "Ġlament": 7856,
    "Ġalexander": 17423,
    "âĢĶâĢĿ": 3299,
    "agos": 21901,
    "Ġinvade": 19142,
    "Ġ72": 19610,
    "Ġpathetic": 19049,
    "ask": 858,
    "Ġenglishmen": 19428,
    "whiteness": 18370,
    "Ġchestnut": 19671,
    "Ġstay": 3095,
    "Ġchapters": 10473,
    "Ġrecommence": 16812,
    "Ġpeculiarity": 12930,
    "Ġamput": 16033,
    "Ġdeduction": 14900,
    "Ġsou": 1886,
    "Ġargosy": 24273,
    "Ġcondem": 6338,
    "Ġmonotonically": 3835,
    "Ġdispositions": 13231,
    "Ġreputation": 11639,
    "Ġcolds": 23756,
    "Ġpart": 860,
    "eaten": 20343,
    "Ġfooted": 23794,
    "Ġsaville": 15889,
    "Ġridges": 16731,
    "nable": 13761,
    "Ġdrive": 5055,
    "Ġfol": 1286,
    "Ġpropos": 7062,
    "Ġsteering": 10387,
    "Ġcobbling": 20521,
    "Ġpersuasion": 10498,
    "returned": 7765,
    "trampled": 26333,
    "Ġpresumably": 19623,
    "Ġdestitute": 14566,
    "joining": 19444,
    "Ġyanke": 18097,
    "cher": 5786,
    "architect": 22894,
    "Ġfilled": 4394,
    "eked": 16400,
    "Ġgreek": 10630,
    "insufficient": 15488,
    "Ġchestnuts": 24381,
    "Ġdiscuss": 9473,
    "Ġbent": 5149,
    "Ġduration": 20352,
    "Ġheads": 3742,
    "Ġglimp": 6065,
    "Ġvanity": 7045,
    "Ġtales": 10141,
    "Ġsolutions": 1946,
    "Ġcontracting": 16009,
    "Ġmothers": 14540,
    "Ġpudding": 17915,
    "Ġlimber": 16478,
    "rely": 6123,
    "wal": 10133,
    "Ġparticularly": 5056,
    "enty": 2917,
    "Ġgettest": 23231,
    "Ġscan": 22276,
    "Ġbloodthirst": 23799,
    "ateur": 22003,
    "Ġnight": 1465,
    "Ġadhes": 22100,
    "Ġbriony": 9328,
    "ifications": 9728,
    "Ġtempt": 5565,
    "Ġneurons": 973,
    "Ġunass": 14113,
    "cas": 20793,
    "Ġniag": 21527,
    "Ġlarger": 1402,
    "Ġidle": 8252,
    "resemblance": 25933,
    "Ġlearnable": 3998,
    "nes": 6961,
    "venth": 9294,
    "Ġflit": 23003,
    "Ġremained": 3142,
    "Ġphantoms": 13485,
    "Ġparameter": 901,
    "Ġrogue": 22402,
    "Ġinviting": 19143,
    "Ġown": 1009,
    "Ġdavy": 25951,
    "Ġhedge": 8363,
    "Ġlearn": 363,
    "Ġbroom": 18906,
    "Ġscandinavian": 26344,
    "ufactured": 15180,
    "Ġfashioned": 13319,
    "floor": 14935,
    "unned": 21875,
    "Ġperformer": 18757,
    "onym": 14649,
    "Ġworld": 1598,
    "choose": 23668,
    "net": 1195,
    "gris": 8259,
    "Ġfishes": 11590,
    "rep": 5525,
    "Ġsoda": 25534,
    "Ġheaven": 3363,
    "properly": 24918,
    "Ġduty": 4074,
    "Ġne": 389,
    "Ġshutting": 14758,
    "Ġrubbing": 9320,
    "Ġjoist": 19231,
    "means": 9785,
    "Ġraise": 6166,
    "arth": 4442,
    "ulation": 5458,
    "Ġperforms": 11875,
    "forbidding": 25836,
    "grief": 13730,
    "Ġimages": 1601,
    "Ġunderstand": 846,
    "once": 5903,
    "desolate": 25703,
    "five": 6356,
    "Ġupd": 947,
    "Ġtack": 5621,
    "Ġjutting": 22298,
    "Ġaccompaniments": 24482,
    "Ġvaluable": 5608,
    "Ġtart": 12525,
    "Ġreturned": 2892,
    "Ġdiscoverers": 26036,
    "Ġmarlings": 23035,
    "Ġpo": 737,
    "aet": 15306,
    "glory": 23849,
    "possess": 5983,
    "ashed": 3787,
    "Ġfigures": 8629,
    "leag": 21364,
    "yard": 5899,
    "permission": 15899,
    "Ġseams": 12122,
    "Ġfatigue": 8697,
    "Ġcharms": 11130,
    "Ġestimated": 16594,
    "lipped": 16215,
    "Ġtopmost": 14587,
    "untarily": 6312,
    "fine": 10090,
    "Ġlivers": 18461,
    "Ġuttering": 16461,
    "animals": 24738,
    "gro": 10094,
    "Ġsociet": 9448,
    "Ġwithdraw": 16964,
    "Ġrout": 7402,
    "1775": 26378,
    "Ġsensitiveness": 23733,
    "Ġvol": 4190,
    "keep": 3853,
    "aston": 7408,
    "Ġbuff": 9172,
    "Ġlatin": 16821,
    "iff": 3907,
    "Ġvagueness": 25737,
    "Ġcontrast": 2117,
    "oward": 6020,
    "Ġsocks": 14134,
    "Ġwre": 5077,
    "study": 15116,
    "Ġ33": 16676,
    "olera": 21830,
    "grounds": 11151,
    "Ġobeisance": 19757,
    "usion": 3300,
    "orated": 12588,
    "Ġhour": 1811,
    "Ġheavily": 6740,
    "Ġbask": 8116,
    "!_âĢĿ": 11376,
    "Ġsperma": 19043,
    "gave": 7799,
    "awn": 3836,
    "Ġslanting": 23170,
    "Ġtasks": 1786,
    "abound": 15737,
    "Ġoffence": 12942,
    "hampshire": 23261,
    "elopement": 23135,
    "inhabited": 13619,
    "gul": 12463,
    "Ġexcepting": 14680,
    "ly": 319,
    "Ġstam": 18065,
    "Ġsqualid": 14368,
    "Ġrapidity": 11103,
    "Ġannot": 15599,
    "Ġprocopius": 19730,
    "niece": 20994,
    "xology": 21140,
    "difficult": 10057,
    "Ġglory": 6064,
    "nez": 22444,
    "Ġstrikes": 13182,
    "Ġzodiac": 16171,
    "Ġflashed": 11911,
    "Ġintroduction": 8970,
    "Ġbland": 11064,
    "conject": 8880,
    "arthy": 4822,
    "magn": 10610,
    "forgotten": 12414,
    "Ġextravagant": 17278,
    "relations": 14732,
    "Ġsummons": 13230,
    "dham": 20829,
    "mates": 5073,
    "Ġhugh": 15004,
    "Ġsarat": 21226,
    "angling": 14140,
    "Ġanaly": 1149,
    "nnight": 20992,
    "scra": 13015,
    "Ġprofanely": 23569,
    "loveliness": 26549,
    "Ġsick": 4692,
    "manners": 16182,
    "whips": 22235,
    "Ġmenaced": 16291,
    "intolerable": 22935,
    "Ġplans": 7917,
    "Ġshook": 4467,
    "Ġgrate": 12961,
    "Ġnor": 1552,
    "consequential": 26249,
    "Ġwheel": 9717,
    "Ġblueprints": 13170,
    "Ġanvil": 11596,
    "Ġgrant": 11871,
    "Ġentreated": 9950,
    "Ġcivilly": 19602,
    "Ġanno": 9667,
    "Ġglaring": 11905,
    "Ġradiating": 24335,
    "akeman": 6267,
    "Ġwould": 653,
    "Ġopulence": 23626,
    "eu": 17530,
    "mistaken": 12208,
    "Ġtypically": 1535,
    "Ġpanthe": 19652,
    "plumed": 21952,
    "gno": 13726,
    "Ġcham": 4892,
    "Ġbone": 4694,
    "Ġmoderation": 12817,
    "yd": 21141,
    "kne": 20934,
    "Ġscornful": 24996,
    "pop": 17631,
    "tfordshire": 4811,
    "Ġetext": 23947,
    "Ġcorrespond": 6209,
    "Ġmaid": 5285,
    "probability": 17022,
    "Ġreg": 732,
    "rene": 5379,
    "Ġnod": 1887,
    "grasp": 16429,
    "looked": 6083,
    "Ġcousins": 9914,
    "crossing": 19409,
    "fect": 2302,
    "Ġunprepared": 22047,
    "loat": 8886,
    "Ġdilated": 24704,
    "fiercely": 25256,
    "Ġbehav": 3537,
    "Ġrumors": 11321,
    "Ġweakened": 16823,
    "yed": 3270,
    "Ġaye": 3351,
    "Ġimpending": 22381,
    "ieces": 4772,
    "Ġobsequious": 17403,
    "Ġsails": 5256,
    "cheap": 23802,
    "Ġlightness": 23257,
    "Ġrisk": 8038,
    "Ġmatrimony": 13634,
    "stones": 11635,
    "Ġbehave": 23295,
    "ering": 1266,
    "owner": 18611,
    "boys": 13358,
    "omnipotent": 25964,
    "Ġmainz": 22644,
    "Ġrad": 4962,
    "Ġboats": 2640,
    "Ġeleg": 6192,
    "Ġplains": 14623,
    "Ġperplex": 2717,
    "Ġtenderness": 12213,
    "Ġhymn": 24518,
    "Ġbusiness": 2229,
    "Ġodds": 13328,
    "Ġotherwise": 4657,
    "fixed": 7548,
    "alously": 15626,
    "Ġpersonally": 8598,
    "Ġinterp": 16070,
    "Ġprofoundest": 16860,
    "ucket": 2483,
    "ve": 322,
    "Ġforc": 9227,
    "parm": 21013,
    "ological": 1883,
    "guinea": 16672,
    "Ġindestruct": 22955,
    "Ġmomentarily": 22809,
    "Ġtorments": 13393,
    "traversed": 19638,
    "Ġnotwithstanding": 9713,
    "Ġdecent": 10978,
    "erting": 17777,
    "Ġfanned": 19099,
    "blows": 17165,
    "Ġrevolving": 9982,
    "brilliancy": 26077,
    "perpendicular": 14159,
    "Ġperish": 8874,
    "cape": 13696,
    "anelles": 26434,
    "Ġbloodshed": 23798,
    "Ġcrutch": 23445,
    "Ġprogram": 12988,
    "Ġpoland": 23616,
    "Ġquivered": 18467,
    "hunting": 24385,
    "Ġforming": 7042,
    "Ġminimizing": 3463,
    "Ġbanquet": 15239,
    "Ġpowers": 5419,
    "rippa": 11341,
    "Ġdescribed": 6606,
    "Ġcanted": 17831,
    "Ġdownright": 16116,
    "&": 10,
    "limbs": 20190,
    "ancial": 21360,
    "Ġabund": 8864,
    "ibbald": 18841,
    "Ġbasket": 9572,
    "Ġvocation": 10525,
    "Ġconstructed": 9385,
    "Ġremoval": 12115,
    "uguese": 20731,
    "ample": 1364,
    "Ġenlivened": 26207,
    "residual": 19261,
    "Ġconsecutive": 20701,
    "Ġpitiable": 9913,
    "now": 548,
    "Ġl": 303,
    "Ġbakers": 17866,
    "Ġoverflow": 10292,
    "Ġuncommon": 5026,
    "conqu": 14244,
    "Ġadmirer": 16838,
    "Ġmorocc": 22969,
    "Ġprot": 3850,
    "bered": 4503,
    "ca": 20792,
    "Ġmuzzle": 21319,
    "Ġ{": 21151,
    "Ġbald": 16204,
    "i": 77,
    "Ġrand": 1587,
    "Ġrect": 18025,
    "Ġmost": 1022,
    "Ġgall": 4352,
    "**": 4685,
    "Ġrelinqu": 12980,
    "Ġapprised": 18358,
    "Ġvanished": 6874,
    "Ġemerge": 14927,
    "....": 11316,
    "Ġsurf": 19131,
    "Ġconfused": 7964,
    "cient": 4568,
    "ugnance": 12365,
    "glings": 23848,
    "Ġnoiseless": 10357,
    "Ġsentinel": 26065,
    "Ġadmeasurements": 26225,
    "sleepy": 24729,
    "Ġshave": 21993,
    "lemag": 21370,
    "Ġmand": 21303,
    "tables": 19756,
    "Ġsides": 4578,
    "Ġunwarranted": 25171,
    "Ġtheme": 16017,
    "eth": 621,
    "ady": 995,
    "Ġcanal": 8181,
    "Ġvincent": 15282,
    "substance": 15230,
    "Ġdiscove": 16153,
    "Ġfonder": 17880,
    "Ġnights": 7258,
    "Ġencircling": 26271,
    "Ġforced": 4353,
    "Ġadvantageously": 19544,
    "Ġfool": 4235,
    "Ġbreeze": 5681,
    "queens": 22911,
    "Ġconsiderable": 4010,
    "eye": 6224,
    "Ġdisgrace": 7215,
    "Ġsix": 3045,
    "atha": 6572,
    "Ġembraces": 19871,
    "icle": 10834,
    "riving": 21923,
    "Ġlowest": 11122,
    "member": 20974,
    "lik": 3917,
    "Ġgour": 21595,
    "Ġstretched": 5919,
    "Ġans": 1645,
    "Ġfors": 21768,
    "Ġstave": 11650,
    "Ġstarlight": 24626,
    "acted": 11010,
    "serpent": 16290,
    "charming": 15703,
    "Ġnational": 13941,
    "Ġsires": 21225,
    "Ġpremature": 3727,
    "Ġdisobedience": 22532,
    "opatra": 22474,
    "Ġ86": 24461,
    "Ġstra": 2991,
    "lover": 18540,
    ":--": 5784,
    "Ġconsult": 6056,
    "lads": 20954,
    "omely": 21636,
    "Ġjen": 9266,
    "admitted": 18091,
    "Ġsave": 4055,
    "Ġcorre": 3890,
    "Ġmisgivings": 15290,
    "Ġfading": 15581,
    "Ġdeploy": 2701,
    "limp": 20951,
    "Ġwhittling": 20698,
    "Ġsloping": 11937,
    "ĠĠĠĠ": 460,
    "found": 4214,
    "ee": 1660,
    "Ġrags": 18647,
    "violently": 23541,
    "oquence": 11386,
    "Ġterrible": 5327,
    "invol": 12527,
    "Ġluggage": 25957,
    "Ġacknowledge": 13401,
    "eers": 20842,
    "Ġexactness": 23603,
    "omist": 21635,
    "imming": 9686,
    "Ġattacked": 10567,
    "idled": 21765,
    "Ġtit": 8398,
    "sto": 3197,
    "Ġapologize": 15127,
    "Ġemployer": 19430,
    "Ġaffording": 14820,
    "Ġfrequent": 3284,
    "entiful": 10836,
    "ĠâĢĶâĢĶ": 25757,
    "acute": 22542,
    "Ġsens": 1852,
    "resses": 16149,
    "Ġ104": 24412,
    "Ġbuzz": 23994,
    "poverty": 22904,
    "Ġbasement": 24702,
    "Ġelementary": 24814,
    "Ġromantic": 8030,
    "Ġcurtain": 14417,
    "Ġbutt": 14125,
    "Ġrelevance": 5184,
    "Ġapo": 9630,
    "security": 26206,
    "Ġdumb": 7843,
    "urre": 10856,
    "Ġprepared": 5876,
    "Ġbrief": 6976,
    "Ġwithdrawing": 11340,
    "Ġinconsiderable": 21492,
    "yramid": 8367,
    "Ġcommodore": 12393,
    "Ġdoes": 943,
    "slo": 17656,
    "doors": 19094,
    "comm": 7440,
    "help": 1478,
    "brill": 16490,
    "Ġthoroughfare": 16944,
    "Ġproviding": 1361,
    "unpardonable": 21887,
    "fears": 18531,
    "arling": 10814,
    "solitude": 23293,
    "wharf": 20605,
    "yonder": 21143,
    "virt": 15450,
    "Ġnailing": 21524,
    "detached": 19673,
    "flutterings": 26606,
    "Ġrustic": 14964,
    "Ġinwards": 15618,
    "Ġreligious": 25121,
    "Ġearls": 18903,
    "Ġrelieve": 8223,
    "Ġfriends": 2657,
    "Ġforefinger": 16443,
    "Ġcaring": 23089,
    "Ġmagnificence": 20631,
    "Ġstrolled": 16770,
    "question": 5418,
    "tall": 17673,
    "lect": 1220,
    "Ġchancery": 20715,
    "Ġheart": 1596,
    "Ġpromptly": 23814,
    "Ġruddy": 17125,
    "Ġawait": 17073,
    "Ġmeant": 3549,
    "Ġweapon": 7775,
    "Ġtransformations": 3482,
    "robotics": 11306,
    "Ġsof": 18282,
    "Ġmax": 2006,
    "Ġconstit": 8583,
    "Ġlima": 10442,
    "Ġcaution": 11346,
    "Ġmarvels": 11084,
    "Ġeulogy": 26471,
    "Ġacid": 22679,
    "ldog": 21914,
    "Ġ75": 19611,
    "Ġlooking": 2473,
    "agon": 7870,
    "Ġanchor": 7368,
    "Ġwrought": 11942,
    "Ġred": 3004,
    "Ġdecaying": 2244,
    "Ġconflagration": 26364,
    "car": 4212,
    "Ġraises": 11843,
    "accompanied": 12420,
    "Ġtiresome": 26156,
    "give": 4688,
    "Ġsixty": 7722,
    "¥": 103,
    "vate": 21108,
    "Ġpled": 17907,
    "worship": 19385,
    "Ġrevered": 23732,
    "Ġrokovoko": 22403,
    "Ġadapted": 11040,
    "Ġmarvelled": 18873,
    "Ġdeterm": 1269,
    "irth": 5634,
    "abez": 10222,
    "Ġcheerily": 13306,
    "Ġpress": 5931,
    "mathematics": 26304,
    "Ġuntrodden": 23521,
    "Ġsmoky": 22556,
    "Ġsuckling": 25997,
    "Ġflatt": 16244,
    "impart": 21706,
    "Ġpointed": 4773,
    "Ġtelegraph": 25583,
    "Ġsuperiors": 23454,
    "water": 4868,
    "Ġwheeled": 14138,
    "dler": 13705,
    "Ġ118": 19697,
    "Ġoblig": 3444,
    "Ġconventional": 25547,
    "Ġreminded": 9998,
    "Ġunit": 1846,
    "Ġpea": 14316,
    "Ġdesk": 11904,
    "Ġcolours": 12972,
    "Ġworsted": 19993,
    "Ġstow": 21727,
    "meth": 11502,
    "fes": 20850,
    "judges": 19572,
    "Ġfragment": 14512,
    "adler": 21759,
    "Ġcogent": 14275,
    "tarpaul": 21096,
    "Ġthames": 13937,
    "Ġtwinkling": 12322,
    "Ġbenefit": 8292,
    "Ġlove": 2053,
    "Ġanalog": 12609,
    "traced": 19636,
    "Ġcompetent": 11814,
    "Ġentrances": 25833,
    "animated": 14974,
    "Ġplainer": 23702,
    "dried": 20826,
    "Ġcollinses": 19129,
    "Ġintelligible": 15939,
    "Ġmouths": 7491,
    "Ġheav": 1849,
    "awe": 20764,
    "ify": 1480,
    "Ġaggregated": 25678,
    "Ġdistrust": 8204,
    "Ġtogether": 1878,
    "drawers": 19384,
    "Ġjournal": 15217,
    "ager": 6546,
    "Ġexcursion": 26589,
    "Ġincites": 22549,
    "Ġreflections": 5945,
    "Ġhauling": 14086,
    "Ġexcuses": 19037,
    "Ġwad": 13850,
    "Ġinterlacing": 22574,
    "mospheric": 17091,
    "Ġclum": 8872,
    "Ġvenom": 24238,
    "Ġarchy": 14346,
    "causing": 25518,
    "dense": 18714,
    "Ġchinks": 22248,
    "spread": 8388,
    "Ā": 193,
    "trouble": 8295,
    "Ġshabby": 14110,
    "ims": 7176,
    "attentions": 13573,
    "Ġlatest": 16822,
    "interchange": 23737,
    "reject": 21235,
    "Ġfirmament": 19469,
    "Ġadvisable": 11442,
    "Ġreturn": 1709,
    "Ġimagine": 3925,
    "Ġdepos": 11007,
    "Ġdominic": 25381,
    "Ġdear": 1538,
    "comp": 3818,
    "Ġmembrane": 20502,
    "Ġhints": 8429,
    "seven": 8463,
    "Ġpewter": 17185,
    "heavenly": 20043,
    "comprehens": 16174,
    "Ġhabits": 6926,
    "doc": 23374,
    "Ġhypocritical": 20737,
    "Ġpersu": 3564,
    "Ġinconsist": 17935,
    "Ġoutlandish": 12835,
    "Ġreneg": 21672,
    "Ġwarehouses": 20416,
    "Ġcomo": 21839,
    "Ġtremendous": 8352,
    "classes": 12133,
    "uberance": 25916,
    "Ġchurned": 18385,
    "Ġstride": 22610,
    "Ġyoung": 1507,
    "insupportable": 21192,
    "Ġfoolishly": 19781,
    "Ġhold": 2241,
    "Ġdeep": 806,
    "Ġgarments": 15192,
    "reen": 21230,
    "Ġascribe": 16782,
    "59": 17473,
    "miniature": 16765,
    "abetical": 15740,
    "A": 37,
    "Ġreeling": 18032,
    "ogr": 18673,
    "icant": 21559,
    "Ġwarm": 2426,
    "Ġpropontis": 17465,
    "nurs": 20998,
    "Ġhorr": 3189,
    "Ġpervading": 20612,
    "Ġorganize": 8991,
    "Ġflannel": 26577,
    "ksome": 10104,
    "Ġfrog": 23918,
    "Ġtwentieth": 18659,
    "Ġadroit": 26000,
    "Ġmagnus": 18957,
    "Ġreveren": 13196,
    "Ġlye": 21548,
    "Ġcontrad": 9754,
    "Ġadm": 2401,
    "zening": 21147,
    "Ġkeeping": 7283,
    "Ġerudite": 26350,
    "if": 376,
    "Ġinputs": 843,
    "Ġdiabolism": 25514,
    "agery": 21904,
    "Ġpressure": 13421,
    "anned": 17839,
    "oar": 12495,
    "Ġangelic": 19626,
    "Ġstaple": 26198,
    "stripped": 16945,
    "mediterranean": 16401,
    "Ġpict": 3497,
    "ribut": 814,
    "certain": 3678,
    "baron": 24925,
    "ameter": 2957,
    "Ġevince": 24293,
    "vels": 5432,
    "Ġdelivery": 18975,
    "Ġbolted": 12242,
    "Ġbatch": 888,
    "acific": 4960,
    "Ġamusements": 16913,
    "Ġfiery": 6871,
    "hem": 6663,
    "Ġreser": 5170,
    "Ġutmost": 5496,
    "que": 1156,
    "Ġunwarrantable": 26353,
    "Ġpartially": 13121,
    "buffalo": 20562,
    "frisco": 16787,
    "Ġinfinite": 8576,
    "Ġcrisp": 12001,
    "linging": 16079,
    "Ġpensive": 21473,
    "possible": 5743,
    "Ġvicissitudes": 12417,
    "Ġbrow": 3992,
    "Ġquiver": 16001,
    "Ġplayful": 19236,
    "Ġwithdrew": 9695,
    "Ġstanders": 19013,
    "reported": 24493,
    "Ġpane": 21461,
    "ignant": 11129,
    "Ġindignant": 12237,
    "olent": 8154,
    "Ġstrives": 23693,
    "Ġjohn": 5032,
    "stealthily": 23959,
    "representing": 25271,
    "Ġcongreg": 8462,
    "Ġforwarded": 19038,
    "Ġdirector": 18920,
    "Ġforb": 11662,
    "Ġcorrectly": 9403,
    "Ġbarbary": 24216,
    "go": 2062,
    "preference": 22450,
    "Ġcontextual": 3744,
    "Ġtempestuous": 20069,
    "Ġlick": 21547,
    "Ġdiscerning": 25002,
    "ĠĠĠĠĠĠĠĠĠĠĠĠĠĠĠĠĠĠĠĠĠĠĠĠĠĠĠĠĠ": 19698,
    "Ġsuggest": 5417,
    "Ġsweeping": 8985,
    "Ġeddystone": 25709,
    "than": 4091,
    "Ġexasper": 8466,
    "nineteenth": 26138,
    "Ġassociations": 14962,
    "elevating": 20404,
    "pton": 15791,
    "Ġfreshe": 13068,
    "withstanding": 8945,
    "Ġconcre": 16382,
    "Ġdefinite": 11069,
    "Ġmillion": 14986,
    "adagrad": 9690,
    "window": 7742,
    "Ġbegan": 2022,
    "Ġhouse": 1504,
    "Ġafter": 870,
    "wich": 11543,
    "Ġreverend": 15258,
    "Ġvertebra": 20180,
    "Ġclass": 788,
    "peare": 18911,
    "Ġdented": 17891,
    "clergy": 18933,
    "Ġtugged": 17288,
    "Ġleeward": 6210,
    "Ġgoug": 17990,
    "bag": 7542,
    "Ġbodiless": 24226,
    "Ġaside": 5234,
    "Ġfantastic": 10058,
    "Ġregiment": 6432,
    "Ġcharitable": 23266,
    "mond": 20972,
    "heaven": 8052,
    "lestrade": 9656,
    "Ġsacrificed": 17421,
    "Ġsutherland": 10148,
    "Ġjaws": 5593,
    "pling": 8474,
    "Ġregent": 18598,
    "osed": 1960,
    "Ġthr": 5709,
    "Ġdwelling": 7322,
    "Ġbears": 6829,
    "buttoned": 13631,
    "Ġcome": 1242,
    "Ġelapsed": 7652,
    "Ġ_": 838,
    "Ġcompletion": 12145,
    "Ġstupendous": 20499,
    "tart": 21066,
    "Ġscruples": 15077,
    "Ġpoverty": 9303,
    "Ġbarrier": 16569,
    "bee": 16036,
    "ologist": 22873,
    "Ġexpedite": 24953,
    "Ġshrimp": 24157,
    "tain": 558,
    "bergs": 18682,
    "paralleled": 14514,
    "Ġaltered": 7393,
    "Ġarom": 15491,
    "Ġgoethe": 22421,
    "Ġben": 1109,
    "Ġsunken": 14493,
    "Ġsturgeon": 20590,
    "Ġspeaker": 19148,
    "Ġintellect": 8169,
    "dropping": 14981,
    "Ġmystery": 5509,
    "ignified": 14490,
    "Ġfrozen": 9012,
    "ral": 4627,
    "Ġclaps": 22347,
    "ishes": 6523,
    "Ġbutter": 6842,
    "attending": 18916,
    "Ġcatholic": 20680,
    "learn": 2410,
    "Ġanat": 8123,
    "Ġhysterics": 26093,
    "Ġsurpassed": 25267,
    "Ġliberality": 24377,
    "various": 10397,
    "domestic": 19824,
    "Ġsiam": 13837,
    "Ġcarriages": 11098,
    "Ġcivil": 4678,
    "Ġpresum": 4837,
    "Ġflowed": 10371,
    "deficient": 23114,
    "Ġdecently": 22439,
    "Ġchapter": 2956,
    "transom": 19734,
    "Ġtucked": 12390,
    "Ġbadge": 16683,
    "Ġchaps": 14179,
    "Ġmingling": 20196,
    "sought": 15426,
    "affectionate": 24921,
    "orphans": 26440,
    "Ġcascade": 20579,
    "Ġcampa": 17173,
    "Ġmarling": 23033,
    "usable": 22286,
    "Ġinch": 7849,
    "he": 264,
    "hyena": 24252,
    "blister": 24128,
    "Ġabsurdly": 19958,
    "Ġsalutation": 12395,
    "lled": 10107,
    "mal": 6794,
    "calculating": 25689,
    "Ġrushing": 7403,
    "bo": 1689,
    "Ġsank": 5076,
    "langu": 4807,
    "ince": 4340,
    "Ġed": 2143,
    "Ġafore": 10758,
    "Ġadopt": 10631,
    "Ġphrenologists": 25608,
    "Ġprofounder": 23568,
    "Ġslender": 11938,
    "#": 7,
    "Ġquebec": 24133,
    "Ġartistic": 18612,
    "resnet": 4073,
    "Ġsalvation": 14756,
    "complaisance": 24811,
    "Ġtheorem": 2328,
    "Ġposterity": 17401,
    "Ġtumultuous": 10615,
    "urable": 8923,
    "Ġlapse": 17120,
    "Ġlaborers": 19055,
    "Ġnaval": 16899,
    "Ġanalyzing": 18803,
    "Ġdispute": 16054,
    "Ġinsight": 16529,
    "Ġconceit": 7295,
    "Ġcertain": 1558,
    "ual": 946,
    "coward": 13699,
    "Ġdiffer": 18677,
    "apothecary": 26545,
    "Ġpresently": 5116,
    "Ġvag": 9707,
    "Ġstiffly": 15005,
    "Ġmathematics": 12071,
    "page": 13770,
    "hob": 20899,
    "Ġnosegay": 24192,
    "Ġaffirm": 11885,
    "iancy": 13006,
    "keen": 12779,
    "pudding": 17647,
    "Ġknown": 1642,
    "Ġconcisely": 19039,
    "heric": 15909,
    "tempest": 16959,
    "Ġgrateful": 7659,
    "commendation": 26348,
    "Ġboiling": 8525,
    "exe": 11787,
    "arson": 22748,
    "apped": 5395,
    "Ġmel": 4816,
    "Ġmortifying": 13243,
    "Ġaunt": 3176,
    "Ġsermon": 12374,
    "Ġpistol": 7846,
    "cred": 9107,
    "mass": 12487,
    "Ġtarquin": 23609,
    "Ġserm": 9633,
    "Ġallegro": 25794,
    "justine": 7682,
    "Ġcomrades": 9554,
    "Ġpeev": 22690,
    "Ġvideo": 25365,
    "Ġjurymen": 16847,
    "Ġsar": 21212,
    "ernally": 22617,
    "Ġvindictiveness": 25738,
    "Ġbes": 2663,
    "ougher": 18280,
    "remind": 23185,
    "Ġlif": 10195,
    "Ġcompos": 22567,
    "thread": 15824,
    "transform": 8049,
    "Ġgasping": 17038,
    "Ġhereabouts": 12975,
    "Ġhypocr": 19470,
    "Ġpersist": 16269,
    "Ġnap": 8808,
    "ships": 5486,
    "Ġdenial": 13213,
    "upon": 2723,
    "dilig": 17282,
    "frau": 15088,
    "Ġimprisonment": 22384,
    "hmael": 7342,
    "Ġplatonian": 25118,
    "Ġmagician": 25058,
    "at": 268,
    "Ġsubmerged": 11870,
    "discoloured": 23498,
    ".,": 5987,
    "Ġlucy": 17969,
    "uiperai": 10663,
    "Ġcomplained": 16998,
    "Ġdefault": 3038,
    "courageous": 26127,
    "Ġconverts": 2806,
    "fle": 7128,
    "Ġtrib": 13818,
    "Ġaccompl": 5167,
    "brothers": 17024,
    "Ġannihilated": 20251,
    "Ġtoad": 21507,
    "reas": 988,
    "Ġrepose": 6741,
    "quimaux": 21856,
    "Ġboundless": 10495,
    "highly": 24764,
    "Ġbricks": 13561,
    "bordered": 17498,
    "Ġpoky": 21477,
    "Ġhack": 12753,
    "ences": 1262,
    "sperm": 5203,
    "Ġgo": 613,
    "protruding": 24816,
    "rals": 21041,
    "medium": 23637,
    "verdict": 21726,
    "Ġcas": 8410,
    "ellest": 21571,
    "ĠâĢĺ": 1628,
    "ame": 644,
    "Ġsuppose": 2867,
    "Ġblazing": 11894,
    "dev": 7631,
    "Ġneur": 812,
    "naturalists": 23487,
    "commod": 16173,
    "Ġbowels": 9429,
    "vand": 21107,
    "actorily": 25576,
    "Ġmarrying": 6177,
    "need": 10979,
    "me": 877,
    "Ġassisting": 13256,
    "reinforcement": 7826,
    "Ġwavering": 23277,
    "trees": 10731,
    "Ġreading": 5114,
    "blo": 6353,
    "holes": 12052,
    "akness": 14194,
    "Ġmab": 12557,
    "Ġcommentaries": 20159,
    "cou": 13694,
    "Ġfling": 9660,
    "Ġelasticity": 19557,
    "Ġinterpreter": 23214,
    "flask": 12097,
    "Ġchurches": 12825,
    "Ġforcibly": 10060,
    "Ġlod": 4046,
    "eridge": 15524,
    "Ġgate": 6825,
    "Ġit": 339,
    "anks": 3918,
    "Ġchristianity": 19860,
    "Ġtidings": 11397,
    "Ġfacing": 10171,
    "wered": 2691,
    "uvian": 12240,
    "Ġbeaches": 18084,
    "Ġisolated": 13558,
    "high": 6649,
    "Ġestim": 3347,
    "Ġinclement": 22551,
    "folding": 24927,
    "Ġcruel": 5121,
    "Ġtiller": 8965,
    "Ġwarmup": 3923,
    "uling": 2254,
    "vious": 1782,
    "Ġfamiliarity": 16729,
    "bran": 23573,
    "Ġetern": 7085,
    "Ġsubterranean": 13610,
    "Ġreckoning": 14978,
    "Ġsort": 1508,
    "Ġdaily": 5986,
    "Ġloun": 7166,
    "rue": 1127,
    "Ġlongitude": 11011,
    "Ġstarting": 7728,
    "Ġpooh": 18604,
    "Ġprincess": 23223,
    "Ġhierarchical": 1927,
    "Ġunmethodically": 22068,
    "trap": 24313,
    "proportions": 22832,
    "Ġcautiously": 16977,
    "topic": 10527,
    "Ġrotterdam": 25475,
    "Ġcurds": 22992,
    "Ġsepulch": 15283,
    "inition": 11556,
    "iture": 5696,
    "Ġferoc": 14896,
    "Ġchips": 14181,
    "Ý": 158,
    "ilet": 12826,
    "Ġgardeners": 12118,
    "Ġcomfortably": 16615,
    "hopper": 23713,
    "Ġentertained": 9997,
    "Ġbloody": 9888,
    "Ġveiled": 16199,
    "Ġsplash": 16548,
    "Ġsocket": 12786,
    "Ġwidower": 24235,
    "Ġhelter": 24024,
    "uther": 8816,
    "Ġtension": 13823,
    "Ġheathenish": 13615,
    "compassion": 12366,
    "Ġfasting": 16354,
    "Ġneedle": 8274,
    "streamed": 25966,
    "thousand": 5547,
    "tru": 10729,
    "Ġprogress": 5023,
    "screaming": 20324,
    "monsters": 19170,
    "oors": 17620,
    "trop": 15435,
    "Ġminor": 12965,
    "Ġagrees": 22513,
    "cannibal": 15223,
    "Ġsinister": 8568,
    "Ġguessed": 11282,
    "Ġbreathing": 9444,
    "Ġwhy": 1759,
    "Ġbounds": 9917,
    "Ġturks": 14598,
    "because": 4923,
    "Ġreservoir": 20650,
    "Ġembra": 6579,
    "Ġmoose": 22428,
    "Ġheadache": 22893,
    "Ġdied": 4113,
    "Ġtang": 13813,
    "Ġholmes": 1309,
    "ghost": 20886,
    "Ġcanaller": 25467,
    "embraces": 25805,
    "rison": 13778,
    "step": 2455,
    "Ġswarming": 16272,
    "oniously": 21256,
    "Ġcauldron": 25441,
    "room": 2176,
    "oug": 432,
    "envelope": 17782,
    "ions": 448,
    "Ġstupid": 7603,
    "Ġlighten": 23256,
    "bitt": 17485,
    "Ġfumbling": 21415,
    "gunpowder": 25339,
    "croquet": 25747,
    "Ġishmael": 7395,
    "Ġeldest": 6571,
    "hoisted": 19282,
    "captains": 12125,
    "Ġstain": 18064,
    "Ġdiddled": 22664,
    "Ġmiscellaneous": 17462,
    "haz": 17564,
    "Ġcosmopolitan": 20640,
    "Ġmaintainable": 12932,
    "springing": 24889,
    "cri": 17505,
    "Ġirregular": 9864,
    "Ġmonuments": 22974,
    "Ġgang": 9207,
    "Ġvilest": 20099,
    "tier": 12512,
    "izure": 21838,
    "Ġbel": 1215,
    "Ġstrugg": 3214,
    "rudential": 16709,
    "Ġqueerest": 16413,
    "Ġinmost": 17930,
    "Ġhol": 1182,
    "Ġpilgrim": 25599,
    "itancy": 21331,
    "Ġrazor": 22658,
    "merit": 19281,
    "Ġreliably": 22875,
    "Ġexamining": 8005,
    "delay": 16698,
    "Ġuniversity": 13120,
    "ĠĠĠĠĠ": 3524,
    "ondescript": 22913,
    "Ġduties": 6609,
    "Ġchink": 15930,
    "Ġpequod": 2325,
    "attacked": 23118,
    "Ġtortoise": 16908,
    "Ġamounts": 6704,
    "imony": 12687,
    "Ġschedu": 1822,
    "Ġpillows": 24986,
    "Ġrelates": 12978,
    "latitude": 25259,
    "living": 7133,
    "Ġpolished": 11182,
    "Ġbeaver": 18085,
    "Ġtidy": 17093,
    "Ġclutched": 13518,
    "hip": 8740,
    "ide": 721,
    "rels": 6664,
    "Ġbumping": 25280,
    "Ġcy": 13873,
    "assure": 9268,
    "Ġemployed": 5200,
    "Ġcauses": 2563,
    "neying": 22446,
    "Ġdistension": 22502,
    "Ġlees": 18075,
    "Ġelixir": 26555,
    "Ġaccusation": 22375,
    "ancy": 4393,
    "assistant": 25567,
    "effect": 8603,
    "Ġcheat": 19017,
    "morland": 24153,
    "Ġwaggish": 25434,
    "ipl": 20917,
    "agreeable": 5829,
    "Ġgloss": 11956,
    "fain": 13714,
    "Ġquoted": 22412,
    "Ġindirect": 18834,
    "socket": 22728,
    "arabian": 26446,
    "Ġtickets": 17094,
    "Ġmeadow": 17151,
    "ootiful": 17372,
    "Ġgracechurch": 12196,
    "raid": 3277,
    "Ġcreating": 2996,
    "Ġembraced": 10005,
    "Ġtrunks": 15962,
    "Ġtwine": 14310,
    "Ġ94": 17717,
    "created": 12448,
    "Ġoccurred": 4461,
    "awned": 19458,
    "Ġaries": 21196,
    "rapidly": 15242,
    "Ġerected": 12231,
    "Ġturk": 6603,
    "should": 3260,
    "post": 6061,
    "dil": 11478,
    "azing": 7704,
    "rasing": 21044,
    "Ġveteran": 17449,
    "Ġ26": 10470,
    "fields": 14653,
    "Ġunluck": 8484,
    "ð": 177,
    "dared": 13701,
    "intelligence": 5882,
    "Ġsixteen": 8282,
    "Ġaccess": 9746,
    "Ġantagon": 19549,
    "¡": 99,
    "pin": 13766,
    "Ġproposals": 10613,
    "freighted": 14891,
    "sp": 895,
    "heedful": 20572,
    "Ġsiamese": 20481,
    "Ġheadway": 18790,
    "Ġyankees": 26201,
    "Ġfur": 991,
    "Ġbattering": 13900,
    "strongly": 24684,
    "odecimo": 11444,
    "Ġdivided": 8631,
    "Ġleague": 6538,
    "Ġfame": 21404,
    "arter": 17893,
    "Ġtranque": 14200,
    "Ġmechanisms": 1577,
    "fourth": 11328,
    "Ġencoura": 1366,
    "Ġeven": 1028,
    "Ġgratified": 8021,
    "Ġdiversion": 17197,
    "Ġhim": 476,
    "Ġabode": 7899,
    "ired": 1444,
    "mmar": 952,
    "feelings": 5674,
    "extremely": 26263,
    "Ġselection": 18204,
    "ail": 566,
    "Ġcoachman": 15000,
    "log": 18538,
    "withdrawn": 23024,
    "Ġworkmen": 23021,
    "Ġbern": 17858,
    "ignorant": 13562,
    "Ġobsc": 7039,
    "Ġtyros": 26101,
    "Ġeve": 13969,
    "roded": 17955,
    "Ġerskine": 17431,
    "Ġ35": 24076,
    "Ġharpooneers": 4731,
    "utional": 17983,
    "Ġunstructured": 3003,
    "Ġremarkable": 4915,
    "ife": 1026,
    "lected": 1633,
    "fulfil": 16032,
    "Ġfast": 1715,
    "Ġsoar": 18283,
    "houn": 20892,
    "Ġsupervised": 3079,
    "exposure": 19256,
    "thanking": 24330,
    "Ġxli": 14542,
    "Ġexposes": 22621,
    "inous": 8771,
    "Ġobligations": 12089,
    "method": 17284,
    "Ġmachine": 782,
    "Ġdeem": 18133,
    "Ġwood": 2293,
    "Ġstartled": 7082,
    "intosh": 22937,
    "Ġpigs": 19746,
    "Ġgases": 21599,
    "Ġbumpkin": 20199,
    "Ġvehicle": 20137,
    "ispens": 8335,
    "Ġleghorn": 13145,
    "Ġexpired": 18623,
    "Ġrelied": 16192,
    "Ġmoderate": 10939,
    "Ġmur": 2488,
    "crane": 24099,
    "Ġassault": 9836,
    "capting": 24038,
    "oct": 7554,
    "Ġmoreover": 6163,
    "ord": 668,
    "Ġparcels": 25465,
    "dam": 7797,
    "Ġpartner": 6714,
    "¢": 100,
    "Ġclamorous": 24909,
    "Ġorgans": 15863,
    "Ġclipping": 2440,
    "irene": 15912,
    "Ġrespecting": 14483,
    "aders": 21755,
    "pan": 10716,
    "jack": 7344,
    "Ġmimic": 3144,
    "Ġlying": 4825,
    "somebody": 14565,
    "Ġjunior": 15098,
    "Ġindia": 10370,
    "Ġbaltic": 18794,
    "may": 3681,
    "Ġrecovered": 5481,
    "penetrating": 25490,
    "sof": 17657,
    "olerably": 11672,
    "Ġbount": 15565,
    "Ġgib": 13964,
    "Ġdaint": 15590,
    "state": 13978,
    "days": 7687,
    "Ġtheoretic": 23307,
    "quod": 2163,
    "Ġthickly": 12113,
    "Ġbrazen": 23836,
    "Ġsympath": 4861,
    "ified": 3224,
    "ience": 816,
    "Ġinjunctions": 24269,
    "shrouded": 26361,
    "Ġdomes": 23672,
    "settle": 16661,
    "please": 8176,
    "inserted": 18886,
    "Ġmodes": 22218,
    "Ġtheology": 21275,
    "wid": 10134,
    "Ġstraggling": 23749,
    "Ġinject": 2713,
    "turbable": 24531,
    "Ġflukes": 5266,
    "Ġsnatches": 16543,
    "|": 96,
    "Ġprodigies": 19792,
    "actory": 8907,
    "Ġsoothing": 8172,
    "Ġportraits": 20141,
    "Ġintolerably": 15827,
    "il": 329,
    "Ġfeather": 8859,
    "Ġineffectual": 17383,
    "Ġchap": 5933,
    "range": 3492,
    "Ġwhitt": 18054,
    "Ġexternal": 8364,
    "idy": 21761,
    "Ġus": 496,
    "Ġdit": 21418,
    "Ġremains": 4910,
    "kinder": 24845,
    "Ġbarbarous": 13475,
    "Ġnantucketer": 6914,
    "Ġglens": 18847,
    "Ġutil": 4672,
    "Ġaint": 17744,
    "Ġrestless": 10413,
    "cen": 17502,
    "Ġstrang": 4162,
    "Ġsearched": 15817,
    "owl": 12680,
    "igms": 3047,
    "coffin": 10662,
    "culine": 19061,
    "hands": 5966,
    "Ġremainder": 9857,
    "Ġplant": 8899,
    "osure": 5306,
    "Ġcarved": 7946,
    "Ġ184": 16607,
    "elag": 12655,
    "Ġrays": 10330,
    "Ġmovement": 9967,
    "Ġpricking": 23221,
    "?âĢĿâĢĶ": 12895,
    "Ġupstairs": 5836,
    "Ġforty": 5719,
    "Ġdiscussed": 19558,
    "Ġpartake": 18670,
    "aits": 20765,
    "Ġdifferent": 1426,
    "mystical": 25317,
    "Ġgoverness": 8601,
    "gravel": 22616,
    "Ġsinners": 18949,
    "Ġinjury": 10540,
    "icions": 21560,
    "resolutions": 26164,
    "officer": 17054,
    "ection": 4948,
    "dict": 15338,
    "Ġscramble": 24578,
    "rebellum": 26165,
    "Ġentail": 9792,
    "Ġpawnbroker": 13657,
    "ish": 550,
    "Ġnobleman": 19390,
    "ĠĠĠĠĠĠĠĠĠĠĠĠĠĠĠĠĠĠĠĠĠĠĠĠĠĠĠĠĠĠĠĠĠĠĠĠĠĠĠĠĠĠĠĠĠĠ": 9952,
    "Ġsockets": 22085,
    "Ġmatters": 4974,
    "hypothe": 25905,
    "Ġconsoled": 18112,
    "commanded": 16988,
    "Ġcollins": 2178,
    "roy": 7853,
    "Ġcomes": 3422,
    "oran": 8788,
    "Ġinterests": 14570,
    "Ġbriefly": 11367,
    "Ġcubs": 20085,
    "Ġnail": 9195,
    "Ġgaz": 4047,
    "igating": 21697,
    "monster": 8591,
    "Ġlandowner": 23379,
    "Ġtoilings": 24742,
    "Ġmorcar": 13008,
    "Ġmaxim": 3085,
    "quarters": 24946,
    "Ġindividual": 5744,
    "Ġsnuffing": 25012,
    "Ġsummits": 14683,
    "shock": 19854,
    "Ġmanaging": 22322,
    "tomb": 21092,
    "Ġintim": 6838,
    "see": 3048,
    "disgraceful": 26076,
    "Ġexpectations": 13142,
    "Ġdisgra": 18549,
    "Ġsailing": 5323,
    "ourselves": 9010,
    "bethink": 25744,
    "Ġsupply": 6066,
    "Ġposition": 1954,
    "Ġmarsh": 9820,
    "âĢĿ)": 21808,
    "Ġlondon": 2840,
    "Ġaddresses": 3770,
    "rapt": 13972,
    "Ġenquired": 21937,
    "Ġinqu": 2966,
    "Ġoysters": 20577,
    "Ġmurmured": 7480,
    "lections": 4752,
    "Ġegotistical": 26191,
    "Ġinfernal": 11959,
    "Ġhark": 8427,
    "Ġsnapping": 19300,
    "Ġtow": 4395,
    "shows": 22455,
    "Ġspices": 22123,
    "Ġthroughout": 8876,
    "derstand": 655,
    "Ġwallowing": 24042,
    "Ġbrown": 6298,
    "-": 17,
    "Ġfath": 7364,
    "Ġsomething": 1792,
    "Ġrepine": 16409,
    "Ġease": 5629,
    "Ġsquire": 16180,
    "Ġpicturesqueness": 24480,
    "Ġunlocked": 14119,
    "Ġtestified": 16325,
    "Ġtrustees": 24108,
    "Ġblade": 11891,
    "tw": 2812,
    "thinness": 25810,
    "Ġpedestrian": 25879,
    "oles": 21004,
    "Ġamiable": 4270,
    "Ġwalrus": 14972,
    "Ġott": 13865,
    "aper": 4999,
    "Ġliberated": 19665,
    "Ġparacelsus": 15265,
    "Ġfer": 5529,
    "rance": 5993,
    "Ġeth": 17716,
    "Ġinvestigated": 25386,
    "Ġeating": 8135,
    "<MASK>": 4,
    "Ġplenty": 6708,
    "Ġconflag": 20334,
    "Ġsoapstone": 20509,
    "Ġnearing": 15792,
    "Ġvictoria": 14872,
    "Ġspeechless": 13352,
    "inclined": 10639,
    "Ġterrific": 6754,
    "Ġ1883": 23894,
    "Ġconverted": 16109,
    "Ġstore": 8453,
    "irts": 9237,
    "Ġfrenz": 25446,
    "jub": 20928,
    "Ġgigantic": 5914,
    "Ġdrove": 4984,
    "Ġsights": 7472,
    "Ġagreeing": 20017,
    "Ġfaire": 13363,
    "Ġ73": 24260,
    "conversations": 24749,
    "Ġemerg": 13423,
    "Ġdoorway": 14497,
    "Ġont": 18116,
    "moved": 9784,
    "Ġwhose": 2008,
    "igh": 2029,
    "Ġreceipt": 20354,
    "station": 10844,
    "bers": 2572,
    "Ġwars": 17785,
    "between": 5071,
    "ĠĠĠĠĠĠĠĠĠĠĠĠĠĠĠĠĠĠĠĠĠĠ": 16224,
    "stun": 18018,
    "organ": 15571,
    "Ġtenderly": 11314,
    "Ġubiqu": 18046,
    "Ġforests": 13591,
    "Ġconfident": 11138,
    "Ġkey": 2101,
    "coburg": 13597,
    "Ġrewards": 10848,
    "Ġstructured": 2973,
    "Ġfortresses": 23620,
    "month": 6463,
    "Ġwhitened": 24867,
    "Ġstead": 5650,
    "mission": 5969,
    "Ġnightmare": 18919,
    "Ġdavis": 25952,
    "Ġbud": 10168,
    "Ġadversity": 24303,
    "Ġmaintaining": 1509,
    "quietly": 10592,
    "Ġaroused": 15901,
    "Ġstick": 6025,
    "Ġcables": 15555,
    "blot": 20782,
    "ographical": 16786,
    "ulsive": 10233,
    "Ġpeddler": 24800,
    "Ġshrouded": 14968,
    "Ġconsumed": 10349,
    "Ġweap": 6155,
    "noticed": 14340,
    "Ġtimor": 24224,
    "°": 113,
    "Ġblandly": 20322,
    "forecastle": 10990,
    "aur": 15307,
    "Ġforeign": 9871,
    "Ġpoltroon": 26598,
    "Ġunfortunate": 5376,
    "Ġpeculiarities": 12068,
    "turns": 14905,
    "Ġbamboo": 17436,
    "Ġheedless": 14902,
    "Ġchivalrous": 20513,
    "Ġabrid": 22269,
    "hearse": 17748,
    "Ġnantucket": 2839,
    "orers": 14102,
    "Ġbodies": 8031,
    "Ġtemper": 955,
    "Ġhopes": 4234,
    "Ġgraphs": 25463,
    "actually": 14296,
    "tipt": 25083,
    "Ġgloves": 8574,
    "sloop": 26145,
    "Ġcrystall": 20225,
    "saved": 15430,
    "bub": 15315,
    "Ġimaginations": 16515,
    "Ġdivert": 23592,
    "Ġglu": 15665,
    "Ġubiquitous": 26195,
    "haul": 14764,
    "Ġredeemed": 25789,
    "Ġdistinctly": 7311,
    "Ġcaps": 8414,
    "Ġwickedness": 9525,
    "rise": 6226,
    "Ġnamely": 20688,
    "Ġwhales": 1826,
    "telling": 14438,
    "bringing": 17166,
    "pierced": 26141,
    "Ġshade": 6550,
    "Ġhateful": 19712,
    "Ġcell": 6237,
    "alive": 10827,
    "Ġmiserable": 3637,
    "ials": 11704,
    "Ġdwelt": 12602,
    "Ġ129": 24474,
    "Ġembarked": 17134,
    "Ġexcl": 3472,
    "owing": 7601,
    "dancing": 12452,
    "Ġincapable": 7423,
    "dischar": 19151,
    "ocratic": 17245,
    "jumped": 20245,
    "Ġvapor": 8699,
    "Ġcare": 1635,
    "Ġdrunk": 9423,
    "Ġconvivial": 16547,
    "dering": 5305,
    "Ġamateur": 22483,
    "Ġconcussion": 26300,
    "Ġcomplet": 4422,
    "Ġsail": 1673,
    "oot": 13764,
    "Ġglue": 15671,
    "Ġthousands": 6748,
    "Ġlivel": 11355,
    "Ġvanishing": 1347,
    "it": 276,
    "Ġindignity": 18832,
    "Ŀ": 256,
    "Ġforgetfulness": 14606,
    "Ġgold": 3276,
    "Ġlooked": 1801,
    "Ġdistance": 3481,
    "canallers": 22961,
    "Ġfairly": 6325,
    "Ġsewing": 21958,
    "Ġmiracle": 15092,
    "Ġopposing": 12039,
    "Ġpredef": 18515,
    "suggest": 20374,
    "Ġremind": 6057,
    "ladies": 9528,
    "une": 2786,
    "Ġterrify": 19359,
    "Ġhipp": 21489,
    "Ġhob": 12626,
    "affa": 23774,
    "Ġsyllables": 25298,
    "rap": 21625,
    "circled": 24187,
    "Ġbreaths": 14856,
    "Ġstifle": 18073,
    "xible": 13807,
    "Ġpeeping": 16125,
    "rant": 11516,
    "Ġbreckinridge": 14523,
    "Ġseems": 2481,
    "Ġcontinued": 2923,
    "Ġtissu": 25920,
    "mother": 5480,
    "wonted": 13492,
    "Ġemployment": 8628,
    "Ġderived": 8238,
    "Ġbye": 12735,
    "fallen": 19658,
    "Ġtrust": 4082,
    "leful": 17842,
    "Ġmajest": 24059,
    "Ġbrooks": 25700,
    "Ġhig": 755,
    "Ġsend": 4109,
    "george": 26019,
    "ables": 7889,
    "Ġmyth": 18220,
    "conven": 6162,
    "Ġwhispered": 5337,
    "Ġcorn": 9349,
    "Ġgunwales": 12238,
    "Ġgourmand": 26466,
    "Ġleaving": 3906,
    "ago": 14064,
    "Ġtiny": 11552,
    "ctuous": 9205,
    "luxur": 25822,
    "useness": 22289,
    "Ġcats": 8979,
    "Ġpassage": 3887,
    "Ġseated": 4539,
    "Ġneither": 3688,
    "Ġcounteracted": 19861,
    "all": 485,
    "Ġpalm": 10513,
    "Ġcharacteristic": 12046,
    "ician": 21562,
    "rock": 15638,
    "load": 12878,
    "Ġhides": 16262,
    "mankind": 14373,
    "Ġfeared": 5930,
    "Ġhamp": 12627,
    "Ġjacket": 6489,
    "Ġsheet": 6262,
    "Ġdivision": 19442,
    "Ġtable": 2498,
    "Ġsomewhere": 5384,
    "Ġslavery": 16305,
    "Ġdis": 695,
    "Ġtreachery": 15100,
    "willingly": 11981,
    "bore": 13685,
    "Ġmetaphysical": 26069,
    "Ġembodied": 25848,
    "histicated": 20900,
    "anke": 15558,
    "Ġsandwich": 19827,
    "Ġlect": 9222,
    "Ġepoch": 26472,
    "Ġquery": 2479,
    "fel": 8733,
    "Ġsummarization": 3649,
    "Ġunsh": 14114,
    "Ġbowls": 23768,
    "inqu": 6121,
    "Ġthunders": 15635,
    "years": 6883,
    "asses": 7016,
    "custom": 15332,
    "talk": 6656,
    "Ġingrat": 16840,
    "Ġobli": 9315,
    "horror": 13158,
    "nowadays": 22335,
    "Ġskilful": 25837,
    "Ġread": 1446,
    "Ġpredicting": 2415,
    "Ġmitigating": 1617,
    "rugg": 15894,
    "Ġdesiring": 14411,
    "precise": 19349,
    "eleg": 20848,
    "Ġsqu": 1039,
    "Ġshipping": 14103,
    "fleet": 15013,
    "Ġexpl": 486,
    "Ġret": 1380,
    "Ġprehensile": 26534,
    "innacle": 7519,
    "ape": 1903,
    "nor": 2742,
    "uctive": 17696,
    "Ġhospitality": 13512,
    "Ġflail": 23004,
    "Ġremot": 8543,
    "Ġmerryweather": 9521,
    "Ġrepair": 11977,
    "union": 15767,
    "Ġdestroyed": 5271,
    "Ġtreacher": 8604,
    "Ġabominate": 20063,
    "glimmer": 26321,
    "asing": 5911,
    "Ġxliv": 23407,
    "iah": 14413,
    "Ġattics": 22618,
    "ogrand": 26261,
    "Ġdod": 6672,
    "Ġdaybreak": 18726,
    "anations": 12573,
    "Ġtastes": 15476,
    "silence": 8044,
    "Ġactivation": 918,
    "udg": 22747,
    "irs": 14069,
    "Ġmeas": 1099,
    "closed": 23152,
    "Ġsuspect": 5758,
    "Ġvinc": 14084,
    "Ġaberdeen": 26541,
    "Ġphilipses": 24452,
    "reement": 15510,
    "readers": 23844,
    "autions": 20766,
    "Ġunivers": 2125,
    "Ġstriding": 16089,
    "Ġoutright": 18413,
    "arnel": 18124,
    "Ġembattled": 26289,
    "Ġequally": 5257,
    "Ġbuckets": 17034,
    "Ġvirtual": 11240,
    "Ġmut": 3584,
    "Ġpy": 21449,
    "Ġbible": 9318,
    "Ġadver": 5641,
    "jammed": 25906,
    "Ġgle": 7858,
    "Ġincreasingly": 9369,
    "Ġroasted": 18460,
    "Ġrendered": 5773,
    "Ġparl": 8177,
    "knell": 24555,
    "Ġplank": 7033,
    "geneva": 13729,
    "Ġfascinated": 25635,
    "Ġloom": 7628,
    "Ġkeener": 22910,
    "Ġintelligence": 562,
    "Ġsleepy": 8267,
    "hump": 12475,
    "Ġspan": 11724,
    "Ġeverlasting": 9336,
    "hibited": 17426,
    "Ġelsewhere": 7712,
    "ater": 3369,
    "Ġdeeper": 2082,
    "nearest": 16020,
    "Ġunsupervised": 2501,
    "Ġbumpkins": 25281,
    "sue": 2075,
    "ultaneously": 4194,
    "Ġchests": 19670,
    "Ġcaptain": 1604,
    "Ġcrawford": 24893,
    "Ġevol": 2815,
    "Ġrinal": 21974,
    "brous": 19198,
    "mists": 17605,
    "Ġaggregate": 25677,
    "fav": 6646,
    "raved": 18012,
    "Ġoften": 1955,
    "Ġsunny": 13084,
    "Ġdespite": 19351,
    "eping": 5833,
    "Ġglades": 19370,
    "bular": 15312,
    "Ġembarkation": 25123,
    "Ġpretext": 22226,
    "merely": 16132,
    "oce": 10714,
    "Ġunchanging": 22042,
    "Ġsleek": 23382,
    "ivery": 17572,
    "salis": 25147,
    "Ġdraughts": 20220,
    "Ġgross": 11624,
    "Ġfortnight": 6200,
    "Ġlongbourn": 3506,
    "Ġabsolute": 6765,
    "Ġoperations": 2301,
    "supp": 4163,
    "collinses": 19922,
    "harpooneer": 8688,
    "folio": 10546,
    "Ġstability": 1363,
    "soon": 4031,
    "umes": 10917,
    "Ġrigged": 16717,
    "yes": 982,
    "Ġexistence": 4706,
    "Ġcher": 6129,
    "Ġconstitution": 20107,
    "Ġundisturbed": 19518,
    "Ġtype": 2020,
    "Ġlean": 7605,
    "Ġsaddest": 16662,
    "Ġaccidents": 10295,
    "Ġhousekeeper": 7456,
    "Ġpumps": 8426,
    "Ġ23": 13191,
    "Ġcut": 2644,
    "Ġyarman": 12702,
    "goose": 19101,
    "atch": 675,
    "Ġlashings": 25097,
    "chambers": 25454,
    "Ġnamed": 6139,
    "Ġmould": 6519,
    "bly": 6110,
    "Ġcitations": 25437,
    "low": 652,
    "Ġado": 7626,
    "shop": 14238,
    "Ġdimension": 3238,
    "Ġfrankenstein": 7095,
    "Ġequality": 16357,
    "charles": 14698,
    "Ġabsorbing": 17128,
    "Ġillustrate": 25065,
    "Ġappear": 2484,
    "Ġchocks": 13344,
    "Ġeuroclydon": 15295,
    "vigorous": 25917,
    "Ġhumanity": 6731,
    "Ġsparks": 22125,
    "Ġcrimes": 8588,
    "Ġstrict": 7222,
    "Ġbravery": 23833,
    "Ġpardon": 5727,
    "rat": 8755,
    "Ġauthent": 14508,
    "embarrassed": 20595,
    "outward": 22157,
    "nd": 11503,
    "Ġdetermined": 2219,
    "Ġ34": 16677,
    "ocr": 10468,
    "rench": 3970,
    "Ġunden": 22010,
    "tend": 17674,
    "Ġhelmsman": 10504,
    "Ġlasted": 11053,
    "Ġ5": 4935,
    "Ġdevout": 14325,
    "Ġconvolutional": 2161,
    "Ġmercifully": 20177,
    "iffs": 9021,
    "Ġglut": 18846,
    "Ġconst": 1909,
    "third": 8167,
    "Ġhostile": 19938,
    "Ġnewcomer": 26040,
    "Ġshoals": 13132,
    "Ġassure": 4418,
    "rayed": 23562,
    "speaks": 19718,
    "edily": 17943,
    "care": 4928,
    "Ġabsorbed": 12329,
    "carried": 16711,
    "enjoyment": 17257,
    "Ġbelow": 4065,
    "Ġbrutality": 26276,
    "asol": 21537,
    "Ġlux": 8813,
    "Ġstalls": 25647,
    "ortal": 6265,
    "owards": 4593,
    "Ġtriumphal": 24371,
    "antic": 1605,
    "Ġwound": 4526,
    "under": 3133,
    "Ġhunters": 6300,
    "Ġscant": 22277,
    "lead": 10165,
    "da": 17514,
    "âĢĶâĢĶâĢĿ": 15937,
    "desire": 14474,
    "Ġamaz": 5385,
    "Ġobservant": 20108,
    "Ġerecting": 24652,
    "Ġreveal": 11200,
    "Ġpopularly": 12239,
    "onomy": 12544,
    "Ġenrapt": 21936,
    "feared": 11801,
    "Ġtheories": 13848,
    "collins": 6916,
    "Ġglimmered": 20170,
    "Ġdeal": 3609,
    "complet": 11383,
    "Ġnevertheless": 5040,
    "Ġscrewing": 20207,
    "Ġpattern": 1300,
    "Ġdropped": 4470,
    "Ġrep": 1937,
    "Ġcalendar": 18876,
    "side": 2303,
    "Ġclerval": 4653,
    "Ġinsatiate": 19269,
    "Ġpurple": 10433,
    "investigations": 25533,
    "Ġapplied": 6186,
    "Ġadmits": 23552,
    "abominable": 20592,
    "Ġjustified": 11902,
    "Ġagainst": 1698,
    "aware": 16293,
    "Ġchar": 1703,
    "Ġmanip": 8871,
    "Ġunobserved": 18249,
    "baby": 25515,
    "Ġcontact": 9280,
    "sings": 4252,
    "Ġpasses": 2681,
    "Ġsneezing": 12245,
    "Ġtinge": 25087,
    "Ġpore": 21456,
    "**:": 4737,
    "Ġpersevering": 20232,
    "Ġscholars": 26112,
    "Ġbridegroom": 10604,
    "Ġstrasburgh": 18614,
    "imen": 12683,
    "impl": 21704,
    "Ġcard": 7363,
    "education": 20300,
    "arrival": 15597,
    "sacrifice": 13491,
    "Ġloth": 17965,
    "Ġdesperate": 7776,
    "Ġcurious": 3359,
    "Ġpage": 6978,
    "willing": 6592,
    "mid": 5617,
    "Ġjeopardy": 13595,
    "vib": 21114,
    "ans": 458,
    "Ġcommonest": 23087,
    "Ġbias": 1191,
    "mariners": 19547,
    "Ġsway": 7571,
    "Ġcrockery": 24301,
    "Ġengland": 3859,
    "Ġfurther": 1056,
    "Ġdarkened": 16431,
    "[": 63,
    "Ġshouldn": 14324,
    "Ġmarriage": 3187,
    "fow": 20852,
    "Ġoverheard": 11772,
    "Ġwindings": 18909,
    "Ġeddies": 23436,
    "rollable": 13944,
    "Ġaudacious": 13459,
    "Ġfine": 1317,
    "Ġopt": 793,
    "supportable": 12368,
    "ent": 305,
    "Ġfixedly": 19247,
    "Ġinterpretation": 19715,
    "Ġblot": 9811,
    "Ġpaternal": 16386,
    "complacency": 19913,
    "Ġcousin": 3706,
    "Ġglobal": 2370,
    "Ġhen": 3500,
    "tarpaulins": 26405,
    "Ġfountain": 7365,
    "Ġcurve": 22989,
    "laugh": 10108,
    "Ġwelcomed": 9481,
    "Ġcompress": 21841,
    "Ġgradually": 3400,
    "aves": 3600,
    "Ġdiscu": 4364,
    "Ġuncl": 22013,
    "Ġprogno": 14039,
    "Ġacceler": 1609,
    "Ġsavag": 19372,
    "Ġmoved": 4839,
    "Ġassent": 12730,
    "ou": 287,
    "Ġeavesdroppers": 25963,
    "Ġcountryside": 23595,
    "Ġfurniture": 6476,
    "Ġwhiskers": 10492,
    "Ġadventure": 5980,
    "inching": 21188,
    "Ġsaxe": 13627,
    "Ġdamp": 8263,
    "Ġpenalizing": 13089,
    "Ġbarred": 9002,
    "vital": 17700,
    "Ġprophecy": 25706,
    "Ġblankness": 24610,
    "Ġtreacherously": 25129,
    "Ġoutbreak": 22314,
    "Ġ37": 24077,
    "Ġgrinned": 16857,
    "Ġviii": 16412,
    "buried": 14848,
    "Ġorthodox": 22092,
    "Ġslackened": 15125,
    "Ġsobbing": 14136,
    "Ġserene": 8166,
    "Ġprocedures": 9411,
    "Ġpersuasions": 16631,
    "avor": 14278,
    "vint": 21113,
    "Ġminut": 2201,
    "Ġstrands": 25574,
    "Ġanyhow": 14254,
    "frequently": 9978,
    "Ġloathed": 15873,
    "Ġmirror": 12376,
    "a": 69,
    "Ġpasseng": 12968,
    "Ġw": 272,
    "artificial": 998,
    "stolidity": 21660,
    "Ġuseful": 3559,
    "gust": 6360,
    "oked": 4309,
    "Ġbutchers": 18272,
    "Ġimpulse": 10023,
    "aged": 2608,
    "Ġnorthward": 13320,
    "bale": 20773,
    "civilized": 17075,
    "Ġomn": 8409,
    "Ġnumberless": 16414,
    "idel": 5299,
    "Ġstars": 6149,
    "Ġcoming": 2620,
    "Ġrhone": 25230,
    "Ġdepart": 4656,
    "Ġtool": 21508,
    "Ġcompany": 3722,
    "Ġruminated": 24599,
    "Ġconfirming": 25321,
    "Ġheaped": 18037,
    "Ġpleasing": 6190,
    "Ġliterature": 17148,
    "woman": 5898,
    "Ġunequal": 14841,
    "Ġholder": 6724,
    "Ġrolled": 4429,
    "Ġhey": 11640,
    "formity": 10278,
    "eronomy": 15523,
    "here": 2550,
    "Ġcases": 3964,
    "nial": 20983,
    "Ġrocked": 12853,
    "Ġliveliest": 24775,
    "ĠâĢľâĢĺ": 8503,
    "sink": 11521,
    "Ġcontinent": 14887,
    "laden": 14928,
    "Û": 156,
    "Ġhath": 12625,
    "ose": 718,
    "bethinking": 25745,
    "Ġ56": 24324,
    "Ġmaze": 23827,
    "Ġclad": 12837,
    "Ġsuspicions": 9478,
    "Ġprodigy": 19791,
    "Ġaloft": 4304,
    "Ġworn": 6445,
    "Ġunb": 10907,
    "ere": 6789,
    "Ġpia": 21462,
    "Ġimprudent": 12844,
    "Ġimpelled": 11780,
    "Ġsumatra": 15285,
    "olly": 3223,
    "Ġpaused": 5416,
    "pper": 3207,
    "Ġfugitive": 17326,
    "utral": 12660,
    "Ġcrackling": 24958,
    "anque": 13887,
    "stuff": 15685,
    "Ġundoubted": 19513,
    "Ġcolonies": 14374,
    "Ġtens": 17723,
    "Ġfetching": 16896,
    "iteness": 4392,
    "ricted": 15419,
    "playing": 19656,
    "Ġbeacon": 21753,
    "Ġrnns": 2393,
    "Ġallowance": 14388,
    "ely": 622,
    "Ġinhuman": 13928,
    "versed": 9824,
    "soldiers": 25911,
    "Ġsaintly": 25931,
    "hung": 8380,
    "Ġtalks": 23368,
    "Ġautonom": 10415,
    "Ġmasked": 3696,
    "ounding": 22389,
    "Ġsurmise": 12293,
    "Ġsecret": 3721,
    "icked": 10332,
    "touched": 15438,
    "iring": 1706,
    "Ġant": 4346,
    "Ġgrapple": 25811,
    "Ġcomp": 724,
    "Ġthinks": 6169,
    "Ġgarnery": 17386,
    "Ġdearest": 5457,
    "Ġmind": 1619,
    "Ġavoided": 13258,
    "Ġexact": 2543,
    "Ġgrey": 4511,
    "waist": 13417,
    "Ġenric": 21931,
    "excellent": 8043,
    "Ġdiscreet": 16481,
    "--âĢĺ": 22845,
    "Ġpersisting": 18878,
    "shud": 18495,
    "amplified": 26494,
    "Ġbraw": 23831,
    "ipagos": 22363,
    "eck": 20843,
    "Ġkneel": 14806,
    "opolising": 25676,
    "promising": 24726,
    "sciss": 18850,
    "Ġbroadened": 23982,
    "Ġaccidental": 16848,
    "Ġcrushed": 9422,
    "Ġaccompan": 5513,
    "Ġgro": 4396,
    "as": 302,
    "composure": 24033,
    "Ġbet": 1134,
    "stretched": 10207,
    "Ġtreading": 16503,
    "Ġgleams": 17309,
    "Ġramble": 9313,
    "Ġmed": 3990,
    "Ġsees": 8842,
    "ricade": 13036,
    "Ġretreats": 16928,
    "Ġlabourers": 23328,
    "Ġsupper": 4665,
    "Ġfoam": 6891,
    "bounded": 13438,
    "boom": 18997,
    "Ġfireboard": 23531,
    "Ġevangel": 11280,
    "Ġirresistible": 13111,
    "Ġtoma": 7373,
    "Ġhaunt": 18197,
    "eminently": 25105,
    "adventures": 20255,
    "Ġdarkness": 4278,
    "ounded": 9747,
    "Ġboarding": 12084,
    "Ġillustrious": 17109,
    "ď": 208,
    "ortions": 10948,
    "Ġtranslation": 3088,
    "Ġdesperado": 19818,
    "Ġstreams": 12190,
    "Ġnorthumbria": 24171,
    "bed": 3288,
    "determined": 9079,
    "Ġwant": 1116,
    "Ġdilatory": 24705,
    "Ġemergencies": 17361,
    "Ġrejoicing": 13420,
    "arrange": 23764,
    "Ġrelationship": 2316,
    "rab": 7596,
    "Ġancient": 5443,
    "home": 7341,
    "Ġindulge": 10582,
    "allies": 14165,
    "danger": 10089,
    "satisfied": 10578,
    "endeavoured": 12278,
    "Ġsteered": 11092,
    "Ġcash": 9652,
    "Ġawa": 7713,
    "Ġenviron": 3726,
    "contr": 12055,
    "seamen": 13625,
    "Ġwidest": 24234,
    "Ġconsuming": 22789,
    "Ġintimate": 6549,
    "Ġcage": 17825,
    "arrang": 14652,
    "Ġattend": 5035,
    "Ġfoolscap": 24158,
    "Ġinsincere": 26599,
    "sole": 6168,
    "Ġindignantly": 16939,
    "Ġshift": 2282,
    "Ġoppressive": 20454,
    "onsense": 6431,
    "Ġbalmy": 22900,
    "Ġyesterday": 5332,
    "Ġpoets": 11819,
    "Ġcounties": 23299,
    "atever": 3078,
    "Ġwrist": 8242,
    "Ġimprudence": 10297,
    "angled": 6844,
    "insisted": 23064,
    "ending": 1989,
    "uish": 5431,
    "moderate": 22884,
    "Ġcup": 5697,
    "Ġ7": 4745,
    "Ġaction": 5796,
    "adam": 15727,
    "ti": 8389,
    "ilities": 6991,
    "Ġmarred": 23031,
    "zy": 2672,
    "nne": 20988,
    "idays": 21767,
    "Ġperpetually": 17070,
    "deadly": 17100,
    "Ġfanciful": 24788,
    "per": 480,
    "ref": 6515,
    "Ġdiscovering": 13356,
    "Ġexpressions": 7705,
    "Ġ(": 595,
    "Ġguernsey": 9350,
    "afflicted": 23776,
    "Ġsquat": 14367,
    "Ġvari": 832,
    "apothe": 22332,
    "Ġribbons": 24329,
    "Ġsallied": 12534,
    "Ġpupp": 10820,
    "Ġcrowded": 8011,
    "Ġselected": 9710,
    "intention": 10367,
    "Ġdetermining": 14420,
    "Ġofficious": 19346,
    "Ġburnwell": 13267,
    "Ġtinker": 15130,
    "otle": 21794,
    "Ġexpands": 25237,
    "toes": 22562,
    "Ġblending": 14399,
    "Ġinspire": 11994,
    "fted": 9118,
    "Ġbritannica": 24680,
    "simultaneously": 19863,
    "Ġcomputation": 965,
    "Ġnoisier": 4623,
    "wretchedness": 17252,
    "Ġdepress": 14045,
    "indulged": 22372,
    "Ġwashing": 9704,
    "Q": 53,
    "imson": 12686,
    "Ġentr": 14338,
    "Ġcovariate": 2352,
    "Ġthereof": 22365,
    "Ġadaptation": 3156,
    "inities": 21184,
    "Ġbrightest": 13223,
    "Ġapologies": 25196,
    "Ġbusily": 9383,
    "ain": 343,
    "lp": 899,
    "Ġjavelins": 26105,
    "naturedly": 24840,
    "itions": 4149,
    "Ġstalked": 20427,
    "bel": 3837,
    "mou": 10708,
    "Ġedged": 23435,
    "Ġequin": 14495,
    "laug": 10707,
    "else": 6533,
    "Ġmurmur": 14589,
    "://": 11465,
    "ward": 705,
    "Ġproves": 14037,
    "carbuncle": 26382,
    "hosmer": 25902,
    "rable": 11631,
    "ittleness": 22376,
    "tri": 11529,
    "Ġpleasurable": 23336,
    "hatherley": 17568,
    "Ġarrives": 23606,
    "atters": 18493,
    "Ġdissect": 16051,
    "Ġpurpose": 2710,
    "Ġtrotting": 19974,
    "Ġitalian": 12408,
    "abst": 21785,
    "ribute": 7225,
    "Ġdoom": 6417,
    "forever": 22516,
    "iline": 21718,
    "Ġsable": 15499,
    "Ġcomplaints": 12262,
    "ois": 9134,
    "Ġawful": 6199,
    "Ġlargely": 14284,
    "Ġgreatly": 5849,
    "dread": 8728,
    "emin": 8470,
    "Ġexhibiting": 19837,
    "mile": 17597,
    "Ġlonged": 6436,
    "Ġprow": 6684,
    "Ġdromedary": 17438,
    "night": 2166,
    "Ġabruptness": 25299,
    "hall": 8084,
    "Ġharpooneer": 3773,
    "Ġse": 402,
    "arity": 1301,
    "Ġintensely": 17017,
    "Ġashes": 7616,
    "year": 11095,
    "arrow": 4181,
    "Ġpeered": 18668,
    "Ġagatha": 6866,
    "Ġreptile": 15276,
    "Ġcontinual": 6777,
    "gentleness": 24844,
    "Ġmagnified": 23200,
    "miraculous": 26396,
    "lant": 20946,
    "Ġnominally": 17231,
    "ophisticated": 22475,
    "quietude": 24655,
    "Ġspasmod": 12412,
    "Ġascertaining": 17203,
    "Ġouter": 6859,
    "Ġdared": 5440,
    "Ġpeleg": 3740,
    "pire": 9135,
    "vert": 15712,
    "lucas": 15150,
    "Ġwink": 11568,
    "Ġcorrespondent": 19821,
    "supplemental": 25874,
    "£": 101,
    "Ġtus": 10749,
    "Ġwarbling": 26168,
    "Ġangle": 8602,
    "Ġretreated": 13432,
    "serious": 14447,
    "Ġadmon": 15866,
    "Ġbills": 17860,
    "Ġcommodores": 25374,
    "orts": 2557,
    "Ġoutrageous": 20609,
    "Ġallev": 18100,
    "Ġrepositories": 23362,
    "Ġhan": 15615,
    "Ġreus": 8821,
    "doubt": 6782,
    "ens": 701,
    "Ġresnet": 5473,
    "Ġsitting": 3606,
    "Ġ19": 6719,
    "Ġfeatures": 1431,
    "Ġtennessee": 26596,
    "shadows": 25479,
    "seas": 14032,
    "Ġbags": 24537,
    "berg": 11857,
    "Ġgiving": 4088,
    "loun": 17588,
    "okes": 9276,
    "image": 9685,
    "goodness": 19288,
    "Ġmerciless": 25246,
    "relu": 17759,
    "Ġtunes": 24619,
    "Ġdens": 21422,
    "cular": 15327,
    "Ġovertaken": 18429,
    "Ġassembl": 20059,
    "Ġmeryton": 4437,
    "cerem": 15675,
    "Ġhappy": 2464,
    "Ġunharmed": 15138,
    "Ġattractions": 12914,
    "urred": 8449,
    "Ġbeholding": 8668,
    "Ġbrigs": 20321,
    "Ġarranging": 11174,
    "Ġtelescope": 17347,
    "min": 4570,
    "Ġassertions": 19945,
    "Ġturban": 23612,
    "irregular": 21908,
    "Ġindividuality": 14908,
    "Ġoblige": 10488,
    "ellation": 12750,
    "tal": 17670,
    "Ġ17": 5740,
    "pondicherry": 26400,
    "aus": 1502,
    "Ġdelineations": 26058,
    "oss": 10115,
    "Ġdivergence": 2729,
    "Ġfortunes": 12176,
    "rud": 4191,
    "Ġreproached": 24891,
    "delighted": 10562,
    "Ġcoppers": 22581,
    "Ġlashing": 11615,
    "1": 21,
    "yielded": 25756,
    "Ġcrystal": 17214,
    "Ġpantry": 20294,
    "Ġadvised": 16210,
    "ivot": 11716,
    "Ġmant": 9647,
    "azed": 9398,
    "Ġbouquet": 20682,
    "ouse": 1192,
    "thickness": 25367,
    "othic": 16214,
    "Ġopenness": 18956,
    "Ġmira": 8406,
    "Ġresentful": 24631,
    "Ġgallons": 14817,
    "Ġhate": 5445,
    "tor": 15431,
    "Ġcretan": 22724,
    "Ġsch": 13834,
    "secut": 7866,
    "Ġpend": 15603,
    "Ġundertone": 23237,
    "visits": 24223,
    "Ġprocured": 8676,
    "Ġindecision": 25781,
    "Ġtrouble": 3692,
    "mmet": 10988,
    "sively": 13785,
    "Ġregarding": 13209,
    "Ġcompassion": 6487,
    "easy": 9592,
    "nowledge": 10289,
    "Ġspine": 7407,
    "Ġawe": 7147,
    "Ġstudents": 23203,
    "Ġpiteous": 17917,
    "Ġscra": 5840,
    "Ġfitting": 21406,
    "Ġhoarsely": 26302,
    "Ġweep": 7619,
    "Ġtoward": 17946,
    "Ġkitchen": 8495,
    "forbearance": 22792,
    "Ġcontrived": 10303,
    "Ġgibraltar": 25787,
    "urities": 18049,
    "answered": 10273,
    "Ġdressing": 7090,
    "Ġshores": 8847,
    "Ġcommence": 6167,
    "Ġantichronical": 26609,
    "Ġbl": 1190,
    "Ġcalamity": 17348,
    "ics": 3254,
    "Ġadmeasure": 18293,
    "ational": 5716,
    "Ġdecanting": 22440,
    "Ġmumbling": 11573,
    "Ġrefined": 18701,
    "Ġoctober": 17226,
    "anybody": 12080,
    "Ġdependency": 3486,
    "Ġcomparative": 10542,
    "agers": 5633,
    "Ġarithmetic": 18346,
    "Ġrelation": 2141,
    "ternatural": 12712,
    "Ġassociate": 13449,
    "Ġchalk": 15931,
    "Ġyear": 3283,
    "vii": 13147,
    "homage": 25616,
    "Ġengineering": 3026,
    "put": 414,
    "Ġdepl": 14043,
    "Ġfacilitate": 26098,
    "scorn": 22981,
    "grate": 23410,
    "Ġoar": 6236,
    "arming": 8951,
    "adventurous": 25361,
    "Ġdoth": 13907,
    "Ġsuck": 15857,
    "Ġuppermost": 15277,
    "Ġsundry": 20072,
    "Ġcurv": 3509,
    "impud": 23758,
    "Ġbracing": 16580,
    "othing": 6995,
    "Ġunspeakable": 10055,
    "ipper": 13739,
    "ket": 17582,
    "Ġentered": 2846,
    "Ġclue": 7020,
    "Ġagitated": 7647,
    "âĢĶâĢĻâĢĿ": 20062,
    "Ġstacks": 18074,
    "Ġyour": 634,
    "Ġturing": 7566,
    "Ġobstinate": 11336,
    "Ġxxv": 19716,
    "likelihood": 4992,
    "arbuck": 2025,
    "Ġexquisite": 12380,
    "Ġpoliceman": 15257,
    "sect": 8152,
    "Ġxlvi": 25590,
    "les": 1018,
    "Ġwarnings": 16881,
    "Ġjagged": 18407,
    "Ġsubordinate": 18722,
    "ception": 6562,
    "Ġmarshy": 20217,
    "Ġvibration": 17099,
    "Ġpounds": 5368,
    "Ġfragments": 19052,
    "Ġcaress": 16338,
    "Ġagonized": 25372,
    "Ġtrans": 631,
    "ance": 479,
    "decease": 25557,
    "enched": 10154,
    "fere": 10989,
    "Ġimplore": 24871,
    "Ġinherent": 4590,
    "Ġhog": 13923,
    "Ġwhereby": 11834,
    "Ġhumility": 12982,
    "Ġshort": 2222,
    "recogn": 13424,
    "Ġphaet": 16316,
    "prevailed": 17344,
    "mill": 13753,
    "Ġsl": 1498,
    "rey": 12535,
    "Ġenduring": 16301,
    "Ġdistantly": 18534,
    "concent": 19478,
    "comrade": 20623,
    "thed": 8826,
    "fedallah": 25522,
    "deed": 1518,
    "Ġdoted": 21431,
    "progress": 11986,
    "Ġapparel": 20434,
    "Ġunmanner": 22026,
    "Ġsurface": 5119,
    "Ġlanguor": 12845,
    "curious": 10482,
    "hood": 2662,
    "Ġintruding": 21988,
    "Ġenticements": 26034,
    "Ġexperienced": 6583,
    "Ġmak": 10778,
    "Ġdec": 641,
    "oldened": 22636,
    "Ġspanish": 2828,
    "Ġgiants": 25960,
    "Ġbeget": 9225,
    "lotte": 3329,
    "cracy": 24690,
    "Ġloite": 22108,
    "Ġunlikely": 10908,
    "Ġprair": 7746,
    "Ġsolitudes": 22881,
    "Ġ24": 13192,
    "Ġlevelled": 11284,
    "body": 2309,
    "Ġtink": 9148,
    "Ġunsatisfied": 22041,
    "Ġqu": 605,
    "additional": 20462,
    "Ġmediocr": 24083,
    "Ġladyship": 5046,
    "gee": 15975,
    "erated": 21270,
    "showed": 16026,
    "bird": 9585,
    "farm": 15350,
    "Ġpraises": 16730,
    "Ġimmeasurable": 26227,
    "Ġchatbots": 11349,
    "Ġswing": 13034,
    "Ġjingling": 26017,
    "neglected": 25669,
    "Ġmelancholy": 5606,
    "Ġlabelled": 23326,
    "Ġgaily": 16748,
    "Ġwe": 387,
    "Ġthreaten": 24374,
    "Ġmutable": 23952,
    "Ġgover": 2460,
    "amp": 2607,
    "dation": 2616,
    "Ġlanding": 11983,
    "wam": 10135,
    "Ġglassy": 19559,
    "devoted": 20015,
    "mare": 17599,
    "Ġday": 956,
    "didn": 9006,
    "Ġfowl": 11330,
    "Ġcontribut": 12856,
    "eness": 2292,
    "_âĢĶâĢĿ": 20762,
    "critical": 19502,
    "Ġalbert": 12703,
    "Ġunembarrassed": 22066,
    "oved": 5215,
    "Ġune": 4597,
    "Ġfamiliar": 5511,
    "Ġguitar": 16267,
    "housekeeper": 24102,
    "Ġweights": 897,
    "Ġformerly": 7493,
    "strength": 13979,
    "Ġrow": 5309,
    "gment": 4390,
    "Ġover": 555,
    "Ġmock": 3693,
    "osing": 3691,
    "Ġdist": 681,
    "Ġprosperity": 20256,
    "continuance": 19717,
    "Ď": 207,
    "Ġretarded": 23069,
    "mped": 16647,
    "Ġtroub": 22341,
    "acon": 10681,
    "ella": 12749,
    "Ġdisagreeable": 9297,
    "instances": 13318,
    "retreat": 23131,
    "Ġflowery": 16230,
    "Ġforetold": 23450,
    "omed": 13974,
    "covenant": 23561,
    "Ġlikes": 9407,
    "irting": 11684,
    "Ġexquis": 9698,
    "owed": 2268,
    "Ġfugitives": 25634,
    "Ġyawned": 15051,
    "Ġselves": 21221,
    "Ġgrapes": 15214,
    "particularly": 8339,
    "Ġoutputs": 2887,
    "Ġul": 6828,
    "Ġtrap": 7671,
    "Ġcommunicates": 24547,
    "master": 5687,
    "Ġbrother": 2749,
    "perform": 15897,
    "Ġentry": 11026,
    "hardly": 6491,
    "Ġjollies": 20368,
    "copyright": 5277,
    "experience": 17158,
    "Ġlizzy": 3545,
    "Ġactor": 16047,
    "Ġrecomm": 4996,
    "ceremony": 20588,
    "seek": 8836,
    "anyth": 5438,
    "Ġcandles": 9907,
    "Ē": 211,
    "Ġadvise": 7935,
    "ior": 2039,
    "Ġencoding": 4774,
    "Ġexcused": 23309,
    "Ġleaped": 8825,
    "Ġresource": 10993,
    "ass": 538,
    "unworthy": 18161,
    "Ġunceasingly": 20357,
    "oder": 2458,
    "Ġlids": 12273,
    "Ġdisgraceful": 15019,
    "icable": 6388,
    "Ġfilthy": 13246,
    "Ġscience": 1529,
    "derment": 22163,
    "active": 16101,
    "phology": 3007,
    "Ġloath": 7890,
    "Ġfelony": 18951,
    "Ġyarn": 10868,
    "Ġdrenched": 12600,
    "Ġprovinc": 16742,
    "buoy": 7760,
    "lee": 11584,
    "Ġidentified": 19150,
    "Ġpoker": 13921,
    "reasonable": 7751,
    "vitality": 20477,
    "Ġplu": 8798,
    "Ġabstra": 22268,
    "Ġconvergence": 971,
    "caps": 20806,
    "Ġsong": 5902,
    "Ġzoology": 22817,
    "Ġsculpture": 26016,
    "Ġsne": 6372,
    "benevolently": 25600,
    "Ġrallied": 14094,
    "Ġslept": 8258,
    "gazed": 15360,
    "wake": 11545,
    "Ġpropriet": 9549,
    "Ġrode": 15997,
    "esy": 9182,
    "Ġgentlemanlike": 12064,
    "Ġconjectured": 9996,
    "ieve": 1659,
    "Ġtour": 9147,
    "Ġankles": 17899,
    "cords": 25136,
    "Ġcluster": 13570,
    "ctions": 951,
    "day": 1857,
    "imperturbable": 25790,
    "Ġaffidavit": 20723,
    "comput": 2001,
    "Ġmatted": 22907,
    "Ġthereby": 7643,
    "informed": 17736,
    "Ġrashness": 25460,
    "Ġken": 22188,
    "Ġinfinitely": 8963,
    "Ġeffective": 1249,
    "Ġlandlady": 10422,
    "Ġfools": 14481,
    "Ġsuperlatively": 26075,
    "Ġsurpl": 19132,
    "Ġdaughters": 4421,
    "Ġanticipatingly": 26102,
    "happ": 3105,
    "Ġmines": 21307,
    "Ġir": 1992,
    "Ġdeliber": 7268,
    "ct": 309,
    "bitts": 26122,
    "Ġsaucer": 20604,
    "Ġinvestment": 24336,
    "Ġblundering": 26283,
    "oblivious": 26582,
    "Ġdetaining": 25818,
    "Ġany": 689,
    "Ġvulgar": 13603,
    "circumst": 5348,
    "Ġcontented": 9755,
    "Ġeff": 672,
    "Ġresults": 7308,
    "Ġbanish": 15567,
    "Ġsemantic": 1958,
    "Ġsinusoidal": 4801,
    "hauteur": 26391,
    "Ġmeasureless": 14709,
    "reel": 21232,
    "Ġrambled": 20167,
    "Ġcontinuously": 23204,
    "sort": 6798,
    "Ġbiography": 22764,
    "Ġyield": 5093,
    "deploy": 22140,
    "look": 2258,
    "Ġflexible": 23773,
    "Ġresort": 18563,
    "fer": 1914,
    "Ġstraps": 19309,
    "aving": 2406,
    "Ġvarying": 15808,
    "Ġtumult": 7114,
    "Ġjig": 15949,
    "Ġjetted": 24431,
    "tanh": 5204,
    "Ġattached": 5392,
    "tawny": 26404,
    "Ġwatching": 4854,
    "pagans": 25525,
    "Ġprocuring": 16870,
    "Ġvishnoo": 12748,
    "they": 1879,
    "Ġpack": 5444,
    "Ġbodings": 21389,
    "Ġpipeline": 2549,
    "Ġdirecting": 16298,
    "Ġdigest": 24647,
    "Ġdeveloped": 16331,
    "Ġdeserving": 14752,
    "partiality": 13159,
    "Ġwilson": 6629,
    "Ġowners": 7662,
    "'d": 12425,
    "ohn": 4560,
    "purpose": 10043,
    "aited": 12433,
    "Ġdiggings": 24649,
    "ubines": 22956,
    "aloes": 21499,
    "pinn": 21025,
    "loose": 11803,
    "Ġbowing": 10475,
    "Ġcarefully": 6304,
    "Ġrecollected": 8310,
    "another": 5439,
    "Ġmorbid": 16232,
    "Ġlizard": 12651,
    "Ġreports": 19084,
    "ader": 14011,
    "ii": 4017,
    "Ġsharpen": 13568,
    "display": 19154,
    "Ġcarted": 21347,
    "Ġdisinterested": 16055,
    "Ġmessages": 24981,
    "do": 1994,
    "Ġdexterous": 15147,
    "Ġulster": 14997,
    "Ġhosts": 19937,
    "Ġmeantime": 6206,
    "eli": 3876,
    "Ġcontinually": 5041,
    "iest": 4040,
    "Ġneg": 1332,
    "onstr": 12543,
    "Ġthrew": 3976,
    "ead": 2601,
    "Ġsoles": 22082,
    "Ġwallowed": 24041,
    "Ġwrinkles": 8570,
    "Ġspam": 7630,
    "Ġimm": 3968,
    "immed": 9217,
    "tem": 6369,
    "Ġperdition": 15990,
    "Ġunreasonably": 17450,
    "Ġrazors": 22660,
    "Ġroads": 13287,
    "Ġincluded": 8930,
    "Ġstole": 7952,
    "Ġbrimstone": 25686,
    "Ġovertake": 15971,
    "satisf": 5781,
    "Ġsymmet": 11745,
    "Ġmin": 1027,
    "Ġambergris": 8705,
    "¦": 104,
    "Ġledgers": 23935,
    "avers": 17480,
    "Ġsympathetic": 17358,
    "etuous": 21580,
    "Ġincluding": 2848,
    "Ġvaliantly": 22793,
    "Ġthreatens": 24375,
    "false": 15353,
    "ete": 9203,
    "Ġjavel": 17084,
    "Ġnever": 1021,
    "Ġsummers": 23871,
    "soundest": 24797,
    "volut": 1562,
    "Ġstren": 15717,
    "Ġancestry": 25641,
    "Ġdiscoveries": 13357,
    "Ġendowed": 18924,
    "Ġserving": 14485,
    "Ġswam": 6448,
    "Ġmake": 1283,
    "Ġdodo": 9072,
    "freely": 16854,
    "Ġflann": 23009,
    "Ġunexpected": 6841,
    "tisement": 6767,
    "Ġnegro": 6447,
    "Ġimperilled": 19577,
    "Ġgeneralization": 981,
    "condition": 7059,
    "dually": 3281,
    "Ġunfeeling": 14118,
    "Ġfasten": 11132,
    "Ġmish": 15535,
    "Ġrecent": 7435,
    "Ġenjoyments": 24016,
    "Ġincreased": 2209,
    "Ġquarrel": 7292,
    "likewise": 13103,
    "Ġperfect": 2558,
    "poke": 18797,
    "Ġenchantment": 24869,
    "vis": 4576,
    "shiver": 16025,
    "Ġstrung": 22612,
    "secur": 18126,
    "joined": 13274,
    "Ġsog": 22081,
    "Ġimpious": 15984,
    "willingness": 24755,
    "Ġoccurrences": 11050,
    "Ġsurrounding": 12160,
    "Ġpeels": 22688,
    "Ġinstructed": 19284,
    "Ġregulations": 18600,
    "Ġyoungest": 7953,
    "yet": 3755,
    "critters": 14783,
    "Ġboys": 5194,
    "Ġloops": 8852,
    "isely": 4487,
    "nui": 20999,
    "salesman": 20670,
    "humour": 7498,
    "developed": 15263,
    "Ġelijah": 9099,
    "Ġcronies": 23441,
    "buckets": 26123,
    "feeder": 12359,
    "Ġomitted": 12561,
    "Ġcompanionship": 14919,
    "preced": 10305,
    "Ġmanual": 14197,
    "Ġowning": 18744,
    "Ġdelay": 5748,
    "Ġthey": 577,
    "recovered": 19786,
    "patched": 17643,
    "Ġinvisibly": 24817,
    "Ġresc": 4505,
    "Ġscept": 15502,
    "Ġheavy": 3745,
    "stout": 21642,
    "shot": 2236,
    "Ġturbulence": 26597,
    "tap": 17676,
    "eds": 6674,
    "Ġeagerly": 4990,
    "Ċ": 203,
    "Ġtranquill": 6630,
    "Ġrocking": 10969,
    "Ġtransformed": 22603,
    "izer": 2030,
    "ifford": 15781,
    "Ġolive": 12562,
    "class": 4098,
    "caroline": 24149,
    "Ġcler": 11768,
    "Ġthreats": 13376,
    "fights": 20864,
    "Ġbegone": 11914,
    "Ġcrater": 16438,
    "seaman": 25457,
    "Ġvow": 10246,
    "Ġthinner": 24182,
    "Ġcolourless": 19568,
    "Ġdelic": 4136,
    "before": 3115,
    "Ġshri": 5375,
    "Ġberg": 24536,
    "Ġ112": 24437,
    "Ġused": 2059,
    "robe": 15639,
    "Ġmemoirs": 26205,
    "Ġdetermination": 9818,
    "Ġklux": 22192,
    "Ġwear": 6030,
    "Ġexhausted": 8693,
    "sle": 9138,
    "Ġby": 383,
    "therefore": 5953,
    "repeating": 20127,
    "Ġcruis": 14624,
    "Ġremembering": 14611,
    "esteem": 26008,
    "Ġautumn": 14507,
    "Ġhesitated": 10001,
    "Ġloo": 22107,
    "Ġfift": 6382,
    "Ġ110": 24435,
    "ison": 3074,
    "endless": 22223,
    "live": 7550,
    "script": 11077,
    "Ġtumble": 16879,
    "Ġproc": 5545,
    "sat": 4810,
    "Ġyourselves": 9028,
    "Ġstrife": 18613,
    "cks": 3080,
    "wolf": 26409,
    "eringly": 23000,
    "Ġwer": 12549,
    "Ġbiscuit": 12586,
    "Ġbeyond": 2457,
    "Ġproduced": 2451,
    "Ġagon": 10320,
    "neighb": 16021,
    "muring": 17601,
    "Ġcatastrophe": 10483,
    "Ġsubtile": 20378,
    "Ġlively": 5449,
    "rot": 21529,
    "Ġunw": 8849,
    "rically": 15416,
    "Ġheightened": 8648,
    "Ġrav": 14307,
    "Ġapt": 9155,
    "od": 355,
    "Ġhalts": 3159,
    "Ġgaze": 6932,
    "thither": 21980,
    "Ġrains": 24340,
    "Ġmutual": 8296,
    "drunk": 24659,
    "ock": 15401,
    "Ġdoubt": 2220,
    "Ġhover": 15617,
    "origin": 7581,
    "helped": 18923,
    "Ġtalking": 3860,
    "rum": 3414,
    "Ġbas": 6380,
    "av": 739,
    "elop": 1477,
    "Ġclattered": 22350,
    "Ġacres": 14312,
    "eed": 20840,
    "Ġjewels": 12367,
    "Ġinsist": 9889,
    "Ġbulwarks": 5592,
    "Ġpromising": 10399,
    "Ġgreeted": 23213,
    "Ġlig": 21545,
    "Ġbewildered": 15212,
    "fitting": 1510,
    "Ġhorner": 8958,
    "Ġnothing": 1360,
    "Ġbu": 3684,
    "Ġ111": 24436,
    "Ġhardships": 14450,
    "Ġincident": 6280,
    "convenient": 12235,
    "Ġmeditate": 16682,
    "intments": 18820,
    "Ġkindly": 6077,
    "Ġ58": 24326,
    "Ġcelebrated": 13593,
    "ribe": 1221,
    "announced": 19758,
    "ang": 446,
    "Ġlaz": 7378,
    "spiracle": 22739,
    "Ġsentiment": 6588,
    "Ġsquall": 7043,
    "bearer": 18521,
    "Ġfollowing": 4066,
    "Ġdeclare": 6614,
    "Ġchast": 18380,
    "Ġrewarded": 14939,
    "soul": 9140,
    "Ġcompens": 14266,
    "Ġnar": 7375,
    "iger": 8446,
    "Ġmockery": 12105,
    "Ġmilitia": 13316,
    "Ġpasture": 14543,
    "apparat": 22843,
    "Ġwester": 25152,
    "Ġtatters": 21176,
    "Ġstays": 16560,
    "oun": 483,
    "Ġexchanging": 18131,
    "Ġconsume": 12955,
    "Ġsincer": 13063,
    "Ġconfound": 23300,
    "allen": 22193,
    "Ġdelightfully": 13157,
    "Ġaccorded": 24089,
    "Ġdivinest": 25722,
    "Ġbenevolent": 7772,
    "Ġcynicism": 25771,
    "nment": 20989,
    "aments": 12722,
    "Ġcalled": 1971,
    "uncont": 15771,
    "Ġscand": 7203,
    "Ġweigh": 10893,
    "Ġtattooed": 11378,
    "Ġexecuted": 9471,
    "legs": 13183,
    "search": 8464,
    "surface": 10530,
    "rusion": 11323,
    "Ġaustralia": 15231,
    "Ġsquires": 16181,
    "inted": 2652,
    "Ġbeing": 1163,
    "Ġlicense": 20089,
    "Ġdisobey": 18559,
    "Ġ11": 5318,
    "umphed": 23516,
    "engineer": 23146,
    "Ġaccumulates": 2891,
    "Ġthickening": 24023,
    "Ġcalculated": 4474,
    "Ġshades": 9462,
    "Ġnorthern": 7265,
    "Ġmonument": 16235,
    "esley": 17902,
    "Ġab": 528,
    ";âĢĿâĢĶ": 20759,
    "Ġluc": 3309,
    "heavily": 24534,
    "moonlight": 25375,
    "Ġtract": 21164,
    "Ġpsych": 10176,
    "Ġmouldy": 14973,
    "Ġbapt": 13895,
    "Ġtemple": 7653,
    "Ġacquiescence": 20329,
    "ermost": 7430,
    "Ġnaut": 13940,
    "Ġcase": 1940,
    "Ġupper": 5090,
    "occurred": 13336,
    "Ġclanking": 20610,
    "Ġbee": 21746,
    "Ġcommonplaces": 16287,
    "perquisites": 26530,
    "Ġurgent": 16869,
    "Ġshutters": 9936,
    "balanced": 14556,
    "bet": 6109,
    "Ġgruff": 21611,
    "71": 20755,
    "Ġdiscriminator": 3390,
    "Ġminority": 18752,
    "neural": 3066,
    "Ġtattooings": 24900,
    "Ġrot": 10967,
    ";âĢĶ": 3751,
    "Ġinjuries": 11277,
    "Ġunappe": 22015,
    "generous": 16567,
    "sprang": 19989,
    "ourney": 3552,
    "Ġtumbled": 13405,
    "Ġdiscourse": 9797,
    "Ġincreas": 1692,
    "Ġzer": 1097,
    "Ġrealising": 18982,
    "tender": 14472,
    "Ġseen": 1368,
    "Ġhistorical": 3648,
    "Ġconveniences": 19811,
    "Ġfrontispiece": 23911,
    "cheered": 23803,
    "tuning": 1584,
    "Ġchagrin": 20606,
    "eks": 4727,
    "Ġconflict": 17273,
    "Ġstudent": 14473,
    "decoder": 3647,
    "Ġglared": 13011,
    "came": 4569,
    "Ġwearer": 21919,
    "Ġbestowing": 16971,
    "Ġabridged": 26540,
    "Ġsoftly": 7947,
    "supper": 12917,
    "Ġflutter": 16245,
    "Ġraptures": 13496,
    "discrimin": 19607,
    "Ġscr": 11758,
    "Ġsanction": 20024,
    "occurrences": 26331,
    "Ġvirtue": 4922,
    "Ġelucidated": 26029,
    "Ġconv": 2970,
    "slipping": 25528,
    "ermaid": 14297,
    "Ġpreferment": 19852,
    "Ġradney": 6775,
    "Ġcomstock": 21843,
    "Ġdeline": 16332,
    "shipmates": 11926,
    "mistakable": 20652,
    "wh": 508,
    "inative": 15482,
    "R": 54,
    "Ġadvantages": 9810,
    "Ġuneasy": 8661,
    "Ġuncomfortable": 8485,
    "engthen": 14457,
    "Ġcanoe": 9722,
    "Ġreign": 13984,
    "Ġdetested": 14174,
    "ford": 2822,
    "Ġopulent": 23627,
    "dislike": 23494,
    "Ġestimable": 23870,
    "Ġnovember": 11747,
    "Ġcontroverted": 23249,
    "ounted": 5030,
    "Ġbrains": 2633,
    "Ġtallest": 15473,
    "loo": 10319,
    "Ġpleasant": 4172,
    "wantonly": 25149,
    "Ġstowed": 21733,
    "main": 8087,
    "ruff": 15893,
    "Ġcruise": 12047,
    "ision": 1853,
    "sleeve": 26108,
    "Ġskills": 1836,
    "Ġbesee": 19242,
    "Ġapproved": 16030,
    "Ġshare": 1658,
    "Ġvehem": 22886,
    "Ġinformation": 1049,
    "inaw": 21182,
    "separately": 25227,
    "fowl": 17549,
    "instinctively": 26327,
    "much": 3707,
    "Ġfacil": 16962,
    "Ġcirculating": 23371,
    "Ġabhorred": 9507,
    "Ġfiled": 15577,
    "Ġsinful": 18948,
    "together": 3556,
    "Ġguiding": 19240,
    "beds": 16586,
    "Ġmontan": 22973,
    "serv": 7451,
    "Ġcease": 7076,
    "Ġvictim": 6097,
    "Ġexertion": 8053,
    "rolled": 9059,
    "Ġjoosy": 23630,
    "unities": 15768,
    "Ġdoran": 9179,
    "ulating": 10887,
    "Ġsocietal": 11436,
    "Ġflames": 7939,
    "ows": 1917,
    "Ġbod": 4580,
    "ents": 1895,
    "Ġreview": 18030,
    "glad": 9007,
    "Ġ41": 24079,
    "cil": 8720,
    "runs": 25415,
    "Ġmultitud": 18746,
    "Ġtriumphantly": 11287,
    "eur": 7545,
    "Ġmir": 9646,
    "Ġdine": 7366,
    "hammered": 19002,
    "Ġhoard": 23350,
    "Ġpipes": 9850,
    "inu": 1114,
    "ĠarchÃ¦": 22773,
    "orph": 21397,
    "ĠlinnÃ¦us": 15274,
    "ĵ": 246,
    "eting": 7169,
    "Ġparadigms": 3057,
    "Ġerud": 20053,
    "dismal": 23497,
    "Ġdischarge": 18556,
    "Ġpalpit": 16691,
    "Ġcure": 21338,
    "Ġeclips": 20695,
    "Ġplumber": 16082,
    "Ġvess": 3295,
    "extra": 8218,
    "Ġperse": 6272,
    "Ġarmchair": 8270,
    "gall": 6359,
    "Ġprescribed": 26010,
    "illes": 12691,
    "Ġspots": 11725,
    "Ġspouting": 9438,
    "Ġvisage": 18764,
    "d": 72,
    "shooting": 16965,
    "Ġimmediate": 6089,
    "Ġwarmed": 12022,
    "unless": 9234,
    "Ġcuriosities": 26288,
    "Ġwondrously": 24063,
    "Ġdiscl": 9796,
    "lungs": 26135,
    "bowsprit": 16853,
    "Ġjup": 15950,
    "/*": 10070,
    "Ġblaming": 22927,
    "nical": 20990,
    "streets": 13394,
    "Ġepaulets": 24905,
    "Ġunimpeachable": 26522,
    "uture": 1083,
    "Ġconfirmed": 11139,
    "pure": 17626,
    "hel": 4814,
    "Ġdevices": 2942,
    "Ġhagger": 21488,
    "Ġassurance": 7774,
    "safie": 20347,
    "Ġinvented": 17037,
    "Ġtougher": 21175,
    "scence": 14415,
    "itably": 10782,
    "Ġsuperglue": 23456,
    "Ġwhe": 439,
    "Ġmonstr": 7666,
    "Ġpractically": 13104,
    "Ġagricultural": 26550,
    "aste": 4600,
    "Ġdeliberation": 19967,
    "Ġingenious": 12346,
    "string": 15683,
    "Ġsupre": 10268,
    "punct": 20191,
    "Ġalow": 18099,
    "backward": 2685,
    "Ġ88": 19710,
    "chess": 16573,
    "ctors": 21587,
    "Ġano": 11595,
    "ces": 579,
    "oin": 17617,
    "Ġdigging": 14937,
    "Ġabject": 18391,
    "bble": 17484,
    "Ġostr": 21323,
    "Ġplumage": 17297,
    "alescing": 23863,
    "usages": 22287,
    "obed": 14445,
    "Ġprodu": 1204,
    "Ġneighbourhood": 5126,
    "enses": 10995,
    "oon": 6364,
    "scho": 8759,
    "Ġsult": 10767,
    "exasper": 22424,
    "Ġsymph": 22204,
    "house": 4080,
    "Ġdro": 2770,
    "Ġcomplaint": 24776,
    "algorith": 3544,
    "Ġperilous": 7768,
    "connected": 1310,
    "Ġcounting": 13093,
    "Ġbenevol": 5961,
    "Ġwhalemen": 3914,
    "isp": 5528,
    "Ġstabilizing": 3659,
    "Ġbeauty": 3771,
    "flag": 14710,
    "Ġfathers": 16294,
    "Ġsum": 2702,
    "Ġsullenly": 17172,
    "ĠĠĠĠĠĠĠĠĠĠĠĠĠĠĠĠĠĠĠĠĠĠĠĠĠĠĠĠĠĠĠĠĠĠĠĠĠĠĠĠĠĠ": 24209,
    "20": 20752,
    "Ġhurrah": 9868,
    "Ġconcoct": 19040,
    "âĢĿ--": 21810,
    "lever": 2933,
    "favourite": 15142,
    "rally": 17651,
    "nay": 7135,
    "//": 11463,
    "ville": 6087,
    "Ġevaluate": 3215,
    "Ġpowerful": 1441,
    "ell": 399,
    "Ġpossession": 5589,
    "Ġsuffering": 8946,
    "parted": 21015,
    "Ġpiled": 8424,
    "Ġentirely": 3433,
    "abroad": 18108,
    "vast": 10736,
    "Ġcoopman": 25827,
    "Ġphysical": 7522,
    "characteristic": 24685,
    "permitted": 18342,
    "Ġtash": 13819,
    "Ġweather": 3999,
    "Ġmeasures": 1205,
    "Ġlime": 13947,
    "inks": 6869,
    "Ġbehaves": 23296,
    "Ġalien": 14017,
    "Ġparallelization": 3429,
    "Ġcravat": 26307,
    "Ġpractises": 23347,
    "Ġanother": 1737,
    "wonderful": 16960,
    "alliance": 22197,
    "Ġscarcity": 23823,
    "danced": 20827,
    "uc": 1876,
    "am": 368,
    "Ġrecollecting": 17113,
    "delirious": 19504,
    "Ġspecial": 2102,
    "Ġimputable": 22169,
    "Ġantagonist": 26328,
    "Ġunable": 4951,
    "ui": 9144,
    "Ġsnorting": 23739,
    "Ġsolid": 6443,
    "spir": 5738,
    "Ġelopement": 10329,
    "ints": 3416,
    "Ġhid": 1319,
    "ileries": 18058,
    "dor": 12449,
    "Ġscheming": 23267,
    "Ġthousand": 2782,
    "Ġservice": 6471,
    "Ġbonds": 17869,
    "Ġhistory": 4011,
    "threat": 10900,
    "hee": 10760,
    "wond": 8767,
    "elf": 565,
    "glanced": 19364,
    "Ġmenaces": 23104,
    "vol": 723,
    "sure": 5522,
    "definition": 23115,
    "Ġplight": 14280,
    "Ġdelicacy": 6340,
    "Ġshipwrecked": 25687,
    "Ġostentatiously": 20467,
    "prevent": 11791,
    "Ġcapsizing": 20087,
    "Ġoppressively": 25712,
    "Ġanticip": 7507,
    "Ġpretensions": 16557,
    "archbishop": 22895,
    "Ġsit": 4216,
    "Ġgid": 13961,
    "Ġtrifled": 24674,
    "sli": 11522,
    "Ġdemand": 4947,
    "Ġhadn": 9718,
    "machines": 8384,
    "proachable": 23396,
    "Ġalacrity": 15734,
    "idable": 8145,
    "Ġexplaining": 15958,
    "Ġadorn": 12789,
    "interrupted": 11417,
    "umblings": 23927,
    "confusion": 13368,
    "Ġvi": 1952,
    "hog": 8379,
    "ak": 537,
    "Ġcommod": 10333,
    "uce": 11535,
    "Ġapples": 22212,
    "Ġstreatham": 17448,
    "danish": 20832,
    "Ġpreprocessing": 26536,
    "Ġdyspepsia": 20642,
    "Ġseparate": 5778,
    "Ġmoot": 22427,
    "00": 1610,
    "Ġlet": 1111,
    "Ġlurking": 11289,
    "Ġsheepfold": 25466,
    "Ġtowers": 16738,
    "rip": 9240,
    "Ġpoisonous": 24887,
    "Ġbuttons": 12778,
    "Ġhindrance": 25220,
    "Ġenglish": 3617,
    "Ġmischief": 8541,
    "Ġhaunted": 10253,
    "loaded": 22509,
    "Ġrossum": 3013,
    "ories": 4753,
    "ckinridge": 11717,
    "Ġfairness": 9893,
    "Ġcedars": 20291,
    "Ġcrosswise": 18885,
    "ccess": 3182,
    "prit": 19340,
    "Ġchewed": 16368,
    "Ġconvert": 11841,
    "Ġ66": 24369,
    "appo": 3916,
    "Ġdemands": 19642,
    "floated": 24643,
    "voice": 7816,
    "Ġinnermost": 12158,
    "avenue": 25057,
    "Ġperchance": 15989,
    "gloom": 17139,
    "balance": 12005,
    "Ġorganizations": 12312,
    "week": 12928,
    "Ġharsh": 9520,
    "orily": 15570,
    "avish": 22592,
    "Ġtrusted": 10517,
    "Ġglist": 9343,
    "Ġwept": 7184,
    "attempts": 17190,
    "Ġdecreasing": 2443,
    "Ġprimal": 17107,
    "Ġmotive": 6091,
    "usions": 6159,
    "Ġfeigned": 22207,
    "Ġlifted": 6985,
    "aces": 2067,
    "Ġpenetrating": 17011,
    "Ġtravelled": 7771,
    "etw": 407,
    "Ġcorps": 13030,
    "aked": 2016,
    "Ġhaving": 1880,
    "pay": 10718,
    "Ġpresc": 15923,
    "Ġpitiless": 19386,
    "Ġmended": 21312,
    "rid": 5137,
    "rously": 17654,
    "Ġassuring": 13061,
    "icult": 3340,
    "Ġbeth": 9657,
    "expected": 5780,
    "Ġlaughs": 24117,
    "ollion": 19714,
    "Ġcharacters": 9370,
    "Ġchas": 18379,
    "Ġcontradict": 12383,
    "Ġconsecut": 18111,
    "Ġentries": 22744,
    "smoking": 23908,
    "Ġdiabolically": 25513,
    "Ġepic": 15029,
    "Ġundo": 15838,
    "distant": 13333,
    "excuse": 13380,
    "Ġturtle": 4204,
    "immediately": 10048,
    "Ġwhich": 503,
    "Ġquivering": 12855,
    "encoura": 15048,
    "bank": 10079,
    "Ġthereupon": 18434,
    "Ġplaintiffs": 13608,
    "ton": 1726,
    "cull": 20808,
    "Ġunderstood": 5655,
    "themselves": 6540,
    "john": 11497,
    "breast": 11246,
    "Ġmemories": 14541,
    "Ġswandam": 11089,
    "Ġmusket": 12294,
    "Ġ1869": 19382,
    "Ġpolar": 9410,
    "Ġweaving": 12737,
    "sit": 13779,
    "Ġdecap": 16018,
    "Ġupbraided": 26528,
    "rooms": 10432,
    "Ġberth": 8679,
    "Ġglances": 10372,
    "urious": 21700,
    "Ġjoking": 12834,
    "Ġpaste": 23417,
    "Ġpredefined": 20716,
    "ipp": 10102,
    "Ġchilian": 25563,
    "br": 2477,
    "Ġfuss": 13904,
    "Ġmingled": 12375,
    "Ġintrepidity": 25550,
    "Ġbroke": 5322,
    "alvan": 21501,
    "Ġtranscend": 25667,
    "Ġquick": 2583,
    "Ġsneer": 13446,
    "pulled": 25145,
    "Ġpow": 4637,
    "Ġthreatened": 8329,
    "acit": 16060,
    "Ġimpediments": 26240,
    "worshipping": 16610,
    "Ġstrictly": 12283,
    "ator": 1922,
    "tastes": 21095,
    "Ġdisquis": 22524,
    "Ġdefilements": 26284,
    "Ġmarty": 20289,
    "algorithms": 8294,
    "dances": 17521,
    "Ġsolution": 9804,
    "unning": 4492,
    "Ġremembered": 5276,
    "inde": 17731,
    "aning": 2250,
    "Ġbasin": 19847,
    "grained": 20882,
    "Ġfogs": 25282,
    "animation": 16979,
    "Ġreclining": 26033,
    "Ġmabel": 17323,
    "Ġbat": 10795,
    "Ġequilibrium": 4142,
    "movable": 14323,
    "header": 11931,
    "Ġconfronted": 23304,
    "Ġthumb": 6981,
    "ister": 1293,
    "lovely": 16044,
    "Ġrebell": 21666,
    "iments": 4945,
    "included": 19207,
    "Ġjustine": 4970,
    "Ġkeeps": 8266,
    "Ġturns": 4981,
    "du": 604,
    "Ġcomfort": 3438,
    "rolling": 9060,
    "Ġro": 601,
    "Ġshoots": 14569,
    "Ġharvard": 24573,
    "Ġabsurd": 7202,
    "Ġdisgust": 6705,
    "Ġsleeps": 10446,
    "sighted": 19784,
    "Ġbrilliancy": 20105,
    "Ġadmirably": 16480,
    "arranted": 19319,
    "Ġinferred": 14500,
    "alleging": 23019,
    "Ġhow": 598,
    "Ġx": 2072,
    "Ġforbade": 15213,
    "Ġwonder": 2116,
    "Ġrescued": 24206,
    "Ġloaf": 15870,
    "Ġcorrection": 5062,
    "stricken": 9883,
    "Ġclinging": 10291,
    "gerine": 22885,
    "Ġfixing": 13155,
    "port": 10719,
    "Ġlastly": 16203,
    "Ġath": 15799,
    "Ġprofile": 16487,
    "Ġfrigid": 17352,
    "Ġbred": 9169,
    "professor": 17249,
    "Ġwait": 4907,
    "Ġsteeply": 23722,
    "Ġhighlands": 22769,
    "Ġlift": 8810,
    "Ġtreas": 7358,
    "Ġdears": 18136,
    "Ġmarvell": 7248,
    "oftentimes": 19419,
    "Ġshudder": 9050,
    "Ġflatter": 9347,
    "doctor": 19095,
    "Ġenl": 18188,
    "fight": 17538,
    "umbled": 8492,
    "Ġsp": 456,
    "Ġmallet": 17810,
    "ties": 2758,
    "Ġattracted": 8904,
    "Ġvint": 18194,
    "Ġdummy": 25449,
    "Ġviolates": 3165,
    "straight": 9939,
    "Ġartificial": 798,
    "oftener": 23962,
    "Ġswain": 18880,
    "plexion": 14264,
    "verest": 13990,
    "Ġheadlands": 22892,
    "Ġet": 3582,
    "Ġgentle": 1889,
    "Ġserious": 4322,
    "Ġaffairs": 6877,
    "Ġwearing": 12736,
    "Ġcrescent": 16135,
    "enth": 6680,
    "Ġmorning": 1748,
    "unks": 15772,
    "Ġratt": 7880,
    "support": 9469,
    "Ġnavigators": 19762,
    "raltar": 24233,
    "Ġcheap": 13087,
    "Ġgeological": 14533,
    "Ġpartial": 2128,
    "Ġperiods": 13302,
    "Ġabsorb": 25112,
    "Ġcerem": 7077,
    "Ġtemporal": 2615,
    "destro": 13308,
    "Ġepo": 21618,
    "Ġwhenever": 5166,
    "Ġsphy": 18309,
    "canst": 22958,
    "Ġcontemptuous": 24676,
    "Ġtears": 4231,
    "whal": 10940,
    "Ġheadstrong": 14387,
    "Ġvacantly": 16815,
    "chain": 18039,
    "happen": 19330,
    "covered": 11477,
    "Ġcloset": 19590,
    "Ġrover": 18456,
    "Ġsherlock": 3895,
    "jabez": 20932,
    "Ġcommenced": 8531,
    "Ġlegal": 10439,
    "daughters": 13465,
    "Ġfretfulness": 25448,
    "Ġwidely": 8032,
    "Ġfict": 21403,
    "Ġbled": 17856,
    "magnet": 14969,
    "uled": 11536,
    "Ġherd": 7887,
    "Ġdir": 21419,
    "presents": 18796,
    "Ġpol": 2578,
    "Ġsex": 8841,
    "cup": 10690,
    "Ġdisputing": 25824,
    "oided": 11508,
    "Ġimmut": 13296,
    "myster": 16261,
    "rannical": 26401,
    "Ġfo": 1652,
    "harb": 9123,
    "lob": 22504,
    "iew": 2446,
    "Ġopinions": 9414,
    "anywhere": 14682,
    "Ġtoes": 10829,
    "unwilling": 14060,
    "Ġafric": 8905,
    "Ġfeature": 761,
    "top": 4484,
    "humiliation": 24020,
    "21": 10071,
    "empty": 23633,
    "stre": 5451,
    "Ġjumping": 13340,
    "Ġhist": 2444,
    "Ġcausal": 3409,
    "Ġprofit": 14585,
    "knows": 19171,
    "c": 71,
    "Ġfounded": 8556,
    "Ġport": 3308,
    "acknowledged": 15201,
    "ust": 498,
    "nikin": 23268,
    "Ġprime": 10404,
    "social": 11023,
    "Ġrelics": 16193,
    "Ġsympat": 13339,
    "Ġnurse": 9516,
    "oura": 1062,
    "brink": 23575,
    "Ġseverest": 14090,
    "Ġ-": 1944,
    "use": 2536,
    "among": 6256,
    "flo": 6114,
    "Ġgulf": 10635,
    "news": 23129,
    "Ġcrooked": 11281,
    "Ġcared": 8782,
    "rodu": 1817,
    "musket": 25341,
    "Ġcolleague": 17159,
    "«": 109,
    "ieves": 4009,
    "conclude": 24065,
    "apidated": 22334,
    "inguish": 9396,
    "clo": 5613,
    "illa": 12790,
    "regularization": 3512,
    "Ġimpatient": 5603,
    "Ġmot": 2985,
    "ascending": 24707,
    "Ġdistorted": 14249,
    "leader": 25351,
    ".--": 20745,
    "locked": 7677,
    "Ġaffrighted": 13571,
    "Ġbecame": 2693,
    "×": 152,
    "blocks": 25517,
    "Ġwhittingham": 26197,
    "Ġcatches": 23425,
    "Ġimpute": 18325,
    "Ġpapers": 4024,
    "rings": 10722,
    "Ġcobb": 14274,
    "exclaimed": 11788,
    "Ġerroneous": 17408,
    "service": 15036,
    "Ġthrilling": 19747,
    "discharging": 26305,
    "Ġinnovative": 1582,
    "Ġjura": 14192,
    "bec": 4056,
    "Ġproved": 4884,
    "Ġmaj": 3928,
    "Ġgrass": 5177,
    "Ġevil": 3808,
    "Ġurged": 6781,
    "Ġmont": 8557,
    "Ġsongs": 13419,
    "Ġenigmatical": 20596,
    "Ġelastic": 4362,
    "thunder": 10262,
    "Ġanomalous": 25637,
    "Ġmagnitude": 1943,
    "sounding": 24796,
    "Ġoffences": 18693,
    "Ġvindication": 25364,
    "Ġdeg": 3279,
    "Ġprogen": 14038,
    "Ġhorizon": 6632,
    "horrible": 14600,
    "Ġlexicon": 25974,
    "Ġwerter": 15238,
    "Ġpolite": 9881,
    "audible": 17132,
    "accepted": 20135,
    "uary": 11537,
    "macy": 18801,
    "Ġlimited": 23543,
    "Ġfate": 4754,
    "Ġrefusal": 10344,
    "w": 91,
    "mangled": 20980,
    "steel": 8298,
    "Ġopening": 5045,
    "Ġfrenchman": 11283,
    "receiving": 12540,
    "Ġboom": 9309,
    "âĢĶâĢĻ": 8187,
    "Ġpruning": 18971,
    "Ġtraining": 529,
    "Ġlakeman": 6986,
    "...": 24549,
    "ogn": 2403,
    "fred": 20854,
    "projecting": 26073,
    "getic": 12963,
    "urring": 21702,
    "Ġexploring": 4306,
    "Ġcraven": 16469,
    "Ġunicorn": 22054,
    "Ġwintry": 17433,
    "Ġdetection": 3563,
    "Ġzig": 18742,
    "Ġoverpower": 12839,
    "Ġphys": 5653,
    "everything": 6324,
    "Ġsigned": 11177,
    "Ġpointing": 5661,
    "Ġblackness": 9392,
    "Ġscrews": 25177,
    "Ġweighing": 20014,
    "Ġstayed": 7997,
    "Ġnow": 693,
    "Ġbordered": 24563,
    "Ġinte": 2064,
    "bearings": 25371,
    "Ġwrecked": 9965,
    "Ġsche": 1704,
    "Ġlichen": 20090,
    "Ġscrape": 14917,
    "Ġdimin": 3874,
    "Ġleft": 1760,
    "Ġtiara": 26415,
    "even": 3839,
    "Ġrevolved": 9983,
    "Ġpadded": 25036,
    "Ġgibberish": 25786,
    "Ġunprotected": 22064,
    "Ġhush": 13210,
    "Ġmassachusetts": 24021,
    "Ġmerchant": 6467,
    "Ġonce": 1493,
    "Ġraving": 16113,
    "any": 3337,
    "instruct": 19541,
    "Ġopportunity": 4786,
    "lust": 15378,
    "Ġarchipelagoes": 14347,
    "nelson": 25620,
    "Ġquickly": 4241,
    "Ġwidow": 8662,
    "Ġflap": 14421,
    "Ġhearsed": 25039,
    "Ġperch": 10298,
    "armon": 23056,
    "Ġexcessively": 9439,
    "Ġsecond": 1890,
    "cooks": 25067,
    "Ġtherefore": 2235,
    "Ġidentify": 12012,
    "Ġadvance": 5484,
    "Ġavenue": 13620,
    "Ġrare": 7036,
    "ground": 4671,
    "boscombe": 26121,
    "Ġoptimizers": 18629,
    "Ġbob": 22633,
    "damp": 15342,
    "Ġcost": 2505,
    "Ġsquared": 1381,
    "evinced": 19925,
    "Ġinexpress": 12632,
    "shavings": 22462,
    "united": 14059,
    "Ġeliza": 6437,
    "Ġinducement": 16843,
    "Ġsixth": 16558,
    "Ġnoted": 15828,
    "Ġchronic": 9928,
    "Ġswept": 7977,
    "Ġtwitched": 20442,
    "Ġtied": 7357,
    "Ġcountenance": 3973,
    "Ġfisherman": 12073,
    "Ġsummoning": 23872,
    "Ġinvoluntary": 18756,
    "Ġdespond": 14667,
    "Ġnegatived": 23045,
    "Ġmisty": 16539,
    "Ġfulfilment": 20186,
    "Ġobsequ": 14319,
    "Ġdiadem": 24741,
    "Ġalone": 2569,
    "Ġfeels": 6882,
    "vid": 915,
    "Ġtrappings": 23079,
    "Ġacknowledgment": 16957,
    "coarse": 16486,
    "Ġrecol": 4032,
    "Õ": 150,
    "Ġadapts": 3819,
    "================": 3724,
    "lest": 5288,
    "Ġmatrim": 11059,
    "Ġguid": 2641,
    "prejudice": 25571,
    "dies": 15337,
    "etting": 21577,
    "flitted": 23966,
    "Ġroughly": 17040,
    "Ġshoving": 23489,
    "Ġdus": 8422,
    "%": 9,
    "Ġecstasy": 11629,
    "Ġcister": 13881,
    "Ġepit": 18006,
    "Ġwaste": 9233,
    "nostril": 26559,
    "nowhere": 18418,
    "wouldn": 23534,
    "Ġcrests": 25685,
    "extinguish": 22761,
    "Ġstared": 8454,
    "threshold": 21984,
    "superior": 9524,
    "cated": 20802,
    "Ġimputation": 22168,
    "Ġdescend": 7427,
    "Ġfancying": 12110,
    "Ġlard": 13946,
    "Ġnephew": 6404,
    "initely": 7568,
    "Ġentitled": 8538,
    "oup": 2015,
    "Ġhuff": 21487,
    "Ġlens": 8437,
    "laughing": 15178,
    "englishman": 23675,
    "Ġdocumentation": 20553,
    "coiled": 16485,
    "Ġpott": 21466,
    "Ġhem": 8445,
    "Ġavast": 9919,
    "Ġlaw": 3657,
    "otion": 4946,
    "Ġgomorrah": 21612,
    "Ġdescrying": 18617,
    "Ġexpenses": 11833,
    "Ġsnap": 11201,
    "finding": 17013,
    "accepting": 20134,
    "Ġshrine": 19530,
    "Ġthre": 2058,
    "retch": 4371,
    "reporting": 24494,
    "arance": 4697,
    "oid": 3127,
    "visitors": 13347,
    "strugg": 21659,
    "Ġdisguises": 25055,
    "Ġtul": 21158,
    "Ġmississippi": 20724,
    "bantering": 25253,
    "romang": 22002,
    "Ġvocabulary": 4995,
    "pointing": 12222,
    "icha": 11736,
    "Ġintensified": 17018,
    "fugitive": 26131,
    "Ġbeck": 14008,
    "Ġprofuse": 23565,
    "Ķ": 247,
    "eler": 1573,
    "gangway": 20666,
    "Ġ1828": 25720,
    "going": 6313,
    "had": 1949,
    "standard": 22433,
    "Ġprivately": 19522,
    "Ġpyth": 21459,
    "determination": 19943,
    "Ġhastening": 19335,
    "Ġslipped": 6492,
    "Ġinterrupt": 4360,
    "illation": 14141,
    "vicious": 21117,
    "Ġnovelist": 24777,
    "Ġstarted": 4151,
    "Ġcombination": 22848,
    "Ġusing": 715,
    "atement": 17773,
    "vul": 15447,
    "Ġsternly": 16715,
    "ici": 8439,
    "famous": 16916,
    "office": 16393,
    "addressing": 24401,
    "why": 2829,
    "Ġvariants": 1789,
    "result": 12042,
    "Ġdl": 3375,
    "sweeping": 24618,
    "Ġhumiliation": 16196,
    "burned": 25079,
    "Ġra": 823,
    "described": 18894,
    "erranean": 9333,
    "Ġrelative": 11881,
    "wrinkles": 16554,
    "Ġtepid": 26412,
    "Ġparac": 12795,
    "orus": 10801,
    "Ġtargets": 4205,
    "sake": 13782,
    "âĢĿ;": 11668,
    "vest": 6230,
    "Ġexpanded": 14289,
    "Ġ": 225,
    "Ġpeaks": 16126,
    "imble": 10858,
    "Ġreminiscences": 26269,
    "ressing": 8918,
    "inity": 5693,
    "Ġmuskets": 17056,
    "Ġwarring": 16865,
    "Ġscimet": 22285,
    "Ġrank": 6258,
    "Ġisolation": 17150,
    "encyclopÃ¦dia": 16663,
    "Ġbolts": 16943,
    "widely": 25343,
    "Ġevermore": 18811,
    "Ġbattery": 21392,
    "express": 4895,
    "lounged": 26133,
    "Ġapothe": 12373,
    "Ġquietude": 19358,
    "Ġpurse": 12009,
    "Ġdining": 6977,
    "sing": 5138,
    "Ġphiladelphia": 26604,
    "squee": 15429,
    "Ġemph": 14525,
    "heum": 17747,
    "Ġsun": 1719,
    "yth": 979,
    "Ġhistor": 3389,
    "Ġtending": 17724,
    "26": 10072,
    "Ġfring": 11127,
    "Ġbegins": 7244,
    "adr": 6994,
    "part": 2575,
    "(": 12,
    "Ġbetrayed": 9561,
    "Ġthanked": 9458,
    "Ġintrospective": 20599,
    "Ġculprit": 26172,
    "Ġnin": 10187,
    "Ġsho": 2242,
    "Ġwandered": 6930,
    "Ġvic": 5237,
    "!âĢĶâĢĻ": 23564,
    "Ġalms": 21777,
    "Ġprophesied": 26062,
    "done": 6500,
    "seventh": 12711,
    "Ġseaward": 22944,
    "wis": 12516,
    "Ġtamely": 24977,
    "Ġthrice": 10575,
    "orrow": 2916,
    "Ġboasting": 19934,
    "Ġjur": 12831,
    "tenham": 16320,
    "passage": 11261,
    "Ġordinarily": 20648,
    "Ġcocoanuts": 26362,
    "Ġsketch": 16164,
    "Ġsmilingly": 22558,
    "varying": 13803,
    "Ġembrace": 16990,
    "Ġdexterity": 25294,
    "Ġdrink": 4787,
    "officers": 10627,
    "Ġelephants": 9863,
    "drop": 15336,
    "Ġstab": 10862,
    "Ġspread": 5161,
    "Ġgiddy": 20495,
    "Ġflapped": 23008,
    "Ġcond": 3877,
    "Ġreflecting": 24751,
    "Ġinsulted": 14991,
    "albatross": 15627,
    "Ġroom": 1463,
    "washed": 13043,
    "Ġbluff": 16516,
    "anting": 6412,
    "pursue": 24973,
    "Ġunrelieved": 20544,
    "sustained": 20567,
    "Ġconc": 1839,
    "market": 16839,
    "descending": 16283,
    "Ġthither": 6821,
    "Ġfarthest": 23113,
    "open": 7025,
    "Ġenriched": 26499,
    "Ġpaw": 12617,
    "Ġusages": 15915,
    "prophecy": 22833,
    "Ġdifference": 1491,
    "bru": 12437,
    "Ġpurchased": 12258,
    "Ġdouble": 4940,
    "sory": 17659,
    "ingolstadt": 21302,
    "rugged": 6849,
    "rudence": 7092,
    "Ġthistle": 21913,
    "/`)": 13659,
    "Ġdecl": 3591,
    "merry": 16535,
    "Ġhenry": 5197,
    "message": 17371,
    "Ġimmemorial": 10510,
    "Ġhudson": 15190,
    "Ġdart": 4584,
    "Ġtoils": 10185,
    "Ġaware": 5756,
    "Ġbreezes": 14868,
    "Ġfortunately": 12177,
    "Ġtechni": 1794,
    "omet": 3075,
    "Ġcognitive": 13633,
    "rist": 10122,
    "sir": 5001,
    "iot": 9600,
    "Ġsaw": 1352,
    "Ġasp": 15778,
    "nerable": 16275,
    "Ġreve": 2934,
    "vative": 1568,
    "wins": 21128,
    "onies": 6806,
    "Ġelusive": 22643,
    "Ġfortunate": 6214,
    "organic": 25946,
    "ught": 2751,
    "Ġwhatever": 3471,
    "Ġfancied": 7326,
    "Ġavocation": 23950,
    "Ġeagerness": 6608,
    "Ġassiduous": 26292,
    "p": 84,
    "Ġshivered": 14107,
    "Ġfrock": 10489,
    "isive": 10793,
    "Ġinternal": 2243,
    "Ġsalted": 14755,
    "Ġcontextually": 11953,
    "Ġsaid": 578,
    "Ġsubdivisions": 26037,
    "Ġattempts": 10490,
    "5": 25,
    "Ġarchitects": 18737,
    "money": 8749,
    "headsman": 16700,
    "ientific": 6547,
    "Ġintroduced": 7690,
    "twice": 14621,
    "Ġhug": 6979,
    "leagues": 21371,
    "Ġ13": 6718,
    "Ġalong": 1978,
    "Ġunsounded": 15847,
    "Ġ22": 8278,
    "Ġoverboard": 6044,
    "Ġvillas": 24052,
    "Ġtraged": 9351,
    "Ġeucl": 24709,
    "gabriel": 15359,
    "Ġawoke": 7286,
    "feather": 16041,
    "Ġgrievous": 13260,
    "aphys": 15200,
    "Ġindomitableness": 26571,
    "Ġswung": 6449,
    "elfth": 22366,
    "Ġcreator": 7253,
    "clergyman": 20728,
    "Ġundue": 25993,
    "Ġgulp": 20027,
    "ĠĠĠĠĠĠĠĠĠĠĠĠĠĠĠĠĠĠĠĠĠĠĠĠĠĠĠĠĠĠĠĠĠĠĠĠĠĠĠĠĠĠĠĠ": 12151,
    "Ġtransition": 14233,
    "arers": 12127,
    "Ġobservations": 13552,
    "Ġprincip": 5600,
    "dinner": 11406,
    "Ġzigzag": 26272,
    "icide": 11617,
    "Ġincommunicable": 26611,
    "Ġloftiest": 16874,
    "Ġparis": 8178,
    "prec": 3200,
    "Ġmar": 1312,
    "ably": 1845,
    "erate": 7149,
    "Ġcleans": 18947,
    "Ġoverpowered": 15287,
    "Ġspot": 4156,
    "Ġwheelbarrow": 17204,
    "Ġspake": 18306,
    "Ġcircular": 13109,
    "Ġknotted": 17019,
    "adel": 15726,
    "Ġnames": 4531,
    "Ġgifted": 17996,
    "Ġexcavating": 23311,
    "Ġ83": 24459,
    "Ġgrain": 15829,
    "Ġoccup": 3741,
    "kilt": 4866,
    "Ġuntidy": 23522,
    "enances": 10153,
    "rabb": 15677,
    "ross": 805,
    "Ġacquainted": 5179,
    "Ġrepresented": 8938,
    "Ġslight": 3120,
    "erred": 6376,
    "(_": 7540,
    "Ġoverfitting": 1542,
    "orable": 8119,
    "using": 5468,
    "masts": 19423,
    "Ġjonah": 3478,
    "self": 617,
    "Ġlogical": 14486,
    "ipelag": 12841,
    "Ġoverflowing": 17237,
    "Ġwhite": 1537,
    "Ġlouisa": 13545,
    "Ġcalculate": 13263,
    "worthy": 7732,
    "Ġneighbor": 25803,
    "Ġgenius": 8045,
    "Ġsuccessive": 10500,
    "Ġwonderful": 4562,
    "Ġgospel": 18000,
    "cheer": 9436,
    "Ġskill": 6872,
    "Ġequival": 4783,
    "spr": 7436,
    "Ġmedicine": 15204,
    "Ġpanting": 11602,
    "Ġpractised": 23346,
    "Ġcaravan": 26290,
    "made": 4808,
    "Ġcompass": 4408,
    "ubl": 3596,
    "Ġdissuade": 26256,
    "cig": 17503,
    "Ġsteam": 9352,
    "Ġunallied": 22029,
    "Ġhypothe": 4077,
    "Ġanxiously": 8289,
    "Ġsovereign": 10061,
    "Ġunrel": 14695,
    "orne": 17872,
    "Ġdanger": 3517,
    "Ġexists": 14040,
    "ek": 1905,
    "Ġwiser": 14729,
    "Ġcream": 22721,
    "Ġchaldee": 26234,
    "Ġstrings": 11827,
    "ications": 4444,
    "Ġrelevant": 1862,
    "eenth": 12458,
    "venor": 16098,
    "Ġunmingled": 18263,
    "iciency": 9574,
    "consumed": 25675,
    "Ġgroan": 13323,
    "Ġneeded": 7717,
    "Ġcolumn": 9327,
    "Ġbarbar": 6935,
    "Ġhorizontally": 17012,
    "Ġaccount": 2323,
    "n": 82,
    "Ġjealously": 24125,
    "gins": 12466,
    "Ġbrewed": 23342,
    "Ġadvis": 9809,
    "Ġresol": 2668,
    "Ġfavour": 3644,
    "Ġstup": 14004,
    "Ġextended": 7922,
    "Ġvarious": 3507,
    "amples": 1821,
    "Ġresemblance": 7976,
    "Ġcharlotte": 3892,
    "bitter": 11241,
    "Ġseventeen": 26210,
    "Ġfifteen": 6947,
    "ulations": 6028,
    "Ġprophes": 16347,
    "rim": 7137,
    "Ġwindows": 4971,
    "Ġsticks": 14930,
    "Ġmexico": 15279,
    "Ġfrighted": 24028,
    "Ġhastened": 9004,
    "Ġclinched": 17393,
    "Ġlongest": 18628,
    "Ġparacels": 13666,
    "Ġdull": 6384,
    "Ġhearty": 9845,
    "Ġdeparture": 6490,
    "ecess": 17532,
    "Ġdisgusting": 19893,
    "Ġpist": 12612,
    "Ġeste": 6084,
    "Ġhosea": 17330,
    "ĠâĢľ": 517,
    "mel": 9127,
    "Ġbruited": 25773,
    "Ġfatt": 15576,
    "Ġimmort": 19482,
    "Ġvilla": 14746,
    "Ġgales": 12662,
    "Ġleaves": 5021,
    "Ġinfat": 14499,
    "Ġreasoning": 2084,
    "Ġspoils": 24808,
    "Ġheap": 12675,
    "fig": 8734,
    "Ġimitate": 14155,
    "Ġheading": 8935,
    "Ġvib": 8164,
    "andy": 8157,
    "Ġrudder": 25107,
    "Ġweb": 9239,
    "harbors": 20147,
    "F": 42,
    "Ġfejee": 18354,
    "Ġrapture": 13495,
    "Ġremorse": 6441,
    "itten": 3440,
    "Ġthreads": 13116,
    "Ġpretend": 7721,
    "Ġclank": 15966,
    "Ġpray": 3901,
    "Ġgap": 21596,
    "Ġcordage": 19677,
    "Ġhours": 2819,
    "Ġforeshadowing": 26592,
    "measureless": 20234,
    "reeable": 3614,
    "Ġhandkerchief": 8913,
    "Ġjumbled": 22294,
    "exercise": 17459,
    "Ġevap": 19622,
    "Ġejac": 10203,
    "Ġfeed": 2127,
    "Ġoffering": 3006,
    "ute": 4642,
    "portuguese": 25413,
    "client": 18931,
    "Ġthousandth": 23682,
    "Ġresemble": 15690,
    "Ġaudio": 24772,
    "Ġallowing": 2172,
    "Ġacquiring": 2766,
    "Ġincalcul": 16064,
    "Ġimbec": 14154,
    "enterprise": 24992,
    "Ġ166": 25004,
    "Ġclerical": 25568,
    "spoutings": 25001,
    "impatiently": 20469,
    "Ġsavage": 4014,
    "Ġplot": 14279,
    "Ġmartha": 16260,
    "Ġbor": 5804,
    "Ġdoct": 4454,
    "Ġfinds": 6299,
    "Ġmistifying": 23718,
    "dressed": 10695,
    "loud": 11500,
    "Ġencamped": 22799,
    "ump": 2284,
    "Ġside": 1385,
    "Ġdashes": 21432,
    "Ġceases": 19312,
    "Ġpursuers": 13224,
    "isk": 9167,
    "Ġenhance": 3330,
    "Ġpeople": 2544,
    "nam": 2834,
    "photograph": 16152,
    "Ġrespective": 16343,
    "Ġcrept": 11021,
    "Ġdeceitfulness": 25734,
    "Ġwindibank": 7257,
    "Ġrevealing": 3926,
    "forgetting": 25485,
    "bury": 9106,
    "Ġtyphoons": 20233,
    "Ġclub": 8873,
    "declaration": 25175,
    "Ġcupidity": 24535,
    "Ġtalker": 23369,
    "lin": 9603,
    "Ġrealism": 18983,
    "Ġdomin": 10463,
    "Ġchallenges": 13629,
    "Ġclaims": 13372,
    "Ġaccording": 5508,
    "Ġfork": 15729,
    "ripp": 6405,
    "ential": 826,
    "Ġaims": 15495,
    "ced": 741,
    "Ġcaucus": 17379,
    "enger": 10773,
    "Ġpin": 7161,
    "Ġwade": 17784,
    "Ġdefine": 9814,
    "teenth": 11872,
    "Ġpuzzling": 14897,
    "Ġlouis": 8356,
    "antled": 18286,
    "Ġostent": 13583,
    "Ġoutward": 7903,
    "Ġpurchase": 12257,
    "heartedness": 24827,
    "ounders": 22390,
    "Ġsuspicious": 9479,
    "scarcely": 12384,
    "Ġwarn": 5695,
    "Ġmiseries": 10346,
    "Ġstruck": 3388,
    "Ġdigesting": 19808,
    "onic": 7827,
    "Ġtruce": 24116,
    "Ġblow": 3373,
    "deployment": 26527,
    "Ġhitting": 21484,
    ":âĢĶ": 4431,
    "Ġslates": 11106,
    "Ġsociable": 19402,
    "nostr": 22720,
    "Ġripp": 11219,
    "Ġradiant": 16809,
    "tle": 2408,
    "Ġpainter": 19167,
    "recklessly": 25269,
    "strangers": 20335,
    "simp": 17665,
    "Ġproverb": 12713,
    "settled": 10506,
    "Ġseeing": 2886,
    "Ġexpiring": 16096,
    "Ġheat": 5453,
    "Ġoccasionally": 5590,
    "punishment": 15144,
    "Ġbarb": 4529,
    "insist": 23061,
    "talked": 14984,
    "proves": 23392,
    "Ġhelps": 9366,
    "ination": 2914,
    "ingley": 1544,
    "Ġsingularly": 12146,
    "Ġch": 513,
    "pigs": 17140,
    "Ġfringe": 17271,
    "Ġimpressive": 14999,
    "Ġpainting": 13140,
    "Ġfilm": 23922,
    "consol": 9761,
    "Ġgritted": 22802,
    "Ġmeasurement": 19421,
    "boo": 16349,
    "Ġfeminine": 15262,
    "Ġpredecess": 18517,
    "Ġsink": 4341,
    "Ġbountiful": 25944,
    "Ġneural": 619,
    "Ġintrig": 21987,
    "horizon": 23614,
    "Ġmostly": 7663,
    "geor": 15976,
    "star": 12669,
    "supernatural": 19778,
    "Ġdescends": 14286,
    "indispensable": 14209,
    "Ġcultivation": 17145,
    "Ġgrammar": 1063,
    "journey": 8744,
    "Ġunstructure": 2994,
    "liv": 9607,
    "Ġjeer": 24124,
    "ece": 17531,
    "Ġwindow": 2997,
    "elsewhere": 19867,
    "Ġwindsor": 16887,
    "ivial": 15858,
    "rudent": 6482,
    "Ġgroups": 3720,
    "Ġbronze": 22863,
    "oub": 1630,
    "Ġbarbarians": 19586,
    "Ġprogrammed": 11057,
    "Ġcontemptuously": 19832,
    "iac": 6225,
    "parsee": 14513,
    "Ġrelev": 1714,
    "Ġstaggering": 20272,
    "Ġardently": 9497,
    "urp": 1473,
    "shel": 11928,
    "inctions": 17732,
    "Ġpower": 1193,
    "Ġcrazed": 19174,
    "liber": 18813,
    "Ġreplied": 2262,
    "otograph": 5826,
    "roots": 15640,
    "Ġbulge": 23854,
    "increase": 20267,
    "deserted": 18960,
    "ipotence": 22362,
    "Ġenthusiasm": 8064,
    "obst": 11930,
    "Ġupheld": 22149,
    "ilies": 18056,
    "Ġillustrative": 25066,
    "grie": 12468,
    "oused": 6556,
    "Ġsolely": 9909,
    "Ġdissu": 18550,
    "Ġimmortality": 26325,
    "Ġcoincid": 20316,
    "Ġintermix": 22575,
    "Ġdespised": 14666,
    "Ġabominable": 12320,
    "itia": 11578,
    "======": 9832,
    "cle": 3958,
    "whisper": 17083,
    "Ġshrieking": 24758,
    "Ġprosperous": 15169,
    "task": 13792,
    "Ġcod": 8411,
    "Ġcocked": 12904,
    "repugnance": 16864,
    "turning": 8316,
    "ells": 5303,
    "irable": 5776,
    "contrad": 19291,
    "ise": 707,
    "Ġdespondency": 16577,
    "Ġquestion": 2778,
    "Ġ77": 24263,
    "roads": 17957,
    "Ġreck": 6537,
    "Ġinconveniences": 24939,
    "Ġsuspense": 9417,
    "moving": 11017,
    "inquir": 9535,
    "Ġcarriage": 3952,
    "Ġguinea": 8947,
    "Ġbundle": 13425,
    "Ġhoney": 12629,
    "Ġinsepar": 17933,
    "Ġcocks": 18594,
    "itives": 17819,
    "ip": 557,
    "amuse": 14052,
    "hering": 12811,
    "ulgences": 21862,
    "Ġwelfare": 12556,
    "Ġrecords": 12193,
    "Ġfiner": 13050,
    "Ġlurk": 13382,
    "Ġcircum": 8257,
    "Ġshakes": 10904,
    "Ġwretch": 6378,
    "Ġpsalmody": 20583,
    "Ġtoss": 10184,
    "anely": 17836,
    "trunk": 23945,
    "Ġsepul": 14089,
    "Ġyoke": 18095,
    "scores": 22982,
    "Ġ108": 19683,
    "Ġuncork": 23428,
    "Ġprompt": 3188,
    "greek": 25404,
    "Ġparr": 22133,
    "Ġmonitors": 3157,
    "Ġforbear": 17121,
    "dock": 16417,
    "Ġpositional": 2599,
    "lucifer": 25301,
    "Ġspiral": 14584,
    "Ġforgo": 21770,
    "Ġsand": 6235,
    "dignity": 15344,
    "Ġdr": 2824,
    "touch": 8391,
    "Ġroof": 6564,
    "Ġbump": 9659,
    "Ġdispose": 23877,
    "gir": 8082,
    "Ġoccupation": 9930,
    "humor": 19450,
    "whales": 5187,
    "Ġfish": 2712,
    "Ġsurmount": 19999,
    "Ġguineas": 16268,
    "Ġpaint": 7707,
    "Ġgenerative": 5644,
    "Ġearnestly": 5978,
    "bbings": 19276,
    "Ġilliter": 23467,
    "Ġsple": 21214,
    "Ġconceits": 19388,
    "wel": 6117,
    "Ġmale": 9648,
    "Ġcomprising": 16069,
    "Ġtroubles": 19437,
    "hearing": 8402,
    "Ġreven": 18028,
    "Ġnailed": 10189,
    "observation": 17269,
    "leep": 4634,
    "servant": 15035,
    "husband": 8041,
    "Ġclutch": 15053,
    "ches": 2149,
    "Ġelix": 22641,
    "Ġstormy": 16728,
    "Ġsafe": 5103,
    "falsehood": 25901,
    "generosity": 23784,
    "Ġwrapping": 19774,
    "Ġm": 274,
    "Ġnails": 12645,
    "Ġhighest": 3526,
    "iminished": 19020,
    "Ġuninjured": 22053,
    "Ġdash": 8121,
    "Ġaudacity": 19881,
    "Ġhas": 825,
    "Ġavail": 11226,
    "Ġprejudices": 13468,
    "told": 7811,
    "Ġwisely": 13271,
    "ear": 8730,
    "tains": 10962,
    "Ġchron": 19436,
    "osures": 22258,
    "Ġblaze": 16218,
    "precedented": 15173,
    "Ġfabulous": 25948,
    "Ġgrowl": 16537,
    "worm": 15452,
    "Ġassuming": 16693,
    "Ġvenetian": 14846,
    "Ġconviction": 6326,
    "Ġunexplored": 26518,
    "Ġhighness": 22768,
    "Ġstrove": 9956,
    "learning": 2623,
    "Ġplowdon": 26447,
    "Ġtime": 690,
    "Ġpowder": 11275,
    "Ġconscious": 7743,
    "Ġvalley": 5850,
    "Ġschools": 9476,
    "spirit": 11313,
    "agues": 8160,
    "Ġunwillingly": 15846,
    "Ġpossesses": 19350,
    "Ġmaledictions": 26428,
    "uting": 15657,
    "Ġtro": 7356,
    "zetts": 17714,
    "Ġinvest": 4978,
    "confidential": 25876,
    "remaining": 20219,
    "Ġtrading": 23073,
    "Ġassur": 6073,
    "baked": 20778,
    "Ġcondensed": 24051,
    "untering": 15773,
    "Ġprehens": 22228,
    "emic": 18184,
    "Ġnapole": 15114,
    "Ġcanst": 8857,
    "Ġdivide": 12108,
    "omically": 13975,
    "irc": 1729,
    "Ġexploitation": 2349,
    "olds": 9310,
    "Ġpreserved": 9261,
    "Ġwelded": 9571,
    "Ġmacy": 19353,
    "Ġremaining": 6188,
    "Ġspeaks": 11159,
    "asion": 5714,
    "was": 1420,
    "Ġfriday": 14488,
    "Ġhenceforth": 19646,
    "Ġnook": 15926,
    "Ġquartered": 20371,
    "relics": 24013,
    "Ġcroquet": 9961,
    "Ġprofund": 13152,
    "Ġmortals": 9915,
    "Ġloitered": 26525,
    "Ġmerited": 23729,
    "Ġmutter": 23951,
    "Ġdexter": 9700,
    "Ġcreditable": 19621,
    "Ġenabled": 9295,
    "mend": 20965,
    "Ġgrove": 12144,
    "Ġissued": 10599,
    "Ġdiet": 13909,
    "estab": 14170,
    "binary": 20783,
    "Ġenvelope": 7319,
    "Ġincorpor": 13164,
    "Ġmeek": 21806,
    "Ġtransc": 12860,
    "slide": 24556,
    "Ġtoday": 12640,
    "superstitious": 17280,
    "Ġthose": 1173,
    "shook": 19855,
    "Ġdanish": 21429,
    "Ġheroine": 24543,
    "unnatural": 15770,
    "Ġhere": 1089,
    "Ġyea": 8915,
    "barrels": 15041,
    "Ġrising": 4356,
    "Ġpious": 11598,
    "Ġvesture": 20060,
    "aurus": 20559,
    "discernible": 20549,
    "fac": 17541,
    "Ġobjecting": 18895,
    "hement": 13831,
    "ard": 465,
    "Ġsupplement": 22997,
    "Ġalarmed": 6923,
    "ged": 1512,
    "Ġhaggerston": 26452,
    "used": 3258,
    "Ġquee": 1979,
    "Ġlurked": 11291,
    "Ġfurs": 18738,
    "Ġstoper": 14462,
    "Ġbagging": 24539,
    "Ġcircumstantial": 14643,
    "Ġagonizing": 17238,
    "Ġwires": 21294,
    "rices": 4558,
    "Ġneared": 14072,
    "ailing": 7021,
    "Ġpork": 21455,
    "Ġpurchases": 24756,
    "ounder": 11742,
    "Ġour": 1012,
    "hammad": 23260,
    "ub": 1224,
    "jol": 20924,
    "Ġmotion": 4565,
    "Ġsadly": 7302,
    "fiery": 13580,
    "smo": 10125,
    "upset": 23014,
    "Ġeffusion": 22496,
    "omin": 4702,
    "Ġdrawling": 19435,
    "alarmed": 21500,
    "Ġthin": 4348,
    "Ġeducation": 5128,
    "Ġattentions": 5877,
    "Ġvir": 7001,
    "'(": 2979,
    "Ġclaimed": 14202,
    "Ġvain": 3632,
    "meanwhile": 10609,
    "Ġguardian": 14941,
    "whew": 22864,
    "hours": 9124,
    "ack": 609,
    "Ġreliance": 14384,
    "Ġdeadly": 5405,
    "Ġgroans": 14823,
    "Ġnocturn": 18375,
    "based": 2961,
    "Ġapp": 495,
    "odd": 21811,
    "Ġaltar": 9228,
    "Ġchimneys": 16972,
    "icest": 21561,
    "Ġburden": 8607,
    "Ġtermination": 16460,
    "Ġliked": 5264,
    "Ġinnumerable": 13350,
    "Ġusefulness": 19406,
    "Ġnib": 13939,
    "Ġfeet": 2255,
    "impropriety": 21710,
    "Ġshop": 9251,
    "Ġdreadfully": 7725,
    "Ġco": 730,
    "Ġlegisl": 23533,
    "Ġmund": 21317,
    "Ġamid": 4959,
    "Ġsperm": 1840,
    "Ġdireful": 11018,
    "untary": 9866,
    "Ġcoarsely": 25828,
    "le": 279,
    "Ġsublime": 8065,
    "Ġneglig": 18877,
    "Ġmeasuring": 22877,
    "oters": 21796,
    "Ġoverthrown": 18430,
    "m": 81,
    "Ġtortures": 14922,
    "Ġsuperlative": 26074,
    "ploy": 1974,
    "alth": 3253,
    "jam": 15370,
    "Ġminutes": 3000,
    "Ġrainbows": 19647,
    "resol": 17760,
    "compliments": 24810,
    "Ġranging": 8478,
    "bear": 10315,
    "convolutional": 4958,
    "bs": 3752,
    "tro": 15432,
    "stove": 21649,
    "Ġslacked": 25188,
    "admirably": 24944,
    "Ġscrutiny": 26015,
    "Ġsubsided": 14551,
    "ifully": 13185,
    "Ġupbraid": 18318,
    "Ġtorrent": 17092,
    "Ġes": 8768,
    "furthest": 19840,
    "blacksmith": 17001,
    "anous": 21357,
    "speckled": 23942,
    "oration": 2206,
    "Ġfolks": 14425,
    "ė": 216,
    "Ġdirected": 5579,
    "Ġman": 544,
    "Ġcreeping": 18684,
    "Ġconcentration": 25062,
    "Ġregimentals": 19857,
    "Ġroots": 11185,
    "Ġalph": 9694,
    "Ġundressed": 19512,
    "Ġlashed": 9198,
    "Ġrecollect": 8309,
    "lab": 3455,
    "Ġharder": 14448,
    "abond": 15738,
    "rival": 12740,
    "Ġbigger": 19760,
    "iar": 2378,
    "leisure": 21369,
    "Ġwardrobe": 17225,
    "ouri": 21445,
    "genteel": 19947,
    "Ġrespectful": 16344,
    "Ġbehavior": 8001,
    "ks": 3146,
    "north": 14616,
    "Ġtimber": 13348,
    "Ġcalculating": 9924,
    "Ġwast": 21857,
    "acceptable": 25183,
    "Ġgas": 8132,
    "Ġbol": 6241,
    "Ġbuttoned": 25368,
    "pron": 9005,
    "Ġloft": 5642,
    "Ġgable": 15664,
    "Ġcolonel": 3406,
    "itzerland": 9994,
    "Ġfagged": 17882,
    "inn": 5363,
    "watches": 14946,
    "Ġyou": 366,
    "Ġrespects": 7269,
    "vengeance": 13355,
    "olic": 14041,
    "Ġpresumption": 10545,
    "Ġimpro": 898,
    "Ġunmannerly": 26517,
    "greenland": 10020,
    "Ġsecured": 6745,
    "Ġseldom": 4629,
    "down": 3467,
    "young": 7321,
    "saw": 5893,
    "Ġmorsel": 20676,
    "Ġbrimming": 22862,
    "Ġunheeded": 18261,
    "Ġruin": 6055,
    "Ġsite": 17753,
    "iverse": 13114,
    "entitled": 21565,
    "incom": 21180,
    "Ġcoldness": 23757,
    "Ġgive": 1711,
    "Ġinsignificant": 20455,
    "Ġassail": 13060,
    "Ġordinary": 6096,
    "Ġreligions": 20106,
    "Ġfoliage": 18866,
    "Ġundulations": 19514,
    "Ġpriv": 4184,
    "Ġkindling": 19026,
    "87": 20756,
    "Ġdestroying": 14728,
    "nothing": 3154,
    "Ġalarming": 14779,
    "Ġconvenient": 8345,
    "Ġstone": 4645,
    "Ġcyn": 13885,
    "Ġyet": 1029,
    "Ġquantization": 19853,
    "Ġtrump": 8194,
    "Ġevangelical": 25506,
    "Ġswell": 8949,
    "Ġbri": 21376,
    "Ġreeled": 13985,
    "oned": 4630,
    "sleet": 20148,
    "Ġskirt": 18730,
    "Ġbelfry": 26438,
    "erted": 7361,
    "Ġsunk": 5752,
    "Ġlithe": 24668,
    "securer": 25602,
    "Ġsaratoga": 26423,
    "Ġexerted": 15752,
    "Ġbeads": 18083,
    "Ġmansfield": 25938,
    "build": 12185,
    "Ġhind": 9188,
    "Ġnarrative": 6215,
    "serve": 13044,
    "Ġgestic": 21605,
    "Ġgentleness": 8709,
    "Ġcrow": 3807,
    "overspreading": 26139,
    "yards": 9623,
    "Ġcommit": 18655,
    "umer": 9257,
    "treas": 17679,
    "ar": 285,
    "._]]": 5334,
    "Ġhurling": 19110,
    "chari": 21686,
    "Ġsnugly": 17111,
    "embraced": 25806,
    "Ġpolitic": 23617,
    "Ġbowsman": 11255,
    "Ġlamentations": 17076,
    "spark": 18691,
    "Ġwarned": 16880,
    "cigar": 26124,
    "Ġnoon": 6559,
    "_.âĢĿ": 5885,
    "hid": 13733,
    "Ġcatastrophic": 3540,
    "Ġassumed": 9465,
    "Ġassistant": 7298,
    "mas": 5212,
    "Ġmodified": 14168,
    "Ġivory": 4475,
    "Ġmarking": 16468,
    "Ġunusual": 6553,
    "Ġsav": 3355,
    "ferred": 16404,
    "swing": 15428,
    "Ġliquid": 22406,
    "Ġsheaves": 22155,
    "Ġciv": 3307,
    "Ġoil": 3372,
    "Ġblessing": 11263,
    "Åĵuv": 15181,
    "Ġyawning": 12298,
    "Ġpeculiarly": 8286,
    "ructed": 7027,
    "Ġrecommended": 8667,
    "Ġboa": 22632,
    "Ġdoubts": 8579,
    "Ġtossing": 8125,
    "ouch": 2780,
    "Ġrested": 9378,
    "ird": 2428,
    "ellations": 21945,
    "Ġtantalizing": 20412,
    "Ġexcess": 3341,
    "Ġexpressive": 8982,
    "Ġmultiplication": 2873,
    "Ġdisturbed": 8671,
    "impe": 21705,
    "idly": 12697,
    "amped": 12031,
    "avail": 18605,
    "Ġtendinous": 16931,
    "Ġhoping": 11102,
    "chron": 21691,
    "Ġaromatic": 25925,
    "Ġrevolut": 3255,
    "bable": 8718,
    "yours": 7694,
    "_).âĢĶ": 8681,
    "Ġsafer": 22172,
    "Ġcircumst": 2975,
    "Ġcrash": 12000,
    "aging": 2234,
    "Ġwhipcord": 20093,
    "got": 6955,
    "agre": 18164,
    "Ġaristocratic": 20511,
    "itive": 6668,
    "Ġstepping": 9353,
    "Ġcunning": 6238,
    "Ġbloss": 19255,
    "be": 671,
    "Ġreflect": 6575,
    "other": 1315,
    "Ġdespise": 14665,
    "Ġscraps": 16902,
    "gently": 13728,
    "Ġprejudiced": 24809,
    "vable": 10132,
    "Ġern": 8396,
    "tan": 4742,
    "honor": 19899,
    "Ġhealed": 21680,
    "Ġbam": 15563,
    "Ġindicates": 3193,
    "contain": 18502,
    "treasures": 26152,
    "Ġairth": 23314,
    "Ġcolossal": 11459,
    "Ġgladness": 16591,
    "sand": 21051,
    "Ġsitu": 3493,
    "Ġoverhung": 15973,
    "sleeves": 26109,
    "explanation": 12356,
    "Ġrecede": 25968,
    "Ġlust": 9197,
    "Ġdeser": 3889,
    "._": 3218,
    "Ġpocket": 4898,
    "Ġarches": 14162,
    "clusion": 16303,
    "Ġplacid": 11824,
    "embra": 14075,
    "Ġforms": 6397,
    "spond": 5567,
    "ateg": 1328,
    "jump": 10103,
    "chase": 11644,
    "warning": 25531,
    "poises": 11887,
    "Ġapprehensiveness": 16877,
    "germ": 15355,
    "youn": 5690,
    "baboon": 25516,
    "Ġunfaltering": 24113,
    "ule": 6800,
    "Ġimmeas": 18324,
    "Ġmelbourne": 24289,
    "Ġunche": 23427,
    "Ġhieroglyphic": 25587,
    "tra": 4934,
    "Ġboasted": 16104,
    "Ġbarrel": 23789,
    "hus": 5072,
    "lished": 8382,
    "seriously": 18904,
    "grown": 10099,
    "Ġliter": 8811,
    "inisc": 15487,
    "Ġfearlessness": 19160,
    "god": 4863,
    "deaux": 22145,
    "gryphon": 15357,
    "Ġmungo": 25631,
    "Ġuproar": 22152,
    "Ġconfluent": 19035,
    "mark": 5281,
    "irresist": 21909,
    "zz": 4294,
    "tu": 12509,
    "Ġannum": 24203,
    "hatches": 19927,
    "Ġbuttoning": 17235,
    "Ġsilent": 3410,
    "Ġattentive": 9033,
    "covering": 15333,
    "Ġinsatiable": 19271,
    "rabbit": 20589,
    "Ġdeficiency": 14402,
    "Ġlistening": 6318,
    "fron": 24281,
    "Ġacquisition": 18899,
    "Ġwarmth": 6905,
    "Ġcreate": 2090,
    "Ġimpossibility": 20646,
    "epilogue": 22097,
    "Ġsign": 2494,
    "Ġstorm": 4302,
    "Ġsufficiently": 8973,
    "Ġsnatched": 10471,
    "Ġprematurely": 24004,
    "Ġprisoner": 8672,
    "Ġprey": 6415,
    "Ġelaborate": 18636,
    "prow": 15410,
    "Ġcordially": 16836,
    "procure": 23395,
    "ĠâĢľâĢĻ": 22251,
    "process": 11148,
    "Ġcruisers": 25863,
    "Ġbon": 8785,
    "king": 3060,
    "Ġsimpleton": 16334,
    "Ġsucceed": 4543,
    "Ġincul": 22547,
    "Ġstrong": 1785,
    "Ġnoah": 10942,
    "sugg": 11839,
    "Ġgleam": 12306,
    "anning": 10164,
    "Ġthese": 819,
    "Ġsprang": 5064,
    "Ġtinted": 13821,
    "arched": 10815,
    "helping": 23136,
    "Ġsulk": 15045,
    "Ġaccents": 14210,
    "rack": 18010,
    "spending": 18692,
    "extent": 22758,
    "Ġbingleys": 18994,
    "Ġclenched": 14204,
    "Ġplum": 11820,
    "hies": 17560,
    "attracted": 13048,
    "Ġdiverged": 23593,
    "Ġunsophisticated": 25992,
    "semic": 21818,
    "apse": 14198,
    "Ġdetain": 14173,
    "catch": 17506,
    "Ġincessantly": 11411,
    "Ġexcited": 5580,
    "ske": 13781,
    "Ġventilator": 8713,
    "Ġdaylight": 10350,
    "Ġlances": 6984,
    "Ġsqualls": 17020,
    "Ġmalignant": 14877,
    "Ġanimate": 23421,
    "lantic": 6363,
    "Ġeternal": 5975,
    "Ġaust": 4871,
    "robust": 19727,
    "occasionally": 13520,
    "Ġworks": 5857,
    "leaning": 10790,
    "onings": 21251,
    "Ġcoffin": 4428,
    "although": 8805,
    "staff": 21653,
    "Ġgracefully": 13390,
    "Ġanxiety": 5408,
    "resembled": 21245,
    "Ġakin": 15494,
    "fresh": 13391,
    "Ġfebruary": 15911,
    "sax": 21055,
    "Ġgenerate": 1452,
    "code": 15328,
    "Ġwreat": 15529,
    "Ġrecalled": 8537,
    "illar": 5101,
    "Ġstuck": 9220,
    "Ġclothes": 4997,
    "Ġfry": 17879,
    "Ġmoustache": 20482,
    "Ġdre": 1744,
    "resh": 8403,
    "Ġbushy": 16399,
    "Ġever": 1181,
    "Ġbubbles": 11398,
    "ĠĠĠĠĠĠĠĠĠĠĠĠĠ": 22560,
    "rawling": 21633,
    "Ġscrupled": 25049,
    "Ġaustrian": 24300,
    "Ġrobes": 16257,
    "Ġburied": 7718,
    "Ġpalp": 11251,
    "Ġsublimity": 26345,
    "Ġtreatise": 19343,
    "Ġfountains": 13502,
    "turner": 19540,
    "Ġnormal": 1202,
    "Ġdevoured": 16133,
    "Ġevident": 6611,
    "Ġsickness": 10538,
    "Ġdust": 5908,
    "claps": 23151,
    "Ġ199": 3008,
    "hend": 13250,
    "ems": 5236,
    "ring": 1752,
    "Ġrelaxed": 12981,
    "Ġramadan": 9575,
    "Ġinsurmountable": 16530,
    "Ġfloated": 7288,
    "ld": 385,
    "Ġpell": 21454,
    "Ġdeer": 12717,
    "left": 6975,
    "Ġcaw": 13882,
    "delightful": 12194,
    "Ġhab": 4218,
    "Ġscarcely": 4012,
    "Ġforthwith": 16618,
    "flood": 19805,
    "Ġlumps": 21553,
    "Ġextinct": 14330,
    "clothed": 19737,
    "Ġmissing": 6175,
    "Ġforward": 1835,
    "Ġjava": 12310,
    "Ġ63": 24366,
    "Ġshoe": 14568,
    "Ġaddressed": 5262,
    "expanded": 23661,
    "Ġlazily": 11380,
    "ipt": 12476,
    "osely": 9264,
    "Ġreceived": 2952,
    "Ġsignific": 3830,
    "Ġmile": 7151,
    "ox": 9133,
    "84": 15300,
    "add": 5229,
    "listened": 15043,
    "pid": 1414,
    "Ġconsc": 4275,
    "tese": 21082,
    "Ġunhappiness": 14117,
    "Ġimmense": 4952,
    "Ġpoor": 1708,
    "Ġmining": 22827,
    "behaviour": 11301,
    "arest": 4007,
    "unhesitatingly": 26496,
    "Ġgene": 15669,
    "row": 1067,
    "Ġsane": 21220,
    "Ġsilence": 3266,
    "Ġhorsham": 10406,
    "breath": 15161,
    "Ġgradient": 450,
    "rarely": 21631,
    "Ġsuggests": 12198,
    "consolatory": 25306,
    "osa": 22257,
    "Ġexponential": 1059,
    "muttered": 13758,
    "Ġfluttered": 16246,
    "Ġhated": 7584,
    "Ġpurch": 6599,
    "vere": 4883,
    "ľ": 255,
    "Ġinvestigation": 9042,
    "Ġremonstr": 16159,
    "Ġmouth": 3179,
    "Ġclever": 7054,
    "Ġcrammed": 16470,
    "ashtego": 4104,
    "ating": 666,
    "thrill": 25656,
    "Ġmultipl": 2792,
    "greg": 6647,
    "respectively": 24700,
    "roused": 16652,
    "Ġenchanted": 9080,
    "Ġgull": 15667,
    "Ġ12": 5483,
    "Ġtoast": 21509,
    "Ġplainpalais": 20736,
    "Ġdishonoured": 20389,
    "Ġresided": 11809,
    "summon": 23414,
    "accessory": 25499,
    "Ġearthly": 7989,
    "Ġrelease": 19290,
    "Ġfashionable": 19543,
    "Ġshin": 18227,
    "Ġexile": 12714,
    "Ġruinous": 24633,
    "Ġfi": 933,
    "arrant": 10474,
    "Ġcustomary": 8669,
    "Ġswallowed": 7943,
    "contrivance": 26316,
    "Ġenvironments": 24003,
    "atig": 13844,
    "Ġdedication": 3087,
    "lott": 6650,
    "Ġclams": 19987,
    "Ġsports": 18308,
    "Ġsickened": 16775,
    "Ġrender": 8304,
    "least": 8784,
    "dug": 18462,
    "Ġethere": 23948,
    "carpet": 25202,
    "analy": 17838,
    "gloomy": 25144,
    "ernal": 4313,
    "aded": 3548,
    "Ġslips": 23164,
    "Ġthrow": 3786,
    "nosed": 20991,
    "Ġsubl": 7235,
    "Ġbless": 4343,
    "wondering": 19844,
    "Ġnautical": 17385,
    "impatience": 25500,
    "Ġcreditor": 24290,
    "Ġcircumnavigation": 20398,
    "Ġmazes": 25940,
    "comparison": 25840,
    "lost": 8887,
    "Ġrealities": 18981,
    "phr": 18716,
    "Ġfamous": 5255,
    "solution": 14686,
    "Ġpassers": 18759,
    "ings": 637,
    "volous": 18584,
    "Ġsecure": 4912,
    "Ġconsequently": 8059,
    "Ġoverpowering": 15248,
    "Ġblinding": 14727,
    "Ġprecipice": 19939,
    "Ġrashly": 20304,
    "âĢĻ,": 14071,
    "Ġfront": 3450,
    "become": 14246,
    "vering": 15713,
    "Ġincommod": 25307,
    "unaffected": 21880,
    "scorched": 25697,
    "occupied": 12302,
    "Ġinducements": 24965,
    "apologizing": 26544,
    "Ġforswe": 21771,
    "Ġaverage": 3140,
    "by": 1155,
    "Ġvectors": 1770,
    "into": 3682,
    "Ġrector": 21673,
    "Ġfan": 2035,
    "rocket": 13943,
    "ograph": 4797,
    "Ġterribly": 10425,
    "Ġpatted": 16384,
    "Ġintuitions": 17340,
    "Ġexpose": 10327,
    "Ġwouldst": 18501,
    "Ġhesitating": 16947,
    "ately": 1695,
    "Ġliving": 3063,
    "Ġstrangers": 8313,
    "Ġol": 17814,
    "don": 3542,
    "grow": 10098,
    "etical": 13957,
    "Ġunreserved": 19395,
    "rupt": 3208,
    "those": 4494,
    "Ġvigilant": 20183,
    "Ġplaymate": 23636,
    "omit": 13973,
    "Ġexhibited": 9543,
    "Ġauto": 23297,
    "Ġassist": 3565,
    "scor": 13013,
    "drawn": 9912,
    "Ġcorroborated": 26053,
    "Ġaffectation": 14439,
    "Ġcontrasting": 11154,
    "Ġproclaim": 18130,
    "join": 12111,
    "Ġthunder": 4823,
    "dun": 17516,
    "Ġraw": 3319,
    "Ġexamples": 2606,
    "reason": 4414,
    "Ġwatches": 11081,
    "Ġmusty": 22677,
    "Ġtongue": 6347,
    "Ġrejected": 12292,
    "tackles": 25624,
    "Ġdisconcerted": 18562,
    "vember": 10855,
    "Ġstar": 6022,
    "Ġhumorously": 18778,
    "responsible": 25763,
    "Ġshetland": 22156,
    "apes": 9740,
    "Ġqueequeg": 2012,
    "omon": 10206,
    "Ġgret": 21598,
    "honey": 20904,
    "Ġhundredth": 16517,
    "inate": 6233,
    "acquaintance": 6938,
    "Ġreader": 11932,
    "Ġconsum": 9798,
    "Ġbased": 3338,
    "Ġdance": 4441,
    "Ġfiends": 14827,
    "Ġcad": 12565,
    "adm": 7608,
    "Ġcust": 11581,
    "ums": 10272,
    "Ġasks": 5115,
    "Ġcreamy": 14329,
    "claim": 9834,
    "Ġendured": 6072,
    "Ġsought": 5010,
    "Ġrelapses": 26278,
    "Ġdamn": 11158,
    "Ġromish": 19583,
    "Ġpersistence": 2851,
    "Ġputting": 5326,
    "Ġgrows": 4985,
    "Ġspeedily": 7711,
    "spring": 7231,
    "Ġbenefactor": 14697,
    "Ġacquaintances": 17349,
    "Ġlaugh": 4115,
    "Ġthankful": 14737,
    "Ġgrapp": 14100,
    "atmosphere": 21263,
    "Ġgreeks": 20011,
    "Ġthenceforth": 25182,
    "Ġrobins": 16258,
    "Ġsufficient": 2003,
    "Ġobsolete": 26558,
    "Ġshow": 3401,
    "ientiously": 21938,
    "Ġdistributed": 18661,
    "locks": 14455,
    "Ġrevealed": 6751,
    "ę": 218,
    "Ġrepugnant": 26590,
    "Ġlengthened": 25958,
    "rary": 4574,
    "enderby": 25215,
    "Ġforenoon": 19126,
    "Ġbushes": 16398,
    "Ġcoach": 6868,
    "Ġprosecution": 12379,
    "Ġ1778": 25730,
    "calmed": 16202,
    "Ġchooses": 13345,
    "Ġyellow": 5300,
    "stopping": 19348,
    "mat": 2197,
    "bewil": 22495,
    "Ġfondness": 16780,
    "Ġbelf": 21379,
    "binder": 17499,
    "Ġterti": 14538,
    "Ġqualified": 14949,
    "Ġpassions": 7929,
    "igger": 21698,
    "retrie": 18922,
    "Ġrenowned": 26193,
    "Ġroods": 22401,
    "erately": 21272,
    "Ġaquiline": 26159,
    "Ġdistributing": 22676,
    "family": 7324,
    "Ġmethodically": 23140,
    "onah": 3336,
    "Ġworshipped": 25691,
    "kindly": 14743,
    "Ġcoding": 8115,
    "frost": 15105,
    "Ġboone": 11838,
    "Ġcringing": 25941,
    "Ġrejoined": 14926,
    "Ġnervousness": 23554,
    "Ġappropriate": 2246,
    "Ġnephews": 24713,
    "Ġinference": 9671,
    "Ġconvict": 23743,
    "worth": 8626,
    "Ġkeels": 11060,
    "Ġallies": 18234,
    "Ġcompose": 12902,
    "slack": 16894,
    "Ġintelligent": 1430,
    "mers": 9610,
    "ars": 906,
    "Ġexpected": 3698,
    "Ġvalue": 2083,
    "ensing": 12896,
    "ontory": 10459,
    "Ġfervently": 25877,
    "Ġcheapside": 23285,
    "kins": 7345,
    "Ġtouch": 3394,
    "Ġclos": 4547,
    "fancy": 7337,
    "squ": 7809,
    "Ġ[\"": 19929,
    "Ġraiment": 22655,
    "Ġbi": 920,
    "ru": 478,
    "ps": 4573,
    "asional": 17959,
    "Ġrelent": 18774,
    "Ġtol": 6675,
    "Ġpianoforte": 15272,
    "Ġthomson": 26454,
    "Ġimpet": 11777,
    "Ġdipped": 15592,
    "Ġrom": 4523,
    "Ġmoran": 9340,
    "ging": 2602,
    "Ġinjunction": 19616,
    "ezing": 10573,
    "Ġgallant": 8654,
    "inf": 6232,
    "heavy": 10574,
    "Ġride": 12755,
    "Ġtransports": 24277,
    "Ġgrazed": 15831,
    "Ġdeaths": 14537,
    "Ġspears": 12923,
    "Ġargue": 16783,
    "Ġemm": 18002,
    "despicable": 24636,
    "Ġwatchman": 23664,
    "belled": 24035,
    "Ġbattalions": 25776,
    "Ġunidirectional": 3424,
    "Ġpiping": 23246,
    "expense": 22426,
    "bare": 12439,
    "Ġsubsets": 2347,
    "Ġstaring": 8824,
    "gl": 3289,
    "block": 11470,
    "Ġdreaded": 8288,
    "Ġhue": 8428,
    "Ġcompanion": 3646,
    "provided": 13636,
    "Ġseventy": 7879,
    "interrupt": 8615,
    "bring": 9104,
    "evil": 11485,
    "Ġrefreshing": 20263,
    "ĠĠĠĠĠĠĠĠĠĠĠĠĠĠĠĠĠĠĠĠĠĠĠĠĠĠĠ": 14885,
    "myst": 9821,
    "credit": 12446,
    "barr": 15319,
    "Ġrifle": 18214,
    "Ġparaph": 22134,
    "Ġannouncement": 14832,
    "Ġtails": 9901,
    "Ġoffered": 5816,
    "Ġspas": 10921,
    "Ġdestabilizing": 5053,
    "Ġmaritime": 23037,
    "Ġimmaculate": 19484,
    "ayed": 12709,
    "Ġgush": 10202,
    "Ġfist": 21402,
    "faith": 15024,
    "deck": 4499,
    "rigging": 20004,
    "conveyed": 20519,
    "acup": 14259,
    "fork": 20856,
    "Ġsk": 962,
    "Ġrude": 7234,
    "Ġlook": 879,
    "inger": 6812,
    "Ġender": 11688,
    "ular": 714,
    "Ġcircumn": 11982,
    "Ġasse": 8159,
    "ā": 194,
    "battle": 12440,
    "Ġostlers": 25276,
    "ulate": 5233,
    "Ġarched": 10932,
    "Ġconnections": 970,
    "Ġfrantically": 23255,
    "Ġremove": 7499,
    "Ġmitt": 21306,
    "imate": 4221,
    "Ġexplained": 5935,
    "dipped": 20836,
    "Ġsensit": 2947,
    "Ġangular": 19206,
    "Ġspies": 22121,
    "Ġ106": 24414,
    "Ġarmitage": 23580,
    "Ġeach": 892,
    "Ġchasing": 11752,
    "Ġclerks": 17294,
    "event": 8076,
    "Ġbarrels": 9435,
    "Ġcalves": 13032,
    "humoredly": 26324,
    "widows": 25344,
    "hit": 20888,
    "Ġbear": 3660,
    "whosoever": 22237,
    "hist": 7130,
    "lesome": 12962,
    "Ġdanes": 25156,
    "Ġformed": 3886,
    "iality": 8843,
    "Ġhailed": 6407,
    "tubes": 25211,
    "Ġincredible": 9514,
    "nect": 664,
    "Ġsuch": 791,
    "istic": 1008,
    "Ġaccepted": 7750,
    "pervised": 1556,
    "write": 14647,
    "Ġnavigation": 9992,
    "Ġcapst": 8595,
    "Ġbecher": 18879,
    "Ġpreviously": 3921,
    "hilar": 25081,
    "Ġedition": 16433,
    "Ġhappier": 10359,
    "Ġcorpora": 26580,
    "erman": 5108,
    "orted": 4602,
    "fearfully": 25116,
    "considering": 12172,
    "phant": 6287,
    "Ġprovided": 6577,
    "Ġblindly": 12107,
    "allowed": 5728,
    "Ġseren": 7401,
    "Ġresounds": 22539,
    "Ġmidships": 23632,
    "Ġpad": 8124,
    "ilt": 2969,
    "oth": 1185,
    "Ġmounttop": 19976,
    "Ġomnipotent": 13547,
    "Ġverdure": 10612,
    "riety": 12741,
    "Ġinfl": 6893,
    "jo": 3753,
    "Ġfiendish": 13326,
    "divided": 25018,
    "Ġinstead": 2791,
    "Ġamel": 18510,
    "Ġwaxed": 21296,
    "estation": 15918,
    "Ġclosest": 16763,
    "Ġstair": 8455,
    "ap": 547,
    "Ġchased": 8861,
    "Ġergo": 25029,
    "native": 17611,
    "leading": 15559,
    "Ġpunctures": 25133,
    "Ġglow": 7170,
    "Ġparish": 8855,
    "Ġexhaled": 19681,
    "Ġslip": 8954,
    "tstone": 21083,
    "storm": 9681,
    "mason": 17603,
    "Ġsurviv": 13434,
    "falling": 24361,
    "Ġremoter": 20104,
    "Ġstroke": 6936,
    "Ġintegr": 7968,
    "Ġdilig": 8349,
    "Ġcursory": 18857,
    "Ġcontr": 1913,
    "Ġribbed": 16804,
    "Ġperman": 10965,
    "Ġcreates": 2009,
    "Ġnomin": 10190,
    "igate": 8822,
    "ank": 1365,
    "Ġgardens": 16452,
    "riv": 3110,
    "Ġgenteel": 19979,
    "²": 115,
    "Ġcontract": 18475,
    "Ġindulging": 16904,
    "unfortunate": 15774,
    "Ġhope": 1787,
    "Ġmonth": 2850,
    "Ġvastly": 23857,
    "Ġforger": 15730,
    "Ġintimately": 24804,
    "tied": 21069,
    "Ġconceived": 8149,
    "Ġplay": 2629,
    "Ġsubsequent": 7658,
    "Ġcumbrous": 26432,
    "Ġmetrics": 19071,
    "Ġburglar": 17354,
    "Ġboun": 21378,
    "mannered": 22846,
    "Ġcommanders": 23865,
    "uced": 13799,
    "assembled": 21542,
    "Ġguided": 10460,
    "copy": 5133,
    "Ġpunct": 8660,
    "Ġhardihood": 23109,
    "shoulder": 16583,
    "Ġgi": 15663,
    "Ġdial": 10810,
    "Ġcheerless": 16694,
    "enjoy": 10774,
    "meant": 7920,
    "Ġprop": 1680,
    "hoist": 23712,
    "severe": 21816,
    "Ġrelentless": 26277,
    "Ġfrankness": 16746,
    "Ġdogs": 7741,
    "Ġcondemned": 7778,
    "Ġcleat": 18946,
    "Ġcompression": 18144,
    "Ġwalks": 8966,
    "cooee": 12416,
    "directly": 13708,
    "Ġstepped": 7051,
    "fishermen": 17061,
    "Ġsulphur": 24933,
    "adders": 24400,
    "georgiana": 26020,
    "Ġdevious": 22713,
    "Ġcet": 6669,
    "Ġderbyshire": 6586,
    "red": 396,
    "beheaded": 22490,
    "Ġwedded": 16674,
    "Ġwriggling": 15256,
    "ples": 6845,
    "putation": 7624,
    "uttle": 6247,
    "icit": 3377,
    "Ġloudly": 7312,
    "althily": 19357,
    "Ġpity": 4941,
    "roofed": 26183,
    "Ġgriff": 22803,
    "Ġxxx": 7766,
    "inence": 15480,
    "urried": 21701,
    "Ġloud": 4700,
    "corrob": 24485,
    "Ġinfinity": 23279,
    "protected": 19920,
    "Ġsignificantly": 4517,
    "Ġtho": 21511,
    "Ġbottled": 23793,
    "Ġfron": 14487,
    "folly": 20861,
    "exceed": 7910,
    "Ġburly": 19249,
    "Ġeloquent": 16108,
    "chester": 23804,
    "Ġhandy": 12933,
    "sheet": 16284,
    "terdam": 18129,
    "Ġwits": 15530,
    "Ġsenior": 17171,
    "Ġbut": 424,
    "Ġpumping": 25643,
    "Ġchancing": 22245,
    "earn": 10696,
    "library": 12996,
    "Ġpaddle": 20057,
    "Ġwrung": 14469,
    "Ġsleep": 2398,
    "Ġfalls": 14644,
    "Ġshr": 4226,
    "Ġtwisting": 18658,
    "Ġnatures": 16504,
    "Ġincumbent": 16063,
    "ib": 1236,
    "ergy": 2362,
    "Ġselects": 4385,
    "Ġrestrict": 16372,
    "Ġexploration": 2338,
    "cabinet": 25077,
    "Ġcommissioned": 19894,
    "Ġmaintain": 857,
    "Ġwelcome": 5604,
    "Ġabandoned": 8351,
    "Ġrecurring": 23230,
    "Ġbeeches": 9226,
    "culiarity": 11141,
    "--âĢľ": 12969,
    "Ġalso": 1345,
    "devilish": 17082,
    "Ġpantaloons": 20295,
    "uing": 17693,
    "Ġpince": 21469,
    "Ġheels": 10850,
    "Ġunfrequ": 19507,
    "Ġslammed": 20446,
    "Ġskilfully": 20522,
    "Ġcircumference": 13544,
    "Ġfishery": 4177,
    "Ġextensive": 12939,
    "Ġflaming": 8563,
    "sombre": 23851,
    "Ġclassify": 1616,
    "Ġconceal": 5973,
    "Ġgardener": 19134,
    "nav": 17612,
    "historian": 25735,
    "ribbed": 16411,
    "Ġsitt": 21216,
    "female": 20665,
    "Ġtapped": 11553,
    "catherine": 7127,
    "Ġphilosoph": 19650,
    "Ġbubblingly": 25632,
    "Ġsacrificial": 24876,
    "oft": 3592,
    "Ġdaggoo": 5441,
    "Ġdemoniac": 15063,
    "Ġtwopence": 18660,
    "izard": 10883,
    "astes": 11737,
    "Ġnocturnal": 20714,
    "Ġbegrimed": 26578,
    "Ġfet": 5807,
    "Ġnash": 5819,
    "dwelling": 20563,
    "Ġdiminishing": 4209,
    "Ġcho": 4545,
    "civil": 7796,
    "Ġkeepers": 23537,
    "soled": 14333,
    "centre": 17087,
    "Ġloafer": 18299,
    "Ġgun": 4701,
    "Ġindividuals": 24546,
    "Ġtrack": 7450,
    "irection": 2387,
    "gered": 9275,
    "Ġstiffness": 24830,
    "Ġcork": 12566,
    "Ġpriests": 15040,
    "Ġdimens": 3150,
    "Ġbehavioral": 11396,
    "Ġniagara": 26458,
    "Ġlowered": 6735,
    "Ġcommend": 10334,
    "Ġmounting": 19975,
    "Ġsplendidly": 25327,
    "Ġautomatically": 3777,
    "Ġhighland": 18710,
    "Ġcoal": 18592,
    "Ġcutting": 4983,
    "T": 56,
    "â": 163,
    "Ġbade": 9171,
    "Ġconfed": 13095,
    "Ġbedford": 7473,
    "pretending": 17041,
    "Ġofficial": 7081,
    "commun": 15033,
    "Ġspectacles": 12095,
    "Ġtame": 17722,
    "blue": 13692,
    "Ġaspire": 21897,
    "either": 6791,
    "influ": 9540,
    "Ġdistinct": 4608,
    "Ġgrief": 4619,
    "Ġsmitten": 12899,
    "Ġcheers": 16364,
    "mm": 677,
    "Ġbash": 12583,
    "Ġtriangular": 14858,
    "springs": 24911,
    "Ġincessant": 15096,
    "itche": 7578,
    "Ġbunger": 9995,
    "ains": 5094,
    "Ġfits": 8790,
    "gunwale": 20662,
    "Ġcontrol": 13078,
    "improve": 15709,
    "Ġswimming": 5507,
    "Ġseethe": 21960,
    "Ġstage": 7389,
    "Ġrans": 21963,
    "Ġshield": 21996,
    "Ġthrusting": 10552,
    "ield": 2407,
    "Ġslay": 16304,
    "choice": 21688,
    "Ġnarrations": 24352,
    "Ġ1894": 5196,
    "ma": 1146,
    "exper": 8878,
    "bud": 10682,
    "Ġintrodu": 1925,
    "Ġconnected": 5393,
    "Ġincorruption": 26309,
    "Ġhalf": 1669,
    "Ġwag": 10775,
    "Ġsecre": 5493,
    "Ġlay": 583,
    "harpo": 4805,
    "uesday": 8587,
    "hill": 15361,
    "Ġtorn": 5999,
    "Ġri": 3393,
    "crowning": 25748,
    "Ġtottenham": 24142,
    "entimes": 12653,
    "Ġcomforters": 25800,
    "Ġsold": 6002,
    "Ġvoyager": 16511,
    "Ġgrammars": 11402,
    "Ġforged": 12701,
    "hen": 3515,
    "Ġanticipation": 17057,
    "Ġbelong": 3888,
    "Ġflip": 11910,
    "impulse": 20644,
    "Ġforget": 2637,
    "threadbare": 25989,
    "Ġdisastrous": 16058,
    "retion": 9361,
    "Ġjourney": 3882,
    "shall": 4548,
    "Ġhanding": 16128,
    "Ġindications": 14632,
    "Ġample": 11796,
    "list": 7551,
    "Ġexamine": 7734,
    "je": 11495,
    "Ġmedium": 16681,
    "cavity": 26126,
    "Ġwrench": 12554,
    "curiosity": 8623,
    "Ġstepmother": 16087,
    "outside": 12801,
    "leave": 7837,
    "Ġcode": 1720,
    "Ġcurric": 22991,
    "Ġchemistry": 11460,
    "Ġconsecrated": 26488,
    "Ġpunctually": 17138,
    "Ġsmooth": 2779,
    "indian": 11776,
    "Ġincognit": 22552,
    "Ġepisode": 26346,
    "beyond": 8882,
    "Ġpatriot": 23320,
    "Ġrepugnance": 19086,
    "access": 11180,
    "Ġpagan": 7117,
    "Ġfluid": 11212,
    "Ġlawy": 9454,
    "Ġ180": 16606,
    "!_âĢĶ": 19971,
    "Ġdirectly": 2104,
    "facts": 19841,
    "Ġjer": 6266,
    "tin": 6116,
    "Ġslide": 10393,
    "attempted": 20173,
    "natured": 7110,
    "aintance": 3571,
    "Ġwes": 8778,
    "Ġpurposed": 23550,
    "atious": 10151,
    "onse": 21248,
    "Ġachieved": 13165,
    "Ġsubaltern": 22788,
    "terrible": 8465,
    "resent": 10769,
    "Ġlink": 8129,
    "deliver": 19503,
    "door": 6193,
    "Ġimpertinence": 11366,
    "offered": 14518,
    "Ġtruth": 3318,
    "Ġslime": 23159,
    "Ġrequirements": 9793,
    "Ġsod": 11561,
    "estations": 22221,
    "Ġbounty": 26437,
    "ifies": 6686,
    "Ġviewing": 19263,
    "Ġdisenc": 22523,
    "develop": 13517,
    "Ġdardanelles": 26443,
    "Ġstill": 1153,
    "mency": 18925,
    "Ġsecretly": 13270,
    "past": 8089,
    "belated": 24036,
    "Ġinferences": 17934,
    "Ġreach": 4050,
    "Ġconsistence": 23354,
    "Ġpost": 4273,
    "Ġunhallowed": 17180,
    "Ġpromotion": 23191,
    "Ġ54": 24322,
    "accomplishments": 25326,
    "ights": 8475,
    "Ġgreas": 17991,
    "Ġteneriffe": 26414,
    "Ġsimplicity": 2924,
    "Ġrem": 954,
    "Ġunabated": 15850,
    "Ġslope": 14460,
    "Ġstandard": 14496,
    "peculiarity": 23107,
    "precip": 14664,
    "Ġmentioning": 9898,
    "Ġunch": 18239,
    "ability": 716,
    "lude": 6161,
    "Ġscolded": 25472,
    "lay": 5890,
    "lantern": 17427,
    "uten": 11621,
    "ortment": 22253,
    "efficient": 2872,
    "irwin": 8468,
    "oise": 15403,
    "Ġeat": 4643,
    "Ġpinioned": 21480,
    "Ġdropt": 23671,
    "civilities": 24971,
    "Ġvane": 22869,
    "Ġremarked": 3697,
    "Ġcups": 16882,
    "inite": 6001,
    "whom": 8184,
    "Ġire": 12664,
    "Ġhelpless": 8301,
    "Ġpopulous": 16826,
    "tps": 11534,
    "Ġcrippled": 25278,
    "Ġmalignity": 10556,
    "Ġslipper": 24265,
    "Ġmaximizing": 3169,
    "Ġlaurel": 20653,
    "inary": 3272,
    "Ġpopular": 6216,
    "luding": 6700,
    "Ġlined": 15647,
    "Ġstocks": 23174,
    "revolver": 25627,
    "Ġnative": 4640,
    "Ġshut": 3943,
    "swept": 19785,
    "Ġleaps": 14007,
    "Ġlacey": 10197,
    "places": 7876,
    "Ġseverity": 15818,
    "Ġsmile": 4272,
    "ħ": 232,
    "Ġunworth": 22033,
    "Ġbethinking": 25279,
    "Ġhesitate": 16946,
    "kind": 3866,
    "Ġsupplies": 20325,
    "Ġwaits": 23276,
    "Ġdeclares": 16992,
    "ittle": 810,
    "impressed": 12688,
    "Ġconceive": 8461,
    "opportunity": 12272,
    "Ġwraps": 19775,
    "twilight": 23700,
    "lacings": 26134,
    "downstairs": 23917,
    "published": 26142,
    "Ġcovari": 2340,
    "Ġheedfully": 24521,
    "weakness": 16122,
    "Ġforked": 11663,
    "Ġmaddened": 17244,
    "Ġfond": 4755,
    "Ġrepaired": 13106,
    "Ġriggers": 24156,
    "inction": 6660,
    "anx": 8783,
    "ny": 4018,
    "Ġconsiderations": 9409,
    "Ġenergetic": 15196,
    "ittarius": 22377,
    "apable": 6422,
    "Ġcastles": 16639,
    "Ġbalmoral": 16205,
    "Ë": 140,
    "aph": 10954,
    "Ġinexperience": 26099,
    "umbent": 12093,
    "Ġreligion": 11415,
    "Ġdrowsiness": 26445,
    "Ġamidst": 9493,
    "gratitude": 16816,
    "Ġnormalizes": 1861,
    "features": 14772,
    "Ġconsequ": 6254,
    "Ġs": 265,
    "acing": 2719,
    "Ġtotal": 4993,
    "Ġimportant": 1060,
    "Ġnaught": 8127,
    "Ġess": 5691,
    "Ġunjust": 8483,
    "Ġraven": 16114,
    "Ġheave": 7599,
    "moon": 10335,
    "Ġadditional": 7934,
    "Ġtries": 9150,
    "situation": 11437,
    "Ġhedgehog": 10644,
    "allions": 22195,
    "Ġnumer": 3641,
    "anatory": 21361,
    "wow": 21120,
    "Ġdau": 21423,
    "Ġsweetness": 9445,
    "Ġcloud": 3913,
    "Ġunnaturally": 24870,
    "Ġrough": 7187,
    "Ġfossils": 20221,
    "Ġdeposit": 17268,
    "Ġoffices": 14337,
    "Ġsunwards": 19010,
    "Ġpupils": 20419,
    "encountered": 20391,
    "ips": 2593,
    "Ġluxuries": 25163,
    "Ġvivacious": 19814,
    "Ġdaugh": 2294,
    "desired": 8956,
    "Ġignor": 4015,
    "Ġsledge": 8110,
    "Ġobviously": 16810,
    "sailor": 14714,
    "Ġthomas": 17947,
    "Ġthou": 1808,
    "atically": 2478,
    "ulum": 21860,
    "Ġlight": 1700,
    "Ġagric": 22512,
    "uncommon": 11680,
    "umber": 5241,
    "Ġredress": 23750,
    "interesting": 12199,
    "Ġamongst": 8959,
    "Ġhelplessness": 25071,
    "Ġfrank": 4419,
    "Ġsummoned": 9910,
    "Ġsafie": 6617,
    "Ġcheeks": 5957,
    "Ġdrowsy": 26444,
    "Ġgrind": 18734,
    "Ġdomineering": 23674,
    "Ġsupplied": 8943,
    "Ġventured": 7501,
    "gor": 546,
    "daw": 17522,
    "Ġorigin": 4122,
    "know": 2320,
    "Ġhal": 1362,
    "Ġnodded": 11968,
    "Ġlodges": 19498,
    "Ġcalf": 16264,
    "Ġ45": 14769,
    "Ġpurposes": 11168,
    "Ġjuggl": 20436,
    "sufficiently": 14980,
    "Ġinscribed": 24938,
    "robustness": 26338,
    "Ġmarine": 23032,
    "added": 11658,
    "Ġmapp": 2080,
    "Ġlanes": 19764,
    "Ġtruthful": 23864,
    "lection": 3655,
    "Ġcarpent": 4464,
    "Ġelderly": 13494,
    "Ġwayward": 22867,
    "Ġoakshott": 12227,
    "Ġsucceeded": 6105,
    "Ġinsupportable": 13931,
    "Ġrelaps": 18775,
    "aching": 5831,
    "Ġlirra": 21557,
    "Ġage": 3898,
    "Ġaux": 21198,
    "Ġignoble": 19397,
    "cushion": 20820,
    "Ġscuffle": 20607,
    "Ġcured": 21345,
    "Ġsinusoid": 4781,
    "kings": 17583,
    "Ġenveloping": 19733,
    "Ġsam": 7569,
    "Ġconfidently": 24955,
    "Ġindul": 5856,
    "precisely": 6917,
    "Ġbolivia": 24667,
    "Ġceaseless": 13487,
    "Ġwhom": 1829,
    "ortations": 22254,
    "Ġconfidence": 6590,
    "Ġsummit": 7730,
    "pilot": 25908,
    "Ġmiscell": 16147,
    "Ġmightier": 18731,
    "incredible": 16497,
    "Ġbrougham": 17870,
    "Ġinstance": 2545,
    "Ġharbour": 19978,
    "Ġafforded": 8028,
    "knowledge": 7478,
    "rop": 539,
    "ding": 1232,
    "Ġtendency": 11329,
    "Ġfirmly": 8013,
    "troubled": 17112,
    "Ġjoppa": 12034,
    "Ġprotect": 6337,
    "Ġclients": 19731,
    "problem": 25244,
    "Ġfishermen": 5970,
    "bishop": 13693,
    "pennies": 26285,
    "afford": 14654,
    "Ġborder": 10169,
    "drove": 16993,
    "Ġsells": 21222,
    "Ġstru": 2168,
    "Ġdiscours": 18718,
    "Ġtomorrow": 21510,
    "âĢ": 294,
    "Ġexter": 7397,
    "unwho": 21874,
    "rus": 5929,
    "congratulations": 20278,
    "Ġskirting": 22795,
    "consist": 14815,
    "inder": 9152,
    "itious": 8779,
    "daggoo": 13706,
    "ich": 470,
    "Ġseizing": 7878,
    "latter": 15381,
    "proceeded": 25190,
    "Ġdiab": 10611,
    "Ġwantonly": 22889,
    "Ġinasmuch": 10825,
    "levi": 7047,
    "Ġmam": 8404,
    "Ġwrithing": 11944,
    "ready": 2361,
    "Ġcapting": 23016,
    "Ġsolemnisation": 24114,
    "Ġsped": 22118,
    "breadth": 20275,
    "acter": 2506,
    "gan": 2196,
    "Ġintent": 6409,
    "remorse": 14466,
    "Ġbohem": 8526,
    "Ġanonym": 17897,
    "Ġdiction": 8794,
    "Ġhav": 12751,
    "nephew": 26397,
    "Ġtreacle": 14595,
    "delight": 5344,
    "shoe": 14966,
    "Ġprevailed": 7777,
    "Ġspectacle": 10496,
    "vitiated": 25754,
    "Ġpout": 17906,
    "Ġimplies": 24872,
    "accountable": 7109,
    "Ġaway": 1244,
    "icil": 17971,
    "cent": 8072,
    "Ġhers": 7888,
    "aulets": 18621,
    "Ġarrant": 23294,
    "emotions": 15794,
    "Ġtrowsers": 9627,
    "ras": 21035,
    "scotland": 20526,
    "pro": 2049,
    "Ġstature": 10863,
    "Ġhelper": 24025,
    "Ġbuild": 6474,
    "Ġvault": 8840,
    "tha": 15821,
    "ĠÂ£": 5006,
    "Ġnoticing": 18224,
    "Ġrole": 15996,
    "Ġstirring": 10579,
    "relation": 19445,
    "bye": 5949,
    "dri": 5887,
    "Ġdemanding": 16805,
    "aneous": 7240,
    "Ġyer": 15731,
    "Ġchowder": 10280,
    "Ġremorseless": 13450,
    "Ġfrighten": 13277,
    "hanging": 10100,
    "Ġfleetness": 20178,
    "explaining": 23137,
    "Ġdropping": 7483,
    "Ġdominion": 16527,
    "Ġtranqu": 4603,
    "iece": 3227,
    "Ġbosoms": 16795,
    "surely": 10569,
    "Ġcompliance": 12112,
    "bows": 10081,
    "Ġgeor": 3386,
    "Ġmakes": 3654,
    "Ġjon": 15946,
    "Ġopinion": 3143,
    "asting": 12803,
    "Ġislets": 21798,
    "Ġrim": 21962,
    "Ġfriendship": 7246,
    "Ġshocked": 9400,
    "oking": 4605,
    "lement": 10166,
    "Ġunfelt": 24111,
    "conced": 22467,
    "Ġgaunt": 11268,
    "Ġcoroner": 7510,
    "Ġdet": 509,
    "Ġearlier": 9086,
    "orate": 10800,
    "Ġmenacing": 23105,
    "still": 4219,
    "ouching": 13176,
    "performed": 18341,
    "Ġforeman": 23446,
    "Ġexploding": 2108,
    "Ġhappily": 9330,
    "Ġkiller": 19567,
    "Ġhatchways": 24987,
    "Ġpipe": 4323,
    "Ġoffing": 16141,
    "deserts": 25379,
    "ound": 584,
    "Ġhoe": 23349,
    "Ġspars": 3812,
    "rear": 21231,
    "Ġendeavors": 16545,
    "followed": 8338,
    "Ġhellaswag": 24343,
    "pening": 2832,
    "Ġingolstadt": 8332,
    "ck": 436,
    "condesc": 18505,
    "Ġ61": 24364,
    "surpr": 5996,
    "thur": 7188,
    "happening": 16563,
    "Ġactive": 7914,
    "Ġversion": 10629,
    "lifeless": 24312,
    "Ġcareless": 11119,
    "f": 74,
    "ope": 4127,
    "Ġfrankly": 16745,
    "shire": 3022,
    "Ġtimidity": 24687,
    "Ġpained": 19166,
    "Ġadvertising": 25389,
    "beside": 19876,
    "Ġvia": 2382,
    "Ġplunder": 22599,
    "Ġcrumbs": 20639,
    "Ġcaged": 21350,
    "mber": 7803,
    "Ġme": 351,
    "Ġwiping": 25765,
    "Ġsevered": 18205,
    "Ġinexper": 16980,
    "fill": 15349,
    "Ġdeduce": 8336,
    "mph": 20971,
    "rine": 21036,
[...]
