{
  "metadata": {
    "vocab_size": 26615,
    "algorithm": "BPE",
    "created_at": "2026-08-26 03:01:41",
    "special_tokens": [
      "<PAD>",
      "<SOS>",
      "<EOS>",
      "<UNK>",
      "<MASK>"
    ]
  },
  "vocab": {
    "Ġastronomy": 25926,
    "man": 1054,
    "Ġspaces": 3109,
    "accompanied": 12420,
    "Ġarranged": 9876,
    "introdu": 8937,
    "Ġebony": 18008,
    "Ġreverse": 16980,
    "Ġhearty": 9846,
    "Ġwintry": 17432,
    "Ġindifferent": 6174,
    "Ġconfine": 14509,
    "iastic": 12477,
    "(": 12,
    "ete": 9203,
    "programming": 10062,
    "Ġsquaring": 22835,
    "exasper": 22423,
    "Ġdecomposes": 5506,
    "Ġbulky": 13227,
    "Ġsettlement": 19832,
    "americans": 25042,
    "Ġforc": 9227,
    "Ġbutton": 10267,
    "ó": 180,
    "Ġconnecting": 18632,
    "darkness": 9510,
    "them": 3017,
    "etical": 13957,
    "Ġcraggy": 23526,
    "Ġexertions": 13409,
    "Ġskeletons": 16790,
    "Ġmin": 1025,
    "Ġpatter": 834,
    "variety": 23184,
    "abilizing": 2925,
    "sloop": 26146,
    "Ġsomnambul": 26577,
    "Ġindignantly": 16938,
    "delight": 5344,
    "plain": 1360,
    "ene": 2169,
    "Ġdecanting": 22453,
    "or": 282,
    "Ġdetermines": 2370,
    "cloud": 11105,
    "abern": 21784,
    "Ġprovinc": 16740,
    "Ġeconomy": 17199,
    "finish": 24384,
    "Ġcautious": 12251,
    "Ġtour": 9147,
    "Ġmend": 8404,
    "Ġoccurrence": 14382,
    "Ġpillar": 21469,
    "popular": 26141,
    "Ġchoke": 22245,
    "Ġslipped": 6491,
    "der": 468,
    "orough": 5700,
    "Ġmarry": 4417,
    "Ġfeathers": 15119,
    "Ġcopper": 7424,
    "Ġcretan": 22724,
    "Ġbefell": 14009,
    "Ġvacancy": 9044,
    "Ġimpertinence": 11367,
    "cross": 3573,
    "Ġapparel": 20432,
    "Ġcarry": 4779,
    "Ġcontemptible": 16952,
    "fatigue": 20656,
    "<UNK>": 3,
    "Ġaffection": 2638,
    "Ġhypothesis": 14781,
    "Ġverse": 16600,
    "Ġlighten": 23258,
    "Ġperiod": 4003,
    "needle": 20310,
    "Ġconge": 15743,
    "Ġagon": 10320,
    "Ġindolent": 13002,
    "Ġordin": 16648,
    "Ġwhit": 7176,
    "Ġresiding": 16058,
    "Ġdiligent": 25075,
    "itzerland": 9994,
    "reserved": 13842,
    "Ġreplace": 14476,
    "Ġrio": 23888,
    "Ġshaken": 10264,
    "creator": 26381,
    "invol": 12527,
    "twice": 14622,
    "ellest": 21569,
    "Ġactive": 7913,
    "Ġbroke": 5322,
    "Ġbeer": 10219,
    "Ġ112": 24437,
    "Ġprovoked": 13323,
    "Ġlawyers": 25248,
    "Ġowed": 10780,
    "thousands": 16871,
    "Ġdesigns": 13013,
    "gunw": 17219,
    "pend": 6366,
    "Ġworlds": 11946,
    "Ġandrew": 21502,
    "ates": 519,
    "frankly": 20018,
    "Ġjustine": 4970,
    "Ġthickest": 16652,
    "Ġpenetrated": 13471,
    "Ġfinishing": 23122,
    "Ġencoding": 4774,
    "Ġstigma": 25791,
    "Ġascending": 14854,
    "Ġforeign": 9871,
    "specimen": 26606,
    "Ġceremonies": 24836,
    "Ġinsult": 6747,
    "empt": 2617,
    "Ġcharms": 11130,
    "Ġconvenience": 11332,
    "esu": 17901,
    "Ġnumer": 3636,
    "zz": 4293,
    "Ġlaure": 16909,
    "Ġopposition": 16517,
    "Ġrol": 3552,
    "leagued": 26435,
    "crowd": 25254,
    "Ġdeferred": 18824,
    "Ġix": 12665,
    "angles": 18294,
    "Ġappare": 12817,
    "Ġtarshish": 12027,
    "Ġspare": 5102,
    "Ġburly": 19248,
    "Ġmean": 743,
    "Ġtorch": 25030,
    "ime": 625,
    "Ġtangles": 25761,
    "ince": 4340,
    "Ġfearfully": 23508,
    "Ġnecessitated": 23924,
    "Ġswap": 23049,
    "actory": 8907,
    "Ġlessons": 7690,
    "furnished": 20238,
    "Ġexpost": 18623,
    "lished": 8381,
    "Ġvocation": 10525,
    "Ġspices": 22125,
    "Ġopens": 23624,
    "dil": 11479,
    "whosoever": 22236,
    "Ġking": 2310,
    "culiarity": 11142,
    "Ġregained": 18586,
    "irt": 3074,
    "Ġtechniques": 2866,
    "Ġguard": 6178,
    "Ġshrimp": 24156,
    "ner": 1377,
    "determine": 19940,
    "Ġcomplex": 742,
    "Ġhed": 7386,
    "achalot": 15861,
    "Ġtarts": 10753,
    "apes": 9740,
    "mag": 6507,
    "Ġincreased": 2213,
    "oked": 4307,
    "Ġvolat": 24143,
    "mariners": 19545,
    "Ġsensations": 5259,
    "invisible": 17740,
    "Ġdisappo": 4506,
    "Ġhoisted": 5959,
    "Ġkrusenstern": 26377,
    "Ġunappe": 22013,
    "Ġconsented": 11296,
    "Ġskipper": 22794,
    "zeal": 16270,
    "Ġmasterless": 23992,
    "Ġcrystall": 20223,
    "blasted": 20186,
    "Ġbutchers": 18271,
    "Ġcramped": 23527,
    "8": 28,
    "Ġplunder": 22601,
    "Ġswiss": 18881,
    "oted": 4598,
    "american": 11401,
    "upwards": 18863,
    "lady": 4433,
    "Ġtaken": 2531,
    "unwittingly": 25801,
    "Ġtremulous": 14986,
    "handsome": 13175,
    "sheltered": 25585,
    "Ġbeheading": 21749,
    "Ġsuggests": 12198,
    "rann": 21043,
    "chess": 16571,
    "painted": 17638,
    "Ġexeget": 24084,
    "Ġrehearsed": 25971,
    "engaged": 7451,
    "Ġheaps": 11642,
    "atha": 6572,
    "enterprise": 24992,
    "bergs": 18681,
    "Ġabandoned": 8350,
    "commun": 15034,
    "oug": 431,
    "Ġvindict": 13604,
    "billiard": 25334,
    "carry": 19525,
    "uning": 1312,
    "Ġgrapnels": 25551,
    "Ġhid": 1318,
    "Ġdestroyed": 5271,
    "tremendous": 20671,
    "Ġgamb": 17997,
    "Ġunerring": 15845,
    "fig": 8734,
    "Ġhovering": 10178,
    "Ġinscriptions": 20005,
    "Ġparched": 11726,
    "Ġseer": 21948,
    "Ġcurrent": 13008,
    "vap": 13802,
    "uncomfortable": 18160,
    "Ġcredited": 25153,
    "Ġhovered": 12628,
    "aven": 8207,
    "Ġdecoyed": 18491,
    "Ġdut": 2988,
    "Ġexhilar": 19680,
    "Ġenorm": 5302,
    "Ġfam": 1587,
    "Ġthirdly": 24142,
    "Ġartist": 12909,
    "Ġen": 392,
    "Ġang": 2514,
    "Ġbone": 4695,
    "impl": 21702,
    "Ġfowler": 16936,
    "Ġfeeds": 16431,
    "Ġformula": 2864,
    "dri": 5887,
    "Ġprophets": 20447,
    "Ġhates": 21481,
    "Ġsegmentation": 17338,
    "whenever": 11880,
    "Ġinadequate": 17936,
    "Ġterrier": 23396,
    "Ġwithhold": 18115,
    "wheeler": 16186,
    "calculation": 25688,
    "utored": 15660,
    "Ġattendant": 11286,
    "Ġdetest": 8499,
    "azore": 23460,
    "inno": 10756,
    "Ġetext": 23947,
    "erxes": 21273,
    "Ġmanipulation": 10658,
    "gris": 8258,
    "Ġprovide": 7748,
    "Ġabridged": 26542,
    "bus": 5354,
    "Ġunjustly": 17125,
    "Ġhopelessly": 16376,
    "Ġunaccount": 22022,
    "Ġfingertips": 24014,
    "lins": 2027,
    "melted": 25206,
    "ounder": 11743,
    "unable": 14058,
    "december": 25558,
    "anel": 21353,
    "strang": 11184,
    "Ġcharm": 4549,
    "Ġcant": 17824,
    "calcul": 12984,
    "wonder": 6370,
    ",âĢĿâĢĶ": 14220,
    "ohn": 4562,
    "women": 15455,
    "diff": 9113,
    "Ġgestures": 13535,
    "Ġissu": 6253,
    "ute": 4643,
    "Ġrobert": 10970,
    "Ġfollowing": 4062,
    "Ġergo": 25029,
    "Ġdespair": 4009,
    "Ġproprietors": 20183,
    "mighty": 9465,
    "Ġstanzas": 21742,
    "Ġcoincid": 20314,
    "Ġcogn": 11002,
    "guessed": 25872,
    "games": 20879,
    "Ġtwin": 12925,
    "Ġfond": 4755,
    "Ġfair": 2835,
    "Ġimpenetrable": 17395,
    "Ġkeys": 11995,
    "Ġsimplicity": 2924,
    "Ġtreat": 3175,
    "Ġhempen": 13549,
    "Ġflirt": 14423,
    "Ġhimself": 1354,
    "Ġrepe": 3278,
    "shore": 10305,
    "Ġeddies": 23443,
    "contains": 16027,
    "shirt": 22444,
    "keepers": 16657,
    "strangers": 20333,
    "Ġac": 843,
    "Ġmeadow": 17150,
    "hoping": 17565,
    "Ġxvi": 19103,
    "Ġprecautions": 23725,
    "Ġyer": 15731,
    "Ġseclusion": 18206,
    "Ġanticipation": 17056,
    "allowing": 24358,
    "Ġtattooing": 15028,
    "Ġinglorious": 24424,
    "oric": 21392,
    "Ġservice": 6470,
    "immed": 9217,
    "Ġbefall": 8828,
    "swell": 17662,
    "Ġsubtlety": 24780,
    "iard": 9601,
    "sell": 13780,
    "Ġplied": 22596,
    "Ġpugn": 21476,
    "Ġspo": 6846,
    "Ġbohem": 8525,
    "nings": 9131,
    "Ġcommunicated": 9061,
    "Ġconstantly": 11971,
    "Ġsteals": 23082,
    "Ġbeaver": 18085,
    "Ġusher": 22213,
    "Ġswart": 14434,
    "benevol": 12224,
    "Ġaugment": 8691,
    "mown": 20969,
    "Ġsympathy": 6345,
    "overhearing": 19053,
    "Ġshadows": 8011,
    "Ġstudded": 18985,
    "dog": 10692,
    "Ġir": 1992,
    "Ġlandsmen": 11352,
    "drugg": 20836,
    "Ġ100": 14363,
    "Ġanx": 3180,
    "Ġbil": 15562,
    "reflection": 13454,
    "Ġlandau": 16417,
    "Ġtimber": 13348,
    "Ġpant": 10817,
    "Ġwol": 15528,
    "Ġfr": 1693,
    "itty": 3551,
    "attempt": 9359,
    "Ġlowered": 6735,
    "izers": 18142,
    "ther": 481,
    "Ġarab": 7822,
    "ifle": 10891,
    "othe": 2613,
    "des": 1569,
    "omuch": 21635,
    "Ġspl": 2984,
    "joke": 20929,
    "Ġlegs": 4916,
    "Ġtrem": 6659,
    "Ġmig": 13855,
    "nowhere": 18418,
    "listen": 13513,
    "Ġmodels": 761,
    "Ġpossess": 3203,
    "remed": 18951,
    "Ġvineyards": 25106,
    "Ġdebated": 9040,
    "Ġilleg": 21618,
    "Ġfusion": 21410,
    "Ġresign": 18562,
    "believing": 19460,
    "Ġmental": 21317,
    "ugging": 23284,
    "Ġuncont": 14116,
    "Ġmoody": 8199,
    "Ġdynamic": 5122,
    "Ġproverb": 12716,
    "Þ": 159,
    "Ġdesolated": 24812,
    "Ġredress": 23750,
    "Ğ": 223,
    "sey": 5543,
    "gre": 5788,
    "Ġsombre": 18858,
    "Ġincredulity": 11312,
    "Ġtag": 15467,
    "dark": 5614,
    "Ġforesaw": 19127,
    "Ġskrimshander": 22795,
    "istics": 1628,
    "itious": 8779,
    "Ġoct": 10158,
    "Ġrelating": 2705,
    "rium": 3131,
    "Ġflapped": 23011,
    ".âĢĻ": 1719,
    "Ġhooks": 14967,
    "Ġflame": 7447,
    "Ġattraction": 18618,
    "Ġrises": 9712,
    "Ġlengths": 19205,
    "oes": 4434,
    "Ġwhistles": 24621,
    "opius": 18507,
    "regarded": 12006,
    "Ġchatting": 24746,
    "Ġstrongest": 11135,
    "baggage": 24926,
    "paddington": 20474,
    "Ġappertain": 22215,
    "Ġvir": 7001,
    "Ġarisen": 11742,
    "Ġslight": 3117,
    "Ġpatagonian": 20531,
    "Ġtenth": 13824,
    "superstitious": 17279,
    "Ġmaled": 21312,
    "thrill": 25656,
    "Ġensl": 19273,
    "boots": 11126,
    "close": 9985,
    "mathematics": 26305,
    "Ġameric": 3851,
    "Ġdiffers": 23779,
    "Ġfalling": 6915,
    "Ġstirred": 12215,
    "Ġcyl": 15554,
    "Ġobsequious": 17402,
    "anx": 8783,
    "Ġfang": 21399,
    "under": 3130,
    "zealand": 26054,
    "Ġgorge": 13565,
    "igators": 18045,
    "Ġcommands": 16587,
    "itor": 12563,
    "Ġnursing": 12212,
    "Ġpicking": 11260,
    "Ġhereafter": 9329,
    "process": 11148,
    "Ġbrute": 8926,
    "unders": 13309,
    "sav": 8095,
    "doubted": 17525,
    "Ġcandelabra": 26603,
    "ond": 1165,
    "slee": 17167,
    "Ġshares": 23245,
    "Ġbanking": 19627,
    "Ġour": 1006,
    "Ġutilize": 4798,
    "Ġdescribe": 2765,
    "cats": 17511,
    "Ġunnear": 22023,
    "earn": 10696,
    "Ġrevive": 13478,
    "prudently": 21033,
    "functions": 11238,
    "Ġcape": 5146,
    "Ġtimor": 24224,
    "appl": 9325,
    "Ġbunch": 11326,
    "ĠâĢĶâĢľ_": 17717,
    "Ġtrample": 20324,
    "Ã¦us": 14816,
    "Ġsem": 1879,
    "aphys": 15201,
    "lections": 4752,
    "Ġperforms": 11876,
    "Ġworn": 6444,
    "Ġblew": 9045,
    "Ġchivalry": 25819,
    "vious": 1783,
    "count": 4211,
    "Ġlikened": 16498,
    "utional": 17983,
    "Ġessays": 19741,
    "this": 1439,
    "Ġinno": 1375,
    "Ġprecipice": 19937,
    "Ġominous": 12422,
    "Ġbroadway": 23981,
    "immediately": 10048,
    "Ġventil": 8018,
    "Ġsuppose": 2865,
    "pers": 4336,
    "Ġbounce": 21389,
    "Ġhonoured": 9880,
    "comparison": 25840,
    "======================================================================": 10067,
    "spe": 3557,
    "Ġeldest": 6570,
    "arity": 1302,
    "Ġcivilly": 19600,
    "original": 9084,
    "Ġplot": 14281,
    "Ġgrind": 18733,
    "Ġounce": 15271,
    "pike": 11515,
    "Ġlimited": 23541,
    "Ġ120": 16857,
    "Ġguineas": 16266,
    "hither": 11493,
    "abri": 6682,
    "clock": 3932,
    "um": 454,
    "Ġtolerable": 6949,
    "Ġloved": 4600,
    "Ġbre": 1915,
    "system": 4241,
    "Ġhussey": 7723,
    "Ġlanguid": 14221,
    "Ġcou": 5286,
    "ribut": 817,
    "Ġthrill": 24541,
    "mmar": 951,
    "paralleled": 14517,
    "chop": 21683,
    "Ġsuggestion": 19704,
    "Ġtests": 8957,
    "Ã¦st": 24174,
    "Ġmilitia": 13316,
    "hemat": 3127,
    "given": 8375,
    "performances": 26006,
    "Ġsimulates": 2738,
    "Ġappetites": 20203,
    "ows": 1918,
    "avier": 2829,
    "Ġfrantically": 23257,
    "Ġpublished": 11243,
    "super": 5942,
    "Ġgem": 21589,
    "ault": 2312,
    "stand": 629,
    "Ġmovement": 9967,
    "ight": 403,
    "Ġ(`": 12850,
    "token": 21080,
    "urning": 12914,
    "Ġalgorith": 561,
    "etimes": 1986,
    "Ġmature": 17799,
    "Ġengagements": 9977,
    "Ġtub": 7145,
    "satisf": 5781,
    "idents": 6150,
    "Ġident": 2243,
    "ender": 9160,
    "smo": 10125,
    "Ġthence": 8881,
    "Ġbecomes": 6395,
    "ensity": 11812,
    "bbs": 23690,
    "occasion": 7752,
    "Ġbecome": 3158,
    "Ġell": 17714,
    "Ġconfirmed": 11139,
    "Ġbestowing": 16969,
    "Ġcrisp": 12001,
    "Ġmississ": 18836,
    "Ġdro": 2770,
    "Ġshudder": 9050,
    "mb": 913,
    "Ġfif": 4215,
    "abound": 15737,
    "Ġadvised": 16210,
    "Ġhomely": 25219,
    "constantly": 24630,
    "Ġpalpitated": 26085,
    "master": 5687,
    "scru": 16241,
    "Ġgrat": 4055,
    "vere": 4883,
    "Ġcocoa": 25482,
    "Ġtipt": 21171,
    "icates": 11617,
    "Ġdisclose": 16153,
    "Ġgradual": 20599,
    "county": 25396,
    "shelf": 20377,
    "Ġjoking": 12834,
    "ave": 978,
    "Ġtwilight": 16118,
    "Ġburial": 16518,
    "Ġopulence": 23625,
    "Ġtilted": 20409,
    "ror": 7350,
    "Ġmaintaining": 1512,
    "indulged": 22371,
    "again": 3397,
    "Ġoverlooked": 15971,
    "Ġimperial": 9479,
    "semicirc": 26491,
    "Ġdissol": 18549,
    "ads": 5718,
    "gast": 20869,
    "otam": 21793,
    "jur": 17577,
    "Ġbecause": 2212,
    "Ġprey": 6414,
    "Ġaccounts": 7206,
    "steady": 14709,
    "Ġunsettled": 14123,
    "Ġsigmoid": 2464,
    "sl": 5794,
    "Ġ**": 4721,
    "Ġconcisely": 19045,
    "Ġhorrors": 10479,
    "forbearance": 22796,
    "amples": 1822,
    "heredit": 21207,
    "icant": 21557,
    "history": 15015,
    "Ġexperience": 1362,
    "Ġmoon": 4609,
    "Ġepo": 21614,
    "presumption": 20438,
    "Ġsandwiched": 26611,
    "Ġamount": 8510,
    "Ġrafters": 22649,
    "Ġunmingled": 18263,
    "cursed": 23840,
    "gone": 6503,
    "veil": 18042,
    "Ġgift": 10840,
    "Ġsquat": 14367,
    "Ġdumplings": 15190,
    "period": 15893,
    "Ġriver": 5411,
    "Ġinferiority": 17114,
    "Ġupd": 944,
    "Ġblight": 18816,
    "Ġcarelessness": 13074,
    "Ġadd": 630,
    "Ġmargin": 11920,
    "across": 10324,
    "question": 5418,
    "Ġsale": 14154,
    "Ġtobacco": 8365,
    "Ġcapricious": 20536,
    "Ġvanish": 8927,
    "Ġke": 1158,
    "Ġconcentrated": 15083,
    "Ġbeatrix": 24204,
    "highly": 24764,
    "Ġsoldier": 16919,
    "dles": 11481,
    "Ġwedge": 24068,
    "Ġlogger": 11952,
    "Ġsaddest": 16660,
    "commer": 22814,
    "Ġthen": 666,
    "Ġseat": 4949,
    "=": 33,
    "Ġepistle": 24904,
    "Ġnought": 21517,
    "Ġspacious": 18311,
    "idually": 21764,
    "Ġsymptom": 13482,
    "Â": 131,
    "Ġlay": 584,
    "earthly": 24723,
    "Ġfare": 5809,
    "Ġmartyr": 26360,
    "Ġlively": 5449,
    "Ġsnug": 8278,
    "Ġwelded": 9570,
    "Ġamazing": 9976,
    "visit": 7753,
    "Ġinsol": 10180,
    "unimportant": 18159,
    "Ġindependently": 4246,
    "additional": 20460,
    "Ġdefiance": 11068,
    "Ġnow": 690,
    "Ġbrighter": 16185,
    "attended": 8952,
    "Ġresolving": 9417,
    "Ġwitty": 21290,
    "Ġphys": 5653,
    "Ġcanterbury": 22165,
    "methodically": 20662,
    "omen": 4084,
    "comfortable": 7319,
    "ĠĠĠĠĠĠĠĠĠĠ": 18576,
    "Ġaudible": 19878,
    "Ġbeaks": 21750,
    "Ġdepended": 9776,
    "Ġperturbation": 20437,
    "wait": 11321,
    "Ġluxuriant": 20391,
    "Ġrationally": 18213,
    "Ġdisdained": 15010,
    "Ġran": 3341,
    "ung": 2745,
    "Ġclergyman": 8711,
    "Ġgateway": 24802,
    "sings": 4252,
    "woe": 21133,
    "Ġmace": 21307,
    "Ġhy": 5625,
    "Ġdoomed": 11342,
    "sail": 3600,
    "searching": 25103,
    "Ġceremonious": 24837,
    "Ġunfrequ": 19507,
    "surf": 24212,
    "ography": 13361,
    "opence": 18506,
    "Ġcetology": 10008,
    "Ġath": 15799,
    "risonment": 17373,
    "Ġenhance": 2910,
    "Ġwhiff": 21713,
    "Ġcommence": 6167,
    "enemy": 15525,
    "Ġwoeful": 19616,
    "Ġstaggered": 9537,
    "Ġtasks": 1787,
    "Ġcherish": 10584,
    "chron": 21689,
    "Ġcountenance": 3970,
    "degra": 22136,
    "play": 5099,
    "Ġphenomena": 21479,
    "Ġresembled": 18033,
    "ractions": 11633,
    "numbers": 17615,
    "queen": 12724,
    "Ġbruited": 25773,
    "Ġspr": 4024,
    "Ġpurposes": 11169,
    "Ġfem": 6134,
    "Ġfound": 1246,
    "Ġproximity": 3218,
    "Ġwestmorland": 24390,
    "Ġunderstanding": 1884,
    "scattered": 22992,
    "auley": 22619,
    "monkey": 19169,
    "Ġfrosts": 19799,
    "hyme": 19606,
    "Ġdenote": 19332,
    "Ġcord": 5222,
    "venge": 4659,
    "Ġconsolidation": 5060,
    "Ġnobly": 22237,
    "Ġinfrequent": 3821,
    "dden": 1804,
    "Ġtopic": 9404,
    "Ġloveliness": 13607,
    "ye": 1407,
    "wig": 17703,
    "Ġagitated": 7646,
    "Ġxi": 16427,
    "oarsman": 25261,
    "piling": 15414,
    "Ġundeserving": 18267,
    "Ġbumpkin": 20197,
    "Ġgrain": 15829,
    "ifies": 6686,
    "Ġmummy": 25768,
    "infidel": 24664,
    "Ġeconomically": 25288,
    "Ġpervers": 11782,
    "stationed": 25453,
    "computer": 1994,
    "Ġblacks": 23385,
    "reliable": 21238,
    "Ġtapping": 10752,
    "Ġsighs": 22706,
    "puff": 21021,
    "Ġtrade": 2549,
    "ivity": 1658,
    "Ġlodge": 5779,
    "Ġnewcomers": 26041,
    "Ġdefendants": 15140,
    "alarm": 15624,
    "Ġtex": 15471,
    "Ġimprobable": 9793,
    "Ġacquitted": 18897,
    "Ġsalary": 13292,
    "Ġunfolded": 10638,
    "solving": 3098,
    "ug": 1766,
    "Ġoperation": 11997,
    "Ġdebility": 24272,
    "summon": 23413,
    "Ġyielding": 12184,
    "Ġworked": 6583,
    "Ġtiller": 8965,
    "oc": 2832,
    "Ġbring": 3321,
    "elizabeth": 1985,
    "elled": 3992,
    "c": 71,
    "instances": 13326,
    "Ġkindest": 23291,
    "Ġirregular": 9864,
    "ĠĠĠĠĠ": 3524,
    "organic": 25946,
    "finds": 19924,
    "Ġopinions": 9413,
    "Ġgradients": 610,
    "ount": 1114,
    "Ġremorselessly": 16965,
    "Ġgrasshopper": 24380,
    "Ġsermon": 12374,
    "Ġexceptionable": 25503,
    "prejudice": 25571,
    "Ġnotable": 18222,
    "Ġtrous": 10955,
    "Ġmagnified": 23202,
    "Ġtim": 4579,
    "Ġknighthood": 25297,
    "Ġagonizing": 17237,
    "pshire": 21023,
    "Ġinviting": 19143,
    "Ġmode": 8496,
    "Ġmyself": 1456,
    "Ġmurderous": 8314,
    "Ġspence": 22121,
    "Ġplumage": 17296,
    "unk": 4540,
    "helpless": 16789,
    "Ġassume": 10515,
    "reen": 21229,
    "Ġwhispered": 5337,
    "ribe": 1223,
    "swaying": 25910,
    "Ġgales": 12662,
    "Ġ84": 19706,
    "Ġic": 9625,
    "Ġsorrows": 13353,
    "ryphon": 4163,
    "gangway": 20665,
    "Ġoriginal": 6103,
    "waiter": 24586,
    "Ġrealised": 18978,
    "Ġimmens": 9938,
    "Ġblocked": 19221,
    "oo": 7552,
    "Ġwiser": 14730,
    "%": 9,
    "Ġimpress": 6862,
    "Ġstructural": 2789,
    "taking": 5689,
    "Ġvelvet": 12396,
    "Ġclerval": 4654,
    "sailor": 14715,
    "Ġpos": 1007,
    "Ġnorthern": 7264,
    "Ġirritated": 17241,
    "Ġforeseen": 16441,
    "Ġrighteous": 18944,
    "interred": 23735,
    "icions": 21558,
    "Ġprairie": 8712,
    "Ġlass": 15645,
    "Ġdotted": 16791,
    "Ġstraggling": 23749,
    "loat": 8886,
    "pushed": 21022,
    "felicity": 25140,
    "Ġcanst": 8857,
    "adders": 24400,
    "abhorred": 17334,
    "Ġinches": 5845,
    "bee": 16034,
    "Ġchinese": 14184,
    "measureless": 20232,
    "Ġwrath": 16315,
    "Ġdegener": 14047,
    "andish": 18153,
    "ainted": 3657,
    "Ġperish": 8874,
    "Ġunflinching": 26513,
    "Ġstones": 9223,
    "hunt": 20902,
    "Ġfarther": 5954,
    "Ġrelationships": 2926,
    "Ġflattening": 26048,
    "ingolstadt": 21301,
    "supplemental": 25874,
    "Ġnumbers": 2886,
    "road": 6677,
    "pper": 3208,
    "Ġliver": 14228,
    "Ġbarrier": 16567,
    "Ġperception": 9749,
    "Ġintending": 11704,
    "oak": 21002,
    "Ġsatan": 14390,
    "Ń": 260,
    "Ġdesign": 4130,
    "ending": 1988,
    "bpp": 20770,
    "carp": 9109,
    "rible": 3226,
    "Ġexternal": 8363,
    "it": 276,
    "Ġgazing": 5875,
    "protest": 24815,
    "Ġnight": 1466,
    "Ġamb": 9291,
    "Ġlulled": 17968,
    "penet": 11070,
    "Ġwitnesses": 9484,
    "Ġundoing": 22030,
    "Ġforts": 21767,
    "dor": 12449,
    "Ġdissu": 18548,
    "Ġcapting": 23019,
    "rifle": 21045,
    "Ġshouldn": 14325,
    "Ġprincely": 24147,
    "Ġconvincing": 19307,
    "ention": 844,
    "Ġcontracted": 12857,
    "H": 44,
    "9": 29,
    "immediate": 20090,
    "watches": 14947,
    "thank": 4950,
    "Ġuseless": 7036,
    "Ġdisdain": 8358,
    "Ġidea": 2490,
    "raise": 18011,
    "stranger": 9882,
    "Ġbeware": 8827,
    "independent": 26021,
    "Ġunjust": 8482,
    "Ġpleasantness": 24138,
    "even": 3834,
    "Ġuniversal": 2236,
    "Ġproper": 1383,
    "Ġtestament": 23225,
    "Ġenumerating": 15243,
    "Ġpeeled": 14318,
    "Ġdolphins": 20392,
    "gloves": 25143,
    "rossing": 18647,
    "rodden": 21530,
    "Ġanvil": 11597,
    "_âĢĶâĢĻâĢĿ": 25741,
    "Ġtwig": 11849,
    "throw": 14097,
    "Ġpia": 21460,
    "Ġaud": 6661,
    "Ġunmanner": 22024,
    "Ġquoin": 22414,
    "Ġrattling": 11396,
    "Ġblueprints": 13170,
    "Ġovertook": 18428,
    "ative": 735,
    "Ġjurors": 17342,
    "ateness": 15518,
    "mil": 13751,
    "Ġbacks": 8527,
    "beaut": 8511,
    "Ġpreceded": 13427,
    "Ġvictor": 5125,
    "Ġtrunks": 15961,
    "Ġscarcity": 23823,
    "Ġbark": 10798,
    "Ġled": 3519,
    "Ġhandful": 9781,
    "atives": 2239,
    "ĠlinnÃ¦us": 15274,
    "tis": 4103,
    "Ġriddle": 14819,
    "horner": 23612,
    "Ġreliable": 18775,
    "Ġwitnessed": 14844,
    "ators": 7828,
    "Ġadmeasure": 18292,
    "Ġfade": 21403,
    "Ġomnipotent": 13547,
    "Ġtut": 8769,
    "Ġinterruptions": 24185,
    "Ġalmighty": 18104,
    "Ġexterm": 21824,
    "thing": 1479,
    "Ġyojo": 7609,
    "Ġopposed": 11189,
    "Â£": 4812,
    "Ġparm": 15875,
    "madly": 24420,
    "stained": 21650,
    "fixedly": 24929,
    "Ġhabitation": 14802,
    "grammar": 6434,
    "Ġprogeny": 17386,
    "Ġresp": 2497,
    "rigged": 17061,
    "akness": 14195,
    "Ġgangs": 21604,
    "Ġrepelled": 19084,
    "Ġcompressed": 21840,
    "Ġtinted": 13821,
    "mou": 10708,
    "spirit": 11314,
    "Ġfatal": 5871,
    "Ġplanet": 14750,
    "Ġthieves": 15633,
    "Ġformal": 2942,
    "drawing": 10486,
    "disreputable": 23500,
    "Ġcontain": 1555,
    "misery": 13342,
    "wind": 4253,
    "Ġquieted": 23839,
    "aster": 1868,
    "Ġstiggs": 25792,
    "Ġwhelmed": 25999,
    "Ġoutrage": 15955,
    "Ġpropri": 6738,
    "Ġdragged": 6889,
    "Ġperem": 12929,
    "church": 8138,
    "Ġchairs": 12823,
    "Ġbeautifully": 13266,
    "Ġspeedily": 7710,
    "olstadt": 7787,
    "Ġinjuring": 24268,
    "lessly": 4557,
    "corpse": 24486,
    "Ġbert": 4583,
    "ý": 190,
    "hend": 13251,
    "pede": 19840,
    "Ġcontrol": 13078,
    "Ġpolynes": 16076,
    "retrie": 18921,
    "Ġsperm": 1842,
    "Ġsens": 1853,
    "dart": 20824,
    "Ġacknowledges": 24687,
    "Ġembarks": 22996,
    "magnet": 14969,
    "Ġwhereby": 11835,
    "Ġusefulness": 19408,
    "Ġworldly": 16327,
    "phys": 18715,
    "apologizing": 26545,
    "robotics": 11307,
    "osy": 11757,
    "afraid": 10441,
    "Ġamours": 22477,
    "inting": 9813,
    "wart": 17704,
    "Ġuniverse": 14124,
    "Ġsemicircle": 26068,
    "passage": 11262,
    "Ġsunrise": 9372,
    "mael": 6722,
    "Ġrespectfully": 18993,
    "Ġhelmeted": 19685,
    "us": 531,
    "whom": 8183,
    "dropping": 14982,
    "conclusion": 25671,
    "Ġdifferent": 1429,
    "Ġseized": 4833,
    "Ġlance": 4879,
    "Ġadjust": 2156,
    "Ġagents": 9765,
    "gazed": 15360,
    "Ġcomparison": 7098,
    "ĭ": 238,
    "Ġrashly": 20302,
    "Ġlocks": 11723,
    "activation": 3230,
    "Ġdissuade": 26257,
    "Ġglass": 4369,
    "Ġwhoever": 10973,
    "unalterable": 21882,
    "Ġsweetly": 23915,
    "Ġdisputing": 25824,
    "Ġupbraiding": 26227,
    "Ġmot": 2985,
    "Ġstamping": 20027,
    "less": 926,
    "Ġemma": 20692,
    "scornful": 26576,
    "solute": 16596,
    "boxes": 16887,
    "term": 3757,
    "Ġbasis": 16959,
    "Ġost": 9649,
    "Ġdancing": 5703,
    "bbings": 19275,
    "incible": 16495,
    "irations": 18170,
    "Ġanaly": 1152,
    "waving": 21129,
    "ivation": 3108,
    "Ġexpedite": 24953,
    "Ġbundles": 26176,
    "Ġprob": 967,
    "Ġlittle": 865,
    "Ġsol": 1104,
    "describe": 1517,
    "Ġwretchedly": 19505,
    "Ġ87": 19707,
    "Ġoh": 2175,
    "yra": 8101,
    "degree": 12798,
    "Ġcommonplace": 11096,
    "prehens": 9288,
    "Ġvirginia": 13499,
    "Ġpr": 1600,
    "Ġtend": 6121,
    "chorus": 19808,
    "Ġfavourites": 16642,
    "Ġhardihood": 23110,
    "proper": 7470,
    "supp": 4161,
    "wid": 10134,
    "Ġdeference": 10881,
    "Ġhearing": 4761,
    "pad": 13767,
    "Ġthoughtfulness": 18772,
    "Ġtoilet": 13936,
    "month": 6462,
    "Ġcheetah": 14504,
    "Ġdecidedly": 9507,
    "Ġante": 17896,
    "bacc": 7793,
    "descending": 16282,
    "Ġindiscreet": 22953,
    "Ġpanel": 13371,
    "Ġflashed": 11914,
    "Ġ21": 11199,
    "Ġperemptorily": 17365,
    "reng": 4002,
    "excited": 13379,
    "Ġclassification": 1101,
    "Ġejaculated": 15169,
    "Ġimp": 576,
    "Ġs": 265,
    "Ġrelevant": 1864,
    "Ġniagara": 26458,
    "Ġassured": 4372,
    "lestrade": 9656,
    "Ġsizes": 1522,
    "Ġmiseries": 10344,
    "Ġantiqu": 12142,
    "ython": 1030,
    "Ġretiring": 16278,
    "Ġpowerful": 1505,
    "Ġslope": 14461,
    "hauled": 20666,
    "Ġintense": 6157,
    "mush": 20976,
    "shone": 22439,
    "Ġtreatment": 12069,
    "Ġright": 1508,
    "Ġunspeak": 8850,
    "Ď": 207,
    "Ġtrembled": 8701,
    "uting": 15657,
    "inois": 17738,
    "Ġimpo": 3440,
    "Ġanytime": 12882,
    "Ġpoles": 11003,
    "Ġenriched": 26499,
    "Ġvortex": 26209,
    "Ġjollity": 25566,
    "Ġeffort": 8201,
    "Ġcapacity": 10440,
    "elzebub": 26464,
    "Ġprank": 23216,
    "Ġfurthermore": 1173,
    "cal": 1119,
    "l": 80,
    "arrange": 23764,
    "Ġdiffered": 22708,
    "Ġsuspicious": 9478,
    "indirect": 22368,
    "Ġquivered": 18466,
    "Ġwonderland": 23422,
    "Ġoscillations": 2897,
    "iates": 13736,
    "Ġcontrari": 23346,
    "ing": 273,
    "azine": 19130,
    "Ġexplanations": 15903,
    "Ġgoverned": 23569,
    "Ġsettle": 6292,
    "Ġconventional": 25547,
    "iating": 3205,
    "Ġvis": 1082,
    "Ġwil": 4581,
    "harpo": 4805,
    "counter": 20275,
    "common": 4126,
    "aps": 1227,
    "relatively": 24011,
    "hampshire": 23263,
    "braid": 17493,
    "Ġvoice": 2191,
    "possibility": 13360,
    "Ġunrival": 22042,
    "Ġdreamed": 16627,
    "companions": 15024,
    "Ġmoonshine": 19594,
    "Ġpledge": 11601,
    "Ġgleams": 17308,
    "Ġdust": 5909,
    "Ġbottom": 3673,
    "Ġcorrespondent": 19819,
    "Ġpeak": 16123,
    "Ġpersuasions": 16629,
    "experienced": 15121,
    "Ġmuch": 920,
    "tut": 15433,
    "Ġcannibals": 10589,
    "Ġdaily": 5986,
    "soon": 4027,
    "Ġaft": 5737,
    "Ġbrides": 22862,
    "guilty": 19481,
    "access": 11181,
    "Ġirresolution": 24915,
    "ificial": 612,
    "sters": 6390,
    "representation": 20193,
    "Ġconcealment": 16913,
    "berish": 22717,
    "Ġheadland": 22893,
    "anter": 9166,
    "robe": 15639,
    "precaution": 23819,
    "Ġphrenolog": 12332,
    "mies": 20967,
    "Ġvest": 8161,
    "Ġsilently": 6895,
    "Ġreeled": 13985,
    "ontory": 10459,
    "Ġvess": 3294,
    "Ġenslaved": 26315,
    "reduc": 5459,
    "Ġwear": 6030,
    "poverty": 22904,
    "Ġgenerator": 3379,
    "Ġnorthumbria": 24170,
    "Ġlick": 21545,
    "fiercely": 25256,
    "rush": 7012,
    "Ġarduous": 26532,
    "Ġkno": 5242,
    "Ġ$": 21148,
    "Ġfishe": 15583,
    "Ġerecting": 24653,
    "Ġwithdrawn": 10606,
    "Ġbowels": 9428,
    "Ġaccident": 5380,
    "Ġhumiliation": 16196,
    "mark": 5281,
    "Ġshoes": 7070,
    "Ġskirt": 18727,
    "\":": 9581,
    "Ġexactly": 2767,
    "Ġdeposited": 25484,
    "Ġoverlapping": 26239,
    "tackle": 17319,
    "Ġundiscovered": 18252,
    "Ġsil": 1795,
    "Ġdet": 512,
    "Ġbiggest": 24566,
    "Ġcanall": 10930,
    "eteenth": 20154,
    "thoughts": 9934,
    "ĠâĢľ_": 6696,
    "Ġallusion": 7624,
    "pen": 1205,
    "Ġglared": 13015,
    "ffy": 18316,
    "Ġbridle": 24680,
    "Ġadvertise": 25388,
    "urned": 9305,
    "Ġheeds": 24520,
    "bourgh": 19102,
    "ston": 15680,
    "Ġexecut": 4248,
    "disguise": 26307,
    "icular": 2024,
    "Ġought": 3417,
    "Ġaverage": 3137,
    "Ġ73": 24260,
    "ia": 1258,
    "Ġearnest": 3929,
    "Ġoperate": 19114,
    "Ġske": 4815,
    "ouch": 2780,
    "Ġsword": 6732,
    "trans": 5594,
    "Ġcheat": 19024,
    "pres": 16025,
    "Ġfins": 9663,
    "rise": 6226,
    "Ġapt": 9155,
    "Ġconvention": 25546,
    "Ġway": 1086,
    "shrouded": 26361,
    "Ġfrequ": 3325,
    "mates": 5073,
    "Ġarchitecture": 1142,
    "izings": 14050,
    "Ġpreparing": 8647,
    "inkle": 22613,
    "ti": 8388,
    "Ġlogical": 14487,
    "Ġconce": 3420,
    "lucases": 20207,
    "impatiently": 20467,
    "Ġno": 510,
    "Ġseethe": 21952,
    "Ġdisappearing": 22529,
    "Ġbeckoning": 20498,
    "Ġdesiring": 14413,
    "Ġsw": 1357,
    "ashion": 3856,
    "Ġminister": 18750,
    "Ġalarm": 4046,
    "Ġcolleg": 22854,
    "Ġglitter": 25122,
    "hawks": 24693,
    "Ġsacrifice": 9554,
    "somewhat": 11160,
    "Ġslung": 23167,
    "Ġunf": 4087,
    "Ġfire": 2337,
    "||": 4869,
    "estations": 22224,
    "Ġportcullis": 26604,
    "_.âĢĶ": 23470,
    "Ġsighed": 10337,
    "Ġpatient": 6892,
    "Ġsus": 18276,
    "Ġextra": 4054,
    "Ġtoller": 9090,
    "Ġcorrob": 16261,
    "Ġmaking": 1779,
    "Ġtiny": 11553,
    "Ġfob": 21405,
    "no": 880,
    "Ġvolume": 6769,
    "apping": 5851,
    "Ġ&": 6512,
    "Ġmail": 17800,
    "lydon": 13988,
    "wrinkles": 16553,
    "Ġfeebly": 24877,
    "Ġash": 4832,
    "Ġbended": 21381,
    "Ġrickety": 26505,
    "power": 7135,
    "Ġglobal": 2372,
    "Ġano": 11596,
    "cest": 12442,
    "ientious": 11690,
    "Ġbusier": 23336,
    "Ġseason": 5238,
    "appearance": 5333,
    "Ġhold": 2246,
    "ification": 1012,
    "Ġstress": 18069,
    "Ġhuddled": 20296,
    "igned": 5656,
    "Ġopinion": 3141,
    "nervous": 16275,
    "Ġwidows": 24236,
    "Ġrushing": 7402,
    "Ġesteem": 7530,
    "ole": 9613,
    "pleasures": 24043,
    "Ġgenerative": 5644,
    "Ġmuhammad": 26170,
    "desired": 8956,
    "Ġdidst": 11848,
    "izing": 1066,
    "Ġsherlock": 3892,
    "sphere": 22732,
    "Ġplumber": 16082,
    "Ġrabb": 4162,
    "Ġcontriv": 9281,
    "Ġced": 10784,
    "persu": 8026,
    "Ġinflamed": 13472,
    "Ġmarine": 23030,
    "ć": 200,
    "·": 120,
    "Ġjuicy": 25370,
    "Ġbreathe": 9011,
    "spouting": 25000,
    "Ġinexpressible": 17331,
    "Ġremnants": 22790,
    "ishly": 14201,
    "Ġcables": 15555,
    "result": 12042,
    "aust": 15308,
    "orrow": 2914,
    "Ġpants": 21461,
    "impress": 18051,
    "precise": 19349,
    "walks": 19718,
    "liber": 18812,
    "Ġparch": 11725,
    "Ġimpossibility": 20645,
    "Ġhatred": 8608,
    "Ġdrank": 16534,
    "Ġsloop": 25930,
    "Ġadmiral": 17303,
    "daughters": 13465,
    "Ġvaried": 11847,
    "to": 714,
    "Ġhangs": 11606,
    "Ġwink": 11569,
    "Ġpreceding": 7527,
    "Ġbroom": 18905,
    "Ġporthole": 24399,
    "brother": 7090,
    "Ġstaid": 21733,
    "gpt": 5355,
    "Ġchace": 14179,
    "Ġchrist": 4072,
    "Ġbl": 1190,
    "blast": 9587,
    "Ġtracks": 18890,
    "Ġvisit": 2583,
    "Ġhanged": 17924,
    "¶": 119,
    ",âĢĶâĢľ": 10069,
    "Ġbrothers": 13174,
    "Ġwides": 17788,
    "composure": 24031,
    "Ġgull": 15667,
    "Ġconduct": 3731,
    "Ġcorn": 9349,
    "brew": 11474,
    "Ġreliance": 14385,
    "cible": 20804,
    "storm": 9681,
    "Ġnin": 10187,
    "ellent": 3761,
    "Ġforces": 12699,
    "rice": 13776,
    "Ç": 136,
    "de": 459,
    "striving": 24670,
    "Ġvariously": 18651,
    "zor": 15457,
    "Ġintrusted": 26509,
    "ied": 938,
    "Ġpitiable": 9913,
    "Ġstomach": 11653,
    "bitious": 16667,
    "Ġpatiently": 19915,
    "Ġcast": 3603,
    "Ġnile": 21516,
    "entitled": 21563,
    "apprehens": 17404,
    "Ġpoetical": 25056,
    "line": 1440,
    "Ġincidentally": 16953,
    "flesh": 13489,
    "Ġirene": 8442,
    "standing": 5558,
    "Ġsuccour": 20431,
    "metallic": 19877,
    "Ġprecipitous": 24835,
    "Ġdishes": 16047,
    "aking": 972,
    "Ġstature": 10863,
    "Ġcolour": 4462,
    "Ġraiment": 22645,
    "Ġwaiter": 16360,
    "vul": 15447,
    "Ġdisclosed": 15153,
    "dz": 4739,
    "fold": 7545,
    "Ġconceits": 19388,
    "Ġdespondence": 25869,
    "contented": 14635,
    "Ġshort": 2227,
    "Ġgene": 15669,
    "Ġhappen": 5571,
    "rest": 1630,
    "Ġturban": 23611,
    "Ġpresided": 20204,
    "vill": 10735,
    "Ġplaus": 22598,
    "Ġexperiment": 11912,
    "dying": 10694,
    "Ġroutine": 13507,
    "during": 6787,
    "Ġsewing": 21950,
    "Ġheaded": 11054,
    "Ġdemocracy": 25458,
    "Ġaudibly": 24771,
    "Ġbutcher": 18270,
    "Ġalgorithm": 765,
    "winter": 10740,
    "nobody": 16132,
    "rawling": 21631,
    "Ġtalker": 23368,
    "Ġhumped": 19766,
    "interval": 7989,
    "traces": 24315,
    "Ġcomplain": 6685,
    "Ġnarrations": 24352,
    "acles": 8518,
    "visited": 13346,
    "ol": 362,
    "Ġcoin": 9770,
    "Ġforty": 5719,
    "collecting": 26081,
    "japan": 15373,
    "Ġflor": 8560,
    "opol": 12868,
    "Ġfasc": 12595,
    "sham": 9756,
    "Ġrus": 14091,
    "Ġoverspread": 14207,
    "wondering": 19841,
    "Ġbabel": 24426,
    "Ġaudacity": 19879,
    "Ġwhereof": 16099,
    "irty": 4048,
    "Ġcomprehensive": 15087,
    "Ġwhilst": 9218,
    "Ġobtru": 18671,
    "assumed": 22304,
    "Ġindustry": 18835,
    "Ġwoodcock": 19162,
    "hatches": 19925,
    "Ġrinal": 21973,
    "Ġsavi": 18323,
    "lucas": 15151,
    "alf": 4639,
    "Ġinherited": 25353,
    "slave": 16894,
    "Ġtravellers": 11309,
    "Ġimpreg": 15984,
    "mme": 22496,
    "iling": 3091,
    "urbed": 15706,
    "Ġquivering": 12855,
    "_.,": 14562,
    "lever": 2932,
    "Ġshirr": 18231,
    "f": 74,
    "etrics": 21580,
    "progression": 20378,
    "Ġstarlight": 24623,
    "Ġchemical": 10412,
    "Ġfeet": 2263,
    "Ġfrolic": 23920,
    "Ġclifford": 22356,
    "Ġenergies": 25459,
    "movement": 25577,
    "Ġhighest": 3526,
    "âĢĻ!âĢĿ": 18167,
    "Ġplease": 4723,
    "Ġadvent": 4357,
    "Ġsalisbury": 24060,
    "ilib": 4115,
    "chairs": 21688,
    "whaling": 7897,
    "Ġintolerable": 8480,
    "Ġenviron": 3952,
    "Ġmajesty": 5201,
    "itime": 15545,
    "Ġsar": 21211,
    "Ġlaughs": 24116,
    "Ġ1000": 3115,
    "Ġpent": 17903,
    "Ġallev": 18100,
    "Ġpaints": 23521,
    "cracy": 24689,
    "Ġhorizont": 6937,
    "wn": 720,
    "Ġ78": 19610,
    "ividual": 5463,
    "Ġcloser": 8659,
    "bad": 12434,
    "incidentally": 20537,
    "Ġasiatic": 20426,
    "Ġslim": 18935,
    "standers": 18478,
    "ity": 417,
    "hroom": 12474,
    "ameter": 2972,
    "Ġmal": 5221,
    "broad": 8642,
    "gunwale": 20661,
    "Ġanonym": 17897,
    "b": 70,
    "Ġdoor": 1738,
    "Ġunre": 3474,
    "Ġsuch": 797,
    "Ġsuff": 1303,
    "Ġslide": 10393,
    "Ġcoquet": 22580,
    "suddenly": 6492,
    "Ġslates": 11106,
    "Ġjupiter": 17454,
    "Ġconsum": 9798,
    "ivery": 17571,
    "momentum": 4991,
    "Ġobserving": 6081,
    "Ġcusack": 26433,
    "Ġnecessity": 7295,
    "Ġaug": 6234,
    "Ġinquisitive": 26318,
    "Ġdata": 517,
    "Ġregent": 18585,
    "Ġfrequencies": 4789,
    "otence": 14022,
    "intim": 22931,
    "impotence": 23759,
    "deceit": 25556,
    "Ġeffective": 1247,
    "Î": 143,
    "Ġcomputing": 2222,
    "emy": 14074,
    "Ġrecklessly": 16981,
    "gia": 20875,
    "Ġiter": 2952,
    "cab": 7332,
    "masculine": 24387,
    "Ġprying": 15606,
    "Ġarticles": 7107,
    "Ġpermit": 9748,
    "Ġtranslates": 12049,
    "mysteries": 26050,
    "Ġvoluntary": 14798,
    "Ġpersecut": 16951,
    "laughed": 20278,
    "arthur": 14830,
    "Ġaccomplishment": 19662,
    "Ġmainland": 22653,
    "Ġsteward": 6584,
    "}": 97,
    "pos": 15409,
    "althily": 19357,
    "Ġshapeless": 24524,
    "Ġindisposed": 26288,
    "onom": 9158,
    "mediate": 16510,
    "Ġnavies": 16899,
    "tide": 11533,
    "ancholy": 5070,
    "streamed": 25966,
    "Ġenglish": 3611,
    "Ġfolios": 23018,
    "mor": 4213,
    "Ġkeeps": 8265,
    "Ġdissipate": 13632,
    "utting": 17984,
    "obey": 11510,
    "Ġ7": 4745,
    "Ġaddressed": 5262,
    "etite": 21574,
    "Ġimpotently": 22386,
    "stick": 15682,
    "Ġ183": 13236,
    "fo": 5278,
    "Ġword": 1053,
    "Ġperturbed": 20436,
    "Ġredness": 19311,
    "Ġfreshe": 13068,
    "Ġlabourers": 23330,
    "Ġtypically": 1537,
    "Ġshoot": 11161,
    "Ġ22": 8277,
    "Ġbask": 8115,
    "cooper": 19188,
    "successful": 11359,
    "affection": 7486,
    "Ġeyford": 10641,
    "uberance": 25916,
    "Ġsuffering": 8946,
    "Ġfurlong": 18737,
    "abled": 12791,
    "Ġtwinkle": 12321,
    "anim": 6521,
    "Ġque": 4158,
    "Ġpatterns": 1214,
    "Ġegotistical": 26192,
    "Ġclouds": 5775,
    "marked": 9048,
    "Ġplaymate": 23635,
    "hee": 10760,
    "intment": 4720,
    "adventurous": 25361,
    "|": 96,
    "compliment": 11365,
    "Ġschedules": 3383,
    "Ġfiend": 4411,
    "blame": 14793,
    "Ġleather": 7602,
    "osque": 22258,
    "Ġleadenhall": 16626,
    "carried": 16709,
    "Ġnarrower": 24354,
    "croquet": 25747,
    "Ġelbowed": 16106,
    "totally": 25417,
    "Ġloading": 15872,
    "hug": 17562,
    "Ġplata": 25117,
    "Ġtired": 9149,
    "Ġcus": 21340,
    "Ġg": 310,
    "nui": 20999,
    "Ġyoungster": 23178,
    "Ġinflexibly": 26370,
    "gerine": 22885,
    "months": 9071,
    "hued": 20910,
    "neys": 23580,
    "800": 17475,
    "Ġsuppressed": 11911,
    "knot": 13744,
    "greg": 6647,
    "arrow": 4178,
    "Ġobedience": 11414,
    "fleece": 19944,
    "avo": 8516,
    "Ġviewed": 10462,
    "bath": 13688,
    "Ġinns": 17929,
    "doctor": 19094,
    "Ġpersecutor": 26097,
    "were": 2560,
    "Ġqu": 605,
    "Ġstowing": 18074,
    "Ġauger": 21201,
    "prevailed": 17343,
    "Ġamongst": 8959,
    "rell": 11564,
    "Ġ69": 19658,
    "especially": 3570,
    "Ġgardiner": 3237,
    "Ġcuriosity": 2420,
    "Ġearliest": 9830,
    "Ġsuperficial": 23454,
    "Ġreached": 4022,
    "idious": 11662,
    "Ġchronicler": 20226,
    "Ġruins": 16155,
    "Ġclaim": 5106,
    "aments": 12722,
    "embarr": 15795,
    "Ġaccountability": 10438,
    "Ġgraph": 10902,
    "Ġdairy": 20684,
    "ĠâĢľâĢĶ": 9733,
    "Ġringle": 18210,
    "Ġchoose": 5981,
    "Ġowe": 8113,
    "alvan": 21499,
    "Ġarising": 10933,
    "bey": 10314,
    "im": 327,
    "Ġholes": 16406,
    "Ġkicking": 16900,
    "Ġembracing": 14980,
    "Ġarg": 4766,
    "Ġpython": 1067,
    "illuminated": 17451,
    "Ġpreced": 6039,
    "Ġamends": 14246,
    "Ġtahit": 10754,
    "Ġeber": 18003,
    "Ġmannish": 26238,
    "ims": 7175,
    "directly": 13708,
    "comput": 1989,
    "Ġpretext": 22225,
    "etition": 7381,
    "purse": 20021,
    "Ġreporting": 24658,
    "liv": 9607,
    "py": 17623,
    "Ġexpiration": 22621,
    "Ġburned": 8630,
    "Ġfurious": 10354,
    "eminence": 20095,
    "cils": 20812,
    "afterwards": 7483,
    "Ġindividuality": 14909,
    "Ġpermission": 9278,
    "ithmetic": 18061,
    "answ": 15882,
    "Ġ101": 24409,
    "Ġmacy": 19353,
    "Ġterrified": 14672,
    "Ġirrevocably": 15296,
    "Ġloath": 7889,
    "ĠĠĠĠĠĠĠĠĠĠĠĠĠĠĠĠĠĠĠĠĠĠĠ": 18830,
    "icked": 10332,
    "growing": 13732,
    "Ġvisual": 5741,
    "Ġdevice": 1929,
    "Ġamounted": 18511,
    "Ġleagues": 9221,
    "Ġmissed": 8554,
    "Ġperpetually": 17069,
    "weeks": 14316,
    "Ġfobbing": 26441,
    "Ġincessant": 15097,
    "Ġcompact": 2266,
    "Ġpeleg": 3736,
    "squ": 7808,
    "Ġunexampled": 20356,
    "cim": 8719,
    "Ġbree": 5012,
    "Ġscalding": 16314,
    "Ġless": 1940,
    "ival": 4225,
    "Ġcommodore": 12393,
    "Ġmappings": 2151,
    "Ġdefect": 8553,
    "Ġviciss": 11293,
    "help": 1477,
    "Ġsacrificed": 17420,
    "Ġresounds": 22538,
    "Ġemigrant": 25859,
    "Ġbroken": 3446,
    "Ĵ": 245,
    "Ġhus": 3090,
    "acled": 16078,
    "Ġspurn": 18308,
    "Ġpaddled": 20198,
    "Ġapart": 4746,
    "Ġrainy": 24341,
    "Ġspasmodic": 20394,
    "Ġappearing": 9840,
    "Ġinsp": 2102,
    "acency": 12905,
    "Ġmild": 4145,
    "Ġscepticism": 25927,
    "amusement": 15281,
    "constellation": 24631,
    "Ġgenerously": 22387,
    "Ġpool": 5173,
    "à": 161,
    "Ġarches": 14163,
    "Ġdegenerating": 25799,
    "aim": 2755,
    "Ġmood": 6276,
    "riv": 3107,
    "Ġscreaming": 13422,
    "taining": 7205,
    "Ġpattern": 1367,
    "Ġwretchedness": 9026,
    "Ġworshippers": 25693,
    "Ġplat": 8519,
    "Ġanswer": 2597,
    "Ġgod": 1938,
    "Ġyawning": 12298,
    "Ġshell": 11735,
    "Ġtransform": 749,
    "Ġreconciled": 13586,
    "Ġplaything": 19236,
    "Ġprosperity": 20255,
    "Ġflooded": 24959,
    "Ġ156": 20167,
    "Ġsomething": 1793,
    "Ġthack": 21512,
    "Ġpour": 13913,
    "detective": 24383,
    "Ġglut": 18851,
    "tossed": 10996,
    "Ġamused": 11798,
    "Ġmediterranean": 12313,
    "umpled": 15874,
    "Ġvan": 1088,
    "enance": 3368,
    "ineering": 21977,
    "Ġdarling": 12601,
    "Ġforbear": 17120,
    "Ġconcentration": 25062,
    "dut": 10087,
    "Ġofficio": 23812,
    "Ġprojected": 16870,
    "Ġvain": 3626,
    "Ġunsophisticated": 25992,
    "Ġcaliforn": 14431,
    "Ġpl": 745,
    "Ġyounge": 16285,
    "Ġspirit": 3722,
    "Ġprivile": 8645,
    "Ġpercept": 14223,
    "sle": 9138,
    "ermost": 7429,
    "Ġfa": 4819,
    "Ġsong": 5902,
    "atmosphere": 21262,
    "Ġnoses": 18371,
    "Ġsolicit": 22884,
    "Ġfeels": 6882,
    "Ġ86": 24461,
    "Ġgard": 2190,
    "assembled": 21540,
    "Ã¦mon": 7093,
    "Ġlarge": 1064,
    "Ġbeing": 1168,
    "aguy": 21906,
    "Ġexec": 19491,
    "doubtful": 24791,
    "Ġwharf": 9558,
    "Ġtranspired": 16783,
    "Ġtelegra": 11891,
    "ker": 5792,
    "Ġshud": 5461,
    "mer": 2831,
    "Ġsavor": 23872,
    "Ġargu": 10934,
    "Ġmainten": 16113,
    "really": 6971,
    "leisure": 21367,
    "Ġbales": 21385,
    "shavings": 22449,
    "Ġstren": 15720,
    "umphed": 23514,
    "Ġpuffing": 12252,
    "Ġsash": 17754,
    "icket": 22664,
    "exciting": 19665,
    "Ġcopy": 10163,
    "Ġcro": 4873,
    "Ġvener": 8162,
    "Ġundulating": 19516,
    "Ġathe": 17741,
    "Ġhighly": 4844,
    "Ġtreated": 7079,
    "Ġsynd": 22197,
    "facts": 19838,
    "killing": 20941,
    "Ġexpose": 10327,
    "Ġconstraints": 2739,
    "Ġcondense": 21803,
    "behold": 12875,
    "Ġin": 291,
    "race": 11631,
    "Ġmethod": 1486,
    "Ġasks": 5115,
    "atural": 953,
    "Ġmisery": 3811,
    "Ġcloudless": 16666,
    "âĢĻ-": 18166,
    "Ġreception": 9838,
    "speckled": 23944,
    "Ġflowery": 16229,
    "lot": 3206,
    "pening": 2830,
    "Ġthis": 382,
    "owed": 2273,
    "ulates": 14054,
    "depths": 25663,
    "hauteur": 26391,
    "Ġarter": 22178,
    "Ġapolog": 9043,
    "Ġdirty": 9178,
    "Ġsavory": 23873,
    "Ġexecute": 7504,
    "Ġinterven": 10997,
    "hatherley": 17567,
    "cold": 9589,
    "Ġgemini": 26469,
    "Ġpasseng": 12968,
    "Ġcrescent": 16134,
    "Ġpleas": 1908,
    "Ġfather": 1451,
    "Ġwalked": 3138,
    "Ġarrangement": 2655,
    "Ġassembl": 20057,
    "protection": 19917,
    "Ġsits": 10768,
    "Ġuneasily": 24230,
    "igan": 21694,
    "ose": 718,
    "Ġmalice": 7151,
    "Ġdungeon": 16995,
    "majesty": 26281,
    "Ġcler": 11769,
    "laughing": 15179,
    "Ġconceive": 8460,
    "Ġsy": 489,
    "Ġbelrive": 18829,
    "enes": 5218,
    "Ġcopying": 17067,
    "Ġpomp": 12619,
    "bast": 10076,
    "Ġastonishment": 4794,
    "Ġguar": 23041,
    "Ġherein": 16188,
    "Ġtexture": 19159,
    "Ġsurpass": 13582,
    "Ġredundant": 16549,
    "Ġinnovative": 1545,
    "stalls": 26473,
    "cuniary": 26379,
    "Ġsinews": 20284,
    "stript": 21652,
    "agement": 4186,
    "Ġfreshet": 25704,
    "Ġmadden": 10447,
    "Ġchorus": 10946,
    "ore": 418,
    "Ġcult": 8781,
    "Ġgills": 17992,
    "Ġquench": 22415,
    "magn": 10610,
    "unusually": 15777,
    "catherine": 7126,
    "ichever": 13956,
    "Ġdifferences": 18710,
    "Ġfoe": 7678,
    "Ġwarrior": 24496,
    "small": 6471,
    "Ġaccomplish": 14876,
    "wooden": 24587,
    "chamber": 13624,
    "rics": 13035,
    "ologist": 22875,
    "Ġpondered": 15166,
    "Ġseparation": 11249,
    "Ġkings": 7196,
    "Ġtinkling": 25212,
    "iries": 18169,
    "Ġdetermining": 14421,
    "Ġclutching": 24951,
    "Ġreports": 19083,
    "Ġtist": 21160,
    "Ġhearken": 21680,
    "Ġdays": 2078,
    "arness": 11671,
    "haven": 20911,
    "177": 20750,
    "requent": 3648,
    "ourselves": 9010,
    "Ġdefilements": 26285,
    "Ġprofounder": 23567,
    "Ġpromising": 10399,
    "Ġenjoy": 3759,
    "Ġstudying": 9848,
    "Ġnav": 5818,
    "Ġinsatiable": 19271,
    "Ġvastly": 23857,
    "Ġsupervised": 3475,
    "ship": 1394,
    "Ġlothario": 26185,
    "ĠâĢĺ_": 11116,
    "lux": 14225,
    "Ġdistraction": 22502,
    "lour": 15379,
    "acquired": 24296,
    "glit": 23847,
    "Ġafrican": 20134,
    "Ġabsor": 8503,
    "inhab": 10757,
    "Ġdrug": 11411,
    "Ġropes": 10748,
    "concent": 19478,
    "Ġturned": 2134,
    "col": 3101,
    "thanked": 24331,
    "Ġroanoke": 22401,
    "mankind": 14374,
    "discrimin": 19605,
    "Ġdelicate": 6479,
    "Ġsleeping": 6318,
    "Ġspies": 22123,
    "Ġselling": 21222,
    "cst": 10084,
    "Ġannum": 24203,
    "Ġstated": 9688,
    "antically": 22091,
    "Ġdeceit": 13480,
    "Ġwholly": 4448,
    "Ġdependent": 14293,
    "fing": 13712,
    "Ġunconsciously": 10004,
    "Ġjing": 15946,
    "congratulations": 20276,
    "Ġobvious": 4964,
    "Ġho": 1934,
    "athed": 7827,
    "endurable": 22222,
    "Ġincredulous": 9986,
    "quakes": 21851,
    "Ġtrustworthy": 24111,
    "frisco": 16786,
    "untary": 9866,
    "Ġfragment": 14507,
    "soc": 5175,
    "Ġattitudes": 16093,
    "Ġviv": 6156,
    "Ġtrains": 10947,
    "Ġdivergence": 2727,
    "hastening": 24448,
    "Ġheavily": 6740,
    "Ġoccur": 1083,
    "Ġdisturbance": 15013,
    "amiable": 14053,
    "condite": 23247,
    "ager": 6545,
    "spiracle": 22735,
    "Ġbattering": 13900,
    "Ġbestow": 6454,
    "oning": 7571,
    "introduced": 15124,
    "Ġentirely": 3431,
    "Ġindisc": 16225,
    "countenance": 6925,
    "ultural": 22564,
    "love": 9293,
    "Ġrespectable": 6736,
    "Ġrifts": 21971,
    "houses": 9599,
    "Ġgrasped": 8032,
    "Ġlysander": 13138,
    "Ġneighbors": 25804,
    "Ġcutting": 4983,
    "Ġplantation": 11424,
    "Ġbri": 21374,
    "house": 4076,
    "straw": 24094,
    "Ġtwee": 22671,
    "Ġmanoir": 22327,
    "gloom": 17138,
    "Ĉ": 201,
    "bing": 7790,
    "Ġdiscuss": 9472,
    "Ġneat": 6999,
    "Ġplanisphere": 26608,
    "illustration": 2287,
    "Ġpaternal": 16359,
    "Ġleatherhead": 20010,
    "bol": 8717,
    "Ġadequately": 15198,
    "makes": 10711,
    "Ġpremium": 23901,
    "Ġabsurd": 7202,
    "Ġseams": 12122,
    "Ġanew": 11431,
    "rain": 461,
    "Ġprecious": 5760,
    "Ġsteamer": 17187,
    "fates": 20856,
    "Ġtalks": 23367,
    "Ġthey": 575,
    "Ġwards": 17789,
    "Ġcommanded": 6329,
    "arious": 10317,
    "ods": 8834,
    "Ġfinest": 10392,
    "Ġbreakers": 12053,
    "Ġemblematical": 25788,
    "Ġwerter": 15238,
    "Ġmans": 15534,
    "Ġtraces": 7944,
    "starbuck": 6018,
    "Ġyankees": 26202,
    "Ġconnections": 968,
    "angry": 18293,
    "lotte": 3329,
    "comes": 5394,
    "Ġconsecrated": 26488,
    "Ġgid": 13961,
    "lengthwise": 19946,
    "rimin": 2426,
    "opportunity": 12272,
    "Ġalexander": 17422,
    "Ġcons": 952,
    "Ġdoubt": 2225,
    "athan": 2956,
    "Ġsmooth": 2777,
    "driver": 14921,
    "Ġcomplaisance": 19447,
    "Ġswan": 23048,
    "Ġneatness": 19929,
    "Ġintertw": 18591,
    "Ġcorporeally": 25729,
    "aways": 15309,
    "inity": 5693,
    "Ġcompromising": 22569,
    "Ġtwo": 1042,
    "Ġ150": 22823,
    "Ġbegat": 18862,
    "Ġ2": 2929,
    "vand": 21106,
    "Ġpresumably": 19621,
    "Ġabed": 22271,
    "Ġrepulsive": 14531,
    "Ġinstant": 2704,
    "Ġdandy": 17892,
    "Ġbesee": 19241,
    "Ġoar": 6236,
    "Ġtoiled": 12639,
    "palms": 25262,
    "ext": 915,
    "customary": 25895,
    "twill": 21073,
    "trip": 21089,
    "Ġconsecrate": 26489,
    "Ġrake": 18639,
    "Ġpays": 13295,
    "Ġspeech": 4611,
    "Ġhoof": 23350,
    "Ġf": 283,
    "ulled": 14055,
    "mr": 1903,
    "Ġ115": 24439,
    "Ġjealously": 24124,
    "affections": 17355,
    "shud": 18482,
    "Ġupdate": 2465,
    "advance": 12154,
    "included": 19207,
    "orn": 2245,
    "importance": 9988,
    "landish": 11940,
    "Ġreg": 724,
    "bestowed": 12223,
    "Ġbarren": 11206,
    "arest": 4004,
    "Ġillustrative": 25066,
    "Ġcocked": 12901,
    "recollected": 25347,
    "entreaties": 26186,
    "runs": 25415,
    "Ġhammered": 13238,
    "oard": 4809,
    "resent": 10769,
    "leap": 21363,
    "practised": 20244,
    "Ġducks": 25157,
    "cheerful": 13574,
    "iluvian": 18060,
    "vice": 15448,
    "uity": 12515,
    "accidents": 19211,
    "Ġprematurely": 24003,
    "Ġheadsman": 13273,
    "Ġdiscernible": 15069,
    "Ġrecre": 22736,
    "Ġunfailing": 24107,
    "leman": 21364,
    "Ġdisguises": 25055,
    "Ġarr": 1798,
    "Ġaccused": 8506,
    "Ġ13": 6718,
    "Ġprejudices": 13468,
    "ful": 663,
    "Ġlizard": 12651,
    "Ġleaking": 21725,
    "pulled": 25145,
    "Ġsubur": 12953,
    "Ġdownward": 10331,
    "Ġretribution": 16279,
    "eastern": 17532,
    "Ġmonomania": 17084,
    "Ġformidable": 8218,
    "Ġpeaceful": 9454,
    "Ġdropout": 1560,
    "hearts": 13343,
    "iality": 8843,
    "Ġgracechurch": 12196,
    "drab": 23894,
    "meaning": 2906,
    "goodbye": 12054,
    "Ġsea": 1209,
    "danish": 20831,
    "Ġwert": 12553,
    "Ġfierce": 7436,
    "Ġpresume": 8036,
    "Ġthing": 1639,
    "Ġbolt": 11335,
    "Ġbunger": 9995,
    "Ġsodden": 25535,
    "Ġantip": 24176,
    "aciousness": 18605,
    "uneven": 23683,
    "Ġwrapping": 19772,
    "Ġweeps": 24947,
    "otent": 8831,
    "voc": 8392,
    "Ġprovinces": 24189,
    "Ġcrosswise": 18886,
    "Ġmyth": 18220,
    "anche": 10788,
    "ospit": 22259,
    "Ġensure": 23686,
    "Ġimple": 1797,
    "Ġcreativity": 2957,
    "peril": 18336,
    "Ġforenoon": 19126,
    "transformer": 25015,
    "interview": 19298,
    "Ġtot": 4184,
    "Ġmetal": 9382,
    "Ġdry": 5624,
    "justine": 7681,
    "Ġmes": 17796,
    "Ġexamined": 6333,
    "Ġfight": 5366,
    "Ġvoices": 7874,
    "abroad": 18108,
    "Ġdraw": 3669,
    "Ġ26": 10470,
    "Ġdazzling": 15211,
    "impressions": 20696,
    "Ġstretching": 10014,
    "Ġadventurous": 16731,
    "Ġawaken": 23584,
    "Ġbelfry": 26438,
    "romeda": 17261,
    "Ġdec": 641,
    "ino": 15478,
    "unhappy": 10237,
    "Ġbrawn": 10481,
    "Ġwhitney": 11374,
    "aul": 6351,
    "iverer": 11715,
    "Ġstooped": 14464,
    "Ġwhence": 5839,
    "Ġlivelong": 25511,
    "Ġwhalebone": 10977,
    "Ġnar": 7374,
    "Ġused": 2061,
    "Ġviolently": 6455,
    "langu": 4807,
    "written": 7993,
    "Ġbutler": 18269,
    "record": 16920,
    "Ġsettled": 3739,
    "Ġorgans": 15863,
    "Ġcrescentic": 20618,
    "bable": 8718,
    "uss": 8763,
    "ieces": 4772,
    "Ġflew": 5588,
    "ĠâĢľâĢĺ_": 25111,
    "iments": 4945,
    "lifted": 15385,
    "Ġexponential": 1058,
    "Ġastr": 15493,
    "Ġlevers": 18064,
    "Ġexhaled": 19679,
    "Ġsweat": 13139,
    "Ġmout": 17798,
    "dozen": 23375,
    "Ġtwit": 12926,
    "received": 9638,
    "Ġforbidden": 17077,
    "Ġlumps": 21551,
    "sole": 6168,
    "Ġpuzzling": 14898,
    "u": 89,
    "Ġegg": 8818,
    "Ġinit": 819,
    "brated": 12025,
    "Ġapproximates": 2419,
    "Ġrussia": 26268,
    "Ġtackles": 8049,
    "az": 2182,
    "shortly": 12256,
    "Ġdeserted": 8636,
    "iability": 20919,
    "Ġenvelopes": 24510,
    "Ġswings": 11087,
    "hecy": 21204,
    "Ġunrest": 11713,
    "Ġlens": 8436,
    "peculiarities": 13470,
    "Ġput": 1796,
    "spoutings": 25001,
    "io": 3799,
    "-------": 20385,
    "Ġmountain": 3369,
    "Ġenjoyment": 7299,
    "Ġgret": 21596,
    "Ġeat": 4644,
    "Ġfinanc": 23125,
    "odox": 21806,
    "gain": 8736,
    "Ġcut": 2640,
    "Ġwoll": 21291,
    "Ġcarve": 23090,
    "iquet": 17574,
    "bellies": 19970,
    "Ġinvolved": 8922,
    "excepting": 19703,
    "prehend": 14243,
    "cup": 10690,
    "Ġmince": 22828,
    "Ġexpansion": 22622,
    "Ġcross": 1378,
    "Ġbang": 17854,
    "raved": 18012,
    "Ġtheorem": 2330,
    "offices": 19062,
    "Ġpertur": 12848,
    "Ġprinces": 23220,
    "swim": 16778,
    "Ġsounding": 8263,
    "ourney": 3550,
    "arding": 22152,
    "Ġpartners": 11852,
    "Ġregard": 3065,
    "Ġhues": 21484,
    "Ġdoxology": 22240,
    "Ġoptimizers": 18627,
    "thern": 4953,
    "Ġimprove": 1848,
    "eliest": 14746,
    "Ġdeliberate": 15023,
    "Ġsan": 7823,
    "Ġworthless": 19562,
    "Ġodds": 13328,
    "Ġcongen": 10873,
    "Ġisland": 4047,
    "whis": 7896,
    "scream": 11077,
    "Ġchurches": 12825,
    "Ġglaciers": 20170,
    "Ġabomination": 22284,
    "ñ": 178,
    "du": 604,
    "erable": 1917,
    "Ġvolition": 14797,
    "Ġsun": 1720,
    "Ġsaville": 15887,
    "erate": 7148,
    "Ġimmut": 13296,
    "Ġserenity": 10027,
    "nment": 20989,
    "_.": 2214,
    "Ġannoy": 17197,
    "Ġder": 1500,
    "Ġsurplus": 26304,
    "orously": 8417,
    "problem": 25244,
    "honey": 20904,
    "Ġcolds": 23756,
    "Ġgoodge": 22820,
    "assed": 6420,
    "Ġgentlemanly": 19315,
    "ous": 477,
    "Ġanger": 5442,
    "alcul": 15625,
    "Ġcumberland": 21351,
    "vest": 6230,
    "Ġacre": 22677,
    "Ġtransc": 12861,
    "Ġ*/": 10373,
    "Ġwhipping": 21711,
    "remembered": 17349,
    "Ġsneeze": 24698,
    "Ġfunction": 587,
    "ication": 994,
    "Ġfiendish": 13325,
    "Ġbored": 16102,
    "Ġworshipping": 22925,
    "Ġcolumn": 9327,
    "Ġsiberia": 26162,
    "Ġnaval": 16898,
    "shel": 11929,
    "rate": 2425,
    "Ġguardian": 14942,
    "lat": 9604,
    "unreasonable": 18162,
    "Ġsen": 9156,
    "Ġpioneer": 17918,
    "Ġcurrents": 13011,
    "Ġhisself": 21910,
    "gold": 9120,
    "Ġphil": 3382,
    "Ġmichael": 20677,
    "conven": 6162,
    "Ġerror": 1765,
    "vo": 11540,
    "conditionally": 24834,
    "Ġspecial": 2104,
    "Ġgathered": 8441,
    "Ġdeception": 18139,
    "Ġwrapt": 24595,
    "Ġlimped": 19180,
    "Ġlower": 2660,
    "Ġchapel": 9521,
    "ordinate": 12873,
    "Ġapple": 14169,
    "Ġwoollen": 12101,
    "Z": 62,
    "Ġestab": 6314,
    "serious": 14448,
    "arat": 9180,
    "itably": 10782,
    "ky": 4521,
    "Ġsacrificial": 24871,
    "Ġninetieth": 25357,
    "Ġfanc": 6743,
    "anybody": 12080,
    "uniform": 18157,
    "ual": 943,
    "arians": 18522,
    "Ġsiam": 13837,
    "Ġclos": 4550,
    "Ġpronounce": 16966,
    "Ġgetting": 4065,
    "Ġstruggle": 3674,
    "Ġhoping": 11103,
    "Ġstoven": 23174,
    "asse": 15642,
    "Ġvocabulary": 4995,
    "Ġoverwhelming": 17101,
    "uzzle": 19580,
    "Ġextravag": 11255,
    "Ġlabour": 7273,
    "ox": 9133,
    "Ġrats": 21969,
    "Ġtwinkling": 12322,
    "gan": 2199,
    "ciousness": 20815,
    "Ġlistless": 16474,
    "zar": 11548,
    "igger": 21696,
    "kind": 3861,
    "Ġanyhow": 14255,
    "Ġmischief": 8539,
    "Ġincapable": 7422,
    "Ġtidings": 11398,
    "Ġservox": 23867,
    "Ġrespective": 16342,
    "Ġentities": 11863,
    "Ġspeak": 2232,
    "Ġundisturbed": 19518,
    "morrow": 4573,
    "gathered": 13731,
    "Ġsplit": 7991,
    "Ġprovocation": 24190,
    "Ġclues": 18422,
    "Ġproving": 15752,
    "Ġdisapprobation": 16055,
    "Ġwrinkles": 8569,
    "hit": 20888,
    "continually": 11303,
    "browed": 25894,
    "Ġpin": 7160,
    "ulgences": 21860,
    "Ġsavannah": 17414,
    "Ġreadiness": 13047,
    "Ġdiscredit": 22778,
    "lass": 5992,
    "Ġphant": 7054,
    "Ġfacetious": 20581,
    "Ġbeams": 14632,
    "Ġthreshold": 2807,
    "recur": 4438,
    ",_": 11463,
    "Ġgap": 21594,
    "Ġany": 687,
    "om": 315,
    "actions": 8906,
    "Ġbal": 1130,
    "apan": 6860,
    "Ġmid": 2614,
    "onet": 12542,
    "umbent": 12093,
    "Ġsociety": 3977,
    "bu": 5132,
    "garden": 15026,
    "Ġmonotonically": 3830,
    "Ġfishers": 19352,
    "Ġliber": 5168,
    "advancing": 14836,
    "Ġresolutely": 14610,
    "difficulty": 12388,
    "obliv": 23095,
    "ipagos": 22344,
    "Ġseething": 18201,
    "Ġgasping": 17037,
    "Ġvac": 5025,
    "Ġlent": 21542,
    "Ġpaintings": 15056,
    "Ġcased": 21343,
    "sec": 6152,
    "Ġforked": 11664,
    "Ġempire": 11145,
    "Ġdesire": 3715,
    "Ġsubl": 7234,
    "recklessly": 25269,
    "Ġfireside": 23528,
    "singing": 24363,
    "Ġdood": 22238,
    "Ġpeevish": 26558,
    "Ġwondrously": 24061,
    "Ġtale": 5142,
    "ensed": 10995,
    "Ġpleasantest": 24137,
    "agers": 5633,
    "Ġlouis": 8355,
    "hatchway": 25904,
    "Ġconsider": 2569,
    "Ġbuildings": 24719,
    "Ġsty": 6251,
    "Ġstricken": 9775,
    "Ġscarcely": 4008,
    "Ġseeth": 21949,
    "sper": 4435,
    "isure": 6240,
    "Ġplains": 14624,
    "Ġremember": 2678,
    "Ġstuck": 9222,
    "Ġsuperiority": 14617,
    "compose": 24029,
    "strugg": 21657,
    "Ġsaws": 23046,
    "Ġgrass": 5177,
    "Ġag": 684,
    "spout": 7922,
    "prises": 23810,
    "remains": 10398,
    "t": 88,
    "Ġevolved": 9891,
    "Ġimpetuous": 25570,
    "Ġdischarged": 15220,
    "Ġblinding": 14728,
    "Ġdaboll": 25950,
    "Ġimpelling": 22381,
    "Ġgorgeous": 20463,
    "Ġvesuvius": 26501,
    "Ġincarnation": 25573,
    "nels": 12493,
    "Ġspiced": 22128,
    "pitchpoling": 25725,
    "Ġlongitudes": 22632,
    "Ġmournfully": 20113,
    "Ġtransparency": 10676,
    "burning": 25078,
    "armed": 7250,
    "deficient": 23115,
    "suspect": 9538,
    "Ġphilist": 16599,
    "made": 4808,
    "Ġalongside": 6310,
    "seven": 8462,
    "Ġvanquished": 22873,
    "herent": 2532,
    "Ġpumping": 25643,
    "esy": 9182,
    "Ġthou": 1808,
    "Ġsleeve": 20137,
    "board": 3562,
    "narr": 12494,
    "Ġbowsman": 11256,
    "Ġassum": 4064,
    "Ġgeomet": 3191,
    "news": 23130,
    "Ġwarmth": 6905,
    "renched": 7905,
    "Ġsystematic": 5245,
    "daggoo": 13706,
    "Ġicebergs": 23972,
    "bitts": 26123,
    "Ġassures": 14466,
    "Ġoverthrown": 18430,
    "speaking": 12096,
    "Ġbenjam": 22887,
    "anct": 21354,
    "recover": 24619,
    "Ġwearily": 18177,
    "pass": 4291,
    "Ġfrightened": 5341,
    "eagerly": 17314,
    "arm": 1358,
    "Ġdissip": 10992,
    "Ġlubber": 17442,
    "word": 2491,
    "stock": 13220,
    "Ġuncontrollable": 25814,
    "Ġskylight": 24071,
    "Ġstumble": 26483,
    "Ġcomprehend": 6493,
    "voyages": 24855,
    "Ġruff": 14347,
    "Ġenticements": 26034,
    "misfortunes": 16755,
    "trap": 24313,
    "Ġexempl": 21825,
    "Ġslighted": 16565,
    "Ġmelt": 21315,
    "Ġdie": 3962,
    "ord": 667,
    "fen": 20848,
    "he": 264,
    "Ġanswerable": 23468,
    "Ġremark": 2149,
    "Ġmccauley": 26427,
    "Ġreversed": 15694,
    "lege": 17841,
    "Ġcarpets": 18901,
    "humoredly": 26325,
    "flo": 6115,
    "linging": 16075,
    "Ġopt": 788,
    "iii": 14774,
    "ptic": 21914,
    "Ġmahogany": 20575,
    "Ġpepper": 9780,
    "Ġcheshire": 13089,
    "Ġattribute": 16094,
    "ometer": 19325,
    "Ġ1778": 25730,
    "Ġinsulated": 23678,
    "Ġharrow": 17925,
    "Ġvolcano": 24146,
    "tom": 15434,
    "wag": 21121,
    "bons": 17485,
    "endless": 22220,
    "egypt": 15348,
    "Ġspears": 12921,
    "Ġticking": 25033,
    "Ġscuttle": 7413,
    "Ġterrific": 6754,
    "Ġoaks": 16933,
    "ĥ": 230,
    "Ġfamous": 5255,
    "Ġclatter": 22347,
    "Ġwestward": 24389,
    "Ġtis": 15464,
    "Ġdepresses": 25797,
    "rints": 12500,
    "Ġalong": 1978,
    "oing": 15400,
    "insulting": 26055,
    "Ġ85": 24460,
    "Ġminority": 18751,
    "Ġforce": 5092,
    "Ġsallies": 21227,
    "uing": 17692,
    "Ġsaucer": 20603,
    "match": 15389,
    "Ġreconsidered": 21668,
    "Ġattributed": 11832,
    "Ġcommend": 10334,
    "Ġinequal": 21492,
    "ulatory": 15765,
    "ccess": 3182,
    "Ġmundane": 26429,
    "'d": 12425,
    "Ġfireboard": 23529,
    "Ġscholar": 26112,
    "Ġsire": 15500,
    "quarters": 24946,
    "completed": 19990,
    "app": 1039,
    "Ġtransported": 11280,
    "Ġcumul": 4177,
    "sword": 10726,
    "Ġribs": 7100,
    "aboard": 21789,
    "Ġwest": 5219,
    "racing": 21626,
    "flames": 14712,
    "&": 10,
    "Ġrecovered": 5481,
    "Ġskylarking": 19485,
    "assistance": 20367,
    "produced": 25414,
    "hateful": 20908,
    "Ġappearance": 3698,
    "Ġdisent": 22519,
    "returning": 12203,
    "isf": 2437,
    "Ġsaw": 1352,
    "Ġprivilege": 11420,
    "Ġhateful": 19710,
    "Ġparty": 3507,
    "Ġunconsc": 6551,
    "Ġsavann": 14685,
    "Ġt": 261,
    "Ġveteran": 17448,
    "Ġimpartial": 15219,
    "hark": 15364,
    "Ġrestless": 10413,
    "Ġenjoyments": 24015,
    "Ġtemptations": 24508,
    "Ġassistant": 7297,
    "Ġprovincial": 20648,
    "Ġscr": 11759,
    "grasp": 16428,
    "Ġmeets": 7395,
    "Ġlogits": 3448,
    "Ġweek": 2825,
    "Ġwa": 1753,
    "Ġgovern": 10450,
    "Ġtowed": 11266,
    "Ġaverred": 18864,
    "erringly": 16208,
    "Ġspell": 8855,
    "Ġsands": 14948,
    "Ġvanishing": 1346,
    "Ġflask": 3038,
    "Ġcalhoun": 23040,
    "Ġbuild": 6473,
    "Ġscrutin": 26014,
    "T": 56,
    "representativeness": 25272,
    "Ġforeshad": 23450,
    "Ġcongratulations": 10580,
    "Ġdisturb": 7106,
    "shuff": 18483,
    "they": 1881,
    "lement": 10166,
    "Ġpossessing": 16573,
    "Ġcleaving": 23180,
    "Ġarrang": 2470,
    "prophecy": 22849,
    "Ġmatter": 1732,
    "verbally": 25360,
    "Ġcommenting": 25228,
    "Ġtriumph": 5143,
    "Ġgor": 9206,
    "hammer": 14490,
    "fashion": 8079,
    "Ġgrap": 11706,
    "Ġcoffin": 4428,
    "Ġdepicted": 14280,
    "Ġcrisis": 13123,
    "Ġscrews": 25177,
    "abular": 4762,
    "Ġdaughters": 4421,
    "Ġcomputational": 1624,
    "levi": 7046,
    "rect": 1599,
    "Ġhit": 7162,
    "erson": 7002,
    "alogue": 25159,
    "reed": 6372,
    "Ġcasually": 25093,
    "Ġqueequeg": 2012,
    "Ġparticip": 16128,
    "orand": 21393,
    "Ġtanning": 17728,
    "bbing": 6322,
    "Ġgloves": 8573,
    "Ġabrid": 22278,
    "considered": 9580,
    "Ġposterity": 17400,
    "Ġinter": 729,
    "ofs": 11829,
    "Ġconceivable": 16611,
    "Ġlofty": 6217,
    "perpetually": 20509,
    "Ġgallied": 19553,
    "arance": 4698,
    "Ġsleeves": 10660,
    "contempl": 13190,
    "Ġshame": 6409,
    "fight": 17537,
    "damn": 20020,
    "Ġspectator": 19406,
    "Ġuncle": 3192,
    "Ġshades": 9461,
    "Ġsake": 4089,
    "Ġhairy": 23862,
    "rec": 6003,
    "imagination": 13479,
    "Ġwhom": 1830,
    "Ġtort": 5901,
    "Ġengra": 7872,
    "ilt": 2968,
    "widely": 25343,
    "whatever": 6694,
    "Ġquestion": 2776,
    "Ġbreeding": 14523,
    "fuller": 22482,
    "Ġintegral": 25008,
    "Ġfoolish": 5979,
    "Ġinspect": 5963,
    "Ġinmost": 17930,
    "Ġsmut": 22552,
    "attered": 4018,
    "bitter": 11242,
    "Ġneglect": 7940,
    "soles": 18687,
    "iters": 21326,
    "Ġeluc": 16105,
    "benevolently": 25600,
    "era": 13846,
    "Ġdeliberation": 19965,
    "imen": 12683,
    "Ġpier": 7161,
    "Ġtor": 8104,
    "distraction": 24200,
    "Ġclinging": 10291,
    "Ġpence": 17905,
    "Ġannealing": 1556,
    "univers": 15769,
    "Ġtraversed": 18892,
    "Ġcomforters": 25800,
    "Ġsalt": 8015,
    "Ġif": 697,
    "Ġseap": 15812,
    "Ġunderwent": 23237,
    "Ġ_": 838,
    "Ġimplore": 24872,
    "Ġshutters": 9936,
    "Ġdreading": 23796,
    "Ġrallied": 14094,
    "Ġapoplexy": 25265,
    "Ġtypewriting": 16418,
    "Ġpain": 2309,
    "stee": 21646,
    "som": 3290,
    "Ġprove": 5232,
    "Ġjoist": 19230,
    "Ġdiscu": 4364,
    "Ġinjustice": 9190,
    "Ġrestore": 9379,
    "conditional": 9078,
    "ols": 2414,
    "Ġdescried": 7917,
    "sombre": 23851,
    "Ġthoughtfully": 12977,
    "Ġgrop": 12661,
    "Ġrep": 1939,
    "Ġrece": 11638,
    "Ġsoothing": 8171,
    "Ġplunge": 13442,
    "Ġreproachfully": 25251,
    "eon": 8729,
    "Ġentic": 16143,
    "Ġspind": 18306,
    "Ġsher": 3762,
    "lant": 20946,
    "Ġfleecy": 17022,
    "Ġvane": 22871,
    "determination": 19941,
    "Ġcollins": 2181,
    "sofa": 26147,
    "extending": 22759,
    "pth": 2383,
    "used": 3258,
    "marching": 25752,
    "preference": 22463,
    "Ġchink": 15929,
    "Ġbrittle": 22861,
    "tumultuous": 20395,
    "Ġendeared": 26498,
    "Ġliterature": 17147,
    "Ġprobed": 18732,
    "apidated": 22332,
    "ume": 4835,
    "Ġstaring": 8825,
    "fail": 17539,
    "mph": 20971,
    "bank": 10079,
    "oundered": 14165,
    "conduct": 11796,
    "kept": 11716,
    "pense": 10368,
    "Ġmassachusetts": 24019,
    "Ġsemantic": 1959,
    "Ġentertainment": 12220,
    "Ġhandfuls": 17208,
    "robustness": 26338,
    "Ġmiserable": 3631,
    "Ġrifled": 21972,
    "Ġwhirl": 13448,
    "ios": 2216,
    "Ġmerit": 9425,
    "balanced": 14556,
    "Ġland": 1997,
    "Ġinsince": 23677,
    "school": 10054,
    "Ġsouth": 4911,
    "Ġsculpture": 26016,
    "Ġsadly": 7301,
    "oup": 2014,
    "terday": 4705,
    "Ġdistorted": 14250,
    "young": 7320,
    "embow": 21925,
    "Ġfor": 340,
    "tinted": 17682,
    "_;": 6640,
    "od": 351,
    "Ġbravery": 23833,
    "Ġinsolent": 13599,
    "Ġostlers": 25276,
    "Ġaudits": 24770,
    "Ġnic": 7375,
    "fast": 3068,
    "Ġbackbone": 22656,
    "Ġturner": 7048,
    "Ġliked": 5264,
    "inc": 2523,
    "Ġduration": 20350,
    "vellers": 16671,
    "Ġdreary": 10408,
    "frost": 15106,
    "Ġcame": 1300,
    "Ġspirits": 3696,
    "Ġpoliteness": 8272,
    "Ġcompanies": 14558,
    "Ġreserved": 7514,
    "vel": 2387,
    "Ġinattention": 17931,
    "Ġbloom": 9886,
    "Ġnieces": 8431,
    "umbria": 23927,
    "courageous": 26128,
    "Ġsurpasses": 25268,
    "rix": 1577,
    "Ġits": 707,
    "¢": 100,
    "Ġhorizontal": 7781,
    "audible": 17131,
    "Ġplaying": 6909,
    "Ġoccasions": 7986,
    "une": 2785,
    "Ġmac": 15536,
    "Ġtarquin": 23608,
    "Ġent": 902,
    "exceeded": 24999,
    "Ġintervene": 25480,
    "Ġcot": 13876,
    "Ġcontaining": 2234,
    "mean": 6437,
    "Ġthirt": 13938,
    "Ġdoze": 14175,
    "Ġdominion": 16527,
    "Ġabsurdities": 24879,
    "cap": 8371,
    "Ġkink": 22183,
    "Ġsurrey": 14559,
    "Ġperch": 10298,
    "Ġcrime": 4617,
    "brow": 15314,
    "ohnson": 16323,
    "profitable": 17070,
    "Ġmarred": 23029,
    "Ġuneasy": 8661,
    "Ġadoration": 18289,
    "stands": 22431,
    "Ġmic": 17797,
    "burgh": 6773,
    "interference": 23736,
    "olently": 15754,
    "ì": 173,
    "Ġgrapes": 15215,
    "Ġhonor": 5664,
    "Ġneared": 14072,
    "glimmer": 26322,
    "Ġcalms": 23038,
    "Ġparacels": 13666,
    "Ġnatives": 17950,
    "Ġaccording": 5508,
    "Ġranging": 8477,
    "Ġbouquet": 20681,
    "Ġbelshazzar": 16223,
    "Ġspoken": 4836,
    "Ġbackpropagation": 1269,
    "property": 19996,
    "Ġlinn": 13952,
    "shown": 22440,
    "ċ": 204,
    "Ġalbert": 12703,
    "verest": 13990,
    "Ġwooden": 4730,
    "Ġbuoyancy": 20038,
    "slackened": 26095,
    "glory": 23849,
    "Ġvisitor": 5330,
    "cles": 8725,
    "Ġdrinking": 12166,
    "Ġpict": 3496,
    "_": 67,
    "Ġbutt": 14126,
    "rained": 5162,
    "Ġskilfully": 20521,
    "Ġjewell": 19519,
    "anned": 17839,
    "Ġwag": 10775,
    "Ġloo": 22105,
    "Ġwoven": 9925,
    "Ġnantucketer": 6914,
    "affold": 16560,
    "ulpt": 10885,
    "Ġglossy": 15226,
    "flutterings": 26607,
    "ming": 3598,
    "perth": 22171,
    "water": 4868,
    "ĠĠĠĠĠĠĠĠĠĠĠĠĠĠĠĠĠĠĠĠĠĠĠĠĠĠĠĠĠĠĠĠ": 2737,
    "bold": 17486,
    "Ġamply": 22478,
    "idual": 1561,
    "Ġsubsequently": 16157,
    "Ġevidently": 6759,
    "pond": 21012,
    "engine": 18925,
    "Ġyelling": 18096,
    "Ġgro": 4396,
    "Ġcalmer": 23039,
    "Ò": 147,
    "Ġprocopius": 19728,
    "Ġriverside": 25247,
    "_âĢĶâĢĿ": 20761,
    "rive": 9706,
    "70": 17474,
    "escaped": 14231,
    "Ġsporting": 16998,
    "Ġ181": 23891,
    "garnished": 26388,
    "Ġmusical": 23890,
    "Ġhurts": 19110,
    "Ġundu": 15835,
    "Ġcoop": 14270,
    "narrated": 25621,
    "Ġmessage": 13522,
    "Ġlxi": 21556,
    "Ġhug": 6979,
    "Ġatmosphere": 10897,
    "Ġthings": 1962,
    "warmly": 25026,
    "atics": 15521,
    "ulty": 22563,
    "ĠĠĠĠĠĠ": 6413,
    "Ġbarbarians": 19584,
    "bits": 17487,
    "Ġdebar": 24271,
    "rown": 2192,
    "Ġgames": 11626,
    "Ġcoward": 7154,
    "Ġmasonry": 13598,
    "henomenon": 13613,
    "Ġsadder": 24048,
    "Ġwrought": 11942,
    "Ġimpass": 15982,
    "Ġregardless": 19323,
    "Ġbos": 4875,
    "Ġsymmetry": 20362,
    "Ġvalidation": 2360,
    "Ġdiscomposure": 20375,
    "21": 10071,
    "Ġwee": 21915,
    "cordiality": 25137,
    "lop": 20947,
    "Ġharpooneer": 3770,
    "Ġdepressed": 10882,
    "Ġenveloping": 19731,
    "Ġj": 533,
    "Ġprejudice": 9075,
    "Ġcordage": 19675,
    "rin": 10121,
    "ledge": 1329,
    "Ġhun": 1498,
    "Ĳ": 243,
    "Ġappals": 22216,
    "alog": 8804,
    "opolising": 25676,
    "northern": 23662,
    "ics": 3255,
    "Ġgardener": 19134,
    "Ġsho": 2247,
    "Ġprognostics": 20556,
    "widows": 25344,
    "Ġswimming": 5507,
    "talk": 6656,
    "Ġtattered": 21169,
    "Ġdiscrimin": 2548,
    "Ġrush": 5925,
    "suggested": 17297,
    "year": 11095,
    "Ġshrubbery": 18232,
    "Ġcircumspect": 15084,
    "Ġproposition": 23249,
    "Ġhereabouts": 12975,
    "Ġintim": 6838,
    "Ġdespaired": 14669,
    "Ġteneriffe": 26414,
    "fright": 9595,
    "Ġdeparted": 5563,
    "Ġcaresses": 26059,
    "Ġtone": 4038,
    "affairs": 14657,
    "Ġreckoned": 24743,
    "Ġingen": 9049,
    "Ġbethink": 12377,
    "hes": 1400,
    "arpening": 21439,
    "fifth": 20143,
    "Ġhumour": 7930,
    "Ġimpressions": 9551,
    "Ġenter": 4029,
    "Ġfoster": 18989,
    "Ġclass": 791,
    "familiar": 19779,
    "conjecture": 15122,
    "Ġtun": 5998,
    "Ġwillingness": 24910,
    "recl": 15509,
    "Ġshortness": 23479,
    "Ġquitted": 5311,
    "¬": 110,
    "save": 13784,
    "aneous": 7239,
    "onym": 14650,
    "Ġarom": 15491,
    "orified": 21398,
    "liter": 11502,
    "Ġrobes": 16230,
    "Ġfangs": 12594,
    "é": 170,
    "Ġholding": 4979,
    "around": 12605,
    "Ġwrig": 13065,
    "Ġrevolution": 3303,
    "worshipping": 16608,
    "Ġelimin": 16104,
    "Ġcontinually": 5042,
    "Ġweights": 896,
    "mayhew": 23989,
    "tallied": 21087,
    "Ġkl": 2735,
    "Ġextend": 18685,
    "Ġentertaining": 16926,
    "allies": 14166,
    "Ġillinois": 19136,
    "varied": 23183,
    "ried": 923,
    "Ġpleated": 16294,
    "skill": 24487,
    "breaths": 25336,
    "Ġfollow": 1398,
    "jer": 12478,
    "ishes": 6522,
    "omely": 21634,
    "free": 8735,
    "accessible": 13638,
    "Ġperman": 10965,
    "ibles": 18784,
    "fitted": 17543,
    "resentment": 15185,
    "ular": 709,
    "Ġgasp": 7171,
    "asing": 5912,
    "longing": 23724,
    "Ġzigzag": 26273,
    "Ġshutting": 14759,
    "pronouncing": 25193,
    "Ġstaving": 21735,
    "Ġaffright": 9331,
    "Ġqueens": 16704,
    "Ġamerican": 5061,
    "hap": 17558,
    "sho": 6424,
    "Ġgreedy": 3051,
    "Ġrefined": 18708,
    "assure": 9268,
    "ories": 4753,
    "Ġauto": 23316,
    "Ġprotruded": 19468,
    "Ġmann": 18415,
    "soldiers": 25911,
    "Ġrepentance": 15160,
    "willing": 6592,
    "Ġengraved": 17080,
    "Ġreplaced": 13070,
    "spent": 12940,
    "Ġfeatureless": 22607,
    "ense": 2053,
    "Ġbewitching": 25976,
    "urable": 8924,
    "emph": 21922,
    "Ġrepent": 9862,
    "gno": 13726,
    "flask": 12097,
    "oqu": 7554,
    "ulnerable": 18150,
    "Ġcorruption": 15225,
    "Ġdemo": 10879,
    "Ġcaterpillar": 5864,
    "Ġbashful": 20416,
    "msprop": 2624,
    "harpooned": 24286,
    "fi": 12459,
    "ermaid": 14298,
    "Ġsqueezed": 20032,
    "Ġfiles": 21409,
    "÷": 184,
    "Ġelij": 8908,
    "Ġcall": 2075,
    "dies": 15337,
    "Ġtossed": 5815,
    "Ġwrong": 4724,
    "Ġhelplessness": 25071,
    "complained": 25838,
    "food": 12461,
    "ulate": 5233,
    "Ġpewter": 17184,
    "Ġhemis": 21679,
    ";âĢĶ": 3748,
    "Ġspar": 10921,
    "Ġwretch": 6377,
    "wonted": 13492,
    "Ġiii": 7859,
    "Ġsolemn": 4098,
    "Ġstupidity": 15051,
    "Ġaugmentation": 20112,
    "pon": 17624,
    "Ġexample": 5096,
    "Ġtheoretically": 3563,
    "Ġpalm": 10513,
    "Ġintensified": 17017,
    "younger": 11313,
    "Ġdrowsiness": 26445,
    "Ġpsal": 15613,
    "Ġparting": 9782,
    "Ġintervals": 5598,
    "Ġalleged": 17289,
    "etch": 9204,
    "Ġus": 497,
    "got": 6955,
    "Ġlaud": 17967,
    "ĠĠĠĠĠĠĠĠĠĠĠĠĠĠĠĠĠĠĠĠĠĠĠĠĠĠĠĠĠĠĠĠĠĠĠĠ": 23661,
    "Ġwalton": 14971,
    "84": 15300,
    "itals": 17820,
    "Ġcasket": 19721,
    "dispositions": 25011,
    "Ġstripped": 10465,
    "Ġjuly": 17235,
    "Ġindia": 10370,
    "Ġflashes": 11916,
    "ģ": 228,
    "Ġdifficulties": 11226,
    "Ġjabbering": 22299,
    "Ġprevail": 13441,
    "ties": 2758,
    "itaries": 21333,
    "described": 18894,
    "Ġrazor": 22648,
    "context": 3402,
    "Ġscaling": 3628,
    "Ġshorter": 4499,
    "Ġturbulence": 26598,
    "Ġruin": 6056,
    "Ġpenalizing": 13087,
    "Ġmalicious": 10557,
    "companies": 24894,
    "Ġsteeply": 23721,
    "Ġsomnam": 23004,
    "Ġger": 21586,
    "Ġframe": 1933,
    "Ġdash": 8120,
    "execution": 20468,
    "humiliation": 24018,
    "Ġstill": 1160,
    "iah": 14415,
    "Ġug": 8139,
    "Ġarose": 7359,
    "Ġsuddenly": 2644,
    "Ġlocal": 1201,
    "Ġshoal": 12014,
    "Ġsched": 2341,
    "Ġhospitality": 13512,
    "compl": 6873,
    "Ġoutset": 15952,
    "pict": 8384,
    "Ġbustle": 17226,
    "Ġappeased": 23195,
    "broke": 14776,
    "presented": 12987,
    "Ġmenaces": 23105,
    "Ġamuse": 5939,
    "Ġanchors": 12610,
    "Ġcrew": 2499,
    "roll": 9196,
    "solution": 14687,
    "Ġforgiven": 24024,
    "Ġwits": 15530,
    "Ġhosmer": 6774,
    "Ġfitting": 21404,
    "Ġcabinet": 23858,
    "Ġconfidently": 24955,
    "rings": 10722,
    "Ġworsh": 12997,
    "postp": 24635,
    "Ġmidday": 23630,
    "agreeable": 5829,
    "Ġbeggar": 9348,
    "limping": 26393,
    "salesman": 20669,
    "lemagne": 26436,
    "Ġmitt": 21305,
    "named": 9889,
    "future": 13716,
    "philosophy": 13579,
    "Ġencounter": 6627,
    "Ġsenior": 17170,
    "Ġchin": 4891,
    "igate": 8822,
    "Ġostentatiously": 20465,
    "irms": 18168,
    "Ġextracting": 11108,
    "speed": 19409,
    "expanded": 23660,
    "province": 26072,
    "Ġcran": 11999,
    "blog": 19835,
    "Ġproclaim": 18131,
    "Ġinst": 910,
    "sprinkling": 24912,
    "Ġsubsequent": 7657,
    "scor": 13017,
    "Ġhier": 1896,
    "Ġjumped": 7095,
    "hoisting": 23714,
    "Ġaband": 6560,
    "attacked": 23119,
    "Ġeddying": 16437,
    "Ġhill": 5626,
    "deduction": 23555,
    "Ġsignature": 16491,
    "homely": 25617,
    "Ġsoot": 14132,
    "aimed": 3951,
    "lab": 3454,
    "idy": 21759,
    "Ġpresuming": 16792,
    "Ġfist": 21400,
    "owner": 18610,
    "conjectured": 25181,
    "_âĢĶ": 11468,
    "intelligent": 16843,
    "Ġcannibal": 7772,
    "uding": 16147,
    "Ġyet": 1027,
    "neighbourhood": 10024,
    "Ġshape": 5639,
    "ateful": 5927,
    "Ġcheating": 16369,
    "Ġencaps": 12959,
    "Ġalas": 5922,
    "Ġcontains": 2793,
    "most": 1256,
    "Ġreserve": 9970,
    "Åĵuvre": 25887,
    "necess": 4896,
    "Ġafraid": 3527,
    "Ġsplintered": 11419,
    "Ġhated": 7583,
    "Ġaspired": 25984,
    "Ġblasp": 14401,
    "Ġduring": 871,
    "vine": 10734,
    "Ġbeliever": 25845,
    "urpation": 16298,
    "have": 2059,
    "Ġsearched": 15814,
    "Ġdetached": 10279,
    "Ą": 197,
    "Ġmagical": 23097,
    "Ġglit": 8557,
    "Ġthin": 4348,
    "Ġrecurrent": 1803,
    "slipping": 25528,
    "Ġaston": 3700,
    "avoid": 9304,
    "Ġexpert": 18859,
    "quadr": 15761,
    "Ġaright": 11739,
    "Ġvancou": 22872,
    "tails": 21084,
    "Ġmediocr": 24082,
    "Ġwhole": 1664,
    "Ġlatent": 19652,
    "omitted": 18016,
    "Ġrepugnance": 19085,
    "tre": 8760,
    "Ġfresher": 23209,
    "elop": 1492,
    "Ġhumanity": 6731,
    "Ġallowing": 2174,
    "notches": 22747,
    "worn": 13805,
    "Ġweave": 21917,
    "footsteps": 25199,
    "Ġbreathed": 11221,
    "sticks": 25965,
    "Ġpassions": 7928,
    "Ġadrift": 11721,
    "whereby": 23415,
    "Ġarabian": 9089,
    "Ġkeels": 11061,
    "inkers": 22614,
    "Ġdismember": 20212,
    "Ġconstant": 6308,
    "anous": 21355,
    "relig": 15511,
    "Ġacceded": 22374,
    "Ġthread": 14540,
    "Ġdaylight": 10350,
    "Ġcontemplative": 19890,
    "Ġfaculties": 14957,
    "Ġfruitless": 25605,
    "island": 10794,
    "Ġsharp": 2416,
    "blazing": 24131,
    "Ġinvolves": 1091,
    "Ġreconciliation": 25292,
    "downstairs": 23916,
    "cary": 10689,
    "Ġloathed": 15873,
    "Ġbubble": 13534,
    "Ġpeace": 3691,
    "Ġhardship": 18912,
    "Ġirons": 7694,
    "formation": 22211,
    "Ġbrimstone": 25686,
    "ser": 1427,
    "Ġcold": 3031,
    "Ġinterested": 6457,
    "ir": 379,
    "hideous": 25407,
    "earnestly": 17311,
    "Ġcivilized": 8664,
    "keeper": 5597,
    "Ġchooses": 13345,
    "oysius": 14366,
    "swinging": 25912,
    "Ġdamned": 13131,
    "yea": 23085,
    "Ġdissolved": 18552,
    "temper": 10003,
    "Ġpres": 9731,
    "Ġsympathising": 24297,
    "Ġsoften": 23121,
    "freighted": 14892,
    "ately": 1676,
    "getic": 12963,
    "Ġtwitched": 20440,
    "fish": 3512,
    "Ġpsych": 10176,
    "Ġfuller": 11156,
    "Ġcorroboration": 26052,
    "Ġrebounds": 25967,
    "Ġpurring": 23473,
    "Ġopposing": 12039,
    "Ġstatue": 23148,
    "ampton": 18145,
    "ķ": 248,
    "Ġcedars": 20289,
    "barbaric": 26358,
    "Ġaccorded": 24088,
    "consciously": 19622,
    "Ġsat": 1129,
    "Ġunallied": 22027,
    "vapor": 25755,
    "Ġbuffaloes": 25217,
    "isen": 10792,
    "clothes": 9057,
    "Ġgul": 7858,
    "rem": 1523,
    "Ġpolic": 13160,
    "Ġshrieked": 9546,
    "unpardonable": 21886,
    "ware": 3934,
    "stays": 15686,
    "Ġchaps": 14180,
    "jack": 7343,
    "100": 11465,
    "perceived": 8858,
    "supernatural": 19775,
    "irectly": 6940,
    "Ġcatching": 9476,
    "Ġdissatisfied": 14257,
    "Ġhouses": 6138,
    "Ġputs": 19030,
    "Ġunspeakably": 25172,
    "moored": 22701,
    "Ġdogs": 7740,
    "Ġchast": 18379,
    "Ġdifferently": 10388,
    "Ġsimpl": 1582,
    "gentleness": 24844,
    "Ġpaling": 21458,
    "Ġdetain": 14177,
    "rubbed": 22210,
    "lleg": 20950,
    "prison": 14663,
    "Ġ10": 5249,
    "Ġtowers": 16736,
    "Ġiceland": 15146,
    "Ġsort": 1510,
    "keep": 3848,
    "Ġprocedural": 12029,
    "xology": 21139,
    "directed": 20401,
    "coll": 23777,
    "Ġrays": 10330,
    "vult": 21111,
    "Ġbreaches": 14522,
    "Ġmead": 8835,
    "Ġpiece": 5367,
    "Ġwithout": 1120,
    "tenham": 16319,
    "fugitive": 26132,
    "type": 16173,
    "Ġtranced": 18417,
    "Ġutterance": 14763,
    "Ġterrible": 5327,
    "fatal": 17087,
    "Ġsecondary": 23334,
    "Ġinner": 9670,
    "Ġbriony": 9328,
    "Ġvisitors": 7983,
    "Ġbasics": 13447,
    "Ġoffer": 4843,
    "Ġadagrad": 2902,
    "Ġanswering": 7476,
    "umed": 6553,
    "Ġlaboratory": 13611,
    "Ġ52": 24321,
    "ocr": 10468,
    "Ġdivin": 13272,
    "Ġshield": 21995,
    "anxiously": 15110,
    "examined": 17265,
    "Ġimpregn": 26022,
    "resc": 21236,
    "eray": 21264,
    "C": 39,
    "Ġinexplicable": 12254,
    "Ġeverywhere": 9795,
    "._": 3219,
    "grinder": 23412,
    "angle": 22099,
    "Ġwill": 677,
    "Ġprospects": 9958,
    "Ġmicha": 17811,
    "ĠĠĠĠĠĠĠĠĠĠĠĠĠĠĠĠĠĠĠĠĠĠĠĠĠĠĠĠĠĠĠĠĠĠĠĠĠĠĠĠĠĠĠĠĠĠ": 9952,
    "Ġ66": 24369,
    "Ġspouter": 12795,
    "Ġplainpalais": 20735,
    "Ġpreluding": 18367,
    "beware": 16036,
    "hatch": 15363,
    "solic": 16377,
    "Ġmeridians": 17354,
    "Ġgentle": 1892,
    "tic": 8389,
    "daring": 20827,
    "theless": 4261,
    "Ġunhe": 22006,
    "Ġherd": 7886,
    "Ġpoem": 22585,
    "necessarily": 19628,
    "Ġcomple": 2838,
    "Ġhatter": 4110,
    "provid": 11149,
    "Ġsple": 21213,
    "Ġroots": 11186,
    "Ġunrel": 14696,
    "ri": 391,
    "Ġcapric": 14576,
    "mindful": 19596,
    "Ġshared": 10263,
    "ĳ": 244,
    "indifference": 15979,
    "Ġhundreds": 4328,
    "Ġmaker": 15540,
    "Ġabaft": 22280,
    "Ġgrievous": 13259,
    "Ġhundred": 2693,
    "child": 5538,
    "Ġsport": 6688,
    "jet": 13741,
    "tstone": 21082,
    "deprived": 19895,
    "ry": 809,
    "Ġfind": 1459,
    "Ġbaboon": 19690,
    "Ġhinting": 19646,
    "Ġsigning": 22705,
    "vy": 21105,
    "queness": 18147,
    "ke": 429,
    "Ġdelicately": 24125,
    "peculiar": 6886,
    "Ġhurt": 7699,
    "Ġsnoo": 21226,
    "Ġpassengers": 13674,
    "Ġabund": 8865,
    "fixed": 7547,
    "counterpart": 26359,
    "veral": 2357,
    "consequential": 26250,
    "Ġfluffy": 19362,
    "Ġ3": 3984,
    "Ġbremen": 23342,
    "sych": 9888,
    "ittered": 18438,
    "gorith": 552,
    "other": 1314,
    "properly": 24918,
    "Ġindignant": 12237,
    "Ġbengal": 18781,
    "thro": 12758,
    "Ġdames": 23471,
    "Ġhauling": 14086,
    "Ġbenefited": 19396,
    "Ġbegrimed": 26579,
    "brain": 13686,
    "Ġtoll": 7850,
    "anks": 3916,
    "Ġrascally": 26506,
    "torture": 26152,
    "Ġrelent": 18773,
    "putation": 7623,
    "Ġshows": 8481,
    "Ġsketches": 26271,
    "Ġdeserts": 10507,
    "Ġphilosoph": 19648,
    "Ġnodded": 11968,
    "Ġprodigy": 19788,
    "nailed": 20995,
    "Ġinterlude": 16069,
    "Ġadjusts": 8980,
    "ander": 6400,
    "condem": 16341,
    "Ġfallen": 5967,
    "Ġclimax": 25051,
    "uber": 15444,
    "Ġslavery": 16304,
    "entered": 8814,
    "Ġarrowy": 25469,
    "Ġassistance": 6332,
    "Ġsolic": 7931,
    "Ġsquared": 1386,
    "Ġvirtual": 11241,
    "Ġdiscussed": 19556,
    "nez": 22457,
    "phere": 21018,
    "deser": 10402,
    "Ġreco": 9790,
    "ering": 1267,
    "Ġstern": 4221,
    "mary": 8748,
    "individual": 18434,
    "charge": 9447,
    "Ġlongitude": 11011,
    "Ġdiverged": 23592,
    "income": 15485,
    "Ġwrench": 12554,
    "Ġawkward": 7072,
    "Ġdial": 10810,
    "Ġroyal": 5602,
    "ivility": 12780,
    "Ġhealth": 3902,
    "Ġdisp": 3356,
    "ruction": 4358,
    "for": 960,
    "remained": 8568,
    "Ġbanker": 8666,
    "Ġbitten": 21386,
    "Ġsplend": 9897,
    "Ġbeach": 6540,
    "grin": 19104,
    "mpus": 13756,
    "clings": 23151,
    "Ġcensus": 15096,
    "waiting": 12218,
    "yourself": 6742,
    "endeavour": 17030,
    "Ġhum": 1100,
    "ating": 664,
    "Ġaccumulating": 2722,
    "Ġsurp": 9634,
    "Ġshrine": 19530,
    "has": 4013,
    "Ġfreckled": 18959,
    "examination": 25478,
    "hearth": 15498,
    "Ġstim": 18066,
    "Ġescorted": 23503,
    "glass": 9908,
    "Ġwip": 13852,
    "Ġlargely": 14285,
    "Ġunanswerable": 26522,
    "Ġmotions": 8279,
    "Ġbeggars": 20627,
    "Ġsentry": 19023,
    "Ġ134": 24784,
    "remediable": 26295,
    "names": 16526,
    "Ġyields": 19653,
    "Ġaccommodate": 20514,
    "Ġlecture": 13566,
    "lur": 13746,
    "Ġsquall": 7042,
    "dis": 2254,
    "paradise": 20635,
    "ø": 185,
    "deep": 1019,
    "Ġaverse": 11081,
    "Ġdaggoo": 5441,
    "bulwarks": 12270,
    "Ġfacil": 16960,
    "very": 500,
    "Ġpestilent": 25777,
    "aurus": 20558,
    "distinction": 19568,
    "Ġscotch": 12207,
    "stamp": 21649,
    "Ġsleek": 23381,
    "ilities": 6991,
    "eked": 16400,
    "inite": 6001,
    "itations": 17817,
    "clearer": 24066,
    "ld": 385,
    "untering": 15773,
    "Ġforbearance": 12326,
    "Ġnod": 1890,
    "nlp": 8750,
    "Ġnigh": 4878,
    "Ġregretted": 13399,
    "Ġwhatever": 3470,
    "zen": 5140,
    "Ġpuff": 6525,
    "Ġtheories": 13848,
    "1775": 26378,
    "Ġoverwrites": 5033,
    "bular": 15312,
    "roylott": 20023,
    "Ġbount": 15565,
    "topp": 22561,
    "Ġsocket": 12786,
    "Ġremoved": 5274,
    "saved": 15430,
    "ĠĠĠĠĠĠĠĠĠĠĠĠĠĠĠĠĠĠĠĠĠĠĠĠĠĠĠĠĠĠĠ": 19697,
    "Ġwar": 5526,
    "whether": 5319,
    "Ġgrand": 3590,
    "Ġoriental": 9096,
    "Ġfavour": 3639,
    "longbourn": 9895,
    "Ġadoption": 24948,
    "ihood": 20921,
    "dragged": 16606,
    "Ġalarmed": 6923,
    "rog": 15637,
    "tub": 9143,
    "Ġtermination": 16459,
    "Ġamerica": 6763,
    "Ġclank": 15965,
    "resting": 23234,
    "Ġgratifying": 13304,
    "Ġspoilt": 24807,
    "Ġyoke": 18095,
    "sockets": 22729,
    "Ġbull": 7838,
    "Ġtapers": 11552,
    "thee": 9689,
    "ensive": 6279,
    "Ġsturgeon": 20589,
    "Ġheadsmen": 14732,
    "Ġsocieties": 20179,
    "cont": 2921,
    "encountered": 20389,
    "Ġjapan": 7638,
    "shaped": 10308,
    "Ġcommotion": 9779,
    "pron": 9005,
    "Ġrising": 4356,
    "confusion": 13368,
    "Ġcontracting": 16008,
    "Ġ1869": 19382,
    "Ġsteadfast": 8678,
    "Ġprogressive": 5024,
    "Ġcoloured": 11045,
    "Ġtr": 548,
    "conjecturing": 20131,
    "sicilian": 21062,
    "Ġcommod": 10333,
    "71": 20754,
    "Ġbloodshot": 23797,
    "Ġescaping": 13134,
    "Ġstiffly": 15006,
    "Ġnurtured": 19746,
    "X": 60,
    "rals": 21041,
    "Ġdistributed": 18660,
    "Ġjerked": 19829,
    "Ġvulgarity": 25363,
    "repairing": 24495,
    "Ġamaz": 5385,
    "Ġflatter": 9347,
    "Ġavoided": 13257,
    "Ġunfathomable": 20546,
    "Ġdramatic": 4850,
    "Ġjustification": 22963,
    "Ġadmitted": 8986,
    "gallery": 24692,
    "Ġyoung": 1509,
    "Ġlevel": 5020,
    "Ġfeasible": 22201,
    "Ġdiscover": 4718,
    "Ġinvented": 17036,
    "steering": 16633,
    "iteness": 4392,
    "Ġpir": 6818,
    "reement": 15510,
    "Ġinstigated": 18697,
    "Ġbene": 2033,
    "Ġexamples": 2603,
    "Ġwhistled": 24620,
    "stuff": 15685,
    "Ġshipwreck": 20442,
    "Ġzer": 1097,
    "Ġarrayed": 25664,
    "Ġgovernor": 16488,
    "Ġcat": 2122,
    "Ġfootmarks": 19336,
    "Ġfrench": 4939,
    "Ġphiladel": 23882,
    "pennies": 26286,
    "cat": 15323,
    "ë": 172,
    "Ġalso": 1344,
    "Ġundoubted": 19513,
    "Ġorgan": 2506,
    "Ġlabyrin": 13103,
    "that": 849,
    "Ġshelf": 12265,
    "Ġparamet": 609,
    "complain": 14358,
    "Ġoutlandish": 12835,
    "Ġmalay": 24391,
    "Ġunmethodically": 22066,
    "deeply": 16176,
    "Ġcubs": 20083,
    "Ġperils": 6273,
    "erated": 21269,
    "Ġwake": 4749,
    "Ġsucceeded": 6106,
    "Ġdefy": 11896,
    "Ġimprisonment": 22383,
    "Ġlegible": 23530,
    "unted": 6998,
    "Ġcleanse": 24527,
    "Ġreasoner": 14438,
    "flu": 9117,
    "Ġmaintainable": 12932,
    "Ġbaw": 15566,
    "Ġtransformed": 22608,
    "Ġpines": 12614,
    "aciously": 12904,
    "Ġsolar": 22882,
    "Ġhears": 8137,
    "Ġbohemian": 17132,
    "Ġirksome": 13110,
    "Ġinclination": 6623,
    "lucifer": 25302,
    "Ġsoft": 1460,
    "caught": 8726,
    "writes": 4988,
    "assured": 10952,
    "cheon": 23801,
    "Ġaskance": 23149,
    "Ġfin": 1461,
    "Ġrecomm": 4996,
    "Ġmarlingspike": 26580,
    "securer": 25602,
    "ines": 665,
    "Ġbale": 7837,
    "Ġthrown": 4640,
    "piece": 6655,
    "Ġpained": 19166,
    "Ġcrimson": 16434,
    "ull": 1432,
    "Ġpasses": 2679,
    "Ġskul": 22792,
    "Ġdexter": 9700,
    "opposition": 24823,
    "igations": 18043,
    "namely": 23672,
    "Ġmoderate": 10938,
    "Ġincarnate": 20371,
    "Ġjump": 4504,
    "Ġavalanche": 17431,
    "Ġgodfre": 14530,
    "Ġdeputation": 21834,
    "Ġoars": 3896,
    "Ġrashness": 25460,
    "greeting": 24554,
    "bench": 16802,
    "reme": 2427,
    "dial": 20823,
    "Ġcases": 3961,
    "lose": 12879,
    "sterns": 23365,
    "Ġsurvivor": 17361,
    "Ġspinning": 15053,
    "Ġsolicited": 20033,
    "Ġconceited": 12088,
    "Ġmusty": 22676,
    "Ġfrantic": 7955,
    "Ġpunctilious": 26352,
    "jour": 20926,
    "Ġcabman": 14606,
    "Ġrates": 1406,
    "Ġcaptured": 7244,
    "Ġlikewise": 5386,
    "ront": 15417,
    "Ġlost": 2634,
    "Ġburning": 5976,
    "Ġvel": 7185,
    "Ġan": 286,
    "Ġadmeasurements": 26226,
    "destined": 24114,
    "Ġflamingo": 15100,
    "difference": 13707,
    "osition": 1379,
    "Ġstalls": 25647,
    "Ġcolon": 18763,
    "iron": 3584,
    "Ġbrain": 2090,
    "Ġhanding": 16127,
    "Ġweighted": 2092,
    "Ġsuccessive": 10500,
    "ron": 5216,
    "Ġreckoning": 14978,
    "wers": 12517,
    "Ġpairs": 4180,
    "ralian": 19597,
    "Ġglacier": 11434,
    "Ġreplay": 5047,
    "Ġdesert": 6727,
    "seventy": 10876,
    "supervised": 1900,
    "ev": 6952,
    "perquisites": 26531,
    "amouch": 21846,
    "riot": 18185,
    "lantern": 17426,
    "ired": 1445,
    "Ġwinds": 5746,
    "Ġbay": 9168,
    "Ġsheeted": 19828,
    "presbyter": 20615,
    "Ġbrotherhood": 23665,
    "Ġimmaculate": 19484,
    "Ġnaturalists": 10362,
    "Ġ31": 12128,
    "amongst": 24673,
    "itled": 7576,
    "anthrop": 17380,
    "hands": 5966,
    "Ġfinite": 2329,
    "Ġmight": 962,
    "Ġcrockery": 24301,
    "nin": 17607,
    "Ġtough": 13814,
    "dislike": 23491,
    "ulgent": 18149,
    "Ġadmirably": 16479,
    "Ġchaff": 18382,
    "Ġdevils": 7229,
    "cing": 1011,
    "Ġnapkins": 25161,
    "chest": 11209,
    "Ġcruising": 6913,
    "Ġcombing": 22843,
    "Ġoffended": 7039,
    "Ġdepl": 14043,
    "udding": 11864,
    "Ġshark": 5550,
    "Ġcoiling": 12902,
    "urred": 8448,
    "Ġreward": 6144,
    "Ġshillings": 15833,
    "Ġbilliard": 16687,
    "Ġrapt": 7225,
    "att": 1458,
    "wail": 21123,
    "rote": 4593,
    "papers": 12499,
    "pattern": 4431,
    "Ġvariety": 8529,
    "everything": 6323,
    "ce": 313,
    "Ġpulse": 13113,
    "Ġirritation": 20263,
    "Ĩ": 233,
    "bree": 15313,
    "Ġcultivation": 17144,
    "89": 20757,
    "rusion": 11324,
    "Ġverbal": 19377,
    "Ġwre": 5077,
    "Ġsouthwards": 19630,
    "cating": 20800,
    "Ġproceeding": 9905,
    "Ġforwarded": 19044,
    "Ġhomeless": 23384,
    "anguish": 15980,
    "organ": 15571,
    "Ġknew": 2056,
    "Ġoriginate": 24121,
    "Ġpositive": 2303,
    "Ġpersonality": 16475,
    "Ġbathe": 25443,
    "Ġinterior": 8894,
    "Ġseethings": 26503,
    "Ġrapidity": 11099,
    "Ġpendulous": 25955,
    "chery": 24551,
    "bel": 3832,
    "anely": 17836,
    "Ġderiv": 1735,
    "Ġcreat": 1409,
    "wing": 2522,
    "Ġmaiden": 13385,
    "tone": 8762,
    "Ġthackeray": 26455,
    "weigh": 18664,
    "orne": 17872,
    "aching": 5831,
    "sacrifice": 13491,
    "interests": 19705,
    "Ġchair": 3660,
    "Ġsurvivors": 25732,
    "Ġlips": 3991,
    "Ġconsoled": 18112,
    "itable": 5437,
    "Ġoak": 6129,
    "----": 4057,
    "gather": 20874,
    "ploy": 2146,
    "Ġperpendicular": 7208,
    "olets": 21007,
    "Ġagile": 22509,
    "somers": 19366,
    "Ġderbyshire": 6586,
    "rief": 6202,
    "Ġraging": 14305,
    "ingle": 1037,
    "icult": 3339,
    "Ġpointing": 5661,
    "oriental": 23718,
    "Ġsolved": 8931,
    "Ġstall": 12694,
    "iable": 3332,
    "Ġundulates": 24118,
    "Ġembraced": 10005,
    "Ġcoleman": 22583,
    "Ġdante": 21434,
    "aset": 10832,
    "Ġcaprice": 14577,
    "comprehens": 16171,
    "Ġunbecoming": 22059,
    "Ġcontact": 9280,
    "opened": 7911,
    "Ġnoisier": 4625,
    "desirable": 23207,
    "ê": 171,
    "prepar": 22462,
    "Ġapplying": 13090,
    "Ġthereby": 7642,
    "ul": 371,
    "Ġguarded": 9825,
    "Ġnick": 21518,
    "somebody": 14565,
    "Ġ64": 24367,
    "Ġeve": 13969,
    "Ġincom": 9768,
    "sulphur": 25909,
    "Ġacceler": 1611,
    "ela": 21564,
    "Ġebb": 21617,
    "Ġgladly": 14682,
    "Ġbanqu": 12585,
    "out": 467,
    "arter": 17893,
    "outon": 12800,
    "Ġdeclaration": 16634,
    "thorough": 21981,
    "Ġfits": 8790,
    "Ð": 145,
    "Ġindul": 5856,
    "Ġremarkably": 7701,
    "Ġpray": 3898,
    "Ġminima": 3461,
    "attery": 18505,
    "rior": 12739,
    "Ġcrush": 9420,
    "Ġlashings": 25097,
    "Ġexasperated": 11413,
    "anth": 13886,
    "Ġspecimens": 18856,
    "Ġbitt": 10796,
    "Ġawful": 6199,
    "Ġtiresome": 26157,
    "Ġeavesdroppers": 25963,
    "ceed": 1074,
    "pious": 17632,
    "ernally": 22615,
    "deadly": 17099,
    "previously": 17206,
    "Ġlif": 10195,
    "Ġunprepared": 22045,
    "Ġspain": 15878,
    "Ġrepublic": 14532,
    "allions": 22188,
    "Ġtransaction": 22435,
    "ource": 5244,
    "pemberley": 9620,
    "Ġclouded": 13289,
    "Ġsympathise": 16793,
    "rib": 1947,
    "Ġprofession": 6207,
    "Ġremote": 8919,
    "circumspect": 26086,
    "Ġhorribly": 16340,
    "Ġbade": 9171,
    "poison": 14392,
    "Ġsteeple": 19286,
    "asked": 8911,
    "getting": 12964,
    "particular": 5757,
    "ogany": 18674,
    "Ġdownst": 3556,
    "Ġdoom": 6416,
    "frightened": 17194,
    "ario": 14248,
    "simply": 20668,
    "Ġbusied": 19065,
    "charles": 14699,
    "landsmen": 25059,
    "Ġavailed": 23949,
    "Ġentertained": 9997,
    "apse": 14199,
    "Ġdining": 6977,
    "barbs": 20234,
    "subs": 14299,
    "Ġhopes": 4233,
    "height": 21203,
    "carpet": 25202,
    "Ġherds": 9715,
    "Ġweakness": 9966,
    "ellect": 7380,
    "Ġcounsel": 13614,
    "Ġdock": 15927,
    "Ġtech": 1696,
    "ortal": 6265,
    "Ġlottery": 19885,
    "attacks": 23120,
    "top": 4486,
    "Ġbuilding": 8061,
    "ical": 754,
    "Ġsurprised": 3827,
    "Ġlain": 17961,
    "Ġferocity": 16865,
    "ozy": 17621,
    "Ġcoat": 4555,
    "Ġaltogether": 4831,
    "Ġbequeathed": 20699,
    "Ġunnecessary": 8851,
    "mm": 674,
    "d": 72,
    "hollow": 24037,
    "rab": 7595,
    "deacon": 22142,
    "Ĺ": 250,
    "disp": 7975,
    "Ġcharges": 23267,
    "ricted": 15419,
    "Ġdavis": 25952,
    "consider": 6347,
    "shadows": 25479,
    "Ġsurround": 4618,
    "Ġsolutions": 1948,
    "gentlemen": 9502,
    "glings": 23848,
    "thankful": 16805,
    "Ġanimate": 23420,
    "tube": 20407,
    "Ġlistened": 4470,
    "isters": 11919,
    "Ġdistress": 5844,
    "Ė": 215,
    "Ġplace": 1651,
    "cause": 7794,
    "ulged": 12727,
    "Ġguardians": 14943,
    "Ġerrone": 14430,
    "Ġattain": 12744,
    "Ġreturns": 11925,
    "Ġwails": 21294,
    "gi": 17550,
    "reel": 21231,
    "Ġcomprehension": 15086,
    "decl": 8856,
    "jewell": 25523,
    "Ġchristmas": 6924,
    "cri": 17504,
    "Ġcigaret": 16974,
    "Ġaccursed": 9443,
    "Ġhealthy": 10851,
    "lance": 12479,
    "jep": 20925,
    "Ġforgot": 4684,
    "holloa": 19462,
    "Ġhaught": 10252,
    "discernible": 20548,
    "Ġfour": 2217,
    "ibility": 2392,
    "Ġfuel": 13903,
    "inex": 14095,
    "Ġplane": 11822,
    "Ġponies": 21472,
    "Ġsupremacy": 20257,
    "ladder": 19780,
    "onstr": 12543,
    "living": 7132,
    "Ġtheory": 5798,
    "ality": 2515,
    "Ġpitching": 16609,
    "someone": 14564,
    "apprehension": 26115,
    "Ġ/*": 10139,
    "Ġalbino": 20499,
    "Ġstatistics": 1683,
    "Ġhandling": 8912,
    "istence": 2300,
    "arks": 2843,
    "Ġquivers": 22409,
    "Ġtwice": 4662,
    "eers": 20841,
    "Ġagencies": 18540,
    "Ġinserted": 8354,
    "ishing": 1144,
    "rict": 8091,
    "cated": 20801,
    "drunk": 24660,
    "Ġreplete": 15695,
    "Ġdriver": 16472,
    "owal": 13992,
    "Ġbeat": 4492,
    "Ġtrain": 515,
    "farintosh": 24553,
    "Ġdeal": 3605,
    "Ġsufferer": 16256,
    "velope": 17700,
    "adow": 18087,
    "cork": 20794,
    "Ġpeople": 2546,
    "Ġapprehensiveness": 16876,
    "Ġprop": 1682,
    "Ġelement": 6898,
    "Ġaxe": 15062,
    "rippling": 24713,
    "bred": 11470,
    "Ġsequential": 2133,
    "Ġagreed": 7028,
    "isbury": 21373,
    "Ġqueerest": 16412,
    "Ġactivations": 2720,
    "oubled": 23643,
    "Ġgeorge": 3746,
    "cur": 3268,
    "Ġreside": 22535,
    "ances": 1337,
    "Ġheaths": 25972,
    "Ġvial": 10248,
    "Ġsymptoms": 8704,
    "unhes": 21870,
    "Ġstr": 752,
    "Ġfurnishing": 16643,
    "remes": 21235,
    "fed": 11488,
    "Ġsubstit": 19539,
    "Ġcarbuncle": 14445,
    "Ġhire": 21480,
    "Ġinitials": 11014,
    "lion": 20943,
    "hold": 3981,
    "eskye": 21446,
    "nx": 17606,
    "Ġexception": 11217,
    "Ġcocoanuts": 26362,
    "Ġcrutch": 23440,
    "oon": 6363,
    "Ġreciproc": 20619,
    "Ġmccarthys": 19659,
    "Ġciv": 3306,
    "Ġloitered": 26526,
    "Ġhugest": 17014,
    "Ġhumaneval": 25582,
    "Ġsqualidness": 25842,
    "Ġintensely": 17016,
    "securing": 19810,
    "Ġfervently": 25877,
    "abouts": 9451,
    "ineffectual": 26507,
    "Ġquicker": 16505,
    "engagements": 25853,
    "ask": 855,
    "Ġcheever": 23286,
    "Ġsoapstone": 20508,
    "Ġevaluate": 2896,
    "injured": 15132,
    "Ġmisty": 16538,
    "ounded": 9747,
    "Ġcategories": 4478,
    "convalescence": 24884,
    "Ġproportional": 2528,
    "Ġaudacious": 13459,
    "Ġdecisive": 18490,
    "neighbours": 24881,
    "chase": 11645,
    "Ġingratitude": 17467,
    "plague": 21955,
    "Ġrule": 1535,
    "ativeness": 15519,
    "Ġlunch": 13525,
    "Ġinfants": 16364,
    "Ġoptimize": 1634,
    "semic": 21816,
    "Ġresolution": 5500,
    "Ġwig": 9161,
    "image": 9685,
    "Ġrelinqu": 12980,
    "Ġresidual": 1680,
    "aging": 2241,
    "aped": 3763,
    "Ġprofessed": 14724,
    "smoke": 17221,
    "Ġchancery": 20714,
    "Ġdiscrimination": 23603,
    "Ġbeds": 14552,
    "Ġrevelations": 25223,
    "Ġdejection": 15196,
    "orum": 12587,
    "ishments": 9272,
    "servants": 15038,
    "Ġmuslin": 19381,
    "Ġflurry": 18860,
    "Ġbeauty": 3768,
    "sur": 4524,
    "Ġice": 3601,
    "Ġext": 889,
    "Ġbus": 1906,
    "Ġgo": 613,
    "Ġclump": 15966,
    "Ġrelieve": 8222,
    "Ġchanced": 8185,
    "Ġelixir": 26556,
    "Ġbuttoned": 25368,
    "Ġpupella": 20418,
    "Ġdictated": 25218,
    "Ġdeficient": 18823,
    "ared": 771,
    "Ġsecretly": 13270,
    "Ġtrampling": 25492,
    "Ġpike": 12620,
    "osis": 18388,
    "who": 2448,
    "Ġapproximate": 2346,
    "Ġnose": 4402,
    "Ġsummarization": 3644,
    "quely": 10231,
    "Ġintelligence": 565,
    "Ġcomprise": 18582,
    "Ġsober": 10911,
    "Ġhonors": 23599,
    "umps": 6316,
    "¾": 127,
    "Ġmapple": 11150,
    "Ġund": 4117,
    "Ġnightmare": 18918,
    "Ġannoyance": 20660,
    "omet": 3073,
    "Ġmusky": 19380,
    "claimed": 9835,
    "belated": 24034,
    "tubes": 25211,
    "Ġsings": 15504,
    "Ġsubstantiated": 25875,
    "Ġshivered": 14107,
    "old": 802,
    "Ġobliquely": 12360,
    "obvious": 9356,
    "Ġbearded": 15724,
    "arms": 10173,
    "Ġungovernable": 20707,
    "Ġfathom": 17047,
    "twinkle": 23701,
    "rable": 11632,
    "ouching": 13176,
    "Ġvivid": 8056,
    "oam": 8751,
    "sent": 760,
    "Ġency": 21929,
    "Ġabruptness": 25300,
    "represent": 9637,
    "Ġspam": 7629,
    "awn": 3831,
    "tical": 10128,
    "Ġpaws": 13920,
    "Ġveneration": 25044,
    "Ġaccosted": 13671,
    "Ġpatience": 2664,
    "ence": 393,
    "Ġaver": 1286,
    "final": 19673,
    "'s": 2471,
    "Ġguitar": 16265,
    "Ġpropensity": 18995,
    "Ġrachel": 11844,
    "Ġmeanest": 12907,
    "Ġsulk": 15046,
    "Ġreasoning": 2022,
    "Ġtou": 15465,
    "Ġmother": 2068,
    "seeing": 7077,
    "Ġnot": 411,
    "Ġtamer": 24976,
    "Ġrenowned": 26194,
    "effect": 8603,
    "tomorrow": 25914,
    "pul": 8753,
    "running": 6797,
    "Ġassertions": 19943,
    "Ġhesitating": 16946,
    "Ġcarving": 14443,
    "Ġramsgate": 18644,
    "Ġsled": 21216,
    "Ġ94": 17716,
    "Ġback": 827,
    "Ġunav": 18240,
    "ren": 550,
    "$": 8,
    "Ġrede": 13983,
    "actor": 11836,
    "acy": 3954,
    "Ġkne": 4267,
    "snow": 10724,
    "Ġstile": 21730,
    "Ġroused": 7621,
    "tures": 21068,
    "Ġmontan": 22980,
    "Ġgust": 21592,
    "otently": 21795,
    "Ġintegrity": 12311,
    "Ġmemo": 18119,
    "iant": 5427,
    "Ġdedication": 3327,
    "Ġanteced": 26178,
    "Ġalthough": 4149,
    "iance": 5279,
    "Ġgang": 9207,
    "Ġemb": 1264,
    "Ġprick": 14477,
    "Ġ118": 19695,
    "Ġobserver": 11987,
    "ĝ": 222,
    "Ġaverages": 2401,
    "ruded": 15912,
    "unw": 14056,
    "Ġluckily": 16797,
    "Ġconfound": 23303,
    "Ġfasting": 16353,
    "chor": 6146,
    "Ġimminent": 11246,
    "Ġsuperseded": 26224,
    "asses": 7016,
    "science": 11908,
    "any": 3336,
    "Ġgoal": 10301,
    "Ġdelivered": 11115,
    "Ġimpart": 11779,
    "Ġeverlasting": 9336,
    "Ġusually": 6263,
    "Ġpropontis": 17464,
    "Ġsquire": 16177,
    "rope": 3184,
    "Ġdepicting": 22594,
    "idate": 21762,
    "Ġdedu": 5585,
    "Ġsweeter": 23914,
    "specul": 23942,
    "Ġsafety": 6338,
    "partly": 14603,
    "Ġsoar": 18281,
    "Ġlowest": 11122,
    "Ġdisse": 18546,
    "uns": 21865,
    "Ġhorrid": 7997,
    "Ġeventually": 8616,
    "Ġinstituted": 18696,
    "woof": 21137,
    "ni": 1663,
    "Ġsophisticated": 1660,
    "osity": 14186,
    "anesc": 21356,
    "Ġmomentum": 1603,
    "Ġsimplest": 16331,
    "purpose": 10043,
    "pur": 7805,
    "woods": 13418,
    "poor": 6061,
    "Ġrobots": 11073,
    "ĠĠĠĠĠĠĠĠĠĠĠĠĠĠĠĠĠĠĠĠĠĠĠĠĠĠĠĠĠĠĠĠĠĠĠĠĠĠĠĠĠĠĠĠĠĠĠĠĠĠĠĠĠĠĠĠĠĠĠĠ": 19259,
    "Ġdeeds": 15756,
    "Ġsharkish": 24506,
    "Ġdo": 511,
    "Ġlanguor": 12846,
    "banish": 20780,
    "ophisticated": 22474,
    "ille": 9219,
    "Ġstrang": 4160,
    "Ġrelationship": 2320,
    "ĠĠĠĠĠĠĠĠĠĠĠĠĠĠĠĠĠĠĠĠĠĠĠĠĠĠĠĠĠĠĠĠĠĠĠĠĠĠĠ": 19258,
    "Ġdundee": 16996,
    "Ġmiz": 10777,
    "Ġfullest": 14813,
    "Ġvehicles": 10659,
    "aid": 1922,
    "reproach": 15186,
    "Ġsignificantly": 4520,
    "Ġpsalmody": 20582,
    "wharf": 20604,
    "Ġdelicacy": 6339,
    "Ġdey": 11675,
    "Ġdived": 9177,
    "ulating": 10887,
    "Ġconfiding": 19038,
    "doubt": 6782,
    "Ġfought": 12590,
    "Ġvillages": 14748,
    "Ġsymbols": 2796,
    "Ġinstances": 5568,
    "Ġvote": 21941,
    "Ġthorough": 6245,
    "Ġangles": 23586,
    "melancholy": 12351,
    "ladies": 9527,
    "Ġdragon": 14944,
    "es": 288,
    "Ġrestoration": 19025,
    "Ġgloom": 4200,
    "Ġtastes": 15476,
    "Ġdisappearance": 9296,
    "stopping": 19348,
    "Ġmum": 13857,
    "!_": 7328,
    "Ŀ": 256,
    "Ġcrows": 24028,
    "Ġunimportant": 22025,
    "aling": 1034,
    "Ġbir": 17853,
    "uteness": 17985,
    "Ġdesisted": 22977,
    "Ġordinary": 6097,
    "Ġconsidering": 4616,
    "Ġblurred": 22928,
    "Ġirre": 7467,
    "scythes": 26402,
    "straight": 9939,
    "Ġnature": 2541,
    "Ġmulti": 1043,
    "Ġvoy": 2618,
    "dutch": 17217,
    "easily": 17533,
    "eled": 2361,
    "Ġevenness": 22831,
    "Ġcoldness": 23757,
    "Ġimperson": 14218,
    "Ġdefinite": 11069,
    "Ġwash": 9702,
    "Ġmortar": 19391,
    "Ġbursting": 8654,
    "Ġpanthe": 19650,
    "Ġdavy": 25951,
    "prints": 23809,
    "spr": 7434,
    "Ġcared": 8782,
    "Ġpredefined": 20715,
    "Ġhay": 11605,
    "supers": 22631,
    "as": 302,
    "Ġstaircase": 20092,
    "deserts": 25379,
    "Ġincline": 18568,
    "Ġcommanders": 23865,
    "ceived": 1964,
    "Ġhumorously": 18777,
    "Ġgoblet": 25823,
    "Ġinsisted": 12044,
    "spersed": 22734,
    "Ġburnt": 9927,
    "Ġeditions": 19123,
    "Ġaccompl": 5167,
    "effectually": 25128,
    "Í": 142,
    "Ġperhaps": 1913,
    "awk": 23112,
    "pow": 10717,
    "lue": 8507,
    "Ġbegg": 16251,
    "ieth": 10704,
    "Ġpossessions": 23821,
    "murderer": 13392,
    "Ġlavater": 20492,
    "generally": 9433,
    "Ġwinchester": 10065,
    "travellers": 24318,
    "Ġconsecutive": 20700,
    "itu": 1225,
    "hoped": 20909,
    "Ġinconstant": 21491,
    "Ġcontinuation": 22915,
    "Ġwhatsoever": 18459,
    "violently": 23539,
    "Ġseeking": 7035,
    "Ġinwards": 15618,
    "box": 5749,
    "Ġcreature": 2386,
    "gypt": 8259,
    "rents": 5308,
    "Ġhover": 15617,
    "Ġpugnacious": 26451,
    "Ġblackest": 19097,
    "Ġvisions": 12974,
    "Ġreiterating": 26474,
    "rine": 21036,
    "comfort": 5647,
    "Ġfleetness": 20176,
    "Ħ": 231,
    "regularly": 13207,
    "Ġvouch": 15807,
    "Ġsubstituting": 26327,
    "Ġmade": 1051,
    "Ġvarieties": 14310,
    "Ġtreacle": 14596,
    "Ġneighbourhood": 5126,
    "Ġpaddle": 20055,
    "Ġexcellent": 4237,
    "freely": 16853,
    "Ġswelled": 11088,
    "Ġindefinite": 17175,
    "Ġbenchmarks": 15022,
    "Ġannouncing": 16753,
    "Ġpra": 4347,
    "Ġrooted": 13168,
    "aculate": 16079,
    "Ġinteresting": 4325,
    "boast": 23252,
    "Ġgiants": 25960,
    "Ġesteemed": 10590,
    "Ġexhausting": 24709,
    "mentioning": 24885,
    "Ġtrag": 13037,
    "Ġriot": 14689,
    "¡": 99,
    "Ġdens": 21420,
    "ix": 1799,
    "Ġmeas": 1099,
    "Ġfleece": 10614,
    "Ġsakes": 18324,
    "stiff": 12672,
    "walk": 5523,
    "confirmation": 26090,
    "Ġrepetition": 8972,
    "Ġconf": 1819,
    "ome": 535,
    "Ġpersonally": 8599,
    "================================================================": 9989,
    "enit": 17779,
    "compar": 14359,
    "Ġcomposing": 16064,
    "call": 8722,
    "osite": 4893,
    "step": 2458,
    "sigma": 3002,
    "Ġhints": 8428,
    "Ġleviathans": 8280,
    "obser": 11100,
    "Ġ108": 19681,
    "ying": 1371,
    "Ġalice": 1482,
    "Ġcarter": 18899,
    "Ġrifle": 18212,
    "Ġgour": 21593,
    "Ġnatur": 17332,
    "ats": 4254,
    "Ġpreternatural": 12820,
    "min": 4572,
    "Ġunrivalled": 26520,
    "quite": 4647,
    "Ġvictims": 19801,
    "tese": 21081,
    "Ġdeadliest": 14557,
    "idated": 11661,
    "lier": 20948,
    "text": 1973,
    "Ġuncompromised": 20601,
    "extraordinary": 9094,
    "Ġdesired": 4665,
    "Ġwrithing": 11944,
    "Ġbulge": 23854,
    "Ġundertaken": 18984,
    "Ġminers": 22829,
    "Ġfossil": 12385,
    "prairies": 20564,
    "afflicted": 23776,
    "Ġflowed": 10371,
    "species": 13255,
    "Ġinasmuch": 10825,
    "Ġrenewing": 19807,
    "Ġremonstr": 16158,
    "commence": 19988,
    "Ġinterp": 16068,
    "Ġhang": 9187,
    "alescence": 15921,
    "mant": 20964,
    "smile": 23902,
    "contemplated": 20455,
    "Ġcolt": 11044,
    "Ġendeavoured": 4918,
    "Ġgalvan": 21612,
    "Ġrow": 5309,
    "Ġ16": 7925,
    "59": 17472,
    "receiving": 12540,
    "dances": 17520,
    "Ġcloth": 9742,
    "character": 6330,
    "Ġnecessitates": 23925,
    "Ġoily": 13863,
    "attent": 9358,
    "staking": 21643,
    "reposed": 24492,
    "Ġprepare": 8646,
    "Ġunden": 22009,
    "Ġmultiplication": 2870,
    "Ġont": 18116,
    "Ġpretensions": 16556,
    "miss": 3173,
    "Ġmem": 2070,
    "Ġupper": 5090,
    "Ġanimal": 2502,
    "Ġgi": 15663,
    "bru": 12437,
    "Ġfinding": 3263,
    "Ġcologne": 12972,
    "Ġbehaved": 13252,
    "Ġaf": 782,
    "Ġlanding": 11983,
    "Ġunless": 4088,
    "Ġshocking": 10435,
    "cour": 4480,
    "accomplished": 17210,
    "feelings": 5674,
    "Ġtouches": 20568,
    "stun": 18018,
    "Ġplunged": 8692,
    "Ġpeter": 10535,
    "_),": 7124,
    "enthusiastic": 20690,
    "judged": 14831,
    ",âĢĻ": 2332,
    "Ġpassionately": 16763,
    "Ġcolouring": 16749,
    "gentlemanlike": 19998,
    "Ġpolitely": 8993,
    "Ġamput": 16030,
    "atum": 21257,
    "Ġahoy": 12182,
    "employ": 10895,
    "youngest": 19740,
    "ic": 304,
    "ces": 578,
    "cell": 10685,
    "Ġwhosoever": 21714,
    "vess": 7353,
    "Ġbled": 17856,
    "Ġrefusing": 11029,
    "deli": 15343,
    "teak": 22812,
    "ricity": 23061,
    "Ġdarted": 4758,
    "Ġimprinted": 22385,
    "Ġscar": 3210,
    "Ġglobular": 19009,
    "shame": 16017,
    "inev": 21975,
    "Ġtobacc": 7851,
    "queens": 22906,
    "Ġpyth": 21457,
    "Ġbushy": 16399,
    "Ġsundial": 15082,
    "Ġrepeatedly": 9020,
    "Ġricher": 12756,
    "Ġvigil": 9505,
    "blood": 7778,
    "Ġgout": 21591,
    "twain": 23698,
    "deaux": 22143,
    "ier": 1133,
    "gate": 12464,
    "Ġsilk": 11961,
    "Ġmagnificent": 9843,
    "bearing": 9764,
    "ints": 3415,
    "Ġcup": 5697,
    "Ġlargest": 6282,
    "Ġclock": 9531,
    "private": 13581,
    "ained": 3063,
    "Ġinsights": 13178,
    "itche": 7577,
    "Ġimmediate": 6090,
    "Ġmuttered": 7085,
    "Ġbushes": 16398,
    "Ġeludes": 26555,
    "Ġhesitated": 10001,
    "asily": 13945,
    "quarried": 24945,
    "ĠĠĠĠĠĠĠĠĠĠĠĠĠĠĠĠĠĠĠĠĠĠĠĠĠĠĠĠĠ": 19696,
    "Ġconsuming": 22789,
    "bod": 12435,
    "Ġ29": 23728,
    "Ġerection": 23998,
    "put": 414,
    "Ġscowl": 22267,
    "Ġcorp": 5574,
    "interrupt": 8615,
    "ribly": 8253,
    "ference": 1883,
    "Ġextinguished": 10339,
    "Ġduplicate": 17214,
    "Ġwarm": 2428,
    "Ġhav": 12751,
    "fierce": 25255,
    "Ġstock": 7454,
    "dist": 4481,
    "Ġappe": 1541,
    "Ġisolated": 13558,
    "exped": 16521,
    "otics": 10223,
    "rages": 15678,
    "Ġadvantageously": 19542,
    "Ġwholesome": 16002,
    "Ġtangle": 25760,
    "carrying": 16710,
    "Ġhairs": 13229,
    "Ġwhe": 439,
    "went": 6511,
    "Ġinf": 1756,
    "Ġsplin": 8618,
    "A": 37,
    "adamite": 20590,
    "âĢľâĢĺ": 1483,
    "author": 9859,
    "Ġrendered": 5773,
    "fastened": 19324,
    "unfort": 21872,
    "Ġalders": 21779,
    "Ġimpat": 4457,
    "Ġbackground": 18648,
    "forming": 15913,
    "Ġsocial": 7007,
    "Ġdecently": 22452,
    "Ġdestroy": 5772,
    "forth": 9321,
    "opposite": 19926,
    "rights": 23669,
    "Ġphilosopher": 12181,
    "Ġcompose": 12899,
    "Ġlung": 7166,
    "belonged": 25597,
    "com": 995,
    "er": 269,
    "Ġlastly": 16202,
    "Ġimpertin": 6933,
    "Ġhogshead": 26367,
    "Ġjumping": 13340,
    "Ġabominate": 20064,
    "Ġtranspointed": 22436,
    "flatter": 23964,
    "»": 124,
    "Ġmeeting": 5193,
    "Ġeveryday": 22767,
    "Ġmanx": 7903,
    "pumps": 21026,
    "...": 24549,
    "Ġembarr": 7446,
    "Ġsolitary": 5854,
    "yellow": 9624,
    "Ġwhere": 785,
    "ckery": 22085,
    "Ġrolls": 8332,
    "Ġsleeper": 8600,
    "Ġowing": 6004,
    "autumn": 23340,
    "Ġsorrow": 4629,
    "bert": 4663,
    "Ġwont": 9851,
    "Ġsnapping": 19300,
    "snap": 24848,
    "Ġcirculating": 23370,
    "Ġatrocious": 21939,
    "sto": 3198,
    "Ġplays": 12035,
    "Ġadvancement": 24475,
    "ced": 696,
    "Ġzeal": 9097,
    "Ġcivilised": 24244,
    "!âĢĿ": 846,
    "venerable": 26408,
    "Ġsymmet": 11746,
    "Ġpivot": 13922,
    "Ġcomput": 602,
    "Ġadjusted": 23456,
    "Ġfake": 5810,
    "Ġundulations": 19514,
    "clad": 14460,
    "Ġmix": 7575,
    "Ġcease": 7075,
    "tick": 17677,
    "darker": 24516,
    "Ġineffect": 13929,
    "Ġperfections": 23606,
    "Ġparties": 7037,
    "Ġunreasoning": 15843,
    "Ġbart": 17857,
    "Ġirresolute": 24916,
    "Ġpilgrim": 25599,
    "prove": 11147,
    "Ġtrowsers": 9627,
    "asting": 12802,
    "irresist": 21908,
    "typewritten": 26038,
    "mend": 20965,
    "Ġlashes": 17966,
    "mill": 13753,
    "Ġvehic": 8933,
    "shipped": 18485,
    "Ġhosts": 19935,
    "Ġinstinctively": 13458,
    "generations": 23783,
    "thrusting": 20256,
    "Ġspect": 3549,
    "ught": 2750,
    "Ġemer": 5958,
    "permission": 15894,
    "Ġcustom": 5078,
    "fresh": 13391,
    "lotts": 23822,
    "ris": 9137,
    "Ġacquiescence": 20327,
    "ading": 5091,
    "Ġjagged": 18406,
    "Ġprayer": 16664,
    "sis": 1865,
    "Ġentering": 6284,
    "Ġrippling": 17276,
    "Ġwould": 650,
    "Ġnortheast": 23201,
    "elstrom": 17981,
    "Ġsecretary": 19440,
    "Ġrage": 5110,
    "Ġnineveh": 13388,
    "Ġattend": 5035,
    "Ġexpiring": 16095,
    "Ġimpenit": 22384,
    "Ġtheore": 1829,
    "Ġminor": 12965,
    "Ġdowry": 20683,
    "ear": 8730,
    "fancy": 7336,
    "Ġshyness": 20303,
    "Ġwra": 5905,
    "Ġspring": 4119,
    "abominable": 20591,
    "Ġsepulch": 15283,
    "Ġvalu": 5039,
    "Ġilluminated": 20172,
    "tall": 17672,
    "Ġcountry": 2535,
    "Ġamusements": 16912,
    "Ġkettle": 26233,
    "!âĢĶâĢĻ": 23563,
    "Ġjavel": 17083,
    "wards": 1277,
    "Ġdirectors": 18920,
    "rushing": 10017,
    "Ġstagnant": 24655,
    "Ġboon": 22635,
    "Ġunable": 4951,
    "Ġoutrages": 18414,
    "Ġearlier": 9086,
    "peaceful": 20443,
    "iciency": 9573,
    "Ġemerged": 8684,
    "near": 5842,
    "Ġflies": 13023,
    "values": 4973,
    "Ġbaling": 17859,
    "Ġsucceeding": 16760,
    "Ġenjoying": 11235,
    "dashed": 12453,
    "Ġthroughout": 8876,
    "Ġstrongly": 5657,
    "hering": 12810,
    "Ġnumber": 1980,
    "Ġscrape": 14918,
    "Ġeng": 1166,
    "Ġinsufferable": 13930,
    "Ġcottagers": 6761,
    "son": 2333,
    "Ġcapital": 7978,
    "esteemed": 26009,
    "Ġencl": 16163,
    "Ġfood": 5080,
    "wickham": 5883,
    "Ġlightnings": 16350,
    "Ġapproxim": 1218,
    "Ġblu": 2686,
    "Ġjacobians": 2891,
    "Ġfarthest": 23114,
    "Ġpemberley": 4589,
    "ilder": 15710,
    "Ġshare": 1657,
    "mortals": 25409,
    "Ġoccurred": 4463,
    "Ġartic": 5314,
    "Ġherself": 1570,
    "Ġthank": 3789,
    "Ġrods": 9751,
    "nial": 20983,
    "Ġnostrils": 10943,
    "Ġmunro": 25630,
    "Ġgriev": 16632,
    "Ġprudential": 17919,
    "Ġclerks": 17293,
    "Ġhatchway": 13524,
    "adel": 15726,
    "Ġpushing": 10819,
    "flakes": 23965,
    "Ġhandsome": 4906,
    "Ġbolts": 16942,
    "Ġtolerably": 8066,
    "Ġsingularly": 12146,
    "derest": 18313,
    "Ġblemish": 19676,
    "hered": 5623,
    "Ġintruding": 21988,
    "orous": 5292,
    "Ġcard": 7362,
    "party": 8992,
    "Ġhind": 9188,
    "Ġcreditable": 19619,
    "Ġmug": 21310,
    "Ġsquires": 16178,
    "erpillar": 5797,
    "Ġkramm": 26234,
    "miraculous": 26396,
    "Ġevangelical": 25506,
    "hom": 12471,
    "Ġsparing": 22124,
    "grateful": 10428,
    "Ġtall": 4037,
    "Ġboast": 7033,
    "digger": 24310,
    "Ġmoss": 9283,
    "Ġbreach": 11972,
    "unbidden": 21890,
    "Ġumbrell": 13649,
    "Ġhen": 3499,
    "Ġrav": 14304,
    "Ġfounded": 8555,
    "Ġadvantage": 4316,
    "ampling": 12723,
    "Ġlonger": 3357,
    "Ġromans": 16758,
    "Ġscraggy": 24579,
    "Ġhissing": 15787,
    "apparent": 11041,
    "Ġracket": 22647,
    "Ġexpatiate": 18624,
    "Ġdiffer": 18676,
    "vint": 21112,
    "blow": 9103,
    "Ġaccounted": 10294,
    "Ġlee": 4220,
    "Ġnarrating": 24351,
    "scand": 18853,
    "Ġhudson": 15191,
    "considerable": 10548,
    "Ġrecklessness": 24744,
    "Ġfamilies": 8025,
    "ĠĠĠĠĠĠĠĠĠĠĠĠĠĠĠĠĠĠĠĠĠĠĠĠĠĠ": 13387,
    "Ġprecise": 7074,
    "Ġmeek": 21807,
    "ucy": 15443,
    "Ġdistributes": 4194,
    "Ġcrowds": 14739,
    "nur": 11506,
    "quohog": 21853,
    "Ġsalted": 14756,
    "Ġlapse": 17119,
    "Ġboard": 3380,
    "°": 113,
    "Ġmichaelmas": 26374,
    "Ġdomain": 3567,
    "Ġceiling": 7995,
    "Ġimprovements": 14513,
    "onds": 12993,
    "Ġinstrument": 7117,
    "injustice": 17737,
    "prit": 19340,
    "alley": 23021,
    "town": 7141,
    "Ġfidgeted": 25889,
    "Ġworkmen": 23045,
    "idelburgh": 10560,
    "Ġextremities": 19194,
    "Ġindependence": 12102,
    "Ġsurpr": 2552,
    "Ġkingdom": 12017,
    "Ġprosecuted": 25293,
    "Ġ79": 24264,
    "fur": 6354,
    "ises": 3652,
    "Ġdears": 18136,
    "Ġone": 568,
    "Ġlowly": 11121,
    "Ġambiguous": 20161,
    "Ġadversary": 12171,
    "Ġbarely": 16935,
    "Ġinvariable": 13455,
    "oquence": 11387,
    "tied": 21069,
    "shott": 11793,
    "Ġlids": 12273,
    "uteronomy": 15661,
    "Ġretain": 7861,
    "Ġscant": 22262,
    "Ġlust": 9197,
    "Ġbawling": 25945,
    "oker": 10963,
    "Ġdaint": 15590,
    "Ġbasement": 24701,
    "tem": 6368,
    "begins": 18521,
    "Ġsinned": 18949,
    "Ġslumber": 13057,
    "Ġsumatra": 15285,
    "manned": 18762,
    "Ġquestions": 3972,
    "fic": 20850,
    "ache": 8517,
    "supplementary": 20547,
    "Ġvic": 5237,
    "Ġopposite": 5120,
    "Ġgleaming": 24993,
    "Ġfancies": 10424,
    "Ġsobbing": 14136,
    "however": 4373,
    "acceptance": 25185,
    "Ġexpect": 2311,
    "Ġbows": 4081,
    "Ġaglow": 22510,
    "Ġsir": 1573,
    "Ġportrait": 10661,
    "branch": 23576,
    "Ġprovided": 6577,
    "epend": 3312,
    "affair": 14656,
    "Ġcommons": 22668,
    "Ġnoises": 18372,
    "Ġlull": 15648,
    "required": 17029,
    "Ġvint": 18194,
    "Ġfew": 1193,
    "Ġsafely": 9025,
    "Ġgreeks": 20009,
    "Ġtattoo": 7358,
    "nikin": 23246,
    "Ġunresting": 25553,
    "medical": 23339,
    "trembling": 17141,
    "rah": 8135,
    "oniously": 21255,
    "Ġscent": 10284,
    "capable": 13700,
    "Ġgould": 17989,
    "Ġendeavours": 8617,
    "Ġnamely": 20687,
    "mangled": 20980,
    "Ġgas": 8131,
    "Ġsnowy": 9017,
    "regiment": 16450,
    "Ġfork": 15729,
    "izarre": 17387,
    "Ġchurch": 4711,
    "hatred": 24821,
    "Ġjenny": 20159,
    "eprints": 12788,
    "Ġlaying": 7906,
    "gown": 9596,
    "Ġxx": 5492,
    "Ġlandless": 23376,
    "latin": 25258,
    "Ġsupplication": 25491,
    "Ġest": 2269,
    "Ġslammed": 20444,
    "provided": 13636,
    "Ġdignified": 15595,
    "Ġincludes": 2011,
    "Ġtones": 8398,
    "3": 23,
    "viating": 14579,
    "Ġembatt": 18857,
    "Ġignited": 25069,
    "ason": 1262,
    "rue": 1126,
    "Ġadv": 1148,
    "offered": 14519,
    "Ġamsterdam": 22480,
    "ience": 781,
    "Ġpanther": 16818,
    "Ġdire": 864,
    "Ġsympathies": 14861,
    "Ġconver": 808,
    "Ġlater": 6016,
    "letters": 13173,
    "Ġimpassable": 20610,
    "Ġfast": 1717,
    "Ġjavelins": 26106,
    "ages": 829,
    "poise": 6171,
    "draul": 9441,
    "Ġseldom": 4630,
    "Ġexplaining": 15957,
    "Ġtime": 688,
    "iscient": 17851,
    "Ġsandwich": 19825,
    "absence": 12705,
    "Ġshears": 18318,
    "Ġlets": 18063,
    "Ġnuts": 17951,
    "Ġunassuming": 20505,
    "Ġdiscl": 9796,
    "Ġsaved": 6690,
    "bearers": 18520,
    "Ġsoc": 3523,
    "ee": 1661,
    "Ġscraping": 13415,
    "Ġshirt": 8848,
    "surround": 16757,
    "subject": 6631,
    "Ġyards": 5371,
    "Ġprofuse": 23564,
    "Ġgrud": 17995,
    "Ġsells": 21221,
    "instantly": 7507,
    "Ġpompous": 20419,
    "Ġcoarse": 14274,
    "account": 5329,
    "wes": 17702,
    "Ġmeetings": 16530,
    "Ġcommit": 18654,
    "two": 3857,
    "Ġbasic": 24700,
    "Ġkiller": 19566,
    "oun": 482,
    "silent": 9973,
    "Ġsl": 1499,
    "eyes": 5684,
    "Ġfel": 1520,
    "Ł": 258,
    "ants": 1393,
    "Ġrestrained": 16373,
    "Ġtossings": 25356,
    "recollection": 25348,
    "Ġintroduced": 7689,
    "circumstance": 7762,
    "Ġjust": 1238,
    "Ġrespectively": 23248,
    "Ġwhiskers": 10492,
    "Ġphilosophers": 10551,
    "Ġreef": 10849,
    "Ġfollies": 16253,
    "Ġrepresent": 1212,
    "Ġoutrid": 22311,
    "Ġbottled": 23793,
    "Ġshone": 7403,
    "atters": 18504,
    "Ġtypewritten": 16419,
    "Ġdeified": 18137,
    "Ġsow": 17749,
    "room": 2178,
    "Ġperplexity": 2754,
    "Ġstatistical": 11104,
    "Ġdispute": 16053,
    "Ġgoodly": 22819,
    "bourine": 9394,
    "Ġjane": 1757,
    "Ġlinguistic": 12423,
    "unquiet": 21877,
    "Ġserviceable": 24717,
    "tempest": 16957,
    "Ġhistory": 4007,
    "Ġtrue": 1339,
    "Ġprimary": 25060,
    "wife": 8099,
    "cried": 8724,
    "Ġplants": 22597,
    "Ġbagging": 24539,
    "Ġmingling": 20194,
    "Ġthirds": 16706,
    "Ġdisordered": 16052,
    "Ġcred": 8780,
    "Ġsurviving": 24638,
    "Ġgate": 6825,
    "usive": 8190,
    "Ġrumpled": 24601,
    "Ġpest": 13912,
    "lun": 20945,
    "vanished": 15061,
    "Ġentreated": 9950,
    "Ġtakes": 5007,
    "Ø": 153,
    "Ġcholera": 22249,
    "fat": 8077,
    "beloved": 19459,
    "bene": 6113,
    "Ġcomfortable": 6095,
    "Ġinquest": 16545,
    "Ġsurrounds": 24231,
    "table": 5795,
    "Ġexped": 7649,
    "cheered": 23803,
    "guard": 12126,
    "Ġsuppl": 11079,
    "Ġhopeful": 19029,
    "useness": 22288,
    "looking": 4032,
    "stupid": 12673,
    "inn": 5363,
    "Ġstream": 5186,
    "Ġduplicates": 17215,
    "Ġcontin": 5382,
    "Ġappo": 8497,
    "emberley": 4170,
    "ension": 6568,
    "wat": 6231,
    "!_âĢĿ": 11377,
    "Ġthem": 639,
    "Ġcruelly": 13374,
    "hung": 8379,
    "Ġhailing": 11692,
    "eag": 20840,
    "Ġdissembling": 26255,
    "Ġmonument": 16237,
    "Ġweld": 8110,
    "restored": 18976,
    "Ġmungo": 25631,
    "Ġpolite": 9881,
    "Ġbuckler": 24859,
    "tuning": 1584,
    "dy": 3859,
    "Ġtout": 17718,
    "Ġcritic": 19120,
    "reasonable": 7750,
    "mish": 17597,
    "Ġaz": 9629,
    "Ġappears": 5402,
    "gladness": 25194,
    "arent": 4250,
    "Ġfumbling": 21413,
    "Ġmarchant": 14785,
    "Ġbehaves": 23298,
    "aited": 12433,
    "Ġkindled": 19027,
    "Ġgloomy": 7503,
    "Ġmutter": 23951,
    "otes": 15741,
    "larking": 17593,
    "Ġblacksmith": 6595,
    "Ġincommun": 25308,
    "trifling": 19399,
    "tw": 2810,
    "shabb": 18487,
    "Ġdevil": 3610,
    "Ġallurements": 22005,
    "Ġcomprised": 14268,
    "Ġaccur": 3439,
    "Ġlaid": 3940,
    "Ġcheery": 16370,
    "Ġah": 5075,
    "Ġoptimization": 1404,
    "Ġ20": 8613,
    "mir": 20962,
    "acc": 2536,
    "Ġsickening": 19601,
    "Ġple": 1470,
    "Ġbrewed": 23343,
    "Ġcurving": 16233,
    "goes": 10426,
    "Ġjewel": 9941,
    "Ġdiscoloured": 15251,
    "Ġunreserved": 19395,
    "ilst": 8142,
    "condesc": 18502,
    "Ġfortune": 4239,
    "Ġshakes": 10904,
    "Ġslice": 23159,
    "Ġ95": 19770,
    "Ġarctic": 12808,
    "bb": 2799,
    "Ġdangerously": 23936,
    "fallen": 19656,
    "impregnable": 26481,
    "Ġhuman": 1317,
    "agrad": 2746,
    "elihood": 4623,
    "Ġcornelius": 13572,
    "acted": 11010,
    "noo": 9786,
    "Ġdisaster": 12884,
    "Ġlabel": 14518,
    "--âĢľ": 12969,
    "Ġsuperfluous": 17412,
    "achable": 14138,
    "Ġslu": 13835,
    "pregn": 18497,
    "Ġvessel": 3796,
    "glanced": 19364,
    "Ġmedicine": 15205,
    "children": 9055,
    "elijah": 19471,
    "miles": 10712,
    "requiem": 24856,
    "18": 20749,
    "often": 6165,
    "mbling": 3343,
    "Ġtreacherously": 25129,
    "mid": 5617,
    "Ġbarrens": 25501,
    "Ġmallet": 17810,
    "Ġhighland": 18705,
    "Ġkentuck": 19888,
    "liking": 22921,
    "Ġprovides": 1930,
    "Ġdocument": 15019,
    "umes": 10917,
    "Ġstamp": 7862,
    "confl": 22467,
    "Ġign": 8293,
    "Ġmeagre": 21808,
    "Ġspur": 18302,
    "iment": 2815,
    "Ġtendinous": 16931,
    "Ġsurpassed": 25267,
    "combined": 20317,
    "horrible": 14601,
    "hereditary": 26419,
    "Ġfurnished": 6474,
    "Ġafresh": 18626,
    "Ġconsumm": 15154,
    "Ġgeography": 23369,
    "Ġretrogress": 23071,
    "Ġkiss": 8181,
    "?": 35,
    "Ġopera": 23423,
    "faith": 15025,
    "Ġfastening": 16354,
    "fellow": 6792,
    "Ġimmediately": 3363,
    "Ġpuffs": 14975,
    ">": 34,
    "urean": 18122,
    "forbidding": 25837,
    "Ġca": 21336,
    "sides": 12505,
    "gue": 12465,
    "Ġextent": 7654,
    "li": 1188,
    "Ġpressed": 6041,
    "Ġregularity": 22766,
    "Ġhaughty": 11450,
    "corner": 13396,
    "Ġentranced": 25833,
    "Ġentr": 14339,
    "Ġmistake": 6203,
    "elling": 5830,
    "chancing": 22909,
    "Ġpunctually": 17137,
    "Ġauthent": 14511,
    "performed": 18338,
    "Ġwoman": 2389,
    "Ġmomentarily": 22808,
    "anyth": 5438,
    "Ġrecollected": 8309,
    "Ġcontinual": 6777,
    "Ġfugitives": 25634,
    "Ġmonosy": 18849,
    "®": 111,
    "Ġbeheaded": 11656,
    "Ġsubsc": 22784,
    "Ġmouthful": 16572,
    "length": 7133,
    "Ġburied": 7717,
    "utral": 12660,
    "Ġcollecting": 12284,
    "Ġconsistent": 14529,
    "Ġenchantment": 24869,
    "Ġpulled": 5660,
    "Ġacknowledge": 13401,
    "Ġamaze": 22479,
    "Ġaddu": 22097,
    "Ġarmchair": 8269,
    "Ġdz": 4756,
    "Ġdined": 9176,
    "âĢĿâĢĶ": 5721,
    "Ġhydraulic": 10063,
    "Ġprev": 6264,
    "aff": 3100,
    "blind": 16703,
    "Ġdemoniacal": 20554,
    "Ġhappiest": 11881,
    "Ġ6": 5141,
    "Ġbishop": 13901,
    "Ġscre": 9735,
    "Ġpat": 1745,
    "Ġclapped": 9744,
    "be": 670,
    "Ġconcerns": 11966,
    "Ġfastidious": 14493,
    "sighted": 19781,
    "omorrah": 18017,
    "vert": 15712,
    "Ġcordon": 24394,
    "Ġmathematics": 12071,
    "Ġremembering": 14611,
    "Ġexhibit": 14955,
    "sustained": 20566,
    "Ġprehensile": 26535,
    "alth": 3254,
    "Ġaffections": 10384,
    "eze": 20845,
    "Ġrural": 21963,
    "/": 19,
    "Ġeasiest": 23534,
    "Ġoaths": 13523,
    "ĠĠĠĠĠĠĠĠĠĠĠĠ": 12897,
    "Ġhoist": 11975,
    "Ġmultiplicity": 19274,
    "Ġwallow": 19464,
    "Ġstretched": 5920,
    "Ġsires": 21224,
    "Ġimpud": 18444,
    "Ġgrip": 11627,
    "Ġkilburn": 18348,
    "Ġsisterly": 16299,
    "produ": 10720,
    "leg": 2812,
    "Ġ68": 24370,
    "Ġcarries": 7672,
    "pointed": 9807,
    "Ġconjured": 25099,
    "Ġtea": 5041,
    "phants": 9319,
    "Ġconnex": 10665,
    "Ġgrizzled": 11451,
    "Ġcheered": 16371,
    "circle": 16734,
    "ket": 17581,
    "Ġruined": 12951,
    "Ġravings": 18642,
    "Ġvesture": 20058,
    "Ġcompan": 2173,
    "Ġplutarch": 22602,
    "umbrance": 22113,
    "nant": 17608,
    "Ġn": 300,
    "hot": 8082,
    "Ġdart": 4586,
    "watch": 6119,
    "Ġ37": 24076,
    "Ġreasonably": 11091,
    "Ġscrutiny": 26015,
    "Ġtargets": 4203,
    "events": 12315,
    "Ġcrumbs": 20638,
    "Ġjacob": 1901,
    "Ġillustration": 19135,
    "Ġadvertised": 17246,
    "Ġ(_": 3734,
    "playing": 19654,
    "Ġassociated": 12247,
    "mises": 20977,
    "Ġjot": 11762,
    "bos": 17482,
    "Ġfeed": 2128,
    "fifty": 12350,
    "Ġelegant": 7531,
    "andering": 21862,
    "Ġcanals": 22162,
    "fishers": 24928,
    "Ġceases": 19312,
    "tro": 15432,
    "vell": 3958,
    "list": 7550,
    "Ġsnuff": 7990,
    "Ġcompanionship": 14920,
    "Ġsegment": 12754,
    "olence": 10230,
    "Ġatonement": 21938,
    "seldom": 13786,
    "Ġwhites": 21712,
    "Ġannihilation": 15165,
    "Ġinvade": 19142,
    "riage": 2124,
    "Ġban": 7155,
    "Ġbowsprit": 16558,
    "Ġinterpretation": 19713,
    ");": 7329,
    "Ġhearth": 11980,
    "appetite": 22842,
    "bears": 22486,
    "Ġscratches": 22268,
    "Ġmeasurement": 19421,
    "fire": 6356,
    "Ġwithdraw": 16962,
    "you": 1003,
    "Ġpreprocessing": 26537,
    "Ġopine": 19226,
    "Ġacquies": 11097,
    "Ġslit": 13054,
    "Ġbreaks": 13182,
    "Ġtyrant": 24767,
    "ite": 713,
    "brought": 7284,
    "Ġincome": 7915,
    "Ġadvers": 4887,
    "vour": 17698,
    "Ġslain": 8953,
    "Ġextant": 18684,
    "gorge": 22333,
    "Ġadult": 18288,
    "igating": 21695,
    "Ġyouthful": 16721,
    "astrop": 3313,
    "Ġfibres": 12948,
    "Ġeconomical": 25287,
    "Ġrefine": 3632,
    "Ġcapabilities": 4377,
    "Ġbowls": 23768,
    "Ġwoke": 21287,
    "Ġneck": 4885,
    "Ġbears": 6829,
    "Ġquill": 12854,
    "Ġring": 4453,
    "Ġunrecord": 16619,
    "Ġblast": 7444,
    "Ġacquaint": 13042,
    "Ġsprings": 16685,
    "ancies": 11584,
    "Ġelizabeth": 1127,
    "Ġoctober": 17225,
    "Ġimmemorially": 25383,
    "Ġstumbling": 21740,
    "Ġbrightened": 23825,
    "uer": 21098,
    "Ġofficially": 24838,
    "stra": 4044,
    "descried": 11928,
    "likes": 18813,
    "willingness": 24755,
    "Ġjabez": 11765,
    "othing": 6995,
    "Ġwond": 3938,
    "Ġwidower": 24235,
    "Ġreproofs": 24892,
    "igantic": 5539,
    "Ġmorocc": 22976,
    "Ġglobules": 26589,
    "viii": 12019,
    "Ġbamboo": 17435,
    "acceler": 23596,
    "Ġchinks": 22247,
    "beside": 19874,
    "adopt": 25544,
    "Ġduchess": 4799,
    "Ġjoyously": 19345,
    "Ġgirdle": 19156,
    "Ġdespairing": 14773,
    "too": 4508,
    "row": 1065,
    "Ġplatonian": 25118,
    "deployment": 26528,
    "Ġeffectively": 2619,
    "ĠĠĠĠĠĠĠĠĠĠĠĠĠĠĠĠĠĠĠĠĠĠĠĠĠĠĠĠĠĠĠĠĠĠĠĠĠĠĠĠĠĠĠĠĠĠĠ": 16754,
    "Ġchar": 1705,
    "Ġheavier": 13101,
    "unusual": 21875,
    "Ġcultured": 25154,
    "Ġplucked": 15113,
    "Ġhoarsely": 26303,
    "Ġahead": 6662,
    "Ġembarkation": 25123,
    "Ġpractices": 19035,
    "Ġincant": 18567,
    "marriage": 7743,
    "Ġprow": 6684,
    "bler": 11473,
    "Ġovers": 14206,
    "eneva": 5118,
    "Ġweeping": 11686,
    "Ġbands": 14884,
    "Ġsmiting": 12895,
    "Ġarchipelagoes": 14350,
    "vedale": 22707,
    "smug": 23904,
    "icorn": 15654,
    "enari": 21279,
    "dashing": 20834,
    "Ġadditional": 7933,
    "izz": 7613,
    "Ġcordiality": 24395,
    "spot": 9788,
    "Ġgrateful": 7658,
    "Ġoblige": 10488,
    "Ġdrawers": 12103,
    "miniature": 16764,
    "Ġalive": 4398,
    "Ġfrequently": 4680,
    "Ġpreside": 18364,
    "arch": 1111,
    "informed": 17736,
    "Ġexord": 21822,
    "Ġbloodthirsty": 26602,
    "Ġduc": 4697,
    "Ġconsolation": 6208,
    "Ġpol": 2577,
    "Ġpenet": 6888,
    "Ġnimble": 21523,
    "rent": 1174,
    "Ġnoblest": 13240,
    "aire": 10680,
    "crown": 13697,
    "Ġmuffled": 10640,
    "Ġretreating": 19796,
    "Ġinfluenced": 19629,
    "igation": 5918,
    "Ġbarbara": 24818,
    "iss": 2176,
    "Ġsnatches": 16542,
    "Ġfresh": 3668,
    "inexplicable": 25809,
    "lane": 10706,
    "Ġinch": 7848,
    "Ġroaring": 10968,
    "Ġquohog": 10972,
    "shows": 22442,
    "Ġemper": 9860,
    "Ġunwell": 22012,
    "Ġhearties": 18965,
    "punct": 20189,
    "irene": 15907,
    "Ġclassifies": 11837,
    "Ġessentials": 19999,
    "Ġoath": 7832,
    "Ġhistorically": 19376,
    "cham": 10853,
    "Ġshaded": 14104,
    "Ġxxv": 19714,
    "Ġsignals": 10587,
    "Ġcivil": 4679,
    "Ġcounterpart": 24720,
    "Ġprinted": 11948,
    "roused": 16650,
    "Ġmatrix": 1606,
    "abounding": 25979,
    "Ġnewfoundland": 26570,
    "asible": 21537,
    "chel": 11208,
    "Ġdiving": 12598,
    "scorched": 25697,
    "Ġhereditary": 10664,
    "ocity": 8276,
    "Ġmanage": 7639,
    "Ġfamiliarly": 11304,
    "Ġabhorrent": 16855,
    "threw": 21980,
    "Ġparsee": 6412,
    "Ġfocuses": 8649,
    "Ġstrange": 2276,
    "whims": 22235,
    "masts": 19423,
    "strade": 5065,
    "particulars": 11316,
    "Ġconsistence": 23353,
    "Ġsmelling": 16063,
    "Ġhushed": 13924,
    "Ġcatholic": 20679,
    "Ġmeant": 3547,
    "ourably": 14377,
    "Ġcurios": 18845,
    "Ġfest": 10804,
    "inarticulate": 21193,
    "chet": 13216,
    "Ġsnoring": 23738,
    "odd": 21804,
    "isite": 15560,
    "anum": 17835,
    "Ġabject": 18395,
    "luxur": 25822,
    "Ġrightly": 13062,
    "Ġslips": 23165,
    "Ġboiling": 8524,
    "Ġfool": 4234,
    "miseries": 16756,
    "among": 6256,
    "-": 17,
    "Ġbless": 4343,
    "ilingly": 21718,
    "Ġdons": 17888,
    "Ġwhar": 7387,
    "penetrate": 20321,
    "Ġpatch": 4179,
    "uv": 6229,
    "Ġcolours": 12971,
    "taller": 26151,
    "Ġbroadened": 23982,
    "Ġilluminate": 17191,
    "Ġcir": 21338,
    "Ġdeaf": 12718,
    "Ġcried": 1488,
    "Ġpierced": 12279,
    "headed": 4318,
    "ivers": 1982,
    "_?âĢĿ": 15304,
    "mp": 3725,
    "Ġfoul": 7158,
    "isation": 13892,
    "Ġforgery": 25977,
    "ccas": 15883,
    "clo": 5613,
    "erne": 21267,
    "ĠĠĠĠĠĠĠĠĠĠĠĠĠĠĠĠĠĠĠĠĠĠĠĠĠĠĠĠĠĠĠĠĠĠĠĠĠĠĠĠĠĠĠĠ": 12151,
    "till": 6965,
    "Ġauthorized": 16733,
    "Ġcase": 1942,
    "Ġblazing": 11895,
    "Ġminute": 4279,
    "valu": 1653,
    "Ġdealer": 23974,
    "Ġenchant": 7184,
    "stool": 23816,
    "Ġ97": 19771,
    "separation": 25226,
    "Ġunst": 18238,
    "Ġalan": 10869,
    "Ġnocturn": 18373,
    "key": 5462,
    "urous": 10212,
    "Ġrid": 4355,
    "Ġclap": 10959,
    "acies": 14277,
    "Ġsordid": 26422,
    "Ġpumps": 8425,
    "Ġmargaret": 10376,
    "Ġjerk": 16949,
    "Ġdarkened": 16430,
    "Ġtransitory": 16015,
    "Ġpeasants": 12330,
    "Ġtame": 17721,
    "Ġflattered": 10374,
    "Ġpert": 22391,
    "Ġloungers": 24862,
    "Ġpowers": 5419,
    "adventures": 20253,
    "Ġhearts": 4972,
    "Ġdarkness": 4278,
    "Ġsummer": 4790,
    "Ġresulting": 24198,
    "Ġshin": 18227,
    "fainting": 20469,
    "quickness": 19847,
    "Ġabrupt": 9737,
    "Ġillness": 8589,
    "uncont": 15771,
    "Ġcucumber": 21352,
    "Ġsplitting": 4383,
    "Ġstrings": 11828,
    "eridge": 15524,
    "cannot": 5745,
    "Ġproprietor": 12371,
    "ified": 3225,
    "Ġplague": 11823,
    "poky": 17643,
    "Ġbernard": 20682,
    "Ġfries": 21411,
    "Ġsufferings": 7512,
    "Ġcynicism": 25771,
    "begging": 22493,
    "Ġformerly": 7492,
    "humanity": 24839,
    "Ġhandy": 12933,
    "0": 20,
    "inked": 12910,
    "Ġpeev": 22689,
    "Ġloomings": 24949,
    "non": 9611,
    "Ġinconvenient": 20006,
    "Ġmanif": 8870,
    "Ġlanguage": 653,
    "crimin": 17507,
    "cannon": 22959,
    "Ġpau": 17908,
    "Ġminut": 2205,
    "Ġdestroying": 14729,
    "ue": 1181,
    "Ġinvest": 4978,
    "ample": 1366,
    "occurrences": 26331,
    "Ġblunt": 11893,
    "Ġexceeding": 1583,
    "writhed": 26080,
    "į": 240,
    "Ġkilling": 13331,
    "riers": 18186,
    "sank": 17661,
    "Ġmumbled": 17807,
    "each": 7334,
    "Ġbloodshed": 23798,
    "Ġheat": 5453,
    "shape": 10981,
    "pot": 10117,
    "Ġcaged": 21348,
    "inced": 3334,
    "Ġenem": 4708,
    "Ġpap": 8797,
    "hood": 2657,
    "Ġprone": 18967,
    "Ġconcealing": 23899,
    "ums": 10272,
    "vate": 21107,
    "enjoy": 10774,
    "Ġconjunction": 25100,
    "ogene": 18673,
    "Ġconscientious": 16725,
    "Ġtig": 13812,
    "Ġinconsiderable": 21490,
    "unction": 10234,
    "Ġaccomplished": 7103,
    "Ġmonstr": 7666,
    "century": 20043,
    "antingly": 22093,
    "ize": 772,
    "Ġploughing": 26260,
    "Ġasiatics": 20427,
    "Ġstam": 18068,
    "Ġsuggest": 5417,
    "suffer": 24333,
    "astern": 8580,
    "Ġslavish": 23172,
    "fore": 686,
    "imper": 13996,
    "joined": 13274,
    "Ġmu": 17795,
    "Ġunrolled": 22033,
    "Ġtrack": 7449,
    "Ġimplac": 24874,
    "Ġlawy": 9453,
    "just": 1701,
    "Ġastir": 14641,
    "league": 17844,
    "Ġsanct": 15063,
    "trouble": 8294,
    "caterpillar": 26383,
    "Ġmish": 15535,
    "pendicular": 6498,
    "canonical": 22960,
    "achment": 5464,
    "proceeding": 20138,
    "ames": 2953,
    "avenza": 17103,
    "Ġsoftly": 7946,
    "µ": 118,
    "anoke": 21357,
    "Ġday": 956,
    "Ġobser": 2071,
    "english": 2773,
    "Ġpriests": 15041,
    "Ġay": 15490,
    "Ġnames": 4534,
    "Ġblind": 3714,
    "Ġnarwhale": 12291,
    "Ġgregarious": 18963,
    "Ġcascade": 20578,
    "Ġparameters": 990,
    "thirst": 15823,
    "if": 376,
    "ladyship": 14828,
    "Ġdistinction": 8885,
    "changing": 10854,
    "promised": 12249,
    "Ġemptied": 24347,
    "Ġaccustomed": 6861,
    "brink": 23574,
    "Ġdocumentation": 20552,
    "Ġpequod": 2327,
    "skylight": 25623,
    "Ġhyster": 16872,
    "blocks": 25517,
    "sensibility": 25023,
    "Ġindicate": 23720,
    "reply": 19719,
    "shell": 16284,
    "Ġwere": 557,
    "Ġrag": 18637,
    "Ġvenerable": 9093,
    "Ġinvincible": 23477,
    "Ġbrother": 2748,
    "treas": 17678,
    "murdered": 12200,
    "pret": 7211,
    "Ġamazement": 7763,
    "Ġcrab": 13143,
    "Ġdismissed": 12889,
    "broker": 13303,
    "snatched": 24850,
    "Ġeccentric": 13648,
    "charitable": 23929,
    "Ġcelebrated": 13593,
    "ĠĠ": 353,
    "Ġhave": 445,
    "accents": 19210,
    "Ġrev": 6988,
    "solved": 7683,
    "Ġtuesday": 9626,
    "carriage": 9945,
    "iquette": 26133,
    "Ġwhis": 3501,
    "Ġpublisher": 24062,
    "Ġdisappears": 18558,
    "Ġbo": 799,
    "danced": 20826,
    "âĢĺ": 937,
    "Ġinvention": 19949,
    "Ġrash": 10898,
    "Ġupwards": 7632,
    "Ġpeaking": 22686,
    "Ġsc": 526,
    "see": 3045,
    "harbors": 20145,
    "Ġincalculable": 17459,
    "Ġcastles": 16637,
    "Ġhumbug": 18778,
    "Ġmembrane": 20500,
    "button": 10966,
    "season": 14033,
    "Ġoper": 2121,
    "Ġflorid": 17134,
    "Ġreservo": 16830,
    "Ġother": 758,
    "Ġdevoted": 6573,
    "Ġvacant": 9493,
    "pshaw": 21027,
    "rock": 15638,
    "Ġdropt": 23670,
    "swam": 24254,
    "led": 581,
    "Ġsatin": 12985,
    "admon": 21756,
    "Ġproduct": 3531,
    "Ġawed": 23583,
    "union": 15767,
    "y": 93,
    "Ġgrimly": 17051,
    "pertaining": 22174,
    "ropout": 1319,
    "sooner": 14775,
    "Ġcrust": 19118,
    "Ġprediction": 2204,
    "Ġrattle": 10899,
    "Ġpractically": 13094,
    "Ġbrace": 11212,
    "Ġtorpor": 25031,
    "Ġnotice": 4544,
    "Ġknowingly": 18479,
    "Ġsage": 17752,
    "oline": 6834,
    "Ġdecent": 10982,
    "erness": 6433,
    "Ġlate": 3374,
    "Ġinv": 2226,
    "Ġfiner": 13050,
    "spoke": 11024,
    "sorts": 21059,
    "quarrel": 20011,
    "âĢĶâĢĺ_": 24831,
    "Ġmornings": 16235,
    "Ġcluster": 13570,
    "Ġdisenc": 22522,
    "Ġleviathan": 3287,
    "sit": 13779,
    "mediterranean": 16401,
    "Ġ34": 16675,
    "Ġequator": 7460,
    "Ġpeasant": 13550,
    "darted": 20830,
    "warrant": 21135,
    "Ġdank": 21424,
    "Ġepid": 18004,
    "Ġshining": 8170,
    "article": 22402,
    "Ġrhyme": 21974,
    "Ġshrunk": 16716,
    "vices": 21114,
    "Ġdug": 21426,
    "Ġrosings": 4608,
    "Ġtunes": 24616,
    "Ġbite": 10797,
    "Ġskilful": 25836,
    "motives": 26138,
    "squall": 13521,
    "Ġremedy": 18723,
    "covenant": 23560,
    "Ġcuvier": 9165,
    "i": 77,
    "Ġblundering": 26284,
    "Ġinhab": 5083,
    "Ġdoubly": 16383,
    "Ġsince": 1794,
    "Ġsolution": 9804,
    "swear": 16917,
    "Ġbapt": 13895,
    "Ġstare": 10864,
    "Ġstreaked": 19112,
    "Ġdepart": 4657,
    "Ġalluding": 18236,
    "imaux": 21707,
    "ies": 583,
    "Ġfootfalls": 25866,
    "Ġdeposition": 18607,
    "Ġimmovable": 15890,
    "Ġcolourless": 19567,
    "Ġdecisions": 6702,
    "Ġsaf": 4001,
    "Ġpassion": 4558,
    "oar": 12495,
    "iers": 5990,
    "do": 1995,
    "Ġimpossible": 3540,
    "tranquil": 25870,
    "Ġpresum": 4837,
    "ually": 2769,
    "secut": 7865,
    "Ġgoring": 21599,
    "Ġwife": 2586,
    "itical": 5801,
    "Ġuse": 828,
    "ileries": 18058,
    "Ġtraps": 23078,
    "Ġpraying": 19551,
    "Ġunsavory": 20705,
    "proble": 9392,
    "Ġusing": 717,
    "Ġredeem": 20496,
    "Ġcoldly": 14651,
    "Ġtypewriter": 19096,
    "Ġfitly": 23996,
    "umblings": 23926,
    "sales": 17666,
    "Ġgone": 2108,
    "Ġstingy": 25455,
    "Ġugliness": 20423,
    "º": 123,
    "exactly": 10636,
    "Ġcalcul": 3635,
    "dried": 20825,
    "Ġdepend": 780,
    "Ġaccurately": 3890,
    "Ġanonymous": 26179,
    "Ġeyeing": 6459,
    "Ġbehavioral": 11397,
    "_--": 20760,
    "Ġunaccountable": 7885,
    "Ġbottle": 7489,
    "Ġsympath": 4861,
    "Ġcomply": 8890,
    "Ġconc": 1841,
    "Ġmount": 7361,
    "entials": 22655,
    "tern": 4222,
    "Ġincumbent": 16059,
    "Ġsidel": 9635,
    "screw": 9346,
    "Ġw": 272,
    "Ġgentleness": 8709,
    "Ġfavourite": 5270,
    "Ġlikes": 9406,
    "Ġfishery": 4174,
    "Ġwantest": 18788,
    "Ġunreasonable": 12774,
    "Ġyesterday": 5332,
    "Ġli": 601,
    "Ġ19": 6719,
    "Ġtragedy": 10667,
    "Ġcollege": 11425,
    "Ġraptures": 13496,
    "Ġturk": 6603,
    "Ġgeometric": 3217,
    "Ġgeneration": 2147,
    "Ġneuron": 1807,
    "jumped": 20243,
    "Ġballs": 9014,
    "nonsense": 17614,
    "Ġcompare": 9301,
    "Ġeffeminacy": 20716,
    "deliber": 17424,
    "Ġspeechless": 13352,
    "Ġexhib": 6348,
    "sw": 4741,
    "Ġgrant": 11872,
    "Ġpalp": 11252,
    "Ġequatorial": 13508,
    "ashes": 6015,
    "Ġintrepidity": 25550,
    "Ġrules": 1919,
    "swimming": 24258,
    "Ġsome": 654,
    "ve": 322,
    "Ġrecompense": 14838,
    "Ġauthority": 7747,
    "Ġhinges": 15212,
    "Ġmidnight": 5265,
    "Ġopened": 3509,
    "Ġgrope": 17994,
    "Ġstupendous": 20497,
    "Ġfinal": 5400,
    "ux": 7812,
    "Ġrobbed": 22965,
    "speech": 10666,
    "unerative": 21892,
    "Ġslewed": 23382,
    "aret": 7416,
    "cular": 15327,
    "Ġedges": 3822,
    "Ġsetbacks": 11063,
    "Ġmisunderstand": 18699,
    "desponding": 26341,
    "Ġextremest": 19193,
    "Ġwaif": 9374,
    "Ġadjacent": 20709,
    "Ġgreatly": 5849,
    "Ġcondem": 6337,
    "itement": 7834,
    "^{": 15303,
    "Ġvon": 14080,
    "continual": 20642,
    "Ġsnar": 13199,
    "Ġpsychology": 11449,
    "Ġlaws": 8001,
    "Ġunembarrassed": 22064,
    "Ġriotous": 20542,
    "12": 20747,
    "Ġlowering": 7985,
    "Ġchewed": 16372,
    "Ġmiscell": 16145,
    "Ġsphere": 15880,
    "Ġreveren": 13196,
    "Ġshapes": 14108,
    "law": 6116,
    "Ġobed": 8534,
    "Ġclassical": 22628,
    "ny": 4015,
    "Ġscrolled": 22266,
    "false": 15353,
    "Ġwounding": 19583,
    "Ġrational": 8478,
    "astonished": 15033,
    "brad": 20779,
    "Ġshrinking": 14804,
    "Ġhedge": 8362,
    "Ġburtons": 19251,
    "Ġult": 9074,
    "Ġsuspense": 9416,
    "Ġtattooings": 24900,
    "heaven": 8051,
    "Ġhunsford": 6300,
    "ench": 21277,
    "ching": 5156,
    "Ġincompetent": 25679,
    "Ġexpands": 25237,
    "Ġfrankness": 16744,
    "kee": 18272,
    "Ġansw": 2206,
    "whiteness": 18369,
    "Ġresting": 7960,
    "Ġbaleful": 24982,
    "Ġprinciple": 6770,
    "roads": 17957,
    "Ġpunctil": 20110,
    "Ġslugg": 15267,
    "Ġpluck": 15611,
    "Ġcontract": 18474,
    "Ġmultimodal": 18746,
    "garity": 17553,
    "Ġselfish": 7271,
    "gl": 3289,
    "Ġdegenerated": 20502,
    "cial": 2646,
    "Ġnewsp": 9338,
    "stump": 21648,
    "Ġ4": 3985,
    "Ġintervening": 17266,
    "screaming": 20322,
    "Ġgoing": 2067,
    "estab": 14171,
    "Ġcap": 2365,
    "direful": 25896,
    "Ġforefinger": 16442,
    "Ġsaving": 15885,
    "itiously": 13870,
    "Ġpossessor": 23820,
    "Ġconversation": 3328,
    "binder": 17498,
    "Ġthrees": 23398,
    "Ġpremises": 10487,
    "stubb": 6017,
    "quaker": 15760,
    "Ġpleasanter": 19066,
    "Ġquest": 2001,
    "Ġoverpower": 12840,
    "Ġduly": 13349,
    "Ġcheese": 9377,
    "gaz": 20877,
    "Ġsuperlatively": 26075,
    "Ġskeleton": 5514,
    "aulding": 11339,
    "artic": 14226,
    "renew": 24450,
    "Ġactively": 18652,
    "Ġhaunted": 10253,
    "hastily": 19699,
    "arded": 5029,
    "Ġchivalrous": 20512,
    "Ġseaman": 8638,
    "Ġslang": 23158,
    "Ġminimizes": 2047,
    "cture": 15662,
    "thus": 5158,
    "alid": 13934,
    "chie": 21685,
    "slowly": 9088,
    "tit": 11528,
    "Ġcyp": 21342,
    "gon": 17551,
    "Ġruth": 14092,
    "causing": 25518,
    "Ġsinister": 8567,
    "brows": 17495,
    "ĠĠĠĠĠĠĠĠĠĠĠĠĠĠĠĠĠĠĠĠĠĠĠĠĠĠĠĠĠĠĠĠĠĠĠĠĠĠĠĠ": 4518,
    "Ġwebster": 20158,
    "Ġlabels": 3286,
    "revol": 12537,
    "Ġmocking": 24000,
    "yth": 980,
    "Ġalien": 14017,
    "Ġsprawling": 22134,
    "entions": 17974,
    "icil": 17971,
    "Ġconsec": 21800,
    "batross": 9092,
    "Ġeffectually": 16164,
    "Ġbraided": 16579,
    "Ġrest": 1781,
    "same": 5361,
    "p": 84,
    "Ġprecisely": 6465,
    "Ġstroke": 6936,
    "Ġbrilliantly": 25120,
    "Ġbook": 2702,
    "mud": 20970,
    "Ġdeftly": 26493,
    "Ġcolony": 18764,
    "Ġspinal": 12300,
    "fordshire": 4677,
    "fury": 17546,
    "aract": 17894,
    "Ġsomehow": 4841,
    "ugl": 23283,
    "Ġaqu": 17742,
    "situation": 11438,
    "welt": 12518,
    "Ġsell": 7824,
    "algorith": 3394,
    "Ġrevolving": 9982,
    "lp": 898,
    "Ġsideboard": 10385,
    "ylon": 24975,
    "say": 3983,
    "mency": 18924,
    "Ġcharles": 11955,
    "separately": 25227,
    "Ġol": 17814,
    "Ġpractised": 23299,
    "Ġfath": 7363,
    "ituted": 13872,
    "Ġalps": 10870,
    "Ġinterview": 9769,
    "Ġremained": 3139,
    "stoke": 18022,
    "floor": 14936,
    "volous": 18589,
    "Ġengravings": 15065,
    "Ġohio": 19128,
    "Ġcharacteristically": 23689,
    "Ġoffences": 18692,
    "ution": 4350,
    "usal": 7637,
    "Ġattached": 5392,
    "last": 3800,
    "Ġslices": 23164,
    "Ġexcite": 11964,
    "Ġmemorand": 23402,
    "Ġmockery": 12105,
    "Ġbleeds": 24397,
    "Ġben": 1109,
    "ister": 1295,
    "Ġamidst": 9492,
    "dismal": 23494,
    "Ġcollar": 11878,
    "eer": 15346,
    "generative": 4330,
    "Ġdangerous": 6612,
    "Ġbrook": 13045,
    "Ġhorr": 3189,
    "Ī": 235,
    "Ġbrist": 14378,
    "Ġsandwic": 24665,
    "Ġfourth": 7705,
    "quer": 11679,
    "Ġshaping": 21999,
    "Ġindistinctly": 26118,
    "antucket": 2642,
    "Ġseptember": 18205,
    "Ġing": 5283,
    "mber": 7802,
    "treacle": 25148,
    "Ġprofoundest": 16859,
    "Ġsane": 21219,
    "Ġdevotedly": 24750,
    "Ġconceals": 23900,
    "espe": 3495,
    "Ġoil": 3370,
    "threadbare": 25989,
    "urities": 18049,
    "string": 15683,
    "Ġdilig": 8348,
    "furniture": 20239,
    "ins": 1382,
    "journey": 8744,
    "Ġbusiness": 2235,
    "ansion": 10925,
    "Ġswiftly": 5670,
    "Ġuttered": 7279,
    "wake": 11546,
    "prot": 6899,
    "hon": 6793,
    "Ġvagueness": 25737,
    "Ġflexible": 23773,
    "Ġfert": 15579,
    "Ġtradeoff": 2656,
    "telesc": 22813,
    "bastian": 10673,
    "pivot": 21030,
    "Ġbluff": 16514,
    "equally": 19896,
    "Ġinquis": 19303,
    "Ġsinners": 18948,
    "beating": 22485,
    "suspended": 15177,
    "deploy": 22138,
    "Ġinclinations": 19538,
    "Ġinsists": 23676,
    "Ġfootman": 8286,
    "Ġamendment": 26024,
    "Ġrepute": 18034,
    "admitted": 18091,
    "Ġsufficiently": 8973,
    "Ġentered": 2844,
    "ai": 2529,
    "ishnoo": 10956,
    "quently": 9701,
    "hig": 12472,
    "concerning": 9067,
    "izabeth": 906,
    "Ġbermud": 26439,
    "axen": 22517,
    "Ġchrysalis": 26539,
    "Ġstraight": 3701,
    "Ġpowder": 11276,
    "Ġlimping": 23542,
    "Ġasc": 4765,
    "Ġscrawled": 24580,
    "Ġharsh": 9519,
    "Ġthereupon": 18432,
    "resembling": 25932,
    "Ġharris": 13926,
    "Ġrad": 4962,
    "Ġescort": 23502,
    "ertain": 1208,
    "Ġaffidavit": 20722,
    "ĩ": 234,
    "offers": 16392,
    "arson": 22745,
    "speechless": 25395,
    "Ġport": 3307,
    "quin": 21848,
    "Ġexcessively": 9438,
    "Ġpatriot": 23277,
    "Ġcollinses": 19129,
    "Ġlet": 1113,
    "Ġincorporate": 20451,
    "Ġheavenly": 12082,
    "cart": 10688,
    "Ġpruning": 18969,
    "Ġmexic": 14031,
    "lid": 20944,
    "Ġren": 3843,
    "Ġ1839": 20456,
    "Ġaux": 21197,
    "Ġsymp": 4503,
    "alloyed": 22191,
    "Ġprosecution": 12380,
    "Ġear": 1424,
    "Ġwearing": 12736,
    "painful": 13501,
    "excitement": 19666,
    "Ġnavigation": 9992,
    "Ġupdating": 2690,
    "Ġsnap": 11201,
    "feeders": 25235,
    "iosity": 2293,
    "ipt": 12476,
    "Ġseverest": 14089,
    "Ġforced": 4353,
    "Ġturtle": 4202,
    "Ġsobbed": 14137,
    "Ġribbed": 16803,
    "oped": 6047,
    "lu": 596,
    "Ġbeaut": 2396,
    "Ġune": 4599,
    "Ġgenealogies": 25961,
    "Ġadopted": 15178,
    "Ġsaluted": 14758,
    "Ġexhale": 24402,
    "Ġgenus": 24429,
    "Ġexper": 1280,
    "attentions": 13573,
    "Ġremot": 8542,
    "woman": 5898,
    "ulia": 18148,
    "Ġ55": 24323,
    "Ġclosest": 16762,
    "nine": 13760,
    "Ġatt": 774,
    "Ġfors": 21766,
    "ation": 320,
    "conve": 14244,
    "published": 26143,
    "Ġworsted": 19991,
    "orte": 14185,
    "Ġserious": 4322,
    "Ġpledged": 20685,
    "Ġwretched": 4079,
    "dinah": 20077,
    "mistaken": 12208,
    "enjoyment": 17256,
    "meryton": 10111,
    "Ġgait": 13329,
    "Ġneatly": 17015,
    "erns": 8777,
    "beards": 22487,
    "Ġwants": 5742,
    "fairly": 17218,
    "objection": 19912,
    "É": 138,
    "Ĥ": 229,
    "Ġlingu": 11614,
    "preading": 18496,
    "stepfather": 19189,
    "Ġhelen": 16653,
    "uine": 13798,
    "Ġcoars": 14271,
    "Ġanticipating": 17057,
    "ile": 521,
    "Ġrevelry": 15136,
    "Ġingenious": 12346,
    "pick": 17633,
    "ppery": 10892,
    "Ġbargain": 23790,
    "Ġsubterr": 10348,
    "Ġchance": 3315,
    "oding": 1463,
    "Ġsuspected": 9062,
    "Ġsuffocated": 20726,
    "ists": 4000,
    "Ġbenefits": 4287,
    "scrape": 25698,
    "Ġoversampling": 20513,
    "Ġ1991": 3014,
    "Ġguernsey": 9350,
    "Ġref": 932,
    "Ġsequ": 981,
    "Ġdesolate": 10012,
    "Ġpaying": 9937,
    "Ġrushed": 4085,
    "urrection": 12407,
    "Ġunhappy": 5640,
    "expound": 23658,
    "Ġserm": 9633,
    "Ġide": 2123,
    "trial": 20347,
    "collar": 19327,
    "Ġdilatory": 24704,
    "Ġlurking": 11290,
    "safety": 20346,
    "learn": 2283,
    "resses": 16148,
    "Ġtransl": 2828,
    "portent": 25412,
    "aves": 3596,
    "Ġfluctu": 5267,
    "fishing": 20857,
    "continued": 8675,
    "lay": 5890,
    "_,âĢĻâĢĿ": 20397,
    "Ġdimin": 3869,
    "legs": 13181,
    "Ġalternating": 15031,
    "involuntarily": 20411,
    "maintained": 25020,
    "upper": 11539,
    "ele": 9114,
    "Ġtables": 9877,
    "lacing": 17589,
    "did": 3195,
    "Ġdeliver": 9847,
    "coo": 11171,
    "Ġbubblingly": 25632,
    "izzy": 3093,
    "extinguished": 16146,
    "eternal": 17982,
    "Ġmainz": 22651,
    "Ġunreasonably": 17449,
    "judgment": 16752,
    "usable": 22285,
    "Ġsupports": 3048,
    "reast": 17758,
    "Ġventilator": 8713,
    "chance": 6827,
    "Ġdescended": 7427,
    "Ġlectures": 17177,
    "harb": 9123,
    "Ġabruptly": 15150,
    "Ġexamining": 8004,
    "complaisance": 24811,
    "enough": 6809,
    "ifiable": 18163,
    "Ġintens": 7003,
    "Ġtop": 2472,
    "Ġchased": 8861,
    "Ġsnarl": 25715,
    "liest": 6293,
    "Ġgleam": 12306,
    "fri": 20852,
    "Ġflint": 23009,
    "Ġlab": 1872,
    "Ġtoo": 1169,
    "Ġray": 18638,
    "ertips": 23637,
    "phology": 3007,
    "Ġoldest": 12970,
    "Ġprehens": 22227,
    "perquis": 22176,
    "Ġunderground": 18982,
    "Ġsituated": 9446,
    "Ġimperilled": 19575,
    "Ġtalking": 3855,
    "Ġpersistence": 2849,
    "by": 1161,
    "Ġfatig": 6756,
    "Ġtortoise": 16907,
    "Ġcasualties": 25512,
    "Ġvexation": 10588,
    "elaborate": 21571,
    "shorn": 22443,
    "ird": 2430,
    "Ġblotted": 20214,
    "pract": 10119,
    "Ġcentral": 7726,
    "Ġcontributes": 15249,
    "Ġrampart": 20315,
    "Ġlibraries": 20612,
    "hoist": 23711,
    "Ġbub": 8116,
    "Ġped": 6817,
    "Ġprep": 4189,
    "Ġenormity": 19692,
    "ocation": 14627,
    "Ġ110": 24435,
    "Ġens": 2787,
    "coal": 12023,
    "weaving": 18665,
    "Ġobserve": 4671,
    "Ġfrock": 10489,
    "Ġrags": 18641,
    "alions": 21496,
    "Ġabatement": 22282,
    "Ġfront": 3449,
    "ook": 21003,
    "grant": 10427,
    "Ġmumbling": 11574,
    "Ġess": 5691,
    "Ġankles": 17899,
    "inde": 17730,
    "Ġdeserving": 14753,
    "Ġdiscoverer": 26035,
    "Ġover": 556,
    "Ġgryphon": 4299,
    "noon": 5037,
    "Ġredu": 1356,
    "ism": 4874,
    "Ġulster": 14998,
    "Ġfill": 5701,
    "Ġprior": 11319,
    "aried": 10987,
    "Ġmant": 9647,
    "Ġname": 2084,
    "Ġbanished": 10616,
    "Ġtraveller": 8047,
    "Ġcontentment": 14870,
    "Ġsmack": 9299,
    "Ġpul": 2041,
    "shoes": 14240,
    "Ġfidget": 15189,
    "Ġwhitened": 24867,
    "Ġunion": 6839,
    "Ġtexel": 25923,
    "Ġdod": 6672,
    "forest": 22514,
    "collected": 13212,
    "Ġpeep": 6870,
    "Ġspecialized": 3920,
    "Ġcage": 17825,
    "Ġrapid": 1421,
    "Ġhaven": 8472,
    "Ġshaking": 6550,
    "Ġlivid": 14989,
    "Ġtombed": 25160,
    "Ġrib": 4936,
    "Ġpink": 12615,
    "ature": 520,
    "ich": 469,
    "Ġtrod": 15027,
    "office": 16393,
    "Ġforming": 7041,
    "Ġkills": 15899,
    "Ġcoolly": 9771,
    "uge": 4016,
    "thrasher": 25658,
    "Ġfearfulness": 23509,
    "Ġsharply": 9401,
    "mystical": 25317,
    "Ġtoils": 10185,
    "Ġdearer": 14048,
    "Ġintu": 12760,
    "Ġpause": 5707,
    "Ġbenches": 18779,
    "Ġones": 3018,
    "Ġhammock": 5768,
    "Ġdealing": 14044,
    "Ġrejoiced": 8683,
    "fellows": 12271,
    "Ġperse": 6272,
    "Ġphilistines": 26082,
    "iscreet": 20680,
    "Ġidentifies": 12013,
    "Ġsubstantial": 14810,
    "Ġful": 4296,
    "lights": 13204,
    "Ġswam": 6447,
    "Ġconsiderably": 7713,
    "Ġabstained": 25231,
    "ssing": 3806,
    "merc": 19279,
    "ready": 2363,
    "Ġgrated": 22801,
    "ken": 2800,
    "Ġmont": 8556,
    "Ġbending": 12582,
    "Ġmincer": 14364,
    "Ġdrooping": 9418,
    "serv": 7450,
    "occ": 4485,
    "Ġagricultural": 26551,
    "Ġholidays": 22919,
    "Ġscott": 22263,
    "Ġscrupled": 25049,
    "Ġfiled": 15577,
    "Ġinarticulate": 21495,
    "form": 495,
    "Ġineffectual": 17382,
    "Ġentitled": 8537,
    "Ġdetained": 18376,
    "Ġdaft": 19660,
    "Ġmayhap": 18704,
    "occupations": 24964,
    "Ġshade": 6549,
    "geor": 15975,
    "Ġpersisting": 18878,
    "Ġal": 342,
    "Ġaccordingly": 6619,
    "swed": 24253,
    "Ġfatally": 19392,
    "imag": 6990,
    "mistake": 24529,
    "virtue": 20567,
    ")âĢĶ": 20740,
    "Ġaccidents": 10295,
    "Ġrestrict": 16374,
    "Ġforb": 11663,
    "ed": 293,
    "apprec": 22839,
    "can": 1230,
    "Ġadviser": 25312,
    "Ġchal": 18377,
    "Ġoffending": 22740,
    "Ġlovely": 4710,
    "ributed": 8213,
    "unctions": 18155,
    "ament": 2441,
    "plexy": 18574,
    "Ġsick": 4693,
    "precision": 4331,
    "slack": 16893,
    "Ġmagazine": 23098,
    "Ġmarty": 20287,
    "Ġplates": 11007,
    "Ġmoles": 22428,
    "mouthful": 25208,
    "mble": 1408,
    "quiet": 6154,
    "friends": 8304,
    "scept": 21052,
    "gale": 13722,
    "Ġnug": 21520,
    "Ġexhaust": 6398,
    "Ġrelation": 2142,
    "Ġprovision": 14824,
    "Ġaccept": 4410,
    "ignation": 11128,
    "middle": 11311,
    "asc": 6385,
    "Ġearthquake": 14629,
    "Ġslowly": 3615,
    "Ġrespected": 11951,
    "entiating": 3435,
    "Ġtugged": 17287,
    "intolerable": 22935,
    "Ġperches": 18448,
    "supplied": 10519,
    "Ġpred": 675,
    "Ġsupply": 6067,
    "Ġquartered": 20369,
    "Ġcoronet": 6343,
    "steaks": 23958,
    "Ġthrobbing": 16897,
    "resolution": 17766,
    "Ġfrigates": 25707,
    "feed": 9292,
    "Ġlip": 6531,
    "Ġhastily": 5763,
    "bird": 9585,
    "Ġbarbary": 24216,
    "drop": 15336,
    "orts": 2557,
    "grew": 17554,
    "eds": 6674,
    "transition": 24513,
    "Ġwan": 15526,
    "illar": 5101,
    "Ġeyelids": 26108,
    "Ġswerve": 14437,
    "Ġwithdrawing": 11340,
    "osely": 9264,
    "Ġadmiration": 5328,
    "hair": 9122,
    "discoveries": 25385,
    "alot": 15623,
    "Ġpod": 15601,
    "gress": 2215,
    "ian": 1236,
    "abetical": 15740,
    "ĠâĢĶâĢĶ": 25757,
    "Ġcastaways": 19426,
    "principal": 20658,
    "oglyph": 11018,
    "idol": 21761,
    "isticated": 1652,
    "repaid": 24491,
    "showing": 22447,
    "Ġassure": 4418,
    "Ġgordon": 26467,
    "ression": 3403,
    "eronomy": 15523,
    "ref": 6514,
    "Ġberkshire": 16883,
    "Ġmurderer": 4980,
    "è": 169,
    "not": 907,
    "Ġapproaching": 6283,
    "z": 94,
    "Ġpoland": 23615,
    "Ġmerrily": 23730,
    "Ġhatty": 19264,
    "Ġinvolving": 18759,
    "ped": 6364,
    "hardly": 6490,
    "cad": 17503,
    "Ġoccasionally": 5590,
    "Ġscared": 14188,
    "Ġcrushed": 9421,
    "Ġwide": 4106,
    "_)âĢĶ": 20141,
    "Ġparac": 12792,
    "moved": 9783,
    "ify": 1490,
    "Ġwheels": 10912,
    "chard": 21682,
    "irs": 14070,
    "Ġriding": 14093,
    "yrin": 12519,
    "Ġaffording": 14820,
    "Ġthinker": 22806,
    "agitation": 14067,
    "Ġmorass": 22973,
    "Ġdegraded": 19225,
    "think": 3606,
    "remind": 23186,
    "Ġsprained": 15881,
    "labours": 16615,
    "Ġblending": 14400,
    "Ġearnestness": 12123,
    "disgraceful": 26076,
    "Ġclimate": 9274,
    "tornadoes": 26154,
    "Ġforthwith": 16616,
    "Ġcomplained": 16997,
    "Ġscener": 10949,
    "custom": 15332,
    "Ġreview": 18030,
    "smeer": 26148,
    "Ġfails": 13312,
    "igen": 4830,
    "pall": 17627,
    "Ġcarpenters": 16750,
    "eminently": 25105,
    "traced": 19634,
    "Ġinjuries": 11278,
    "Ġfix": 2511,
    "surpr": 5996,
    "Ġchances": 9262,
    "Ġminus": 18748,
    "orse": 5806,
    "ost": 5360,
    "Ġascertained": 25296,
    "Ġfortnight": 6200,
    "Ġhawaiian": 25366,
    "Ġconcern": 2654,
    "wil": 8394,
    "Ġghostly": 24651,
    "prolong": 23392,
    "ggy": 13112,
    "Ġmiguel": 25766,
    "native": 17610,
    "Ġwatching": 4854,
    "Ġwherever": 8522,
    "istered": 14145,
    "Ġneighbour": 3805,
    "Ġhadn": 9718,
    "vic": 13801,
    "Ġ129": 24474,
    "Ġfoliage": 18866,
    "had": 1951,
    "hog": 8378,
    "Ġskulls": 12956,
    "Ġtunnel": 14930,
    "eches": 8076,
    "Ġbarbs": 10531,
    "Ġbordered": 24563,
    "Ġnorthward": 13319,
    "Ġdisquiet": 18550,
    "Ġexcited": 5580,
    "âĢĶâĢĶâĢĿ": 15936,
    "reigned": 21240,
    "flinging": 20866,
    "ric": 1381,
    "Ġappend": 18359,
    "Ġsuckling": 25997,
    "Ġarbit": 4651,
    "Ġlam": 21544,
    "ikes": 8085,
    "Ġdiabol": 11454,
    "Ġbomb": 17867,
    "pitching": 24074,
    "destiny": 16700,
    "Ġlithe": 24669,
    "mastod": 23971,
    "Ġincor": 2608,
    "Ġbod": 4582,
    "Ġinspiring": 19111,
    "won": 7143,
    "Ġdamn": 11158,
    "Ġincomp": 12894,
    "Ġ----": 7144,
    "Ġaloysius": 15735,
    "consent": 18500,
    "Ġlend": 17962,
    "commanding": 24752,
    "offing": 23331,
    "Ġnavel": 24576,
    "Ġcoll": 8219,
    "capting": 24036,
    "Ġexpectation": 6904,
    "Ġmarked": 4620,
    "Ġinstructed": 19283,
    "Ġhieroglyphic": 25587,
    "Ġdang": 9174,
    "Ġsn": 2949,
    "Ġfriends": 2652,
    "ortunity": 4403,
    "Ġsubsisted": 19116,
    "Ġobjects": 5578,
    "Ġunprincipled": 20706,
    "sor": 7351,
    "Ġspit": 22119,
    "Ġcotton": 17377,
    "Ġintercepted": 25826,
    "transferred": 24514,
    "ish": 551,
    "Ġcommentators": 25229,
    "Ġmagnanimous": 17409,
    "Ġmoods": 14951,
    "Ġeels": 21615,
    "Ġsnatched": 10471,
    "unts": 12728,
    "Ġrephr": 21674,
    "onel": 3088,
    "Ġdressing": 7089,
    "Ġsymbol": 7715,
    "Ġprows": 19886,
    "Ġlan": 5820,
    "ivory": 10268,
    "Ġspong": 15879,
    "afternoon": 13184,
    "clear": 9023,
    "Ġigniting": 25070,
    "Ġdescends": 14287,
    "Ġ93": 24591,
    "imson": 12686,
    "Ġwhen": 514,
    "Ġeastern": 11629,
    "Ġfoundering": 21415,
    "Ġsongs": 13419,
    "Ġresumed": 11811,
    "Ġenforced": 21934,
    "Ġquenched": 22413,
    "neural": 3064,
    "Ġinfluence": 5515,
    "aton": 21256,
    "Ġincreases": 3794,
    "Ġpallid": 12297,
    "Ġapparition": 8065,
    "Ġunwarrantable": 26353,
    "Ġbliss": 12998,
    "Ġcomparatively": 9488,
    "Ġdrawn": 4276,
    "south": 8758,
    "sheep": 23084,
    "Ġillum": 9398,
    "Ġrevel": 9214,
    "Ġleaf": 15714,
    "Ġproved": 4884,
    "how": 1643,
    "Ġ116": 24440,
    "ignantly": 23264,
    "morning": 4859,
    "arrant": 10474,
    "Ġstrait": 23748,
    "Ġsnake": 12059,
    "are": 638,
    "Ġbug": 11589,
    "Ġconquer": 14026,
    "Ġblacksmiths": 19870,
    "saw": 5893,
    "Ġprint": 18968,
    "ww": 10737,
    "without": 4846,
    "www": 17250,
    "read": 3273,
    "Ġswiftness": 9926,
    "Ġaper": 17743,
    "Ġhorseback": 14850,
    "Ġmoonlight": 9957,
    "hent": 12531,
    "Ġbowled": 23767,
    "Ġexasper": 8465,
    "Ġunjustifiable": 25109,
    "Ġresigned": 9767,
    "handkerchief": 14618,
    "Ġanomalously": 25638,
    "Ġinsens": 8275,
    "Ġoccasion": 3244,
    "Ġscenarios": 26540,
    "Ġarrived": 3744,
    "Ġcruises": 23703,
    "Ġdiscipline": 26562,
    "Ġgliding": 8558,
    "annica": 24561,
    "//": 11464,
    "felt": 5888,
    "gled": 10699,
    "probably": 10019,
    "Ġpaddles": 15147,
    "linen": 25257,
    "Ġploughed": 22604,
    "Ġproficiency": 19191,
    "draw": 23895,
    "Ġhappened": 3711,
    "Ġadds": 1805,
    "entire": 6824,
    "Ġsatisfied": 4171,
    "Ġprotruding": 16656,
    "Ġfilling": 13407,
    "Ġrival": 10485,
    "Ġdegradation": 2630,
    "adier": 18089,
    "consist": 14815,
    "ites": 3897,
    "Ġthickets": 24020,
    "Ġanimated": 7700,
    "Ġmonsters": 11075,
    "zy": 2669,
    "akes": 2221,
    "Ġcalls": 6744,
    "r": 86,
    "ignomin": 23265,
    "Ġnative": 4641,
    "european": 26371,
    "Ġgoodness": 6059,
    "Ġdoesn": 7437,
    "wr": 3027,
    "whalemen": 10431,
    "affrail": 11205,
    "Ġeats": 15674,
    "dem": 10691,
    "bag": 7541,
    "Ġtherein": 11774,
    "Ġmistifying": 23717,
    "Ġwashing": 9704,
    "Ġsheer": 14151,
    "Ġconse": 21799,
    "turning": 8315,
    "Ġsherry": 19449,
    "Ġdest": 2240,
    "Ġsaintly": 25931,
    "Ġabilities": 8867,
    "Ġmuse": 13859,
    "Ġcaucus": 17378,
    "Ġblossom": 26313,
    "fool": 9047,
    "Ġunattended": 15841,
    "S": 55,
    "Ġbeauties": 10445,
    "airs": 2223,
    "Ġmetropolitan": 17274,
    "Ġcigar": 9543,
    "Ġspoils": 24808,
    "Ġhides": 16260,
    "cc": 471,
    "Ġdesponding": 25868,
    "Ġfacts": 2292,
    "Ġgradually": 3399,
    "Ġanimating": 23421,
    "kinder": 24845,
    "lovely": 16043,
    "Ġmanaging": 22321,
    "Ġprolonged": 8357,
    "rating": 7807,
    "Ġinterrupt": 4360,
    "boat": 3359,
    "Ġmag": 1430,
    "Ġillustrations": 17107,
    "Ġjoppa": 12034,
    "Ġexhaustion": 14960,
    "Ġemir": 23347,
    "Ġentrapped": 26263,
    "Ġgoose": 5938,
    "Ġper": 589,
    "pierced": 26142,
    "make": 5793,
    "Ġlistener": 16473,
    "bucket": 17492,
    "Ġtempestuous": 20067,
    "Ġsap": 18321,
    "Ġfelix": 4848,
    "Ġrucastle": 5176,
    "Ġalbatross": 10871,
    "Ġener": 10896,
    "Ġcarriages": 11098,
    "Ġchristian": 6478,
    "heart": 4527,
    "forgotten": 12414,
    "Ġheredit": 9216,
    "Ġhindrance": 25220,
    "ivened": 22962,
    "Ġnone": 3222,
    "Ġscanning": 18392,
    "poling": 12217,
    "Ġpraised": 19550,
    "Ġrh": 9243,
    "eel": 11484,
    "Ġjackets": 19599,
    "Ġduke": 7754,
    "friendship": 24045,
    "Ġprofited": 19190,
    "days": 7686,
    "Ġpleasantly": 14521,
    "scarcely": 12384,
    "Ġcobbler": 25829,
    "resp": 13838,
    "Ġdeeply": 4717,
    "Ġparacelsus": 15265,
    "herald": 22196,
    "Ġoakum": 16934,
    "flame": 16635,
    "Ġsettee": 22918,
    "rely": 6124,
    "Ġveil": 7932,
    "inate": 6233,
    "Ġgirth": 13135,
    "Ġstrands": 25574,
    "inferiors": 25346,
    "Ġire": 12666,
    "Ġconnect": 801,
    "Ġintricate": 15137,
    "Ġopening": 5045,
    "Ġcompromised": 22567,
    "Ġbelongs": 8013,
    "Ġobtaining": 16129,
    "ction": 499,
    "đ": 210,
    "Ġexquisitely": 20199,
    "Ġhandsomest": 20331,
    "wich": 11544,
    "Ġacquired": 13041,
    "Ġgrasp": 4664,
    "Ġalley": 15733,
    "<EOS>": 2,
    "Ġtelescope": 17346,
    "ingale": 21297,
    "Ġpelt": 15607,
    "Ġwhales": 1827,
    "Ġbressed": 21383,
    "Ġobjectionable": 16990,
    "pus": 3412,
    "Ġobstin": 14979,
    "Ġravine": 18643,
    "Ġdeformed": 14046,
    "s": 87,
    "Ġsometimes": 2167,
    "Ġhideousness": 16914,
    "rie": 2786,
    "hereafter": 19215,
    "deck": 4501,
    "ifer": 11684,
    "Ġcreamy": 14330,
    "]": 65,
    "ieving": 7030,
    "Ġdividing": 12109,
    "inging": 5906,
    "Ġintended": 5549,
    "Ġarmed": 9259,
    "Ġpublicly": 13320,
    "upp": 10130,
    "Ġtearing": 14396,
    "Ġcasualty": 20338,
    "imperturbable": 25790,
    "Ġsimilar": 4917,
    "Ġannounced": 9034,
    "Ġbusily": 9384,
    "Ġrome": 12153,
    "we": 847,
    "Ġlifting": 10196,
    "Ġanalyzing": 18801,
    "Ġpanegyric": 26449,
    "Ġpurses": 23474,
    "limbs": 20188,
    "Ġdeductions": 19730,
    "Ġhatchet": 16525,
    "Ġtreas": 7357,
    "Ġaccompanying": 11305,
    "bowsprit": 16852,
    "Ġbloody": 9887,
    "depend": 9112,
    "Ġdependency": 3485,
    "inct": 3291,
    "Ġleghorn": 13145,
    "black": 6768,
    "intervals": 10637,
    "Ġfishy": 16520,
    "limp": 20951,
    "Ġoppressed": 11190,
    "binary": 20782,
    "Ġrefill": 18707,
    "Ġrefused": 6715,
    "ditch": 17527,
    "Ġbreak": 2867,
    "Ġprefers": 20511,
    "Ġbeech": 18082,
    "Ġlibr": 15997,
    "Ġsquaw": 22834,
    "Ġstandards": 19014,
    "Ġlistening": 6317,
    "Ġnoted": 15825,
    "Ġshilling": 18228,
    "comrade": 20622,
    "bohemia": 20729,
    "incident": 14592,
    "bowed": 10683,
    "Ġveget": 11885,
    "agree": 14066,
    "Ġgot": 2284,
    "eleg": 20847,
    "glorious": 19365,
    "develop": 13517,
    "Ġbag": 5699,
    "Ġpresumption": 10545,
    "import": 5668,
    "Ġrests": 13091,
    "Ġlanterns": 24577,
    "Ġplant": 8899,
    "Ġtrades": 8230,
    "treat": 12511,
    "Ġpass": 1038,
    "Ġunalterable": 15849,
    "quarter": 11389,
    "knowledge": 7477,
    "Ġequival": 4784,
    "Ġpleasures": 11143,
    "Ġamericans": 14743,
    "³": 116,
    "Ġmouth": 3179,
    "Ġtight": 8106,
    "teen": 6369,
    "Ġbenef": 3486,
    "Ġdir": 21417,
    "ten": 1558,
    "Ġrooms": 5180,
    "Ġmisgivings": 15289,
    "Ġratt": 7879,
    "Ġlob": 7626,
    "Ġglimmer": 15141,
    "Ġobjective": 3764,
    "Ġcott": 3707,
    "Ġbizarre": 17871,
    "Ġbase": 5013,
    "Ġcheeks": 5957,
    "Ġlive": 2734,
    "stirred": 20421,
    "Ġinestim": 15621,
    "nect": 662,
    "Ġyouth": 4262,
    "Ġreserves": 19667,
    "uble": 21100,
    "Ġthoughtless": 16190,
    "Ġminuteness": 19138,
    "Ġportly": 14679,
    "inserted": 18887,
    "Ġgarb": 21598,
    "sex": 12710,
    "Ġelix": 22641,
    "Ġcalamity": 17347,
    "entieth": 17978,
    "Ġendless": 7052,
    "Ġimbedded": 18331,
    "Ġtortured": 14924,
    "enc": 7573,
    "Ġsagaciously": 24730,
    "Ġdirect": 1472,
    "Ġvexatious": 19777,
    "embra": 14075,
    "dry": 13702,
    "Ġlaug": 3624,
    "dation": 2612,
    "lik": 3915,
    "Ġshar": 9249,
    "Ġconvers": 2905,
    "Ġanything": 2186,
    "Ġsoap": 14133,
    "fowl": 17548,
    "Ġpawnbroker": 13657,
    "sford": 5997,
    "Ġbones": 4584,
    "Ġfortun": 4982,
    "disapprobation": 19155,
    "Ġalleg": 14016,
    "Ġmcc": 21304,
    "precisely": 6917,
    "Ġfame": 21402,
    "Ġcondition": 6764,
    "Ġappointed": 20099,
    "Ġfant": 9173,
    "Ġreckless": 13457,
    "Ġcure": 21337,
    "Ġsumm": 3353,
    "fatality": 25019,
    "Ġvillage": 5774,
    "phant": 6286,
    "Ġjeopard": 9942,
    "Ġsing": 3071,
    "latter": 15381,
    "anted": 5027,
    "devils": 20029,
    "chat": 21681,
    "Ġgramm": 8169,
    "Ġoverhung": 15972,
    "Ġsixth": 16557,
    "Ġprinciples": 10010,
    "Ġforemost": 12003,
    "Ġenchanting": 17038,
    "Ġruthless": 15284,
    "Ġpromote": 23191,
    "ravelled": 18014,
    "Ġjiff": 22292,
    "tained": 4405,
    ".]": 15297,
    "Ġsystems": 803,
    "Ġempt": 5051,
    "400": 20753,
    "Ġlurked": 11292,
    "ability": 716,
    "wheels": 14381,
    "professional": 20272,
    "Ġblasphe": 17405,
    "Ġkissed": 10044,
    "generous": 16566,
    "Ġdeformity": 11676,
    "mission": 5969,
    "Ġmarshal": 20216,
    "Ġcells": 13884,
    "Ġindic": 2885,
    "Ġdrawer": 13264,
    "Ġgushed": 21602,
    "Ġbingleys": 18994,
    "Ġattacking": 24465,
    "Ġpanted": 21468,
    "grate": 23409,
    "Ġchagrin": 20605,
    "Ġsubterranean": 13610,
    "Ġsciences": 15940,
    "ale": 505,
    "breadth": 20273,
    "Ġvalleys": 14919,
    "neurons": 3133,
    "Ġunluckily": 20098,
    "Ġdegrees": 7293,
    "putting": 14099,
    "otion": 4946,
    "irection": 2390,
    "Ġresemblance": 7971,
    "Ġfortunately": 12177,
    "short": 6565,
    "Ġduty": 4070,
    "Ġsket": 18726,
    "aired": 8367,
    "olent": 8153,
    "Ġvigorous": 10566,
    "Ġchewing": 23287,
    "Ġtremor": 24768,
    "countenances": 24150,
    "Ġperdition": 15989,
    "ency": 3866,
    "invested": 17116,
    "lands": 8239,
    "Ġhumph": 22880,
    "inglass": 21300,
    "Ġunheeded": 18261,
    "Ġimpro": 909,
    "Ġtick": 8107,
    "shiver": 16019,
    "Ġhams": 16610,
    "calmed": 16201,
    "Ġcordial": 16834,
    "Ġadapts": 3814,
    "Ġgrapple": 25811,
    "jump": 10103,
    "cerem": 15675,
    "ulations": 6028,
    "pression": 10407,
    "inching": 21187,
    "hour": 7339,
    "astes": 11738,
    "Ġuppermost": 15277,
    "brave": 19820,
    "Ġtus": 10749,
    "Ġoppressive": 20452,
    "Ġjan": 11761,
    "Ġease": 5629,
    "Ġbuoy": 8002,
    "erably": 7572,
    "Ġtingling": 15092,
    "imate": 4219,
    "====": 1481,
    "Ġdin": 3622,
    "onian": 17767,
    "Ġdeceive": 12719,
    "ifference": 5632,
    "Ġpuppy": 12403,
    "Ġflock": 21407,
    "Ġstarting": 7727,
    "Ġheeded": 13402,
    "Ġocean": 3302,
    "Ġsur": 2183,
    "Ġpiqu": 21473,
    "Ġwes": 8778,
    "Ġcaring": 23089,
    "Ġintend": 12761,
    "â": 163,
    "empl": 5724,
    "oforte": 14286,
    "Ġoptimizer": 5036,
    "Ġpersever": 10002,
    "light": 3015,
    "Ġintimacy": 8700,
    "orient": 2877,
    "Ġunfor": 15837,
    "Ġdeduced": 12205,
    "Ġrearing": 12674,
    "Ġface": 1722,
    "Ġdecapitated": 20613,
    "ancial": 21358,
    "ousings": 18334,
    "Ġriots": 23889,
    "sense": 11524,
    "Ġunwonted": 14125,
    "mews": 22711,
    "horn": 8084,
    "figured": 20119,
    "entiful": 10836,
    "Ġofficious": 19346,
    "Ġdiff": 3113,
    "icilian": 20689,
    "Ġunearthly": 9036,
    "Ġbrightest": 13223,
    "tired": 21071,
    "ustration": 2262,
    "tisement": 6767,
    "cro": 13695,
    "Ġwarning": 9058,
    "Ġalow": 18099,
    "Ġthousand": 2782,
    "Ġskirting": 22793,
    "frankenstein": 11392,
    "Ġsuit": 5725,
    "Ġnib": 13939,
    "Ġpoising": 22587,
    "ittingly": 18804,
    "ization": 483,
    "Ġgreek": 10630,
    "attend": 11101,
    "Ġshores": 8847,
    "giving": 8738,
    "Ġindestructible": 26573,
    "appe": 2944,
    "Ġislets": 21796,
    "Ġrusty": 14963,
    "ateg": 1327,
    "Ġfashioned": 13318,
    "Ġpaste": 23416,
    "venison": 22624,
    "Ġreign": 13984,
    "Ġvehem": 22886,
    "Ġpresently": 5116,
    "Ġhedges": 19981,
    "Ġalt": 18098,
    "Ġzoned": 22817,
    "Ġobjecting": 18895,
    "supposing": 24134,
    "iveness": 2469,
    "Ġdrab": 13069,
    "Ġsped": 22120,
    "Ġwages": 13853,
    "ex": 623,
    "romang": 22001,
    "Ġlo": 453,
    "Ġtaste": 5524,
    "Ġslippery": 12164,
    "likewise": 13104,
    "ĠĠĠĠĠĠĠĠĠĠĠĠĠĠĠĠĠ": 22946,
    "Ġrelief": 6060,
    "Ġregion": 2275,
    "ogrand": 26262,
    "Ġsobs": 14135,
    "Ġstubb": 1785,
    "storied": 18024,
    "contents": 12056,
    "sick": 13783,
    "apped": 5395,
    "Ġconversed": 13185,
    "Ġslack": 8955,
    "Ġcocain": 18597,
    "readiness": 19361,
    "Ġcaused": 5048,
    "Ġmalignant": 14878,
    "battering": 20784,
    "Ġsaint": 15506,
    "Ġbraces": 14670,
    "Ġsex": 8841,
    "tawny": 26404,
    "esty": 4305,
    "hated": 17560,
    "Ġincensed": 18570,
    "Ġyielded": 14872,
    "osoever": 17341,
    "Ġharpoon": 3613,
    "miserably": 24210,
    "Ġfirmest": 16662,
    "Ġcircum": 8256,
    "bare": 12439,
    "ety": 3518,
    "Ġundecided": 22043,
    "Ġexclusion": 19394,
    "Ġweb": 9239,
    "repeating": 20125,
    "te": 991,
    "Ġ121": 24466,
    "car": 4210,
    "pursue": 24973,
    "parted": 21015,
    "Ġskull": 6287,
    "Ġgrowing": 6750,
    "Ġhooded": 12404,
    "Ġsax": 10927,
    "shipmates": 11927,
    "Ġsheets": 9721,
    "Ġsultan": 15184,
    "tch": 9141,
    "iences": 6957,
    "Ġcome": 1239,
    "display": 19154,
    "ool": 17617,
    "john": 11498,
    "Ġgathers": 24742,
    "Ġcorpore": 13400,
    "Ġprognost": 15280,
    "Ġcolumbus": 26565,
    "jub": 20928,
    "Ġlimbs": 5965,
    "ented": 4349,
    "Ġphrenologically": 20390,
    "Ġshy": 10903,
    "insufferable": 21190,
    "Ġwatch": 2743,
    "Ġfluttered": 16247,
    "Ġstately": 9833,
    "indef": 17734,
    "Ġwindings": 18908,
    "Ġdisliked": 12888,
    "Ġtatters": 21175,
    "Ġremorse": 6440,
    "continue": 16860,
    "Ġauthorities": 11265,
    "unities": 15768,
    "Ġdiscoveries": 13357,
    "Ġfurlongs": 20721,
    "Ġweaken": 21918,
    "sleeve": 26109,
    "gies": 13725,
    "forecastle": 10990,
    "Ġsig": 867,
    "Ġforgiveness": 16654,
    "Ġpinched": 17034,
    "foundation": 16712,
    "Ġvia": 2384,
    "merely": 16131,
    "Ġdemig": 20353,
    "Ġcritical": 7472,
    "Ġimparts": 18445,
    "Ġimposs": 16614,
    "Ġtradesman": 20069,
    "estruct": 22223,
    "Ġhelm": 5275,
    "keys": 15856,
    "cr": 4074,
    "Ġjackson": 24240,
    "ru": 494,
    "lic": 17586,
    "Ġoakshott": 12227,
    "seaman": 25457,
    "Ġfreezing": 23880,
    "Ġ51": 24320,
    "Ġdenominated": 15227,
    "Ġcollections": 22856,
    "Ġconjure": 17122,
    "stricken": 9883,
    "Ġelias": 18634,
    "Ġfrivolous": 26177,
    "Ġpages": 15605,
    "distinguish": 19569,
    "Ġafforded": 8027,
    "Ġmonkey": 8225,
    "Ġoughts": 23897,
    "lad": 5991,
    "Ġdimly": 9486,
    "Ġcommodores": 25374,
    "ancing": 1758,
    "Ġrescales": 5068,
    "Ġforegoing": 23447,
    "Ġyork": 11665,
    "Ġvaliant": 9799,
    "slanting": 24558,
    "Ġadmiring": 16478,
    "hounds": 20906,
    "sullenly": 26150,
    "Ġcetace": 14988,
    "Ġdawned": 14994,
    "deserving": 17240,
    "Ġmorbid": 16234,
    "vicious": 21116,
    "irresistible": 18173,
    "extensive": 18702,
    "Ġtheoretic": 23310,
    "disgu": 19153,
    "Ġsurgeon": 8981,
    "tent": 21063,
    "profess": 10634,
    "acquaintance": 6938,
    "Ġservants": 6610,
    "ittleness": 22372,
    "Ġimpelled": 11781,
    "bowl": 14891,
    "Ġagent": 6277,
    "Ġbran": 5251,
    "Ġcheapside": 23289,
    "Ġfad": 17876,
    "Ġregions": 10323,
    "rushed": 10586,
    "ength": 2318,
    "acetti": 13395,
    "Ġru": 945,
    "narrative": 17317,
    "cd": 15322,
    "Ġhelpless": 8300,
    "Ġdetailed": 12821,
    "Ġbubbles": 11399,
    "Ġ1807": 26083,
    "Ġprocession": 11777,
    "Ġart": 747,
    "Ġemployments": 12100,
    "Ġdiverse": 19208,
    "Ġmedit": 8017,
    "dep": 6786,
    "derick": 22157,
    "Ġtemper": 955,
    "Ġresc": 4507,
    "Ġstate": 1809,
    "Ġunwarranted": 25171,
    "cou": 13694,
    "Ġmeditating": 20039,
    "Ġsuperb": 16443,
    "pard": 9618,
    "signed": 21060,
    "Ġrespectability": 14485,
    "Ġsche": 1706,
    "Ġpag": 6010,
    "Ġdespondency": 16575,
    "preserve": 25303,
    "Ġshipwrecked": 25687,
    "Ġtoilings": 24741,
    "Ġdisposition": 5409,
    "solut": 3361,
    "Ġtogether": 1880,
    "bes": 6641,
    "Ġmab": 12557,
    "unwillingness": 25802,
    "Ġarrow": 10931,
    "attain": 21259,
    "harpoons": 24285,
    "Ġbaronial": 23791,
    "Ġobliged": 4286,
    "gences": 20876,
    "Ġbid": 6131,
    "Ġdra": 1593,
    "Ġhollows": 19738,
    "Ġembarrassment": 10626,
    "Ġubiqu": 18046,
    "Ġconfessor": 24016,
    "Ġpunchbowl": 20228,
    "Ġbell": 4636,
    "Ġacknowledgment": 16955,
    "Ġcollectively": 19964,
    "explanations": 25234,
    "arches": 10816,
    "Ġwhaleboats": 18477,
    "Ġclosed": 4606,
    "Ġpushed": 5910,
    "Ġdelight": 2550,
    "Ġsticking": 13426,
    "Ġpenal": 1772,
    "Ġcontradict": 12383,
    "Ġ44": 16677,
    "Ġfeasts": 25369,
    "asional": 17959,
    "Ġboundless": 10495,
    "prevented": 20370,
    "Ġcourse": 2131,
    "Ġform": 1023,
    "Ġscriptures": 26236,
    "uy": 21097,
    "Ġlucky": 7757,
    "albatross": 15627,
    "Ġfilm": 23921,
    "ahab": 4290,
    "âĢľ": 344,
    "Ġundeniable": 26511,
    "Ġrem": 954,
    "Ġtooth": 9192,
    "Ġbriskly": 25311,
    "ius": 5789,
    "Ġerskine": 17430,
    "hamed": 6304,
    "Ġtell": 1469,
    "Ġschools": 9475,
    "land": 1532,
    "Ġcrowding": 13278,
    "etian": 13958,
    "Ġsmitten": 12896,
    "Ġaccordance": 19496,
    "gratulation": 24349,
    "satisfy": 16891,
    "barbar": 20235,
    "Ġcaulking": 20290,
    "Ġabundantly": 17155,
    "aug": 1213,
    "build": 12185,
    "stri": 6249,
    "Ġsubs": 2130,
    "Ġrepositories": 23361,
    "Ġdarting": 7755,
    "_âĢĶâĢĻ": 13681,
    "Ù": 154,
    "Ġencountered": 8320,
    "act": 786,
    "Ġshoreless": 24295,
    "Ġsmoking": 6428,
    "Ġo": 275,
    "thoughtfully": 24041,
    "Ġsphynx": 20710,
    "Ġown": 1004,
    "trampled": 26333,
    "Ġfrocks": 23918,
    "Ġinduced": 8670,
    "antled": 18285,
    "path": 10118,
    "Ġunappalled": 22060,
    "Ġrestricted": 19026,
    "Ġthoroughly": 8346,
    "Ġsunwards": 19010,
    "Ġheed": 5630,
    "died": 10693,
    "ceiling": 21622,
    "dared": 13701,
    "Ġcontributed": 16006,
    "Ġtass": 15469,
    "fortune": 4975,
    "Ġinvitation": 5189,
    "Ġberths": 20111,
    "Ġmeaning": 1417,
    "Ġnaturalist": 22902,
    "Ġlighter": 12650,
    "Ġbiographical": 22764,
    "Ġcasc": 15553,
    "ves": 694,
    "Ġwaistcoat": 12268,
    "Ġcaves": 15551,
    "tart": 21066,
    "Ġholland": 10365,
    "down": 3466,
    "find": 6954,
    "Ġgradient": 450,
    "Ġblankness": 24607,
    "Ġjew": 9466,
    "Ġlomb": 21554,
    "Ġimpressed": 8197,
    "adler": 21757,
    "Ġsymph": 22198,
    "Ġcompelled": 14266,
    "ignity": 4374,
    "Ġlifetime": 13601,
    "Ġmus": 3393,
    "heavily": 24534,
    "Ġfocus": 4235,
    "Ġmorbidness": 20626,
    "Ġsupposition": 9816,
    "Ġeurope": 8060,
    "Ġappalled": 22217,
    "meditation": 19067,
    "Ġcrocodile": 20738,
    "Ġcuring": 21341,
    "Ġcoronation": 13332,
    "Ġsuppress": 13021,
    "Ġpoised": 22586,
    "ority": 8416,
    "Ġnorms": 3664,
    "uary": 11538,
    "Ġpassed": 2010,
    "Ġ106": 24414,
    "Ġyield": 5093,
    "Ġyourselves": 9028,
    "Ġwedged": 24069,
    "wanted": 10743,
    "Ġdimens": 3148,
    "Ġamid": 4959,
    "pieces": 8754,
    "Ġfads": 21412,
    "Ġcondescended": 19952,
    "Ġexisting": 12714,
    "Ġvessels": 6755,
    "Ġcraft": 4376,
    "Ġconfided": 19037,
    "Ġlashed": 9198,
    "Ġrenders": 13282,
    "air": 1001,
    "Ġaspire": 21896,
    "eringly": 23002,
    "Ġcowards": 12570,
    "Ġshaster": 21994,
    "Ġinfatuated": 20532,
    "Ġrefrained": 14346,
    "Ġdanish": 21427,
    "Ġconsequence": 5542,
    "Ġberyls": 25775,
    "ot": 346,
    "Ġobstinacy": 17419,
    "dissatisf": 26130,
    "Ġsquee": 7927,
    "Ġfrosted": 19800,
    "Ġstarts": 16580,
    "manner": 6170,
    "scra": 13019,
    "Ġservices": 11218,
    "cring": 20809,
    "Ġpersonages": 23537,
    "atra": 17771,
    "instruct": 17735,
    "âĢĿ;": 11670,
    "´": 117,
    "Ġcollected": 2609,
    "Ġfeel": 1261,
    "Ġtowering": 16737,
    "Ġoat": 21320,
    "Ē": 211,
    "kerchief": 7524,
    "Ġopenness": 18954,
    "Ġgover": 2463,
    "ouraged": 22858,
    "rese": 15507,
    "Ġpitchpoling": 14911,
    "Ġpleasant": 4169,
    "vers": 1326,
    "Ġscrib": 22265,
    "L": 48,
    "ctor": 13959,
    "pling": 8473,
    "impregn": 21709,
    "designated": 26296,
    "ruding": 9728,
    "Ġdepos": 11006,
    "van": 7813,
    "Ġhast": 3149,
    "night": 2168,
    "Ġlavenza": 17970,
    "nical": 20990,
    "vis": 4578,
    "Ġhospitals": 24923,
    "isition": 11586,
    "hours": 9124,
    "Ġperpendicularly": 11375,
    "casks": 20399,
    "Ġyear": 3283,
    "Ġfav": 1754,
    "Ġimpatience": 7508,
    "Ġconfines": 23304,
    "Ġabominably": 20065,
    "Ġunfit": 14786,
    "Ġsch": 13834,
    "Ġordained": 19443,
    "Ġenraged": 10244,
    "Ġinfinity": 23281,
    "pit": 3982,
    "che": 3171,
    "Ġcentury": 8289,
    "Ġstruct": 795,
    "Ġerudite": 26350,
    "truth": 9917,
    "Ġconditions": 8305,
    "Ġconvent": 11668,
    "Ġstir": 5825,
    "Ġlodger": 24091,
    "ards": 2508,
    "Ġstretch": 6993,
    "Ġdeterm": 1271,
    "ä": 165,
    "Ġflinging": 13584,
    "Ġkeel": 6443,
    "contin": 16540,
    "Ġtissu": 25920,
    "Ġvexations": 24606,
    "Ġpersuade": 5872,
    "Ġstepped": 7050,
    "Ġnails": 12645,
    "Ġaboard": 6697,
    "educated": 17258,
    "Ġfavourable": 7957,
    "ance": 478,
    "estic": 4956,
    "Ġtorrent": 17091,
    "tling": 9142,
    "ensing": 12893,
    "Ġcosine": 2375,
    "opposing": 24825,
    "cules": 12389,
    "Ġbi": 917,
    "Ġcontest": 18472,
    "©": 107,
    "Ġintellig": 532,
    "concealed": 25115,
    "ª": 108,
    "Ġallow": 1125,
    "Ġhump": 5853,
    "Ġcountenances": 11963,
    "Ġjury": 5378,
    "Ġcomponents": 8892,
    "Ġ114": 24438,
    "mering": 12488,
    "resum": 17761,
    "Ġdivinely": 25723,
    "Ġutter": 3974,
    "Ġanticipated": 13510,
    "osh": 18387,
    "ĠĠĠĠĠĠĠĠĠĠĠĠĠĠĠĠĠĠĠĠĠĠ": 16224,
    "Ġyes": 2688,
    "Ġcounted": 12137,
    "Ġassail": 13060,
    "Ġfeverish": 11348,
    "Ġplun": 6281,
    "Ġhospitable": 17058,
    "Ġajar": 21200,
    "whalers": 17262,
    "omically": 13975,
    "beam": 16035,
    "application": 12361,
    "Ġmarling": 23031,
    "Ĝ": 221,
    "Ġbreast": 8968,
    "glim": 19363,
    "men": 1487,
    "Ġhagger": 21486,
    "inj": 9151,
    "Ġjun": 8504,
    "Ġstruck": 3386,
    "Ġsuperlative": 26074,
    "Ġste": 1392,
    "Ġtucked": 12390,
    "Ġtum": 5692,
    "washed": 13043,
    "irr": 12734,
    "ays": 6683,
    "rabb": 15677,
    "Ġmoulton": 17433,
    "Ġghost": 6142,
    "Ġmou": 13854,
    "Ġcurse": 7665,
    "Ġlining": 13950,
    "Ġmechan": 1171,
    "money": 8749,
    "Ġdeprived": 8209,
    "Ġsets": 8773,
    "sets": 17659,
    "Ġblot": 9811,
    "ote": 4597,
    "Ġembattled": 26290,
    "histor": 13490,
    "Ġsinful": 18947,
    "://": 11466,
    "Ġimposed": 14214,
    "Ġessex": 20123,
    "him": 1941,
    "ent": 305,
    "capt": 3833,
    "Ġbubb": 12581,
    "Ġembed": 1447,
    "oment": 918,
    "mile": 17596,
    "pay": 10718,
    "announced": 19756,
    "baked": 20777,
    "utely": 8130,
    "idirection": 2413,
    "endeavoured": 12278,
    "½": 126,
    "prepared": 13589,
    "Ġgovernments": 20264,
    "Ġsenor": 20147,
    "Ġcommerce": 11015,
    "ess": 412,
    "Ġgrinned": 16856,
    "Ġblowing": 10484,
    "Ġdav": 15587,
    "ividually": 22075,
    "Ġsins": 13836,
    "Ġsunken": 14494,
    "Ġof": 298,
    "Ġchambermaid": 24304,
    "raction": 8136,
    "ifix": 21899,
    "ague": 3905,
    "recol": 10150,
    "Ġlany": 21549,
    "Ġbinding": 20415,
    "Ġvalued": 12180,
    "ctic": 8440,
    ",": 16,
    "Ġends": 8236,
    "replied": 11566,
    "Ġcomrades": 9553,
    "Ġlawn": 7378,
    "Ġtorn": 5999,
    "za": 13809,
    "Ġmajest": 24057,
    "command": 6576,
    "Ġsurely": 6306,
    "Ġparticle": 18670,
    "1": 21,
    "Ġsummers": 23870,
    "Ġdeliciousness": 24126,
    "ortions": 10948,
    "Ġglittering": 10052,
    "Ġapproached": 5843,
    "smooth": 20245,
    "Ġuncles": 23428,
    "Ġtreasure": 9557,
    "inations": 7566,
    "Ġlegendary": 20535,
    "Ġhospit": 7513,
    "Ġsaturday": 6451,
    "Ġapex": 24342,
    "Ġstaple": 26199,
    "Ġwarehouses": 20414,
    "Ġdiminish": 14745,
    "Ġthroats": 24575,
    "aper": 4999,
    "Ġoutwardly": 24998,
    "thes": 7390,
    "following": 10572,
    "iocr": 20922,
    "Ġspoutings": 14676,
    "Ġensued": 11395,
    "Ġmoth": 17802,
    "Ġconfirmation": 17209,
    "Ġimportance": 4900,
    "Ġtrooped": 24899,
    "ross": 810,
    "Ġgathering": 14977,
    "himself": 3971,
    "Ġdiscol": 12950,
    "bull": 13689,
    "valuable": 8244,
    "declined": 25174,
    "Ġtow": 4395,
    "Ġoccurrences": 11050,
    "Ġrandomly": 1921,
    "Q": 53,
    "Ġnecessarily": 13248,
    "inian": 21180,
    "ees": 13710,
    "Ġmottled": 20676,
    "olog": 1092,
    "Ġfortitude": 9884,
    "Ġclothe": 4712,
    "Ġabode": 7899,
    "gledy": 25403,
    "warks": 5004,
    "Ġcoff": 3504,
    "Ġthese": 821,
    "Ġunreliable": 3928,
    "unvarying": 21883,
    "Ġsound": 2244,
    "splash": 25209,
    "Ġindomitableness": 26572,
    "Ġproduces": 2095,
    "Ġyour": 633,
    "leaving": 10791,
    "Ġblade": 11892,
    "Ġmuteness": 19415,
    "Ġglory": 6065,
    "sufficiently": 14981,
    "Ġindu": 5293,
    "Ġdiscoursing": 26267,
    "Ġbites": 23741,
    "slight": 10727,
    "initions": 21185,
    "Ġquote": 18465,
    "Ġunfortunate": 5376,
    "Ġathirst": 20596,
    "Ġseemed": 1279,
    "Ġaccidentally": 9503,
    "Ġindispens": 22951,
    "Ġaboriginal": 14192,
    "shipping": 10307,
    "Ġslyness": 25266,
    "Ú": 155,
    "Ġevince": 24293,
    "Ġ": 225,
    "Ġcompetition": 14267,
    "Ġmanip": 8871,
    "Ġsickly": 16773,
    "gul": 12463,
    "inence": 15480,
    "hosmer": 25902,
    "Ġseeming": 8538,
    "heartily": 24215,
    "Ġslid": 7950,
    "ment": 691,
    "specim": 23943,
    "aside": 10191,
    "Ġhapless": 15810,
    "Ġeuropean": 20042,
    "tanh": 5204,
    "Ġcommunicate": 10577,
    "Ġstrive": 23691,
    "Ġbu": 3681,
    "Ġmaterially": 12189,
    "Ġexordium": 26492,
    "Ġscratching": 20365,
    "Ġmeanly": 12906,
    "²": 115,
    "lean": 21361,
    "Ġpatagon": 14499,
    "Ġdisobey": 18557,
    "Ġclumsy": 9579,
    "Ġutility": 23510,
    "Ġdy": 2524,
    "ger": 1107,
    "including": 23588,
    "mens": 20968,
    "Ġnation": 12644,
    "mon": 2314,
    "Ġexacted": 23601,
    "cool": 19186,
    "Ġtyphoons": 20231,
    "Ģ": 227,
    "Ġhipp": 21487,
    "Ġmeet": 2803,
    "ater": 3367,
    "fle": 7127,
    "ocations": 23705,
    "dwell": 15340,
    "Ġcollection": 8220,
    "fer": 1923,
    "Ġterrify": 19359,
    "Ġyounger": 5252,
    "Ġbrand": 16184,
    "Ġknowest": 12860,
    "blo": 6352,
    "catch": 17505,
    "Ġopp": 2696,
    "finally": 9497,
    "Ġexig": 21821,
    "Ġfritters": 23256,
    "warm": 8100,
    "tashtego": 9622,
    "Ġclum": 8872,
    "points": 14393,
    "disinterested": 23498,
    "Ġproceeded": 5335,
    "Ġprincipal": 6495,
    "Ġinsurmountable": 16529,
    "Ġclam": 7415,
    "Ġdoubtless": 6195,
    "hen": 3515,
    "peculiarity": 23108,
    "fired": 20858,
    "ura": 1062,
    "ive": 426,
    "convolutional": 4958,
    "Ġdiscovering": 13356,
    "ĠĠĠĠĠĠĠĠĠĠĠĠĠĠ": 22559,
    "Ġflattering": 13027,
    "Ġencapsulate": 13673,
    "Ġpunctual": 17136,
    "Ġrudder": 25107,
    "Ġiv": 4043,
    "Ġkeen": 4614,
    "Ġrebellion": 26475,
    "Ġcorrect": 2434,
    "I": 45,
    "ainty": 21782,
    "bermaid": 20788,
    "Ġexploring": 4304,
    "Ġadvocate": 13675,
    "Ġgaiters": 20457,
    "Ġdiscrete": 2479,
    "ober": 15405,
    "Ġshoving": 23486,
    "Ġpersonified": 19177,
    "provoke": 26071,
    "construction": 19793,
    "Ġunicorn": 22052,
    "Ġdil": 6382,
    "Ġemblem": 20494,
    "estone": 18363,
    "writer": 14649,
    "Ġfurnish": 9018,
    "franch": 24284,
    "Ġperennial": 22690,
    "Ġdip": 13906,
    "adequ": 11020,
    "Ġmercy": 8998,
    "Ġbeget": 9225,
    "Ġmarlings": 23033,
    "holmes": 4430,
    "Ġberg": 24536,
    "Ġensuing": 12307,
    "Ġ43": 14769,
    "Ġdreamy": 14704,
    "Ġaccess": 9746,
    "bud": 10682,
    "Ġimplicated": 24875,
    "Ġenric": 21930,
    "Ġgable": 15664,
    "on": 267,
    "mind": 4627,
    "net": 1197,
    "concluded": 11244,
    "square": 15060,
    "thickness": 25367,
    "Ġsudden": 1999,
    "Ġaghast": 16044,
    "Ġ53": 19637,
    "Ġtremble": 6906,
    "ipotent": 10957,
    "Ġpostpone": 17305,
    "Ġurgent": 16868,
    "Ġpaul": 12060,
    "ğ": 224,
    "Ġthousands": 6748,
    "ils": 3181,
    "acrity": 14279,
    "Ġlieu": 19561,
    "Ġreplied": 2268,
    "cous": 8721,
    "Ġrustic": 14964,
    "faced": 8078,
    "Ġbestowed": 6593,
    "Ġnext": 2140,
    "Ġrhone": 25230,
    "Ġhovel": 8252,
    "Ġaggreg": 12881,
    "Ġbigness": 19757,
    "Ġscorch": 20061,
    "Ġmonstrous": 7788,
    "counters": 25397,
    "pure": 17625,
    "Ġjourneying": 25565,
    "over": 1845,
    "Ġregularization": 1167,
    "perai": 10275,
    "pping": 1426,
    "Ġleast": 2065,
    "jah": 17580,
    "Ġkinds": 14505,
    "acup": 14278,
    "Ġpetersburgh": 24228,
    "Ġimpulsive": 19959,
    "Ġaimed": 20247,
    "yonder": 21142,
    "Ġsaintsbury": 26372,
    "Ġprolong": 6833,
    "Ġlvi": 21548,
    "fare": 7797,
    "sleepy": 24728,
    "Ġcig": 6519,
    "eryton": 4092,
    "Ġbloss": 19255,
    "arnel": 18124,
    "Ġeclipsed": 26376,
    "win": 6801,
    "Ġhue": 8427,
    "Ġentreating": 24207,
    "Ġdecide": 9286,
    "Ġrogue": 22399,
    "Ġale": 9154,
    "raising": 21627,
    "Ġsed": 10761,
    "Ġsanguinary": 25929,
    "Ġsilly": 7684,
    "Ġerect": 6143,
    "adequately": 20316,
    "Ġsteer": 10386,
    "Ġher": 427,
    "urn": 776,
    "Ġvineyard": 12328,
    "walking": 9981,
    "tru": 10729,
    "roy": 7852,
    "Ġamounts": 6704,
    "done": 6499,
    "Ġfeat": 10937,
    "Ġtheology": 21274,
    "Ġautomation": 13265,
    "Ġrelev": 1716,
    "difficult": 10057,
    "Ġstifle": 18076,
    "appo": 3913,
    "savor": 25024,
    "Ġpursue": 6313,
    "Ġpreliminary": 10056,
    "anded": 5923,
    "Ġhorn": 6185,
    "Ġbut": 424,
    "Ġlicensing": 20089,
    "Ġmoritz": 11905,
    "Ġcompliments": 8632,
    "Ġspecimen": 13020,
    "gling": 10097,
    "Ġobliter": 14322,
    "Ġclut": 7640,
    "Ġdazz": 11594,
    "Ġledge": 19401,
    "Ġhunter": 5401,
    "Ġfaded": 10809,
    "Ġalmanac": 26485,
    "el": 306,
    "slipped": 25529,
    "Ġenclosure": 20621,
    "loved": 14251,
    "cob": 10086,
    "Ġenthus": 7231,
    "Ġrevenue": 26195,
    "Ġtrucks": 19511,
    "Ġhailed": 6406,
    "Ġinfall": 7958,
    "bound": 6220,
    "ogy": 22704,
    "ois": 9134,
    "cil": 8720,
    "Ġvivacious": 19812,
    "Ġunderneath": 16336,
    "Ġreb": 15688,
    "Ġcontention": 22422,
    "those": 4496,
    "misrepresented": 24211,
    "Ġreceiving": 4882,
    "Ġhollow": 5648,
    "Ġ49": 24080,
    "Ġitem": 12698,
    "Ġdreadful": 4920,
    "Ġdecomposition": 5342,
    "Ġanecdote": 26354,
    "uling": 2261,
    "Ġbeque": 18080,
    "Ġprodigies": 19789,
    "ricane": 16276,
    "Ġunwound": 25169,
    "Ġglistened": 20169,
    "gallantry": 15059,
    "Ġbehaviors": 13253,
    "Ġartful": 22605,
    "asol": 21535,
    "somehow": 12010,
    "host": 5867,
    "Ġplow": 21455,
    "Ġsimilarity": 3167,
    "big": 13684,
    "Ġenquired": 21936,
    "ivot": 11717,
    "Ġmastery": 23990,
    "Ġbeheld": 4493,
    "dually": 3281,
    "evidence": 25521,
    "Ġzone": 14362,
    "Ġhopkins": 23127,
    "Ġgri": 17987,
    "Ġremorseless": 13450,
    "Ġsluggishly": 25891,
    "urmountable": 15278,
    "decided": 13214,
    "Ġhowling": 8508,
    "Ġintimate": 6548,
    "Ġpresentiment": 18987,
    "Ġgleamed": 17076,
    "Ġangelic": 19624,
    "times": 8097,
    "Ġfierceness": 26265,
    "constable": 24629,
    "Ġanalogical": 25640,
    "Ġhopeless": 7462,
    "ĠĠĠĠĠĠĠĠĠĠĠĠĠĠĠĠĠĠĠĠĠĠĠĠĠĠĠĠĠĠĠĠĠ": 12041,
    "code": 15328,
    "nevertheless": 8284,
    "Ġconcocted": 26300,
    "Ġjuncture": 17128,
    "Ġdowncast": 18650,
    "beef": 18519,
    "staff": 21651,
    "Ġthw": 21510,
    "Ġspecies": 5112,
    "rollable": 13944,
    "Ġramadans": 25119,
    "Ġhandsomer": 20330,
    "million": 25751,
    "Ġleads": 12094,
    "Ġcol": 1059,
    "Ê": 139,
    "grey": 14912,
    "Ġmajority": 13291,
    "Ġconsole": 8149,
    "ersampling": 18216,
    "Ġbetrayed": 9560,
    "Ġout": 542,
    "Ġrejected": 12292,
    "distrust": 16751,
    "Ġcauses": 2563,
    "Ġconstables": 19071,
    "Ġboarding": 12084,
    "Ġpharaoh": 26586,
    "geese": 22363,
    "Ġcan": 474,
    "Ġstairs": 5541,
    "Ġveracity": 23886,
    "Ġleaning": 5228,
    "Ġcompunction": 18584,
    "Ġjib": 14194,
    "Ġslumbers": 18940,
    "Ġhor": 1662,
    "Ġthoughts": 3136,
    "Ġtested": 23224,
    "separ": 9230,
    "Ġcrushing": 20173,
    ".âĢĻâĢĿ": 6739,
    "Ġgaff": 17993,
    "iverse": 13114,
    "boo": 16348,
    "beauty": 20100,
    "displeasure": 23492,
    "Ġtumbled": 13405,
    "egyptians": 25898,
    "Ġvisiting": 10357,
    "Ġpicturesqueness": 24480,
    "sus": 6228,
    "Ġmining": 22827,
    "pointing": 12222,
    "Ġconstrain": 2628,
    "Ġconcoct": 19046,
    "Ġseasons": 9429,
    "Ġderive": 10394,
    "though": 2117,
    "Ġpreposter": 12819,
    "Ġentertain": 6054,
    "Ġmaelstrom": 19354,
    "whisper": 17082,
    "Ġlowerings": 23644,
    "Ġyon": 9692,
    "Ġentrance": 7232,
    "Ġstayed": 7996,
    "ĠâĢĺ": 1629,
    "ļ": 253,
    "kins": 7344,
    "Ġfurled": 22809,
    "gloomy": 25144,
    "Ġexamine": 7733,
    "Ġfiss": 21408,
    "Ġresented": 22539,
    "Ġprizes": 13072,
    "Ġrate": 1063,
    "ising": 2258,
    "Ġfoes": 11950,
    "'re": 12426,
    "tting": 17679,
    "Ġoffensive": 18693,
    "Ġknife": 7308,
    "Ġcharted": 22246,
    "ipelagoes": 13670,
    "Ġremo": 3783,
    "erce": 6127,
    "complexion": 14361,
    "Ġcharge": 5324,
    "Ġappear": 2488,
    "Ġassign": 11110,
    "Ġsurv": 6082,
    "Ġinsertion": 26343,
    "speeches": 25239,
    "Ġinsanity": 12045,
    "ensities": 22542,
    "Ġdoing": 3659,
    "Ġwindibank": 7256,
    "Ġiteratively": 3056,
    "Ġmuseum": 15270,
    "Ġfamiliarity": 16727,
    "ssed": 3732,
    "quit": 15759,
    "Ġwhiting": 10859,
    "note": 14340,
    "borean": 25743,
    "Ġnovelties": 24778,
    "Ġconcealed": 7494,
    "Ġgrowled": 19282,
    "Ġnarwhales": 24902,
    "Ġcistern": 17379,
    "tering": 3804,
    "Ġbehalf": 14508,
    "lays": 14922,
    "?--": 15302,
    "Ġgown": 10201,
    "Ġwater": 1949,
    "Ġinsight": 16528,
    "Ġfriendless": 23023,
    "Ġtedious": 15266,
    "Ġarmies": 16490,
    "se": 358,
    "anite": 17837,
    "Ġsubordinate": 18720,
    "Ġshuddered": 11301,
    "belief": 13280,
    "ific": 491,
    "Ġfooting": 14483,
    "orable": 8118,
    "ĠĠĠĠĠĠĠĠĠĠĠĠĠĠĠĠĠĠĠĠĠĠĠĠĠĠĠĠĠĠĠĠĠĠĠĠĠĠĠĠĠĠĠ": 12152,
    "Ġans": 1644,
    "shake": 22441,
    "Ġrelapses": 26279,
    "Ġvapors": 19905,
    "Ġ166": 25004,
    "Ġthree": 1376,
    "Ġsurface": 5119,
    "Ġlessen": 14533,
    "mistakable": 20651,
    "Ġvehemence": 26567,
    "Ġconveys": 16854,
    "Ġuniformly": 19147,
    "trop": 15435,
    "Ġmorning": 1747,
    "lascar": 20959,
    "ospel": 17009,
    "Ġfarm": 7839,
    "heric": 15904,
    "discharging": 26306,
    "Ġmarching": 16697,
    "Ġhorns": 11123,
    "Ġburden": 8607,
    "urs": 6989,
    "frequent": 15352,
    "Ġgreenland": 5761,
    "wondrous": 12336,
    "Ġfaster": 3197,
    "belongs": 25596,
    "Ġstring": 11826,
    "Ġpush": 9184,
    "Ġgnashed": 20129,
    "âĢĶâĢĻâĢĿ": 20060,
    "Ġterribly": 10425,
    "Ġcheering": 11133,
    "abode": 21786,
    "Ġcomfortably": 16613,
    "Ġbristles": 25843,
    "Ġunmolested": 15244,
    "Ġcrucifix": 26079,
    "Ġtoast": 21507,
    "Ġunaffected": 14122,
    "Ġinvestment": 24336,
    "Ġgrooves": 16739,
    "Ġbeings": 2493,
    "ctors": 21585,
    "Ġcrop": 10162,
    "choice": 21686,
    "pooh": 18797,
    "ounds": 4157,
    "Ġowest": 25091,
    "Ġmil": 4255,
    "Ġhabitations": 24789,
    "inhabited": 13619,
    "Ġur": 5540,
    "Ġsurging": 19133,
    "Ġdost": 7635,
    "Ġpounds": 5368,
    "Ġwashes": 21856,
    "Ġshoe": 14567,
    "Ġju": 10286,
    "offer": 19061,
    "Ġpeg": 22685,
    "lovel": 22507,
    "Ġlobsters": 13516,
    "verb": 10216,
    "elephant": 12349,
    "somewhere": 12011,
    "Ġbids": 24646,
    "Ġfretfulness": 25448,
    "Ġillust": 8261,
    "Ġdexterity": 25294,
    "Ġseen": 1373,
    "Ġpeninsula": 23194,
    "Ġstraighten": 24001,
    "Ġnods": 19063,
    "awakened": 14453,
    "meant": 7919,
    "Ġhardest": 18911,
    "raged": 9211,
    "shook": 19852,
    "Ġcleans": 18946,
    "ht": 375,
    "Ġskip": 1844,
    ")": 13,
    "peace": 13046,
    "inous": 8771,
    "Ġrecl": 16137,
    "Ġthreatened": 8328,
    "Ġelaborate": 18636,
    "windows": 19533,
    "gers": 8374,
    "Ġsecuring": 11990,
    "Ġbelt": 13000,
    "90": 12430,
    "Ġadventure": 5980,
    "Ġouter": 6859,
    "Ġexpressed": 4468,
    "Ġcheers": 16368,
    "Ġremotest": 10051,
    "Ġsoup": 7066,
    "Ġimpose": 22378,
    "Ġorchard": 22089,
    "ory": 1081,
    "Ġwolves": 25934,
    "ĠĠĠĠĠĠĠĠĠĠĠĠĠĠĠĠĠĠĠĠĠĠĠĠĠĠĠ": 14886,
    "ont": 2621,
    "Ġcrawl": 11376,
    "Ġdrifting": 19278,
    "Ġscrut": 15941,
    "adventure": 17232,
    "Ġcart": 11583,
    "huzza": 20912,
    "bitt": 17484,
    "Ġcomb": 1040,
    "tish": 17676,
    "uger": 21101,
    "Ġemergencies": 17360,
    "itance": 13867,
    "Ġpurchased": 12258,
    "iew": 2449,
    "Ġschoolboys": 24481,
    "Ġwalls": 6762,
    "glances": 23850,
    "itching": 21332,
    "copyright": 5277,
    "Ġgiddy": 20493,
    "Ġdominant": 12394,
    "Ġcannib": 6035,
    "half": 4931,
    "ara": 12603,
    "Ġflirting": 16248,
    "Ġimpetus": 25569,
    "atible": 17772,
    "Ġdivided": 8631,
    "field": 3069,
    "boats": 6204,
    "Ġtur": 2566,
    "oub": 1631,
    "Ġwomen": 4750,
    "Ġschooner": 16745,
    "Ġsutherland": 10148,
    "Ġwarriors": 19720,
    "Ġthine": 7373,
    "Ġdodo": 9072,
    "rimsh": 17026,
    "Ġbent": 5149,
    "Ġsending": 8774,
    "hooked": 23713,
    "occupation": 15057,
    "sample": 12504,
    "Ġmirror": 12376,
    "Ġwaning": 15532,
    "Ġbier": 22762,
    "Ġcrawled": 17043,
    "laying": 19769,
    "Ġimposing": 11780,
    "ithing": 11649,
    "Ġdispirited": 23879,
    "whip": 22233,
    "Ġcomputations": 15998,
    "Ġsleepy": 8266,
    "Ġmarvellous": 7537,
    "Ġredden": 15691,
    "Ġprocuring": 16869,
    "Ġrumours": 24599,
    "Ġfut": 15572,
    "Ġcertainly": 2501,
    "Ġremonstrance": 20620,
    "G": 43,
    "Ġprecipices": 12275,
    "Ġscru": 8188,
    "blacksmith": 17000,
    "Ġunass": 14113,
    "diminished": 20837,
    "chosen": 21690,
    "Ġshel": 6847,
    "su": 796,
    "Ġspaniards": 25555,
    "Ġglimmering": 25240,
    "conceive": 16026,
    "Ġtropics": 17065,
    "Ġsyrian": 18351,
    "Ġchamois": 16799,
    "Ġcomposure": 7216,
    "body": 2313,
    "Ġdiscriminator": 3388,
    "europe": 20663,
    "obviously": 25242,
    "folly": 20860,
    "Ġseeks": 14306,
    "Ġhereditarily": 25224,
    "Ġradiance": 13369,
    "Ġnourishment": 15192,
    "Ġbusy": 6189,
    "Ġassented": 17336,
    "Ġphaet": 16316,
    "Ġhinted": 6011,
    "ional": 1084,
    "neath": 12863,
    "thither": 21979,
    "Ġverily": 16601,
    "Ġ1890": 23892,
    "Ġenvironment": 4012,
    "Ġchestnuts": 24381,
    "answer": 11731,
    "Ġdiscreet": 16480,
    "wrong": 13205,
    "Ġinco": 14260,
    "nam": 2778,
    "Ġmanipulated": 25178,
    "Ġdub": 13908,
    "ari": 672,
    "ches": 2152,
    "Ġsu": 432,
    "unforeseen": 21884,
    "abby": 14020,
    "ã": 164,
    "Ġmountains": 4426,
    "Ġbehav": 3537,
    "Ġmess": 7830,
    "introduce": 25186,
    ":âĢĶ": 4432,
    "mus": 10110,
    "Ġmeasureless": 14710,
    "Ġcha": 6853,
    "ited": 1750,
    "Ġlaughed": 5059,
    "Ġtroublesome": 23999,
    "Ġsensationalism": 26067,
    "Ġlevelled": 11285,
    "Ġunc": 2125,
    "Ġgentlemanlike": 12064,
    "Ġforbidding": 17078,
    "Ġlooks": 4165,
    "kward": 6958,
    "Ġthroat": 7769,
    "unch": 14057,
    "Ġmapp": 2083,
    "Ġstunsail": 25543,
    "vously": 23501,
    "Ġthief": 11610,
    "Ġoctavo": 15163,
    "ï": 176,
    "Ġexponentially": 1444,
    "sold": 15425,
    "Ġcharitable": 23268,
    "Ġfirmament": 19469,
    "Ġnamed": 6139,
    "isl": 21371,
    "Ġpicturesque": 14894,
    "Ġoccasional": 7288,
    "Ġilliter": 23466,
    "Ġgained": 4536,
    "Ġuncivilized": 25498,
    "Ġsly": 9632,
    "Ġdyspeps": 16497,
    "boom": 18997,
    "Ġoccupied": 5272,
    "Ġbit": 2964,
    "Ġgriefs": 16770,
    "Ġris": 4886,
    "Ġsult": 10767,
    "remark": 7260,
    "Ġexterior": 19984,
    "glancing": 11215,
    "aggra": 21902,
    "Ġqualities": 7532,
    "Ġcemet": 20678,
    "saying": 8640,
    "showed": 16020,
    "west": 10739,
    "Ġfragments": 19033,
    "Ġdilated": 24703,
    "brÃ¦": 11176,
    "Ġwarmest": 16482,
    "ath": 861,
    "Ġcultiv": 13555,
    "ernity": 18614,
    "fl": 3597,
    "Ġshaft": 18229,
    "Ġdecided": 5471,
    "Ġ1825": 25719,
    "Ġshock": 6083,
    "Ġperched": 10299,
    "doesn": 19817,
    "ceptibly": 22345,
    "Ġparasol": 22116,
    "mightily": 24103,
    "Ġboister": 12917,
    "Ġtying": 15472,
    "Ġhammers": 13239,
    "mody": 16183,
    "Ġrocked": 12849,
    "present": 1135,
    "eg": 17528,
    "Ġezek": 18009,
    "Ġfeather": 8859,
    "new": 1467,
    "Ġmultitudinous": 26274,
    "Ġlandsman": 11351,
    "Ġhoriz": 4726,
    "mont": 19168,
    "Ġrequesting": 24633,
    "probability": 17021,
    "art": 597,
    "Ġlack": 17963,
    "Ġquarrels": 16564,
    "_).": 5886,
    "raham": 18013,
    "recovered": 19783,
    "Ġbatt": 13898,
    "oology": 21005,
    "umb": 3476,
    "Ġjetted": 24431,
    "mits": 13755,
    "vid": 912,
    "hind": 20893,
    "animate": 12574,
    "Ġwolfish": 25935,
    "offic": 7465,
    "Ġremoval": 12115,
    "vity": 7814,
    "Ġassuming": 16691,
    "Ġexecutioner": 12269,
    "Ġlodging": 24092,
    "gans": 11490,
    "Ġheavy": 3741,
    "anced": 1322,
    "Ġadroop": 26001,
    "andromeda": 21863,
    "persecutor": 26530,
    "captains": 12125,
    "delivered": 24100,
    "Ġ[": 6967,
    "Ġtusked": 25426,
    "Ġhumbly": 16195,
    "Ġcharged": 9853,
    "french": 9119,
    "reserve": 17765,
    "Ġsuffusing": 23028,
    "Ġbarmaid": 19334,
    "istrate": 7405,
    "Ġwidespread": 20673,
    "agre": 18164,
    "Ġhig": 755,
    "Ġendow": 23139,
    "liament": 16215,
    "allic": 12809,
    "Ġundeceive": 25552,
    "Ġliar": 22404,
    "zing": 7819,
    "Ġattic": 16092,
    "Ġenergy": 2554,
    "honor": 19897,
    "fect": 2306,
    "Ġwhirled": 14959,
    "Ġcompos": 22565,
    "luding": 6700,
    "ices": 2138,
    "Ġoverpow": 14208,
    "Ġthistle": 21912,
    "brilliancy": 26077,
    "Ġappalling": 8498,
    "Ġausten": 5880,
    "Ġrepressed": 21663,
    "Ġamber": 7026,
    "Ġrepair": 11977,
    "disposed": 25010,
    "Ġsole": 3296,
    "tar": 8096,
    "Ġvision": 1609,
    "fluttering": 23970,
    "Ġsprung": 11250,
    "glance": 16585,
    "lob": 22503,
    "twilight": 23700,
    "tha": 15821,
    "Ġafterwards": 3528,
    "Ġrecurring": 23230,
    "Ġprotesting": 14741,
    "similar": 13452,
    "prof": 7697,
    "circumamb": 26087,
    "Ġforster": 5230,
    "Ġwatchman": 23663,
    "Ġshells": 20360,
    "Ġchronic": 9928,
    "Ġtoss": 10184,
    "arcy": 1275,
    "Ġbrandy": 11049,
    "bright": 8989,
    "Ġpollard": 20382,
    "Ġchanging": 11752,
    "spouter": 22733,
    "Ġscolded": 25472,
    "Ġwouldn": 6045,
    "Ġmuscle": 14690,
    "Ġstem": 15719,
    "Ġkeep": 2359,
    "obliged": 20629,
    "Ġwords": 1324,
    "Ġidentity": 2527,
    "Ġpalpable": 15206,
    "Ġcurb": 16232,
    "Ġbattery": 21390,
    "Ġtide": 6658,
    "rences": 9271,
    "Ġaunts": 21198,
    "older": 15753,
    "capital": 15088,
    "immense": 18052,
    "Ġconfl": 11137,
    "arius": 14249,
    "txt": 12513,
    "els": 1762,
    "Ġpaus": 4298,
    "elter": 21566,
    "Ġscotland": 6639,
    "Ġdurst": 20349,
    "unched": 10235,
    "setting": 13284,
    "Ġsyllables": 25298,
    "oars": 9614,
    "Ġmarsh": 9820,
    "Ġunsounded": 15847,
    "dough": 15334,
    "Ġplaited": 14284,
    "sister": 5139,
    "Ġabound": 8864,
    "Ġwat": 1287,
    "foundered": 20865,
    "Ġancestry": 25641,
    "ivorous": 22074,
    "Ġbeef": 6830,
    "armon": 23056,
    "Ġfate": 4754,
    "Ġdutch": 6326,
    "paused": 17372,
    "Ġjen": 9266,
    "gabriel": 15359,
    "aks": 8505,
    "Ġtowards": 1728,
    "Ġdinner": 4244,
    "Ġrenow": 18027,
    "leaning": 10790,
    "Ġscales": 4849,
[...]
