{
  "metadata": {
    "vocab_size": 26613,
    "algorithm": "BPE",
    "created_at": "2026-07-18 04:47:43",
    "special_tokens": [
      "<PAD>",
      "<SOS>",
      "<EOS>",
      "<UNK>",
      "<MASK>"
    ]
  },
  "vocab": {
    "frequent": 15351,
    "gment": 4390,
    "gle": 20868,
    "Ġconnecting": 18632,
    "Ġaerial": 21197,
    "buffalo": 20562,
    "ucumber": 19060,
    "Ġpaths": 2570,
    "Ġportentous": 15227,
    "bet": 6109,
    "autumn": 23342,
    "alice": 3207,
    "Ġprometheus": 15290,
    "Ġcountenance": 3971,
    "mushroom": 26394,
    "rigible": 24931,
    "Ġgiants": 25960,
    "alter": 10825,
    "chie": 21688,
    "treas": 17678,
    "Ġvertically": 19378,
    "oriental": 23719,
    "Ġfury": 7662,
    "unquiet": 21879,
    "Ġunchanged": 22025,
    "Ġrest": 1784,
    "Ġartfully": 22610,
    "Ġspell": 8854,
    "man": 1057,
    "bulk": 19923,
    "distant": 13332,
    "Ġgrotesque": 26329,
    "antediluvian": 24345,
    "sounded": 12263,
    "Ġrueful": 25581,
    "Ġexclusion": 19394,
    "augment": 18828,
    "Ġglaring": 11904,
    "Ġcyn": 13884,
    "Ġbarriers": 23792,
    "earthly": 24724,
    "ition": 655,
    "Ġdoze": 14175,
    "programming": 10061,
    "Ġrepute": 18034,
    "Ġrheumatic": 20704,
    "Ġhav": 12750,
    "Ġunholy": 26218,
    "andam": 10887,
    "collinses": 19922,
    "Ġpirates": 9072,
    "Ġcommunic": 5751,
    "Ġinjuring": 24267,
    "consol": 9760,
    "Ġincome": 7918,
    "Ġdank": 21427,
    "Ġhints": 8430,
    "Ġcoals": 16070,
    "unts": 12727,
    "Ġrand": 1582,
    "Ġfi": 927,
    "Ġmarch": 4081,
    "_.âĢĶ": 23473,
    "Ġexplanatory": 22200,
    "Ġaccumulates": 2891,
    "Ġrole": 15993,
    "Ġimportant": 1105,
    "Ġsad": 3867,
    "Ġrider": 24184,
    "stove": 21650,
    "Ġhypothesis": 14780,
    "precedented": 15172,
    "Ġtheme": 16016,
    "Ġbower": 15563,
    "cap": 8373,
    "Ġcomprised": 14266,
    "Ġvindictive": 20468,
    "Ġardour": 8043,
    "Ġtimber": 13347,
    "Ġhauling": 14085,
    "ints": 3419,
    "Ġobviously": 16809,
    "adieu": 26200,
    "Ġcontradicted": 20210,
    "Ġvenge": 5420,
    "stein": 5505,
    "Ġfurther": 1058,
    "Ġsleek": 23382,
    "organ": 15570,
    "irregular": 21909,
    "Ġwhispered": 5337,
    "Ġcheat": 19021,
    "Ġpuzz": 5532,
    "Ġthanks": 6707,
    "downstairs": 23917,
    "Ġglowed": 24864,
    "Ġorganization": 7984,
    "Ġbride": 6291,
    "sme": 17657,
    "Ġ122": 24466,
    "Ġphrensy": 25124,
    "Ġstar": 6023,
    "Ġzoned": 22818,
    "Ġsympathy": 6346,
    "Ġpromised": 5181,
    "Ġrapturously": 24888,
    "ggling": 19096,
    "wicked": 24448,
    "Ġdisco": 3430,
    "Ġreverend": 15257,
    "Ġbeau": 9223,
    "ssed": 3733,
    "Ġbachel": 7158,
    "Ġhint": 5016,
    "Ġdoctrine": 24196,
    "Ġpierce": 17035,
    "throughout": 24084,
    "orders": 12871,
    "Ġproductions": 22944,
    "atigable": 15268,
    "Ġsolely": 9908,
    ".--": 20745,
    "endering": 21283,
    "Ġskul": 22795,
    "Ġhol": 1181,
    "Ġlod": 4042,
    "Ġtyro": 16993,
    "Ġspies": 22126,
    "acies": 14276,
    "E": 41,
    "fem": 17536,
    "yp": 1045,
    "Ġcapacious": 19175,
    "Ġawed": 23584,
    "Ġvolcanoes": 24144,
    "Ġwrithed": 17105,
    "Ġfashioned": 13318,
    "Ġtweed": 22675,
    "Ġpalmy": 19497,
    "nep": 20985,
    "preserving": 25304,
    "bank": 10078,
    "Ġdost": 7636,
    "flinging": 20867,
    "Ġnormalization": 1244,
    "neighbouring": 19962,
    "Ġdecided": 5471,
    "oughed": 22075,
    "utral": 12659,
    "Ġforetold": 23452,
    "Ĉ": 201,
    "Ġhearing": 4761,
    "Ġrecognised": 8994,
    "Ġclosing": 11769,
    "encies": 4079,
    "Ġtenderness": 12212,
    "Ġoctober": 17225,
    "Ġdeftly": 26492,
    "tone": 8762,
    "Q": 53,
    "18": 20750,
    "Ġvariance": 1167,
    "Ġagreeable": 4552,
    "Ġimparts": 18446,
    "Ġsymbol": 7717,
    "Ġdipped": 15591,
    "lower": 8878,
    "Ġwillingness": 24910,
    "tormented": 13643,
    "Ġeclipsed": 26376,
    "pine": 13767,
    "Ġburke": 19249,
    "distrust": 19569,
    "ricade": 13034,
    "Ġmansfield": 25938,
    "Ġdeduced": 12204,
    "Ġar": 478,
    "Ġprovoking": 16742,
    "Ġemperors": 15157,
    "incident": 14590,
    "long": 2912,
    "reached": 13839,
    "acked": 10972,
    "Ġderanged": 23172,
    "Ġplanning": 14749,
    "Ġselect": 3999,
    "Ġstum": 21729,
    "Ġlabours": 8582,
    "Ġmeridians": 17354,
    "Ġbundle": 13424,
    "Ġdrops": 9031,
    "bles": 7017,
    "russian": 22181,
    "buncle": 13690,
    "Ġscream": 5935,
    "ulance": 15763,
    "Ġmice": 13857,
    "parameter": 3008,
    "inition": 11555,
    "lung": 17590,
    "Ġlengthen": 15650,
    "zening": 21147,
    "Ġswim": 3818,
    "Ġtorments": 13392,
    "Ġpredictions": 1457,
    "henomena": 20271,
    "Ġepo": 21617,
    "Ġconvenience": 11330,
    "atmospheric": 17775,
    "Ġcomo": 21840,
    "Ġpositively": 13027,
    "education": 20300,
    "did": 3194,
    "tashtego": 9621,
    "dance": 17518,
    "Ġsn": 2948,
    "chor": 6146,
    "Ġwholly": 4446,
    "Ġhypotheses": 4386,
    "Ġenabling": 1081,
    "Ġankers": 21444,
    "ulation": 5458,
    "Ġlayer": 1010,
    "Ġscho": 4435,
    "odecim": 9830,
    "calcul": 12983,
    "oid": 3126,
    "ided": 2784,
    "oons": 12495,
    "hitherto": 17282,
    "Ġfolly": 7941,
    "mil": 13750,
    "retrospect": 23134,
    "esy": 9184,
    "Ġinput": 608,
    "Ġpest": 13911,
    "Ġirene": 8444,
    "Ġcalculates": 13263,
    "Ġcholera": 22251,
    "Ġthreatening": 16827,
    "Ġgesture": 11398,
    "utes": 5914,
    "mpt": 6653,
    "Ġfinishing": 23122,
    "Ġexerting": 21830,
    "singing": 24362,
    "Ġassented": 17336,
    "deed": 1519,
    "Ġmurky": 19200,
    "didn": 9005,
    "Ġagain": 815,
    "Ġduck": 8792,
    "nnight": 20992,
    "Ġneighbourhood": 5126,
    "Ġfools": 14480,
    "idav": 18092,
    "Ġnigh": 4878,
    "rence": 5554,
    "Ġcheeks": 5958,
    "Ġchili": 25561,
    "surpr": 5997,
    "Ġindef": 9188,
    "Ġauthorized": 16734,
    "Ġkid": 9723,
    "university": 25983,
    "Ġrecall": 3854,
    "Ġplatonian": 25118,
    "Ġsovereign": 10060,
    "Ġhabitation": 14801,
    "izz": 7614,
    "hair": 9121,
    "Ġattending": 3283,
    "Ġperfidious": 25666,
    "securing": 19812,
    "Ġconfronted": 23306,
    "Ġjoy": 3182,
    "Ġexclamations": 11360,
    "Ġengineer": 11971,
    "Ġlibr": 15998,
    "oro": 21393,
    "Ġenforced": 21936,
    "Ġ179": 19753,
    "Ġinfatuated": 20532,
    "men": 1486,
    "spout": 7924,
    "Ġdeer": 12716,
    "Ġdromedary": 17437,
    "windibank": 24160,
    "fiery": 13579,
    "Ġburn": 3681,
    "Ġalph": 9693,
    "Ġperpendicularly": 11373,
    "Ġcondescended": 19954,
    "Ġwhereon": 16098,
    "Ġglobules": 26587,
    "Ġnonsense": 6982,
    "Ġchestnuts": 24380,
    "fortnight": 13085,
    "Ġhag": 12621,
    "mblies": 24609,
    "Ġstrung": 22616,
    "picture": 11406,
    "sterdam": 19090,
    "precisely": 6917,
    "palms": 25262,
    "Ġnotes": 7189,
    "Ġtalker": 23369,
    "Ġbump": 9658,
    "Ġthreats": 13375,
    "possess": 5984,
    "hid": 13732,
    "prejudice": 25571,
    "Ġeverlasting": 9335,
    "fellows": 12270,
    "mense": 4780,
    "Ġproduced": 2453,
    "coun": 10685,
    "Ġstring": 11824,
    "Ġcongen": 10872,
    "Ġcommentaries": 20159,
    "Ġgreeted": 23209,
    "Ġclothes": 4997,
    "Ġchips": 14180,
    "Ġmill": 6666,
    "Ġmenacing": 23105,
    "broke": 14775,
    "Ġfifty": 4623,
    "ustomed": 6099,
    "Ġinst": 911,
    "prit": 19340,
    "Ġextremely": 2669,
    "Ġextend": 18681,
    "Ġlizard": 12650,
    "arranted": 19319,
    "izens": 18143,
    "surprise": 9528,
    "venth": 9293,
    "Ġtahiti": 13617,
    "Ġinsurg": 23680,
    "wonders": 17142,
    "à": 161,
    "Ġentirely": 3435,
    "Ġrav": 14302,
    "Ġnightfall": 23128,
    "Ġattempts": 10489,
    "were": 2560,
    "hauled": 20667,
    "Ġmixing": 24934,
    "Ġkeeled": 18803,
    "anter": 9165,
    "Ġrecalled": 8537,
    "Ġulster": 14996,
    "Ġkins": 22192,
    "Ġoutstretched": 14194,
    "Ġaback": 22264,
    "Ġtranslation": 3086,
    "Ġdecanting": 22441,
    "Ġrepose": 6741,
    "Ġubiquitous": 26195,
    "Ġwithdrew": 9694,
    "hanging": 10099,
    "Ġpoint": 2057,
    "got": 6955,
    "Ġfare": 5809,
    "Ġboarders": 16599,
    "Ġhindoo": 17174,
    "threshold": 21985,
    "Ġbrilliant": 11413,
    "Ġsport": 6688,
    "fortunes": 6332,
    "Ġuproar": 22153,
    "Ġauthors": 10415,
    "frisco": 16786,
    "etieth": 21582,
    "Ġschedules": 3388,
    "contain": 18502,
    "Ġplight": 14280,
    "anting": 6412,
    "stache": 15686,
    "Ġsettle": 6293,
    "native": 17611,
    "Ġfeast": 10276,
    "Ġmonstrous": 7790,
    "talk": 6656,
    "Ġfoolscap": 24157,
    "apology": 22331,
    "shaw": 6864,
    "Ġlaz": 7378,
    "Ġintellectual": 11400,
    "Ġplayful": 19235,
    "Ġresigned": 9766,
    "Ġdeact": 18134,
    "Ġruth": 14091,
    "âĢĶ": 517,
    "solemn": 19816,
    "furnish": 25338,
    "Ġappet": 9729,
    "Ġjealously": 24122,
    "Ġstreatham": 17447,
    "stool": 23816,
    "Ġstreet": 2957,
    "Ġdisturbed": 8671,
    "Ġsymptoms": 8704,
    "Ġpref": 14170,
    "meeting": 11018,
    "Ġmildness": 9942,
    "Ġchivalry": 25819,
    "Ġslumber": 13056,
    "Ġ117": 19696,
    "Ġopulent": 23628,
    "Ġpurport": 14580,
    "Ġpoured": 8799,
    "Ġsettled": 3740,
    "Ġshrouded": 14967,
    "inioned": 19285,
    "Ġtuning": 3072,
    "Ġacknowledged": 7534,
    "isticated": 1664,
    "Ġident": 2243,
    "opy": 4457,
    "Ġarrangements": 16514,
    "Ġpromise": 4198,
    "Ġmorsel": 20676,
    "Ġrele": 2917,
    "Ġtrades": 8232,
    "fatality": 25019,
    "Ġlanguages": 1568,
    "Ġadhes": 22104,
    "Ġcausal": 3412,
    "Ġwestmorland": 24389,
    "Ġtheoretic": 23310,
    "hill": 15360,
    "Ġcharity": 8861,
    "nical": 20990,
    "Ġrare": 7036,
    "hooked": 23714,
    "conv": 7213,
    "Ġprogress": 5023,
    "Ġsuperficial": 23457,
    "tot": 10727,
    "Ġsteward": 6584,
    "Ġab": 528,
    "Ġplus": 3882,
    "noo": 9787,
    "royal": 11392,
    "Ġnone": 3222,
    "Ġsmitten": 12895,
    "Ġbronze": 22866,
    "Ġjot": 11760,
    "ourney": 3551,
    "Ġnorthwards": 19545,
    "Ġbasket": 9571,
    "bel": 3834,
    "Ġelucidated": 26029,
    "decor": 23778,
    "icorn": 15653,
    "Ġdiverted": 14591,
    "Ġwoeful": 19618,
    "Ġclattering": 22349,
    "ga": 17549,
    "Ġoptim": 792,
    "Ġessex": 20125,
    "Ġlizzie": 26461,
    "might": 4077,
    "Ġacknowledges": 24688,
    "Ġturbid": 23610,
    "Ġmisery": 3812,
    "igned": 5656,
    "Ġnarrated": 14869,
    "Ġunheeded": 18258,
    "Ġsometimes": 2167,
    "ĠĠĠĠĠĠĠĠĠĠĠĠĠĠĠĠĠĠĠĠĠĠĠĠĠĠĠĠĠĠĠĠĠĠĠĠ": 23666,
    "Ġidentifies": 12011,
    "willingly": 11979,
    "Ġapparel": 20434,
    "rael": 21627,
    "Ġshoal": 12012,
    "ezing": 10572,
    "Ġdiscoverers": 26036,
    "Ġfidgeted": 25889,
    "Ġstaggering": 20272,
    "Ġpecks": 18669,
    "ford": 2823,
    "Ġinqu": 2964,
    "Ġpound": 12612,
    "Ġlif": 10194,
    "Ġleakage": 23460,
    "Ġgentle": 1891,
    "Ġstagger": 10590,
    "gloomy": 25144,
    "Ġapproving": 18514,
    "sweet": 8685,
    "Ġachieved": 13164,
    "convinced": 10621,
    "Ġoccas": 2703,
    "Ġcompromised": 22569,
    "Ġadmit": 7711,
    "Ġamerican": 5061,
    "Ġsidelong": 11437,
    "Ě": 219,
    "ignorantly": 25189,
    "wander": 17708,
    "Ġunderground": 18984,
    "Ġgraces": 18225,
    "enses": 10993,
    "rose": 6014,
    "muttered": 13757,
    "har": 20889,
    "Ġscenarios": 26541,
    "Ġsister": 1474,
    "Ġmurder": 4281,
    "Ġchalk": 15930,
    "likeness": 19476,
    "Ġcabaco": 13165,
    "Ġwaved": 9643,
    "Ġunfulfilled": 26508,
    "regiment": 16450,
    "Ġcovers": 18590,
    "lipped": 16214,
    "×": 152,
    "Ġdagger": 21436,
    "girdling": 26388,
    "Ġhis": 381,
    "Ġunpleasant": 7191,
    "peaceful": 20445,
    "Ġcoronation": 13331,
    "Ġform": 1022,
    "listen": 13512,
    "Ġladen": 19176,
    "Ġfreemason": 23208,
    "Ġuse": 813,
    "lucky": 24544,
    "Ġcheetah": 14502,
    "crooked": 25746,
    "furnished": 20240,
    "fluttering": 23970,
    "Ġassurance": 7775,
    "Ġunheard": 22019,
    "aurus": 20559,
    "Ġcorrection": 5062,
    "Ġprocess": 560,
    "burnt": 20078,
    "sadly": 25526,
    "Ġfidel": 12592,
    "Ġill": 2192,
    "istically": 14142,
    "Ġhall": 4183,
    "Ġjets": 10286,
    "ounding": 22390,
    "hatches": 19927,
    "Ġdisguises": 25055,
    "Ġbeacon": 21754,
    "Ġstage": 7389,
    "Ġbedfellows": 23439,
    "Ġsluggish": 25890,
    "Ġpuppy": 12402,
    "Ġarchbishop": 18699,
    "Ġhissed": 15785,
    "ateness": 15517,
    "nailed": 20995,
    "Ġegot": 18007,
    "Ġhedgehog": 10643,
    "Ġready": 3400,
    "firm": 10697,
    "Ġte": 1159,
    "Ġsulky": 13513,
    "Ġponderous": 8355,
    "Ġfluctuations": 5516,
    "Ġbeside": 5192,
    "avern": 24792,
    "Ġprocessing": 878,
    "ror": 7351,
    "string": 15682,
    "Ġpersecutor": 26096,
    "bale": 20773,
    "Ġsunken": 14492,
    "Ġempire": 11144,
    "Ġmistaking": 23717,
    "dinner": 11405,
    "ollion": 19714,
    "ienced": 5685,
    "Ġjewels": 12366,
    "idel": 5299,
    "Ġbigot": 24564,
    "Ġhand": 859,
    "Ġengineering": 3023,
    "Ġdisguise": 10044,
    "Ġample": 11795,
    "Ġstick": 6026,
    "Ġmariner": 7247,
    "Ġtantamount": 25625,
    "Ġpleaded": 16297,
    "Ġunfrequ": 19507,
    "Ġreign": 13983,
    "entials": 22662,
    "Ġtimorous": 24224,
    "Ġcorpore": 13399,
    "Ġrepresentation": 14403,
    "Ġprem": 3428,
    "arman": 11593,
    "wretch": 17707,
    "Ġire": 12665,
    "Ġaslant": 21899,
    "Ġgripping": 26186,
    "rity": 13774,
    "Ġjustly": 11900,
    "Ġcredulous": 17143,
    "),": 1348,
    "Ġfanatic": 23390,
    "semic": 21819,
    "Ġevents": 4471,
    "Ġappar": 7411,
    "aternity": 21264,
    "Ġweaken": 21919,
    "haustible": 16890,
    "perpetually": 20511,
    "Ġrobbery": 11906,
    "Ġcomp": 723,
    "flight": 15350,
    "Ġwitnessing": 19597,
    "bast": 10075,
    "intimate": 22935,
    "irth": 5634,
    "Ġlatitudes": 9494,
    "Ġpalpitated": 26085,
    "Ġomens": 21326,
    "Ġbubb": 12580,
    "Ġexaggerate": 25649,
    "Ġboughs": 20487,
    "Ġsubsisted": 19117,
    "Ġgriev": 16633,
    "trouble": 8295,
    "Ġforming": 7042,
    "Ġcharcoal": 19007,
    "mockery": 24377,
    "Ġrepressed": 21666,
    "Ġinsignificance": 20456,
    "Ġcottagers": 6761,
    "Ġescapes": 23507,
    "Ġwhether": 2002,
    "answers": 22138,
    "Ġpurchase": 12256,
    "Ġblanket": 8343,
    "idirection": 2412,
    "Ġmilitia": 13315,
    "Ġbubblingly": 25632,
    "Ġimmemorial": 10509,
    "ley": 1816,
    "Ġneeded": 7718,
    "Ġships": 3712,
    "wrong": 13204,
    "Ġuncles": 23429,
    "Ġslo": 15504,
    "Ġreach": 4046,
    "iop": 20918,
    "Ġgleaming": 24995,
    "Ġguiltless": 16939,
    "Ġbreathless": 12166,
    "Ġhorses": 6385,
    "remarks": 23186,
    "Ġfrogs": 23920,
    "Ġindestruct": 22956,
    "Ġrequisite": 18651,
    "Ġresources": 2936,
    "Ġgrammatical": 13537,
    "whar": 15924,
    "Ġfamed": 16324,
    "Ġrussia": 26267,
    "mering": 12487,
    "list": 7551,
    "Ġcontr": 1916,
    "twelvemonth": 25862,
    "luck": 5733,
    "Ġheadland": 22893,
    "manif": 14371,
    "solely": 19815,
    "Ġdisclose": 16151,
    "Ġopp": 2697,
    "Ġencode": 4365,
    "Ġinve": 17928,
    "Ġunlike": 7004,
    "Ġskills": 1839,
    "Ġnoticing": 18224,
    "rud": 4190,
    "Ġtropics": 17065,
    "flex": 24843,
    "always": 5708,
    "Ġpallid": 12296,
    "Ġsummit": 7731,
    "abling": 1080,
    "Ġmitigates": 3049,
    "itancy": 21331,
    "Ġplainer": 23703,
    "Ġcase": 1940,
    "Ġproprietor": 12370,
    "Ġsteps": 2864,
    "glow": 20873,
    "sacrifice": 13490,
    "Ġpassive": 22838,
    "Ġcomfortless": 23910,
    "ryphon": 4162,
    "skirted": 24488,
    "Ġvarieties": 14308,
    "Ġunlocked": 14117,
    "Ġunwelcome": 12775,
    "Ġspeak": 2230,
    "Ġvoices": 7877,
    "Ġreserve": 9969,
    "Ġsculpt": 15943,
    "sac": 7140,
    "generosity": 23784,
    "lust": 15377,
    "roads": 17957,
    "Ġsecure": 4912,
    "clean": 14758,
    "anatory": 21361,
    "character": 6331,
    "Ġcurvature": 3571,
    "Ġpettic": 14839,
    "Ġgenerates": 3662,
    "Ġhigher": 1820,
    "Ġdestination": 19149,
    "stains": 11635,
    "Ġcash": 9651,
    "Ġtrowsers": 9626,
    "Ġdread": 3162,
    "instance": 24167,
    "whel": 7665,
    "Ġobligations": 12088,
    "Ġcabman": 14604,
    "clay": 18930,
    "Ġfleecy": 17022,
    "Ġsomnam": 23005,
    "Ġarticle": 9500,
    "Ġspecially": 11994,
    "blister": 24126,
    "Ġunwound": 25169,
    "Ġbeyond": 2459,
    "consuming": 25674,
    "Ġmachinery": 20483,
    "drink": 10594,
    "Ġfragment": 14497,
    "lings": 8745,
    "resolution": 17765,
    "Ġmule": 13860,
    "Ġconfusion": 7273,
    "Ġspeeches": 22660,
    "Ġmasters": 11573,
    "aye": 3658,
    "rosings": 15640,
    "Ġcopse": 17066,
    "knows": 19171,
    "Ġpurpose": 2708,
    "Ġabhorrence": 9051,
    "Ġflapp": 23008,
    "uzz": 4524,
    "Ġtickled": 20055,
    "Ġlegisl": 23534,
    "devilish": 17081,
    "Ġhairs": 13228,
    "Ġlofty": 6217,
    "Ġaction": 5796,
    "draw": 23896,
    "anging": 3549,
    "Ġcharacteristics": 8609,
    "Ġgunwales": 12237,
    "Ġreverse": 16981,
    "Ġstuck": 9219,
    "Ġannoyance": 20661,
    "Ġbeget": 9224,
    "Ġshiny": 14104,
    "Ġthoroughfares": 26095,
    "luxur": 25822,
    "Ġseriously": 7060,
    "Ġroused": 7622,
    "historian": 25735,
    "Ġheaven": 3366,
    "Ġjogged": 26236,
    "rannical": 26400,
    "Ġneck": 4885,
    "forgot": 11032,
    "cest": 12441,
    "Ġanalog": 12608,
    "F": 42,
    "Ġfriend": 1296,
    "Ġrum": 5924,
    "Ġblandly": 20322,
    "abilizing": 2924,
    "Ġsex": 8840,
    "Ġ86": 24460,
    "Ġrecumbent": 22740,
    "iana": 7048,
    "urable": 8923,
    "Ġstrings": 11826,
    "Ġclang": 15959,
    "tic": 8391,
    "xter": 9145,
    "clump": 23153,
    "firmly": 20279,
    "Ġenglishman": 11228,
    "phur": 16152,
    "Ġspark": 6689,
    "north": 14614,
    "Ġcompliments": 8632,
    "Ġseeming": 8539,
    "deck": 4499,
    "intelligence": 5883,
    "appear": 13194,
    "Ġpursuits": 12073,
    "Ġunearthly": 9035,
    "rus": 5930,
    "cook": 8270,
    "driven": 19770,
    "Ġbe": 336,
    "superior": 9523,
    "Ġspade": 9257,
    "Ġdry": 5624,
    "explanations": 25234,
    "enough": 6809,
    "Ġundec": 22013,
    "Ġmichigan": 26425,
    "Ġarrows": 18336,
    "Ġgardens": 16451,
    "Ġhelped": 7459,
    "atherley": 7220,
    "Ġinsip": 19266,
    "veh": 12675,
    "Ġtendinous": 16930,
    "Ġtahitian": 25427,
    "Ġevery": 929,
    "Ġdisappeared": 5645,
    "Ġcondense": 21806,
    "Ġmar": 1311,
    "Ġkeel": 6444,
    "Ġtamely": 24979,
    "Ġinclusive": 24162,
    "Ġcyl": 15553,
    "bloom": 24689,
    "prov": 16420,
    "anywhere": 14681,
    "dis": 2252,
    "Ġrotterdam": 25475,
    "Ġstem": 15715,
    "Ġcornelius": 13571,
    "Ġspecies": 5112,
    "ke": 429,
    "sartain": 25622,
    "p": 84,
    "ernally": 22608,
    "piteous": 21032,
    "Ġperceptible": 18451,
    "Ġgazette": 19499,
    "Ġhereford": 22875,
    "Ġlatest": 16821,
    "Ġknee": 7093,
    "ribly": 8255,
    "Ġunfor": 15836,
    "Ġendeavor": 16543,
    "ignified": 14489,
    "Ġax": 7823,
    "istical": 8489,
    "Ġsinusoid": 4781,
    "Ġthird": 4186,
    "agreeable": 5829,
    "wer": 8395,
    "Ġrevolt": 24500,
    "Ġmy": 412,
    "Ġtowed": 11264,
    "positive": 20566,
    "Ġresisted": 22539,
    "cream": 15329,
    "Ġstyle": 6946,
    "Ġoppressed": 11188,
    "Ġyawn": 7609,
    "Ġunduly": 25994,
    "Ġma": 3251,
    "Ġinterested": 6458,
    "Ġalbert": 12702,
    "Ġhumane": 11881,
    "Ġboldly": 9499,
    "uries": 6147,
    "hunt": 20902,
    "Ġbur": 2698,
    "Ġflounders": 23013,
    "flung": 16637,
    "that": 850,
    "handsome": 13174,
    "Ġmasking": 2420,
    "Ġsnodhead": 19300,
    "Ġassaulted": 25320,
    "Ġjavelin": 26104,
    "Ġtolerable": 6949,
    "Ġop": 2603,
    "Ġcommendation": 13608,
    "Ġlazily": 11379,
    "Ì": 141,
    "Ġ27": 8614,
    "Ġeldest": 6571,
    "Ġhaunt": 18197,
    "Ġbrute": 8925,
    "Ġske": 4815,
    "whose": 6852,
    "Ġelevating": 19727,
    "Ġdarkness": 4278,
    "apped": 5395,
    "contrad": 19290,
    "Ġwhereby": 11834,
    "Ġmagnetic": 17239,
    "Ġwants": 5742,
    "Ġpieces": 7369,
    "problems": 11433,
    "onday": 6064,
    "Ġpartly": 6713,
    "Ġstorm": 4302,
    "Ġandes": 12637,
    "Ġbeaufort": 13566,
    "Ġempt": 5051,
    "provided": 13635,
    "web": 18664,
    "useness": 22290,
    "Ġinexpress": 12631,
    "ecess": 17531,
    "Ġmoccas": 22432,
    "cerem": 15674,
    "Ġbelief": 5855,
    "Ġunquestionable": 26221,
    "oded": 11667,
    "Ġearliest": 9829,
    "Ġairy": 23318,
    "Ġeffectual": 18733,
    "Ġleaned": 7607,
    "metic": 14982,
    "Ġ>": 21150,
    "ments": 1401,
    "Ġalow": 18099,
    "scor": 13016,
    "Ġshabby": 14109,
    "Ġinfant": 11957,
    "Ġinser": 6820,
    "Ġprofessional": 7299,
    "dutch": 17217,
    "Ġkink": 22191,
    "killer": 20474,
    "Ġcrime": 4616,
    "Ġquote": 18466,
    "hic": 3247,
    "Ġcigaret": 16975,
    "Ġenormousness": 24511,
    "Ġgasping": 17037,
    "plifted": 9708,
    "Ġobscured": 15009,
    "saturday": 14856,
    "Ġdoubtful": 19141,
    "Ġfortnight": 6200,
    "Ġfish": 2710,
    "Ġroared": 7023,
    "Ġcleansed": 26293,
    "Ġdanced": 7843,
    "doub": 6223,
    "connected": 1309,
    "balls": 12302,
    "Ġwre": 5077,
    "Ġantilles": 24178,
    "deepest": 22852,
    "Ġcarriage": 3949,
    "'m": 9581,
    "Ġsafe": 5103,
    "Ġupright": 8493,
    "Ġbreeze": 5681,
    "Ġshook": 4467,
    "Ġlamp": 4112,
    "Ġtraits": 23073,
    "Ġundone": 24115,
    "Ġlimb": 9400,
    "adequately": 20318,
    "Ġimmens": 9937,
    "ulsive": 10232,
    "Ġchasing": 11751,
    "feature": 3968,
    "observation": 17268,
    "money": 8749,
    "rief": 6202,
    "burst": 10536,
    "Ġfore": 2154,
    "Ġtwin": 12924,
    "Ġcountryside": 23595,
    "Ġdefinite": 11068,
    "Ġessentials": 20001,
    "irons": 10237,
    "cially": 3489,
    "relig": 15510,
    "band": 3056,
    "unavoid": 14060,
    "jacket": 12289,
    "Ġvisibly": 22860,
    "slackened": 26094,
    "Ġtasselled": 25921,
    "iate": 6505,
    "Ġrage": 5110,
    "Ġdetails": 6565,
    "Ġexpose": 10326,
    "Ġcemeteries": 26375,
    "limbs": 20190,
    "Ġneg": 1333,
    "atic": 4017,
    "whaleman": 23436,
    "Ġtamer": 24978,
    "Ġslanting": 23170,
    "childhood": 16865,
    "Ġchaise": 9075,
    "Ġinterconnected": 1340,
    "Ġpatagon": 14504,
    "Ġdestructive": 23487,
    "featured": 24069,
    "Ġnormalizes": 1863,
    "imson": 12685,
    "Ġlexic": 15720,
    "Ġprinces": 23224,
    "cal": 1119,
    "Ġcra": 2335,
    "Ġtry": 3134,
    "Ġbouton": 17868,
    "Ġcabinets": 23859,
    "accountable": 7109,
    "Ġerrors": 2597,
    "content": 11197,
    "bal": 2157,
    "Ġlestrade": 5825,
    "oused": 6556,
    "liable": 3816,
    "Ġrate": 1066,
    "quarters": 24946,
    "Ġaffections": 10383,
    "Ġworthy": 7241,
    "Ġpurchas": 19873,
    "Ġtester": 21171,
    "Ġdesist": 16235,
    "ency": 3868,
    "Ġnarrations": 24351,
    "attempts": 17189,
    "Ġsuns": 23272,
    "Ġremo": 3784,
    "Ġlittle": 866,
    "soldiers": 25911,
    "blame": 14792,
    "prison": 14661,
    "butter": 11782,
    "Ġignorance": 6618,
    "Ġbelshazzar": 16223,
    "į": 240,
    "Ġcruising": 6913,
    "Ġploughing": 26259,
    "Ġcommunity": 19009,
    "Ġwait": 4907,
    "Ġcirc": 1988,
    "Ġgasp": 7172,
    "Ġevaluate": 3101,
    "Ġfrozen": 9011,
    "princip": 17135,
    "ĠĠĠĠĠĠĠĠĠĠĠĠ": 12896,
    "Ġsaf": 4002,
    "Ġsemicircle": 26068,
    "Ġtanning": 17728,
    "Ġdischarge": 18556,
    "despicable": 24637,
    "Ġnative": 4640,
    "Ġade": 22102,
    "spike": 16135,
    "Ġamidst": 9492,
    "Ġcanaller": 25467,
    "Ġpopulation": 16826,
    "lingering": 18602,
    "Ġxx": 5492,
    "Ġfainting": 16896,
    "spermaceti": 12190,
    "inf": 6232,
    "Ġfollies": 16254,
    "block": 11469,
    "Ġalt": 18098,
    "Ġ235": 25713,
    "Ġissuing": 16947,
    "Ġexplored": 23518,
    "Ġdense": 8123,
    "Ġshipwreck": 20444,
    "Ġstomach": 11651,
    "charlotte": 6473,
    "Ġborder": 10168,
    "aggoo": 5130,
    "ceptibly": 22364,
    "reputation": 15513,
    "Ġmorocco": 26572,
    "roar": 17952,
    "Ġoverflowed": 20261,
    "confusion": 13367,
    "adam": 15726,
    "Ġphilosop": 5057,
    "Ġunmolested": 15243,
    "ened": 1387,
    "Ġmillions": 11353,
    "comra": 16166,
    "Ġdictate": 20150,
    "engagements": 25853,
    "Ġdisastrous": 16057,
    "ee": 1655,
    "bitious": 16668,
    "Ġcompacted": 23508,
    "herald": 22205,
    "converse": 22471,
    "Ġwere": 557,
    "dick": 11478,
    "Ġbelongs": 8015,
    "Ġrambles": 17183,
    "olly": 3224,
    "Ġblackness": 9391,
    "Ġintegrity": 12310,
    "Ġtypewriter": 19097,
    "lets": 7837,
    "soever": 11856,
    "Ġcordial": 16834,
    "ampling": 12722,
    "Ġscener": 10948,
    "Ġactions": 6278,
    "elzebub": 26463,
    "Ġfrosted": 19802,
    "pread": 7419,
    "capital": 15086,
    "vation": 4744,
    "iancy": 13005,
    "concerning": 9063,
    "Ġtower": 8319,
    "Ġshades": 9461,
    "Ġlest": 6395,
    "Ġfounder": 17883,
    "Ġburnwell": 13266,
    "Ġbowled": 23767,
    "Ġmig": 13854,
    "knives": 14911,
    "inex": 14094,
    "tort": 17674,
    "Ġprepared": 5877,
    "ech": 4389,
    "Ġnephew": 6405,
    "Ġrosings": 4607,
    "Ġexceptions": 13227,
    "papers": 12498,
    "Ġalexander": 17422,
    "Ġclenched": 14202,
    "Ġclergyman": 8711,
    "actions": 8905,
    "Ġterrify": 19359,
    "Ġgra": 416,
    "Ġscr": 11757,
    "Ġentreating": 24206,
    "wards": 1277,
    "Ġrecesses": 17259,
    "Ġdecent": 10977,
    "Ġattic": 16095,
    "Ġindu": 5293,
    "Ġreplying": 19580,
    "Ġeach": 890,
    "shr": 10979,
    "old": 800,
    "ruction": 4358,
    "Ġberyls": 25775,
    "Ġambiguous": 20163,
    "contents": 12055,
    "Ġshell": 11733,
    "onement": 21255,
    "Ġtrusty": 24102,
    "igation": 5918,
    "Ġlonely": 6823,
    "Ġloudly": 7312,
    "Ġapp": 497,
    "Ġbutterfly": 19909,
    "alously": 15625,
    "Ġmarvel": 23035,
    "discoveries": 25385,
    "Ġshilling": 18228,
    "Ġinterven": 10996,
    "love": 9292,
    "observed": 7675,
    "Ġsignific": 3826,
    "Ġbarb": 4531,
    "ague": 3906,
    "benevolently": 25600,
    "nantucket": 7805,
    "Ġsurprised": 3828,
    "Ġwalled": 15532,
    "Ġmodified": 14167,
    "Ġaltern": 7394,
    "remained": 8569,
    "Ġturks": 14597,
    "Ġcoffin": 4428,
    "Ġincommun": 25308,
    "Ġapprehension": 7113,
    "inquiries": 13575,
    "Ġunique": 12773,
    "Ġrows": 10560,
    "Ġharpoon": 3614,
    "screwed": 17186,
    "irous": 8837,
    "Ġbetween": 793,
    "thomas": 18219,
    "Ġcompat": 2937,
    "Ġwhit": 7177,
    "Ġfrankness": 16745,
    "Ġhoney": 12628,
    "Ġsor": 4145,
    "Ġelevates": 24499,
    "Ġtorrid": 25032,
    "Ġbutter": 6842,
    "minutely": 19592,
    "isation": 13891,
    "ĠcÃ¦": 15551,
    "oul": 4698,
    "Ġvesuvius": 26500,
    "Ġcomputers": 2645,
    "voices": 21116,
    "vo": 11538,
    "Ġdom": 2604,
    "Ġfleetness": 20178,
    "irms": 18168,
    "Ġcarted": 21347,
    "Ġtypically": 1538,
    "dut": 10086,
    "Ġannealing": 1555,
    "Ġargued": 13627,
    "Ġcombining": 22841,
    "Ġinh": 10823,
    "Ġers": 15458,
    "Ġplantation": 11422,
    "bun": 12435,
    "Ġimaginative": 19245,
    "Ġdefer": 18822,
    "reflection": 13453,
    "trifling": 19412,
    "remote": 23187,
    "Ġvowed": 14082,
    "Ġseals": 11694,
    "ious": 770,
    "Ġbank": 4877,
    "Ġsmall": 892,
    "avail": 18605,
    "ass": 534,
    "Ġexisting": 12714,
    "Ġclub": 8872,
    "Ġimpo": 3443,
    "attempted": 20173,
    "Ġswept": 7978,
    "Ġsickly": 16773,
    "Ġgirdled": 19157,
    "orters": 21399,
    "Ġstony": 21737,
    "Ġced": 10783,
    "Ġcontempl": 6701,
    "Ġlip": 6532,
    "Ġimpelling": 22384,
    "estion": 18363,
    "·": 120,
    "Ġtug": 11549,
    "persons": 24173,
    "subst": 12161,
    "Ġfly": 3869,
    "sutherland": 21061,
    "Ġsupreme": 13605,
    "Ġleaning": 5228,
    "Ġassigned": 16310,
    "estab": 14169,
    "Ġtrading": 23074,
    "itzerland": 9993,
    "Ġsubdivisions": 26037,
    "Ġstride": 22614,
    "Ġsympathising": 24296,
    "Ġcomprehens": 8320,
    "taught": 17683,
    "Ġsou": 1888,
    "Ġdiscomposed": 25580,
    "aim": 2757,
    "Ġaz": 9628,
    "intments": 18820,
    "upid": 6582,
    "gener": 3125,
    "Ġ20": 8613,
    "immedi": 8450,
    "collect": 16562,
    "Ġkeen": 4613,
    "Ġarm": 2495,
    "axen": 22519,
    "teeth": 10354,
    "Ġusages": 15914,
    "Ġunconditional": 15841,
    "Ġallow": 1126,
    "inisc": 15486,
    "Ġstanzas": 21742,
    "gled": 10698,
    "bergs": 18683,
    "Ġumbrell": 13648,
    "trained": 4239,
    "Ġundoubted": 19513,
    "staking": 21646,
    "Ġwinchester": 10064,
    "otherwise": 7671,
    "Ġdutch": 6327,
    "unctions": 18155,
    "Ġalacrity": 15733,
    "Ġcomb": 1039,
    "Ġmarshal": 20218,
    "Ġexperienced": 6583,
    "Ġbroods": 23100,
    "rarely": 21632,
    "Ġplush": 18610,
    "draul": 9441,
    "Ġ1839": 20458,
    "Ġdismay": 11806,
    "Ġdummy": 25449,
    "cable": 20796,
    "Ġslink": 23161,
    "Ġ1991": 3013,
    "Ĕ": 213,
    "itself": 7835,
    "Ġcous": 3438,
    "persuasion": 20042,
    "perceived": 8857,
    "pertaining": 22186,
    "Ġcells": 13883,
    "Ġsqueaking": 26274,
    "Ġjav": 7903,
    "Ġforesaw": 19127,
    "island": 10793,
    "Ġtranslates": 12048,
    "Ġgifts": 21610,
    "Ġsleeps": 10445,
    "Ġattribute": 16097,
    "Ġpassage": 3884,
    "unwillingly": 21882,
    "indisc": 22371,
    "Ġcongratulated": 19765,
    "Ġdepartment": 24240,
    "inquire": 16931,
    "Ġcottages": 14725,
    "Ġcastles": 16638,
    "rennial": 22339,
    "Ġcanst": 8856,
    "Ġappre": 5165,
    "Ġmonogram": 26573,
    "Ġdisturb": 7107,
    "Ġhovel": 8254,
    "will": 1971,
    "Ġtradeoff": 2658,
    "mish": 17597,
    "Ŀ": 256,
    "continued": 8675,
    "iah": 14415,
    "Ġirresolute": 24916,
    "Ġfid": 10802,
    "Ġimmense": 4952,
    "Ġjer": 6266,
    "Ġruff": 14347,
    "Ġpossible": 2585,
    "continue": 16860,
    "ĠĠĠĠĠĠĠĠĠĠĠĠĠĠĠĠĠĠĠĠĠĠĠĠĠĠĠĠĠĠĠĠĠĠĠĠĠĠĠĠĠĠ": 24208,
    "Ġbegged": 8231,
    "Ġmoderation": 12816,
    "courageous": 26127,
    "cre": 4251,
    "culous": 11140,
    "renadier": 18419,
    "Ġtechnically": 12363,
    "Ġprevailing": 24673,
    "bony": 15317,
    "Ġfavourites": 16643,
    "sc": 1262,
    "um": 454,
    "olidity": 18140,
    "roded": 17955,
    "Ġfrocks": 23919,
    "Ġdeep": 787,
    "Ġenvelop": 5586,
    "50": 6784,
    "bro": 4034,
    "Ġhappier": 10358,
    "Ġjoll": 11762,
    "Ġinspect": 5964,
    "characteristic": 24685,
    "Ġbalances": 2343,
    "following": 10571,
    "Ġdaw": 21428,
    "queens": 22907,
    "mag": 6508,
    "Ġkidn": 20204,
    "Ġundersampling": 19517,
    "Ġsinned": 18951,
    "delightful": 12193,
    "stands": 22433,
    "iber": 6506,
    "holmes": 4430,
    "Ġgap": 21597,
    "que": 1143,
    "rol": 5713,
    "Ġleviathan": 3288,
    "ider": 21763,
    "iture": 5696,
    "Ġteacup": 16211,
    "Ġacre": 22679,
    "Ġimpenitent": 26547,
    "Ġappe": 1542,
    "othing": 6995,
    "Ġelder": 7223,
    "Ġbrew": 23343,
    "Ġjoys": 13217,
    "definition": 23116,
    "inn": 5363,
    "deploy": 22141,
    "Ġlangs": 13952,
    "thus": 5158,
    "asper": 7855,
    "acetty": 24463,
    "ulent": 21860,
    "Ġprominence": 18954,
    "Ġalso": 1345,
    "Ġeul": 21616,
    "Ġoutermost": 22317,
    "Ġpitiable": 9912,
    "Ġbehaviour": 4384,
    "Ġlife": 1353,
    "Ġpersist": 16282,
    "educated": 17258,
    "Ġcister": 13880,
    "Ġproudly": 19741,
    "hyp": 15364,
    "Ġadventure": 5981,
    "jephro": 26391,
    "Ġlabels": 3287,
    "Ġconscious": 7744,
    "Ġaccident": 5380,
    "Ġsubstant": 14807,
    "Ġsaleve": 17389,
    "Ġtorture": 9064,
    "Ġlit": 6246,
    "Ġunfitted": 24106,
    "host": 5867,
    "Ġcompliment": 5673,
    "Ġclusters": 25232,
    "æ": 167,
    "Ġseparately": 13300,
    "Ġimmensities": 25330,
    "sheltered": 25585,
    "wolf": 26408,
    "Ġbarrow": 12066,
    "Ġpilgrim": 25599,
    "gabriel": 15358,
    "Ġnursing": 12211,
    "Ġperv": 15987,
    "Ġack": 5621,
    "Ġencamped": 22801,
    "Ġexh": 5232,
    "Ġtargets": 4204,
    "Ġintellig": 526,
    "hatchway": 25904,
    "ailed": 3245,
    "Ġleaf": 15719,
    "Ġpeevish": 26556,
    "Ġbu": 3680,
    "date": 17516,
    "Ġsuperiority": 14615,
    "Ġcomparable": 24277,
    "Ġsolved": 8930,
    "telescope": 26561,
    "fields": 14652,
    "algorithms": 8301,
    "Ġstoried": 18072,
    "Ġcruel": 5121,
    "arrival": 15596,
    "ver": 331,
    "ersman": 11698,
    "Ġconstable": 19070,
    "Ġlabeled": 3716,
    "nails": 17613,
    "turning": 8317,
    "occasional": 19575,
    "Ġtube": 15002,
    "eks": 4728,
    "danger": 10088,
    "Ġdisputes": 25825,
    "Ġsupple": 22999,
    "Ġloathed": 15872,
    "yn": 7820,
    "county": 25396,
    "rene": 5379,
    "Ġcanvassed": 19933,
    "cked": 2763,
    "Ġkrusenstern": 20713,
    "mankind": 14372,
    "Ġspectators": 19405,
    "Ġterminated": 23509,
    "frantic": 24282,
    "Ġrelinqu": 12979,
    "culiarity": 11141,
    "akeman": 6267,
    "Ġanat": 8124,
    "tete": 10731,
    "Ġrobinson": 17462,
    "Ġve": 1108,
    "Ġthreat": 5154,
    "Ġintim": 6838,
    "buttons": 22399,
    "Ġcommenced": 8531,
    "corrob": 24484,
    "Ġabsolute": 6765,
    "Ġthoughts": 3138,
    "Ġchapters": 10472,
    "Ġdeliber": 7268,
    "Ġroads": 13286,
    "Ġbir": 17853,
    "Ġcourses": 10410,
    "hoisted": 19281,
    "aries": 6244,
    "Ġhumility": 12981,
    "Ġaccount": 2324,
    "Ġprynne": 25540,
    "Ġcontribute": 12857,
    "Ġglasses": 9473,
    "Ġbodies": 8032,
    "Ġblowing": 10483,
    "omp": 2473,
    "Ġascendency": 20231,
    "even": 3836,
    "Ġclassical": 22619,
    "valued": 2853,
    "examined": 17265,
    "som": 3291,
    "Ġrevolutionized": 3369,
    "Ġungover": 18252,
    "Ġdre": 1744,
    "walking": 9980,
    "Ġframe": 1865,
    "Ġlands": 6594,
    "iastic": 12476,
    "Ġstiffness": 24830,
    "Ġlandsmen": 11350,
    "Ġadded": 2717,
    "Ġbru": 13893,
    "remental": 21246,
    "Ġtreasure": 9557,
    "ien": 10100,
    "strangers": 20335,
    "Ġambergris": 8705,
    "Ġtemporary": 7981,
    "dog": 10691,
    "real": 10148,
    "Ġvolumes": 14798,
    "Ġestimated": 16593,
    "read": 3274,
    "Ġconviction": 6326,
    "Ġshillings": 15832,
    "Ġpythag": 26447,
    "Ġunderstand": 831,
    "suspect": 9538,
    "pier": 17634,
    "Ġmumbling": 11572,
    "announce": 24559,
    "Ġmystery": 5509,
    "lucas": 15149,
    "reeable": 3609,
    "evidently": 20344,
    "Ġheard": 1400,
    "ence": 394,
    "Ġinvoluntarily": 8548,
    "Ġimplicate": 24876,
    "delirium": 14783,
    "Ġstranded": 9773,
    "ylon": 24977,
    "Ġworried": 22923,
    "Ġpoised": 22591,
    "Ġpredicts": 2595,
    "res": 2760,
    "loose": 11802,
    "setting": 13283,
    "Ġmoments": 4845,
    "Ġsigns": 2443,
    "Ġduties": 6609,
    "Ġgreas": 17991,
    "):": 11460,
    "ctuous": 9204,
    "Ġdetailed": 12820,
    "Ġmeddling": 24080,
    "furthermore": 20002,
    "Ġwonderfully": 10429,
    "Ġdism": 9765,
    "Ġenabled": 9294,
    "unguarded": 23669,
    "Ġsgd": 3129,
    "Ġghast": 9208,
    "Ġnevertheless": 5040,
    "Ġwan": 15525,
    "crews": 15041,
    "Ġseparating": 16684,
    "Ġencirc": 18732,
    "Ġmari": 6813,
    "Ġhans": 12622,
    "Ġdarcy": 1344,
    "Ġabsorbed": 12328,
    "fthand": 26385,
    "Ġvessels": 6755,
    "Ġcolle": 8921,
    "Ġinfluence": 5515,
    "mm": 675,
    "Ġcontracting": 16008,
    "Ġqualities": 7533,
    "ampled": 18883,
    "Ġcomprising": 16065,
    "Ġbenevolence": 9525,
    "Ġdeity": 18133,
    "Ġmonoton": 3635,
    "speaking": 12095,
    "otently": 21798,
    "mounting": 25207,
    "Ġegyptian": 13584,
    "Ġsimplest": 16331,
    "Ġuppermost": 15276,
    "Ġalabama": 14017,
    "Ġvinc": 14083,
    "Ġparm": 15874,
    "Ġtightly": 13532,
    "Ġridiculous": 10627,
    "Ġorph": 9715,
    "ire": 492,
    "Ġthoughtful": 16189,
    "Ġrandom": 1587,
    "icting": 12847,
    "gloves": 25143,
    "Ġscrupulous": 20067,
    "Ġrubbed": 12951,
    "Ġassisting": 13254,
    "ital": 4817,
    "recover": 24623,
    "Ġgrateful": 7660,
    "Ġextravag": 11253,
    "Ġjourneys": 19473,
    "roman": 22002,
    "Ġgases": 21600,
    "Ġwater": 1947,
    "Ġheated": 21680,
    "Ġbequest": 21751,
    "many": 5249,
    "senses": 25022,
    "Ġfurnishes": 19439,
    "Ġcalifornian": 25851,
    "Ġcircumspect": 15082,
    "Ġreceives": 20353,
    "Ġhyper": 19738,
    "Ġcare": 1635,
    "Ġtablets": 13153,
    "Ġexcepting": 14679,
    "Ġconductor": 24004,
    "Ġburton": 23655,
    "Ġofficer": 6753,
    "Ġwinds": 5746,
    "fulfilment": 26025,
    "Ġhug": 6979,
    "Ġsons": 10765,
    "arrow": 4179,
    "collar": 19327,
    "top": 4484,
    "Ġdiscernment": 15053,
    "Ġagainst": 1695,
    "osh": 18388,
    "persuade": 13531,
    "Ġfulfil": 9549,
    "Ġgrimes": 11033,
    "Ġtoil": 6531,
    "Ġmedicine": 15203,
    "pard": 9617,
    "Ġanne": 1531,
    "Ġvarious": 3508,
    "Ġphrenologist": 25607,
    "Ġwoes": 23983,
    "gies": 13724,
    "Ġsenses": 8252,
    "diss": 17522,
    "Ġmr": 660,
    "grant": 10426,
    "Ġtending": 17723,
    "Ġhears": 8139,
    "Ġspectator": 19404,
    "night": 2168,
    "nowhere": 18418,
    "Ġhelm": 5275,
    "garious": 17557,
    "Ġenters": 11024,
    "Ġknowest": 12859,
    "Ġ1894": 5196,
    "Ġresnet": 5473,
    "Ġbeggars": 20628,
    "Ġain": 6969,
    "Ġveritable": 19379,
    "Ġsailor": 3534,
    "Ġannounced": 9033,
    "Ġexagger": 12715,
    "Ġwiping": 25765,
    "Ġintrepid": 11702,
    "Ġfast": 1718,
    "Ġsounding": 8265,
    "empl": 5724,
    "Ġtidings": 11396,
    "Ġbelonged": 6922,
    "Ġcorruption": 15223,
    "Ġstock": 7455,
    "Ġmaw": 15536,
    "yt": 17710,
    "Ġprovince": 24188,
    "Ġapolog": 9042,
    "rat": 8755,
    "Ġimmensity": 25329,
    "Ġauto": 23308,
    "Ġrustic": 14963,
    "Ġsettling": 11061,
    "Ġadrift": 11720,
    "specim": 23941,
    "fishery": 10030,
    "punctual": 26355,
    "Ġ129": 24473,
    "live": 7550,
    "press": 1731,
    "Ġprender": 22233,
    "Ġheadache": 22895,
    "bitterly": 20336,
    "Ġdistrusting": 25053,
    "Ġcorroboration": 26052,
    "Ġadvers": 4887,
    "seriously": 18904,
    "tattoo": 21086,
    "Ġlists": 11165,
    "Ġswandam": 11088,
    "Ġfurs": 18739,
    "Ġactionable": 24558,
    "Ġunexampled": 20358,
    "Ġcalam": 13030,
    "Ġneglect": 7942,
    "Ġcollection": 8222,
    "Ġmccarthys": 19661,
    "isol": 17846,
    "osures": 22259,
    "Ġbegrimed": 26577,
    "Ġcomposure": 7217,
    "Ġlandlady": 10421,
    "Ġfir": 17877,
    "Ġdepicting": 22585,
    "Ġstrugg": 3216,
    "lested": 14881,
    "Ġtablet": 19203,
    "ny": 4015,
    "Ġ18": 3408,
    "Ġkitty": 3909,
    "grieved": 17315,
    "Ġgrand": 3590,
    "presently": 9805,
    "osite": 4893,
    "nels": 12492,
    "tered": 2231,
    "revival": 26162,
    "Ġyou": 366,
    "abled": 12790,
    "Ġafterwards": 3529,
    "Ġembodiment": 20526,
    "bath": 13687,
    "Ġsoftmax": 1687,
    "wedged": 24337,
    "Ġbrick": 8924,
    "Ġtoiled": 12638,
    "Ġcounteracted": 19861,
    "Ġmagistrate": 8234,
    "Ġperceived": 4713,
    "Ġwoman": 2389,
    "ounds": 4156,
    "sulphur": 25909,
    "shown": 22452,
    "provoke": 26071,
    "Ġpressed": 6042,
    "Ġcontribut": 12855,
    "Ġladies": 3192,
    "thinness": 25810,
    "hercules": 22204,
    "'t": 3144,
    "zealand": 26056,
    "Ġroarings": 25301,
    "Ġzeros": 3324,
    "fr": 4804,
    "Ġpresumably": 19623,
    "ground": 4671,
    "Ġencoun": 4510,
    "agger": 7873,
    "Ġcouldn": 7648,
    "assisted": 22304,
    "plate": 18199,
    "catch": 17505,
    "Ġcooped": 22579,
    "Ġphysiognomical": 25611,
    "Ġcensus": 15094,
    "Ġthomas": 17947,
    "rossing": 18639,
    "Ġarranging": 11173,
    "Ġunrecorded": 17466,
    "alive": 10826,
    "welcome": 9999,
    "Ġcalling": 5662,
    "Ġsyrian": 18353,
    "Ġru": 948,
    "ban": 9583,
    "needle": 20309,
    "Ġimpediments": 26240,
    "Ġstooped": 14461,
    "Ġtout": 17718,
    "Ġserves": 4668,
    "Ġvolition": 14796,
    "conducted": 25572,
    "Ġdumplings": 15188,
    "bo": 1688,
    "exe": 11786,
    "Ġtowns": 11172,
    "ye": 1406,
    "lost": 8886,
    "Ġcolonnades": 26275,
    "Ġhappens": 2188,
    "Ġstocks": 23174,
    "Ġoblivious": 26032,
    "shoulders": 16583,
    "Ġdwelt": 12601,
    "Ġag": 685,
    "Ġvexed": 9992,
    "Ġmended": 21312,
    "Ġunwearied": 20601,
    "Ġjohnson": 18409,
    "Ġenderby": 13649,
    "Ġcapable": 5054,
    "Ġformless": 22825,
    "Ġbestir": 13107,
    "Ġmadness": 6601,
    "Ġdeceitful": 25733,
    "bly": 6110,
    "Ġattention": 1180,
    "Ġbowls": 23768,
    "lover": 18539,
    "steel": 8298,
    "Ġfade": 21406,
    "Ġfoe": 7680,
    "Ġrealising": 18982,
    "Ġforemost": 12001,
    "Ġunav": 18237,
    "allowing": 24357,
    "ditch": 17527,
    "prolong": 23393,
    "mph": 20971,
    "Ġsmiting": 12894,
    "Ġsavannah": 17414,
    "Ġobsequ": 14318,
    "Ġinvoking": 19145,
    "Ġmaintainable": 12931,
    "Ġboasting": 19934,
    "rey": 12534,
    "baron": 24925,
    "Ġslave": 7454,
    "Ġsanctioned": 26349,
    "irations": 18170,
    "forty": 9372,
    "pips": 21019,
    "quickness": 19850,
    "hook": 12050,
    "Ġconcocted": 26299,
    "Ġthrill": 24540,
    "Ġlanded": 7469,
    "Ġaye": 3352,
    "plague": 21951,
    "mature": 20966,
    "some": 2237,
    "Ġrect": 18025,
    "Ġtumble": 16878,
    "une": 2785,
    "Ġinnocent": 4921,
    "odious": 21810,
    "Ġmeasureless": 14708,
    "Ġimages": 1600,
    "script": 11077,
    "encyclopÃ¦dia": 16662,
    "handled": 19260,
    "Ġearn": 3545,
    "Ġ110": 24434,
    "Ġfel": 1518,
    "Ġfangs": 12593,
    "Ġfeminine": 15261,
    "Ġfur": 990,
    "Ġmart": 10778,
    "Ġsumat": 14128,
    "Ġpatients": 24813,
    "Ġranging": 8478,
    "Ġbefall": 8827,
    "mouse": 15390,
    "Ġmanner": 2195,
    "Ġsystem": 572,
    "Ġcrystal": 17213,
    "Ġdup": 21426,
    "rawling": 21634,
    "Ġdefe": 21832,
    "Ġcriminal": 7537,
    "Ġparent": 14644,
    "plentiful": 21954,
    "blazing": 24130,
    "eer": 15345,
    "Ġbracing": 16579,
    "ing": 273,
    "zen": 5140,
    "Ġinsipid": 26313,
    "Ġpassionately": 16763,
    "Ġhermit": 15854,
    "Ġagencies": 18542,
    "mind": 4626,
    "inary": 3273,
    "Ġbells": 19600,
    "fourths": 25509,
    "Ġperry": 22394,
    "izings": 14049,
    "peleg": 16291,
    "walton": 20248,
    "Ġgorge": 13564,
    "Ġpanic": 11285,
    "Ġmislead": 22757,
    "additional": 20462,
    "Ġoverboard": 6045,
    "Ġdrawled": 23986,
    "espe": 3498,
    "Ġrealistic": 5860,
    "sway": 15422,
    "studies": 25166,
    "idly": 12696,
    "adler": 21760,
    "Ġcurds": 22970,
    "Ġsurrey": 14559,
    "Ġhollow": 5648,
    "Ġdripping": 13145,
    "Ġclapham": 17264,
    "Ġphilistines": 26082,
    "calabash": 22892,
    "ugl": 23288,
    "Ġunfrequently": 20738,
    "Ġphysiognomy": 25610,
    "ges": 2874,
    "Ġsociable": 19402,
    "Ġexpans": 18621,
    "Ġverse": 16601,
    "Ġgreat": 896,
    "unicorn": 21887,
    "Ġsquares": 11168,
    "spark": 18690,
    "Ġstaving": 21735,
    "umberland": 16836,
    "Ġexamining": 8006,
    "chan": 1150,
    "Ġatom": 18192,
    "Ġcapting": 23021,
    "Ġline": 1850,
    "leviathan": 7785,
    "may": 3677,
    "Ġmapp": 2083,
    "Ġaven": 10758,
    "cham": 10852,
    "Ġpersonally": 8599,
    "coast": 10448,
    "Ġdiligence": 17113,
    "cor": 5520,
    "Ġlikeness": 11178,
    "Ġcape": 5146,
    "Ġadvoc": 12989,
    "Ġinjury": 10539,
    "ensibility": 22545,
    "Ġthy": 2515,
    "umb": 3478,
    "hew": 5364,
    "Ġbolted": 12241,
    "solitude": 23296,
    "Ġwill": 680,
    "related": 24009,
    "Ġparaphrasing": 26525,
    "Ġreplaced": 13069,
    "ogra": 4573,
    "alas": 8802,
    "stonecraft": 24355,
    "Ġheinous": 18038,
    "Ġbeautiful": 3670,
    "Ġelements": 2667,
    "offers": 16392,
    "Ġcapsizing": 20087,
    "Ġactively": 18654,
    "detained": 24381,
    "Ġcraggy": 23529,
    "rating": 7809,
    "Ġarch": 916,
    "oubtedly": 6943,
    "Ġinsurgents": 26599,
    "Ġhairy": 23862,
    "Ġassail": 13059,
    "ciousness": 20816,
    "Ġnick": 21521,
    "Ġmeddle": 19490,
    "corrupt": 14893,
    "Ġhorizontal": 7783,
    "Ġidentical": 10433,
    "merry": 16535,
    "mer": 2833,
    "travelling": 24316,
    "Ġdiscomposure": 20377,
    "Ġword": 1056,
    "Ġwol": 15527,
    "Ġreverber": 19868,
    "icating": 15651,
    "Ġbanished": 10615,
    "Ġrepresenting": 4060,
    "Ġdepths": 4327,
    "Ġflapped": 23011,
    "Ġhunt": 6183,
    "nowledge": 10288,
    "Ġeliza": 6437,
    "Ġprophesied": 26062,
    "Ġperilously": 24503,
    "Ġcrystall": 20225,
    "body": 2312,
    "Ġtransformers": 1107,
    "Ġpatchwork": 24139,
    "Ġgrimly": 17051,
    "rowsers": 8694,
    "Ġmust": 844,
    "Ġexcell": 10416,
    "Ġdesires": 9455,
    "Ġrelationship": 2319,
    "Ġridicule": 13510,
    "unaccountable": 15775,
    "##": 2320,
    "founded": 16713,
    "iod": 3838,
    "el": 306,
    "Ġpronounce": 16967,
    "Ġpersonages": 23540,
    "Ġacquaintance": 4131,
    "Ġthence": 8880,
    "rayed": 23562,
    "Ġpleases": 16296,
    "Ġcomfortable": 6095,
    "mates": 5073,
    "rians": 21928,
    "aset": 10831,
    "Ġreservoir": 20650,
    "/`": 12426,
    "garet": 9596,
    "Ġcorroborated": 26053,
    "Ġsuspended": 5665,
    "Ġspitz": 14147,
    "backpropagation": 11982,
    "Ġ113": 19695,
    "Ġwarring": 16864,
    "Ġampl": 22478,
    "Ġcordially": 16835,
    "ause": 1313,
    "ander": 6401,
    "Ġstops": 3165,
    "Ġexert": 5722,
    "Ġgliding": 8559,
    "view": 5896,
    "Ġaid": 6122,
    "insurance": 18887,
    "Ġjudiciously": 23875,
    "warmly": 25026,
    "Ġbox": 5109,
    "Ġdignity": 5704,
    "bec": 4052,
    "iag": 20915,
    "Ġskies": 8919,
    "eth": 620,
    "pivot": 21030,
    "erve": 12545,
    "Ġminers": 22829,
    "ipotence": 22356,
    "insufficient": 15487,
    "Ġimpatiently": 8338,
    "heeded": 13832,
    "attacked": 23119,
    "Ġmystical": 12129,
    "Ġsubjects": 7072,
    "lived": 12483,
    "ages": 829,
    "Ġhydraul": 9512,
    "possessed": 9526,
    "Ġfright": 3795,
    "alogies": 25158,
    "natural": 2133,
    "Ġsigmoid": 2463,
    "Ġmurderer": 4980,
    "nament": 11505,
    "ishe": 13889,
    "Ġsling": 21219,
    "birds": 15142,
    "Ġdiab": 10610,
    "grin": 19105,
    "unched": 10234,
    "Ġmixed": 6974,
    "Ġoptimize": 1680,
    "irect": 5552,
    "Ġresign": 18564,
    "Ġthereof": 22366,
    "bolt": 25135,
    "lished": 8383,
    "ized": 1528,
    "whence": 23213,
    "pie": 21010,
    "Ġserve": 9366,
    "ı": 242,
    "Ġwave": 7575,
    "=": 33,
    "Ġfrankly": 16744,
    "bread": 10683,
    "Ġhoary": 23353,
    "Ġearls": 18903,
    "ports": 13772,
    "slanting": 24557,
    "Ġdescends": 14287,
    "Ġhumbly": 16195,
    "Ġmuffled": 10639,
    "Ġcalmer": 23042,
    "Ġcau": 13879,
    "Ġinterruption": 9471,
    "Ġits": 706,
    "Ġcast": 3603,
    "Ġpaternal": 16375,
    "creatures": 7517,
    "pleased": 8852,
    "jour": 20926,
    "andromeda": 21866,
    "Ġhip": 17920,
    "Ġclutched": 13517,
    "Ġmode": 8499,
    "Ġmax": 2008,
    "Ġpom": 21450,
    "Ġscandinavian": 26344,
    "Ġprecisely": 6466,
    "Ġvivacious": 19814,
    "squee": 15428,
    "abhorred": 17334,
    "evinced": 19925,
    "Ġsabbath": 17253,
    "º": 123,
    "Ġbackbone": 22655,
    "imagination": 13478,
    "sed": 4176,
    "itia": 11577,
    "Ġstim": 18063,
    "naturalists": 23435,
    "Ġunfathom": 14787,
    "Ġconstraint": 16513,
    "laying": 19771,
    "Ġgovernor": 16489,
    "Ġvertebra": 20180,
    "Ġtwice": 4661,
    "every": 2810,
    "Ġparasol": 22119,
    "Ġhoped": 5488,
    "Ġwinter": 5220,
    "reck": 9635,
    "Ġurged": 6781,
    "Ġsaddest": 16661,
    "Ġtin": 15461,
    "Ġstrove": 9955,
    "Ġshri": 5375,
    "lotts": 23822,
    "Ġlowly": 11120,
    "cus": 3980,
    "Ġstolen": 14005,
    "Ġpuff": 6526,
    "Ġharmless": 9963,
    "Ġapex": 24341,
    "Ġmouldy": 14972,
    "Ġmentioned": 4330,
    "Ġsled": 21217,
    "milk": 20475,
    "Ġlibrary": 6423,
    "Ġweaver": 11685,
    "Ġhandled": 12933,
    "shed": 8095,
    "presumption": 20440,
    "brown": 15315,
    "Ġinvestigated": 25386,
    "rics": 13033,
    "fin": 5209,
    "Ġimpetuously": 20370,
    "Ġne": 391,
    "impenetrable": 26196,
    "Ġjokes": 18408,
    "comple": 7441,
    "Ġmixture": 9561,
    "Ġke": 1154,
    "anite": 17837,
    "fa": 7336,
    "Ġnaught": 8128,
    "anish": 2618,
    "sweetly": 25134,
    "joice": 9601,
    "opened": 7914,
    "Ġflower": 16229,
    "prim": 23807,
    "Ġwelded": 9570,
    "Ġprincely": 24146,
    "abhor": 12703,
    "marest": 20979,
    "Ġgrooves": 16740,
    "ulence": 15762,
    "Ġacted": 7422,
    "Ġsandwiched": 26609,
    "Ġsaturday": 6452,
    "peasant": 23108,
    "stealthily": 23959,
    "Ġhonour": 3922,
    "overfitting": 13099,
    "actory": 8906,
    "Ġunmingled": 18260,
    "Ġarithmetic": 18338,
    "Ġbalmy": 22902,
    "Ġsafely": 9024,
    "ann": 5802,
    "Ġmatter": 1733,
    "Ġsorrow": 4628,
    "ines": 665,
    "Ġcataract": 23426,
    "iner": 2672,
    "Ġbre": 1915,
    "plainly": 11089,
    "Ġbrill": 8549,
    "cated": 20802,
    "Ġindignantly": 16938,
    "Ġferrule": 24516,
    "Ġshone": 7404,
    "Ġcl": 551,
    "Ġgigantic": 5915,
    "accidents": 19211,
    "Ġband": 5290,
    "Ġbabel": 24425,
    "village": 25422,
    "Ġforty": 5719,
    "erial": 4631,
    "Ġhostile": 19938,
    "Ġfact": 1728,
    "Ġexquisitely": 20201,
    "ished": 1427,
    "Ġmonitors": 3156,
    "Ġumb": 11644,
    "rut": 8092,
    "Ġflaming": 8563,
    "Ġcovariate": 2353,
    "Ġanteced": 26177,
    "Ġequalled": 13310,
    "Ġjuggl": 20436,
    "foundation": 16714,
    "Ġvillages": 14746,
    "stricken": 9882,
    "¡": 99,
    "Ġdeceitfulness": 25734,
    "Ġdecaying": 2249,
    "Ġard": 5164,
    "Ġglitter": 25122,
    "Ġdistressed": 8514,
    "Ġconvergence": 974,
    "poky": 17643,
    "Ġfab": 15572,
    "Ġrefer": 18705,
    "public": 17645,
    "Ġanecdote": 26354,
    "Ġphenomenon": 17914,
    "Ġprejudiced": 24809,
    "each": 7335,
    ",*": 17470,
    "anger": 2172,
    "Ġsucking": 12781,
    "Ġwhiff": 21716,
    "ilet": 12825,
    "risonment": 17373,
    "Ġprodig": 6028,
    "strength": 13978,
    "rabbit": 20589,
    "woman": 5899,
    "chat": 21684,
    "Ġprayers": 12120,
    "Ġrose": 3444,
    "Ġunra": 18234,
    "Ġangle": 8602,
    "Ġcane": 10926,
    "Ġspend": 5304,
    "Ġintentions": 10606,
    "Ġappetites": 20205,
    "Ġbrightest": 13222,
    "\",": 10677,
    "Ġclings": 15960,
    "shazz": 14240,
    "ization": 486,
    "Ġrot": 10965,
    "kles": 17583,
    "Ġcloser": 8659,
    "Ġdisturbance": 15011,
    "Ġpricking": 23223,
    "Ġcry": 3495,
    "in": 262,
    "Ġtransport": 11277,
    "Ġbowl": 11203,
    "detached": 19673,
    "Ġlydia": 2375,
    "Ġofficers": 4425,
    "engines": 18927,
    "behaviour": 11300,
    "period": 15899,
    "Ġatrocious": 21941,
    "Ġcurves": 18844,
    "Ġbeaten": 10527,
    "pens": 17631,
    "Ġreceptive": 1563,
    "shadows": 25479,
    "Ġbesee": 19241,
    "Ġirish": 14533,
    "Ġ60": 14873,
    "Ġqu": 605,
    "Ġsandwich": 19827,
    "Ġwouldn": 6046,
    "Ġkindling": 19030,
    "Ġjumped": 7096,
    "Ġread": 1447,
    "fishing": 20858,
    "oology": 21005,
    "Ġchronic": 9927,
    "reader": 23843,
    "Ġslides": 18938,
    "Ġtortured": 14922,
    "Ġacting": 10990,
    "exped": 16524,
    "Ġnook": 15925,
    "Ġpregn": 22230,
    "itar": 15543,
    "ph": 947,
    "Ġworldly": 16328,
    "Ġchose": 7413,
    "civilities": 24973,
    "tland": 21072,
    "shark": 14237,
    "abular": 4762,
    "truth": 9917,
    "Ġmurmur": 14588,
    "bbs": 23691,
    "Ġexclaim": 11220,
    "Ġquarters": 8619,
    "invest": 11558,
    "Ġbeams": 14630,
    "Ġbene": 2034,
    "Ġhove": 17922,
    "ists": 4001,
    "transformers": 8714,
    "sixty": 24852,
    "pat": 10115,
    "Ġtruce": 24113,
    "Ġdiet": 13908,
    "volous": 18600,
    "Ġlies": 5295,
    "Ġdownstairs": 11223,
    "attendants": 25495,
    "Ġah": 5075,
    "Ġprocure": 9508,
    "Ġadorn": 12788,
    "Ġdog": 4192,
    "Ġslay": 16305,
    "ounded": 9746,
    "shipped": 18495,
    "Ġtropical": 17064,
    "armed": 7252,
    "Ġshivered": 14106,
    "Ġintrodu": 1926,
    "endeavouring": 15014,
    "Ġleaders": 16626,
    "Ġthrust": 5084,
    "Ġclut": 7641,
    "Ġspe": 823,
    "data": 2242,
    "wn": 720,
    "itives": 17819,
    "Ġfris": 23255,
    "face": 3675,
    "Ġquietly": 4567,
    "Ġdamps": 23475,
    "georgiana": 26020,
    "Ġdangerously": 23934,
    "idered": 4553,
    "Ġunflinching": 26511,
    ").âĢĿ": 20740,
    "Ġblended": 16216,
    "Ġeffectively": 2646,
    "imodal": 17445,
    "Ġamused": 11796,
    "Ġdiscipl": 22779,
    "Ġgenerally": 4157,
    "consider": 6348,
    "Ġsuit": 5725,
    "zor": 15456,
    "Ġtrophy": 20005,
    "illed": 2625,
    "Ġrefine": 3285,
    "insula": 23064,
    "Ġunhinged": 26216,
    "soundest": 24797,
    "barrow": 15319,
    "Ġhardship": 18913,
    "horr": 14598,
    "Ġvomit": 21946,
    "Ġruled": 22784,
    "Ġrejoicing": 13419,
    "id": 338,
    "caterpillar": 26382,
    "Ġplan": 3881,
    "Ġreplace": 14476,
    "Ġitems": 9690,
    "Ġcollecting": 12283,
    "Ġwrote": 5011,
    "Ġexpl": 487,
    "reposed": 24491,
    "attended": 8951,
    "Ġclimate": 9273,
    "scruple": 26045,
    "Ġdate": 7842,
    "Ġsurgeons": 23465,
    "Ġtol": 6675,
    "Ġexperience": 1393,
    "Ġvisiting": 10355,
    "Ġtremulous": 14984,
    "Ġspecial": 2104,
    "Ġqualified": 14948,
    "Ġ96": 24593,
    "Ġpays": 13294,
    "Ġelud": 22641,
    "rative": 17651,
    "Ġpassion": 4557,
    "Ġcedar": 15186,
    "Ġwhose": 2010,
    "Ġchann": 15932,
    "wind": 4253,
    "Ġmerchant": 6467,
    "aciousness": 18607,
    "Ġirre": 7468,
    "Ġdangling": 17173,
    "Ġautomation": 13258,
    "Ġheads": 3739,
    "Ġwaters": 3593,
    "Ġswaying": 15045,
    "regulated": 23468,
    "Ġtig": 13811,
    "Ġspectrum": 4473,
    "Ġwed": 3959,
    "Ġpasture": 14543,
    "Ġren": 3844,
    "Ġawe": 7147,
    "modesty": 22850,
    "disappo": 8983,
    "Ġinconven": 7586,
    "Ġfulfilled": 11361,
    "swing": 15427,
    "blo": 6353,
    "Ġresounded": 22542,
    "fatigue": 20657,
    "Ġwear": 6031,
    "Ġhaste": 9002,
    "Ġplace": 1648,
    "wart": 17704,
    "L": 48,
    "Ġape": 21195,
    "mews": 22709,
    "asingly": 17960,
    "Ġchecked": 9374,
    "raid": 3278,
    "alarmed": 21501,
    "Ġunman": 12769,
    "Ġplow": 21457,
    "Ġgushed": 21605,
    "Ġpetersburgh": 24227,
    "uted": 7592,
    "Ġscraped": 16902,
    "hos": 15361,
    "Ġdelivered": 11115,
    "Ġforecastle": 5495,
    "Ġteneriffe": 26413,
    "Ġadjacent": 20710,
    "Ġspace": 1537,
    "Ġbreadth": 10562,
    "Ġfainter": 14912,
    "Ġrmsprop": 3355,
    "Ġplaited": 14282,
    "Ġetc": 7084,
    "bre": 3979,
    "Ġheeded": 13401,
    "Ġungodly": 26512,
    "Ġsprang": 5064,
    "Ġdescribed": 6606,
    "Ġlandlessness": 23378,
    "Ġdumbly": 24987,
    "Ġrailway": 15019,
    "sequence": 2857,
    "rants": 13776,
    "Ġscheduling": 2352,
    "Ġtwo": 1042,
    "Ġquarrels": 16565,
    "shadow": 20313,
    "camp": 15328,
    "Ġdire": 865,
    "Ġregulations": 18598,
    "Ġoverfitting": 1544,
    "Ġcourage": 4633,
    "Ġscru": 8191,
    "Ġoscill": 2858,
    "goldsmith": 20146,
    "Ġbro": 1430,
    "pregn": 18500,
    "Ġst": 332,
    "cules": 12388,
    "maged": 15391,
    "Ġisolated": 13557,
    "forbidding": 25836,
    "wood": 5898,
    "Ġprofound": 5497,
    "thrasher": 25658,
    "se": 358,
    "indust": 18435,
    "flaming": 23967,
    "Ġeconomical": 25287,
    "drab": 23895,
    "accursed": 20539,
    "Ġfishy": 16523,
    ".âĢĻâĢĿ": 6739,
    "Ġgnawed": 25164,
    "Ġgallons": 14816,
    "Ġslow": 2382,
    "Ġgiddy": 20495,
    "Ġchilled": 18382,
    "Ġprimal": 17106,
    "passing": 14810,
    "Ġpaunch": 23747,
    "circled": 24186,
    "Ġdramat": 23218,
    "Ġscreaming": 13421,
    "Ġolder": 9325,
    "Ġhonest": 7287,
    "Ġseize": 8166,
    "ills": 1627,
    "Ġgoug": 17990,
    "destiny": 16701,
    "Ġslewed": 23383,
    "Ġwet": 6518,
    "Ġshark": 5549,
    "Ġentertained": 9996,
    "invariably": 26415,
    "Ġhaughty": 11448,
    "Ġgrandeur": 8627,
    "ority": 8418,
    "single": 10125,
    "Ġfacet": 15581,
    "Ġduc": 4696,
    "Ġdecreed": 18484,
    "ading": 5091,
    "Ġdrags": 16940,
    "Ġin": 291,
    "Ġcrad": 21348,
    "Ġrings": 11696,
    "Ġcanallers": 13625,
    "Ġderivative": 2997,
    "Ġdissatisfied": 14255,
    "Ġsquires": 16179,
    "ky": 4520,
    "unfortunate": 15773,
    "Ġthinnest": 24182,
    "Ġaudio": 24772,
    "ensive": 6279,
    "weaknesses": 26030,
    "activation": 3229,
    "Ġmassive": 9930,
    "paying": 25411,
    "sey": 5542,
    "Ġwhen": 514,
    "Ġfeeding": 7972,
    "rear": 21231,
    "Ġnoon": 6559,
    "Ġadieu": 10049,
    "prev": 12863,
    "Ġbeeches": 9225,
    "Ġkilling": 13330,
    "Ġsymp": 4501,
    "Ġmasonry": 13597,
    "Ġsheath": 14150,
    "Ġpunctures": 25133,
    "Ġsaluted": 14756,
    "Ġformer": 3322,
    "Ġsymmet": 11744,
    "adequate": 15201,
    "vap": 13801,
    "ccas": 15883,
    "Ġobliged": 4286,
    "leness": 4690,
    "swallow": 24256,
    "Ġedge": 5188,
    "Ġuncl": 22010,
    "Ġpersecut": 16951,
    "belief": 13279,
    "Ġsquad": 22834,
    "Ġineffectual": 17382,
    "Ġdiscrete": 2479,
    "staring": 18020,
    "supposing": 24133,
    "Ġprimitive": 25061,
    "Ġsuppl": 11078,
    "confused": 19643,
    "Ġstarvation": 19790,
    "Ġsee": 803,
    "Ġbrilliantly": 25120,
    "Ġbarbara": 24818,
    "Ġblotches": 25314,
    "Ġlin": 10832,
    "Ġflies": 13021,
    "Ġ$": 21149,
    "Ġradiance": 13368,
    "Ġtrap": 7672,
    "Ġregularizer": 2342,
    "Ġnobler": 14174,
    "Ġtorment": 8673,
    "Ġchaff": 18383,
    "Ġprocedure": 2809,
    "patient": 25342,
    "Ġtremendous": 8353,
    "Ġbilliard": 16688,
    "Ġfloat": 12029,
    "sensibility": 25023,
    "onet": 12541,
    "Ġdispose": 23876,
    "begging": 22495,
    "ifies": 6686,
    "Ġcapabilities": 4377,
    "Ġinnocently": 24025,
    "Ġcircumstantial": 14642,
    "Ġmincer": 14364,
    "unreasonable": 18162,
    "Ġunprinciple": 18251,
    "Ġtendency": 11328,
    "Ġfill": 5701,
    "Ġcerem": 7077,
    "Ġhuddled": 20298,
    "Ġtenderly": 11313,
    "who": 2447,
    "Ġfut": 15571,
    "Ġentreated": 9949,
    "Ġgarnery": 17385,
    "Ġadventurous": 16732,
    "Ġcondescension": 10617,
    "wl": 17701,
    "Ġjib": 14192,
    "amp": 2607,
    "Ġunstructure": 2992,
    "Ġgaieties": 24194,
    "Ġthere": 563,
    "Ġthese": 821,
    "reserve": 17764,
    "putable": 10900,
    "Ġtom": 15629,
    "sch": 21049,
    "Ġordinary": 6097,
    "vens": 21111,
    "Ġselection": 18204,
    "Ġstern": 4187,
    "Ġinterior": 8893,
    "Ġthank": 3790,
    "Ġlivelong": 25511,
    "Ġextravagance": 17278,
    "presbyterian": 26368,
    "anqu": 4108,
    "terrible": 8465,
    "Ġsaints": 20673,
    "Ġringed": 16749,
    "lege": 17841,
    "Ġdan": 8791,
    "Ġlakeman": 6986,
    "yra": 8103,
    "Ġsavann": 14683,
    "Ġdeline": 16330,
    "axed": 8887,
    "Ġfortifications": 23619,
    "Ġfeebly": 24877,
    "Ġpervading": 20612,
    "Ġabove": 2935,
    "ichron": 22161,
    "dried": 20826,
    "Ġrobe": 18455,
    "viating": 14578,
    "initions": 21186,
    "twig": 23698,
    "weep": 22682,
    "ĠĠĠĠĠĠĠĠĠĠĠĠĠĠĠĠĠĠĠĠĠĠĠĠĠĠĠĠĠĠĠĠĠĠĠĠĠĠĠĠĠĠĠĠĠĠĠĠĠĠĠ": 20037,
    "Ġcrotch": 9961,
    "istol": 6259,
    "kily": 20936,
    "Ġattempting": 14695,
    "naught": 20993,
    "led": 580,
    "Ġdeny": 7488,
    "Ġimplement": 2855,
    "Ġshould": 864,
    "quarrel": 20013,
    "remain": 9836,
    "Ġdiffer": 18679,
    "Ġunanswerable": 26520,
    "Ġbelike": 18829,
    "Ġdesp": 3214,
    "Ġapparition": 8067,
    "ridge": 9495,
    "Ġpropontis": 17464,
    "Ġstrangely": 5677,
    "greatest": 10492,
    "Ġdifferen": 936,
    "highest": 20406,
    "Ġlooked": 1804,
    "mouthed": 12397,
    "Ġcontract": 18475,
    "bos": 17482,
    "Ġunshored": 25813,
    "Ġmovement": 9966,
    "Ġreminding": 19796,
    "alty": 17938,
    "reputable": 15515,
    "decease": 25557,
    "Ġcomfits": 21845,
    "want": 8765,
    "Ġreser": 5170,
    "Ġultimately": 17163,
    "Ġrascal": 11697,
    "suspected": 12369,
    "Ġrequested": 14307,
    "yrin": 12518,
    "beheaded": 22491,
    "Ġbran": 5250,
    "Ġgraceful": 11295,
    "quest": 4538,
    "ivial": 15857,
    "Ġabundant": 17153,
    "Ġheedless": 14901,
    "elve": 4641,
    "Ġacquaintances": 17348,
    "Ġprovision": 14823,
    "Ġspeaks": 11158,
    "ubl": 3592,
    "ositions": 10282,
    "network": 1923,
    "Ġfireboard": 23532,
    "Ġreward": 6144,
    "Ġpleasing": 6190,
    "Ġperennial": 22692,
    "Ġoccasionally": 5589,
    "Ġdrawn": 4276,
    "Ġminor": 12964,
    "Ġunprovided": 18257,
    "Ġrespect": 1663,
    "powers": 25410,
    "Ġ11": 5318,
    "cent": 8073,
    "Ġunderwent": 23237,
    "Ġconverts": 2805,
    "desolate": 25703,
    "Ġapprehen": 16828,
    "shook": 19855,
    "Ġwalrus": 14971,
    "Ġswears": 16462,
    "Ġamusement": 8056,
    "Ġrans": 21964,
    "--------": 14779,
    "Ġingrat": 16839,
    "Ġfame": 21404,
    "Ġpurposely": 10443,
    "Ġliterally": 15114,
    "ropout": 1320,
    "Ġoccupied": 5272,
    "about": 3584,
    "Ġexterior": 19986,
    "isting": 5550,
    "Ġnights": 7258,
    "Ġfaces": 6009,
    "Ġwives": 12551,
    "Ġunprotected": 22061,
    "Ġoccur": 1083,
    "Ġhappened": 3711,
    "anybody": 12079,
    "bbles": 13689,
    "hyena": 24251,
    "Ġdiabolism": 25514,
    "I": 45,
    "Ġnods": 19064,
    "Ġcalculated": 4474,
    "Ġimpass": 15983,
    "Ġmenaces": 23104,
    "calmed": 16201,
    "uning": 1312,
    "pping": 1425,
    "iature": 8741,
    "Ġpush": 9182,
    "Ġlirra": 21558,
    "emone": 21923,
    "Ġreprehensible": 15695,
    "Ġbreaths": 14855,
    "Ġarts": 11007,
    "Ġrepay": 19081,
    "Ġshun": 11706,
    "deliver": 19503,
    "igan": 21697,
    "Ġmiz": 10776,
    "Ġbrighter": 16185,
    "Ġsummons": 13229,
    "Ġjacobians": 2894,
    "Ġdespond": 14666,
    "Ġfron": 14486,
    "Ġoverheard": 11771,
    "Ġgestic": 21606,
    "Ġ118": 19697,
    "Ġjur": 12830,
    "uger": 21102,
    "Ġspread": 5161,
    "rocket": 13942,
    "Ġfin": 1461,
    "Ġhapless": 15809,
    "elop": 1532,
    "Ġconceit": 7295,
    "Ġexample": 5096,
    "ifer": 11681,
    "Ġcaucus": 17378,
    "Ġdamn": 11157,
    "vol": 735,
    "Ġinject": 2712,
    "Ġstroke": 6936,
    "Ġtroub": 22353,
    "Ġpaddle": 20057,
    "Ġbeach": 6541,
    "Ġprudential": 17917,
    "icuous": 10834,
    "guard": 12125,
    "entered": 8813,
    "Ġpestilent": 25777,
    "Ġrepetition": 8971,
    "murder": 10563,
    "itating": 9649,
    "Ġdays": 2079,
    "Ġlove": 2055,
    "Ġwhip": 8451,
    "ado": 11656,
    "Ġgenerative": 5644,
    "Ġunt": 2298,
    "Ġtones": 8400,
    "frock": 20119,
    "flitted": 23966,
    "Ġloveliness": 13606,
    "Ġmortifying": 13242,
    "maybe": 23988,
    "Ġdownstream": 3774,
    "Ġsauntering": 18327,
    "Ġsimulates": 2741,
    "Ġubiqu": 18046,
    "Ġcarn": 17821,
    "Ġhorr": 3188,
    "iciency": 9573,
    "Ġcolours": 12970,
    "alth": 3254,
    "Ġhurtling": 24959,
    "ashed": 3783,
    "Ġquebec": 24131,
    "carried": 16711,
    "Ġinanimate": 13931,
    "Ġcetus": 19884,
    "unaffected": 21881,
    "Ġeternally": 11368,
    "nial": 20983,
    "Ġmult": 1021,
    "Ġapt": 9154,
    "neither": 9755,
    "Ġlatent": 19654,
    "Ġmushroom": 13233,
    "ody": 1478,
    "Ġarmies": 16491,
    "Ġtelegram": 15221,
    "Ġshameful": 19851,
    "pride": 11209,
    "Ġstudent": 14473,
    "these": 3239,
    "Ġannoyed": 17198,
    "Ġchart": 10944,
    "Ġ83": 24458,
    "Ġstaggered": 9537,
    "Ġpaddles": 15145,
    "Ġ9": 5901,
    "whale": 2142,
    "Ġbackground": 18648,
    "Ġerrone": 14428,
    "by": 1156,
    "Ġnarwhales": 24902,
    "herself": 4890,
    "hunting": 24384,
    "Ġdrank": 16534,
    "Ġconvince": 14641,
    "Ġfloated": 7288,
    "Ġlikes": 9406,
    "door": 6193,
    "brows": 17495,
    "ribut": 816,
    "Ġinfirm": 19020,
    "Ġsincere": 11135,
    "ineas": 15819,
    "Ġdevelopments": 23248,
    "Ġvelv": 10618,
    "yielded": 25756,
    "Ġrespective": 16341,
    "Ġconveyed": 8335,
    "Ġloop": 14145,
    "Ġcommend": 10333,
    "activity": 22630,
    "Ġnegatived": 23046,
    "Ġreiterating": 26473,
    "judges": 19572,
    "aper": 4999,
    "rel": 3753,
    "ĳ": 244,
    "Ġgangs": 21607,
    "kindred": 24046,
    "Ġcompany": 3719,
    "address": 14879,
    "olets": 21007,
    "Ġsignificantly": 4519,
    "Ġequinoctial": 20531,
    "Ġsprain": 18305,
    "Ġglared": 13014,
    "sto": 3197,
    "magnifying": 25392,
    "deser": 10401,
    "rougham": 15990,
    "Ġcaves": 15550,
    "Ġisn": 7867,
    "da": 17513,
    "ied": 940,
    "Ġmathematical": 3350,
    "receiving": 12539,
    "Ġinnocence": 6477,
    "Ġconspicuous": 13601,
    "Ġgazes": 24091,
    "Ġceaseless": 13486,
    "Ġindispensable": 11897,
    "tiest": 21080,
    "garden": 15024,
    "<PAD>": 0,
    "Ġindividuality": 14907,
    "uracy": 1101,
    "Ġfifteen": 6947,
    "Ġobstructed": 24677,
    "wandering": 20283,
    "oured": 2673,
    "Ġfluctuating": 24416,
    "oblig": 16288,
    "mount": 9128,
    "Ġdebility": 24271,
    "Ġpick": 4257,
    "medi": 2629,
    "Ġdisgu": 8206,
    "Ġorb": 22089,
    "Ġdub": 13907,
    "locks": 14454,
    "Ġilluminated": 20174,
    "acted": 11009,
    "Ġhelen": 16654,
    "Ġleave": 2458,
    "jug": 17579,
    "omuch": 21638,
    "Ġrural": 21965,
    "Ġcannibals": 10586,
    "Ġdeserves": 13287,
    "Ġfem": 6134,
    "distinguished": 10525,
    "pious": 17632,
    "Ġeu": 6390,
    "Ġgroan": 13322,
    "Ġconcentration": 25062,
    "26": 10071,
    "ure": 356,
    "cial": 2649,
    "ox": 9132,
    "social": 11022,
    "Ġgo": 614,
    "Ġsuccess": 3607,
    "Ġhoist": 11973,
    "Ġmiser": 18700,
    "priv": 9618,
    "Ġscotch": 12206,
    "Ġcrooked": 11280,
    "Ġbetray": 7442,
    "ince": 4340,
    "Ġuntil": 2668,
    "known": 3566,
    "eg": 17528,
    "Ġcleared": 6075,
    "orrah": 17875,
    "wishes": 13805,
    "urbed": 15705,
    "Ġreadily": 5253,
    "Ġblessed": 6931,
    "Ġfeet": 2260,
    "Ġdepend": 772,
    "Ġlux": 8812,
    "Ġsubord": 22786,
    "Ġmeaning": 1416,
    "fall": 5135,
    "Ġplanisphere": 26606,
    "uses": 11758,
    "Ġmotive": 6092,
    "transferred": 24510,
    "stupid": 12672,
    "Ġvalue": 2086,
    "Ġblankness": 24611,
    "Ġcour": 1770,
    "approached": 13483,
    "ss": 397,
    "summon": 23414,
    "Ġnight": 1466,
    "Ġetext": 23947,
    "Ġord": 3734,
    "anely": 17836,
    "Ġyaw": 18094,
    "Ġinclu": 1100,
    "timidity": 25753,
    "Ġhamper": 19387,
    "alt": 12634,
    "rit": 21034,
    "Ġdisadvantages": 18558,
    "Ġlac": 17964,
    "previously": 17206,
    "Ġchanging": 11750,
    "Ġvillainous": 25131,
    "Ġuneasy": 8661,
    "Ġlogic": 13075,
    "Ġbalanced": 12985,
    "Ġmagical": 23096,
    "Ġpres": 9730,
    "Ġrad": 4962,
    "Ġsle": 2015,
    "ual": 945,
    "rudential": 16709,
    "gi": 17550,
    "Ġanimation": 11151,
    "Ġmuchness": 18709,
    "ener": 569,
    "Ġtremor": 24768,
    "length": 7134,
    "Ġbitterest": 12399,
    "Ġlust": 9196,
    "Ġpeeled": 14316,
    "Ġfilm": 23922,
    "heading": 5487,
    "Ġten": 2388,
    "Ġprocured": 8676,
    "Ġfunctional": 3046,
    "```": 25893,
    "Ġhappening": 14381,
    "03": 20747,
    "Ġdiscover": 4717,
    "achment": 5464,
    "occurred": 13335,
    "Ġtapping": 10751,
    "ed": 293,
    "Ġhorrible": 4905,
    "Ġsuited": 12780,
    "Ġconstant": 6309,
    "Ġoblivion": 26031,
    "few": 8203,
    "country": 6103,
    "Ġrepentance": 15158,
    "hinting": 17568,
    "subject": 6631,
    "Ġjulia": 22300,
    "Ġdeath": 2044,
    "racts": 14349,
    "Ġvide": 10249,
    "Ġmomentum": 1602,
    "dirty": 20833,
    "Ġmen": 1435,
    "Ġdocument": 15017,
    "Ġcarried": 3692,
    "gorge": 22335,
    "Ġsorely": 17255,
    "Ġmisfortunes": 7041,
    "Ġcorre": 3887,
    "assertion": 22308,
    "bidden": 19735,
    "Ġpuffs": 14974,
    "icates": 11615,
    "bond": 17488,
    "Ġreconc": 9681,
    "Ġlet": 1112,
    "oundering": 11743,
    "Ġsobbed": 14135,
    "assistant": 25567,
    "Ġunharmed": 15137,
    "Ġcapital": 7980,
    "Ġhummed": 18777,
    "Ġpauper": 26179,
    "outre": 18320,
    "Ġimpl": 7195,
    "springing": 24889,
    "ouched": 4636,
    "ra": 314,
    "Ġsavor": 23872,
    "Ġcal": 1327,
    "Ġstru": 2170,
    "Ġflock": 21410,
    "impossible": 8822,
    "Ġfilters": 3927,
    "Ġswarm": 23053,
    "Ġhorn": 6185,
    "Ġwood": 2296,
    "carry": 19525,
    "arbuck": 2027,
    "Ġcontriv": 9280,
    "Ġc": 277,
    "inspector": 13644,
    "Ġuninterrupted": 22040,
    "Ġscratches": 22284,
    "Ġfeatures": 1432,
    "ething": 1601,
    "uteness": 17985,
    "ri": 390,
    "Ġeighty": 19474,
    "apparatus": 26562,
    "Ġi": 312,
    "Ġcharger": 19005,
    "Ġ0": 1905,
    "fisher": 7547,
    "Ġembarkation": 25123,
    "useful": 16501,
    "depart": 12262,
    "same": 5361,
    "fates": 20857,
    "deli": 15342,
    "Ġshirr": 18231,
    "Ġprognost": 15279,
    "promised": 12248,
    "Ġcrowding": 13277,
    "neural": 3064,
    "Ġunforgiving": 25995,
    "establishment": 26113,
    "tempt": 21078,
    "Ġmap": 2393,
    "ifying": 5251,
    "Ġminutest": 14560,
    "Ġprofane": 13150,
    "softened": 20408,
    "Ġtracks": 18890,
    "Ġstrand": 11825,
    "moments": 19410,
    "Ġquadruped": 17457,
    "Ġkent": 6691,
    "icts": 22398,
    "Ġinvolves": 1123,
    "Ġimpertin": 6933,
    "Ġwearied": 15789,
    "consc": 4840,
    "ks": 3145,
    "Ġslumbers": 18941,
    "Ġchuckled": 10646,
    "iss": 2176,
    "Ġsplinters": 15100,
    "Ġwithstand": 10224,
    "Ġrefrained": 14345,
    "Ġcontinent": 14886,
    "Ġservants": 6611,
    "asable": 21539,
    "Ġverbal": 19377,
    "rever": 21234,
    "Ġloc": 10913,
    "Ġarrangement": 2657,
    "reckoning": 25270,
    "Ġinstrum": 6055,
    "Ġdood": 22240,
    "punct": 20191,
    "ĠâĢľâĢĺ": 8503,
    "Ġensu": 7876,
    "Ġproflig": 23566,
    "esc": 618,
    "tish": 17676,
    "Ġcaps": 8415,
    "Ġcrammed": 16469,
    "Ġsangu": 15502,
    "Ġgrant": 11870,
    "false": 15352,
    "Ġmummy": 25768,
    "Ġdropout": 1559,
    "Ġway": 1086,
    "Ġmark": 2334,
    "Ġbefriend": 18081,
    "Ġcatherine": 2812,
    "Ġnocturnal": 20714,
    "Ġshoulder": 5848,
    "Ġeyelids": 26107,
    "Ġapprove": 12869,
    "Ġcliffs": 15964,
    "Ġdol": 9663,
    "razor": 21635,
    "Ġduplicates": 17215,
    "Ġmouthfuls": 20645,
    "Ġturnkeys": 23029,
    "Ġdesired": 4664,
    "Ġretreats": 16927,
    ".âĢĻ": 1720,
    "Ġramble": 9311,
    "Ġcuff": 17829,
    "Ġjump": 4502,
    "Ġscraping": 13414,
    "Ġcease": 7076,
    "barr": 15318,
    "critical": 19502,
    "desperate": 17350,
    "agon": 7872,
    "Ġnurse": 9515,
    "arted": 2201,
    "ple": 455,
    "Ġtake": 1577,
    "Ġinconsiderable": 21493,
    "nder": 20986,
    "protection": 19919,
    "Ġmisgiv": 14343,
    "urements": 18123,
    "Ġshouted": 5347,
    "Ġscratching": 20367,
    "uck": 1235,
    "Ġinsulated": 23679,
    "Ġhereabouts": 12974,
    "Ġmeditation": 16679,
    "Ġgirls": 4280,
    "pered": 4197,
    "ntax": 935,
    "mansion": 20982,
    "indispensable": 14208,
    "assumed": 22305,
    "Ġsuicide": 12782,
    "Ġrepent": 9861,
    "Ġwra": 5906,
    "Ġlist": 2367,
    "Ġcaved": 21351,
    "fiend": 13659,
    "Ġunappe": 22012,
    "Ġhosts": 19937,
    "Ġconjectured": 9995,
    "Ġcatching": 9476,
    "Ġphantom": 8706,
    "mouth": 9129,
    "Ġgardeners": 12117,
    "solid": 16378,
    "Ġaccounted": 10293,
    "Ġdistributed": 18661,
    "Ġtroop": 24897,
    "Ġliter": 8810,
    "Ġcomprehensiveness": 25072,
    "Ġsings": 15503,
    "izar": 14048,
    "mut": 17594,
    "voyage": 7786,
    "render": 10289,
    "Ġevent": 2949,
    "heim": 17745,
    "etical": 13956,
    "Ġcrippled": 25278,
    "Ġrenewal": 12231,
    "mighty": 9465,
    "mid": 5616,
    "log": 18537,
    "Ġgeorge": 3747,
    "Ġdew": 14040,
    "Ġquestionable": 19265,
    "Ġanticipated": 13509,
    "omen": 4085,
    "Ġhappen": 5570,
    "Ġlashed": 9197,
    "Ġclaims": 13371,
    "Ġhire": 21483,
    "nameless": 19902,
    "audible": 17131,
    "Ġrise": 5637,
    "Ġsorrows": 13352,
    "Ġhedge": 8364,
    "Ġmaid": 5285,
    "Ġcaptured": 7245,
    "rifled": 21046,
    "Ġfinite": 2328,
    "Ġforms": 6397,
    "Ġork": 18284,
    "Ġswain": 18880,
    "Ġfurnaces": 24002,
    "Ġsystematic": 5244,
    "Ġadvance": 5484,
    "affair": 14654,
    "antages": 7192,
    "Ġenchanted": 9079,
    "Ġmechanical": 7937,
    "Ġmaledictions": 26427,
    "Ġequally": 5257,
    "Ġinquired": 7485,
    "Ġascertain": 9704,
    "ĠĠĠĠĠĠĠĠĠĠĠĠĠĠĠĠĠĠĠĠĠĠĠĠĠĠĠĠĠ": 19698,
    "Ġaristotle": 25817,
    "daughters": 13464,
    "Ġestablishment": 13577,
    "Ġobliter": 14320,
    "thodox": 21986,
    "Ġworshipping": 22925,
    "Ġbou": 17852,
    "design": 18958,
    "Ġsplash": 16547,
    "Ġmacro": 25939,
    "Ġbedside": 19121,
    "Ġpleasantness": 24137,
    "Ġprogen": 14037,
    "Ġcarter": 18900,
    "Ġunwarrantable": 26353,
    "Ġforgot": 4683,
    "Ġoozy": 21325,
    "vig": 15444,
    "pra": 15405,
    "Ġmatrimony": 13633,
    "Ġscolded": 25472,
    "Ġbled": 17856,
    "Ġgifted": 17996,
    "Ġeleventh": 23367,
    "Ġfluctu": 5267,
    "Ġencl": 16163,
    "couldn": 23716,
    "Ġmarchant": 14784,
    "Ġimage": 3405,
    "Ġcurses": 13009,
    "Ġele": 1966,
    "dependence": 17166,
    "culiar": 2821,
    "Ġparaph": 22118,
    "appearing": 14636,
    "accusations": 23598,
    "Ġbiggest": 24565,
    "Ġdeaden": 23461,
    "irresist": 21910,
    "Ġsewing": 21959,
    "Ġrapidly": 3202,
    "protest": 24815,
    "reg": 2184,
    "eminence": 20097,
    "accompan": 11451,
    "Ġspan": 11725,
    "Ġenrapt": 21937,
    "Ġpotent": 12061,
    "mbles": 23086,
    "Ä": 133,
    "mo": 863,
    "clever": 20812,
    "merc": 19279,
    "onomy": 12543,
    "igms": 3044,
    "Ġindiam": 22951,
    "sheep": 23084,
    "Ġrio": 23889,
    "Ġbackbones": 22656,
    "Ġbore": 5079,
    "Ġpresc": 15922,
    "Ġbeasts": 10616,
    "Ġkramm": 26233,
    "Ġapiece": 16812,
    "eteenth": 20156,
    "returned": 7766,
    "Ġtem": 804,
    "Ġcaught": 3728,
    "Ġlaboratory": 13610,
    "cture": 15661,
    "Ġexamination": 8005,
    "Ġconsoling": 19455,
    "feit": 16039,
    "Ġpremium": 23902,
    "ulged": 12726,
    "Ġdisse": 18548,
    "aunt": 8370,
    "ul": 371,
    "Ġfortune": 4240,
    "Ġanecd": 20153,
    "Ġdismantled": 20215,
    "Ġinstinctively": 13457,
    "Ġrod": 9278,
    "spending": 18691,
    "bab": 11467,
    "Ġ]": 15457,
    "ipher": 18427,
    "Ġ4": 3986,
    "Ġfasting": 16353,
    "ierce": 14389,
    "Ġengland": 3855,
    "Ġdeaf": 12717,
    "Ġwhenever": 5166,
    "Ġbowditch": 19322,
    "Ġdictated": 25218,
    "somebody": 14565,
    "Ġagonies": 14250,
    "lace": 13746,
    "Ī": 235,
    "etian": 13957,
    "Ġilliter": 23469,
    "_,âĢĿ": 6218,
    "Ġloft": 5642,
    "izers": 18142,
    "Ġchisel": 20366,
    "Ġboneless": 19604,
    "bride": 19198,
    "Ġornam": 15861,
    "Ġuntamed": 19163,
    "Ġped": 6817,
    "opard": 9289,
    "Ġbulls": 23855,
    "Ġincommunicable": 26610,
    "Ġbarbar": 6935,
    "Ġknows": 4159,
    "aves": 3596,
    "disp": 7976,
    "K": 47,
    "Ġrepelled": 19085,
    "embra": 14072,
    "Ġhearsed": 25039,
    "Ġmonument": 16236,
    "Ġhearty": 9846,
    "Ġwoods": 5406,
    "Ġvishnoo": 12749,
    "ven": 780,
    "Ġactiv": 835,
    "ole": 9612,
    "Ġpattern": 1294,
    "pursu": 11391,
    "Ġinexplicable": 12253,
    "Ġlaborers": 19059,
    "ek": 1909,
    "shout": 22450,
    "Ġfields": 2144,
    "800": 17475,
    "Ġcheery": 16365,
    "Ġdra": 1592,
    "elev": 12455,
    "Ġashen": 21897,
    "Ġfortun": 4982,
    "Ġprejudice": 9074,
    "anzas": 17840,
    "eyeing": 14944,
    "Ġmainz": 22652,
    "Ġdistinction": 8884,
    "Ġbrougham": 17870,
    "Ġdesisted": 22976,
    "Ġnecessary": 4472,
    "Ġointment": 21324,
    "fully": 2202,
    "inev": 21977,
    "Ġremoval": 12114,
    "renewed": 19703,
    "Ġsharkish": 24502,
    "arm": 1357,
    "hoisting": 23715,
    "Ġay": 15489,
    "Ġlombardy": 26462,
    "Ġpersons": 6182,
    "Ġescape": 2648,
    "Ġemig": 14523,
    "prairies": 20565,
    "Ġembarr": 7447,
    "ity": 417,
    "Ġanalogy": 25639,
    "ops": 5246,
    "Ġbeheading": 21752,
    "Ġthose": 1173,
    "Ġshriek": 6637,
    "lowering": 16026,
    "icked": 10331,
    "Ġfight": 5366,
    "Ġmock": 3689,
    "puzzling": 26143,
    "Ġfrench": 4939,
    "shri": 14234,
    "eli": 3873,
    "Ġcate": 4107,
    "Ġwhaleman": 4654,
    "Ġwoody": 23519,
    "Ġpeterson": 9481,
    "runs": 25415,
    "gration": 9120,
    "Ġexperiment": 11917,
    "Ġinjurious": 24269,
    "dz": 4739,
    "Ġhumans": 8928,
    "Ġhear": 1968,
    "Ġtestament": 23216,
    "Ġinscriptions": 20007,
    "Ġweig": 7618,
    "Ġliberal": 12187,
    "Ġdeserted": 8636,
    "antique": 18287,
    "lestrade": 9655,
    "Ġdomains": 6610,
    "entreat": 17975,
    "Ġcircumn": 11980,
    "Ġparade": 18301,
    "Ġbritannica": 24680,
    "vely": 3866,
    "Ġsustain": 10015,
    "street": 6495,
    "nect": 663,
    "ertips": 23642,
    "humor": 19450,
    "Ġdoxology": 22242,
    "Ġbearded": 15723,
    "Ġpretension": 23762,
    "bucket": 17492,
    "maid": 8552,
    "Ġcleaving": 23179,
    "Ġunansw": 22052,
    "Ġbrut": 18768,
    "ich": 469,
    "Ġcarpent": 4464,
    "itan": 10158,
    "capitals": 25080,
    "Ġindependent": 9014,
    "Ġmaiden": 13384,
    "islands": 21374,
    "pleasure": 5978,
    "ediction": 17944,
    "week": 12927,
    "Ġvictory": 16652,
    "Ġdone": 1817,
    "Ġexpon": 970,
    "invincible": 25089,
    "extremely": 26263,
    "agree": 14065,
    "revolver": 25627,
    "toes": 22562,
    "cigar": 26124,
    "Ġthirteen": 15272,
    "irt": 3076,
    "commendation": 26348,
    "Ġpeaks": 16125,
    "Ġmanhandle": 22327,
    "Ġdiagon": 24740,
    "Ġasc": 4765,
    "allers": 22195,
    "ductive": 23933,
    "Ġarr": 1801,
    "ian": 1239,
    "jammed": 25906,
    "lighter": 20958,
    "whereby": 23416,
    "cho": 2761,
    "baboon": 25516,
    "Ġsa": 474,
    "rimshander": 20656,
    "Ġadv": 1146,
    "Ġsubstantiated": 25875,
    "Ġmaids": 19690,
    "Ġimmort": 19482,
    "Ġparac": 12791,
    "###": 3825,
    "Ġcost": 2508,
    "ust": 493,
    "Ġprefers": 20512,
    "Ġodious": 12147,
    "pper": 3208,
    "Ġ1820": 25718,
    "avish": 22595,
    "Ġreflecting": 24751,
    "shock": 19854,
    "Ġamusing": 11797,
    "above": 8148,
    "Ġgrizz": 10351,
    "Ġgordon": 26466,
    "Ġkilled": 4955,
    "Ġcannibal": 7774,
    "bonnet": 25742,
    "gress": 2214,
    "Ġscra": 5840,
    "Ġcomplied": 14732,
    "Ġdoublo": 6079,
    "anything": 5518,
    "Ġviews": 7290,
    "whisper": 17082,
    "roll": 9195,
    "Ġ31": 12127,
    "Ġsleepless": 14581,
    "+": 15,
    "Ġvector": 1974,
    "Ġmaximizing": 3168,
    "Ġairth": 23319,
    "Ġsc": 529,
    "till": 6965,
    "Ġgabriel": 7595,
    "Ġfordham": 21774,
    "Ġinsight": 16529,
    "Ġmeditations": 25013,
    "Ġmanhood": 22324,
    "Ġscroll": 14190,
    "Ġtroublesome": 23999,
    "circ": 4388,
    "Ġchurned": 18385,
    "Ġpretending": 19314,
    "Ġchronicle": 20227,
    "arrange": 23764,
    "Ġprecipice": 19939,
    "rary": 4575,
    "Ġpaid": 5015,
    "Ġdesperate": 7777,
    "azed": 9397,
    "Ġinclosed": 19537,
    "Ġlack": 17963,
    "expected": 5780,
    "belled": 24033,
    "Ġspout": 3281,
    "please": 8177,
    "Ġhistor": 3392,
    "ato": 17768,
    "a": 69,
    "Ġpeels": 22689,
    "Â": 131,
    "bohemia": 20730,
    "Ġtypes": 8935,
    "Ġapril": 13660,
    "**": 4685,
    "bent": 15309,
    "Ġtertiary": 15292,
    "clim": 18929,
    "Ġmarty": 20289,
    "Ġexecut": 4247,
    "Ġscratch": 25564,
    "anced": 1323,
    "Ġjustine": 4970,
    "Ġflurry": 18860,
    "Ġmorris": 18849,
    "mosp": 8089,
    "Ġbamboo": 17435,
    "Ġlaughter": 9026,
    "Ġborn": 5224,
    "Ġindications": 14631,
    "ivened": 22963,
    "Ġnow": 692,
    "Ġgasps": 24865,
    "Ġmines": 21307,
    "Ġluxuriant": 20393,
    "ozy": 17621,
    "Ġmassac": 14734,
    "Ġmournfully": 20115,
    "Ġcred": 8779,
    "dwell": 15339,
    "Ġprophets": 20449,
    "(_": 7540,
    "hamed": 6305,
    "Ġeleg": 6192,
    "none": 6962,
    "Ġdejected": 20303,
    "Ġmentioning": 9897,
    "Ġ1825": 25719,
    "Ġcontrary": 5260,
    "Ġ32": 19487,
    "Ġsolic": 7933,
    "Ġblew": 9044,
    "Ġlass": 15644,
    "Ġdinners": 23979,
    "Ġ3": 3985,
    "Ġboa": 22635,
    "leful": 17842,
    "gs": 7338,
    "such": 3082,
    "Ġcalhoun": 23043,
    "Ġwavering": 23279,
    "stuff": 15684,
    "Ġsome": 656,
    "Ġstreng": 18070,
    "Ġordained": 19443,
    "Ġgoodly": 22820,
    "whatsoever": 18489,
    "Ġsurrounded": 5879,
    "Ġadvances": 12988,
    "legged": 10465,
    "Ġyore": 21776,
    "amount": 10883,
    "signs": 16537,
    "Ġdissembling": 26254,
    "Ġshine": 12762,
    "Ġcelestial": 10065,
    "Ġsecondly": 14518,
    "Ġzealand": 12347,
    "Ġfain": 5808,
    "Ġresent": 6049,
    "Ġequ": 1734,
    "Ġaffectionate": 5583,
    "Ġneglig": 18878,
    "Ġevenings": 18753,
    "its": 1148,
    "son": 2332,
    "Ġnar": 7375,
    "Ġindulging": 16903,
    "Ġ----": 7145,
    "Ġpraised": 19552,
    "Ġcreep": 22721,
    "Ġtho": 21512,
    "enary": 12547,
    "inquiry": 15140,
    "Ġlength": 2503,
    "Ġinevitably": 17229,
    "Ġ79": 24263,
    "muring": 17600,
    "shall": 4550,
    "Ġshops": 21999,
    "Ġdwelling": 7322,
    "Ġcobbler": 25829,
    "follow": 5680,
    "Ġcall": 2076,
    "Ġvol": 4189,
    "Ġholiest": 18811,
    "Ġbeaut": 2395,
    "Ġupbraiding": 26226,
    "Ġaudience": 24769,
    "Ġostentatious": 25736,
    "Ġreconciled": 13585,
    "94": 4803,
    "85": 13679,
    "Ġshoes": 7071,
    "Ġsubterr": 10347,
    "Ġbeings": 2493,
    "Ġimpossibility": 20646,
    "Ġ116": 24439,
    "Ġfossiliferous": 25609,
    "Ġcro": 4873,
    "Ġtass": 15467,
    "presume": 25670,
    "Ġcru": 2824,
    "perquisites": 26530,
    "Ġaboard": 6697,
    "Ġcreations": 18684,
    "aired": 8369,
    "carefully": 13366,
    "vings": 9749,
    "Ġsoc": 3524,
    "Ġabuse": 18392,
    "Ġprim": 8244,
    "usations": 15944,
    "Ġgrosvenor": 17416,
    "Ġfirmament": 19469,
    "Ġxxi": 24475,
    "Ġsplendid": 17212,
    "Ġundiscovered": 18249,
    "inople": 13827,
    "arance": 4697,
    "asked": 8910,
    "hidden": 17369,
    "buttoned": 13630,
    "Ġunful": 22005,
    "Ġsinister": 8568,
    "Ġbumpkins": 25281,
    "Ġ21": 11198,
    "Ġtinged": 20081,
    "Ġgasped": 11371,
    "Ġanimating": 23422,
    "Ġmodesty": 12815,
    "Ġscriptures": 26235,
    "Ġthorough": 6245,
    "ah": 1833,
    "Ġsig": 868,
    "Ġgrace": 5374,
    "Ġperception": 9748,
    "Ġworm": 9161,
    "pale": 13770,
    "belonged": 25597,
    "hit": 20888,
    "mentioning": 24885,
    "Ġtwisting": 18658,
    "strikes": 24670,
    "oration": 2208,
    "Ġplaything": 19236,
    "Ġxliv": 23407,
    "Ġwidth": 16771,
    ",âĢĶâĢľ": 10068,
    "Ġsubtle": 6716,
    "worshipping": 16609,
    "Ġmak": 10777,
    "Ġpantheistic": 26335,
    "zes": 11547,
    "Ġbecame": 2692,
    "pole": 9331,
    "Ġadjusted": 23459,
    "Ġoars": 3897,
    "Ġcrossed": 6069,
    "Ġmanners": 3789,
    "Ġmealy": 18118,
    "Ġstartled": 7082,
    "first": 3933,
    "fted": 9117,
    "byter": 16210,
    "Ġstrictly": 12282,
    "dramatic": 19383,
    "Ġstarry": 16922,
    "con": 654,
    "Ġentities": 11861,
    "Ġon": 350,
    "Ġoperate": 19115,
    "Ġstubb": 1789,
    "Ġcontradictory": 20395,
    "Ġimperson": 14218,
    "Ġtrop": 7565,
    "Ġreliability": 22879,
    "venant": 22624,
    "Ġthickly": 12112,
    "Ġpoetical": 25056,
    "Ġpul": 2042,
    "Ġdevious": 22727,
    "Ġshaken": 10263,
    "annica": 24560,
    "Ġsmoky": 22556,
    "Ġsuppression": 23000,
    "Ġdrunk": 9422,
    "Ġdipping": 15588,
    "ingley": 1546,
    "hills": 13734,
    "des": 1566,
    "._": 3219,
    "learn": 2282,
    "otence": 14021,
    "instantly": 7506,
    "Ġmodes": 22223,
    "Ġsullen": 9156,
    "inian": 21181,
    "Ġoutrages": 18415,
    "accordingly": 19212,
    "Ġirritation": 20265,
    "ssip": 14078,
    "Ġecl": 18005,
    "Ġpreprocess": 22231,
    "swe": 5996,
    "Ġnotable": 18222,
    "Ġinsisted": 12043,
    "Ġebony": 18008,
    "Ġspoilt": 24807,
    "ous": 477,
    "headers": 23106,
    "Ġpouch": 21467,
    "hue": 20898,
    "Ġdecisions": 6702,
    "erce": 6126,
    "gd": 3124,
    "opol": 12867,
    "remembered": 17349,
    "caut": 20811,
    "Ġbiting": 17861,
    "Ġmoon": 4608,
    "Ġclergy": 7642,
    "peace": 13045,
    "Ġpack": 5444,
    "Ġburtons": 19251,
    "Ġrefreshment": 17238,
    "airs": 2221,
    "Ġengrossed": 12993,
    "Ġsignification": 19201,
    "art": 586,
    "Ġtops": 14585,
    "Ġcircumstances": 3925,
    "Ġinflict": 15000,
    "adel": 15725,
    "atum": 21258,
    "rie": 2786,
    "Ġpremature": 3723,
    "ls": 1290,
    "Ġtold": 2185,
    "Ġuns": 15833,
    "claimed": 9834,
    "Ġinstantaneous": 14610,
    "rimsh": 17026,
    "Ġmoderately": 22224,
    "religion": 20574,
    "Ġauthoritative": 19560,
    "Ġwoollen": 12100,
    "Ġexter": 7397,
    "Ġpublic": 4333,
    "Ġspire": 18306,
    "Ġratio": 5066,
    "had": 1950,
    "zetts": 17713,
    "cra": 6354,
    "Ġuniform": 2226,
    "...": 24548,
    "Ġrow": 5309,
    "Ġslaughter": 20729,
    "abby": 14019,
    "illating": 22105,
    "Ġveter": 15808,
    "io": 3800,
    "Ġrecurred": 18977,
    "underneath": 23786,
    "Ġchina": 8040,
    "onical": 21252,
    "Ġchange": 1996,
    "Ġcame": 1300,
    "Ġencomp": 12959,
    "shabbily": 26246,
    "Ġending": 18189,
    "Ġlobster": 11388,
    "grinder": 23413,
    "Ġrigged": 16716,
    "Ġroy": 4228,
    "Ġclutching": 24951,
    "urity": 8143,
    "suggested": 17297,
    "Ġvicissitudes": 12416,
    "Ġmeetings": 16531,
    "Ġtreated": 7080,
    "horses": 17566,
    "Ġq": 1085,
    "ssian": 3402,
    "apothecary": 26544,
    "Ġvineyards": 25106,
    "Ġunconcern": 14114,
    "Ġspoutings": 14674,
    "possibility": 13359,
    "Ġneighbouring": 12115,
    "rents": 5308,
    "wag": 21122,
    "rs": 7808,
    "Ã¦": 4338,
    "Ġperfection": 19217,
    "Ġputs": 19034,
    "Ġaffronted": 22890,
    "wore": 21123,
    "Ġbustle": 17226,
    "88": 20757,
    "sleep": 6511,
    "Ġtale": 5142,
    "Ġranged": 10256,
    "Ġhuggins": 24828,
    "Ġla": 5913,
    "Ġheredit": 9215,
    "assistance": 20369,
    "overcoat": 19053,
    "pitching": 24073,
    "Ġ120": 16857,
    "bble": 17483,
    "Ġirons": 7696,
    "Ġcyp": 21343,
    "Ġrelev": 1716,
    "Ã¦us": 14815,
    "Ġmounts": 17806,
    "parsee": 14511,
    "brill": 16490,
    "dared": 13700,
    "Ġcopper": 7425,
    "degra": 22139,
    "conject": 8879,
    "ivered": 7005,
    "Ġgaze": 6932,
    "inctions": 17731,
    "Ġantelope": 24179,
    "Ġtwentieth": 18659,
    "Ġtimes": 2306,
    "talked": 14983,
    "atmosphere": 21263,
    "Ġpartially": 13120,
    "Ġfurnished": 6475,
    "Ġlaunched": 14924,
    "Ġtelescope": 17346,
    "Ġtravelling": 11306,
    "living": 7133,
    "Ġincess": 8431,
    "Ġmistaken": 4986,
    "eight": 9590,
    "ows": 1918,
    "stubb": 6018,
    "Ġbaron": 19333,
    "Ġnatures": 16504,
    "ĠĠĠ": 2116,
    "Ġunhing": 18238,
    "inkles": 7426,
    "won": 7144,
    "Ġcabal": 23644,
    "Ġwhisky": 23931,
    "Ġsim": 734,
    "little": 3351,
    "Ġself": 1781,
    "atches": 13844,
    "larking": 17593,
    "ensical": 18567,
    "Ġpray": 3899,
    "Ġentries": 22743,
    "Ġcompatibility": 2958,
    "Ġoblong": 14319,
    "idation": 5022,
    "guinea": 16671,
    "era": 13845,
    "Ġtended": 21165,
    "Ġic": 9624,
    "Ġproceeded": 5335,
    "Ġpreparation": 13527,
    "properly": 24918,
    "Ġcollateral": 20070,
    "Ġsqualidness": 25842,
    "Ġunfailing": 24109,
    "listener": 24930,
    "Ġ(": 594,
    "Ġkeenly": 9483,
    "Ġbarbed": 14833,
    "Ġtot": 4185,
    "prepar": 22464,
    "Ġtelegraph": 25583,
    "Ġsne": 6372,
    "Ġinquirer": 24963,
    "Ġrelinquish": 17345,
    "onsible": 22559,
    "Ġpersuasion": 10497,
    "helped": 18923,
    "Ġirresistible": 13110,
    "Ġcraw": 7282,
    "skin": 10567,
    "Ġnicely": 8708,
    "phys": 18718,
    "Ġqueen": 3212,
    "Ġtum": 5692,
    "Ġturkish": 12258,
    "urch": 3994,
    "Ġrighteous": 18945,
    "Ġexpansion": 22623,
    "Ġneskye": 21529,
    "Ġinspecting": 24614,
    "germans": 20564,
    "Ġextract": 1449,
    "Ġunderstanding": 1780,
    "cripp": 20818,
    "tackles": 25624,
    "Ġvultures": 25653,
    "tipt": 25083,
    "Ġdazz": 11592,
    "divided": 25018,
    "original": 9083,
    "prob": 7069,
    "Ġunprincipled": 20707,
    "Ġproficiency": 19191,
    "angling": 14138,
    "Ġspeeding": 23563,
    "ased": 1269,
    "treacle": 25148,
    "eleg": 20848,
    "Ġerected": 12230,
    "Ġsultry": 20287,
    "Ġanticipating": 17057,
    "Ġnoise": 1073,
    "Ġspence": 22124,
    "Ġcanvas": 7784,
    ",âĢĿ": 579,
    "disputed": 23500,
    "Ġ28": 19293,
    "tell": 1377,
    "eland": 11618,
    "trunk": 23945,
    "discover": 10538,
    "ispensable": 9094,
    "otent": 8830,
    "yourself": 6742,
    "ark": 849,
    "interests": 19707,
    "usable": 22287,
    "Ġconstables": 19072,
    "Ġbeamed": 23720,
    "Ö": 151,
    "ogn": 2517,
    "Ġstrata": 26027,
    "alog": 8803,
    "stige": 21659,
    "Ġclassifies": 11829,
    "riot": 18184,
    "Ġchristianity": 19860,
    "Ġwhales": 1828,
    "Ġfarthing": 14452,
    "Ġshutters": 9935,
    "Ġsmelling": 16063,
    "stopping": 19348,
    "Ġexploitation": 2350,
    "Ġchick": 22245,
    "surround": 16757,
    "Ġfrivolous": 26176,
    "Ġpurse": 12007,
    "Ġrepro": 7275,
    "Ġscaling": 3629,
    "Ġemployed": 5200,
    "Ġrays": 10329,
    "Ġsick": 4692,
    "Ġmetal": 9381,
    "prince": 23811,
    "Ġvilest": 20099,
    "Ġquarto": 17294,
    "Ġdined": 9175,
    "Ġmincing": 18750,
    "Ġwherein": 14293,
    "Ġdust": 5909,
    "Ġcobb": 14270,
    "bowed": 10682,
    "Ġ[": 6967,
    "laws": 19806,
    "Ġdates": 6693,
    "derness": 11734,
    "Ġintru": 15824,
    "hands": 5967,
    "Ġaffrighted": 13570,
    "happy": 4424,
    "Ġrattler": 24997,
    "Ġtried": 3646,
    "pane": 10119,
    "Ġplanned": 14750,
    "Ġunhappiness": 14115,
    "Ġindisc": 16225,
    "Ġweather": 3997,
    "Ġfreezing": 23880,
    "Ġstandpoint": 23276,
    "Ġfrequently": 4679,
    "Ġposition": 1954,
    "Ġwick": 2007,
    "Ġsunlight": 13082,
    "Ġfasc": 12594,
    "Ġidler": 16403,
    "owed": 2271,
    "Ġoverlook": 10959,
    "console": 22469,
    "Ġhorribly": 16339,
    "neighbourhood": 10023,
    "occasion": 7754,
    "Ġthought": 1094,
    "Ġlining": 13949,
    "Ġindisp": 18834,
    "Ġlab": 1872,
    "Ġunw": 8848,
    "Ġ=": 1076,
    "whips": 22236,
    "Ġsharper": 17178,
    "Ġmask": 1867,
    "cob": 10085,
    "Ġearl": 7676,
    "Ġexclaimed": 4682,
    "gave": 7800,
    "ckery": 22088,
    "Ġsizes": 1521,
    "Ġunderstood": 5655,
    "Ġprocessions": 18433,
    "surprised": 9529,
    "Ġdef": 1201,
    "Ġbuoyed": 20039,
    "Ġblossom": 26312,
    "Ġpallor": 13514,
    "Ġknow": 631,
    "Ġmomentarily": 22811,
    "Ġtimidity": 24687,
    "breeze": 20561,
    "yarn": 15455,
    "nlp": 8750,
    "yramid": 8368,
    "Ġprincipally": 11308,
    "Ġfrenz": 25446,
    "Ġripples": 25505,
    "Ġsharing": 3476,
    "events": 12314,
    "icate": 9200,
    "Ġcourtesy": 9943,
    "Ġeffect": 971,
    "american": 11399,
    "performed": 18344,
    "Ġwired": 17786,
    "proble": 9392,
    "need": 10978,
    "fra": 8375,
    "van": 7815,
    "Ġgrazed": 15830,
    "Ġpettiness": 24228,
    "Ġsponge": 26003,
    "tu": 12508,
    "Ġhelmsman": 10503,
    "Ġsteer": 10385,
    "necessarily": 19630,
    "Ġattended": 5391,
    "Ġwonder": 2118,
    "igner": 21700,
    "ail": 566,
    "subtle": 24242,
    "Ġshouts": 19536,
    "Ġletting": 10360,
    "Ġcarelessly": 11119,
    "Ġmister": 22755,
    "Ġbelieve": 2149,
    "seaman": 25457,
    "mix": 20973,
    "mathemat": 19137,
    "Ġworking": 5573,
    "greater": 13248,
    "Ġflooded": 24961,
    "lounged": 26133,
    "Ġstable": 2699,
    "Ġclass": 774,
    "torm": 11529,
    "antial": 8487,
    "Ġafghan": 22628,
    "tisement": 6767,
    "Ġconsolation": 6208,
    "Ġassertion": 13487,
    "declaration": 25175,
    "Ġsupers": 18277,
    "seamen": 13624,
    "Ġstr": 760,
    "Ġbook": 2702,
    "almost": 4943,
    "Ġlaurel": 20653,
    "Ġburial": 16521,
    "Ġdiffused": 12065,
    "neighbours": 24881,
    "Ġimag": 2676,
    "Ġterra": 13114,
    "Ġsuperseded": 26223,
    "acknowledged": 15200,
    "Ġquench": 22417,
    "tr": 3577,
    "Ġbrighton": 6470,
    "Ġperfectly": 3699,
    "judgment": 16752,
    "Ġunworthy": 11712,
    "forehead": 8515,
    "Ġissued": 10598,
    "Ġsadder": 24048,
    "change": 6392,
    "Ġaffecting": 2327,
    "Ġsurvived": 14932,
    "Ġlurch": 21553,
    "wantonly": 25149,
    "Ġottoman": 17376,
    "Ġinterp": 16066,
    "Ġsubjected": 23571,
    "moid": 2451,
    "stolidity": 21661,
    "Ġmemorable": 16425,
    "revealed": 20414,
    "Ġundertaken": 18986,
    "Ġeighteen": 11238,
    "dreadful": 11420,
    "Ġmuster": 16119,
    "masterly": 24529,
    "Ġquarrelling": 13497,
    "fs": 17534,
    "itories": 15545,
    "Ġobtaining": 16129,
    "Ġproportion": 7281,
    "Ġpaste": 23417,
    "icles": 17972,
    "Ġgood": 1000,
    "Ġarrange": 3120,
    "ors": 853,
    "wouldn": 23535,
    "Ġgodfrey": 15291,
    "Ġcompass": 4408,
    "Ġgomorrah": 21613,
    "Ġbloodless": 19338,
    "Ġsurest": 19058,
    "Ġunimportant": 22024,
    "included": 19207,
    "cure": 11473,
    "Ġpiratical": 24801,
    "Ġinadequate": 17936,
    "Ġcanall": 10927,
    "whenever": 11878,
    "umer": 9256,
    "Ġattendant": 11284,
    "Ġmain": 809,
    "Ġnautical": 17384,
    "Ġdefect": 8554,
    "maker": 12489,
    "Ġdisgraceful": 15018,
    "Ġmonsters": 11073,
    "[": 63,
    "ification": 1009,
    "Ġstorms": 11261,
    "supplementary": 20548,
    "Ġturning": 3326,
    "ingolstadt": 21302,
    "Ġdeceiving": 21834,
    "ugnance": 12364,
    "Ġcoward": 7155,
    "lanterns": 17427,
    "Ġdelicately": 24123,
    "Ġdiligently": 11404,
    "tomb": 21092,
    "Ġcommanding": 16589,
    "aggo": 5097,
    "Ġtorch": 25030,
    "Ġdisappointment": 6626,
    "Ġpant": 10816,
    "Ġresembles": 25969,
    "entire": 6824,
    "tt": 13788,
    "Ġplying": 17911,
    "_).": 5887,
    "Ġirrevocably": 15295,
    "Ġawaken": 23585,
    "Ġanimal": 2501,
    "ique": 8742,
    "Ġstubborn": 10413,
    "Ġgrove": 12143,
    "Ġmoody": 8201,
    "rably": 21631,
    "Ġbast": 21377,
    "Ġprisoner": 8672,
    "Ġweighed": 8710,
    "Ġaims": 15494,
    "Ġje": 4121,
    "otograph": 5826,
    "transp": 24508,
    "Ġdesperately": 24656,
    "Ġjoining": 13162,
    "vity": 7816,
    "attoo": 6807,
    "feed": 9291,
    "linearity": 1646,
    "through": 4023,
    "assembled": 21543,
    "Ġavalanche": 17431,
    "Ġwitness": 4621,
    "appeared": 4282,
    "socket": 22725,
    "pushed": 21022,
    "Ġhid": 1318,
    "Ġfervent": 14899,
    "justine": 7683,
    "meas": 7434,
    "Ġprevent": 756,
    "uture": 1038,
    "worn": 13804,
    "Ġeh": 6987,
    "garity": 17553,
    "standers": 18479,
    "Ġfibres": 12947,
    "Ġoakshott": 12226,
    "Ġschoolmaster": 16861,
    "ù": 186,
    "Ġboys": 5194,
    "Ġapplying": 13090,
    "clam": 13051,
    "Ġmale": 9647,
    "finds": 19926,
    "Ġnecessarily": 13246,
    "angled": 6844,
    "Ġnine": 5369,
    "Ġconcerning": 4068,
    "Ġiroqu": 21622,
    "ters": 1572,
    "own": 745,
    "allowance": 16823,
    "impl": 21705,
    "Ġaffidav": 18787,
    "contact": 23726,
    "Ġhide": 4589,
    "Ġohio": 19128,
    "idays": 21768,
    "arrangement": 17413,
    "agged": 9235,
    "Ġvig": 5460,
    "Ġpremises": 10486,
    "throw": 14096,
    "rugged": 6849,
    "Ġappalling": 8498,
    "Ġpreluding": 18368,
    "encountered": 20391,
    "Ġfountains": 13501,
    "epilogue": 22098,
    "alf": 4638,
    "examine": 25477,
    "corner": 13395,
    "masculine": 24386,
    "Ġlabourers": 23331,
    "Ġsuspecting": 14908,
    "twinkle": 23702,
    "Ġdefendants": 15138,
    "Ġpupella": 20420,
    "elfare": 11774,
    "ccess": 3181,
    "Ġhuge": 4699,
    "Ġgrunted": 16165,
    "Ġelect": 10841,
    "sought": 15425,
    "Ġassurances": 9998,
    "eze": 20846,
    "Ġcoer": 22577,
    "Ġsleet": 8974,
    "awing": 18915,
    "preference": 22465,
    "erate": 7149,
    "Ġhammock": 5768,
    "Ġtigris": 25759,
    "ercial": 21273,
    "Ġlinks": 13953,
    "Ġgallon": 24183,
    "Ġhopeless": 7463,
    "kov": 17585,
    "Ġmisunderstand": 18701,
    "Ġ114": 24437,
    "knowledge": 7478,
    "Ġearly": 2080,
    "prejudiced": 17295,
    "loaded": 22510,
    "Ġphrenologists": 25608,
    "retreat": 23132,
    "Ġpulling": 5862,
    "appetite": 22848,
    "Ġunre": 3477,
    "cies": 1814,
    "Ġmarks": 6746,
    "Ġschemes": 11130,
    "Ġprophes": 16346,
    "utterly": 20010,
    "Ġnose": 4402,
    "Ġvalu": 5039,
    "Ġrespects": 7269,
    "news": 23130,
    "Ġmetaphys": 16386,
    "Ġconfirm": 9854,
    "Ġimpossible": 3541,
    "Ġwhirlp": 16962,
    "acceler": 23597,
    "ality": 2514,
    "shaped": 10307,
    "the": 334,
    "bottom": 11425,
    "Ġscand": 7203,
    "Ġmoses": 21314,
    "imental": 16532,
    "emin": 8469,
    "accomplishments": 25326,
    "Ġschoolboys": 24480,
    "foolish": 12344,
    "solved": 7685,
    "Ġstrongest": 11134,
    "omach": 11632,
    "Ġhither": 4759,
    "Ġnav": 5818,
    "Ġguilt": 6179,
    "Ġdrink": 4787,
    "ouch": 2779,
    "begin": 8882,
    "sword": 10725,
    "itors": 2914,
    "Ġeating": 8136,
    "patter": 4175,
    "Ġnoticed": 5548,
    "uv": 6229,
    "Ġeffemin": 18532,
    "Ġcoffee": 6760,
    "deceit": 25556,
    "Ġsnap": 11200,
    "Ġabatement": 22274,
    "anation": 5803,
    "comes": 5394,
    "rapidly": 15241,
    "aus": 1500,
    "Ġpolar": 9409,
    "sleepy": 24729,
    "Ġagonizing": 17237,
    "Ġcistern": 17379,
    "figure": 13553,
    "grand": 7970,
    "Ġwrecked": 9964,
    "Ġhomeless": 23385,
    "ulating": 10886,
    "Ġfeigned": 22208,
    "Ġmemo": 18117,
    "tallow": 21084,
    "Ġwestern": 10653,
    "Ġtraffic": 23081,
    "Ġcalcul": 3636,
    "Ġgale": 5822,
    "Ġchanged": 5242,
    "val": 1162,
    "Ġvoluntarily": 12137,
    "Ġyourselves": 9027,
    "Ġinsignific": 13178,
    "Ġunlabeled": 3798,
    "eronomy": 15522,
    "brother": 7091,
    "Ġcomposition": 1686,
    "Ġevangelists": 20338,
    "sake": 13781,
    "gered": 9274,
    "Ġbent": 5149,
    "meetings": 20376,
    "Ġserpents": 13074,
    "Ġchival": 14181,
    "Ġfuel": 13902,
    "Ġbecome": 3157,
    "Ġcounty": 9029,
    "Ġid": 1911,
    "acca": 23596,
    "Ġmug": 21311,
    "Ġrossum": 3010,
    "trimmed": 23946,
    "Ġadroit": 26000,
    "mies": 20967,
    "Ġunmanufactured": 20432,
    "Ġdistant": 5387,
    "Ġinstructing": 3122,
    "minute": 11273,
    "Ġcircumspection": 25884,
    "Ġtransp": 4770,
    "aug": 1212,
    "Ġentropy": 2033,
    "Ġwhitt": 18054,
    "Ġdial": 10809,
    "Ġgot": 2283,
    "irium": 8162,
    "Ġbending": 12581,
    "anoke": 21359,
    "Ġoutlines": 15954,
    "Ġunctuousness": 17233,
    "nets": 9131,
    "Ġcircumstance": 4987,
    "ú": 187,
    "must": 3575,
    "Ġexpectantly": 23525,
    "Ġcalamities": 25699,
    "Ġunobstructed": 18261,
    "Ġyielding": 12183,
    "Ġwedding": 4858,
    "Ġundertone": 23238,
    "dum": 17517,
    "Ġice": 3601,
    "Ġjig": 15948,
    "Ġsurmis": 23464,
    "erson": 7002,
    "Ġad": 446,
    "Ġforget": 2635,
    "footsteps": 25199,
    "Ġlowering": 7987,
    "Ġrese": 2278,
    "Ġsheep": 10925,
    "Ġdistraction": 22504,
    "Ġunappalled": 22059,
    "shazzar": 15287,
    "Ġrepresented": 8937,
    "Ġpicture": 4856,
    "pred": 2802,
    "vine": 10733,
    "Ġpapers": 4021,
    "telesc": 22816,
    "Ġfear": 2279,
    "Ġperiodically": 19493,
    "Ġdissip": 10991,
    "Ġforc": 9226,
    "recursion": 13326,
    "Ġanyone": 4458,
    "Ġinclement": 22551,
    "Ġagency": 11803,
    "Ġincensed": 18571,
    "Ġregulate": 22588,
    "detective": 24382,
    "Ġbenefactor": 14696,
    "warm": 8102,
    "hol": 3837,
    "bol": 8717,
    "Ġunaccountably": 26514,
    "Ġdespise": 14664,
    "Ġbrix": 12579,
    "Ġresults": 7308,
    "Ġpossession": 5588,
    "anesc": 21358,
    "walk": 5523,
    "Ġmore": 677,
    "Ġalarm": 4047,
    "ils": 3180,
    "Ġendowed": 18924,
    "pall": 17627,
    "mits": 13754,
    "mis": 4521,
    "Ġhurry": 4913,
    "Ġhardly": 2433,
    "Ġarrayed": 25664,
    "Ġexpected": 3695,
    "Ą": 197,
    "Ġhig": 754,
    "ivers": 1986,
    "Ġlot": 6678,
    "Ġsaving": 15884,
    "¹": 122,
    "Ġemper": 9859,
    "ptic": 21922,
    "Ġsubsc": 22787,
    "Ġhookah": 16969,
    "Ġomit": 17815,
    "Ġscold": 10949,
    "Ġedged": 23437,
    "Ġspaniards": 25555,
    "Ġdesign": 4130,
    "Ġtingling": 15090,
    "Ġbrittle": 22863,
    "Ġdig": 6135,
    "hunter": 10554,
    "Ġflames": 7940,
    "Ġminima": 3464,
    "Ġtwitch": 22674,
    "exercise": 17458,
    "Ġcatastrop": 3346,
    "igger": 21699,
    "Ġfumbled": 17881,
    "splinter": 25210,
    "Ġembraced": 10004,
    "Ġportcullis": 26602,
    "contempl": 13187,
    "move": 11851,
    "better": 7119,
    "Ġhidden": 1372,
    "ohnson": 16323,
    "Ġforemast": 12002,
    "|": 96,
    "Ġsurrounds": 24230,
    "protected": 19920,
    "Ġintertw": 18586,
    "rippling": 24713,
    "Ġdraught": 9843,
    "contrasted": 17304,
    "unconquerable": 21889,
    "Ġabst": 9264,
    "Ġcuvier": 9164,
    "jar": 17576,
    "quired": 21853,
    "upset": 23019,
    "Ġdisplays": 19856,
    "Ġtreachery": 15099,
    "Ġtheory": 5798,
    "Ġretrieval": 10673,
    "open": 7025,
    "past": 8090,
    "Ġcongenial": 12408,
    "Ġintervals": 5597,
    "rmsprop": 4522,
    "Ġfals": 15577,
    "ingle": 1036,
    "Ġtugged": 17287,
    "Ġbaronial": 23791,
    "somerset": 26322,
    "Ġif": 697,
    "Ġpsych": 10175,
    "uneasiness": 23686,
    "Ġostr": 21323,
    "Ġreclining": 26033,
    "crowning": 25748,
    "propagation": 1232,
    "Ġcrashes": 13123,
    "surely": 10568,
    "anum": 17835,
    "Ġheron": 22071,
    "injustice": 17736,
    "librarian": 26567,
    "Ġinjection": 3467,
    "ieves": 4006,
    "disciple": 16777,
    "avenza": 17103,
    "Ġperplexity": 2756,
    "trade": 19635,
    "²": 115,
    "truck": 15439,
    "fordshire": 4676,
    "Ġsuspending": 19242,
    "Ġacceded": 22377,
    "comfortable": 7320,
    "Ġastr": 15492,
    "Ġequinox": 25855,
    "ians": 2361,
    "orphans": 26439,
    "Ġcomforts": 14692,
    "commodore": 20624,
    "Ġadviser": 25312,
    "Ġnomine": 26455,
    "gling": 10096,
    "whales": 5187,
    "rock": 15637,
    "Ġunsur": 22016,
    "page": 13769,
    "Ġpand": 21453,
    "Ġdispleased": 18555,
    "Ġanomalous": 25637,
    "Ġtransparent": 9487,
    "Ġ132": 19895,
    "Ġunworth": 22030,
    "humoured": 11235,
    "omination": 21640,
    "Ġincivility": 18572,
    "Ġepit": 18006,
    "Ġconsummation": 17423,
    "ichever": 13955,
    "Ġsomewhere": 5384,
    "Ġsaturation": 2063,
    "anges": 1671,
    "Ġslack": 8954,
    "stem": 564,
    "Ġshank": 21995,
    "veral": 2356,
    "Ġgurg": 15669,
    "Ġsubordinate": 18722,
    "Ġpreferment": 19852,
    "oning": 7572,
    "Ġsurplus": 26303,
    "resemblance": 25933,
    "scap": 22990,
    "yth": 981,
    "Ġgraze": 18226,
    "Ġbrilliancy": 20105,
    "uber": 15443,
    "Ġfrom": 433,
    "Ġtusked": 25426,
    "obtain": 23091,
    "came": 4570,
    "application": 12360,
    "Ġ166": 25004,
    "Ġaccosted": 13670,
    "Ġremained": 3141,
    "Ġmeanness": 22597,
    "clopÃ¦": 13052,
    "folding": 24927,
    "Ġwrapped": 8342,
    "Ġappellation": 22222,
    "Ġsalted": 14754,
    "Ġparallel": 1415,
    "embedding": 20703,
    "Ġdiscoverer": 26035,
    "sharks": 14238,
    "Ġendued": 14075,
    "Ġheire": 18036,
    "Ġinsufferable": 13929,
    "ibilities": 13004,
    "Ġtransactions": 18482,
    "hoping": 17565,
    "Ġatone": 15799,
    "Ġscalable": 1512,
    "Ġmaled": 21313,
    "Ġlanc": 19763,
    "Ġchoicest": 24219,
    "Ġsuggest": 5417,
    "Ġrolls": 8334,
    "Ġregretted": 13398,
    "story": 9211,
    "adders": 24399,
    "ser": 1426,
    "Ġtreacherous": 13552,
    "Ġmultiple": 1187,
    "Ġrejoinder": 24598,
    "tremendous": 20672,
    "concealed": 25115,
    "Ġacknowledgment": 16956,
    "trying": 15436,
    "Ġlanes": 19764,
    "Ġamend": 16031,
    "Ġyon": 9691,
    "Ġaltitude": 26202,
    "Ġnewspaper": 12361,
    "elastic": 17980,
    "asserted": 22306,
    "Ġreliance": 14383,
    "Ġsprinkled": 19495,
    ")âĢĶ": 20741,
    "Ġsteeple": 19286,
    "Ġfrolic": 23921,
    "grew": 17554,
    "Ġreproachfully": 25251,
    "Ġgum": 21593,
    "Ġshud": 5461,
    "Ġdanes": 25156,
    "Ġsuch": 796,
    "Ġconfirming": 25321,
    "favour": 9547,
    "Ġdiscerning": 24955,
    "cheeks": 23805,
    "Ġoff": 902,
    "Ġgreatly": 5849,
    "Ġyouth": 4262,
    "barrels": 15040,
    "Ġmerchantmen": 19859,
    "Ġcucumber": 21354,
    "bishop": 13692,
    "Ġdischarged": 15218,
    "Ġcus": 21341,
    "paid": 15412,
    "Ġlevi": 3032,
    "dition": 15338,
    "Ġporter": 15607,
    "Ġhooded": 12403,
    "Ġcolder": 22854,
    "hist": 7130,
    "years": 6883,
    "Ġsomehow": 4841,
    "Ġfidelity": 15239,
    "Ġalche": 21781,
    "Ġinputs": 843,
    "Ġblown": 12082,
    "spears": 23939,
    "Ġwithdra": 6398,
    "Ġpilgrimage": 17306,
    "Ġgradual": 20600,
    "Ġcathed": 14548,
    "Ġearthy": 23711,
    "gone": 6504,
    "achus": 18283,
    "Ġlubber": 17442,
    "caves": 20815,
    "Ġtempest": 8214,
    "Ġrepairing": 25589,
    "Ġclubs": 25179,
    "Ġglittering": 10051,
    "lightning": 16550,
    "mariners": 19547,
    "Ġamiss": 18511,
    "Ġanger": 5442,
    "features": 14761,
    "Ġmutual": 8296,
    "Ġdelighted": 5499,
    "Ġlaugh": 4111,
    "!âĢĻâĢĿ": 16591,
    "Ġxxxix": 24970,
    "athans": 7433,
    "Ġconsol": 3813,
    "Ġcandid": 4097,
    "put": 414,
    "shutters": 20312,
    "Ġfrenzy": 13620,
    "heedful": 20572,
    "langu": 4807,
    "Ġbohem": 8526,
    "stars": 18019,
    "Ġris": 4886,
    "Ġengaging": 9334,
    "Ġcreator": 7254,
    "oors": 17619,
    "Ġplanted": 9772,
    "mere": 11852,
    "t": 88,
    "brous": 19197,
    "Ġfatal": 5871,
    "stra": 4045,
    "Ġblow": 3376,
    "slave": 16894,
    "reve": 12535,
    "Ġchowder": 10279,
    "Ġsacr": 7194,
    "followed": 8339,
    "Ġwarmly": 8986,
    "dig": 4929,
    "sche": 13015,
    "Ġsmut": 22554,
    "moreover": 12965,
    "Ġcitadel": 25438,
    "Ġbargain": 23790,
    "deceptive": 22147,
    "Ġcetology": 10007,
    "Ġdissect": 16050,
    "Ġlye": 21549,
    "Ġministers": 22830,
    "Ġmur": 2492,
    "Ġcentrally": 23828,
    "Ġgenerously": 22405,
    "Ġsolitude": 6876,
    "Ġsubst": 4274,
    "conced": 22466,
    "iour": 4037,
    "Ġunembarrassed": 22063,
    "Ġembell": 14414,
    "iable": 3333,
    "Ġconfinement": 19038,
    "anguish": 15977,
    "undoubtedly": 13309,
    "Ġenormous": 5608,
    "Ġcustoms": 19651,
    "Ġvarying": 15807,
    "Ġlug": 15648,
    "stri": 6249,
    "Ġgrampus": 21991,
    "Ġvindication": 25364,
    "done": 6500,
    "Ġexecutors": 19532,
    "Ġwarrior": 24495,
    "Ġghastly": 10058,
    "Ġsegmentation": 17338,
    "borean": 25743,
    "Ġassaults": 15154,
    "Ġpostp": 12140,
    "tails": 21085,
    "Ġfreighted": 16321,
    "Ġancles": 21445,
    "project": 16422,
    "Ġhabitual": 24790,
    "etuous": 21581,
    "Ġbrooded": 23101,
    "ped": 6365,
    "Ġinsanity": 12044,
    "imprisonment": 23760,
    "widely": 25343,
    "arity": 1303,
    "lleg": 20950,
    "Ġlifeless": 8947,
    "Ġlabrador": 23330,
    "Ġrep": 1937,
    "Ġwell": 901,
    "Ġrapidity": 11099,
    "apply": 18759,
    "Ġrekindled": 21675,
    "Ġchrist": 4072,
    "ps": 4574,
    "weigh": 18665,
    "Ġprotecting": 24686,
    "grat": 5052,
    "Ġgree": 7594,
    "Ġinspector": 6498,
    "Ġsnuff": 7992,
    "lutions": 20949,
    "Ġmoonshine": 19596,
    "Ġwhisper": 6205,
    "ici": 8440,
    "Ġtransition": 14232,
    "embraced": 25804,
    "shudder": 26245,
    "distraction": 24199,
    "istan": 22106,
    "low": 651,
    "Ġresidence": 8207,
    "izabeth": 906,
    "angible": 22100,
    "Ġparliament": 18302,
    "Ġeddying": 16433,
    "Ġrepublic": 14530,
    "Ġdistur": 5312,
    "Ġparents": 6752,
    "Ġnind": 17949,
    "Ġinduced": 8670,
    "roylott": 20025,
    "thirst": 15822,
    "Ġgenteel": 19979,
    "Ġmorose": 18848,
    "Ġobsequious": 17402,
    "chain": 18039,
    "Ġbull": 7840,
    "Ġexp": 779,
    "born": 7543,
    "elaborate": 21574,
    "Ġrevolut": 3256,
    "Ġcreeping": 18685,
    "walls": 25345,
    "danced": 20827,
    "ocratic": 17244,
    "eff": 2536,
    "Ġbit": 2963,
    "lect": 1222,
    "liest": 6294,
    "Ġmartyr": 26360,
    "Ġgenius": 8046,
    "devoted": 20015,
    "Ġbacking": 16114,
    "Ġinquisitive": 26317,
    "pay": 10717,
    "als": 2043,
    "Ġapprovingly": 26252,
    "Ġwhereupon": 14294,
    "gr": 2088,
    "Ġgrapnels": 25551,
    "Ġenjoyments": 24015,
    "Ġran": 3342,
    "Ġdetected": 18831,
    "Ġanimated": 7702,
    "Ġepic": 15028,
    "gerine": 22886,
    "Ġemploy": 3613,
    "zy": 2671,
    "hundreds": 25073,
    "Ġpretext": 22227,
    "terbury": 21822,
    "last": 3801,
    "Ġeluc": 16106,
    "Ġdeliverance": 15155,
    "congratulations": 20278,
    "Ġhelp": 1637,
    "Ġmanufactured": 22328,
    "_)âĢĶ": 20143,
    "Ġunimpe": 22066,
    "Ġrobes": 16239,
    "covered": 11476,
    "Ġemotions": 8968,
    "Ġseamen": 5063,
    "Ġbuoyant": 13530,
    "Ġmermaids": 26170,
    "Ġunpleasing": 22049,
    "orated": 12587,
    "Ġcourse": 2132,
    "deliber": 17424,
    "Ġfootfalls": 25866,
    "Ġresolute": 19243,
    "Ġdata": 519,
    "Ġcapture": 3386,
    "enstein": 5799,
    "gon": 17551,
    "Ġfurnace": 19438,
    "eler": 1571,
    "language": 5129,
    "Ġcampaign": 20660,
    "Ġgent": 7383,
    "uch": 877,
    "Ġcolonel": 3409,
    "owders": 18047,
    "recollected": 25347,
    "ighted": 8476,
    "Ġquiver": 16000,
    "gro": 10093,
    "Ġspeculations": 22998,
    "Ġsembl": 19061,
    "Ġsof": 18281,
    "Ġwas": 370,
    "general": 7489,
    "Ġpantaloons": 20295,
    "Ġsensible": 4976,
    "Ġtied": 7357,
    "Ġbelie": 14404,
    "ap": 546,
    "Ġrestrain": 8963,
    "Ġpounds": 5368,
    "inated": 6804,
    "Ġunallied": 22026,
    "Ġneglecting": 25007,
    "riving": 21929,
    "Ġconven": 6151,
    "illustration": 2286,
    "iarity": 8743,
    "Ġalmanac": 26484,
    "bing": 7792,
    "uarded": 21104,
    "ompl": 4536,
    "Ġgoverness": 8601,
    "Ġendeavored": 19301,
    "Ġabstracted": 17181,
    "Ġslippery": 12163,
    "Ġplead": 14453,
    "idate": 21765,
    "Ġtarshish": 12025,
    "Ġsales": 12803,
    "masts": 19423,
    "rug": 18339,
    "merged": 11193,
    "silly": 24421,
    "amusement": 15280,
    "Ġsoldier": 16919,
    "Ġnarr": 5085,
    "aloes": 21500,
    "Ġartful": 22609,
    "erred": 6376,
    "Ġchemist": 11133,
    "Ġtoma": 7373,
    "housekeeping": 24100,
    "Ġsplendour": 20223,
    "iff": 3905,
    "Ġregrets": 18599,
    "vitality": 20477,
    "Ġneed": 2609,
    "Ġfunction": 581,
    "Ġcrowded": 8012,
    "Ġoverall": 4359,
    "irst": 879,
    "Ġducking": 17145,
    "ittarius": 22375,
    "Ġgrizzled": 11449,
    "âĢĶ(": 15935,
    "Ġexpedition": 10632,
    "Ġbutcher": 18271,
    "Ġdawned": 14992,
    "Ġfries": 21414,
    "ibility": 2392,
    "Ġblame": 6446,
    "Ġbridges": 24682,
    "Ġdivinest": 25722,
    "Ġ}": 21152,
    "ublic": 11226,
    "Ġcheerily": 13305,
    "flow": 2074,
    "Ġstray": 18069,
    "Ġspokes": 18313,
    "wig": 17703,
    "Ġguns": 16775,
    "Ġpenny": 16312,
    "Ġpostscript": 14806,
    "ð": 177,
    "Ġby": 383,
    "Ġsunda": 13542,
    "Ġsneering": 24697,
    "ulia": 18148,
    "Ġpreferred": 14964,
    "Ġstrength": 4260,
    "Ġdick": 3496,
    "present": 1134,
    "wearing": 22685,
    ",--": 2480,
    "Ġsober": 10910,
    "Ġimm": 3964,
    "Ġawa": 7714,
    "ses": 3024,
    "retired": 11933,
    "Ġconvert": 11840,
    "usual": 5841,
    "claps": 23151,
    "estation": 15919,
    "Ġweave": 21918,
    "Ġmalicious": 10556,
    "Ġlend": 17962,
    "Ġidol": 7467,
    "beating": 22487,
    "unbounded": 21883,
    "Ġnursery": 19749,
    "Ġglimmered": 20170,
    "illa": 12789,
    "Ġdepresses": 25797,
    "harpoons": 24284,
    "Ġshavings": 14108,
    "boxes": 16887,
    "Ġroom": 1464,
    "Ġsinking": 7307,
    "Ġincisive": 18570,
    "nonsense": 17614,
    "words": 7983,
    "do": 1997,
    "Ġbecause": 2210,
    "Ġhieroglyphics": 17301,
    "rows": 6442,
    "Ġspecimen": 13019,
    "Ġunfolding": 17085,
    "ack": 610,
    "Ġowe": 8115,
    "Ġunrel": 14694,
    "Ġlines": 4534,
    "Ġreveries": 11346,
    "Ġcleaned": 23180,
    "resting": 23234,
    "Ġpalpable": 15204,
    "Ġoutlandish": 12834,
    "investments": 25532,
    "Ġtwitching": 25683,
    "Ġadventures": 7748,
    "Ġuntutored": 19165,
    "Ġ85": 24459,
    "Ġbeast": 7179,
    "sad": 11519,
    "Ġfired": 16148,
    "Ġpolitic": 23617,
    "Ġfeedforward": 2330,
    "Ġtro": 7356,
    "getting": 12963,
    "urned": 9304,
    "Ġmizzen": 20288,
    "Ġjon": 15945,
    "Ġforeseen": 16441,
    "gun": 10095,
    "Ġberths": 20113,
    "etics": 21579,
    "Ġboasted": 16104,
    "fish": 3514,
    "brew": 11472,
    "Ġclothe": 4711,
    "oblivious": 26581,
    "latter": 15380,
    "wished": 13803,
    "Ġ200": 19294,
    "conqu": 14243,
    "Ġgriff": 22804,
    "thine": 15821,
    "atch": 674,
    "christ": 10209,
    "Ġfict": 21403,
    "grasping": 20638,
    "he": 264,
    "Ġexhale": 24401,
    "Ġhadn": 9717,
    "Ġstudied": 11113,
    "Ġdeser": 3886,
    "westward": 25424,
    "Ġcascade": 20579,
    "Ġvariety": 8530,
    "Ġconsiderations": 9408,
    "Ġrepresents": 4902,
    "Ġdividing": 12108,
    "ancy": 4393,
    "Ġashamed": 6403,
    "Ġrobert": 10968,
    "Ġsimple": 1618,
    "Ġsweetness": 9444,
    "Ġover": 555,
    "other": 1314,
    "Ġmosses": 20162,
    "Ġfluttered": 16247,
    "uity": 12514,
    "Ġblasts": 19994,
    "Ġscalding": 16304,
    "greenland": 10019,
    "Ġvehemently": 26039,
    "Ġclue": 7019,
    "Ġbeholding": 8668,
    "Ġenlivened": 26207,
    "Ġinstructive": 19284,
    "Ġprocopius": 19729,
    "coward": 13698,
    "fork": 20856,
    "Ġlee": 4223,
    "mare": 17598,
    "large": 6625,
    "Ġlays": 15982,
    "Ġwhittling": 20698,
    "wrapped": 15207,
    "Ġcar": 1419,
    "Ġmostly": 7664,
    "Ġgets": 10838,
    "esu": 17918,
    "imprudent": 14650,
    "whether": 5319,
    "Ġstur": 15713,
    "Ġno": 510,
    "Ġnur": 5710,
    "startled": 24941,
    "Ġemma": 20693,
    "influ": 9539,
    "secret": 12233,
    "Ġglanced": 5952,
    "Ġmishap": 20575,
    "Ġdoing": 3659,
    "thesize": 24906,
    "Ġpublisher": 24062,
    "Ġsigned": 11176,
    "ocity": 8278,
    "tree": 11532,
    "methodically": 20663,
    "Ġ130": 24781,
    "Ġhundredth": 16518,
    "Ġmeditating": 20041,
    "one": 616,
    "Ġrelieved": 7666,
    "Ġillinois": 19136,
    "Ġlasted": 11052,
    "drifting": 19823,
    "Ġdeliverer": 11947,
    "ank": 1364,
    "Ġcompensated": 17399,
    "Ġregardless": 19323,
    "Ġconsuming": 22790,
    "izure": 21839,
    "oled": 17618,
    "Ġpadded": 25036,
    "Ġelastic": 4362,
    "Ġmistake": 6203,
    "Ġmuseum": 15269,
    "pul": 8753,
    "derbyshire": 18321,
    "Ġordering": 18997,
    "Ġdoubting": 13098,
    "ful": 664,
    "crime": 14781,
    "Ġexcursion": 26588,
    "strom": 15680,
    "onist": 21249,
    "Ġadd": 630,
    "Ġdon": 1611,
    "Ġwert": 12552,
    "scream": 11076,
    "Ġgrud": 17995,
    "Ġspasmodically": 17312,
    "loving": 18540,
    "permitted": 18345,
    "itig": 1332,
    "rope": 3183,
    "variety": 23183,
    "rec": 6004,
    "Ġtut": 8769,
    "Ġvillas": 24050,
    "Ġneither": 3684,
    "Ġreminds": 13429,
    "deprived": 19897,
    "Ġmerryweather": 9520,
    "Ġagric": 22513,
    "aration": 12603,
    "Ġvindict": 13603,
    "grass": 23411,
    "Ġpinioned": 21480,
    "Ġleather": 7606,
    "Ġloaded": 8490,
    "Ġ*": 1274,
    "70": 17474,
    "Ġvehic": 8932,
    "digger": 24309,
    "erringly": 16208,
    "uit": 8393,
    "Ġlucas": 3830,
    "Ġty": 6657,
    "Ġmod": 499,
    "flowing": 14541,
    "Ġgrow": 2861,
    "iation": 7343,
    "Ġlevels": 12694,
    "ield": 2409,
    "----âĢĿ": 13304,
    "Ġbreakers": 12052,
    "Ġcommun": 1706,
    "Ġdl": 3378,
    "rab": 7596,
    "Ġdesperation": 19817,
    "Ġdowncast": 18652,
    "Ġswift": 3667,
    "Ġunconsc": 6552,
    "Ġmoist": 9283,
    "bench": 16802,
    "Ġdeceive": 12718,
    "Ġsolace": 16197,
    "pen": 1204,
    "Ġbottomless": 12103,
    "conceive": 16027,
    "Ġkelson": 18350,
    "erted": 7361,
    "Ġoakum": 16933,
    "ondon": 2706,
    "enemy": 15524,
    "Ġunreasoning": 15842,
    "Ġsw": 1356,
    "itaries": 21334,
    "uvier": 9067,
    "Ġpatience": 2794,
    "Ġhatred": 8608,
    "Ġamerica": 6763,
    "riptions": 14793,
    "Ġthousand": 2781,
    "solic": 16377,
    "ß": 160,
    "Ġshadowed": 24042,
    "Ġfancied": 7326,
    "Ġeel": 18001,
    "Ġassert": 7120,
    "successful": 11357,
    "Ġconjured": 25099,
    "Ġunreason": 15839,
    "Ġsequel": 14355,
    "Ġirreduc": 5491,
    "rible": 3226,
    "Ġmarine": 23033,
    "Ġcaterpillar": 5864,
    "Ġsheeted": 19830,
    "Ġwears": 10239,
    "Ġflint": 23009,
    "reception": 15512,
    "supposed": 13313,
    "Ġdefend": 9338,
    "Ġtorrent": 17091,
    "Ġchosen": 7201,
    "Ġodor": 12146,
    "Ġinflicted": 11364,
    "Ġgoose": 5938,
    "Ġsweeter": 23915,
    "Ġmagnitude": 1943,
    "Ġglad": 3325,
    "Ġsummoning": 23871,
    "Ġstammered": 26199,
    "Ġnarrowed": 24354,
    "was": 1421,
    "Ġcadiz": 17323,
    "Ġguineas": 16267,
    "Ġconsistent": 14527,
    "tears": 11036,
    "Ġcity": 4530,
    "Ġcountrymen": 23594,
    "Ġdecks": 6900,
    "Ġexposed": 8522,
    "grate": 23410,
    "ppered": 15787,
    "Ġju": 10285,
    "Ġindoors": 18836,
    "gaze": 17556,
    "wail": 21124,
    "Ġplanks": 5563,
    "Ġevaporate": 26332,
    "arb": 1564,
    "Ġmajestic": 8639,
    "Ġscotland": 6639,
    "Ġtunnels": 24621,
    "Ġlobes": 22113,
    "Ġfrontispiece": 23911,
    "Ġinj": 4760,
    "Ġventured": 7501,
    "Ġanalyze": 1741,
    "Ġstave": 11649,
    "Ġattentions": 5878,
    "Ġtranquo": 14841,
    "Ġprevailed": 7778,
    "ught": 2752,
    "nor": 2743,
    "Ġacute": 16120,
    "oat": 13762,
    "Ġoverlapping": 26238,
    "rushing": 10016,
    "Ġgrapes": 15213,
    "reeling": 21243,
    "Ġlaborious": 13101,
    "gen": 6503,
    "Ġobservable": 25126,
    "copper": 19187,
    "Ġsquared": 1382,
    "virt": 15449,
    "brilliancy": 26077,
    "eringly": 23003,
    "Ġserious": 4323,
    "Ġesteem": 7531,
    "commence": 19990,
    "Ġimpious": 15984,
    "Ġabsorbing": 17127,
    "fine": 10089,
    "ary": 986,
    "islanders": 25442,
    "affrail": 11204,
    "Ġdivided": 8631,
    "Ġticklish": 25034,
    "Ġstrives": 23694,
    "blows": 17164,
    "happened": 9431,
    "informed": 17735,
    "Ġastir": 14639,
    "Ġwomanly": 23550,
    "Ġwollstonecraft": 26424,
    "comput": 1953,
    "Ġ121": 24465,
    "Ġbingley": 1673,
    "Ġtinted": 13820,
    "ship": 1392,
    "ihood": 20921,
    "Ġdaughters": 4421,
    "redible": 15801,
    "Ġfrighten": 13276,
    "Ġsurrender": 16448,
    "brimmed": 14587,
    "Ġpea": 14315,
    "Ġjug": 12831,
    "Ġchiselled": 25559,
    "Ġtufted": 17013,
    "Ġhomage": 12352,
    "Ġattorney": 18626,
    "signed": 21060,
    "Ġserene": 8167,
    "Ġsentin": 16369,
    "ques": 2842,
    "Ġindist": 14407,
    "const": 5939,
    "Ġcarefully": 6304,
    "Ġcapric": 14575,
    "Ġstaying": 8284,
    "march": 13753,
    "erm": 786,
    "Ġquestioned": 14618,
    "Ġlothario": 26184,
    "occur": 19574,
    "Ġprice": 10402,
    "ouncement": 11742,
    "Ġforbidding": 17078,
    "heartedness": 24827,
    "Ġbag": 5699,
    "Ġstra": 2989,
    "Ġgunwale": 7325,
    "Ġdeceived": 6544,
    "ures": 838,
    "Ġintroduction": 8969,
    "Ġinevitable": 15165,
    "enjoyment": 17256,
    "brink": 23575,
    "Ġdair": 17889,
    "Ġinfatuation": 25857,
    "Ġchain": 1844,
    "rison": 13777,
    "ructed": 7027,
    "Ġgoverned": 23570,
    "Ġstandard": 14495,
    "Ġdiscrimination": 23604,
    "Ġexpression": 4515,
    "Ġcostume": 16494,
    "Ġcode": 1722,
    "Ġing": 5283,
    "forgotten": 12413,
    "Ġseptember": 18207,
    "Ġpacing": 8426,
    "Ġpursu": 3237,
    "Ġtwig": 11847,
    "Ġoccasion": 3244,
    "pulling": 25146,
    "Ġthieves": 15632,
    "Ġvaliant": 9798,
    "Ġdeft": 21833,
    "Ġwantonly": 22891,
    "Ġpractice": 2727,
    "Ġfitly": 23996,
    "umns": 14146,
    "Ġfolios": 23020,
    "¤": 102,
    "Ġimbedded": 18332,
    "co": 2434,
    "Ġproportionate": 17042,
    "united": 14058,
    "nosed": 20991,
    "agitation": 14066,
    "blocks": 25517,
    "Ġsurpassed": 25267,
    "Ġbitterness": 8025,
    "Ġhours": 2820,
    "Ġsi": 21211,
    "corn": 13697,
    "Ġtil": 12520,
    "Ġuntouched": 16464,
    "inger": 6812,
    "Ġintu": 12759,
    "hearty": 14832,
    "gates": 20871,
    "Ġsubstance": 5510,
    "Ġoaken": 13863,
    "den": 938,
    "actor": 11835,
    "ent": 305,
    "Ġbumps": 21390,
    "Ġwanting": 6721,
    "Ġunnatural": 7190,
    "Ġexcl": 3474,
    "Ġstriving": 8995,
    "egyptians": 25898,
    "Ġintimacy": 8700,
    "delight": 5344,
    "Ġcritical": 7475,
    "Ġassumptions": 5517,
    "Ġderick": 9363,
    "Ġdismasted": 15249,
    "dawson": 26128,
    "Ġears": 4489,
    "Ġmarines": 16258,
    "Ġcreature": 2386,
    "doubt": 6782,
    "Ġwhar": 7388,
    "://": 11464,
    "oir": 21001,
    "Ġdreams": 7496,
    "Ġaromatic": 25925,
    "Ġbed": 2146,
    "Ġguise": 14430,
    "Ġmoreover": 6163,
    "Ġseap": 15814,
    "ue": 1178,
    "Ġcogent": 14271,
    "Ġravines": 25831,
    "artificial": 995,
    "Ġcramped": 23530,
    "Ġcoherent": 3261,
    "usage": 12829,
    "Ġrotation": 25474,
    "stad": 7597,
    "n": 82,
    "soled": 14330,
    "Ġintended": 5547,
    "Ġelement": 6898,
    "¼": 125,
    "Ġindignant": 12236,
    "Ġsecretary": 19440,
    "ras": 21035,
    "Ġherself": 1567,
    "Ġspasmodic": 20396,
    "Ġargemone": 24273,
    "Ġdeduce": 8337,
    "proportion": 16177,
    "Ġeucl": 24709,
    "unders": 13308,
    "perfectly": 9084,
    "fortunate": 4792,
    "ness": 852,
    "Ġinterpret": 5490,
    "Ġalleged": 17289,
    "Ġhob": 12625,
    "Ġlearned": 2026,
    "Ġahead": 6662,
    "Ġexcluded": 16382,
    "Ġcomplying": 18584,
    "Ġheav": 1851,
    "ivided": 22079,
    "killing": 20941,
    "overlooked": 23324,
    "Ġoath": 7834,
    "neying": 22447,
    "chased": 18041,
    "Ġsummers": 23870,
    "quietly": 10591,
    "Ġheal": 21679,
    "Ġsphere": 15879,
    "Ġer": 8105,
    "tumult": 12420,
    "Ġdisenc": 22524,
    "Ġdefray": 22939,
    "Ġboister": 12916,
    "itions": 4147,
    "exposure": 19256,
    "Ġshocking": 10434,
    "Ġinhabited": 12182,
    "ived": 1535,
    "stories": 18023,
    "Ġpalaces": 24088,
    "Ġskrimshander": 22798,
    "Ġabsurdly": 19958,
    "strugg": 21660,
    "Ġpier": 7162,
    "Ġhovering": 10177,
    "lydon": 13987,
    "previous": 9759,
    "Ġbarred": 9001,
    "Ġhandsomer": 20332,
    "encouragement": 17421,
    "paddington": 20476,
    "Ġdiscerned": 24956,
    "Ġsat": 1130,
    "Ġintroducing": 11972,
    "Ġgrieve": 14705,
    "forget": 11031,
    "Ġmillar": 13859,
    "Ġlogical": 14485,
    "Ġprecious": 5760,
    "thread": 15823,
    "Ġenjoys": 19448,
    "Ġadult": 18291,
    "sigma": 3000,
    "Ġimport": 1053,
    "Ġfanc": 6743,
    "Ġcross": 1370,
    "longbourn": 9894,
    "orus": 10800,
    "convolutional": 4958,
    "patched": 17642,
    "steep": 19417,
    "stay": 9679,
    "Ġpresum": 4837,
    "Ġweedy": 15788,
    "Ġleviathans": 8282,
    "iality": 8842,
    "Ġhazarded": 25654,
    "urean": 18122,
    "Ġindignation": 8347,
    "uncle": 8159,
    "sp": 893,
    "Ġacquiescence": 20329,
    "Ġinspirited": 23419,
    "Ġlowerings": 23648,
    "====": 1481,
    "Ġhangs": 11604,
    "Ġswitching": 23056,
    "Ġforeman": 23448,
    "matical": 13126,
    "Ġmant": 9646,
    "suited": 22632,
    "appin": 18758,
    "ist": 450,
    "delighted": 10561,
    "Ġdiscovers": 4427,
    "iage": 17572,
    "Ġnupt": 13941,
    "Ġarsacidean": 20363,
    "Ġcaptive": 14425,
    "commission": 22810,
    "horrible": 14599,
    "din": 8374,
    "oped": 6047,
    "Ġsuperstition": 15055,
    "Ġdisappearing": 22531,
    "Ġunluckily": 20100,
    "purp": 8091,
    "having": 5211,
    "Ġmoot": 22428,
    "Ġclean": 5652,
    "overing": 6306,
    "Ġsailing": 5323,
    "Ġharm": 5017,
    "fort": 1752,
    "Ġmarbank": 23037,
    "separately": 25227,
    "Ġexactness": 23603,
    "evening": 7089,
    "Ġanonymous": 26178,
    "Ġrefrain": 12944,
    "Ġstirring": 10578,
    "Ġseren": 7401,
    "progra": 9393,
    "Ġorange": 8486,
    "susceptible": 24661,
    "Ġapothe": 12372,
    "atha": 6572,
    "Ġsinful": 18949,
    "dw": 3332,
    "evil": 11484,
    "Ġamaz": 5385,
    "Ġcontinuous": 1562,
    "deduction": 23556,
    "Ġtoilet": 13935,
    "Ġemerg": 13422,
    "Ġgovernesses": 25127,
    "Ġglimpse": 6944,
    "gentle": 5356,
    "Ġtrees": 4202,
    "Ġblasp": 14399,
    "Ġbordeaux": 24563,
    "prisoner": 20542,
    "whip": 22235,
    "Ġlodge": 5779,
    "Ġgrappling": 25812,
    "Ġuncouth": 14549,
    "Ġrescue": 13340,
    "Ġalternately": 15030,
    "covering": 15332,
    "Ġsympat": 13338,
    "Ġhellish": 10549,
    "Ġconstantly": 11969,
    "Ġrecurring": 23231,
    "sue": 2078,
    "Ġlongbourn": 3507,
    "idence": 4303,
    "Ġflap": 14420,
    "Ġopenshaw": 7955,
    "elfth": 22367,
    "zza": 24166,
    "expectant": 24274,
    "Ġscott": 22279,
    "att": 1458,
    "Ġhill": 5626,
    "Ġoverthrow": 18432,
    "Ġbrief": 6976,
    "Ġdespair": 4010,
    "Ġdella": 21438,
    "Ġfeeling": 3083,
    "Ġasking": 5651,
    "onged": 18410,
    "write": 14646,
    "Ġwrist": 8243,
    "attempt": 9359,
    "Ġinfinitely": 8962,
    "Ġcorp": 5574,
    "Ġgipsies": 12405,
    "Ġcautiousness": 19865,
    "Ġpossibility": 7458,
    "Ġparameters": 992,
    "Ġreturning": 5325,
    "Ġentity": 10341,
    "Ġstow": 21728,
    "Ġsqualls": 17019,
    "Ġlouisiana": 25076,
    "Ġprevail": 13440,
    "arent": 4250,
    "Ġadopt": 10630,
    "desire": 14472,
    "girls": 12316,
    "tumultuous": 20397,
    "Ġunfaltering": 24110,
    "Ġclinch": 18424,
    "myst": 9820,
    "Ġemblem": 20496,
    "Ġloitering": 22114,
    "Ġglare": 13013,
    "Ġabusing": 18393,
    "Ġenergetic": 15195,
    "Ġpig": 5705,
    "Ġhypothe": 4073,
    "Ġopium": 8993,
    "Ġtoy": 15630,
    "Ġxlvi": 25590,
    "Ġmail": 17800,
    "Ġbites": 23741,
    "Ġalpha": 13586,
    "Ġeddies": 23438,
    "Ġreynolds": 10208,
    "erated": 21270,
    "Ġlieutenant": 15259,
    "Ġrally": 21966,
    "Ġeasiness": 23536,
    "Ġostentatiously": 20467,
    "Ġgar": 10837,
    "Ġpendulous": 25955,
    "ilib": 4115,
    "england": 18928,
    "Ġinsulted": 14990,
    "Ġxxii": 24477,
    "Ġapprehens": 5682,
    "Ġomitted": 12560,
    "Ġwhirl": 13447,
    "Ġpikes": 21476,
    "rogress": 21534,
    "arpaul": 14535,
    "Ġsmote": 18574,
    "Ġrain": 5005,
    "Ġragged": 11843,
    "Ġarray": 12805,
    "romang": 22003,
    "Ġundulates": 24116,
    "Ġplunged": 8692,
    "Ġanxious": 4518,
    "Ġmagnitudes": 3820,
    "Ġxv": 23405,
    "Ġxlix": 25860,
    "ectual": 21911,
    "Ġunlock": 18240,
    "Ġdoubted": 7965,
    "waistcoat": 17359,
    "Ġstroll": 13350,
    "Ġcheers": 16363,
    "Ġwhirling": 12245,
    "ural": 504,
    "Ġwallow": 19464,
    "Ġcivility": 4788,
    "Ġundressed": 19512,
    "Ġpince": 21469,
    "Ġha": 400,
    "Ġintentionally": 24522,
    "Ġpreternatural": 12819,
    "ordingly": 18518,
    "waters": 11332,
    "Ġsubmission": 22788,
    "Ġascent": 19617,
    "Ġfault": 5702,
    "tut": 15432,
    "Ġmoving": 1675,
    "Ġceleb": 20224,
    "Ġgrinned": 16856,
    "hereabouts": 23605,
    "¦": 104,
    "Ġvortex": 26208,
    "Ġdrawer": 13264,
    "Ġoverflow": 10291,
    "Ġindependence": 12101,
    "recur": 4436,
    "Ġdressed": 5081,
    "riv": 3109,
    "Ġchink": 15929,
    "Ġtrained": 8502,
    "Ġimpact": 10295,
    "diff": 9112,
    "Ġupbraided": 26527,
    "Ġcommonplace": 11095,
    "Ġportly": 14677,
    "Ġrosy": 18456,
    "Ġvote": 21945,
    "Ġpeeling": 22690,
    "Ġzodiac": 16172,
    "Ġwashed": 15761,
    "Ġinhabitant": 19754,
    "Ġargosy": 24272,
    "Ġgain": 4827,
    "Ġnewfoundland": 26568,
    "3": 23,
    "Ġanalytical": 22929,
    "sub": 4659,
    "N": 50,
    "home": 7341,
    "Ġsingular": 4423,
    "Ġconsiderable": 4007,
    "mselves": 2863,
    "uts": 8814,
    "Ġabandon": 12254,
    ").": 1273,
    "Ġlaughed": 5059,
    "het": 5435,
    "Ġyawned": 15050,
    "Ġherbage": 25996,
    "Ġpallet": 21479,
    "mysteries": 26050,
    "Ġcakes": 13882,
    "ented": 4349,
    "confidential": 25876,
    "Ġburst": 4380,
    "Ġdinnertime": 16718,
    "Ġswarming": 16268,
    "Ġmazes": 25940,
    "Ġcondition": 6764,
    "Ġawkwardness": 13485,
    "mock": 5174,
    "kee": 18273,
    "Ġreap": 18026,
    "aths": 22697,
    "Ġclank": 15961,
    "Ġshrubbery": 18232,
    "Ġfixedly": 19246,
    "user": 5105,
    "unting": 21872,
    "glad": 9006,
    "Ġlaughing": 5338,
    "traversed": 19638,
    "Ġtinkling": 25212,
    "Ġmabel": 17322,
    "carte": 25400,
    "Ġderbyshire": 6586,
    "Ġenglishmen": 19428,
    "mont": 19168,
    "ject": 875,
    "Ġpublicly": 13320,
    "rell": 11562,
    "travellers": 24317,
    "Ġmuttering": 10498,
    "forth": 9320,
    "Ġasi": 12728,
    "pon": 17624,
    "idents": 6150,
    "Ġundu": 15834,
    "Ġunch": 18236,
    "care": 4928,
    "Ġexper": 1302,
    "disappointed": 25191,
    "ifix": 21901,
    "Ġblessing": 11262,
    "Ġdim": 4757,
    "rob": 5533,
    "Ġscattered": 6856,
    "dough": 15333,
    "olog": 1090,
    "Ġindignity": 18833,
    "Ġda": 5150,
    "Ġtusk": 25425,
    "Ġperemptory": 25740,
    "Ġbracelets": 25502,
    "somers": 19366,
    "Ġshol": 21993,
    "eous": 13710,
    "ceased": 21624,
    "objects": 13468,
    "T": 56,
    "pshaw": 21027,
    "sailors": 9920,
    "Ġpointed": 4773,
    "Ġsple": 21214,
    "Ġclearer": 16311,
    "tent": 21063,
    "Ġenrolled": 21935,
    "Ġowes": 20083,
    "creat": 20799,
    "Ġabide": 14186,
    "Ġinsights": 13177,
    "Ġcompassionate": 24723,
    "interested": 9504,
    "labours": 16616,
    "nne": 20988,
    "Ġvanity": 7045,
    "Ġstormy": 16727,
    "ioning": 21507,
    "Ġcondescending": 24868,
    "Ġreflect": 6575,
    "Ġdeposit": 17267,
    "Ġcanes": 22162,
    "raised": 15675,
    "careful": 14864,
    "Ġhideous": 5983,
    "hered": 5622,
    "Ġtraversed": 18892,
    "guarded": 13292,
    "Ġpinched": 17034,
    "itic": 11576,
    "Ġconvincing": 19306,
    "Ġoffended": 7040,
    "smallest": 23909,
    "Ġmainland": 22654,
    "asol": 21538,
    "Ġdigging": 14936,
    "Ġunreliable": 3928,
    "Ġincred": 5646,
    "exper": 8877,
    "Ġremarkable": 4915,
    "Ġxli": 14542,
    "entitled": 21566,
    "ains": 5094,
    "accessory": 25499,
    "Ġadduced": 26523,
    "Ġbund": 17863,
    "Ġthrone": 12210,
    "scotland": 20527,
    "conclusive": 25673,
    "Ġrefuge": 8542,
    "affectionate": 24921,
    "Ġrachel": 11844,
    "Ġposture": 24163,
    "Ġfacing": 10170,
    "romed": 10904,
    "stream": 15683,
    "Ġrasc": 21972,
    "Ġberyl": 20488,
    ",âĢĻ": 2331,
    "rods": 21536,
    "itation": 1783,
    "exception": 9974,
    "comrade": 20623,
    "Ġpurest": 14937,
    "Ġingolstadt": 8333,
    "Ġscarlet": 13220,
    "Ġ73": 24259,
    "sequent": 6831,
    "frightened": 17194,
    "Ġtreble": 16502,
    "Ġrewarding": 13435,
    "prehensible": 12357,
    "Ġevangelical": 25506,
    "Ġsoup": 7067,
    "irts": 9236,
    "favouring": 24762,
    "urpation": 16299,
    "Ġgentlemen": 3641,
    "awn": 3833,
    "bots": 10081,
    "cords": 25136,
    "ource": 5243,
    "Ġunsounded": 15846,
    "Ġgulf": 10634,
    "Ġfemin": 13434,
    "transform": 8050,
    "Ġjeer": 24121,
    "started": 10844,
    "Ġerred": 21155,
    "Ġcosmopolitan": 20640,
    "Ġclicked": 22350,
    "gloom": 17138,
    "Ġundoubtedly": 8313,
    "plicable": 10254,
    "Ġeverybody": 4509,
    "Ġdreamed": 16628,
    "Ġcheerful": 6621,
    "Ġspiced": 22131,
    "Ġspoil": 17006,
    "Ġselfishness": 12286,
    "Ġyellowish": 24429,
    "Ġinexpressible": 17331,
    "accents": 19210,
    "Ġlarger": 1402,
    "Ġspermacetti": 19051,
    "Ġjo": 2610,
    "enged": 23145,
    "mira": 20978,
    "Ġencaps": 12958,
    "Ġnaturally": 2467,
    "mmar": 953,
    "Ġcounterpart": 24721,
    "ways": 1442,
    "Ġinfamy": 14501,
    "Ġnewcom": 16219,
    "Ġhousehold": 8567,
    "Ġdisquis": 22525,
    "Ġarmchair": 8271,
    "short": 6566,
    "Ġmetropol": 11139,
    "fac": 17540,
    "halloa": 17089,
    "Ġcravat": 26307,
    "ordinate": 12872,
    "rable": 11630,
    "vessels": 10624,
    "elijah": 19471,
    "ty": 1001,
    "ableness": 8149,
    "Ġfluid": 11211,
    "Ġencourages": 2062,
    "ouncing": 8494,
    "Ġbumping": 25280,
    "Ġflor": 8561,
    "keen": 12778,
    "Ġpull": 5152,
    "notice": 16144,
    "hum": 3777,
    "Ġinsince": 23678,
    "inion": 2876,
    "Ġspaulding": 11728,
    "irious": 15782,
    "00": 1609,
    "Ġeat": 4643,
    "Ġhyperborean": 26339,
    "ogrand": 26261,
    "chet": 13215,
    "Ġmoustache": 20482,
    "ger": 1106,
    "Ġtand": 21159,
    "Ġscaramouch": 23824,
    "Ġcet": 6669,
    "Ġmarching": 16698,
    "oms": 4593,
    "Ġresiding": 16058,
    "Ġirregularly": 25323,
    "hurry": 24763,
    "Ġher": 427,
    "Ġcatches": 23425,
    "Ġdisconsolate": 20718,
    "alous": 7372,
    "Ġjerked": 19831,
    "Ġmothers": 14539,
    "ne": 646,
    "Ġsmaller": 1884,
    "Ġfaced": 10807,
    "usion": 3300,
    "strained": 21656,
    "miraculous": 26395,
    "turns": 14904,
    "Ġvexations": 24610,
    "beds": 16585,
    "Ġdivide": 12107,
    "agonies": 21907,
    "ounders": 22391,
    "Ġdrive": 5055,
    "Ġfit": 3682,
    "Ġbuild": 6474,
    "Ġchannel": 26012,
    "Ġbalance": 2023,
    "Ġscal": 1495,
    "Ġlaws": 8003,
    "Ġlistening": 6318,
    "Ġmemory": 2276,
    ";--": 8069,
    "ugues": 19023,
    "vent": 683,
    "visit": 7755,
    "Ġnature": 2540,
    "Ġloops": 8851,
    "Ġdoom": 6417,
    "intern": 23734,
    "Ġstrain": 6024,
    "Ġdaint": 15589,
    "Ġobli": 9314,
    "heidelburgh": 21210,
    "unned": 21876,
    "berish": 22716,
    "Ġblind": 3714,
    "Ġwhitish": 24866,
    "Ġprophet": 7681,
    "ements": 11107,
    "houses": 9598,
    "Ġpangs": 15611,
    "ur": 326,
    "Ġability": 2764,
    "lie": 12479,
    "button": 10964,
    "Ġaccordingly": 6619,
    "Ġcoincid": 20316,
    "Ġclearness": 23181,
    "Ġheaviest": 23325,
    "fate": 17538,
    "moonlight": 25375,
    "seemingly": 25362,
    "genteel": 19947,
    "Ġstood": 2553,
    "Ġatonement": 21940,
    "Ġtranquillity": 7536,
    "Ġmeanings": 18608,
    "Ġgeometric": 3217,
    "Ġwee": 21916,
    "Ġbusily": 9383,
    "Ġwestward": 24388,
    "numbers": 17615,
    "chari": 21687,
    "neck": 14233,
    "Ġextreme": 2518,
    "according": 12024,
    "Ġhated": 7584,
    "fer": 1949,
    "Ġprobable": 5569,
    "Ġguards": 16265,
    "equally": 19898,
    "sheet": 16280,
    "Ġcontemplate": 19891,
    "oot": 13763,
    "Ġmembrane": 20502,
    "Ġsuggestions": 24452,
    "âĢĶâĢĻ": 8188,
    "inite": 6002,
    "Ġnasty": 17441,
    "Ġrepenting": 25322,
    "Ġmute": 19414,
    "Ġunite": 9252,
    "Ġcombinations": 22842,
    "Ġrecommended": 8667,
    "Ġrhine": 12353,
    "Ġrecently": 11859,
    "chosen": 21693,
    "Ġpulled": 5660,
    "altering": 12636,
    "Ġstopping": 2751,
    "ositories": 22262,
    "\":": 9580,
    "Ġcondem": 6338,
    "Ġcos": 2207,
    "Ġconcrete": 20635,
    "various": 10396,
    "Ġhiss": 15784,
    "merchant": 10466,
    "sound": 6799,
    "Ġfelt": 1745,
    "Ġwat": 1287,
    "Ġunfair": 19506,
    "inting": 9812,
    "spot": 9786,
    "Ġconducting": 16648,
    "impressions": 20697,
    "crimin": 17507,
    "Ġlounged": 19952,
    "whims": 22237,
    "Ġinterpre": 1589,
    "forbid": 14350,
    "Ġyelling": 18096,
    "Ġdirectors": 18921,
    "itics": 13870,
    "Ġtransaction": 22437,
    "Ġcommanders": 23865,
    "circumstance": 7764,
    "lic": 17586,
    "Ġterror": 5124,
    "blades": 24129,
    "Ġnetworks": 596,
    "acey": 7649,
    "Ġdiverse": 19208,
    "Ġpanelled": 19653,
    "Ġundeceive": 25552,
    "cles": 8725,
    "Ġstruggle": 3673,
    "Ġnarratives": 24352,
    "Ġgoblet": 25823,
    "'s": 2471,
    "ognit": 19206,
    "thrust": 10260,
    "rent": 1171,
    "steelkilt": 10045,
    "anelles": 26433,
    "Ġchip": 12821,
    "rer": 3620,
    "Ġseason": 5237,
    "Ġwoodlands": 23521,
    "Ġsoaring": 22084,
    "greg": 6647,
    "bolts": 11419,
    "Ġashore": 5351,
    "Ġbul": 3293,
    "Ġoutputs": 2887,
    "Ġforbade": 15212,
    "Ġreve": 2932,
    "Ġlinguistic": 12422,
    "angered": 16175,
    "Ġwalls": 6762,
    "Ġlongitude": 11010,
    "mon": 2313,
    "diver": 20830,
    "preserve": 25303,
    "Ġheat": 5453,
    "Ġliving": 3061,
    "Ġcharing": 14179,
    "fill": 15348,
    "yl": 7819,
    "Ġdistillation": 16042,
    "Ġgardener": 19134,
    "Ġrocks": 6863,
    "Ġrecord": 5316,
    "Ġclothed": 19605,
    "Ġinvited": 6903,
    "Ġderives": 16307,
    "Ġspices": 22128,
    "regularization": 3513,
    "Ġdeed": 7869,
    "avery": 13681,
    "Ġoun": 13861,
    "Ġdeserving": 14751,
    "aching": 5831,
    "Ġmouths": 7491,
    "Ġwil": 4580,
    "heat": 15495,
    "intention": 10366,
    "autions": 20766,
    "Ġovercome": 6044,
    "Ġwhiteness": 5919,
    "sized": 15426,
    "leviathans": 19936,
    "Ġiter": 2951,
    "h": 76,
    "Ġpuzzle": 11304,
    "Ġseas": 3077,
    "Ġlinked": 15075,
    "Ġplowdon": 26446,
    "Ġbab": 5289,
    "Ġenjoined": 18191,
    "Ġanonym": 17897,
    "mitted": 5213,
    "eur": 7545,
    "Ġutilize": 4798,
    "Ġhourly": 23300,
    "stones": 11634,
    "Ġinflexibly": 26370,
    "Ġhasten": 10477,
    "Ġarrowy": 25469,
    "Ġflew": 5587,
    "Ġdisappointed": 7097,
    "Ġrecollecting": 17112,
    "Ġweeds": 21921,
    "Ġsincer": 13062,
    "urring": 21703,
    "ğ": 224,
    "Ġnantucketer": 6914,
    "Ġices": 21153,
    "Ġcollect": 7237,
    "Ġperpetually": 17069,
    "sou": 12502,
    "Ġtension": 13822,
    "Ġstaple": 26198,
    "Ġparagra": 15876,
    "Ġportents": 14678,
    "nights": 16447,
    "hole": 5585,
    "Ġsneezes": 24698,
    "Ġwaggish": 25434,
    "[_": 5131,
    "Ġtormented": 8674,
    "Ġindistinct": 17406,
    "Ġweek": 2827,
    "Ġhate": 5445,
    "Ġdecl": 3587,
    "Ġunexplored": 26517,
    "mccarthy": 15393,
    "Ġarticles": 7108,
    "Ġdeeply": 4716,
    "hypothe": 25905,
    "Ġpunish": 12156,
    "Ġdetestable": 15096,
    "Ġpulpit": 7470,
    "Ġdefinition": 14402,
    "Ġexpanse": 14290,
    "Ġbreckinridge": 14522,
    "formity": 10277,
    "Ġreigning": 15697,
    "hack": 20895,
    "Ġramad": 8527,
    "vul": 15446,
    "Ġlighter": 12649,
    "Ġwealthy": 18178,
    "adays": 14011,
    "Ġshown": 5159,
    "Ġslop": 23160,
    "Ġswash": 23054,
    "proportions": 22832,
    "plan": 15811,
    "Ġperplex": 2716,
    "Ġsloop": 25930,
    "Ġpivot": 13921,
    "Ġcategor": 4139,
    "Ġfoliage": 18866,
    "Ġthreads": 13115,
    "Ġprair": 7747,
    "Ġ1828": 25720,
    "Ġprove": 5231,
    "Ġscientific": 6857,
    "Ġ108": 19683,
    "Ġ(_": 3735,
    "Ġresource": 10992,
    "somewhere": 12009,
    "itiousness": 21332,
    "Ġbedroom": 7277,
    "mistak": 16877,
    "lled": 10106,
    "Ġopposition": 16520,
    "Ġamph": 18510,
    "Ġappeared": 2775,
    "´": 117,
    "Ġtool": 21509,
    "Ġrelating": 2705,
    "Ġstared": 8454,
    "Ġexceeded": 14431,
    "gue": 12464,
    "verd": 21725,
    "Ġcongeal": 25980,
    "Ġlastly": 16202,
    "Ġinterest": 2250,
    "yingly": 23113,
    "Ġcathedral": 17411,
    "histor": 13489,
    "Ġpel": 17902,
    "Ġpatches": 4237,
    "https": 11682,
    "000": 2562,
    "Ġtresses": 21174,
    "Ġtail": 3089,
    "Ġhell": 5019,
    "Ġchoosing": 19589,
    "bingley": 4927,
    "Ġperverseness": 13652,
    "onstr": 12542,
    "Ġmanif": 8869,
    "yd": 21141,
    "Ġmuslin": 19381,
    "anged": 3585,
    "saved": 15429,
    "Ġescaping": 13132,
    "omas": 12667,
    "Ġslaughtered": 26583,
    "Ġhover": 15616,
    "Ġlocks": 11721,
    "plied": 10253,
    "safety": 20348,
    "Ġbreathing": 9443,
    "whaler": 20308,
    "Ġskylight": 24070,
    "Ġskeleton": 5514,
    "Ġwaterward": 23366,
    "Ġstump": 7602,
    "Ġwrought": 11941,
    "Ġrubbing": 9319,
    "Ġind": 1221,
    "urning": 12912,
    "tired": 21071,
    "ego": 4035,
    "Ġvess": 3295,
    "solving": 3099,
    "hark": 15363,
    "Ĺ": 250,
    "Ġslid": 7952,
    "Ġcircumst": 2973,
    "Ġour": 1007,
    "print": 23808,
    "Ġwash": 9701,
    "Ġclasped": 17205,
    "threadbare": 25989,
    "_?âĢĿ": 15303,
    "Ġdescried": 7920,
    "atement": 17772,
    "Ġgladly": 14680,
    "Ġrearing": 12673,
    "Ġentreaty": 10528,
    "Ġfoes": 11948,
    "Ġusefulness": 19406,
    "Ġfighting": 12194,
    "Ġmind": 1617,
    "Ġfellows": 8257,
    "cim": 8719,
    "machine": 980,
    "Ġlanguage": 638,
    "Ġfri": 17878,
    "ii": 4014,
    "Ġfinding": 3264,
    "Ġglobu": 23270,
    "pretty": 10620,
    "Ġmermaid": 17813,
    "Ġdevoid": 18688,
    "alcul": 15624,
    "Ġabed": 22263,
    "Ġthimble": 15633,
    "drawers": 19384,
    "lop": 20947,
    "object": 6884,
    "Ġshorter": 4497,
    "Ġclapped": 9743,
    "Ġlances": 6984,
    "Ġdisapprobation": 16055,
    "Ġlic": 8436,
    "oon": 6364,
    "Ġfollowing": 4062,
    "Ġfailed": 6671,
    "Ġenumer": 12741,
    "Ġilluminating": 25245,
    "Ġidolator": 19996,
    "acceptable": 25184,
    "Ġbuttoning": 17234,
    "Ġaint": 17743,
    "Ġtowers": 16737,
    "Ġobed": 8535,
    "intelligent": 16843,
    "Ġwickedness": 9524,
    "penn": 18826,
    "Ġsplend": 9896,
    "hend": 13249,
    "Ġinfinite": 8576,
    "Ġpl": 744,
    "Ġtack": 5620,
    "Ġunspeakably": 25172,
    "Ġjam": 10950,
    "Ġever": 1179,
    "Ġsettlement": 19835,
    "Ġdauntless": 26336,
    "Ġcens": 8413,
    "Ġallusions": 10908,
    "standing": 5557,
    "opius": 18508,
    "Ġprows": 19888,
    "zas": 17711,
    "Ġdemeanour": 17335,
    "Ġcope": 17830,
    "Ġarchly": 22753,
    "pled": 7893,
    "Ġitem": 12697,
    "Ġtrick": 7020,
    "Ġhum": 1099,
    "plings": 11692,
    "Ġscowl": 22283,
    "Ġtongues": 14861,
    "spect": 3230,
    "field": 3071,
    "Ġlivery": 15997,
    "summit": 23415,
    "c": 71,
    "echo": 15346,
    "Ġmol": 12557,
    "assuming": 22307,
    "australian": 20560,
    "concern": 5875,
    "Ġmingling": 20196,
    "Ġtransformations": 3484,
    "perhaps": 4120,
    "Ġsingle": 1690,
    "Ġalb": 14014,
    "Ġbehoo": 19035,
    "ting": 1335,
    "Ġdu": 4584,
    "hog": 8380,
    "azing": 7705,
    "respect": 6374,
    "close": 9984,
    "Ġhumbug": 18779,
    "shut": 10980,
    "lacings": 26134,
    "Ġconcent": 8250,
    "Ġtints": 17726,
    "datasets": 11949,
    "icular": 2025,
    "Ġvenom": 24237,
    "Ġchar": 1704,
    "Ġaccomplishments": 13377,
    "conversations": 24749,
    "bow": 5424,
    "situ": 9620,
    "Ġstoven": 23173,
    "Ġfleece": 10613,
    "itable": 5437,
    "Ġtapering": 8770,
    "Ġsobs": 14133,
    "wonderful": 16959,
    "Ġconfusing": 23305,
    "counter": 20277,
    "Ġdid": 836,
    "Ġforbear": 17120,
    "rrh": 26144,
    "children": 9054,
    "Ġmass": 3779,
    "Ġglide": 22982,
    "outon": 12799,
    "Ġnovelty": 13461,
    "Ġclear": 1948,
    "Ġmuttered": 7086,
    "Ġlan": 5820,
    "Ġdeclare": 6614,
    "âĢĶ.âĢĿ": 22253,
    "Ġundivided": 24118,
    "Ġarrived": 3745,
    "cking": 4266,
    "Ġarchangel": 8540,
    "Ġdilated": 24704,
    "ulpt": 10884,
    "xes": 21139,
    "extensive": 18704,
    "lone": 11498,
    "accident": 11180,
    "securer": 25602,
    "jah": 17580,
    "Ġsubsets": 2348,
    "âĢĿ": 354,
    "Ġdevoted": 6573,
    "owl": 12679,
    "Ġdisadvantage": 12886,
    "Ġpiling": 17908,
    "ĠĠĠĠĠĠĠĠĠĠĠĠĠĠĠĠĠĠĠĠĠĠĠĠĠĠĠĠĠĠĠĠĠĠĠĠĠĠĠĠĠ": 19581,
    "Ġissue": 2315,
    "Ġunprecedented": 15851,
    "Ġcommonplaces": 16286,
    "Ġbreath": 4791,
    "Ġ128": 24472,
    "forever": 22517,
    "Ġchrysalis": 26537,
    "Ġrevisit": 21668,
    "Ġcured": 21345,
    "awakened": 14451,
    "Ġbleeding": 14878,
    "Ġjen": 9265,
    "Ġretire": 10380,
    "Ġprotracted": 19467,
    "Ġgermans": 25784,
    "Ġtrumpet": 9572,
    "breakfast": 8687,
    "cried": 8724,
    "Ġstamp": 7865,
    "teness": 23202,
    "Ġregal": 16074,
    "message": 17370,
    "X": 60,
    "endeavour": 17030,
    "Ġeigenvalues": 4998,
    "mortals": 25409,
    "Ġovertake": 15969,
    "Ġfactory": 23275,
    "Ġstepping": 9352,
    "Ġ43": 14768,
    "degrees": 22148,
    "dwelling": 20563,
    "Ġeyed": 12663,
    "acup": 14277,
    "join": 12110,
    "Ġimpenit": 22387,
    "Ġbeards": 21749,
    "Ġskilful": 25837,
    "Ġcountries": 13094,
    "wants": 21129,
    "Ġwarbling": 26168,
    "Ġslightly": 7293,
    "gast": 20870,
    "rints": 12499,
    "Ġreminisc": 18726,
    "courage": 17508,
    "brace": 16941,
    "Ġflannel": 26576,
    "Ġconfused": 7964,
    "Ġsort": 1506,
    "Ġringing": 13329,
    "iments": 4945,
    "Ġensue": 18190,
    "ĠĠĠĠĠĠĠĠĠĠĠĠĠĠĠĠĠ": 22947,
    "uteronomy": 15660,
    "Ġgout": 21594,
    "les": 1015,
    "Ġattain": 12743,
    "Ġfrankenstein": 7095,
    "Ġretired": 6071,
    "Ġperishing": 22395,
    "sledge": 21056,
    "rant": 11515,
    "Ġeternities": 19941,
    "Ġpersonal": 7479,
    "Ġimpetuous": 25570,
    "Ġlandsc": 11145,
    "Ġensued": 11393,
    "ĠâĢľâĢĶ": 9732,
    "Ġaff": 1117,
    "urities": 18049,
    "Ġdeaths": 14536,
    "rain": 462,
    "lengths": 24846,
    "icult": 3340,
    "Ġjournal": 15216,
    "Ġaband": 6561,
    "azine": 19130,
    "Ġshepherd": 14151,
    "ĕ": 214,
    "innacle": 7519,
    "part": 2574,
    "hroom": 12473,
    "ĠvertebrÃ¦": 11434,
    "temper": 10002,
    "Ġpredecess": 18517,
    "sorrows": 17318,
    "Ġstraighten": 24001,
    "nose": 17609,
    "rece": 21233,
    "meant": 7922,
    "functions": 11236,
    "Ġsought": 5010,
    "Ġmowers": 17812,
    "Ġexped": 7650,
    "iger": 8446,
    "circle": 16735,
    "Ġdelicacy": 6340,
    "Ġjinglers": 26018,
    "Ġstrangeness": 16706,
    "Ġletter": 2196,
    "vain": 15445,
    "Ġprofundities": 20452,
    "Ġbleeds": 24396,
    "Ġtougher": 21175,
    "Ġbutler": 18270,
    "Ġblank": 5951,
    "Ġcolt": 11042,
    "Ġscept": 15501,
    "ificent": 8184,
    "Ġafar": 14292,
    "term": 3758,
    "Ġcup": 5697,
    "Ġgloom": 4201,
    "Ġstrolled": 16769,
    "ades": 5631,
    "gigantic": 15357,
    "ope": 4123,
    "responsible": 25763,
    "beautiful": 10647,
    "inside": 23063,
    "ittance": 12841,
    "ertion": 12036,
    "Ġspires": 11727,
    "Ġlaid": 3940,
    "Ġassertions": 19945,
    "Ġsacrifice": 9554,
    "supper": 12915,
    "sence": 3305,
    "office": 16393,
    "Ġsteering": 10386,
    "Ġproverb": 12712,
    "Ġhot": 4258,
    "iliation": 10859,
    "prow": 15409,
    "Ġmates": 4872,
    "Ġpeninsula": 23194,
    "Ġblend": 14397,
    "Ġobserve": 4670,
    "disgust": 23496,
    "Ġinducement": 16842,
    "Ġgems": 9207,
    "Ġconcentric": 20073,
    "Ġmustering": 18662,
    "Ġsoothe": 7405,
    "brim": 23574,
    "cating": 20801,
    "Ġcontrad": 9753,
    "Ġeaster": 15671,
    "Ġrendered": 5773,
    "Ġespecially": 3935,
    "Ġmethods": 3159,
    "Ġsit": 4217,
    "Ġ15": 9322,
    "Ġmediterranean": 12312,
    "Ġtruest": 16702,
    "Ġtracing": 18889,
    "isite": 15559,
    "days": 7688,
    "Ġtipped": 17727,
    "Ġdistrust": 8205,
    "well": 1689,
    "desponding": 26341,
    "71": 20755,
    "Ġamendment": 26024,
    "Ġglistening": 12362,
    "Ġmissing": 6175,
    "Ġwalk": 1826,
    "eryton": 4092,
    "dar": 20823,
    "narrowly": 20346,
    "Ġreasoned": 23049,
    "Ġexploding": 2110,
    "Ġvener": 8164,
    "Ġquee": 1982,
    "ulates": 14053,
    "shish": 11790,
    "knew": 9125,
    "Ġassures": 14463,
    "Ġerud": 20053,
    "ferent": 4194,
    "Ġburg": 23654,
    "Ġinvented": 17036,
    "Ġmatches": 14393,
    "ashtego": 4100,
    "Ġgrowth": 14628,
    "Ġexasperated": 11411,
    "Ġladder": 8598,
    "Ġintric": 9244,
    "Ġintelligently": 3970,
    "ember": 1957,
    "third": 8168,
    "Ġmelting": 24287,
    "Ġsatisfaction": 5667,
    "snatched": 24850,
    "ulum": 21861,
    "Ġdevotion": 22729,
    "Ġhalloa": 13314,
    "hever": 13829,
    "Ġunjustifiable": 25109,
    "impat": 11201,
    "drovand": 24760,
    "Ġcond": 3874,
    "pillar": 5618,
    "ivility": 12783,
    "sudden": 5315,
    "inent": 9627,
    "tha": 15820,
    "Ġstruggles": 16577,
    "Ġrubber": 22785,
    "Ġknife": 7309,
    "oforte": 14284,
    "glo": 8737,
    "pur": 7807,
    "Ġmac": 15535,
    "ĠĠĠĠĠĠĠĠ": 711,
    "Ġleaps": 14006,
    "consciousness": 13363,
    "Ġconsecut": 18111,
    "Ġbreast": 8967,
    "Ġabrupt": 9734,
    "Ġheeds": 24519,
    "Ġearthly": 7990,
    "Ġlabyrinth": 13677,
    "Ġmanxman": 9564,
    "Ġintricate": 15135,
    "intend": 16221,
    "Ġexertions": 13408,
    "Ġassured": 4372,
    "Ġunresting": 25553,
    "Ġtransferred": 16460,
    "Ġcassock": 20485,
    "being": 3913,
    "Ġ99": 10744,
    "Ġjing": 15946,
    "Ġgeneralize": 3100,
    "Ġchis": 11747,
    "races": 21628,
    "marching": 25752,
    "Ġinfl": 6893,
    "nearly": 8680,
    "Ġpet": 4586,
    "Ġdish": 6136,
    "ċ": 204,
    "Ġtint": 13815,
    "speak": 5504,
    "wretchedness": 17251,
    "Ġproperties": 3118,
    "Ġcelebrate": 26357,
    "Ġcumbrous": 26431,
    "Ġhospital": 15038,
    "Ġfl": 1280,
    "kward": 6958,
    "Ġmeet": 2804,
    "Ġinch": 7850,
    "figured": 20121,
    "smiles": 14691,
    "uiperai": 10662,
    "shorn": 22455,
    "Ġhumaneval": 25582,
    "Ġchairs": 12822,
    "Ġobsc": 7039,
    "Ġdisconcerted": 18562,
    "Ġcherish": 10588,
    "Ġpredefined": 20716,
    "Ġautumn": 14508,
    "representing": 25271,
    "Ġdiscours": 18716,
    "Ġpowder": 11274,
    "accurately": 25861,
    "come": 2380,
    "Ġsepulch": 15282,
    "Ġpreacher": 18369,
    "whe": 1075,
    "rese": 15506,
    "Ġxl": 11986,
    "Ġlearns": 2643,
    "ational": 5716,
    "Ġindeed": 1678,
    "Ġknotted": 17018,
    "Ġnew": 1197,
    "much": 3704,
    "mechanically": 17298,
    "Ġinformed": 6717,
    "iasm": 8061,
    "Ġdiscove": 16150,
    "unearthly": 19272,
    "commencement": 26347,
    "Ġtiller": 8964,
    "forward": 2187,
    "Ď": 207,
    "ply": 6366,
    "inder": 9151,
    "Ġearning": 23938,
    "Ġavowal": 19413,
    "towns": 24854,
    "importance": 9987,
    "Ġinfamous": 16362,
    "Ġireland": 17333,
    "abeth": 905,
    "glue": 17555,
    "Ġnostrils": 10942,
    "Ġrecollected": 8311,
    "Ġruss": 18719,
    "Ġfeather": 8858,
    "boiling": 19000,
    "Ġabsent": 7014,
    "bones": 8372,
    "miserable": 8656,
    "didst": 19347,
    "beneath": 9533,
    "Ġnantucket": 2839,
    "olstadt": 7789,
    "Ġcondu": 18109,
    "ĉ": 202,
    "Ġsticking": 13425,
    "Ġdear": 1541,
    "Ġconsistence": 23355,
    "school": 10053,
    "removing": 17763,
    "critters": 14782,
    "Ġoarsmen": 7738,
    "prodigious": 17465,
    "arabian": 26445,
    "Ġ53": 19639,
    "ascal": 10191,
    "Ġhalyards": 21492,
    "Ġcontain": 1554,
    "Ġstraightway": 9015,
    "ĠĠĠĠĠ": 3525,
    "Ġtyphoons": 20233,
    "ette": 15655,
    "cet": 15323,
    "Ġaccuse": 14211,
    "®": 111,
    "gay": 11487,
    "Ġjonah": 3480,
    "Ġtennes": 23548,
    "nursery": 26398,
    "Ġshaped": 15831,
    "Ġdoorway": 14496,
    "sister": 5139,
    "Ġopposing": 12037,
    "farintosh": 24552,
    "Ġturban": 23612,
    "Ġcracked": 8594,
    "Ġnoteworthy": 24161,
    "Ġbegg": 16252,
    "Ġugl": 12678,
    "leton": 5148,
    "Ġfarmhouse": 24986,
    "tout": 21064,
    "Ġcentury": 8291,
    "Ġpersuade": 5872,
    "iled": 1767,
    "Ġferocity": 16870,
    "Ġmariners": 6068,
    "Ġemptied": 24346,
    "Ġhasn": 12923,
    "Ġmanip": 8870,
    "Ġinterrupting": 19556,
    "harpo": 4805,
    "zors": 21146,
    "Ġoverwhelm": 25052,
    "Ġloosed": 22110,
    "Ġontario": 26204,
    "Ġflowing": 14409,
    "without": 4846,
    "Ġgirth": 13133,
    "tern": 4224,
    "Ġchase": 3944,
    "Ġharvest": 13413,
    "Ġcontemptible": 16952,
    "Ġdiscount": 22776,
    "na": 13758,
    "Ġsatan": 14388,
    "Ġmanufact": 22326,
    "magnetic": 20551,
    "ĠarchÃ¦": 22754,
    "Ġconverse": 11841,
    "rets": 12537,
    "Ġprofessed": 14722,
    "Ġcorpulence": 24505,
    "Ġstiffly": 15004,
    "eyed": 11485,
    "Ġstreamed": 14546,
    "desk": 23204,
    "Ġvirginia": 13498,
    "oing": 15399,
    "Ġtimidly": 11337,
    "Ġwounded": 8657,
    "Ġfoundations": 11072,
    "immense": 18052,
    "cheeked": 19339,
    "Ġkeepers": 23538,
    "Ġobjection": 6585,
    "Ġrumors": 11320,
    "instruct": 19541,
    "Ġtub": 7146,
    "stern": 7862,
    "Ġtowards": 1729,
    "crier": 20819,
    "antingly": 22096,
    "murderers": 25728,
    "Ġtheatre": 21277,
    "Ġascend": 9958,
    "Ġapprised": 18362,
    "Ġadvise": 7936,
    "Ġlongitudes": 22634,
    "Ġmetallic": 19055,
    "Ġribbed": 16803,
    "Ġessential": 7523,
    "quer": 11677,
    "Ġleech": 24154,
    "Ġsmoking": 6429,
    "phren": 22782,
    "Ġmarshalled": 25315,
    "Ġstung": 21736,
    "Ġcandelabra": 26601,
    "Ġbennets": 9804,
    "Ġrealism": 18983,
    "Ġshowers": 16604,
    "Ġ70": 11275,
    "Ġcultivated": 17362,
    "Ġguitar": 16266,
    "Ġsubl": 7235,
    "meantime": 9090,
    "agery": 21905,
    "ade": 882,
    "resp": 13837,
    "Ġbored": 16103,
    "Ġhy": 5625,
    "ortunities": 15937,
    "ogy": 22705,
    "Ġimprec": 14217,
    "movable": 14322,
    "Ġundaunted": 24117,
    "Ġpoultry": 17439,
    "Ġdusting": 24597,
    "caroline": 24148,
    "Ġhelping": 3266,
    "trap": 24312,
    "Ġobliquely": 12359,
    "Ġpott": 21466,
    "lifeless": 24311,
    "Ġmarsh": 9819,
    "lake": 13747,
    "Ġmiracle": 15091,
    "uzzle": 19582,
    "Ġsiam": 13836,
    "Ġyoun": 1408,
    "Ġtinker": 15129,
    "Ġassisted": 11110,
    "hug": 17562,
    "Ġtiles": 17725,
    "prodig": 16424,
    "nered": 18490,
    "Ġchambermaid": 24303,
    "Ġunwarranted": 25171,
    "Ġlively": 5449,
    "Ġdescended": 7428,
    "utored": 15659,
    "Ġcommit": 18655,
    "atious": 10150,
    "loud": 11499,
    "Ġliver": 14226,
    "Ġcrevice": 22724,
    "dem": 10690,
    "Ġvengeful": 14888,
    "Ġdod": 6672,
    "confirmed": 19644,
    "Ġmultitudinous": 26273,
    "icious": 7380,
    "Ġconsummate": 25310,
    "Ġhapp": 1091,
    "Ġstarted": 4149,
    "ructure": 752,
    "smooth": 20247,
    "Ġinaudible": 21497,
    "affection": 7487,
    "Ġunmethodically": 22065,
    "Ġrainy": 24340,
    "Ġsignals": 10584,
    "Ġevol": 2814,
    "Ġdeprived": 8208,
    "Ġlocal": 1200,
    "themselves": 6540,
    "Ġparlour": 12318,
    "antucket": 2644,
    "imagine": 19930,
    "Ġarrant": 23297,
    "Ġthick": 3781,
    "lessness": 5317,
    "Ġresponsiveness": 2898,
    "Ġnoisier": 4624,
    "Ġchuck": 8501,
    "Ġantiquities": 25598,
    "as": 302,
    "Ġluckily": 16797,
    "Ġwebster": 20160,
    "Ġhour": 1812,
    "Ġmend": 8406,
    "nam": 2670,
    ",âĢĻâĢĶ": 23527,
    "Ġh": 290,
    "Ġforster": 5230,
    "Ġanytime": 12881,
    "Ġindirectly": 8938,
    "Ġgracechurch": 12195,
    "Ġand": 295,
    "houn": 20892,
    "Ġflit": 23006,
    "Ġsaloon": 24059,
    "letons": 14611,
    "elephant": 12348,
    "mindful": 19598,
    "ess": 410,
    "Ġascending": 14852,
    "Ġthis": 382,
    "Ġbrook": 13044,
    "Ġmention": 2984,
    "Ġsyntax": 960,
    "Ġbuoyancy": 20040,
    "sympathy": 20541,
    "lances": 15381,
    "whalemen": 10430,
    "Ġpropri": 6738,
    "Ġcalmed": 16264,
    "connection": 18867,
    "chair": 5917,
    "chronicle": 26479,
    "agra": 14064,
    "ient": 393,
    "eter": 11619,
    "Ġbushy": 16399,
    "subs": 14297,
    "horizon": 23614,
    "Ġclad": 12835,
    "Ġverd": 6919,
    "Ġbleached": 24395,
    "Ġwitty": 21291,
    "eries": 6808,
    "Ġscared": 14188,
    "Ġbranded": 14377,
    "Ġaunts": 21199,
    "Ġmachine": 801,
    "level": 2654,
    "Ġjoppa": 12033,
    "Ġpills": 21464,
    "Ġhansom": 13662,
    "Ġslang": 23157,
    "Ġmere": 2714,
    "Ġunlab": 3787,
    "Ġmaxim": 3084,
    "ancholy": 5070,
    "Ġgrecian": 26296,
    "Ġaffinity": 18785,
    "Ġseven": 4542,
    "ĠĠĠĠĠĠĠĠĠĠĠĠĠĠĠĠĠĠĠĠĠĠĠĠĠĠĠĠĠĠĠĠĠĠĠĠĠĠĠĠĠĠĠĠ": 12150,
    "Ġdive": 10171,
    "moored": 22702,
    "Ġforgotten": 5679,
    "Ġcurling": 9339,
    "Ġvagu": 13587,
    "Ġincorrect": 2731,
    "zek": 16284,
    "Ġentreat": 4508,
    "pumps": 21026,
    "Ġinflu": 4909,
    "Ġjest": 18403,
    "presum": 12864,
    "ansion": 10924,
    "Ġgold": 3277,
    "Ġbelf": 21379,
    "Ġanchor": 7368,
    "Ġelusive": 22644,
    "stout": 21643,
    "droppers": 24759,
    "Ġrightly": 13061,
    "Ġmist": 2877,
    "ceive": 3062,
    "Ġbecoming": 4397,
    "expectation": 14854,
    "Ġcigars": 12249,
    "Ġincalculable": 17459,
    "Ġdesolation": 12265,
    "oundered": 14163,
    "Ġattractions": 12914,
    "Ġphaeton": 17463,
    "Ġcamberwell": 25350,
    "duing": 22409,
    "Ġknelt": 12155,
    "ands": 21864,
    "aan": 20763,
    "precision": 4332,
    "Ġjustification": 22964,
    "Ġfidget": 15187,
    "Ġfork": 15728,
    "Ġnotice": 4543,
    "onym": 14648,
    "Ġlegible": 23533,
    "shop": 14236,
    "arrang": 14651,
    "gardiner": 12288,
    "angles": 18290,
    "Ġawhile": 13828,
    "Ġmethodology": 2469,
    "horrors": 20540,
    "Ġsubdued": 11029,
    "Ġsnugness": 20075,
    "Ġnotions": 14097,
    "Ġtopmost": 14586,
    "Ġsubsequently": 16157,
    "Ġgrievous": 13257,
    "dismay": 19152,
    "Ġtakings": 20571,
    "geese": 22365,
    "Ġboarded": 13231,
    "iated": 5890,
    "Ġslung": 23166,
    "Ġpropriet": 9548,
    "fifty": 12349,
    "Ġlomb": 21557,
    "younger": 11311,
    "Ġchased": 8860,
    "Ġappro": 661,
    "Ġsill": 10764,
    "Ġweld": 8112,
    "Ġlengths": 19204,
    "Ġspecimens": 18858,
    "Ġquiet": 3259,
    "izon": 18141,
    "Ġpresentiment": 18988,
    "================================================================": 9988,
    "Ġ54": 24321,
    "Ġcreativity": 2818,
    "Ġcomputing": 2220,
    "Ġloomed": 12298,
    "batt": 20777,
    "repeating": 20127,
    "Ġbelfry": 26437,
    "Ġnoble": 3441,
    "answered": 10272,
    "entrance": 12653,
    "comm": 7440,
    "urs": 6989,
    "Ġpaddled": 20200,
    "Ġjacket": 6489,
    "Ġschol": 17375,
    "Ġconstructed": 9385,
    "Ġwines": 21286,
    "Ġmortals": 9914,
    "Ġsupplement": 23002,
    "Ġconcluding": 9855,
    "gments": 12466,
    "Ġstole": 7953,
    "Ġnarwhale": 12290,
    "Ġcas": 8411,
    "Ġunpitying": 25660,
    "Ġphilosoph": 19650,
    "Ġbeing": 1163,
    "Ġhurst": 5581,
    "Ġinhaled": 25451,
    "Ġclever": 7054,
    "amb": 5723,
    "Ġjumbled": 22295,
    "Ġagitation": 6865,
    "bastian": 10672,
    "Ġindifference": 6725,
    "Ġforgiven": 24024,
    "Ġascended": 8665,
    "exagger": 22426,
    "Ġpoisonous": 24887,
    "Ġfetched": 24566,
    "^{": 15302,
    "elt": 4113,
    "Ġsolicitude": 10038,
    "Ġcore": 13876,
    "Ġstalked": 20427,
    "Ġverses": 17062,
    "sych": 9891,
    "Ġunforeseen": 22047,
    "lonely": 20956,
    "Ġgolden": 5336,
    "Ġanew": 11429,
    "Ġunderneath": 16335,
    "protested": 13472,
    "Ġginger": 9209,
    "Ġflirting": 16248,
    "Ġlangsdorff": 15274,
    "iece": 3227,
    "Ġpositions": 2058,
    "hee": 10759,
    "bling": 10077,
    "Ġpastures": 23418,
    "ama": 11676,
    "sales": 17666,
    "wrinkled": 16552,
    "Ġpromontory": 11938,
    "Ġrebounds": 25967,
    "Ġalter": 6542,
    "Ġjapan": 7639,
    "Ġdestruction": 6600,
    "rollable": 13943,
    "hearted": 6970,
    "Ġclasping": 20208,
    "gunw": 17219,
    "Ġhath": 12624,
    "itious": 8778,
    "Ğ": 223,
    "Ġbowels": 9428,
    "Ġwronged": 24246,
    "Ġboone": 11838,
    "pret": 7212,
    "Ġlunging": 24991,
    "duchess": 18463,
    "Ġtutored": 20126,
    "Ġfanciful": 24788,
    "ums": 10271,
    "fail": 17539,
    "Ġblades": 11892,
    "althy": 8432,
    "gpt": 5355,
    "Ġsoothing": 8173,
    "Ġjackets": 19601,
    "treat": 12510,
    "Ġdeliver": 9847,
    "Ġimmutable": 17356,
    "pan": 10715,
    "Ġopenly": 8572,
    "scene": 14418,
    "_.,": 14562,
    "Ġhonorable": 16875,
    "Ġprofile": 16487,
    "Ġraw": 3320,
    "Ġfocuses": 8649,
    "Ġtend": 6120,
    "range": 3493,
    "Ġperforms": 11874,
    "Ġmechanisms": 1575,
    "across": 10323,
    "zeal": 16285,
    "âĢĻ": 378,
    "horn": 8086,
    "Ġburns": 16522,
    "Ġwrung": 14468,
    "Ġan": 286,
    "Ġcurios": 18846,
    "her": 489,
    "carpenter": 11426,
    "G": 43,
    "drugg": 20837,
    "Ġalterations": 19870,
    "raise": 18011,
    "Ġtomb": 8806,
    "Ġalone": 2568,
    "Ġvelocity": 10619,
    "Ġlament": 7857,
    "Ġcousin": 3703,
    "electricity": 26384,
    "ructive": 18541,
    "Ġlocked": 6035,
    "Ġadmission": 23554,
    "improve": 15708,
    "Ġaccusations": 22378,
    "Ġgratifying": 13303,
    "âĢľâĢĺ": 1484,
    "tables": 19756,
    "puff": 21021,
    "meadow": 18678,
    "otam": 21796,
    "Ġdev": 891,
    "stave": 21647,
    "acity": 5735,
    "ificant": 22206,
    "anks": 3916,
    "Ġclasp": 9742,
    "Ġshalt": 18230,
    "Ġdestroyer": 13411,
    "Ġflexible": 23773,
    "Ġcolourless": 19568,
    "wis": 12515,
    "bouton": 17500,
    "Ġcap": 2364,
    "ele": 9113,
    "Ġoft": 9193,
    "produced": 25414,
    "icy": 6140,
    "Ġcolumb": 22856,
    "Ġcouns": 10519,
    "Ġmis": 917,
    "Ġcelebrated": 13592,
    "Ġjewelled": 20182,
    "Ġtaller": 16687,
    "Ġmerrily": 23730,
    "Ġclubbed": 26545,
    "recognised": 15260,
    "apolog": 22330,
    "Ġelapsed": 7652,
    "Ġfav": 1757,
    "questioning": 16849,
    "Ġengravings": 15065,
    "Ġshipw": 12975,
    "etition": 7382,
    "market": 16838,
    "Ġknocking": 10558,
    "Ġspeech": 4610,
    "Ġsavory": 23873,
    "Ġproceed": 3240,
    "Ġsemantic": 1960,
    "Ġabraham": 18395,
    "only": 3306,
    "Ġhorizontally": 17011,
    "Ġeyeing": 6460,
    "cele": 21623,
    "ut": 308,
    "Ġsimultaneous": 22589,
    "Ġcontributes": 15248,
    "ik": 17570,
    "imes": 1301,
    "doublo": 24660,
    "Ġshores": 8846,
    "Ġbeatrix": 24203,
    "Ġloses": 15870,
    "Ġranges": 2884,
    "teen": 6370,
    "Ġsuspicious": 9478,
    "Ġrevelry": 15134,
    "Ġconstitution": 20107,
    "Ġperformed": 8546,
    "Ġunwe": 15835,
    "Ġroundabout": 23059,
    "itz": 6006,
    "straight": 9938,
    "Ġunalterable": 15848,
    "Ġpoliceman": 15256,
    "icable": 6388,
    "Ġsoar": 18282,
    "domestic": 19824,
    "Ġtennessee": 26595,
    "fact": 6358,
    "Ġfors": 21769,
    "Ġpassages": 12966,
    "Ġprotruded": 19468,
    "Ġlengthwise": 10451,
    "Ġperplexed": 23661,
    "ergy": 2363,
    "dances": 17520,
    "Ġmout": 17798,
    "shire": 3019,
    "tons": 7559,
    "Ġreason": 1355,
    "ificial": 607,
    "omed": 13973,
    "Ġgranite": 22806,
    "attentions": 13572,
    "ane": 1177,
    "Ġfavoring": 2347,
    "Ġsulkily": 25882,
    "cast": 2927,
    "Ġrelig": 8550,
    "weakness": 16121,
    "orts": 2557,
    "attached": 11932,
    "Ġtransf": 22435,
    "cence": 9587,
    "war": 6802,
    "super": 5943,
    "Ġinvis": 6902,
    "Ġyork": 11663,
    "Ġunfrequent": 24107,
    "erest": 10696,
    "Ġcompression": 18144,
    "icest": 21562,
    "Ġloving": 8176,
    "Ġlull": 15647,
    "falgar": 26130,
    "tie": 21067,
    "Ġrhone": 25230,
    "Ġcoat": 4554,
    "Ġpart": 860,
    "Ġarrang": 2470,
    "Ġpreface": 18367,
    "uttural": 21587,
    "Ġharpooning": 23976,
    "icions": 21561,
    "ize": 775,
    "speps": 14334,
    "odhead": 18120,
    "Ġraft": 16112,
    "Ġfullest": 14812,
    "Ġscandinav": 19959,
    "Ġdevilish": 11227,
    "Ġthroes": 24573,
    "irably": 13293,
    "Ġnay": 5711,
    "ume": 4835,
    "Ġflinging": 13583,
    "ale": 506,
    "Ġrepugnant": 26589,
    "Ġbrother": 2750,
    "Ġgallied": 19555,
    "Ġalfred": 21784,
    "_.âĢĻâĢĿ": 17478,
    "Ġwhence": 5839,
    "hatch": 15362,
    "mast": 3599,
    "wishing": 21127,
    "Ġintolerable": 8481,
    "Ġabsolut": 3910,
    "Ġfisher": 3221,
    "acing": 2718,
    "Ġsleepers": 13147,
    "Ġgenerator": 3384,
    "Ġparticulars": 5754,
    "ument": 5239,
    "allingly": 22197,
    "Ġtearing": 14394,
    "Ġdepl": 14041,
    "Ġtang": 13812,
    "mist": 5686,
    "Ġstriking": 6089,
    "Ġbulkhead": 24507,
    "Ġaccur": 3632,
    "Ġmalay": 24390,
    "Ġscan": 22277,
    "Ġstrangest": 14794,
    "harpooned": 24285,
    "Ġsentences": 2683,
    "Ġsnarl": 25715,
    "Ġdetached": 10278,
    "Ġobjections": 8564,
    "Ġaudible": 19880,
    "Ġsense": 3249,
    "Ġtroubles": 19437,
    "pendicular": 6499,
    "Ġinteresting": 4326,
    "Ġmoved": 4839,
    "etency": 21580,
    "Ġoccasional": 7289,
    "kerchief": 7525,
    "Ġheaths": 25972,
    "Ġobedient": 20103,
    "sculptured": 26046,
    "illity": 18296,
    "Ġimple": 1748,
    "Ġsashes": 21224,
    "Ġcolleague": 17158,
    "Ġclaim": 5106,
    "gard": 7339,
    "Ġhardest": 18912,
    "Ġash": 4832,
    "sis": 1904,
    "Ġhumiliation": 16196,
    "Ġbare": 6132,
    "oriously": 17874,
    "position": 15411,
    "Ġstep": 751,
    "dogs": 25402,
    "soles": 18687,
    "ay": 355,
    "<SOS>": 1,
    "Ġamounts": 6704,
    "Ġlistener": 16473,
    "washed": 13042,
    "ai": 2528,
    "Ġoften": 1956,
    "Ġshattered": 7885,
    "shipmates": 11925,
    "Ġwarmer": 19184,
    "Ġtenement": 23547,
    "allows": 15904,
    "it": 276,
    "necessities": 24305,
    "belated": 24034,
    "?âĢĻâĢĿ": 23645,
    "chester": 23804,
    "window": 7743,
    "Ġmassachusetts": 24019,
    "stre": 5451,
    "Ġadler": 8174,
    "Ġcoopman": 25827,
    "Ġduplicity": 25331,
    "Ġprolonged": 8358,
    "grie": 12467,
    "ury": 3310,
    "wrinkles": 16553,
    "op": 658,
    "Ġexpands": 25237,
    "Ġlater": 6017,
    "exactly": 10635,
    "Ġaccumulated": 11928,
    "Ġbulldog": 23856,
    "Ġdeserved": 7737,
    "Ġflukes": 5266,
    "Ġcorroded": 18876,
    "Ġleast": 2065,
    "Ġsnail": 19298,
    "soc": 5175,
    "Ġgravely": 7884,
    "Ġreconciliation": 25292,
    "Ġsatir": 18792,
    "Ġsubstitute": 16725,
    "ĠĠĠĠĠĠĠĠĠĠĠĠĠĠĠĠĠĠĠĠĠĠĠĠĠĠĠĠĠĠĠĠĠĠĠĠĠĠĠĠĠĠĠĠĠĠĠĠĠĠĠĠĠĠĠĠĠĠĠĠ": 19259,
    "Ġmisfortune": 5568,
    "Ġlanguid": 14209,
    "âĢĻ-": 18166,
    "Ġassur": 6074,
    "Ġwarped": 25035,
    "sequently": 14582,
    "Ġdeficiency": 14401,
    "consent": 18503,
    "indirect": 22370,
    "Ġinoffensive": 21496,
    "Ġsuspense": 9416,
    "Ġuncomfortable": 8485,
    "ript": 4152,
    "odes": 18119,
    "vial": 17696,
    "Ġfuriously": 9800,
    "complied": 19912,
    "Ġexceptionable": 25503,
    "ough": 470,
    "Ġcharacteristic": 12045,
    "masters": 16833,
    "Ġinquis": 19302,
    "laugh": 10107,
    "Ġtong": 4870,
    "Ġthrusts": 24349,
    "Ġfacial": 10604,
    "Ġsaintsbury": 26372,
    "pun": 9616,
    "apparently": 15202,
    "Ġdiffusion": 23780,
    "itted": 2442,
    "comfortableness": 24524,
    "Ġtravelled": 7772,
    "dashed": 12452,
    "ulity": 10885,
    "Ġul": 6828,
    "Ġsang": 12531,
    "Ġreached": 4022,
    "exhibited": 18477,
    "Ġ91": 24590,
    "Ġbeak": 18079,
    "vicinity": 20478,
    "Ġpurch": 6599,
    "Ġlantern": 7116,
    "breaths": 25336,
    "lighted": 23752,
    "Ġsimpleton": 16332,
    "Ġheiress": 20696,
    "Ġcombing": 22839,
    "Ġexploded": 15906,
    "Ġdeeps": 16101,
    "Ġsuperstitions": 17071,
    "ĠâĢĶâĢĶ": 25757,
    "Ġsignal": 5945,
    "Ġdepos": 11002,
    "Ġtus": 10748,
    "Ġpike": 12619,
    "Ġrecept": 1524,
    "variance": 2656,
    "avor": 14275,
    "burning": 25078,
    "Ġwal": 6517,
    "Ġlovers": 9718,
    "Ġfacilitate": 26098,
    "tiness": 21070,
    "Ġlifts": 25358,
    "Ġjew": 9466,
    "Ġforeshadowing": 26591,
    "Ġhoisted": 5960,
    "brain": 13685,
    "liked": 10507,
    "Ġaccompany": 9485,
    "Ġfins": 9662,
    "Ġendless": 7053,
    "Ġmund": 21317,
    "Ġcaring": 23089,
    "Ġpursued": 6328,
    "Ġbreathes": 13243,
    "fedallah": 25522,
    "kingly": 20938,
    "Ġpencils": 23193,
    "Ġhearse": 10419,
    "scorched": 25697,
    "Ġnear": 1719,
    "Ġhealthy": 10850,
    "Ġhind": 9187,
    "uns": 21868,
    "meet": 11853,
    "Ġwidow": 8662,
    "Ġmusty": 22678,
    "Ġfour": 2215,
    "linked": 17592,
    "Ġlingering": 11378,
    "Ġanimals": 8977,
    "trembling": 17141,
    "Ġallen": 5160,
    "erity": 21266,
    "itchen": 7788,
    "ard": 465,
    "Ġjavelins": 26105,
    "Ġsacred": 10929,
    "Ġelab": 22640,
    "arcy": 1275,
    "Ġendow": 23141,
    "Ġwhaling": 2782,
    "Ġgard": 2189,
    "Ġquestioning": 10463,
    "Ġhyp": 3872,
    "ishly": 14198,
    "ision": 1855,
    "omin": 4702,
    "ome": 536,
    "Ġimpropriety": 17393,
    "Ġmatrices": 4969,
    "excuse": 13379,
    "nowled": 5470,
    "Ġloun": 7166,
    "Ġaccustomed": 6861,
    "phere": 21018,
    "Ġhysterical": 26092,
    "fear": 8513,
    "Ġjoin": 4853,
    "permission": 15900,
    "Ġgret": 21599,
    "Ġott": 13864,
    "Ġswaths": 23057,
    "Ġransacked": 26503,
    "Ġwind": 1434,
    "rised": 10122,
    "Ġwaits": 23278,
    "av": 739,
    "Ġembra": 6579,
    "escript": 18471,
    "jerked": 25618,
    "Ġbest": 1977,
    "Ġsixty": 7723,
    "Ġmayhap": 18710,
    "ials": 11703,
    "Ġparticle": 18671,
    "attending": 18916,
    "Ġembattled": 26289,
    "Ġconceived": 8150,
    "ster": 1963,
    "Ġhurrah": 9867,
    "Ġbales": 21387,
    "Ġbosoms": 16794,
    "Ġpeeped": 10010,
    "Ġchaos": 17008,
    "Ġpresence": 5031,
    "Ġhysterics": 26093,
    "luent": 15995,
    "drowned": 17367,
    "Ġeddystone": 25709,
    "Ġawait": 17072,
    "hunsford": 24385,
    "Ġlou": 6822,
    "pin": 13765,
    "Ġappertain": 22219,
    "reclining": 20573,
    "Ġglass": 4369,
    "Ġomnipotent": 13546,
    "Ġprincess": 23225,
    "Ġbloodshot": 23797,
    "dor": 12448,
    "haps": 1666,
    "Ġprone": 18969,
    "Ġdes": 1252,
    "beg": 22485,
    "drove": 16992,
    "Ġarise": 7897,
    "Ġdundee": 16996,
    "flukes": 25205,
    "Ġconject": 6027,
    "Ġflashes": 11913,
    "1": 21,
    "recogn": 13423,
    "//": 11462,
    "Ġremonstr": 16158,
    "Ġrecent": 7436,
    "accounted": 16500,
    "now": 548,
    "afric": 19178,
    "Ġceiling": 7997,
    "Ġlick": 21548,
    "Ġsuperiors": 23456,
    "Ġcausing": 16355,
    "Ġembalmed": 13654,
    "mble": 1407,
    "Ġghost": 6142,
    "Ġruminated": 24600,
    "Ġbrow": 3989,
    "Ġadm": 2403,
    "Ġlvi": 21551,
    "arus": 13910,
    "oppressed": 24824,
    "Ġterrors": 6918,
    "Ġdatasets": 2391,
    "Ġcaptioning": 23022,
    "allions": 22196,
    "Ġburned": 8630,
    "fleece": 19946,
    "Ġcrew": 2499,
    "oles": 21004,
    "Ġindex": 17048,
    "Ġconveniently": 20077,
    "Ġhal": 1361,
    "lant": 20946,
    "Ġemble": 13969,
    "Ġaries": 21196,
    "Ó": 148,
    "share": 14235,
    "aver": 6785,
    "Ġinquiry": 6484,
    "pans": 13768,
    "Ġsneezing": 12244,
    "iliating": 12691,
    "Ġconcisely": 19046,
    "Ġparted": 5929,
    "thes": 7391,
    "Ġproport": 2302,
    "Ġheadsmen": 14730,
    "Ġai": 3127,
    "Ġnavy": 14914,
    "Ġhonoured": 9879,
    "Ġvit": 10244,
    "vil": 2734,
    "Ġmills": 21310,
    "Ġcharnel": 22250,
    "posture": 16926,
    "Ġnile": 21519,
    "comp": 3814,
    "Ġexactly": 2768,
    "Ġprosecution": 12378,
    "Ġ66": 24368,
    "Ġdestiny": 8982,
    "Ġweight": 657,
    "Ġpennies": 17269,
    "holes": 12051,
    "Ġattacks": 12201,
    "Ġcauldron": 25441,
    "<UNK>": 3,
    "Ġaisle": 21200,
    "Ġunass": 14111,
    "Ġfundamental": 3011,
    "Ġinher": 10178,
    "Ġ1846": 26084,
    "Ġpreside": 18365,
    "Ġstream": 5186,
    "Ġcognitive": 13632,
    "Ġovers": 14204,
    "Ġbelted": 22946,
    "Ġsociety": 3978,
    "Ġfantastic": 10057,
    "Ġfrosts": 19801,
    "Ġapprobation": 10984,
    "racing": 21629,
    "Ġshuddering": 9050,
    "troubled": 17111,
    "conclusions": 25672,
    "shake": 22453,
    "tempestuous": 26097,
    "repid": 11563,
    "aimed": 3951,
    "Ġ131": 24782,
    "Ġunmo": 12768,
    "late": 11497,
    "Ġlabelled": 23329,
    "Ġsodden": 25535,
    "Ġhanged": 17924,
    "Ġequals": 4727,
    "Ġasse": 8160,
    "Ġhoneymoon": 25645,
    "upright": 23018,
    "Ġtiar": 21166,
    "Ġfriesland": 26441,
    "Ġaut": 1825,
    "Ġjoyful": 13218,
    "Ġclearly": 6897,
    "ĠĠĠĠĠĠĠĠĠĠĠĠĠĠĠĠĠĠĠĠĠĠĠĠĠĠĠĠĠĠĠĠĠĠĠĠĠĠĠĠĠĠĠĠĠ": 9950,
    "aders": 21756,
    "Ġwink": 11567,
    "charming": 15702,
    "ă": 196,
    "Ġinterpretation": 19715,
    "tacit": 21097,
    "Ġabominable": 12319,
    "Ġlargest": 6282,
    "endured": 22216,
    "Ġthrew": 3974,
    "Ġinvader": 23479,
    "banish": 20781,
    "bons": 17485,
    "Ġoverlooking": 22358,
    "Ġfil": 3472,
    "Ġagree": 7646,
    "Ġavenues": 25429,
    "Ġpractically": 13097,
    "Ġrevol": 5536,
    "happiness": 6469,
    "Ġsam": 7569,
    "dening": 22775,
    "Ġoppose": 16519,
    "ool": 17617,
    "flu": 9116,
    "Ġstranger": 3485,
    "Ġdemonstrate": 24996,
    "adventure": 17232,
    "istle": 15867,
    "iscre": 17850,
    "tempest": 16958,
    "Ġconfound": 23302,
    "Ġdazzling": 15209,
    "Ġblaze": 16217,
    "Ġward": 10154,
    "Ġhandkerchief": 8912,
    "Ġlysander": 13136,
    "Ġbottom": 3672,
    "Ġpersu": 3561,
    "Ġatmosphere": 10896,
    "Ġinsist": 9888,
    "london": 9608,
    "Ġnathan": 21524,
    "Ġnoah": 10941,
    "Ġhogarth": 25780,
    "Ġconveys": 16854,
    "atical": 10770,
    "Ġlucases": 9008,
    "tit": 11526,
    "Ġconvalescence": 23744,
    "Ġcourting": 23290,
    "hearth": 15497,
    "Ġspanish": 2828,
    "Ġalive": 4398,
    "fashion": 8081,
    "letter": 6201,
    "Ġconsent": 5372,
    "Ġomn": 8410,
    "Ġdir": 21420,
    "Ġagricultural": 26549,
    "Ġsultan": 15182,
    "Ġarc": 14157,
    "Ġahab": 1215,
    "Ġapo": 9629,
    "Ġpe": 851,
    "Ġfretfulness": 25448,
    "Ġsurging": 19133,
    "b": 70,
    "Ġplayfully": 19237,
    "laughing": 15177,
    "Ġreconcile": 25291,
    "Ġfishery": 4174,
    "Ġparadise": 11194,
    "Ġsand": 6235,
    "Ġpatched": 16374,
    "Ġac": 845,
    "Ġtrifled": 24674,
    "Ġstress": 18066,
    "Ġdisent": 22521,
    "months": 9070,
    "Ġmadame": 13148,
    "Ġglimmering": 25240,
    "Ġpriests": 15039,
    "Ġsketch": 16162,
    "profess": 10633,
    "Ġrealise": 16334,
    "hob": 20899,
    "Ġoverl": 18428,
    "Ġdrowned": 9550,
    "Ġfires": 16470,
    "ogne": 12936,
    "Ġdiscoloured": 15250,
    "Ġbrit": 6289,
    "Ġunivers": 2126,
    "_.)": 7278,
    "Ġpained": 19166,
    "imitably": 21709,
    "Ġsentiments": 7961,
    "Ġsmothe": 18573,
    "aying": 15746,
    "taining": 7206,
    "Ġdeafened": 25651,
    "continual": 20643,
    "evade": 24820,
    "Ġcow": 13874,
    "publ": 17637,
    "Ġoverjoyed": 17456,
    "extreme": 11027,
    "Ġoily": 13862,
    "Ġregularity": 22780,
    "Ġfeelings": 2454,
    "expound": 23663,
    "ulated": 6030,
    "Ġindulged": 13415,
    "distinctive": 25726,
    "Ġhumbled": 16194,
    "Ġestab": 6315,
    "interference": 23736,
    "shoe": 14965,
    "club": 26379,
    "harpoone": 6107,
    "Ġconception": 10316,
    "Ġanxiously": 8290,
    "Ġthom": 21514,
    "approaching": 15010,
    "fron": 24280,
    "Ġpushed": 5910,
    "Ġresentment": 7530,
    "Ġhopelessly": 16376,
    "Ù": 154,
    "Ġabandoned": 8352,
    "Ġattach": 14291,
    "í": 174,
    "Ġhydraulic": 10062,
    "otics": 10222,
    "Ġattraction": 18625,
    "tracks": 19637,
    "presents": 18795,
    "Ġexamined": 6334,
    "Ġrecovered": 5481,
    "fool": 9046,
    "fo": 5278,
    "diligence": 26110,
    "Ġfresh": 3668,
    "Ġcave": 10784,
    "Ġtreas": 7358,
    "Ġdefence": 11066,
    "Ġgiving": 4084,
    "white": 4602,
    "Ġholy": 6591,
    "Ġdescent": 997,
    "Ġbod": 4581,
    "Ġfusion": 21413,
    "attest": 23117,
    "br": 2481,
    "ake": 750,
    "ained": 3063,
    "innocence": 15181,
    "precise": 19349,
    "Ġalternating": 15029,
    "Ġstumbling": 21740,
    "Ġstig": 14000,
    "elizabeth": 1989,
    "Ġscraps": 16901,
    "Ġmaps": 2962,
    "Ġendurance": 23143,
    "streamed": 25966,
    "foreign": 18544,
    "Ġhaul": 11689,
    "Ġcre": 887,
    "recked": 17761,
    "Ġstrive": 23692,
    "Ġbankers": 24301,
    "wall": 10135,
    "called": 6292,
    "Ġcompromising": 22571,
    "Ġmultiplication": 2872,
    "!âĢĻ": 3331,
    "Ġwilt": 9642,
    "Ġbranches": 6776,
    "Ġtie": 10749,
    "Ġabomination": 22276,
    "Ġlights": 8959,
    "sum": 2089,
    "Ġenthr": 22745,
    "alid": 13933,
    "sing": 5138,
    "unalterable": 21884,
    "aging": 2240,
    "Ġensigns": 23688,
    "Ġboarding": 12083,
    "Ġdeparted": 5560,
    "Ġexal": 10876,
    "creator": 26380,
    "mblance": 7323,
    "urmount": 13994,
    "Ġembarks": 22984,
    "studied": 17148,
    "Ġsymptom": 13481,
    "erable": 1917,
    "recovered": 19786,
    "Ġblameless": 19858,
    "cloth": 11934,
    "Ġreplete": 15694,
    "Ġentertainment": 12219,
    "Ġpost": 4273,
    "apable": 6422,
    "Ġgossip": 18470,
    "Ġdaring": 8121,
    "chance": 6827,
    "Ġcultiv": 13554,
    "ced": 696,
    "Ġhe": 318,
    "Ġunreasonably": 17449,
    "hide": 10702,
    "Ġserved": 8246,
    "Ġlullaby": 20586,
    "Ġpillow": 10036,
    "Ġcanted": 17831,
    "Ġbrawn": 10480,
    "Ġrenounce": 19466,
    "injured": 15130,
    "france": 24281,
    "pos": 15408,
    "mbl": 5946,
    "happening": 16563,
    "norm": 20984,
    "mud": 20970,
    "vint": 21113,
    "Ġwax": 10775,
    "gold": 9119,
    "indifferent": 14207,
    "added": 11657,
    "Ġfairer": 20460,
    "ske": 13780,
    "dra": 3415,
    "arius": 14247,
    "Ġmbpp": 21320,
    "beards": 22489,
    "angle": 22099,
    "ordered": 8788,
    "J": 46,
    "igated": 15703,
    "Ġadditional": 7935,
    "fly": 13712,
    "Ġpam": 21452,
    "Ò": 147,
    "exerc": 16012,
    "Ġvirtuous": 14753,
    "Ġapology": 8328,
    "mouthful": 25208,
    "mill": 13752,
    "forster": 16160,
    "Ġhearties": 18967,
    ".": 18,
    "Ġleft": 1763,
    "Ġfellow": 2776,
    "tomahawk": 25915,
    "Ġcompos": 22567,
    "Ġdismissed": 12888,
    "<": 32,
    "Ġhushed": 13923,
    "iced": 3900,
    "Ġclosed": 4604,
    "Ġdiscontented": 16056,
    "Ġmocking": 24000,
    "Ġbid": 6131,
    "Ġnumer": 3637,
    "til": 17670,
    "spanish": 14332,
    "requiem": 24856,
    "Ġbolt": 11333,
    "Ġgrating": 14354,
    "charge": 9446,
    "Ġsiber": 17754,
    "Ġcontented": 9754,
    "Ġpenal": 1775,
    "huzza": 20912,
    "pressing": 19014,
    "Ġascertaining": 17202,
    "ologies": 18772,
    "hurt": 19877,
    "Ġmild": 4146,
    "Ġdictionaries": 12337,
    "Ġrepublican": 17410,
    "Ġstirs": 14915,
    "Ġheroines": 19750,
    "Ġprank": 23220,
    "bureau": 20788,
    "erie": 21269,
    "Ġevap": 19622,
    "bra": 6219,
    "Ġcrumpled": 16440,
    "Ġscrupled": 25049,
    "Ġsprout": 24085,
    "Ġeducation": 5128,
    "afer": 17480,
    "Ġrattling": 11394,
    "direful": 25896,
    "Ġperch": 10297,
    "Ġpolice": 4674,
    "Ġarabic": 24980,
    "Ġseated": 4541,
    "Ġdeploy": 2816,
    "Ġvertical": 16603,
    "Ġheightens": 24153,
    "Ġpleated": 16295,
    "Ġkl": 2738,
    "Ġchaldee": 26234,
    "isk": 9166,
    "Ġillustrious": 17108,
    "Ġcertainty": 6734,
    "Ġsuffering": 8945,
    "Ġbenevolent": 7773,
    "commotion": 24913,
    "Ġdames": 23474,
    "Ġphiladelphia": 26603,
    "Ġportcull": 23860,
    "Ġauxiliary": 26417,
    "caused": 25519,
    "Ġmort": 3460,
    "lungs": 26135,
    "Ġsomnambul": 26575,
    "Ġlance": 4879,
    "Ġostrich": 26429,
    "Ġsimil": 2533,
    "Ġcrib": 21346,
    "fatig": 17088,
    "Ġolive": 12561,
    "Ġinasmuch": 10824,
    "Ġhighway": 14346,
    "humanity": 24839,
    "spass": 18689,
    "Ġsecret": 3718,
    "Ġbreach": 11970,
    "wheeler": 16186,
    "except": 5383,
    "Ġinstituted": 18697,
    "midnight": 14898,
    "helpless": 16789,
    "Ġxvi": 19104,
    "Ġdistributions": 1055,
    "Ġluxurious": 17309,
    "Ġbegins": 7244,
    "albatross": 15626,
    "Ġdepressed": 10881,
    "Ġfamil": 4321,
    "word": 2491,
    "Ġnormalizing": 1821,
    "itudes": 3012,
    "amaz": 21848,
    "olerably": 11674,
    "generative": 4331,
    "rich": 11516,
    "retion": 9361,
    "iguous": 18044,
    "proud": 9902,
    "Ġvocation": 10524,
    "Ġconsulted": 13428,
    "obst": 11929,
    "ostentatious": 20651,
    "Ġincomp": 12893,
    "Ġdistinguished": 8273,
    "landsmen": 25059,
    "l": 80,
    "Ġstairs": 5540,
    "Ġnations": 8808,
    "Ġdubious": 17381,
    "four": 6113,
    "ald": 15621,
    "Ġheap": 12674,
    "oking": 4606,
    "boil": 18999,
    "Ġhabit": 6771,
    "Ġarrog": 18337,
    "Ġiteratively": 3055,
    "Ġstartling": 14669,
    "set": 3865,
    "Ġnetherfield": 3930,
    "Ġmargaret": 10375,
    "Ġarsac": 11739,
    "Ġcream": 22720,
    "Ġelated": 18633,
    "orers": 14101,
    "ude": 7562,
    "clair": 18932,
    "Ġhast": 3150,
    "Ġfring": 11126,
    "Ġtouches": 20569,
    "ish": 550,
    "Ġminimize": 7050,
    "served": 5043,
    "Ġtarred": 23608,
    "Ġsorts": 6887,
    "irm": 3108,
    "gl": 3290,
    "Ġreassure": 21670,
    "Ġwooden": 4730,
    "remes": 21236,
    "Ġrags": 18644,
    "\"],": 26120,
    "Ġwretch": 6378,
    "pet": 4867,
    "Ġfoiled": 23242,
    "oss": 10114,
    "metallic": 19879,
    "Ġnantucketers": 9893,
    "Ġincorrupt": 19233,
    "ghan": 19453,
    "strang": 11182,
    "Ġpraise": 6486,
    "Ġmagnificent": 9840,
    "Ġluff": 15649,
    "pal": 9615,
    "Ġflask": 3037,
    "k": 79,
    "Ġindulgence": 11318,
    "Ġsaith": 14154,
    "Ġmajesty": 5201,
    "Ġintercepted": 25826,
    "uated": 10130,
    "Ġpalace": 16689,
    "ft": 908,
    "Ġfleet": 9430,
    "atiate": 12544,
    "Ġupdates": 1299,
    "Ġaccorded": 24086,
    "esty": 4307,
    "Ġchag": 15928,
    "Ġhisself": 21913,
    "Ġpersisted": 13039,
    "incess": 15480,
    "Ġsaves": 18324,
    "Ġbehaviors": 13251,
    "omited": 21639,
    "Ġbiographical": 22763,
    "Ġchurches": 12824,
    "Ġpowerful": 1509,
    "Ġmirror": 12375,
    "Ġmaker": 15539,
    "Ĝ": 221,
    "interred": 23735,
    "Ġflorida": 20658,
    "Ġrolling": 5975,
    "Ġseclusion": 18208,
    "ractions": 11631,
    "odecimo": 11443,
    "ā": 194,
    "Ġexpecting": 10435,
    "thunder": 10261,
    "Ġpatent": 11959,
    "Ġexultation": 15169,
    "90": 12429,
    "Ġscud": 14189,
    "Ġbewitched": 25975,
    "Ġcontributed": 16006,
    "bearings": 25371,
    "Ġbedrooms": 19968,
    "Ġtrying": 4838,
    "Ġyonder": 7392,
    "Ġmorality": 22974,
    "oney": 3047,
    "Ġclout": 22341,
    "illings": 14141,
    "Ġencourage": 10379,
    "Ġinflamed": 13471,
    "30": 20753,
    "Ġowned": 11873,
    "Ġfifth": 11256,
    "st": 316,
    "Ġmasoned": 20250,
    "Ġlivers": 18461,
    "Ġcumulative": 4212,
    "Ġtallow": 14776,
    "Ġfable": 15573,
    "pooh": 18797,
    "Ġjetted": 24430,
    "o": 83,
    "âĢĻ!âĢĿ": 18167,
    "Ġaloof": 21783,
    "Ġswam": 6448,
    "Ġcoachman": 14999,
    "ainted": 3657,
    "Ġgor": 9205,
    "vember": 10854,
    "Ġexc": 1832,
    "lection": 3651,
    "Ġconjoined": 21804,
    "Ġiii": 7861,
    "Ġintegr": 7969,
    "reply": 19721,
    "Ġprepar": 7898,
    "ignation": 11127,
    "ility": 623,
    "Ġappropri": 2227,
    "Ġbehold": 5049,
    "leader": 25351,
    "Ġel": 802,
    "assment": 9737,
    "ception": 6562,
    "dragged": 16607,
    "Ġprocuring": 16867,
    "Ġsimpl": 1578,
    "plain": 1358,
    "Ġbeadle": 26483,
    "Ġunrival": 22041,
    "northern": 23667,
    "disgrace": 16456,
    "Ġintrig": 21988,
    "Ġderision": 16308,
    "fellow": 6792,
    "ĠâĢľâĢĻ": 22252,
    "objections": 19915,
    "semicirc": 26490,
    "Ġgas": 8133,
    "Ġmine": 3177,
    "Ġprofessor": 11229,
    "engthen": 14455,
    "Ġsnatches": 16542,
    "Ġsqu": 1035,
    "repro": 10769,
    "Ġadmeasurements": 26225,
    "Ġsurpass": 13581,
    "asy": 5294,
    "smiled": 16613,
    "Ġraving": 16110,
    "Ġredden": 15690,
    "Ġsuppressing": 23001,
    "amid": 12720,
    "Ġgulp": 20027,
    "Ġwomen": 4750,
    "Ġschooner": 16746,
    "Ġcrown": 5287,
    "Ġfrance": 7682,
    "bedroom": 14675,
    "giving": 8738,
    "Ġblue": 3455,
    "Ġantip": 24176,
    "befall": 22493,
    "playful": 24356,
    "Ġbegone": 11914,
    "Ġburglar": 17353,
    "Ġwarmed": 12020,
    "Ġensures": 3053,
    "Ġwrenching": 17321,
    "Ġflamingo": 15098,
    "empt": 2620,
    "Ġunaware": 22053,
    "Ġsus": 18275,
    "Ġ72": 19610,
    "cro": 13694,
    "Ġstuffed": 13407,
    "she": 1398,
    "Ġdimin": 3871,
    "urg": 8142,
    "Ġidentified": 19150,
    "Ġsaintly": 25931,
    "Ġhoping": 11103,
    "Ġpie": 13913,
    "apers": 3481,
    "Ġcitations": 25437,
    "Ġob": 861,
    "Ġshrine": 19530,
    "asion": 5714,
    "Ġbellies": 13353,
    "icient": 781,
    "Ġwatchful": 16526,
    "foam": 24417,
    "entimes": 12652,
    "Ġmeanly": 12905,
    "shortened": 24748,
    "Ġcompliance": 12111,
    "icip": 6389,
    "Ġdisinclination": 22534,
    "visited": 13345,
    "Ġprodigious": 8057,
    "recollect": 17222,
    "letters": 13172,
    "Ġtyph": 10006,
    "Ġacqu": 1417,
    "cheap": 23802,
    "esting": 7412,
    "Ġsilvery": 13092,
    "Ġtext": 2269,
    "Ġengagement": 5397,
    "li": 1188,
    "Ġinnumerable": 13349,
    "ittered": 18439,
    "Ġpreserve": 7529,
    "Ġple": 1470,
    "Ġcleaning": 23178,
    "abb": 15735,
    "Ġwaifing": 25243,
    "Ġnegative": 1465,
    "Ġpretty": 3859,
    "Ġsteed": 13036,
    "Ġabsolutely": 4857,
    "less": 930,
    "Ġlaug": 3625,
    "violence": 16476,
    "Ġprovocation": 24190,
    "Ġdisgra": 18549,
    "Ġsash": 17753,
    "seventy": 10875,
    "Ġsuppressed": 11909,
    "brevi": 24071,
    "int": 1199,
    "Ġliveliest": 24775,
    "Ġvic": 5236,
    "fain": 13713,
    "Ġcooked": 13267,
    "Ġsophisticated": 1672,
    "Ġencounter": 6627,
    "hammered": 19003,
    "thro": 12757,
    "Ġpretensions": 16557,
    "Ġsuspect": 5758,
    "tw": 2811,
    "Ġpebbles": 16126,
    "Ġconge": 15742,
    "ece": 17530,
    "ricted": 15418,
    "Ġamelia": 26250,
    "Ġactuated": 18545,
    "Ġtasks": 1791,
    "Ġwedge": 24066,
    "Ġwatchman": 23668,
    "Ġgamesome": 17288,
    "Ġforests": 13590,
    "Ġcaut": 6521,
    "Ġwrap": 24595,
    "despond": 19799,
    "Ġdrown": 6815,
    "Ġsy": 488,
    "Ġobliv": 16130,
    "Ġmuzzle": 21319,
    "Ġvigilant": 20183,
    "Ġvapor": 8699,
    "Ġpracticable": 19044,
    "dham": 20829,
    "Ġspiteful": 19521,
    "Ġsearched": 15816,
    "Ġsunrise": 9371,
    "ivot": 11715,
    "luyt": 18458,
    "Ġgovernments": 20266,
    "Ġcats": 8978,
    "grampus": 18617,
    "ers": 405,
    "Ġbadly": 12128,
    "chase": 11643,
    "Ġmand": 21303,
    "Ġsacrilege": 26228,
    "Ġoy": 15542,
    "ira": 3956,
    "Ġcrags": 23528,
    "Ġoccupations": 9456,
    "Ġpointing": 5661,
    "osition": 1371,
    "Ġimpelled": 11779,
    "Ġlitter": 19828,
    "Ġmember": 8585,
    "magn": 10609,
    "aiian": 23591,
    "Ġgreedy": 3051,
    "helm": 12168,
    "est": 502,
    "Ġexpressive": 8981,
    "Ġzigzag": 26272,
    "Ġproximity": 3218,
    "Ġyards": 5371,
    "Ġus": 495,
    "Ġmoose": 22429,
    "Ġbambooz": 26119,
    "Ġannihilation": 15163,
    "xt": 2082,
    "Ġshadow": 5595,
    "Ġforehead": 5261,
    "Ġadhering": 14139,
    "unwittingly": 25801,
    "Ġsent": 1777,
    "sample": 12503,
    "Ġsanguine": 25928,
    "Ġnorton": 12645,
    "Ġstool": 14459,
    "ia": 1261,
    "Ġbountiful": 25944,
    "Ġtoils": 10184,
    "Ġnames": 4533,
    "spade": 10339,
    "sole": 6168,
    "spring": 7231,
    "Ġrepl": 1594,
    "Ġmus": 3399,
    "sion": 8094,
    "Ġwrinkled": 7264,
    "Ġcupidity": 24534,
    "Ġkinds": 14503,
    "Ġsheer": 14149,
    "Ġfavour": 3640,
    "Ġstamped": 13525,
    "iqu": 7803,
    "Ġsocks": 14132,
    "Ġprov": 4400,
    "dread": 8728,
    "achalot": 15860,
    "Ġdiv": 3729,
    "Ġamel": 18509,
    "Ġadvocate": 13674,
    "Ġjoint": 12031,
    "Ġloungers": 24862,
    "Ġdistribut": 842,
    "Ġtechnique": 2477,
    "occurrences": 26331,
    "Ġeve": 13968,
    "Ġerection": 23998,
    "Ġphotography": 24683,
    "card": 11474,
    "Ġhorrify": 23815,
    "Ġbishop": 13900,
    "Ġenc": 969,
    "ugal": 19022,
    "Ġantiqu": 12141,
    "Ġpenalizing": 13089,
    "arily": 4124,
    "pitch": 13296,
    "iar": 2381,
    "turned": 7306,
    "Ġloth": 17965,
    "Ġexecute": 7505,
    "Ġouthouse": 22312,
    "Ġtrampling": 25492,
    "wilful": 25086,
    "Ġtreacle": 14594,
    "Ġwayward": 22870,
    "uled": 11535,
    "ull": 1431,
    "Ġmimic": 3143,
    ":--": 5784,
    "Ġmiddle": 4136,
    "Ġitaly": 10866,
    "Ġshudderings": 25200,
    "Ġmallet": 17810,
    "Ġventil": 8020,
    "withstanding": 8944,
    "yourselves": 24958,
    "Ġdidst": 11846,
    "ousand": 2430,
    "Ġpacked": 9978,
    "Ġchewing": 23284,
    "gence": 876,
    "Ġcust": 11580,
    "Ġfluke": 14672,
    "scotch": 25850,
    "Ġstri": 2803,
    "ĠĠĠĠĠĠĠĠĠĠ": 18577,
    "organic": 25946,
    "Ġreasonably": 11085,
    "Ġarrive": 6907,
    "Ġgradu": 15829,
    "Ġpardon": 5727,
    "Ġmotives": 7486,
    "lamps": 25260,
    "Ġslime": 23159,
    "mology": 12488,
    "Ġautomatically": 3831,
    "Ġchimney": 6497,
    "Ġchowders": 18386,
    "ical": 753,
    "Ġstare": 10863,
    "Ġinstrument": 7118,
    "onely": 6516,
    "Ġtown": 2456,
    "turtle": 12208,
    "================": 3721,
    "Ġfrequencies": 4789,
    "Ġdodging": 19886,
    "Ġrather": 1494,
    "Ġseemed": 1279,
    "hester": 9630,
    "lives": 12482,
    "Ġamphitheat": 26251,
    "Ġdesponding": 25868,
    "ester": 11601,
    "Ġicicles": 25264,
    "justice": 7958,
    "Ġwindpipe": 23103,
    "Ġpledged": 20686,
    "Ġcrazy": 8593,
    "nes": 6961,
    "ĠâĢľâĢĺ_": 25111,
    "Ġwhere": 784,
    "Ġangrily": 9405,
    "Ġcovered": 5171,
    "Ġrepositories": 23363,
    "dy": 3860,
    "Ġhorseback": 14848,
    "Ġcircumnavigating": 25614,
    "Ġsli": 4748,
    "Ġpovelson": 26551,
    "Ġresemble": 15689,
    "down": 3469,
    "levi": 7047,
    "Ġreappeared": 21663,
    "Ġobscurely": 20187,
    "Ġ(`": 12848,
    "escape": 16004,
    "Ġkings": 7197,
    "Ġbought": 8416,
    "ren": 549,
    "Ġopen": 1552,
    "Ġabilities": 8865,
    "Ġlog": 1674,
    "Ġkindred": 16372,
    "Ġchests": 19670,
    "Ġelevate": 24498,
    "Ġmending": 17804,
    "Ġhumor": 11050,
    "anel": 21355,
    "wic": 21119,
    "benevolent": 15231,
    "maltese": 24795,
    "Ġstriding": 16090,
    "elter": 21569,
    "Ġsimul": 1808,
    "Ġalmost": 1651,
    "company": 9459,
    "Ġlashes": 17966,
    "ribution": 14304,
    "arter": 17893,
    "inous": 8771,
    "Ġver": 3396,
    "cart": 10687,
    "travel": 24315,
    "Ġprevention": 16087,
    "awned": 19458,
    "Ġpace": 9181,
    "satisfaction": 9990,
    "orously": 8419,
    "Ġmethodically": 23140,
    "Ġspoils": 24808,
    "Ġasleep": 6836,
    "andering": 21865,
    "gra": 769,
    "Ġincorruption": 26309,
    "Ġenriched": 26498,
    "Ġsupercil": 23455,
    "wich": 11542,
    "wal": 10132,
    "Ġwag": 10774,
    "respectively": 24700,
    "bourn": 3301,
    "9": 29,
    "cracy": 24690,
    "Ġshall": 1140,
    "Ġtruck": 19510,
    "on": 267,
    "Ġloathing": 15067,
    "leo": 21362,
    "Ġaltered": 7393,
    "Ġinscrut": 10032,
    "Ġindiscriminately": 20626,
    "Ġacknowled": 6350,
    "Ġchinks": 22249,
    "Ġdenote": 19332,
    "dred": 2529,
    "Ġsaville": 15886,
    "red": 396,
    "iding": 3845,
    "Ġentangled": 10342,
    "grounds": 11150,
    "measured": 19988,
    "Ġtheology": 21275,
    "Ġcou": 5286,
    "heavens": 19744,
    "dri": 5888,
    "pencil": 18827,
    "Ġere": 3683,
    "Ġbrig": 11046,
    "Ġgovern": 10449,
    "Ġcupboard": 16882,
    "Ġser": 1667,
    "Ġdistricts": 20262,
    "Ġgamy": 17998,
    "seated": 11670,
    "Ġsubaltern": 22789,
    "cott": 8074,
    "Ġoperation": 11995,
    "Ġalleg": 14015,
    "tro": 15431,
    "Ġcurved": 18845,
    "dimens": 2321,
    "mult": 8747,
    "Ġsuccessfully": 19427,
    "Ġbless": 4343,
    "Ġprophesy": 26061,
    "Ġgrated": 22802,
    "Ġasiatic": 20428,
    "Ġlearnable": 3996,
    "Ġsilk": 11960,
    "Ġrelent": 18774,
    "Ġrascally": 26505,
    "recl": 15508,
    "physiogn": 26266,
    "Ġfinger": 5273,
    "Ġprecipitous": 24835,
    "Ġdiscriminator": 3393,
    "Ġentit": 22742,
    "Ġarrest": 7409,
    "admiration": 11386,
    "Ġres": 695,
    "opposition": 24823,
    "Ġaddison": 14231,
    "ird": 2428,
    "apprehension": 26114,
    "honest": 17002,
    "Ġmemories": 14540,
    "Ġhumorously": 18778,
    "weather": 7229,
    "Ġunperceived": 22031,
    "Ġendeavoured": 4918,
    "Ġbery": 13896,
    "corners": 17366,
    "Ġgenerous": 6273,
    "Ġarisen": 11740,
    "ruin": 22178,
    "visible": 10532,
    "Ġsk": 964,
    "Ġheightened": 8648,
    "uneasy": 23685,
    "Ġwillingly": 8883,
    "Ġcharmingly": 24220,
    "Ġscheme": 7064,
    "tornadoes": 26153,
    "Ġpepper": 9779,
    "occupation": 15057,
    "Ġwildly": 9412,
    "seldom": 13785,
    "Ġvictor": 5125,
    "recol": 10149,
    "Ġrace": 5847,
    "ophisticated": 22476,
    "Ġcemet": 20679,
    "Ġswear": 6461,
    "suddenly": 6493,
    "Ġdivers": 9664,
    "Ġwriting": 4667,
    "Ġnich": 21518,
    "sicilian": 21062,
    "Ġsevent": 18202,
    "Ġunconsciously": 10003,
    "sings": 4252,
    "type": 16173,
    "Ġawakened": 10452,
    "comprehend": 14358,
    "elled": 3993,
    "Ġregained": 18597,
    "Ġdupl": 9952,
    "Ġsurface": 5119,
    "Ġfruit": 12323,
    "ipt": 12475,
    "ation": 320,
    "Ġgeneric": 18459,
    "Ġtossed": 5815,
    "hen": 3516,
    "Ġtowing": 9192,
    "receive": 12538,
    "Ġmountainous": 16598,
    "Ġaqu": 17741,
    "Ġapoplexy": 25265,
    "died": 10692,
    "yond": 2333,
    "Ġproducing": 11896,
    "vi": 2376,
    "Ġnowhere": 12882,
    "several": 5543,
    "Ġremains": 4910,
    "Ġadequate": 20307,
    "cheerfulness": 20179,
    "Ġportable": 19368,
    "ë": 172,
    "Ġaddresses": 3768,
    "ach": 435,
    "extent": 22764,
    "Ġinvolved": 8922,
    "Ġexperiments": 23030,
    "77": 15298,
    "baby": 25515,
    "Ġorgies": 18285,
    "Ġexhilarating": 26337,
    "easy": 9591,
    "Ġparticularly": 5056,
    "ó": 180,
    "Ġvary": 15804,
    "Ġacc": 575,
    "ising": 2256,
    "Ġneighbor": 25805,
    "Ġpiazza": 26449,
    "appalled": 18760,
    "Ġformal": 2941,
    "Ġethere": 23948,
    "Ġloite": 22109,
    "Ġperish": 8873,
    "Ġfringe": 17270,
    "Ġschools": 9475,
    "Ġcretan": 22723,
    "Ġsnarled": 25716,
    "test": 13790,
    "Ġchronicler": 20228,
    "Ġmoisture": 12356,
    "Ġindic": 2888,
    "Ġtemperate": 16159,
    "Ġtakes": 5007,
    "Ġvirtues": 9934,
    "once": 5904,
    "iro": 20913,
    "Ġfishing": 9661,
    "Ġdad": 12596,
    "wick": 5362,
    "Ġsung": 23271,
    "Ġmonomaniac": 9567,
    "Ġtraverse": 18891,
    "Ġremorselessly": 16966,
    "Ġcauses": 2563,
    "Ġpyramids": 15112,
    "ronted": 14875,
    "Ġrec": 898,
    "tub": 9142,
    "boscombe": 26121,
    "Ġcomputer": 1183,
    "Ġstrang": 4160,
    ">": 34,
    "ssing": 3807,
    "Ġinstincts": 16985,
    "iard": 9600,
    "oker": 10962,
    "worked": 19004,
    "estone": 18364,
    "Ġcripple": 11439,
    "Ġcring": 15548,
    "Ġcinque": 20484,
    "Ġtwinkle": 12320,
    "Ġcried": 1487,
    "orm": 425,
    "for": 963,
    "Ġfreshets": 25705,
    "Ġoverhear": 15972,
    "Ġkrus": 18349,
    "Ġsleeping": 6319,
    "pronouncing": 25193,
    "befriend": 22490,
    "Ġsighs": 22707,
    "Ġfilled": 4394,
    "Ġsufferable": 16256,
    "Ġhateful": 19712,
    "Ġwander": 9030,
    "Ġfull": 2177,
    "Ġcents": 17828,
    "erness": 6434,
    "Ġmanly": 22322,
    "Ġwindlass": 7256,
    "phenomenon": 17647,
    "Ġgruff": 21612,
    "arer": 3967,
    "Ġdecapitated": 20614,
    "knight": 20939,
    "Ġchancery": 20715,
    "Ġdante": 21437,
    "skill": 24486,
    "Ġwilliam": 3482,
    "Ġtheore": 1830,
    "ĠĠĠĠĠĠĠĠĠĠĠĠĠĠĠĠĠĠĠĠĠĠĠĠĠĠĠĠĠĠĠĠĠ": 12040,
    "narr": 12493,
    "melted": 25206,
    "gledy": 25403,
    "Ġglistened": 20171,
    "osity": 14184,
    "Ġfalsehood": 10522,
    "Ġtapers": 11550,
    "Ġeleven": 9388,
    "Ġrespectability": 14483,
    "regard": 7973,
    "Ġconfluent": 19039,
    "Ġcommunicative": 24547,
    "Ġsorting": 3232,
    "Ġnervousness": 23555,
    "Ġmatted": 22909,
    "Ġnodded": 11966,
    "bar": 7541,
    "feels": 22500,
    "emotion": 21926,
    "ourselves": 9009,
    "objection": 19914,
    "Ġdestroying": 14727,
    "Ġdived": 9176,
    "Ġanyways": 22518,
    "Ġpolite": 9880,
    "Ġretort": 23068,
    "Ġcho": 4547,
    "Ġnarrating": 24350,
    "Ġstudded": 18966,
    "Ġinduce": 7763,
    "perquis": 22188,
    "ultaneously": 4193,
    "harm": 13733,
    "seam": 10873,
    "Ġskil": 14351,
    "Ġtophet": 23572,
    "Ġunkindness": 22036,
    "elling": 5830,
    "Ġpitchpoling": 14909,
    "Ġseasoned": 24404,
    "inforcement": 3088,
    "glance": 16586,
    "Ġinverted": 12633,
    "Ġunable": 4951,
    "Ġinsincere": 26598,
    "Ġ45": 14769,
    "Ġtattered": 21170,
    "Ġhierarchical": 1928,
    "arranging": 19317,
    "Ġaudibly": 24771,
    "Ġmaritime": 23038,
    "Ġcommunicated": 9060,
    "amplified": 26493,
    "Ġtransports": 24276,
    "Ġswayed": 15046,
    "Į": 239,
    "Ġquart": 11784,
    "Ġcompared": 2229,
    "Ġsh": 419,
    "Ġdispelling": 23877,
    "Ġwont": 9849,
    "Ġpry": 11597,
    "Ġoscillations": 2899,
    "asses": 7016,
    "reproof": 25432,
    "Ġvest": 8163,
    "Ġdirectly": 2106,
    "Ġsweetly": 23916,
    "Ġbutt": 14124,
    "meditated": 19069,
    "suppose": 8644,
    "Ġpred": 662,
    "Ġpompous": 20421,
    "emptied": 23638,
    "irra": 15781,
    "thur": 7188,
    "Ġpluck": 15610,
    "Ġphilipp": 23881,
    "Ġhawaiian": 25366,
    "alo": 7587,
    "Ġapart": 4746,
    "Ġnavel": 24575,
    "doubtful": 24791,
    "Ġbland": 11063,
    "gratification": 24347,
    "python": 4691,
    "Ġobe": 5800,
    "Ġlim": 2383,
    "Ġcaroline": 7255,
    "Ġbraced": 16578,
    "Ġmarvelled": 18873,
    "Ġ17": 5740,
    "Ġdoctors": 12148,
    "Ġstars": 6149,
    "fitted": 17543,
    "Ġsolutions": 1946,
    "ĠĠĠĠĠĠĠĠĠĠĠĠĠĠĠĠĠĠĠĠĠĠĠĠĠĠĠĠĠĠĠĠĠĠ": 14612,
    "Ġoutbreak": 22315,
    "william": 4562,
    "Ġtearless": 24786,
    "nns": 1894,
    "Ġtubs": 11369,
    "Ġsummary": 19401,
    "Ġdreamy": 14701,
    "Ġstripping": 23695,
    "Ġrecompense": 14836,
    "Ġdiabolically": 25513,
    "Ġcam": 10160,
    "Ġsooty": 25815,
    "belongs": 25596,
    "Ġlieuten": 13324,
    "Ġepicurean": 20554,
    "Ġvint": 18194,
    "pron": 9004,
    "Ġbrack": 23832,
    "Ġbriefly": 11366,
    "Ġmorrow": 9341,
    "Ġfirmest": 16663,
    "Ġtoler": 7588,
    "endent": 15915,
    "Ġinestim": 15620,
    "dense": 18714,
    "Ġcasualty": 20340,
    "Ġcomm": 839,
    "eked": 16400,
    "Ġsquall": 7043,
    "unworthy": 18161,
    "Ġsleeves": 10659,
    "Ġpuzzling": 14894,
    "Ġbefallen": 12340,
    "Ġbes": 2661,
    "ies": 582,
    "Ġgloves": 8574,
    "Ġlessened": 19087,
    "Ġbethink": 12376,
    "bottle": 20144,
    "dug": 18462,
    "Ġeffective": 1250,
    "sensations": 20049,
    "Ġwouldst": 18501,
    "Ġcrucial": 9890,
    "Ġgpt": 4351,
    "ily": 1031,
    "Ġthr": 5709,
    "Ġbreat": 3461,
    "Ġsoftware": 18918,
    "Ġdispleasure": 16049,
    "Ġbas": 6380,
    "Ġnurtured": 19748,
    "Ġgaz": 4043,
    "Ġshrivelled": 19702,
    "lev": 1237,
    "Ġinterposed": 20617,
    "politeness": 16905,
    "Ġautom": 3612,
    "Ġhospitable": 17058,
    "executed": 25739,
    "leman": 21366,
    "balanced": 14556,
    "Ġinflex": 20633,
    "oquent": 12496,
    "volut": 1561,
    "Ġinheriting": 25354,
    "peril": 18342,
    "Ġwarmup": 3921,
    "erative": 21271,
    "ensing": 12892,
    "?âĢĿ": 700,
    "Ġendwise": 23142,
    "rasing": 21044,
    "Ġexasperate": 20096,
    "Ġfeasts": 25369,
    "Ġcapricious": 20537,
    "Ġfaith": 5350,
    "Ġliveliness": 13641,
    "Ġsecre": 5493,
    "perch": 18341,
    "Ġrested": 9377,
    "Ġfarthest": 23114,
    "phew": 6368,
    "Ġarid": 22174,
    "Ġenhancement": 23884,
    "Ġshipmate": 8927,
    "istry": 22107,
    "remains": 10397,
    "phantoms": 24679,
    "Ġsailed": 4889,
    "Ġcomplacency": 19446,
    "lacing": 17589,
    "sleeping": 13452,
    "ater": 3372,
    "oqu": 7555,
    "Ġfresher": 23207,
    "Ġliberty": 7762,
    "ashing": 4824,
    "Ġsens": 1854,
    "Ġheavens": 5050,
    "Ġarchipelagoes": 14342,
    "ivorous": 22080,
    "Ġslope": 14458,
    "soft": 12506,
    "Ġsloping": 11936,
    "task": 13791,
    "bran": 23573,
    "police": 10582,
    "persecut": 22187,
    "Ġreceive": 4703,
    "Ġstil": 15714,
    "thorough": 21983,
    "Ġcheerfulness": 10515,
    "surface": 10529,
    "Ġvi": 1952,
    "Ġdistance": 3483,
    "Ġconvulsively": 25717,
    "originally": 24937,
    "philosop": 9566,
    "Ġdisturbing": 19944,
    "Ġbouquet": 20682,
    "Ġsubterraneous": 20264,
    "Ġevenness": 22831,
    "twenty": 6607,
    "Ġcrimson": 16439,
    "Ġsplit": 7993,
    "clothed": 19736,
    "Ġpret": 3033,
    "clings": 23150,
    "Ġornaments": 17450,
    "Ġklux": 22193,
    "enchant": 21282,
    "Ġscrewing": 20207,
    "blooded": 20021,
    "Ġsullenly": 17171,
    "Ġquite": 1740,
    "slouched": 24556,
    "farmer": 25899,
    "Ġrestore": 9378,
    "Ġgettest": 23232,
    "servant": 15034,
    "Ú": 155,
    "Ġbags": 24536,
    "Ġviewing": 19263,
    "Ġseats": 14087,
    "Ġknitted": 19588,
    "Ġaxis": 12304,
    "goodness": 19287,
    "winter": 10739,
    "Ġvis": 1064,
    "Ġsitting": 3602,
    "Ġobserving": 6081,
    "Ġfaithfulness": 24445,
    "enesis": 24387,
    "Ġconcl": 5095,
    "embraces": 25803,
    "Ġcushion": 17833,
    "chery": 24550,
    "Ġtailed": 21167,
    "nyder": 16685,
    "bound": 6220,
    "Ġeverything": 3154,
    "gans": 11488,
    "Ġprogramming": 1182,
    "ezes": 9989,
    "Ġanx": 3179,
    "isome": 17848,
    "Ġkindly": 6078,
    "Ġglided": 7446,
    "lat": 9603,
    "Ġforgive": 8010,
    "Ġrheum": 18214,
    "Ġfountain": 7365,
    "Ġe": 311,
    "Ġdut": 2986,
    "lording": 24047,
    "Ġswiss": 18881,
    "give": 4688,
    "serpent": 16289,
    "elag": 12654,
    "five": 6356,
    "Ġmechanism": 2232,
    "Ġfamiliar": 5511,
    "stir": 12669,
    "Ġapproach": 856,
    "ckets": 6843,
    "Ġyourself": 2594,
    "lemency": 21372,
    "Ġprincipal": 6496,
    "africa": 26308,
    "Ġconcluded": 5658,
    "Ġspinning": 15051,
    "separ": 9229,
    "division": 20047,
    "excepting": 19705,
    "made": 4808,
    "ĠĠĠĠĠĠĠĠĠĠĠĠĠĠĠĠĠĠĠĠĠĠĠĠ": 5321,
    "Ġnotorious": 18223,
    "Ġenvironment": 4210,
    "reason": 4414,
    "Ġmons": 10155,
    "determination": 19943,
    "stall": 21644,
    "Ġswart": 14433,
    "Ġclanging": 18422,
    "hatchet": 24822,
    "insist": 23062,
    "sitting": 8387,
    "caught": 8726,
    "castles": 14635,
    "Ġdevelopment": 7061,
    "Ġemb": 1258,
[...]
