{
  "metadata": {
    "vocab_size": 26615,
    "algorithm": "BPE",
    "created_at": "2026-07-25 05:13:46",
    "special_tokens": [
      "<PAD>",
      "<SOS>",
      "<EOS>",
      "<UNK>",
      "<MASK>"
    ]
  },
  "vocab": {
    "Ġemir": 23354,
    "shazz": 14241,
    "Ì": 141,
    "gerine": 22894,
    "Ġplayers": 12041,
    "\"]": 17472,
    "Ġnorthwards": 19549,
    "Ġoppressed": 11190,
    "Ġexplore": 15911,
    "Ġbrill": 8552,
    "Ġrecall": 3858,
    "Ġacross": 1329,
    "Ġwer": 12556,
    "constit": 24606,
    "Ġdel": 1614,
    "Ġinexpressible": 17335,
    "ck": 436,
    "severe": 21823,
    "Ġpapered": 20134,
    "Ġhanged": 17927,
    "Ġbun": 6009,
    "Ġhues": 21493,
    "melted": 25207,
    "Ġfret": 10807,
    "Ġdrops": 9035,
    "vious": 1784,
    "Ġcontempt": 6277,
    "Ġmarlingspike": 26580,
    "Ġpers": 1341,
    "Ġeliza": 6438,
    "whel": 7666,
    "Ġimpenetrable": 17399,
    "undoubtedly": 13312,
    "Ġthence": 8884,
    "Ġroof": 6566,
    "relation": 19451,
    "Ġchances": 9266,
    "Ġstat": 1489,
    "Ġwast": 21865,
    "Ġseaport": 20602,
    "Ġattempt": 3488,
    "prov": 16425,
    "iastic": 12483,
    "imes": 1301,
    "Ġtremor": 24767,
    "Ġwaves": 3919,
    "during": 6788,
    "backed": 9868,
    "sings": 4253,
    "honest": 17004,
    "obliged": 20634,
    "recurrent": 4994,
    "pl": 403,
    "Ġfil": 3475,
    "Ġyon": 9695,
    "Ġdarting": 7758,
    "Ġbanqu": 12593,
    "dro": 6647,
    "Ġunaccountably": 26516,
    "ins": 1376,
    "Ġredden": 15697,
    "Ġjumping": 13343,
    "Ġabandonment": 25604,
    "Ġmoluccas": 25630,
    "buffalo": 20566,
    "fiercely": 25257,
    "Ġsystems": 791,
    "Ġparticulars": 5754,
    "Ġmasking": 2423,
    "Ġcomstock": 21856,
    "Ġtwine": 14313,
    "Ġbash": 12591,
    "Ġsorts": 6887,
    "conclusion": 25672,
    "Ġhousekeeping": 18946,
    "Ġinstructive": 19288,
    "ruded": 15900,
    "urer": 18124,
    "Ġfamiliar": 5511,
    "Ġresolve": 13171,
    "Ġimmured": 24075,
    "rints": 12506,
    "arken": 18668,
    "Ġfashionable": 19547,
    "lever": 2928,
    "hurst": 19881,
    ".âĢĻ": 1719,
    "Ġrepeat": 8001,
    "Ġcanterbury": 22173,
    "hither": 11494,
    "windlass": 16722,
    "Ġindisc": 16230,
    "Ġhandsom": 11125,
    "watching": 16931,
    "Ġignor": 4012,
    "Ġfiendish": 13329,
    "Ġconn": 9232,
    "Ġgeneva": 5450,
    "Ġtechn": 9372,
    "beef": 18527,
    "belong": 12126,
    "violets": 23545,
    "Ġalbino": 20506,
    "Ġaspect": 3093,
    "det": 5207,
    "Ġbrilliantly": 25123,
    "Ġestablished": 9072,
    "Ġ13": 6720,
    "Ġpeeping": 16130,
    "Ġbegan": 2021,
    "Ġchronicle": 20231,
    "Ġextinguish": 14337,
    "Ġimple": 1868,
    "Ġexhibiting": 19841,
    "delirious": 19508,
    "Ġpaying": 9940,
    "gged": 3781,
    "Ġthankful": 14741,
    "Ġribbons": 24324,
    "aud": 8524,
    "dient": 442,
    "Ġroast": 18457,
    "Ġanno": 9669,
    "Ġhomeless": 23390,
    "Ġrelu": 1047,
    "Ġflamingo": 15103,
    "Ġwonderfully": 10431,
    "Ġrandomly": 1923,
    "Ġhiding": 9825,
    "Ġconject": 6029,
    "@": 36,
    "uzzle": 19586,
    "Ġloops": 8855,
    "Ġcurv": 3513,
    "Ġrooted": 13170,
    "Ġsalutation": 12400,
    "Ġjac": 1899,
    "arying": 9803,
    "Ġgreedily": 18965,
    "urs": 6990,
    "Ġapo": 9632,
    "Ġeach": 889,
    "Ġtreacherously": 25132,
    "Ġambition": 11433,
    "descending": 16287,
    "Ġjig": 15954,
    "moid": 2451,
    "ption": 7398,
    "Ġevolve": 3000,
    "Ġappointment": 10648,
    "Ġcorresponds": 19824,
    "Ġdepresses": 25798,
    "neat": 22462,
    "Ġunperceived": 22040,
    "ologist": 22856,
    "iability": 20922,
    "Ġindicate": 23725,
    "ook": 21006,
    "Ġquarto": 17298,
    "Ġstre": 2108,
    "Ġmerchants": 23735,
    "Ġcomrade": 11681,
    "unities": 15774,
    "alarm": 15630,
    "artificial": 1015,
    "overcome": 19051,
    "Ġdiscove": 16158,
    "Ġassembly": 10644,
    "Ġ60": 14877,
    "Ġargued": 13630,
    "opatra": 22482,
    "Ġrowing": 10302,
    "Ġschoolmaster": 16863,
    "Ġboats": 2635,
    "ieved": 3229,
    "Ġdeceiving": 21843,
    "Ġwhisky": 23937,
    "eray": 21269,
    "Ġprincip": 5599,
    "Ġclock": 9535,
    "mushroom": 26396,
    "oms": 4595,
    "Ġboister": 12924,
    "insanity": 23072,
    "Ġrecognise": 12046,
    "anum": 17837,
    "Ġsounding": 8266,
    "Ġscalding": 16317,
    "phren": 22765,
    "Ġentitled": 8541,
    "nant": 17610,
    "pred": 2799,
    "rather": 5430,
    "Ġeigen": 4882,
    "Ġdisasters": 16056,
    "Ġblows": 5975,
    "Ġrecoil": 18691,
    "Ġenabled": 9299,
    "Ġdrop": 4347,
    "roman": 22009,
    "Ġscandinavian": 26347,
    "Ġseasonable": 24405,
    "acing": 2713,
    "Ġlurk": 13384,
    "Ġemployed": 5200,
    "Ġsurmount": 20004,
    "isticated": 1543,
    "Ġflag": 7242,
    "Ġsobbed": 14136,
    "equ": 6791,
    "lo": 682,
    "Ġelasticity": 19561,
    "writer": 14649,
    "Ġrebounds": 25968,
    "Ġprestige": 22241,
    "Ġslaught": 23171,
    "akness": 14196,
    "Ġ99": 10746,
    "Ġfather": 1452,
    "fitted": 17545,
    "Ġdad": 12605,
    "Ġshrew": 22005,
    "exertion": 16019,
    "icular": 2022,
    "Ġevangelist": 20341,
    "Ġunfathomable": 20551,
    "Ġroute": 11382,
    "Ġheidelburgh": 11645,
    "Ġmistress": 8615,
    "Ġcolle": 8926,
    "isson": 23463,
    "Ġrefer": 18697,
    "Ġinsince": 23679,
    "ivided": 22083,
    "room": 2179,
    "trick": 19416,
    "Ġvillas": 24059,
    "Ġaccused": 8510,
    "sheet": 16288,
    "Ġoriginally": 7304,
    "crown": 13700,
    "Ġinformation": 1051,
    "influences": 25251,
    "Ġscandinav": 19964,
    "orse": 5807,
    "acute": 22599,
    "Ġmungo": 25632,
    "ordinate": 12879,
    "Ġqueerest": 16417,
    "contrast": 25595,
    "Ġam": 660,
    "figures": 20125,
    "kily": 20939,
    "izz": 7613,
    "collinses": 19925,
    "Ġguernsey": 9354,
    "Ġapplications": 4784,
    "Ġenvelopes": 24506,
    "Ġfossil": 12390,
    "Ġbroad": 3642,
    "Ġillust": 8264,
    "wondering": 19847,
    "Ġstorms": 11263,
    "Ġsentinel": 26066,
    "Ġshaft": 18230,
    "atra": 17772,
    "Ġporing": 21470,
    "Ġforecastle": 5495,
    "ĠĠĠĠ": 458,
    "Ġfretfully": 25448,
    "Ġdownstairs": 11225,
    "Ġsh": 419,
    "conf": 4957,
    "view": 5898,
    "Ġrmsprop": 3356,
    "Ġpillar": 21476,
    "tempted": 26404,
    "Ġreside": 22544,
    "quered": 11057,
    "Ġshowed": 4499,
    "Ġstrateg": 1356,
    "Ġinquir": 4243,
    "Ġmove": 5107,
    "Ġpredestinated": 18516,
    "woe": 21138,
    "Ġawait": 17073,
    "kick": 20938,
    "Ġhe": 318,
    "scy": 21058,
    "flitted": 23973,
    "gorge": 22342,
    "Ġhole": 6081,
    "oped": 6049,
    "velope": 17702,
    "Ġbulldog": 23862,
    "Ġcondescending": 24869,
    "Ġequally": 5258,
    "Ġdarts": 16769,
    "Ġmad": 2429,
    "Ġjoyful": 13223,
    "Ġconfusing": 23310,
    "examination": 25479,
    "Ġliterary": 25166,
    "Ġempt": 5051,
    "Ġspermaceti": 8969,
    "Ġdefe": 21841,
    "Ġunctuous": 10268,
    "Ġsitu": 3497,
    "thinking": 9016,
    "Ġlay": 584,
    "mpus": 13758,
    "Ġlighted": 7065,
    "acca": 23599,
    "Ġparameter": 880,
    "Ġconducting": 16651,
    "itiousness": 21337,
    "Ġdaft": 19666,
    "necess": 4897,
    "largely": 19577,
    "Ġdirected": 5578,
    "contrad": 19294,
    "enstein": 5800,
    "Ġconfine": 14510,
    "Ġache": 18663,
    "Ġinsurgents": 26601,
    "Ġvoice": 2191,
    "Ġceiling": 7998,
    "Ġchange": 1993,
    "Ġarchly": 22803,
    "Ġdevotees": 25377,
    "Ġunhappy": 5640,
    "generally": 9438,
    "arp": 2026,
    "post": 6064,
    "lust": 15382,
    "prejud": 11799,
    "figured": 20126,
    "Ġsunrise": 9376,
    "Ġtooks": 23328,
    "Ġwarehouses": 20421,
    "Ġmurderous": 8317,
    "string": 15689,
    "Ġknowledge": 1447,
    "tottenham": 25419,
    "Ġoverboard": 6047,
    "Ġlassitude": 20590,
    "ails": 6162,
    "Ġordered": 5833,
    "Ġ100": 14365,
    "sided": 17665,
    "Ġserious": 4324,
    "iod": 3842,
    "Ġfitted": 6245,
    "Ġtelesc": 12996,
    "Ġsemicirc": 16392,
    "Ġincommun": 25309,
    "pushed": 21025,
    "earn": 10697,
    "gether": 1593,
    "animals": 24737,
    "condemned": 26061,
    "inf": 6234,
    "dri": 5890,
    "patched": 17644,
    "Ġrelaps": 18777,
    "Ġbo": 797,
    "Ġalluding": 18237,
    "Ġsulkily": 25882,
    "stonecraft": 24355,
    "ports": 13775,
    "ere": 6790,
    "Ġvect": 1224,
    "conve": 14245,
    "Ġsmut": 22561,
    "Ġbewit": 15731,
    "raising": 21636,
    "Ġfoiled": 23246,
    "Ġoutriders": 26544,
    "Ġdun": 6676,
    "varying": 13805,
    "Ġstrain": 6026,
    "feared": 11806,
    "talked": 14987,
    "Ġastern": 6092,
    "Ġcostume": 16496,
    "Ġoppose": 16520,
    "imony": 12695,
    "vessel": 11378,
    "gh": 3804,
    "Ġseasons": 9434,
    "Ġacquaintance": 4133,
    "Ġstairs": 5540,
    "Ġsplashed": 23750,
    "anke": 15564,
    "Ġowe": 8116,
    "Ġwhistle": 9069,
    "Ġknighthood": 25298,
    "hopes": 15372,
    "Ġfloating": 6606,
    "tarpaulins": 26406,
    "Ġaccounting": 14573,
    "Ġapprovingly": 26255,
    "Ġincluding": 2847,
    "Ġguardian": 14944,
    "obed": 14448,
    "compass": 9018,
    "events": 12320,
    "shish": 11796,
    "Ġfurther": 1058,
    "Ġarom": 15494,
    "Ġinsol": 10182,
    "Ġtimbers": 14841,
    "Ġahead": 6665,
    "Ġdespite": 19356,
    "beg": 22492,
    "friends": 8307,
    "Ġplanted": 9776,
    "battering": 20788,
    "Ġcenturies": 8626,
    "Ġfinancier": 26584,
    "excellent": 8045,
    "Ġemigrant": 25860,
    "Ġsleek": 23387,
    "Ġteacup": 16216,
    "Ġgaunt": 11269,
    "Ġlazarus": 15030,
    "Ġrefrain": 12951,
    "Ġawfulness": 23589,
    "Ġfifteen": 6947,
    "Ġprosecut": 9700,
    "Ġenlarged": 25986,
    "Ġchildren": 3771,
    "Ġtreading": 16506,
    "Đ": 209,
    "Ġreser": 5170,
    "Ġmonogram": 26575,
    "laug": 10708,
    "Ġinvader": 23480,
    "rr": 17651,
    "Ġordinarily": 20651,
    "salis": 25150,
    "irium": 8163,
    "antee": 22102,
    "Ġkink": 22198,
    "Ġruggedness": 26270,
    "ounds": 4157,
    "Ġamusements": 16914,
    "Ġscept": 15505,
    "tting": 17681,
    "id": 338,
    "ance": 478,
    "utored": 15666,
    "Ġtissu": 25921,
    "Ġstirs": 14919,
    "Ġbil": 15568,
    "Ġactivation": 920,
    "Ġflattening": 26049,
    "omen": 4086,
    "Ġgrown": 5628,
    "hatherley": 17569,
    "ske": 13783,
    "Ġplatform": 17133,
    "Ġreaders": 18916,
    "Ġtoilette": 20496,
    "shapes": 22452,
    "Ġcommercial": 22678,
    "ribly": 8256,
    "Ġrippling": 17279,
    "ifting": 6547,
    "ressing": 8921,
    "Ġrephr": 21683,
    "regiment": 16451,
    "Ġelijah": 9103,
    "Ġpike": 12628,
    "Ġimmovable": 15895,
    "speed": 19412,
    "Ġjunks": 25116,
    "roll": 9199,
    "nez": 22461,
    "Ġaff": 1115,
    "Ġrise": 5637,
    "isters": 11923,
    "atig": 13846,
    "rugg": 15899,
    "Ġshuttle": 12130,
    "great": 3518,
    "gy": 2097,
    "algorithm": 3729,
    "Ġhousings": 21497,
    "Ġwhiting": 10860,
    "Ġfelix": 4850,
    "istry": 22114,
    "Ġashamed": 6404,
    "Ġdecisions": 6704,
    "Ġstrong": 1787,
    "Ġresult": 4462,
    "Ġrepairing": 25590,
    "Ġarrive": 6907,
    "Ġlawn": 7379,
    "Ġsmoking": 6430,
    "Ġsocieties": 20185,
    "Ġfrancisco": 26065,
    "sharp": 10307,
    "Ġcoefficient": 2881,
    "Ġfundament": 2923,
    "Ġele": 1964,
    "Ġcrevice": 22724,
    "inisc": 15490,
    "gely": 10701,
    "Ġrelieve": 8225,
    "Ġmarchant": 14788,
    "Ġop": 2601,
    "isation": 13894,
    "drawers": 19389,
    "Ġglowing": 12286,
    "executed": 25740,
    "facts": 19845,
    "bedded": 12446,
    "ked": 5615,
    "uous": 4145,
    "mill": 13755,
    "appro": 7046,
    "Ġsouth": 4912,
    "ht": 375,
    "Ġrapt": 7226,
    "Ġbaleen": 10039,
    "Ġurgent": 16868,
    "skylight": 25624,
    "Ġdome": 15592,
    "Ġain": 6970,
    "cas": 20796,
    "Ġcomparing": 14266,
    "Ġham": 3423,
    "nment": 20992,
    "Ġweight": 656,
    "Ġdesign": 4132,
    "Ġaverred": 18867,
    "Ġargu": 10935,
    "Ġsuckling": 25998,
    "preservation": 25306,
    "umed": 6556,
    "couldn": 23720,
    "Ġreusability": 13559,
    "ph": 918,
    "Ġtroubled": 6618,
    "meantime": 9095,
    "¦": 104,
    "Ġdesperate": 7778,
    "ugnance": 12371,
    "Ġmythologies": 26215,
    "pursuit": 20343,
    "Ġpark": 5465,
    "Ġshivered": 14110,
    "cement": 2949,
    "Ġproposed": 7460,
    "Ġminima": 3466,
    "Ġmourn": 8707,
    "removed": 15518,
    "Ġsteadfastly": 10653,
    "ivia": 22081,
    "Ġgreeting": 18963,
    "Ġkn": 4548,
    "Ġbias": 1192,
    "usages": 22295,
    "Ġ500": 24323,
    "detective": 24382,
    "Ġprotect": 6339,
    "Ġassert": 7122,
    "Ġ(`": 12857,
    "rium": 3131,
    "Ġaz": 9631,
    "Ġviolin": 16430,
    "phys": 18707,
    "Ġaccost": 12851,
    "Ġdetaining": 25820,
    "Ġsurpasses": 25269,
    "mblies": 24610,
    "chor": 6148,
    "mown": 20972,
    "Ġtokens": 1772,
    "henomen": 10496,
    "Ġinfle": 16365,
    "Ġplucked": 15116,
    "Ġremains": 4911,
    "Ġwakes": 11574,
    "cheerfulness": 20183,
    "Ġspectrum": 4476,
    "over": 1844,
    "Ġquito": 24407,
    "Ġloadstone": 25817,
    "Ġowning": 18745,
    "liable": 3821,
    "Ġfaire": 13366,
    "Ġstately": 9836,
    ",--": 2476,
    "Ġgoug": 17993,
    "Ġarrived": 3751,
    "Ġcaptains": 7457,
    "connected": 1309,
    "Ġconflict": 17275,
    "Ġexhaled": 19685,
    "Ġdreamt": 23942,
    "jointed": 24018,
    "Ï": 144,
    "Ġdoubtful": 19143,
    "Ġsuppose": 2862,
    "Ġorganisation": 23585,
    "Ġsnatching": 10473,
    "however": 4376,
    "Ġoccur": 1083,
    "eluded": 21579,
    "hatred": 24818,
    "raised": 15682,
    "grow": 10100,
    "Ġcharming": 6631,
    "city": 15329,
    "Ġflying": 5413,
    "Ġsuck": 15865,
    "Ġterti": 14539,
    "Ġsheet": 6264,
    "Ġeyeing": 6461,
    "Ġas": 374,
    "uttermost": 24943,
    "Ġinquired": 7485,
    "wanderer": 25424,
    "Ġfancy": 3750,
    "Ġascertained": 25297,
    "Ġthin": 4350,
    "Ġpallor": 13516,
    "Ġnarrowly": 16821,
    "Ġelaborate": 18635,
    "oky": 8200,
    "Ġincapable": 7423,
    "Ġremarked": 3700,
    "scho": 8763,
    "recol": 10152,
    "Ġlucas": 3835,
    "nin": 17609,
    "laid": 10111,
    "produced": 25415,
    "Ġtype": 2019,
    "Ġstoop": 16312,
    "Ġdistinguish": 2722,
    "Ġsultanism": 25889,
    "Ġpleasantness": 24140,
    "Ġrollicking": 24450,
    "ifice": 7198,
    "globe": 25145,
    "Ġenchanting": 17039,
    "Ġ1": 1012,
    "banked": 25338,
    "inno": 10757,
    "caps": 20809,
    "Ġcod": 8414,
    "Ġdusky": 13550,
    "Ġcharles": 11960,
    "ontory": 10460,
    "animation": 16980,
    "lins": 2025,
    "Ġdistinct": 4611,
    "Ġwhelm": 25999,
    "sneezes": 11447,
    "otence": 14024,
    "Ġprobability": 1125,
    "Ġspind": 18308,
    "Ġpip": 1611,
    "Ġignominy": 15088,
    "Ġfrequent": 3285,
    "Ġtranquillity": 7536,
    "âĢĺ": 939,
    "Ġpermanent": 13632,
    "Ġdust": 5911,
    "Ġballarat": 14721,
    "punctual": 26357,
    "bber": 4570,
    "Ġs": 265,
    "Ġpretty": 3863,
    "binnacle": 20789,
    "dutch": 17220,
    "Ġexceeding": 1581,
    "Ġcanst": 8860,
    "Ġlifeless": 8950,
    "Ġemaciated": 20641,
    "Ġretiring": 16283,
    "Ġflirt": 14425,
    "ulnerable": 18153,
    "aloes": 21506,
    "judgment": 16754,
    "Ġcle": 1510,
    "Ġxii": 11993,
    "fuller": 22504,
    "Ġnoiselessly": 22870,
    "lonely": 20959,
    "Ġunique": 12783,
    "Ġphysiognomical": 25612,
    "Ġ101": 24408,
    "complet": 11384,
    "dances": 17522,
    "cooks": 25070,
    "Ġbelongs": 8016,
    "collins": 6916,
    "Ġface": 1722,
    "unched": 10237,
    "Ġdwelling": 7322,
    "harbors": 20151,
    "previous": 9763,
    "Ġmeal": 9699,
    "Ġvirtue": 4923,
    "Ġdiabolically": 25514,
    "leton": 5148,
    "Ġjunk": 15956,
    "Ġtarpaulin": 26158,
    "Ġendeavour": 4679,
    "stand": 627,
    "Ġidiot": 11974,
    "«": 109,
    "Ġparacels": 13669,
    "Ġkl": 2731,
    "Ğ": 223,
    "commodore": 20627,
    "Ġless": 1939,
    "Ġcultured": 25158,
    "Ġcalves": 13037,
    "Ġcontemplative": 19895,
    "Ġaudible": 19883,
    "Ġacid": 22686,
    "Ġla": 5915,
    "sher": 5217,
    "Ġkeeled": 18810,
    "Ġuser": 15919,
    "ĠĠĠĠĠĠĠĠĠĠĠĠĠ": 22567,
    "Ġfavoring": 2347,
    "Ġ112": 24436,
    "Ġwrinkles": 8574,
    "inev": 21984,
    "Ġbroke": 5323,
    "Ġspinal": 12305,
    "Ġter": 2050,
    "Ġamidst": 9496,
    "adler": 21767,
    "killed": 15379,
    "sugg": 11847,
    "rank": 21044,
    "Ġskilfully": 20527,
    "Ġminus": 18752,
    "Ġdesk": 11910,
    "fit": 6648,
    "Ġhideous": 5985,
    "Ġringbolts": 24198,
    "Ġtraffic": 23088,
    "Ġarose": 7360,
    "attempt": 9363,
    "Ġlun": 7857,
    "Ġdownwards": 8532,
    "Ġsupports": 3048,
    "Ġcircumspect": 15087,
    "Ġbequeathed": 20704,
    "Ġstirred": 12221,
    "Ġheron": 22078,
    "Ġbridge": 8350,
    "Ġbag": 5699,
    "Ġmiles": 3807,
    "ij": 7803,
    "Ġtimes": 2303,
    "joint": 24017,
    "Ġdecl": 3591,
    "Ġstack": 21738,
    "Ġintensity": 10018,
    "distance": 12156,
    "Ġdecoding": 3079,
    "Ġinfrequent": 3827,
    "Ġhint": 5016,
    "Ġperfume": 25666,
    "Ġproudly": 19745,
    "elsewhere": 19870,
    "Ġgrimesby": 11458,
    "Ġinh": 10825,
    "console": 22476,
    "Ġeng": 1163,
    "Ġsuccour": 20438,
    "Ġspades": 12801,
    "vict": 11542,
    "ributed": 8216,
    "concl": 12874,
    "Ġnose": 4405,
    "Ġmile": 7152,
    "clouded": 20334,
    "volutions": 16325,
    "aus": 1500,
    "Ġunbecoming": 22067,
    "Ġinspired": 2516,
    "aken": 1869,
    "Ġconveniently": 20082,
    "plan": 15821,
    "Ġeighteen": 11240,
    "Ġranks": 21977,
    "Ġrevealing": 3925,
    "ellig": 524,
    "grin": 19107,
    "Ġmistaken": 4986,
    "erman": 5108,
    "marks": 7346,
    "Ġtatters": 21180,
    "Ġcanall": 10929,
    "Ġnods": 19063,
    "tling": 9145,
    "don": 3545,
    "Ġadaptation": 3154,
    "Ġentertainment": 12226,
    "Ġlimping": 23549,
    "Ġdecreas": 1645,
    "vo": 11541,
    "Ġnantucketers": 9897,
    "Ġswiftly": 5670,
    "Ġtrophy": 20010,
    "ordinary": 4410,
    "Ġinsular": 19271,
    "Ġfordham": 21781,
    "gazing": 12475,
    "handsome": 13179,
    "Ġleaping": 8342,
    "Ġanticipating": 17058,
    "Ġhairs": 13232,
    "drawing": 10488,
    "Ġroyalty": 19738,
    "Ġlangs": 13955,
    "Ġsignific": 3831,
    "Ġerect": 6145,
    "inching": 21192,
    "Ġprime": 10405,
    "Ġcreator": 7254,
    "Ġvis": 1016,
    "Ġcelebrate": 26359,
    "Ġesteem": 7531,
    "iverer": 11719,
    "Ġbanquet": 15243,
    "Ġswords": 19899,
    "Ġdisappeared": 5645,
    "seem": 10229,
    "projecting": 26074,
    "Ġvector": 1972,
    "Ġsqualls": 17021,
    "laughed": 20284,
    "Ġmeek": 21817,
    "americans": 25045,
    "Ġfireside": 23533,
    "Ġseas": 3074,
    "Ġx": 2072,
    "Ġmeans": 698,
    "prop": 1032,
    "ringle": 21043,
    "Ġbuttons": 12786,
    "Ġname": 2081,
    "Ġsword": 6734,
    "Ġwidth": 16773,
    "Ġphrensy": 25127,
    "Ġbottled": 23798,
    "rad": 2153,
    "Ġhour": 1812,
    "Ġimposed": 14215,
    "Ġinmost": 17933,
    "Ġnovels": 15932,
    "Ġselects": 4388,
    "Ġimminent": 11246,
    "Ġbrooded": 23110,
    "Ġharrow": 17928,
    "Ġstop": 2499,
    "Ġvile": 8475,
    "me": 876,
    "ĠâĢĺ_": 11118,
    "cture": 15668,
    "ounts": 4652,
    "Ġsixty": 7724,
    "Ġlbs": 11617,
    "Ġdecline": 9291,
    "Ġejaculation": 20257,
    "level": 2651,
    "Ġdreaming": 11224,
    "uccas": 21109,
    "industrious": 26241,
    "Ġfuller": 11157,
    "Ġpower": 1264,
    "arth": 4445,
    "Ġsenor": 20153,
    "omnipotent": 25965,
    "myst": 9824,
    "commend": 19996,
    "Ġconve": 5455,
    "heartedness": 24825,
    "Ġchuckled": 10649,
    "Ġsuspecting": 14912,
    "Ġcareful": 2611,
    "peasant": 23117,
    "whose": 6852,
    "Ġdart": 4587,
    "Ġpublic": 4334,
    "Ġweighty": 16035,
    "Ġacknowledgment": 16958,
    "Ġpreser": 6043,
    "Ġbrut": 18771,
    "Ġblessed": 6931,
    "Ġradney": 6776,
    "Ġowned": 11879,
    "Ġdiscovers": 4430,
    "Ġpumping": 25644,
    "jerked": 25619,
    "adventures": 20259,
    "Ġaimed": 20253,
    "Ġviewing": 19267,
    "Ġverify": 12091,
    "Ġsuffocated": 20730,
    "Ġinfinity": 23285,
    "Ġregimentals": 19860,
    "Ġrecurring": 23235,
    "hest": 3370,
    "bed": 3492,
    "Ġhoped": 5488,
    "Ġsam": 7569,
    "eminence": 20102,
    "intentions": 22943,
    "Ġbambooz": 26120,
    "Ġberries": 13408,
    "least": 8788,
    "Ġunaccountable": 7889,
    "Ġexamine": 7736,
    "recollection": 25349,
    "Ġcontinue": 5398,
    "inite": 6004,
    "Ġxxxi": 24971,
    "distressed": 24201,
    "drop": 15339,
    "Ġchecking": 23289,
    "Ġmoderation": 12823,
    "Ġaverse": 11082,
    "pequod": 7054,
    "eric": 3473,
    "Ġunheard": 22028,
    "```": 25894,
    "Ġvalues": 2649,
    "Ġdemeanour": 17339,
    "Ġdagger": 21441,
    "Ġvivacious": 19818,
    "Ġelucidated": 26030,
    "ezes": 9993,
    "Ġalt": 18101,
    "Ġhappened": 3717,
    "Ġwaxed": 21300,
    "Ġacc": 572,
    "Ġlur": 5226,
    "Ġgrinned": 16858,
    "ommod": 13978,
    "Ġsuspending": 19245,
    "posterity": 25489,
    "conjecturing": 20137,
    "Ġsor": 4146,
    "Ġfitly": 24007,
    "Ġarsacides": 17296,
    "adays": 14014,
    "recogn": 13426,
    "Ġsmelling": 16069,
    "au": 778,
    "Ġprem": 3428,
    "southern": 20412,
    "Ġimportant": 1050,
    "Ġunprofitable": 18268,
    "Ġepoch": 26472,
    "atre": 17771,
    "Ġtowed": 11266,
    "Ġgrass": 5177,
    "grad": 2566,
    "Ġsleeper": 8604,
    "Ġreminding": 19800,
    "mil": 13753,
    "Ġtruthful": 23870,
    "leaned": 21372,
    "Ġquiet": 3259,
    "uncont": 15777,
    "Ġspeed": 2449,
    "opposition": 24820,
    "Ġhundredth": 16519,
    "lift": 15387,
    "Ġinvisibly": 24814,
    "Ġbalanced": 12991,
    "Ġpadd": 9671,
    "ander": 6402,
    "holder": 13283,
    "Ġirritation": 20269,
    "Ġclapping": 14204,
    "Ġsurv": 6083,
    "rer": 3625,
    "whenever": 11884,
    "Ġegot": 18010,
    "underneath": 23791,
    "Ġwhosoever": 21723,
    "Ġshoes": 7073,
    "Ġbrit": 6291,
    "Ġmurmuring": 23581,
    "Ġjove": 9271,
    "ary": 984,
    "Ġoutrages": 18416,
    "Ġgaieties": 24197,
    "Ġtranslates": 12054,
    "Ġshakes": 10905,
    "Ġfamilies": 8028,
    "Ġintently": 8170,
    "Ġsprings": 16687,
    "batt": 20780,
    "89": 20761,
    "Ġderivatives": 2373,
    "Ġwhite": 1536,
    "Ġshares": 23248,
    "Ġmasts": 6466,
    "Ġdisclosed": 15156,
    "threatened": 25463,
    "Ġrealism": 18984,
    "Ġextreme": 2513,
    "Ġinterview": 9772,
    "bs": 3779,
    "Ġ97": 19777,
    "Ġdignity": 5704,
    "Ġsalut": 10511,
    "Ġtap": 12530,
    "gen": 6504,
    "Ġdan": 8796,
    "Ġcrutch": 23446,
    "Ġimplement": 3348,
    "ĠâĢĻ": 3039,
    "Ġ47": 14774,
    "Ġpretensions": 16560,
    "Ġamerica": 6764,
    "Ġwaif": 9378,
    "Ġdistributes": 4196,
    "onents": 8781,
    "Ġarms": 3966,
    "Ġlazily": 11381,
    "Ġstiff": 6993,
    "catch": 17508,
    "inforcement": 3168,
    "Ġincensed": 18572,
    "uns": 21875,
    "elaborate": 21580,
    "Ġrepetition": 8974,
    "Ġsubl": 7235,
    "Ġfound": 1248,
    "Ġcross": 1372,
    "._)": 10482,
    "Ġunfrequently": 20741,
    "Ġturbid": 23613,
    "races": 21634,
    "Ġwhichever": 14001,
    "Ġsplend": 9900,
    "Ġpunctures": 25136,
    "ow": 325,
    "Ġfactor": 19014,
    "Ġavocation": 23956,
    "Ġhidden": 1374,
    "_": 67,
    "subsided": 25832,
    "ispiece": 19728,
    "Ġdisinclination": 22541,
    "Ġforbearance": 12331,
    "Ġmanxman": 9567,
    "Ġsaved": 6692,
    "painting": 17046,
    "Ġfailure": 13316,
    "Ġhappiest": 11885,
    "Ġuntrodden": 23523,
    "Ġburtons": 19254,
    "Ġunlabeled": 3803,
    "Ġstarted": 4150,
    "Ġsneeze": 24698,
    "Ġgravity": 9251,
    "Ġ12": 5483,
    "smeer": 26148,
    "Ġwag": 10776,
    "Ġinnocent": 4922,
    "cent": 8074,
    "Ġadditionally": 1178,
    "Ġfavourites": 16646,
    "Ġcannot": 1666,
    "fic": 20854,
    "Ġjun": 8508,
    "gaff": 20884,
    "²": 115,
    "crucible": 24843,
    "Ġcomprehend": 6495,
    "westward": 25425,
    "Ġhuzza": 12638,
    "definition": 23124,
    "Ġwindigate": 18912,
    "Ġbased": 3339,
    "Ġarr": 1798,
    "Ġinfluences": 14867,
    "g": 75,
    "sion": 8095,
    "Ġdepartment": 24243,
    "Ġreckoned": 24743,
    "Ġcompetent": 11819,
    "Ġwitnesses": 9488,
    "Ġmaking": 1780,
    "Ġwoes": 23991,
    "Ġwestern": 10656,
    "Ġhurrying": 11997,
    "octial": 20008,
    "Ġsherlock": 3894,
    "liest": 6296,
    "blind": 16703,
    "urously": 18053,
    "athans": 7433,
    "Ġattends": 19653,
    "Ġepid": 18007,
    "Ġwouldn": 6048,
    "icial": 12660,
    "ario": 14249,
    "missing": 13221,
    "Ġ72": 19614,
    "Ġelectric": 15197,
    "Ġdard": 21426,
    "ifies": 6688,
    "Ġexertion": 8055,
    "Ġdyspeps": 16497,
    "Ġphrenolog": 12337,
    "Ġwrenching": 17325,
    "Ġoverall": 4361,
    "idelburgh": 10563,
    "Ġroot": 2647,
    "table": 5795,
    "Ġbrothers": 13178,
    "igh": 2028,
    "isome": 17850,
    "Ġthrilling": 19751,
    "Ġmining": 22834,
    "Ġmoose": 22438,
    "Ġspin": 7630,
    "whether": 5320,
    "combe": 7661,
    "Ġverdict": 13476,
    "Ġinvited": 6903,
    "ĠĠĠĠĠĠĠĠĠĠĠĠĠĠĠĠĠĠĠĠĠĠĠĠĠĠĠĠĠĠĠĠĠĠĠĠĠĠĠĠĠĠ": 24211,
    "Ġeffect": 968,
    "Ġfield": 1247,
    "Ġdorm": 4823,
    "Ġfervour": 19741,
    "Ġenvelop": 5584,
    "Ġresign": 18565,
    "resist": 8277,
    "Ġfriends": 2652,
    "Ġmarshy": 20221,
    "Ġuncommonly": 7761,
    "Ġfa": 4821,
    "Ġobliterated": 17407,
    "Ġabusive": 22278,
    "Ġbow": 3058,
    "Ġseized": 4835,
    "ootiful": 17375,
    "Ġascribe": 16783,
    "ason": 1267,
    "joice": 9604,
    "umbling": 6613,
    "visits": 24225,
    "Ġaberde": 22282,
    "Ġreptile": 15279,
    "Ġdiligently": 11406,
    "10": 17474,
    "solved": 7686,
    "Ġnephews": 24712,
    "orus": 10802,
    "Ġdisappearance": 9300,
    "reason": 4417,
    "Ġpardon": 5727,
    "Ġvolcanoes": 24148,
    "ornamented": 26596,
    "Ġrepresentation": 14407,
    "Ġresiding": 16064,
    "Ġphrases": 2794,
    "ozy": 17623,
    "irations": 18171,
    "Ġuntamed": 19166,
    "Ġexploding": 2109,
    "abriel": 6950,
    "Ġlabour": 7274,
    "Ġmixing": 24937,
    "Ġmerest": 14032,
    "merchant": 10467,
    "Ġobserve": 4672,
    "Ġadagrad": 2900,
    "favourable": 12267,
    "Ġdece": 6997,
    "Ġcheerily": 13308,
    "Ġarabic": 24983,
    "Ġrelationships": 2922,
    "Ġcourage": 4635,
    "went": 6513,
    "Ġnecks": 18182,
    "Ġties": 12531,
    "Ĉ": 201,
    "Ġmarsh": 9823,
    "Ġisolated": 13560,
    "Ġcoffins": 13251,
    "Ġinjure": 16782,
    "Ġselection": 18203,
    "Ġfun": 523,
    "Ġmomentum": 1600,
    "Ġdeserving": 14756,
    "Ġbristles": 25845,
    "Ġcarelessness": 13077,
    "Ġreproofs": 24893,
    "Ġrus": 14094,
    "Ġunavailing": 26217,
    "Ġrampart": 20321,
    "Ġdear": 1537,
    "sentiment": 12919,
    "wonder": 6372,
    "entions": 17977,
    "approve": 19940,
    "mense": 4781,
    "Ġxxi": 24475,
    "Ġchanced": 8188,
    "Ġmodified": 14168,
    "famous": 16917,
    "seemingly": 25363,
    "Ġlasted": 11054,
    "Ġoughts": 23904,
    "Ġchowders": 18386,
    "Ġchewing": 23288,
    "sed": 4176,
    "Ġattended": 5391,
    "Ġsecondary": 23334,
    "Ġgaze": 6932,
    "Ġwherein": 14297,
    "Ġbloodthirsty": 26602,
    "Ġinsipid": 26314,
    "Ġappearing": 9843,
    "Ġobstructed": 24678,
    "honor": 19902,
    "ulum": 21868,
    "azore": 23464,
    "bearer": 18525,
    "reflection": 13456,
    "Ġoverfitting": 1542,
    "Ġ7": 4746,
    "Ġconvalescence": 23748,
    "Ġ9": 5903,
    "Ġimputation": 22177,
    "formation": 22228,
    "etimes": 1987,
    "Ġmagg": 18907,
    "Ġprovoking": 16744,
    "Ġ27": 8618,
    "bow": 5424,
    "iously": 2673,
    "Ġsevent": 18201,
    "Ġplatonian": 25121,
    "Ġbritannica": 24681,
    "Ġseemingly": 9321,
    "Ġdissolved": 18555,
    "Ġconjectures": 16926,
    "Ġwait": 4908,
    "visible": 10535,
    "lane": 10707,
    "Ġbreaths": 14859,
    "preserving": 25305,
    "unction": 10236,
    "Ġrot": 10968,
    "waited": 24587,
    "sar": 12508,
    "Ġcausal": 3412,
    "Ġstates": 1850,
    "Ġexercise": 8360,
    "omeness": 18018,
    "Ġspouts": 7731,
    "Ġrustic": 14967,
    "Ġbird": 3760,
    "sli": 11524,
    "ique": 8746,
    "Ġmutiny": 13260,
    "abbering": 21801,
    "Ġstrat": 16095,
    "Ġunhinged": 26218,
    "haw": 6363,
    "Ġshrieks": 12203,
    "Ġraptures": 13497,
    "Ġkindred": 16377,
    "plate": 18208,
    "vous": 2253,
    "Ġrecess": 10848,
    "pie": 21013,
    "Ġdepressions": 25799,
    "Ġobedient": 20108,
    "flood": 19809,
    "Ġinsulated": 23680,
    "iform": 2201,
    "introduction": 15126,
    "Ġnovember": 11752,
    "Ġtransparency": 10678,
    "Ġslightly": 7293,
    "nature": 5360,
    "venth": 9298,
    "Ġcountrymen": 23597,
    "atic": 4018,
    "Ġstrokes": 16770,
    "Ġdem": 11676,
    "Ġfugitive": 17329,
    "Ġraising": 8912,
    "Ġrelated": 3719,
    "Ġmorbidness": 20631,
    "Ġcompliment": 5673,
    "scra": 13024,
    "inition": 11558,
    "Ġone": 569,
    "Ġsneezing": 12251,
    "Ġbites": 23745,
    "Ġdestined": 7976,
    "cated": 20805,
    "leo": 21367,
    "chester": 23809,
    "Ġgladness": 16592,
    "Ġstrategies": 1838,
    "Ġminor": 12972,
    "Ġconstruct": 23344,
    "Ġlengthwise": 10453,
    "Ġ39": 19493,
    "Ġknelt": 12162,
    "Ġugl": 12687,
    "Ġgamming": 25543,
    "Ġbridegroom": 10606,
    "Ġsecondly": 14515,
    "Ġmachinery": 20488,
    "Ġspectators": 19410,
    "Ġirish": 14535,
    "Ġhousemaid": 14466,
    "Ġlegendary": 20540,
    "Ġtepid": 26413,
    "Ġopen": 1552,
    "Ġdances": 10813,
    "Ġfreemason": 23212,
    "Ġpursuing": 9441,
    "mystery": 15158,
    "Ġarri": 2552,
    "ension": 6571,
    "Ġparticularly": 5056,
    "Ġsequence": 1976,
    "Ġachieves": 4382,
    "Ġasserted": 16950,
    "Ġeagerness": 6610,
    "Ġtoast": 21516,
    "Ġauthorities": 11265,
    "Ġundeviating": 15220,
    "Ġquiver": 16006,
    "penny": 22949,
    "Ġghosts": 12236,
    "ricade": 13041,
    "Ġclerical": 25569,
    "wrote": 11548,
    "ĠâĢľ_": 6698,
    "Ġmanned": 9274,
    "Ġgreyish": 24210,
    "Ġeve": 13971,
    "Ġimpertinence": 11367,
    "Ġniece": 5712,
    "Ġvig": 5460,
    "Ġslammed": 20451,
    "alleging": 23029,
    "support": 9471,
    "Ġspecial": 2103,
    "Ġinitials": 11015,
    "Ġwarriors": 19726,
    "aged": 2605,
    "Ġtake": 1579,
    "Ġminded": 23234,
    "Ġrecogn": 2744,
    "Ġcrazy": 8596,
    "subject": 6634,
    "Ġsuccessive": 10502,
    "burst": 10539,
    "enit": 17780,
    "pper": 3209,
    "mical": 9131,
    "Ġloud": 4702,
    "Ġmayhew": 12954,
    "longing": 23728,
    "Ġtrack": 7450,
    "Ġjokes": 18409,
    "interrupted": 11418,
    "Ġsuspended": 5665,
    "Ġsultry": 20291,
    "instinct": 19546,
    "Ġmutter": 23957,
    "Ġjane": 1756,
    "Ġhastily": 5763,
    "Ġxi": 16431,
    "Ġwrites": 23202,
    "nur": 11507,
    "christ": 10212,
    "reflections": 24734,
    "arn": 358,
    "Ġpeels": 22695,
    "rose": 6016,
    "Ġswelling": 11928,
    "Ġlegitimate": 20644,
    "Ġ6": 5141,
    "Ġunsub": 22026,
    "licted": 20958,
    "anous": 21362,
    "eter": 11623,
    "Ġimbalance": 22179,
    "Ġpurport": 14582,
    "cy": 639,
    "Ġtrunks": 15979,
    "Ġtelegra": 11895,
    "Ġpomp": 12627,
    "Ġrelinquish": 17349,
    "Ġdeliberation": 19972,
    "Ġcity": 4532,
    "Ġaromatic": 25926,
    "Ġslave": 7454,
    "Ġhard": 1444,
    "Ġcrescentic": 20624,
    "Ġtradesman": 20076,
    "Ġbra": 3252,
    "Ġpreluding": 18369,
    "germans": 20568,
    "Ġfatigued": 13466,
    "Ġcistern": 17383,
    "Ġprogen": 14040,
    "Ġprofounder": 23571,
    "Ġay": 15493,
    "Ġwan": 15530,
    "Ġembraces": 19874,
    "Ġcocain": 18597,
    "Ġclaps": 22352,
    "Ġhammered": 13241,
    "Ġsolemn": 4100,
    "elopement": 23201,
    "leeward": 15213,
    "ologically": 22857,
    "Ġpuzzling": 14898,
    "Ġicebergs": 23979,
    "pre": 648,
    "lizzy": 6654,
    "orters": 21404,
    "pierced": 26142,
    "helmsman": 24288,
    "Ġlucerne": 23867,
    "Ġpluck": 15617,
    "Ġcarpet": 9359,
    "Ġhaggard": 17332,
    "Ġlingered": 13505,
    "Ġunspeakable": 10058,
    "Ġ103": 24410,
    "appears": 12063,
    "ches": 2147,
    "Ġpoetic": 17103,
    "simp": 17666,
    "Ġrival": 10487,
    "Ġinestim": 15627,
    "subs": 14305,
    "raham": 18016,
    "Ġshutter": 16672,
    "destroyed": 15262,
    "Ġindistinctly": 26118,
    "Ġexterior": 19991,
    "Ġveget": 11889,
    "Ġvariety": 8533,
    "amy": 8470,
    "Ġrestrictions": 20638,
    "Ġchasing": 11757,
    "misfortunes": 16757,
    "Ġlieu": 19567,
    "Ġbagging": 24538,
    "era": 13848,
    "Ġrushed": 4087,
    "Ġwicked": 5963,
    "seriously": 18906,
    "per": 480,
    "Ġoce": 3027,
    "Ġscalable": 1558,
    "ropy": 1104,
    "Ð": 145,
    "Ġfarther": 5957,
    "Ġjoes": 19232,
    "conditional": 9081,
    "Ġmomentarily": 22817,
    "Ġdriver": 16475,
    "ŀ": 257,
    "Ġnosegay": 24194,
    "Ġself": 1779,
    "thro": 12766,
    "Ġwaving": 8579,
    "worn": 13807,
    "wilful": 25152,
    "Ġtending": 17725,
    "Ġencourage": 10382,
    "Ġaffected": 5576,
    "Ġafraid": 3531,
    "waving": 21134,
    "Ġrotterdam": 25476,
    "Ġcorners": 18876,
    "Ġpaddock": 25040,
    "Ġharmony": 16815,
    "turn": 4294,
    "Ġforesee": 19126,
    "Ġyarns": 15198,
    "Ġwaking": 11572,
    "Ġfuneral": 10284,
    "Ġcircumnavigation": 20403,
    "Ġremedy": 18724,
    "Ġperceptibly": 25822,
    "bourine": 9399,
    "Ġcheck": 7271,
    "Ġrepeating": 11213,
    "yed": 3271,
    "Ġinstrum": 6057,
    "Ġgrapp": 14103,
    "Ġhorrible": 4906,
    "embarrassed": 20667,
    "Ġcredit": 4820,
    "Ġapproved": 16039,
    "Ġimpenet": 14220,
    "indef": 17736,
    "thirty": 12767,
    "ellest": 21578,
    "Ġpuzzle": 11306,
    "bless": 22317,
    "Ġsaint": 15509,
    "Ġparacelsus": 15268,
    "bounded": 13440,
    "bye": 5952,
    "Ġproviding": 1360,
    "continually": 11303,
    "ferent": 4195,
    "bolt": 25138,
    "slee": 17170,
    "istered": 14146,
    "Ġspeeches": 22667,
    "burnt": 20083,
    "ourers": 21453,
    "Ġenjoyments": 24026,
    "Ġv": 398,
    "verity": 14002,
    "Ġandrew": 21512,
    "Ġpursuits": 12080,
    "consider": 6350,
    "young": 7321,
    "Ġassum": 4064,
    "Ġanaly": 1150,
    "Ġgateway": 24799,
    "Ġstrife": 18615,
    "Ġdelic": 4134,
    "Ġintervening": 17269,
    "Ġsatir": 18795,
    "calcul": 12989,
    "Ġgros": 14825,
    "Ġlaugh": 4113,
    "Ġicicles": 25265,
    "voc": 8395,
    "seek": 8840,
    "kinson": 10028,
    "Ġpickle": 16723,
    "Ġresearches": 13120,
    "threshold": 21992,
    "Ġsurpass": 13584,
    "ibility": 2394,
    "Ġblowing": 10486,
    "Ġphrenologist": 25608,
    "reach": 17758,
    "page": 13772,
    "Ġframe": 1950,
    "Ġheath": 15705,
    "call": 8726,
    "Ġfrantically": 23261,
    "Ġfilthy": 13249,
    "Ġdistur": 5313,
    "adequate": 15206,
    "Ġmelt": 21320,
    "Ġpain": 2304,
    "Ġtransient": 18499,
    "Ġdesigned": 7742,
    "Ġrevive": 13480,
    "Ġcommenced": 8534,
    "Ġobjectionable": 16992,
    "ades": 5631,
    "below": 12125,
    "uracy": 1072,
    "Ġeggs": 12345,
    "infall": 21191,
    "flow": 2148,
    "wore": 21127,
    "Ġimposing": 11784,
    "Ġinheritance": 25356,
    "Ġmouthful": 16576,
    "Ġplayfulness": 23639,
    "Ġverdant": 15003,
    "Ġuncl": 22019,
    "Ġascertaining": 17205,
    "bable": 8722,
    "Ġden": 3105,
    "ues": 2078,
    "Ġbuilded": 24718,
    "smooth": 20251,
    "Ġscenari": 22292,
    "Ġtriumphant": 12193,
    "mile": 17598,
    "draw": 23903,
    "Ġdet": 513,
    "Ġtang": 13815,
    "oir": 21004,
    "Ġslopes": 18943,
    "Ġmusket": 12299,
    "Ġbeer": 10221,
    "Ġunharmed": 15142,
    "cheeked": 19342,
    "Ġsensit": 2943,
    "surely": 10571,
    "asse": 15648,
    "Ġalex": 15136,
    "poled": 22910,
    "Ġcon": 348,
    "broad": 8646,
    "Ġscrolled": 22289,
    "osis": 18390,
    "Ġembraced": 10008,
    "Ġcomprehen": 5350,
    "Ġerr": 1321,
    "magn": 10612,
    "======": 9835,
    "Ġsoldiers": 8690,
    "Ġadmiring": 16481,
    "Ġstudying": 9848,
    "abby": 14022,
    "oried": 10803,
    "Ġcircumstances": 3926,
    "violence": 16479,
    "ancial": 21365,
    "cious": 6646,
    "Ġunder": 1634,
    "onical": 21256,
    "Ġveter": 15814,
    "Ġinscribed": 24941,
    "Ġmitig": 1334,
    "Ġexpiring": 16101,
    "yes": 982,
    "tically": 3394,
    "Ġ/*": 10141,
    "Ġshameful": 19854,
    "Ġripple": 25505,
    "Ġcentaurs": 23836,
    "Ġapproximation": 2344,
    "Ġhawk": 15176,
    "Ġeyel": 17096,
    "occurrences": 26333,
    "happening": 16566,
    "Ġlecture": 13568,
    "cer": 6645,
    "Ġrocks": 6863,
    "Ġgentlemen": 3645,
    "irth": 5634,
    "Ġswift": 3673,
    "Ġcomplaints": 12268,
    "ifling": 15786,
    "Ġniagara": 26459,
    "Ġlifelessly": 23054,
    "ĠâĢĺ": 1630,
    "Ġ32": 19492,
    "care": 4929,
    "asis": 12655,
    "Ġus": 497,
    "Ġjapan": 7640,
    "peaceful": 20450,
    "hunter": 10557,
    "broker": 13305,
    "phia": 22766,
    "ĠĠĠ": 2116,
    "Ġprosperous": 15173,
    "inquiry": 15145,
    "help": 1478,
    "Ġillustrative": 25069,
    "Ġcorpusants": 13679,
    "Ġsallied": 12541,
    "pha": 22764,
    "Ġconsider": 2567,
    "doing": 8588,
    "Ġnotorious": 18224,
    "fainting": 20476,
    "bolts": 11421,
    "Ġstreamed": 14546,
    "Ġsister": 1475,
    "Ġsymbolize": 24965,
    "izens": 18138,
    "Ġample": 11801,
    "Ġdexterously": 25296,
    "Ġwilds": 16510,
    "Ġaut": 1917,
    "Ġseal": 10256,
    "Ġug": 8142,
    "Ġcarted": 21353,
    "Ġflight": 6582,
    "Ġmodular": 12821,
    "horrible": 14601,
    "present": 1134,
    "Ġruffled": 25837,
    "Ġgame": 3631,
    "Ġweakened": 16824,
    "Ġveritable": 19384,
    "Ġdance": 4444,
    "Ġsubterranean": 13612,
    "striking": 13441,
    "boards": 23257,
    "Ġsurround": 4619,
    "Ġtortoise": 16909,
    "Ġrange": 9714,
    "Ġepis": 19985,
    "stache": 15693,
    "lets": 7837,
    "act": 787,
    "cl": 1493,
    "Ġsloping": 11942,
    "omination": 21646,
    "Ġmanhandle": 22334,
    "Ġmillar": 13862,
    "Ġconveyed": 8336,
    "ushing": 5731,
    "Ġexpansion": 22630,
    "Ġslackened": 15129,
    "Ġstreaked": 19115,
    "Ġhappier": 10361,
    "back": 2016,
    "Ġdispute": 16058,
    "Ġsung": 23276,
    "cerem": 15681,
    "grand": 7971,
    "luxur": 25823,
    "Ġfortunate": 6216,
    "satisfy": 16893,
    "Ġsplendour": 20227,
    "meditated": 19073,
    "Ġsmacking": 20168,
    "caus": 11477,
    "disappointment": 11426,
    "Ġcontributed": 16011,
    "×": 152,
    "Ġfinery": 23131,
    "blister": 24129,
    "Ġreaching": 7303,
    "classification": 4390,
    "education": 20304,
    "Ġlegs": 4917,
    "Ġat": 395,
    "Ġsincere": 11137,
    "years": 6883,
    "Ġschools": 9479,
    "Ġlad": 2367,
    "unless": 9238,
    "Ġhyster": 16874,
    "ceremony": 20593,
    "Ġpeculiarities": 12074,
    "Ġsnarled": 25715,
    "Ġrelics": 16198,
    "repe": 8780,
    "Ġvaliantly": 22809,
    "fishing": 20861,
    "Ġwindward": 6885,
    "Ġstarve": 24627,
    "Ġfrog": 23925,
    "Ġafghan": 22633,
    "Ġcoincidence": 25484,
    "Ġleader": 14704,
    "oak": 21005,
    "Ġgathers": 24742,
    "Ġeat": 4645,
    "ited": 1749,
    "clay": 18933,
    "Ġcramped": 23531,
    "Ġsemantic": 1959,
    "confirm": 16808,
    "Ġpyramid": 8805,
    "enged": 23151,
    "Ġdetermines": 2370,
    "Ġbeasts": 10619,
    "Ġtalk": 1970,
    "Ġcities": 17829,
    "Ġoverladen": 22368,
    "whalers": 17265,
    "itives": 17821,
    "across": 10326,
    "Ġmagnanim": 14474,
    "Ġcoll": 8223,
    "ruit": 22182,
    "Ġjaws": 5592,
    "Ġretirement": 25379,
    "Ġtaste": 5524,
    "etah": 12666,
    "Ġbu": 3687,
    "Ġitem": 12706,
    "miseries": 16758,
    "Ġincarn": 11817,
    "Ġgreek": 10632,
    "Ġmainz": 22652,
    "ĠĠĠĠĠĠĠĠĠĠĠĠĠĠĠĠĠĠĠĠĠĠĠĠĠĠĠĠĠĠĠĠĠĠĠ": 19260,
    "Ġcourtesy": 9947,
    "Ġsupple": 23003,
    "Ġquohog": 10973,
    "Ġstream": 5186,
    "ization": 484,
    "Ġtelescope": 17350,
    "easy": 9594,
    "Ġskil": 14355,
    "england": 18931,
    "antages": 7192,
    "Ġeel": 18004,
    "Ġvulgarity": 25364,
    "greek": 25405,
    "mber": 5850,
    "engineer": 23152,
    "boiling": 19001,
    "civil": 7798,
    "Ġdevious": 22733,
    "ĭ": 238,
    "Ġhospital": 15041,
    "Ġnom": 21523,
    "Ġmarshalled": 25316,
    "Ġinstances": 5567,
    "Ġtheoretically": 3567,
    "Ġgravesend": 15219,
    "Ġcoopers": 20525,
    "best": 6113,
    "refuge": 24733,
    "Ġsoftly": 7949,
    "Ġescapes": 23509,
    "Ġranged": 10259,
    "Ġcrotch": 9965,
    "lass": 5995,
    "Ġeleven": 9393,
    "Ġbrimstone": 25687,
    "Ġincreas": 1694,
    "week": 12936,
    "isol": 17848,
    "Ġsubsisting": 23437,
    "Ġimproves": 22743,
    "Ġtougher": 21179,
    "Ġcommander": 8628,
    "been": 3345,
    "ceiving": 3903,
    "Ġdischar": 11811,
    "Ġstands": 5259,
    "metal": 24764,
    "Ġworrying": 22931,
    "burn": 8372,
    "Ġwhaling": 2780,
    "Ġprimitive": 25064,
    "Ġplague": 11827,
    "ut": 308,
    "Ġadvers": 4888,
    "Ġcrunched": 19122,
    "itoring": 21335,
    "glances": 23856,
    "Ġwoven": 9928,
    "Ġcattle": 12577,
    "iar": 2380,
    "thar": 18218,
    "Ġencapsulate": 13676,
    "Ġpair": 5706,
    "Ġsuffers": 2973,
    "Ġcrushed": 9426,
    "Ġimpending": 22388,
    "bear": 10317,
    "Ġmembrane": 20507,
    "Ġans": 1642,
    "Ġsour": 21219,
    "moil": 22709,
    "inous": 8776,
    "Ġtired": 9152,
    "Ġemperors": 15162,
    "Ġsustaining": 25334,
    "Ġnewcomers": 26042,
    "Ġantichronical": 26610,
    "Ġers": 15462,
    "Ġboldly": 9503,
    "Ġpropriety": 10012,
    "wonderful": 16961,
    "Ġnapole": 15118,
    "Ġdesist": 16241,
    "ais": 8072,
    "Ġapprove": 12880,
    "quitted": 21862,
    "hro": 20893,
    "danger": 10091,
    "Ġchill": 11755,
    "Ġcharging": 23271,
    "wards": 1276,
    "lengths": 24847,
    "Ġsalmon": 24067,
    "Ġstratag": 26029,
    "hecy": 21209,
    "Ġfond": 4756,
    "stained": 21659,
    "Ġcomfits": 21857,
    "easily": 17535,
    "orted": 4605,
    "Ġpour": 13915,
    "Ġreached": 4023,
    "Ġhumiliation": 16201,
    "Ġdangerously": 23940,
    "Ġconduct": 3738,
    "Ġborrowed": 17231,
    "Ġretrogression": 26582,
    "Ġintellectual": 11402,
    "ignor": 8963,
    "zers": 21149,
    "Ġenable": 686,
    "uzza": 11271,
    "Ä": 133,
    "Ġamply": 22487,
    "Ġindispensable": 11904,
    "hump": 12481,
    "Ė": 215,
    "Ġintrepid": 11708,
    "Ġlamentations": 17076,
    "hears": 12537,
    "copyright": 5278,
    "requirements": 24858,
    "maged": 15396,
    "death": 6263,
    "honey": 20907,
    "gent": 7131,
    "Ġthanking": 18603,
    "Ġstabilizing": 3660,
    "Ġmap": 2395,
    "Ġmatlock": 18801,
    "Ġhump": 5855,
    "Ġdav": 15593,
    "ibule": 13009,
    "Ġaddressing": 11165,
    "Ġremarkable": 4916,
    "Ġcool": 5734,
    "Ġhissed": 15792,
    "stolen": 13983,
    "Ġoutset": 15958,
    "Ġrind": 21974,
    "pire": 9138,
    "abilizing": 2921,
    "Ġengaging": 9339,
    "worshipping": 16611,
    "Ġrecovery": 11442,
    "Ġthoroughly": 8349,
    "Ġperceptible": 18452,
    "Ġdiscreet": 16483,
    "brink": 23578,
    "Ġes": 8773,
    "Ġvacancies": 24344,
    "drink": 10597,
    "Ġinvestigated": 25387,
    "Ġkeepers": 23540,
    "Ġwhaleboats": 18480,
    "token": 21085,
    "uity": 12521,
    "concealed": 25118,
    "Ġperform": 1036,
    "Ġaware": 5756,
    "Ġtroops": 24899,
    "Ġforb": 11665,
    "sus": 6230,
    "Ġassisting": 13258,
    "enance": 3372,
    "arch": 1100,
    "Ġstout": 6027,
    "mansion": 20985,
    "Ġdeaths": 14538,
    "Ġnight": 1465,
    "Ġtravell": 5575,
    "Ġtelegraph": 25584,
    "Ġsulk": 15047,
    "Ġhorr": 3189,
    "Ġodds": 13331,
    "jewel": 20349,
    "Ġsank": 5076,
    "Ġswaying": 15048,
    "shame": 16022,
    "Ġdodging": 19889,
    "Ġbeautiful": 3676,
    "Ġsane": 21224,
    "response": 25763,
    "Ġiv": 4044,
    "north": 14616,
    "bath": 13691,
    "Ġproperties": 3116,
    "uttering": 12667,
    "Ġpatches": 4238,
    "Ġdashed": 6012,
    "Ġminiatures": 20324,
    "barbar": 20241,
    "Ġrepro": 7275,
    "Ġmuscle": 14690,
    "Ġfellow": 2774,
    "Ġpenalty": 1839,
    "Ġpublished": 11243,
    "Ġdetested": 14185,
    "rings": 10723,
    "Ġconductor": 24015,
    "Ġwrench": 12561,
    "Ġbordered": 24563,
    "mankind": 14376,
    "88": 20760,
    "Ġbiases": 2401,
    "bud": 10685,
    "Ġsimply": 7218,
    "second": 6545,
    "Ġberm": 21386,
    "Ġdiggings": 24650,
    "Ġapproximates": 2421,
    "Ġbudge": 15167,
    "Ġrichest": 26213,
    "benefit": 24643,
    "Ġfortunately": 12183,
    "Ġvagueness": 25738,
    "Ġserpents": 13078,
    "anger": 2172,
    "ureau": 10228,
    "Ġunfold": 8023,
    "Ġteasing": 11894,
    "ieties": 19024,
    "Ġparsee": 6414,
    "Ġrelates": 12983,
    "acting": 22635,
    "mistaken": 12214,
    "Ġscound": 12837,
    "dangerous": 20243,
    "Ġentering": 6287,
    "uctive": 17697,
    "Ġnumerous": 6920,
    "Ġpeevish": 26558,
    "Ġdependence": 18628,
    "Ġsanction": 20029,
    "Ġsequential": 2132,
    "except": 5383,
    "Ġfumbled": 17883,
    "Ġinjunction": 19620,
    "Ġindispens": 22958,
    "consciousness": 13367,
    "Ġentertain": 6056,
    "Ġburgl": 13174,
    "ument": 5240,
    "arcy": 1274,
    "Ġcompos": 22574,
    "Ġcaress": 16341,
    "Ġirreparable": 20002,
    "(-": 2979,
    "Ġmouth": 3179,
    "ħ": 232,
    "put": 411,
    "ï": 176,
    "Ġstem": 15722,
    "apter": 1194,
    "abled": 12799,
    "straw": 24099,
    "Ġparagra": 15882,
    "Ġquarter": 3976,
    "Ġapex": 24341,
    "chop": 21692,
    "Ġaugmentation": 20119,
    "Ġsufferable": 16260,
    "network": 1876,
    "atters": 18506,
    "incing": 15487,
    "Ġdra": 1590,
    "inferior": 12397,
    "Ġabiding": 22275,
    "Ġlane": 5627,
    "ú": 187,
    "Ġscent": 10286,
    "Ġeconomical": 25288,
    "Ġcoaxing": 18599,
    "wake": 11547,
    "pus": 3417,
    "ensing": 12901,
    "arrested": 15604,
    "Ġclose": 3033,
    "Ġcharcoal": 19008,
    "Ġinstigated": 18703,
    "prepar": 22467,
    "Ġverte": 9444,
    "Ġneeded": 7719,
    "mered": 8219,
    "Ġglobules": 26589,
    "iam": 2506,
    "Ġshine": 12771,
    "Ġparticular": 2450,
    "cad": 17506,
    "greenland": 10023,
    "hors": 9600,
    "Ġgrew": 5182,
    "Ġdeceased": 15007,
    "Ġsurmisings": 26594,
    "Ġquivered": 18468,
    "narrated": 25622,
    "Ġwonderland": 23427,
    "Ġreckoning": 14981,
    "Ġdenny": 9003,
    "iage": 17574,
    "Ġfluctuating": 24416,
    "Ġtease": 18807,
    "hoped": 20912,
    "æ": 167,
    "Ġresponses": 23650,
    "judges": 19576,
    "icted": 5939,
    "Ġbeing": 1164,
    "Ġthrusting": 10554,
    "Ġcavity": 20491,
    "Ġpopulous": 16827,
    "squeezing": 25914,
    "Ġperiodically": 19497,
    "believing": 19465,
    "perseus": 26006,
    "Ġdanes": 25160,
    "Ġmutineer": 19421,
    "Ġbarbarous": 13477,
    "Ġoutstretched": 14197,
    "Ġthoroughfares": 26096,
    "bug": 17494,
    "Ġsex": 8845,
    "^{": 15307,
    "expectations": 24278,
    "duchess": 18464,
    "Ġlawyer": 10670,
    "Ġplane": 11826,
    "Ġparadise": 11195,
    "super": 5946,
    "Ġsocially": 22089,
    "Ġswimmer": 19462,
    "Ġbub": 8119,
    "anywhere": 14683,
    "Ġfold": 5530,
    "looking": 4033,
    "Ġpity": 4941,
    "Ġheavier": 13103,
    "Ġexhausted": 8697,
    "sun": 7141,
    "Ġbreath": 4792,
    "Æ": 135,
    "anite": 17839,
    "spee": 9320,
    "Ġgrounds": 6751,
    "prit": 19345,
    "bbs": 23692,
    "cigar": 26125,
    "Ġhighway": 14348,
    "Ġpy": 21454,
    "Ġabatement": 22281,
    "sent": 762,
    "Ġge": 1978,
    "Ġnib": 13941,
    "Ġphotograph": 6304,
    "Ġwithdrawn": 10608,
    "Ġagricultural": 26551,
    "Ġpleasing": 6192,
    "Ġdiscern": 7659,
    "Ġminority": 18755,
    "Ġbaked": 21389,
    "Ġpatted": 16382,
    "Ġwane": 21291,
    "Ġtem": 804,
    "ires": 6040,
    "Ġcorrupt": 11926,
    "Ġrobberies": 23023,
    "Ġmisgiv": 14347,
    "Ġdexter": 9703,
    "Ġcommunications": 16357,
    "Ġgoverned": 23573,
    "Ġpine": 8800,
    "Ġpap": 8801,
    "Ġdestruction": 6602,
    "singing": 24362,
    "Ġottoman": 17380,
    "Ġdisciple": 22786,
    "sales": 17668,
    "Ġlaw": 3658,
    "Ġcrime": 4618,
    "Ġmoby": 3668,
    "abulary": 4801,
    "guess": 14764,
    "Ġtypewriting": 16423,
    "Ġendured": 6075,
    "Ġknock": 9975,
    "Ġunreasonable": 12782,
    "Ġinclud": 1511,
    "is": 280,
    "Ġbenignity": 18784,
    "Ġunce": 11714,
    "bers": 2569,
    "Ġphr": 2677,
    "Ġimbalanced": 18334,
    "iary": 15373,
    "shot": 2110,
    "..": 5783,
    "Ġagainst": 1699,
    "Ġscreen": 17207,
    "Ġalleviated": 26205,
    "Ġwreaths": 25938,
    "Ġfashions": 17887,
    "ate": 423,
    "Ġdecomp": 3814,
    "Ġunlimited": 26224,
    "Ġdepths": 4328,
    "Ġhoarse": 14527,
    "bene": 6114,
    "Ġvulture": 17341,
    "Ġcomfort": 3442,
    "Ġordinary": 6099,
    "Ġsimilar": 4918,
    "Ġrecalled": 8540,
    "Ġoffices": 14338,
    "Ġdepartments": 24244,
    "ils": 3181,
    "Ġtiresome": 26157,
    "heavy": 10576,
    "cart": 10691,
    "Ġarchitects": 18748,
    "Ġshould": 863,
    "Ġrobots": 11081,
    "Ġcalifornian": 25853,
    "edily": 17946,
    "Ġdependency": 3489,
    "Ġmansfield": 25939,
    "Ġlights": 8962,
    "Ġhabitu": 19531,
    "Ġapplied": 6188,
    "Ġminim": 1323,
    "Ġplacing": 8903,
    "Ġfurnished": 6476,
    "Ġshake": 6036,
    "vain": 15449,
    "embedding": 20360,
    "Ġcolour": 4463,
    "acceler": 23600,
    "bots": 10084,
    "Ġemblem": 20501,
    "Ġrealising": 18983,
    "Ġegyptians": 25290,
    "Ġtantamount": 25626,
    "Ġexclaimed": 4684,
    "aled": 3944,
    "separately": 25228,
    "Ġcompleted": 8999,
    "aunt": 8371,
    "Ġceremonies": 24837,
    "Ġpause": 5707,
    "Ġgravel": 14104,
    "gro": 10096,
    "Ġallen": 5160,
    "Ġencouraged": 9358,
    "Ġfirmly": 8015,
    "Ġeyelashes": 26107,
    "tackles": 25625,
    "hook": 12056,
    "Ġslighted": 16569,
    "Ġspoke": 2743,
    "Ġthews": 21280,
    "lantern": 17430,
    "empty": 23637,
    "rence": 5554,
    "Ġheaps": 11644,
    "ider": 21770,
    "000": 2559,
    "bermaid": 20792,
    "stove": 21656,
    "rese": 15510,
    "Ġtingling": 15095,
    "Ġpallet": 21484,
    "Ġdebar": 24273,
    "Ġdisappoint": 24207,
    "doors": 19096,
    "cheered": 23808,
    "Ġthen": 666,
    "Ġcape": 5146,
    "Ġlook": 879,
    "oning": 7572,
    "Ġactive": 7917,
    "ivorous": 22084,
    "Ġhug": 6980,
    "ildad": 3533,
    "import": 5668,
    "Ġtrooped": 24900,
    "Ġcontempl": 6703,
    "Ġparametric": 2399,
    "Ġbour": 4877,
    "seldom": 13788,
    "Ġridge": 14821,
    "age": 505,
    "Ġarthur": 7196,
    "Ġcin": 13876,
    "Ġcrater": 16437,
    "cushion": 20823,
    "barrow": 15323,
    "Ġdiscontented": 16061,
    "macy": 18803,
    "itous": 13868,
    "elevating": 20409,
    "Ġdiffidence": 14660,
    "Ġaggreg": 12889,
    "Ġpeace": 3697,
    "urried": 21708,
    "gressive": 2750,
    "Ġfugitives": 25635,
    "represent": 9639,
    "Ġafresh": 18627,
    "inav": 15485,
    "Ġgpus": 3737,
    "Ġ83": 24458,
    "Ġmontan": 22987,
    "ably": 1845,
    "Ġearls": 18905,
    "umul": 1289,
    "$": 8,
    "Ġcustoms": 19655,
    "Ġgrudge": 20696,
    "Ġimpartial": 15222,
    "Ġconstantinople": 19840,
    "lp": 897,
    "regularly": 13209,
    "Ġestate": 6318,
    "Ġqueen": 3213,
    "isk": 9170,
    "glimmer": 26323,
    "ulance": 15770,
    "Ġeastward": 13391,
    "Ġprophesied": 26063,
    "fortunate": 4793,
    "Ġdoor": 1739,
    "Ġoffers": 12950,
    "autions": 20769,
    "suit": 18640,
    "scotland": 20532,
    "Ġmish": 15540,
    "Ġusher": 22220,
    "Ġiteratively": 3055,
    "sailor": 14717,
    "Ġsevered": 18204,
    "adders": 24399,
    "trade": 19647,
    "ified": 3226,
    "indignation": 18439,
    "Ġdisregard": 22533,
    "Ġintentionally": 24522,
    "Ġhob": 12634,
    "scarcely": 12389,
    "sink": 11523,
    "Ġvary": 15810,
    "orrow": 2912,
    "Ġbegrimed": 26579,
    "Ġhighland": 18713,
    "Ġmark": 2331,
    "yellow": 9626,
    "Ġentire": 2558,
    "Ġfurnace": 19444,
    "Ġ116": 24439,
    "moon": 10337,
    "Ġfrosts": 19805,
    "soo": 18683,
    "Ġillustrate": 25068,
    "photograph": 16154,
    "Ġendow": 23140,
    "Ġimpelled": 11785,
    "toller": 20675,
    "Ġinhabited": 12189,
    "Ġgrassy": 24378,
    "Ġhemisphere": 26479,
    "Ġgriff": 22812,
    "ivory": 10270,
    "effectually": 25131,
    "Ġsurmises": 17055,
    "Ġkicks": 19771,
    "Ġscruples": 15081,
    "Ġfemin": 13437,
    "Ġchar": 1705,
    "Ġpresume": 8039,
    "Ġneighbors": 25805,
    "Ġbloodshot": 23802,
    "Ġimage": 3405,
    "Ġ156": 20173,
    "throt": 25660,
    "Ġtit": 8401,
    "Ġbetrayed": 9563,
    "moran": 24154,
    "guilt": 24074,
    "Ġfig": 3627,
    "steep": 19422,
    "Ġdetain": 14184,
    "Ġprove": 5231,
    "Ġpallidness": 25605,
    "Ġconfinement": 19040,
    "Ġsimpl": 1580,
    "Ġlumber": 13953,
    "Ġnarrations": 24351,
    "could": 2869,
    "stands": 22435,
    "Ġclank": 15968,
    "rolled": 9062,
    "Ġrequisition": 22649,
    "ilst": 8145,
    "Ġmol": 12565,
    "Ġluc": 3310,
    "fedallah": 25523,
    "Ġacquainted": 5179,
    "Ġvehicles": 10661,
    "Ġ123": 24467,
    "front": 12174,
    "Ġsentry": 19025,
    "Ġtwitch": 22680,
    "Ġspacious": 18313,
    "convul": 24884,
    "Ġincessant": 15100,
    "Ġcomputes": 4769,
    "Ġabruptly": 15153,
    "lost": 8890,
    "Ġungod": 22027,
    "Ġchristmas": 6924,
    "Ġforwarded": 19044,
    "prosper": 19102,
    "Ġorgies": 18286,
    "Ġgothic": 18002,
    "Ġstopping": 2746,
    "Ġoffended": 7042,
    "Ġspe": 823,
    "whims": 22244,
    ",âĢĻ": 2328,
    "Ġhoof": 23357,
    "bouton": 17503,
    "Ġcatastrop": 3349,
    "Ġcaulk": 25441,
    "Ċ": 203,
    "untary": 9869,
    "Ġwa": 1752,
    "spark": 18686,
    "des": 3171,
    "Ġbrid": 6292,
    "Ġconsort": 18723,
    "Ġreassure": 21676,
    "avoid": 9308,
    "Ġcemeteries": 26377,
    "Ġostr": 21328,
    "Ġdenote": 19335,
    "ato": 17770,
    "Ġire": 12674,
    "Ġdives": 17892,
    "Ġreduces": 2346,
    "Ġcapture": 3386,
    "Ġjealous": 9470,
    "eps": 12795,
    "softened": 20413,
    "Ġpend": 15609,
    "Ġdisguises": 25058,
    "Ġalready": 2707,
    "Ġentangled": 10345,
    "Ġmended": 21316,
    "Ġshalt": 18231,
    "Ġnation": 12652,
    "springing": 24890,
    "ipper": 13741,
    "Ġkindliness": 23297,
    "rawling": 21640,
    "Ġaveraging": 2422,
    "Ġbenediction": 18786,
    "Ġmoderately": 22219,
    "Ġeff": 664,
    "Ġtrivial": 10144,
    "L": 48,
    "content": 11198,
    "Ġfished": 21414,
    "jer": 12484,
    "\"": 6,
    "Ġunwound": 24829,
    "Ġ[": 6968,
    "Ġunrecord": 16622,
    "Ġsurvivor": 17365,
    "Ġcocks": 18596,
    "lee": 11587,
    "Ġbeaufort": 13569,
    "Ġvowed": 14086,
    "Ġembarr": 7446,
    "itigated": 23051,
    "Ġaskance": 23154,
    "began": 6427,
    "Ġsoft": 1459,
    "Ġimplac": 24875,
    "onom": 9161,
    "Ġlabyrinth": 13681,
    "Ġtranquil": 7310,
    "ency": 3870,
    "Ġdisposal": 19379,
    "sens": 8097,
    "Ġfollies": 16258,
    "ifully": 13187,
    "returns": 23144,
    "iation": 7343,
    "behaved": 24462,
    "ipp": 10104,
    "ignation": 11129,
    "Ġmelted": 19624,
    "agre": 18167,
    "ting": 1332,
    "Ġsharpened": 17367,
    "ralian": 19603,
    "Ġdanish": 21435,
    "uine": 13800,
    "Ġhoisting": 9864,
    "Ġazure": 12377,
    "Ġloite": 22116,
    "appeared": 4284,
    "low": 651,
    "ifference": 5632,
    "orily": 15576,
    "ittleness": 22381,
    "Ġneedlessly": 23632,
    "Ġproposition": 23252,
    "orney": 17875,
    "spot": 9790,
    "Ġgl": 1256,
    "Ġfitness": 24008,
    "Ġstrasburgh": 18616,
    "Ġseeks": 14303,
    "Ġneskyeuna": 26460,
    "germ": 15359,
    "aying": 15753,
    "Ġannum": 24205,
    "Ġbehold": 5049,
    "form": 501,
    "Ġperth": 7024,
    "algorith": 3378,
    "Ġcontains": 2790,
    "Ġjen": 9270,
    "Ġparamet": 607,
    "Ġdispleased": 18556,
    "Ġchair": 3665,
    "weeks": 14318,
    "Ġwheeling": 18289,
    "immedi": 8452,
    "Ġutmost": 5496,
    "girdling": 26390,
    "Ġhorizont": 6937,
    "Ġscrutin": 26015,
    "Ġextort": 22736,
    "Ġpreparation": 13529,
    "Ġdinn": 23985,
    "Ġostent": 13585,
    "Ġfeatures": 1434,
    "Ġassid": 18947,
    "apes": 9743,
    "Ġseason": 5238,
    "Ġshaken": 10266,
    "athed": 7829,
    "dil": 11479,
    "Ġoutright": 18414,
    "forced": 11033,
    "remembrance": 25703,
    "Ġmagician": 25061,
    "fugitive": 26132,
    "sor": 7352,
    "saved": 15433,
    "waste": 21137,
    "Ġmarried": 3410,
    "Ġlac": 17967,
    "Ġprofessed": 14727,
    "Ġdeparture": 6491,
    "Ġfolio": 11922,
    "Ġunable": 4951,
    "Ġfanning": 23393,
    "Ġinher": 10181,
    "sn": 7140,
    "Ġbrowne": 13302,
    "bus": 5355,
    "aswag": 21550,
    "Ġtreatment": 12075,
    "Ġrucastles": 18721,
    "sized": 15430,
    "ĠvertebrÃ¦": 11436,
    "Ġcauses": 2560,
    "Ġgrud": 17998,
    "Ġretort": 23074,
    "Ġdelay": 5748,
    "blot": 20785,
    "Ġvineyarder": 25607,
    "lanterns": 17431,
    "ast": 473,
    "script": 11078,
    "Ġdispersed": 16598,
    "Ġinsc": 7586,
    "Ġreced": 15695,
    "Ġwriter": 11948,
    "clifford": 23161,
    "Ġbuckle": 17033,
    "Ġtenderness": 12219,
    "arious": 10319,
    "Ġsnapped": 9899,
    "Ġunworth": 22039,
    "alled": 5913,
    "summit": 23419,
    "Ġinsignificance": 20460,
    "Ġgreenland": 5761,
    "Ġunfathomably": 25874,
    "gabriel": 15363,
    "min": 4573,
    "Ġdistension": 22510,
    "Ġgeneral": 1860,
    "Ġaccosted": 13674,
    "useness": 22297,
    "uously": 7353,
    "list": 7551,
    "Ġdeact": 18141,
    "flesh": 13491,
    "Ġintolerable": 8484,
    "akes": 2220,
    "ually": 2768,
    "Ġheh": 21684,
    "ashions": 16420,
    "Ġmeaning": 1419,
    "understood": 13217,
    "Ġfootpaths": 26319,
    "Ġvindictiveness": 25739,
    "pull": 6797,
    "heav": 5694,
    "attending": 18918,
    "Ġty": 6660,
    "Ġcritics": 23444,
    "Ġirresistible": 13114,
    "Ġmagnified": 23207,
    "flakes": 23972,
    "Ġhogshead": 26369,
    "Ġsparing": 22134,
    "Ġcrab": 13145,
    "Ġweaken": 21927,
    "orton": 11759,
    "discern": 14853,
    "accompan": 11453,
    "Ġwho": 613,
    "him": 1940,
    "Ġfogs": 25283,
    "Ġrazor": 22664,
    "emper": 18184,
    "ieves": 4004,
    "harpooneers": 8693,
    "Ġlovely": 4711,
    "Ġintrospective": 20603,
    "lance": 12485,
    "Ġtune": 17726,
    "Ġgreas": 17994,
    "Ġellenborough": 26155,
    "Ġvide": 10252,
    "ober": 15408,
    "Ġcollins": 2181,
    "Ġconcepts": 4553,
    "Ġmississ": 18840,
    "Ġnovelist": 24776,
    "Ġinterests": 14570,
    "Ġpennies": 17272,
    "them": 3016,
    "ective": 18177,
    "Ġdrowsiness": 26446,
    "aught": 2676,
    "Ġpalmy": 19502,
    "Ġjustice": 5111,
    "Ġshocked": 9404,
    "late": 11500,
    "Ġpel": 17904,
    "Ġconcoct": 19046,
    "Ġplanisphere": 26608,
    "nes": 6961,
    "ent": 305,
    "Ġdairy": 20689,
    "Ġevenings": 18756,
    "obviously": 25243,
    "Ġenlightened": 12751,
    "Ġwarning": 9061,
    "Ġnobly": 22246,
    "Ġchoking": 15937,
    "sense": 11525,
    "venge": 4660,
    "Ġviolation": 23408,
    "Ġboundary": 11223,
    "Ġhull": 5446,
    "Ġopened": 3514,
    "Ġmorocc": 22983,
    "¥": 103,
    "ultural": 22573,
    "Ġinflex": 20637,
    "Ġengrossed": 12999,
    "Ġshifted": 14109,
    "ides": 2161,
    "short": 6568,
    "Ġbeware": 8831,
    "Ġturban": 23615,
    "ications": 4447,
    "Ġmarling": 23040,
    "neighbourhood": 10027,
    "Ġkent": 6693,
    "eu": 17531,
    "resolution": 17767,
    "concerns": 24583,
    "itation": 1781,
    "Ġspared": 7895,
    "Ġverses": 17063,
    "Ġqual": 6276,
    "Ġstowed": 21741,
    "marching": 25753,
    "daughter": 8355,
    "Ġhaving": 1882,
    "Ġmischief": 8544,
    "mass": 12493,
    "Ġdishon": 12234,
    "explain": 1481,
    "Ġpiled": 8427,
    "Ġweigh": 10895,
    "informed": 17737,
    "Ġinputs": 842,
    "note": 14343,
    "Ġ1828": 25720,
    "operation": 13501,
    "Ġsymph": 22212,
    "Ġindisposed": 26289,
    "restrained": 16338,
    "Ġolder": 9330,
    "Ġdisappointed": 7099,
    "suffer": 24328,
    "tormented": 13646,
    "petulance": 24300,
    "Ġaltitude": 26204,
    "?": 35,
    "Ġhumour": 7933,
    "vial": 17698,
    "à": 161,
    "Ġsle": 2013,
    "otion": 4946,
    "Ġbree": 5012,
    "µ": 118,
    "Ġpathways": 11154,
    "Ġgenerations": 10967,
    "Ġtreated": 7082,
    "vard": 21113,
    "Ġunite": 9257,
    "Ġbeaut": 2397,
    "ocation": 14627,
    "Ġimpetuous": 25571,
    "Ġcrawling": 17045,
    "Ġsidel": 9637,
    "Ġpines": 12622,
    "moral": 14804,
    "Ġbloss": 19258,
    "Ġsidelong": 11439,
    "Ġsure": 1864,
    "Ġadmit": 7712,
    "Ġperplex": 2711,
    "Ġabating": 22272,
    "Ġtaurus": 21181,
    "ensils": 22553,
    "Ġslo": 15508,
    "Ġcig": 6521,
    "Ġstation": 5299,
    "Ġcleans": 18950,
    "Ġshaded": 14107,
    "Ġcared": 8786,
    "Ġdizzy": 21436,
    "Ġpained": 19169,
    "Ġdrifted": 14626,
    "voyages": 24856,
    "knew": 9129,
    "oubtedly": 6943,
    "Ġstubbornness": 25380,
    "Ġhow": 599,
    "withstanding": 8947,
    "Ġ80": 24455,
    "Ġanomalous": 25638,
    "Ġgloomily": 14803,
    "Ġscarcity": 23830,
    "Ġarmitage": 23583,
    "Ġcomprehension": 15089,
    "Ġexile": 12722,
    "Ġfeat": 10938,
    "tes": 11530,
    "achel": 7034,
    "alvan": 21508,
    "Ġlances": 6985,
    "Ļ": 252,
    "Ġnapoleon": 20560,
    "ante": 11724,
    "persuade": 13533,
    "Ġundoing": 22038,
    "Ġtypically": 1534,
    "Ġhoisted": 5962,
    "Ġpreceded": 13429,
    "wor": 3418,
    "ince": 4342,
    "Ġcar": 1422,
    "Ġantelope": 24182,
    "Ġbrightly": 13226,
    "overlooked": 23326,
    "Ġwounds": 17792,
    "ensions": 14260,
    "Ġoverwhelming": 17102,
    "agery": 21912,
    "Ġguidance": 9420,
    "Ġrolling": 5977,
    "comprehens": 16167,
    "hos": 15366,
    "undertaking": 23790,
    "physiogn": 26266,
    "Ġtruth": 3319,
    "Ġpie": 13916,
    "Ġcoast": 4657,
    "Ġimitated": 18330,
    "h": 76,
    "Ġrescued": 24208,
    "Ġwarn": 5695,
    "Ġproportional": 2522,
    "Ġfries": 21419,
    "Ġwharf": 9561,
    "Ġquill": 12862,
    "Ġhelpless": 8303,
    "**": 4687,
    "Ġvery": 636,
    "avail": 18605,
    "ilent": 21724,
    "ster": 1961,
    "waters": 11334,
    "Ġvineyards": 25109,
    "understanding": 1146,
    "Ġlanguage": 649,
    "Ġhinted": 6014,
    "column": 19331,
    "Ġcabman": 14606,
    "ail": 565,
    "Ġsplash": 16551,
    "both": 5785,
    "Ġinquirers": 24967,
    "bons": 17488,
    "Ġsp": 457,
    "Ġaval": 15495,
    "injury": 25214,
    "Ġfitting": 21412,
    "Ġeaten": 14847,
    "female": 20669,
    "Ġroared": 7025,
    "ð": 177,
    ":": 30,
    "Ġextend": 18690,
    "Ġcreat": 1409,
    "attachment": 13054,
    "Ġcompare": 9305,
    "taken": 7560,
    "Ġhandful": 9785,
    "transp": 24508,
    "stating": 21651,
    "[": 63,
    "lested": 14885,
    "Ġpott": 21471,
    "Ġinvitation": 5188,
    "extinguish": 22761,
    "Ġmedd": 15542,
    "Ġdescended": 7428,
    "Ġcommunion": 19009,
    "isted": 3297,
    "impregn": 21718,
    "Ġpenetrated": 13473,
    "Ġhelmeted": 19691,
    "Ġkid": 9727,
    "Ġthither": 6821,
    "ateful": 5929,
    "morland": 24155,
    "Ġapprehensions": 13405,
    "unbidden": 21899,
    "Ġcandelabra": 26603,
    "imate": 4222,
    "extraordinary": 9098,
    "mies": 20970,
    "Ġfearful": 6199,
    "falgar": 26131,
    "Ġcauldron": 25442,
    "suitable": 18641,
    "hush": 20908,
    "ording": 9766,
    "Ġorphans": 20207,
    "Ġoctober": 17228,
    "folding": 24928,
    "Ġsan": 7825,
    "alot": 15629,
    "Ġeternities": 19946,
    "Ġresnet": 5473,
    "auley": 22627,
    "Ġstrugg": 3217,
    "Ġsave": 4051,
    "Ġgained": 4537,
    "Ġnorm": 763,
    "Ġsnug": 8281,
    "erately": 21276,
    "own": 744,
    "aning": 2255,
    "Ġcent": 3251,
    "excepting": 19709,
    "Ġpearl": 20380,
    "Ġmorrow": 9346,
    "Ġdry": 5624,
    "Ġbalance": 2020,
    "who": 2447,
    "Ġdaint": 15596,
    "itled": 7578,
    "Ġroofs": 16986,
    "Ġowed": 10781,
    "Ġpassages": 12974,
    "ena": 11570,
    "Ġprecipitous": 24836,
    "expectant": 24277,
    "Ġori": 8411,
    "Ġ20": 8617,
    "Ġawaited": 17074,
    "Ġsurest": 19055,
    "Ġphara": 23203,
    "apers": 3483,
    "Ġexplained": 5938,
    "braces": 24659,
    "Ġbushes": 16403,
    "Ġlat": 5087,
    "Ġpleadings": 25854,
    "confid": 14869,
    "Ġlieutenant": 15263,
    "Ġtheories": 13850,
    "derest": 18316,
    "atherine": 2594,
    "Ġacquiesced": 25494,
    "Ġsound": 2242,
    "Ġcriminal": 7537,
    "Ġworthy": 7241,
    "Ġpangs": 15618,
    "Ġmaggie": 26293,
    "Ġamazed": 14891,
    "Ġnod": 1890,
    "Ġsadness": 13287,
    "varieties": 23190,
    "bering": 18695,
    "Ġhairy": 23868,
    "omorrah": 18020,
    "Ġoffences": 18692,
    "Ġsolicitude": 10042,
    "Ġfarewell": 9522,
    "Ġstared": 8456,
    "oyed": 14373,
    "above": 8149,
    "running": 6798,
    "Ġgoodge": 22827,
    "Ġfootpath": 19340,
    "Ġcharlotte": 3891,
    "ire": 492,
    "Ġdest": 2237,
    "Ġmildness": 9946,
    "Ġpremium": 23908,
    "Ġshoot": 11162,
    "Ġmostly": 7665,
    "Ġsqualid": 14369,
    "utch": 21590,
    "Ġchancery": 20718,
    "Ġshrink": 14806,
    "»": 124,
    "Ġtouch": 3397,
    "idable": 8147,
    "reproof": 25433,
    "intment": 4721,
    "Ġvib": 8166,
    "centred": 25020,
    "wail": 21128,
    "Ġhurrah": 9871,
    "overfitting": 13102,
    "Ġpromised": 5181,
    "Ġrather": 1494,
    "Ġsilken": 16381,
    "ram": 13973,
    "duing": 22416,
    "berg": 11867,
    "Ġsupp": 1265,
    "arab": 21445,
    "Ġrel": 1098,
    "Ġscal": 1532,
    "Ġarve": 15905,
    "itions": 4148,
    "maybe": 23999,
    "Ġboy": 3019,
    "Ġprepare": 8650,
    "Ġathirst": 20601,
    "Ġbox": 5109,
    "Ġmaybe": 12953,
    "Ġsins": 13838,
    "ivil": 6412,
    "omon": 10208,
    "batch": 1982,
    "llable": 6879,
    "Ġthinking": 4031,
    "Ġslugg": 15270,
    "Ġmild": 4147,
    "shortly": 12262,
    "ermaid": 14300,
    "worship": 19390,
    "Ġinvest": 4978,
    "Ġugliness": 20430,
    "Ġlullaby": 20591,
    "Ġlashed": 9201,
    "Ġlord": 2965,
    "lue": 8511,
    "Ġremainder": 9860,
    "clothed": 19740,
    "Ġretention": 23075,
    "Ġrepose": 6743,
    "tisement": 6768,
    "azine": 19132,
    "commencement": 26350,
    "Ġenjoyment": 7301,
    "Ġhails": 21955,
    "ilies": 18059,
    "Ġtruest": 16701,
    "erest": 10698,
    "Ġdealer": 23981,
    "Ġpatent": 11966,
    "ceptive": 15965,
    "Ġrender": 8306,
    "plague": 21964,
    "atum": 21262,
    "Ġaqu": 17743,
    "Ġdoubt": 2224,
    "preading": 18496,
    "Ġdirest": 22711,
    "Ġmach": 13858,
    "Ġphysical": 7522,
    "neath": 12870,
    "Ġcachalot": 17836,
    "dwelling": 20567,
    "Ġhelping": 3265,
    "Ġlooked": 1801,
    "riers": 18188,
    "Ġenlist": 21941,
    "nades": 20999,
    "Ġrumors": 11322,
    "Ġpassions": 7931,
    "Ġmoses": 21318,
    "Ġcoffee": 6761,
    "Ġaccommodate": 20520,
    "Ġeffectively": 2648,
    "Ġfabric": 25948,
    "Ġsanctified": 25883,
    "Ġemotion": 7691,
    "Ġclaimed": 14203,
    "Ġfeeding": 7974,
    "Ġperils": 6274,
    "counter": 20281,
    "Ġbohem": 8529,
    "tram": 19646,
    "Ġincidents": 9302,
    "Ġcries": 7155,
    "ool": 17619,
    "Ġconstru": 19070,
    "Ġnumberless": 16418,
    "Ġwool": 19436,
    "score": 18858,
    "Ġperiod": 4002,
    "apidated": 22341,
    "Ġstores": 18071,
    "Ġsquatted": 25843,
    "erie": 21274,
    "Ġdatasets": 2393,
    "Ġrevolver": 14900,
    "Ġtomahawk": 7539,
    "Ġunlocking": 20708,
    "stolidity": 21667,
    "Ġtypewriter": 19099,
    "Ġchaldee": 26236,
    "Ġpicked": 6343,
    "Ġscattered": 6856,
    "Ġhalf": 1669,
    "Ġinser": 6820,
    "Ġpersistence": 2828,
    "Ġsuffering": 8948,
    "Ġshining": 8173,
    "dug": 18463,
    "Ġobstetrics": 24679,
    "Ġmisunderstand": 18709,
    "disposition": 10044,
    "Ġroman": 8324,
    "Ġspotted": 12142,
    "ome": 535,
    "ighbour": 3390,
    "umst": 2501,
    "jug": 17581,
    "ivates": 18276,
    "Ġmend": 8408,
    "pop": 17632,
    "Ġembal": 11905,
    "Ġembarks": 22964,
    "retrospect": 23145,
    "Ġobtruded": 20724,
    "Ġreputation": 11642,
    "Ġ74": 24263,
    "Ġfrosted": 19806,
    "repeat": 25155,
    "wic": 21123,
    "ĠĠĠĠĠĠĠĠĠĠĠĠĠĠĠĠĠĠĠĠĠĠĠĠĠĠĠĠĠĠĠĠĠĠĠĠĠĠ": 16526,
    "Ġfrenchman": 11284,
    "Ġancles": 21450,
    "treacle": 25151,
    "Ġensures": 3053,
    "Ġperfectly": 3705,
    "Ġjaw": 3318,
    "Ġpick": 4258,
    "huzza": 20915,
    "Ġstabbing": 20306,
    "Ġlaurel": 20656,
    "Ġrapidity": 11101,
    "Ġcoarse": 14276,
    "Ġmanagement": 8194,
    "Ġintend": 12769,
    "Ġlate": 3379,
    "Ġane": 9184,
    "Ġhandspikes": 12943,
    "Ġseat": 4949,
    "Ġdampening": 2892,
    "Ġvapors": 19910,
    "Ġmountain": 3373,
    "Ġfiercely": 12956,
    "furnish": 25339,
    "beheld": 11805,
    "Ġwarsaw": 26168,
    "Ġgales": 12670,
    "asht": 4084,
    "Ġwor": 1190,
    "Ġuniform": 2227,
    "Ġtwentieth": 18659,
    "Ġapril": 13663,
    "uled": 11538,
    "se": 357,
    "Ġchoosing": 19593,
    "Ġunsafe": 22044,
    "Ġmasks": 23329,
    "Ġcupboard": 16884,
    "Ġtold": 2185,
    "Ġgoodly": 22826,
    "Ġshouts": 19540,
    "likewise": 13106,
    "Ġarticulate": 24431,
    "involuntarily": 20418,
    "Ġsub": 949,
    "Ġdearer": 14052,
    "Ġfedallah": 6110,
    "Ġmottled": 20681,
    "ickering": 22674,
    "Ġcrawled": 17044,
    "Ġhooked": 19081,
    "Ġvalidate": 3190,
    "Ġjingling": 26018,
    "Ġdesmarest": 22985,
    "fordshire": 4678,
    "meant": 7923,
    "Ġ110": 24434,
    "Ġdread": 3161,
    "pain": 7350,
    "Ġcaucus": 17382,
    "Ġthere": 562,
    "Ġcaved": 21356,
    "pendicular": 6500,
    "Ġtelling": 5747,
    "ilted": 21727,
    "lace": 13749,
    "Ġbod": 4583,
    "Ġoutrid": 22320,
    "Ġjackets": 19605,
    "Ġhall": 4184,
    "Ġfears": 5729,
    "Ġafric": 8908,
    "smote": 23913,
    "Ġanalytical": 22917,
    "Ġade": 22106,
    "Ġpacing": 8428,
    "for": 963,
    "tem": 6370,
    "Ġdisease": 14259,
    "nament": 11508,
    "Ġvultures": 25654,
    "adjust": 21764,
    "investments": 25533,
    "divers": 15345,
    "Ġaccord": 4026,
    "Ġjungfrau": 15251,
    "Ġweave": 21926,
    "Ġremoved": 5275,
    "Ġomitted": 12568,
    "Ġneedn": 19230,
    "Ġtasselled": 25922,
    "Ġmeals": 12716,
    "Ġchained": 16390,
    "Ġhereby": 10360,
    "sp": 891,
    "loun": 17589,
    "Ġhermit": 15860,
    "enchant": 21286,
    "pitchpoling": 25725,
    "Ġcousin": 3709,
    "Ġfunction": 582,
    "Ġbeings": 2488,
    "Ġscraggy": 24579,
    "Ġexciting": 23315,
    "succeed": 10331,
    "Ġjustification": 22977,
    "Ġinexperience": 26100,
    "revolver": 25628,
    "Ġamel": 18510,
    "breeding": 16676,
    "Ġmental": 21322,
    "Ġestim": 3350,
    "Ġobst": 6285,
    "Ġtremulous": 14988,
    "Ġprofuse": 23568,
    "ong": 537,
    "Ġcraven": 16471,
    "Ġtolerably": 8069,
    "Ġcommunicates": 24546,
    "Ġconcerns": 12034,
    "1775": 26379,
    "prise": 7728,
    "Ġunlim": 18254,
    "Ġtown": 2456,
    "âĢĿ--": 21821,
    "Ġexploring": 4307,
    "div": 8077,
    "Ġelbow": 12925,
    "idy": 21769,
    "haustible": 16892,
    "Ġabout": 633,
    "confusion": 13371,
    ".âĢĿ": 464,
    "cor": 5520,
    "Ġblush": 14404,
    "aby": 18109,
    "par": 1904,
    "Ġwash": 9705,
    "Ġrevolved": 9986,
    "Ġ33": 16677,
    "estruct": 22226,
    "Ġinsurance": 23682,
    "appre": 14371,
    "Ġvigour": 24461,
    "ĠâĢľâĢĶ": 9736,
    "Ġoverlooking": 22363,
    "anqu": 4110,
    "Ġactionable": 24559,
    "ilities": 6992,
    "Ġinn": 4592,
    "100": 11465,
    "Ġinvaluable": 10184,
    "Ġpartners": 11856,
    "therly": 18344,
    "Ġhorn": 6187,
    "Ġpeculiarity": 12938,
    "icit": 3380,
    "Ġdormouse": 4926,
    "Ġimpossible": 3544,
    "Ġspreading": 13379,
    "called": 6294,
    "consolation": 15155,
    "Ġmanaged": 7908,
    "Ġgretna": 26469,
    "Ġrick": 21975,
    "windward": 24162,
    "Ġtickets": 17094,
    "cooper": 19191,
    "respectable": 19849,
    "Ġerror": 1764,
    "Ġyard": 5923,
    "alterable": 13625,
    "impress": 18054,
    "Ġpassive": 22848,
    "idirection": 2415,
    "Ġounce": 15274,
    "rippa": 11342,
    "pag": 11512,
    "Ġknees": 6928,
    "uncle": 8160,
    "pron": 9008,
    "Ġdevoted": 6575,
    "Ġnoses": 18373,
    "Ġclipping": 2442,
    "Ġfreezing": 23886,
    "imprudent": 14652,
    "Ġring": 4454,
    "addressing": 24400,
    "onet": 12549,
    "increase": 20271,
    "resh": 8406,
    "Ġcursed": 6728,
    "Ġcurled": 8227,
    "Ġthw": 21519,
    "Ġsitting": 3608,
    "built": 16826,
    "Ġbuildings": 24719,
    "Ġselling": 21227,
    "Ġremorselessly": 16968,
    "stun": 18021,
    "Ġwrenched": 12562,
    "eenth": 12464,
    "Ġexponentially": 1445,
    "Ġsomnambul": 26577,
    "Ġskill": 6873,
    "Ġlongitudes": 22638,
    "Ġmomentary": 11037,
    "Ġpupella": 20425,
    "Ġhimself": 1349,
    "Ġjudged": 12087,
    "quadr": 15767,
    "Ġpart": 859,
    "mystical": 25318,
    "Ġdams": 16455,
    "tish": 17678,
    "Ġglistening": 12369,
    "Ġdynamic": 5122,
    "Ġmaternal": 11060,
    "Ġsacrificial": 24872,
    "entitled": 21572,
    "Ġundoubted": 19517,
    "Ġsupply": 6069,
    "Ġenergies": 25460,
    "Ġdespised": 14668,
    "Ġ11": 5319,
    "Ġpencils": 23198,
    "blame": 14796,
    "Ġappo": 8501,
    "ĠĠĠĠĠĠĠĠĠĠĠĠĠĠĠĠĠĠĠ": 22954,
    "{": 95,
    "ego": 4035,
    "Ġbeloved": 5571,
    "Ġ28": 19297,
    "Ġsalted": 14759,
    "opement": 10314,
    "Ġhear": 1966,
    "ouse": 1193,
    "Ġincalcul": 16066,
    "Ġploughed": 22609,
    "roofed": 26185,
    "Ġinfall": 7961,
    "Ġscale": 1550,
    "Ġtrifled": 24675,
    "purpose": 10046,
    "Ġbloodshed": 23803,
    "Ġgour": 21602,
    "Ġinstrument": 7120,
    "Ġremonstrate": 22796,
    "rudent": 6483,
    "Ġshouting": 10524,
    "Ġnamely": 20692,
    "Ġbulk": 5590,
    "Ġequals": 4728,
    "scot": 14420,
    "Ġdisappointment": 6629,
    "Ġwhitt": 18057,
    "Ġsallies": 21232,
    "ived": 1531,
    "prodig": 16429,
    "robber": 21541,
    "oder": 2460,
    "**:": 4738,
    "Ġgloves": 8578,
    "Ġgraphs": 25464,
    "Ġabated": 18391,
    "fi": 12465,
    "Ġineffect": 13931,
    "Ġfut": 15578,
    "compl": 6872,
    "Ġcurses": 13015,
    "levi": 7049,
    "Ġravines": 25833,
    "soft": 12513,
    "Ġexpeditions": 24957,
    "rential": 22923,
    "Ġitems": 9694,
    "quick": 6401,
    "Ġhammers": 13242,
    "Ġprelimin": 8863,
    "Ġcorpora": 26581,
    "Ġcritically": 23445,
    "Ġswiss": 18883,
    "treat": 12517,
    "cro": 13698,
    "Ġhire": 21489,
    "conda": 18994,
    "oken": 4309,
    "entimes": 12661,
    "baden": 25616,
    "supposing": 24136,
    "asted": 4651,
    "strike": 14951,
    "shabb": 18487,
    "impotence": 23763,
    "Ġcherished": 10592,
    "Ġgrizz": 10353,
    "Ġcharacter": 2791,
    "gement": 13729,
    "Ġshut": 3942,
    "Ġpert": 22399,
    "Ġswamp": 14438,
    "case": 5206,
    "waiter": 24588,
    "ă": 196,
    "Ġsympathising": 24298,
    "sil": 5283,
    "secure": 12239,
    "impulse": 20647,
    "Ġsecure": 4913,
    "drowned": 17371,
    "20": 20755,
    "lifted": 15389,
    "Ġsabbath": 17256,
    "Ġsummoning": 23877,
    "umb": 3404,
    "airs": 2222,
    "Ġcalculated": 4477,
    "Ġfisherman": 12079,
    "Ġsch": 13836,
    "heart": 4528,
    "holding": 7740,
    "doub": 6225,
    "Ġneur": 815,
    "Ġunobstructed": 18265,
    "uendoes": 26408,
    "Ġabove": 2932,
    "Ġconc": 1840,
    "Ġexalted": 12415,
    "Ġbarmaid": 19337,
    "reg": 2184,
    "Ġburke": 19252,
    "Ġfortifications": 23622,
    "impatiently": 20474,
    "Ġraging": 14308,
    "instances": 13321,
    "Ġdemon": 7871,
    "Ġderbyshire": 6588,
    "ren": 549,
    "Ġshown": 5159,
    "Ġdiscuss": 9476,
    "Ġclubs": 25180,
    "char": 3505,
    "oubted": 5861,
    "fingers": 17372,
    "Ġkidnapping": 26358,
    "adoes": 11662,
    "Ġcoachman": 15001,
    "Ġwashes": 21866,
    "Ġproperty": 6451,
    "worm": 15455,
    "stranger": 9885,
    "Ġbehind": 2804,
    "Ġfossiliferous": 25610,
    "Ġexult": 10231,
    "Ġbestirred": 20454,
    "):": 11462,
    "Ġmonstrous": 7791,
    "Ġhusband": 3623,
    "Ġapproving": 18522,
    "Ġmatters": 4974,
    "against": 5872,
    "outre": 18321,
    "worse": 14692,
    "measureless": 20238,
    "misery": 13345,
    "Ġeasiest": 23539,
    "Ġambiguous": 20167,
    "Ġdeline": 16335,
    "murderers": 25728,
    "degrees": 22155,
    "Ġenglish": 3617,
    "Ġyaw": 18097,
    "zes": 11550,
    "opinion": 10985,
    "plac": 15823,
    "Ġblooming": 17214,
    "retch": 4374,
    "Ġdiffident": 23786,
    "vitiated": 25755,
    "Ġsple": 21218,
    "Ġinfatuation": 25857,
    "Ġpurposely": 10445,
    "Ġclass": 786,
    "warm": 8103,
    "Ġcurving": 16237,
    "Ġparliament": 18303,
    "eck": 20846,
    "Ġcomplement": 23712,
    "Ġended": 7951,
    "Ġpompous": 20426,
    "Ġbough": 13895,
    "Ġpetty": 19598,
    "Ġtows": 19565,
    "perceived": 8861,
    "seat": 18127,
    "Ġgazed": 6479,
    "iftings": 23227,
    "Ġcensus": 15099,
    "Ġpersonified": 19180,
    "Ġhedges": 19988,
    "last": 3806,
    "Ġco": 730,
    "Ġb": 281,
    "Ġmundane": 26430,
    "dock": 16421,
    "Ġcompression": 18148,
    "Ġtolerable": 6949,
    "lording": 24056,
    "Ġconsists": 11980,
    "Ġ49": 24085,
    "cheeks": 23810,
    "Ġwelcome": 5603,
    "Ġbarrier": 16571,
    "inter": 2946,
    "Ġtwo": 1044,
    "Ġsleeve": 20143,
    "vicious": 21121,
    "Ġkrem": 9728,
    "being": 3914,
    "Ġtandem": 26412,
    "Ġvexations": 24611,
    "Ġreserve": 9973,
    "kill": 13745,
    "Ġfretfulness": 25449,
    "Ġregion": 2273,
    "Ġcask": 5527,
    "gar": 5614,
    "Ġthis": 382,
    "ue": 1181,
    "hunt": 20905,
    "Ġhollowly": 24525,
    "ernsey": 8904,
    "Ġtak": 15471,
    "Ġattempts": 10492,
    "Ġconsulting": 13430,
    "incl": 8111,
    "Ġol": 17816,
    "arled": 21446,
    "Ġsolicited": 20040,
    "-------": 20392,
    "Ġpraying": 19557,
    "ice": 591,
    "ote": 4598,
    "Ġoccurs": 1856,
    "Ġsoul": 2721,
    "taking": 5689,
    "convenient": 12241,
    "Ġazores": 20196,
    "Ġupon": 719,
    "Ġimperial": 9483,
    "perquisites": 26531,
    "sailed": 17667,
    "feels": 22507,
    "ieving": 7033,
    "irect": 5552,
    "sails": 7497,
    "speech": 10668,
    "Ġleague": 6540,
    "augment": 18830,
    "Ġshoots": 14569,
    "Ġcreatures": 4138,
    "finding": 17014,
    "Ġsom": 1275,
    "Ġsurvivors": 25732,
    "cano": 18841,
    "Ġsteelkilt": 5675,
    "Ġclaim": 5106,
    "irene": 15917,
    "Ġends": 8239,
    "heavens": 19748,
    "Ġindist": 14410,
    "ictions": 14226,
    "derness": 11740,
    "Ġenthr": 22748,
    "Ġauthoritative": 19564,
    "Ġphil": 3387,
    "Ġfrozen": 9015,
    "pronounce": 25193,
    "ce": 313,
    "inconsiderable": 21194,
    "arctic": 12615,
    "weather": 7229,
    "wrinkles": 16557,
    "Ġfragrant": 13096,
    "Ġincident": 6282,
    "Ġapparently": 6779,
    "inkles": 7426,
    "Ġcondescend": 19958,
    "ingley": 1546,
    "Ġactivity": 7922,
    "agers": 5633,
    "Ġwhirlp": 16964,
    "Ġpaws": 13922,
    "Ġaver": 1286,
    "Ġarts": 11009,
    "Ġrapid": 1448,
    "Ġwarp": 8114,
    "Ġchisel": 20371,
    "Ġmissing": 6177,
    "weekly": 25685,
    "french": 9122,
    "ender": 9163,
    "ĠĠĠĠĠĠĠĠĠĠĠĠĠĠĠĠĠĠĠĠĠĠĠĠĠĠĠĠĠĠĠĠĠĠĠĠ": 23665,
    "Ġtermination": 16461,
    "Ġcomposed": 8894,
    "Ġhoe": 23355,
    "lovel": 22516,
    "bery": 9795,
    "Ġincommunicable": 26612,
    "Ġuniversally": 12002,
    "Ġglassy": 19563,
    "oat": 13765,
    "meditation": 19072,
    "strade": 5065,
    "Ġforge": 8458,
    "iest": 4036,
    "Ġcircus": 19093,
    "suspicious": 25391,
    "Ī": 235,
    "Ġpraised": 19556,
    "Ġgib": 13966,
    "Ġul": 6828,
    "would": 2354,
    "#": 7,
    "powers": 25411,
    "cd": 15325,
    "Ġbuck": 7158,
    "Ġhead": 1122,
    "blooded": 20026,
    "ing": 273,
    "pooh": 18800,
    "advise": 24219,
    "alas": 8807,
    "kovoko": 20672,
    "rom": 420,
    "Ġleaves": 5021,
    "âĢĶ.âĢĿ": 22260,
    "Ġfondness": 16781,
    "autumn": 23345,
    "iousness": 4900,
    "Ġbestir": 13111,
    "Ġmanx": 7907,
    "ahawk": 23319,
    ",âĢĶâĢľ": 10072,
    "irited": 15790,
    "Ġjelly": 22305,
    "Ġconsp": 10226,
    "springs": 24912,
    "Ġbul": 3291,
    "Ġcandidates": 4335,
    "Ġmoulded": 16976,
    "sweet": 8689,
    "Ġsul": 7570,
    "impression": 15714,
    "thirst": 15828,
    "Ġfreedom": 9085,
    "tic": 8392,
    "coll": 23782,
    "Ġuneasily": 24232,
    "quit": 15765,
    "Ġnobleman": 19395,
    "volous": 18600,
    "Ġweld": 8113,
    "kine": 15378,
    "Ġthroes": 24574,
    "Ġcylinders": 25944,
    "Ġhysterics": 26094,
    "Ġbiographical": 22775,
    "bingley": 4928,
    "gloomy": 25147,
    "utter": 7594,
    "Ġimplicated": 24876,
    "Ġprevented": 5944,
    "Ġanat": 8125,
    "inese": 12885,
    "Ġexcuse": 5863,
    "Ġhulls": 13927,
    "Ġloitered": 26526,
    "inj": 9154,
    "cont": 2917,
    "Ġpan": 5082,
    "Ġaccurately": 4072,
    "Ġrighteous": 18948,
    "Ġrelev": 1715,
    "Ġgrow": 2856,
    "Ġregardless": 19326,
    "complained": 25838,
    "Ġaccident": 5380,
    "Ġlantern": 7118,
    "heads": 4094,
    "Ġresounds": 22547,
    "Ġphaeton": 17466,
    "peare": 18913,
    "Ġisles": 8461,
    "entering": 17979,
    "Ġsash": 17755,
    "asable": 21545,
    "Ġwent": 1535,
    "rian": 10244,
    "Ġstretch": 6994,
    "child": 5537,
    "Ġdynamically": 4098,
    "avings": 12025,
    "gans": 11491,
    "Ġnearly": 3364,
    "iscuits": 24667,
    "Ġrev": 6989,
    "Ġmeanest": 12915,
    "Ġtar": 2562,
    "poky": 17645,
    "Ġlevers": 18080,
    "Ġlug": 15655,
    "ours": 3429,
    "Ġreplaced": 13073,
    "Ġatlantic": 7001,
    "Ġfreely": 7058,
    "Ġvarious": 3511,
    "Ġtools": 11611,
    "Ġpatchwork": 24143,
    "Ġsig": 868,
    "Ġconcerning": 4068,
    "menced": 23150,
    "mortals": 25410,
    "Ġde": 364,
    "eked": 16405,
    "Ġmuttering": 10501,
    "Ġupdating": 2686,
    "ius": 5789,
    "Ġspit": 22129,
    "Ġembracing": 14982,
    "Ġwear": 6033,
    "Ġswore": 10380,
    "Ġtrustees": 24109,
    "Ġdedu": 5585,
    "Ġanywhere": 8519,
    "Ġcolourless": 19572,
    "suggested": 17301,
    "Ġclust": 9277,
    "itals": 17822,
    "Ġrouse": 15824,
    "Ġstagger": 10593,
    "abhorred": 17338,
    "Ġsuperlative": 26075,
    "Ġkrusenstern": 20716,
    "tea": 18742,
    "Ġdiscourse": 9800,
    "Ġrigid": 16717,
    "ĠĠĠĠĠĠĠĠĠĠĠĠĠĠĠĠĠ": 22953,
    "ound": 585,
    "Ġexquisite": 12385,
    "Ġthomson": 26455,
    "Ġknowing": 4459,
    "through": 4024,
    "Ġchiefly": 5766,
    "wedding": 12525,
    "Ġnour": 10831,
    "Ġunearthly": 9039,
    "sworn": 24258,
    "Ø": 153,
    "Ġcostly": 23586,
    "Ġdr": 2820,
    "verd": 21732,
    "Ġpir": 6818,
    "plumed": 21966,
    "Ġaccurate": 13262,
    "row": 1067,
    "reliable": 21243,
    "Ġsorting": 3233,
    "Ġcoldly": 14651,
    "noted": 22754,
    "commence": 19995,
    "russian": 22184,
    "Ġrising": 4358,
    "Ġflames": 7941,
    "Ġpicturesque": 14896,
    "Ġdisembow": 22542,
    "embraces": 25806,
    "Ġsubsisted": 19119,
    "Ġclim": 8196,
    "Ġgryphon": 4302,
    "Ġsupremacy": 20263,
    "seven": 8466,
    "Ġcomm": 838,
    "Ġobsequious": 17406,
    "Ġelusive": 22648,
    "fate": 17540,
    "enjoyments": 25434,
    "Ġseamen": 5063,
    "Ġcleat": 18949,
    "vital": 17701,
    "Ġtraced": 10385,
    "Ġhearers": 15706,
    "Ġlegend": 14575,
    "Ġharpooned": 13263,
    "Ġstick": 6028,
    "Ġaug": 6236,
    "Ġown": 1003,
    "Ġsurp": 9636,
    "Ġscrupulous": 20072,
    "coiled": 16487,
    "Ġbehav": 3541,
    "gravel": 22624,
    "Ġmediocr": 24141,
    "hyp": 15369,
    "icked": 10334,
    "Ġchowder": 10281,
    "dark": 5613,
    "vember": 10856,
    "inate": 6235,
    "ness": 852,
    "cring": 20813,
    "Ġdella": 21443,
    "Ġhate": 5445,
    "well": 1692,
    "Ġungrateful": 14123,
    "Ġtantalizing": 20417,
    "Ġopens": 23629,
    "Ġaston": 3706,
    "ignominious": 26588,
    "Ġluxur": 12344,
    "alid": 13936,
    "theirs": 23604,
    "Ġmarshal": 20222,
    "Ġflew": 5587,
    "Ġmurmur": 14590,
    "unsupervised": 10890,
    "Ġsequel": 14362,
    "partly": 14603,
    "Ġpromontory": 11944,
    "xible": 13809,
    "ruin": 22181,
    "creatures": 7517,
    "Ġfates": 15581,
    "Ġdragon": 14946,
    "Ġgums": 21615,
    "quarters": 24949,
    "tw": 2808,
    "Ġbunger": 9998,
    "Ġcrony": 23440,
    "Ġnext": 2139,
    "Ġmaj": 3927,
    "fow": 20855,
    "countryman": 24640,
    "Ġjoll": 11768,
    "Ġsocks": 14133,
    "Ġdisturbed": 8675,
    "Ġcrad": 21352,
    "Ġpolynesian": 26027,
    "Ġporpoise": 7108,
    "puzz": 17641,
    "Ġomin": 11579,
    "arrival": 15603,
    "Ġpriority": 19765,
    "Ġcroquet": 9964,
    "rut": 8093,
    "Ġlobsters": 13517,
    "snatched": 24851,
    "Ġblasp": 14403,
    "Ġsalary": 13294,
    "first": 3934,
    "Ġcruelly": 13376,
    "Ġthanks": 6709,
    "Ġiceland": 15149,
    "Ġrid": 4357,
    "Ġpin": 7162,
    "Ġmen": 1436,
    "Ġrecommend": 7104,
    "Ġfang": 21406,
    "engagements": 25855,
    "Ġvegetables": 15224,
    "Ġforeheads": 23449,
    "Ġeddies": 25089,
    "thouse": 21987,
    "Ġstar": 6025,
    "rable": 11634,
    "ick": 836,
    "iantly": 13740,
    "Ġsensible": 4976,
    "Ġdismay": 11812,
    "dat": 1664,
    "Ġagreeing": 20022,
    "Ġwreat": 15533,
    "Ġonce": 1490,
    "whence": 23215,
    "ezing": 10575,
    "nets": 9135,
    "osition": 1373,
    "Ġscore": 9740,
    "Ġcanes": 22169,
    "lives": 12489,
    "concent": 19483,
    "surd": 6934,
    "Ġlowerings": 23648,
    "rasing": 21048,
    "where": 2092,
    "Ġconsecrate": 26490,
    "niece": 20997,
    "Ġdrawled": 23997,
    "sympathy": 20545,
    "Ġmaterials": 11289,
    "Ġprodigies": 19796,
    "patient": 25343,
    "garity": 17555,
    "deep": 1029,
    "Ġresol": 2662,
    "Ġbarriers": 23797,
    "Ġsingular": 4426,
    "Ġveil": 7935,
    "vint": 21117,
    "Ġinquirer": 24966,
    "arbuck": 2024,
    "Ġweep": 7620,
    "nav": 17612,
    "Ġwoollen": 12107,
    "securing": 19816,
    "Ġcircumference": 13545,
    "enormous": 26167,
    "Ġintegration": 9870,
    "Ġanimate": 23425,
    "Ġcop": 7580,
    "rine": 21040,
    "Ġbetween": 793,
    "Ġstuff": 5717,
    "Ġdrama": 16331,
    "Ġextract": 1528,
    "Ġconcern": 2584,
    "Ġanonymous": 26179,
    "Ġnewton": 3534,
    "Ġeagle": 13203,
    "Ġbrought": 2514,
    "raltar": 24235,
    "Ġgrec": 18961,
    "Ġinsensibility": 17110,
    "Ġantilles": 24181,
    "gratitude": 16817,
    "Ġbol": 6243,
    "abs": 11669,
    "Ġdau": 21429,
    "Ġbed": 2151,
    "Ġtrad": 9830,
    "olstadt": 7790,
    "Ġaccur": 3590,
    "Ġbeams": 14632,
    "Ġdeclare": 6616,
    "clump": 23159,
    "Ġmasoned": 20254,
    "Ġtransport": 11279,
    "Ġdiscriminative": 4329,
    "girls": 12322,
    "enge": 21283,
    "dining": 13707,
    "jaws": 20934,
    "Ġvisits": 8221,
    "gladness": 25195,
    "Ġlimited": 23548,
    "Ġfaltering": 17886,
    "Ġphysi": 9990,
    "Ġuncounted": 19118,
    "Ġclassifies": 11840,
    "nameless": 19905,
    "without": 4848,
    "Ġsavagely": 26325,
    "exceeded": 25004,
    "Ġnewfoundland": 26570,
    "ach": 435,
    "Ġconfined": 7465,
    "fates": 20860,
    "Ġelsewhere": 7714,
    "himself": 3971,
    "avenza": 17104,
    "oot": 13766,
    "Ġinspector": 6499,
    "bright": 8991,
    "Ġpupp": 10821,
    "Ġaboriginal": 14190,
    "Ġfinds": 6301,
    "Ġmunro": 25631,
    "Ġtearless": 24785,
    "Ġsoo": 15863,
    "stranded": 19227,
    "Ġ65": 24367,
    "Ġwigwam": 11429,
    "ipelag": 12846,
    "pet": 4868,
    "Ġdepression": 21846,
    "Ġwhispering": 14947,
    "Ġpaunch": 23751,
    "ench": 21282,
    "Ġplenty": 6710,
    "Ġimproving": 1210,
    "appetite": 22854,
    "Ġinconsistency": 26184,
    "ainty": 21792,
    "Ġprediction": 2173,
    "commotion": 24914,
    "Ġvict": 3765,
    "quent": 2095,
    "Ġenumerating": 15247,
    "Ġitself": 2519,
    "sailors": 9924,
    "proud": 9906,
    "Ġwaist": 6892,
    "Ġanchored": 17442,
    "Ġknotted": 17020,
    "sembled": 7263,
    "Ġjealousy": 13577,
    "ojo": 7349,
    "Ġslaughter": 20732,
    "regard": 7975,
    "Ġinflexibly": 26372,
    "ominy": 13979,
    "seventy": 10877,
    "Ġextracts": 9368,
    "hus": 5072,
    "nearest": 16028,
    "flour": 23970,
    "oftener": 23968,
    "Ġescaping": 13136,
    "poke": 18799,
    "Ġbus": 1906,
    "Ġcore": 13879,
    "behaviour": 11302,
    "Ġwrithing": 11949,
    "wester": 21141,
    "Ġspirit": 3728,
    "Ġfalse": 4346,
    "Ġpaltry": 16692,
    "itan": 10161,
    "really": 6972,
    "seam": 10875,
    "Ġmortally": 23920,
    "Ġtangles": 25762,
    "escaped": 14232,
    "bones": 8373,
    "trem": 17682,
    "pick": 17635,
    "Ŀ": 256,
    "measured": 19993,
    "mysteries": 26051,
    "ieth": 10705,
    "lac": 17590,
    "Ġcompared": 2229,
    "conversation": 7124,
    "christian": 17234,
    "Ġlets": 18079,
    "Ġspring": 4121,
    "Ġtormented": 8678,
    "Ġsuggested": 8322,
    "Ġ73": 24262,
    "ofs": 11833,
    "course": 6106,
    "urring": 21709,
    "Ġbade": 9174,
    "ü": 189,
    "shoals": 24716,
    "thomas": 18220,
    "iloqu": 11650,
    "Ġtobacco": 8368,
    "Ġjib": 14195,
    "Ġfed": 5529,
    "otted": 14025,
    "Ġphrase": 11188,
    "Ġlarboard": 11010,
    "Ġinfer": 7685,
    "Ġpoverty": 9307,
    "Ġishmael": 7395,
    "Ġquee": 1980,
    "smitten": 23912,
    "Ġscarlet": 13225,
    "tro": 15435,
    "Ġfits": 8794,
    "Ġglow": 7171,
    "Ġwrite": 3824,
    "Ġeloquence": 11844,
    "bel": 3838,
    "Ġgasfitters": 25041,
    "Ġperturbed": 20443,
    "Ġreflect": 6576,
    "fiery": 13582,
    "Ġwhel": 15869,
    "furthest": 19844,
    "Ġunfavourable": 17419,
    "Ġprivately": 19526,
    "Ġcorroded": 18877,
    "record": 16922,
    "Ġentrance": 7233,
    "Ġelbowed": 16113,
    "elijah": 19476,
    "Ġhon": 2537,
    "drab": 23902,
    "Ġfathoms": 9086,
    "departure": 15237,
    "Ġwidow": 8666,
    "Ġrests": 13094,
    "mon": 2309,
    "inguish": 9400,
    "aye": 3663,
    "share": 14236,
    "itory": 12571,
    "Ġbart": 17859,
    "Ġcubic": 20091,
    "Ġentreaty": 10531,
    "whiskers": 12314,
    "Ġknowest": 12868,
    "Ġhowever": 1305,
    "Ġwarmest": 16485,
    "Ġanon": 9668,
    "Ġoverthrown": 18431,
    "Ġhollow": 5648,
    "Ġprinc": 4200,
    "un": 373,
    "esting": 7412,
    "Ġexp": 779,
    "revival": 26163,
    "omp": 2529,
    "complain": 14351,
    "ĠĠĠĠĠĠĠĠĠĠĠĠĠĠĠĠĠĠĠĠĠĠĠĠĠĠĠĠĠĠĠĠĠĠĠĠĠĠĠĠĠĠĠĠĠĠĠĠĠĠĠ": 20042,
    "Ġconver": 805,
    "Ġmonstr": 7669,
    "Ġlens": 8440,
    "Ġindividuality": 14911,
    "round": 3369,
    "Ġcoats": 16079,
    "Ġpalpable": 15208,
    "ucy": 15446,
    "Ġspurred": 22143,
    "amuse": 14053,
    "Ġtransportation": 13643,
    "orious": 6010,
    "Ġspleen": 26422,
    "daw": 17523,
    "vic": 13803,
    "Ġmemo": 18122,
    "Ġfor": 340,
    "iffe": 21907,
    "Ġsubstituting": 26328,
    "alously": 15632,
    "folly": 20864,
    "cuniary": 26380,
    "Ġhath": 12633,
    "Ġstroke": 6936,
    "stir": 12678,
    "ece": 17532,
    "Ġwafted": 14499,
    "bred": 11470,
    "Ġcarpenters": 16753,
    "pictures": 15093,
    ">": 34,
    "Ġtribe": 10752,
    "Ġwhereof": 16105,
    "Ġbarrel": 23794,
    "Ġsince": 1795,
    "sence": 3306,
    "Ġpivot": 13924,
    "Ġsmile": 4274,
    "Ġpitiable": 9916,
    "Ġduplicates": 17218,
    "speaks": 19722,
    "Ġfingertips": 24025,
    "ortment": 22261,
    "usive": 8193,
    "Ġsquare": 2400,
    "Ġrele": 2914,
    "Ġprocedure": 2806,
    "lanter": 15390,
    "Ġunshored": 25814,
    "Ġflights": 24752,
    "boys": 13361,
    "Ġsearch": 2589,
    "latin": 25259,
    "Ġhav": 12759,
    "queer": 10365,
    "oforte": 14288,
    "Ġreef": 10850,
    "Ġwanderings": 20146,
    "bet": 6111,
    "Ġspeaker": 19150,
    "Ġripp": 11220,
    "sudden": 5316,
    "rote": 4594,
    "Ġhanging": 5447,
    "amplified": 26495,
    "Ġwindows": 4971,
    "Ġprinces": 23225,
    "singular": 12192,
    "ountain": 2915,
    "Ġdisinclined": 22534,
    "Ġassisted": 11111,
    "Ġshops": 22006,
    "ceive": 3061,
    "Ġrugged": 18720,
    "Ġvesture": 20065,
    "Ġinfirm": 19018,
    "Ġsubtile": 20383,
    "fold": 7546,
    "Ġhotel": 8654,
    "Ġgild": 15672,
    "amore": 21848,
    "Ġcabinets": 23865,
    "Ġgenteel": 19984,
    "Ġdefine": 9817,
    "Ġdef": 1201,
    "coo": 11171,
    "Ġgushed": 21611,
    "source": 11527,
    "Ġreck": 6539,
    "Ġcounterbalance": 24721,
    "Ġunw": 7005,
    "Ġaghast": 16050,
    "Ġobliging": 13244,
    "Ġ70": 11277,
    "aside": 10193,
    "Ġwakeful": 24268,
    "Ġheart": 1592,
    "Ġinquire": 7721,
    "Ġshower": 11713,
    "Ġuniversal": 2234,
    "Ġwoodcock": 19165,
    "sorrows": 17322,
    "poss": 4779,
    "Ġtomorrow": 21517,
    "Ġbulge": 23860,
    "Ġscrew": 8870,
    "Ġcultivated": 17366,
    "Ġstarvation": 19794,
    "Ġalive": 4401,
    "Ġthus": 2035,
    "Ġmud": 11575,
    "chemical": 23811,
    "Ġseating": 18200,
    "Ġresembles": 25970,
    "london": 9611,
    "Ġprone": 18968,
    "Ġsw": 1354,
    "Ġmot": 2984,
    "orange": 21403,
    "ates": 519,
    "whis": 7900,
    "Ġexperiment": 11921,
    "loving": 18541,
    "Ġheightens": 24156,
    "ats": 4255,
    "return": 5489,
    "deeply": 16181,
    "Ġknot": 7013,
    "icable": 6389,
    "Ġinform": 993,
    "Ġplainly": 4384,
    "injured": 15135,
    "Ġembeddings": 2094,
    "Ġanonym": 17899,
    "Ġassertions": 19950,
    "Ġcarried": 3698,
    "disagreeable": 11164,
    "Ġcork": 12573,
    "30": 20756,
    "susp": 10598,
    "Ġfeather": 8862,
    "Ġ5": 4935,
    "Ġarrives": 23609,
    "attention": 2111,
    "Ġinconven": 7587,
    "aguy": 21915,
    "ĠlinnÃ¦us": 15277,
    "Ġproperly": 7946,
    "Û": 156,
    "Ġdirecting": 16302,
    "Ġthrowing": 6337,
    "Ġcopestone": 24939,
    "Ġmentioning": 9901,
    "relu": 17760,
    "Ġclaret": 22356,
    "analy": 17840,
    "whole": 6087,
    "Ġtrampled": 20331,
    "Ġchry": 22251,
    "aits": 20768,
    "Ġdistribut": 841,
    "anguish": 15986,
    "Ġsupport": 6730,
    "urg": 8143,
    "Ġlikelihood": 16502,
    "Ġsnapping": 19303,
    "Ġfool": 4236,
    "Ġpanthe": 19656,
    "long": 2909,
    "Ġtender": 5753,
    "Ġimpertin": 6933,
    "Ġdestroyer": 13414,
    "Ġsyllables": 25299,
    "Ġevident": 6614,
    "Ġnorthumbria": 24173,
    "Ġisa": 14026,
    "Ġnuts": 17954,
    "ibles": 18787,
    "Ġ184": 16608,
    "Ġprodigiously": 14934,
    "Ġexpired": 18624,
    "Ġawake": 8273,
    "Ġpliny": 11828,
    "Ġnobler": 14175,
    "Ġinadequate": 17939,
    "Ġgratifying": 13306,
    "erial": 4633,
    "dington": 12069,
    "Ġtheme": 16021,
    "atiously": 15524,
    "rigged": 17062,
    "ahead": 12437,
    "Ġmurdered": 6465,
    "eneva": 5118,
    "ĠĠĠĠĠĠĠĠĠĠĠĠĠĠĠĠĠĠĠĠĠĠĠĠĠĠĠĠ": 9977,
    "Ġprofoundest": 16861,
    "Ġbetter": 1177,
    "rics": 13040,
    "Ġcategorization": 12140,
    "Ġw": 272,
    "streamed": 25967,
    "Ġintuitions": 17343,
    "Ġgest": 8135,
    "robust": 19730,
    "alcul": 15631,
    "Ġscaled": 2106,
    "gences": 20879,
    "mccarthy": 15397,
    "Ġple": 1469,
    "Ġadmir": 12024,
    "receive": 12546,
    "Ġcommunicative": 24547,
    "persons": 24176,
    "Ġfeebly": 24878,
    "Ġ(": 594,
    "Ġpossesses": 19355,
    "Ġdispositions": 13234,
    "disgu": 19157,
    "delay": 16696,
    "extric": 22759,
    "Ġperishing": 22401,
    "zwilliam": 5074,
    "Ġplausible": 26554,
    "Ġheroine": 24542,
    "Ġhackluyt": 25656,
    "Ġprocess": 559,
    "Ġdesperado": 19822,
    "Ġcourse": 2131,
    "Ġglued": 20592,
    "ł": 259,
    "Ġintrig": 21995,
    "Ġrecre": 22738,
    "Ġcollect": 7237,
    "Ġhell": 5019,
    "ieces": 4773,
    "big": 13687,
    "impregnable": 26482,
    "Ġhers": 7891,
    "Ġmissed": 8560,
    "showed": 16025,
    "Ġliked": 5265,
    "sofa": 26147,
    "lowering": 16031,
    "beginning": 13562,
    "Ġback": 813,
    "Ġprincipal": 6497,
    "Ġpeaks": 16131,
    "Ġlim": 2383,
    "Ġreco": 9791,
    "Ġrelish": 14386,
    "Ġcircles": 7968,
    "Ġincalculable": 17462,
    "Ġaverages": 2402,
    "Ġspoutings": 14677,
    "cutting": 23787,
    "w": 91,
    "Ġsurviving": 24638,
    "Ġwind": 1435,
    "Ġcases": 3961,
    "reen": 21234,
    "Ġsain": 17751,
    "unable": 14060,
    "elop": 1540,
    "Ġdeem": 18139,
    "isco": 12586,
    "Ġbeside": 5192,
    "Ġmounttop": 19981,
    "Ġpatron": 7464,
    "Ġbanking": 19633,
    "Ġyet": 1028,
    "Ġequival": 4785,
    "ĠâĢľâĢĺ": 8506,
    "Ġconvul": 13204,
    "Ġsecretary": 19446,
    "Ġplied": 22601,
    "Ġsubmitted": 11874,
    "Ġphiladelphia": 26605,
    "Ġchace": 14178,
    "Ġfoster": 18991,
    "innocent": 20289,
    "childhood": 16867,
    "Ġsluggishly": 25892,
    "Ġicy": 10748,
    "Ġslink": 23167,
    "Ġexaggerate": 25650,
    "Ġsharkish": 24502,
    "Ġjolly": 6858,
    "Ġepit": 18009,
    "inces": 13829,
    "Ġcontemplation": 11358,
    "âĢĻ!âĢĿ": 18176,
    "Ġfairest": 20466,
    "uting": 15663,
    "Ġgrateful": 7662,
    "difficult": 10060,
    "irty": 4049,
    "chron": 21698,
    "Ġnapkins": 25165,
    "Ġwhar": 7388,
    "Ġcase": 1941,
    "dense": 18716,
    "Ġaffidavit": 20726,
    "Ġpil": 5014,
    "Ġsupplies": 20329,
    "Ġextremity": 8990,
    "cherish": 24551,
    "Ġbl": 1191,
    "Ġwails": 21299,
    "Ġunrival": 22050,
    "Ġadorn": 12797,
    "Ġhope": 1789,
    "bweb": 20793,
    "Ġhood": 10824,
    "Ġintruder": 25992,
    "Ġhogshe": 20495,
    "Ġlab": 1871,
    "Ġoptimization": 1395,
    "hound": 20897,
    "Ġextinguished": 10343,
    "Ġfancying": 12116,
    "Ġignited": 25072,
    "Ġrevolut": 3255,
    "interval": 7992,
    "Ġtunnel": 14932,
    "Ġ66": 24368,
    "inkle": 22618,
    "cus": 3979,
    "Ġspur": 18304,
    "Ġattractive": 25576,
    "Ġwhirled": 14962,
    "close": 9988,
    "Ġinterruption": 9475,
    "Ġglide": 22990,
    "Ġbarred": 9004,
    "treated": 21097,
    "Ġprizes": 13075,
    "Ġwherever": 8526,
    "Ġboarding": 12090,
    "eping": 5834,
    "Ġlevel": 5020,
    "Ġcivilised": 24246,
    "rep": 5525,
    "Ġbringing": 5871,
    "usiveness": 22298,
    "rocket": 13945,
    "cape": 13699,
    "alleled": 14431,
    "Ġreflection": 6441,
    "profess": 10636,
    "thick": 10262,
    "Ġoctavo": 15166,
    "Ġflourish": 17162,
    "Ġstriking": 6090,
    "ordered": 8793,
    "59": 17475,
    "setting": 13286,
    "riages": 10245,
    "izard": 10880,
    "Ġdistributed": 18661,
    "Ġsinister": 8572,
    "oes": 4436,
    "mad": 5281,
    "Ġautoregressive": 3435,
    "scept": 21056,
    "ts": 957,
    "Ġghostliness": 24652,
    "Ġnaked": 8128,
    "niest": 18993,
    "vit": 13802,
    "Ġburgled": 23655,
    "Ġunicorn": 22060,
    "eagerly": 17318,
    "Ġhumane": 11887,
    "Ġsheath": 14153,
    "wound": 21129,
    "Ġmuch": 924,
    "entreat": 17978,
    "Ġscanning": 18400,
    "ulty": 22572,
    "Ġthrust": 5084,
    "Ġdated": 10940,
    "rue": 1127,
    "uation": 17695,
    "Ġefficient": 1005,
    "Ġy": 341,
    "Ġhoard": 23356,
    "Ġcome": 1242,
    "Ġpurp": 2396,
    "Ġsing": 3070,
    "tern": 4224,
    "Ġmar": 1311,
    "practical": 17223,
    "Ġpacific": 5153,
    "Ġblasts": 19999,
    "Ġquoin": 22423,
    "Ġrobins": 16256,
    "elled": 3991,
    "Ġcalled": 1973,
    "otics": 10225,
    "Ġphantom": 8710,
    "Ġmetal": 9387,
    "Ġnights": 7258,
    "jack": 7344,
    "allen": 22201,
    "Ġmil": 4256,
    "Ġthoughtless": 16195,
    "Ġintermix": 25827,
    "Ġlocked": 6037,
    "Ġdeject": 10882,
    "Ġunreasoning": 15848,
    "ffic": 22145,
    "Ġtakes": 5007,
    "Ġpeninsula": 23199,
    "ableness": 8150,
    "mbly": 9789,
    "Ġarrangement": 2654,
    "Ġwreath": 25937,
    "Ġner": 1643,
    "aving": 2410,
    "Ġentered": 2842,
    "Ġcompl": 3763,
    "Ġess": 5691,
    "Ġsoaring": 22088,
    "oney": 3047,
    "Ġnetherfield": 3931,
    "Ġbelf": 21384,
    "middle": 11311,
    "trial": 20353,
    "Ġbroker": 23108,
    "oa": 9614,
    "introduced": 15127,
    "monsters": 19173,
    "Ġstepped": 7053,
    "Ġworlds": 11950,
    "Ġundeserving": 18269,
    "ichron": 22168,
    "orph": 21402,
    "Ġaccept": 4413,
    "Ġscorn": 7903,
    "court": 7511,
    "missed": 11209,
    "Ġdistingu": 2512,
    "erness": 6435,
    "Ġmisfortune": 5568,
    "Ġmonomania": 17085,
    "goin": 23406,
    "ingly": 2135,
    "Ġpaddles": 15150,
    "astes": 11742,
    "ang": 446,
    "choice": 21695,
    "Ġfacility": 19852,
    "Ġstool": 14463,
    "Ġmadman": 13152,
    "ounding": 22397,
    "Ġmal": 5221,
    "Ġinexperienced": 26101,
    "appalled": 18763,
    "mult": 8751,
    "Ġquickly": 4242,
    "Ġinarticulate": 21504,
    "asleep": 21548,
    "Ġopposed": 11189,
    "Ġoar": 6238,
    "Ġbench": 7238,
    "ind": 567,
    "possible": 5743,
    "Ġpack": 5444,
    "Ġlamb": 8816,
    "Ġcaged": 21355,
    "Ġdoc": 7200,
    "Ġporch": 19683,
    "Ġegypt": 9680,
    "Ġlightly": 13085,
    "Ġaslant": 21906,
    "Ġbenevolence": 9529,
    "Ġamuse": 5942,
    "Ġindependently": 4247,
    "Ġneatly": 17017,
    "Ġodorous": 19569,
    "sulphur": 25910,
    "transferred": 24510,
    "Ġmeasuring": 22886,
    "desirable": 23813,
    "Ġproverb": 12721,
    "Ġinanimate": 13934,
    "Ġturned": 2133,
    "Ġhearty": 9847,
    "luded": 4228,
    "syntax": 5868,
    "attain": 21264,
    "Ġsuffice": 18871,
    "Ġcompan": 2174,
    "Ġvarying": 15813,
    "Ġere": 3690,
    "Ġubiqu": 18049,
    "wins": 21132,
    "Ġfiddle": 25445,
    "verty": 8454,
    "Ġ21": 11199,
    "Ġheed": 5630,
    "Ġcrosswise": 18888,
    "Ġoverdone": 22365,
    "ho": 2854,
    "more": 1034,
    "Ġcomputations": 16000,
    "ims": 7177,
    "Ġcontemporary": 16014,
    "Ã": 132,
    "desperate": 17359,
    "Ġconvulsively": 25716,
    "Ġtended": 21169,
    "hampshire": 23268,
    "shut": 10980,
    "Ġeffort": 8203,
    "Ġcope": 17832,
    "wander": 17710,
    "deliber": 17428,
    "Ġgipsies": 12411,
    "Ġscreening": 25301,
    "Ġvacantly": 16816,
    "Ġblushed": 13004,
    "frau": 15092,
    "itted": 2443,
    "Ġindelible": 25695,
    "Ġmood": 6278,
    "roc": 9676,
    "Ġwides": 17790,
    "hailed": 17566,
    "hercules": 22209,
    "Ġunerringly": 18266,
    "Ġconception": 10312,
    "Ġshrimp": 24159,
    "Ġbreathing": 9448,
    "willingness": 24754,
    "Ġhandsomely": 25498,
    "Ġmeridians": 17357,
    "Ġhierarchical": 1929,
    "hmael": 7342,
    "moving": 11018,
    "browed": 25895,
    "hearted": 6971,
    "Ġplaymate": 23640,
    "Ġepisode": 26349,
    "Ġpikes": 21481,
    "ĠĠĠĠĠ": 3528,
    "Ġstrange": 2274,
    "Ġtreasures": 17047,
    "Ġinterpretation": 19719,
    "takes": 21079,
    "pers": 4339,
    "approbation": 11459,
    "believed": 9935,
    "swim": 16780,
    "Ġemper": 9863,
    "º": 123,
    "Ġprovides": 1931,
    "Ġwhereby": 11839,
    "Ġroutine": 13508,
    "Ġgibberish": 25787,
    "gaz": 20880,
    "Ġmaled": 21317,
    "Ġlearnable": 3994,
    "Ġsurpl": 19134,
    "Ġfollowed": 1793,
    "sixteen": 24854,
    "Ġburly": 19251,
    "Ġbomb": 17869,
    "Ġappals": 22223,
    "Ġfebruary": 15916,
    "Ġslice": 23164,
    "tack": 12516,
    "Ġcobbler": 25831,
    "Ġpeep": 6870,
    "ments": 1404,
    "calculation": 25689,
    "cet": 15327,
    "Ġfollowing": 4062,
    "Ġwashington": 17204,
    "Ġplaned": 24061,
    "Ġbidding": 9539,
    "Ġdaintiest": 25954,
    "fam": 5991,
    "son": 2329,
    "avor": 14278,
    "whaling": 7901,
    "Ġprices": 15615,
    "Ġtag": 15470,
    "alescing": 23869,
    "Ġremorseless": 13452,
    "Ġletter": 2197,
    "Ġpos": 1008,
    "spite": 16139,
    "rmsprop": 4524,
    "lour": 15383,
    "isely": 4491,
    "ital": 4819,
    "Ġstoried": 18075,
    "Ġabilities": 8869,
    "sherlock": 5422,
    "Ġreasoning": 2057,
    "fare": 7800,
    "Ġmines": 21311,
    "Ġsweetness": 9449,
    "throwing": 11706,
    "twinkle": 23703,
    "volutional": 1936,
    "ropout": 1320,
    "befriend": 22497,
    "Ġelevating": 19731,
    "zing": 7821,
    "Ġsalesman": 13670,
    "Ġperforms": 11880,
    "shipmates": 11931,
    "Ġproportionably": 19974,
    "shuff": 18483,
    "_)âĢĶ": 20147,
    "Ġharder": 14451,
    "Ġbushy": 16404,
    "Ġserenity": 10030,
    "touched": 15441,
    "Ġintrude": 25991,
    "Ġastr": 15496,
    "Ġanom": 12616,
    "Ġguide": 3216,
    "Ġvaults": 17155,
    "Ġcheap": 13090,
    "Ġsmith": 16067,
    "Ġclumsy": 9581,
    "vid": 915,
    "Ġrejecting": 17051,
    "actions": 8909,
    "Ġfacts": 2289,
    "Ġtal": 7564,
    "aching": 5832,
    "Ġengine": 1922,
    "raved": 18015,
    "s": 87,
    "crawling": 16959,
    "Ġflit": 23010,
    "Ġmcc": 21309,
    "Ġk": 485,
    "passenger": 24168,
    "Ġwill": 680,
    "venison": 22632,
    "Ġstreatham": 17451,
    "destiny": 16700,
    "cess": 536,
    "crowd": 25255,
    "Ġflea": 23775,
    "Ġgentlemanly": 19318,
    "Ġfrightens": 24038,
    "Ġtides": 13822,
    "Ġ102": 24409,
    "Ġtattered": 21174,
    "ourable": 4967,
    "stoke": 18025,
    "lock": 1470,
    "Ġunlike": 7006,
    "astrop": 3315,
    "Ġsubjected": 23574,
    "Ġfishery": 4175,
    "Ġxx": 5492,
    "Ġreconc": 9685,
    "hering": 12819,
    "Ġeste": 6086,
    "Ġscrews": 25178,
    "Ġmicrosc": 20679,
    "danced": 20830,
    "accepting": 20138,
    "Ġsignification": 19204,
    "Ġmass": 3784,
    "merged": 11194,
    "sister": 5139,
    "Ġtech": 1679,
    "pretending": 17041,
    "ancing": 1757,
    "Ġacquiescence": 20333,
    "Ġslighter": 18942,
    "Ġhurts": 19113,
    "Ġmocking": 24011,
    "Ġshipmate": 8931,
    "anse": 12580,
    "ª": 108,
    "Ġpossessing": 16577,
    "Ġextracting": 11112,
    "neck": 14242,
    "ry": 806,
    "Ġcontributes": 15253,
    "iality": 8849,
    "Ġdevoid": 18688,
    "Ġtranced": 18433,
    "owers": 12689,
    "sufficiently": 14983,
    "continu": 5501,
    "Ġbamboo": 17439,
    "Ġderive": 10396,
    "Ġplunged": 8696,
    "vineyard": 25422,
    "blog": 19842,
    "bert": 4664,
    "isive": 10794,
    "Ġgar": 10839,
    "ught": 2747,
    "Ġsignifies": 19205,
    "Ġtoiled": 12647,
    "lascar": 20962,
    "Ġseventy": 7880,
    "Ġstirring": 10581,
    "pets": 17637,
    "Ġtoad": 21514,
    "extensive": 18705,
    "fem": 17538,
    "rack": 18013,
    "text": 1974,
    "Ġinvari": 6530,
    "Ġbeheading": 21759,
    "consideration": 14957,
    "Ġcollection": 8224,
    "Ġglowed": 24865,
    "Ġphenomena": 21487,
    "ju": 13742,
    "lifeless": 24313,
    ",--âĢľ": 19198,
    "ceased": 21630,
    "past": 8091,
    "Ġembarked": 17136,
    "ements": 11108,
    "Ġimbued": 17457,
    "Ġburning": 5979,
    "Ġweeping": 11689,
    "Ġreproached": 24892,
    "Ġwalled": 15537,
    "Ġfair": 2833,
    "Ġnoisier": 4626,
    "Ġscar": 3212,
    "Ġmagnus": 18959,
    "Ġgoal": 10303,
    "emotions": 15799,
    "Ġslew": 23386,
    "friend": 3864,
    "asmuch": 10196,
    "Ġconvention": 25547,
    "frisco": 16788,
    "wrapped": 15212,
    "Ġunfulfilled": 26510,
    "streets": 13396,
    "Ġprovincial": 20652,
    "Ġow": 8410,
    "Ġlegal": 10440,
    "--": 1043,
    "usal": 7639,
    "Ġreferences": 21678,
    "Ġgiving": 4085,
    "rise": 6228,
    "trap": 24333,
    "lessness": 5318,
    "Ġneuron": 1807,
    "Ġold": 1059,
    "Ġcarcase": 14446,
    "Ġaspects": 4174,
    "Ġroaring": 10969,
    "70": 17477,
    "Ġyounge": 16290,
    "Ġgrapes": 15218,
    "abounding": 25980,
    "Ġtouching": 4682,
    "Ġattendant": 11286,
    "Ġadd": 630,
    "Ġiceberg": 14718,
    "Ġbeat": 4494,
    "Ġarguing": 25471,
    "mit": 4934,
    "remem": 13069,
    "nurs": 21001,
    "girl": 12321,
    "Ġ8": 5433,
    "Ġkin": 15907,
    "Ġfielding": 16238,
    "!_": 7329,
    "lucifer": 25302,
    "Ġscan": 22284,
    "Ġcomprehens": 8321,
    "particulars": 11316,
    "odecim": 9834,
    "Ġsmiles": 6708,
    "Ġfaith": 5351,
    "Ġensemble": 1606,
    "fourths": 25510,
    "resides": 23671,
    "Ġintellig": 526,
    "Ġante": 17898,
    "irious": 15789,
    "pse": 21011,
    "Ġlimb": 9405,
    "Ġdevotion": 22735,
    "Ġgoose": 5940,
    "Ġtablet": 19206,
    "after": 2893,
    "Ġabsolutely": 4859,
    "Ġreinforcement": 3441,
    "elements": 25204,
    "Ġcomprehending": 24444,
    "Ġgreeks": 20016,
    "Ġlessen": 14533,
    "Ġcleaned": 23186,
    "ver": 331,
    "Ġoutlines": 15960,
    "ellent": 3766,
    "avery": 13685,
    "Ġcarries": 7675,
    "Ġbrass": 11049,
    "Ġsuns": 23277,
    "hess": 4748,
    "Ġimprove": 1810,
    "Ġgambler": 26192,
    "Ġwedged": 24936,
    "icated": 7591,
    "Ġproposals": 10615,
    "ernity": 18614,
    "Ġinexorable": 12259,
    "ulties": 12906,
    "Ġfelt": 1745,
    "Ġtuck": 10142,
    "orate": 10801,
    "fortunes": 6334,
    "Ġflash": 8231,
    "Ġsentence": 6189,
    "Ġ109": 24415,
    "Ġsoliloquized": 17304,
    "emone": 21930,
    "Ġdisplay": 6429,
    "Ġemergency": 25731,
    "gathered": 13733,
    "arms": 10175,
    "Ġmiriam": 25274,
    "Ġreconciled": 13588,
    "supernatural": 19782,
    "Ġsigning": 22712,
    "Ġencamped": 22808,
    "Ġrecently": 11864,
    "Ġrect": 18028,
    "Ġdemanding": 16806,
    "Ġeclips": 20699,
    "Ġstained": 11654,
    "Ġoutbreak": 22322,
    "ture": 7558,
    "Ġgrie": 3584,
    "Ġsequentially": 4915,
    "Ġarithmetic": 18347,
    "Ġsympathy": 6348,
    "Ġcourtship": 24137,
    "meal": 22717,
    "Ġdrown": 6816,
    "Ġpeople": 2543,
    "befall": 22500,
    "uplifted": 17696,
    "utes": 5916,
    "ariously": 18531,
    "ke": 429,
    "ifer": 11687,
    "Ġsc": 529,
    "Ġgor": 9209,
    "Ġwarrior": 24495,
    "Ġoverpow": 14208,
    "x": 92,
    "Ġpropos": 7063,
    "stirred": 20428,
    "Ġanalysis": 1918,
    "onds": 12998,
    "Ġtusk": 25426,
    "Ġpastures": 23422,
    "whosoever": 22245,
    "Ġjuncture": 17131,
    "Ġapples": 22221,
    "described": 18896,
    "Ġalgorithms": 857,
    "Ġembell": 14413,
    "Ġhelm": 5276,
    "ishment": 3507,
    "Ġargemone": 24276,
    "Ġappear": 2483,
    "Ġpitched": 9447,
    "Ġcasualty": 20344,
    "allies": 14167,
    "Ġfuel": 13905,
    "Ġhumbly": 16200,
    "omed": 13976,
    "Ġenjoys": 19454,
    "bered": 4507,
    "Ġscor": 8191,
    "onstr": 12550,
    "Ġrecords": 12199,
    "Ġdata": 516,
    "intense": 22940,
    "hap": 17560,
    "Ġinevitable": 15170,
    "Ġgorgeous": 20470,
    "tackle": 17323,
    "night": 2168,
    "jackets": 24896,
    "Ġallures": 22011,
    "Ġsurpr": 2549,
    "thole": 21991,
    "Ġshed": 8182,
    "almost": 4943,
    "deck": 4503,
    "Ġfaculties": 14960,
    "Ġplowdon": 26448,
    "Ġmildly": 9032,
    "Ġor": 437,
    "une": 2783,
    "beating": 22494,
    "Ġadmirers": 19689,
    "Ġusual": 3943,
    "vers": 1326,
    "important": 7114,
    "Ġcommonly": 3262,
    "Ġsend": 4107,
    "Ġsepulchral": 25893,
    "Ġpresents": 8246,
    "quimaux": 21864,
    "agues": 8162,
    "acc": 2533,
    "mason": 17603,
    "Ġschooner": 16748,
    "taller": 26151,
    "Ġchord": 22250,
    "Ġparted": 5931,
    "Ġcontradicted": 20214,
    "ident": 3381,
    "Ġpolitical": 19225,
    "Ġapothe": 12378,
    "hist": 7132,
    "ulated": 6032,
    "Ġtrance": 12849,
    "bab": 11469,
    "presume": 25670,
    "Ġaids": 12232,
    "Ġdropout": 1561,
    "onies": 6807,
    "Ġharness": 17930,
    "purp": 8092,
    "limbs": 20194,
    "Ġunobserved": 18250,
    "Ġinsist": 9893,
    "ater": 3371,
    "Ġrecol": 4029,
    "Ġmet": 1879,
    "ashion": 3861,
    "Ġsecured": 6747,
    "fav": 6649,
    "Ġhearse": 10421,
    "conceivable": 17132,
    "gather": 20877,
    "arising": 17897,
    "Ġuseless": 7038,
    "memory": 13618,
    "Ġclutched": 13519,
    "Ġvoluntarily": 12144,
    "rudence": 7094,
    "Ġwrecks": 16819,
    "Ġsprained": 15886,
    "Ġcongrat": 5828,
    "esc": 621,
    "Ġviolent": 5117,
    "Ġdoing": 3664,
    "while": 2931,
    "Ġmed": 4177,
    "Ġembodied": 25848,
    "Ġcopying": 17068,
    "value": 18804,
    "expected": 5780,
    "Ġsubsiding": 23436,
    "consequential": 26251,
    "balls": 12308,
    "ips": 2591,
    "myster": 16265,
    "ah": 1832,
    "interrupt": 8619,
    "hel": 4815,
    "Ġvessel": 3802,
    "agged": 9240,
    "Ġbestowed": 6595,
    "Ġfloor": 4381,
    "Ġendeared": 26499,
    "Ġbanker": 8670,
    "Ġplates": 11007,
    "high": 6652,
    "bast": 10079,
    "tacit": 21101,
    "plain": 1358,
    "Ġdelivery": 18976,
    "Ġecstasy": 11632,
    "Ġfaithful": 9505,
    "Ġhospitality": 13513,
    "known": 3569,
    "Ġspread": 5161,
    "tent": 21067,
    "gies": 13727,
    "ried": 926,
    "mem": 10710,
    "Ġscents": 22287,
    "Ġstrangers": 8315,
    "hab": 1078,
    "Ġpertin": 18450,
    "Ġmethinks": 10390,
    "geon": 6272,
    "bethink": 25745,
    "habit": 16192,
    "av": 738,
    "Ġlengths": 19207,
    "Ġskin": 5038,
    "iers": 5993,
    "https": 11686,
    "Ġacted": 7422,
    "study": 15120,
    "bearance": 22499,
    "Ġwatch": 2739,
    "Ġirretrie": 23377,
    "Ġconsequently": 8061,
    "Ġclam": 7416,
    "Ġdarkness": 4280,
    "Ġsec": 2074,
    "rinted": 21046,
    "os": 525,
    "Ġbeacon": 21761,
    "Ġoft": 9197,
    "Ġaddu": 22107,
    "Ġtenderest": 23553,
    "dia": 2134,
    "Ġsuits": 22093,
    "allowing": 24357,
    "calculating": 25690,
    "Ġimbu": 15894,
    "luyt": 18455,
    "Ġmagic": 8234,
    "26": 10075,
    "Ġprobed": 18735,
    "Ġjewels": 12372,
    "Ġechoed": 20427,
    "Ġlearn": 365,
    "Ġdefray": 22945,
    "aract": 17896,
    "paradise": 20640,
    "foolish": 12351,
    "Ġfain": 5809,
    "Ġruled": 22788,
    "resum": 17762,
    "Ġbehaved": 13254,
    "Ġconjectured": 9999,
    "Ġbristol": 14382,
    "iber": 6507,
    "Ġma": 3250,
    "scar": 9818,
    "Ġdegenerating": 25800,
    "Ġsacrific": 15019,
    "====": 1482,
    "Ġforefinger": 16442,
    "Ġdismal": 11813,
    "Ġboarded": 13235,
    "Ġbrides": 22872,
    "Ġvenetian": 14849,
    "gazed": 15364,
    "Ġsunwards": 19013,
    "Ġrepenting": 25323,
    "immediate": 20097,
    ");": 7330,
    "Ġunsolved": 22036,
    "jaw": 13744,
    "rushed": 10586,
    "Ġtelegram": 15226,
    "Ġguest": 7249,
    "cen": 17504,
    "Ġbulkington": 14678,
    "Ġpictured": 16624,
    "Ġholding": 4979,
    "racts": 14364,
    "shudder": 26247,
    "deficient": 23123,
    "Ġvane": 22880,
    "dimensional": 2351,
    "Ġdismember": 20218,
    "Ġgratified": 8022,
    "Ġobli": 9319,
    "Ġgestic": 21612,
    "Ġprotested": 9936,
    "ctor": 13961,
    "aded": 3550,
    "Ġgreater": 3034,
    "Ġbewitching": 25977,
    "Ġrepositories": 23368,
    "faces": 13721,
    "mblings": 19783,
    "Ġsemblance": 20736,
    "Ġcombining": 22867,
    "_,âĢĻâĢĿ": 20404,
    "Ġreign": 13986,
    "Ġpersuasions": 16633,
    "Ġ-": 1945,
    "nervous": 16280,
    "Ġsailors": 4279,
    "Ġincorrupt": 19236,
    "kindled": 16662,
    "Ġseries": 7061,
    "Ġdespondence": 25870,
    "becomes": 22501,
    "Ġtortured": 14926,
    "Ġwhile": 606,
    "drugg": 20840,
    "eting": 7170,
    "yonder": 21147,
    "preference": 22466,
    "Ġrepaired": 13109,
    "Ġdie": 3962,
    "Ġgrapple": 25812,
    "dist": 4483,
    "Ġjutting": 22306,
    "repeating": 20132,
    "married": 9951,
    "watson": 12247,
    "wow": 21124,
    "Ġnoon": 6561,
    "picture": 11408,
    "orough": 5700,
    "Ġtyros": 26102,
    "Ġtars": 21167,
    "ö": 183,
    "Ġplayful": 19238,
    "Ġdreamed": 16631,
    "Ġbathed": 17867,
    "Ġgleams": 17312,
    "Ġlichen": 20095,
    "Ġxxxvi": 24974,
    "Ġanswers": 7072,
    "Ġsolitudes": 22892,
    "connections": 14430,
    "Ġhorses": 6386,
    "Ġphyset": 23204,
    "owal": 13994,
    "elius": 13288,
    "Ġenveloped": 12211,
    "_:": 17480,
    "Ġremark": 2144,
    "Ġoversampling": 20519,
    "Ġmes": 17798,
    "eyed": 11488,
    "Ġran": 3344,
    "ripp": 6406,
    "cal": 1117,
    "Ġleaky": 2349,
    "mured": 6960,
    "owed": 2271,
    "rec": 6006,
    "books": 8667,
    "flutterings": 26607,
    "Ġnlp": 3059,
    "Ġderives": 16310,
    "Ġgradu": 15835,
    "Ġcoco": 11001,
    "Ġclanking": 20614,
    "Ġsetbacks": 11064,
    "Ġclutching": 24954,
    "Ġ124": 24468,
    "clad": 14461,
    "Ġhappy": 2466,
    "Ġintercept": 14271,
    "Ġadjacent": 20713,
    "ascertaining": 26461,
    "houn": 20895,
    "lorious": 17593,
    "type": 16178,
    ";âĢĻ": 15305,
    "Ġsomnam": 23009,
    "Į": 239,
    "Ġdemonstrate": 24999,
    "Ġoutline": 15957,
    "Ġquery": 2478,
    "Ġcarpent": 4467,
    "Ġdeficiencies": 26571,
    "Ġgr": 976,
    "chancing": 22922,
    "aust": 15312,
    "Ġregent": 18587,
    "Ġcontrivance": 17185,
    "======================================================================": 10070,
    "Ġgoethe": 22429,
    "Ġcharity": 8865,
    "_,âĢĿ": 6220,
    "flames": 14714,
    "ĠÂ£": 5006,
    "answered": 10275,
    "enter": 7859,
    "Ġimmemorial": 10512,
    "musket": 25342,
    "Ġotherwise": 4659,
    "cott": 8075,
    "Ġgene": 15675,
    "respond": 12548,
    "assistant": 25568,
    "Ġindulge": 10584,
    "Ġridges": 16732,
    "stuff": 15691,
    "Ġpersuasion": 10500,
    "Ġirregularly": 25324,
    "ids": 21768,
    "Ġdepress": 14049,
    "icing": 9203,
    "Ġfantastic": 10061,
    "prophecy": 22841,
    "Ġprofoundly": 16860,
    "burg": 16774,
    "Ġtints": 17728,
    "Ġhalls": 19528,
    "vity": 7816,
    "Ġtowards": 1729,
    "Ġwhom": 1830,
    "ada": 14012,
    "foreign": 18545,
    "glass": 9911,
    "Ġtouched": 6003,
    "affrail": 11205,
    "Ġcounters": 24142,
    "Ġintruding": 21996,
    "orses": 6054,
    "Ġhandsomer": 20336,
    "mselves": 2858,
    "Ġamelia": 26252,
    "Ġsymmetrical": 20370,
    "Ġdam": 2216,
    "dread": 8732,
    "Ġminimax": 5860,
    "reserve": 17766,
    "ersed": 10261,
    "constellation": 24609,
    "Ġoarsmen": 7739,
    "Ġut": 2279,
    "gems": 20886,
    "whilst": 18372,
    "Ġenquired": 21945,
    "Ġfads": 21420,
    "Ġprogress": 5023,
    "derbyshire": 18322,
    "kind": 3865,
    "Ġpianoforte": 15275,
    "Ġscaramouch": 23831,
    "expression": 10549,
    "Ġpaper": 4285,
    "eight": 9593,
    "Ġafterwards": 3532,
    "Ġcommend": 10336,
    "Ġconclude": 8584,
    "Ġregained": 18588,
    "venty": 6428,
    "_;": 6643,
    "Ġvancouver": 26566,
    "Ġbody": 2438,
    "sea": 4764,
    "Ġtyro": 16995,
    "image": 9688,
    "Ġpred": 662,
    "Ġdisenc": 22531,
    "serpent": 16294,
    "scattered": 22999,
    "Ġhighlands": 22780,
    "Ġent": 903,
    "halloa": 17090,
    "longer": 8616,
    "beware": 16042,
    "ree": 873,
    "Ġlig": 21552,
    "Ġvia": 2385,
    "snowy": 20286,
    "Ġperem": 12937,
    "castle": 3351,
    "gir": 8084,
    "Ġpretend": 7723,
    "unwilling": 14062,
    "Ġcluster": 13572,
    "Ġdistribution": 2018,
    "Ġfortnight": 6202,
    "viv": 17699,
    "Ġ1839": 20463,
    "impat": 11202,
    "than": 4088,
    "Ġlikes": 9411,
    "chased": 18044,
    "Ġlowered": 6737,
    "arding": 22162,
    "Ġsomebody": 7914,
    "Ġstability": 1362,
    "extracts": 22762,
    "Ġyouth": 4263,
    "contains": 16034,
    "'(": 2978,
    "Ġallusion": 7626,
    "shott": 11797,
    "Ġabundantly": 17158,
    "ge": 560,
    "Ġresemble": 15696,
    "bar": 7541,
    "Ġtrusty": 24106,
    "Ġfidel": 12601,
    "Ġrueful": 25582,
    "iter": 4394,
    "greater": 13252,
    "loat": 8889,
    "pride": 11210,
    "athom": 12944,
    "Ġpetticoat": 15298,
    "Ġsurpassed": 25268,
    "Ġfinally": 4668,
    "Ġundeniable": 26511,
    "cour": 4482,
    "building": 17311,
    "Ġpaste": 23421,
    "Ġyielding": 12190,
    "vengeance": 13358,
    "spr": 7435,
    "jump": 10105,
    "mutually": 26137,
    "Ġgathering": 14980,
    "Ġdolphins": 20399,
    "sey": 5542,
    "Ġjones": 7204,
    "Ġsuperl": 16444,
    "Ġsuccessful": 9925,
    "hob": 20902,
    "Ġsheepfold": 25467,
    "Ġbreak": 2865,
    "everybody": 8614,
    "Ġplow": 21462,
    "Ġalbert": 12711,
    "Ġinvented": 17037,
    "Ġresources": 2933,
    "Ġspeckled": 14311,
    "Ġcommissionaire": 17001,
    "Ġtries": 9153,
    "Ġcover": 3558,
    "Ġestimation": 11219,
    "Ġtechnique": 2408,
    "Ġdrenched": 12608,
    "Ġclubbed": 26547,
    "ley": 1816,
    "Ġ183": 13239,
    "standard": 22436,
    "Ġsundial": 15085,
    "ignant": 11130,
    "Ġsquire": 16185,
    "Ġmuslin": 19386,
    "Ġterrified": 14673,
    "Ġtaking": 3247,
    "Ġundulated": 19519,
    "king": 3057,
    "creat": 20802,
    "Ġbear": 3661,
    "Ġardent": 9972,
    "flight": 15355,
    "ft": 911,
    "Ġbleeds": 24396,
    "Ġchimney": 6498,
    "Ġdepressed": 10884,
    "Ġstrikes": 13184,
    "Ġsk": 959,
    "Ġsources": 10149,
    "Ġzoology": 22825,
    "Ġfulfil": 9553,
    "ĠĠĠĠĠĠĠĠĠĠĠĠĠĠĠĠĠĠĠĠĠĠĠĠĠĠĠĠĠĠĠĠĠĠĠĠĠĠĠĠĠĠĠĠĠĠĠĠĠĠĠĠĠ": 20043,
    "Ġmanager": 11772,
    "thrusting": 20262,
    "Ġbearing": 5300,
    "Ġchocks": 13347,
    "bald": 16445,
    "Ġthrew": 3973,
    "Ġhatchway": 13525,
    "Ġbroom": 18908,
    "Ġposterity": 17404,
    "Ġindignation": 8348,
    "Ġjog": 18405,
    "lads": 20957,
    "ib": 1235,
    "Ġexclaim": 11222,
    "ĠĠĠĠĠĠĠĠĠĠĠĠĠĠĠĠĠĠĠĠĠĠĠĠĠĠĠĠĠĠĠĠĠĠĠĠĠĠĠĠ": 4519,
    "Ġjewell": 19523,
    "abases": 3004,
    "gaining": 20127,
    "Ġnormalizing": 1821,
    "Ġcondem": 6340,
    "Ġhosts": 19942,
    "Ġswear": 6462,
    "Ġramble": 9316,
    "Ġrun": 2357,
    "teness": 23208,
    "public": 17647,
    "Ġexercised": 24800,
    "Ġquite": 1740,
    "visitor": 15061,
    "Ġprob": 969,
    "mitting": 20975,
    "Ġjonah": 3482,
    "Ġchinks": 22256,
    "cold": 9591,
    "Ġcul": 17824,
    "Ġclung": 10959,
    "Ġlot": 6680,
    "Ġheartfelt": 18967,
    "murmured": 24454,
    "Ġprocesses": 3636,
    "Ġrusty": 14966,
    "ude": 7562,
    "Ġimmaculate": 19489,
    "situation": 11438,
    "ignomin": 23270,
    "Ġ&": 6514,
    "Ġwhat": 601,
    "Ġemboldened": 22965,
    "Ġenc": 970,
    "Ġcondescended": 19959,
    "cu": 10085,
    "Ġlaborious": 13104,
    "Ġvintage": 26211,
    "Ġnocturn": 18375,
    "iature": 8745,
    "started": 10846,
    "Ġpensive": 21478,
    "Ġproximity": 3219,
    "Ġcate": 4109,
    "Ġexec": 19495,
    "Ġharbor": 10029,
    "Ġbutterfly": 19912,
    "Ġprotruding": 16660,
    "achines": 1723,
    "Ġrobust": 1357,
    "blu": 12443,
    "Ġveracity": 23892,
    "Ġdepended": 9779,
    "Ġstain": 18067,
    "Ġpretended": 19316,
    "Ġfet": 5808,
    "unted": 6999,
    "imprisonment": 23764,
    "ilib": 4117,
    "Ġspaniards": 25556,
    "deployment": 26528,
    "t": 88,
    "Ġsymmetry": 20369,
    "Ġrequested": 14304,
    "Ġeffectually": 16171,
    "Ġsuspend": 14609,
    "Ġbreathes": 13247,
    "?âĢĶ": 3470,
    "emin": 8473,
    "Ġfest": 10805,
    "Ġargument": 7100,
    "emporary": 15800,
    "Ġisrael": 21808,
    "accountable": 7111,
    "Ġbound": 3520,
    "ament": 2441,
    "Ġclosing": 11775,
    "Ġsmack": 9303,
    "Ġlies": 5297,
    "ascar": 8437,
    "soon": 4028,
    "Ġwhipcord": 20098,
    "aan": 20766,
    "ause": 1314,
    "Ġallured": 14115,
    "Ġhip": 17923,
    "mes": 1198,
    "ways": 1443,
    "Ġextravagance": 17281,
    "Ġsurprised": 3833,
    "parlour": 16402,
    "pton": 15795,
    "silver": 19693,
    "transformer": 25018,
    "Ġtormenting": 15107,
    "Ġoperate": 19117,
    "Ġcommunication": 1870,
    "Ġtraining": 530,
    "rail": 10206,
    "breat": 10080,
    "Ġalleg": 14018,
    "Ġshoe": 14568,
    "Ġlethar": 21751,
    "certainly": 5340,
    "atigable": 15272,
    "Ġbloody": 9890,
    "Ġseventh": 18205,
    "ĠcÃ¦": 15558,
    "Ġtalks": 23373,
    "Ġmarvell": 7248,
    "Ġacknowledges": 24689,
    "partiality": 13161,
    "ware": 3935,
    "Ġstripping": 23696,
    "hurriedly": 25511,
    "Ġministers": 22837,
    "Ġdiscl": 9799,
    "Ġperse": 6273,
    "Ġsweetheart": 19398,
    "total": 17252,
    "Ġtarred": 23611,
    "Ġrace": 5848,
    "Ġcompassionate": 24722,
    "Ġbeaches": 18087,
    "Ġread": 1449,
    "adagrad": 9693,
    "Ġbir": 17855,
    "hedge": 22505,
    "Ġscandal": 9084,
    "Ġdoubting": 13101,
    "those": 4498,
    "Ġerecting": 24653,
    "handedness": 24921,
    "Ġnortheast": 23206,
    "Ġhung": 4562,
    "Ġinscriptions": 20012,
    "ased": 1268,
    "Ġbermud": 26440,
    "Ġbedfellow": 16440,
    "Ġincoherent": 17402,
    "Ġhos": 4942,
    "Ġlanded": 7469,
    "Ġovertaken": 18430,
    "Ġprendergast": 26538,
    "ipelagoes": 13673,
    "urance": 10858,
    "rudently": 16712,
    "Ġpay": 3963,
    "Ġcircumstance": 4987,
    "Ġrewarded": 14942,
    "hoisting": 23719,
    "bun": 12441,
    "Ġdeep": 800,
    "sculptured": 26047,
    "yesterday": 10354,
    "lier": 20951,
    "Ġtraversed": 18894,
    "Ġdeportment": 22612,
    "Ġlandau": 16422,
    "Ġdepart": 4658,
    "Ġost": 9651,
    "sto": 3198,
    "Ġcreation": 6440,
    "Ġfavourable": 7960,
    "Ġcrags": 23529,
    "Ġconceit": 7295,
    "Ġcomplex": 745,
    "carefully": 13370,
    "Ġprecautions": 23729,
    "formity": 10280,
    "sure": 5522,
    "Ġglim": 9347,
    "Ġjoining": 13165,
    "rop": 540,
    "Ġris": 4887,
    "Ġtenants": 23550,
    "Ġremorse": 6442,
    "Ġcorrespondent": 19825,
    "Ġprometheus": 15295,
    "Ġprivileges": 25135,
    "Ġnone": 3223,
    "Ġunappe": 22021,
    "itting": 1151,
    "flo": 6116,
    "Ġsect": 17752,
    "Ġupd": 946,
    "Ġarrows": 18345,
    "Ġforswe": 21779,
    "excuse": 13382,
    "Ġj": 533,
    "remembered": 17353,
    "Ġtutored": 20131,
    "reck": 9638,
    "Ġmischie": 22772,
    "Ġstrategy": 2388,
    "Ġsacr": 7194,
    "tum": 11533,
    "Ġpitiless": 19391,
    "afric": 19181,
    "Ġle": 333,
    "Ġoil": 3374,
    "Ġwedded": 15538,
    "Ġwheel": 9720,
    "Ġfortun": 4982,
    "Ġcommun": 1707,
    "Ġinaudible": 21503,
    "Ġvii": 13110,
    "Ġcorp": 5574,
    "achment": 5464,
    "Ġpad": 8126,
    "inal": 15482,
    "Ġastonishing": 10503,
    "Ġspaniard": 20366,
    "Ġamongst": 8961,
    "owders": 18050,
    "Ġhospitals": 24924,
    "Ġtraps": 23085,
    "itated": 4442,
    "Ġmerrily": 23734,
    "generative": 4332,
    "Ġcoopman": 25829,
    "Ġsacri": 18329,
    "Ġinquisitive": 26318,
    "pipe": 8700,
    "Ġblank": 5953,
    "Ġcontinental": 19708,
    "Ġfasten": 11133,
    "alter": 10827,
    "Ġmaintaining": 1508,
    "omely": 21643,
    "Ġstory": 2898,
    "Ġpun": 4589,
    "writes": 4988,
    "Ġcontrast": 2119,
    "Ġmum": 13859,
    "Ġgrows": 4985,
    "levelled": 23646,
    "Ġcraft": 4379,
    "ker": 5792,
    "84": 15304,
    ")(": 2980,
    "appalling": 22852,
    "Ġpens": 21463,
    "Ġdundee": 16998,
    "Ġreigns": 21675,
    "loath": 22514,
    "Ġworkman": 16262,
    "pos": 15412,
    "Ġdiscrimin": 2545,
    "earliest": 20123,
    "Ġforth": 3465,
    "Ġseeing": 2882,
    "Ġfoundations": 11074,
    "Ġmutual": 8298,
    "accessible": 13640,
    "wood": 5900,
    "apologizing": 26545,
    "Ġheredit": 9219,
    "Ġauger": 21206,
    "Ġhummed": 18780,
    "cra": 6356,
    "aws": 8238,
    "buttons": 22406,
    "Ġdexterous": 15151,
    "Ġscre": 9739,
    "Ġnature": 2538,
    "Ġeasy": 3455,
    "ascending": 24706,
    "ery": 1269,
    "Ġinvoluntarily": 8551,
    "scoured": 22997,
    ".;": 20746,
    "Ġgreeted": 23213,
    "Ġdreary": 10409,
    "isbury": 21380,
    "Ġshirr": 18232,
    "Ġbourgh": 5069,
    "Ġdaybreak": 18726,
    "Ġsharks": 4500,
    "Ġundone": 24119,
    "Ġgloss": 11961,
    "Ġunwearied": 20605,
    "Ġanytime": 12890,
    "pump": 21019,
    "Ġwhirling": 12252,
    "eral": 9162,
    "Ġshelter": 17009,
    "liking": 22928,
    "currents": 23848,
    "Ġones": 3017,
    "Ġoverhung": 15975,
    "uncomfortable": 18163,
    "vere": 4884,
    "out": 467,
    "lesome": 12968,
    "Ġindul": 5858,
    "Ġsuddenly": 2643,
    "oll": 5456,
    "Ġdecember": 15008,
    "ksome": 10106,
    "Ġsuccessfully": 19432,
    "ough": 471,
    "Ġsweating": 16463,
    "Ġfaintness": 24570,
    "clerval": 7952,
    "influence": 13579,
    "glad": 9010,
    "dishonourable": 26367,
    "helping": 23147,
    "Ġsin": 1513,
    "Ġcigarette": 20658,
    "Ġmult": 1023,
    "Ġsmothe": 18574,
    "verted": 10219,
    "consternation": 16913,
    "arm": 1355,
    "ondency": 15271,
    "uning": 1313,
    "Ġpressure": 13423,
    "Ġexcellence": 11452,
    "Ġcomple": 2837,
    "ā": 194,
    "Ġembarrassment": 10628,
    "ning": 948,
    "deserving": 17247,
    "banish": 20784,
    "august": 11072,
    "Ġstaple": 26200,
    "Ġcurious": 3362,
    "Ġsqu": 1038,
    "Ġworkflow": 2312,
    "Ġhardy": 8569,
    "bruary": 15238,
    "Ġheavily": 6742,
    "father": 3780,
    "Ġacquire": 2719,
    "Ġslaugh": 18940,
    "fters": 20863,
    "Ġoblig": 3448,
    "neither": 9760,
    "gast": 20873,
    "Ġthrice": 10577,
    "Ġbeaten": 10530,
    "asting": 12811,
    "attoo": 6808,
    "datasets": 11955,
    "achus": 18284,
    "Ġtransaction": 22470,
    "weigh": 18666,
    "Ġdoctrine": 24199,
    "Ġlonged": 6437,
    "Ġshr": 4226,
    "highly": 24763,
    "repid": 11566,
    "Ġsaucer": 20608,
    "Ġcondu": 18112,
    "Ġreplacing": 3452,
    "grinder": 23417,
    "Ġinverted": 12642,
    "Ġdimly": 9490,
    "Ġlinn": 13954,
    "Ġmale": 9650,
    "Ġbitter": 4173,
    "Ġassuredly": 14824,
    "bod": 12440,
    "Ġfrankness": 16747,
    "Ġbestow": 6456,
    "Ġkills": 15909,
    "Ġraised": 4662,
    "arches": 10817,
    "very": 499,
    "Ġdegree": 3708,
    "Ġchast": 18380,
    "Ġmidway": 14605,
    "articulate": 17400,
    "Ġunwarrantable": 26346,
    "Ġrepining": 23364,
    "slack": 16895,
    "Ġdiscoverer": 26036,
    "mic": 12492,
    "Ġalow": 18102,
    "sideways": 14572,
    "hunting": 24384,
    "Ġwhispered": 5338,
    "rug": 18337,
    "Ġmortal": 4683,
    "performances": 26007,
    "swam": 24256,
    "feit": 16045,
    "Ġdigest": 24648,
    "Ġspace": 1541,
    "Ġsnail": 19302,
    "Ġconfused": 7966,
    "Ġmight": 961,
    "icking": 8913,
    "Ġfarmhouse": 24989,
    "Ġunp": 12777,
    "arranging": 19320,
    "Ġparting": 9786,
    "em": 390,
    "Ġcapsized": 20093,
    "âĢĿ]": 21820,
    "Ġgrotesque": 26331,
    "vicinity": 20483,
    "Ġgout": 21600,
    "Ġpavement": 9579,
    "description": 11095,
    "Ġmiddle": 4139,
    "cstasy": 11446,
    "regularization": 3516,
    "ev": 6952,
    "Ġsailing": 5324,
    "Ġtiny": 11554,
    "Ġjustly": 11907,
    "Ġwaterloo": 11983,
    "dimens": 2318,
    "_),": 7127,
    "olog": 1052,
    "Ġstam": 18068,
    "dor": 12455,
    "Ġmists": 14631,
    "pretty": 10623,
    "Ġrefusal": 10346,
    "chant": 4260,
    "orm": 425,
    "Ġpenny": 16316,
    "pleasures": 24052,
    "Ġrehearsed": 25972,
    "Ġsandwic": 24665,
    "Ġburnished": 24006,
    "Ġingrat": 16841,
    "Ġseizure": 21962,
    "Ġwondering": 7973,
    "ively": 1298,
    "Ġwarmed": 12026,
    "Ġ135": 24784,
    "Ġcitizens": 25440,
    "velling": 14765,
    "iving": 1725,
    "Ġmitt": 21310,
    "Ġremaining": 6190,
    "ushion": 14722,
    "ishness": 22347,
    "Ġcharger": 19006,
    "Ġcemet": 20683,
    "Ġrenow": 18030,
    "hidden": 17373,
    "prow": 15413,
    "Ġwhitewashed": 14470,
    "Ġanatomy": 12323,
    "Ġeveryday": 22776,
    "iness": 1280,
    "Ġlacey": 10199,
    "prim": 23814,
    "Ġwra": 5908,
    "Ġfeminine": 15265,
    "Ġcrimin": 6901,
    "reat": 618,
    "Ġassociations": 14965,
    "Ġpeaking": 22694,
    "Ġhaze": 18197,
    "ops": 5248,
    "Ġcarav": 18903,
    "Ġgloried": 22991,
    "ouraged": 22859,
    "entire": 6824,
    "enemy": 15529,
    "successfully": 14993,
    "stupid": 12681,
    "urn": 776,
    "Ġheroic": 14910,
    "brary": 5755,
    "Ġtore": 6532,
    "yth": 979,
    "Ġkneeling": 12146,
    "obstructed": 15229,
    "inity": 5693,
    "Ġrains": 24339,
    "Ġ[\"": 19933,
    "Ġroanoke": 22412,
    "Ġrevelation": 25223,
    "Ġgoes": 3855,
    "Ġmaiden": 13387,
    "leep": 4636,
    "Ġbreathless": 12173,
    "Ġtowering": 16740,
    "Ġrocky": 13388,
    "awk": 23120,
    "Ġornament": 11723,
    "cho": 2758,
    "unknown": 10891,
    "Ġspong": 15884,
    "Ġfastened": 7067,
    "Ġapr": 12536,
    "playful": 24356,
    "Ġslides": 18941,
    "ative": 746,
    "Ġconvers": 2903,
    "windibank": 24163,
    "¯": 112,
    "Ġfidelity": 15244,
    "Ġwitnessed": 14846,
    "ĠcÃ¦sar": 20583,
    "Ġintricate": 15140,
    "eed": 20843,
    "Ġwidower": 24237,
    "Ġunattended": 15846,
    "Ġoppress": 13173,
    "Ġnewly": 9341,
    "in": 262,
    "Ġconsideration": 5191,
    "Ġelab": 22644,
    "scor": 13022,
    "swell": 17664,
    "Ġcollateral": 20075,
    "Ġcommunic": 5751,
    "upid": 6583,
    "Ġusefulness": 19411,
    "esteem": 26009,
    "Ġmasters": 11577,
    "Ġaccounted": 10296,
    "arent": 4250,
    "moor": 22708,
    "alogue": 25163,
    "heric": 15914,
    "knife": 6942,
    "strongly": 24685,
    "Ġhoist": 11979,
    "eches": 8079,
    "imper": 13998,
    "Ġbend": 9173,
    "Ġexclude": 19042,
    "Ġstone": 4647,
    "Ġvault": 8844,
    "calling": 12453,
    "Ġcolumbus": 26565,
    "Ġnursery": 19753,
    "Ġunmanner": 22032,
    "Ġcrawl": 11376,
    "avoiding": 25237,
    "Ġhoofs": 14528,
    "ician": 21569,
    "jet": 13743,
    "Ġautomatically": 4479,
    "breathing": 25336,
    "Ġdair": 17891,
    "beaut": 8515,
    "capt": 3839,
    "Ġtire": 17721,
    "Ġvancou": 22881,
    "Ġanxiety": 5408,
    "Ġprotracted": 19472,
    "ogany": 18673,
    "Ġamateur": 22490,
    "Ġshell": 11739,
    "Ġsale": 14156,
    "Ġpiping": 23231,
    "Ġvor": 15809,
    "Ġconcealing": 23906,
    "bbles": 13693,
    "ors": 854,
    "Ġpromoting": 3159,
    "Ġprivileged": 20116,
    "honour": 13468,
    "Ġstraighten": 24012,
    "Ġbegin": 3095,
    "Ġsobbing": 14135,
    "book": 4671,
    "fisher": 7547,
    "Ġconsternation": 9861,
    "Ġmiracle": 15096,
    "Ġconcrete": 20639,
    "forward": 2187,
    "nostril": 26560,
    "whar": 15930,
    "Ġincom": 9771,
    "Ġpiteous": 17918,
    "Ġleft": 1759,
    "Ġsaves": 18325,
    "Ġdesirous": 8944,
    "Ġhears": 8140,
    "Ġconvolutional": 2162,
    "egypt": 15352,
    "Ġmorsel": 20680,
    "Ġshallow": 14396,
    "ighter": 7969,
    "brandy": 19202,
    "networks": 2409,
    "Ġdespond": 14669,
    "Ġrose": 3446,
    "squall": 13522,
    "riet": 18186,
    "hurrying": 14985,
    "Ġcolumb": 22862,
    "resemblance": 25934,
    "Ġwhereon": 16104,
    "otions": 7181,
    "Ġscrupled": 25052,
    "inside": 23069,
    "ierce": 14393,
    "Ġrending": 19470,
    "Ġreputed": 18038,
    "discovered": 8326,
    "curious": 10484,
    "Ġanimals": 8980,
    "Ġspinning": 15054,
    "plunging": 25988,
    "melancholy": 12357,
    "Ġthirteen": 15276,
    "sius": 13789,
    "arest": 4003,
    "Ġbehave": 23301,
    "Ġugly": 8719,
    "quickness": 19853,
    "Ġfern": 21410,
    "Ġclerks": 17297,
    "Ġnav": 5819,
    "Ġlabor": 10417,
    "Ġpreservative": 24631,
    "Ġexasper": 8469,
    "Ġhearth": 11984,
    "allah": 5839,
    "servant": 15037,
    "welcome": 10003,
    "Ġtendinous": 16932,
    "Ġwept": 7184,
    "Ġhansom": 13666,
    "Ġaccents": 14212,
    "Ġexamining": 8007,
    "Ġgam": 11626,
    "Ġworsted": 19998,
    "Ġmiz": 10778,
    "Ġdies": 11595,
    "closed": 23158,
    "Ġsticks": 14933,
    "inople": 13830,
    "Ġpermanently": 25474,
    "Ġunderneath": 16340,
    "orum": 12595,
    "Ġstudious": 23228,
    "Ġheighten": 19532,
    "Ġarmada": 23582,
    "ĠĠĠĠĠĠĠ": 7632,
    "Ġtwisting": 18658,
    "Ġdazzling": 15214,
    "drifting": 19827,
    "hotel": 20053,
    "Ġclue": 7021,
    "Ġwake": 4750,
    "Ġresidual": 1678,
    "Ġsavor": 23878,
    "Ġrecomm": 4996,
    "Ġsame": 1339,
    "Ġunexpectedly": 19911,
    "Ġequalled": 13313,
    "Ġgiven": 1626,
    "fights": 20867,
    "Ġjury": 5378,
    "Ġubiquitous": 26197,
    "Ġinconvenience": 9565,
    "Ġvillains": 14752,
    "Ġlaughs": 24118,
    "Ġcupidity": 24534,
    "Ġcolours": 12978,
    "Ġadmission": 23558,
    "Ġsolic": 7934,
    "Ġsuperhuman": 23454,
    "mering": 12494,
    "Ġglared": 13020,
    "lung": 17592,
    "hue": 20901,
    "Ġ122": 24466,
    "delighted": 10564,
    "Ġlearned": 2023,
    "Ġhateful": 19716,
    "Ġmemories": 14557,
    "Ġpositions": 2056,
    "Ġstigma": 25792,
    "Ġ75": 19615,
    "!âĢĶâĢĻ": 23567,
    "line": 1442,
    "Ġargosy": 24275,
    "uttered": 8443,
    "immediately": 10051,
    "Ġbillows": 7502,
    "distinctive": 25726,
    "convinced": 10624,
    "Ĳ": 243,
    "Ġautumn": 14523,
    "Ġintent": 6410,
    "Ġhopeless": 7462,
    "since": 5897,
    "wled": 15456,
    "Ġwrong": 4725,
    "Ġrenegades": 26477,
    "Ġmere": 2708,
    "Ġfer": 5623,
    "Ġpaid": 5015,
    "learnt": 23532,
    "Ġengage": 9338,
    "Ġflutter": 16249,
    "Ġdiverted": 14593,
    "warrior": 24797,
    "disinterested": 23503,
    "romeda": 17264,
    "azing": 7706,
    "evid": 11486,
    "Ġthey": 576,
    "umpled": 15879,
    "Ġsooty": 25816,
    "Ġidleness": 11145,
    "Ġanticipated": 13511,
    "Ġroses": 11789,
    "ack": 611,
    "Ġirksome": 13113,
    "impud": 23762,
    "Ġdisordered": 16057,
    "Ġdegrad": 2588,
    "orts": 2554,
    "Ġpret": 3032,
    "icha": 11741,
    "Ġvales": 21949,
    "will": 1969,
    "Ġabraham": 18396,
    "anoke": 21364,
    "office": 16396,
    "Ġhum": 1101,
    "Ġwerter": 15242,
    "flatter": 23971,
    "Ġwhales": 1827,
    "raise": 18014,
    "Ġartist": 12917,
    "bonnet": 25743,
    "search": 8467,
    "Ġhorizontally": 17013,
    "į": 240,
    "icle": 10835,
    "volut": 1563,
    "Ġgait": 13332,
    "Ġfurn": 3714,
    "Ġplans": 7920,
    "Ġoffice": 4965,
    "Ġnest": 10190,
    "âĢĿâĢĶ": 5721,
    "Ġlandlady": 10423,
    "Ġunreliable": 3929,
    "uing": 17694,
    "Ġsolemnity": 9943,
    "impart": 21713,
    "Ġprematurely": 24014,
    "various": 10399,
    "Ġpalpit": 16691,
    "Ġkramm": 26235,
    "bowl": 14893,
    "distinction": 19574,
    "fle": 7130,
    "Ġnoises": 18374,
    "enth": 6682,
    "Ġsternly": 16710,
    "Ġadjusts": 8982,
    "Ġinjection": 3469,
    "human": 7090,
    "Ġhypothe": 4074,
    "Ġexacted": 23605,
    "Ġlads": 8601,
    "Ġconnex": 10667,
    "Ġawkward": 7075,
    "month": 6464,
    "Ġajar": 21205,
    "covering": 15336,
    "Ġpursuit": 4734,
    "Ġther": 17779,
    "Ġexal": 10878,
    "Ġshall": 1141,
    "Ġvalu": 5039,
    "Ġscaling": 3634,
    "grammar": 6436,
    "Ġflowery": 16235,
    "Ġcharm": 4550,
    "Ġdelineations": 26059,
    "Ġbarn": 11589,
    "liberal": 26283,
    "small": 6473,
    "newsp": 23139,
    "upper": 11540,
    "Ġstructure": 834,
    "cest": 12448,
    "Ġhushed": 13926,
    "Ġfatig": 6758,
    "amouch": 21850,
    "Ġparents": 6754,
    "Ġurging": 24501,
    "Ġresigned": 9770,
    "âĢĶâĢĶâĢĿ": 15942,
    "Ġu": 324,
    "Ġcumul": 4179,
    "Ġunst": 18239,
    "Ġsnake": 12064,
    "Ġdifficulties": 11226,
    "Ġtram": 11093,
    "Ġap": 5008,
    "thorough": 21990,
    "feet": 6570,
    "Ġlaying": 7910,
    "Ġdrugged": 12607,
    "Ġten": 2390,
    "Ġfire": 2334,
    "tery": 14038,
    "Ġgoat": 16009,
    "Ġrenewal": 12238,
    "Ġbaby": 6639,
    "Ġmanilla": 15962,
    "Ġlav": 13951,
    "bourgh": 19105,
    "vy": 21110,
    "opposite": 19931,
    "occasion": 7755,
    "Ġmoored": 11795,
    "Ġfat": 3464,
    "companions": 15025,
    "Ġwooded": 23521,
    "Ġconsent": 5372,
    "Ġoutlandish": 12843,
    "ittingly": 18806,
    "onious": 15520,
    "Ġfury": 7663,
    "Ġbitterness": 8025,
    "shortened": 24747,
    "principle": 10652,
    "eel": 11485,
    "offing": 23335,
    "Ġspain": 15883,
    "nuee": 17432,
    "aks": 8509,
    "repro": 10771,
    "Ġdefer": 18824,
    "Ġeast": 5370,
    "Ġbowed": 6244,
    "Ġcaut": 6522,
    "Ġanew": 11431,
    "Ġepsom": 19986,
    "adam": 15733,
    "towards": 5003,
    "writhed": 26081,
    "acy": 3955,
    "Ġpossible": 2583,
    "Ġdip": 13908,
    "Ġafforded": 8030,
    "farmer": 25900,
    "Ġtriumphantly": 11288,
    "fallen": 19662,
    "Ġseverely": 14935,
    "Ġfake": 5811,
    "Ġpetrified": 19599,
    "tattoo": 21090,
    "ming": 3604,
    "Ġprodigy": 19795,
    "71": 20758,
    "Ġtrinity": 22371,
    "oise": 15406,
    "Ġexcursion": 26590,
    "Ġfab": 15579,
    "nursery": 26400,
    "Ġmonument": 16242,
    "estone": 18364,
    "garnished": 26389,
    "Ġprison": 5403,
    "dec": 3110,
    "Ġobsequ": 14322,
    "gia": 20878,
    "Ġviciss": 11293,
    "acetty": 24463,
    "Ġsav": 3358,
    "dozen": 23381,
    "Ġsagacious": 14973,
    "Ġsavi": 18326,
    "Ġdesperately": 24657,
    "Ġsecurely": 16803,
    "Ġrelease": 19293,
    "Ġequatorial": 13509,
    "Ġgallows": 12149,
    "Ġfabulous": 25949,
    "filled": 9596,
    "Ġgips": 10842,
    "¿": 128,
    "Ġconvivial": 16550,
    "Ġmerchant": 6468,
    "Ġhindrance": 25221,
    "Ġprofusion": 23570,
    "slow": 7811,
    "directly": 13710,
    "athies": 22706,
    "Ġnaturalists": 10364,
    "application": 12367,
    "Ġbasin": 19850,
    "creator": 26382,
    "Ġacceler": 1609,
    "ox": 9136,
    "Ġarea": 14188,
    "Ġclues": 18422,
    "Ġeconomy": 17202,
    "Ġregularization": 1169,
    "Ġporthole": 24398,
    "resembling": 25933,
    "waistcoat": 17363,
    "Ġadvantages": 9813,
    "Ġcoop": 14272,
    "nowhere": 18419,
    "Ġfert": 15585,
    "Ġskylarking": 19490,
    "exceed": 7913,
    "chance": 6827,
    "Ġdozing": 22248,
    "Ġarrang": 2469,
    "make": 5793,
    "Ġprinciples": 10013,
    "Ġattempting": 14698,
    "ez": 5683,
    "Ġmouths": 7491,
    "Ġwires": 21298,
    "asher": 15649,
    "Ġidol": 7467,
    "set": 3867,
    "uncommon": 11684,
    "Ġreminded": 10001,
    "Ġaffirm": 11890,
    "Ġif": 697,
    "Ġlory": 12657,
    "engthen": 14459,
    "seeking": 17154,
    "Ġonset": 12715,
    "Ġpassers": 18760,
    "Ġsubst": 4276,
    "power": 7138,
    "akers": 9741,
    "pres": 16030,
    "spe": 3561,
    "Ġeddy": 13547,
    "Ġsodden": 25536,
    "Ġunaware": 22062,
    "Ġbrim": 12979,
    "Ġsag": 6515,
    "iforn": 14065,
    "Ġbaggy": 24537,
    "ino": 15481,
    "Ġtinged": 20086,
    "Ġpreference": 9735,
    "Ġpress": 5934,
    "Ġcass": 13880,
    "oved": 5215,
    "lant": 20949,
    "Ġmeditate": 16708,
    "Ġcompensated": 17403,
    "riv": 3107,
    "Ġconsoling": 19461,
    "pot": 10119,
    "remed": 18955,
    "Ġmis": 919,
    "lections": 4753,
    "walking": 9984,
    "Ġgans": 5822,
    "Ġglut": 18855,
    "Ġthreat": 5154,
    "Ġmiguel": 25767,
    "Ġdazed": 15599,
    "shaw": 6864,
    "Ġattracted": 8906,
    "visited": 13349,
    "term": 3762,
    "Ġasked": 2278,
    "Ġbeckoning": 20505,
    "Ġcocoan": 20319,
    "Ġtechnically": 12370,
    "Ġvacuous": 24343,
    "Ġhired": 10179,
    "sively": 13787,
    "Ġexecutors": 19536,
    "itiously": 13872,
    "Ġpass": 1040,
    "Ġcrucial": 9895,
    "Ġafore": 10759,
    "occup": 7754,
    "Ġchiswick": 25561,
    "yet": 3757,
    "Ġrepair": 11981,
    "Ġwhale": 628,
    "Ġwhiskers": 10494,
    "Ġanxiously": 8291,
    "obscure": 23104,
    "Ġsilent": 3413,
    "Ġhindoo": 17177,
    "pious": 17634,
    "Ġelevates": 24499,
    "awn": 3837,
    "Ġadmits": 23557,
    "Ġhunter": 5401,
    "Ġsnodhead": 19304,
    "Ġspade": 9262,
    "Ġrabb": 4164,
    "rior": 12747,
    "ior": 2038,
    "Ġdeified": 18143,
    "Ġfiery": 6871,
    "Ġfaint": 5812,
    "unwholesome": 26498,
    "sank": 17663,
    "Ġknew": 2054,
    "haired": 14769,
    "Ġbasement": 24701,
    "bib": 17493,
    "Ġpraise": 6487,
    "Ġsecrets": 9057,
    "eat": 11484,
    "Ġstingy": 25456,
    "hammock": 16356,
    "Ġpewter": 17187,
    "Ġcrucifix": 26080,
    "Ġburglar": 17356,
    "intosh": 22944,
    "Ġgilded": 17447,
    "clut": 23155,
    "xes": 21143,
    "Ġjoists": 19234,
    "Ġspir": 2431,
    "Ġobjections": 8568,
    "Ġfry": 17881,
    "arat": 9183,
    "Ġhotels": 19539,
    "Ġleak": 2160,
    "Ġfarthest": 23122,
    "Ġappropriate": 2251,
    "Ġindiam": 22957,
    "Ġpatentee": 25587,
    "iah": 14419,
    "Ġopening": 5045,
    "Ġattaining": 15806,
    "Ġexplored": 23519,
    "Ġfamine": 16330,
    "Ġfidgeted": 25890,
    "Ġtrading": 23083,
    "failed": 20865,
    "Ġexploded": 15912,
    "Ġpeasants": 12335,
    "Ġlovers": 9722,
    "torn": 17683,
    "Ġillustration": 19137,
    "Ġrags": 18648,
    "hairs": 20906,
    "Ġwestmorland": 24389,
    "Ġexquis": 9701,
    "anct": 21361,
    "Ġaccess": 9749,
    "mut": 17596,
    "Ġinco": 14261,
    "Ġkiss": 8184,
    "Ď": 207,
    "Ġspo": 6846,
    "_.âĢĶ": 23474,
    "Ġmatrices": 4969,
    "Ġsmite": 22562,
    "Ġcripple": 11441,
    "Ġdish": 6138,
    "Ġsporting": 17000,
    "Ġyield": 5093,
    "reas": 985,
    "male": 15391,
    "opy": 4460,
    "Ġsmooth": 2776,
    "Ġoppression": 23652,
    "mightily": 24105,
    "ravity": 21639,
    "win": 6802,
    "Ġaperture": 26161,
    "Ġtransmit": 10311,
    "Ġshout": 4266,
    "Ġeffects": 7236,
    "naturedly": 24841,
    "widely": 25344,
    "Ġvult": 12755,
    "tranqu": 14708,
    "medical": 23346,
    "seized": 14036,
    "Ġshocks": 16458,
    "Ġvisible": 4778,
    "idity": 8834,
    "contrasted": 17308,
    "Ġnarrative": 6217,
    "69": 17476,
    "dost": 14536,
    "Ġalien": 14019,
    "Ġdiscovering": 13359,
    "Ġhousehold": 8571,
    "oro": 21398,
    "iloquent": 21730,
    "etieth": 21588,
    "houses": 9601,
    "Ġreciproc": 20625,
    "aurs": 20771,
    "Ġcured": 21350,
    "Ġsaluted": 14761,
    "op": 659,
    "peril": 18340,
    "rabb": 15683,
    "Ġsaddest": 16664,
    "ouch": 2777,
    "Ġte": 1152,
    "hospit": 25904,
    "Ġfolk": 10377,
    "T": 56,
    "confused": 19642,
    "irr": 12741,
    "Ġguinea": 8949,
    "iverse": 13117,
    "Ġfatt": 15582,
    "Ġdocumentation": 20557,
    "Ġdirections": 1971,
    "telesc": 22822,
    "Ġmechanically": 14400,
    "heaving": 21210,
    "kingly": 20941,
    "Ġintrusted": 21997,
    "Ġthose": 1175,
    "Ġsway": 7571,
    "Ġterrors": 6918,
    "Ġsliding": 9366,
    "Ġsphynx": 20714,
    "Ġunknown": 4455,
    "Ġarising": 10934,
    "Ġfergus": 16873,
    "Ġadoption": 24951,
    "stein": 5505,
    "Ġabsent": 7016,
    "Ġcaves": 15557,
    "Ġvertebra": 20184,
    "Ġindia": 10372,
    "Ġmerciless": 25247,
    "Ġidentifies": 12017,
    "shrouded": 26363,
    "Ġmaid": 5287,
    "necessarily": 19634,
    "consolatory": 25307,
    "Ġslabs": 13063,
    "Ġheaven": 3366,
    "Ġthank": 3795,
    "gence": 875,
    "hate": 20894,
    "Ġsides": 4581,
    "Ġglen": 18854,
    "Ġtargets": 4206,
    "Ġdi": 6526,
    "asserted": 22314,
    "Ġnorris": 23205,
    "Ġphilosophers": 10553,
    "ilder": 15716,
    "throughout": 24091,
    "Ġcovered": 5171,
    "sail": 3606,
    "Ġmartyr": 26362,
    "luck": 5733,
    "admire": 24946,
    "Ġgovern": 10451,
    "glory": 23855,
    "aried": 10988,
    "esu": 17921,
    "Ġdistinctly": 7311,
    "Ġscruple": 25051,
    "laughing": 15182,
    "âĢ": 294,
    "Ġlearnedly": 23389,
    "Ġmalignant": 14880,
    "Ġagreeably": 24955,
    "Ġeasiness": 23538,
    "Åĵuv": 15185,
    "Ġmilk": 6486,
    "Ġsorry": 4211,
    "lived": 12490,
    "Ġmulti": 1045,
    "Ġnourishment": 15195,
    "ized": 1526,
    "Ġinhaled": 25452,
    "Ġblight": 18819,
    "Ġgrunt": 18738,
    "aunted": 20772,
    "Ġsaville": 15892,
    "Ġdisapprobation": 16060,
    "fe": 675,
    "Ġbidden": 24647,
    "decor": 23783,
    "Ġgiants": 25961,
    "accessory": 25500,
    "Ġinsensible": 12328,
    "Ġvillanous": 24060,
    "Ġsuavely": 26524,
    "perfect": 7635,
    "imens": 1746,
    "Ġdiverged": 23596,
    "Ġostrich": 26431,
    "Ġowen": 15097,
    "Ġprynne": 25541,
    "ac": 740,
    "Ġprovid": 1004,
    "Ġtopsails": 19195,
    "copy": 5133,
    "Ġgrievous": 13261,
    "osque": 22267,
    "Ġram": 11014,
    "bott": 9109,
    "pursue": 24978,
    "Ġvillagers": 19477,
    "Ġdavy": 25952,
    "Ġkentuck": 19893,
    "insurance": 18890,
    "Ġinvoluntary": 18770,
    "Ġtipt": 21176,
    "america": 17097,
    "Ġgoble": 14231,
    "imodal": 17449,
    "Ġsmoothed": 23658,
    "Ġtopic": 9409,
    "Ġjo": 2608,
    "Ġwharves": 13506,
    "Ġchink": 15935,
    "opportunity": 12278,
    "Ġaugmented": 15108,
    "Ġblubber": 5666,
    "opol": 12876,
    "quarrel": 20018,
    "rusion": 11324,
    "Ġsings": 15507,
    "Ġinc": 702,
    "buried": 14851,
    "iliar": 15717,
    "Ġpush": 9186,
    "ocris": 23708,
    "inte": 5144,
    "Ġvortex": 26210,
    "wait": 11321,
    "cords": 25139,
    "Ġdeclined": 9923,
    "upset": 23021,
    "inferences": 17740,
    "Ġcurve": 22972,
    "Ġweighing": 20019,
    "Ġvengeful": 14892,
    "Ġremain": 1873,
    "agrad": 2742,
    "Ġstupendous": 20504,
    "sc": 1259,
    "Ġcontour": 18474,
    "Ġranging": 8481,
    "Ġpaddled": 20204,
    "Ġsm": 704,
    "connect": 1292,
    "took": 6166,
    "indisc": 22378,
    "wes": 17704,
    "Ġquench": 22424,
    "ated": 720,
    "scure": 22992,
    "Ġnoting": 18222,
    "Ġfleetness": 20182,
    "Ġexc": 1831,
    "Ġchurning": 15940,
    "Ġcheapside": 23291,
    "apart": 15964,
    "Ġgore": 17991,
    "Ġdisorder": 16053,
    "Ġinherit": 25353,
    "Ġasking": 5651,
    "Ġunstructure": 2993,
    "hic": 3246,
    "assembled": 21549,
    "Ġexe": 3993,
    "Ġremembr": 24172,
    "_.âĢĻâĢĿ": 17481,
    "Ġundu": 15840,
    "Ġsignificantly": 4521,
    "Ġunfair": 19510,
    "Ġappalled": 22224,
    "log": 18538,
    "all": 486,
    "Ġaccusations": 22384,
    "Ġwhimsical": 20431,
    "midnight": 14902,
    "Ġembodiment": 20531,
    "mindful": 19602,
    "Ġrumpled": 24602,
    "Ġpenn": 11113,
    "powder": 17646,
    "za": 13811,
    "Ġdestroyed": 5272,
    "Ġmistaking": 23721,
    "Ġlobes": 22120,
    "effect": 8607,
    "Ġassur": 6076,
    "Ġbuoyancy": 20045,
    "surv": 24215,
    "Ġopium": 8996,
    "mysterious": 26052,
    "Ġintensified": 17019,
    "Ġc": 277,
    "Ġconceited": 12095,
    "encing": 21285,
    "Ġsymb": 2590,
    "ama": 11679,
    "gage": 13724,
    "Ġunexampled": 20363,
    "Ġpredicts": 2593,
    "spent": 12946,
    "leads": 21373,
    "ase": 1160,
    "pleasantness": 19773,
    "Ġrag": 18644,
    "Ġprofited": 19193,
    "surround": 16759,
    "Ġforming": 7044,
    "Ń": 260,
    "Ġsummoned": 9913,
    "J": 46,
    "Ġ120": 16859,
    "ites": 3899,
    "Ġaccommod": 14214,
    "Ġunresting": 25554,
    "Ġvillage": 5774,
    "Ġriveted": 13619,
    "many": 5251,
    "ulity": 10887,
    "51": 12434,
    "Ġaffability": 14389,
    "Ġdeclines": 23966,
    "Ġecon": 9679,
    "Ġplentiful": 12916,
    "Ġliking": 23593,
    "Ġbel": 1215,
    "Ġnovel": 6697,
    "alo": 7588,
    "Ġincl": 4273,
    "Ġimp": 573,
    "Ġuseful": 3559,
    "Ġrabbit": 4291,
    "anel": 21360,
    "erc": 5907,
    "desc": 1394,
    "Ġhalloa": 13318,
    "ignorant": 13564,
    "Ġimbec": 14158,
    "ently": 1615,
    "Ġpondering": 17006,
    "Ġbishop": 13903,
    "slight": 10728,
    "Ġalleged": 17292,
    "Ġres": 696,
    "Ġillinois": 19138,
    "Ġscrape": 14920,
    "Ġpresum": 4839,
    "Ġgaz": 4043,
    "Ġsa": 474,
    "Ġvertu": 23893,
    "Ġbelief": 5857,
    "Ġrecognised": 8997,
    "archical": 1928,
    "caut": 20814,
    "Ġsmell": 7216,
    "Ġlaid": 3941,
    "quietly": 10594,
    "Ġunsounded": 15852,
    "Ġstacks": 18077,
    "Ġdelayed": 9520,
    "Ġgrand": 3594,
    "Ġclattered": 22355,
    "stock": 13224,
    "Ġcompens": 14265,
    "renadier": 18420,
    "much": 3710,
    "uc": 1877,
    "Ġdavis": 25953,
    "tons": 7559,
    "Ġdowncast": 18652,
    "Ġsplice": 19311,
    "Ġdisclose": 16159,
    "Ġocc": 885,
    "Ġhonors": 23603,
    "Ġmantel": 11440,
    "Ġshrieked": 9550,
    "Ġturtle": 4204,
    "face": 3682,
    "Ġtinkling": 25213,
    "antically": 22101,
    "Ġscud": 14192,
    "Ġattempted": 8002,
    "queen": 12732,
    "Ġholy": 6593,
    "Ġheeded": 13404,
    "Ġopportunities": 19250,
    "Ġoat": 21326,
    "Ġcorrection": 5062,
    "bewil": 22503,
    "Ġshy": 10904,
    "Ġdropping": 7483,
    "Åĵ": 10745,
    "Ġbressed": 21390,
    "tone": 8766,
    "now": 548,
    "iences": 6957,
    "balance": 12009,
    "laz": 15388,
    "Ġquote": 18467,
    "settled": 10508,
    "Ô": 149,
    "Ġnew": 1196,
    "Ġsweeping": 8987,
    "Ġcollections": 22863,
    "Ġexistence": 4708,
    "tray": 21080,
    "Ġungovernable": 20711,
    "Ġfrontispiece": 23917,
    "Ġunseen": 3525,
    "asions": 12656,
    "Ġjuly": 17238,
    "Ġcor": 1322,
    "Ġgently": 7172,
    "Ġplease": 4724,
    "Ġheav": 1849,
    "absurd": 21800,
    "Ġlacepede": 20498,
    "Ġdisagree": 22537,
    "resolved": 9641,
    "Ġtravel": 5955,
    "Ġpractice": 2907,
    "enough": 6810,
    "ana": 15562,
    "thr": 12765,
    "Ġdrunk": 9427,
    "sombre": 23857,
    "Ġpenetrating": 17012,
    "Ġaright": 11746,
    "cat": 15326,
    "Ġpharaoh": 26586,
    "Ġstriving": 8998,
    "Ġimperfectly": 25727,
    "inclination": 20061,
    "presents": 18798,
    "Ġinf": 1755,
    "Ġtransformers": 1170,
    "pth": 2384,
    "Ġgrasshopper": 24379,
    "umber": 5241,
    "Ġfloat": 12035,
    "Ġindications": 14633,
    "adv": 4539,
    "Ġbounded": 16628,
    "endured": 22232,
    "Ġvernal": 23891,
    "Ġshowing": 7733,
    "Ġdisturbing": 19949,
    "Ġconting": 18472,
    "swed": 24255,
    "Ġboasting": 19939,
    "Ġinstantly": 3593,
    "Ġkindled": 19028,
    "Ġcumberland": 21358,
    "bennet": 5353,
    "Ġguise": 14434,
    "Ġcoppers": 22589,
    "ansion": 10926,
    "educated": 17261,
    "too": 4510,
    "gging": 7698,
    "Ġelements": 2663,
    "Ġstronger": 8582,
    "Ġshovel": 23493,
    "Ġdiscours": 18718,
    "grave": 16097,
    "Ġouthouse": 22319,
    "Ġant": 4348,
    "Ġ127": 24471,
    "Ġtossed": 5816,
    "erval": 4020,
    "declaration": 25176,
    "Ġspectacles": 12101,
    "Ġrepresented": 8940,
    "Ġliv": 6681,
    "Ġboston": 22642,
    "fortun": 3540,
    "Ġesquimaux": 25154,
    "transition": 24509,
    "Ġmoved": 4841,
    "pur": 7807,
    "inery": 17734,
    "Ġcouple": 5423,
    "native": 17613,
    "heedful": 20576,
    "Ġcontemptible": 16954,
    "Ġunconsciously": 10007,
    "uiperai": 10665,
    "Ġthre": 2059,
    "Ġhooks": 14970,
    "Ġadapts": 3820,
    "Ġclearness": 23187,
    "Ġbrightest": 13227,
    "Ġloosened": 26003,
    "world": 5058,
    "bourn": 3301,
    "Ġrevolution": 3304,
    "Ġstrang": 4161,
    "significant": 25085,
    "Ġstopped": 5959,
    "Ġthrown": 4641,
    "Ġrighted": 23182,
    "Ġpromote": 23196,
    "Ġfrightened": 5342,
    "Ġvillainous": 25134,
    "Ġalternative": 19990,
    "Ġgurglings": 26466,
    "Ġclearly": 6897,
    "ub": 1225,
    "Ġcakes": 13885,
    "starbuck": 6021,
    "Ġ1836": 25721,
    "Ġacting": 10992,
    "Ġscarce": 8625,
    "Ġdeformed": 14050,
    "Ġpasture": 14543,
    "Ġcheerless": 16694,
    "Ġjur": 12839,
    "Ġconfession": 11237,
    "Ġcommerce": 11016,
    "attentions": 13575,
    "Ġbank": 4878,
    "Ġfortunes": 12182,
    "no": 912,
    "pile": 17630,
    "Ġpeleg": 3743,
    "nui": 21002,
    "Ġthirdly": 24145,
    "Ġpurest": 14941,
    "itage": 17818,
    "pherd": 13645,
    "mai": 22916,
    "Ġsideways": 6184,
    "amiable": 14054,
    "Ġbraces": 14671,
    "Ġrogue": 22410,
    "yingly": 23064,
    "adow": 18090,
    "histicated": 20903,
    "Ġrestlessness": 23295,
    "Ġrallied": 14097,
    "Ġslipping": 13362,
    "Ġfurled": 22818,
    "Ġtime": 689,
    "superstitious": 17282,
    "Ġassume": 10517,
    "Ġconsummate": 25311,
    "inent": 9630,
    "fulness": 4312,
    "Ġfanny": 23394,
    "Ġhelps": 9370,
    "tried": 13795,
    "resnet": 4069,
    "dear": 6557,
    "Ġmanhat": 22332,
    "Ġtales": 10143,
    "pidation": 18898,
    "Ġepistle": 24905,
    "imod": 15713,
    "Ġscolded": 25473,
    "Ġveins": 8934,
    "Ġspilled": 10925,
    "Ġalteration": 9548,
    "deed": 1518,
    "made": 4809,
    "Ġlately": 6388,
    "iations": 11496,
    "Ġpaw": 12625,
    "ket": 17583,
    "embarr": 17294,
    "shabbily": 26248,
    "Ġtreacle": 14596,
    "Ġfountain": 7365,
    "umes": 10918,
    "Ġmovements": 24358,
    "Ġglided": 7447,
    "Ġmeth": 1390,
    "Ġcritic": 19123,
    "duty": 20242,
    "Ġtoday": 12648,
    "Ġtransformed": 22623,
    "Ġmanaging": 22330,
    "Ġvolat": 24146,
    "Ġthickets": 24031,
    "Ġenhancement": 23778,
    "Ġfeatureless": 22617,
    "Ġregards": 16073,
    "Ġcomplaint": 24775,
    "Ġdomestic": 6913,
    "akened": 7415,
    "linen": 25258,
    "Ġpantheistic": 26337,
    "Ġimputed": 12813,
    "stumps": 21663,
    "Ġproving": 15755,
    "Ġconvey": 9983,
    "rously": 17655,
    "Ġtemporarily": 11168,
    "Ġblow": 3375,
    "umer": 9261,
    "Ġtouches": 20573,
    "penet": 11071,
    "remain": 9840,
    "hurry": 24762,
    "Ġxxxiv": 24972,
    "Ġpractical": 3162,
    "^": 66,
    "Ġavowal": 19418,
    "Ġconsult": 6059,
    "Ġsympath": 4862,
    "lad": 5994,
    "Ġrout": 7402,
    "dog": 10695,
    "wretched": 10742,
    "Ġgoring": 21608,
    "landlord": 9842,
    "Ġatone": 15805,
    "Ġinterpreted": 1712,
    "hetic": 12207,
    "Ġstomach": 11655,
    "corner": 13398,
    "Ġsatisfying": 23697,
    "Ġdestiny": 8985,
    "reward": 15511,
    "Ġclothe": 4713,
    "Ġtawn": 13824,
    "Ġcoat": 4556,
    "Ġbegging": 11080,
    "Ġalleys": 25979,
    "Ġmorning": 1747,
    "Ġshuddering": 9054,
    "Ġcringing": 25942,
    "Ġdownright": 16121,
    "vate": 21112,
    "Ġreading": 5114,
    "Ġpretension": 23766,
    "theast": 21753,
    "Ġsyllable": 9730,
    "Ġrandom": 1587,
    "conversations": 24748,
    "Ľ": 254,
    "Ġunfav": 14790,
    "Ġguitar": 16271,
    "Ġwomanly": 23554,
    "hs": 8379,
    "Ġnoticing": 18225,
    "Ġpolicy": 10458,
    "seated": 11673,
    "izzy": 3092,
    "Ġmilky": 9949,
    "Ġguilt": 6181,
    "Ġprophesy": 26062,
    "Ġapproximate": 2345,
    "itt": 571,
    "everlasting": 18774,
    "Ġconven": 6153,
    "Ġconsidered": 4613,
    "hounds": 20909,
    "Ġsketch": 16169,
    "Ġcontinual": 6778,
    "Ġwrithed": 17106,
    "acey": 7650,
    "Ġsable": 15502,
    "Ġcustom": 5078,
    "Ġslashing": 23174,
    "evil": 11487,
    "itics": 13873,
    "Ġlingering": 11380,
    "adventurous": 25362,
    "Ġdashing": 8799,
    "Ġirregularity": 25325,
    "Ġdisliked": 12896,
    "olen": 9702,
    "Ġdespatched": 23833,
    "gaze": 17558,
    "confidence": 16809,
    "Ġfurious": 10355,
    "Ġstruck": 3391,
    "Ġjeroboam": 10602,
    "footman": 17164,
    "Ġspouter": 12803,
    "Ġgroans": 14826,
    "due": 22415,
    "Ġhypotheses": 4389,
    "eon": 8733,
    "Ġeliminating": 20623,
    "endurable": 22233,
    "Ġconsistence": 23360,
    "Ġmaimed": 21319,
    "affect": 13213,
    "scornful": 26576,
    "Ġwearer": 21928,
    "Ġcreating": 2995,
    "Ġpag": 6013,
    "Ġcuriously": 13014,
    "Ġenriched": 26500,
    "Ġmisanthropic": 26561,
    "Ġappare": 12825,
    "Ġhud": 10823,
    "enorm": 17782,
    "woods": 13420,
    "mole": 22707,
    "heard": 5009,
    "general": 7489,
    "Ġprompted": 23820,
    "Ġvitality": 15175,
    "Ġfeature": 753,
    "Ġspectre": 16632,
    "Ġshows": 8485,
    "weaving": 18667,
    "Ġwhen": 514,
    "Ġcivilized": 8668,
    "composed": 14724,
    "Ġassured": 4375,
    "Ġportcull": 23866,
    "quar": 7616,
    "Ġholiest": 18814,
    "grasping": 20642,
    "Ġfreshet": 25704,
    "Ġdevoting": 22734,
    "Ġgale": 5823,
    "Ġhabits": 6926,
    "cst": 10086,
    "Ġswain": 18882,
    "Ġnuptials": 20497,
    "Ġperpetually": 17070,
    "Ġconsidering": 4617,
    "Ġunbending": 25465,
    "Ġask": 1491,
    "Ġboxed": 24359,
    "Ġclients": 19734,
    "Ġsingled": 23774,
    "Ġwound": 4530,
    "Ġhaunts": 18199,
    "Ġmisled": 22768,
    "Ġliver": 14229,
    "Ġthom": 21520,
    "Ġshelf": 12271,
    "Ġtigers": 25759,
    "laying": 19775,
    "lay": 5893,
    "Ġnoteworthy": 24164,
    "Ġdisgra": 18550,
    "Ġparticip": 16134,
    "Ġmockery": 12111,
    "Ġmerry": 5870,
    "Ġworshipped": 25692,
    "turkish": 24532,
    "Ġmountains": 4429,
    "Ġupdate": 2464,
    "igating": 21703,
    "\":": 9583,
    "tch": 9144,
    "Ġflank": 8230,
    "Ġchanges": 2287,
    "Ġimpregnable": 26024,
    "onness": 21257,
    "Ġbrains": 2628,
    "ultaneous": 18583,
    "Ġyou": 366,
    "Ġcast": 3609,
    "raint": 18318,
    "anchor": 13890,
    "Ġgazing": 5878,
    "Ġhedgehog": 10646,
    "Ġener": 10897,
    "Ġmortifying": 13246,
    "Ġstead": 5650,
    "Ġlunch": 13526,
    "Ġthundering": 24292,
    "Ġlongbourn": 3510,
    "Ġswiftness": 9929,
    "Ġmushroom": 13237,
    "ologies": 18764,
    "Ġdoctor": 5067,
    "Ġnash": 5820,
    "circumstantial": 24443,
    "Ġprov": 4403,
    "Ġinitial": 824,
    "consent": 18502,
    "aned": 5147,
    "Ġboa": 22639,
    "iciously": 17976,
    "angular": 11726,
    "bbings": 19279,
    "abeth": 908,
    "opes": 10313,
    "Ġpresumably": 19627,
    "gold": 9123,
    "Ġgranted": 22813,
    "nt": 923,
    "Ġmeeting": 5193,
    "Ġtreating": 4286,
    "Ġcheese": 9380,
    "anks": 3917,
    "aton": 21261,
    "Ġstark": 7390,
    "Ġrosings": 4609,
    "Ġwooing": 19437,
    "Ġinspecting": 24615,
    "Ġinsepar": 17936,
    "Ġchip": 12829,
    "Ġtobacc": 7854,
    "Ġwarehouse": 20420,
    "pher": 11513,
    "thereby": 14449,
    "Ġorganize": 8993,
    "disgust": 23498,
    "Ġwindlass": 7256,
    "Ġheard": 1403,
    "exc": 5169,
    "Ġvibrating": 13538,
    "moreover": 12973,
    "companion": 9559,
    "Ġshipwrecked": 25688,
    "uvier": 9071,
    "Ġ54": 24317,
    "Ġbless": 4345,
    "itching": 21338,
    "questioning": 16851,
    "Ġindistinct": 17410,
    "ĠĠĠĠĠĠĠĠĠĠĠĠĠĠĠĠĠĠĠĠĠĠĠĠĠĠĠĠĠĠĠĠĠĠĠĠĠĠĠĠĠĠĠ": 12158,
    "Ġenem": 4709,
    "onder": 3783,
    "Ġhesitation": 13442,
    "clopÃ¦": 13058,
    "Ġhonor": 5664,
    "Ġstole": 7954,
    "Ġthinnest": 24185,
    "Ġstalked": 20432,
    "Ġburn": 3688,
    "journey": 8748,
    "Ġlamp": 4114,
    "sullen": 17670,
    "Ġabutted": 22280,
    "Ġimpulse": 10026,
    "ideas": 18582,
    "utility": 21591,
    "Ġsucceed": 4547,
    "Ġsubject": 2465,
    "Ġcoloss": 11046,
    "insist": 23068,
    "Ē": 211,
    "kl": 4866,
    "Ġcontrive": 16012,
    "Ġdevil": 3616,
    "ises": 3657,
    "gaffman": 26391,
    "Ġimproved": 7657,
    "Ġmeanly": 12914,
    "escape": 16015,
    "icity": 2539,
    "diff": 9116,
    "unw": 14058,
    "poison": 14394,
    "Ġgasped": 11373,
    "Ġglanced": 5954,
    "Ġtarn": 21161,
    "Ġcertainty": 6736,
    "Ġcoal": 18594,
    "narrowly": 20350,
    "Ġsweet": 3468,
    "Ġmidnight": 5266,
    "Ġuse": 814,
    "shed": 8096,
    "Ġacquaintances": 17352,
    "Ġdeserted": 8640,
    "Ġpermit": 9751,
    "Ġpet": 4588,
    "Ă": 195,
    "poises": 11892,
    "Ġrecounted": 22739,
    "Ġequivalent": 4803,
    "Ġdiscovery": 5412,
    "Ġrokovoko": 22411,
    "Ġspout": 3281,
    "iple": 4807,
    "disreputable": 23505,
    "Ġjacob": 1900,
    "Ġpreceding": 7528,
    "Ġassault": 9839,
    "Ġimpo": 3445,
    "Ġwaterward": 23371,
    "achine": 609,
    "Ġsweetest": 13248,
    "Ġpairs": 4182,
    "Ġflame": 7448,
    "Ġlabours": 8586,
    "Ġ76": 24264,
    "Ġhorror": 3776,
    "irection": 2392,
    "Ġpitchpoling": 14913,
    "Ġzone": 14363,
    "Ġsheltered": 19913,
    "Ġcapt": 1291,
    "consuming": 25675,
    "adru": 15734,
    "offensive": 16398,
    "ssed": 3739,
    "chery": 24550,
    "field": 3068,
    "ible": 1113,
    "Ġsmothered": 20722,
    "Ġflooded": 24964,
    "Ġoutskirts": 17459,
    "ulence": 15769,
    "whispered": 20037,
    "Ġreve": 2929,
    "Ġplaintiffs": 13610,
    "Ġ235": 25712,
    "ha": 3980,
    "ivened": 22971,
    "Ġbucket": 8791,
    "Ġbegun": 7243,
    "Ġbrahma": 26321,
    "Ġdiscomp": 11869,
    "Ġhunts": 23162,
    "grasp": 16432,
    "Ġinsolent": 13601,
    "Ġspermacetti": 19050,
    "Ġeffective": 1249,
    "playing": 19660,
    "Ġpugnacious": 26452,
    "isle": 13893,
    "Ġfurs": 18740,
    "characteristic": 24686,
    "Ġbern": 17860,
    "Ġstrolled": 16771,
    "terday": 4706,
    "decl": 8859,
    "Ġdepicting": 22611,
    "Ġperplexity": 2751,
    "Ġnow": 691,
    "Ġetern": 7087,
    "aneous": 7240,
    "blood": 7781,
    "Ġselfishness": 12292,
    "Ġdusting": 24598,
    "diligence": 26111,
    "Ġproclaim": 18133,
    "peter": 24299,
    "Ġfocus": 4237,
    "andish": 18156,
    "Ġcomfortless": 23916,
    "Ġnomine": 26457,
    "warp": 17707,
    "Ġgratify": 19506,
    "Ġjournal": 15221,
    "judging": 24203,
    "Ġreb": 15694,
    "Ġind": 1221,
    "nephew": 26398,
    "Ġbales": 21392,
    "Ġrespect": 1668,
    "Ġwillingness": 24911,
    "Ġem": 1926,
    "Ġavowed": 16635,
    "touch": 8393,
    "Ġindoors": 18837,
    "Ġthousandth": 23684,
    "luent": 15999,
    "que": 1136,
    "ldog": 21922,
    "intellect": 18823,
    "Ġinflu": 4910,
    "driver": 14923,
    "visual": 24224,
    "remarkable": 13498,
    "Ġpermitted": 9281,
    "Ġgrop": 12669,
    "Ġconvenience": 11332,
    "belated": 24043,
    "proof": 16426,
    "Č": 205,
    "Ġundet": 16702,
    "gangway": 20670,
    "yea": 23092,
    "Ġseething": 18202,
    "Ġprovince": 24191,
    "Ġjourney": 3881,
    "Ġblend": 14401,
    "Ġthenceforth": 25183,
    "rees": 5436,
    "uber": 15447,
    "Ġa": 263,
    "Ġhampshire": 15245,
    "Ġhovel": 8255,
    "Ġgodson": 23362,
    "seas": 14034,
    "Ġother": 761,
    "Ġthro": 5818,
    "Ġnicely": 8712,
    "paralleled": 14518,
    "Ġpictures": 5503,
    "Ġchall": 10945,
    "Ġwouldst": 18498,
    "Ġmaterially": 12195,
    "Ġeulogy": 26471,
    "Ġinsensibly": 20079,
    "Ġordained": 19449,
    "Ġsensitive": 13200,
    "Ġrelief": 6062,
    "Ġpace": 9185,
    "acetti": 13397,
    "Ġparac": 12800,
    "Ġprair": 7748,
    "vering": 15719,
    "laugh": 10110,
    "ginger": 13164,
    "Ġchamp": 18381,
    "Ġcharts": 12831,
    "nihil": 9853,
    "Ġtip": 15473,
    "quely": 10233,
    "Ġsolve": 4197,
    "Ġtoward": 17949,
    "Ġix": 12673,
    "Ġpreposterous": 13671,
    "hands": 5969,
    "explanation": 12362,
    "Ġdiscourage": 3114,
    "Ġclasped": 17208,
    "shadows": 25480,
    "vens": 21115,
    "Ġdischarge": 18557,
    "umbria": 23898,
    "ructed": 7031,
    "included": 19209,
    "Ġlash": 8441,
    "object": 6884,
    "Ġhedgehogs": 25395,
    "Ġn": 300,
    "ched": 1547,
    "prairies": 20569,
    "Ġimprovements": 14508,
    "langu": 4808,
    "Ġmatrimony": 13636,
    "Ġencode": 4367,
    "Ġproduced": 2453,
    "Ġperempt": 13675,
    "itying": 21999,
    "tolerably": 21098,
    "Ġwhich": 503,
    "Ġperfection": 19220,
    "Ġprofessional": 7300,
    "oration": 2209,
    "Ġstricken": 9778,
    "Ġintercepted": 25828,
    "Ġloaf": 15875,
    "tiger": 13798,
    "Ġworks": 5859,
    "Ġcold": 3029,
    "Ġunimaginable": 15249,
    "vour": 17700,
    "Ġinjury": 10542,
    "Ġcompar": 4772,
    "?âĢĿâĢĶ": 12900,
    "ruction": 4360,
    "turtle": 12215,
    "Ġputs": 19031,
    "Ġwaited": 4909,
    "otle": 21802,
    "strangely": 17278,
    "until": 6598,
    "infernal": 24663,
    "ask": 856,
    "zening": 21151,
    "Ġbeauty": 3773,
    "Ġresume": 18566,
    "Ġdireful": 11019,
    "Ġamounted": 18513,
    "Ġdescrib": 2714,
    "Ġroods": 22409,
    "Ġobeisance": 19761,
    "cies": 1814,
    "ogrand": 26263,
    "bird": 9587,
    "torm": 11532,
    "Ġlands": 6596,
    "means": 9788,
    "ination": 2910,
    "nights": 16448,
    "Ġdenying": 14659,
    "Ġhy": 5625,
    "Ġtenement": 23551,
    "save": 13786,
    "Ġallowed": 4058,
    "Ġimprinted": 22393,
    "Ġhatch": 7849,
    "izabeth": 909,
    "Ġmanor": 14198,
    "Ġser": 1671,
    "stre": 5451,
    "Ġtells": 9364,
    "Ġbecause": 2211,
    "Ġnail": 9198,
    "Ġsales": 12812,
    "Ġhopes": 4235,
    "salesman": 20674,
    "pyramid": 21032,
    "Ġidentity": 2521,
    "alling": 6039,
    "cary": 10692,
    "Ġfelicity": 7260,
    "umbrance": 22123,
    "Ġneighbor": 25804,
    "Ġunwarrant": 19936,
    "norm": 20987,
    "Ġschedu": 1823,
    "Ġobject": 1396,
    "Ġstrongest": 11136,
    "Ġber": 5698,
    "horrors": 20544,
    "finds": 19929,
    "Ġleaps": 14009,
    "Ġmathematical": 3352,
    "ww": 10738,
    "Ġrejoined": 14929,
    "Ġsense": 3248,
    "Ġrossum": 3010,
    "iding": 3849,
    "els": 1762,
    "Ġindisp": 18835,
    "Ġthemselves": 3249,
    "okingly": 22395,
    "cou": 13697,
    "Ġsovere": 9259,
    "fere": 10989,
    "Ġexpert": 18866,
    "ĠĠĠĠĠĠĠĠĠĠĠĠĠĠĠĠĠĠĠĠĠĠĠĠĠĠĠĠĠĠĠĠĠĠĠĠĠĠĠĠĠĠĠĠĠĠĠĠ": 7990,
    "Ġnovelties": 24777,
    "mistakable": 20655,
    "Ġlectures": 17180,
    "Ġvindictive": 20473,
    "Ġspeak": 2230,
    "fes": 20853,
    "Ġpursuers": 13228,
    "somers": 19371,
    "linked": 17594,
    "Ġfog": 9663,
    "hyena": 24254,
    "displayed": 20738,
    "outward": 22165,
    "Ġconference": 15750,
    "latitude": 25260,
    "rons": 21042,
    "Ġchosen": 7201,
    "Ġgree": 7595,
    "Ġcatholic": 20684,
    "fact": 6360,
    "Ġpur": 2217,
    "encies": 4080,
    "Ġclaws": 15970,
    "prosperity": 20737,
    "Ġcau": 13882,
    "Ġsod": 11563,
    "Ġra": 817,
    "Ġscru": 8192,
    "Ġfiner": 13055,
    "Ġfootman": 8289,
    "digger": 24311,
    "Ġoverlook": 10961,
    "Ġunfortunately": 10910,
    "mund": 13759,
    "cnns": 3624,
    "ithing": 11651,
    "Ġperished": 11787,
    "Ġhave": 444,
    "cous": 8725,
    "deception": 22150,
    "Ġalternating": 15032,
    "Ġribbed": 16805,
    "retrie": 18926,
    "Ġstrictly": 12288,
    "<SOS>": 1,
    "cap": 8374,
    "Ġspat": 2661,
    "Ġ113": 19699,
    "Ġunfitted": 24110,
    "aph": 10955,
    "Ġgeorgiana": 8629,
    "Ġunbroken": 18251,
    "Ġerskine": 17434,
    "Ġcarrying": 6074,
    "weaknesses": 26031,
    "Ġwindow": 2996,
    "Ġhence": 4989,
    "Ġconfirming": 25322,
    "olently": 15760,
    "Ġpresent": 1639,
    "Ġwarrant": 17796,
    "dream": 8731,
    "Ġmarty": 20293,
    "Ġfurniture": 6477,
    "Ġsimplicity": 2920,
    "Ġsuperficial": 23457,
    "Ġoccupant": 16653,
    "Ġcrisp": 12005,
    "Ġdiscre": 2420,
    "Ġintense": 6159,
    "Ġcomplain": 6687,
    "Ġclient": 5555,
    "Ġforeman": 23448,
    "Ġegg": 8822,
    "Ġrings": 11702,
    "bulkington": 19927,
    "Ġshriek": 6640,
    "Ġborrow": 10172,
    "Ġneared": 14074,
    "allers": 22202,
    "Ġdreadfully": 7727,
    "Ġfolding": 19729,
    "Ġwarned": 16881,
    "icions": 21567,
    "Ġphilosopher": 12187,
    "Ġhail": 7400,
    "duct": 3508,
    "disputed": 23502,
    "Ġwriting": 4669,
    "chamber": 13626,
    "getic": 12970,
    "Ġheavenly": 12088,
    "Ġmic": 17799,
    "neys": 23584,
    "albatross": 15633,
    "Ġtext": 2269,
    "Ġdelightful": 6322,
    "Ġinterrupting": 19560,
    "Ġton": 15466,
    "Ġunwarranted": 24831,
    "Ġbachel": 7159,
    "Ġbeaver": 18088,
    "Ġbroods": 23109,
    "mens": 20971,
    "subtle": 24245,
    "Ġgesture": 11400,
    "Ġhumbug": 18782,
    "Ġwarmer": 19187,
    "Ġwilson": 6632,
    "Ġpencil": 11946,
    "Ġscreaming": 13424,
    "Ġseated": 4543,
    "Ġice": 3607,
    "holes": 12057,
    "Ġfamiliarity": 16730,
    "Ġresponsible": 9888,
    "quadrille": 20598,
    "Ġfainted": 8795,
    "message": 17374,
    "quin": 21858,
    "hence": 16626,
    "inct": 3290,
    "Ġsimultaneously": 4313,
    "nd": 11505,
    "perils": 22188,
    "uniform": 18160,
    "eh": 13711,
    "Ġopportunity": 4787,
    "ith": 330,
    "è": 169,
    "Ġhourly": 23305,
    "Ġmemory": 2276,
    "ryder": 18638,
    "Ġbitterest": 12405,
    "Ġvaluable": 5607,
    "Ġwoman": 2391,
    "itche": 7579,
    "Ġunfrequ": 19511,
    "Ġadviser": 25313,
    "am": 367,
    "professor": 17251,
    "omuch": 21644,
    "aphs": 22340,
    "frequently": 9981,
    "Ġmoulton": 17437,
    "Ġbattalions": 25777,
    "Ġsentiment": 6591,
    "Ġfinny": 23132,
    "Ġtu": 6969,
    "shock": 19857,
    "hero": 21207,
    "Ġtransition": 14244,
    "Ġcelestial": 10069,
    "Ġarmies": 16493,
    "Ġoars": 3898,
    "lev": 1236,
    "bare": 12444,
    "enet": 10154,
    "ening": 3103,
    "ilogue": 21729,
    "reserved": 13844,
    "Ġadaptively": 4005,
    "_âĢĶâĢĿ": 20765,
    "Ġlakeman": 6987,
    "meetings": 20381,
    "acters": 9312,
    "Ġsoles": 22087,
    "Ġwoll": 21296,
    "Ġmagnanimous": 17413,
    "vinegar": 25421,
    "Ġtwin": 12933,
    "olets": 21010,
    "asp": 3340,
    "Ġformality": 22833,
    "Ġprecise": 7077,
    "ometer": 19328,
    "Ġapply": 1777,
    "tled": 3460,
    "oric": 21399,
    "Ġarched": 10933,
    "Ġswarming": 16276,
    "Ġlydia": 2376,
    "Ġvain": 3632,
    "beds": 16623,
    "anch": 15563,
    "Ġamber": 7028,
    "material": 13131,
    "Ġwinking": 17795,
    "Ġrelative": 11886,
    "Ġvi": 1953,
    "Ġren": 3848,
    "Ġinj": 4761,
    "coach": 23562,
    "Ġinsisted": 12049,
    "Ġcongregation": 12332,
    "Ġobserving": 6082,
    "Ġevol": 2811,
    "Ġfloated": 7288,
    "Ġsoot": 14131,
    "Ġimmeas": 18331,
    "Ġlaborers": 19056,
    "madness": 14884,
    "Ġmah": 15544,
    "Ġrats": 21978,
    "Ġevidence": 5270,
    "Ġnightgown": 23137,
    "Ġideas": 5494,
    "Ġcircumst": 2974,
    "Ġissuing": 16949,
    "Ġmoods": 14953,
    "Ġslung": 23172,
    "Ġmethod": 1417,
    "Ġdisobedience": 22540,
    "Ġislanders": 19505,
    "Ġangelic": 19630,
    "slipping": 25529,
    "striving": 24670,
    "invol": 12534,
    "edged": 15634,
    "Ġmistifying": 23722,
    "wart": 17706,
    "tstone": 21087,
    "Ġtheoretic": 23314,
    "Ġpipeline": 2359,
    "lucky": 24544,
    "etting": 21584,
    "Ġhunger": 8570,
    "Ġfreighted": 16326,
    "orified": 21405,
    "requent": 3653,
    "Ġapartments": 19617,
    "Ġbrook": 13050,
    "Ġsurface": 5119,
    "concluded": 11244,
    "recur": 4439,
    "Ġinhabitant": 19758,
    "ici": 8442,
    "ion": 295,
    "Ġsickle": 24247,
    "Ġdeed": 7870,
    "plex": 708,
    "upp": 10132,
    "conditionally": 24835,
    "Ġaunts": 21203,
    "Ġcontention": 22431,
    "Ġcautiously": 16978,
    "summon": 23418,
    "Ġmutilated": 23962,
    "Ġextinct": 14335,
    "Ġabhor": 5467,
    "ography": 13364,
    "Ġgunwales": 12244,
    "soc": 5175,
    "Ġtroub": 22370,
    "ower": 1048,
    "hew": 5286,
    "lacings": 26135,
    "bellies": 19977,
    "Ġsucking": 12793,
    "Ġprogeny": 17390,
    "Ġgi": 15669,
    "Ġeaster": 15678,
    "atmosphere": 21267,
    "Ġarter": 22193,
    "Ġpromotion": 23197,
    "Ġhover": 15623,
    "izar": 14044,
    "Ġfilling": 13409,
    "Ġcheers": 16368,
    "Ġswayed": 15049,
    "Ġcongratulatory": 19770,
    "mits": 13757,
    "Ġopal": 23628,
    "Ġrang": 9248,
    "angled": 6844,
    "Ġclay": 7020,
    "Ġsplitting": 4386,
    "Ġpagans": 16923,
    "Ġrefinement": 18700,
    "Ġquietude": 19363,
    "whaleman": 23438,
    "ken": 2798,
    "Ġinquiry": 6485,
    "Ġ131": 24781,
    "imagine": 19934,
    "Ġbark": 10799,
    "Ġsharper": 17181,
    "Ġfishers": 19357,
    "quet": 6835,
    "Ġcooper": 16080,
    "adamite": 20596,
    "Ġhospit": 7514,
    "Ġbath": 9660,
    "Ġdesolated": 24809,
    "Ġraven": 16119,
    "Ġsilvery": 13095,
    "mopol": 15398,
    "Ġsqueezed": 20039,
    "Ġhomely": 25220,
    "proceeded": 25191,
    "Ġoscill": 2853,
    "Ġexceptions": 13231,
    "ribs": 23369,
    "Ġcongregational": 25105,
    "vul": 15450,
    "Ġgodlike": 23361,
    "Ġstops": 3164,
    "afraid": 10442,
    "wag": 21126,
    "Ġbubble": 13535,
    "Ġplaning": 22605,
    "Ġmuttered": 7088,
    "es": 289,
    "ell": 399,
    "Ġfacetious": 20587,
    "rell": 11565,
    "Ġgroaned": 11267,
    "etuous": 21587,
    "Ġhabitual": 24789,
    "Ġsuppression": 23004,
    "Ġsurf": 19133,
    "Ġcav": 13881,
    "Ġload": 14147,
    "Ġcampa": 17175,
    "Ġengagements": 9980,
    "Ġcolder": 22860,
    "Ġpossibly": 4516,
    "casks": 20406,
    "Ġrivers": 9445,
    "Ġking": 2305,
    "Ġhatty": 19268,
    "prom": 6510,
    "dashing": 20838,
    "Ġrecourse": 22740,
    "Ġoffensive": 18693,
    "Ġeyes": 1333,
    "matlock": 23471,
    "Ġoozy": 21330,
    "indirect": 22377,
    "james": 15375,
    "dom": 6224,
    "Ġdens": 21428,
    "Ġhardened": 14452,
    "distrust": 19573,
    "udg": 22763,
    "oles": 21007,
    "mountains": 15183,
    "ounded": 9750,
    "Ġexpands": 25238,
    "Ġmuseum": 15273,
    "yramid": 8369,
    "Ġdeprived": 8211,
    "Ġfact": 1728,
    "Ġquieted": 23846,
    "Ġscrutiny": 26016,
    "poverty": 22911,
    "Ġdramat": 23217,
    "Ġhigh": 932,
    "rubbed": 22185,
    "Ġdemean": 12728,
    "lab": 3459,
    "Ġ58": 24321,
    "Ġadvance": 5484,
    "Ġmuse": 13861,
    "Ġchestnut": 19675,
    "Ġinno": 1473,
    "Ġslewed": 23388,
    "Ġstalk": 12702,
    "Ġconstrained": 19241,
    "Ġobtaining": 16135,
    "Ġfiltering": 23930,
    "Ġheaths": 25973,
    "Ġsuburban": 17348,
    "usual": 5842,
    "Ġfinancial": 23134,
    "Ġoutput": 929,
    "Ġglass": 4372,
    "Ġtask": 1310,
    "Ġfancied": 7326,
    "Ġpiqu": 21480,
    "Ġly": 2270,
    "including": 23592,
    "77": 15303,
    "ns": 757,
    "Ġemployments": 12106,
    "withdrawn": 23032,
    "Ġcordage": 19681,
    "Ġscratching": 20372,
    "goose": 19103,
    "ilight": 12698,
    "Ġgolden": 5337,
    "evening": 7091,
    "Ġapologies": 25197,
    "Ġdefinitions": 22948,
    "plentiful": 21967,
    "Ġdoom": 6418,
    "wondrous": 12341,
    "Ġplaguy": 22608,
    "so": 888,
    "Ġdrags": 16942,
    "Ġfourth": 7708,
    "sighted": 19788,
    "ridge": 9499,
    "Ġissue": 2311,
    "Ġancient": 5443,
    "Ġstrive": 23693,
    "Ġbewitched": 25976,
    "rooms": 10433,
    "Ġdeplored": 20508,
    "Ġprospects": 9961,
    "properly": 24919,
    "Ġconsumm": 15157,
    "Ġomnipotent": 13549,
    "Ġdardanelles": 26444,
    "Ġenhance": 3099,
    "Ġpads": 21477,
    "'t": 3143,
    "Ġdeadly": 5405,
    "Ġthreaten": 24373,
    "Ġxxxix": 24973,
    "Ġinfallible": 15073,
    "Ġborn": 5224,
    "Ġpsychology": 11449,
    "Ġprized": 23223,
    "success": 6712,
    "Ġgpt": 4353,
    "Ġfrown": 10808,
    "Ġtist": 21165,
    "Ġinterposed": 20622,
    "Ġferocious": 17421,
    "Ġ_": 839,
    "Ġvilest": 20104,
    "Ġmotive": 6093,
    "mn": 3577,
    "Ġtant": 12529,
    "Ġinsurmountable": 16532,
    "gallantry": 15062,
    "--------": 14785,
    "Ġcosmopolitan": 20643,
    "Ġdoct": 4457,
    "k": 79,
    "ont": 2620,
    "Ġunclad": 22057,
    "inquiries": 13578,
    "Ġaverage": 3137,
    "mature": 20969,
    "chosen": 21699,
    "Ġawa": 7715,
    "Ġpenet": 6888,
    "Ġphilosop": 5057,
    "Ġstandard": 14497,
    "uzz": 4526,
    "sort": 6799,
    "Ġprofanely": 23572,
    "Ñ": 146,
    "Ġreplying": 19584,
    "Ġconstraint": 16514,
    "Ġvicious": 24402,
    "Ġannotations": 25955,
    "Ġsavage": 4011,
    "Ġteeth": 4167,
    "Ġvanished": 6874,
    "ship": 1392,
    "Ġmorcar": 13017,
    "hope": 5992,
    "ite": 713,
    "Ġav": 3582,
    "fright": 9597,
    "Ġilluminated": 20178,
    "ssing": 3812,
    "Ġfisher": 3222,
    "Ġsimpler": 2046,
    "Ġidle": 8254,
    "wear": 22687,
    "Ġconstant": 6311,
    "Ġservox": 23873,
    "Ġtallest": 15476,
    "Ġfires": 16473,
    "Ġhappily": 9334,
    "Ġpeaked": 2297,
    "Ġdragg": 23216,
    "thrown": 8483,
    "nerable": 16279,
    "Ġbilliard": 16689,
    "Ġlightning": 5750,
    "carrying": 16714,
    "ton": 1727,
    "rible": 3227,
    "suited": 22650,
    "Ġwig": 9164,
    "Ġlaughter": 9030,
    "Ġwhereupon": 14298,
    "regret": 16450,
    "Ġproud": 5654,
    "storied": 18027,
    "iocr": 20925,
    "icant": 21566,
    "Ġaffright": 9335,
    "Ġunwillingness": 20035,
    "Ġincrease": 9373,
    "Ġresid": 22543,
    "Ġconsol": 3819,
    "Ġalpine": 18108,
    "Ġinnocently": 24036,
    "Ġchemical": 10411,
    "ĠĠĠĠĠĠĠĠĠĠĠĠĠĠĠĠĠĠĠĠĠĠĠĠĠĠĠĠĠĠĠĠ": 2733,
    "Ġimprecate": 20521,
    "Ġ43": 14772,
    "inously": 21189,
    "Ġconcise": 23325,
    "Ġsneering": 24696,
    "lone": 11501,
    "Ġdesc": 777,
    "Ġprayers": 12127,
    "Ġgrampus": 21998,
    "Ġfaster": 3197,
    "expense": 22434,
    "tashtego": 9624,
    "Ġbennet": 1576,
    "Ġspot": 4155,
    "hog": 8381,
    "Ġbewil": 11659,
    "Ġrepay": 19083,
    "Ġyanke": 18100,
    "Ġhit": 7164,
    "Ġmoisture": 12363,
    "Ġransacked": 26505,
    "Ġmoss": 9287,
    "Ġoperated": 14547,
    "Ġinherent": 4593,
    "Ġseethe": 21961,
    "Ġcultivation": 17147,
    "Ġimmortality": 26327,
    "Ġdelightfully": 13159,
    "Ġhates": 21490,
    "perv": 1607,
    "ggy": 13115,
    "Ġsettee": 22925,
    "Ġmeanness": 22600,
    "Ġpausing": 8656,
    "comparatively": 25839,
    "Ġnorton": 12654,
    "harpoon": 9493,
    "press": 1731,
    "Ġdiab": 10613,
    "Ġindividual": 5744,
    "Ġstranded": 9777,
    "Ġpron": 6452,
    "Ġsamples": 2961,
    "Ġsult": 10768,
    "Ġunited": 6840,
    "Ġretarded": 23076,
    "Ġfresher": 23211,
    "osp": 6854,
    "Ġdevoured": 16141,
    "itic": 11580,
    "Ġevaluate": 2957,
    "Ġconceals": 23907,
    "jewell": 25524,
    "Ġphrenologists": 25609,
    "Ġseeming": 8543,
    "Ġsurgeon": 8983,
    "Ġbrown": 6300,
    "cloud": 11106,
    "Ġsubs": 2130,
    "temper": 10006,
    "Ġstaid": 21740,
    "Ġsymphony": 26533,
    "Ġgenerative": 5644,
    "ý": 190,
    "nings": 9134,
    "meryton": 10113,
    "ersman": 11705,
    "Ġadversary": 12177,
    "ival": 4227,
    "Ġextremities": 19197,
    "ructure": 754,
    "tland": 21076,
    "mouth": 9133,
    "Ġbam": 15569,
    "recognised": 15264,
    "Ġleaf": 15726,
    "Ġsight": 2112,
    "umbs": 14691,
    "ely": 623,
    "Ġthereby": 7644,
    "Ġhandsome": 4907,
    "Ġfetching": 16897,
    "bingleys": 19637,
    "Ġcomprising": 16071,
    "Ġtresses": 21178,
    "ble": 542,
    "obvious": 9360,
    "Ġdesertion": 24786,
    "Ġinaccessible": 13935,
    "Ġwaiter": 16362,
    "hatches": 19930,
    "isl": 21378,
    "cannib": 11906,
    "sold": 15428,
    "Ġcoals": 16078,
    "Ġmoustache": 20487,
    "Ġoverflowed": 20265,
    "ences": 1263,
    "alongside": 19792,
    "Ġintimidated": 24802,
    "coat": 5407,
    "Ġswerve": 14439,
    "Ġhistorical": 3648,
    "Ġportentous": 15232,
    "Ġeccentric": 13650,
    "Ġbubb": 12589,
    "agitation": 14069,
    "Ġascended": 8669,
    "Ġswash": 23059,
    "Ġrecording": 24433,
    "Ġexchanging": 18134,
    "Ġwhittling": 20702,
    "Ġdaunt": 19667,
    "Ġencouraging": 2264,
    "Ġdecide": 9290,
    "Ġcondense": 21813,
    "Ġinclined": 6625,
    "Ġwhaler": 7520,
    "try": 7813,
    "Ġanyways": 22525,
    "supposed": 13317,
    "Ġtruly": 4797,
    "Ġlany": 21558,
    "Ġoutward": 7906,
    "Ġerected": 12237,
    "youn": 5690,
    "Ġcomputation": 964,
    "Ġupset": 22158,
    "aloft": 8810,
    "Ġhar": 5815,
    "til": 17672,
    "Ġcomplet": 4425,
    "Ġdism": 9769,
    "Ġcooking": 16648,
    "idel": 5301,
    "ĠdÃ¦mon": 7845,
    "Ġroy": 4229,
    "Ġharry": 24571,
    "Ġfemales": 14939,
    "Ġleagues": 9226,
    "if": 376,
    "Ġparson": 6689,
    "Ġrevel": 9217,
    "Ġholder": 6726,
    "fowl": 17550,
    "cons": 4311,
    "izings": 14045,
    "Ġtube": 15004,
    "fr": 4805,
    "Ġsports": 18311,
    "Ġnarrating": 24350,
    "Ġmorris": 18851,
    "Ġchis": 11753,
    "Ġtracing": 18891,
    "apple": 22849,
    "Ġmarks": 6748,
    "Ġwestward": 24388,
    "Ġindividuals": 24545,
    "Ġoffering": 3005,
    "profound": 16428,
    "Ġshilling": 18229,
    "usually": 10287,
    "Ġpreacher": 18370,
    "Ġwashing": 9707,
    "Ġheightened": 8652,
    "Ġful": 4299,
    "narrow": 11509,
    "ar": 285,
    "orable": 8121,
    "Ġinches": 5846,
    "sensible": 20055,
    "iard": 9603,
    "discovery": 12019,
    "Ġprec": 2916,
    "Ġdiscerned": 24959,
    "vices": 21119,
    "Ġheadland": 22901,
    "Ġmingling": 20200,
    "qual": 8158,
    "Ġshorter": 4501,
    "pole": 9336,
    "izer": 2029,
    "aboard": 21799,
    "achusetts": 20712,
    "Ġlose": 5028,
    "Ġinsurg": 23681,
    ",âĢĻâĢĶ": 23528,
    "Ġgobern": 22430,
    "Ġdocument": 15020,
    "unbe": 21877,
    "inative": 15486,
    "Ġdispleasure": 16054,
    "Ġdropped": 4473,
    "ode": 1454,
    "Ġplantation": 11424,
    "Ġauthors": 10419,
    "ittance": 12850,
    "Ġidiotic": 25589,
    "plendent": 21969,
    "Ġschedules": 3388,
    "Ġoppressively": 25711,
    "Ġmurder": 4283,
    "Ġunaccount": 22030,
    "Ġincreasingly": 9374,
    "Ġconfirmation": 17212,
    "ream": 2704,
    "extremely": 26265,
    "pay": 10719,
    "barbaric": 26360,
    "Ġshow": 3403,
    "seamen": 13627,
    "Ġunembarrassed": 22074,
    "liv": 9609,
    "hig": 12478,
    "narwhale": 17320,
    "halfway": 24312,
    "Ġinquest": 16549,
    "Ġmodes": 22218,
    "Ġconcerned": 5332,
    "Ġseparated": 9466,
    "silent": 9976,
    "Ġwandered": 6930,
    "Ġmetropolitan": 17277,
    "Ġnocturnal": 20717,
    "increas": 10455,
    "Ġunfelt": 24112,
    "Ġrisks": 9966,
    "isis": 12584,
    "Ġket": 18348,
    "aborate": 14023,
    "Ġlightness": 23264,
    "Ġdefault": 3035,
    "god": 4864,
    "Ġbreakers": 12058,
    "Ġdog": 4193,
    "Ġstoner": 7179,
    "Ġjoined": 4566,
    "Ġproblems": 2844,
    "Ġlistened": 4471,
    "Ġmonoman": 7940,
    "deploy": 22147,
    "Ġrenew": 6147,
    "Ġblended": 16221,
    "Ġbride": 6293,
    "Ġgoblet": 25824,
    "Ġaims": 15498,
    "alog": 8808,
    "Ġinclosed": 19541,
    "Ġmacey": 12567,
    "Ġceti": 24772,
    "rowed": 22869,
    "Ġsustain": 10019,
    "Ġ10": 5250,
    "Ġprogra": 1143,
    "Ġclicked": 22358,
    "shroud": 20313,
    "Ġdisinterested": 16059,
    "Ġslowly": 3621,
    "angs": 5835,
    "Ġrefers": 1568,
    "Ġcosine": 2375,
    "insisted": 23071,
    "Ġunspeak": 8853,
    "Ġkeys": 11999,
    "zetts": 17715,
    "Ġvesu": 21952,
    "Ġghast": 9212,
    "sweeping": 24620,
    "vis": 4579,
    "Ġalabama": 14020,
    "Ġapolog": 9046,
    "haven": 20914,
    "eastward": 15132,
    "Ġunheeded": 18262,
    "acious": 5561,
    "garden": 15027,
    "Ġupper": 5090,
    "mists": 17605,
    "Ġenterprise": 8645,
    "clam": 13057,
    "Ġanyhow": 14256,
    "along": 6015,
    "Ġdiana": 21440,
    "Ġdusty": 14927,
    "organic": 25947,
    "gradient": 2275,
    "Ġoutwardly": 25003,
    "Ġcanvas": 7785,
    "Ġsubdiv": 16162,
    "Ġbohemian": 17135,
    "Ġpillows": 24991,
    "Ġsmart": 11818,
    "Ġcompre": 4451,
    "abama": 12714,
    "Ġlearns": 2640,
    "Ġcause": 2414,
    "Ġmccauley": 26428,
    "Ġwallowing": 24049,
    "Ġquestioned": 14621,
    "Ġhur": 2100,
    "laborers": 23919,
    "Ġcanoe": 9725,
    "Ġsubset": 9872,
    "Ġsupernatural": 9875,
    "gi": 17552,
    "Ġlurks": 11291,
    "adier": 18092,
    "uries": 6149,
    "Ġpremature": 3730,
    "recollected": 25348,
    "Ġpunish": 12163,
    "warmest": 25030,
    "Ġcurric": 22974,
    "bulwarks": 12276,
    "Ġhyperborean": 26341,
    "Ġinheriting": 25355,
    "Ġundoubtedly": 8314,
    "Ġbolt": 11335,
    "Ġsledge": 8112,
    "Ġhardly": 2435,
    "Ġimbib": 22180,
    "Ġmysticetus": 24923,
    "Ġdivineness": 25724,
    "Ġperry": 22400,
    "Ġplu": 8802,
    "hamlet": 23266,
    "Ġcelebrated": 13595,
    "neighbouring": 19967,
    "sac": 7142,
    "Ġchecked": 9379,
    "disappearing": 23504,
    "zeal": 16275,
    "Ġstunsail": 25544,
    "Ġcotton": 17381,
    "mechanical": 25579,
    "Ġfoes": 11954,
    "preserve": 25304,
    "Ġbuilt": 8302,
    "privilege": 25264,
    "Ġjune": 10290,
    "milk": 20480,
    "ios": 2189,
    "iour": 4037,
    "Ġfirmest": 16666,
    "Ġboun": 21383,
    "Ġnaut": 13942,
    "Ġbeau": 9227,
    "recollect": 17225,
    "Ġferrule": 24516,
    "Ġblackness": 9396,
    "Ġdeath": 2041,
    "commanded": 16989,
    "ex": 622,
    "Ġfists": 15586,
    "com": 958,
    "Ġenters": 11026,
    "ledge": 1328,
    "Ġgowns": 25360,
    "Ġchorus": 10947,
    "Ġfejee": 18355,
    "Ġprognostics": 20561,
    "poor": 6063,
    "wers": 12523,
    "difference": 13709,
    "Ġspar": 10922,
    "Ġcrouching": 23443,
    "python": 4693,
    "itude": 1421,
    "Ġcommonplace": 11097,
    "Ġabhorred": 9510,
    "Ġmahogany": 20581,
    "Ġgloomy": 7504,
    "tomorrow": 25915,
    "air": 999,
    "Ġluxuriant": 20398,
    "Ġunbounded": 18260,
    "Ġsharply": 9406,
    "Ġrefreshed": 15293,
    "Ġvineyard": 12333,
    "Ġmerit": 9430,
    "structure": 2245,
    "Ġtid": 8108,
    "bo": 1691,
    "Ġcompanion": 3646,
    "miles": 10713,
    "Ġappertain": 22222,
    "stirring": 20429,
    "gul": 12469,
    "breakfast": 8691,
    "Ġarmchair": 8272,
    "Ġomit": 17817,
    "boots": 11127,
    "Ġears": 4493,
    "unforeseen": 21893,
    "Ġbelonging": 8309,
    "Ġpoky": 21482,
    "abated": 14021,
    "Ġpecks": 18670,
    "yset": 21148,
    "ler": 3493,
    "Ġquit": 5247,
    "Ġmarched": 18873,
    "union": 15773,
    "Ġreligions": 20111,
    "english": 2772,
    "wind": 4254,
    "Ġshot": 4546,
    "Ġpressed": 6044,
    "unt": 2042,
    "commendation": 26351,
    "tical": 10130,
    "Ġorphan": 12386,
    "ackled": 22425,
    "Ġcompressed": 21855,
    "Ġspouting": 9442,
    "Ġelias": 18633,
    "number": 10116,
    "Ġminutest": 14561,
    "Ġ199": 3007,
    "are": 637,
    "stiff": 12680,
    "Ġlunatic": 24995,
    "runs": 25416,
    "Ġinvariably": 8065,
    "Ġmonotonically": 3836,
    "Ġrelentless": 26279,
    "Ġrapture": 13496,
    "fted": 9121,
    "Ġhereditarily": 25225,
    "send": 15425,
    "ills": 1628,
    "Ġmystical": 12136,
    "Ġhop": 1461,
    "obliv": 23103,
    "Ġdaboll": 25951,
    "Ġvoyage": 3052,
    "gress": 2214,
    "satisfactory": 16894,
    "Ġsoldier": 16921,
    "residence": 19265,
    "Ġport": 3309,
    "bony": 15322,
    "insupportable": 21196,
    "nails": 17615,
    "Ġbritain": 16957,
    "Ġwheelbarrow": 17206,
    "Ġshade": 6552,
    "Ġdigress": 24649,
    "prejudice": 25572,
    "Ġparsonage": 7125,
    "Ġpals": 13919,
    "sloop": 26146,
    "otam": 21803,
    "frank": 7759,
    "Ġpreternatural": 12828,
    "Ġphenomenon": 17917,
    "illar": 5101,
    "Ġshortness": 23483,
    "Ġrever": 6538,
    "Ġgibraltar": 25788,
    "Ġharmless": 9967,
    "Ġsurmised": 24920,
    "benevolent": 15236,
    "Ġrare": 7039,
    "lection": 3656,
    "tremendous": 20676,
    "Ġox": 7154,
    "jammed": 25907,
    "Ġbattered": 17864,
    "Ġpaced": 7584,
    "Ġcarving": 14445,
    "ĠâĢĶ": 13812,
    "sicilian": 21066,
    "lu": 597,
    "Ġrecommending": 24332,
    "Ġangel": 4854,
    "Ġbashful": 20423,
    "Ġinequal": 21501,
    "hed": 673,
    "code": 15331,
    "fa": 7336,
    "Ġnarrower": 24353,
    "Ġheaved": 9386,
    "Ġinterfere": 11820,
    "Ġshaved": 22007,
    "Ġinstruments": 12227,
    "neglect": 25668,
    "Ġmanner": 2196,
    "terrible": 8468,
    "guard": 12132,
    "needle": 20316,
    "Ġpa": 2988,
    "ushes": 22296,
    "Ġincor": 2609,
    "://": 11466,
    "Ġpost": 4275,
    "Ġretired": 6073,
    "Ġlink": 8131,
    "Ġbat": 10796,
    "kee": 18274,
    "Ġtrades": 8233,
    "13": 20752,
    "Ġlocks": 11727,
    "Ġinteraction": 7424,
    "Ġneedles": 11185,
    "Ġcommonest": 23094,
    "Ġdeepest": 8214,
    "Ġinconveniences": 24942,
    "rity": 13777,
    "drive": 8686,
    "Ġcem": 17825,
    "Ġsquires": 16186,
    "loose": 11808,
    "urch": 3992,
    "Ġnavies": 16901,
    "asing": 5914,
    "ight": 402,
    "Ġissu": 6255,
    "twill": 21077,
    "daugh": 6789,
    "volume": 18601,
    "indirectly": 18438,
    "Ġpalsy": 25779,
    "ruff": 15898,
    "Ġtestimony": 14478,
    "Ġqueens": 16704,
    "Ġpistol": 7848,
    "orously": 8421,
    "urmountable": 15281,
    "charmed": 21700,
    "Ġcounties": 23306,
    "Ġbridges": 24683,
    "Ġdrunken": 12053,
    "Ġdived": 9180,
    "Ġpatronage": 17053,
    "afternoon": 13188,
    "permitted": 18343,
    "Ġoutlaws": 22328,
    "include": 23591,
    "inlaid": 21193,
    "Ġdefence": 11068,
    "aste": 4603,
    "Ġneighbour": 3811,
    "Ġlithe": 24669,
    "dition": 15341,
    "Ġenjoy": 3764,
    "Ġprofound": 5497,
    "orns": 12597,
    "Ġvaulted": 25171,
    "Ġson": 2982,
    "Ġsturgeon": 20595,
    "avering": 24792,
    "winding": 16721,
    "Ġunpitying": 25661,
    "unct": 18157,
    "Ġentrapped": 26264,
    "Ġveteran": 17452,
    "aming": 5829,
    "sen": 21052,
    "Ġgrove": 12150,
    "etw": 408,
    "Ġpull": 5152,
    "Ġboxes": 13375,
    "Ġwond": 3939,
    "circ": 4391,
    "oon": 6366,
    "american": 11401,
    "Ġpositively": 13033,
    "Ġlines": 4536,
    "Ġarrange": 3118,
    "Ġblameless": 19861,
    "pan": 10717,
    "Ġchagrin": 20610,
    "Ġtut": 8774,
    "Ġactiv": 833,
    "Ġpleasure": 2690,
    "Ġcronies": 23442,
    "Ġlistless": 16477,
    "Ġcircumvent": 25067,
    "charles": 14701,
    "Ġapproaching": 6286,
    "Ġforty": 5719,
    "Ġreality": 7059,
    "akeman": 6269,
    "sa": 8760,
    "Ġpicking": 11260,
    "sav": 8098,
    "Ġfors": 21776,
    "happily": 14658,
    "ron": 5216,
    "Ġsayest": 22781,
    "Ġswept": 7979,
    "io": 3805,
    "Ġwonder": 2118,
    "Ġturkey": 19221,
    "Ġenter": 4030,
    "Ġdeprec": 15761,
    "Ġnervous": 2407,
    "ompl": 4538,
    "Ġfamous": 5256,
    "Ġfavour": 3644,
    "reel": 21236,
    "kindness": 10507,
    "Ġarguments": 8038,
    "infl": 15489,
    "grown": 10101,
    "outon": 12808,
    "ishe": 13892,
    "ger": 1107,
    "Ġrate": 1063,
    "Ġenlarge": 21940,
    "Ġ46": 19494,
    "Ġmeasure": 3595,
    "Ġtistig": 26414,
    "incom": 21184,
    "Ġacquies": 11098,
    "Ġproflig": 23569,
    "Ġrequest": 6053,
    "straight": 9942,
    "Ġefficiently": 3431,
    "Ġstructured": 2971,
    "Ġconfessed": 8010,
    "apan": 6860,
    "Ġmilitia": 13319,
    "Ġskylight": 24076,
    "Ġgive": 1713,
    "Ġsofas": 26225,
    "Ġridicule": 13512,
    "Ġpyramids": 15117,
    "ulled": 14057,
    "Ġbright": 3214,
    "Ġsignify": 16495,
    "Ġsands": 14950,
    "oted": 4599,
    "Ġshore": 4836,
    "conducted": 25573,
    "Ġcats": 8981,
    "Ġcabinet": 23864,
    "Ġgenius": 8047,
    "loved": 14252,
    "Ġregal": 16072,
    "Ġwiser": 14733,
    "delightful": 12200,
    "complexion": 14354,
    "ease": 12461,
    "Ġcalculates": 13266,
    "Ç": 136,
    "intolerable": 22942,
    "Ġvigilant": 20187,
    "Ġsavag": 19377,
    "inders": 15983,
    "proper": 7471,
    "Ġbully": 23859,
    "Ġtempt": 5564,
    "Ġdeduction": 14901,
    "also": 7852,
    "igators": 18047,
    "Ġmelbourne": 24290,
    "Ġstaff": 14007,
    "Ġeducation": 5128,
    "Ġvenge": 5420,
    "mas": 5212,
    "hil": 8380,
    "Ġaccompl": 5167,
    "Ġvit": 10247,
    "ognit": 19212,
    "iot": 9602,
    "Ġhasten": 10479,
    "Ġparties": 7040,
    "Ġvon": 14083,
    "Ġromans": 16760,
    "base": 20779,
    "Ġboys": 5194,
    "Ġhumanity": 6733,
    "nearer": 22464,
    "Ġpoet": 8209,
    "Ġcandle": 8293,
    "Ġtheirs": 7026,
    "Ġheading": 8937,
    "Ġpettiness": 24231,
    "Ġcrystall": 20229,
    "ager": 6548,
    "Ġresort": 18564,
    "Ġoptimize": 1612,
    "ame": 645,
    "addition": 13385,
    "onged": 18411,
    "Ġcolumn": 9331,
    "Ġeas": 2355,
    "pul": 8757,
    "Ġaustrian": 24301,
    "Ġinvite": 14564,
    "byshire": 6174,
    "Ġunf": 4089,
    "Ġhealed": 21687,
    "Ġse": 401,
    "desk": 23812,
    "Ġallow": 1126,
    "Ġharpooneer": 3775,
    "disgrace": 16459,
    "Ġpoignant": 22597,
    "ru": 479,
    "Ġamerican": 5061,
    "Ġvoluntary": 14801,
    "Ġhans": 12631,
    "Ġmam": 8407,
    "Ġmilliner": 19886,
    "mal": 6795,
    "deacon": 22152,
    "Ġdecreases": 3411,
    "charlotte": 6474,
    "ech": 4392,
    "Ġlunging": 24994,
    "abouts": 9455,
    "pal": 9618,
    "Ġconsecut": 18114,
    "Ġunsc": 22017,
    "Ġrnns": 2398,
    "ubbub": 23245,
    "activity": 22636,
    "ience": 810,
    "K": 47,
    "Ġfamed": 16329,
    "Ġfreshly": 23995,
    "rd": 17650,
    "crazy": 24692,
    "ulate": 5233,
    "season": 14035,
    "Ġrug": 16160,
    "Ġblasphemer": 26117,
    "Ġinsanity": 12050,
    "ries": 3355,
    "Ġamazement": 7766,
    "Ġexpon": 965,
    "charming": 15709,
    "Ġarm": 2490,
    "Ġloathsome": 13528,
    "mess": 13754,
    "station": 10845,
    "agement": 4189,
    "Ġdevelopment": 7064,
    "lit": 9607,
    "Ġsummits": 14684,
    "velled": 9878,
    "Ġjoker": 22303,
    "Ġezek": 18012,
    "Ġinsignific": 13183,
    "disaster": 23495,
    "founded": 16715,
    "Ġwrapping": 19778,
    "fifty": 12356,
    "ancient": 9657,
    "igantic": 5538,
    "bol": 8721,
    "Ġtails": 9904,
    "Ġdevouring": 11863,
    "arrow": 4180,
    "gall": 6361,
    "Ġwhir": 6394,
    "fatality": 25022,
    "bitt": 17487,
    "Ġarrowy": 25470,
    "Ġgiver": 21609,
    "Ġtransformer": 2634,
    "Ġcomplexion": 8212,
    "Ġdiminishing": 4210,
    "icate": 9204,
    "Ġjupiter": 17458,
    "gentle": 5357,
    "Ġcleansed": 26295,
    "Ġblessing": 11264,
    "accompl": 9882,
    "hardly": 6492,
    "whalemen": 10432,
    "able": 451,
    "Ġtho": 21518,
    "Ġexasperated": 11413,
    "Ġwrecked": 9968,
    "appl": 9329,
    "Ġunacquainted": 12781,
    "Ġkrus": 18350,
    "Ġilliterate": 26595,
    "crew": 7544,
    "Ġcontemplated": 13465,
    "Ġperilous": 7770,
    "profitable": 17071,
    "Ġsolely": 9912,
    "tee": 16175,
    "impressed": 12696,
    "march": 13756,
    "Ġsort": 1507,
    "Ġebb": 21626,
    "dening": 22783,
    "Ġpear": 11855,
    "Ġdeliberately": 10626,
    "Ġdistraction": 22511,
    "net": 1195,
    "Ġbulb": 23858,
    "bohemia": 20733,
    "silly": 24421,
    "¡": 99,
    "Ġenabling": 1081,
    "Ġsquat": 14368,
    "Ġpiercing": 13494,
    "etime": 12664,
    "leaving": 10792,
    "bound": 6222,
    "hies": 17561,
    "Ġagonies": 14253,
    "Ġsteam": 9356,
    "unusually": 15783,
    "momentum": 4991,
    "secret": 12240,
    "humoured": 11238,
    "Ġtrains": 10948,
    "Ġdate": 7842,
    "Ġscreamed": 9526,
    "Ġprofessors": 14728,
    "emph": 21931,
    "Ġcrack": 7711,
    "Ġsunk": 5752,
    "Ġmoodily": 19837,
    "Ġdumb": 7844,
    "itten": 3444,
    "Ġbatch": 887,
    "Ġsmiling": 5474,
    "Ġtable": 2497,
    "Ġjudge": 5502,
    "Ġcapstan": 9102,
    "roof": 17956,
    "Ġwaits": 23282,
    "Ġhouse": 1502,
    "Ġsembl": 19058,
    "ĠmanÅĵuv": 18418,
    "extra": 8220,
    "commer": 22797,
    "Ġmassive": 9934,
    "ay": 355,
    "arks": 2841,
    "Ġvapor": 8703,
    "deemed": 18317,
    "agos": 21909,
    "Ġirresolute": 24917,
    "mortal": 10114,
    "conced": 22473,
    "thine": 15827,
    "Ġuncompromised": 20606,
    "Ġrepent": 9865,
    "Ġsealed": 15818,
    "Ġnormal": 1203,
    "Ġindulging": 16905,
    "Ġruinous": 24635,
    "Ġinsertion": 26345,
    "Ġmyster": 5928,
    "Ġequilib": 4136,
    "disapprobation": 19159,
    "struck": 7864,
    "Ġcryst": 9919,
    "Ġladder": 8602,
    "Ġsits": 10769,
    "Ġeffected": 14360,
    "Ġdeformity": 11678,
    "Ġadvised": 16213,
    "Ġresource": 10994,
    "perishing": 22187,
    "rot": 21536,
    "Ġmultitude": 9328,
    "combination": 25486,
    "Ġsho": 2246,
    "mor": 4216,
    "Ġxlvi": 25591,
    "Ġhuddled": 20302,
    "Ġflip": 11915,
    "Ġgardiner": 3237,
    "Ġinserted": 8357,
    "Ġcomplied": 14737,
    "Ġfailing": 12141,
    "Ġthou": 1808,
    "Ġdesol": 6881,
    "oing": 15403,
    "Ġsob": 12789,
    "och": 21003,
    "Ġreigning": 15704,
    "Ġhanover": 20589,
    "manner": 6172,
    "devoted": 20020,
    "Ġsaints": 20677,
    "hr": 20890,
    "Ġrephrased": 26478,
    "Ġrecognition": 3098,
    "Ġmonotonous": 13264,
    "braid": 17496,
    "gus": 13726,
    "Ġgallantry": 15106,
    "Ġbakers": 17868,
    "soled": 14330,
    "brÃ¦": 11176,
    "Ġminuteness": 19140,
    "Ġmagnetic": 17242,
    "whip": 22242,
    "Ġmead": 8839,
    "Ġbaptized": 25775,
    "Ġclenched": 14205,
    "itz": 6008,
    "Ġwrit": 8243,
    "Ġrem": 953,
    "hamed": 6307,
    "Ġinde": 7371,
    "Ġaged": 10323,
    "Ġstayed": 7999,
    "Ġnineveh": 13390,
    "east": 9118,
    "Ġcondemn": 13445,
    "ty": 997,
    "grie": 12474,
    "Ġevermore": 18813,
    "Ġult": 9077,
    "rane": 17654,
    "Ġwinged": 16996,
    "Ġinert": 15625,
    "condite": 23249,
    "Ġquivering": 12863,
    "Ġlegible": 23535,
    "Ġinwards": 15624,
    "then": 2052,
    "Ġdistant": 5387,
    "Ġeluded": 12926,
    "Ġsuffer": 4723,
    "grey": 14914,
    "different": 6502,
    "Ġconnection": 5479,
    "aut": 1913,
    "Ġoutfits": 22326,
    "experienced": 15124,
    "Ġezekiel": 26194,
    "lingering": 18602,
    "Ġdeposed": 16089,
    "Ġpicture": 4858,
    "Ġconstables": 19071,
    "wise": 2573,
    "oundering": 11745,
    "Ġplant": 8902,
    "Ġest": 2267,
    "Ġcharged": 9856,
    "intelligence": 5885,
    "Ġtarts": 10754,
    "Ġfad": 17878,
    "ira": 3958,
    "Ġpaddington": 17095,
    "Ġphren": 8575,
    "Ġindelicacy": 25696,
    "Ġpartiality": 9401,
    "Ġgraph": 10903,
    "delight": 5345,
    "Ġblunt": 11897,
    "irresistible": 18174,
    "Ġformidable": 8222,
    "Ġ]": 15461,
    "Ġcaptain": 1601,
    "Ġpreserving": 19799,
    "Ġwaggish": 25435,
    "independent": 26022,
    "single": 10128,
    "Ġbackbones": 22656,
    "Ġliable": 14230,
    "inhabited": 13621,
    "chambers": 25455,
    "Ġmisty": 16541,
    "û": 188,
    "lot": 3207,
    "ellect": 7381,
    "Ġgallon": 24186,
    "Ġpaul": 12065,
    "Ġcomical": 11680,
    "Ġuneasy": 8665,
    "Ġreynolds": 10211,
    "Ġdramatic": 4852,
    "Ġorph": 9719,
    "humanity": 24840,
    "Ġ17": 5740,
    "Ġdirty": 9181,
    "ily": 1033,
    "erred": 6377,
    "Ġnavigation": 9995,
    "Ġticking": 25036,
    "rices": 4561,
    "collected": 13214,
    "Ġimm": 3965,
    "ctuous": 9208,
    "Ġsmoky": 22563,
    "traces": 24335,
    "orte": 14186,
    "Ġdeceitful": 25733,
    "comfortably": 16876,
    "Ġgardeners": 12124,
    "iii": 14779,
    "Ġdiligent": 25078,
    "Ġmazes": 25941,
    "sander": 11528,
    "Ġcusack": 26434,
    "Ġreach": 4046,
    "Ġinject": 2706,
    "v": 90,
    "Ġclassical": 22634,
    "Ġergo": 25032,
    "iance": 5280,
    "rate": 2425,
    "Ġhind": 9191,
    "plans": 21963,
    "bergs": 18696,
    "Ġrepairs": 19085,
    "oga": 22699,
    "slo": 17657,
    "Ġcoun": 4178,
    "eding": 7166,
    "ds": 4689,
    "Ġsque": 18759,
    "Ġsilently": 6894,
    "Ġindiscriminately": 20630,
    "Ġtart": 12532,
    "Ġbeach": 6543,
    "Ġmisunderstood": 18710,
    "Ġirregular": 9867,
    "quid": 18149,
    "Ġwrapped": 8343,
    "phantoms": 24680,
    "Ġiroqu": 21628,
    "dled": 9114,
    "Ġleaving": 3905,
    "Ġglit": 8563,
    "Ġsanely": 24985,
    "chiefly": 14848,
    "Ġactual": 3742,
    "Ġeffectual": 18734,
    "Ġkitchen": 8498,
    "Ġspitzbergen": 15290,
    "affa": 23779,
    "Ġaltern": 7394,
    "counters": 25398,
    "Ġtypewritten": 16424,
    "Ġtarpaul": 17731,
    "firmly": 20283,
    "breath": 15165,
    "Ġrejected": 12297,
    "limin": 8385,
    "nantucket": 7805,
    "ethe": 9678,
    "Ġfit": 3689,
    "questions": 16761,
    "Ġramad": 8531,
    "aviour": 11005,
    "Ġunsavory": 20709,
    "Ġloom": 7629,
    "Ġsmote": 18575,
    "Ġbeard": 11657,
    "smart": 23910,
    "fac": 17542,
    "Ġecl": 18008,
    "2": 22,
    "Ġweeks": 4567,
    "Ġgather": 6536,
    "Ġevenly": 4129,
    "Ġtent": 15469,
    "Ġphysiognomically": 25613,
    "Ġprank": 23221,
    "Ġbrooks": 25701,
    "Ġern": 8398,
    "asters": 8436,
    "Ġcontrolled": 23253,
    "Ġindefinite": 17178,
    "Ġdying": 2136,
    "Ġdrag": 6186,
    "Ġavoided": 13259,
    "Ġtweed": 22681,
    "Ġjav": 7904,
    "fitters": 24760,
    "lik": 3916,
    "dogs": 25403,
    "Ġinvisible": 7327,
    "Ġvision": 1438,
    "Ġsol": 1105,
    "Ġwhal": 5454,
    "rie": 2784,
    "isite": 15566,
    "Ġlock": 5930,
    "cares": 24310,
    "Ġtea": 5041,
    "Ġmuffled": 10642,
    "int": 1199,
    "rove": 21537,
    "Ġtong": 4871,
    "din": 8375,
    "Ġplunging": 14954,
    "Ġwhoever": 10976,
    "Ġsmokes": 22564,
    "Ġdiscu": 4366,
    "anations": 12581,
    "Ġdigesting": 19812,
    "Ġmarine": 23039,
    "Ġdecreasing": 2445,
    "Ġ0": 1905,
    "Ġdisconnected": 22530,
    "Ġeluc": 16112,
    "Ġlandsc": 11147,
    "Ġsluggish": 25891,
    "Ġthoughtfulness": 18775,
    "Ġreflections": 5949,
    "Ġkick": 5838,
    "ounced": 4954,
    "thesize": 24907,
    "spersed": 22731,
    "liness": 8750,
    "Ġbreeding": 14521,
    "Ġpercept": 14224,
    "Ġride": 12763,
    "virt": 15453,
    "Ġpreventing": 883,
[...]
