{
  "metadata": {
    "vocab_size": 26616,
    "algorithm": "BPE",
    "created_at": "2026-06-22 07:22:16",
    "special_tokens": [
      "<PAD>",
      "<SOS>",
      "<EOS>",
      "<UNK>",
      "<MASK>"
    ]
  },
  "vocab": {
    "Ġshoals": 13138,
    "Ġsemblance": 20736,
    "Ġrevived": 11370,
    "Ġreward": 6145,
    "Ġheaven": 3365,
    "Ġretribution": 16284,
    "bott": 9109,
    "Ġprincip": 5600,
    "riety": 12748,
    "mber": 7803,
    "Ġduplicity": 25332,
    "Ġpenalties": 10414,
    "onious": 15521,
    "Ġscore": 9741,
    "mblies": 24609,
    "Ġoccupations": 9461,
    "burnt": 20083,
    "Ġhud": 10824,
    "mut": 17597,
    "Ġbeef": 6829,
    "Ġindef": 9192,
    "ruction": 4358,
    "Ġconsecrated": 26490,
    "shri": 14237,
    "Ġcomplimented": 14907,
    "Ġcrescentic": 20624,
    "educ": 10830,
    "Ġconfiding": 19039,
    "Ġconfluent": 19041,
    "br": 2477,
    "bedroom": 14701,
    "Ġbehalf": 14508,
    "Ġbreckinridge": 14523,
    "Ġreturned": 2888,
    "Ġarrangement": 2654,
    "Ġclamorous": 24910,
    "Ġpain": 2303,
    "furthermore": 20007,
    "Ġuncles": 23434,
    "Ġawed": 23587,
    "Ġacquaint": 13050,
    "retired": 11941,
    "struck": 7862,
    "Ġdesigned": 7740,
    "Ġremonstrate": 22797,
    "Ġmason": 10160,
    "jack": 7343,
    "Ġsmelling": 16070,
    "ssing": 3809,
    "Ġrampart": 20321,
    "ppered": 15795,
    "hence": 16627,
    "ne": 646,
    "Ġricher": 12764,
    "Ġadorn": 12797,
    "Ġfishermen": 5971,
    "Ġtranslations": 12056,
    "pips": 21022,
    "Ġexal": 10879,
    "Ġauthors": 10419,
    "unhesitatingly": 26498,
    "ters": 1572,
    "Ġsagacity": 16976,
    "Ġpractice": 2971,
    "iger": 8448,
    "reading": 12085,
    "Ġpsychology": 11450,
    "Ġclapham": 17268,
    "usoid": 4768,
    "per": 478,
    "petulance": 24301,
    "thur": 7187,
    "confirmation": 26090,
    "cock": 12031,
    "anxiety": 25159,
    "perth": 22180,
    "Ġchace": 14181,
    "jac": 8382,
    "Ġmetropolis": 17277,
    "Ġsympathised": 14865,
    "Ġdecanter": 22448,
    "intelligence": 5883,
    "Ġhorn": 6186,
    "ogy": 22718,
    "Ġtacit": 21177,
    "Ġ1825": 25719,
    "Ġzero": 1203,
    "Ġlovers": 9723,
    "invari": 21187,
    "Ġsed": 10763,
    "Ġnortheast": 23204,
    "leep": 4636,
    "Ġverses": 17064,
    "Ġcoverage": 4288,
    "mouse": 15396,
    "Ġinspection": 14546,
    "Ġtorpor": 25034,
    "H": 44,
    "carb": 20812,
    "gust": 6361,
    "model": 3764,
    "hecy": 21209,
    "urously": 18053,
    "msman": 9273,
    "Ġmonotonically": 3834,
    "bo": 1691,
    "Ġgases": 21605,
    "Ġcomrade": 11682,
    "spending": 18689,
    "Ġbreaking": 6311,
    "erted": 7360,
    "enchanted": 26426,
    "sea": 4764,
    "ĠâĢľâĢĺ_": 25114,
    "Ġprep": 4192,
    "Ġsaid": 577,
    "ibly": 2994,
    "Ġcub": 8415,
    "Ġ12": 5483,
    "Ġjoints": 12040,
    "Ġcontribut": 12864,
    "Ġsubstituting": 26328,
    "Ġdone": 1816,
    "wered": 2686,
    "Ġobtruded": 20724,
    "antic": 1605,
    "istrate": 7405,
    "Ġbrink": 18771,
    "Ġcontextually": 11964,
    "Ġmagnified": 23206,
    "Ġwelcome": 5604,
    "ahawk": 23318,
    "Ġjoin": 4855,
    "Ġflickering": 23018,
    "Ġcompiled": 22574,
    "Ġsensible": 4976,
    "oct": 7553,
    "cable": 20799,
    "Ġprevious": 2090,
    "ront": 15421,
    "devoted": 20020,
    "Ġhumorously": 18778,
    "Ġcovariate": 2351,
    "Ġannum": 24206,
    "refusal": 24735,
    "Ġghosts": 12238,
    "Ġdard": 21425,
    "Ġgould": 17992,
    "Ġyoung": 1506,
    "ry": 807,
    "Ġsword": 6733,
    "Ġlab": 1871,
    "â": 163,
    "Ġexpanding": 25239,
    "Ġtube": 15005,
    "Ġvision": 1638,
    "arm": 1356,
    "Ġpierce": 17037,
    "Ġstre": 2108,
    "Ġtreachery": 15105,
    "Ġoutstanding": 22320,
    "Ġcol": 1058,
    "Ġowning": 18746,
    "Ġrifts": 21982,
    "Ý": 158,
    "Ġregularizer": 2339,
    "Ġmari": 6813,
    "Ġseaman": 8642,
    "number": 10117,
    "Ġleaking": 21734,
    "Ġridiculous": 10631,
    "Ġvaulted": 25171,
    "dost": 14537,
    "loose": 11809,
    "aze": 10078,
    "concealed": 25118,
    "Ġblinds": 8007,
    "Ġ(_": 3735,
    "reposed": 24492,
    "Ġnotions": 14102,
    "Ġchick": 22251,
    "Ġsigns": 2441,
    "Ġrickety": 26508,
    "stretch": 13984,
    "Ġimportance": 4901,
    "Ġforgiveness": 16659,
    "Ġcurled": 8226,
    "Ġcaptive": 14430,
    "quet": 6834,
    "thomas": 18220,
    "Ġoppressively": 25711,
    "Ġadmire": 5264,
    "ĠĠĠĠĠĠĠĠĠĠĠĠĠĠĠĠĠĠĠĠĠĠĠĠĠĠĠĠĠĠĠĠĠĠĠĠĠĠĠĠĠĠĠĠĠĠĠĠ": 7989,
    "thes": 7390,
    "ra": 314,
    "Ġhack": 12761,
    "irited": 15791,
    "bill": 10079,
    "consciousness": 13370,
    "riage": 2124,
    "Ġpaths": 2568,
    "Ġhyp": 3872,
    "Ġnarwhales": 24903,
    "pig": 8756,
    "Ġrummaged": 16912,
    "punctual": 26357,
    "Ġbapt": 13899,
    "sche": 13024,
    "eff": 2534,
    "Ġimpenet": 14222,
    "Ġvalleys": 14922,
    "Ġtruth": 3320,
    "Ġleaf": 15721,
    "vig": 15449,
    "Ġhigh": 931,
    "Ġdecision": 2672,
    "Ġduly": 13355,
    "Ġhealthful": 24061,
    "Ġelevated": 7317,
    "Ġinclu": 1099,
    "Ġruminated": 24600,
    "Ġcopying": 17069,
    "Ġdistrust": 8204,
    "Ġunacquainted": 12780,
    "Ġjost": 23632,
    "unquiet": 21885,
    "assumed": 22312,
    "roc": 9677,
    "Ġproblem": 1271,
    "Ġbeheaded": 11660,
    "Ġchagrin": 20610,
    "allies": 14168,
    "requ": 7148,
    "recognised": 15266,
    "Ġresc": 4508,
    "Ġapology": 8328,
    "Ġcalifornia": 20533,
    "Ġpossibility": 7457,
    "Ġstepfather": 7220,
    "before": 3109,
    "orated": 12597,
    "similar": 13457,
    "league": 17846,
    "missing": 13224,
    "Ġbearing": 5300,
    "Ġberyl": 20493,
    "ordinate": 12879,
    "Ġhunks": 18938,
    "grew": 17557,
    "strike": 14952,
    "Ġbond": 21387,
    "Ġleyden": 21736,
    "Ġarc": 14163,
    "Ġabounding": 12349,
    "Ġrh": 9247,
    "ressed": 3021,
    "dared": 13706,
    "Ġpresented": 5183,
    "Ġdined": 9179,
    "Ġexceptionable": 25504,
    "mitting": 20975,
    "resist": 8276,
    "Ġsoutherly": 23336,
    "177": 20754,
    "Ġlimped": 19183,
    "Ġinvent": 7164,
    "Ġdolphins": 20399,
    "Ġmallet": 17812,
    "Ġdropout": 1560,
    "Ġtackles": 8051,
    "Ġrevenge": 5452,
    "Ġapex": 24342,
    "Ġrelied": 16198,
    "braid": 17497,
    "Ġsisterly": 16307,
    "Ġlandlady": 10424,
    "portuguese": 25414,
    "vable": 10135,
    "scruple": 26046,
    "Ġoozy": 21330,
    "Ġsolace": 16203,
    "Ġbrut": 18769,
    "Ġshrew": 22004,
    "served": 5043,
    "Ġsurmis": 23465,
    "Ġadmits": 23556,
    "blown": 25202,
    "Ġbushes": 16400,
    "lipped": 16220,
    "Ġgrazed": 15837,
    "sof": 17659,
    "Ġdemanding": 16807,
    "solitude": 23298,
    "Ġhereditarily": 25225,
    "Ġneatness": 19935,
    "=": 33,
    "Ġsidel": 9638,
    "apparent": 11043,
    "safie": 20351,
    "Ġcharacter": 2792,
    "Ġ125": 24470,
    "Ġmicha": 17813,
    "Ġplainly": 4383,
    "Ġspeaker": 19150,
    "concern": 6100,
    "barbar": 20241,
    "Ġknown": 1645,
    "Ġfrigate": 13086,
    "sne": 10127,
    "Ġboth": 1657,
    "Ġconfirmed": 11141,
    "Ġwounding": 19589,
    "Ġexclaiming": 13645,
    "Ġapartments": 19617,
    "Ġprinciples": 10014,
    "hammer": 14491,
    "Ġfavour": 3641,
    "deformity": 22150,
    "Ġdrawings": 14725,
    "Ġdisgracing": 26257,
    "amp": 2603,
    "insist": 23067,
    "Ġtribes": 20484,
    "Ġweaken": 21926,
    "Ġgomorrah": 21618,
    "innocence": 15187,
    "Ġbethink": 12384,
    "Ġspade": 9262,
    "mense": 4781,
    "Ġork": 18285,
    "Ġtriumph": 5143,
    "Ġostr": 21328,
    "Ġmates": 4873,
    "su": 790,
    "Ġtheir": 644,
    "Ġcoppers": 22586,
    "Ġfalsely": 20585,
    "tom": 15438,
    "Ġbeck": 14012,
    "Ġsyrian": 18354,
    "Ġforefinger": 16444,
    "Ġexcite": 11971,
    "Ġbackpropagation": 1264,
    "Ġchron": 19441,
    "Ġcourage": 4635,
    "lacing": 17592,
    "miniature": 16767,
    "Ġpreserving": 19799,
    "lude": 6162,
    "Ġfest": 10806,
    "Ġrejoined": 14930,
    "Ġquiver": 16007,
    "https": 11689,
    "Ġflourish": 17163,
    "Ġfidgeted": 25890,
    "Ġslaughtered": 26586,
    "Ġmisfortunes": 7042,
    "Ġoppress": 13176,
    "Ġslighted": 16569,
    "Ġs": 265,
    "Ġdifficult": 3572,
    "nihil": 9853,
    "Ġmagnificence": 20635,
    "Ġentreaties": 9038,
    "generosity": 23789,
    "imp": 3032,
    "Ġopine": 19229,
    "blog": 19842,
    "Ġlabyrinth": 13683,
    "Ġphantoms": 13490,
    "Ġprognost": 15285,
    "Ġserious": 4322,
    "complet": 11385,
    "procure": 23400,
    "Ġgpt": 4351,
    "Ġleagues": 9224,
    "Ġvultures": 25654,
    "complete": 15037,
    "boats": 6205,
    "Ġaback": 22270,
    "eronomy": 15528,
    "Ġvillagers": 19477,
    "security": 26208,
    "terbury": 21828,
    "idge": 14017,
    "wooden": 24588,
    "Ġvesture": 20065,
    "Ġmeridians": 17358,
    "tremendous": 20676,
    "Ġthrone": 12219,
    "ķ": 248,
    "terror": 18131,
    "Ġfrost": 6096,
    "inkling": 16094,
    "Ġwishing": 7830,
    "Ġ114": 24438,
    "looks": 12023,
    "likeness": 19481,
    "Ġmerrily": 23734,
    "Ġpend": 15610,
    "reporting": 24494,
    "Ġmeanings": 18609,
    "Ġstructured": 2969,
    "Ġpropos": 7062,
    "conced": 22472,
    "Ġelimin": 16112,
    "isome": 17850,
    "iness": 1281,
    "opinion": 10986,
    "unbounded": 21889,
    "assembled": 21548,
    "Ġbeheld": 4494,
    "Ġbefall": 8833,
    "Ġvii": 13113,
    "Ġwaylaid": 22875,
    "Ġferocity": 16868,
    "beaten": 20318,
    "cor": 5520,
    "icted": 5937,
    "ssible": 2991,
    "Ġdirected": 5579,
    "details": 19678,
    "ract": 1013,
    "drugg": 20840,
    "Ġoughts": 23904,
    "Ġoce": 3029,
    "Ġjogged": 26238,
    "Ġfamiliarity": 16731,
    "Ġmerits": 13198,
    "ivering": 7697,
    "Ġopp": 2693,
    "Ġweigh": 10896,
    "outh": 2684,
    "Ġspe": 821,
    "Ġundecided": 22048,
    "cen": 17505,
    "Ġgreatest": 4092,
    "Ġaft": 5737,
    "Ġlimbs": 5966,
    "Ġfounder": 17885,
    "cious": 6645,
    "occupation": 15059,
    "commencement": 26350,
    "getting": 12972,
    "Ġfears": 5729,
    "illings": 14145,
    "Ġhiding": 9826,
    "enterprise": 24995,
    "Ġlid": 6983,
    "Ġcarriage": 3950,
    "Ġgermany": 25786,
    "gang": 17555,
    "Ġimpetuously": 20375,
    "Ġhastened": 9007,
    "Ġidiot": 11977,
    "Ġmed": 4178,
    "Ġtheme": 16023,
    "Ġchisel": 20371,
    "Ġtexas": 25923,
    "Ġprophet": 7680,
    "Ġtrunks": 15974,
    "Ġmerchant": 6467,
    "Ġmisanthrop": 22762,
    "embedding": 20360,
    "Ġdissol": 18551,
    "Ġseal": 10257,
    "Ġfurnish": 9022,
    "Ġtig": 13816,
    "knight": 20942,
    "Ġhumbled": 16200,
    "offered": 14519,
    "Ġweeping": 11691,
    "Ġcelebrated": 13598,
    "Ġinterven": 10999,
    "Ġire": 12674,
    "humored": 19456,
    "Ġsynd": 22207,
    "Ġguidance": 9420,
    "idirectional": 2421,
    "Ġinadequate": 17939,
    "Ġheedfulness": 24522,
    "eprints": 12796,
    "Ġquestions": 3971,
    "reat": 616,
    "worked": 19024,
    "Ġfollowed": 1793,
    "Ġpulverize": 23396,
    "Ġfordham": 21780,
    "increased": 20273,
    "Ġbachel": 7158,
    "Ġexig": 21830,
    "orus": 10803,
    ",âĢĶ": 3165,
    "ression": 3405,
    "Ġmoonshine": 19600,
    "Ġtravellers": 11310,
    "extra": 8219,
    "searching": 25106,
    "ails": 6161,
    "Ġupbraiding": 26228,
    "itance": 13871,
    "wait": 11322,
    "ven": 780,
    "Ġassum": 4065,
    "Ġwhittling": 20702,
    "Ġwhites": 21720,
    "Ġri": 3394,
    "Ġabominably": 20069,
    "Ġperil": 5557,
    "Ġmixed": 6974,
    "utored": 15667,
    "swallowed": 14856,
    "Ġclap": 10958,
    "brows": 17499,
    "taking": 5689,
    "Ġadvancing": 6878,
    "Ġchoked": 9267,
    "Ġpious": 11603,
    "Ġprincess": 23227,
    "Ġgayer": 24501,
    "Ġregimentals": 19860,
    "Ġannotations": 25955,
    "rices": 4560,
    "Ġgoodge": 22824,
    "wandered": 20288,
    "oundered": 14167,
    "Ġnarrations": 24352,
    "Ġ95": 19776,
    "Ġvit": 10248,
    "aan": 20766,
    "Ġhire": 21488,
    "Ġproductions": 22949,
    "Ġwrapping": 19778,
    "Ġstuffed": 13413,
    "Ġtwig": 11855,
    "Ġvote": 21951,
    "Ġobsequ": 14323,
    "batross": 9096,
    "(-": 2977,
    "list": 7550,
    "Ġstrange": 2273,
    "drop": 15340,
    "Ġrepeating": 11215,
    "eagerly": 17319,
    "Ġunsupp": 22021,
    "Ġsurp": 9637,
    "Ġstump": 7605,
    "onted": 11570,
    "woman": 5899,
    "astonished": 15035,
    "_âĢĶâĢĻ": 13686,
    "bantering": 25254,
    "Ġlasting": 18792,
    "gments": 12475,
    "ved": 868,
    "Ġbottom": 3674,
    "Ġpudding": 17918,
    "Ġemig": 14524,
    "ess": 410,
    "Ġmeanness": 22602,
    "Ġcitizens": 25440,
    "Q": 53,
    "Ġtumbling": 13828,
    "Ġsoothe": 7404,
    "Ġalleviated": 26205,
    "ardy": 22160,
    "revenge": 13845,
    "Ġprepar": 7897,
    "wanted": 10745,
    "uding": 16152,
    "domestic": 19828,
    "snow": 10726,
    "Ġpeeling": 22695,
    "zors": 21150,
    "Ġintens": 7003,
    "depart": 12271,
    "Ġunbelief": 22049,
    "ago": 14068,
    "Ġwilliam": 3482,
    "Ġphrensy": 25127,
    "richard": 17289,
    "Ġplate": 8902,
    "Ġconveyed": 8335,
    "imag": 6990,
    "Ġwelcomed": 9485,
    "Ġslacked": 25189,
    "peasant": 23113,
    "osen": 6854,
    "Ġthroes": 24575,
    "alled": 5911,
    "Ġuntouched": 16468,
    "benevol": 12232,
    "conquerable": 17402,
    "confidence": 16810,
    "Ġacquiesced": 25494,
    "Ġ25": 13196,
    "Ġwearily": 18180,
    "often": 6166,
    "jee": 17581,
    "Ġwaifing": 25244,
    "Ġthou": 1808,
    "pract": 10122,
    "mastod": 23977,
    "tails": 21089,
    "ester": 11602,
    "tle": 2410,
    "Ġpsych": 10179,
    "Ġhog": 13927,
    "Ġindirectly": 8942,
    "unte": 21877,
    "Ġragged": 11851,
    "Ġjer": 6267,
    "chose": 18043,
    "r": 86,
    "Ġ79": 24267,
    "Ġathirst": 20601,
    "Ġirksome": 13116,
    "Ġtou": 15469,
    "odiac": 14035,
    "Ġreserve": 9974,
    "eryton": 4093,
    "Ġinside": 5448,
    "Ġantagonist": 26330,
    "grace": 5847,
    "plumed": 21965,
    "ie": 729,
    "mish": 17600,
    "Ġsnoring": 23742,
    "Ġtime": 688,
    "ils": 3178,
    "Ġimpelling": 22389,
    "Ġseverest": 14093,
    "Ġqueens": 16705,
    "rossing": 18641,
    "olstadt": 7788,
    "Ġprofoundly": 16861,
    "Ġreduced": 11929,
    "calmly": 20142,
    "Ġbreaks": 13187,
    "Ġbland": 11066,
    "Ġdoctor": 5067,
    "Ġalle": 11670,
    "itigated": 23048,
    "Ġfields": 2143,
    "Ġmanoir": 22335,
    "moments": 19415,
    "Ġbigger": 19764,
    "Ġcrammed": 16473,
    "Ġcashier": 20201,
    "reference": 13843,
    "Ġadversity": 24305,
    "prehensible": 12365,
    "Ġgratitude": 5599,
    "Ġunfor": 15843,
    "Ġemploying": 23981,
    "Ġsentinel": 26066,
    "Ġcologne": 12980,
    "pers": 4337,
    "retrospect": 23142,
    "Ġnuptials": 20497,
    "prof": 7698,
    "Ġimplies": 24874,
    "Ġceler": 15555,
    "Ġgoodness": 6059,
    "aths": 22702,
    "Ġringbolts": 24199,
    "bidden": 19740,
    "Ġbehold": 5049,
    "Ġrace": 5848,
    "Ġwork": 1303,
    "Ġimbedded": 18334,
    "ulate": 5233,
    "acency": 12913,
    "Ġstone": 4647,
    "Ġwhip": 8453,
    "Ġinboard": 17935,
    "ock": 15405,
    "anges": 1675,
    "Ġfoundation": 4232,
    "Ġper": 587,
    "fleet": 15016,
    "ailed": 3246,
    "Ġsaints": 20677,
    "paid": 15417,
    "ancholy": 5070,
    "Ġebony": 18011,
    "Ġgathers": 24742,
    "Ġninety": 13605,
    "bestowed": 12231,
    "Ġalacrity": 15741,
    "Ġfearlessness": 19163,
    "yond": 2330,
    "ucumber": 19058,
    "ashes": 6016,
    "Ġhoard": 23355,
    "Ġenabling": 1080,
    "Ġwrest": 11574,
    "Ġobliv": 16137,
    "Ġcarving": 14446,
    "nals": 16399,
    "Ġeffectual": 18728,
    "Ġnorm": 762,
    "light": 3015,
    "Ġtrembled": 8705,
    "Ġlist": 2366,
    "Ġflash": 8230,
    "Ġfol": 1287,
    "ains": 5094,
    "shoulder": 16586,
    "impulse": 20647,
    "landsmen": 25062,
    "ready": 2361,
    "Ġwhalebone": 10979,
    "carrying": 16714,
    "Ġharpooning": 23982,
    "Ġcheshire": 13094,
    "Ġcalms": 23044,
    "Ġevangel": 11282,
    "Ġsnarled": 25715,
    "Ġcusack": 26435,
    "Ġrecording": 24434,
    "Ġexceptional": 19374,
    "lengths": 24847,
    "Ġpropontis": 17468,
    "travel": 24337,
    "deprived": 19900,
    "Ġoh": 2179,
    "Ġunc": 2125,
    "Ġserves": 4670,
    "Ġbutt": 14128,
    "Ġstumped": 24945,
    "Ġoffered": 5817,
    "Ġdirest": 22708,
    "Ġintrig": 21994,
    "Ġbubble": 13538,
    "converse": 22477,
    "Ġcolumb": 22861,
    "lively": 12490,
    "vishnoo": 21122,
    "Ġthem": 640,
    "Ġcorner": 4372,
    "condescended": 26250,
    "Ġcho": 4548,
    "camp": 15333,
    "Ġreminisc": 18726,
    "Ġexposed": 8524,
    "Ġreiterating": 26476,
    "Ġobligations": 12098,
    "necessarily": 19634,
    "architect": 22886,
    "riot": 18186,
    "formed": 2553,
    "Ġperennial": 22697,
    "Ġpractices": 19072,
    "romeda": 17265,
    "regards": 23468,
    "Ġknowingly": 18481,
    "culine": 19063,
    "bil": 20773,
    "Ġhawaiian": 25367,
    "Ġgeological": 14535,
    "Ġinvaders": 23482,
    "Ġschemes": 11133,
    "add": 5229,
    "retched": 3065,
    "Ġwh": 328,
    "uniform": 18160,
    "hello": 13368,
    "angs": 5835,
    "Ġfinny": 23129,
    "Ġjewelled": 20186,
    "leag": 21369,
    "Ġsalad": 19482,
    "twist": 23704,
    "hess": 4748,
    "Ġczar": 12580,
    "Ġtranscend": 25668,
    "dart": 20828,
    "Ġprepare": 8650,
    "Ġallusion": 7625,
    "lings": 8749,
    "Ġstarry": 16925,
    "Ġslammed": 20451,
    "Ġuncontrollable": 25815,
    "Ġdisposed": 7084,
    "Ġdescried": 7919,
    "Ġsmith": 16068,
    "Ġ]": 15462,
    "Ġscre": 9740,
    "arial": 5532,
    "Ġtorment": 8677,
    "Ġarthur": 7195,
    "Ġrapturously": 24889,
    "Ġalche": 21787,
    "buffalo": 20566,
    "afer": 17484,
    "Ġhish": 21917,
    "bern": 20777,
    "ifted": 4496,
    "Ġjungfrau": 15252,
    "Ġghostly": 24651,
    "freely": 16856,
    "Ġovers": 14208,
    "Ġborn": 5224,
    "Ġwavering": 23282,
    "mme": 22504,
    "Ġclasping": 20212,
    "inions": 8403,
    "Ġdrily": 23542,
    "flagged": 23975,
    "Ġclean": 5652,
    "Ġwilderness": 14843,
    "Ġtrunk": 7204,
    "Ġpipe": 4321,
    "Ġdust": 5909,
    "critical": 19499,
    "highest": 20411,
    "Ġshelter": 17010,
    "Ġbraw": 23838,
    "Åĵ": 10746,
    "Ġabruptness": 25300,
    "Ġinsanity": 12051,
    "been": 3344,
    "ulence": 15770,
    "Ġabstra": 22275,
    "Ġrusty": 14967,
    "unk": 4540,
    "note": 14345,
    "Ġtangle": 25761,
    "Ġclust": 9277,
    "Ġuncivil": 11157,
    "Ġdressed": 5081,
    "yours": 7694,
    "Ġsweat": 13144,
    "Ġeach": 890,
    "offic": 7465,
    "Ġdata": 519,
    "ringle": 21043,
    "Ġcomparing": 14267,
    "Ġprinted": 11954,
    "itten": 3439,
    "Ġbroken": 3446,
    "search": 8466,
    "exercise": 17462,
    "ifting": 6546,
    "arrival": 15604,
    "Ġsurmisings": 26595,
    "Ġinput": 610,
    "Ġbeckoned": 25794,
    "Ġvanished": 6873,
    "Ġscept": 15506,
    "iful": 2879,
    "request": 21244,
    "Ġrings": 11706,
    "ram": 13975,
    "lo": 681,
    "Ġamiss": 18510,
    "itute": 9654,
    "Ġthroats": 24576,
    "native": 17613,
    "Ġthinking": 4031,
    "Ġdiscompose": 25580,
    "Ġcorresponding": 13442,
    "Ġskylarking": 19490,
    "Ġpark": 5465,
    "Ġpike": 12628,
    "Ġhurtling": 24960,
    "bedded": 12448,
    "Ġdan": 8797,
    "Ġsquad": 22838,
    "Ġowl": 20087,
    "Ġmatches": 14399,
    "15": 12435,
    "imper": 14000,
    "Ġdazz": 11597,
    "Ġbrowne": 13306,
    "Ġdisappointed": 7098,
    "Ġyielding": 12192,
    "Ġfewer": 16228,
    "Ġsoc": 3526,
    "olic": 14045,
    "Ġwithdrawing": 11342,
    "Ġrestored": 7067,
    "Ġmerely": 3770,
    "Ġtwisting": 18659,
    "Ġmoored": 11797,
    "Ġspouting": 9442,
    "Ġballasted": 23983,
    "iocr": 20925,
    "squee": 15433,
    "ber": 884,
    "mody": 16185,
    "Ġmouldings": 24736,
    "Ġrelations": 5853,
    "Ġgro": 4398,
    "willingly": 11988,
    "Ġtapped": 11556,
    "Ġunremitting": 26219,
    "Ġcases": 3960,
    "greatest": 10496,
    "Ġpangs": 15619,
    "Ġbouton": 17870,
    "Ġsenior": 17174,
    "\",": 10681,
    "Ġalbert": 12711,
    "ensity": 11818,
    "northern": 23666,
    "Ġdoublo": 6078,
    "Ġgeneva": 5450,
    "Ġorgan": 2501,
    "revol": 12546,
    "pread": 7417,
    "Ġregression": 4411,
    "Ġimpaling": 22387,
    "fail": 17542,
    "ateur": 22075,
    "flame": 16640,
    "bal": 2159,
    "Ġcaval": 25770,
    "Ġlooks": 4166,
    "Ġgrasshopper": 24380,
    "Ġnuptial": 25783,
    "Ġpoor": 1709,
    "Ġamber": 7026,
    "Ġ61": 24364,
    "robust": 19731,
    "Ġtravel": 5953,
    "Ġap": 5008,
    "Ġloveliness": 13612,
    "Ġpawn": 12068,
    "Ġassault": 9840,
    "gg": 1994,
    "Y": 61,
    "Ġtestified": 16329,
    "Ġtarts": 10755,
    "oured": 2668,
    "eli": 3873,
    "Ġpebbles": 16133,
    "Ġmyself": 1454,
    "chant": 4259,
    "ropes": 7903,
    "Ġpaltry": 16693,
    "Ġkindliness": 23296,
    "Ġdoesn": 7437,
    "persuasion": 20047,
    "heads": 4094,
    "oker": 10965,
    "aciousness": 18608,
    "Ġreven": 18031,
    "_": 67,
    "Ġcheat": 19019,
    "irst": 879,
    "Ġpastures": 23423,
    "Ġgradu": 15836,
    "sprit": 11384,
    "Ġtrees": 4203,
    "Ġheire": 18039,
    "Ġconse": 21808,
    "Ġyale": 21783,
    "Ġpartaking": 22700,
    "Ġmultiplied": 23693,
    "Ġraises": 11850,
    "uncont": 15778,
    "Ġcrush": 9425,
    "crowded": 20193,
    "Ġresidual": 1679,
    "iply": 22362,
    "pulling": 25149,
    "Ġcorrid": 9827,
    "Ġconstrained": 19242,
    "Ġdece": 6996,
    "_?âĢĿ": 15309,
    "ocratic": 17247,
    "Ġearthly": 7990,
    "Ġcommentaries": 20163,
    "oubted": 5860,
    "Ġdenny": 9004,
    "Ġbrains": 2627,
    "Ġrekindled": 21680,
    "painted": 17641,
    "Ġsurveying": 25326,
    "Ġincessantly": 11413,
    "Ġhunsford": 6302,
    "oors": 17622,
    "Ġhabitations": 24788,
    "naturedly": 24841,
    "Ġmott": 17805,
    "Ġhackney": 20436,
    "Ġhowled": 12860,
    "iated": 5890,
    "Ġcommodores": 25375,
    "Ġconcept": 670,
    "Ġpoured": 8805,
    "Ġgest": 8134,
    "Ġicicles": 25265,
    "contemplated": 20461,
    "Ġtufted": 17016,
    "Ġissues": 9545,
    "](": 11468,
    "justice": 7958,
    "ricade": 13043,
    "dist": 4482,
    "direct": 12462,
    "Ġfolk": 10378,
    "appears": 12065,
    "Ġhorner": 8961,
    "willing": 6593,
    "Ġlatest": 16824,
    "Ġdemon": 7869,
    "pl": 402,
    "Ġcomb": 1050,
    "anely": 17838,
    "Ġcircumference": 13548,
    "ards": 2503,
    "Ġscrut": 15950,
    "Ġquantity": 6947,
    "Ġheart": 1593,
    "friendly": 13289,
    "Ġarch": 933,
    "Ġquebec": 24135,
    "Ġdig": 6136,
    "Ġscolded": 25473,
    "boscombe": 26122,
    "Ġhaunts": 18199,
    "activation": 3230,
    "cordiality": 25140,
    "respond": 12550,
    "ouring": 6420,
    "Ġmoss": 9287,
    "Ġgo": 615,
    "dawson": 26129,
    "jub": 20931,
    "Ġguernsey": 9354,
    "Ġdifficulties": 11227,
    "Ġchanging": 11758,
    "pure": 17628,
    "omely": 21642,
    "Ġperfume": 25666,
    "infliction": 25925,
    "Ġchains": 8251,
    "Ġmislead": 22760,
    "Ġton": 15467,
    "sides": 12513,
    "Ġpants": 21468,
    "Ġhoney": 12637,
    "Ġgathering": 14981,
    "Ġbrotherhood": 23669,
    "abular": 4763,
    "Ġshoot": 11163,
    "Ġberg": 24536,
    "L": 48,
    "Ġaz": 9632,
    "Ġmau": 21313,
    "alth": 3254,
    "pul": 8757,
    "gardiner": 12296,
    "heartedness": 24825,
    "Ġgossip": 18472,
    "ength": 2314,
    "Ġform": 1022,
    "Ġconfirming": 25322,
    "Ġobvious": 4964,
    "af": 2378,
    "Ġattendant": 11287,
    "Ġhelmeted": 19691,
    "Ġinfatuation": 25857,
    "Ġshaft": 18230,
    "Ġnewton": 3533,
    "Ġrealise": 16340,
    "balanced": 14558,
    "mother": 5480,
    "ternatural": 12720,
    "Ġshrinking": 14808,
    "ython": 1030,
    "talking": 10010,
    "Ġenergies": 25460,
    "unning": 4495,
    "Ġharriet": 24573,
    "Ġcoer": 22582,
    "Ġdeploy": 2990,
    "Ġgaunt": 11270,
    "Ġmusty": 22683,
    "Ġvarying": 15814,
    "Ġdefy": 11902,
    "Ġpurchas": 19876,
    "oried": 10804,
    "Ġpianoforte": 15277,
    "Ġof": 298,
    "Ġbeaut": 2394,
    "cav": 17510,
    "france": 24284,
    "Ġfrancisco": 26065,
    "altogether": 12644,
    "Ġwings": 9166,
    "Ġnatural": 1125,
    "Ġthrusts": 24350,
    "Ġbutchers": 18273,
    "Ġfestival": 25446,
    "ĥ": 230,
    "Ġsqualls": 17022,
    "Ġtickled": 20060,
    "Ġpirates": 9076,
    "Ġsurprised": 3830,
    "Ġdispute": 16059,
    "Ġjenkinson": 11433,
    "Ġhoof": 23356,
    "awe": 20767,
    "anatory": 21366,
    "Ġupwards": 7633,
    "Ġvacant": 9498,
    "Ġunsuccessful": 18255,
    "Ġdiscussing": 5202,
    "Ġthumb": 6981,
    "Ġgenerally": 4158,
    "batch": 1981,
    "Ġchapter": 2951,
    "Ġsad": 3867,
    "Ġendeared": 26500,
    "Ģ": 227,
    "Ġindulgence": 11321,
    "Ġcolt": 11045,
    "chery": 24551,
    "Ġplied": 22603,
    "Ġconqueror": 25797,
    "appalling": 22846,
    "Ġtogether": 1878,
    "Ġhelter": 24028,
    "Ġstalked": 20432,
    "Ġlordly": 23746,
    "atics": 15526,
    "itable": 5437,
    "growing": 13736,
    "superst": 11327,
    "Ġdiadem": 24740,
    "Ġbusily": 9387,
    "Ġdisinterested": 16060,
    "Ġtistig": 26415,
    "py": 17626,
    "Ġhunt": 6184,
    "ancial": 21365,
    "Ġusually": 6264,
    "hib": 15371,
    "Ġstore": 8455,
    "end": 501,
    "contains": 16035,
    "Ġchaps": 14182,
    "Ġindepend": 3668,
    "Ġmouthful": 16577,
    "Ġthen": 663,
    "grave": 16098,
    "Ġindul": 5857,
    "swells": 26149,
    "Ġbillow": 14784,
    "Ġsphy": 18312,
    "lighter": 20961,
    "Ġmorsel": 20680,
    "Ġpall": 7582,
    "Ġgambler": 26192,
    "astic": 1868,
    "dri": 5888,
    "Ġworry": 18817,
    "Ġconstant": 6310,
    "teness": 23207,
    "Ġcommunications": 16357,
    "Ġrans": 21973,
    "leaned": 21372,
    "Ġ94": 17719,
    "Ĺ": 250,
    "Ġladen": 19179,
    "ĠâĢľâĢĺ": 8505,
    "ego": 4036,
    "Ġsolely": 9913,
    "Ġanalysis": 1924,
    "aders": 21762,
    "Ġresolving": 9422,
    "Ġringleader": 26214,
    "Ġenough": 1760,
    "isely": 4490,
    "iors": 9128,
    "science": 11914,
    "hate": 20894,
    "lowering": 16033,
    "Ġswung": 6449,
    "practised": 20250,
    "Ġconduct": 3732,
    "august": 11073,
    "wling": 11547,
    "thodox": 21992,
    "deal": 12804,
    "Ġfreshness": 23991,
    "Ġtrust": 4079,
    "Ġshrubbery": 18233,
    "Ġslumbers": 18945,
    "Ġrespectively": 23250,
    "bewil": 22502,
    "Ġchimney": 6497,
    "Ġaccepted": 7750,
    "Ġswallowed": 7944,
    "attempts": 17193,
    "Ġunscrew": 22040,
    "isite": 15567,
    "afric": 19181,
    "asable": 21544,
    "wretchedness": 17255,
    "flo": 6115,
    ".âĢĶ": 4249,
    "Ġfingers": 5672,
    "Ġunsub": 22023,
    "Ġgasp": 7172,
    "Ġbarque": 23793,
    "Ġmocking": 24006,
    "Ġcringing": 25942,
    "Ġsends": 14793,
    "\":": 9584,
    "Ġreconc": 9686,
    "Ġrabbit": 4289,
    "misery": 13348,
    "complexion": 14364,
    "Ġinstructed": 19286,
    "Ġsp": 457,
    "vapor": 25756,
    "Ġsymptom": 13487,
    "Ġ104": 24412,
    "belled": 24039,
    "Ġquarter": 3975,
    "Ġxi": 16433,
    "Ġdisadvantages": 18558,
    "Ġwalton": 14975,
    "Ġindolence": 16232,
    "Ġlik": 2522,
    "almost": 4943,
    "algorithm": 3833,
    "type": 16177,
    "sa": 8760,
    "Ġwrapped": 8342,
    "Ġsmoked": 10325,
    "mankind": 14377,
    "Ġfeasible": 22214,
    "Ġrecover": 9796,
    "Ġharpo": 1942,
    "Ġremem": 4313,
    "Ġunaccountable": 7886,
    "Ġsymb": 2589,
    "gs": 7337,
    "Ġcanv": 7010,
    "Ġraised": 4662,
    "cro": 13700,
    "Ġpetty": 19598,
    "bring": 9108,
    "burgh": 6773,
    "Ġab": 528,
    "Ġrecalled": 8541,
    "Ġbrix": 12589,
    "Ġbroiled": 18910,
    "Ġye": 901,
    "Ġlancaster": 26342,
    "Ġdigress": 24649,
    "Ġimpressed": 8199,
    "Ġcom": 367,
    "Ġswallow": 8953,
    "Ġwrench": 12563,
    "Ġpreservative": 24630,
    "Ê": 139,
    "Ġrefresh": 10345,
    "Ġclosest": 16765,
    "centre": 17088,
    "Ġprodigies": 19796,
    "Ġcounterpane": 11345,
    "Ġsomething": 1794,
    "yards": 9626,
    "Ġgemin": 21613,
    "Ġspilling": 22141,
    "Ġmug": 21315,
    "eminence": 20102,
    "Ġmodes": 22225,
    "appetite": 22848,
    "Ġdesolated": 24809,
    "Ġremember": 2674,
    "oglyph": 11021,
    "lessness": 5318,
    "Ġsurvive": 9069,
    "ash": 1990,
    "Ġvolition": 14801,
    "Ġnaught": 8128,
    "provided": 13641,
    "Ġhelper": 24029,
    "Ġdeceive": 12727,
    "Ġrambling": 18645,
    "ener": 560,
    "harpo": 4806,
    "Ġawakened": 10455,
    "Ġpride": 3823,
    "Ġcalamities": 25700,
    "Ġinferiority": 17116,
    "Ġhumped": 19772,
    "Ġfortresses": 23623,
    "bethinking": 25746,
    "Ġfelicity": 7259,
    "Ġcrossing": 7252,
    "musket": 25342,
    "Ġknot": 7012,
    "securing": 19816,
    "Ġunlock": 18241,
    "Ġfinger": 5274,
    "married": 9952,
    "Ġprime": 10406,
    "fig": 8738,
    "Ġenvironment": 4102,
    "sli": 11525,
    "clean": 14763,
    "trust": 21081,
    "Ġscand": 7202,
    "Ġtalked": 4422,
    "Ġpatchwork": 24144,
    "unw": 14060,
    "regarding": 15075,
    "pict": 8386,
    "mand": 3894,
    "Ġscorched": 17102,
    "darkness": 9515,
    "Ġwouldst": 18500,
    "A": 37,
    "Ġadmired": 7982,
    "vap": 13806,
    "Ġbeads": 18086,
    "Ġthrown": 4641,
    "opportunity": 12280,
    "Ġdiscount": 22785,
    "Ī": 235,
    "Ġcarted": 21353,
    "Ġchase": 3945,
    "Ġstunsail": 25544,
    "Ġsimulates": 2735,
    "inridge": 11563,
    "Ġlinguistic": 12430,
    "excuse": 13385,
    "formation": 22218,
    "icherry": 15139,
    "Ġsolemnity": 9944,
    "oop": 10717,
    "Ġting": 8399,
    "oes": 4435,
    "violence": 16480,
    "Ġloved": 4600,
    "Ġix": 12673,
    "Ġdiscovers": 4429,
    "Ġbred": 9172,
    "joke": 20932,
    "Ġexe": 3992,
    "Ġsales": 12812,
    "Ġdevelopment": 7065,
    "despond": 19803,
    "Ġhierarchical": 1925,
    "leisure": 21374,
    "ibid": 18842,
    "Ġindirect": 18836,
    "Ġane": 9184,
    "databases": 3022,
    "Ġwarring": 16867,
    "Ġcommonly": 3263,
    ";âĢĿâĢĶ": 20762,
    "au": 777,
    "Ġwherever": 8525,
    "Ġexasper": 8468,
    "Ġreb": 15695,
    "wreck": 21139,
    "ifle": 10893,
    "Ġcriminals": 19924,
    "Ġchurning": 15941,
    "Ġgovern": 10452,
    "exagger": 22432,
    "Ġowned": 11881,
    "Ġsovere": 9259,
    "Ġproficiency": 19195,
    "Ġladyship": 5046,
    "hitherto": 17286,
    "orters": 21404,
    "ician": 21568,
    "Ġachieves": 4381,
    "Ġshowing": 7731,
    "inois": 17740,
    "Ġtwitch": 22679,
    "resolutions": 26165,
    "Ġmists": 14632,
    "Ġdeacon": 18143,
    "slipped": 25530,
    "Ġmemorand": 23408,
    "urous": 10215,
    "necessities": 24308,
    "espe": 3498,
    "Ġenjoyments": 24021,
    "neurons": 3129,
    "Ġmingling": 20200,
    "octavo": 11387,
    "Ġpetticoat": 15299,
    "orphans": 26442,
    "Ġunlo": 22012,
    "grant": 10429,
    "Ġcaptured": 7244,
    "together": 3556,
    ".": 18,
    "least": 8789,
    "Ġgunw": 6213,
    "brad": 20782,
    "sooner": 14781,
    "Ġpersonal": 7478,
    "Ġdeeply": 4718,
    "Ġpress": 5932,
    "Ġmonoman": 7939,
    "Ġsolved": 8934,
    "Ġbrick": 8929,
    "Ġreplacing": 3447,
    "Ġtobacc": 7853,
    "Ġremoval": 12123,
    "iard": 9604,
    "Ġshakespeare": 20310,
    "Ġtoe": 13939,
    "Ġtongs": 9964,
    "Ġexaggerate": 25650,
    "quietly": 10595,
    "cure": 11476,
    "Ġwedged": 24936,
    "Ġmatrices": 4969,
    "ab": 345,
    "Ġrascally": 26509,
    "wis": 12524,
    "Ġaudacious": 13464,
    "Ġgeneralization": 984,
    "Ġhing": 11608,
    "Ġexistence": 4708,
    "Ġindex": 17050,
    "phantoms": 24680,
    "adieu": 26202,
    "Ġrecollect": 8310,
    "Ġsigmoid": 2461,
    "Ġfrenz": 25447,
    "supposed": 13320,
    "repaid": 24491,
    "Ġmistifying": 23722,
    "Ġexhilar": 19686,
    "Ġdesired": 4666,
    "Ġdog": 4193,
    "Ġmor": 1250,
    "Ġat": 395,
    "raint": 18317,
    "cused": 15335,
    "Ġsurm": 7475,
    "Ġbrides": 22868,
    "levi": 7048,
    "anting": 6412,
    "night": 2172,
    "Ġeighty": 19479,
    "moved": 9787,
    "Ġskrimshander": 22801,
    "Ġpal": 4042,
    "Ġdissatisfied": 14259,
    "Ġacquainted": 5179,
    "Ġrecomm": 4996,
    "Ġheadlands": 22900,
    "Ġplutarch": 22609,
    "Ġdragging": 14479,
    "Ġcounty": 9033,
    "stalls": 26475,
    "Ġwearing": 12744,
    "Ġdismasted": 15255,
    "Ġavowed": 16636,
    "Ġrigging": 5601,
    "including": 23592,
    "Ġcharmed": 16764,
    "omet": 3072,
    "Ġwith": 349,
    "kye": 20940,
    "acher": 6867,
    "C": 39,
    "``": 15310,
    "beholding": 16044,
    "Ġcentrally": 23835,
    "seam": 10876,
    "Ġpossesses": 19355,
    "unavoid": 14065,
    "pleas": 3852,
    "Ġgibraltar": 25788,
    "imperturbable": 25791,
    "Ġgenerative": 5644,
    "Ġandromeda": 21511,
    "Ġtremble": 6905,
    "Ġbeams": 14633,
    "Ġresent": 6049,
    "erland": 9643,
    "Ġmistress": 8615,
    "trees": 10733,
    "Ġax": 7822,
    "Ġviolin": 16432,
    "brain": 13691,
    "Ġcomplaint": 24775,
    "previously": 17210,
    ",âĢĿâĢĶ": 14223,
    "conda": 18994,
    "av": 739,
    "anned": 17841,
    "destro": 13314,
    "astrop": 3316,
    "Ġhints": 8431,
    "Ġrevel": 9217,
    "built": 16827,
    "mency": 18928,
    "Ġsch": 13838,
    "ineer": 11704,
    "Ġfling": 9663,
    "rugged": 6848,
    "Ġassembled": 9239,
    "Ġsharp": 2415,
    "Ġcontroverted": 23253,
    "Ġdespised": 14669,
    "march": 13758,
    "cannot": 5745,
    "Ġhowever": 1304,
    "damn": 20027,
    "Ė": 215,
    "Ġresembled": 18036,
    "Ġconcent": 8250,
    "Ġprove": 5231,
    "awned": 19463,
    "ogr": 18678,
    "Ġetc": 7085,
    "Ġadm": 2402,
    "tese": 21086,
    "principle": 10653,
    "Ġconsternation": 9862,
    "Ġhur": 2100,
    "Ġpersonally": 8602,
    "Ġporthole": 24399,
    "examine": 25478,
    "Ġstopped": 5957,
    "Ġplenty": 6709,
    "Ġconsequent": 18113,
    "Ġquarrelling": 13502,
    "following": 10575,
    "Ġdiscuss": 9477,
    "cousins": 20121,
    "polar": 24584,
    "Ġtumble": 16881,
    "decoder": 3644,
    "Ġcandidates": 4334,
    "Ġalterations": 19873,
    "worthy": 7732,
    "Ġmonarchs": 25851,
    "Ġmoderately": 22226,
    "innacle": 7518,
    "Ġelaborate": 18638,
    "Ġthanked": 9462,
    "fil": 12468,
    "--âĢĺ": 22853,
    "Ġtransported": 11281,
    "Ġsnake": 12066,
    "Ġrot": 10969,
    "uously": 7352,
    "mare": 17601,
    "unalterable": 21890,
    "commer": 22825,
    "Ġconnection": 5479,
    "Ġado": 7626,
    "Ġringle": 18213,
    "icity": 2539,
    "Ġunlikely": 10909,
    "ators": 7829,
    "Ġbrag": 23837,
    "arctic": 12615,
    "plexy": 18576,
    "utarch": 15666,
    "nue": 15400,
    "Ġmerchantmen": 19862,
    "Ġhome": 2028,
    "oso": 12835,
    "Ġfing": 3756,
    "Ġinfancy": 10411,
    "Ġrabb": 4164,
    "Ġfries": 21418,
    "Ġtending": 17726,
    "Ġimpotent": 18448,
    "Ġconsummation": 17428,
    "Ġbut": 424,
    "Ġperu": 14224,
    "iosity": 2279,
    "poured": 17639,
    "elect": 20848,
    "fat": 8079,
    "umbs": 14692,
    "gast": 20873,
    "G": 43,
    "Ġtho": 21517,
    "Ġobstacle": 16957,
    "Ġheel": 9687,
    "Ġmatters": 4974,
    "Ġyelled": 9697,
    "Ġrepine": 16409,
    "alterable": 13628,
    "Ġauxiliary": 26420,
    "Ġsolve": 4197,
    "Ġunworthy": 11720,
    "Ġgrow": 2857,
    "judging": 24204,
    "Ġreptile": 15281,
    "Ġannoyed": 17202,
    "Ġbo": 799,
    "Ġvehem": 22892,
    "Ġprecisely": 6466,
    "Ġpersistence": 3134,
    "Ġpigeon": 9519,
    "Ġhun": 1495,
    "Ġbalancing": 2430,
    "Ġinvention": 19956,
    "carriage": 9949,
    "fancy": 7336,
    "Ġextra": 4056,
    "Ġelated": 18635,
    "Ġwickham": 2208,
    "Ġreasons": 6020,
    "Ġgeomet": 3187,
    "Ġenchant": 7184,
    "Ġprehensile": 26536,
    "Ġsmiled": 5941,
    "fore": 686,
    "Ġsallied": 12543,
    "whalebone": 19120,
    "Ġgrope": 17997,
    "Ġstory": 2898,
    "Ġembedd": 1415,
    "rece": 21237,
    "cellar": 20280,
    "Ġmarty": 20293,
    "regularization": 3515,
    "becomes": 22500,
    "Ġfranc": 16354,
    "Ġwitt": 17785,
    "laug": 10709,
    "Ġaltered": 7392,
    "Ġlumps": 21559,
    "attentive": 17192,
    "probable": 17023,
    "Ġpie": 13918,
    "ator": 1920,
    "standing": 5558,
    "Ġmadman": 13155,
    "Ġbackstays": 22665,
    "Ġseriously": 7061,
    "Ġgent": 7382,
    "Ġwomanly": 23553,
    "Ġqueerest": 16418,
    "Ġlandowner": 23384,
    "Ġdistress": 5845,
    "Ġmalacca": 24393,
    "Ġdoors": 6418,
    "Ġdistressed": 8516,
    "Ġclosed": 4605,
    "Ġsixth": 16561,
    "Ġreckoning": 14982,
    "Ġcat": 2122,
    "Ġcentury": 8291,
    "specimen": 26607,
    "holmes": 4432,
    "Ġrugged": 18721,
    "Ġburglar": 17357,
    "Ġcreator": 7253,
    "Ġhot": 4258,
    "shipped": 18492,
    "Ġlayer": 1009,
    "distance": 12158,
    "Ġepid": 18007,
    "spe": 3560,
    "Ġopal": 23627,
    "Ġindestructible": 26574,
    "spiracle": 22736,
    "purse": 20028,
    "Ġnarwhale": 12298,
    "Ġboys": 5194,
    "Ġopposing": 12045,
    "Ġambition": 11434,
    "denial": 18718,
    "Ġtrucks": 19515,
    "Ġcritical": 7473,
    "Ġlub": 15653,
    "henomenon": 13618,
    "Ġdepos": 11007,
    "Ġdoted": 21436,
    "ott": 1872,
    "Ġsho": 2246,
    "Ġthirds": 16710,
    "ulsive": 10236,
    "Ġwaters": 3596,
    "Ġcharacteristic": 12052,
    "Ġpart": 859,
    "Ġcurv": 3511,
    "Ġpushing": 10821,
    "Ġesc": 2253,
    "Ġsympathy": 6347,
    "Ġconstruction": 9388,
    "Ġest": 2265,
    "crippled": 26386,
    "ou": 287,
    "preserver": 20216,
    "vol": 734,
    "indeed": 4489,
    "Ġpret": 3034,
    "mingled": 14716,
    "Ġarrant": 23299,
    "Ġaustrian": 24302,
    "Ġsickening": 19607,
    "Ġpinched": 17036,
    "Ġbadly": 12137,
    "Ġlightning": 5750,
    "Ġstorms": 11264,
    "Ġbiggest": 24567,
    "Ġindebted": 8711,
    "Ġwool": 19436,
    "Ġstumble": 26485,
    "satisf": 5781,
    "Ġruns": 8598,
    "Ġhap": 18196,
    "Ġxviii": 23413,
    "byter": 16217,
    "Ġparticularly": 5056,
    "symp": 14631,
    "sequent": 6830,
    "Ġnineveh": 13393,
    "Ġmonstrous": 7789,
    "Ġoun": 13866,
    "Ġtablets": 13159,
    "odd": 21818,
    "Ġslumbering": 25702,
    "Ġcister": 13885,
    "Ġfrenzy": 13626,
    "Ġcanopy": 18323,
    "Ġethics": 15465,
    "Ġpilgr": 12186,
    "Ġinclosed": 19541,
    "Ġgreek": 10633,
    "alous": 7371,
    "treatment": 20415,
    "garn": 20872,
    "lev": 1234,
    "artificial": 1017,
    "Ġdeceitfulness": 25734,
    "Ġfires": 16474,
    "performances": 26007,
    "ins": 1376,
    "Ġsymbol": 7716,
    "Ġpowder": 11277,
    "Ġbackwards": 12931,
    "forbid": 14357,
    "Ġgriff": 22809,
    "Ġfashion": 4298,
    "Ġstyle": 6945,
    "Ġalgorith": 563,
    "tale": 10130,
    "Ġfatig": 6757,
    "Ġadaptive": 1333,
    "beryls": 25310,
    "aimed": 3952,
    "ple": 455,
    "doom": 23380,
    "Ġratio": 5066,
    "Ġact": 689,
    "Ġsemicircle": 26068,
    "tes": 11531,
    "lighted": 23756,
    "conclude": 24069,
    "moonlight": 25376,
    "Ġcompute": 2902,
    "Ġliberality": 24377,
    "Ġvexation": 10589,
    "somehow": 12017,
    "Ġmovement": 9971,
    "remes": 21240,
    "maul": 11897,
    "Ġfishery": 4175,
    "gladness": 25195,
    "silent": 9977,
    "Ġharness": 17930,
    "Ġrus": 14096,
    "Ġscratching": 20372,
    "Ġintricacies": 15142,
    "Ġstagnant": 24655,
    "letters": 13178,
    "Ġmemorable": 16431,
    "Ġsecuring": 11997,
    "Ġinjuries": 11279,
    "Ġminimize": 7051,
    "iless": 10284,
    "Ġhandspikes": 12943,
    "Ġblankness": 24611,
    "aul": 6353,
    "Ġquant": 6424,
    "Ġturns": 4981,
    "buried": 14852,
    "Ġforming": 7043,
    "Ġtreatise": 19348,
    "Ġbaron": 19336,
    "Ġconversation": 3330,
    "Ġdecidedly": 9512,
    "Ġincorrupt": 19236,
    "Ġswart": 14437,
    "Ġevery": 926,
    "Ġaskance": 23151,
    "Ġeaves": 15680,
    "Ġadmiring": 16482,
    "Ġdecide": 9289,
    "Ġlodges": 19503,
    "eng": 1485,
    "Ġcelest": 9904,
    "Ġconstructed": 9389,
    "Ġappears": 5402,
    "Ġmax": 2004,
    "Ġwolfish": 25936,
    "Ġneedless": 19231,
    "oon": 6365,
    "wealth": 22691,
    "lass": 5993,
    "disgraceful": 26077,
    "Ġscrupled": 25052,
    "Ġenter": 4029,
    "expressing": 16803,
    "Ġvener": 8164,
    "Ġmelting": 24290,
    "Ġimbec": 14159,
    "mission": 5970,
    "Ġdisconsolate": 20721,
    "Ġextras": 22738,
    "ickory": 22672,
    "Ġroom": 1462,
    "Ġeyford": 10644,
    "Ġanswer": 2596,
    "Ġdesperation": 19821,
    "servants": 15040,
    "Ġsmelt": 16069,
    "precious": 12078,
    "Ġserpents": 13081,
    "Ġexcavating": 23317,
    "Ġcontext": 1718,
    "hurry": 24762,
    "barn": 17485,
    "included": 19210,
    "Ġinfants": 16367,
    "rec": 6004,
    "Ġhadn": 9722,
    "Ġlounging": 10025,
    "mine": 5618,
    "Ġexpanse": 14295,
    "Ġzones": 22820,
    "american": 11402,
    "Ġmorality": 22981,
    "ieties": 19023,
    "vessel": 11379,
    "Ġpagan": 7118,
    "silence": 8045,
    "ving": 593,
    "desponding": 26343,
    "fainting": 20476,
    "Ġdeactivates": 20706,
    "Ġhulls": 13929,
    "Ġneuron": 1807,
    "Ġinconvenient": 20013,
    "whaler": 20312,
    "Ġneither": 3686,
    "Ġminimizes": 2047,
    "apparatus": 26565,
    "ately": 1680,
    "Ġdifferences": 18716,
    "Ġrevealing": 3924,
    "Ġhysterics": 26094,
    "Ġmines": 21311,
    "succeed": 10331,
    "Ġtranquill": 6632,
    "Ġcirc": 1984,
    "upid": 6583,
    "Ġdrinks": 24282,
    "scene": 14423,
    "Ġdrooping": 9423,
    "onom": 9161,
    "Ġenforced": 21942,
    "Ġschoolmasters": 19723,
    "majesty": 26282,
    "attending": 18918,
    "Ġkneeling": 12148,
    "Ġlazy": 17051,
    "Ġducks": 25161,
    "dancing": 12460,
    "Ġhan": 15622,
    "Ġunflinching": 26514,
    "matic": 4619,
    "solic": 16380,
    "Ġsumatra": 15290,
    "Ġcreature": 2385,
    "tish": 17679,
    "americ": 8156,
    "Ġdashes": 21437,
    "gen": 6503,
    "Ġbring": 3324,
    "eties": 10839,
    "Ġgave": 2220,
    "cle": 3955,
    "about": 3587,
    "ascertaining": 26462,
    "wel": 6118,
    "Ġconcluded": 5658,
    "Ġgene": 15676,
    "ress": 930,
    "Ġvane": 22876,
    "Ġsufficient": 2001,
    "ructed": 7031,
    "Ġdav": 15594,
    "ifford": 15788,
    "Ġadvances": 12998,
    "attacks": 23125,
    "Ġburying": 19254,
    "Ġuprising": 12807,
    "Ġpredecess": 18528,
    "Ġincompatible": 25681,
    "Ġpenet": 6887,
    "rior": 12746,
    "rons": 21042,
    "Ġsog": 22088,
    "Ġmidst": 7986,
    "Ġdeact": 18138,
    "Ġprofession": 6208,
    "minutes": 7511,
    "Ġleaky": 2347,
    "sery": 17663,
    "Ġqueer": 4480,
    "Ġhealed": 21686,
    "Ġforbidding": 17080,
    "Ġbubblingly": 25633,
    "hem": 6665,
    "ainty": 21791,
    "Ġunprincipled": 20710,
    "Ġneglig": 18879,
    "Ġgroans": 14827,
    "Ġsh": 419,
    "iously": 2673,
    "circumstance": 7763,
    "Ġprick": 14481,
    "itan": 10162,
    "Ġleaps": 14005,
    "Ġstopping": 2745,
    "Ġextremely": 2665,
    "Ġclaimed": 14204,
    "Ġunman": 12778,
    "Ġrights": 10399,
    "Ġhams": 16614,
    "versed": 9828,
    "Ġgravity": 9251,
    "Ġscrutiny": 26016,
    "Ġinsignific": 13184,
    "Ġfervently": 25878,
    "Ġlift": 8815,
    "Ġopenness": 18959,
    "Ġfrosts": 19805,
    "Ġswims": 12125,
    "apside": 22963,
    "Ġidentical": 10436,
    "fe": 676,
    "aution": 9390,
    "aneously": 4060,
    "Ġabomin": 8189,
    "remed": 18956,
    "Ġbrewed": 23347,
    "Ġparchment": 13656,
    "Ġsimon": 5172,
    "Ġdomin": 10464,
    "Ġborrowed": 17232,
    "Ġdramatic": 4852,
    "aguy": 21914,
    "snap": 24849,
    "hairs": 20906,
    "vert": 15719,
    "ete": 9206,
    "Ġsuffering": 8949,
    "Ġwrist": 8243,
    "elop": 1556,
    "Ġindividuals": 24546,
    "zag": 17715,
    "investments": 25533,
    "Ġcalculated": 4477,
    "Ġreplied": 2264,
    "Ġsaviour": 20715,
    "Ġinsurance": 23685,
    "Ġoaken": 13868,
    "Ġrecol": 4030,
    "dark": 5614,
    "Ġjoyously": 19350,
    "arest": 4003,
    "Ġgather": 6535,
    "Ġword": 1052,
    "Ġconsecut": 18114,
    "Ġmoved": 4841,
    "measured": 19993,
    "asons": 6015,
    "olerably": 11677,
    "Ġcorp": 5575,
    "Ġroy": 4229,
    "ivided": 22082,
    "Ġdeputation": 21843,
    "Ġbarbed": 14838,
    "Ġsim": 735,
    "iment": 2813,
    "persuaded": 15077,
    "Ġbug": 11592,
    "teak": 22818,
    "ible": 1116,
    "Ġbreathlessly": 24283,
    "Ġconfine": 14510,
    "Ġheavenly": 12090,
    "their": 2540,
    "ĠĠĠĠĠĠĠĠĠĠĠĠĠĠĠĠĠĠĠĠĠĠĠĠĠĠĠĠĠĠĠĠĠĠĠĠĠĠĠĠ": 4518,
    "consciously": 19628,
    "Ġfatigued": 13469,
    "Ġstaple": 26200,
    "Ġsalisbury": 24066,
    "Ġturing": 7565,
    "Ġshowed": 4498,
    "won": 8395,
    "Ġtower": 8319,
    "Ġinterp": 16073,
    "Ġunseason": 22052,
    "Ġnib": 13943,
    "Ġmeddle": 20580,
    "jaw": 13746,
    "xible": 13811,
    "Ġminutest": 14562,
    "Ġrepositories": 23364,
    "earnest": 12404,
    "extent": 22767,
    "Ġmaids": 19694,
    "Ġinher": 10182,
    "Ġrapture": 13499,
    "indignation": 18439,
    "summon": 23419,
    "Ġsplash": 16551,
    "Ġwoeful": 19622,
    "draught": 12096,
    "Ġdeclares": 16994,
    "Ġegyptians": 25290,
    "Ġcredited": 25157,
    "Ġlain": 17964,
    "Ġtattooed": 11380,
    "thumb": 18219,
    "Ġmoot": 22436,
    "Ġindications": 14634,
    "Ġcommanders": 23871,
    "Ġworkmen": 23034,
    "Ġdeceit": 13485,
    "Ġhed": 7386,
    "Ġlambton": 10660,
    "unbidden": 21898,
    "heredit": 21212,
    "Ġvia": 2384,
    "Ġmile": 7151,
    "but": 592,
    "Ġtints": 17729,
    "Ġattended": 5391,
    "Ġalone": 2565,
    "Ġherd": 7888,
    "Ġincidentally": 16956,
    "Ġconfided": 19038,
    "Ġpeered": 18669,
    "etts": 12665,
    "Ġstatistics": 1684,
    "Ġincommod": 25308,
    "Ġdisgra": 18549,
    "Ġinestimable": 17445,
    "Ġwayward": 22874,
    "aken": 1869,
    "Ġcarry": 4780,
    "Ġbegrimed": 26580,
    "Ġtrifle": 10604,
    "captain": 3953,
    "non": 9614,
    "sized": 15431,
    "Ġsquall": 7044,
    "triumph": 15443,
    "Ġwedge": 24935,
    "Ġpractical": 3159,
    "Ġelephant": 8256,
    "Ġboscombe": 8326,
    "Ġcatastrop": 3348,
    "imely": 14001,
    "Ġconvul": 13205,
    "Ġ41": 24081,
    "Ġoutrage": 15962,
    "Ġvibrated": 25048,
    "Ġgam": 11628,
    "rock": 15645,
    "Ġstrangest": 14799,
    "Ġpretend": 7721,
    "insult": 16282,
    "Ġsplitting": 4385,
    "Ġrepressed": 21671,
    "Ġmisconduct": 22761,
    "whalers": 17266,
    "Ġconjunction": 25103,
    "ostentatious": 20654,
    "entials": 22667,
    "Ġprogrammed": 11060,
    "Ġvelocity": 10623,
    "Ġfee": 7197,
    "Ġhandful": 9785,
    "Ġdisapprobation": 16061,
    "introdu": 8940,
    "omin": 4704,
    "commotion": 24914,
    "Ġcircumstantial": 14645,
    "ocation": 14627,
    "Ġham": 3420,
    "wid": 10137,
    "Ġacknowledgment": 16959,
    "king": 3057,
    "ition": 656,
    "Ġzodiac": 16176,
    "Ġ1846": 26085,
    "Ġcurving": 16238,
    "Ġestimated": 16596,
    "Ġnightmare": 18921,
    "Ġabsence": 4895,
    "Ġboats": 2634,
    "Ġunw": 7004,
    "class": 4095,
    "woof": 21142,
    "Ġupset": 22157,
    "ffic": 22155,
    "Ġunrival": 22047,
    "Ġdispirited": 23885,
    "?âĢĻ": 2638,
    "Ġsideboard": 10388,
    "vengeance": 13361,
    "Ġdisinclined": 22533,
    "hither": 11495,
    "Ġhisself": 21918,
    "Ġregret": 5561,
    "handedness": 24921,
    "winter": 10742,
    "Ġslime": 23162,
    "Ġincivility": 18573,
    "albatross": 15634,
    "Ġinclinations": 19542,
    "Ġsummary": 19406,
    "Ġstabilizing": 3656,
    "Ġembarrassment": 10629,
    "Ġtriangular": 14862,
    "itor": 12572,
    "ishnoo": 10957,
    "Ġinterrupted": 6344,
    "Ġostrich": 26432,
    "Ġfurious": 10356,
    "Ġupp": 13995,
    "Ġelegant": 7531,
    "Ġstubbornness": 25380,
    "Ġcompose": 12907,
    "ĠĠĠĠĠĠĠĠĠĠĠĠĠĠĠĠĠĠĠĠĠĠĠĠĠĠĠĠĠĠĠĠĠĠĠĠĠĠĠ": 19261,
    "Ġcrystall": 20229,
    "Ġtu": 6968,
    "Ġdisliked": 12896,
    "Ġrear": 6536,
    "rubbery": 17345,
    "Ġknock": 9976,
    "olera": 21837,
    "Ġprovides": 1928,
    "arrow": 4181,
    "animal": 16980,
    "concl": 12874,
    "Ġprovincial": 20652,
    "Ġgerman": 6142,
    "Ġvelvets": 25394,
    "Ġinterpreted": 1712,
    "Ġorigin": 4121,
    "69": 17477,
    "passage": 11263,
    "Ġseams": 12130,
    "Ġopenshaw": 7955,
    "Ġoccasions": 7988,
    "Ġturning": 3327,
    "Ġ*": 1273,
    "Ġdear": 1541,
    "Ġreel": 9216,
    "Ġdaily": 5987,
    "rowing": 7931,
    "Ġdelirium": 10407,
    "Ġuncovered": 23435,
    "sterns": 23371,
    "Ġwoes": 23989,
    "Ġdons": 17890,
    "nourished": 26400,
    "ested": 3479,
    "elope": 14474,
    "Ġjo": 2606,
    "tack": 12518,
    "Ġthousand": 2779,
    "Ġbuoyant": 13535,
    "devouring": 24953,
    "specim": 23947,
    "lightning": 16554,
    "ure": 356,
    "Ġlights": 8963,
    "gre": 5788,
    "idence": 4302,
    "barbs": 20240,
    "estic": 4956,
    "âĢĶâĢĿ": 3300,
    "atre": 17772,
    "nes": 6960,
    "irr": 12742,
    "Ġterrors": 6917,
    "Ġunspeak": 8854,
    "Ġhearing": 4762,
    "tolerably": 21098,
    "Ġshirt": 8853,
    "Ġboa": 22641,
    "Ġflirt": 14426,
    "Ġsled": 21221,
    "assured": 10954,
    "Ġignor": 4010,
    "lot": 3204,
    "vings": 9754,
    "ptember": 10895,
    "vi": 2376,
    "Ġdisturbance": 15015,
    "thousand": 5547,
    "favouring": 24761,
    "Ġdistillation": 16049,
    "health": 13836,
    "Ġastir": 14642,
    "Ġfriendless": 23027,
    "Ġfetched": 24568,
    "Ġbundle": 13430,
    "Ġhomely": 25220,
    "otherwise": 7670,
    "web": 18665,
    "Ġmartha": 16263,
    "Ġsolicitude": 10043,
    "Ġaccustomed": 6860,
    "Ġirresolution": 24916,
    "Ġgeography": 23375,
    "Û": 156,
    "persons": 24177,
    "Ġfake": 5811,
    "Ġwalls": 6762,
    "ribbed": 16416,
    "Ġprize": 11953,
    "fif": 9119,
    "Ġbelted": 22951,
    "Ġharder": 14452,
    "perform": 15898,
    "umnal": 18301,
    "Ġotherwise": 4659,
    "top": 4487,
    "english": 2772,
    "Ġindefinitely": 25222,
    "4": 24,
    "repe": 8780,
    "Ġfive": 2833,
    "oss": 10118,
    "Ġnook": 15932,
    "Ġbreathe": 9015,
    "Ġintermix": 25827,
    "command": 6577,
    "pherd": 13648,
    "Ġghastly": 10063,
    "Ġslashing": 23171,
    "Ġbarrowful": 25596,
    "Ġleaning": 5228,
    "Ġsource": 6805,
    "Ġdisobey": 18559,
    "Ġbarnacled": 25537,
    "Ġstomach": 11657,
    "Ġextinguish": 14339,
    "pronounce": 25193,
    "Ġwilled": 21294,
    "acet": 5476,
    "peculiarity": 23112,
    "Ġbro": 1431,
    "ugal": 19020,
    "foot": 9049,
    "here": 2548,
    "Ġrol": 3555,
    "creator": 26383,
    "Ġfaultless": 24540,
    "Ġinserted": 8356,
    "Ġhailed": 6407,
    "direction": 17526,
    "necessary": 5882,
    "hap": 17561,
    "ceiving": 3902,
    "Ġimitated": 18331,
    "Ġvolley": 24148,
    "ability": 716,
    "all": 485,
    "Ġcomplaisance": 19452,
    "Ġbeating": 8145,
    "embarrassed": 20667,
    "Ġgrud": 17998,
    "Ġfeedforward": 2327,
    "Ġantique": 19554,
    "nial": 20986,
    "partly": 14604,
    "Ġcove": 22583,
    "Ġespecially": 3936,
    "Ġresemble": 15697,
    "afterwards": 7483,
    "reated": 10305,
    "Ġinflamed": 13477,
    "Ġevian": 24294,
    "Ġdogs": 7741,
    "Ġclang": 15966,
    "Ġmaz": 15546,
    "Ġbull": 7839,
    "Ġsurviv": 13439,
    "Ġ74": 24264,
    "Ġabreast": 18395,
    "stick": 15689,
    "ignorant": 13567,
    "Ġnaval": 16901,
    "Ġsepulchral": 25893,
    "Ġengaging": 9339,
    "striking": 13444,
    "arers": 12135,
    "etency": 21585,
    "Ġextinguished": 10343,
    "evidently": 20348,
    "Ġomin": 11580,
    "Ġdefect": 8556,
    "Ġsecondary": 23334,
    "Ġinfluenced": 19635,
    "Ġepisode": 26349,
    "Ġstruct": 2781,
    "Ġmilliner": 19886,
    "Ġcooped": 22584,
    "Ġdem": 11678,
    "aswag": 21549,
    "whiteness": 18371,
    "nett": 16224,
    "Ġlabour": 7273,
    "arter": 17895,
    "´": 117,
    "Ġwrote": 5011,
    "Ġflinging": 13589,
    "uiperai": 10666,
    "Ġplanks": 5564,
    "Ġever": 1180,
    "Ġcaprice": 14579,
    "Ġsternly": 16717,
    "repressed": 21246,
    "Ġ110": 24435,
    "Ġoy": 15550,
    "Ġcleans": 18951,
    "Ġright": 1505,
    "Ġpiqu": 21480,
    "turkish": 24533,
    "Ġdetained": 18373,
    "Ġacc": 572,
    "swiss": 24258,
    "Ġburgl": 13177,
    "broke": 14782,
    "ange": 1016,
    "Ġfare": 5810,
    "second": 6544,
    "Ġm": 274,
    "Ĥ": 229,
    "Ġvalidation": 2358,
    "Ġinquirer": 24964,
    "abs": 11671,
    "Ġcleanse": 24527,
    "Ġwouldn": 6046,
    "Ġarter": 22187,
    "Ġspect": 3552,
    "gems": 20886,
    "volutions": 16325,
    "contempl": 13193,
    "Ġcanals": 22169,
    "Ġgangs": 21612,
    "cific": 10088,
    "led": 581,
    "vest": 6231,
    "Ġ85": 24460,
    "Ġendued": 14080,
    "Ġbanish": 15574,
    "Ġwarmup": 3921,
    "considering": 12180,
    "seeking": 17155,
    "Ġcousin": 3704,
    "Ġdrenched": 12609,
    "Ġbur": 2694,
    "Ġknees": 6927,
    "Ġvisions": 12991,
    "Ġbeech": 18085,
    "Ġaimed": 20253,
    "Ġtranced": 18427,
    "Ġbridegroom": 10607,
    "Ġexpanded": 14294,
    "Ġard": 5164,
    "Ġparametric": 2396,
    "Ġmoonlight": 9961,
    "Ġcorrection": 5062,
    "ufactured": 15185,
    "Ġbaleful": 24985,
    "Ġcased": 21349,
    "icient": 792,
    "Ġmant": 9650,
    "subtle": 24246,
    "Ġhumans": 8933,
    "Ġpint": 17911,
    "Ġcall": 2075,
    "Ġentrances": 25835,
    "Ġnoses": 18374,
    "mering": 12496,
    "Ġwed": 7574,
    "Ġdrifting": 19281,
    "ull": 1432,
    "Ġcin": 13878,
    "Ġpemberley": 4589,
    "Ġplays": 12042,
    "ral": 4629,
    "¶": 119,
    "Ġwhaling": 2780,
    "Ġhoofs": 14527,
    "venge": 4660,
    "Ġirritation": 20269,
    "iciously": 17976,
    "Ġastr": 15497,
    ",)": 9104,
    "trimmed": 23952,
    "Ġwards": 17791,
    "Ġconfines": 23307,
    "enance": 3371,
    "Ġattentive": 9036,
    "belated": 24040,
    "Ġreef": 10851,
    "preserve": 25304,
    "aling": 1033,
    "Ġann": 4491,
    "Ġslippers": 19618,
    "Ġmaiden": 13390,
    "olets": 21010,
    "Ġpant": 10819,
    "Ġmabel": 17327,
    "Ġberry": 19749,
    "8": 28,
    "Ġknowledge": 1445,
    "destiny": 16701,
    "fred": 20857,
    "pronouncing": 25194,
    "Ġfamily": 1966,
    "Ġlinear": 3431,
    "fic": 20854,
    "design": 19343,
    "Ġviol": 2072,
    "wondering": 19847,
    "Ġfeed": 2128,
    "Ġlitter": 19832,
    "Ġwig": 9164,
    "ul": 371,
    "Ġdr": 2821,
    "Ġgentlemen": 3642,
    "Ġcorpor": 23042,
    "Ġtables": 9881,
    "Ġdinner": 4244,
    "commanders": 16991,
    "Ġcompens": 14266,
    "travelling": 24338,
    "Ġdish": 6137,
    "Ġcompasses": 11269,
    "soles": 18686,
    "Ġremembered": 5277,
    "Ġstars": 6150,
    "tling": 9145,
    "raction": 8138,
    "alo": 7587,
    "beautiful": 10651,
    "instinctively": 26329,
    "story": 9215,
    "Ġwasn": 6997,
    "taught": 17686,
    "Ġaffectation": 14444,
    "Ġpersu": 3563,
    "Ġbal": 1135,
    "discernible": 20553,
    "msprop": 2622,
    "lynes": 15708,
    "Ġinheritance": 25356,
    "Ġcabaco": 13171,
    "Ġflann": 23016,
    "Ġpregn": 22236,
    "Ġspikes": 22140,
    "knives": 14916,
    "Ġworker": 23033,
    "Ġapologizing": 25198,
    "Ġrefuse": 5739,
    ",*": 17474,
    "rope": 3181,
    "terdam": 18132,
    "kin": 7132,
    "Ġtorrid": 25035,
    "reader": 23850,
    "Ġlif": 10198,
    "Ġhunter": 5401,
    "Ġcoleridge": 18766,
    "Ġshifting": 12773,
    "Ġveracity": 23892,
    "intentions": 22942,
    "Ġaxis": 12312,
    "Ġhousekeeper": 7455,
    "Ġstoop": 16313,
    "atory": 6126,
    "Ġcos": 2211,
    "Ġign": 8295,
    "Ġgreatness": 12948,
    "Ġmill": 6668,
    "Ġassertions": 19950,
    "urbed": 15713,
    "ana": 15563,
    "countless": 24153,
    "Ġvice": 6549,
    "roads": 17960,
    "uberance": 25917,
    "Ġpreced": 6040,
    "Ġsquaring": 22841,
    "gir": 8083,
    "asse": 15649,
    "ots": 3295,
    "play": 5099,
    "Ġdrought": 19280,
    "Ġassembl": 20064,
    "Ġxxxvi": 24972,
    "Ġembatt": 18844,
    "Ġimages": 1600,
    "Ġmiserably": 12953,
    "Ġwhistles": 24625,
    "Ġrustling": 24714,
    "ness": 851,
    "deceptive": 22153,
    "pt": 387,
    "best": 6112,
    "Ġstrainings": 24628,
    "Ġlewis": 15723,
    "ksome": 10107,
    "mechanical": 25579,
    "Ġrue": 11872,
    "Ġdeduction": 14904,
    "Ġnumbers": 2885,
    "Ġgag": 21596,
    "treasures": 26153,
    "Ġrinal": 21984,
    "Ġears": 4492,
    "moderate": 22850,
    "Ġ1894": 5196,
    "Ġtwelve": 4963,
    "Ġgently": 7171,
    "Ġmisfortune": 5569,
    "Ġdoom": 6417,
    "drive": 8686,
    "Ġwrap": 24595,
    "Ġoptimizer": 5035,
    "Ġmisled": 22759,
    "Ġgull": 15674,
    "Ġextracts": 9368,
    "Ġsom": 1276,
    "Ġventured": 7500,
    "Ġrevol": 5537,
    "Ġoccasionally": 5590,
    "Ġcontinuing": 14401,
    "Ġlacey": 10200,
    "Ġsleeve": 20143,
    "Ġcredit": 4820,
    "united": 14063,
    "Ġwoods": 5406,
    "rab": 7596,
    "ids": 21767,
    "Ġdatasets": 2390,
    "Ġdispleased": 18555,
    "Ġintrepidity": 25551,
    "Ġboomer": 20170,
    "Ġtow": 4397,
    "Ġlogs": 16349,
    "queequeg": 4335,
    "Ġnoon": 6560,
    "Ġmighty": 4230,
    "Ġrevolution": 3305,
    "Ġanx": 3177,
    "Ġmetal": 9392,
    "Ġindia": 10373,
    "Ġjudges": 14687,
    "Ġdancing": 5703,
    "embraced": 25805,
    "Ġmany": 1105,
    "Ġuninter": 18244,
    "Ġmatrim": 11062,
    "round": 3368,
    "Ġsaith": 14158,
    "proper": 7470,
    "Ġsurrey": 14561,
    "Ġscor": 8191,
    "auley": 22624,
    "build": 12193,
    "tossed": 10998,
    "subst": 12170,
    "Ġoptimizers": 18626,
    "Ġ103": 24411,
    "went": 6512,
    "situation": 11439,
    "Ġrecurring": 23234,
    "Ġrejecting": 17052,
    "Ġirene": 8445,
    "Ġinvoluntarily": 8550,
    "Ġreversed": 15701,
    "Ġrisen": 9496,
    "insula": 23069,
    "attention": 2110,
    "Ġsupplement": 23005,
    "Ġcompos": 22573,
    "Ġgall": 4352,
    "Ġburned": 8634,
    "quaker": 15767,
    "bitts": 26123,
    "childhood": 16870,
    "Ġnom": 21522,
    "Ġrose": 3441,
    "neath": 12871,
    "standers": 18479,
    "omics": 21646,
    "Ġsanity": 24982,
    "Ġdeer": 12725,
    "Ġmonoton": 3636,
    "ipt": 12484,
    "Ġveter": 15815,
    "Ġadmon": 15872,
    "slightest": 25417,
    "Ġpublisher": 24068,
    "Ġperilous": 7768,
    "declare": 25174,
    "Ġbronze": 22870,
    "Ġwheeled": 14141,
    "absolut": 8460,
    "manifested": 20529,
    "Ġreveal": 11201,
    "Ġagency": 11811,
    "prospect": 23399,
    "Ġapothecary": 13663,
    "Ġlaugh": 4114,
    "Ġthorough": 6246,
    "thence": 23403,
    "within": 6731,
    "vour": 17701,
    "Ġchild": 2260,
    "Ġdiminished": 16668,
    "Ġaunts": 21203,
    "Ġne": 391,
    "till": 6965,
    "Ġingenuity": 17166,
    "Ġhammer": 6094,
    "Ġassistance": 6334,
    "connect": 1291,
    "Ġshoulder": 5849,
    "ighbour": 3388,
    "educated": 17262,
    "Ġbrougham": 17872,
    "Ġtransformations": 3484,
    "Ġpumping": 25644,
    "rents": 5310,
    "Ġstreatham": 17452,
    "establish": 17396,
    "paradise": 20641,
    "Ġspouter": 12803,
    "Ġflag": 7241,
    "Ġcompunction": 18586,
    "expedition": 26079,
    "Ġmutilated": 23962,
    "leading": 15566,
    "Ġmistake": 6204,
    "Ġmaterially": 12197,
    "Ġtechnically": 12371,
    "Ġgunwale": 7324,
    "earliest": 20123,
    "penny": 22948,
    "Ġunfathom": 14792,
    "Ġloudly": 7311,
    "Ġbeale": 12704,
    "ackled": 22425,
    "Ġouthouse": 22318,
    "Ġfootfall": 14663,
    "aire": 10683,
    "owards": 4595,
    "Ġquoin": 22422,
    "Ġlikewise": 5386,
    "flask": 12105,
    "Ġgushed": 21610,
    "stiff": 12680,
    "Ġspecially": 12003,
    "Ġstagger": 10594,
    "on": 267,
    "Ġrueful": 25582,
    "Ġconversed": 13190,
    "host": 5867,
    "Ġfatt": 15583,
    "Ġrecollecting": 17114,
    "hot": 8084,
    "pute": 8849,
    "uncle": 8159,
    "Ġblackest": 19100,
    "consideration": 14958,
    "discredit": 24253,
    "measure": 10034,
    "baggage": 24927,
    "Ġclerks": 17298,
    "orange": 21403,
    "Ġfainting": 16899,
    "Ġnugent": 26459,
    "Ġdissipate": 13637,
    "Ġevident": 6613,
    "coal": 12030,
    "Ġhenceforth": 19645,
    "Ġtarshish": 12034,
    "knot": 13748,
    "Ġlifelessly": 23053,
    "tide": 11535,
    "Ġdams": 16456,
    "Ġphotography": 24684,
    "hoped": 20912,
    "tures": 21072,
    "july": 20478,
    "Ġsneer": 13451,
    "Ġpraises": 16732,
    "Ġapply": 1777,
    "unvarying": 21891,
    "Ġshad": 3850,
    "Ġmoodily": 19837,
    "pin": 13770,
    "Ġfrown": 10809,
    "Ġinsince": 23682,
    "lit": 9608,
    "Ġlooked": 1802,
    "Ġcocks": 18592,
    "Ġemergency": 25731,
    "Ġfitzwilliam": 5771,
    "Ġrafters": 22659,
    "Ġdescending": 8906,
    "Ġnonsense": 6982,
    "Ġholes": 16407,
    "ivil": 6411,
    "itying": 21998,
    "Ġassail": 13068,
    "insupportable": 21196,
    "Ġrank": 6259,
    "akes": 2221,
    "Ġstudying": 9847,
    "Ġdeveloped": 16358,
    "impropriety": 21716,
    "prison": 14665,
    "Ġtowed": 11267,
    "tried": 13797,
    "dogs": 25403,
    "Ġdon": 1615,
    "Ġlone": 11617,
    "Ġag": 684,
    "Ġwretchedness": 9029,
    "malicious": 19904,
    "base": 20779,
    "Ġunfinished": 19512,
    "sleepers": 24729,
    "Ġbrawn": 10484,
    "Ġlunging": 24992,
    "Ġ60": 14878,
    "Ġspouts": 7729,
    "Ġwhaleboats": 18480,
    "wrinkles": 16557,
    "Ġoaks": 16935,
    "abash": 18110,
    "Ġsulk": 15048,
    "Ġventure": 7739,
    "sympathy": 20545,
    "Ġanticipated": 13514,
    "benefact": 24642,
    "Ġhatch": 7848,
    "Ġcomical": 11681,
    "Ġdaughter": 2866,
    "Ġstum": 21738,
    "Ġlofty": 6218,
    "Ġnotorious": 18224,
    "Ġvine": 8473,
    "lamp": 9611,
    "elstrom": 17984,
    "bergs": 18682,
    "Ġweeps": 24950,
    "lied": 6507,
    "Ġloc": 10916,
    "former": 11753,
    "cont": 2916,
    "Ġcontempl": 6702,
    "inked": 12918,
    "Ġtenement": 23550,
    "Ġextravagance": 17282,
    "function": 4332,
    "hurt": 19880,
    "augmented": 26288,
    "Ġchoke": 22253,
    "errand": 22912,
    "aunt": 8370,
    "hope": 5990,
    "Ġguar": 23047,
    "Ġaffections": 10387,
    "Ġem": 1921,
    "urements": 18126,
    "Ġfriend": 1294,
    "corrob": 24485,
    "Ġretreated": 13437,
    "stranger": 9886,
    "Ġdiffers": 23784,
    "cruise": 24842,
    "jumping": 20248,
    "Ġexempl": 21834,
    "Ġcalculates": 13269,
    "conscientious": 19629,
    "Ġmanhood": 22330,
    "://": 11467,
    "departed": 24793,
    "Ġupdates": 1298,
    "Ġrevelry": 15140,
    "arthy": 4824,
    "Ġperturbed": 20443,
    "Ġ1836": 25721,
    "overcoat": 19052,
    "noble": 7921,
    "Ġfeedback": 23436,
    "ugl": 23291,
    "Ġhumility": 12989,
    "Ġarrives": 23609,
    "Ġclin": 14203,
    "Ġdears": 18139,
    "y": 93,
    "aggra": 21910,
    "Ġundisturbed": 19522,
    "anxiously": 15114,
    "Ġintelligent": 1407,
    "establishment": 26114,
    "Ġapologized": 25199,
    "Ġattempt": 3486,
    "squ": 7809,
    "Ġbordered": 24564,
    "Ġflights": 24752,
    "Ġhorseback": 14853,
    "loving": 18538,
    "Ġenglishman": 11231,
    "Ġhermit": 15861,
    "Ġimprec": 14220,
    "Ġpine": 8801,
    "Ġgrasped": 8034,
    "Ġsecre": 5493,
    "Ġstirred": 12223,
    "Ġceiling": 7997,
    "Ġedward": 19153,
    "Ġdeb": 4765,
    "avery": 13687,
    "transferred": 24514,
    "Ġclimb": 15083,
    "adv": 4538,
    "Ġoutrageous": 20613,
    "Ġwhiff": 21721,
    "Ġglu": 15672,
    "Ġsod": 11564,
    "Ġcombines": 1152,
    "Ġseems": 2481,
    "Ġwisely": 13276,
    "Ġ39": 19493,
    "Ġmuscle": 14691,
    "slee": 17171,
    "Ġconv": 2964,
    "owal": 13996,
    "Ġcigaret": 16978,
    "Ġgar": 10840,
    "Ġcarelessness": 13080,
    "Ġrebounds": 25968,
    "ilight": 12698,
    "indul": 22374,
    "Ġarrive": 6906,
    "mort": 10712,
    "Ĝ": 221,
    "Ġsummar": 3525,
    "Ġforeseeing": 23452,
    "Ġlearning": 386,
    "Ġleech": 24158,
    "remain": 9841,
    "your": 1983,
    "ophisticated": 22488,
    "Ġsavannah": 17419,
    "Ġspecimen": 13028,
    "helping": 23144,
    "Ġstiffly": 15007,
    "ignant": 11131,
    "Ġparting": 9786,
    "assment": 9742,
    "Ġshape": 5639,
    "Ġcrop": 10165,
    "Ġgra": 416,
    "Ġkeenest": 12167,
    "Ġrotation": 25475,
    "stream": 15691,
    "Ġamongst": 8962,
    "Ġ9": 5901,
    "ited": 1749,
    ".,": 5988,
    "Ġfundamental": 3012,
    "rod": 10833,
    "Ġprogen": 14042,
    "itheat": 21341,
    "Ġdealer": 23980,
    "Ġresting": 7962,
    "Ġparcel": 15203,
    "Ġfundament": 2923,
    "Ġloafer": 18300,
    "Ġsubmission": 22793,
    "Ġslew": 23386,
    "sharpening": 22463,
    "Ġturkish": 12267,
    "Ġmaria": 7125,
    "Ġservox": 23873,
    "supposing": 24137,
    "Ġcardboard": 19982,
    "Ġmuster": 16126,
    "Ġadvoc": 12999,
    "Ġgallop": 19558,
    "Ġcolleague": 17162,
    "mockery": 24378,
    "mped": 16650,
    "Ġplaces": 5390,
    "castles": 14638,
    "cig": 17506,
    "Ġquitting": 7645,
    "Ġsneezing": 12253,
    "Ġsite": 17755,
    "Ġgoblet": 25824,
    "Ġfluctuating": 24417,
    "Ġestimates": 3747,
    "achable": 14140,
    "Ġsing": 3070,
    "stretched": 10210,
    "Ġlungless": 24864,
    "Ġdisengaged": 12894,
    "Ġoccupied": 5273,
    "honor": 19902,
    "Ġmajor": 13296,
    "tallied": 21092,
    "Ġbackwater": 18651,
    "Ġsublime": 8066,
    "Ġge": 1977,
    "Ġcontribute": 12866,
    "Ġprofessional": 7298,
    "assed": 6421,
    "fulfilment": 26026,
    "Ġgroup": 2038,
    "Ġawoke": 7285,
    "Ġproceeded": 5336,
    "Ġcontrad": 9758,
    "ek": 1905,
    "Ġshameful": 19854,
    "Ġfeeds": 16437,
    "Ġhus": 3088,
    "mere": 11860,
    "lun": 20948,
    "Ġundeserving": 18266,
    "pad": 13771,
    "rained": 5162,
    "exertion": 16020,
    "ediction": 17947,
    "Ġmister": 22758,
    "Ġcandelab": 23852,
    "Ġleague": 6539,
    "Ġjail": 22298,
    "Ġvegetables": 15225,
    "ann": 5803,
    "Ġpickle": 16724,
    "Ġsustain": 10020,
    "part": 2572,
    "Ġmysterious": 7526,
    "Ġcrouching": 23444,
    "Ġ-": 1944,
    "consp": 18503,
    "Ġdied": 4112,
    "Ġoccupation": 9934,
    "Ġreserves": 19673,
    "Ġbooks": 4677,
    "Ġlavater": 20499,
    "Ġinterconnected": 1337,
    "por": 2152,
    "attempted": 20177,
    "comp": 3816,
    "render": 10293,
    "Ġpostp": 12149,
    "Ġcasually": 25096,
    "closing": 23157,
    "alot": 15630,
    "indispensable": 14212,
    "thankful": 16808,
    "Ġsignal": 5945,
    "dro": 6646,
    "Ġcomputing": 2222,
    "Ġrobbed": 23050,
    "Ġbou": 17854,
    "Ġdirections": 1970,
    "unching": 18161,
    "Ġrepublican": 17415,
    "likes": 18816,
    "Ġpeculiarity": 12938,
    "Ġspecksnyder": 17406,
    "syntax": 5868,
    "arris": 13213,
    "Ġthrob": 21521,
    "bree": 15318,
    "Ġshetland": 22163,
    "resolved": 9642,
    "Ġinsurmountable": 16534,
    "Ġtaurus": 21181,
    "Ġglowing": 12288,
    "spanish": 14334,
    "Ġcab": 2630,
    "Ġensures": 3053,
    "Ġcows": 15557,
    "ong": 537,
    "Ġdark": 2112,
    "labour": 23918,
    "Ġ24": 13195,
    "elter": 21574,
    "Ġcontrasting": 11156,
    "Ġsepul": 14092,
    "queness": 18150,
    "medical": 23344,
    "cabin": 8363,
    "hardly": 6491,
    "divided": 25021,
    "Ġoftentimes": 20158,
    "shuff": 18490,
    "Ġverdure": 10615,
    "Ġprovidence": 18747,
    "Ġdumbly": 24988,
    "now": 548,
    "Ġreason": 1367,
    "apple": 22843,
    "Ġmccarthys": 19665,
    "Ġtreatment": 12077,
    "deck": 4502,
    "Ġhabitual": 24789,
    "Ġthreading": 23405,
    "Ġmechanical": 7937,
    "Ġdecrease": 4201,
    "Ġallusions": 10911,
    "sustained": 20571,
    "bask": 20778,
    "riminately": 16485,
    "alive": 10829,
    "Ġinfat": 14501,
    "Ġjudiciously": 23881,
    "Ġsunwards": 19013,
    "usually": 10287,
    "Ġepaulets": 24906,
    "Ġconjured": 25102,
    "Ġfist": 21407,
    "Ġblan": 18818,
    "Ġprospect": 4707,
    "Ġsnug": 8280,
    "Ġwherefore": 8526,
    "Ġclaw": 22351,
    "Ġ183": 13242,
    "eping": 5834,
    "Ġgets": 10841,
    "Ġwidow": 8666,
    "attend": 11103,
    "Ġimpertinent": 9080,
    "Ġindispensable": 11905,
    "prepared": 13594,
    "Ġleadenhall": 16631,
    "jam": 15375,
    "Ġdays": 2079,
    "envelope": 17784,
    "Ġuttered": 7279,
    "Ġsimil": 2530,
    "Ġagonising": 25374,
    "father": 3776,
    "Ġ0": 1901,
    "T": 56,
    "Ġwindlass": 7255,
    "wil": 8769,
    "vering": 15720,
    "inisc": 15491,
    "Ġshowers": 16607,
    "americans": 25045,
    "Ġphilosophers": 10554,
    "smug": 23911,
    "Ġgrown": 5628,
    "Ġplainpalais": 20739,
    "oundering": 11751,
    "lever": 2928,
    "conception": 22476,
    "Z": 62,
    "Ġexactness": 23606,
    "Ġbreast": 8971,
    "anywhere": 14684,
    "Ġsuccess": 3610,
    "Ġblundering": 26285,
    "Ġtesting": 23212,
    "Ġsprawling": 22143,
    "Ġupper": 5090,
    "Ġrepublic": 14529,
    "Ġuppermost": 15282,
    "Ġangrily": 9410,
    "Ġrubbed": 12960,
    "Ġhist": 2444,
    "Ġalbino": 20506,
    "Ġjoosy": 23633,
    "idays": 21774,
    "Ġforced": 4353,
    "Ġfumbled": 17883,
    "Ġoverlooking": 22365,
    "Ġoutstretched": 14198,
    "Ġ98": 24594,
    "Ġsecond": 1881,
    "Ġsympathise": 16796,
    "staking": 21651,
    "Ġcred": 8785,
    "oder": 2458,
    "Ġdocuments": 10026,
    "arrested": 15605,
    "ckery": 22094,
    "peter": 24300,
    "Ġkind": 1784,
    "Ġmidnight": 5266,
    "Ġworst": 7443,
    "Ġfav": 1753,
    "cies": 1812,
    "temper": 10007,
    "Ġsincerely": 7963,
    "Ġsermons": 20197,
    "consid": 4925,
    "Ġstroke": 6935,
    "consc": 4842,
    "Ġessentials": 20006,
    "Ġpitches": 23905,
    "Ġproportion": 7280,
    "Ġbawling": 25946,
    "Ġshyness": 20309,
    "clopÃ¦dia": 15260,
    "dev": 7631,
    "Ġhey": 11645,
    "Ġlocker": 16913,
    "Ġminimizing": 3464,
    "tering": 3807,
    "Ġelements": 2663,
    "Ġmultipl": 2788,
    "Ġmystery": 5509,
    "semicirc": 26493,
    "where": 2093,
    "Ġstepmother": 16093,
    "Ġtry": 3128,
    "Ġhistorical": 3645,
    "blast": 9590,
    "rippling": 24712,
    "Ġnoblest": 13246,
    "flitted": 23972,
    "riages": 10246,
    "Ġvaluable": 5608,
    "Ġbound": 3519,
    "Ġlifting": 10199,
    "verest": 13994,
    "ois": 9137,
    "Ġdispelling": 23883,
    "Ġsettling": 11064,
    "Ġextremest": 19197,
    "Ġdespatched": 23833,
    "vy": 21110,
    "Ġchewing": 23287,
    "her": 489,
    "Ġaccompanied": 6780,
    "lantern": 17431,
    "Ġirrespective": 23378,
    "Ġadvantage": 4316,
    "Ġmonsters": 11076,
    "Ġenveloping": 19737,
    "thing": 1478,
    "Ġimpersonal": 17399,
    "Ġmaritime": 23041,
    "alarmed": 21506,
    "este": 15925,
    "seriously": 18906,
    "ateness": 15523,
    "Ġclanging": 18423,
    "ourably": 14380,
    "Ġbullion": 24986,
    "Ġwhalers": 8048,
    "Ġchildish": 13141,
    "Ġcontrols": 1732,
    "ientific": 6548,
    "Ġodious": 12156,
    "ĉ": 202,
    "Ġneural": 619,
    "taffrail": 15445,
    "Ġdoctors": 12157,
    "wide": 10140,
    "Ġoceans": 7996,
    "presents": 18798,
    "countenances": 24154,
    "Ġsteelkilt": 5675,
    "ropri": 2183,
    "tal": 17672,
    "ounded": 9751,
    "organic": 25947,
    "attain": 21264,
    "Ġtypewritten": 16425,
    "Ġtell": 1467,
    "Ġrece": 11642,
    "Ġfut": 15579,
    "Ġsurvivor": 17366,
    "service": 15039,
    "Ġstrip": 9424,
    "tinted": 17685,
    "Ġofficio": 23819,
    "Ġquadruped": 20618,
    "Ġeggs": 12347,
    "Ġjolly": 6857,
    "Ġcocoanuts": 26364,
    "doubtful": 24790,
    "Ġthreatens": 24375,
    "iary": 15374,
    "Ġspur": 18304,
    "Ġcompetition": 14269,
    "Ġattics": 22631,
    "Ġdeficiency": 14406,
    "unt": 2044,
    "Ġdesperately": 24657,
    "Ġsaturation": 2063,
    "Ġprev": 6265,
    "Ġterribly": 10427,
    "Ġroving": 22409,
    "ication": 961,
    "Ġ1807": 26084,
    "Ġlevel": 5020,
    "Ġnoisy": 13323,
    "Ġcurved": 18848,
    "Ġspinal": 12307,
    "cons": 4309,
    "extric": 22768,
    "Ġdistribut": 841,
    "Ġarguments": 8037,
    "Ġrustic": 14968,
    "vered": 4831,
    "Ġcontro": 1688,
    "Ġbrotherly": 16529,
    "arrangement": 17418,
    "ilent": 21723,
    "ĠmanÅĵuv": 18418,
    "invite": 25091,
    "hound": 20897,
    "Ġratt": 7881,
    "Ġjustinian": 22972,
    "swing": 15432,
    "Ġdes": 1251,
    "attle": 4468,
    "zy": 2666,
    "Ġdigest": 24648,
    "Ġsurf": 19133,
    "hair": 9125,
    "Ġbearded": 15731,
    "Ġindoors": 18837,
    "ĠĠĠĠĠĠĠĠĠĠĠĠĠĠĠĠĠĠĠĠĠĠĠĠĠĠĠĠĠĠĠ": 19703,
    "Ġhes": 6251,
    "ĠĠĠĠĠĠĠ": 7632,
    "Ġways": 5396,
    "gement": 13731,
    "Ġpermitting": 22403,
    "Ġspeaks": 11161,
    "Ġzigzag": 26274,
    "Ġneighb": 14079,
    "Ġexcept": 3313,
    "bber": 4569,
    "Ġworth": 4418,
    "knowledge": 7477,
    "Ġbrad": 8791,
    "send": 15426,
    "Ġhaggard": 17333,
    "Ġinstant": 2700,
    "operation": 13504,
    "Ġmassachusetts": 24025,
    "moored": 22707,
    "Ġholder": 6725,
    "Ġway": 1085,
    "impressions": 20701,
    "iter": 4393,
    "aloes": 21505,
    "Ġcastaways": 19431,
    "),": 1347,
    "Ġcontextual": 3741,
    "Ġgnawed": 25168,
    "Ġscenery": 11458,
    "conve": 14246,
    "Ġboxes": 13378,
    "circled": 24190,
    "Ġreddening": 25971,
    "Ġportions": 19372,
    "**:": 4738,
    "Ġinvented": 17038,
    "Ġholiest": 18814,
    "Ġunwinding": 22060,
    "poss": 4779,
    "Ġaud": 6663,
    "save": 13788,
    "Ġstride": 22620,
    "thou": 4710,
    "quohog": 21862,
    "agers": 5633,
    "Ġchina": 8040,
    "Ġanalogical": 25641,
    "cad": 17507,
    "Ġtears": 4231,
    "Ġprovocation": 24194,
    "Ġreconcile": 25292,
    "Ġsatisfied": 4172,
    "Ġapproxim": 1218,
    "ontory": 10461,
    "Ġbeauty": 3769,
    "screen": 22999,
    "Ġsignificantly": 4520,
    "Ġcork": 12575,
    "liv": 9610,
    "icate": 9204,
    "soo": 18685,
    "ideas": 18582,
    "Ġnasty": 17446,
    "Ġticking": 25036,
    "wherefore": 19110,
    "Ġcosmetic": 23473,
    "Ġgradual": 20604,
    "enstein": 5800,
    "thy": 2930,
    "Ġexhausted": 8697,
    "Ġunclasp": 26513,
    "renched": 7907,
    "thoughtfully": 24047,
    "Ġveins": 8935,
    "whereby": 23421,
    "Ġanimals": 8981,
    "Ġpretension": 23767,
    "Ġyon": 9696,
    "Ġgem": 21597,
    "reputable": 15520,
    "Ġpalpable": 15209,
    "Ġshipwreck": 20449,
    "lakeman": 13754,
    "Ġministers": 22836,
    "considerably": 13449,
    "Ġknives": 14840,
    "Ġoverlapping": 26240,
    "Ġdivergence": 2724,
    "Ġardour": 8043,
    "atived": 21265,
    "Ġseverity": 15821,
    "Ġprocure": 9513,
    "Ġfoe": 7679,
    "Ġconceals": 23907,
    "unwholesome": 26499,
    "Ġobliged": 4286,
    "Ġindomitableness": 26573,
    "Ġparliament": 18303,
    "Ġpill": 7846,
    "Ġepic": 15032,
    "gently": 13732,
    "Ġdissu": 18550,
    "allowed": 5728,
    "beating": 22493,
    "Ġaristocratic": 20516,
    "Ġquestioning": 10466,
    "Ġdiabolism": 25515,
    "Ġahead": 6664,
    "Ġreminds": 13435,
    "Ġdining": 6977,
    "scra": 13027,
    "ler": 3491,
    "Ġruth": 14097,
    "amused": 21856,
    "Ġpervers": 11788,
    "Ġinland": 11612,
    "Ġmended": 21316,
    "serve": 13052,
    "Ġconscious": 7743,
    "Ġwithstand": 10228,
    "Ġsacrificial": 24872,
    "Ġcherry": 16937,
    "Ġdepended": 9780,
    "Ġyoungster": 23180,
    "Ġobe": 5801,
    "Ġdescent": 976,
    "serv": 7450,
    "it": 276,
    "ulgent": 18152,
    "Ġthrilling": 19751,
    "Ġdenominated": 15232,
    "Ġslapped": 23172,
    "Ġafrica": 12350,
    "Ġfond": 4756,
    "Ġgrop": 12669,
    "german": 11494,
    "Ġgraces": 18226,
    "Ù": 154,
    "grateful": 10430,
    "Ġexisted": 15757,
    "Ġcleaving": 23182,
    "Ġhemisphere": 26480,
    "Ġpott": 21471,
    "Ġswerve": 14440,
    "Ġsnaky": 23744,
    "ories": 4754,
    "Ġpursued": 6329,
    "Ġnovelist": 24776,
    "restraint": 18981,
    "scoured": 22996,
    "Ġgrating": 14358,
    "Ġ11": 5319,
    "Ġsubsc": 22792,
    "Ġsting": 10863,
    "support": 9472,
    "Ġbreathless": 12175,
    "Ġdamn": 11160,
    "exclaimed": 11795,
    "Ġinnermost": 12166,
    "Ġeffeminacy": 20720,
    "anite": 17839,
    "terms": 15755,
    "Ġquarters": 8623,
    "Ġspar": 10923,
    "Ġ91": 24590,
    "Ġtremulous": 14989,
    "responsible": 25764,
    "Ġoccurred": 4463,
    "congenial": 25400,
    "Ġscandalous": 24880,
    "Ġshock": 6082,
    "Ġmanipulated": 25179,
    "Ġsphynx": 20714,
    "Ġcatch": 4442,
    "Ġaccomplishment": 19668,
    "^": 66,
    "Ġflo": 2586,
    "omy": 6249,
    "string": 15690,
    "objections": 19918,
    "Ġapplies": 11960,
    "umst": 2502,
    "Ġmary": 3844,
    "Ġshows": 8484,
    "Ġaffected": 5577,
    "inable": 11558,
    "Ġsoftware": 18920,
    "Ġfurlong": 18740,
    "Ġrejoicing": 13425,
    "Ġcrystal": 17217,
    "disappo": 8987,
    "Ġano": 11600,
    "Ġassiduous": 26294,
    "Ġembraced": 10009,
    "oup": 2012,
    "Ġsecurity": 8980,
    "Ġgrandfather": 19425,
    "Ġrefined": 18694,
    "Ġpost": 4273,
    "Ġequin": 14497,
    "ricity": 23066,
    "mong": 15393,
    "write": 14649,
    "resum": 17763,
    "glory": 23855,
    "Ġexped": 7650,
    "Ġhollowly": 24526,
    "Ġaccursed": 9449,
    "ro": 301,
    "Ġgranting": 18738,
    "Ġconveniences": 19815,
    "mbl": 5947,
    "Ġtools": 11613,
    "getic": 12971,
    "Ġduplicate": 17218,
    "Ġcorpus": 13037,
    "Ġont": 18119,
    "Ġtus": 10751,
    "Ġentirely": 3432,
    "nantucketer": 24975,
    "rum": 3469,
    "Ġcurvature": 3574,
    "plans": 21962,
    "visits": 24226,
    "plac": 15824,
    "Ġsounds": 5190,
    "ony": 3028,
    "Ġundressed": 19516,
    "ought": 829,
    "Ġriots": 23895,
    "adem": 21761,
    "Ġtries": 9153,
    "Ġtennessee": 26598,
    "rell": 11566,
    "Ġbars": 13900,
    "wet": 15455,
    "Ġbacked": 12930,
    "Ġmusical": 23896,
    "irations": 18173,
    "Ġassurance": 7774,
    "Ġpalmy": 19502,
    "Ġheaded": 11056,
    "Ġinch": 7850,
    "flutter": 23974,
    "seemed": 4304,
    "Ġegot": 18010,
    "onze": 21258,
    "Ġweb": 9243,
    "joining": 19449,
    "ashion": 3859,
    "twas": 15440,
    "haired": 14769,
    "ĠâĢľ": 516,
    "ateful": 5927,
    "Ġhart": 17924,
    "queer": 10366,
    "igating": 21703,
    "uracy": 1091,
    "Ġchanges": 2287,
    "Ġwhaleman": 4656,
    "Ġsequences": 1750,
    "seat": 18128,
    "eed": 20843,
    "Ġender": 11695,
    "Ġheeded": 13407,
    "Ġsof": 18282,
    "commod": 16179,
    "Ġbespeaking": 26311,
    "Ġfalling": 6914,
    "gno": 13730,
    "ogue": 9790,
    "frisco": 16789,
    "brow": 15319,
    "Ġchaise": 9079,
    "Ġcongen": 10875,
    "landed": 18958,
    "tottenham": 25419,
    "Ġwindpipe": 23108,
    "strikes": 24671,
    "Ġtorrents": 20059,
    "Ġ20": 8617,
    "Ġmourning": 13482,
    "Ġredeemed": 25790,
    "Ġanon": 9669,
    "Ġnail": 9198,
    "modesty": 22849,
    "Ġintensity": 10019,
    "Ġtester": 21175,
    "Ġperforms": 11882,
    "Ġdecency": 18484,
    "shazzar": 15293,
    "`": 68,
    "Ġbloody": 9891,
    "Ġmore": 677,
    "shop": 14239,
    "._]]": 5335,
    "cott": 8074,
    "Ġgeneration": 2169,
    "Ġlays": 15993,
    ";--": 8069,
    "Ġchap": 5934,
    "Ġcomplicated": 14738,
    "imagination": 13484,
    "attempt": 9363,
    "Ġmalice": 7152,
    "Ġproced": 2578,
    "instantly": 7505,
    "appear": 13200,
    "Ġsepulch": 15288,
    "Ġrepeated": 3831,
    "shorn": 22456,
    "aff": 3097,
    "Ġern": 8397,
    "oun": 482,
    "Ġconvention": 25547,
    "trembling": 17145,
    "ked": 5616,
    "Ġmainland": 22653,
    "binder": 17502,
    "surprising": 16921,
    "Ġdrew": 3537,
    "Ġpasses": 2675,
    "Ġaloud": 6253,
    "Ġincl": 4271,
    "Ġdire": 864,
    "Ġlengthwise": 10454,
    "Ġburst": 4382,
    "Ġsublim": 19970,
    "<MASK>": 4,
    "idelburgh": 10564,
    "Ġjoker": 22302,
    "Ġelig": 9781,
    "Ġunnatural": 7189,
    "Ġminute": 4279,
    "gaff": 20884,
    "Ġnap": 8813,
    "Ġfift": 6382,
    "Ġvon": 14084,
    "Ġitaly": 10869,
    "Ġornaments": 17455,
    "oysius": 14369,
    "accountable": 7110,
    "Ġmagnitude": 1943,
    "ille": 9222,
    "Ġchambers": 16801,
    "Ġstealing": 18894,
    "tout": 21068,
    "Ġobstructed": 24678,
    "Ġcongratulations": 10583,
    "kily": 20939,
    "ounts": 4653,
    "Ġbrew": 23345,
    "Ġdisconnected": 22529,
    "Ġwitnessed": 14847,
    "Ġrucastles": 18722,
    "Ġhummed": 18777,
    "Ġlimp": 19182,
    "Ġclothe": 4713,
    "Ġdeterminate": 23007,
    "ord": 664,
    "Ġgin": 13964,
    "eternal": 17985,
    "Ġeyed": 12672,
    "nephew": 26399,
    "Ġsubstances": 24168,
    "Ġteaches": 18803,
    "Ġrashly": 20308,
    "Ġsadly": 7301,
    "goin": 23406,
    "Ġinsurgents": 26602,
    "Ġvoc": 4452,
    "Ġstill": 1158,
    "Ġvalued": 12188,
    "Ġthimble": 15641,
    "Ġspasmod": 12419,
    "Ġdisgust": 6706,
    "Ġdetail": 635,
    "Ġport": 3310,
    "Ġfri": 17880,
    "Ġinduced": 8674,
    "Ġrevolve": 19733,
    "Ġwhirled": 14963,
    "Ġthirdly": 24146,
    "artic": 14227,
    "Ġaristotle": 25818,
    "Ġdegradation": 2628,
    "dear": 6556,
    "outon": 12808,
    "Ġbehind": 2805,
    "ividual": 5463,
    "Ġnile": 21524,
    "Ġxvi": 19106,
    "dangerous": 20243,
    "tland": 21076,
    "Ġexpans": 18622,
    "Ġintrude": 25991,
    "Ġescaped": 6459,
    "Ġburton": 23654,
    "Ġveil": 7934,
    "happily": 14659,
    "Ġimpenit": 22392,
    "blu": 12445,
    "Ġstarve": 24626,
    "otograph": 5827,
    "Ġskul": 22798,
    "Ġhumane": 11889,
    "Ġjeer": 24126,
    "Ġalbatross": 10873,
    "perpet": 14161,
    "arab": 21444,
    "Ġshovel": 23493,
    "Ġsleeves": 10663,
    "etieth": 21587,
    "revolver": 25628,
    "proof": 16427,
    "Ġinex": 6528,
    "Ġconsideration": 5191,
    "washed": 13051,
    "charlotte": 6473,
    "arabian": 26448,
    "Ġspell": 8859,
    "upset": 23021,
    "rates": 21041,
    "Ġfresh": 3670,
    "Ġfowl": 11332,
    "Ġcondense": 21812,
    "mil": 13755,
    "Ġsquatted": 25843,
    "Ġaverted": 16256,
    "unting": 21878,
    "Ġgarnery": 17390,
    "dÃ¦mon": 17529,
    "Ġmilan": 19538,
    "Ġunch": 18237,
    "Ġadmission": 23557,
    "slo": 17658,
    "Ġaglow": 22518,
    "fters": 20863,
    "preced": 10312,
    "ember": 1957,
    "Ġjustice": 5111,
    "Ġst": 333,
    "posture": 16929,
    "Ġevangelical": 25507,
    "Ġdiscove": 16159,
    "clerval": 7951,
    "Ġalleg": 14020,
    "Ġfriday": 14490,
    "emotions": 15799,
    "injured": 15136,
    "intention": 10370,
    "Ł": 258,
    "linearity": 1652,
    "Ġsil": 1796,
    "wedding": 12527,
    "Ġheedless": 14906,
    "Ġpaw": 12625,
    "ioning": 21512,
    "jar": 17579,
    "Ġrefusal": 10344,
    "Ġkeeled": 18809,
    "ivility": 12788,
    "Ġdisrespect": 18553,
    "Ġbra": 3253,
    "ipotence": 22363,
    "Ġchests": 19674,
    "engaged": 7451,
    "ogn": 2608,
    "magn": 10613,
    "Ġhedges": 19988,
    "floor": 14939,
    "isp": 5528,
    "Ġattic": 16102,
    "oko": 18442,
    "rospect": 11616,
    "Ġestim": 3349,
    "Ġcou": 5288,
    "Ġreus": 8826,
    "Ġauto": 23326,
    "Ġfebruary": 15917,
    "infidel": 24664,
    "itative": 13873,
    "Ġinvesting": 19644,
    "Ġunsc": 22014,
    "Ġclump": 15969,
    "urn": 775,
    "instant": 8655,
    "humor": 19455,
    "Ġnat": 12650,
    "hau": 17564,
    "grown": 10102,
    "·": 120,
    "ĠĠĠĠĠĠĠĠĠĠĠĠ": 12905,
    "Ġbefitting": 15730,
    "tan": 4743,
    "suffer": 24329,
    "Ġreign": 13988,
    "Ġhanding": 16134,
    "oat": 13767,
    "ableness": 8149,
    "Ġborrow": 10173,
    "Ġhate": 5445,
    "Ġcharmingly": 24224,
    "Ġstupid": 7606,
    "Ġnocturnal": 20717,
    "Ġbewit": 15732,
    "ely": 620,
    "attered": 4017,
    "clearly": 25196,
    "Ġstubb": 1785,
    "Ġnervously": 19186,
    "sixty": 24853,
    "Ġscraped": 16905,
    "Ġcountry": 2532,
    "persuade": 13536,
    "Ġalarming": 14785,
    "tarpaul": 21100,
    "Ġbor": 5805,
    "Ġassigned": 16314,
    "Ġsadder": 24054,
    "Ġdaniel": 15115,
    "breeding": 16677,
    "snapping": 24850,
    "sales": 17669,
    "izabeth": 909,
    "Ġeddy": 13550,
    "Ġimpunity": 14219,
    "Ġexplanations": 15914,
    "Ġransacked": 26507,
    "Ġrejoinder": 24598,
    "Ġblu": 2683,
    "Ġeye": 2282,
    "Ġcream": 22724,
    "dl": 20825,
    "âĢĶâĢľ": 2967,
    "Ġskipper": 22800,
    "Ġpap": 8802,
    "Ġrobe": 18460,
    "Ġvess": 3296,
    "Ġcelerity": 17439,
    "Ġtasks": 1787,
    "Ġoutweigh": 22326,
    "âĢľâĢĶ": 10874,
    "inous": 8776,
    "Ġmomentarily": 22814,
    "Ġslink": 23164,
    "rians": 21934,
    "track": 24335,
    "Ġsole": 3298,
    "Ġgradient": 450,
    "Ġparties": 7039,
    "Ġrev": 6988,
    "Ġgathered": 8444,
    "lestrade": 9659,
    "Ġshine": 12771,
    "Ġexamine": 7734,
    "Ġfugitive": 17330,
    "Ġmorbid": 16240,
    "recollection": 25349,
    "braces": 24659,
    "Ġomniscient": 20089,
    "Ġacquiescence": 20333,
    "Ġbreeding": 14522,
    "eers": 20845,
    "home": 7340,
    "immense": 18055,
    "flight": 15356,
    "six": 7142,
    "Ġhelm": 5276,
    "Ġemir": 23353,
    "Ġpassions": 7930,
    "activity": 22635,
    "concerted": 16674,
    "Ġsequence": 1975,
    "Ġdisappoint": 24208,
    "difficult": 10061,
    "Ġrind": 21976,
    "Ġprinces": 23226,
    "member": 20977,
    "Ġstudious": 23216,
    "Ġexist": 9234,
    "Ġfa": 4821,
    "Ġpausing": 8656,
    "contents": 12063,
    "cowardly": 25750,
    "Ġduring": 871,
    "Ġrevers": 21667,
    "Ġdistributed": 18662,
    "Ġmaggie": 26293,
    "Ġtalent": 12302,
    "echo": 15352,
    "etical": 13961,
    "Ġreasonable": 7251,
    "Ġinteraction": 7423,
    "Ġpompous": 20426,
    "Ġcontains": 2791,
    "Ġgipsies": 12413,
    "Ġcem": 17825,
    "determined": 9082,
    "Ġrail": 7225,
    "aco": 12911,
    "Ġmon": 1253,
    "Ġmors": 17803,
    "Ġprojected": 16873,
    "Ġtruce": 24118,
    "Ġbeer": 10222,
    "Ġcountryside": 23598,
    "Ġext": 896,
    "Ġdisguise": 10049,
    "Ġportion": 7491,
    "Ġprophe": 13083,
    "estim": 14172,
    "Ġscrib": 22292,
    "Ġstove": 6734,
    "©": 107,
    "Ġsteed": 13046,
    "Ġperusal": 14226,
    "Ġsoliloquized": 17305,
    "Ġcommunicated": 9064,
    "Ġvisibly": 22885,
    "Ġcharted": 22254,
    "mming": 1173,
    "Ġstable": 2695,
    "forward": 2190,
    "Ġweakness": 9970,
    "Ġseparation": 11249,
    "Ġdespairing": 14776,
    "bolt": 25138,
    "Ġphara": 23201,
    "Ġcargo": 16293,
    "Ġposted": 16726,
    "Ġcoco": 11002,
    "Ġadvertisement": 6940,
    "secure": 12241,
    "Ġpope": 11606,
    "dishon": 20407,
    "Ġpalm": 10516,
    "Ġhugest": 17017,
    "Ġprophetic": 20023,
    "Ġcalculating": 9928,
    "Ġcircling": 19094,
    "Ġimpatient": 5603,
    "yrin": 12528,
    "Ġevince": 24295,
    "aus": 1500,
    "Ġexperiments": 23008,
    "icial": 12660,
    "fairly": 17222,
    "Ġplace": 1654,
    "Ġglaring": 11913,
    "Ġtechnical": 17194,
    "Ġmixing": 24937,
    "Ġflourishing": 25188,
    "centred": 25020,
    "entreaties": 26187,
    "Ġhonor": 5664,
    "edding": 4370,
    "Ġcake": 12576,
    "leo": 21367,
    "Ġdesert": 6728,
    "Ġweek": 2823,
    "Ġnecessarily": 13254,
    "Ġmainmast": 9782,
    "ichron": 22167,
    "his": 1413,
    "advise": 24220,
    "Ġpedd": 17912,
    "oles": 21007,
    "inspect": 11561,
    "pair": 21014,
    "cheerful": 13579,
    "loun": 17590,
    "forth": 9325,
    "Ġmagnifying": 16323,
    "Ġlubber": 17447,
    "outs": 7009,
    "Ġgreeting": 18964,
    "Ġinvolve": 11048,
    "vo": 11542,
    "uplifted": 17697,
    "Ġsprung": 11250,
    "Ġornam": 15868,
    "Ġenh": 2965,
    "fold": 7545,
    "Ġcongratulate": 9066,
    "acid": 11008,
    "Ġbelongs": 8015,
    "Ġdepending": 14291,
    "Ġpledged": 20690,
    "Ġorganisation": 23585,
    "quent": 2095,
    "Ġmiserable": 3634,
    "gument": 20887,
    "hement": 13835,
    "Ġantelope": 24183,
    "Ġvirtue": 4923,
    "Ġfriendship": 7245,
    "either": 6791,
    "Ġtold": 2188,
    "Ġwra": 5906,
    "brance": 7283,
    "Ġblood": 3163,
    "Ġroanoke": 22413,
    "fifth": 20149,
    "decl": 8860,
    "Ġegyptian": 13590,
    "fortune": 4975,
    "Ġsu": 432,
    "Ġimpetus": 25570,
    "Ġencirc": 18732,
    "Ġpeleg": 3737,
    "Ġindispens": 22957,
    "allet": 11084,
    "Ġrestless": 10415,
    "Ġentail": 9794,
    "Ġexploitation": 2348,
    "ape": 1903,
    "Ġr": 406,
    "Ġplates": 11009,
    "absence": 12713,
    "Ġgeor": 3387,
    "Ġcontinue": 5398,
    "audible": 17135,
    "Ġmeasureless": 14713,
    "Ġcensus": 15100,
    "Ġintent": 6409,
    "Ġprayed": 16670,
    "Ġsurgeons": 23466,
    "dog": 10696,
    "Ġwindward": 6884,
    "Ġsideways": 6183,
    "abez": 10225,
    "Ġcheery": 16371,
    "Ġgover": 2460,
    "Ġcrows": 24034,
    "Ġdiddled": 22670,
    "Ġinterpreter": 23218,
    "Ġbuildings": 24719,
    "comm": 7439,
    "Ġmontan": 22986,
    "libr": 22926,
    "Ġadvertised": 17250,
    "prejud": 11801,
    "Ġmusket": 12301,
    "Ġreminiscences": 26271,
    "Ġsavann": 14686,
    "Ġcru": 2820,
    "Ã¦mon": 7095,
    "al": 292,
    "Ġsmoky": 22562,
    "evade": 24817,
    "Ġafternoon": 6053,
    "Ġwilson": 6631,
    "Ġchestnuts": 24381,
    "ieth": 10706,
    "Ġflee": 7080,
    "Ġpod": 15608,
    "onde": 21254,
    "dozen": 23381,
    "Ġmushroom": 13240,
    "Ġchivalry": 25820,
    "beheaded": 22497,
    "destruction": 11257,
    "Ġrelated": 3714,
    "Ġemployments": 12108,
    "ondon": 2702,
    "Ġarrest": 7408,
    "pudding": 17649,
    "Ġdiffident": 23786,
    "autions": 20769,
    "bowl": 14894,
    "Ġundo": 15844,
    "Ġernest": 8720,
    "doctor": 19097,
    "Ġcommunication": 1870,
    "Ġequator": 7460,
    "network": 1926,
    "allah": 5839,
    "Ġenthusiastic": 19969,
    "Ġtrepidation": 19217,
    "Ġtransparent": 9492,
    "Ġrefrained": 14341,
    "Ġtang": 13817,
    "Ġsubterraneous": 20268,
    "Ġsavor": 23878,
    "Ġthereupon": 18435,
    "Ġrural": 21974,
    "Ġservice": 6471,
    "Ġemail": 19074,
    "asper": 7855,
    "Ġreminded": 10002,
    "Ġportraits": 20145,
    "Ġoccurring": 2789,
    "Ġthinker": 22812,
    "listener": 24931,
    "Ġforever": 14556,
    "Ġintersect": 22579,
    "Ġintervened": 25482,
    "velled": 9879,
    "Ġgrassy": 24379,
    "Ġmidships": 23635,
    "Ġnantucketers": 9897,
    "Ġnodding": 23337,
    "Ġungodly": 26515,
    "rived": 5373,
    "Ġprovoked": 13330,
    "Ġincrease": 9373,
    "Ġdown": 830,
    "Ġlandlessness": 23383,
    "Ġsecretary": 19445,
    "Ġstool": 14464,
    "Ġtwice": 4663,
    "Ġdanger": 3520,
    "Ġsunken": 14495,
    "Ġloop": 14149,
    "Ġstudied": 11116,
    "Ġaccordingly": 6621,
    "Ġnative": 4642,
    "Ġveneration": 25047,
    "Ġelusive": 22650,
    "itage": 17818,
    "Ġcells": 13888,
    "Ġinches": 5846,
    "acing": 2714,
    "Ġresistance": 13533,
    "depend": 9115,
    "iz": 365,
    "Ġinsect": 12641,
    "Ġride": 12763,
    "Ġdumplings": 15194,
    "Ġwhe": 439,
    "Ġchiefly": 5766,
    "Ġjerked": 19835,
    "Ġlies": 5297,
    "Ġfitness": 24003,
    "severe": 21823,
    "Ġsiam": 13841,
    "Ġfool": 4235,
    "Ġ22": 8279,
    "Ġinqu": 2960,
    "Ġhave": 444,
    "ches": 2150,
    "Ġbehave": 23301,
    "Ġol": 17816,
    "Ġdoubted": 7965,
    "quickly": 14965,
    "geon": 6271,
    "run": 10723,
    "works": 6589,
    "chains": 9688,
    "saying": 8644,
    "Ġdivert": 23595,
    "oubled": 23647,
    "Ġheaps": 11646,
    "Ġgritted": 22808,
    "Ġlany": 21557,
    "Ġstandpoint": 23280,
    "belief": 13286,
    "Ġinstruct": 2861,
    "itated": 4441,
    "Ġdataset": 12821,
    "Ġfield": 1245,
    "ast": 473,
    "Ġspend": 5306,
    "Ġameric": 3854,
    "Ġhaul": 11697,
    "undertaking": 23790,
    "Ġbaboon": 19696,
    "Ġborne": 6352,
    "Ġtended": 21169,
    "Ġbrutality": 26278,
    "Ġwindings": 18911,
    "Ġmetaphys": 16415,
    "incess": 15485,
    "though": 2117,
    "Ġcalamity": 17352,
    "Ġevenings": 18755,
    "inf": 6233,
    "quality": 10235,
    "Ġpolynesian": 26027,
    "Ġunsur": 22022,
    "Ġcust": 11585,
    "Ġconcil": 23323,
    "springs": 24912,
    "Ġburnwell": 13272,
    "satisfaction": 9995,
    "declaration": 25176,
    "takes": 21079,
    "Ġhosmer": 6774,
    "Ġstreaked": 19115,
    "theast": 21752,
    "Ġspite": 4156,
    "Ġsuperiority": 14618,
    "Ġstop": 2500,
    "ply": 6366,
    "Ġcovari": 2338,
    "Ġledge": 19404,
    "Ġlinked": 15081,
    "Ġpurposed": 23554,
    "Ġoptim": 782,
    "relative": 24016,
    "under": 3126,
    "ooped": 17625,
    "pton": 15796,
    "cleanliness": 25872,
    "Ġnightfall": 23133,
    "Ġsou": 1887,
    "Ġconfounded": 16387,
    "dataset": 23235,
    "Ą": 197,
    "Ġharvest": 13419,
    "Ġcomfor": 14055,
    "Ġtranquilly": 12295,
    "Ġlovel": 10274,
    "Ġdismay": 11814,
    "lutions": 20952,
    "insufferable": 21195,
    "Ġclinch": 18425,
    "ivened": 22968,
    "Ġrode": 16005,
    "Ġpian": 13920,
    "exceed": 7911,
    "Ġprematurely": 24009,
    "sweet": 8689,
    "Ġtroublesome": 24005,
    "Ġexquisitely": 20205,
    "prit": 19345,
    "Ġmouse": 4695,
    "batt": 20780,
    "Ġposture": 24167,
    "Ġsense": 3249,
    "Ġdressing": 7091,
    "fishers": 24929,
    "quered": 11057,
    "isc": 6240,
    "Ġyarns": 15199,
    "Ġincredulous": 9990,
    "========": 2313,
    "Ġdepress": 14049,
    "ersman": 11705,
    "Ġrav": 14309,
    "bes": 6643,
    "bestow": 16931,
    "Ġmysticetus": 24923,
    "misfortunes": 16758,
    "Ġcaged": 21355,
    "Ġphrase": 11189,
    "ld": 385,
    "ropol": 10955,
    "Ġredundant": 16553,
    "rations": 10725,
    "Ġstepdaughter": 22616,
    "self": 618,
    "gunpowder": 25340,
    "proved": 11992,
    "oline": 6833,
    "_,": 2797,
    "honey": 20907,
    "Ġshelf": 12273,
    "rant": 11519,
    "Ġforgive": 8010,
    "Ġcontracted": 12865,
    "hoisting": 23719,
    "Ġcitations": 25438,
    "Ġstudents": 23217,
    "fo": 5279,
    "vac": 15453,
    "mists": 17606,
    "Ġback": 824,
    "affections": 17359,
    "Ġpow": 4639,
    "Ġslide": 10396,
    "Ġspitz": 14151,
    "Ġbenefited": 19401,
    "Ġinner": 9673,
    "Ġeucl": 24708,
    "header": 11938,
    "coronet": 16865,
    "iancy": 13014,
    "Ġfootmen": 23800,
    "overs": 17623,
    "anzas": 17842,
    "Ġstra": 2989,
    "Ġvow": 10249,
    "Ġendwise": 23138,
    "Ġvapor": 8703,
    "Ġnay": 5711,
    "fork": 20859,
    ":--": 5784,
    "tree": 11536,
    "reception": 15517,
    "tol": 17674,
    "Ġexeget": 24085,
    "Ġpreparations": 12315,
    "Ġbrah": 19360,
    "Ġwillow": 18531,
    "secut": 7867,
    "flowing": 14553,
    "Ġcollections": 22862,
    "Ġfishy": 16525,
    "cking": 4266,
    "Ġblown": 12091,
    "Ġwhisker": 23938,
    "sweeping": 24619,
    "steady": 14712,
    "Ġdrown": 6815,
    "Ġcheerfully": 12140,
    "mir": 20965,
    "athy": 14326,
    "Ġmysteriously": 24602,
    "Ġwhit": 7177,
    "Ġolder": 9330,
    "appro": 7045,
    "much": 3705,
    "Ġcravat": 26308,
    "resolution": 17768,
    "strained": 21661,
    "viating": 14581,
    "astern": 8584,
    "Ġclos": 4550,
    "Ġterrified": 14674,
    "Ġhands": 1666,
    "grate": 23415,
    "farm": 15355,
    "spir": 5738,
    "Ġdistur": 5313,
    "officer": 17055,
    "Ġ101": 24409,
    "j": 78,
    "Ġinflicted": 11367,
    "Ġplacid": 11831,
    "Ġoccupy": 14734,
    "ustomed": 6099,
    "Ġbennett": 16327,
    "ifies": 6687,
    "Ġblanched": 26284,
    "Ġfreighted": 16326,
    "Ġdeclining": 23967,
    "wh": 508,
    "izard": 10885,
    "umn": 5836,
    "cherries": 19759,
    "ug": 1766,
    "Ġexcel": 3567,
    "define": 1526,
    "Ġenticing": 22745,
    "Ġfavoring": 2345,
    "Ġaggreg": 12889,
    "elfth": 22373,
    "bulkington": 19927,
    "limp": 20954,
    "Ġscientific": 6856,
    "race": 11635,
    "Ġvirt": 3907,
    "ict": 595,
    "et": 307,
    "Ġvigorously": 11301,
    "obed": 14449,
    "Ġcollinses": 19131,
    "Ġduc": 4698,
    "perfectly": 9089,
    "critters": 14778,
    "ulance": 15771,
    "Ġbrit": 6290,
    "Ġlin": 10835,
    "imprudent": 14653,
    "Ġvarious": 3509,
    "Ġspeeding": 23565,
    "_,âĢĿ": 6219,
    "iloqu": 11652,
    "Ġsta": 18068,
    "insisted": 23070,
    "ule": 6800,
    "Ġendeavor": 16547,
    "Ġany": 687,
    "Ġaccompanying": 11306,
    "Ġstreams": 12198,
    "Ġproportions": 16470,
    "ham": 1702,
    "Ġvic": 5236,
    "whis": 7898,
    "Ġforbearance": 12333,
    "Ġmean": 744,
    "Ġbarbara": 24815,
    "Ġsave": 4052,
    "sudden": 5316,
    "Ġtrailing": 23082,
    "Ġmethod": 1527,
    "rop": 541,
    "impatience": 25501,
    "Ġwhitish": 24867,
    "Ġsteals": 23087,
    "Ġemptied": 24347,
    "Ġsomnambul": 26578,
    "Ġslo": 15509,
    "hist": 7131,
    "Ġcheerful": 6623,
    "hav": 20899,
    "chel": 11209,
    "Ġrosy": 18461,
    "se": 358,
    "oll": 5456,
    "Ġshillings": 15839,
    "isting": 5551,
    "Ġsheep": 10928,
    "Ġpitiful": 13243,
    "Ġunicorn": 22057,
    "standard": 22435,
    "Ġclustered": 25234,
    "Ġdiminishing": 4209,
    "Ġsearched": 15820,
    "Ġwoe": 4794,
    "Ġits": 707,
    "omical": 9683,
    "Ġecho": 12671,
    "Ġignominy": 15089,
    "kind": 3863,
    "acca": 23599,
    "Ġinteractions": 12908,
    "engine": 18929,
    "âĢĿâĢĶ": 5721,
    "Ġ107": 24415,
    "Ġnegatived": 23049,
    "motion": 17608,
    "oars": 9617,
    "Ġchoosing": 19593,
    "atherley": 7219,
    "Ġcomplexity": 1695,
    "Ġpar": 456,
    "Ġprojecting": 9988,
    "Ġambiguous": 20167,
    "Ġcertainly": 2496,
    "Ġunwearied": 20605,
    "Ġcomfortably": 16617,
    "Ġstreng": 18076,
    "andam": 10890,
    "Ġrecommended": 8671,
    "Ġvind": 10252,
    "call": 8726,
    "causes": 20346,
    "ara": 12612,
    "Ġoffended": 7041,
    "Ġrevolt": 24504,
    "ending": 1988,
    "Ġrotterdam": 25476,
    "cept": 554,
    "rifle": 21049,
    "Ġalighted": 18106,
    "choose": 23675,
    "Ġforbearing": 25101,
    "Ġdefine": 9818,
    "Ġgu": 1326,
    "dorff": 15241,
    "Ġcustom": 5078,
    "Ġolive": 12571,
    "are": 638,
    "upwards": 18866,
    "Ġprestige": 22240,
    "Ġfowler": 16939,
    "Ġcyl": 15561,
    "greatly": 16626,
    "Ġsevere": 6032,
    "Ġbrought": 2515,
    "cham": 10855,
    "confined": 24328,
    "Ġrestraint": 15131,
    "800": 17479,
    "column": 19331,
    "ð": 177,
    "paint": 21020,
    "blazing": 24134,
    "diversity": 25898,
    "Ġsoften": 23126,
    "precaution": 23826,
    "Ġhaven": 8475,
    "Ġprouder": 18974,
    "superstitiousness": 25509,
    "Ġcontemplate": 19894,
    "Ġbowed": 6243,
    "disappointed": 25192,
    "Ġribbed": 16806,
    "nez": 22465,
    "Ġclicked": 22356,
    "Ġimprobable": 9798,
    "Ġanalytical": 22919,
    "approaching": 15014,
    "ire": 492,
    "Ġprehens": 22235,
    "Ġgigantic": 5915,
    "breat": 10081,
    "antucket": 2641,
    "Ġblowing": 10487,
    "handle": 11192,
    "<PAD>": 0,
    "negro": 18496,
    "Ġenclosure": 20627,
    "Ġmarvellous": 7537,
    "Ġbun": 6007,
    "Ġluxuriant": 20398,
    "turbable": 24531,
    "Ġhorsham": 10408,
    "agra": 14069,
    "Ġtides": 13824,
    "common": 4129,
    "beds": 16624,
    "boom": 19000,
    "Ġinstructive": 19287,
    "Ġbottled": 23798,
    "Ġbefore": 810,
    "Ġutilize": 4799,
    "Ġbreakers": 12060,
    "Ġco": 730,
    "lose": 12887,
    "Ġdeliriously": 23232,
    "Ġcatches": 23430,
    "mmet": 10990,
    "Ġaries": 21200,
    "hend": 13257,
    "bout": 20775,
    "Ġcalling": 5662,
    "while": 2931,
    "Ġyaw": 18097,
    "Ġacquaintance": 4134,
    "Ġvivid": 8058,
    "whiskers": 12316,
    "reason": 4416,
    "Ġfunere": 22263,
    "enses": 10996,
    "Ġparents": 6753,
    "etent": 10202,
    "Ġwriter": 11950,
    "Ġmouldy": 14977,
    "Ġlie": 4408,
    "Ġcondemn": 13448,
    "ldog": 21921,
    "how": 1646,
    "Ġgloss": 11963,
    "Ġfry": 17881,
    "darcy": 5208,
    "hilar": 25084,
    "Ġaspect": 3092,
    "Ġcoarse": 14277,
    "Ġounce": 15276,
    "none": 6961,
    "Ġhydraulic": 10067,
    "ulates": 14058,
    "Ġaberdeen": 26543,
    "Ġarr": 1798,
    "Ġjump": 4505,
    "blunder": 24132,
    "aggoo": 5130,
    "airing": 16178,
    "Ġbedford": 7474,
    "Ġdishon": 12236,
    "kl": 4866,
    "Ġtwentieth": 18660,
    "umes": 10919,
    "Ġbiological": 1932,
    "Ġamaze": 22483,
    "Ġscrawled": 24581,
    "Ġquieted": 23846,
    "deception": 22149,
    "Ġfirmament": 19474,
    "Ġheinous": 18041,
    "decease": 25558,
    "Ġmanner": 2199,
    "Ġmajestic": 8643,
    "hever": 13834,
    "Ġdisconsol": 18557,
    "Ġdisturbing": 19949,
    "Ġlurks": 11292,
    "Ġinfernal": 11966,
    "Ġaval": 15496,
    "Ġtested": 23213,
    "ining": 3218,
    "Ġdance": 4443,
    "Ġkings": 7196,
    "Ġcandle": 8292,
    "Ġdynam": 3201,
    "Ġloading": 15878,
    "Ġmajesty": 5201,
    "Ġrecip": 16149,
    "Ġspir": 2428,
    "crime": 14777,
    "philosophers": 25253,
    "Ġmaid": 5287,
    "Ġaquiline": 26160,
    "Ġwarming": 23559,
    "Ġstrangers": 8314,
    "Ġanimate": 23426,
    "Ġsmallest": 6430,
    "Ġlabels": 3288,
    "yarn": 15460,
    "Ġcoffee": 6760,
    "Ġheard": 1401,
    "Ġreservoir": 20653,
    "Ġworthy": 7240,
    "Ġmaty": 22915,
    "plague": 21963,
    "Ġrigged": 16719,
    "Ġcomprehensiveness": 25075,
    "Ġschol": 17380,
    "duck": 22416,
    "Ġpeels": 22694,
    "Ġsallow": 12542,
    "arthur": 14833,
    "Ġintercourse": 11000,
    "Ġpondicherry": 20494,
    "otic": 15749,
    "isco": 12587,
    "Ġinterlacing": 22580,
    "abhor": 12712,
    "ouraged": 22864,
    "Ġchuckled": 10650,
    "Ġimagined": 8610,
    "Ġprender": 22239,
    "calling": 12455,
    "Ġstraightened": 12114,
    "pire": 9138,
    "Ġdeemed": 7613,
    "Ġnicely": 8712,
    "Ġesteemed": 10591,
    "Ġceasing": 23760,
    "Ġhovel": 8254,
    "previous": 9764,
    "obstructed": 15230,
    "Ġtroops": 24899,
    "Ġeast": 5370,
    "Ġstochastic": 3265,
    "Ġ126": 24471,
    "Ġentertained": 10001,
    "Ġfortune": 4240,
    "Ġcreditor": 24292,
    "Ġoverladen": 22370,
    "Ġusages": 15920,
    "Ġafore": 10760,
    "Ġincul": 22553,
    "dragged": 16610,
    "at": 268,
    "erting": 17779,
    "remaining": 20223,
    "fem": 17539,
    "Ġwert": 12562,
    "Ġpron": 6451,
    "Ġexter": 7396,
    "Ġcollapsed": 15085,
    "blot": 20785,
    "Ġ(": 594,
    "Ġruss": 18720,
    "aged": 2604,
    "Ġmund": 21321,
    "Ġinsolence": 20256,
    "Ġfluke": 14676,
    "magnifying": 25393,
    "Ġconfusing": 23309,
    "Ġchurchyard": 16779,
    "Ġdetermination": 9822,
    ".âĢĻâĢĿ": 6740,
    "Ġoccupies": 24011,
    "Ġirretrie": 23377,
    "Ġflushed": 13033,
    "Ġconfident": 11140,
    "simultaneously": 19866,
    "Ġrelevance": 5184,
    "xim": 1092,
    "Ġsturgeon": 20595,
    "market": 16841,
    "Ġdu": 4585,
    "Ġcultivated": 17367,
    "Ġjudged": 12089,
    "onent": 21251,
    "thouse": 21986,
    "Ġstaving": 21744,
    "buck": 17493,
    "Ġhoriz": 4727,
    "Ġemperor": 15162,
    "ingham": 21303,
    "Ġasked": 2278,
    "Ġcorroded": 18877,
    "flour": 23969,
    "sax": 21059,
    "Ġhabits": 6925,
    "Ġbraved": 23841,
    "Ġquar": 3108,
    "Ġbakers": 17868,
    "Ġpassive": 22842,
    "leton": 5148,
    "á": 162,
    "Ġdelivery": 18976,
    "Ġunusually": 15850,
    "port": 10721,
    "Ġmeditations": 25016,
    "hab": 1078,
    "Ġrecital": 16150,
    "separ": 9233,
    "Ġ120": 16860,
    "Ġalarmed": 6922,
    "oftener": 23968,
    "adventurous": 25362,
    "Ġinglorious": 24424,
    "covenant": 23563,
    "therly": 18345,
    "Ġhieroglyphics": 17306,
    "umb": 3402,
    "Ġneared": 14078,
    "Ġconfed": 13102,
    "Ġamendment": 26025,
    "Ġunreserved": 19400,
    "ractions": 11637,
    "Ġglut": 18855,
    "!--": 10680,
    "Ġyourselves": 9031,
    "calmed": 16207,
    "Ġundaunted": 24122,
    "Ġtombed": 25164,
    "irs": 14074,
    "gressive": 2749,
    "Ġdread": 3158,
    "Ġcongrat": 5828,
    "culiar": 2817,
    "wards": 1277,
    "Ġendowed": 18925,
    "Ġsquee": 7929,
    "dia": 2135,
    "seven": 8465,
    "Ě": 219,
    "Ġartistic": 18613,
    "Ġvigorous": 10569,
    "Ġomens": 21331,
    "Ġplunder": 22608,
    "mortals": 25410,
    "tar": 8098,
    "Ġfem": 6135,
    "meantime": 9095,
    "Ġsorrow": 4630,
    "ocations": 23710,
    "Ġmyst": 4051,
    "Ġthoughtlessness": 16197,
    "Ġtraining": 529,
    "Ġtransports": 24280,
    "Ġtropics": 17067,
    "x": 92,
    "imes": 1300,
    "Ġhardy": 8568,
    "Ġretired": 6071,
    "Ġwail": 21289,
    "Ġthinnest": 24186,
    "Ġlists": 11168,
    "Ġpharaoh": 26587,
    "isle": 13895,
    "icket": 22671,
    "lights": 13209,
    "Ġvenerable": 9097,
    "Ġasleep": 6835,
    "itch": 10163,
    "Ġhen": 3502,
    "hands": 5967,
    "Ġtraverse": 18891,
    "venerable": 26410,
    "ances": 1335,
    "Ġdelights": 14598,
    "despatched": 19804,
    "exp": 2733,
    "Ġdarcy": 1342,
    "Ġcrunched": 19122,
    "Ġcombination": 22855,
    "Ġunluckily": 20105,
    "Ġoblivion": 26032,
    "Ġdenomin": 12073,
    "Ġharris": 13930,
    "atives": 2237,
    "Ġroyalty": 19739,
    "Ġannesley": 19580,
    "Ġtrem": 6661,
    "Ġseclusion": 18207,
    "Ġinsipid": 26314,
    "Ġdescribe": 2762,
    "Ġsymphony": 26534,
    "Ġfossil": 12392,
    "Ġescort": 23507,
    "hereafter": 19218,
    "Ġvineyard": 12335,
    "Ġjoll": 11770,
    "terrific": 25043,
    "bud": 10686,
    "itty": 3554,
    "Ġirre": 7467,
    "hatches": 19930,
    "Ġvenge": 5420,
    "yder": 10141,
    "Ġcomplet": 4424,
    "ela": 21572,
    "retaining": 21248,
    "viv": 17700,
    "atching": 8202,
    "Ġagony": 5388,
    "reflections": 24734,
    "Ġchinese": 14186,
    "Ġscenes": 5731,
    "Ġbarbarously": 24816,
    "ushed": 2968,
    "Ġadorned": 15251,
    "Ġill": 2196,
    "Ġtr": 553,
    "Ġconsp": 10227,
    "Ġunidirectional": 3424,
    "Ġgossiping": 26245,
    "Ġbelonged": 6921,
    "iqu": 7802,
    "Ġwherein": 14298,
    "Ġmelted": 19624,
    "Ġdeportment": 22600,
    "consist": 14819,
    "Ġhow": 598,
    "Ġsuited": 12790,
    "Ġmap": 2392,
    "ationally": 15709,
    "Ġuniverse": 14126,
    "Ġbarrels": 9439,
    "Ġmultitudinous": 26275,
    "Ġparc": 10922,
    "Ġrumpled": 24601,
    "Ġoccas": 2699,
    "Ġdisagree": 22536,
    "Ġclient": 5556,
    "Ġwaif": 9378,
    "Ġostentatious": 25737,
    "bable": 8722,
    "Ġhearth": 11987,
    "Ġsaint": 15510,
    "Ġswords": 19899,
    "altering": 12645,
    "prosperity": 20737,
    "Ġuncommonly": 7759,
    "Ġgentleman": 3039,
    "who": 2445,
    "ugnance": 12372,
    "Ġecc": 11632,
    "insanity": 23071,
    "Ġuncivilized": 25499,
    "Ġspear": 9317,
    "Ġdrug": 11412,
    "explaining": 23145,
    "jur": 17580,
    "Ġscrews": 25178,
    "Ġguardsmen": 20633,
    "Ġfigured": 16646,
    "wic": 21123,
    "Ġnoiseless": 10359,
    "inav": 15487,
    "dance": 17521,
    "Ġglobular": 19012,
    "Ġembellished": 25850,
    "cause": 7795,
    "curiosity": 8627,
    "Ġtoad": 21513,
    "Ġfring": 11129,
    "Ġsnatched": 10473,
    "degree": 12806,
    "Ġuneasy": 8665,
    "endering": 21287,
    "Ġdistracted": 11808,
    "Ġinsip": 19269,
    "assistance": 20374,
    "lashed": 20956,
    "Ġlay": 584,
    "Ġorganize": 8994,
    "ocris": 23711,
    "orted": 4604,
    "Ġorganization": 7984,
    "Ġmonitors": 3152,
    "Ġacknowledged": 7533,
    "ula": 2822,
    "Ġsovereign": 10065,
    "Ġregretted": 13404,
    "Ġcatastrophic": 3542,
    "Ġrib": 4936,
    "housekeeping": 24104,
    "given": 8377,
    "Ġdislike": 6048,
    "Ġdared": 5440,
    "Ġcraven": 16472,
    "chiefly": 14849,
    "Ġdro": 2768,
    "Ġspy": 22127,
    "Ġbrave": 6330,
    "iced": 3900,
    "ban": 9587,
    "Ġdawned": 14997,
    "Ġardent": 9973,
    "Ġbad": 3986,
    "Ġhardly": 2432,
    "kine": 15379,
    "figures": 20125,
    "supplement": 14800,
    "Ġbought": 8417,
    "others": 7669,
    "agos": 21908,
    "advantages": 11273,
    "nades": 20999,
    "Ġalph": 9698,
    "Ġfolio": 11923,
    "Ġjeopardy": 13600,
    "Ġpoised": 22593,
    "Ġcyn": 13889,
    "waiting": 12226,
    "vels": 5432,
    "penetrate": 20327,
    "Ġteasing": 11895,
    "Ġbetokened": 18797,
    "cottagers": 20051,
    "Ġcongratulated": 19769,
    "Ġendeavouring": 8035,
    "Ġdegrad": 2587,
    "settle": 16664,
    "Ġfancy": 3745,
    "final": 19679,
    "Ġsighs": 22710,
    "missionary": 24616,
    "oning": 7571,
    "chors": 11648,
    "owl": 12688,
    "Ġmarling": 23037,
    "Ġprofounder": 23570,
    "Ġarsac": 11747,
    "scept": 21056,
    "ork": 415,
    "import": 5668,
    "zwilliam": 5074,
    "stoke": 18025,
    "etence": 21580,
    "oking": 4607,
    "Ġmoritz": 11911,
    "Ġruthless": 15289,
    "opposite": 19931,
    "vex": 21701,
    "Ġstubborn": 10416,
    "Ġparch": 11731,
    "protruding": 24813,
    "Ġsecondly": 14518,
    "Ġcoast": 4657,
    "Ġbolted": 12250,
    "Ġcad": 12574,
    "Ġeternities": 19946,
    "atiously": 15525,
    "Ġcasualties": 25513,
    "antled": 18287,
    "Ġmodular": 12823,
    "ckets": 6842,
    "Ġjingling": 26018,
    "Ġfortitude": 9888,
    "**": 4687,
    "spect": 3231,
    "Ġnantucketer": 6913,
    "Ġrecommending": 24333,
    "Ġrespite": 13158,
    "Ġcommanded": 6331,
    "Ġvoyage": 3052,
    "Ġcord": 5222,
    "nurse": 15212,
    "Ġtrappings": 23085,
    "Ġconclude": 8583,
    "Ġduncan": 13465,
    "Ġanimal": 2497,
    "vicious": 21121,
    "neck": 14244,
    "boards": 23256,
    "Ô": 149,
    "Ġbites": 23745,
    "definition": 23121,
    "Ġprofanely": 23571,
    "Ġbuoyancy": 20045,
    "Ġd": 284,
    "Ġsandwiched": 26612,
    "Ġvindication": 25365,
    "bodily": 17318,
    "ctuous": 9208,
    "Ġbeggars": 20632,
    "Ġbar": 3142,
    "Ġmay": 923,
    "minutely": 19596,
    "Ġbeeches": 9229,
    "Ġru": 948,
    "Ġreputation": 11644,
    "collinses": 19925,
    "Ġreciproc": 20625,
    "Ġmark": 2331,
    "tps": 11537,
    "Ġshaster": 22002,
    "Ġswearing": 16467,
    "Ġpawnbroker": 13662,
    "Ġpalaces": 24095,
    "Ġexchange": 15758,
    "attendants": 25496,
    "Ġsupplied": 8946,
    "proachable": 23401,
    "ishop": 9745,
    "simply": 20673,
    "Ġdespondency": 16580,
    "Ġdisquiet": 18552,
    "Ġplus": 3882,
    "Ġgenerations": 10966,
    "counterpart": 26361,
    "corrid": 24484,
    "Ġlacepede": 20498,
    "Ġbravely": 23842,
    "dutch": 17221,
    "Ġpleasant": 4170,
    "Ġminus": 18751,
    "vis": 4578,
    "Ġtahiti": 13623,
    "Ġimpulse": 10027,
    "Ġsacrificed": 17425,
    "cular": 15331,
    "Ġinserting": 19908,
    "Ġwhelmed": 26000,
    "Ġgazed": 6478,
    ",--âĢľ": 19199,
    "Ġbegging": 11081,
    "Ġpocket": 4899,
    "Ġcontracting": 16015,
    "Ġaid": 6123,
    "appeared": 4282,
    "affording": 23780,
    "Ġbeam": 2877,
    "Ġcreating": 2995,
    "admon": 21764,
    "heaven": 8053,
    "Ġdefendants": 15144,
    "Ġcoins": 11824,
    "Ġpoliceman": 15262,
    "escaped": 14232,
    "mus": 10113,
    "ipotent": 10962,
    "Ġphenomena": 21487,
    "Ġnapole": 15119,
    "Ġrightly": 13070,
    "Ġtossed": 5816,
    "valu": 1724,
    "cream": 15334,
    "acetti": 13400,
    "Ġattracted": 8908,
    "istic": 987,
    "Ġjaws": 5593,
    "Ġsar": 21216,
    "Ġplayfully": 19241,
    "Ġaffronted": 22896,
    ":--âĢľ": 24550,
    "Ġdrops": 9035,
    "sky": 12516,
    "Ġmess": 7831,
    "castle": 3350,
    "Ġjollity": 25567,
    "Ġgeese": 7693,
    "conf": 4957,
    "Ġalley": 15740,
    "Ġcrony": 23441,
    "fiery": 13585,
    "cures": 20807,
    "\"]": 17473,
    "Ġdisd": 7030,
    "opol": 12876,
    "/`)": 13664,
    "Ġrespects": 7268,
    "Ġtartar": 17325,
    "Ġeasy": 3450,
    "arts": 6564,
    "consumed": 25676,
    "Ġlets": 18066,
    "Ġfaltering": 17886,
    "Ġtruthful": 23870,
    "Ġfulfilment": 20190,
    "autumn": 23343,
    "Ġfruit": 12331,
    "ı": 242,
    "Ġequ": 1734,
    "firm": 10700,
    "Ġfountain": 7364,
    "Ġcoward": 7155,
    "Ġdaugh": 2293,
    "iring": 1707,
    "adler": 21766,
    "van": 7814,
    "Ġjove": 9271,
    "Ġfountains": 13506,
    "Ġwhelm": 25999,
    "Ġinanimate": 13936,
    "Ġanew": 11432,
    "few": 8203,
    "Ġensu": 7875,
    "owe": 15712,
    "Ġtoilet": 13940,
    "retch": 4373,
    "handsome": 13180,
    "Ġamazing": 9980,
    "Ġentertainment": 12228,
    "Ġperishing": 22401,
    "Ġmoccas": 22440,
    "Ġstaring": 8830,
    "Ġhesitated": 10005,
    "Ġwillingly": 8888,
    "Ġlantern": 7117,
    "fra": 8375,
    "ented": 4349,
    "gallantry": 15061,
    "str": 2576,
    "loa": 18534,
    "harmony": 25751,
    "Ġanswered": 2848,
    "worm": 15456,
    "Ġplaning": 22607,
    "._)": 10483,
    "Ġliterally": 15120,
    "Ġprivileges": 25135,
    "mit": 4934,
    "opolising": 25677,
    "generally": 9438,
    "Ġincites": 22555,
    "Ġwallowing": 24046,
    "ounced": 4954,
    "Ġrack": 9315,
    "Ġfullest": 14817,
    "weave": 22688,
    "Ġdiscernment": 15072,
    "Ġharp": 17926,
    "Ġshower": 11715,
    "Ġtapering": 8775,
    "Ġdimensions": 16573,
    "nav": 17614,
    "Ġplump": 14286,
    "separated": 20162,
    "suggested": 17302,
    "Ġnecks": 18189,
    "developed": 15268,
    "avenue": 25060,
    "rable": 11636,
    "Ġtarpaulin": 26158,
    "Ġextensive": 12949,
    "Ġjuggl": 20441,
    "Ġuser": 15919,
    "Ġpray": 3899,
    "Ġevils": 9023,
    "Ġalteration": 9549,
    "Ġshar": 9253,
    "hidden": 17374,
    "dred": 2526,
    "Ġpause": 5707,
    "Ġmate": 3707,
    "Ġmagnitudes": 3822,
    "til": 17673,
    "Ġhastily": 5763,
    "Ġdearly": 10404,
    "Ġsplit": 7993,
    "Ġquickly": 4241,
    "elaborate": 21579,
    "Ġdev": 899,
    "hum": 3778,
    "circumstances": 8047,
    "itively": 21334,
    "comple": 7440,
    "danced": 20830,
    "Ġsuperlatively": 26076,
    "descending": 16288,
    "Ġgilder": 21616,
    "Ġstring": 11832,
    "Ġtimor": 24227,
    "vellers": 16676,
    "Ġintegration": 9871,
    "Ġforster": 5230,
    "helmsman": 24289,
    "Ġbeautifully": 13271,
    "Ġcities": 17829,
    "Ġtem": 805,
    "Ġdiabol": 11455,
    "linging": 16082,
    "attest": 23122,
    "Ġsockets": 22092,
    "Ġbetween": 793,
    "ourselves": 9014,
    "Ġinte": 2066,
    "quired": 21859,
    "Ġcritically": 23446,
    "Ġnarrow": 5086,
    "fishermen": 17062,
    "Ġsorry": 4210,
    "turn": 4292,
    "Ġshooting": 11164,
    "shipping": 10310,
    "Ġirreduc": 5491,
    "Ġpiratical": 24798,
    "Ġsl": 1497,
    "Ġheld": 3586,
    "Ġtawn": 13826,
    "terr": 8154,
    "Ġdisgraceful": 15022,
    "Ġtrib": 13822,
    "Ġunwarrantable": 26346,
    "Ġmustering": 18663,
    "Ġburg": 23653,
    "fill": 15354,
    "ĵ": 246,
    "cell": 10689,
    "Ġvitality": 15176,
    "Ġtravelled": 7771,
    "Ġstartling": 14673,
    "Ġ68": 24370,
    "Ġapprehending": 26092,
    "Ġamput": 16037,
    "Ġembal": 11908,
    "Ġfanny": 23394,
    "Ġale": 9157,
    "Ġfall": 2984,
    "antically": 22100,
    "Ġunthinkingly": 26222,
    "Ġtarget": 2818,
    "Ġplanisphere": 26609,
    "Ġsne": 6372,
    "Ġrepining": 23360,
    "ores": 2414,
    "Ġlinn": 13956,
    "Ġnaturalist": 22902,
    "act": 787,
    "Ġclearly": 6896,
    "Ġpurchase": 12265,
    "Ġleft": 1759,
    "inno": 10758,
    "Ġreposing": 23361,
    "injustice": 17739,
    "Ġdus": 8424,
    "countenance": 6924,
    "Ġsnuffed": 15076,
    "Ġzeros": 3325,
    "stately": 18024,
    "Ġagreement": 18543,
    "Ġticklish": 25037,
    "Ġslumber": 13065,
    "Ġdab": 15592,
    "atter": 655,
    "Ġresignation": 18567,
    "Ġmetrics": 19089,
    "leagued": 26437,
    "Ġunsupervised": 2276,
    "Ġpr": 1599,
    "rix": 1573,
    "Ġexists": 14044,
    "Ġbrightened": 23832,
    "Ġintellectual": 11403,
    "charitable": 23936,
    "Ġshivered": 14111,
    "elf": 565,
    "Ġkitty": 3909,
    "Ġfuss": 13908,
    "covery": 11173,
    "alk": 1153,
    "Ġcaul": 10789,
    "awing": 18917,
    "Ġblasphe": 17410,
    "Ġdiscover": 4719,
    "ickering": 22673,
    "Ġrephr": 21682,
    "Ġdevotees": 25377,
    "Ġruined": 12959,
    "client": 18934,
    "Ġdistance": 3483,
    "resol": 17762,
    "Ġtwisted": 7227,
    "Ġriddle": 14823,
    "Ġcorpora": 26582,
    "Ġmenaced": 16296,
    "Ġattain": 12752,
    "Ġinsist": 9893,
    "Ġbliss": 13006,
    "lizzy": 6653,
    "Ġcas": 8412,
    "whom": 8185,
    "aring": 1475,
    "Ġsensitiveness": 23737,
    "omuch": 21643,
    "copper": 19190,
    "Ġbuzz": 24000,
    "Ġarts": 11010,
    "Ġneutral": 12749,
    "Ġtrusted": 10520,
    "Ġvaried": 11853,
    "Ġsuspicions": 9482,
    "istical": 8491,
    "Ġgentleness": 8713,
    "Ġseldom": 4631,
    "Ġagreeing": 20022,
    "itzerland": 9998,
    "Ġslanting": 23173,
    "Ġirrevocably": 15301,
    "Ġirregularly": 25324,
    "Ġsweetest": 13252,
    "Ġbowlines": 19324,
    "akers": 9743,
    "oftentimes": 19424,
    "Ġrare": 7037,
    "Ġsentimental": 24753,
    "Ġpacifics": 24373,
    "Ġcruises": 23708,
    "Ġsnowy": 9021,
    "Ġold": 1056,
    "Ġgr": 979,
    "Ġdisposal": 19379,
    "Ġstormy": 16730,
    "Ġpole": 6433,
    "lost": 8891,
    "Ġfrench": 4939,
    "Ġinterposed": 20622,
    "sole": 6169,
    "friendship": 24051,
    "prairies": 20569,
    "Ġrounds": 18885,
    "welcomed": 24645,
    "supplementary": 20552,
    "Č": 205,
    "Ġcorners": 18876,
    "irth": 5634,
    "Ġrecovered": 5481,
    "-------": 20392,
    "Ġquick": 2580,
    "neat": 22466,
    "talk": 6658,
    "Ġpillow": 10041,
    "reflect": 19867,
    "Ġfrenchman": 11285,
    "ere": 6789,
    "Ġsignification": 19205,
    "Ġaccumulated": 11936,
    "Ġdaggoo": 5441,
    "Ġfairest": 20466,
    "Ġcontrived": 10306,
    "cast": 2924,
    "Ġfoolscap": 24161,
    "Ġunparalleled": 15857,
    "hog": 8380,
    "Ġtubs": 11372,
    "rosc": 17957,
    "Ġlimb": 9405,
    "Ġsatisfaction": 5667,
    "Ġneskyeuna": 26461,
    "absent": 21794,
    "journey": 8748,
    "oblivious": 26584,
    "Ġentic": 16147,
    "family": 7323,
    "Ġvoices": 7876,
    "ivery": 17574,
    "Ġfan": 2036,
    "Ġpedro": 15066,
    "eze": 20849,
    "beware": 16043,
    "disc": 4730,
    "consolatory": 25307,
    "frightened": 17198,
    "strangely": 17279,
    "wont": 21135,
    "Ġbeach": 6542,
    "Ġsherry": 19454,
    "Ġsnap": 11202,
    "wicked": 24449,
    "Ġsignify": 16496,
    "sus": 6229,
    "Ġdauntless": 26338,
    "Ġ77": 24266,
    "._": 3217,
    "im": 327,
    "Ġlimited": 23547,
    "Ġtum": 5692,
    "Ġdy": 2509,
    "Ġanointing": 25540,
    "older": 15760,
    "bow": 5424,
    "Ġcrumbs": 19124,
    "soul": 9143,
    "Ġveiled": 16204,
    "Ġaggregate": 25678,
    "uer": 21103,
    "hibited": 17430,
    "art": 590,
    "Ġclimbing": 20073,
    "Ġmarchant": 14789,
    "accuracy": 9882,
    "eness": 2291,
    "the": 334,
    "Ġmisunderstood": 18706,
    "Ġspool": 24803,
    "Ġwakeful": 24269,
    "Ġflush": 14427,
    "Ġcarter": 18901,
    "Ġincom": 9772,
    "Ġje": 4124,
    "Ġsax": 10931,
    "Ġgoney": 14547,
    "ground": 4673,
    "Ġprocesses": 3633,
    "Ġinward": 11611,
    "Ġpoetry": 15084,
    "Ġexpatiate": 18625,
    "Ġsepulchre": 20562,
    "Ġerr": 1320,
    "Ġfury": 7660,
    "sprang": 19994,
    "unction": 10237,
    "cial": 2645,
    "Ġemboldened": 22970,
    "Ġargu": 10936,
    "zen": 5140,
    "Ġmarks": 6747,
    "ratches": 20128,
    "Ġdisgu": 8206,
    "ean": 20842,
    "Ġpaus": 4299,
    "Ġdeed": 7868,
    "Ġrivals": 20274,
    "Ġhearken": 21688,
    "horr": 14601,
    "Ġapplicable": 18998,
    "olstad": 7612,
    "uzz": 4525,
    "put": 414,
    "tranquillity": 20549,
    "agony": 14072,
    "Ġinaudible": 21502,
    "walk": 5523,
    "Ġbee": 21753,
    "bringing": 17169,
    "Ġtelegra": 11896,
    "Ġsignature": 16495,
    "Ġunharmed": 15143,
    "greek": 25405,
    "Ġbri": 21381,
    "Ġtener": 21166,
    "arboard": 7265,
    "Ġgrand": 3593,
    "Ġanywhere": 8518,
    "Ġsubterranean": 13615,
    "Ġcongenial": 12416,
    "Ġburke": 19253,
    "chers": 11319,
    "empt": 2616,
    "corpse": 24486,
    "Ġislets": 21805,
    "soundest": 24796,
    "Ġboarders": 16602,
    "Ġtyro": 16996,
    "Ġsimilar": 4918,
    "gone": 6504,
    "Ġfrivolous": 26177,
    "Ġloops": 8856,
    "Ġdip": 13910,
    "Ġintended": 5548,
    "Ġscot": 5643,
    "natural": 2309,
    "ferences": 10329,
    "Ġinhabited": 12191,
    "drown": 13708,
    "ubb": 1651,
    "power": 7137,
    "Ġbead": 21754,
    "iling": 3089,
    "Ġdowncast": 18652,
    "bottom": 11428,
    "Ġdiscoursing": 26268,
    "Ġaugment": 8695,
    "esteemed": 26010,
    "gather": 20877,
    "unknown": 10892,
    "Ġheaved": 9386,
    "Ġpurport": 14583,
    "Õ": 150,
    "ĠĠĠĠĠĠĠĠĠĠĠĠĠĠĠĠĠĠĠĠĠĠ": 16230,
    "Ġrevered": 23736,
    "Ġwhel": 15870,
    "Ġskin": 5038,
    "Ġclutches": 20021,
    "clusion": 16308,
    "reen": 21234,
    "ĠĠĠĠĠĠĠĠĠĠĠĠĠĠĠĠĠĠĠĠĠĠĠĠĠĠĠĠĠĠĠĠĠĠĠĠĠĠĠĠĠĠĠĠĠĠĠĠĠĠĠĠĠĠĠĠĠĠĠĠ": 19262,
    "Ġbehoo": 19034,
    "Ġfoam": 6890,
    "Ġblasted": 7938,
    "Ġrede": 13987,
    "timidity": 25754,
    "atic": 4016,
    "bulwarks": 12278,
    "Ġshilling": 18229,
    "moil": 22706,
    "uteronomy": 15668,
    "Ġbattering": 13904,
    "magnificent": 20277,
    "Ġchrysalis": 26540,
    "throt": 25660,
    "Ġconcoct": 19046,
    "laid": 10112,
    "Ġinstances": 5568,
    "seldom": 13790,
    "hawk": 7122,
    "ps": 4575,
    "conceivable": 17133,
    "Ġminiature": 11042,
    "Ġlod": 4043,
    "Ġben": 1109,
    "Ġplaint": 10328,
    "Ġthree": 1370,
    "Ġharpooneers": 4733,
    "Ġdissimilar": 22535,
    "speaking": 12104,
    "Ġtease": 18801,
    "Ġwebster": 20164,
    "Ġthursday": 12649,
    "Ġsizes": 1521,
    "vere": 4884,
    "ell": 397,
    "scythes": 26404,
    "Ġproduce": 4368,
    "Ġpool": 5173,
    "humoured": 11238,
    "Ġach": 2618,
    "author": 9863,
    "Ġrequirements": 9793,
    "Ġmeta": 3568,
    "Ġassur": 6074,
    "Ġweakened": 16825,
    "continue": 16863,
    "Ġpeasants": 12337,
    "Ġempt": 5051,
    "Ġandes": 12646,
    "Ġbreak": 2865,
    "stool": 23823,
    "contempt": 13192,
    "d": 72,
    "ioneer": 15636,
    "Ġphiladelphia": 26606,
    "supportable": 12375,
    "stript": 21660,
    "Ġimpet": 11784,
    "Ġunconsc": 6553,
    "Ġscreamed": 9527,
    "Ġcongealed": 25982,
    "Ġhandsome": 4907,
    "Ġkith": 22196,
    "Ġentreating": 24210,
    "ob": 1421,
    "Ġgame": 3628,
    "Ġhe": 318,
    "Ġpatagonian": 20537,
    "Ġuntutored": 19168,
    "Ġmentioning": 9902,
    "Ġpath": 2114,
    "sis": 1860,
    "iantly": 13742,
    "ouement": 21451,
    "Ġju": 10289,
    "Ġbackground": 18650,
    "Ġbrother": 2744,
    "Ġugliness": 20430,
    "Ġeyelashes": 26107,
    "reliable": 21243,
    "Ġattach": 14296,
    "ward": 705,
    "Ġshan": 9252,
    "lilies": 20963,
    "trouble": 8296,
    "sufficient": 6637,
    "Ġpromise": 4199,
    "Ġdominion": 16530,
    "Ġestimable": 23875,
    "Ġaccomplished": 7105,
    "Ġappearances": 10453,
    "Ġsmart": 11820,
    "Ġshaved": 22006,
    "Åĵuvre": 25888,
    "announcement": 24563,
    "Ġstrengthen": 20703,
    "Ġoscillations": 2895,
    "Ġnatures": 16508,
    "Ġperish": 8878,
    "Ġperuvian": 18454,
    "counters": 25398,
    "Ġsprang": 5064,
    "batim": 25019,
    "never": 3147,
    "Ġdeft": 21840,
    "Ġhurry": 4914,
    "Ġcentre": 5123,
    "Ġtransl": 2826,
    "increas": 10456,
    "rippa": 11343,
    "Ġlikeness": 11181,
    "ates": 518,
    "Ġstatements": 7515,
    "Ġshaggy": 13574,
    "Ġseals": 11700,
    "stained": 21658,
    "allingly": 22203,
    "Ġtoo": 1167,
    "Ġfists": 15587,
    "uzza": 11272,
    "noon": 5037,
    "Ġdeductions": 19736,
    "Ġanomaly": 25637,
    "20": 20755,
    "Ġforesight": 13132,
    "Ġstrive": 23696,
    "Ġdischar": 11813,
    "Ġglove": 14493,
    "Ġ46": 19494,
    "undoubtedly": 13316,
    "Ġpoignant": 22596,
    "mild": 15395,
    "uncontrollable": 20599,
    "Ġkate": 15909,
    "ter": 359,
    "Ġhails": 21954,
    "Ġah": 5075,
    "Ġthreatened": 8330,
    "Ġstack": 21740,
    "inent": 9631,
    "bled": 5469,
    "beings": 12881,
    "rank": 21044,
    "ded": 2752,
    "oda": 15754,
    "rin": 10124,
    "Ġsucceeding": 16763,
    "Ġcul": 17824,
    "Ġdeprec": 15762,
    "bright": 8992,
    "Ġfrowning": 13627,
    "pause": 12506,
    "Ġhazarded": 25655,
    "endeavouring": 15018,
    "jointed": 24013,
    "Ġtumultuous": 10618,
    ".âĢĻ": 1719,
    "harpooned": 24288,
    "Ġdepend": 776,
    "Ġimm": 3964,
    "Ġlogger": 11959,
    "Ġsequentially": 4915,
    "Ġlombardy": 26465,
    "orney": 17875,
    ".}": 20747,
    "Ġakin": 15498,
    "Ġinjunction": 19620,
    "aft": 9586,
    "sequ": 2401,
    "luyt": 18455,
    "usations": 15946,
    "Ġloves": 10917,
    "Ġsuspicious": 9483,
    "inquiry": 15146,
    "Ġpikes": 21481,
    "Ġsoliloqu": 11890,
    "informed": 17738,
    "deed": 1520,
    "Ġwarmly": 8990,
    "scotland": 20532,
    "Ġpantheistic": 26337,
    "fa": 7335,
    "Ġfancying": 12118,
    "Ġrouted": 24908,
    "Ġdegree": 3703,
    "breakfast": 8691,
    "seated": 11676,
    "Ġsequential": 2133,
    "dream": 8731,
    "Ġphysiognomical": 25612,
    "chester": 23809,
    "Ġpled": 17909,
    "Ġbefell": 14013,
    "aples": 20770,
    "Ġunlucky": 10053,
    "neys": 23584,
    "Ġgips": 10843,
    "Ġproble": 1110,
    "hall": 8085,
    "Ġdat": 496,
    "oughed": 22085,
    "turned": 7305,
    "Ġahab": 1215,
    "Ġhappens": 2191,
    "athom": 12944,
    "Ġug": 8141,
    "action": 3725,
    "application": 12368,
    "Ġscimet": 22297,
    "Ġasylum": 13670,
    "Ġdistinguish": 2723,
    "risonment": 17378,
    "Ġwidest": 24237,
    "deduction": 23670,
    "Ġsimpleton": 16338,
    "Ġoverheard": 11779,
    "Ġtun": 5999,
    "Ġpleasing": 6191,
    "gale": 13727,
    "Ġprecipitate": 19945,
    "Ġpestilent": 25778,
    "Ġregain": 22589,
    "Ġdamning": 19141,
    "Ġstraightway": 9020,
    "Ġfog": 9664,
    "wise": 2573,
    "Ġreplen": 11117,
    "Ġreflect": 6574,
    "Ġvows": 15812,
    "Ġphyset": 23202,
    "vious": 1783,
    "Ġrainbows": 19651,
    "Ġ1839": 20463,
    "ilingly": 21727,
    "Ġegotistical": 26193,
    "Ġprofessor": 11232,
    "Ġdungeon": 16998,
    "Ġunimag": 12779,
    "Ġneighbouring": 12124,
    "Ġsleepless": 14584,
    "Ġdegenerating": 25800,
    "why": 2825,
    "Ġtwos": 18658,
    "nt": 921,
    "Ġjohn": 5032,
    "aviour": 11006,
    "irious": 15790,
    "Ġbathe": 25444,
    "Ġmoulded": 16977,
    "Ġreplay": 5047,
    "ahab": 4290,
    "dry": 13707,
    "Ġanger": 5442,
    "bod": 12442,
    "Ġconfidence": 6591,
    "Ġkicking": 16903,
    "Ġbeware": 8832,
    "Ġ109": 24416,
    "Ġsuppress": 13029,
    "Ġundulating": 19520,
    "abiding": 21797,
    "Ġhistorically": 19381,
    "Ġstress": 18072,
    "stalk": 21653,
    "Ġusing": 713,
    "or": 282,
    "Ġmerciless": 25247,
    "Ġcommitting": 22676,
    "athans": 7432,
    "Ġthack": 21520,
    "iv": 430,
    "Ġposter": 14278,
    "gage": 13726,
    "tum": 11534,
    "meryton": 10114,
    "allows": 15911,
    "Ġbespe": 19244,
    "Ġextant": 18690,
    "icuous": 10837,
    "Ġceaseless": 13492,
    "Ġsmells": 8893,
    "sister": 5139,
    "haustible": 16893,
    "Ġdint": 15595,
    "Ġsand": 6236,
    "Ġharpooned": 13266,
    "Ġunhappiness": 14120,
    "Ġstirs": 14920,
    "mon": 2308,
    "azore": 23464,
    "Ġadjusts": 8983,
    "Ġserv": 3329,
    "hyena": 24255,
    "lad": 5992,
    "Ġweep": 7619,
    "Ġtear": 6723,
    "Ġpunch": 9958,
    "Ġsmoothed": 23658,
    "Ġsentence": 6188,
    "Ġwraps": 19779,
    "Ġalpha": 13592,
    "acc": 2533,
    "Ġfainted": 8796,
    "Ġsin": 1514,
    "Ġmoney": 3417,
    "Ġ34": 16679,
    "Ġunfailing": 24113,
    "Ġstruggled": 9908,
    "iles": 2858,
    "Ġtomb": 8812,
    "departure": 15238,
    "Ġfirmness": 11239,
    "Ġsacrilege": 26230,
    "one": 617,
    "Ġslept": 8259,
    "Ġtreading": 16507,
    "Ġsteep": 2886,
    "uning": 1311,
    "Ġlect": 9223,
    "opp": 6962,
    "Ġdirty": 9181,
    "Ġwreaths": 25938,
    "Ġhare": 5157,
    "Ġsuburban": 17349,
    "shaw": 6863,
    "Ġforeb": 12009,
    "resides": 23671,
    "Ġignorant": 5344,
    "Ġgirls": 4280,
    "Ġjealous": 9471,
    "qualified": 17099,
    "Ġconcepts": 4552,
    "Ġbelieve": 2147,
    "ouse": 1193,
    "Ġporch": 19683,
    "Ġdilig": 8350,
    "app": 1040,
    "ê": 171,
    "Ġemerging": 24613,
    "inqu": 6122,
    "Ġpleasurable": 23341,
    "Ġtiller": 8968,
    "quiet": 6155,
    "Ġnewcastle": 16226,
    "igators": 18048,
    "Ġby": 383,
    "Ġinscrut": 10037,
    "publ": 17640,
    "Ġseaward": 22950,
    "Ġdisappearance": 9300,
    "thorough": 21989,
    "Ġencompassed": 15257,
    "asher": 15650,
    "Ġdefects": 12338,
    "importance": 9992,
    ";âĢĿ": 7790,
    "imming": 9690,
    "Ġlit": 6247,
    "Ġknow": 632,
    "Ġtriumphant": 12195,
    "sullen": 17671,
    "Ġfad": 17878,
    "shipmates": 11933,
    "eh": 13713,
    "Ġcurses": 13018,
    "dest": 4104,
    "Ġoccasioned": 13232,
    "Ġburning": 5977,
    "Ġarrang": 2467,
    "merchant": 10469,
    "Ġcor": 1321,
    "uded": 6287,
    "Ġwalrus": 14976,
    "Ġwol": 15533,
    "gain": 8740,
    "Ġsold": 6003,
    "humorously": 24023,
    "Ġtrained": 8504,
    "Ġpulse": 13119,
    "butter": 11790,
    "Ġretiring": 16283,
    "ributed": 8215,
    "degrees": 22154,
    "Ġcongreg": 8464,
    "reement": 15514,
    "opposition": 24820,
    "Ġlung": 7167,
    "Ġrubber": 22790,
    "passed": 8026,
    "ations": 710,
    "Ġpostponed": 20393,
    "acute": 22601,
    "ments": 1402,
    "nest": 10116,
    "threshold": 21991,
    "renewed": 19707,
    "Ġunable": 4951,
    "axed": 8892,
    "Ġlam": 21552,
    "Ġspan": 11733,
    "Ġbusier": 23339,
    "Ġcollege": 11426,
    "Ġperiod": 4002,
    "Ġflaming": 8566,
    "armon": 23062,
    "Ġfins": 9666,
    "Ġgranted": 22810,
    "Ġfor": 340,
    "Ġdivined": 19446,
    "Ġheavier": 13106,
    "Ġtrowsers": 9630,
    "Ġrush": 5925,
    "jet": 13745,
    "Ġmasts": 6465,
    "Ġrelationship": 2316,
    "val": 1171,
    "ep": 442,
    "Ġoppression": 23652,
    "evening": 7090,
    "odhead": 18123,
    "atches": 13849,
    "Ġcorrectly": 9407,
    "compliments": 24807,
    "Ġdinah": 9457,
    "Ġbestow": 6455,
    "Ġsample": 3174,
    "Ġkeels": 11063,
    "elt": 4116,
    "Ġoutbreak": 22321,
    "Ġclear": 1949,
    "Ġimpertinence": 11368,
    "goldsmith": 20150,
    "Ġchose": 7412,
    "othed": 16513,
    "Ġpubl": 3940,
    "Ġunsolved": 22033,
    "Ġoverbearing": 12849,
    "laz": 15389,
    "apering": 8041,
    "Ġarg": 4767,
    "Ġknelt": 12164,
    "Ġthrust": 5084,
    "Ġfinanc": 23130,
    "ouble": 2658,
    "Ġperfectly": 3700,
    "Ġdup": 21430,
    "hel": 4815,
    "Ġenviron": 4034,
    "ay": 354,
    "inks": 6868,
    "mbling": 3345,
    "Ġambitious": 18512,
    "Ġfunctional": 3046,
    "ħ": 232,
    "Ġbloodthirst": 23804,
    "Ġbuying": 23999,
    "Ġfurnaces": 24008,
    "orrowed": 19291,
    "confirmed": 19643,
    "Ġassumpt": 5415,
    "Ġadieu": 10054,
    "Ġvest": 8163,
    "Ġdom": 2756,
    "angled": 6843,
    "Ġstruck": 3389,
    "Ġprairie": 8716,
    "accusations": 23601,
    "Ġoffer": 4845,
    "Ġapp": 497,
    "Ġdeg": 3281,
    "Ġarm": 2491,
    "ooping": 21009,
    "Ġheight": 4220,
    "Ġharbor": 10030,
    "Ġlightly": 13088,
    "Ġperiodically": 19497,
    "closed": 23155,
    "sex": 12718,
    "Ġpreaching": 15930,
    "abominable": 20597,
    "Ġstacked": 21750,
    "Ġalive": 4400,
    "Ġslowly": 3618,
    "bran": 23575,
    "social": 11024,
    "fier": 9596,
    "Ġaddition": 1146,
    "warmly": 25029,
    "Ġbran": 5251,
    "Ġalleghan": 25796,
    "Ġwhalemen": 3912,
    "Ġmann": 18417,
    "Ġin": 291,
    "Ġprovince": 24192,
    "Ġsteadfast": 8682,
    "rs": 7807,
    "fight": 17540,
    "constable": 24606,
    "ditch": 17530,
    "Ġimpassable": 20615,
    "Ġ58": 24322,
    "Ġlion": 9678,
    "Ġnow": 690,
    "probably": 10023,
    "Ġdarted": 4759,
    "Ġlaboratory": 13616,
    "coburg": 13602,
    "Ġscholars": 26113,
    "Ġlucases": 9013,
    "Ġprudent": 9188,
    "Ġhighlands": 22778,
    "Ġcrowded": 8012,
    "typewritten": 26039,
    "ado": 11662,
    "Ġbath": 9661,
    "Ġdexter": 9704,
    "Ġarms": 3965,
    "Ġexhausting": 24709,
    "imson": 12694,
    "discovery": 12022,
    "bos": 17486,
    "Ġpatches": 4237,
    "fain": 13718,
    "money": 8753,
    "olidity": 18135,
    "rendered": 22343,
    "Ġhyperborean": 26341,
    "Ġfeeling": 3080,
    "Ġpoint": 2056,
    "Ġaudibly": 24770,
    "Ġgallantry": 15107,
    "bons": 17489,
    "Ġpri": 5814,
    "scenes": 16247,
    "bly": 6111,
    "retirement": 23143,
    "erity": 21270,
    "Ġmediocrity": 26610,
    "Ġprotect": 6338,
    "Ġsolid": 6443,
    "Ġridic": 7507,
    "Ġearnest": 3930,
    "Ġshin": 18228,
    "Ġstains": 21748,
    "Ġmem": 2070,
    "Ġhor": 1663,
    "historical": 20469,
    "Ġwa": 1752,
    "Ġes": 8773,
    "Ġintimate": 6550,
    "wes": 17705,
    "sensibility": 25026,
    "c": 71,
    "Ġmosses": 20166,
    "dead": 8180,
    "harpoone": 6108,
    "Ġassemblage": 26354,
    "attachment": 13057,
    "Ġsordid": 26424,
    "Ġplead": 14458,
    "hearse": 17750,
    "Ġglared": 13023,
    "Ġmisgiv": 14348,
    "stayed": 25291,
    "Ġpurest": 14942,
    "Ġsavage": 4009,
    "Ġclout": 22347,
    "Ġchannel": 26013,
    "acknowledge": 18469,
    "Ġwarmer": 19187,
    "Ġvicious": 24403,
    "Ġincurable": 22556,
    "usions": 6160,
    "mark": 5282,
    "Ġadoption": 24951,
    "jury": 15377,
    "Ġother": 757,
    "Ġthrill": 24541,
    "unusual": 21883,
    "Ġmount": 7361,
    "Ġsure": 1865,
    "physiogn": 26266,
    "Ġtexel": 25924,
    "Ġtorments": 13398,
    "sebastian": 21824,
    "Ġdownright": 16122,
    "Ġprivilege": 11421,
    "preser": 9763,
    "Ġnights": 7257,
    "Ġsecluded": 11998,
    "tem": 6369,
    "Ġcanada": 22170,
    "Ġross": 2761,
    "Ġwhere": 786,
    "Ġtrifling": 10605,
    "nam": 2765,
    "repairing": 24495,
    "Ġprejudice": 9078,
    "Ġcountenance": 3969,
    "Ġopinion": 3137,
    "Ġbasics": 13452,
    "Ġsinks": 19552,
    "estruct": 22231,
    "onings": 21255,
    "Ġpertur": 12856,
    "marest": 20982,
    "Ġcordial": 16837,
    "Ġconsulted": 13434,
    "complacency": 19916,
    "Ġwaxed": 21300,
    "Ġcables": 15562,
    "Ġantics": 24181,
    "diminished": 20841,
    "Ġcannib": 6036,
    "Ġgouge": 26190,
    "falling": 24361,
    "relate": 24014,
    "Ġsubproblems": 12962,
    "abilizing": 2920,
    "Ġunobstructed": 18262,
    "Ġmansion": 17811,
    "directed": 20408,
    "ylon": 24978,
    "Ġexc": 1830,
    "Ġpromises": 10403,
    "Ġpearl": 20380,
    "oar": 12503,
    "Ġsize": 1217,
    "Ġmention": 2983,
    "Ġnought": 21525,
    "estone": 18365,
    "owers": 12689,
    "Ġwarbling": 26169,
    "Ġseated": 4542,
    "Ġcreat": 1383,
    "securer": 25603,
    "pity": 17629,
    "Ġefforts": 11810,
    "Ġbradstreet": 9579,
    "Ġmassive": 9935,
    "Ġintegrity": 12318,
    "Ġsharpened": 17368,
    "Ġpennies": 17273,
    "Ġliberties": 19670,
    "Ġmccauley": 26429,
    "Ġexperiences": 13030,
    "Ġadored": 18292,
    "Ġparallelization": 3429,
    "Ġconsequence": 5542,
    "andy": 8158,
    "lotte": 3331,
    "Ġstately": 9837,
    "Ġfluid": 11214,
    "Ġlithe": 24669,
    "Ġdey": 11679,
    "Ġoverthrown": 18432,
    "Ġmunro": 25631,
    "Ġdecember": 15009,
    "Ġassist": 3564,
    "phenomenon": 17650,
    "Ġmaintaining": 1508,
    "Ġsubfield": 11874,
    "Ġwished": 3728,
    "irregular": 21915,
    "vener": 21114,
    "accur": 14595,
    "Ġsnatch": 14641,
    "Ġsmiting": 12903,
    "little": 3352,
    "Ġaccountability": 10440,
    "Ġexploring": 4305,
    "Ġwight": 12559,
    "Ġlatin": 16823,
    "Ġorganically": 3010,
    "Ġlining": 13954,
    "Ġgrapes": 15219,
    "Ġ124": 24469,
    "they": 1879,
    "Ġfail": 4149,
    "perquisites": 26532,
    "Ġnurtured": 19752,
    "forced": 11033,
    "Ġlanyard": 26463,
    "umps": 6318,
    "contrast": 25595,
    "Ġdefile": 18825,
    "Ġmotive": 6091,
    "Ġtooth": 9195,
    "Ġq": 1084,
    "Ġplunge": 13447,
    "pulous": 15419,
    "Ġconcealing": 23906,
    "Ġadieus": 25113,
    "Ġworms": 25217,
    "umber": 5240,
    "Ġ55": 24319,
    "Ġeligible": 10673,
    "Ġeternally": 11371,
    "Ġenters": 11028,
    "atmospheric": 17778,
    "trem": 17683,
    "Ġkrempe": 10672,
    "Ġaccomplish": 14879,
    "Ġrubbing": 9324,
    "Ġnlp": 3059,
    "compar": 14362,
    "Ġultimately": 17167,
    "degrad": 22147,
    "i": 77,
    "Ġrandomly": 1918,
    "news": 23135,
    "Ġkentuck": 19893,
    "sing": 5138,
    "Ġginger": 9213,
    "Ġattitude": 8907,
    "caught": 8730,
    "only": 3308,
    "fitters": 24760,
    "Ġplayful": 19239,
    "Ġskill": 6871,
    "abhorred": 17339,
    "Ġaccess": 9750,
    "een": 725,
    "Ġsuppl": 11080,
    "Ġfrigates": 25707,
    "harpooneers": 8693,
    "Ġcasualty": 20344,
    "Ġpatagon": 14507,
    "eur": 7544,
    "Ġbeh": 1801,
    "Ġtrif": 6270,
    "Ġknights": 15153,
    "ograph": 4798,
    "Ġwhoa": 22424,
    "Ġcompar": 4772,
    "Ġmogul": 12867,
    "Ġcontinual": 6777,
    "nostril": 26561,
    "Ġaversion": 18868,
    "Ġnur": 5710,
    "Ġlad": 2365,
    "Ġfull": 2181,
    "icious": 7379,
    "mediate": 16516,
    "Ġloadstone": 25817,
    "Ġmagnific": 16322,
    "Ġstandards": 19017,
    "pall": 17630,
    "Ġapparently": 6778,
    "Ġtroubling": 26549,
    "rinted": 21046,
    "interrupt": 8619,
    "Ġunassuming": 20512,
    "Ġcuring": 21347,
    "Ġpolicy": 10459,
    "Ġmedicine": 15210,
    "Ġsworn": 14438,
    "÷": 184,
    "Ì": 141,
    "diligence": 26111,
    "Ġcomfortless": 23916,
    "problems": 11436,
    "chan": 1147,
    "Ġengagement": 5397,
    "Ġcastaway": 16643,
    "Ġtigers": 25759,
    "Ġmurderer": 4980,
    "suited": 22636,
    "Ġtack": 5621,
    "Ġenvelope": 7318,
    "immortal": 21713,
    "Ġfilters": 3928,
    "obey": 11512,
    "benevolent": 15237,
    "Ġtophet": 23574,
    "Ġfiss": 21415,
    "Ġdreamt": 23942,
    "calcul": 12992,
    "eg": 17531,
    "Ġprojects": 9514,
    "Ġautonomous": 10678,
    "Ġeuroclydon": 15300,
    "recollect": 17226,
    "Ġacceler": 1610,
    "atively": 2692,
    "Ġprecious": 5760,
    "Ġfow": 6134,
    "sleepy": 24728,
    "Ġminima": 3463,
    "ele": 9117,
    "stein": 5505,
    "Ġhourly": 23303,
    "Ġtresses": 21178,
    "Ġenjoyment": 7299,
    "Ġespe": 21158,
    "hastened": 16847,
    "topic": 10530,
    "Ġbias": 1192,
    "Ġcrowds": 14742,
    "Ġunited": 6839,
    "Ġreturn": 1711,
    "Ġmove": 5107,
    "Ġpassers": 18758,
    "Ġlabors": 23330,
    "Ġenergy": 2551,
    "Ġintermission": 18588,
    "Ġemper": 9864,
    "seems": 10877,
    "intellect": 18823,
    "Ġattitudes": 16103,
    "circumamb": 26088,
    "Ġmeas": 1096,
    "Ġcolourless": 19572,
    "conviction": 19968,
    "yramid": 8368,
    "Ġconcentric": 20078,
    "hun": 5210,
    "murdered": 12208,
    "Ġshield": 22003,
    "Ġmutter": 23957,
    "Ġaddresses": 3768,
    "Ġslipped": 6492,
    "Ġeh": 6987,
    "comrade": 18745,
    "Ġbuckler": 24860,
    "##": 2317,
    "omically": 13979,
    "Ġisland": 4049,
    "ide": 721,
    "ected": 7873,
    "Ġpinioned": 21486,
    "conqu": 14247,
    "earthquakes": 24724,
    "Ġpredictions": 1455,
    "Ġdigging": 14941,
    "Ġpent": 17905,
    "Ġworsh": 13005,
    "Ġdiscoveries": 13363,
    "Ġlikelihood": 16503,
    "beauty": 20107,
    "Ġintrusion": 12770,
    "Ġsunda": 13547,
    "Ġpetulance": 24230,
    "ta": 13792,
    "Ġzoned": 22821,
    "onies": 6806,
    "asiness": 8129,
    "Ġwalk": 1824,
    "Ġupon": 719,
    "Ġinhuman": 13932,
    "ā": 194,
    "Ġdemands": 19641,
    "visit": 7754,
    "receive": 12548,
    "Ġspeakest": 23487,
    "pents": 11515,
    "Ġkrusenstern": 26379,
    "Ġpan": 5082,
    "Ġunexpected": 6840,
    "point": 6063,
    "Ġheed": 5630,
    "Ġjem": 18403,
    "Ġmanilla": 15963,
    "Ġmeals": 12716,
    "Ġbegun": 7242,
    "Ġovertaken": 18431,
    "rule": 15904,
    "limbs": 20194,
    "Ġpriest": 7525,
    "mathemat": 19139,
    "plete": 10921,
    "Ġcordiality": 24395,
    "success": 6711,
    "Ġunctuousness": 17237,
    "Ġinference": 9674,
    "disgrace": 16460,
    "compared": 24036,
    "escript": 18470,
    "beloved": 19464,
    "Ġembarr": 7445,
    "Ġval": 977,
    "gration": 9124,
    "roy": 7854,
    "sory": 17661,
    "Ġmud": 11576,
    "oqu": 7554,
    "Ġshuttle": 12132,
    "Ġseasons": 9434,
    "murmured": 24455,
    "Ġconstraint": 16515,
    "Ġcurds": 22976,
    "cup": 10694,
    "Ġraising": 8913,
    "Ġhanover": 20589,
    "despairing": 25077,
    "Ġlaw": 3654,
    "perse": 15897,
    "mountain": 10715,
    "Ġtread": 9412,
    "ate": 423,
    "Ġpreyed": 18367,
    "if": 375,
    "rights": 23678,
    "wrapped": 15213,
    "Ġkept": 3346,
    "Ġdi": 6525,
    "person": 7745,
    "Ġ221": 25071,
    "epend": 3315,
    "Ġashore": 5352,
    "Ġexhilarating": 26339,
    "Ġmathematics": 12079,
    "Ġsat": 1134,
    "Ġdizzy": 21435,
    "Ġannounced": 9037,
    "Ġemac": 16406,
    "Ġsuperflu": 14557,
    "Ġten": 2387,
    "Ġsensations": 5260,
    "Ġvort": 18194,
    "Ġfloating": 6605,
    "moor": 22705,
    "Ġbloodthirsty": 26603,
    "Ġidler": 16404,
    "Ġpaste": 23422,
    "tube": 20414,
    "reshold": 21242,
    "Ġpersian": 11094,
    "preserving": 25305,
    "receiving": 12549,
    "Ġwhipping": 21719,
    "Ġintense": 6158,
    "Ġvishnoo": 12758,
    "my": 1314,
    "contented": 14636,
    "Ġlarger": 1403,
    "menced": 23147,
    "Ġenjoys": 19453,
    "unhappy": 10240,
    "Ġmet": 1945,
    "Ġyoke": 18098,
    "Ġgoble": 14233,
    "avor": 14279,
    "eight": 9594,
    "Ġcastors": 23979,
    "Ġpenn": 11114,
    "Ġ166": 25007,
    "Ġjoys": 13225,
    "Ġdiverse": 19211,
    "Ġalas": 5922,
    "reputation": 15518,
    "quick": 6400,
    "america": 17098,
    "Ġxerxes": 23414,
    "untering": 15780,
    "Ġunfolded": 10641,
    "Ġeth": 17718,
    "underneath": 23791,
    "Ġargemone": 24277,
    "Ġnoises": 18375,
    "Ġburgled": 23655,
    "Ġcurve": 22973,
    "Ġmaze": 23834,
    "Ġvan": 1086,
    "Ġschooner": 16749,
    "Ġautonom": 10418,
    "Ġparallel": 1416,
    "Ġjumping": 13346,
    "aust": 15313,
    "Ġhim": 475,
    "stochastic": 3773,
    "fifty": 12357,
    "Ġjapanese": 10635,
    "Ġadvis": 9813,
    "Ġmirth": 15549,
    "Ġcannot": 1668,
    "Ġinvolving": 18767,
    "promontory": 24727,
    "Ġpenalty": 1838,
    "Ġacutely": 14317,
    "Ġbeaches": 18087,
    "Ġpainful": 6462,
    "Ġrational": 8481,
    "ental": 7168,
    "Ġdau": 21428,
    "fallen": 19662,
    "Ġhearsed": 25042,
    "weeks": 14319,
    "Ġstark": 7389,
    "Ġcovering": 13260,
    "Ġthrees": 23404,
    "Ġsanely": 24983,
    "rael": 21632,
    "makes": 10713,
    "accustomed": 13161,
    "Ġwater": 1948,
    "nour": 20990,
    "Ġdur": 11595,
    "Ġredness": 19314,
    "limping": 26395,
    "Ġweighing": 20019,
    "Ġbrooks": 25701,
    "Ġ8": 5433,
    "cushion": 20823,
    "Ġrosings": 4608,
    "Ġraw": 3321,
    "Ġamb": 9294,
    "Ġclinched": 17397,
    "ultural": 22572,
    "care": 4929,
    "Ġslipper": 24268,
    "Ġharmony": 16816,
    "ilated": 18060,
    "Ġjac": 1896,
    "bermaid": 20792,
    "claimed": 9839,
    "||": 4870,
    "Ġshakes": 10906,
    "Ġestablish": 9546,
    "Ġpea": 14320,
    "Ġroasted": 18462,
    "Ġhammered": 13244,
    "remember": 7261,
    "Ġsecure": 4913,
    "Ġbaked": 21389,
    "Ġclattered": 22353,
    "abomin": 15746,
    "Ġostentatiously": 20472,
    "Ġtashtego": 4488,
    "Ġcaulking": 20296,
    "Ġseedy": 21959,
    "Ġcrooked": 11283,
    "Ġmelbourne": 24291,
    "engines": 18930,
    "longbourn": 9899,
    "Ġcylinders": 25944,
    "Ġevenness": 22837,
    "Ġlascar": 9202,
    "Ġimaginary": 11188,
    "Ġspin": 7629,
    "Ġslate": 11943,
    "Ġselling": 21227,
    "Ġcount": 1813,
    "Ġow": 8409,
    "Ġfine": 1315,
    "pale": 13775,
    "chariot": 26481,
    "gryphon": 15362,
    "Ġunfit": 14790,
    "Ġunctuous": 10269,
    "Ġfilthy": 13253,
    "Ġdoubtful": 19143,
    "Ġb": 281,
    "Ġnorton": 12654,
    "Ġfailing": 12143,
    "Ġcontain": 1554,
    "hospit": 25904,
    "cold": 9592,
    "Ġcoal": 18590,
    "Ġexceeded": 14436,
    "Ġrefused": 6716,
    "Ġsane": 21224,
    "Ġsickened": 16777,
    "Ġhimmale": 18330,
    "Ġvinc": 14088,
    "stopping": 19353,
    "ose": 718,
    "Ġembodied": 25848,
    "emberley": 4171,
    "Ġcaress": 16342,
    "lessly": 4557,
    "Ġwisdom": 11235,
    "writ": 16555,
    "Ġcharges": 23270,
    "Ġbags": 24537,
    "prudently": 21037,
    "Ġtearless": 24785,
    "Ġextremity": 8991,
    "Ġvivacious": 19818,
    "Ġcracking": 14576,
    "Ġproofs": 19817,
    "usal": 7638,
    "year": 11097,
    "phr": 18711,
    "Ġimbib": 22179,
    "hearth": 15502,
    "Ġdoran": 9182,
    "icult": 3341,
    "Ġglances": 10375,
    "Ġaccommodate": 20520,
    "trial": 20353,
    "Ġemergencies": 17365,
    "Ġcheeks": 5958,
    "Ġnursery": 19753,
    "Ġpreluding": 18369,
    "ken": 2799,
    "Ġspout": 3282,
    "sto": 3194,
    "Ġunfavourable": 17420,
    "Ġwoman": 2388,
    "Ġanimated": 7701,
    "Ġaffair": 4464,
    "Ġmarbank": 23040,
    "drink": 10598,
    "Ġloosed": 22116,
    "Ġintimidated": 24802,
    "Ġassertion": 13493,
    "âĢĶâĢĻâĢĿ": 20067,
    "Ġconsum": 9802,
    "Ġfancies": 10426,
    "Ġhymn": 24518,
    "Ġdel": 1616,
    "total": 17253,
    "Ġbelong": 3885,
    "eked": 16402,
    "Ġdispersed": 16599,
    "dining": 13709,
    "Ġdusky": 13553,
    "itive": 6670,
    "Ġlingering": 11381,
    "oology": 21008,
    "Ġfreemason": 23211,
    "names": 16531,
    "Á": 130,
    "cst": 10087,
    "Ġhomeless": 23390,
    "Ġslips": 23167,
    "augment": 18830,
    "Ġdestitute": 14568,
    "Ġdexterous": 15152,
    "Ò": 147,
    "grasp": 16434,
    "kne": 20937,
    "Ġsplendid": 17216,
    "Ġmagazine": 23102,
    "Ġsoar": 18283,
    "Ġwithheld": 18117,
    "kish": 20936,
    "Ġezek": 18012,
    "tstone": 21087,
    "paws": 21031,
    "bu": 5132,
    "Ġdil": 6383,
    "restrained": 16339,
    "arians": 18524,
    "N": 50,
    "Ġvalue": 2086,
    "Ġeve": 13973,
    "wonder": 6371,
    "considerable": 10551,
    "Ġcontemptuous": 24677,
    "Ġproclaim": 18133,
    "Ġpulling": 5863,
    "Ġfronts": 19004,
    "Ġwhether": 1998,
    "Ġhighly": 4846,
    "Ġgallant": 8658,
    "F": 42,
    "Ġmanifested": 17160,
    "naught": 20996,
    "oned": 4632,
    "Ġwallow": 19469,
    "variety": 23186,
    "Ġintegral": 25011,
    "Ġmorose": 18851,
    "Ġpursu": 3238,
    "Ġeu": 6390,
    "ripp": 6404,
    "islands": 21379,
    "Ġcontradicted": 20214,
    "Ġenraptured": 26502,
    "bug": 17495,
    "Ġacquire": 2720,
    "Ġguilty": 7249,
    "Ġinconstant": 21499,
    "Ġ134": 24783,
    "usion": 3301,
    "erate": 7149,
    "veh": 12684,
    "Ġstray": 18075,
    "Ġinvestment": 24332,
    "Ġfoss": 9854,
    "vul": 15451,
    "wound": 21129,
    "sciss": 18859,
    "Ġpretensions": 16560,
    "quit": 15766,
    "Ġflapp": 23012,
    "Ġexcited": 5580,
    "ignation": 11130,
    "Ġsavagely": 26325,
    "Ġinconven": 7586,
    "Ġbeen": 627,
    "waters": 11335,
    "inger": 6812,
    "Ġtheorem": 2326,
    "Ġnegro": 6447,
    "Ġcuriosity": 2404,
    "nonsense": 17617,
    "Ġabundantly": 17159,
    "Ġjourneying": 25566,
    "Ġcomposition": 1689,
    "Ġclumsy": 9582,
    "Ġmoses": 21318,
    "tained": 4407,
    "Ġintrepid": 11710,
    "warp": 17708,
    "Ġexam": 3710,
    "Ġbang": 17856,
    "Ġbustle": 17230,
    "forming": 15921,
    "Ġdipped": 15599,
    "Ġlanc": 19767,
    "Ġinsight": 16533,
    "althily": 19362,
    "Ġclasp": 9747,
    "neural": 3063,
    "Ġjavelins": 26106,
    "Ġchal": 18379,
    "rear": 21235,
    "carefully": 13373,
    "ç": 168,
    "careful": 14869,
    "Ġunthink": 18245,
    "igen": 4832,
    "Ġmu": 17797,
    "Ġframework": 2058,
    "Ġhebrew": 13991,
    "ĕ": 214,
    "contrasted": 17309,
    "generations": 23788,
    "Ġlaid": 3941,
    "Ġcoals": 16077,
    "inkle": 22617,
    "Ġdelay": 5748,
    "Ġmic": 17799,
    "Ġchar": 1704,
    "Ġencl": 16170,
    "cc": 471,
    "Ġinterval": 4054,
    "Ġpresentation": 14483,
    "inition": 11559,
    "Ġsubst": 4274,
    "ellent": 3760,
    "lee": 11588,
    "ashions": 16421,
    "herent": 2528,
    "Ġoverhear": 15980,
    "Ġindulge": 10585,
    "Ġabstraction": 26541,
    "Ġcanall": 10930,
    "rain": 461,
    "Ġbutler": 18271,
    "Ġfootmarks": 19339,
    "teeth": 10357,
    "Ġserved": 8246,
    "Ġhopelessly": 16379,
    "Ġmouthfuls": 20648,
    "dep": 6786,
    "bishop": 13698,
    "Ġintegr": 7969,
    "Ġrudimental": 25111,
    "Ġmainz": 22651,
    "Ġsombre": 18862,
    "Ġpore": 21461,
    "stamp": 21657,
    "ples": 6844,
    "oted": 4598,
    "gave": 7799,
    "Ġabominate": 20068,
    "Ġexpost": 18624,
    "horrible": 14602,
    "Ġmuscles": 12094,
    "Ġthought": 1093,
    "Ġspong": 15885,
    "vial": 17699,
    "Ġmythologies": 26215,
    "eer": 15351,
    "Ġredeem": 20503,
    "Ġcomforter": 20510,
    "ladyship": 14832,
    "Ġdeaths": 14539,
    "Ġsuppressing": 23004,
    "Ġmessage": 13526,
    "Ġsustaining": 25334,
    "Ġattractive": 25576,
    "Ġforemost": 12010,
    "Ġcro": 4874,
    "Ġdivineness": 25724,
    "era": 13850,
    "rennial": 22345,
    "Ġblanc": 11067,
    "kinson": 10029,
    "resemblance": 25934,
    "Ġcolonies": 14378,
    "sitting": 8387,
    "Ġrich": 2992,
    "Ġyer": 15738,
    "Ġpropriet": 9553,
    "arson": 22751,
    "ocr": 10470,
    "drowned": 17372,
    "hold": 3981,
    "arned": 21821,
    "ref": 6515,
    "Ġtasted": 12535,
    "Ġgenerate": 1493,
    "Ġpedest": 15067,
    "Ġchall": 10946,
    "omited": 21644,
    "hen": 3518,
    "ggy": 13118,
    "Ġleaves": 5021,
    "Ġhartshorn": 26182,
    "ĠĠĠĠĠĠĠĠĠĠĠĠĠĠĠĠĠĠĠĠĠĠĠĠĠĠĠĠĠĠĠĠĠĠĠĠĠĠ": 16527,
    "gloves": 25146,
    "Ġascertaining": 17206,
    "Ġperceiving": 8879,
    "Ġhoneymoon": 25646,
    "Ġshipw": 12983,
    "onel": 3086,
    "Ġquarrels": 16568,
    "tables": 19760,
    "Ġvengeance": 5885,
    "extreme": 11031,
    "comparison": 25842,
    "Ġamateur": 22485,
    "cent": 8073,
    "Ġinstrum": 6055,
    "Ġhumorous": 10362,
    "Ġmachine": 794,
    "Ġshaping": 22007,
    "Ġpen": 1534,
    "Ġshrivelled": 19706,
    "Ġbetray": 7441,
    "Ġfierc": 18715,
    "words": 7983,
    "Ġinclination": 6625,
    "Ġcape": 5146,
    "Ġtiar": 21170,
    "most": 1257,
    "Ġjabez": 11771,
    "Ġviewing": 19266,
    "Ġacting": 10993,
    "stove": 21655,
    "trampled": 26335,
    "farintosh": 24553,
    "meaning": 2904,
    "mole": 22704,
    "Ġwrites": 23200,
    "Ġinj": 4761,
    "atus": 21263,
    "Ġphyseter": 26588,
    "Ġhushed": 13928,
    "fen": 20852,
    "thro": 12766,
    "Ġloath": 7891,
    "Ġpermanently": 25474,
    "lanterns": 17432,
    "Ġregal": 16080,
    "Ġrecompense": 14841,
    "Ġdelighted": 5499,
    "claim": 9838,
    "Ġrobert": 10972,
    "Ġlucky": 7758,
    "Ġopulent": 23630,
    "gathered": 13735,
    "Ġexcessively": 9443,
    "Ġattending": 3284,
    "Ġeber": 18006,
    "re": 266,
    "owners": 16091,
    "±": 114,
    "Ġnon": 1626,
    "heeded": 13837,
    "wondrous": 12343,
    "Ġremembrance": 8318,
    "Ġslugg": 15272,
    "ailing": 7022,
    "Ġdived": 9180,
    "Ġaffectionate": 5585,
    "Ġcobweb": 22587,
    "ureau": 10229,
    "meadow": 18677,
    "Ġcapabilities": 4379,
    "constantly": 24607,
    "follow": 5680,
    "Ġroll": 5381,
    "Ġarchitecture": 1112,
    "sle": 9141,
    "allic": 12818,
    "Ġclaps": 22350,
    "ping": 9618,
    "Ġfoliage": 18869,
    "ivory": 10271,
    "Ġcanvas": 7783,
    "Ġparmacetti": 20607,
    "Ġvol": 4190,
    "Ġregular": 938,
    "Ġinjurious": 24273,
    "Ġcommunicates": 24547,
    "Ġtender": 5753,
    "Ġinf": 1755,
    "nursery": 26401,
    "horrors": 20544,
    "Ġslain": 8956,
    "angles": 18296,
    "Ġsentences": 2678,
    "Ġarticulate": 24432,
    "Ġcelestial": 10070,
    "Ġhesitating": 16949,
    "Ġretreating": 19802,
    "Ġunprotected": 22067,
    "Ġfatal": 5872,
    "occupations": 24967,
    "Ġvis": 1098,
    "ruined": 18347,
    "erringly": 16214,
    "odox": 21820,
    "project": 16428,
    "Ġcomp": 723,
    "savage": 15079,
    "Ġmerid": 13197,
    "Ġoct": 10161,
    "Ġjen": 9270,
    "adequ": 11022,
    "illed": 2621,
    "Ġinclement": 22557,
    "Ġbarmaid": 19337,
    "Ġtransaction": 22443,
    "Ġattentively": 9953,
    "Ġcombine": 4417,
    "Ġmistaken": 4986,
    "Ġproject": 5546,
    "unforeseen": 21892,
    "Ġcarpet": 9359,
    "Ġfulfil": 9554,
    "Ġcolon": 18764,
    "Ġachieved": 13170,
    "Ġworshipping": 22931,
    "reply": 19725,
    "Ġunforeseen": 22053,
    "Ġthief": 11614,
    "Ġkelson": 18351,
    "reel": 21236,
    "Ġpotent": 12069,
    "Ġwit": 3842,
    "Ġdistributes": 4196,
    "Ġleg": 2335,
    "Ġfaith": 5351,
    "Ġhy": 5625,
    "Ġmild": 4147,
    "infernal": 24663,
    "Ġjealously": 24127,
    "Ġunprinciple": 18252,
    "Ġdiscussion": 17197,
    "itioned": 22479,
    "Ġsliding": 9366,
    "glances": 23856,
    "studied": 17152,
    "ativeness": 15524,
    "Ġexceedingly": 4615,
    "Ġimmense": 4952,
    "Ġumbrella": 15269,
    "Ġasiatics": 20434,
    "kept": 11722,
    "late": 11501,
    "¦": 104,
    "Ġoscill": 2854,
    "ropout": 1319,
    "onely": 6516,
    "ung": 2741,
    "Ġtart": 12534,
    "Ġflowed": 10374,
    "Ġidiotic": 25589,
    "pets": 17638,
    "leaped": 17845,
    "presumption": 20445,
    "inously": 21189,
    "Ġsticks": 14934,
    "unaccountable": 15783,
    "adding": 21765,
    "Ġovertook": 18430,
    "neighbouring": 19967,
    "Ġrecom": 4556,
    "lected": 1640,
    "Ġprodig": 6028,
    "Ġconsec": 21809,
    "Ġnorms": 3666,
    "chie": 21693,
    "sor": 7351,
    "Ġdiscrimin": 2545,
    "Ġsuperstition": 15057,
    "lid": 20947,
    "Ġyankees": 26203,
    "desire": 14664,
    "Ġembarks": 22969,
    "Ġn": 300,
    "Ġis": 347,
    "boast": 23254,
    "immedi": 8452,
    "gentleman": 7517,
    "reme": 2424,
    "Ġcon": 348,
    "Ġallegro": 25795,
    "william": 4563,
    "ield": 2409,
    "Ġdemonstrate": 24997,
    "Ġdepicted": 14280,
    "lady": 4434,
    "Ġsaleve": 17394,
    "comes": 5394,
    "Ġdream": 3538,
    "pick": 17636,
    "Ġtreasures": 17048,
    "Ġbrack": 23839,
    "Ġcheever": 23286,
    "loom": 18536,
    "Ġnieces": 8434,
    "afternoon": 13189,
    "Ġremark": 2146,
    "Ġproprietor": 12378,
    "suggest": 20379,
    "Ġsuite": 18279,
    "meanwhile": 10612,
    "nor": 2737,
    "icular": 2022,
    "Ġneglecting": 25010,
    "Ġpipes": 9851,
    "Ġinclined": 6624,
    "Ġconcerned": 5332,
    "Ġencomp": 12967,
    "enderby": 25216,
    "Ġdisconcerted": 18562,
    "tart": 21070,
    "sen": 21052,
    "Ġcaterpillar": 5865,
    "fed": 11490,
    "scure": 22991,
    "Ġasyl": 12739,
    "Ġfounded": 8560,
    "Ġpatience": 2851,
    "Ġreadability": 2721,
    "verbally": 25361,
    "Ġrattled": 15070,
    "oman": 2015,
    "Ġkiss": 8183,
    "Ġstockings": 20000,
    "Ġstuck": 9225,
    "anse": 12581,
    "Ġashamed": 6403,
    "Ġdeclared": 5595,
    "Ġpines": 12622,
    "Ġartfully": 22613,
    "Ġlo": 453,
    "Ġcompletely": 4861,
    "Ġextremities": 19198,
    "Ġsins": 13840,
    "Ġapproaching": 6285,
    "Ġverdict": 13479,
    "Ġsiamese": 20486,
    "Ġspectacle": 10499,
    "churning": 21700,
    "e": 73,
    "Ġenem": 4709,
    "Ġcolds": 23761,
    "Ġdemand": 4947,
    "omist": 21641,
    "Ġstraight": 3702,
    "Ġdawn": 6816,
    "verb": 10219,
    "£": 101,
    "Ġsaluted": 14761,
    "Ġheavy": 3743,
    "Ġmuhammad": 26170,
    "Ġshortly": 6197,
    "numbers": 17618,
    "among": 6257,
    "em": 389,
    "fall": 5135,
    "Ġfade": 21410,
    "Ġbattle": 5908,
    "Ġcascade": 20584,
    "ware": 3935,
    "Ġstren": 15727,
    "Ġarri": 2552,
    "Ġchill": 11757,
    "Ġchurches": 12833,
    "Ġcharge": 5325,
    "pol": 5893,
    "ŀ": 257,
    "Ġsqueaking": 26276,
    "Ġwick": 2003,
    "Ġpeeping": 16131,
    "Ġropes": 10750,
    "Ġdreams": 7495,
    "Ġslop": 23163,
    "Ġresist": 7916,
    "Ġnich": 21523,
    "----âĢĿ": 13311,
    "Ġimpact": 10299,
    "theless": 4261,
    "Ġrenew": 6146,
    "Ġexpon": 968,
    "Ġplaything": 19240,
    "nesday": 8706,
    "opotam": 22489,
    "Ġbier": 22764,
    "mystery": 15159,
    "Ġhats": 14620,
    "Ġmodel": 514,
    "Ġgiving": 4085,
    "!âĢĿ": 845,
    "Ġdesirous": 8945,
    "folio": 10549,
    "Ġnormal": 1204,
    "Ġlawless": 19438,
    "Ġkiller": 19571,
    "anelles": 26436,
    "Ġtra": 1382,
    "iel": 11496,
    "Ġbomb": 17869,
    "Ġconstables": 19068,
    "Ġdistinctions": 18533,
    "Ġsatan": 14393,
    "henomena": 20275,
    "ckled": 9260,
    "ssian": 3399,
    "Ġsources": 10150,
    "Ġseeks": 14306,
    "Ġpivot": 13926,
    "slowly": 9092,
    "Ġfagged": 17884,
    "presume": 25671,
    "Ġtricks": 13488,
    "icles": 17975,
    "rowed": 22865,
    "yield": 13812,
    "combined": 20323,
    "oric": 21399,
    "Ġexaggerated": 25651,
    "Ġperem": 12937,
    "eral": 9162,
    "Ġprediction": 2170,
    "Ġflurry": 18863,
    "Ġvalley": 5851,
    "torture": 26152,
    "kingly": 20941,
    "reve": 12545,
    "Ġtahitian": 25428,
    "out": 467,
    "Ġextinct": 14337,
    "eler": 1571,
    "Ġsuspect": 5758,
    "Ġpresent": 1644,
    "Ġdolphin": 17315,
    "Ġcemeteries": 26377,
    "ulls": 8842,
    "Ġleeward": 6211,
    "Ġwrithed": 17107,
    "urg": 8142,
    "Ġnecess": 3476,
    "grinder": 23418,
    "Ġtheirs": 7025,
    "Ġwat": 1286,
    "Ġdenying": 14660,
    "Ġupdate": 2462,
    "Ġunansw": 22058,
    "Ġtotal": 4993,
    "Ġvir": 7001,
    "acrity": 14283,
    "requiem": 24857,
    "Ġsimilarly": 24310,
    "palms": 25263,
    "Ġsnar": 13202,
    "smo": 10128,
    "narwhale": 17321,
    "Ġint": 409,
    "alarm": 15631,
    "orton": 11761,
    "Ġobedience": 11415,
    "Ġslily": 23165,
    "Ġpier": 7162,
    "Ġassumed": 9468,
    "Ġproceeding": 9909,
    "oved": 5215,
    "poor": 6061,
    "berries": 22723,
    "combe": 7661,
    "Ġweapon": 7775,
    "Ġlonger": 3360,
    "Ġheading": 8938,
    "ouri": 21450,
    "'(": 2976,
    "Ġprized": 23224,
    "heavy": 10577,
    "hetic": 12209,
    "Ġmortal": 4683,
    "Ġgrinning": 9056,
    "Ġshaking": 6552,
    "Ġspectre": 16633,
    "Ġappertaining": 26535,
    "Ġswimming": 5507,
    "Ġwhales": 1826,
    "Ķ": 247,
    "desolate": 25717,
    "clever": 20815,
    "Ġjagged": 18408,
    "Ġenjoined": 18192,
    "ses": 3026,
    "Ġview": 2758,
    "col": 3098,
    "Ġfinish": 7949,
    "Ġorbs": 22096,
    "Ġsit": 4216,
    "ured": 1655,
    "iltrated": 19307,
    "Ġarea": 14189,
    "Ġsleeping": 6320,
    "Ġmournfully": 20120,
    "sorrow": 12514,
    "Ġexpansion": 22628,
    "Ġendeavors": 16548,
    "Ġequals": 4728,
    "Ġships": 3713,
    "Ġtradesman": 20076,
    "pain": 7349,
    "Ġwipe": 25765,
    "mews": 22716,
    "Ġbelshazzar": 16229,
    "Ġdictionaries": 12345,
    "Ġrefres": 14340,
    "Ġaverred": 18867,
    "Ġforecastle": 5495,
    "Ġdevices": 2937,
    "Ġebb": 21625,
    "Ġpermission": 9282,
    "sorting": 17006,
    "Ġowing": 6005,
    "alse": 4186,
    "Ġrepresents": 4903,
    "isition": 11589,
    "verity": 14004,
    "Ġeffect": 959,
    "grad": 2566,
    "Ġpref": 14174,
    "Ġ78": 19616,
    "Ġmaintain": 855,
    "continued": 8679,
    "Ġblubber": 5666,
    "lemag": 21375,
    "dham": 20832,
    "Ġfish": 2707,
    "Ġmilitia": 13322,
    "Ġprincely": 24151,
    "Ġpreacher": 18370,
    "Ġappend": 18360,
    "Ġsurprise": 3829,
    "Ġundone": 24120,
    "resh": 8405,
    "gers": 8376,
    "meant": 7922,
    "Ġjacob": 1897,
    "police": 10586,
    "Ġ116": 24440,
    "Ġstatue": 23150,
    "Ġvictory": 16656,
    "Ġsituated": 9451,
    "Ġpurch": 6600,
    "Ġkrusen": 20716,
    "Ġmanif": 8874,
    "Ġimprovements": 14514,
    "irous": 8843,
    "flutterings": 26608,
    "mou": 10710,
    "hunsford": 24386,
    "supers": 22637,
    "Ġclasses": 4055,
    "collins": 6915,
    "Ġtottenham": 24145,
    "Ġallurements": 22074,
    "Ġwarped": 25038,
    "Ġconflag": 20338,
    "Ġdistraction": 22509,
    "rers": 14721,
    "Ġtarred": 23611,
    "Ġdupl": 9957,
    "qualities": 25046,
    "Ġevening": 2649,
    "child": 5538,
    "cob": 10089,
    "gypt": 8261,
    "Ġunintermitted": 26221,
    "embers": 21931,
    "Ġproceedings": 9910,
    "give": 4690,
    "Ġvengeful": 14893,
    "Ġcausing": 16361,
    "officers": 10630,
    "Ġincess": 8432,
    "Ġtorn": 6000,
    "glimmer": 26323,
    "deav": 2670,
    "pres": 16032,
    "Ġgovernment": 15180,
    "impl": 21710,
    "solution": 14688,
    "roused": 16655,
    "Ġforeshadowing": 26594,
    "attent": 9362,
    "Ġtranslates": 12055,
    "Ġtriumphal": 24371,
    "Ġbadge": 16682,
    "Ġsquaw": 22840,
    "Ġquite": 1740,
    "Ġsymbolize": 24963,
    "Ġent": 904,
    "ructure": 772,
    "À": 129,
    "Ġout": 543,
    "Ġrecurrent": 1803,
    "onged": 18411,
    "Ġhoarsely": 26303,
    "anthrop": 17385,
    "Ġissue": 2311,
    "Ġbedfellows": 23448,
    "Ġcorpusants": 13681,
    "Ġstrife": 18615,
    "Ġcherish": 10592,
    "cheeked": 19342,
    "Ġtoler": 7588,
    "animate": 12583,
    "Ġhurst": 5582,
    "Ġdiscourage": 3111,
    "satisfied": 10581,
    "Ġperdition": 15996,
    "although": 8810,
    "tubes": 25212,
    "Ġjunks": 25116,
    "Ġtext": 2267,
    "chance": 6826,
    "umbled": 8494,
    "Ġcabin": 3303,
    "vigorous": 25918,
    "Ġcensured": 25097,
    "fishing": 20861,
    "Ġyoked": 15739,
    "Ġactively": 18654,
    "Ġinvoked": 19146,
    "Ġappointed": 20106,
    "Ġdrawing": 3917,
    "adjust": 21763,
    "Ġcollected": 2609,
    "Ġparticular": 2448,
    "Ġmaker": 15547,
    "theirs": 23604,
    "Ġmotions": 8281,
    "Ġcheapside": 23290,
    "Ġwes": 8783,
    "Ġwrecks": 16820,
    "conce": 8512,
    "fresh": 13396,
    "bun": 12443,
    "anger": 2176,
    "Ġadapted": 11041,
    "Ġdante": 21441,
    "Ġappropri": 2229,
    "Ġrecurred": 18978,
    "icking": 8914,
    "sheltered": 25586,
    "dwell": 15345,
    "Ġprinciple": 6770,
    "Ġreporting": 24658,
    "Ġunderwent": 23242,
    "assistant": 25568,
    "Ġasks": 5115,
    "Ġintervals": 5598,
    "Ġneighbor": 25806,
    "am": 368,
    "Ġaffliction": 25846,
    "medi": 2626,
    "Ġgot": 2281,
    "Ġoverboard": 6045,
    "Ġleisure": 6540,
    "free": 8739,
    "Ġpollard": 20389,
    "Ġunwarrant": 19936,
    "Ġbritannica": 24681,
    "Ġdependency": 3487,
    "Ġadjac": 18293,
    "Ġrobinson": 17466,
    "Ġsubsets": 2346,
    "Ġmending": 17806,
    "Ġboot": 11845,
    "Ġinitial": 822,
    "Ġwilt": 9646,
    "Ġrowing": 10303,
    "Ġextracting": 11113,
    "Ġhereabouts": 12982,
    "arth": 4444,
    "incl": 8110,
    "Ġclerval": 4655,
    "Ġsuperficial": 23458,
    "minute": 11276,
    "Ġexcellence": 11453,
    "Ġbamboo": 17440,
    "even": 3838,
    "Ġintensely": 17019,
    "dar": 20826,
    "Ġphrenologist": 25608,
    "ariously": 18525,
    "Ġmagnificent": 9845,
    "Ġdeject": 10882,
    "Ġcoincidences": 26365,
    "opement": 10314,
    "ppa": 10242,
    "Ġphilosopher": 12189,
    "Ġcleared": 6075,
    "Ġassoc": 6402,
    "Ġdiscl": 9800,
    "eridge": 15529,
    "civil": 7796,
    "inglass": 21305,
    "Ġpythag": 26450,
    "Ġwashed": 15769,
    "Ġgamming": 25543,
    "tical": 10131,
    "Ġcurling": 9344,
    "Ġunrolled": 22038,
    "Ġsilent": 3411,
    "Ġschedule": 2373,
    "permitted": 18341,
    "¥": 103,
    "Ġlamented": 24994,
    "should": 3260,
    "Ġwallowed": 24045,
    "Ġoptimal": 1856,
    "Ġhuggins": 24826,
    "of": 766,
    "Ġthews": 21280,
    "Ġcapsizing": 20092,
    "schoolmaster": 15165,
    "beth": 13692,
    "ivial": 15863,
    "Ġslippery": 12172,
    "nerable": 16279,
    "ions": 448,
    "Ġbud": 10171,
    "Ġsight": 2111,
    "alyards": 18794,
    "Ġcourt": 4169,
    "Ġrandom": 1588,
    "Ġpatient": 6894,
    "imprisonment": 23765,
    "Ġbritain": 16958,
    "Ġsnarl": 25714,
    "thole": 21990,
    "stri": 6250,
    "Ġpanelled": 19657,
    "akin": 11773,
    "icip": 6389,
    "Ġ[_": 15464,
    "Ġactual": 3736,
    "Ġunfrequently": 20741,
    "Ġrecumbent": 22750,
    "Ġpreviously": 3919,
    "convul": 24884,
    "Ġclimax": 25054,
    "Ġnursing": 12220,
    "Ġtort": 5902,
    "forever": 22523,
    "Ġstandard": 14498,
    "Ġwise": 6811,
    "affa": 23779,
    "Ġlav": 13953,
    "knife": 6941,
    "Ġsailed": 4890,
    "Ġmoderation": 12825,
    "Ġseeth": 21957,
    "bastian": 10676,
    "length": 7135,
    "mrs": 3744,
    "Ġunden": 22013,
    "Ġspont": 22135,
    "terns": 21826,
    "Ġnearly": 3363,
    "acceptance": 25186,
    "picture": 11409,
    "Ġhurriedly": 11251,
    "Ġpretending": 19317,
    "Ġcoils": 9306,
    "Ġclaims": 13377,
    "pot": 10120,
    "Ġgabriel": 7595,
    "Ġfishers": 19357,
    "ituted": 13876,
    "Ġgul": 7860,
    "cement": 2988,
    "pleasure": 5978,
    "westward": 25425,
    "Ġprimitive": 25064,
    "ans": 458,
    "Ġincarnation": 25574,
    "Ġexhibited": 9547,
    "oped": 6047,
    "Ġbewitching": 25977,
    "Ġlangs": 13957,
    "making": 2571,
    "Ġexpl": 487,
    "Ġindiscriminately": 20630,
    "please": 8177,
    "waste": 21137,
    "aking": 975,
    "Ġboard": 3383,
    "Ġpillar": 21476,
    "Ġdeal": 3608,
    "desol": 13222,
    "ici": 8441,
    "Ġsufferable": 16259,
    "pedest": 24823,
    "Ġjurymen": 16849,
    "Ġunfl": 22020,
    "Ġsoda": 25535,
    "Ġrepeat": 8000,
    "displayed": 20738,
    "position": 15416,
    "han": 12478,
    "Ġheartless": 13077,
    "Ġset": 1177,
    "dinah": 20084,
    "Ġreve": 2929,
    "Ġshadow": 5596,
    "Ġpractically": 13110,
    "whe": 1074,
    "dled": 9114,
    "Ġmonogram": 26576,
    "inching": 21192,
    "ustration": 2259,
    "Ġproperly": 7945,
    "meth": 11505,
    "Ġpictures": 5503,
    "somewhat": 11162,
    "Ġproduct": 3534,
    "fedallah": 25523,
    "ĠcÃ¦sar": 20583,
    "towards": 5003,
    "Ġengineering": 3023,
    "view": 5896,
    "Ġeverybody": 4512,
    "hic": 3247,
    "Ġintric": 9249,
    "ancing": 1757,
    "Ġimpart": 11785,
    "Ġsmothe": 18574,
    "Ġtrades": 8232,
    "stand": 625,
    "Ġinhale": 20303,
    "Ġcomprehens": 8320,
    "Ġspiracle": 14152,
    "Ġlover": 7192,
    "Ġrestricted": 19027,
    "itely": 5365,
    "Ġsuperb": 16445,
    "bears": 22494,
    "Ġphilosop": 5057,
    "Ġguineas": 16271,
    "Ġuttermost": 19491,
    "ok": 574,
    "myst": 9825,
    "deliberated": 26119,
    "Ġsuffer": 4723,
    "riv": 3104,
    "anks": 3916,
    "method": 17287,
    "no": 875,
    "clut": 23152,
    "Ġtent": 15470,
    "Ġdeftly": 26495,
    "Ġsuccessful": 9926,
    "ă": 196,
    "_:": 17481,
    "Ġhal": 1362,
    "Ġforgetting": 3433,
    "card": 11477,
    "Ġvoyager": 16514,
    "arying": 9804,
    "Ġfearless": 9878,
    "Ġdispatched": 23884,
    "Ġwaiting": 4323,
    "gent": 7130,
    "cigar": 26125,
    "branch": 23579,
    "Ġability": 2760,
    "merit": 19283,
    ",âĢĶâĢĺ": 23805,
    "Ġmanager": 11774,
    "Ġliber": 5168,
    "Ġshallow": 14397,
    "Ġexerc": 6832,
    "Ġlamentations": 17077,
    "Ġcreditable": 19625,
    "Ġignorantly": 19498,
    "Ġdrinking": 12174,
    "explained": 23146,
    "Ġpassages": 12975,
    "Ġdormouse": 4926,
    "Ġresuming": 12898,
    "rack": 18013,
    "norm": 20987,
    "feeling": 6618,
    "Ġunappalled": 22065,
    "Ġmemo": 18120,
    "Ġdistingu": 2513,
    "result": 12048,
    "Ġcontraction": 16012,
    "shake": 22454,
    "rub": 15903,
    "gener": 3120,
    "Ġ30": 10514,
    "omen": 4086,
    "Ġcumbrous": 26434,
    "impe": 21711,
    "Ġwerter": 15243,
    "Ġcloser": 8663,
    "Ġspleen": 26423,
    "respectively": 24699,
    "positive": 20570,
    "Ġprosecut": 9701,
    "Ġvariance": 1169,
    "Ġembarked": 17137,
    "oard": 4810,
    "Ġstuff": 5717,
    "attentions": 13578,
    "Ġfulfilled": 11364,
    "assault": 22310,
    "Ġflashed": 11919,
    "elius": 13292,
    "ificant": 22215,
    "Ġwrapt": 24596,
    "gunwale": 20665,
    "igh": 2029,
    "consol": 9765,
    "Ġhospit": 7513,
    "Ġvolat": 24147,
    "Ġniag": 21533,
    "ier": 1137,
    "Ġchosen": 7200,
    "Ġthreat": 5154,
    "whosoever": 22244,
    "Ġindel": 13009,
    "Ġshuddered": 11302,
    "erson": 7002,
    "Ġsplice": 19311,
    "Ġdomains": 6614,
    "Ġmagnetic": 17243,
    "Ġfeeble": 12289,
    "Ġpepper": 9784,
    "Ġdilated": 24703,
    "bru": 12444,
    "grand": 7970,
    "Ġomnipotent": 13552,
    "ake": 749,
    "arpaul": 14538,
    "oding": 1461,
    "Ġcostume": 16497,
    "urons": 3125,
    "Ġtens": 17725,
    "Ġspat": 2661,
    "Ġdenoted": 16567,
    "Ġfam": 1585,
    "appre": 14373,
    "Ġlayers": 816,
    "Ġprocuring": 16872,
    "Ġperforming": 7928,
    "interruption": 20115,
    "om": 315,
    "Ġpa": 2986,
    "Ġreceive": 4705,
    "Ġtreble": 16506,
    "deacon": 22151,
    "poled": 22910,
    "vil": 2728,
    "Ġtwinkle": 12328,
    "daw": 17524,
    "Ġpon": 10178,
    "Ġdeference": 10883,
    "culiarity": 11143,
    "instinct": 19546,
    "Ġquies": 18465,
    "utely": 8132,
    ":âĢĶ": 4433,
    "shriek": 20523,
    "Ġrecollected": 8311,
    "enary": 12557,
    "Ġjuncture": 17132,
    "Ġpry": 11604,
    "Ġgiants": 25961,
    "Ġtreated": 7081,
    "iom": 20917,
    "Ġlabeled": 3717,
    "Ġused": 2061,
    "rese": 15511,
    "rannical": 26403,
    "Ġexertion": 8054,
    "Ġread": 1446,
    "Ġhandfuls": 17212,
    "Ġbriony": 9332,
    "Ġcards": 7580,
    "Ġobviously": 16812,
    "Ġpopulation": 16829,
    "Ġbelow": 4062,
    "pre": 649,
    "anded": 5923,
    "swam": 24257,
    "cape": 13701,
    "ashing": 4826,
    "etwork": 440,
    "Ġoutset": 15959,
    "reached": 13844,
    "Ġanything": 2189,
    "Ġglobules": 26590,
    "Ġescape": 2644,
    "Ġsuddenness": 23385,
    "dashed": 12461,
    "Ċ": 203,
    "eks": 4729,
    "moran": 24155,
    "Ġperceive": 6700,
    "dimly": 15350,
    "Ġgordon": 26469,
    "Ġshocked": 9404,
    "species": 13261,
    "Ġtweezers": 26558,
    "Ġsports": 18311,
    "perseus": 26006,
    "Ġrecede": 25969,
    "Ġep": 7383,
    "ñ": 178,
    "mits": 13759,
    "lour": 15384,
    "Ġconsolidation": 5060,
    "inople": 13832,
    "Ġchag": 15935,
    "Ġsanguinary": 25930,
    "Ġthroat": 7770,
    "Ġtickets": 17095,
    "Ġprotracted": 19472,
    "Ġcath": 17828,
    "Ġextend": 18691,
    "Ġseats": 14091,
    "Ġvessel": 3799,
    "ientiously": 21945,
    "rim": 7138,
    "Ġkeel": 6444,
    "pounds": 21027,
    "iloquent": 21729,
    "Ġtrifles": 16953,
    "uneven": 23688,
    "Ġswelling": 11930,
    "Ġincalculable": 17463,
    "Ġdevotion": 22741,
    "opatra": 22487,
    "Ġsle": 2011,
    "Ġenvelopes": 24510,
    "Ġequatorial": 13512,
    "begin": 8887,
    "favour": 9552,
    "Ġinsol": 10183,
    "idean": 14265,
    "Ļ": 252,
    "Ġfoes": 11957,
    "Ġgrenadier": 21619,
    "whatever": 6695,
    "balls": 12310,
    "creatures": 7516,
    "ites": 3898,
    "Ġpoles": 11005,
    "Ġinsignificance": 20460,
    "Ġconcentration": 25065,
    "offended": 16397,
    "Ġspurned": 12802,
    "disciple": 16780,
    "Ġvulgar": 13608,
    "twelvemonth": 25863,
    "kes": 3678,
    "Ġnor": 1553,
    "Ġtechnique": 2344,
    "cripp": 20821,
    "slept": 17172,
    "descend": 23088,
    "Ġallows": 3232,
    "Ġrestrain": 8967,
    "Ġelderly": 13498,
    "Ġcr": 2153,
    "Ġdevoured": 16143,
    "credit": 12454,
    "Ġcloud": 3911,
    "covered": 11479,
    "Ġglass": 4371,
    "opic": 22486,
    "lin": 9606,
    "flung": 16641,
    "Ġscheming": 23272,
    "Ġpeculiar": 3148,
    "Ġflock": 21414,
    "wives": 15458,
    "ę": 218,
    "Ġbrings": 11885,
    "Ġanxious": 4519,
    "Ġnoticed": 5549,
    "Ġauthorized": 16737,
    "Ġvariation": 22668,
    "Ġsqualidness": 25844,
    "Ġcheering": 11135,
    "Ġyanke": 18100,
    "whale": 2141,
    "Ġbasis": 16963,
    "Ġtorrent": 17093,
    "igantic": 5539,
    "Ġgoose": 5938,
    "Ġthunders": 15642,
    "Ġimmersed": 19488,
    "Ġlassitude": 20590,
    "Ġask": 1489,
    "Ġamphitheat": 26253,
    "Ġgreeted": 23215,
    "Ġkno": 5241,
    "Ġresembles": 25970,
    "Ġbecame": 2688,
    "Ġgramm": 8171,
    "walton": 20252,
    "fields": 14655,
    "impression": 15715,
    "incident": 14593,
    "Ġcustody": 13651,
    "daughters": 13470,
    "Ġineff": 12639,
    "Ġruskin": 25810,
    "omeness": 18018,
    "Ġfisheries": 17441,
    "Ġisa": 14028,
    "Ġposition": 1954,
    "Ġspent": 3963,
    "Ġthom": 21519,
    "Ġunconnected": 18240,
    "õ": 182,
    "oub": 1635,
    "trucks": 25420,
    "Ġpoisonous": 24888,
    "Ġfiftieth": 24702,
    "Ġcaptain": 1603,
    "lengthwise": 19953,
    "ension": 6570,
    "Ġrespect": 1670,
    "g": 75,
    "lop": 20950,
    "Ġlamps": 14794,
    "storm": 9685,
    "Ġfurnace": 19443,
    "fins": 13722,
    "Ġhanging": 5447,
    "oe": 7551,
    "Ġlivelong": 25512,
    "Ġrele": 2913,
    "tender": 14476,
    "iliating": 12700,
    "whisper": 17084,
    "Ġlees": 18065,
    "Ġbrid": 6291,
    "Ġopenly": 8575,
    "inese": 12884,
    "Ġmagnet": 10392,
    "Ġslipping": 13365,
    "Ġherein": 16194,
    "Ü": 157,
    "Ġban": 7156,
    "Ġserving": 14488,
    "ually": 2767,
    "Ġpasseng": 12976,
    "Ġscholar": 26112,
    "[": 63,
    "Ġsweet": 3465,
    "meditation": 19069,
    "Ġcommence": 6168,
    "Ġunfold": 8022,
    "ifts": 12740,
    "piteous": 21036,
    "Ġsilk": 11967,
    "Ġsupplies": 20329,
    "Ġcurse": 7666,
    "ific": 491,
    "linked": 17595,
    "likewise": 13109,
    "berwell": 22722,
    "Ġdepth": 2437,
    "Ġfloor": 4380,
    "tooth": 18580,
    "horizon": 23617,
    "Ġpeas": 8535,
    "Ġapr": 12538,
    "Ġsinging": 7723,
    "Ġmiles": 3804,
    "Ġimmensity": 25330,
    "č": 206,
    "Ġover": 556,
    "Ġstem": 15726,
    "Ġhide": 4590,
    "Ġwharves": 13509,
    "Ġante": 17898,
    "rubbed": 22194,
    "Ġslavish": 23174,
    "umberland": 16839,
    "eries": 6808,
    "deliber": 17429,
    "Ġbreat": 3458,
    "Ġunhing": 18239,
    "Ġjoyous": 14666,
    "Ġcynical": 25771,
    "Ġdevotedly": 24750,
    "Ġoxford": 11373,
    "Ġsammy": 24933,
    "Ġagitates": 22521,
    "Ġfragrant": 13101,
    "Ġrejected": 12299,
    "Ġwoven": 9929,
    "Ġbackward": 7654,
    "Ġprimary": 25063,
    "ĠĠĠĠĠĠĠĠĠĠĠĠĠĠĠĠĠĠĠĠĠĠĠĠĠĠĠ": 14889,
    "Ġskeletons": 16793,
    "ostent": 16848,
    "portent": 25413,
    "âĢĿ]": 21816,
    "Ġglim": 9347,
    "Ġhooks": 14971,
    "repeat": 25155,
    "interchange": 23741,
    "Ġanxiety": 5408,
    "separation": 25227,
    "ames": 2949,
    "Ġwinchester": 10069,
    "sence": 3307,
    "olog": 1111,
    "Ġcreate": 2092,
    "~": 98,
    "Ġwanderings": 20146,
    "Ġtram": 11093,
    "upp": 10133,
    "Ġsighed": 10340,
    "Ġacquired": 13049,
    "Ġsuperl": 16446,
    "Ġthrice": 10578,
    "lled": 10110,
    "cated": 20805,
    "path": 10121,
    "Ġsnatches": 16546,
    "Ġpersuaded": 5769,
    "Ġconnecting": 18634,
    "scales": 22997,
    "Ġpresumably": 19627,
    "Ġpalmed": 24094,
    "Ġpardon": 5727,
    "Ġmachines": 1776,
    "iding": 3847,
    "bering": 18681,
    "Ġken": 22195,
    "aped": 3763,
    "Ġrefinement": 18695,
    "Ġtimbers": 14842,
    "secured": 16940,
    "erred": 6376,
    "Ġcamberwell": 25351,
    "gorith": 552,
    "jacket": 12297,
    "Ġconstruct": 23342,
    "uine": 13802,
    "Ġancest": 12619,
    "Ġwarden": 17227,
    "mosp": 8089,
    "Ġdreamed": 16632,
    "Ġdescription": 7428,
    "Ġvariety": 8532,
    "Ġsouthern": 7688,
    "Ġdearer": 14052,
    "Ġmedic": 11258,
    "occurred": 13342,
    "Ġprone": 18970,
    "ous": 477,
    "lovel": 22514,
    "prises": 23817,
    "oblig": 16294,
    "younger": 11314,
    "Ġunlike": 7005,
    "Ġinfinity": 23284,
    "Ġgripping": 26188,
    "Ġsched": 2337,
    "Ġshrill": 12147,
    "umbria": 23898,
    "Ġmonotonous": 13267,
    "possession": 12227,
    "emph": 21930,
    "turning": 8317,
    "Ġaims": 15499,
    "forget": 11034,
    "Ġinherit": 25353,
    "Ġbestowed": 6594,
    "nament": 11509,
    "Ġlandlord": 5581,
    "apse": 14201,
    "Ġheroines": 19754,
    "Ġswan": 23054,
    "treas": 17681,
    "Ġabund": 8868,
    "esley": 17904,
    "Ġpremises": 10490,
    "otes": 15748,
    "entreat": 17978,
    "gratitude": 16818,
    "Ġdozen": 8186,
    "Ġbru": 13898,
    "Ġindiam": 22956,
    "Ġidolator": 20001,
    "Ġneedles": 11186,
    "Ġsecurely": 16804,
    "kindly": 14747,
    "ante": 11726,
    "kindled": 16663,
    "itious": 8784,
    "wanderer": 25424,
    "Ġwithin": 2166,
    "such": 3079,
    "Ġaccidentally": 9508,
    "hundreds": 25076,
    "Ġhumbly": 16201,
    "Ġemblematical": 25789,
    "Ġinsatiable": 19274,
    "det": 5207,
    "Ġeventually": 8620,
    "libra": 22928,
    "rudent": 6482,
    "Ġparalle": 1411,
    "Ġarticles": 7109,
    "âĢľâĢĻ": 10224,
    "cruising": 12285,
    "loved": 14253,
    "spirit": 11315,
    "Ġuns": 15840,
    "Ġjokes": 18409,
    "Ġcontinental": 19708,
    "grat": 5052,
    "Ġtheology": 21279,
    "Ġtul": 21162,
    "Ġ179": 19757,
    "Ġcarve": 23095,
    "using": 5468,
    "invest": 11562,
    "Ġfortunate": 6215,
    "anything": 5518,
    "Ġtranslation": 3083,
    "vag": 8768,
    "cong": 10691,
    "Ġmathemat": 3198,
    "Ġglorious": 11077,
    "Ġmarshal": 20222,
    "Ġchristmas": 6923,
    "Ġenlarged": 25986,
    "Ġgrizzled": 11452,
    "ethe": 9679,
    "ional": 1083,
    "Ġshutting": 14762,
    "Ġglimmered": 20174,
    "Ġcrests": 25686,
    "known": 3569,
    "uneasy": 23689,
    "Ġrepairing": 25590,
    "Ġsooner": 5573,
    "Ġendeavours": 8621,
    "Ġconsumm": 15158,
    "Ġschoolboys": 24481,
    "hole": 5586,
    "scorched": 25698,
    "Ġswam": 6448,
    "Ġcogn": 11004,
    "Ġgaped": 13970,
    "admit": 18093,
    "Ġscarcity": 23830,
    "cocks": 23562,
    "Ġhauled": 11699,
    "burning": 25081,
    "Ġbasket": 9575,
    "Ġbengal": 18784,
    "ilar": 10218,
    "when": 1590,
    "Ġthankful": 14741,
    "Ġcolour": 4462,
    "Ġdelightful": 6321,
    "Ġsilly": 7685,
    "Ġdeser": 3886,
    "Ġcreep": 22725,
    "Ġdesolation": 12274,
    "Ġprompted": 23820,
    ":âĢĶâĢĺ": 24196,
    "ancho": 4938,
    "Ġcarav": 18902,
    "Ġsuperlative": 26075,
    "Ġwhitting": 18058,
    "acceptable": 25185,
    "Ġunobserved": 18247,
    "Ġbeautiful": 3672,
    "ju": 13744,
    "ĠâĢĺ": 1633,
    "Ġjoes": 19232,
    "Ġcoquet": 22585,
    "Ġruffled": 25837,
    "spouting": 25003,
    "Ġbetrayed": 9564,
    "blister": 24130,
    "tubs": 15134,
    "Ġrept": 13986,
    "Ġape": 21199,
    "------": 12139,
    "Ġsympathetic": 17362,
    "Ġpurporting": 19184,
    "Ġxl": 11995,
    "Ġstays": 16563,
    "Ġsyn": 15915,
    "Ġslaughter": 20732,
    "Ġyear": 3285,
    "verted": 10220,
    "doubtless": 17004,
    "compassion": 12373,
    "Ġmeditating": 20046,
    "presbyter": 20621,
    "lers": 10109,
    "Ġdesigns": 13021,
    "Ġirrad": 19095,
    "Ġeigenvalues": 4998,
    "Ġemma": 20697,
    "Ġgentle": 1890,
    "Ġaccur": 3462,
    "Ã¦": 4338,
    "Ġprincipal": 6496,
    "Ġthick": 3782,
    "Ġshe": 466,
    "Ġmaddening": 17245,
    "Ġmayhap": 18708,
    "Ġroyal": 5602,
    "Ġacknowled": 6351,
    "Ġtand": 21163,
    "hee": 10762,
    "Ġcele": 9903,
    "Ġliable": 14231,
    "deceiving": 22148,
    "Ġlowest": 11124,
    "Ġtallow": 14783,
    "Ġball": 3623,
    "Ġfid": 10805,
    "Ġpulpit": 7469,
    "Ġenchanting": 17040,
    "Ġflowing": 14414,
    "Ġmout": 17800,
    "Ġfix": 2506,
    "oices": 7347,
    "iousness": 4900,
    "Ġkramm": 26235,
    "Ġthee": 2620,
    "Ġarrival": 4732,
    "head": 1436,
    "Ġspecialized": 3920,
    "Ġxx": 5492,
    "anx": 8788,
    "Ġunanswerable": 26523,
    "rudently": 16712,
    "Ġsurviving": 24637,
    "Ġprophesied": 26063,
    "Ġgladly": 14683,
    "Ġgouldings": 26189,
    "Ġintelligible": 15945,
    "Ġoccurrences": 11052,
    "Ġentities": 11867,
    "Ġmoby": 3665,
    "wonderful": 16962,
    "oner": 6125,
    "mystical": 25318,
    "uber": 15448,
    "orrah": 17877,
    "Ġexpecting": 10438,
    "Ġberkshire": 16886,
    "ulus": 21868,
    "ullen": 8235,
    "Ġbackbone": 22662,
    "77": 15304,
    "Ġfobbing": 26443,
    "Ġbands": 14887,
    "Ġpresentiment": 18990,
    "Ġcle": 1510,
    "Ġconcealment": 16916,
    "Ġforgetfulness": 14608,
    "Ġramadan": 9578,
    "rolling": 9063,
    "Ġpledge": 11605,
    "rusion": 11325,
    "Ġunheeded": 18259,
    "Ġvincent": 15287,
    "Ġgrieve": 14710,
    "Ġhired": 10180,
    "learn": 2478,
    "title": 17290,
    "Ġresponses": 23650,
    "real": 10152,
    "Ġpriority": 19765,
    "fixed": 7547,
    "Ġcrystals": 20230,
    "bethink": 25745,
    "Ġquietude": 19363,
    "Ġnumerous": 6919,
    "Ġmitig": 1334,
    "mentioning": 24886,
    "Ġquadrant": 11406,
    "Ġmildness": 9947,
    "Ġsquares": 11171,
    "Ġsheeted": 19834,
    "Ġfaintly": 14918,
    "cher": 5786,
    "probability": 17024,
    "Ġisrael": 21807,
    "judged": 14834,
    "resembled": 21249,
    "Ġarctic": 12816,
    "Ġstow": 21737,
    "Ġsquat": 14370,
    "Ġadroit": 26001,
    "Ġhaz": 12760,
    "Ġrelinqu": 12987,
    "Ġacquirement": 19257,
    "Ġrecesses": 17263,
    "Ġfang": 21406,
    "interests": 19711,
    "Ġberm": 21386,
    "runs": 25416,
    "steak": 14711,
    "Ġquito": 24408,
    "Ġim": 476,
    "Ġthank": 3791,
    "Ġpieces": 7368,
    "Ġlavenza": 17973,
    "Ġclassify": 1511,
    "bol": 8721,
    "Ġguid": 2635,
    "Ġshr": 4226,
    "Ġincluded": 8959,
    "oise": 15407,
    "Ġyork": 11669,
    "Ġsnugly": 17112,
    "Ġscandinav": 19964,
    "Ġhollows": 19744,
    "loveliness": 26551,
    "Ġescapes": 23509,
    "blacksmith": 17003,
    "Ġindistinct": 17411,
    "Ġlandscape": 12422,
    "Ġshipwrecked": 25688,
    "Ġprison": 5403,
    "aston": 7407,
    "enari": 21284,
    "ineff": 21970,
    "Ġheadsman": 13278,
    "gunw": 17223,
    "inquire": 16934,
    "Ġwax": 10778,
    "istle": 15874,
    "sell": 13784,
    "Ġgrew": 5182,
    "osoever": 17346,
    "Ġdeeps": 16108,
    "giving": 8742,
    "Ġsitu": 3495,
    "Ġreeds": 15700,
    "Ġkindred": 16378,
    "Ġpump": 12626,
    "tre": 8764,
    "Ġeludes": 26556,
    "Ġenthus": 7231,
    "Ġinstinct": 6576,
    "Ġcircular": 13115,
    "hus": 5072,
    "Ġbarb": 4532,
    "female": 20669,
    "snowy": 20286,
    "subsided": 25832,
    "sample": 12512,
    "Ġshook": 4470,
    "Ġderive": 10397,
    "Ġprosperity": 20260,
    "want": 8770,
    "Ġguest": 7248,
    "Ġjustine": 4970,
    "skelter": 24490,
    "Ġchurch": 4712,
    "Ġscratch": 25565,
    "Ġunrem": 18242,
    "Ġimpetuous": 25571,
    "Ġquadrille": 13544,
    "jets": 20930,
    "rene": 5379,
    "ass": 536,
    "Ġgriev": 16637,
    "civility": 17515,
    "entiating": 3436,
    "Ġimitate": 14160,
    "Ġinfirm": 19018,
    "Ġ199": 3007,
    "Ġdecreed": 18485,
    "moreover": 12974,
    "Ġhush": 13215,
    "stays": 15693,
    "clear": 9027,
    "lifted": 15390,
    "pitchpoling": 25725,
    "Ġadvisable": 11444,
    "Ġwrongfully": 24251,
    "wear": 22686,
    "Ġhoary": 23357,
    "Ġcaulk": 25441,
    "ically": 852,
    "cherish": 24552,
    "Ġbodies": 8032,
    "Ġupstairs": 5837,
    "approbation": 11460,
    "shattered": 22458,
    "Ġexpectantly": 23526,
    "illar": 5101,
    "woe": 21138,
    "Ġpol": 2575,
    "Ġelement": 6897,
    "Ġbeckoning": 20505,
    "guinea": 16675,
    "Ġwaning": 15537,
    "loat": 8890,
    "mates": 5073,
    "sharks": 14241,
    "Ġexclusion": 19399,
    "Ġindelicacy": 25696,
    "Ġflames": 7940,
    "Ġannouncement": 14836,
    "Ġseeing": 2882,
    "Ġbuckets": 17035,
    "nature": 5360,
    "Ġleader": 14705,
    "cavity": 26127,
    "Ġjacket": 6489,
    "Ġsophisticated": 1604,
    "Ġfeast": 10280,
    "icorn": 15661,
    "Ġvideo": 25366,
    "Ġrods": 9757,
    "Ġduty": 4071,
    "cracy": 24691,
    "tim": 13794,
    "Ġprotection": 9465,
    "Ġtyph": 10011,
    "Ġjack": 4654,
    "inations": 7566,
    "Ġhelping": 3266,
    "Ġslee": 8977,
    "Ġcomplain": 6686,
    "same": 5362,
    "Ġkinds": 14505,
    "Ġpained": 19169,
    "Ġunreason": 15846,
    "uzzle": 19586,
    "Ġunmo": 12777,
    "Ġactuated": 18545,
    "Ġgorge": 13570,
    "Ġtick": 8109,
    "Ġdent": 13909,
    "Ġappearance": 3699,
    "Ġedinburgh": 16458,
    "Ġprogeny": 17391,
    "Ġcourtiers": 24139,
    "Ġlovely": 4711,
    "ame": 645,
    "Ġtreasure": 9561,
    "Ġarriving": 19219,
    "Ġhug": 6979,
    "Ġdiscontented": 16062,
    "Ġimpropri": 14218,
    "Ġerud": 20058,
    "Ġruinous": 24634,
    "Ġtea": 5041,
    "Ġkeen": 4614,
    "Ġincapable": 7422,
    "Ġpassed": 2008,
    "strade": 5065,
    "uend": 21104,
    "mult": 8751,
    "eded": 9676,
    "surd": 6933,
    "Ġadvert": 10574,
    "Ġscotland": 6641,
    "icting": 12858,
    "Ġineffect": 13933,
    "Ġquakers": 22420,
    "Ġportcullis": 26605,
    "everything": 6325,
    "Ġuntoward": 19167,
    "Ġwhirlp": 16965,
    "Ġbidding": 9540,
    "Ġinsensibly": 20079,
    "Ġworks": 5858,
    "Ġlistener": 16477,
    "Ġunmindful": 22066,
    "Ġheiress": 20700,
    "Ġirreproachable": 24918,
    "Ġpolitic": 23620,
    "ibbald": 18843,
    "Ġinflict": 15003,
    "convinced": 10625,
    "Ġbatt": 13902,
    "Ġoutlines": 15961,
    "Ġperplexed": 23660,
    "Ġsailors": 4277,
    "derness": 11742,
    "Ġprodigy": 19795,
    "(_": 7539,
    "Ġfluffy": 19367,
    "Ġdavis": 25953,
    "_).": 5887,
    "kers": 7133,
    "unwillingly": 21888,
    "happ": 3099,
    "Ġbesides": 3513,
    "transform": 8050,
    "Ġelbows": 18637,
    "proceed": 8979,
    "Ġfiendish": 13332,
    "Ġovertake": 15977,
    "Ġchristian": 6479,
    "brought": 7284,
    "ertips": 23641,
    "cod": 12449,
    "husband": 8042,
    "Ġradney": 6775,
    "kempt": 20943,
    "ifled": 14066,
    "cest": 12450,
    "datasets": 11956,
    "Ġunequal": 14845,
    "ignorantly": 25190,
    "Ġcranes": 20386,
    "apsed": 6296,
    "Ġtwitching": 25684,
    "/": 19,
    "distinct": 13340,
    "Ġmediocr": 24142,
    "Ġdie": 3961,
    "Ġacquaintances": 17353,
    "ĠĠĠĠĠĠĠĠĠĠĠĠĠĠĠĠĠĠĠĠĠĠĠĠĠĠĠĠĠĠĠĠĠĠĠĠĠĠĠĠĠĠĠĠĠĠĠ": 16757,
    "passing": 14815,
    "Ġundulated": 19519,
    "unched": 10238,
    "ercial": 21277,
    "noticed": 14346,
    "tornadoes": 26154,
    "Ġshiver": 12772,
    "Ġmovements": 24359,
    "Ġdeaden": 23462,
    "Ġsage": 17754,
    "Ġhoping": 11105,
    "Ġtrade": 2546,
    "lod": 15382,
    "Ġchest": 5185,
    "Ġformerly": 7492,
    "Ġexact": 2542,
    "Ġoverl": 18429,
    "Ġsorrowful": 10539,
    "Ġheroism": 24544,
    "Ġpanegyric": 26451,
    "chor": 6147,
    "Ġcigars": 12258,
    "reflected": 24732,
    "voy": 7144,
    "Ġearnestly": 5979,
    "Ġishmael": 7394,
    "Ġsands": 14951,
    "Ġmiscell": 16153,
    "ublic": 11229,
    "Ġconstantinople": 19840,
    "onical": 21256,
    "Ġabundance": 17158,
    "ar": 285,
    "unfort": 21880,
    "Ġtraits": 23078,
    "ification": 1029,
    "lay": 5891,
    "compliment": 11366,
    "gn": 8082,
    "prov": 16426,
    "gi": 17553,
    "Ġcorpore": 13405,
    "ient": 394,
    "Ġbend": 9173,
    "Ġminimax": 5859,
    "covering": 15337,
    "uv": 6230,
    "spades": 14335,
    "gradually": 12920,
    "Ġblackness": 9396,
    "afflicted": 23781,
    "Ġwager": 17794,
    "Ġcolumn": 9331,
    "awakened": 14456,
    "Ġslu": 13839,
    "Ġattack": 5478,
    "osures": 22265,
    "screw": 9350,
    "Ġcollecting": 12291,
    "Ġtoiling": 15639,
    "Ġbowsman": 11256,
    "kward": 6957,
    "Ġluxurious": 17314,
    "glo": 8741,
    "Ġdiscipline": 26563,
    "Ġtokens": 1771,
    "ical": 753,
    "Ġsensational": 16392,
    "Ġey": 8135,
    "Ġlargest": 6283,
    "Ġquicker": 16510,
    "angel": 5726,
    "Ġlens": 8439,
    "ingale": 21302,
    "ees": 13714,
    "stands": 22434,
    "Ġfits": 8795,
    "Ġservants": 6611,
    "Ġfairer": 20465,
    "Ġ21": 11200,
    "ription": 5676,
    "Ġdefection": 22945,
    "Ġabide": 14190,
    "sailed": 17668,
    "Ġembracing": 14983,
    "Ġwillingness": 24911,
    "Ġcurt": 18845,
    "jewell": 25524,
    "54": 15303,
    "sperm": 5203,
    "get": 1020,
    "ee": 1662,
    "marks": 7345,
    "li": 1189,
    "Ġgrat": 4057,
    "Ġslam": 13063,
    "Ġpad": 8125,
    "band": 3056,
    "Ġmart": 10781,
    "nut": 12500,
    "Ġbeasts": 10620,
    "prophecy": 22852,
    "determine": 19947,
    "Ġobsequious": 17407,
    "Ġchronicler": 20232,
    "Ġsimplest": 16337,
    "Ġirresolute": 24917,
    "Ġexploration": 2336,
    "Ġdismember": 20218,
    "Ġman": 544,
    "Ġconversing": 14635,
    "Ġquivering": 12863,
    "Ġgowns": 25360,
    "Ġpropag": 16350,
    "Ġbountiful": 25945,
    "bounded": 13443,
    "ching": 5156,
    "clearer": 24071,
    "sych": 9898,
    "Ġthoroughly": 8348,
    "Ġindependent": 9019,
    "Ġutmost": 5496,
    "Ġprofoundest": 16862,
    "ft": 911,
    "Ġvers": 7562,
    "Ġimproving": 1211,
    "stone": 5089,
    "Ġcheerless": 16695,
    "Ġzone": 14360,
    "Ġro": 603,
    "ult": 722,
    "Ġmenaces": 23109,
    "Ġinn": 4591,
    "Ġillustration": 19137,
    "Ġrobustness": 18905,
    "Ġgodly": 19086,
    "spin": 22731,
    "Ġfleetness": 20182,
    "smoke": 17225,
    "ixed": 4853,
    "Ġcomposed": 8895,
    "Ġmodified": 14171,
    "Ġoblig": 3443,
    "Ġconsider": 2567,
    "Ġrow": 5245,
    "Ġcruellest": 19661,
    "88": 20760,
    "saw": 5894,
    "Ġaudience": 24768,
    "phon": 4128,
    "Ġmurder": 4281,
    "Ġcoin": 9774,
    "É": 138,
    "Ġdistinction": 8889,
    "zor": 15461,
    "Ġric": 18212,
    "Ġoversight": 22366,
    "udding": 11870,
    "Ġilliterate": 26596,
    "Ġappeased": 23199,
    "conducted": 25573,
    "Ġwrong": 4725,
    "paper": 9139,
    "Ġbales": 21392,
    "venison": 22630,
    "Ġreceipt": 20358,
    "fre": 5425,
    "Ġtis": 15468,
    "bound": 6221,
    "à": 161,
    "Ġblinded": 13274,
    "cery": 20810,
    "Ġnext": 2140,
    "frankly": 20025,
    "Ġconf": 1818,
    "Ġpaul": 12067,
    "seventy": 10878,
    "Ġlessened": 19087,
    "Ġsomebody": 7912,
    "Ġnamely": 20692,
    "85": 13685,
    "ĠâĢľ_": 6697,
    "points": 14396,
    "Ġfinding": 3264,
    "Ġdiamond": 15603,
    "Ġapparent": 5466,
    "gyric": 19111,
    "Ġcorroborated": 26054,
    "cat": 15327,
    "Ġintimacy": 8704,
    "ca": 20795,
    "Ġspeaking": 4027,
    "Ġhag": 12630,
    "deploy": 22146,
    "Ġhonour": 3922,
    "osal": 11764,
    "Ġhorribly": 16345,
    "iew": 2446,
    "Ġdeduced": 12213,
    "Ġprynne": 25541,
    "Ġdisagreeable": 9301,
    "Ġdromed": 15601,
    "response": 25763,
    "Ġhair": 3314,
    "create": 24162,
    "Ġdifficulty": 5770,
    "Ġdiscovery": 5412,
    "Ġtrooped": 24900,
    "Ġintroduced": 7690,
    "uits": 21107,
    "serpent": 16295,
    "allowing": 24358,
    "Ġgrain": 15835,
    "Ġ117": 19700,
    "particulars": 11317,
    "Ġhunters": 6301,
    "Ġmystical": 12138,
    "ars": 907,
    "Ġaforethought": 25429,
    "contrivance": 26317,
    "Ġfishes": 11594,
    "gl": 3291,
    "Ġjing": 15953,
    "Ġlabor": 10420,
    "toss": 22570,
    "Ġcommit": 18656,
    "Ġchilly": 25563,
    "prev": 12872,
    "Ġstates": 1852,
    "supervised": 1842,
    "Ġbeseeching": 26312,
    "Ġcharged": 9857,
    "uttle": 6248,
    "Ġchalk": 15937,
    "tahit": 17694,
    "remains": 10401,
    "Ġlawyers": 25249,
    "omn": 15686,
    "Ġandrew": 21510,
    "Ġhypothesis": 14787,
    "Ġgaiety": 16751,
    "Ġexclamation": 8702,
    "urities": 18052,
    "crowd": 25255,
    "Ġunfrequent": 24111,
    "Ġmounted": 7832,
    "Ġprob": 972,
    "Ġdiffidence": 14661,
    "Ġwretch": 6378,
    "Ġafric": 8909,
    "Ġsoon": 1228,
    "jane": 4484,
    "Ġecon": 9680,
    "Ġshudderings": 25201,
    "Ġger": 21594,
    "begins": 18523,
    "ause": 1312,
    "Ġgrapp": 14104,
    "pressing": 19015,
    "Ġfi": 935,
    "Ġstrove": 9960,
    "Ġbrighter": 16191,
    "buckets": 26124,
    "conspicuous": 26249,
    "mighty": 9469,
    "Ġcruise": 12053,
    "cloth": 11942,
    "Ġsurrounded": 5879,
    "Ġinattention": 17934,
    "composure": 24037,
    "Ġformation": 2939,
    "Ġbraz": 19361,
    "onian": 17769,
    "protected": 19923,
    "liber": 18815,
    "Ġquietly": 4568,
    "Ġcobbler": 25831,
    "Ġconstable": 19066,
    "ation": 320,
    "Ġinfer": 7683,
    "bourgh": 19105,
    "Ġphaeton": 17467,
    "prophet": 16186,
    "Ġswears": 16466,
    "Ġterm": 2266,
    "Ġpir": 6817,
    "Ġreported": 11984,
    "Ġsanction": 20029,
    "Ġlabel": 14517,
    "Ġbelieves": 14410,
    "Ġshaped": 15838,
    "Ġsuffice": 18871,
    "Ġrichest": 26213,
    "Ġhonourable": 10458,
    "Ġdisk": 22526,
    "Ġslave": 7453,
    "puzzling": 26144,
    "Ġreading": 5114,
    "Ġuseless": 7038,
    "Ġweig": 7618,
    "Ġwhitt": 18057,
    "Ġabiding": 22274,
    "Ġoutrid": 22319,
    "Ġlikes": 9411,
    "ying": 1449,
    "Ġthyself": 6603,
    "Ġwitnesses": 9489,
    "must": 3578,
    "commodore": 20628,
    "pull": 6796,
    "traced": 19648,
    "Ġsteak": 9833,
    "Ġreservo": 16833,
    "Ġcrest": 12946,
    "Ġrelevant": 1864,
    "neighbour": 7210,
    "Ġstrait": 23752,
    "stem": 567,
    "diver": 20833,
    "pow": 10719,
    "Ġrenow": 18030,
    "Ġrheum": 18217,
    "Ġbegin": 3094,
    "Ġdrink": 4788,
    "steaks": 23964,
    "favourable": 12269,
    "icil": 17974,
    "hateful": 20911,
    "Ġallen": 5160,
    "Ġsaville": 15893,
    "ceptibly": 22361,
    "yard": 5900,
    "onness": 21257,
    "95": 17480,
    "reng": 4000,
    "antial": 8489,
    "Ġseemed": 1279,
    "ror": 7350,
    "Ġmiller": 19885,
    "amidst": 25653,
    "Ġgown": 10204,
    "Ġmeekly": 26492,
    "ources": 2786,
    "usages": 22284,
    "hr": 20890,
    "Ġconnect": 800,
    "Ġdru": 8423,
    "ath": 861,
    "inkled": 5477,
    "Ġfiver": 22782,
    "unlike": 18159,
    "Ġminut": 2206,
    "Ġperson": 2369,
    "Ġbite": 10799,
    "Ġcompany": 3720,
    "alogue": 25163,
    "withdrawn": 23029,
    "Ġintroduce": 3200,
    "gies": 13729,
    "Ġrocking": 10971,
    "Ġchapters": 10475,
    "Ġcounterpart": 24720,
    "Ġsimulation": 2747,
    "Ġsuns": 23276,
    "Ġchili": 25562,
    "chat": 21689,
    "Ġrecklessly": 16985,
    "Ġappals": 22222,
    "Ġsurpasses": 25269,
    "Ġepoch": 26473,
    "Ġsob": 12793,
    "Ġincessant": 15101,
    "chapter": 1404,
    "oquent": 12505,
    "Ġverse": 16604,
    "months": 9074,
    "mira": 20981,
    "ired": 1444,
    "Ġbrigs": 20325,
    "Ġxlvi": 25591,
    "spot": 9792,
    "Ġfleets": 23777,
    "Ġracket": 22657,
    "away": 4627,
    "ience": 812,
    "nosed": 20994,
    "Ġfound": 1246,
    "Ġgovernments": 20270,
    "tips": 13799,
    "Ġbulky": 13233,
    "desired": 9008,
    "aving": 2407,
    "Ġassizes": 11110,
    "asis": 12655,
    "Ġdoleful": 18378,
    "Ġchange": 1992,
    "Ġincisive": 18571,
    "utting": 17987,
    "Ġrespectful": 16348,
    "Ġintrusted": 21996,
    "Ġverify": 12093,
    "Ġauthor": 4377,
    "iro": 20916,
    "rested": 13079,
    "fit": 6647,
    "Ġbroker": 23104,
    "super": 5943,
    "french": 9122,
    "Ġnavel": 24577,
    "based": 2955,
    "Ġgracefully": 13395,
    "iarity": 8747,
    "Ġemble": 13974,
    "thrust": 10264,
    "papers": 12507,
    "Ġsituation": 4072,
    "Ġavailed": 23955,
    "Ġbrows": 13305,
    "Ġcataract": 23431,
    "Ġrenowned": 26195,
    "Ġboisterously": 25683,
    "Ġsun": 1720,
    "Ġpistols": 17332,
    "Ġlangsdorff": 15280,
    "Ġstrength": 4260,
    "back": 2014,
    "key": 5462,
    "Ġnecessitates": 23933,
    "motives": 26138,
    "Ġfrozen": 9016,
    "Ġcapable": 5054,
    "pots": 11516,
    "dy": 4075,
    "onsible": 22565,
    "Ġhears": 8139,
    "Ġdoes": 943,
    "Ġresid": 22542,
    "Ġsquint": 22839,
    "wilful": 25152,
    "imet": 21709,
    "Ġlighting": 13087,
    "notwithstanding": 22754,
    "springing": 24890,
    "clo": 5613,
    "Ġillustrations": 17109,
    "Ġswarming": 16274,
    "brous": 19201,
    "Ġenl": 18190,
    "Ġwhispers": 14703,
    "Ġexecute": 7504,
    "Ġstarts": 16585,
    "Ġarchipelagoes": 14351,
    "ole": 9616,
    "Ġmistaking": 23721,
    "awful": 23117,
    "feed": 9296,
    "Ġwid": 4634,
    "Ġcoroner": 7509,
    "Ġindefatigable": 17180,
    "Ġbusiness": 2234,
    "toes": 22568,
    "Ġconveniently": 20082,
    "Ġdrawback": 23993,
    "Ġbub": 8118,
    "Ġleaned": 7604,
    "Ġbenignity": 18783,
    "Ġaction": 5797,
    "ortion": 11762,
    "Ġjib": 14196,
    "Ġmumbled": 17809,
    "Ġfraud": 19035,
    "unsupervised": 10891,
    "Ġcannon": 14156,
    "expected": 5780,
    "Ġdetaining": 25819,
    "Ġparsee": 6413,
    "Ġlawyer": 10671,
    "nameless": 19905,
    "Ġdiscovering": 13362,
    "broker": 13309,
    "Ġburial": 16523,
    "Ġruff": 14352,
    "Ġmagic": 8233,
    "Ġdrunkard": 20180,
    "ders": 8075,
    "Ġlobsters": 13520,
    "Ġoper": 2121,
    "pemberley": 9623,
    "ount": 1114,
    "Ġardu": 22188,
    "finds": 19929,
    "Ġemph": 14525,
    "Ġsc": 532,
    "Ġforgery": 25978,
    "Ġdivinely": 25723,
    "Ġlying": 4828,
    "Ġpouring": 12629,
    "Ġroman": 8323,
    "Ġarom": 15495,
    "Ġsinking": 7306,
    "Ġconsequ": 6255,
    "¢": 100,
    "maintained": 25023,
    "Ġbargain": 23795,
    "Ġcapital": 7980,
    "wishing": 21131,
    "moving": 11018,
    "sicilian": 21066,
    "Ġconscience": 6928,
    "lasting": 8011,
    "Ġcellars": 24666,
    "constantinople": 25508,
    "Ġcorporeal": 17363,
    "Ġconversations": 9428,
    "Ġprecipitous": 24836,
    "Ġinvestigations": 17249,
    "Ġcart": 11586,
    "Ġbachelors": 24861,
    "Ġtooks": 23328,
    "Ġaware": 5756,
    "Ġphenomenon": 17919,
    "questions": 16762,
    "Ġattentions": 5878,
    "lott": 6652,
    "Ġnewfound": 22935,
    "osure": 5308,
    "Ġtumult": 7115,
    "Ġsmell": 7215,
    "ressing": 8922,
    "Ġgrove": 12152,
    "Ġshorter": 4500,
    "Ġmultimodal": 18749,
    "Ġbehav": 3540,
    "rubber": 12817,
    "Ġdecoyed": 18487,
    "naturalist": 23528,
    "Ġaut": 1845,
    "inferior": 12399,
    "Ġunfortunate": 5376,
    "Ġstoutest": 24629,
    "Ġsires": 21229,
    "Ġkeeping": 7282,
    "Ġregarded": 5762,
    "Ġcoars": 14274,
    "slanting": 24558,
    "Ġinstance": 2544,
    "Ġcheerfulness": 10519,
    "Ġfrocks": 23926,
    "Ġguide": 3212,
    "Ġtid": 8107,
    "Ġfoundering": 21422,
    "Ġproperty": 6450,
    "ĠarchÃ¦": 22781,
    "Ġwhich": 503,
    "Ġpartial": 2129,
    "Ġspark": 6690,
    "address": 14884,
    "Ġpor": 5225,
    "thinking": 9017,
    "icirc": 15660,
    "Ġsleeper": 8603,
    "inate": 6234,
    "feit": 16046,
    "Ġstaircase": 20099,
    "Ġconveying": 19717,
    "Ġfunction": 582,
    "Ġsolomon": 11054,
    "rences": 9275,
    "whispered": 20037,
    "Ġambergris": 8709,
    "Ġhurt": 7700,
    "Ġbelieved": 4369,
    "Ġfreely": 7057,
    "Ġlandsc": 11148,
    "idy": 21768,
    "Ġencouraging": 2263,
    "Ġstretched": 5920,
    "Ġhorror": 3772,
    "Ġembattled": 26290,
    "Ġwashington": 17205,
    "Ġparameters": 993,
    "Ġprocedural": 12036,
    "Ġgaping": 13972,
    "vult": 21116,
    "melancholy": 12358,
    "Ġcompliment": 5673,
    "Ġsal": 3938,
    "Ġflit": 23010,
    "Ġgradients": 611,
    "Ġcollins": 2184,
    "Ġ[\"": 19933,
    "execution": 20475,
    "Ġincred": 5646,
    "unpardonable": 21894,
    "requent": 3649,
    "Ġyounger": 5253,
    "Ġmanned": 9274,
    "Ġwer": 12558,
    "Ġcraggy": 23532,
    "Ġrad": 4962,
    "anging": 3551,
    "jeroboam": 25620,
    "Ġren": 3846,
    "âĢĶâĢľ_": 13208,
    "Ġobserver": 11994,
    "Ġauthent": 14513,
    "Ġcourse": 2131,
    "morn": 20978,
    "Ġ184": 16609,
    "Ġbirch": 26175,
    "Ġdoor": 1739,
    "Ġnorthumbria": 24174,
    "Ġmortification": 12100,
    "peril": 18338,
    "Ġbreadth": 10566,
    "Ġduties": 6610,
    "terrors": 25044,
    "Ġcass": 13882,
    "84": 15305,
    "Ġselfishness": 12294,
    "Ġerrand": 11086,
    "fun": 3893,
    "umbrance": 22122,
    "ulation": 5458,
    "Ġshriek": 6639,
    "enhall": 13853,
    "Ġdispose": 23882,
    "ich": 469,
    "Ġdespondence": 25870,
    "mic": 12494,
    "Ġdiscoloured": 15256,
    "bast": 10080,
    "Ġimpulsively": 24881,
    "5": 25,
    "Ġtangled": 13830,
    "mortar": 25409,
    "Ġcommanding": 16592,
    "Ġgardeners": 12126,
    "Ġroofs": 16987,
    "umbered": 22121,
    "Ġreckless": 13462,
    "Ġcalifornian": 25853,
    "Ġmusky": 19385,
    "ad": 337,
    "suffered": 24330,
    "inctions": 17734,
    "Ġwhine": 21718,
    "iards": 17576,
    "Ġtakes": 5007,
    "uring": 819,
    "Ġdistantly": 18532,
    "\"": 6,
    "Ġprosper": 10231,
    "Ġlodger": 24096,
    "sleeves": 26110,
    "//": 11465,
    "ica": 10201,
    "lungs": 26136,
    "sisters": 13380,
    "Ġclothed": 19609,
    "Ġforbid": 7865,
    "Ġswing": 13041,
    "commanding": 24751,
    "Ġhard": 1442,
    "Ġdestro": 3721,
    "Ġfidget": 15193,
    "spirits": 8055,
    "mistakable": 20655,
    "izar": 14053,
    "Ġfo": 1653,
    "Ġdownst": 3559,
    "Ġliveliest": 24774,
    "tallow": 21088,
    "Ġgibberish": 25787,
    "Ġcowards": 12579,
    "Ġbrush": 17866,
    "oin": 17619,
    "dense": 18717,
    "Ġmace": 21312,
    "Ġsuckling": 25998,
    "acting": 22634,
    "Ġcompanions": 5866,
    "Ġcarved": 7947,
    "Ġimmaculate": 19489,
    "Ġeternity": 12284,
    "Ġfeature": 750,
    "Ġtimely": 19597,
    "rev": 17758,
    "Ġswe": 2290,
    "sided": 17666,
    "Ġnav": 5819,
    "Ġsqualid": 14371,
    "Ġlighten": 23261,
    "ĩ": 234,
    "narrow": 11510,
    "Ġimmort": 19487,
    "Ġdirectors": 18923,
    "Ġslope": 14463,
    "Ġmapple": 11152,
    "clim": 18932,
    "Ġhamper": 19392,
    "apolog": 22336,
    "Ġeluc": 16113,
    "Ġisolation": 17153,
    "raltar": 24236,
    "whalemen": 10433,
    "ĠĠĠĠĠĠĠĠĠĠĠĠĠĠĠĠĠĠĠĠĠĠĠĠĠĠĠĠĠĠĠĠĠĠĠĠĠĠĠĠĠĠĠĠĠĠĠĠĠ": 20041,
    "Ġobsolete": 26560,
    "banked": 25338,
    "ried": 925,
    "Ġtreats": 19347,
    "velling": 14765,
    "Ġsatisfactory": 11194,
    "coast": 10451,
    "Ġimprisonment": 22391,
    "etite": 21582,
    "Ġsickly": 16776,
    "ensing": 12901,
    "anyone": 16595,
    "Ġadopt": 10634,
    "acknowled": 10977,
    "utted": 15665,
    "Ġwe": 388,
    "Ġgarn": 13966,
    "pse": 21011,
    "Ġpossibly": 4515,
    "Ġubiquitous": 26197,
    "nson": 16092,
    "Ġassailants": 20452,
    "Ġfailure": 13319,
    "teous": 16175,
    "dan": 17517,
    "neighbourhood": 10028,
    "lanter": 15391,
    "Ġguardianship": 17423,
    "Ġadjusted": 23460,
    "Ġenlar": 15804,
    "pits": 15415,
    "umblings": 23897,
    "Ġundoubtedly": 8313,
    "uc": 1876,
    "windward": 24163,
    "Ġfavourably": 16365,
    "Ġscarlet": 13228,
    "riumph": 4920,
    "oriously": 17876,
    "Ġuttering": 16464,
    "withstand": 23028,
    "Ġagatha": 6865,
    "bull": 13694,
    "Ġanswering": 7476,
    "answers": 22144,
    "Ġshrunk": 16720,
    "Ġplan": 3881,
    "Ġoaths": 13527,
    "otics": 10226,
    "Ġhimself": 1351,
    "Ġtropical": 17066,
    "Ġgates": 10203,
    "Ġearl": 7675,
    "Ġprinc": 4200,
    "³": 116,
    "iquet": 17577,
    "Ġestab": 6316,
    "Ġflavor": 16254,
    "answering": 26005,
    "barrow": 15324,
    "Ġup": 463,
    "pr": 3170,
    "yth": 982,
    "untary": 9870,
    "-": 17,
    "ĠĠĠĠĠ": 3527,
    "event": 8077,
    "Ġpoul": 15617,
    "Ġvoluntary": 14802,
    "Ġther": 17780,
    "Ġpro": 360,
    "Ġphilist": 16603,
    "visitors": 13353,
    "Ġrobberies": 23051,
    "Ġname": 2084,
    "Ġinevitably": 17233,
    "Ġheaths": 25973,
    "rupt": 3207,
    "Ġpaced": 7583,
    "Ġwhitened": 24868,
    "ilogue": 21728,
    "Ġbuckle": 17034,
    "Ġalan": 10871,
    "unmistakable": 21899,
    "Ġbreaches": 14521,
    "luxur": 25823,
    "Ġdolph": 12385,
    "Ġrequest": 6051,
    "count": 4213,
    "analy": 17840,
    "trying": 15441,
    "Ġalarm": 4048,
    "mbles": 23091,
    "Ġmemory": 2275,
    "whether": 5320,
    "Ġsince": 1795,
    "Ġremainder": 9861,
    "desper": 13223,
    "Ġimplements": 2485,
    "Ġpassing": 4315,
    "Ġeng": 1163,
    "Ġflung": 8565,
    "Ġbrilliancy": 20110,
    "eld": 969,
    "res": 2755,
    "Ġstig": 14006,
    "frequented": 25901,
    "Ġdamp": 8264,
    "omnipotent": 25965,
    "willingness": 24754,
    "Ġendless": 7054,
    "Ġcustomary": 8673,
    "Ġswap": 23055,
    "Ġmastiff": 23727,
    "inkles": 7425,
    "Ġdissuade": 26258,
    "bing": 7791,
    "uesday": 8590,
    "Ġmonica": 22988,
    "tarpaulins": 26407,
    "indef": 17737,
    "mental": 16065,
    "Ġshared": 10266,
    "Ġvalues": 2648,
    "une": 2783,
    "ist": 449,
    "shoulders": 16587,
    "ubl": 3595,
    "apped": 5395,
    "Ġthink": 986,
    "whip": 22241,
    "stepfather": 19193,
[...]
