{
  "metadata": {
    "vocab_size": 26615,
    "algorithm": "BPE",
    "created_at": "2026-06-17 07:07:54",
    "special_tokens": [
      "<PAD>",
      "<SOS>",
      "<EOS>",
      "<UNK>",
      "<MASK>"
    ]
  },
  "vocab": {
    "elzebub": 26465,
    "Ġthack": 21521,
    "Ġscrib": 22274,
    "Ġvillages": 14750,
    "lish": 1949,
    "Ġsurp": 9636,
    "eteenth": 20160,
    "Ġbuttoned": 25369,
    "crown": 13701,
    "ilities": 6991,
    "recurrent": 4994,
    "ela": 21573,
    "dum": 17519,
    "smoke": 17224,
    "Ġstool": 14464,
    "Ġ$": 21153,
    "Ġpur": 2217,
    "Ġmanifold": 13563,
    "icity": 2537,
    "Ġcandidate": 16699,
    "Ġdreams": 7495,
    "Ġoutlast": 22318,
    "abond": 15744,
    "Ġsuperstition": 15058,
    "spir": 5738,
    "Ġwherever": 8525,
    "Ġattitudes": 16099,
    "Ġbarriers": 23797,
    "convenient": 12241,
    "âĢ": 294,
    "icing": 9202,
    "Ġtwelfth": 22682,
    "ib": 1236,
    "Ġsubjected": 23574,
    "Ġcanopy": 18323,
    "Ġgetting": 4065,
    "Ġconsummation": 17427,
    "Ġconsoled": 18115,
    "ulnerable": 18153,
    "Ġdegenerated": 20509,
    "Ġanchors": 12617,
    "Ġtelegraph": 25584,
    "69": 17476,
    "Ġteaching": 10366,
    "Ġgravesend": 15219,
    "Ġtens": 17724,
    "Ġswallows": 18883,
    "Ġaustral": 12176,
    "apprehension": 26115,
    "Ġcharity": 8865,
    "Ġunnear": 22031,
    "Ġcontrasting": 11155,
    "Ġsuspense": 9420,
    "Ġduplicates": 17218,
    "ortations": 22263,
    "Ġdrama": 16332,
    "Ġferry": 24514,
    "pents": 11514,
    "wantonly": 25153,
    "dream": 8731,
    "Ġmouths": 7490,
    "year": 11096,
    "Ġstray": 18072,
    "Ġcircumn": 11986,
    "Ġranges": 2885,
    "derick": 22167,
    "Ġwhy": 1760,
    "Ġthirt": 13941,
    "Ġperfidious": 25667,
    "Ġfrequencies": 4789,
    "owers": 12689,
    "Ġ46": 19494,
    "except": 5383,
    "Ġdetested": 14176,
    "Ġnotion": 7884,
    "Ġwherein": 14297,
    "Ġacquirement": 19256,
    "Ġmout": 17800,
    "Ġbigness": 19763,
    "Ġsign": 2494,
    "all": 485,
    "Ġcomprehend": 6494,
    "rodu": 1818,
    "Ġsheer": 14152,
    "Ġflourish": 17162,
    "Ġfibres": 12955,
    "Ġindulge": 10584,
    "Ġpurchas": 19876,
    "Ġcatching": 9480,
    "Ġgradual": 20604,
    "Ġweather": 3995,
    "occasionally": 13523,
    "itten": 3442,
    "Ġpaint": 7708,
    "Ġknife": 7308,
    "Ġfears": 5729,
    "Ġsuspic": 4470,
    "Ġgaunt": 11269,
    "during": 6787,
    "Ġwig": 9163,
    "ables": 7892,
    "Ġassociation": 24710,
    "Ġraise": 6167,
    "Ġlux": 8817,
    "particular": 5757,
    "Ġflour": 8946,
    "Ġadditionally": 1178,
    "Ġrich": 2993,
    "Ġunderstand": 829,
    "Ġparallelization": 3431,
    "Ġing": 5284,
    "Ġsyrian": 18354,
    "Ġdisinterested": 16060,
    "Ġintervened": 25482,
    "thumb": 18219,
    "Ġencompassed": 15256,
    "Ġconsecut": 18114,
    "architect": 22892,
    "ainted": 3659,
    "Ġwanderings": 20146,
    "aked": 2014,
    "Ġcuts": 14608,
    "Ġcurvature": 3573,
    "Ġadversarial": 5606,
    "Ġlanding": 11987,
    "Ġgid": 13964,
    "Ġthickets": 24027,
    "Ġeyelids": 26108,
    "Ġlazily": 11381,
    "Ġwood": 2293,
    "oped": 6048,
    "constant": 11325,
    "Ġexpected": 3697,
    "addressing": 24400,
    "Ġsprawling": 22144,
    "Ġimbalance": 22179,
    "Ġdelightful": 6321,
    "ugl": 23291,
    "thence": 23401,
    "although": 8809,
    "americ": 8157,
    "alty": 17941,
    "Ġravine": 18650,
    "assuming": 22315,
    "Ġsinusoid": 4781,
    "shaken": 16023,
    "Ġcalm": 3448,
    "Ġcrossed": 6070,
    "Ġslight": 3122,
    "Ġ21": 11199,
    "itude": 1419,
    "Ġcub": 8416,
    "Ġfowl": 11331,
    "rant": 11518,
    "Ġcommander": 8628,
    "Ġspecies": 5112,
    "Ġascendency": 20235,
    "Ġgladstone": 23872,
    "Ġenrapt": 21945,
    "Ġsegmentation": 17342,
    "Ġpoker": 13924,
    "ast": 473,
    "serv": 7450,
    "objection": 19917,
    "anth": 13889,
    "Ġtraining": 529,
    "adventurous": 25362,
    "Ġconstrain": 2627,
    "Ġextinguish": 14341,
    "Ġperforms": 11880,
    "hetically": 21211,
    "Ġepo": 21623,
    "Ġ69": 19664,
    "Ġwip": 13855,
    "Ġowns": 22831,
    "Ġwel": 4526,
    "cer": 6644,
    "absolutely": 10647,
    "Ġflail": 23011,
    "Ġterrors": 6917,
    "whereby": 23421,
    "en": 271,
    "Ġbestirred": 20454,
    "Ġmississ": 18840,
    "Ġride": 12762,
    "rapidly": 15246,
    "super": 5945,
    "Ġvineyarder": 25607,
    "itche": 7578,
    "phere": 21021,
    "Ġwoe": 4793,
    "rudently": 16712,
    "Ġgoring": 21608,
    "threadbare": 25990,
    "Ġsteady": 4849,
    "Ġimminent": 11246,
    "ringle": 21043,
    "Ġadvancing": 6877,
    "Ġmagnifying": 16323,
    "Ġfastidious": 14493,
    "Ġunlab": 3789,
    "Ġunrestrained": 25555,
    "Ġjewels": 12372,
    "hic": 3250,
    "Ġwal": 6517,
    "enc": 7573,
    "cible": 20808,
    "Ġannihilated": 20255,
    "expressive": 24306,
    "Ġtanning": 17730,
    "izens": 18146,
    "Ġneville": 7398,
    "brew": 11474,
    "Ġtomorrow": 21517,
    "ñ": 178,
    "Ġbraced": 16581,
    "fatality": 25022,
    "prior": 21035,
    "ediction": 17947,
    "Ġsavory": 23879,
    "Ġhart": 17924,
    "carriage": 9948,
    "mers": 9612,
    "haust": 5777,
    "Ġcreation": 6439,
    "Ġassid": 18947,
    "res": 2760,
    "Ġsignature": 16495,
    "direct": 12460,
    "Ġweight": 656,
    "Ġhigher": 1820,
    "Ġsteals": 23089,
    "belief": 13285,
    "richard": 17288,
    "about": 3586,
    "ostent": 16847,
    "Ġleathern": 15052,
    "anche": 10789,
    "Ġdeer": 12724,
    "Ġglancing": 5399,
    "Ġsauce": 15893,
    "visitor": 15061,
    "Ġsexes": 25172,
    "Ġengagement": 5397,
    "Ġcranial": 25593,
    "vedale": 22714,
    "Ġhish": 21918,
    "Ġensemble": 1612,
    "Ġsatisfy": 6910,
    "âĢĶ": 518,
    "Ġtranquillize": 24756,
    "vate": 21112,
    "nui": 21002,
    "Ġdissol": 18552,
    "Ġartistic": 18614,
    "Ġcare": 1640,
    "Ġgrief": 4620,
    "hope": 5991,
    "Ġfiver": 22783,
    "Ġflapp": 23012,
    "Ġfilial": 16621,
    "Ġglu": 15671,
    "circ": 4388,
    "Ġstrands": 25575,
    "Ġwinchester": 10068,
    "clinging": 20824,
    "Ġprocured": 8680,
    "Ġsmoking": 6429,
    "Ġnearing": 15800,
    "Ġjew": 9469,
    "ow": 326,
    "characteristic": 24686,
    "softened": 20413,
    "ĠĠĠĠĠĠĠĠĠĠĠĠĠĠĠĠĠĠĠĠĠĠĠĠĠĠĠĠĠĠĠĠĠĠĠĠ": 23666,
    "iting": 2160,
    "iters": 21332,
    "painted": 17640,
    "Ġemper": 9863,
    "eye": 6225,
    "Ġcetacean": 25879,
    "Ġintervene": 25481,
    "incident": 14592,
    "Ġlichen": 20095,
    "Ġspit": 22129,
    "Ġimpetuously": 20375,
    "Ġtertiary": 15297,
    "==": 945,
    "Ġ166": 25007,
    "Ġcarrying": 6073,
    "Ġbubble": 13537,
    "concluded": 11244,
    "do": 1994,
    "abling": 1078,
    "charming": 15709,
    ":âĢĶ": 4432,
    "Ġri": 3395,
    "Ġmoonlight": 9960,
    "Ġdecanter": 22458,
    "Ġcompanionship": 14922,
    "Ġpeered": 18669,
    "Ġbrother": 2749,
    "known": 3568,
    "Ġevenings": 18756,
    "Ġchain": 1843,
    "marry": 13327,
    "laborers": 23919,
    "design": 19343,
    "Ġposter": 14278,
    "urring": 21709,
    "Ġkith": 22197,
    "Ġ93": 24593,
    "incredible": 16500,
    "quod": 2167,
    "Ġprocess": 561,
    "Ġaccursed": 9457,
    "irectly": 6939,
    "Ġhawaiian": 25367,
    "acquaintance": 6937,
    "Ġdilatory": 24704,
    "Ġbr": 1072,
    "Ġsneer": 13450,
    "Ġoppression": 23653,
    "Ġeveryone": 8920,
    "Ġdetaining": 25819,
    "inform": 10145,
    "Ġboomer": 20170,
    "Ġlighter": 12657,
    "wat": 6232,
    "Ġdesire": 3718,
    "Ġmissionary": 25697,
    "Ġdub": 13911,
    "Ġremarking": 13128,
    "Ġplutarch": 22611,
    "interval": 7992,
    "otam": 21803,
    "inks": 6868,
    "Ġsubl": 7234,
    ",)": 9103,
    "glim": 19368,
    "Ġgenerating": 12852,
    "Ġenchanted": 9082,
    "Ġdelicate": 6480,
    "Ġvigour": 24461,
    "Ġbiographical": 22767,
    "Ġ199": 3010,
    "endent": 15924,
    "Ġunconcerned": 20513,
    "ceptibly": 22351,
    "Ġbestowing": 16972,
    "glit": 23853,
    "Ġconsummate": 25311,
    "izings": 14053,
    "eded": 9675,
    "affa": 23778,
    "Ġhollows": 19744,
    "s": 87,
    "Ġaffording": 14823,
    "Ġthumb": 6981,
    "affectionate": 24922,
    "Ġpouring": 12628,
    "Ġcorrupt": 11926,
    "erpillar": 5798,
    "virtue": 20572,
    "aping": 8195,
    "sprit": 11383,
    "Ġobscured": 15012,
    "iations": 11496,
    "Ġtame": 17723,
    "plac": 15823,
    "Ġswarm": 23058,
    "Ġconstrained": 19241,
    "i": 77,
    "Ġbasics": 13451,
    "Ġscarce": 8625,
    ";âĢĶ": 3750,
    "Ġsometimes": 2169,
    "Ġappals": 22229,
    "Ġpressure": 13425,
    "Ġsoo": 15864,
    "brows": 17498,
    "Ġconstantinople": 19840,
    "knows": 19174,
    "Ġtooks": 23329,
    "eches": 8079,
    "Ġdelineations": 26059,
    "Ġbrick": 8927,
    "Ġducks": 25161,
    "Ġcomputations": 16000,
    "twelvemonth": 25863,
    "ituted": 13875,
    "Ġchisel": 20371,
    "Ġselection": 18203,
    "Ġtranque": 14209,
    "apothe": 22339,
    "okened": 15987,
    "Ġidol": 7466,
    "Ġwrenched": 12562,
    "Ġmenaced": 16295,
    "Ġugl": 12684,
    "ician": 21569,
    "allic": 12817,
    "spond": 5566,
    "Ġnoblest": 13245,
    "ree": 874,
    "Ġtakings": 20575,
    "®": 111,
    "Ġunlimited": 26224,
    "arthur": 14832,
    "Ġimplements": 2485,
    "Ġapproached": 5844,
    "Ġconcuss": 19050,
    "Ġwipe": 25765,
    "resides": 23672,
    "Ġgenial": 12198,
    "consciously": 19628,
    "Ġexercised": 24800,
    "mayhew": 23995,
    "Ġtahitian": 25428,
    "ienced": 5685,
    "Ġweakened": 16824,
    "Õ": 150,
    "Ġphenomenon": 17917,
    "Ġlingo": 24904,
    "room": 2180,
    "Ġbred": 9171,
    "Ġinvestig": 10551,
    "qual": 8158,
    "Ġundesired": 12782,
    "triumph": 15442,
    "Ġvehicle": 20141,
    "Ġanecdote": 26356,
    "arus": 13914,
    "Ġgulp": 20032,
    "Ġshillings": 15838,
    "Ġwheels": 10913,
    "Ġinqu": 2966,
    "Ġvortex": 26210,
    "Ġdevoted": 6574,
    "Ġemployment": 8632,
    "Ġvilla": 14749,
    "ij": 7802,
    "Ġenchanting": 17039,
    "ertain": 1208,
    "Ġspile": 22132,
    "ouble": 2661,
    "produced": 25415,
    "Ġsiber": 17756,
    "Ġscarlet": 13227,
    "Ġsullenly": 17174,
    "Ġrosy": 18460,
    "Ġinsp": 2102,
    "Ġfolding": 19729,
    "holding": 7739,
    "Ġstabbing": 20306,
    "amp": 2605,
    "Ġpom": 21455,
    "Ġbernard": 20687,
    "ement": 1502,
    "Ġconvivial": 16549,
    "orphans": 26441,
    "Ġuninjured": 22059,
    "Ġtease": 18806,
    "iscuit": 10600,
    "soup": 21061,
    "shroud": 20313,
    "Ġtrample": 20330,
    "Ġlooks": 4165,
    "Ġfer": 5623,
    "Ġeaster": 15678,
    "Ġalmanac": 26486,
    "Ġbecame": 2690,
    "Ġcreative": 9830,
    "Ġnervously": 19186,
    "Ġassumed": 9467,
    "Ġstair": 8457,
    "Ġdeplored": 20508,
    "Ġshutters": 9939,
    "Ġforger": 15736,
    "Ġfervour": 19741,
    "Ġcont": 621,
    "Ġrepent": 9865,
    "Ġrecommence": 16813,
    "Ġholy": 6592,
    "outside": 12808,
    "Ġblackstone": 23390,
    "Ġcontinually": 5042,
    "Ġready": 3398,
    "azed": 9401,
    "antic": 1609,
    "Ġcanoes": 12809,
    "shed": 8096,
    "charmed": 21700,
    "does": 6195,
    "Ġlun": 7857,
    "constantinople": 25508,
    "Ġquee": 1979,
    "Ġdeath": 2042,
    "Ġappend": 18364,
    "azz": 8263,
    "Ġhauled": 11697,
    "inferences": 17740,
    "âĢľâĢĶ": 10873,
    "Ġessays": 19747,
    "Ġaccompan": 5513,
    "Ġpenetration": 19919,
    "Ġbowing": 10476,
    "Ġbeak": 18082,
    "Ġpeaceable": 14725,
    "Ġwhose": 2007,
    "Ġfelony": 18954,
    "moid": 2450,
    "osite": 4894,
    "Ġearned": 19408,
    "Ġmadness": 6602,
    "tranqu": 14708,
    "Ġsavi": 18326,
    "Ġmbpp": 21325,
    "Ġolive": 12569,
    "Ġsince": 1795,
    "computer": 1975,
    "Ġinwards": 15624,
    "Ġrector": 21680,
    "Ġfingers": 5672,
    "Ġencountered": 8323,
    "holder": 13286,
    "solely": 19819,
    "ambition": 13414,
    "Ġwhilst": 9220,
    "Ġkno": 5242,
    "ooped": 17624,
    "ler": 3492,
    "Ġlonging": 14301,
    "Ġnephews": 24712,
    "hammock": 16356,
    "iners": 4937,
    "Ġintercourse": 11000,
    "Ġplu": 8802,
    "Ġliar": 22413,
    "Ġbroadway": 23987,
    "izzy": 3099,
    "Ġrun": 2355,
    "Ġseptember": 18206,
    "Ġwallowed": 24047,
    "Ġhighway": 14348,
    "Ġpopulous": 16827,
    "Ġtarpaulin": 26158,
    "Ġwhispering": 14947,
    "Ġaffirmative": 15225,
    "Ġticklish": 25037,
    "Ġvitality": 15175,
    "Ġinspirited": 23424,
    "endeavour": 17031,
    "Ġpersuasion": 10500,
    "Ġwaifing": 25245,
    "Ġshape": 5639,
    "Ġsetting": 7047,
    "Ġcommenced": 8533,
    "Ġcounterbalance": 24721,
    "Ġunrestingly": 20364,
    "Ġwarnings": 16882,
    "Ġglistening": 12368,
    "Ġunfrequent": 24110,
    "remembered": 17353,
    "Ġlifelessly": 23054,
    "Ġclearly": 6895,
    "Ġnaut": 13943,
    "Ġocc": 888,
    "belated": 24042,
    "valley": 16217,
    "Ġreal": 1637,
    "morning": 4860,
    "inte": 5144,
    "Ġtit": 8401,
    "igned": 5656,
    "reluct": 26164,
    "Ġaccumulates": 2892,
    "bright": 8991,
    "Ġmurderers": 16812,
    "Ġstripped": 10465,
    "Ġapparelled": 20440,
    "tail": 8765,
    "without": 4848,
    "umps": 6318,
    "Ġost": 9651,
    "utral": 12667,
    "Ġshrine": 19534,
    "considerably": 13448,
    "Ġcredulous": 17146,
    "elze": 21577,
    "Ġital": 10867,
    "not": 909,
    "Ġbigot": 24565,
    "Ġdot": 4821,
    "Ġfootpaths": 26319,
    "Ġretain": 7865,
    "Ġpenalizing": 13094,
    "Ġconjunction": 25103,
    "Ġsyllables": 25299,
    "Ġsquee": 7930,
    "Ġ>": 21154,
    "confirmation": 26090,
    "Ġdives": 17892,
    "croquet": 25748,
    "Ġbuttoning": 17237,
    "circuit": 24190,
    "Ġseriously": 7062,
    "Ġrotterdam": 25476,
    "Ġcommendation": 13613,
    "Ġproposals": 10615,
    "Z": 62,
    "sorrows": 17322,
    "shadow": 20315,
    "Ġchildren": 3767,
    "u": 89,
    "Ġlowest": 11123,
    "Ġsparkled": 13465,
    "x": 92,
    "Ġstature": 10864,
    "Ġ31": 12134,
    "interesting": 12205,
    "Ġdoth": 13910,
    "weep": 22688,
    "dispositions": 25014,
    "Ġfulf": 6772,
    "hair": 9124,
    "Ġreminded": 10001,
    "Ġsorts": 6886,
    "rece": 21237,
    "should": 3263,
    "Ġpliny": 11828,
    "rels": 6666,
    "Ġunderneath": 16340,
    "determination": 19948,
    "pens": 17633,
    "cept": 552,
    "conceivable": 17132,
    "elaborate": 21580,
    "Ġsnowy": 9020,
    "Ġheroic": 14910,
    "destro": 13313,
    "Ġhalloa": 13320,
    "alas": 8807,
    "Ġwretchedness": 9028,
    "eon": 8733,
    "Ġsternly": 16710,
    "Ġcold": 3033,
    "usions": 6160,
    "Ġsincere": 11137,
    "consequ": 18503,
    "Ġexpressing": 12011,
    "ave": 977,
    "Ġjura": 14194,
    "indirect": 22377,
    "Ġpyth": 21464,
    "hero": 21207,
    "Ġwhimsical": 20431,
    "Ġ50": 24314,
    "Ġgratify": 19506,
    "Ġscowl": 22276,
    "Ġsoil": 9257,
    "squ": 7810,
    "Ġconcoct": 19049,
    "Ġgibraltar": 25788,
    "Ġpike": 12627,
    "resh": 8406,
    "Ġrecurred": 18978,
    "Ġdrawing": 3920,
    "Ġformidable": 8221,
    "Ġgentlemanlike": 12070,
    "Ġtumult": 7115,
    "Ġper": 589,
    "lined": 12487,
    "Ġinexper": 16981,
    "opolising": 25677,
    "yard": 5901,
    "assured": 10954,
    "Ġtrousers": 12418,
    "ged": 1513,
    "Ġchancing": 22253,
    "abby": 14023,
    "ordingly": 18518,
    "ifiable": 18166,
    "Ġlodger": 24095,
    "zen": 5140,
    "response": 25763,
    "Ġattributed": 11836,
    "Ġinsufficient": 9674,
    "Ġpublic": 4332,
    "smeer": 26148,
    "Ġtransported": 11280,
    "ald": 15628,
    "Ġdistributes": 4196,
    "Ġcomforters": 25801,
    "ture": 7557,
    "inations": 7566,
    "Ġcharmingly": 24223,
    "Ġfingertips": 24020,
    "Ġserenity": 10030,
    "directly": 13711,
    "Ġimpetus": 25570,
    "Ġwakeful": 24268,
    "dri": 5889,
    "overhearing": 19056,
    "mr": 1898,
    "Ġaffidavit": 20726,
    "Ġouter": 6858,
    "unciation": 25983,
    "terrors": 25044,
    "Ġensure": 23688,
    "expense": 22434,
    "Ġreferences": 21678,
    "alous": 7371,
    "Ġdies": 11595,
    "Ġimper": 4501,
    "Ġsangu": 15506,
    "liness": 8750,
    "velling": 14764,
    "best": 6112,
    "study": 15120,
    "feet": 6569,
    "Ġspeechless": 13357,
    "Ġarchitect": 970,
    "tell": 1380,
    "Ġlizard": 12658,
    "Ġhan": 15621,
    "Ġswap": 23056,
    "Ġslabs": 13065,
    "Ġnotwithstanding": 9716,
    "prim": 23814,
    "ylon": 24980,
    "Ġinestimable": 17444,
    "Ġpovels": 22597,
    "ificent": 8185,
    "ullied": 23109,
    "Ġpol": 2575,
    "hip": 8744,
    "Ġground": 2850,
    "Ġinfirm": 19020,
    "Ġintegration": 9870,
    "wig": 17705,
    "imper": 13999,
    "Ġkeenly": 9487,
    "Ġalas": 5923,
    "Ġhistor": 3391,
    "Ġdead": 2173,
    "Ġgazing": 5877,
    "Ġpause": 5707,
    "Ġlimits": 3454,
    "Ġenjoyed": 8009,
    "Ġundecided": 22051,
    "redible": 15807,
    "Ġdealing": 14046,
    "incess": 15484,
    "Ġtru": 4105,
    "Ġreign": 13987,
    "Ġslapped": 23175,
    "Ġfisherman": 12079,
    "Ġepicurean": 20558,
    "Ġinforming": 18744,
    "Ġconcussion": 26301,
    "Ġmarket": 7709,
    "Ġaud": 6663,
    "Ġextravagant": 17280,
    "Ġviolence": 5964,
    "wives": 15457,
    "0": 20,
    "fortunes": 6333,
    "Ġmurder": 4280,
    "idav": 18095,
    "Ġmechanically": 14400,
    "bourine": 9398,
    "Ġscreamed": 9526,
    "Ġpalpable": 15208,
    "accomplishment": 20226,
    "Ġchorus": 10947,
    "\"": 6,
    "Ġmountains": 4427,
    "Ġinflex": 20637,
    "rel": 3754,
    "Ġdames": 23477,
    "mel": 9129,
    "ę": 218,
    "deploy": 22146,
    "idea": 9304,
    "Ġflowery": 16234,
    "Ġreap": 18029,
    "caves": 20815,
    "Ġreplace": 14478,
    "Ġgoest": 22428,
    "Ġprev": 6265,
    "_.)": 7277,
    "ov": 15402,
    "gates": 20874,
    "eyeing": 14948,
    "Ġmist": 2879,
    "Ġquart": 11790,
    "Ġbriony": 9331,
    "akers": 9741,
    "Ġswears": 16465,
    "pread": 7417,
    "irms": 18169,
    "fluttering": 23976,
    "ĩ": 234,
    "Ġmilliner": 19886,
    "ounced": 4954,
    "Ġapprised": 18365,
    "Ġfainting": 16898,
    "Ġdolphins": 20399,
    "Ġretribution": 16284,
    "Ġcomparable": 24280,
    "combe": 7662,
    "Ġbrightly": 13228,
    "Ġtuck": 10142,
    "Ġsacr": 7193,
    "rium": 3136,
    "omical": 9684,
    "rength": 4100,
    "bour": 2073,
    "reclining": 20577,
    "Ġhandkerchief": 8916,
    "Ġsult": 10768,
    "Ġven": 4647,
    "gossip": 23405,
    "umphed": 23520,
    "satisfy": 16893,
    "county": 25397,
    "Ġtechni": 1724,
    "Ġvelocity": 10622,
    "otently": 21805,
    "discovery": 12019,
    "Ġremot": 8545,
    "posted": 24637,
    "let": 2732,
    "Ġfavoring": 2345,
    "Ġgiant": 13970,
    "Ġstreat": 15724,
    "Ġhusbands": 16644,
    "Ġst": 332,
    "Ġslept": 8260,
    "Ġscrut": 15947,
    "magistrate": 19865,
    "Ġdiscovering": 13361,
    "Ġspots": 11732,
    "_).âĢĶ": 8685,
    "Ġannihilation": 15168,
    "Ġmedd": 15542,
    "Ġpanthe": 19656,
    "Ġarrogance": 26233,
    "Ġstormy": 16729,
    "Ġwide": 4107,
    "Ġseeing": 2887,
    "Ġsees": 8846,
    "Ġtoil": 6532,
    "experienced": 15124,
    "Ġmainly": 22658,
    "dimens": 2317,
    "ineff": 21985,
    "Ġstammered": 26201,
    "Ġdented": 17893,
    "Ġrelates": 12985,
    "Ġexclamations": 11362,
    "Ġattorney": 18621,
    "Ġrepentance": 15163,
    "Ġmeanings": 18606,
    "ureau": 10228,
    "sleet": 20152,
    "¶": 119,
    "wondered": 17117,
    "adequ": 11021,
    "Ġinattention": 17934,
    "Ġprovidence": 18747,
    "aust": 15312,
    "alling": 6038,
    "Ġspilled": 10925,
    "repressed": 21246,
    "Ġlima": 10443,
    "oda": 15752,
    "pent": 3494,
    "Ġaccusation": 22385,
    "Ġidea": 2486,
    "affections": 17358,
    "degree": 12805,
    "favouring": 24761,
    "Ġembarked": 17136,
    "annica": 24561,
    "Ġsafer": 22175,
    "Ġcosy": 13134,
    "library": 13003,
    "Ġinquiries": 5678,
    "arman": 11597,
    "Ġwheel": 9720,
    "Ġspars": 3811,
    "Ġenrolled": 21943,
    "incing": 15487,
    "Ġhere": 1091,
    "position": 15415,
    "Ġexplain": 545,
    "blot": 20785,
    "Ġworking": 5574,
    "Ġtied": 7356,
    "Ġtrough": 15981,
    "Ġf": 283,
    "Ġourselves": 5127,
    "Ġbuff": 9174,
    "Ġnearer": 5303,
    "Ġturned": 2135,
    "orm": 425,
    "Ġfreshly": 23990,
    "oug": 432,
    "lighted": 23756,
    "Ġoffing": 16146,
    "Ġaspect": 3100,
    "Ġboisterously": 25683,
    "romised": 14114,
    "Ġcrystal": 17216,
    "Ġbarbaric": 10016,
    "Ġgordon": 26468,
    "bantering": 25254,
    "Ġgr": 976,
    "Ġinsult": 6748,
    "Ġfurthest": 22818,
    "Ġ181": 23899,
    "elastic": 17983,
    "Ġsnuff": 7993,
    "ratches": 20128,
    "dining": 13708,
    "izers": 18145,
    "Ġincalcul": 16066,
    "Ġbiggest": 24566,
    "Ġsucc": 12787,
    "Ġgent": 7382,
    "Ġgobern": 22430,
    "hour": 7339,
    "Ġindispensable": 11903,
    "Ġcelestial": 10069,
    "iqu": 7803,
    "Ġinnumerable": 13355,
    "complacency": 19916,
    "rote": 4592,
    "repent": 15515,
    "enes": 5218,
    "Ġepaulets": 24906,
    "Ġlandsman": 11351,
    "Ġkidn": 20208,
    "agrad": 2746,
    "Ġwashes": 21866,
    "Ġguid": 2637,
    "loose": 11808,
    "Ġsupposition": 9819,
    "obvious": 9359,
    "Ġofficio": 23819,
    "clusion": 16307,
    "Ġele": 1960,
    "Ġrobe": 18459,
    "ag": 377,
    "idable": 8147,
    "Ġsavagely": 26325,
    "Ġvillas": 24058,
    "Ġfaultless": 24539,
    "Ġhardly": 2433,
    "Ġstaple": 26200,
    "Ġelijah": 9102,
    "Ġcommitting": 22677,
    "uded": 6287,
    "Ġdarling": 12608,
    "Ġbrook": 13052,
    "Ġstalked": 20432,
    "blacksmith": 17002,
    "anel": 21360,
    "pillar": 5618,
    "Ġblaze": 16222,
    "Ġcleaving": 23186,
    "historical": 20469,
    "Ġblame": 6446,
    "Ġfurled": 22816,
    "ouder": 17902,
    "Ġwithdrew": 9698,
    "Ġmultimodal": 18749,
    "brimming": 23579,
    "tranquil": 25871,
    "Ġinclemency": 22561,
    "Ġacceded": 22383,
    "omon": 10209,
    "scales": 22993,
    "accessible": 13642,
    "Ġshoulder": 5849,
    "Ġpercept": 14224,
    "abiding": 21798,
    "Ġnuptials": 20497,
    "Ġshoot": 11162,
    "Ġengraving": 17080,
    "investments": 25533,
    "tumultuous": 20402,
    "Ġspecks": 14310,
    "lets": 7837,
    "quarrel": 20018,
    "Ġarrested": 9562,
    "Ġbrutality": 26278,
    "Ġdiscipline": 26562,
    "4": 24,
    "Ġantilles": 24181,
    "soled": 14333,
    "Ġal": 342,
    "Ġeveryday": 22776,
    "Ġlobster": 11390,
    "aintance": 3569,
    "Ġconver": 808,
    "wor": 3417,
    "Ġfinally": 4666,
    "olen": 9703,
    "Ġconverse": 11846,
    "Ġpy": 21454,
    "blocks": 25518,
    "Ġumbrella": 15268,
    "yes": 983,
    "Ġwish": 2099,
    "footsteps": 25200,
    "offensive": 16399,
    "Ġhatch": 7849,
    "Ġsoon": 1230,
    "omely": 21663,
    "Ġmyth": 18221,
    "Ġbrad": 8790,
    "Ġillustrative": 25069,
    "Ġhamper": 19392,
    "ibilities": 13012,
    "ward": 705,
    "Ġwarped": 25038,
    "Ġaught": 8777,
    "hurriedly": 25511,
    "Ġdramat": 23221,
    "Ġsofa": 10272,
    "Ġwil": 4580,
    "Ġdrive": 5055,
    "cab": 7332,
    "Ġintens": 7003,
    "Ġlard": 13949,
    "isk": 9169,
    "eryton": 4093,
    "cher": 5786,
    "Ġlascar": 9201,
    "Ġshun": 11712,
    "Ġargue": 16784,
    "Ġaimed": 20253,
    "Ġpropose": 9855,
    "Ġparadise": 11195,
    "Ġthoughts": 3142,
    "ceptible": 10958,
    "Ġscho": 4436,
    "Ġprotested": 9936,
    "clerval": 7952,
    "animal": 16979,
    "halloa": 17090,
    "Ġleak": 2163,
    "Ġinner": 9672,
    "minute": 11275,
    "Ġsounds": 5190,
    "Ġspectre": 16632,
    "lifted": 15389,
    "aston": 7407,
    "Ġraving": 16118,
    "abominable": 20597,
    "Ġunman": 12777,
    "Ġseal": 10256,
    "Ġdesolated": 24809,
    "ptember": 10894,
    "Ġrivals": 20274,
    "ion": 296,
    "elf": 565,
    "Ġlearns": 2642,
    "related": 24015,
    "gives": 15360,
    "inguished": 6599,
    "Ġdorm": 4822,
    "Ġcapabilities": 4377,
    "Ġpane": 21466,
    "Ġburied": 7719,
    "Ġpaced": 7583,
    "Ġaccordingly": 6621,
    "precise": 19354,
    "95": 17479,
    "Ġte": 1152,
    "Ġcrush": 9424,
    "Ġrival": 10487,
    "Ġtransitory": 16033,
    "pedest": 24823,
    "Ġdriven": 6199,
    "Ġphotography": 24684,
    "Ġrichness": 19313,
    "Ġabreast": 18400,
    "Ġtumultuous": 10617,
    "pra": 15409,
    "Ġdeductions": 19735,
    "Ġhelplessness": 25074,
    "Ġpract": 1827,
    "Ġwoollen": 12107,
    "cele": 21629,
    "rudent": 6482,
    "Ġswift": 3669,
    "burgh": 6773,
    "unusual": 21884,
    "Ġprofile": 16490,
    "Ġapplicable": 19012,
    "years": 6882,
    "Ġdoubtfully": 23481,
    "Ġadaptive": 1356,
    "able": 451,
    "Ġmidships": 23636,
    "inserted": 18888,
    "Ġsettee": 22925,
    "Ġpretence": 13210,
    "Ġflying": 5413,
    "Ġpalaces": 24094,
    "Â£": 4812,
    "Ġbenef": 3489,
    "Ġisolation": 17152,
    "Ġones": 3020,
    "Ġpearl": 20380,
    "Ġhorr": 3194,
    "coat": 5407,
    "Ġmapp": 2082,
    "pse": 21011,
    "theast": 21753,
    "ts": 959,
    "calculation": 25689,
    "Ġthoughtless": 16195,
    "Ġkindly": 6078,
    "Ġpoetry": 15083,
    "Ġprotection": 9464,
    "seized": 14037,
    "Ġstack": 21738,
    "?âĢĻ": 2639,
    "Ġentry": 11026,
    "Ġunconsciously": 10007,
    "Ġrooms": 5180,
    "Ġrallied": 14097,
    "likelihood": 4992,
    "um": 454,
    "compliment": 11365,
    "Ġgaze": 6931,
    "Ġextort": 22750,
    "onist": 21253,
    "Ġunequal": 14844,
    "Ġhappiness": 2945,
    "Ġtrue": 1340,
    "Ġgibberish": 25787,
    "Ġbounding": 19403,
    "._": 3223,
    "Ġattached": 5392,
    "erred": 6376,
    "king": 3063,
    "Ġwerter": 15242,
    "Ġproblems": 2851,
    "ulance": 15770,
    "Ġimpelling": 22392,
    "Ġbrilliant": 11415,
    "Ġthen": 664,
    "thoughtfully": 24049,
    "Ġfunction": 587,
    "Ġphyset": 23204,
    "Ġplanning": 14753,
    "Ġdomineer": 23708,
    "Ġpity": 4941,
    "slightest": 25417,
    "Ġhousehold": 8570,
    "Ġbankrupt": 16797,
    "poises": 11892,
    "Ġpoints": 5249,
    "Ġbizarre": 17873,
    "Ġmarshal": 20222,
    "Ġbricks": 13565,
    "Ġmaterial": 5178,
    "ibid": 18842,
    "Ġcleansed": 26295,
    "Ġunimag": 12778,
    "Ġreg": 731,
    "garn": 20872,
    "Ġevery": 927,
    "Ġscandinav": 19963,
    "Ġuncork": 23433,
    "Ġoppose": 16521,
    "Ġczar": 12578,
    "manifested": 20529,
    "waves": 10741,
    "Ġrippling": 17279,
    "description": 11095,
    "Ġminuteness": 19140,
    "Ġhated": 7584,
    "oblig": 16293,
    "eland": 11622,
    "Ġrifle": 18213,
    "Ġsadder": 24056,
    "ogn": 2506,
    "Ġdiscretion": 10349,
    "Ġthe": 270,
    "Ġunite": 9256,
    "Ġdreadful": 4921,
    "Ġbuckler": 24860,
    "Ġdepartment": 24243,
    "ittarius": 22382,
    "Ġfro": 3472,
    "Ġparacelsus": 15269,
    "raised": 15682,
    "Ġroy": 4229,
    "exposure": 19258,
    "Ġtoll": 7853,
    "Ġreputation": 11642,
    "ĠâĢĶ_": 3459,
    "Ġrashly": 20308,
    "othing": 6995,
    "melancholy": 12356,
    "Ġvalue": 2086,
    "Ġrevolution": 3305,
    "Ġindividuals": 24545,
    "Ġshank": 22002,
    "âĢĶâĢĻâĢĿ": 20067,
    "Ġmoritz": 11909,
    "warrant": 21140,
    "apparatus": 26564,
    "Ġperpendicularly": 11375,
    "hanging": 10102,
    "Ġluxuries": 25167,
    "wandering": 20287,
    "Ġboneless": 19608,
    "twinkle": 23703,
    "Ġapprobation": 10988,
    "Ġsinging": 7724,
    "leviathan": 7785,
    "chors": 11646,
    "consider": 6349,
    "Ġvillanous": 24059,
    "Ġarticulate": 24431,
    "Ġrecovering": 11866,
    "chairs": 21697,
    "guest": 19485,
    "Ġtherein": 11779,
    "scor": 13020,
    "Ġneedles": 11185,
    "ifice": 7198,
    "Ġmanor": 14198,
    "Ġarms": 3966,
    "Ġcashier": 20201,
    "stee": 21649,
    "Ġsledge": 8112,
    "Ġguilty": 7249,
    "involuntarily": 20418,
    "Ġgrooves": 16742,
    "Ġassociated": 12253,
    "ogy": 22703,
    "Ġjustification": 22972,
    "Ġaggregate": 25678,
    "Ġseemingly": 9320,
    "aff": 3105,
    "antled": 18287,
    "swiss": 24257,
    "early": 20122,
    "bourne": 19104,
    "Ġleaned": 7607,
    "bug": 17494,
    "Ġsoftness": 18919,
    "Ġmerchant": 6467,
    "Ġleakage": 23461,
    "Ġchall": 10945,
    "Ġpostpone": 17309,
    "Ġgable": 15670,
    "ulls": 8841,
    "Ġgleam": 12311,
    "akin": 11770,
    "uten": 11624,
    "Ġacquaint": 13049,
    "wolf": 26410,
    "Ġharry": 24571,
    "och": 21003,
    "Ġsuperfluous": 17416,
    "atches": 13848,
    "jure": 20926,
    "Ġutilize": 4798,
    "Ġadvis": 9809,
    "grandfather": 25012,
    "ssible": 2992,
    "Ġraising": 8912,
    "fil": 12466,
    "Ġgradually": 3401,
    "hereabouts": 23608,
    "}": 97,
    "adventures": 20259,
    "vert": 15718,
    "Ġcumul": 4179,
    "Ġblanche": 18821,
    "smote": 23913,
    "arance": 4698,
    "Ġapproach": 873,
    "judged": 14833,
    "Ġseizure": 21962,
    "claim": 9837,
    "Ġpanted": 21475,
    "Ġvineyard": 12333,
    "remarks": 23193,
    "mant": 20967,
    "Ġprocession": 11778,
    "say": 3983,
    "Ġten": 2385,
    "Ġpioneer": 17919,
    "Ġhast": 3154,
    "Ġsecuring": 11994,
    "tremendous": 20676,
    "Ġcomplained": 16999,
    "Ġappalled": 22230,
    "neat": 22462,
    "voyages": 24856,
    "Ġcandles": 9910,
    "Ġthorough": 6246,
    "brace": 16943,
    "listener": 24931,
    "prophet": 16183,
    "Ġspoke": 2747,
    "Ġinvested": 7278,
    "Ġfacilitate": 26099,
    "¬": 110,
    "Ġunjust": 8485,
    "Ġloos": 15874,
    "Ġoverspread": 14203,
    "ina": 21182,
    "inside": 23070,
    "'m": 9584,
    "Ġbarnacled": 25537,
    "Ġblight": 18819,
    "Ġpatches": 4237,
    "Ġpropriet": 9552,
    "Ġbathing": 20202,
    "arn": 358,
    "tland": 21076,
    "Ġconsumed": 10351,
    "begging": 22502,
    "Ġunrelieved": 20548,
    "sensibility": 25028,
    "limping": 26394,
    "Ġfring": 11128,
    "worn": 13808,
    "prick": 19346,
    "Ġsaddest": 16664,
    "Ġasi": 12736,
    "Ġnat": 12649,
    "anct": 21361,
    "Ġirregular": 9867,
    "Ġclapham": 17267,
    "comfortableness": 24524,
    "Ġcatherine": 2815,
    "ugn": 9379,
    "betrayed": 24641,
    "Ġvill": 3879,
    "Ġunfortunately": 10909,
    "Ġadroop": 26002,
    "Ġpeculiarities": 12074,
    "Ġunwonted": 15009,
    "Ġshudderings": 25201,
    "discoveries": 25386,
    "whips": 22243,
    "Ġwitnesses": 9488,
    "oughed": 22088,
    "Ġanne": 1529,
    "Ġtack": 5620,
    "Ġbriefly": 11368,
    "fortun": 3539,
    "Ġcareer": 11119,
    "beries": 22721,
    "behind": 6779,
    "oc": 2838,
    "built": 16826,
    "regarded": 12010,
    "Ġalthough": 4150,
    "peculiarity": 23114,
    "comple": 7440,
    "Ġhousemaid": 14467,
    "Ġquestionable": 19268,
    "Ġthr": 5709,
    "rifled": 21050,
    "Ġinte": 2065,
    "Ġimproving": 1211,
    "algorithms": 8300,
    "Ġfa": 4820,
    "Ġburial": 16523,
    "plain": 1357,
    "severe": 21823,
    "_,âĢĿ": 6219,
    "Ġhusband": 3620,
    "70": 17477,
    "Ġthenceforth": 25183,
    "gressive": 2754,
    "Ġduke": 7756,
    "Ġcloak": 9536,
    "Ġpinched": 17035,
    "Ġsulkily": 25882,
    "Ġconversations": 9427,
    "Ġidiotic": 25589,
    "Ġneglig": 18879,
    "Ġrivers": 9444,
    "Ġdownstream": 3775,
    "thest": 11656,
    "Ġtur": 2563,
    "Ġfranc": 16354,
    "bourn": 3302,
    "Ġbites": 23745,
    "poss": 4778,
    "gard": 7338,
    "Ġnind": 17952,
    "ols": 2414,
    "Ġanytime": 12889,
    "Ġsubst": 4273,
    "Ġgoug": 17993,
    "_)âĢĶ": 20147,
    "Ġparacels": 13670,
    "ood": 961,
    "Ġrush": 5926,
    "Ġglittering": 10055,
    "thirst": 15828,
    "uted": 7592,
    "Ġmealy": 18123,
    "Ġnecessity": 7295,
    "Ġ117": 19700,
    "itters": 10782,
    "Ġgolden": 5337,
    "Ġscandalous": 24879,
    "Ġlovely": 4710,
    "Ġdesires": 9459,
    "Ġelevating": 19731,
    "pires": 13777,
    "che": 3175,
    "cating": 20804,
    "Ġmyst": 4050,
    "Ġmimic": 3147,
    "Ġgardiner": 3240,
    "Ġmizen": 17260,
    "fates": 20860,
    "Ġessentially": 24925,
    "Ġwhereon": 16104,
    "Ġsho": 2246,
    "Ġsmilingly": 22566,
    "Ġmusty": 22684,
    "Ġbuckets": 17034,
    "Ġcottagers": 6761,
    "Ġlevers": 18080,
    "Ġancles": 21450,
    "Ġeasily": 3893,
    "cutting": 23787,
    "conditional": 9080,
    "Ġrespective": 16347,
    "degrees": 22154,
    "Ġconfiding": 19040,
    "Ġmatted": 22916,
    "aches": 6571,
    "enial": 17781,
    "Ġslip": 8956,
    "Ġthomson": 26455,
    "Ġgovernesses": 25130,
    "frequently": 9981,
    "Ġplaited": 14286,
    "shutters": 20314,
    "Ġcondesc": 7181,
    "Ġunqualified": 22064,
    "Ġchance": 3318,
    "Ġbow": 3064,
    "Ġshaded": 14107,
    "Ġoccasion": 3248,
    "Ġconsuming": 22796,
    "brink": 23578,
    "Ġedward": 19153,
    "Ġminiature": 11040,
    "formed": 2553,
    "andes": 18154,
    "urches": 12687,
    "ermost": 7429,
    "cr": 4013,
    "Ġpersian": 11091,
    "Ġescape": 2646,
    "ashing": 4825,
    "upid": 6582,
    "Ġsal": 3939,
    "Ġunbelief": 22052,
    "ication": 1004,
    "Ġpronouncing": 16970,
    "Ġwanting": 6722,
    "oms": 4593,
    "Ġdegrees": 7293,
    "Ġformula": 2868,
    "gallery": 24694,
    "urns": 10215,
    "Ġjub": 22300,
    "Ġdominion": 16537,
    "distrustful": 26332,
    "Ġsolicited": 20040,
    "Ġpauses": 14817,
    "Ġbackbones": 22651,
    "entirely": 7782,
    "Ġcalcul": 3637,
    "solved": 7685,
    "Ġhoisting": 9864,
    "intosh": 22944,
    "Ġsched": 2338,
    "Ġpore": 21461,
    "Ġillinois": 19138,
    "Ġdoorway": 14499,
    "Ġwakes": 11574,
    "itan": 10161,
    "osed": 1958,
    "Ġcarpets": 18904,
    "noted": 22753,
    "Ġclerks": 17297,
    "mouse": 15395,
    "tallied": 21092,
    "Ġreciprocating": 26371,
    "Ġruminated": 24601,
    "Ġdeserted": 8640,
    "imod": 15713,
    "Ġrocky": 13390,
    "Ġfleet": 9434,
    "okingly": 22386,
    "level": 2654,
    "circled": 24189,
    "Ġpartly": 6714,
    "Ġspirits": 3698,
    "Ġadv": 1125,
    "Ġrights": 10398,
    "Ġpolished": 11183,
    "Ġhugh": 15005,
    "Ġ75": 19615,
    "etw": 408,
    "ostentatious": 20654,
    "uation": 17695,
    "cient": 4568,
    "ecess": 17533,
    "Ġath": 15804,
    "Ġstaff": 14008,
    "Ń": 260,
    "Ġinfamy": 14502,
    "ition": 651,
    "concern": 5876,
    "ô": 181,
    "?âĢĿ": 699,
    "Ġindirectly": 8941,
    "Ġmagnus": 18960,
    "Ġjot": 11766,
    "itaries": 21339,
    "Ġdistributed": 18662,
    "Ġvexations": 24611,
    "Ġeffemin": 18517,
    "Ġeul": 21622,
    "Ġsignificantly": 4518,
    "ai": 2524,
    "iction": 4268,
    "ĠĠĠĠĠĠĠĠĠĠĠĠĠĠĠĠĠĠĠĠĠĠĠĠĠĠĠĠĠĠĠĠĠĠĠĠĠĠĠĠĠĠĠĠĠĠĠĠĠĠĠ": 20042,
    "ushed": 2973,
    "recurring": 24196,
    "Ġhumility": 12989,
    "Ġrespectability": 14486,
    "Ġpil": 5014,
    "Ġdynamically": 3832,
    "ms": 541,
    "Ġcast": 3605,
    "tooth": 18582,
    "moran": 24154,
    "wonder": 6371,
    "Ġmay": 925,
    "invested": 17119,
    "Ġfemale": 8346,
    "Ġconnectivity": 3667,
    "Ġsporting": 17000,
    "Ġane": 9183,
    "Ġblinding": 14730,
    "preference": 22467,
    "Ġsmile": 4271,
    "condesc": 18502,
    "Ġtrains": 10948,
    "Ġfris": 23259,
    "Ġlac": 17967,
    "vineyard": 25422,
    "thank": 4950,
    "Ġretreated": 13436,
    "Ġappeals": 16318,
    "Ġwarmth": 6904,
    "Ġter": 2050,
    "Ġhaw": 10253,
    "spade": 10341,
    "Ġinquired": 7484,
    "Ġinferiority": 17115,
    "cook": 8271,
    "stolidity": 21661,
    "Ġreverence": 12062,
    "terr": 8155,
    "circumstances": 8048,
    "Ġsenses": 8253,
    "Ġcloudy": 19480,
    "Ġnails": 12652,
    "Ġhumbug": 18779,
    "Ġmapple": 11151,
    "Ġsmacking": 20168,
    "Ġreduce": 7944,
    "Ġspouted": 14676,
    "oves": 15406,
    "Ġahoy": 12188,
    "Ġsnake": 12064,
    "Ġlashing": 11618,
    "hos": 15366,
    "accompl": 9882,
    "ĠĠĠĠ": 459,
    "ppers": 7617,
    "Ġshol": 22000,
    "Ġwidow": 8666,
    "Ġdavis": 25953,
    "Ġglimmer": 15144,
    "heads": 4094,
    "Ġinstructed": 19287,
    "blown": 25202,
    "Ġchecked": 9377,
    "Ġauthority": 7749,
    "conceive": 16031,
    "nihil": 9852,
    "Ġpredictions": 1456,
    "Ġgrudge": 20696,
    "Ġforeseen": 16442,
    "Ġheavier": 13106,
    "Ġtech": 1675,
    "la": 10706,
    "backed": 9868,
    "Ġrepenting": 25323,
    "Ġlulled": 17971,
    "ichever": 13959,
    "hem": 6665,
    "Ġwidower": 24237,
    "Ġgesture": 11400,
    "Ġparch": 11729,
    "Ġviolates": 3168,
    "Ġspray": 7896,
    "ds": 4688,
    "Ġgrotes": 19566,
    "announced": 19762,
    "arthly": 8031,
    "Ġflea": 23775,
    "ective": 18177,
    "Ġsighs": 22713,
    "Ġlong": 795,
    "Ġforehead": 5262,
    "Ġbroad": 3639,
    "Ġwithdra": 6398,
    "Ġcolonial": 22865,
    "Ġjerk": 16951,
    "Ġjanuary": 13656,
    "effect": 8607,
    "Ġunderstood": 5655,
    "Ġbandages": 24426,
    "better": 7120,
    "Ġviewed": 10463,
    "ropout": 1320,
    "Ġoaken": 13867,
    "Ġdiscernible": 15057,
    "Ġfav": 1754,
    "Ġunheard": 22028,
    "Ġofficers": 4426,
    "Ġcrazy": 8596,
    "Ġexecut": 4247,
    "announcement": 24562,
    "Ġensue": 18191,
    "Ġspoilt": 24804,
    "Ġstings": 21739,
    "Ġbird": 3756,
    "Ġinterchange": 16074,
    "touched": 15441,
    "Ġundec": 22022,
    "Ġlitter": 19832,
    "Ġorphan": 12386,
    "ighbour": 3389,
    "sulphur": 25910,
    "isen": 10793,
    "Ġchinks": 22256,
    "Ġceremonious": 24838,
    "pleasing": 14744,
    "Ġgabriel": 7595,
    "gether": 1601,
    "Ġemploys": 19434,
    "Ġbus": 1901,
    "eration": 10773,
    "Ġblind": 3717,
    "ission": 6457,
    "sax": 21059,
    "Ġcustomary": 8673,
    "Ġthroes": 24574,
    "vered": 4830,
    "aciousness": 18605,
    "Ġattracted": 8907,
    "Ġintimidated": 24802,
    "Ġwillingly": 8887,
    "uated": 10133,
    "erm": 788,
    "stat": 21642,
    "Ġforesee": 19126,
    "Ġsubsequent": 7659,
    "Ġdecided": 5471,
    "Ġsk": 960,
    "Ġvariations": 22670,
    "Ġalgorith": 564,
    "Ġagents": 9768,
    "Ġproject": 5545,
    "Ġbeer": 10221,
    "impropriety": 21717,
    "Ġfelicity": 7259,
    "Ġtemple": 7653,
    "Ġyear": 3286,
    "everybody": 8614,
    "Ġinvestigations": 17248,
    "erval": 4020,
    "Ġseries": 7061,
    "Ġdiggings": 24650,
    "Ġjig": 15954,
    "Ġsuccor": 25663,
    "Ġsidel": 9637,
    "Ġpunct": 8664,
    "Ġav": 3581,
    "utter": 7593,
    "Ġfreely": 7057,
    "lect": 1224,
    "Ġhands": 1665,
    "robotics": 11307,
    "Ġbouton": 17870,
    "Ġrate": 1062,
    "rised": 10125,
    "Ġsolitary": 5855,
    "Ġdiffer": 18678,
    "Ġprodigiously": 14934,
    "Ġcorp": 5573,
    "Ġconcernment": 23624,
    "reply": 19725,
    "Ġbreaks": 13188,
    "Ġpowerful": 1631,
    "Ġhalts": 3162,
    "highly": 24763,
    "Ġoverhear": 15970,
    "quer": 11682,
    "Ġstubbornness": 25380,
    "dared": 13705,
    "Ġarctic": 12815,
    "gloom": 17141,
    "reel": 21236,
    "Ġthereof": 22373,
    "Ġway": 1089,
    "Ġjury": 5378,
    "ensibility": 22553,
    "Ġmercifully": 20181,
    "Ġreservoir": 20653,
    "gypt": 8262,
    "Ġnodes": 1964,
    "bolt": 25138,
    "Ġchalk": 15936,
    "Ġnom": 21523,
    "Ġwhispered": 5338,
    "Ġmoses": 21318,
    "heaved": 21213,
    "Ġloathed": 15878,
    "Ġdynam": 3045,
    "iv": 431,
    "Ġexchanged": 10879,
    "Ġvacantly": 16816,
    "news": 23138,
    "mitting": 20975,
    "Ġneatness": 19935,
    "Ġsubsisted": 19119,
    "airing": 16180,
    "Ġrepine": 16412,
    "conclusion": 25671,
    "igger": 21705,
    "farewell": 12309,
    "comes": 5394,
    "Ġamounted": 18513,
    "ese": 4444,
    "sincere": 16908,
    "Ġasks": 5115,
    "acid": 11006,
    "Ġfirmament": 19474,
    "Ġprayers": 12127,
    "Ġsurvive": 9069,
    "swallowed": 14855,
    "Ġmoss": 9286,
    "Ġunrem": 18242,
    "umnal": 18301,
    "ella": 12756,
    "Ġnoses": 18374,
    "himself": 3971,
    "ishe": 13893,
    "Ġbulwarks": 5591,
    "Ġfashions": 17887,
    "Ġhearers": 15706,
    "Ġjourneys": 19478,
    "shirt": 22448,
    "uzza": 11271,
    "Ġleast": 2064,
    "Ġdashes": 21438,
    "exactly": 10638,
    "Ġuttermost": 19491,
    "devils": 20036,
    "Ġrogue": 22410,
    "ditch": 17529,
    "Ġwidespread": 20678,
    "Ġsource": 6805,
    "Ġfault": 5702,
    "glasses": 11216,
    "adequately": 20322,
    "Ġglue": 15677,
    "Ġupward": 9723,
    "ieving": 7032,
    "Ġfifteen": 6946,
    "Ġholiday": 13002,
    "ativeness": 15523,
    "Ġunintermitted": 26221,
    "Ġcanoe": 9725,
    "Ġurged": 6781,
    "delivered": 24101,
    "Ġresolves": 23650,
    "consent": 18500,
    "Ġpacket": 14895,
    "Ġinquis": 19306,
    "atmospheric": 17777,
    "post": 6063,
    ",*": 17473,
    "Ġcolleg": 22862,
    "english": 2776,
    "sperm": 5203,
    "liber": 18815,
    "Ġpreaching": 15929,
    "leisure": 21374,
    "Ġsupport": 6729,
    "iliating": 12699,
    "ction": 497,
    "Ġaristotle": 25818,
    "Ġ57": 24320,
    "Ġprojects": 9513,
    "Ġconject": 6028,
    "Ġfeeble": 12287,
    "Ġcaprice": 14578,
    "transferred": 24510,
    "progression": 20385,
    "Ġtook": 1853,
    "Ġaforethought": 25429,
    "entrance": 12661,
    "Ġeluded": 12925,
    "Ġrocked": 12860,
    "Ġclues": 18428,
    "Ġplatform": 17133,
    "Ġunfailing": 24112,
    "Ġlined": 15653,
    "anite": 17839,
    "ield": 2409,
    "Ġtarshish": 12031,
    "Ġcorrespond": 6210,
    "ivable": 10911,
    "versed": 9827,
    "Ġrepented": 23364,
    "expression": 10549,
    "ernity": 18607,
    "Ġgently": 7171,
    "Ġutter": 3974,
    "Ġsable": 15502,
    "passenger": 24168,
    "Ġenv": 2819,
    "Ġlodged": 11252,
    "Ġsolved": 8932,
    "fellow": 6792,
    "Ġbitterest": 12405,
    "wish": 8101,
    "emin": 8471,
    "Ġinconstant": 21500,
    "Ġsimil": 2529,
    "umerable": 11728,
    "Ġapproving": 18528,
    "felix": 10655,
    "inous": 8776,
    "Ġhigh": 931,
    "Ġinjured": 9041,
    "proud": 9906,
    "Ġkitchen": 8497,
    "spouting": 25005,
    "Ġrecommend": 7103,
    "icient": 773,
    "Ġimmemorially": 25384,
    "Ġpursu": 3241,
    "Ġterritories": 23849,
    "cil": 8724,
    "exerc": 16018,
    "Ġswerve": 14439,
    "Ġdissu": 18551,
    "og": 860,
    "fro": 8736,
    "rayed": 23564,
    "philosophers": 25253,
    "Ġrepining": 23362,
    "historian": 25735,
    "Ġsave": 4051,
    "Ġcomple": 2844,
    "narrowly": 20350,
    "Ġlik": 2521,
    "resting": 23239,
    "Ġvictims": 19807,
    "Ġchaldee": 26236,
    "trad": 21078,
    "carte": 25401,
    "anyone": 16594,
    "eff": 2532,
    "Ġdireful": 11019,
    "Ġbam": 15569,
    "ique": 8746,
    "dost": 14535,
    "ellations": 21953,
    "Ġincisive": 18573,
    "cket": 3687,
    "Ġloomings": 24952,
    "Ġsqueaking": 26276,
    "Ġhorrid": 8000,
    "Ġlub": 15652,
    "Ġfergus": 16873,
    "Ġgrey": 4512,
    "Ġmute": 19419,
    "Ġbanks": 6814,
    "Ġwalked": 3144,
    "Ġinvest": 4978,
    "ships": 5486,
    "sion": 8095,
    "Ġbeaches": 18087,
    "Ġsmaller": 1881,
    "Ġinsol": 10182,
    "ensions": 14261,
    "Ġproximity": 3222,
    "esty": 4306,
    "Ġcivilized": 8668,
    "Ġtattooings": 24901,
    "Ġay": 15493,
    "ede": 21510,
    "Ġcachalot": 17836,
    "Ġposs": 1619,
    "indeed": 4487,
    "Ġprobably": 4314,
    "Ġarrives": 23609,
    "Ġconference": 15750,
    "Ġwedded": 15538,
    "Ġzoology": 22825,
    "Ġ49": 24084,
    "sip": 10726,
    "Ġscaled": 2107,
    "Ġrally": 21973,
    "nuts": 15400,
    "disgu": 19157,
    "Ġlesson": 7275,
    "afforded": 25866,
    "darkness": 9514,
    "Ġconsider": 2567,
    "Ġrepresentations": 1873,
    "Ġanswerable": 23474,
    "Ġsurmisings": 26594,
    "Ġchasing": 11757,
    "Ġtongues": 14865,
    "Ġskeleton": 5514,
    "Ġdemanded": 8328,
    "Ġlungless": 24864,
    "Ġobliter": 14324,
    "georgiana": 26021,
    "Ġchicha": 15939,
    "Ġaverse": 11081,
    "Ġevangelical": 25507,
    "Ġendow": 23140,
    "Ġchronicler": 20232,
    "Ġgurg": 15676,
    "plexy": 18580,
    "oso": 12834,
    "Ġcrunched": 19122,
    "Ġmarching": 16697,
    "Ġpleasing": 6191,
    "Ġornam": 15867,
    "Ġtrous": 10963,
    "Ġcircle": 4977,
    "Ġtomb": 8811,
    "produ": 10721,
    "Ġindication": 22956,
    "Ġ37": 24080,
    "Ġresponsible": 9889,
    "olog": 1069,
    "abounding": 25980,
    "luyt": 18455,
    "Ġsliding": 9365,
    "attempts": 17192,
    "absent": 21795,
    "Ġatom": 18193,
    "opius": 18509,
    "Ġelab": 22645,
    "Ġfattened": 25950,
    "peddling": 21034,
    "Ġstagger": 10593,
    "Ġsanta": 26421,
    "onsense": 6431,
    "Ġuproar": 22160,
    "Ġallured": 14126,
    "Ġmiz": 10778,
    "Ġwhalemen": 3915,
    "Ġbery": 13900,
    "Ġtwinkle": 12326,
    "cape": 13700,
    "Ġmorrow": 9344,
    "Ġbound": 3519,
    "Ġcontemplated": 13467,
    "Ġpau": 17908,
    "Ġsmallest": 6430,
    "Ġundoubtedly": 8314,
    "Ġ42": 16679,
    "Ġunwritten": 22037,
    "Ġincorrupt": 19236,
    "Ġwildest": 16511,
    "family": 7323,
    "Ġvice": 6549,
    "Ġmarvel": 23036,
    "Ġslavery": 16310,
    "Ġmonths": 3456,
    "ignific": 11958,
    "Ġcem": 17825,
    "Ġbend": 9172,
    "Ġlimping": 23548,
    "orrow": 2916,
    "informed": 17737,
    "Ġcorrob": 16268,
    "enchanted": 26425,
    "counters": 25398,
    "wholly": 10942,
    "Ġcrust": 21354,
    "Ġdetails": 6566,
    "cooee": 12421,
    "french": 9121,
    "lamps": 25261,
    "Ġelucidated": 26030,
    "wherefore": 19110,
    "Ġdrove": 4984,
    "retreat": 23143,
    "Ġeuroclydon": 15299,
    "Ġdived": 9179,
    "powers": 25411,
    "Ġgnashed": 20136,
    "rive": 9709,
    "Ġcarries": 7674,
    "Ġstubborn": 10415,
    "Ġwealth": 7620,
    "Ġvideo": 25366,
    "cu": 10085,
    "genteel": 19952,
    "overlooked": 23327,
    "lat": 9606,
    "Ġpe": 851,
    "Ġpresenting": 18988,
    "cong": 10690,
    "Ġlegisl": 23537,
    "Ġsedentary": 25431,
    "Ġqualifications": 24676,
    "Ġoverall": 4358,
    "auley": 22627,
    "learned": 8604,
    "Ġoverflow": 10293,
    "Ġcompressed": 21855,
    "Ġrisen": 9495,
    "Ġcontest": 18474,
    "teen": 6370,
    "Ġtheoretic": 23315,
    "Ġpredef": 18529,
    "bringing": 17168,
    "O": 51,
    "Ġmeekly": 26491,
    "Ġcredit": 4819,
    "Ġbended": 21388,
    "I": 45,
    "Ġslaughtered": 26585,
    "Ġrod": 9282,
    "Ġenables": 725,
    "Ġsob": 12792,
    "Ġvote": 21950,
    "fail": 17541,
    "Ġprivile": 8649,
    "Ġexactly": 2769,
    "Ġlunging": 24994,
    "Ġcountrymen": 23597,
    "Ġagric": 22520,
    "Ġuncovered": 23435,
    "calm": 8936,
    "Ġpeninsula": 23200,
    "doubtless": 17003,
    "Ġcomforts": 14695,
    "revol": 12544,
    "Ġhanged": 17927,
    "Ġimpassable": 20615,
    "Ġz": 997,
    "extreme": 11030,
    "Ġminiatures": 20324,
    "K": 47,
    "Ġrely": 8824,
    "complet": 11384,
    "Ġcracking": 14575,
    "long": 2913,
    "Ġgenerate": 1441,
    "Ġbills": 17862,
    "90": 12435,
    "nment": 20992,
    "owner": 18613,
    "flaming": 23973,
    "Ġmisanthrop": 22763,
    "ĠĠ": 353,
    "ha": 3980,
    "Ġdespite": 19356,
    "Ġsanction": 20029,
    "Ġpreparing": 8651,
    "after": 2898,
    "Ġpervers": 11786,
    "Ġassisted": 11111,
    "sequently": 14584,
    "Ġprizes": 13077,
    "Ġfondness": 16781,
    "Ġfathers": 16298,
    "belt": 24040,
    "Ġtrib": 13821,
    "Ġlowering": 7988,
    "Ġplainly": 4381,
    "Ġprofundities": 20456,
    "igators": 18049,
    "whenever": 11884,
    "saving": 21062,
    "Ġindividual": 5744,
    "altering": 12644,
    "olet": 13768,
    "Ġcoachman": 15001,
    "Ġjollies": 20373,
    "Ġcrisp": 12005,
    "Ġdismal": 11813,
    "Ġhandspike": 22700,
    "Ġexactness": 23606,
    "Ġimpertinence": 11367,
    "tomahawk": 25916,
    "Ġirreproachable": 24918,
    "Ġevaporate": 26334,
    "Ġpriv": 4183,
    "Ġwears": 10242,
    "Ġ1778": 25730,
    "Ġconcl": 5095,
    "wild": 8771,
    "Ġsurf": 19133,
    "Ġenglishmen": 19433,
    "races": 21634,
    "iple": 4806,
    "Ġhitherto": 5881,
    "Ġnervous": 2404,
    "Ġimmortal": 8019,
    "Ġdanger": 3520,
    "Ġdescended": 7427,
    "Ġgot": 2282,
    "Ġgleaming": 24998,
    "tit": 11529,
    "Ġeaglet": 19307,
    "Ġput": 1797,
    "Ġsettle": 6294,
    "Ġsnugly": 17111,
    "holland": 24046,
    "tting": 17681,
    "southern": 20412,
    "Ġimpose": 22389,
    "lower": 8883,
    "Ġlamented": 24996,
    "Ġunlocked": 14121,
    "Ġschools": 9479,
    "burned": 25082,
    "rise": 6227,
    "stealthily": 23965,
    "superstitiousness": 25509,
    "Ġimplicate": 24877,
    "ĠcÃ¦sar": 20583,
    "Ġ44": 16680,
    "Ġnegative": 1464,
    "covering": 15336,
    "Ġelopement": 10330,
    "Ġcathed": 14549,
    "Ġbirth": 6524,
    "lengthwise": 19953,
    "Ġquicker": 16509,
    "Ġcocain": 18595,
    "ieth": 10705,
    "Ġamateur": 22490,
    "Ġriggers": 24158,
    "walk": 5523,
    "Ġrucastle": 5176,
    "jar": 17578,
    "Ġindividuality": 14911,
    "Ġfunny": 7637,
    "ancho": 4938,
    "Ġcontemplation": 11358,
    "°": 113,
    "Ġhistories": 14688,
    "Ġorigin": 4119,
    "body": 2308,
    "iation": 7342,
    "wl": 17703,
    "Ġpiazza": 26451,
    "Ġreaching": 7302,
    "yed": 3273,
    "Ġpiled": 8427,
    "imet": 21710,
    "niece": 20997,
    "Ġimpunity": 14219,
    "Ġequatorial": 13512,
    "Ġpreach": 14174,
    "rocious": 21543,
    "Ġdebt": 12171,
    "Ġdisclosed": 15156,
    "cup": 10693,
    "wondrous": 12341,
    "Ġcard": 7362,
    "Ġnieces": 8435,
    "Ġoversight": 22353,
    "Ġmoran": 9343,
    "Ġcarve": 23097,
    "Ġfoes": 11955,
    "Ġrelent": 18774,
    "apologizing": 26545,
    "continual": 20646,
    "ootiful": 17375,
    "terday": 4705,
    "Ġpugnacious": 26452,
    "Ġlooked": 1801,
    "Ġscriptures": 26237,
    "Ġparameters": 992,
    "christ": 10212,
    "Ġcaul": 10788,
    "strikes": 24671,
    "swam": 24256,
    "Ġloathsome": 13530,
    "Ġimmortality": 26327,
    "Ġdenote": 19335,
    "Ġdevotion": 22726,
    "Ġbear": 3658,
    "Ġscroll": 14191,
    "captain": 3954,
    "conc": 3948,
    "justified": 19004,
    "oniously": 21260,
    "elly": 17982,
    "wide": 10139,
    "Ġpresum": 4838,
    "Ġaffidav": 18791,
    "Ġinverted": 12641,
    "Ġsatirical": 26281,
    "foreseen": 14255,
    "Ġthro": 5818,
    "Ġsubterranean": 13614,
    "Ġmutiny": 13262,
    "Ġadver": 5641,
    "shone": 22443,
    "Ġpeculiar": 3156,
    "Ġimpact": 10298,
    "Ġprob": 968,
    "Ġboots": 5944,
    "Ġsurmount": 20004,
    "Ġuseless": 7035,
    "Ġtrust": 4078,
    "Ġspeedy": 11173,
    "batross": 9095,
    "umbled": 8494,
    "Ġimmensities": 25331,
    "united": 14062,
    "teak": 22821,
    "Ġcarav": 18903,
    "ibly": 2995,
    "Ġmaty": 22915,
    "ush": 3632,
    "remes": 21240,
    "mong": 15392,
    "Ġmarbles": 18873,
    "Ġaudacious": 13463,
    "upright": 23020,
    "Ġassertions": 19950,
    "distressed": 24201,
    "Ġstole": 7954,
    "Ġzodiac": 16177,
    "Ġlustre": 15137,
    "acher": 6867,
    "attempted": 20177,
    "Ġjudging": 16596,
    "olent": 8156,
    "Ġthemselves": 3253,
    "turning": 8318,
    "Ġmanxman": 9567,
    "Ġdons": 17890,
    "Ġopening": 5045,
    "Ġtendinous": 16932,
    "Ġapplies": 11962,
    "Ġbore": 5079,
    "g": 75,
    "Ġopp": 2696,
    "Ġboil": 16107,
    "Ġpretty": 3863,
    "Ġadmiring": 16481,
    "Ġattempts": 10492,
    "Ġbidden": 24647,
    "ops": 5248,
    "pale": 13774,
    "Ķ": 247,
    "Ġflor": 8564,
    "Ġdelicately": 24127,
    "Ġspear": 9316,
    "chair": 5918,
    "Ġstones": 9223,
    "chants": 21696,
    "unwholesome": 26498,
    "Ġrobustness": 18895,
    "Ġwealthy": 18181,
    "Ġrough": 7186,
    "hee": 10761,
    "Ġdisguise": 10048,
    "relapse": 24019,
    "Ġnast": 15642,
    "ington": 21304,
    "cable": 20799,
    "Ġpiratical": 24798,
    "Ġsensations": 5260,
    "Ġgazes": 24097,
    "continually": 11303,
    "Ġfollows": 7673,
    "Ġdoubted": 7966,
    "Ġlin": 10834,
    "umul": 1286,
    "Ġwhip": 8453,
    "Ġsubsc": 22793,
    "Ġvigilant": 20187,
    "Ġit": 339,
    "aped": 3764,
    "ough": 471,
    "libra": 22929,
    "Ġdwelt": 12609,
    "Ġvinc": 14087,
    "anoke": 21364,
    "Ġingrat": 16841,
    "]": 65,
    "bride": 19201,
    "Ġmoment": 989,
    "Ġscolding": 15203,
    "Ġhappened": 3714,
    "Ġhump": 5854,
    "Ġlabourers": 23334,
    "seek": 8840,
    "sheets": 14444,
    "Ġcomply": 8894,
    "Ġfringed": 17274,
    "Ġbrimming": 22873,
    "Ġnovember": 11752,
    "Ġinterpretation": 19719,
    "Ġmaze": 23834,
    "Ġprinted": 11952,
    "Ġbingley": 1676,
    "Ġconveniently": 20082,
    "Ġgave": 2218,
    "sides": 12511,
    "Ġ109": 24415,
    "medical": 23345,
    "Ġshipping": 14106,
    "eminence": 20102,
    "Ġbarely": 16937,
    "Ġcode": 1721,
    "Ġrenegades": 26477,
    "ohnson": 16328,
    "sympathy": 20545,
    "Ġagonies": 14253,
    "draw": 23903,
    "Ġlearning": 386,
    "Ġsoaked": 15865,
    "Ġchamp": 18382,
    "Ġop": 2602,
    "Ġhotel": 8654,
    "Ġbackground": 18638,
    "inav": 15485,
    "enter": 7859,
    "Ġconjugal": 25104,
    "Ġprop": 1681,
    "Ġgrounds": 6750,
    "Ġliberties": 19670,
    "anders": 18155,
    "persecutor": 26531,
    "moment": 3578,
    "Ġjiff": 22301,
    "Ġerr": 1321,
    "woof": 21142,
    "Ġtemptations": 24504,
    "iftings": 23230,
    "Ġemployments": 12106,
    "scale": 3535,
    "Ġ13": 6719,
    "bout": 20775,
    "Ġloveliest": 20264,
    "Ġcrocod": 19631,
    "Ġroar": 9755,
    "paddington": 20481,
    "Ġcattle": 12576,
    "settle": 16663,
    "Ġstatue": 23153,
    "Ġdoublo": 6079,
    "Ġbeseeching": 26312,
    "Ġfortresses": 23623,
    "Ġprehensile": 26535,
    "Ġrocks": 6862,
    "Ġskewer": 19623,
    "hatred": 24818,
    "Ġunsettled": 14124,
    "Ġmarshalled": 25316,
    "Ġrespectable": 6737,
    "Ġfamed": 16330,
    "Ġpreface": 18368,
    "Ġunconscious": 9549,
    "Ġsog": 22089,
    "whole": 6086,
    "Ġjames": 6419,
    "Ġdomain": 3644,
    "dict": 15340,
    "Ġauthent": 14511,
    "Ġbounds": 9920,
    "Ġstooped": 14466,
    "mun": 20964,
    "Ġbanker": 8670,
    "Ġtrunks": 15982,
    "Ġsuppl": 11079,
    "comm": 7439,
    "Ġprophesied": 26063,
    "Ġsmoke": 4715,
    "uns": 21875,
    "parable": 16385,
    "Ġhonourable": 10457,
    "unaffected": 21888,
    "Ġrates": 1406,
    "emb": 11691,
    "Ġconsternation": 9861,
    "akness": 14196,
    "Ġhom": 9188,
    "erect": 20850,
    "Ġintervening": 17269,
    "Ġstarve": 24627,
    "Ġfrock": 10491,
    "Ġshortened": 23486,
    "knowing": 10438,
    "Ġlounged": 19957,
    "Ġstay": 3098,
    "Ġdeclaration": 16638,
    "ighb": 10424,
    "ired": 1446,
    "Ġregained": 18599,
    "Ġhereabouts": 12982,
    "Ġprofessors": 14727,
    "Ġtresses": 21178,
    "Ġcomrades": 9235,
    "Ġmanaging": 22330,
    "rom": 420,
    "fitters": 24760,
    "gabriel": 15363,
    "Ġkept": 3347,
    "nav": 17611,
    "S": 55,
    "elev": 12462,
    "myster": 16266,
    "Ġlightened": 23265,
    "Ġmusky": 19385,
    "Ġunreasonable": 12780,
    "which": 1706,
    "Ġtells": 9363,
    "pad": 13770,
    "spirited": 19756,
    "consequential": 26251,
    "Ġroasted": 18461,
    "Ġpaunch": 23753,
    "albatross": 15633,
    "Ġpile": 8426,
    "delight": 5345,
    "Ġaltitude": 26204,
    "Ġnav": 5819,
    "Ġwould": 650,
    "Ġcontinuous": 1562,
    "Ġbusied": 19066,
    "Ġambition": 11433,
    "estinated": 15923,
    "bl": 4141,
    "rannical": 26402,
    "Ġflounders": 23017,
    "Ġmodes": 22219,
    "Ġhowled": 12859,
    "dramatic": 19388,
    "Ġcapacious": 19178,
    "Ġrespons": 2683,
    "Ġnarrowly": 16821,
    "visible": 10535,
    "Ġcompetition": 14269,
    "Ġhapp": 1092,
    "Ġfled": 6672,
    "Ġnewsp": 9341,
    "Ġaltar": 9230,
    "ougher": 18281,
    "Ġappeased": 23201,
    "reach": 17758,
    "Ġcapture": 3385,
    "Ġsagittarius": 24731,
    "Ġoily": 13866,
    "onse": 21252,
    "adow": 18090,
    "loa": 18538,
    "antingly": 22103,
    "Ġextravagance": 17281,
    "Ġspin": 7629,
    "compasses": 19461,
    "icions": 21567,
    "backpropagation": 11988,
    "Ġflogged": 23627,
    "Ġperch": 10300,
    "Ġincluding": 2854,
    "Ġmagazine": 23104,
    "Ġottoman": 17380,
    "Ġjoists": 19234,
    "Ġexecutors": 19536,
    "Ġmarling": 23035,
    "Ġhabit": 6771,
    "Ġflush": 14426,
    "marching": 25753,
    "Ġcountenance": 3970,
    "regard": 7975,
    "fed": 11489,
    "Ġstate": 1810,
    "Ġassist": 3564,
    "ience": 803,
    "Ġrece": 11640,
    "gely": 10701,
    "supplement": 14799,
    "Ġmachine": 792,
    "clouded": 20334,
    "Ġ83": 24458,
    "xim": 1094,
    "enty": 2917,
    "analy": 17840,
    "Ġseparately": 13306,
    "Ġcol": 1059,
    "approached": 13488,
    "bale": 20776,
    "Ġhudson": 15194,
    "Ġmogul": 12866,
    "Ġsamuel": 10035,
    "ness": 852,
    "Ġsour": 21219,
    "cess": 536,
    "Ġpier": 7162,
    "Ġepidemic": 20698,
    "inative": 15486,
    "Ġcrad": 21352,
    "Ġattends": 19653,
    "Ġoverthrow": 18427,
    "owed": 2270,
    "Ġnods": 19064,
    "Ġbled": 17858,
    "increased": 20273,
    "acked": 10974,
    "Ġcallest": 17834,
    "iers": 5992,
    "Ġev": 4829,
    "Ġcorpus": 13036,
    "sighted": 19788,
    "asleep": 21548,
    "Ġslumbering": 25702,
    "herald": 22212,
    "Ġtreacherous": 13557,
    "Ġpacing": 8428,
    "Ġgrud": 17998,
    "Ġeddying": 17118,
    "Ġpenal": 1773,
    "Ġfoundering": 21423,
    "Ġfurniture": 6476,
    "tre": 8764,
    "comfort": 5647,
    "Ġcommerce": 11016,
    "Ġrack": 9314,
    "house": 4076,
    "Ġmagnificent": 9844,
    "Ġextras": 22751,
    "gate": 12470,
    "Ġguessed": 11283,
    "Ġpreluding": 18369,
    "Ġactually": 5389,
    "chastic": 2335,
    "exact": 7912,
    "ault": 2307,
    "Ġclever": 7055,
    "rugg": 15899,
    "imens": 1747,
    "un": 373,
    "Ġscratch": 25565,
    "Ġoptimization": 1391,
    "Ġindicates": 3198,
    "Ġpope": 11603,
    "Ġannotations": 25955,
    "Ġdism": 9769,
    "Ġvision": 1521,
    "shold": 2775,
    "loops": 12887,
    "Ġforget": 2633,
    "enjoyments": 25434,
    "Ġreminds": 13434,
    "securer": 25603,
    "Ġemergencies": 17364,
    "Ġpipe": 4321,
    "pag": 11512,
    "surpr": 5998,
    "Ġremember": 2677,
    "Ġheeded": 13406,
    "Ġsped": 22130,
    "Ġchoose": 5983,
    "Ġparac": 12799,
    "infer": 10146,
    "Ġlands": 6595,
    "Ġpertaining": 18452,
    "Ġdistinguished": 8274,
    "Ġpalace": 16690,
    "Ġjollity": 25567,
    "enary": 12555,
    "Ġexplanations": 15914,
    "Ġice": 3603,
    "Ġdeuteronomy": 15761,
    "killed": 15379,
    "support": 9471,
    "Ġtantamount": 25626,
    "Ġwrought": 11947,
    "Ġsuck": 15862,
    "Ġconditions": 8308,
    "Ġassailants": 20452,
    "Ġshri": 5375,
    "medium": 23641,
    "Ġfootmen": 23800,
    "Ġalph": 9697,
    "Ġmovable": 22440,
    "Ġfrayed": 23302,
    "Ġpossessing": 16577,
    "bethink": 25745,
    "Ġcircumst": 2976,
    "Ġinstigated": 18699,
    "Ġsax": 10930,
    "Ġundoubted": 19517,
    "Ġpipeline": 2279,
    "Ġlurks": 11291,
    "water": 4869,
    "peasant": 23115,
    "symp": 14621,
    "Ġprofessor": 11231,
    "Ġenduring": 16304,
    "Ġminimizing": 3465,
    "Ġsung": 23276,
    "Ġobtruded": 20724,
    "Ġ6": 5141,
    "Ġlur": 5226,
    "Ġbay": 9170,
    "sculptured": 26046,
    "utherland": 9580,
    "Ġinvisibly": 24814,
    "Ġtropic": 17064,
    "Ġvacancies": 24344,
    "enet": 10154,
    "Ġbison": 21391,
    "Ġascent": 19621,
    "dragged": 16609,
    "others": 7670,
    "Ġsingular": 4424,
    "Ġvictoria": 14875,
    "lad": 5993,
    "Ġbordeaux": 24564,
    "sher": 5217,
    "Ġoutright": 18414,
    "note": 14342,
    "aker": 3663,
    "Ġdarted": 4758,
    "Ġhid": 1319,
    "dropping": 14984,
    "Ġvanish": 8929,
    "blow": 9106,
    "Ġreel": 9215,
    "ogene": 18674,
    "knell": 24554,
    "Ġwhich": 503,
    "Ġtempered": 12926,
    "athans": 7432,
    "sense": 11525,
    "Ġprender": 22240,
    "Ġthreatened": 8331,
    "Ġsubsiding": 23437,
    "ling": 734,
    "Ġfinancial": 23134,
    "Ġpervading": 20616,
    "Ġmod": 496,
    "Ġregularly": 7657,
    "raising": 21636,
    "ure": 356,
    "rear": 21235,
    "Ġspread": 5161,
    "Ġcomprise": 18586,
    "Ġimpertinent": 9079,
    "rals": 21045,
    "Ġjulia": 22307,
    "Ġrational": 8481,
    "op": 658,
    "Ġreported": 11982,
    "ruined": 18338,
    "crack": 19843,
    "Ġratt": 7883,
    "Ġoverheard": 11774,
    "Ġrat": 4353,
    "Ġviv": 6157,
    "Ġoy": 15549,
    "pall": 17629,
    "Ġeuropean": 20049,
    "asol": 21544,
    "aders": 21763,
    "Ġerskine": 17434,
    "icuous": 10836,
    "Ġclothed": 19609,
    "awake": 14454,
    "palms": 25263,
    "situ": 9623,
    "sing": 5138,
    "Ġallegro": 25795,
    "Ġheadland": 22900,
    "daugh": 6788,
    "Ġprospect": 4706,
    "Ġbrow": 3987,
    "Ġindul": 5857,
    "Ġclubb": 22363,
    "Ġsavag": 19377,
    "Ġunparalleled": 15856,
    "formality": 22233,
    "Ġexperiences": 13035,
    "encyclopÃ¦dia": 16665,
    "Ġregression": 4409,
    "ounix": 14165,
    "Ġbehaves": 23301,
    "infidel": 24664,
    "Ġbrew": 23346,
    "ahead": 12437,
    "Ġwooing": 19437,
    "Ġpronounce": 16969,
    "multiple": 15110,
    "_,âĢĻ": 12436,
    "â": 163,
    "Ġreser": 5170,
    "Ġabed": 22280,
    "Ġfoliage": 18868,
    "seeking": 17154,
    "Ġflesh": 5970,
    "kinder": 24846,
    "Ġincorporate": 20457,
    "echo": 15351,
    "steel": 8299,
    "Ġunravel": 26216,
    "Ġsimpl": 1580,
    "Ġrecently": 11865,
    "town": 7143,
    "Ġmors": 17803,
    "ach": 435,
    "Ġ": 225,
    "Ġdeduction": 14901,
    "Ġpro": 360,
    "ilogue": 21729,
    "trans": 5593,
    "Ġanticipating": 17058,
    "omach": 11639,
    "Ġpainfully": 13145,
    "Ġroof": 6565,
    "boards": 23258,
    "Ġcontinuing": 14399,
    "rug": 18337,
    "itigated": 23049,
    "evening": 7090,
    "ethe": 9678,
    "Ġlivery": 16003,
    "2": 22,
    "Ġadmits": 23556,
    "Ġquestioned": 14620,
    "wa": 5898,
    "Ġbuilding": 8064,
    "Ġinducements": 24970,
    "Ġtin": 15465,
    "downstairs": 23923,
    "Ġmentioned": 4329,
    "Ġrats": 21978,
    "disguise": 26307,
    "Ġrecollected": 8312,
    "Ġtwilight": 16124,
    "romed": 10906,
    "Ġamphitheat": 26253,
    "Ġdepicted": 14282,
    "ouncement": 11748,
    "Ġrepeatedly": 9023,
    "brit": 19199,
    "determine": 19947,
    "ĠĠĠĠĠĠĠĠĠĠĠĠĠĠĠĠĠĠĠĠĠĠĠĠĠ": 24441,
    "Ġtheology": 21279,
    "Ġpantaloons": 20299,
    "whaler": 20312,
    "effectually": 25131,
    "Ġachieves": 4379,
    "Ġannoyed": 17201,
    "Ġbrains": 2629,
    "Ġano": 11598,
    "sort": 6798,
    "Ġuninter": 18244,
    "Ġoblige": 10490,
    "reporting": 24493,
    "Ġmeant": 3550,
    "jerked": 25619,
    "Ġfitly": 24002,
    "lock": 1470,
    "profess": 10636,
    "Ġproud": 5654,
    "stall": 21644,
    "Ġwolves": 25935,
    "Ġdecorated": 22459,
    "Ġdeliber": 7267,
    "him": 1938,
    "Ġpepper": 9783,
    "Ġaux": 21202,
    "gown": 9598,
    "Ġwhirled": 14962,
    "forgive": 18725,
    "Ġloitering": 22121,
    "Ġunjustifiable": 25112,
    "yt": 17712,
    "agitation": 14070,
    "Ġsch": 13837,
    "Ġmaelstrom": 19359,
    "Ġadvertise": 25389,
    "Ġtracing": 18890,
    "Ġdiligence": 17114,
    "Ġrelieved": 7666,
    "Ġtre": 2534,
    "Ġencounters": 19583,
    "tically": 3393,
    "Ġsalut": 10511,
    "Ġconsented": 11296,
    "Ġsneezes": 24697,
    "acceptable": 25185,
    "Ġberries": 13410,
    "grinder": 23418,
    "Ġfix": 2507,
    "icy": 6141,
    "Ġcourse": 2131,
    "arius": 14250,
    "Ġdrew": 3537,
    "Ġtawn": 13825,
    "aet": 15310,
    "surv": 24215,
    "Ġstur": 15720,
    "Ġworst": 7443,
    "Ġpolice": 4674,
    "Ġhow": 598,
    "Ġblaming": 22934,
    "Ġhooped": 23357,
    "Ġerected": 12237,
    "thorough": 21990,
    "meal": 22717,
    "bitterly": 20340,
    "Ġencourag": 1392,
    "Ġexasperated": 11413,
    "ached": 2322,
    "Ġthirty": 4944,
    "personal": 24968,
    "izarre": 17391,
    "Ġilliter": 23470,
    "Ġprying": 15612,
    "Ġweaken": 21927,
    "baned": 17497,
    "Ġguineas": 16273,
    "Ġproves": 14040,
    "interest": 5421,
    "Ġparlor": 13542,
    "Ġejaculated": 15172,
    "Ġimprovement": 7967,
    "Ġgive": 1712,
    "Ġcauldron": 25442,
    "aper": 4999,
    "Ġblanc": 11066,
    "ĠĠĠĠĠĠĠĠĠĠĠĠĠĠĠĠ": 1221,
    "Ġeyebrows": 23519,
    "tur": 5688,
    "passion": 11261,
    "bro": 4034,
    "Ġterrific": 6755,
    "pendicular": 6499,
    "Ġgloried": 22986,
    "winding": 16721,
    "Ġgrind": 18736,
    "Ġphrensy": 25127,
    "nets": 9134,
    "tom": 15437,
    "mastod": 23977,
    "winds": 10523,
    "Ġfacility": 19852,
    "Ġdisturbing": 19949,
    "ex": 622,
    "Ġalteration": 9548,
    "any": 3339,
    "Ġslu": 13838,
    "rig": 7555,
    "urpr": 2289,
    "clouds": 25497,
    "Ġromantic": 8032,
    "Ġwhelmed": 26000,
    "Ġdevotedly": 24749,
    "Ġcrow": 3806,
    "Ġheedfully": 24520,
    "rians": 21935,
    "Ġdebility": 24274,
    "Ġatone": 15805,
    "Ġachieve": 3673,
    "Ġtist": 21165,
    "Ġrighted": 23183,
    "geneva": 13732,
    "Ġliberality": 24376,
    "Ġpresuming": 16794,
    "Ġsaturday": 6452,
    "Ġtransfer": 2239,
    "Ġfals": 15584,
    "Ġbarren": 11207,
    "Ġfountain": 7364,
    "intim": 22938,
    "itz": 6007,
    "Ġhelmeted": 19691,
    "Ġpassed": 2009,
    "oundered": 14166,
    "Ġalternative": 19990,
    "mai": 22918,
    "Ġwaits": 23406,
    "Ġparents": 6753,
    "Ġlarger": 1402,
    "frequented": 25901,
    "Ġomn": 8412,
    "acific": 4960,
    "ignomin": 23270,
    "mons": 17601,
    "Ġwaggish": 25435,
    "Ġflood": 7716,
    "Ġlimber": 16480,
    "Ġpresentiment": 18989,
    "ropri": 2181,
    "Ġpurring": 23479,
    "passing": 14814,
    "inable": 11557,
    "Ġmajest": 24065,
    "ivened": 22969,
    "Ġsleeps": 10447,
    "Ġmildness": 9946,
    "eler": 1572,
    "hap": 17560,
    "Ġunfolding": 17086,
    "Ġfreshets": 25705,
    "Ġparagra": 15882,
    "Ġcapsizing": 20092,
    "walton": 20252,
    "Ġchaps": 14181,
    "rank": 21044,
    "Ġtruth": 3320,
    "Ġvagabond": 20206,
    "Ġstartling": 14672,
    "Ġanswer": 2598,
    "Ġsplinter": 23749,
    "Ġpassage": 3887,
    "Ġsoapstone": 20514,
    "Ġbleeding": 14882,
    "allow": 5104,
    "Ġmeet": 2806,
    "Ġhistorically": 19381,
    "Ġrevived": 11369,
    "Ġhypocr": 19475,
    "Ġmemorand": 23408,
    "nne": 20991,
    "Ġgrowing": 6751,
    "window": 7743,
    "Ġtwink": 8217,
    "Ġprosecution": 12384,
    "Ġtortured": 14926,
    "Ġtyro": 16995,
    "change": 6392,
    "Ġfool": 4235,
    "Ġjoosy": 23634,
    "anke": 15564,
    "dance": 17520,
    "Ġporus": 24397,
    "Ġcomplement": 23712,
    "Ġburg": 23654,
    "hear": 10148,
    "Ġrepugnant": 26591,
    ",": 16,
    "Ġtelegram": 15226,
    "ĠlinnÃ¦us": 15278,
    "cabinet": 25080,
    "haul": 14767,
    "Ġegress": 21625,
    "Ġhermits": 22079,
    "Ġquies": 18465,
    "ĸ": 249,
    "nervous": 16280,
    "prepare": 20215,
    "mild": 15394,
    "Ġbruised": 25773,
    "Ġai": 3131,
    "85": 13684,
    "Ġdeadliest": 14557,
    "nels": 12499,
    "Ġberth": 8683,
    "itious": 8783,
    "Ġmouthful": 16576,
    "Ġminutes": 3000,
    "Ġlaboratory": 13615,
    "Ġreversed": 15700,
    "Ġage": 3898,
    "Ġsilly": 7686,
    "rolling": 9062,
    "Ġallowing": 2176,
    "imprisonment": 23764,
    "Ġsugg": 4499,
    "Ġungodly": 26514,
    "raved": 18015,
    "Ġinteraction": 7423,
    "oof": 15407,
    "Ġwasted": 9706,
    "bbs": 23692,
    "grant": 10428,
    "Ġmovements": 24358,
    "Ġcompared": 2228,
    "Ġavoid": 5199,
    "iger": 8448,
    "Ġund": 4118,
    "Ġvirgin": 7327,
    "ruin": 22181,
    "Ġdeformity": 11677,
    "istic": 974,
    "Ġash": 4833,
    "Ġdeduce": 8338,
    "Ġabruptly": 15153,
    "\"],": 26121,
    "Ġsplend": 9900,
    "Ġsteamer": 17190,
    "Ġbee": 21754,
    "ir": 378,
    "Ġsubsets": 2346,
    "Ġinestim": 15627,
    "Ġbelieved": 4367,
    "Ġadvertised": 17249,
    "kles": 17585,
    "Ġalb": 14018,
    "Ġoccasional": 7288,
    "Ġunimportant": 22033,
    "Ġsomewhat": 4898,
    "lutions": 20952,
    "complained": 25840,
    "Ġmomentarily": 22815,
    "Ġmade": 1051,
    "Ġdimmed": 24269,
    "Ġhasty": 10478,
    "urred": 8450,
    "Ġenderby": 13654,
    "Ġgroom": 13968,
    "attery": 18507,
    "Ġadequately": 15201,
    "Ġroot": 2651,
    "Ġconstable": 19068,
    "disposition": 10044,
    "Ġholland": 10367,
    "staring": 18020,
    "Ġantarctic": 19555,
    "Ġ32": 19492,
    "Ġdrawled": 23992,
    "Ġcrazed": 19177,
    "mag": 6508,
    "Ġvary": 15810,
    "Ġcompromising": 22579,
    "ondescript": 22921,
    "merc": 19283,
    "went": 6512,
    "Ġrashness": 25461,
    "Ġrud": 8479,
    "Ġfanny": 23392,
    "Ġprocessing": 886,
    "Ġinvolving": 18785,
    "Ġundulating": 19520,
    "Ġbelf": 21384,
    "Ġhunsford": 6302,
    "host": 5868,
    "quality": 10234,
    "Ġdiamond": 15602,
    "Ġkilburn": 18352,
    "shipmates": 11931,
    "call": 8726,
    "Ġtarpaul": 17731,
    "Ġbunger": 9998,
    "Ġdegradation": 2630,
    "atics": 15525,
    "Ġkeen": 4613,
    "Ġowed": 10781,
    "Ġcher": 6130,
    "Ġpoisoned": 24887,
    "otent": 8835,
    "Ġmile": 7151,
    "rap": 21632,
    "Ġ1820": 25718,
    "cry": 12449,
    "Ġink": 8806,
    "iamond": 14591,
    "Ġoftener": 13568,
    "Ġthackeray": 26456,
    "Ġencountering": 11270,
    "jud": 4481,
    "po": 1138,
    "Ġnineveh": 13392,
    "Ġunbroken": 18248,
    "risonment": 17377,
    "thoughts": 9937,
    "Ġjudge": 5502,
    "Ġintroducing": 11978,
    "Ġtake": 1579,
    "Ġmason": 10159,
    "Ġmaintains": 2146,
    "Ġfoiled": 23249,
    "weaknesses": 26031,
    "Ġpreside": 18366,
    "Ġcemeteries": 26377,
    "convul": 24884,
    "father": 3777,
    "Ġstruct": 2786,
    "aking": 972,
    "Ġmending": 17806,
    "Ġfeebly": 24878,
    "Ġcommercial": 22678,
    "gings": 7548,
    "inished": 17735,
    "dr": 6222,
    "Ġawkwardness": 13490,
    "Ġtranquillity": 7535,
    "Ġboarders": 16601,
    "Ġveter": 15814,
    "ep": 440,
    "Ġrevolved": 9986,
    "conducted": 25573,
    "Ġinvesting": 19644,
    "Ġdisgrace": 7214,
    "Ġthickly": 12119,
    "last": 3804,
    "Ġinflicted": 11366,
    "Ġannounce": 13342,
    "Ġrequire": 900,
    "Ġneedle": 8276,
    "Ġrespecting": 14485,
    "reeable": 3612,
    "Ġmillion": 14989,
    "Ġparaph": 22125,
    "Ġprincipal": 6496,
    "Ġcitations": 25438,
    "Ġentreat": 4509,
    "observing": 25495,
    "Ġaqu": 17743,
    "Ġhold": 2245,
    "fishery": 10034,
    "laid": 10111,
    "beat": 10986,
    "Ġanoints": 25539,
    "igms": 3049,
    "Ġmanufactured": 22335,
    "unted": 6998,
    "estim": 14169,
    "Ġstaggers": 24654,
    "renched": 7909,
    "fel": 8737,
    "Ġdumbly": 24990,
    "Ġhandled": 12941,
    "thed": 8830,
    "acit": 16083,
    "Ġblandly": 20326,
    "edily": 17946,
    "Ġlbs": 11617,
    "Ġpurchased": 12264,
    "Ġperuvian": 18454,
    "between": 5071,
    "bushes": 24446,
    "Ġexpatiate": 18626,
    "Ġenveloping": 19736,
    "roses": 17959,
    "Ġfiercely": 12956,
    "tha": 15826,
    "ian": 1239,
    "ingley": 1545,
    "Ġdrowned": 9554,
    "Ġac": 846,
    "Ġconfession": 11236,
    "Ġgib": 13967,
    "decor": 23782,
    "Ġpeas": 8535,
    "Ġsuperst": 7704,
    "asible": 21546,
    "/*": 10073,
    ",_": 11463,
    "moon": 10337,
    "attachment": 13056,
    "Ġbreath": 4791,
    "eastward": 15132,
    "Ġoverseeing": 22355,
    "Ġsting": 10862,
    "Ġtrifle": 10603,
    "Ġcord": 5222,
    "accurately": 25862,
    "Ġcruellest": 19661,
    "itiously": 13873,
    "Ġantiquity": 15233,
    "Ġquarrels": 16568,
    "suggest": 20379,
    "ignorantly": 25190,
    "Ġdiscours": 18719,
    "mansion": 20985,
    "bing": 7792,
    "Ġbolts": 16944,
    "Ġsoot": 14133,
    "arts": 6564,
    "Ġbremen": 23347,
    "Ġdried": 7366,
    "Ġexig": 21831,
    "wrinkled": 16555,
    "Ġsmokes": 22565,
    "touching": 15094,
    "Ġsor": 4145,
    "Ġsheltered": 19913,
    "Ġbarbar": 6934,
    "Ġcursory": 18860,
    "an": 278,
    "Ġscrape": 14920,
    "Ġvivacity": 14943,
    "Ġunpardonable": 22065,
    "Ġineffectual": 17386,
    "Ġthreatens": 24374,
    "many": 5251,
    "dis": 2251,
    "particip": 23618,
    "Ġpark": 5465,
    "£": 101,
    "different": 6501,
    "Ġraw": 3321,
    "onts": 15521,
    "strength": 13977,
    "Ġharpooneers": 4732,
    "knew": 9128,
    "Ġlessened": 19089,
    "Ġcount": 1815,
    "isure": 6241,
    "Ġduncan": 13464,
    "mmar": 952,
    "Ġcolumn": 9330,
    "deadly": 17100,
    "dra": 3415,
    "Ġafterwards": 3531,
    "oled": 17620,
    "Ġwalker": 23312,
    "Ġtowed": 11266,
    "Ġsmiles": 6707,
    "Ġbosom": 6938,
    "Ġstiffly": 15006,
    "lins": 2025,
    "Ġalive": 4398,
    "neighboring": 20620,
    "Ġtell": 1468,
    "Ġsanctioned": 26352,
    "Ġmurderous": 8317,
    "Ġcorroboration": 26054,
    "Ġcore": 13880,
    "Ġoccasioned": 13231,
    "Ġentr": 14338,
    "Ġrods": 9756,
    "Ġtransferred": 16456,
    "Ġanticipated": 13513,
    "ethics": 8880,
    "Ġsaxe": 13631,
    "Ġstraits": 7995,
    "Ġxli": 14543,
    "Ġscuttle": 7413,
    "Ġneedn": 19230,
    "Ġabandonment": 25604,
    "Ġembracing": 14982,
    "Ġsensitivity": 3073,
    "Ġslumbers": 18944,
    "Ġheath": 15705,
    "Ġplayfulness": 23639,
    "Ġexperiments": 23040,
    "Ġfleeting": 19329,
    "Ġspending": 10924,
    "Ġhil": 10822,
    "Ġpropont": 16352,
    "Ġadroit": 26001,
    "Ġfuriously": 9804,
    "Ġcirculating": 23374,
    "fields": 14654,
    "Ġordered": 5833,
    "Ġminority": 18755,
    "left": 6975,
    "Ġansw": 2205,
    "lights": 13208,
    "Ġgrimes": 11035,
    "Ġirrevoc": 15040,
    "Ġpent": 17903,
    "Ġmorsel": 20680,
    "onings": 21255,
    "Ġducking": 17148,
    "mutually": 26137,
    "Ġlightnings": 16355,
    "âĢĻ": 379,
    "conjecturing": 20137,
    "arrange": 23768,
    "Ġchecking": 23288,
    "ifts": 12739,
    "Ġbuckskin": 19955,
    "insulting": 26056,
    "Ġevents": 4472,
    "Ġcoer": 22584,
    "Ġwatches": 11082,
    "Ġhardships": 14453,
    "block": 11471,
    "Ġopened": 3513,
    "Ġresponded": 13641,
    "Ġheartless": 13076,
    "bulk": 19926,
    "Ġgryphon": 4300,
    "iday": 8833,
    "Ġsoar": 18283,
    "Ġgovernment": 15179,
    "Ġsilver": 7463,
    "Ġack": 5621,
    "acknowledge": 18469,
    "gunpowder": 25340,
    "Ġdraught": 9848,
    "saved": 15433,
    "Ġdictator": 20156,
    "Ġimpregnable": 26024,
    "Ġmonday": 6128,
    "perfectly": 9088,
    "liament": 16220,
    "Ġgret": 21605,
    "ibbald": 18843,
    "Ġhilariously": 25451,
    "Ġdependence": 18627,
    "amusement": 15285,
    "ublic": 11228,
    "1": 21,
    "Ġtak": 15471,
    "icts": 22407,
    "Ġnaught": 8129,
    "Ġgunw": 6213,
    "Ġanalog": 12616,
    "Ġsignificance": 13284,
    "Ġmean": 740,
    "Ġmayhap": 18712,
    "'re": 12431,
    "cold": 9591,
    "generally": 9437,
    "antly": 1987,
    "Ġpool": 5173,
    "Ġunder": 1638,
    "Ġling": 7376,
    "Ġankers": 21449,
    "Ġhel": 3787,
    "Ġsurmise": 12298,
    "Ġrelated": 3716,
    "commun": 15035,
    "Ġentailed": 11027,
    "Ġsenor": 20153,
    "rison": 13781,
    "ĠĠĠĠĠĠĠĠĠĠĠĠĠĠĠĠĠĠĠĠĠĠĠĠĠĠĠĠĠĠĠĠĠĠĠĠĠĠĠĠĠĠĠĠĠĠĠĠĠĠĠĠĠĠĠĠĠĠĠĠ": 19261,
    "Ġmastiff": 23727,
    "onym": 14650,
    "connection": 18869,
    "Ġfaintest": 24569,
    "affording": 23779,
    "Ġgirdled": 19161,
    "Ġag": 685,
    "Ġgliding": 8563,
    "Ġreckoning": 14981,
    "sir": 5001,
    "Ġrecurrent": 1802,
    "noble": 7924,
    "Ġassembled": 9238,
    "Ġlouisiana": 25079,
    "Ġgallows": 12149,
    "fell": 6952,
    "laugh": 10110,
    "readily": 19365,
    "ifling": 15786,
    "Ġ12": 5483,
    "Ġpotential": 3619,
    "Ġremoval": 12121,
    "Ġsgd": 3133,
    "Ġdictionaries": 12343,
    "unmistakable": 21900,
    "Ġimp": 583,
    "Ġdiff": 3118,
    "Ġgood": 998,
    "Ġflourishing": 25188,
    "gladness": 25195,
    "ows": 1914,
    "Ġcondem": 6339,
    "Ġheron": 22078,
    "Ġcontemplate": 19894,
    "bable": 8722,
    "fedallah": 25523,
    "ivity": 1618,
    "Ġrider": 24187,
    "Ġ*/": 10375,
    "Ġaccepted": 7751,
    "Ġbritain": 16957,
    "flying": 13723,
    "Ġmines": 21311,
    "this": 1439,
    "Ġwallow": 19469,
    "Ġeccentric": 13652,
    "ills": 1632,
    "ientious": 11693,
    "Ġclasped": 17208,
    "absolut": 8460,
    "lude": 6162,
    "Ġtown": 2455,
    "thankful": 16807,
    "Ġburnwell": 13271,
    "Ġhimself": 1351,
    "Ġhumor": 11051,
    "Ġdoze": 14178,
    "Ġtransc": 12874,
    "canonical": 22967,
    "ratulations": 20129,
    "pers": 4336,
    "Ġpoignant": 22598,
    "exagger": 22433,
    "Ġwriggling": 15260,
    "angered": 16182,
    "Ġsegment": 12761,
    "Ġcouns": 10522,
    "itor": 12570,
    "unning": 4493,
    "âĢĿ]": 21820,
    "faith": 15026,
    "istence": 2394,
    "Ġgardeners": 12124,
    "Ġsorting": 3236,
    "Ġmonica": 22984,
    "Ġhospitality": 13515,
    "comrade": 18742,
    "Ġintensely": 17018,
    "nor": 2741,
    "hyme": 19612,
    "Ġsubmit": 11873,
    "Ġteneriffe": 26415,
    "ration": 2003,
    "Ġrickety": 26506,
    "Ġfritters": 23260,
    "Ġpenet": 6887,
    "Ġabusive": 22288,
    "islanders": 25443,
    "Ġaskance": 23154,
    "Ġalex": 15136,
    "folio": 10548,
    "Ġoblig": 3446,
    "Ġhurled": 10430,
    "merit": 19284,
    "Ġretains": 20033,
    "Ġprovid": 1009,
    "Ġtempestuous": 20074,
    "trouble": 8296,
    "Ġbias": 1192,
    "chet": 13220,
    "ateg": 1332,
    "creatures": 7516,
    "scores": 22991,
    "Ġwest": 5219,
    "market": 16840,
    "separately": 25228,
    "Ġhorseback": 14852,
    "Ġsend": 4106,
    "Ġoblivion": 26032,
    "Ġmanned": 9273,
    "casks": 20406,
    "python": 4692,
    "Ġprecipices": 12281,
    "Ġremorse": 6441,
    "Ġwin": 9643,
    "baggage": 24927,
    "Ġsublime": 8067,
    "Ġvect": 1226,
    "Ġincl": 4270,
    "Ġexec": 19495,
    "Ġindustry": 18839,
    "Ġpreservative": 24631,
    "Ġseem": 915,
    "osque": 22267,
    "Ġcoherent": 3264,
    "Ġoverdone": 22354,
    "Ġgallant": 8658,
    "Ġchord": 22250,
    "cun": 20797,
    "Ġcir": 21344,
    "Ġpow": 4637,
    "reject": 21239,
    "Ġscandal": 9083,
    "Ġgets": 10840,
    "fortunate": 4792,
    "alyards": 18788,
    "fleet": 15015,
    "Ġrecourse": 22743,
    "Ġcul": 17824,
    "Ġintegral": 25011,
    "Ġwithdraw": 16965,
    "quin": 21858,
    "Ġchoice": 2168,
    "ads": 5718,
    "sailing": 14716,
    "oured": 2671,
    "Ġcorrid": 9826,
    "soo": 18686,
    "searching": 25106,
    ".--": 20748,
    "Ġdiscount": 22786,
    "Ġstri": 2805,
    "hot": 8085,
    "Ġhistory": 4007,
    "orand": 21400,
    "Ġconsequence": 5541,
    "Ġass": 1504,
    "Ġsouthwards": 19636,
    "iless": 10283,
    "Ġreasons": 6021,
    "Ġdissect": 16056,
    "Ġemblematical": 25789,
    "Ġsneering": 24696,
    "Ġfilled": 4394,
    "ľ": 255,
    "Ġceremonies": 24837,
    "orial": 8419,
    "Ġaccompanying": 11305,
    "Ġwine": 6810,
    "Ġadvantage": 4316,
    "Ġundu": 15840,
    "F": 42,
    "ally": 530,
    "ides": 2164,
    "Ġdetective": 14410,
    "Ġmasking": 2421,
    "Ġgrappling": 25813,
    "Ġdispose": 23882,
    "Ġresides": 22545,
    "Ġheld": 3585,
    "Ġbarbs": 10533,
    "Ġinvention": 19956,
    "Ġmanipulation": 10660,
    "Ġdaily": 5988,
    "assumed": 22313,
    "Ġsources": 10149,
    "Ġadagrad": 2905,
    "Ġparsee": 6413,
    "cursed": 23847,
    "Ġconventional": 25548,
    "ĠĠĠĠĠ": 3527,
    "ouncing": 8496,
    "Ġbed": 2154,
    "icular": 2022,
    "Ġhousings": 21497,
    "Ġliveliest": 24774,
    "Ġadversity": 24304,
    "Ġrecalled": 8539,
    "Ġillustrations": 17108,
    "Ġclutched": 13521,
    "Ġzigzag": 26274,
    "Ġfrenz": 25447,
    "Ġhoky": 17929,
    "Ġfrown": 10808,
    "Ġunstructure": 2994,
    "Ġtransformer": 2635,
    "Ġowest": 25094,
    "on": 267,
    "Ġfriendly": 9822,
    "Ġbewildered": 15216,
    "Ġrhine": 12359,
    "pond": 21015,
    "Ġscare": 18391,
    "Ġoceans": 7997,
    "idays": 21775,
    "Ġprejudice": 9077,
    "Ġaberde": 22292,
    "Ġtenderness": 12219,
    "Ġcontempl": 6702,
    "Ġprofuse": 23568,
    "Ġyanke": 18100,
    "ories": 4753,
    "gged": 3778,
    "Ġscreen": 17207,
    "strongly": 24685,
    "Ġfainted": 8795,
    "irene": 15917,
    "Ġforgery": 25978,
    "Ġrealities": 18982,
    "Ġsleeves": 10662,
    "Ġindiscriminately": 20630,
    "idated": 11663,
    "Ġbump": 9661,
    "vity": 7816,
    "Ġcategories": 4477,
    "full": 7420,
    "things": 6034,
    "Ġmitig": 1337,
    "Ġoutline": 15957,
    "recked": 17763,
    "scy": 21058,
    "Ġgowns": 25360,
    "Ġhollowly": 24525,
    "Ġorganisation": 23585,
    "Ġsnatch": 14640,
    "ade": 881,
    "vous": 2252,
    "Ġascending": 14856,
    "sake": 13785,
    "sentence": 2939,
    "Ġassociate": 13453,
    "Ġderivative": 2999,
    "stand": 623,
    "Ġcompanion": 3643,
    "lingly": 9775,
    "Ġdisgusted": 14992,
    "Ġfloated": 7287,
    "Ġdiscomp": 11869,
    "Ġinspired": 2517,
    "apside": 22964,
    "chose": 18043,
    "Ġwages": 13856,
    "feeders": 25236,
    "Ġshakespeare": 20310,
    "Ġpetersburgh": 24230,
    "Ġleisurely": 24745,
    "Ġmilky": 9949,
    "generous": 16570,
    "Ġvertu": 23893,
    "Ġdiscuss": 9476,
    "Ġboun": 21383,
    "Ġroutine": 13510,
    "Ġappearances": 10452,
    "Ġgiving": 4084,
    "Ġindec": 13930,
    "Ġimprinted": 22396,
    "Ġimpotent": 18449,
    "threatened": 25463,
    "Ġnormalizing": 1821,
    "Ġgrandeur": 8631,
    "Ġresult": 4460,
    "disp": 7978,
    "Ġrealism": 18984,
    "grasp": 16433,
    "Ġ26": 10471,
    "Ġbristol": 14382,
    "Ġcongregated": 20100,
    "Ġwoods": 5406,
    "Ġsash": 17755,
    "Ġca": 21342,
    "Ġdecisions": 6703,
    "Ġtreacher": 8608,
    "Ġmerrily": 23734,
    "Ġturbid": 23613,
    "Ġconcent": 8251,
    "Ġbarrel": 23794,
    "Ġcathedral": 17415,
    "aggoo": 5130,
    "Ġsons": 10767,
    "mate": 5359,
    "loat": 8889,
    "Ã": 132,
    "japan": 15377,
    "Ġperiodically": 19497,
    "Ġmuchness": 18709,
    "bal": 2159,
    "fearfully": 25119,
    "notice": 16150,
    "influ": 9543,
    "stating": 21645,
    "Ġimpo": 3443,
    "Ġreferred": 8919,
    "Ġunguarded": 15853,
    "Ġmanoir": 22336,
    "Ġdarkness": 4277,
    "Ġembatt": 18844,
    "Ġnotes": 7188,
    "Ġstains": 21746,
    "Ġcheerfulness": 10518,
    "ette": 15662,
    "ians": 2360,
    "Ġcure": 21343,
    "Ġdeified": 18139,
    "canallers": 22968,
    "Ġfrivolous": 26177,
    "Ġsure": 1863,
    "ousness": 10276,
    "Ġpursue": 6315,
    "Ġdiscern": 7658,
    "taining": 7204,
    "Ġaffecting": 2324,
    "respective": 19848,
    "Ġfollow": 1397,
    "ggling": 19098,
    "Ġjealousy": 13579,
    "Ġaccuracy": 1084,
    "ignified": 14491,
    "Ġferguson": 17471,
    "shri": 14235,
    "dissatisf": 26130,
    "Ġwhether": 1999,
    "Ġeddystone": 25736,
    "Ġorbs": 22097,
    "utes": 5915,
    "holmes": 4431,
    "irable": 5776,
    "Ġdi": 6525,
    "Ġfunere": 22264,
    "Ġlurk": 13386,
    "Ġaudio": 24771,
    "Ġbead": 21755,
    "Ġcomprehensiveness": 25075,
    "Ġobliv": 16136,
    "ensed": 10997,
    "sively": 13788,
    "Ġswash": 23059,
    "Ġreiterating": 26475,
    "bitter": 11242,
    "Ġespecial": 26411,
    "Ġconstitutional": 25128,
    "ball": 7793,
    "telling": 14442,
    "Ġmiriam": 25274,
    "Ġdepression": 21844,
    "Ġhyster": 16874,
    "Ġtailed": 21171,
    "Ġexhausting": 24709,
    "Ġconfess": 3766,
    "Ġparticulars": 5754,
    "volous": 18611,
    "Ġpushing": 10820,
    "Ġmor": 1250,
    "Ġis": 347,
    "moil": 22709,
    "Ġendurance": 23142,
    "Ġtalk": 1966,
    "Ġcraw": 7281,
    "Ġaugmented": 15108,
    "sailor": 14717,
    "Ġimplies": 24874,
    "Ġsadly": 7301,
    "pre": 649,
    "Ġhissed": 15792,
    "Ġrushes": 20511,
    "Ġunfrequently": 20741,
    "Ġpurses": 23480,
    "Ġlain": 17964,
    "eties": 10838,
    "Ġfanciful": 24787,
    "Ġexpired": 18624,
    "Ġjost": 23633,
    "Ġunctuousness": 17236,
    "Ġjeopard": 9945,
    "Ġspasmodically": 17316,
    "Ġslighted": 16569,
    "edmund": 17948,
    "Ġcocoa": 25483,
    "Ġlength": 2499,
    "rade": 9681,
    "algorith": 3606,
    "eted": 7591,
    "Ġchamounix": 14866,
    "Ġfame": 21409,
    "msprop": 2624,
    "prot": 6897,
    "Ġtribes": 20484,
    "Ġdust": 5910,
    "Ġdraw": 3671,
    "Ġsequ": 981,
    "Ġprogno": 14042,
    "Ġdraughts": 20224,
    "tacit": 21101,
    "\",": 10680,
    "august": 11072,
    "uth": 3018,
    "rudence": 7093,
    "Ġcloud": 3914,
    "orne": 17874,
    "Ġliable": 14230,
    "Ġhides": 16267,
    "Ġpromoting": 3164,
    "verty": 8454,
    "servants": 15039,
    "Ġinnoc": 3795,
    "Ġhypocritical": 20740,
    "cowardly": 25750,
    "Ġclin": 14205,
    "Ġawfulness": 23589,
    "unsuitable": 21898,
    "Ġlicense": 20094,
    "Ġacquire": 2723,
    "non": 9613,
    "illity": 18297,
    "Ġbooks": 4675,
    "Ġperishing": 22402,
    "garious": 17559,
    "Ġcompanies": 14558,
    "sery": 17662,
    "judgment": 16754,
    "Ġafforded": 8030,
    "Ġply": 21456,
    "Ġoblivious": 26033,
    "Ġresurrection": 12898,
    "Ġforward": 1837,
    "lips": 13752,
    "kindred": 24054,
    "igh": 2028,
    "Ġcheat": 19022,
    "Ġmans": 15539,
    "Ġcharging": 23271,
    "acted": 11011,
    "figured": 20126,
    "oyed": 14367,
    "Ġoutset": 15958,
    "Ġdiscernment": 15056,
    "pitching": 24078,
    "Ġfang": 21406,
    "Ġsoothing": 8174,
    "Ġcruisings": 25865,
    "Ġexcessively": 9442,
    "fishing": 20861,
    "kerchief": 7524,
    "sorting": 17005,
    "Ġsaws": 23053,
    "Ġste": 1388,
    "Ġmainmast": 9781,
    "Ġassertion": 13492,
    "Ġproviding": 1359,
    "phia": 22775,
    "fiery": 13584,
    "eld": 966,
    "ĠĠĠĠĠĠĠĠĠĠĠĠĠĠĠĠĠĠĠĠĠĠĠĠĠĠĠĠĠĠĠĠĠĠĠĠĠĠĠĠĠĠĠĠ": 12157,
    "urpation": 16303,
    "Ġhours": 2823,
    "name": 6795,
    "clergy": 18936,
    "Ġafresh": 18629,
    "usable": 22294,
    "bare": 12444,
    "ied": 942,
    "seeing": 7079,
    "ensing": 12900,
    "Ġauthor": 4375,
    "Ġpips": 9846,
    "Ġfaltering": 17886,
    "Ł": 258,
    "Ġexhilarating": 26339,
    "sn": 7139,
    "Ġsorrow": 4628,
    "Ġgrass": 5177,
    "Ġcloudless": 16670,
    "aw": 1449,
    "Ġdrunkard": 20180,
    "Ġinducement": 16844,
    "Ġballarat": 14721,
    "Ġexpectation": 6903,
    "Ġregrets": 18601,
    "account": 5330,
    "hangs": 15371,
    "Ġpolitic": 23620,
    "Ġclerical": 25569,
    "Ġyellowish": 24429,
    "Ġconstraints": 2740,
    "Ġcooped": 22586,
    "lab": 3457,
    "beg": 22492,
    "Ġheroines": 19754,
    "Ġoverhung": 15969,
    "Ġsustain": 10019,
    "Ġeffusions": 18516,
    "Ġpreserve": 7528,
    "Ġunaccountable": 7888,
    "Ġdiffident": 23785,
    "Ġtrifling": 10604,
    "Ġcourtship": 24137,
    "Ġvon": 14083,
    "Ġunnearable": 26517,
    "Ġhints": 8432,
    "formity": 10280,
    "around": 12612,
    "Ġcoleman": 22590,
    "Ġuncivil": 11156,
    "hamlet": 23266,
    "ifies": 6687,
    "Ġcultivated": 17366,
    "Ġinconsistency": 26184,
    "Ġderick": 9366,
    "Ġlistening": 6319,
    "ace": 717,
    "Ġbulge": 23860,
    "Ġinvited": 6902,
    "iii": 14778,
    "Ġosc": 2839,
    "Ġgrassy": 24378,
    "ĥ": 230,
    "Ġexpression": 4515,
    "Ġzero": 1203,
    "Ġproflig": 23569,
    "Ġexpedite": 24956,
    "restoration": 23240,
    "uv": 6230,
    "Ġfleets": 23776,
    "Ġprecisely": 6466,
    "frankenstein": 11392,
    "laughed": 20284,
    "erick": 13850,
    "start": 7598,
    "departed": 24793,
    "Ġbaltic": 18796,
    "Ġtowers": 16739,
    "Ġsundry": 20077,
    "Ġduring": 872,
    "Ġhoe": 23353,
    "cated": 20805,
    "Ġlanded": 7468,
    "Ġinsufferable": 13933,
    "Ġtradeoff": 2658,
    "Ġcongratulated": 19769,
    "Ġshuddered": 11301,
    "Ġsockets": 22093,
    "Ġrearing": 12681,
    "Ġforty": 5719,
    "Ġdur": 11594,
    "Ġdoing": 3661,
    "Ġaghast": 16050,
    "farintosh": 24552,
    "Ġmurderer": 4980,
    "Ġsomnam": 23009,
    "Ġwonder": 2118,
    "Ġclattered": 22364,
    "Ġheadache": 22902,
    "Ġabstra": 22286,
    "trowsers": 17692,
    "again": 3399,
    "Ġthree": 1371,
    "pacing": 21023,
    "Ġslide": 10395,
    "Ġmagnific": 16322,
    "Ġfeeding": 7973,
    "ws": 7354,
    "Ġbur": 2697,
    "Ġ1846": 26085,
    "believe": 8305,
    "À": 129,
    "andering": 21872,
    "Ġwhatsoever": 18456,
    "Ġbluff": 16519,
    "reward": 15511,
    "Ġprem": 3427,
    "Ġlanguor": 12851,
    "Ġsalary": 13297,
    "Ġparad": 2846,
    "Ġcastle": 14719,
    "voices": 21120,
    "riptions": 14797,
    "adier": 18092,
    "Ġcongen": 10874,
    "Ġscornful": 25001,
    "Ġleave": 2457,
    "Ġtended": 21169,
    "Ġvessels": 6756,
    "Ġrepeat": 8001,
    "Ġjove": 9270,
    "cottagers": 20051,
    "Ġinterconnected": 1339,
    "cils": 20817,
    "Ġmaid": 5287,
    "hills": 13738,
    "ances": 1338,
    "Ġwave": 7575,
    "ë": 172,
    "antee": 22102,
    "dutch": 17220,
    "performed": 18345,
    "Ġsuperiority": 14617,
    "Ġrecognised": 8997,
    "Ġso": 433,
    "typewritten": 26039,
    "Ġspouter": 12802,
    "Ġla": 5914,
    "Ġlists": 11167,
    "endom": 15925,
    "Ġgarnery": 17389,
    "output": 4401,
    "Ġsupers": 18278,
    "Ġconduct": 3734,
    "overcoat": 19055,
    "itute": 9653,
    "Ġstrategies": 1839,
    "Ġdog": 4193,
    "rees": 5436,
    "Ġentreaty": 10531,
    "Ġburly": 19251,
    "cst": 10086,
    "Ġcur": 1264,
    "Ġrobots": 11085,
    "Ġding": 12603,
    "Ġdisturbed": 8675,
    "Ġcrotch": 9965,
    "Ġlocket": 22118,
    "investigations": 25534,
    "Ġscattered": 6855,
    "Ġneskye": 21535,
    "Ġhackney": 20436,
    "Ġless": 1936,
    "Ġrather": 1494,
    "iosity": 2406,
    "Ġlamb": 8816,
    "Ġaccumulating": 2722,
    "Ġsafety": 6340,
    "Ġresided": 11814,
    "seemed": 4304,
    "Ġabased": 22283,
    "ock": 15404,
    "Ġscrolled": 22275,
    "tolerably": 21098,
    "secured": 16939,
    "Ġlearnt": 7611,
    "accomplishments": 25327,
    "Ġconfirm": 9858,
    "yingly": 23064,
    "Ġirritation": 20269,
    "iterranean": 15553,
    "Ġpsychology": 11449,
    "oubtedly": 6942,
    "Ġmingling": 20200,
    "mountains": 15183,
    "Ġcreativity": 2748,
    "Ġdesperado": 19822,
    "Ġohio": 19130,
    "Ġrevolver": 14900,
    "Ġsolitude": 6875,
    "Ġlasting": 18793,
    "Ġbehavioral": 11397,
    "Ġchristianity": 19863,
    "Ġheal": 21685,
    "Ġgleamed": 17077,
    "Ġsermons": 20197,
    "Ġkrus": 18350,
    "peculiar": 6885,
    "Ġwhit": 7177,
    "Ġmuffled": 10642,
    "Ġgoat": 16009,
    "Ġparsonage": 7124,
    "Ġdesirable": 8943,
    "Ġchilian": 25564,
    "greatly": 16625,
    "Ġinst": 912,
    "Ġstanders": 19018,
    "def": 1453,
    "usage": 12837,
    "Ġbumps": 21395,
    "Ġdictating": 20155,
    "Ġflitting": 13030,
    "Ġprocessions": 18434,
    "deserted": 19344,
    "ĠĠĠĠĠĠĠĠĠĠĠĠĠĠĠĠĠĠĠĠĠĠĠĠĠĠĠ": 14888,
    "heidelburgh": 21214,
    "Ġinterested": 6458,
    "Ġantichron": 24183,
    "irited": 15790,
    "Ġunlucky": 10052,
    "Ġvirtues": 9938,
    "cas": 20796,
    "Ġkeeping": 7282,
    "Ġwhom": 1831,
    "Ġunfathom": 14790,
    "inkling": 16094,
    "aste": 4601,
    "tackle": 17323,
    "Ġrelieve": 8225,
    "Ġdescent": 987,
    "ierce": 14393,
    "seventy": 10877,
    "ā": 194,
    "Ġstoke": 10397,
    "oration": 2209,
    "Ġmarlingspike": 26580,
    "owal": 13998,
    "turn": 4292,
    "derbyshire": 18322,
    "Ġmarked": 4619,
    "freighted": 14894,
    "ĠvertebrÃ¦": 11436,
    "Ġdistantly": 18536,
    "Ġarchbishop": 18714,
    "Ġpennies": 17272,
    "Ġslung": 23173,
    "Ġnib": 13942,
    "Ġslippers": 19618,
    "Ġsolutions": 1945,
    "comput": 1972,
    "Ġresemble": 15696,
    "asting": 12810,
    "Ġinterven": 10999,
    "Ġimplement": 3330,
    "revenge": 13844,
    "henry": 16627,
    "Ġfordham": 21781,
    "Ġnautical": 17388,
    "inkle": 22621,
    "ikes": 8088,
    "swear": 16919,
    "Ġbart": 17859,
    "Ġsobs": 14136,
    "Ġoverlooked": 15968,
    "Ġdesist": 16239,
    "Ġoutcast": 18415,
    "Ġhisself": 21919,
    "beloved": 19464,
    "tall": 17674,
    "Ġethics": 15464,
    "nearer": 22464,
    "Ġlastly": 16207,
    "security": 26208,
    "Ġclubs": 25180,
    "to": 713,
    "fits": 13720,
    "Ġavail": 11227,
    "Ġgenerates": 3664,
    "Ġturbul": 23614,
    "sitting": 8388,
    "Ġmysterious": 7526,
    "Ġambiguous": 20167,
    "oked": 4308,
    "depart": 12269,
    "speed": 19412,
    "happy": 4425,
    "ance": 479,
    "Ġappar": 7411,
    "volutional": 1933,
    "Ġshot": 4543,
    "idirection": 2413,
    "_âĢĿ": 20763,
    "idy": 21769,
    "Ġseize": 8167,
    "Ġhearken": 21689,
    "alization": 732,
    "supernatural": 19782,
    "bingley": 4928,
    "Ġstrangers": 8315,
    "jected": 22716,
    "Ġsanguine": 25929,
    "Ġvales": 21949,
    "Ġpanic": 11287,
    "Ġmincing": 18753,
    "Ġadmon": 15871,
    "instr": 12535,
    "Ġprodigious": 8058,
    "trying": 15440,
    "prodigious": 17468,
    "Ġonly": 789,
    "Ġdisappearance": 9299,
    "Ġval": 979,
    "Ġtenth": 13828,
    "Ġcurved": 18858,
    "Ô": 149,
    "Ġfee": 7197,
    "Ġnerves": 2626,
    "Ġcusack": 26434,
    "Ġclad": 12846,
    "safety": 20352,
    "Ġgover": 2461,
    "Ġcoming": 2617,
    "Ã¦st": 24177,
    "Ġburying": 19253,
    "Ġrebounds": 25968,
    "Ġflat": 8229,
    "ben": 4927,
    "Ġwilful": 10536,
    "Ġyesterday": 5333,
    "Ġauthorities": 11265,
    "arnel": 18130,
    "ifers": 15785,
    "Ġknows": 4159,
    "aton": 21261,
    "Ġlibr": 16004,
    "oran": 8792,
    "mole": 22707,
    "bern": 20777,
    "lines": 6958,
    "Ġstatistics": 1682,
    "Ġphrenolog": 12337,
    "Ġreposing": 23363,
    "Ġseams": 12128,
    "Ġwept": 7183,
    "Ġruss": 18720,
    "chain": 18042,
    "oa": 9614,
    "Ġdifferently": 10391,
    "Ġprecipice": 19944,
    "eridge": 15528,
    "Ġrestlessness": 23294,
    "confess": 12179,
    "Ġgraces": 18226,
    "Ġcleat": 18949,
    "Ġseasons": 9433,
    "fug": 17544,
    "Ġflatter": 9350,
    "Ġprobabilities": 4966,
    "Ġwhereas": 3857,
    "Ġwholesome": 16008,
    "tier": 12518,
    "elstrom": 17984,
    "famous": 16917,
    "Ġcommunic": 5751,
    "Ġascertained": 25297,
    "lane": 10707,
    "Ġfurn": 3710,
    "but": 592,
    "Ġsteep": 2891,
    "tart": 21070,
    "Ġcitizens": 25440,
    "Ġhumorousness": 25378,
    "Ġdepos": 11007,
    "Ġinglorious": 24423,
    "Ġirreparable": 20002,
    "disreputable": 23507,
    "Ġharshly": 25250,
    "arding": 22162,
    "specimen": 26606,
    "Ġdiscourse": 9800,
    "Ġfished": 21414,
    "inclination": 20061,
    "Ġoverwhelming": 17102,
    "quick": 6400,
    "consum": 12873,
    "Ġsuperlative": 26075,
    "iloqu": 11650,
    "Ġswashing": 23060,
    "Ġvehic": 8934,
    "Ġgrowth": 14630,
    "Ġcollecting": 12289,
    "reader": 23850,
    "prairies": 20569,
    "Ġactivations": 2720,
    "Ġconfines": 23307,
    "Ġresolving": 9421,
    "Ġimpregn": 26023,
    "Ġfe": 490,
    "Ġours": 4612,
    "âĢĿ;": 11672,
    "money": 8753,
    "Ġcharmed": 16763,
    "Ġscaramouch": 23831,
    "Ġhandspikes": 12942,
    "Ġquar": 3116,
    "Ġflinging": 13588,
    "lemency": 21377,
    "ks": 3149,
    "Ġfinite": 2325,
    "invari": 21187,
    "Ġscar": 3215,
    "reflection": 13458,
    "Ġafrican": 20140,
    "Ġplates": 11008,
    "Ġchronic": 9931,
    "alleging": 23026,
    "hearse": 17749,
    "Ġvisible": 4777,
    "trem": 17682,
    "pop": 17632,
    "fted": 9120,
    "Ġcensured": 25097,
    "Ġlizzy": 3546,
    "sa": 8760,
    "recollection": 25349,
    "Ġtong": 4871,
    "insult": 16282,
    "oboam": 9360,
    "Ġacquitted": 18900,
    "Ġbo": 796,
    "Ġexperience": 1404,
    "Ġformed": 3886,
    "Ġplacid": 11829,
    "Ġintroduce": 3208,
    "oin": 17618,
    "Ġlandsc": 11147,
    "inch": 10756,
    "unte": 21878,
    "instrument": 15241,
    "Ġscales": 4851,
    "Ġbuoyancy": 20045,
    "material": 13133,
    "Ġdressed": 5081,
    "Ġforgetfulness": 14607,
    "hen": 3518,
    "slo": 17657,
    "99": 1893,
    "Ġabominable": 12325,
    "Ġallev": 18103,
    "Ġdetermination": 9821,
    "ental": 7168,
    "inea": 7623,
    "Ġful": 4297,
    "Ġaddition": 1146,
    "Ġresolution": 5500,
    "Ġshaking": 6552,
    "Ġbuffaloes": 25218,
    "outh": 2686,
    "ignity": 4374,
    "these": 3244,
    "Ġcompose": 12906,
    "Ġwater": 1946,
    "Ġrumpled": 24602,
    "Ġpaul": 12066,
    "Ġsurviving": 24638,
    "Ġsails": 5257,
    "Ġancest": 12618,
    "Ġdisconcerted": 18563,
    "ynolds": 10038,
    "Ġdil": 6383,
    "needles": 20317,
    "Ġboister": 12923,
    "mercenary": 26316,
    "infliction": 25925,
    "Ġunw": 7004,
    "Ġjinglers": 26019,
    "Ġbethink": 12382,
    "verity": 14003,
    "Ġstreng": 18073,
    "Ġsequel": 14358,
    "Ġaisle": 21204,
    "Ġappear": 2484,
    "Ġdiscl": 9799,
    "Ġordinarily": 20651,
    "Ġbond": 21387,
    "Ġide": 2123,
    "Ġreplied": 2264,
    "aken": 1867,
    "Ġfaintness": 24570,
    "Ġclustered": 25234,
    "ĠĠĠĠĠĠĠĠĠĠĠĠĠĠ": 22569,
    "Ġjackets": 19605,
    "Ġirregularly": 25324,
    "Ġgayer": 24497,
    "Ġperennial": 22698,
    "Ġball": 3623,
    "ulty": 22573,
    "tra": 5002,
    "metic": 14986,
    "Ġcave": 10786,
    "Ġforever": 14554,
    "Ġfrowning": 13626,
    "Ġlashes": 17969,
    "Ġpricking": 23227,
    "Ġbishop": 13904,
    "Ġbarrens": 25502,
    "Ġvivid": 8059,
    "Ġexcept": 3313,
    "Ġwalls": 6762,
    "Ġlace": 13952,
    "ime": 626,
    "cripp": 20821,
    "Ġbilliard": 16689,
    "Ġdoubtful": 19143,
    "Ġmosses": 20166,
    "Ġanomaly": 25637,
    "Ġdrugg": 17121,
    "Ġshrivelled": 19706,
    "Ġlottery": 19890,
    "Ġtransmit": 10311,
    "âĢĿ": 354,
    "Ġsinews": 20290,
    "Ġresnet": 5473,
    "reast": 17759,
    "Ġbeginning": 4243,
    "respond": 12548,
    "Ġcontracted": 12864,
    "Ġfathoms": 9085,
    "Ġanomalous": 25638,
    "Ġpriority": 19765,
    "Ġweakness": 9969,
    "Ġhval": 21492,
    "eminently": 25108,
    "Ġfins": 9665,
    "Ġcountenances": 11968,
    "Ġinsanity": 12050,
    "Ġsplin": 8622,
    "Ġstructure": 826,
    "Ġmerryweather": 9524,
    "Ġunclad": 22057,
    "Ġsake": 4090,
    "Ġeternity": 12282,
    "Ġdet": 509,
    "Ġactual": 3738,
    "convolutional": 4958,
    "Ġleatherhead": 20017,
    "Ġexplore": 15912,
    "Ġrecording": 24433,
    "Ġdisapprobation": 16061,
    "secre": 18129,
    "Ġgaped": 13969,
    "Ġtension": 13826,
    "Ġwrit": 8243,
    "mouthed": 12403,
    "Ġfeigned": 22214,
    "Ġcircumference": 13547,
    "ĠĠĠĠĠĠĠĠĠĠĠĠĠ": 22568,
    "happiness": 6469,
    "Ġrid": 4354,
    "idence": 4302,
    "azing": 7705,
    "Ġbrandy": 11049,
    "Ġreceive": 4704,
    "Ġhandle": 3140,
    "bowed": 10686,
    "onden": 13846,
    "Ġtackle": 9515,
    "obedience": 17412,
    "roy": 7855,
    "Ġyawn": 7609,
    "Ġbelshazzar": 16228,
    "linen": 25258,
    "necessities": 24307,
    "hastened": 16846,
    "meantime": 9094,
    "Ġpromptly": 23821,
    "ego": 4035,
    "motives": 26138,
    "vapor": 25756,
    "initely": 7567,
    "ved": 869,
    "Ġnar": 7374,
    "Ġstrolled": 16771,
    "Ġheart": 1599,
    "Ġvesture": 20065,
    "Ġflavor": 16253,
    "floating": 12231,
    "Ġbowels": 9432,
    "destiny": 16700,
    "delay": 16696,
    "ocr": 10469,
    "Ġwalled": 15537,
    "sprang": 19994,
    "qualified": 17098,
    "Ġfearfulness": 23516,
    "Ġdaniel": 15114,
    "Ġbacks": 8529,
    "Ġbefitting": 15729,
    "verd": 21732,
    "Ġtraffic": 23088,
    "Ġinsects": 25647,
    "Ġfru": 8422,
    "Ġfriends": 2655,
    "Ġthread": 14539,
    "Ġtightly": 13536,
    "Ġcomo": 21852,
    "nut": 12498,
    "Ġsnaky": 23744,
    "Ġ25": 13197,
    "ã": 164,
    "Ġabund": 8868,
    "ich": 470,
    "Ġservox": 23873,
    "Ġmassacre": 20550,
    "ignant": 11130,
    "Ġtriumphal": 24370,
    "Ġscraped": 16904,
    "Ġwedge": 24935,
    "Ġ66": 24368,
    "Ġscrawled": 24580,
    "Ġdissip": 10993,
    "Ġautom": 3597,
    "Ġoverflowing": 17239,
    "Ġguardianship": 17422,
    "Ġvicinity": 7314,
    "osc": 18388,
    "virt": 15453,
    "derment": 22166,
    "nin": 17609,
    "Ġtweezers": 26557,
    "was": 1422,
    "Ġstealing": 18894,
    "instead": 14815,
    "Ġasc": 4765,
    "speechless": 25396,
    "Ġboxed": 24359,
    "Ġreasoning": 2021,
    "ne": 647,
    "Ġge": 1977,
    "Ġcurving": 16247,
    "Ġwhistle": 9068,
    "Ġacid": 22686,
    "magnifying": 25393,
    "Ġsarat": 21230,
    "Ġmilitia": 13321,
    "Ġ11": 5319,
    "Ġspont": 22136,
    "Ġlevelled": 11285,
    "Ġnam": 17951,
    "astonishment": 10032,
    "Ġcontributed": 16012,
    "Ġimparted": 15991,
    "features": 14794,
    "Ġdelirium": 10406,
    "Ġincognita": 26552,
    "Ġsupply": 6068,
    "rey": 12542,
    "Ġimpatiently": 8339,
    "alogue": 25163,
    "hus": 5072,
    "Ġmemoirs": 26207,
    "jaws": 20934,
    "Ġvolat": 24146,
    "Ġcarbuncle": 14447,
    "Ġhinted": 6013,
    "driven": 19774,
    "depths": 25664,
    "je": 11497,
    "Ġviciss": 11293,
    "Ġdepths": 4326,
    "Ġhumped": 19772,
    "į": 240,
    "john": 11499,
    "Ġemperor": 15161,
    "baked": 20781,
    "Ġnervousness": 23558,
    "encountered": 20396,
    "european": 26373,
    "Ġcushion": 17835,
    "Ġstopped": 5958,
    "Ġ_": 840,
    "names": 16516,
    "Ġresolutely": 14610,
    "Ġfarmhouse": 24989,
    "alle": 1291,
    "Ġoverwhelmed": 11404,
    "anish": 2616,
    "nants": 17614,
    "government": 25407,
    "Ġprelimin": 8863,
    "Ġamel": 18510,
    "Ġstories": 10866,
    "abode": 21796,
    "Ġauthentic": 20538,
    "Ġtawny": 20485,
    "Ġbor": 5805,
    "Ġasiatics": 20434,
    "Ġcloth": 9746,
    "presum": 12871,
    "health": 13835,
    "vac": 15452,
    "oglyph": 11017,
    "must": 3577,
    "Ġtunnel": 14932,
    "ifully": 13189,
    "Ġdo": 511,
    "Ġenigmatical": 20600,
    "Ġbedroom": 7276,
    "distinguish": 19575,
    "ook": 21006,
    "app": 1042,
    "struck": 7864,
    "Ġchap": 5935,
    "Ġsoftened": 11103,
    "agues": 8162,
    "Ġspeech": 4610,
    "possessed": 9530,
    "Ġdisc": 944,
    "Ġdecoding": 3086,
    "wheels": 14383,
    "Ġcry": 3497,
    "Ġdoub": 1836,
    "bounded": 13442,
    "Ġgifted": 17999,
    "glass": 9911,
    "heum": 17748,
    "Ġforwards": 12707,
    "Ġstreatham": 17451,
    "bearded": 18522,
    "ties": 2759,
    "Ġbeard": 11657,
    "Ġriddles": 16733,
    "Ġdependency": 3487,
    "Ġcommand": 3322,
    "Ġunreason": 15845,
    "delightful": 12200,
    "Ġirregularity": 25325,
    "oned": 4630,
    "Ġeternal": 5977,
    "Ġwards": 17791,
    "Ġslaughter": 20732,
    "Ġagreeable": 4551,
    "Ġbiography": 22766,
    "Ġreceived": 2951,
    "Ġshattered": 7886,
    "inquire": 16933,
    "uniform": 18160,
    "Ġalarming": 14783,
    "Ġrevelry": 15139,
    "alarmed": 21507,
    "mbl": 5947,
    "ispiece": 19728,
    "Ġrushed": 4086,
    "damn": 20027,
    "housekeeping": 24103,
    "eed": 20843,
    "Ġclifford": 22368,
    "Ġpapered": 20134,
    "commanding": 24751,
    "Ġhay": 11607,
    "Ġglobular": 19011,
    "veil": 18045,
    "Ġmutineer": 19421,
    "anxious": 15112,
    "string": 15688,
    "Ġrocking": 10970,
    "Ī": 235,
    "Ġdepending": 14294,
    "Ġbenignity": 18782,
    "honor": 19902,
    "ubl": 3594,
    "Ġcorpse": 6640,
    "athom": 12944,
    "Ġfowler": 16938,
    "Ġexpectantly": 23528,
    "Ġgentleman": 3042,
    "Ġenticing": 22748,
    "original": 9087,
    "Ġaccurate": 13272,
    "the": 335,
    "Ġheaths": 25973,
    "Ġhydraul": 9516,
    "Ġpay": 3963,
    "^{": 15307,
    "Ġxxxvi": 24974,
    "vell": 3959,
    "icilian": 20694,
    "pudding": 17648,
    "Ġdivergence": 2727,
    "uteronomy": 15667,
    "Ġtriumphant": 12193,
    "Ġshaggy": 13573,
    "Ġown": 1008,
    "pennies": 26287,
    "friendship": 24053,
    "rowing": 7932,
    "od": 351,
    "religion": 20578,
    "Ġgest": 8135,
    "dan": 17516,
    "Ġsleepy": 8269,
    "thrown": 8482,
    "Ġreadiness": 13054,
    "Ġthigh": 10188,
    "Ġclassification": 1097,
    "icting": 12857,
    "Ġbul": 3293,
    "Ġindex": 17049,
    "oarsman": 25262,
    "jacket": 12295,
    "Ġcanted": 17833,
    "Ġviolent": 5117,
    "exped": 16526,
    "Ġdiscu": 4363,
    "roots": 15646,
    "perch": 18342,
    "howling": 18990,
    "protest": 24812,
    "Ġcanallers": 13630,
    "Ġthw": 21519,
    "Ġsqu": 1039,
    "Ġlangs": 13956,
    "vill": 10736,
    "Ġrevol": 5536,
    "precip": 14666,
    "blending": 24130,
    "Ġfinest": 10394,
    "Ġfocus": 4236,
    "Ġsteelkilt": 5675,
    "E": 41,
    "Ġhomeward": 9393,
    "Ġcommenting": 25229,
    "Ġupdates": 1296,
    "sufficiently": 14983,
    "Ġ*": 1272,
    "Ġalbino": 20506,
    "Ġhumane": 11887,
    "Ġstrides": 22619,
    "wait": 11321,
    "Ġbook": 2701,
    "Ġungenerous": 18264,
    "elves": 2161,
    "Ġsc": 527,
    "Ġchurning": 15940,
    "Ġsluggishly": 25892,
    "hundred": 8332,
    "oh": 1578,
    "Ġdimly": 9490,
    "unless": 9237,
    "Ġcountryside": 23598,
    "conversation": 7123,
    "Ġinterrupt": 4359,
    "Ġsensationalism": 26067,
    "Ġlocks": 11727,
    "Ġpoverty": 9307,
    "Ġperseverance": 13600,
    "Ġmove": 5107,
    "usion": 3300,
    "Ġchowders": 18387,
    "inguish": 9399,
    "uend": 21104,
    "Ġjeopardy": 13599,
    "Ġadieus": 25113,
    "Ġstriving": 8998,
    "Ġjust": 1242,
    "Ġcouple": 5423,
    "perceived": 8861,
    "Ġrecesses": 17262,
    "nurs": 21001,
    "ires": 6039,
    "Ġlevel": 5020,
    "Ġwonderland": 23428,
    "itioned": 22469,
    "orated": 12595,
    "Ġhappy": 2465,
    "whilst": 18372,
    "Ġthump": 11613,
    "Ġ104": 24411,
    "Ġscr": 11763,
    "Ġaffectionate": 5583,
    "----âĢĻ": 24100,
    "Ġagency": 11809,
    "arent": 4249,
    "Ġrifts": 21980,
    "eliest": 14748,
    "Ġhatty": 19267,
    "anning": 10166,
    "Ġturning": 3327,
    "Ġventilator": 8717,
    "Ġbuildings": 24719,
    "Ġcrystall": 20229,
    "Ġodious": 12154,
    "Ġrenounce": 19471,
    "Ġmonument": 16240,
    "mystic": 25317,
    "ivial": 15863,
    "jah": 17582,
    "Ġpack": 5444,
    "Ġalbertus": 25649,
    "Ġimplore": 24873,
    "Ġacceptable": 16745,
    "Ġrabb": 4163,
    "gling": 10099,
    "Ġobsolete": 26559,
    "Ġprows": 19891,
    "Ġtour": 9149,
    "Ġengra": 7876,
    "france": 24283,
    "Ġtest": 1588,
    "whar": 15930,
    "%": 9,
    "Ġbeeches": 9228,
    "cheerfulness": 20183,
    "Ġloite": 22116,
    "rael": 21633,
    "Ġthence": 8884,
    "Ġcraft": 4376,
    "inglass": 21305,
    "Ġhelm": 5276,
    "Ġconfid": 7687,
    "Ġsecrets": 9056,
    "Ġhanding": 16133,
    "idation": 5022,
    "Ġdurst": 20355,
    "Ġfow": 6134,
    "Ġchimney": 6497,
    "unct": 18157,
    "Ġappropriate": 2250,
    "Ġtot": 4186,
    "Ġmightiest": 12965,
    "Ġdecapitated": 20619,
    "Ġnarr": 5085,
    "Ġhorrible": 4906,
    "Ġdairy": 20689,
    "Ġencamp": 22804,
    "childhood": 16867,
    "Ġstalk": 12701,
    "Ġhurriedly": 11250,
    "Ġcollapsed": 15084,
    "bill": 10078,
    "Ġtechnically": 12369,
    "Ġunacquainted": 12779,
    "Ġcrescentic": 20624,
    "Ġclouded": 13294,
    "chan": 1149,
    "size": 15427,
    "icorn": 15660,
    "shooting": 16966,
    "Ġpawn": 12067,
    "rifle": 21049,
    "Ġimputable": 22178,
    "Ġsod": 11563,
    "Ġ1890": 23900,
    "Ġup": 463,
    "Ġexcessive": 3894,
    "Ġmodified": 14168,
    "Ġgodson": 23360,
    "pered": 4198,
    "Ġgentleness": 8713,
    "Ġplaintiffs": 13612,
    "aved": 5474,
    "urn": 777,
    "Ġinclement": 22559,
    "Ġhorn": 6186,
    "Ġod": 4439,
    "k": 79,
    "Ġshoots": 14569,
    "ĠĠĠĠĠĠ": 6414,
    "Ġwomen": 4750,
    "ira": 3958,
    "paralleled": 14508,
    "es": 289,
    "Ġpolitics": 19226,
    "sus": 6229,
    "Ġmention": 2987,
    "Ġpresc": 15928,
    "Ġoxford": 11372,
    "Ġblankness": 24612,
    "Ġshrieks": 12203,
    "Ġsecondly": 14517,
    "Ġhereditary": 10666,
    "rigged": 17062,
    "reported": 24492,
    "Ġfinishing": 23130,
    "carbuncle": 26383,
    "mannered": 22860,
    "Ġarrang": 2468,
    "rendered": 22344,
    "deduction": 23671,
    "Ġfatig": 6757,
    "Ġfaces": 6010,
    "ulating": 10888,
    "Ġgpt": 4350,
    "Ġcanada": 22170,
    "catch": 17508,
    "Ġiceland": 15149,
    "Ġagencies": 18543,
    "Ġcomplete": 4382,
    "Ġmince": 22839,
    "arter": 17895,
    "fall": 5135,
    "hes": 1399,
    "Ġnest": 10190,
    "Ġsuperiors": 23457,
    "Ġunlikely": 10908,
    "Ġcapting": 23023,
    "Ġfooted": 23799,
    "Ġberths": 20118,
    "Ġcleaned": 23187,
    "meth": 11504,
    "Ġreverie": 13460,
    "ascertaining": 26461,
    "thousand": 5546,
    "Ġunable": 4951,
    "Ġargemone": 24276,
    "Ġdedicated": 19265,
    "Ġdeparted": 5562,
    "surface": 10532,
    "Ġcomprehended": 11295,
    "fuller": 22511,
    "Ġmariner": 7246,
    "Ġhesitate": 16947,
    "pp": 384,
    "arpening": 21447,
    "Ġmagnitudes": 3823,
    "Ġassign": 11110,
    "readiness": 19366,
    "âĢĻâĢĶ": 12741,
    "chancing": 22917,
    "tered": 2230,
    "Ġpiping": 23217,
    "method": 17286,
    "Ġtremble": 6905,
    "aternity": 21268,
    "commander": 16988,
    "imitably": 21715,
    "Ġqualities": 7532,
    "itative": 13872,
    "Ġimmemorial": 10512,
    "weaving": 18667,
    "Ġdispleasure": 16055,
    "shabbily": 26248,
    "Ġfools": 14483,
    "Ġusual": 3944,
    "Ġpeeling": 22696,
    "acles": 8521,
    "hurry": 24762,
    "Ġpr": 1604,
    "conjectures": 25181,
    "Ġgratification": 24099,
    "Ġantichronical": 26610,
    "Ġbacking": 16115,
    "spanish": 14334,
    "Ġagon": 10322,
    "Ġendeared": 26499,
    "Ġenglish": 3614,
    "occur": 19578,
    "Ġwarsaw": 26168,
    "Ġcastaway": 16642,
    "Ġblunder": 18820,
    "liked": 10510,
    "Ġglut": 18849,
    "Ġresign": 18565,
    "thing": 1479,
    "Ġlaughing": 5339,
    "nur": 11507,
    "Ġstrang": 4160,
    "ignorance": 17163,
    "Ġvalid": 1782,
    "iration": 4539,
    "Ġnowadays": 18547,
    "Ġplank": 7034,
    "alluring": 18353,
    "Ġdeference": 10882,
    "Ġtrampling": 25493,
    "Ġfishers": 19357,
    "Ġaristocratic": 20515,
    "headsman": 16698,
    "Ġinsatiate": 19272,
    "travel": 24336,
    "ouses": 5163,
    "fooled": 24418,
    "vo": 11541,
    "Ġwor": 1190,
    "Ġforster": 5230,
    "Ġpeaked": 2297,
    "Ġimpro": 913,
    "Ġco": 730,
    "Ġscores": 2714,
    "Ġdefect": 8556,
    "Ġparson": 6688,
    "Ġinsince": 23679,
    "cav": 17509,
    "Ġqueer": 4478,
    "tor": 15434,
    "until": 6597,
    "fright": 9597,
    "away": 4625,
    "ricity": 23068,
    "Ġwhitish": 24867,
    "Ġsan": 7825,
    "racted": 4776,
    "Ġupdate": 2463,
    "Ġconnection": 5479,
    "transp": 24508,
    "ada": 14013,
    "founded": 16715,
    "Ġcaliforn": 14433,
    "Ġarched": 10933,
    "Ġclinging": 10294,
    "Ġboarding": 12090,
    "blister": 24129,
    "Ġoutlaws": 22328,
    "Ġstreets": 5864,
    "Ġtexas": 25923,
    "Ġfurnishes": 19444,
    "excepting": 19709,
    "Ġearly": 2079,
    "Ġsouthern": 7689,
    "Ġfills": 12598,
    "Ġme": 352,
    "awakened": 14455,
    "Ġcapstan": 9101,
    "Ġpeople": 2542,
    "Ġsag": 6514,
    "Ġsixth": 16560,
    "Ġhear": 1962,
    "aded": 3549,
    "seals": 21822,
    "chop": 21692,
    "Ġpap": 8801,
    "quite": 4646,
    "Ġmutually": 23960,
    "erce": 6127,
    "Ġripples": 25506,
    "education": 20304,
    "Ġ71": 24261,
    "Ġproper": 1379,
    "Ġmatter": 1734,
    "orn": 2244,
    "Ġmaledictions": 26429,
    "arks": 2848,
    "Ġboast": 7036,
    "mody": 16181,
    "Ġrealistic": 5861,
    "rabb": 15683,
    "Ġsheath": 14153,
    "hug": 17564,
    "Ġcalculates": 13268,
    "Ġhalting": 16276,
    "ribly": 8256,
    "Ġflirt": 14425,
    "slow": 7811,
    "Ġhis": 380,
    "ª": 108,
    "Ġasser": 6258,
    "Ġaccident": 5380,
    "Ġnets": 21528,
    "Ġsurprising": 14598,
    "Ġbreaching": 23349,
    "G": 43,
    "Ġbatch": 890,
    "Ġix": 12672,
    "Ġtract": 21168,
    "reflect": 19867,
    "fight": 17539,
    "rivial": 9436,
    "Ġexulting": 20261,
    "cellar": 20280,
    "Ġmercy": 9000,
    "Ġpledge": 11602,
    "de": 458,
    "Ġdiscredit": 22787,
    "Ġgrieve": 14709,
    "Ġ125": 24469,
    "Ġswain": 18881,
    "è": 169,
    "Ġcautiousness": 19868,
    "gaffman": 26391,
    "Ġestim": 3350,
    "Ġportraits": 20145,
    "Ġslate": 11941,
    "uary": 11539,
    "Ġfighting": 12201,
    "bular": 15316,
    "point": 6064,
    "ma": 1151,
    "Ġforms": 6397,
    "Ġshifting": 12772,
    "Ġneeds": 6606,
    "Ġnum": 1348,
    "Ġunlo": 22015,
    "Ġchick": 22252,
    "A": 37,
    "Ġtemperature": 1006,
    "screw": 9348,
    "Ġgilt": 21610,
    "northern": 23667,
    "Ġgradient": 450,
    "dough": 15337,
    "Ġboiling": 8527,
    "Ġbeast": 7179,
    "Ġgrandfather": 19425,
    "dering": 5307,
    "visit": 7755,
    "Ġsteak": 9832,
    "generative": 4330,
    "Ġdiversion": 17199,
    "Ġastern": 6091,
    "hercules": 22211,
    "Ġtreatise": 19348,
    "Ġquitting": 7645,
    "Ġprey": 6415,
    "Ġjudgment": 5765,
    "Ġpugn": 21483,
    "agne": 21910,
    "Ġcommis": 22675,
    "Ġcontemptible": 16954,
    "Ġprovinc": 16743,
    "Ġsalted": 14758,
    "reme": 2425,
    "perpendicular": 14164,
    "picture": 11408,
    "Ġcane": 10928,
    "enchant": 21286,
    "Ġess": 5691,
    "Ġ[_": 15463,
    "mort": 10711,
    "Ġheredit": 9218,
    "Ġwaning": 15536,
    "plentiful": 21967,
    "Ġwallet": 21301,
    "dington": 12069,
    "Ġdiverse": 19211,
    "usal": 7638,
    "Ġassaults": 15159,
    "appearing": 14638,
    "Ġperusal": 14225,
    "Ġassent": 12737,
    "upp": 10132,
    "Ġreconciled": 13590,
    "recogn": 13428,
    "aby": 18109,
    "Ġdisease": 14259,
    "ocations": 23710,
    "Ġsharp": 2416,
    "Ġaver": 1283,
    "Ġparading": 23713,
    "Ġascend": 9962,
    "Ġannual": 14834,
    "Ġaverages": 2398,
    "itancy": 21336,
    "upon": 2721,
    "Ġshrugged": 12773,
    "courageous": 26128,
    "Ġhedge": 8365,
    "Ġhell": 5019,
    "amuse": 14054,
    "Ġarab": 7824,
    "Ġhumbled": 16199,
    "Ġbrief": 6976,
    "ancy": 4393,
    "Ġpetticoat": 15298,
    "Ġsupp": 1265,
    "Ġbro": 1431,
    "Ġthousandth": 23684,
    "particularly": 8341,
    "bask": 20778,
    "Ġgrecian": 26297,
    "Ġavenue": 13624,
    "mathematics": 26305,
    "mund": 13760,
    "Ġcottage": 4734,
    "Ġdestroyer": 13416,
    "Ġinfidel": 13091,
    "sory": 17660,
    "Ġlies": 5297,
    "ĠĠĠĠĠĠĠĠĠĠĠĠĠĠĠĠĠĠĠĠĠĠĠĠĠĠĠĠĠĠĠĠĠĠĠĠĠĠĠĠĠ": 19585,
    "Ġclap": 10960,
    "Ġthunder": 4824,
    "pher": 11513,
    "ĠĠĠĠĠĠĠĠĠĠĠĠĠĠĠĠĠĠĠĠĠĠĠĠĠĠĠĠĠĠĠĠĠĠĠĠĠĠĠ": 19260,
    "Ġlion": 9677,
    "Ġconstrued": 26302,
    "Ġidentifies": 12017,
    "Ġtiles": 17727,
    "pha": 22773,
    "Ġcontinual": 6777,
    "consol": 9764,
    "Ġunwarrant": 19936,
    "Ġscore": 9739,
    "Ġstooping": 13066,
    "laying": 19775,
    "Ġdimens": 3153,
    "Ġbestowed": 6594,
    "armon": 23063,
    "edding": 4368,
    "Ġbu": 3682,
    "Ġmisled": 22760,
    "Ġeth": 17717,
    "tured": 13797,
    "spot": 9791,
    "Ġneighbour": 3809,
    "Ġuntoward": 19167,
    "Ġblanched": 26284,
    "crimes": 16685,
    "both": 5785,
    "Ġgoal": 10304,
    "erne": 21272,
    "separ": 9232,
    "Ġmiscell": 16152,
    "sided": 17665,
    "Ġapprove": 12883,
    "low": 655,
    "Ġprofoundly": 16860,
    "Ġhair": 3314,
    "wail": 21128,
    "Ġsibbald": 21233,
    "pun": 9619,
    "Ġtarget": 2825,
    "Ġperception": 9752,
    "Ġridge": 14821,
    "nour": 20990,
    "Ġperverseness": 13657,
    "Ġdemanding": 16806,
    "Ġdus": 8425,
    "Ġhire": 21489,
    "oftener": 23968,
    "Ġtwist": 11854,
    "Ġimbecile": 17394,
    "Ġsolomon": 11052,
    "Ġpoorly": 9857,
    "Ġchannel": 26013,
    "elab": 21574,
    "fulfil": 16048,
    "Ġpreceded": 13431,
    "tt": 13792,
    "Ġhovered": 12635,
    "ulations": 6030,
    "Ġcatastrophe": 10485,
    "Ġunfold": 8023,
    "Ġeach": 892,
    "ubb": 1651,
    "Ġsnugness": 20080,
    "onical": 21256,
    "isation": 13895,
    "Ġglow": 7170,
    "sleeping": 13457,
    "ske": 13784,
    "bott": 9108,
    "once": 5905,
    "Ġwhe": 439,
    "wise": 2573,
    "Ġglimpse": 6943,
    "favourable": 12267,
    "acing": 2717,
    "ely": 625,
    "Ġklux": 22200,
    "ó": 180,
    "Ġ8": 5433,
    "loving": 18542,
    "occ": 4484,
    "impossible": 8827,
    "portuguese": 25414,
    "attacked": 23127,
    "Ġslips": 23171,
    "Ġmarty": 20293,
    "ination": 2914,
    "Ġsatire": 22904,
    "Ġuncont": 14117,
    "Ġlawy": 9456,
    "Ġconstant": 6310,
    "Ġequinox": 25857,
    "Ġhotels": 19539,
    "Ġdisquis": 22532,
    "links": 20960,
    "Ġcream": 22728,
    "Ġtragedies": 25242,
    "Ġcontrived": 10305,
    "rippa": 11342,
    "okes": 9279,
    "Ġabruptness": 25301,
    "Ġplentiful": 12915,
    "Ġbreakfast": 3975,
    "intellect": 18823,
    "Ġleather": 7606,
    "Ġexter": 7396,
    "Ġmotionless": 8325,
    "Ġcalendar": 18878,
    "Ġrevellers": 21682,
    "Ġbowl": 11205,
    "Ġcommunicative": 24547,
    "Ġreligion": 11416,
    "steaks": 23964,
    "ening": 3108,
    "angible": 22110,
    "Ġjupiter": 17458,
    "Ġmitigates": 3054,
    "Ġoutrage": 15961,
    "Ġgovern": 10451,
    "ality": 2511,
    "mistakable": 20655,
    "Ġshreds": 12774,
    "below": 12125,
    "ornamented": 26596,
    "ropes": 7905,
    "Ġale": 9156,
    "Ġext": 904,
    "Ġdagger": 21441,
    "may": 3679,
    "omet": 3080,
    "Ġprepare": 8650,
    "Ġdance": 4442,
    "ignor": 8963,
    "Ġexcell": 10418,
    "--âĢĺ": 22854,
    "Ġquill": 12861,
    "Ġforfeit": 21780,
    "Ġsights": 7471,
    "harbors": 20151,
    "play": 5099,
    "Ġdeliberation": 19972,
    "evade": 24817,
    "Ġxliv": 23412,
    "umbling": 6612,
    "still": 4220,
    "twenty": 6608,
    "Ġshipw": 12983,
    "Ġtrusty": 24105,
    "yl": 7819,
    "Ġmoving": 1678,
    "Ġbatt": 13901,
    "at": 268,
    "Ġmock": 3692,
    "Ġpierce": 17036,
    "eager": 12463,
    "Ġbourgh": 5069,
    "dden": 1803,
    "Ġlap": 8439,
    "patient": 25343,
    "Ġ180": 16607,
    "Ġbar": 3151,
    "Ġshowing": 7732,
    "Ã¦": 4337,
    "Ġar": 480,
    "Ġremains": 4909,
    "angu": 570,
    "Ġmiss": 1232,
    "Ġgangs": 21613,
    "ignantly": 23269,
    "Ġtears": 4231,
    "Ġcomplaints": 12268,
    "Ġgouge": 26190,
    "gu": 3957,
    "Ġcomputes": 4768,
    "ribed": 7693,
    "Ġdetain": 14175,
    "mid": 5616,
    "Ġdoctrine": 24199,
    "Ġfrog": 23925,
    "thr": 12764,
    "Ġdece": 6996,
    "Ġwhist": 6023,
    "vels": 5432,
    "some": 2234,
    "committed": 18741,
    "Ġendeavoured": 4919,
    "Ġsmelt": 16068,
    "Ġsaid": 578,
    "proposal": 18750,
    "actorily": 25577,
    "Ġapp": 501,
    "withstand": 23028,
    "Ġtrials": 16790,
    "Ġprognost": 15284,
    "Ġethiopian": 26614,
    "arch": 1104,
    "Ġregards": 16080,
    "Ġsickening": 19607,
    "fac": 17542,
    "Ġdivided": 8635,
    "Ġmanaged": 7908,
    "Ġdolph": 12383,
    "Ġfancying": 12116,
    "beholding": 16041,
    "Ġstoven": 23180,
    "iant": 5427,
    "Ġdrown": 6815,
    "hing": 978,
    "isms": 12584,
    "Ġadmitting": 19185,
    "Ġcontradictory": 20400,
    "Ġhue": 8431,
    "ult": 723,
    "Ġsome": 653,
    "dial": 20827,
    "Ġtropical": 17065,
    "Ġimbalanced": 18335,
    "neys": 23584,
    "repeat": 25155,
    "Ġcapric": 14577,
    "Ġstared": 8456,
    "arious": 10319,
    "amet": 576,
    "Ġinhospit": 25453,
    "Ġrnns": 2393,
    "tan": 4742,
    "Ġcous": 3437,
    "herds": 22210,
    "intention": 10369,
    "profound": 16427,
    "churning": 21701,
    "ic": 304,
    "commendation": 26351,
    "broad": 8646,
    "Ġhinge": 25542,
    "Ġcirc": 1984,
    "belonged": 25598,
    "hy": 4740,
    "Ġphilosophy": 7104,
    "Ġuplifted": 11649,
    "Ġbreast": 8970,
    "inquir": 9538,
    "Ġcasting": 12104,
    "mud": 20973,
    "Ġgregarious": 18965,
    "Ġgratefully": 20448,
    "Ġdeserve": 8310,
    "Ġexpand": 9309,
    "gar": 5614,
    "Ġswaying": 15048,
    "tical": 10130,
    "Ġsciences": 15946,
    "Ġnomin": 10192,
    "Ġgoethe": 22429,
    "Ġrepro": 7274,
    "expanded": 23665,
    "rigging": 20009,
    "Ġdesp": 3218,
    "Ġstability": 1361,
    "too": 4507,
    "waistcoat": 17363,
    "Ġarve": 15901,
    "Ġarose": 7359,
    "Ġdesk": 11910,
    "bearers": 18524,
    "Ġhearties": 18967,
    "aples": 20770,
    "Ġchewing": 23287,
    "Ġhalf": 1670,
    "rying": 3190,
    "antically": 22101,
    "ands": 21871,
    "fleece": 19951,
    "Ġforgot": 4683,
    "Ġrevered": 23736,
    "Ġnobody": 6159,
    "Ġburtons": 19254,
    "Ġforthwith": 16619,
    "ots": 3294,
    "Ġclothes": 4997,
    "bennet": 5353,
    "rubbery": 17344,
    "timidity": 25754,
    "took": 6165,
    "joice": 9604,
    "bber": 4567,
    "Ġamours": 22486,
    "Ġgives": 5018,
    "Ġpunch": 9957,
    "Ġstated": 9691,
    "tenderly": 20534,
    "render": 10292,
    "pract": 10121,
    "Ġderive": 10396,
    "Ġforbearing": 25101,
    "Ġvanishing": 1346,
    "Ġentertained": 10000,
    "blades": 24132,
    "riend": 1187,
    "umblings": 23897,
    "Ġ113": 19699,
    "fish": 3516,
    "forbidding": 25838,
    "Ġstra": 2991,
    "Ġgrinning": 9055,
    "Ġboldness": 24427,
    "scythes": 26403,
    "Ġrepressed": 21672,
    "Ġsiamese": 20486,
    "Ġsprung": 11249,
    "Ġsubt": 11871,
    "rolled": 9061,
    "trop": 15438,
    "Ġnatures": 16507,
    "spike": 16142,
    "sister": 5139,
    "raid": 3280,
    "Ġcoopman": 25829,
    "Ġnook": 15931,
    "Ġlashed": 9200,
    "Ġhovel": 8255,
    "Ġmonsieur": 12424,
    "Ġexhibited": 9546,
    "Ġsoldiers": 8690,
    "Ġsallies": 21232,
    "Ġunwe": 15841,
    "Ġcubic": 20091,
    "Ġetc": 7085,
    "rope": 3189,
    "Ġreappearance": 21671,
    "Ġconcerns": 12034,
    "correspond": 13401,
    "threat": 10901,
    "Ġperched": 10301,
    "Ġenjoying": 11235,
    "Ġenormous": 5608,
    "Ġleisure": 6540,
    "Ġchests": 19674,
    "Ġphysiognomical": 25612,
    "nikin": 23248,
    "th": 407,
    "Ġblasphe": 17409,
    "Ġcross": 1373,
    "unimportant": 18162,
    "folly": 20864,
    "Ġerror": 1766,
    "Ġsuspended": 5665,
    "Ġgrammars": 11403,
    "cerem": 15681,
    "Ġfashionable": 19547,
    "anybody": 12086,
    "history": 15016,
    "Ġacquainted": 5179,
    "Ġinstrument": 7119,
    "backs": 9392,
    "ser": 1426,
    "delirium": 14786,
    "Ġbeside": 5192,
    "Ġoppressed": 11190,
    "Ġshin": 18228,
    "Ġbrougham": 17872,
    "Ġpirate": 14997,
    "Ġbir": 17855,
    "Ġmy": 410,
    "Ġgin": 13963,
    "irection": 2387,
    "Ġdry": 5624,
    "Ġnourishment": 15195,
    "Ġrel": 1098,
    "Ġlucky": 7759,
    "Ġgrieved": 8298,
    "Ġthick": 3783,
    "Ġwhereby": 11839,
    "together": 3556,
    "Ġlabeled": 3719,
    "Ġcrashes": 13129,
    "sail": 3602,
    "Ġcrimes": 8591,
    "Ġpaws": 13923,
    "althy": 8434,
    "seam": 10875,
    "Ġsec": 2076,
    "Ġresponsiveness": 2899,
    "Ġhook": 6453,
    "Ġvelvet": 12401,
    "Ġfanc": 6744,
    "Ġlived": 3989,
    "Ġwapping": 21297,
    "Ġlionel": 25287,
    "icable": 6388,
    "Ġexagger": 12723,
    "Ġfort": 2577,
    "arbuck": 2024,
    "Ġrequisite": 18632,
    "Ġprendergast": 26538,
    "Ġcrowd": 6337,
    "Ġwhile": 607,
    "borrowed": 20794,
    "Ġbier": 22765,
    "Ġscholars": 26113,
    "Ġduplicity": 25332,
    "iffe": 21907,
    "Ġreusable": 13560,
    "Ġpush": 9185,
    "Ġintentionally": 24522,
    "Ġtigers": 25759,
    "Ġrepresented": 8940,
    "Ġderiv": 1738,
    "Ġislands": 6766,
    "ven": 781,
    "Ġroom": 1463,
    "Ġprofanely": 23572,
    "Ġdistension": 22509,
    "shazz": 14241,
    "Ġinjunction": 19620,
    "twill": 21077,
    "Ġaunt": 3181,
    "Ġexasperate": 20101,
    "Ġyaw": 18097,
    "Ġcorpor": 23043,
    "in": 262,
    "Ġpatter": 835,
    "Ġbloom": 9890,
    "Ġah": 5075,
    "halfway": 24312,
    "Ġvain": 3629,
    "Ġineffable": 17334,
    "mont": 19171,
    "Ġsay": 932,
    "Ġdoct": 4455,
    "egypt": 15352,
    "Ġlead": 3523,
    "Ġconjectures": 16926,
    "Ġpaddles": 15150,
    "Ġcon": 348,
    "Ġbubbling": 17328,
    "ain": 343,
    "Ġdro": 2772,
    "Ġowning": 18746,
    "ernation": 8211,
    "Ġlambton": 10659,
    "Ġgrated": 22807,
    "flu": 9119,
    "Ġtransf": 22476,
    "league": 17846,
    "Ġmasterly": 23997,
    "Ġpoets": 11824,
    "Ġsports": 18311,
    "expl": 9285,
    "charge": 9450,
    "dripping": 16906,
    "Ġsharkish": 24502,
    "anum": 17837,
    "later": 20955,
    "Ġdrifting": 19282,
    "chant": 4258,
    "Ġgathering": 14980,
    "Ġpropontis": 17467,
    "Ġhilarious": 20301,
    "isted": 3298,
    "eyes": 5684,
    "Ġmoody": 8202,
    "Ġpermission": 9281,
    "Ġstartled": 7083,
    "Ġvalidate": 3348,
    "Ġket": 18348,
    "reve": 12543,
    "Ġnuptial": 25783,
    "Ġlifeless": 8950,
    "Ġtyph": 10010,
    "iantly": 13741,
    "Ġdrooping": 9422,
    "Ġreptile": 15280,
    "Ġfishing": 9664,
    "Ġscept": 15505,
    "gave": 7800,
    "towards": 5003,
    "Ġponderous": 8356,
    "congreg": 25399,
    "Ġlo": 453,
    "Ġintrepid": 11709,
    "Ġscreening": 25300,
    "Ġrecovered": 5481,
    "keeping": 8638,
    "Ġglued": 20592,
    "address": 14883,
    "Ġenjoyment": 7299,
    "Ġbefall": 8832,
    "Ġweapons": 10595,
    "Ġobtained": 7431,
    "Ġdubious": 17385,
    "Ġsheep": 10927,
    "Ġunaccountably": 26516,
    "Ġteach": 8555,
    "mish": 17599,
    "happened": 9435,
    "Ġjoky": 18407,
    "Ġromans": 16760,
    "came": 4569,
    "Ġa": 263,
    "ane": 1180,
    "nowled": 5470,
    "Ġincom": 9771,
    "Ġelse": 2479,
    "sacrifice": 13495,
    "Ġsa": 474,
    "system": 4422,
    "Ġpeeled": 14320,
    "meaning": 2909,
    "Ġdeaf": 12725,
    "ual": 946,
    "Ġchapter": 2955,
    "Ġinv": 2224,
    "Ġwinter": 5220,
    "ming": 3600,
    "spout": 7925,
    "volut": 1561,
    "Ġvoyage": 3057,
    "Ġpewter": 17187,
    "Ġdandy": 17894,
    "Ġflew": 5587,
    "Ġinco": 14262,
    "undertaking": 23790,
    "Ġdiscreet": 16484,
    "Ġcirclings": 26432,
    "cannot": 5745,
    "offices": 19063,
    "Ġinboard": 17935,
    "Ġmeek": 21817,
    "Ġtablets": 13158,
    "sal": 8761,
    "Ġdirest": 22711,
    "separation": 25227,
    "icult": 3342,
    "Ġprairie": 8716,
    "Ġcred": 8784,
    "Ġcivilities": 14850,
    "Ġtiny": 11554,
    "Ġtok": 1246,
    "Ġunrest": 11717,
    "Ġcovari": 2339,
    "Ġpluck": 15617,
    "olets": 21010,
    "ario": 14249,
    "X": 60,
    "Ġeluc": 16112,
    "Ġluckless": 16798,
    "simon": 16974,
    "Ġcampaign": 20663,
    "Ġlowers": 23245,
    "ning": 949,
    "Ġaccommod": 14214,
    "Ġbehind": 2809,
    "Ġcontinued": 2923,
    "bulwarks": 12276,
    "orph": 21402,
    "Ġwool": 19436,
    "Ġrokovoko": 22411,
    "puzz": 17641,
    "Ġyoked": 15738,
    "Ġenthusiasm": 8066,
    "Ġwise": 6811,
    "Ġaccordance": 19501,
    "Ġluck": 4881,
    "Ġcordage": 19681,
    "Ġguiding": 19242,
    "epend": 3315,
    "Ġmam": 8407,
    "insula": 23071,
    "pointed": 9812,
    "Ġclearness": 23188,
    "Ġrelationship": 2315,
    "Ġannum": 24205,
    "Ġbidirectional": 3755,
    "elect": 20848,
    "Ġphilosopher": 12187,
    "Ġengage": 9337,
    "Ġinsulted": 14994,
    "Ġby": 383,
    "Ġruns": 8598,
    "Ġweights": 896,
    "enough": 6809,
    "mushroom": 26396,
    "Ġtruthful": 23870,
    "scoured": 22992,
    "ilib": 4116,
    "shavings": 22453,
    "Ġcring": 15555,
    "skeleton": 17378,
    "Ġrevive": 13482,
    "Ġgateway": 24799,
    "Ġdread": 3166,
    "Ġworaciousness": 22933,
    "operations": 19978,
    "title": 17289,
    "Ġeloquence": 11844,
    "Ġcomfort": 3439,
    "Ġmich": 21308,
    "Ġsaith": 14157,
    "Ġlic": 8438,
    "Ġtimidly": 11339,
    "Ġforeb": 12006,
    "jumping": 20248,
    "Ġroaring": 10969,
    "Ġwandering": 8657,
    "Ġadded": 2716,
    "Ġillust": 8264,
    "Ġskulls": 12964,
    "igating": 21704,
    "Ġtire": 17721,
    "Ġamends": 14247,
    "Ġreplenished": 13639,
    "pooh": 18800,
    "ore": 418,
    "mentioning": 24886,
    "Ġkins": 22199,
    "Ġproceedings": 9909,
    "Ġrest": 1781,
    "doing": 8586,
    "Ġentered": 2849,
    "brow": 15318,
    "gorith": 553,
    "Ġsaucer": 20608,
    "dem": 10694,
    "Ġrussia": 26269,
    "Ġern": 8398,
    ".,": 5989,
    "Ġshaft": 18230,
    "Ġdependencies": 2314,
    "Ġsignific": 3829,
    "previous": 9763,
    "wick": 5363,
    "Ġgraze": 18227,
    "ptic": 21923,
    "Ġbind": 12586,
    "Ġmortally": 23920,
    "Ġstepping": 9356,
    "chari": 21693,
    "Ġcopying": 17068,
    "langu": 4807,
    "Ġsaints": 20677,
    "Ġseeth": 21958,
    "discrimin": 19611,
    "ographical": 16787,
    "Ġultimate": 12352,
    "Ġincomp": 12901,
    "eaten": 20347,
    "puff": 21024,
    "sam": 21054,
    "fork": 20859,
    "Ġbutler": 18271,
    "Ġcrews": 8992,
    "ĠĠĠĠĠĠĠĠĠĠĠĠĠĠĠĠĠĠĠĠĠĠĠĠĠĠĠĠĠĠĠĠĠĠĠĠĠĠĠĠĠĠĠĠĠĠĠ": 16756,
    "Ġjavelin": 26105,
    "appointment": 24064,
    "Ġposture": 24166,
    "Ġsultan": 15187,
    "Ġlurking": 11290,
    "dismay": 19156,
    "descend": 23090,
    "presbyter": 20621,
    "allers": 22202,
    "rew": 3649,
    "Ġsimilitude": 19212,
    "dron": 17526,
    "gro": 10096,
    "Ġselect": 3997,
    "Ġbreadth": 10565,
    "Ġwashed": 15768,
    "Ġdiction": 8798,
    "haw": 6362,
    "hurt": 19880,
    "Ġautoregressive": 3432,
    "Ġdl": 3377,
    "Ġspur": 18304,
    "Ġcom": 368,
    "using": 5468,
    "Ġrem": 955,
    "Ġindomit": 22959,
    "Ġstrikes": 13184,
    "aren": 10076,
    "Ġrubbing": 9323,
    "Ġsens": 1851,
    "Ġtremulous": 14988,
    "abashed": 21797,
    "anity": 9656,
    "Ġpeevish": 26558,
    "Ġriver": 5411,
    "ager": 6547,
    "Ġclearing": 8241,
    "Ġcogent": 14276,
    "Ġabsolut": 3913,
    "droppers": 24758,
    "nine": 13763,
    "Ġcabs": 23643,
    "assin": 22310,
    "Ġrattled": 15071,
    "Ġreplen": 11115,
    "mountain": 10714,
    "Ġdropping": 7482,
    "177": 20754,
    "itating": 9652,
    "Ġdromedary": 17441,
    "Ġrays": 10332,
    "Ġfamiliar": 5511,
    "Ġdreamed": 16631,
    "taking": 5689,
    "vice": 15451,
    "anation": 5804,
    "yd": 21145,
    "Ġcolours": 12979,
    "Ġtwinkled": 14314,
    "onness": 21257,
    "Ġdamn": 11159,
    "satisf": 5781,
    "Ġinstead": 2792,
    "Ġtransformations": 3485,
    "tle": 2410,
    "Ġmarks": 6747,
    "judging": 24203,
    "portent": 25413,
    "Ġcalamities": 25700,
    "Ġcommissioned": 19897,
    "Ġoptim": 784,
    "Ġpam": 21457,
    "Ġintermediate": 18591,
    "Ġexerted": 15758,
    "rable": 11634,
    "Ġ=": 1074,
    "oup": 2013,
    "oper": 7346,
    "tons": 7558,
    "ipp": 10104,
    "domestic": 19828,
    "sorts": 21063,
    "meditation": 19071,
    "Ġhushed": 13927,
    "Ġjohn": 5032,
    "Ġheeds": 24519,
    "duing": 22416,
    "Ġwearing": 12743,
    "earn": 10697,
    "Ġrows": 10562,
    "Ġintruder": 25992,
    "Ġconfidential": 9090,
    "Ġsurmised": 24920,
    "Ġadmeasurements": 26227,
    "apolog": 22337,
    "ominy": 13984,
    "resp": 13841,
    "Ġdelivered": 11117,
    "represented": 20198,
    "Ġtraveller": 8050,
    "Ġmalicious": 10559,
    "vanished": 15064,
    "Ġmus": 3397,
    "iminished": 19025,
    "Ġexclusion": 19399,
    "Ġsmoothed": 23659,
    "Ġfuneral": 10284,
    "Ġimprecations": 25821,
    "Ġmiseries": 10348,
    "Ġchatting": 24746,
    "Ġstranger": 3484,
    "co": 2434,
    "Ġlater": 6018,
    "Ġprotecting": 24687,
    "Ġplausible": 26554,
    "suff": 4961,
    "Ġmainz": 22657,
    "hs": 8379,
    "enced": 4296,
    "Ġadvertising": 25390,
    "nez": 22461,
    "Ġpersecut": 16953,
    "tw": 2814,
    "Ġclaps": 22361,
    "Ġoffic": 3191,
    "Ġalcoves": 26487,
    "Ġcrammed": 16472,
    "Ġshift": 2284,
    "vy": 21110,
    "rowsers": 8698,
    "forgotten": 12419,
    "Ġprecipitous": 24836,
    "Ġwan": 15530,
    "ffy": 18317,
    "Ġwail": 21289,
    "ope": 4124,
    "Ġcurrent": 13024,
    "Ġmales": 17807,
    "cool": 19189,
    "protection": 19922,
    "Ġin": 291,
    "Ġmowers": 17814,
    "pipe": 8700,
    "Ġaccur": 3691,
    "perfect": 7634,
    "greatest": 10495,
    "slack": 16895,
    "Ġyou": 366,
    "Ġcable": 11582,
    "despatched": 19804,
    "Ġexistence": 4707,
    "Ġstaves": 21743,
    "Ġeastern": 11631,
    "Ġprivileged": 20116,
    "Ġhatches": 12048,
    "Ġfolios": 23022,
    "especially": 3572,
    "Ġerud": 20058,
    "Ġbern": 17860,
    "Ą": 197,
    "blind": 16703,
    ",âĢĻâĢĶ": 23530,
    "Ġallies": 18268,
    "Ġprotruding": 16660,
    "strong": 6323,
    "shoulder": 16585,
    "arian": 10318,
    "Ġspeeches": 22667,
    "Ġbit": 2965,
    "lived": 12490,
    "prec": 3205,
    "Ġlandless": 23380,
    "tips": 13798,
    "Ġpals": 13920,
    "ĠĠĠĠĠĠĠĠĠĠĠĠĠĠĠĠĠĠĠĠĠĠĠĠĠĠĠĠĠĠĠĠĠĠĠ": 19259,
    "Ġant": 4345,
    "Ġreck": 6538,
    "Ġeager": 3570,
    "Ġguardsmen": 20633,
    "ching": 5156,
    "Ġdiversity": 25285,
    "Ġkramm": 26235,
    "Ġmildly": 9031,
    "Ġmechanisms": 1577,
    "Ġgospel": 18003,
    "Ġdangers": 12357,
    "Ġretirement": 25379,
    "Ġassociates": 24711,
    "Ġon": 350,
    "Ġointment": 21329,
    "waiter": 24588,
    "Ġgames": 11628,
    "socket": 22733,
    "Ġshelves": 14999,
    "Ġbengal": 18783,
    "distinct": 13339,
    "ies": 584,
    "Ġinfinitely": 8965,
    "soldiers": 25912,
    "Ġkid": 9727,
    "Ġcountry": 2530,
    "astonished": 15034,
    "Ġinsular": 19270,
    "Ġerudite": 26353,
    "Ġprovoking": 16744,
    "Ġcards": 7580,
    "Ġbil": 15568,
    "Ġmicrosc": 20679,
    "ago": 14067,
    "Ġanxiety": 5408,
    "buttons": 22406,
    "beings": 12880,
    "Ġdarkened": 16435,
    "Ġlegal": 10440,
    "itance": 13870,
    "Ġpersuading": 19413,
    "Ġfemales": 14939,
    "pair": 21014,
    "Ġparticularly": 5056,
    "clock": 3934,
    "streamed": 25966,
    "Ġic": 9627,
    "projecting": 26074,
    "Ġwondered": 11126,
    "Ġshivering": 10267,
    "Ġpride": 3824,
    "fixed": 7547,
    "leads": 21373,
    "Ġperil": 5556,
    "Ġalacrity": 15740,
    "Ġwitnessed": 14846,
    "Ġhorror": 3773,
    "Ġdefinite": 11070,
    "Ġbad": 3986,
    "Ġnumerical": 4245,
    "supposed": 13319,
    "Ġheaving": 7600,
    "angular": 11726,
    "Ġtyphoons": 20237,
    "ething": 1606,
    "ription": 5676,
    "Ġstandards": 19019,
    "Ġtelescopes": 25691,
    "gi": 17552,
    "Ġroared": 7024,
    "Ġjump": 4503,
    "offered": 14519,
    "Ġsquatted": 25843,
    "Ġdie": 3962,
    "amouch": 21850,
    "preced": 10310,
    "Ġwrite": 3822,
    "Ġindefinitely": 25222,
    "Ġrenow": 18030,
    "Ġmer": 2930,
    "Ġnapole": 15118,
    "Ġiceberg": 14718,
    "eck": 20846,
    "tender": 14475,
    "ign": 1701,
    "Ġfidgeted": 25890,
    "Ġcats": 8981,
    "starbuck": 6020,
    "ć": 200,
    "Ġx": 2074,
    "compared": 24037,
    "stirring": 20429,
    "ht": 375,
    "Ġinvariably": 8065,
    "voyage": 7786,
    "Ġreasoned": 23065,
    "stead": 10847,
    "likes": 18816,
    "shapes": 22452,
    "Ġnurse": 9519,
    "Ġattained": 14080,
    "Ġcolt": 11044,
    "Ġmiserable": 3634,
    "consid": 4925,
    "Ġreached": 4023,
    "ence": 394,
    "Ġsymphony": 26533,
    "Ġabstained": 25232,
    "Ġdenoted": 16567,
    "Ġearthy": 23715,
    "ville": 6088,
    "joy": 3336,
    "Ġobstinacy": 17423,
    "Ġdisgraceful": 15021,
    "Ġinsensibly": 20079,
    "Ġunhappiness": 14119,
    "Ġprodig": 6029,
    "Ġindependent": 9018,
    "Ġslam": 13062,
    "Ġmurdered": 6464,
    "elder": 21576,
    "Ġsolemnly": 8024,
    "hearty": 14836,
    "Ġsupple": 23003,
    "Ġshadows": 8014,
    "Ġaft": 5737,
    "Ġanimated": 7702,
    "Ġexisted": 15756,
    "Ġcabinet": 23864,
    "ill": 447,
    "orative": 21401,
    "lers": 10108,
    "Ġdon": 1616,
    "Ġdodging": 19889,
    "gratification": 24347,
    "Ġfastening": 16359,
    "rages": 15684,
    "6": 26,
    "adm": 7608,
    "despicable": 24639,
    "oses": 3947,
    "Ġderision": 16312,
    "Ġsuggestions": 24452,
    "Ġrede": 13986,
    "Ġforts": 21777,
    "Ġcomposedly": 25184,
    "flinging": 20870,
    "Ġremo": 3786,
    "desp": 6094,
    "ivia": 22083,
    "guilty": 19486,
    "cater": 20818,
    "Ġfilling": 13411,
    "Ġconsequ": 6255,
    "Ġbowed": 6243,
    "benefact": 24642,
    "Ġhundreds": 4328,
    "war": 6802,
    "Ġhospit": 7513,
    "9": 29,
    "ouri": 21451,
    "Ġillness": 8593,
    "arying": 9803,
    "Ġsuicide": 12790,
    "Ġundulates": 24119,
    "nosed": 20994,
    "Ġtipped": 17729,
    "coiled": 16488,
    "Ġbutts": 15858,
    "Ġlabelled": 23332,
    "Ġstoper": 14465,
    "plun": 15822,
    "ipotent": 10957,
    "Ġphil": 3386,
    "Ġmaritime": 23039,
    "Ġlunacy": 20031,
    "net": 1197,
    "Ġ19": 6720,
    "Ġhab": 4219,
    "Ġhappening": 14385,
    "Ġfrance": 7682,
    "Ġsimultaneous": 22593,
    "Ġheighten": 19532,
    "ifferent": 4262,
    "mistaken": 12214,
    "mblings": 19783,
    "Ġcampa": 17175,
    "osely": 9267,
    "Ġsophisticated": 1583,
    "Ġclank": 15973,
    "glance": 16588,
    "church": 8141,
    "Ġdisappears": 18561,
    "Ġobservable": 25129,
    "shadows": 25480,
    "Ġegot": 18010,
    "Ġaccording": 5508,
    "heredit": 21212,
    "Ġlingu": 11616,
    "Ġvexation": 10588,
    "Ġcomstock": 21856,
    "Ġjuly": 17238,
    "heavy": 10576,
    "Ġdismay": 11812,
    "Ġbohem": 8528,
    "Ġformation": 2943,
    "oquent": 12503,
    "leaned": 21372,
    "Ġhint": 5016,
    "Ġdirecting": 16302,
    "Ġcollateral": 20075,
    "Ġflowers": 8942,
    "Ġhum": 1100,
    "machines": 8386,
    "Ġsultanism": 25889,
    "Ġpreferment": 19855,
    "Ġshut": 3943,
    "Ġreaches": 18034,
    "Ġcomprehension": 15089,
    "alled": 5912,
    "Ġholidays": 22926,
    "ĠĠĠĠĠĠĠĠĠĠĠĠĠĠĠĠĠĠĠĠĠĠĠĠĠĠĠĠĠĠĠĠĠĠĠĠĠĠĠĠĠĠĠĠĠĠ": 9955,
    "Ġresemblance": 7974,
    "dipped": 20839,
    "Ġeve": 13972,
    "Ġbroke": 5323,
    "Ġache": 18664,
    "Ġweeping": 11689,
    "Ġhabitu": 19531,
    "Ġattractive": 25576,
    "Ġwearily": 18180,
    "front": 12174,
    "uneven": 23685,
    "Ġresiding": 16064,
    "Ġremonstrance": 20626,
    "fat": 8080,
    "Ġcontinue": 5398,
    "oul": 4699,
    "ancient": 9657,
    "Ġthroat": 7771,
    "Ġbarque": 23793,
    "Ġcreases": 22730,
    "Ġeagerly": 4990,
    "wich": 11545,
    "Ġwand": 4341,
    "Ġscud": 14190,
    "pe": 1437,
    "Ġnin": 10189,
    "Ġcorroborated": 26055,
    "cous": 8725,
    "terbury": 21829,
    "Ġcro": 4874,
    "Ġexpectations": 13146,
    "Ġmeridian": 25713,
    "Ġstript": 23694,
    "aver": 6785,
    "Ġsalesman": 13671,
    "ldog": 21922,
    "Ġbarbara": 24815,
    "Ġabating": 22282,
    "elope": 14463,
    "food": 12467,
    "Ġbedside": 19125,
    "glo": 8741,
    "?--": 15306,
    "Ġguise": 14434,
    "Ġgouldings": 26189,
    "Ġtusks": 17255,
    "Ġvisage": 18763,
    "Ġspectacle": 10498,
    "Ġbe": 336,
    "Ġpall": 7582,
    "Ġclean": 5652,
    "Ġstreaming": 19676,
    "Ġbutt": 14127,
    "Ġthreatening": 16829,
    "Ġaway": 1245,
    "Ġconsolidation": 5060,
    "Ġexplaining": 15963,
    "Ġharm": 5017,
    "Ġpeasant": 13554,
    "Ġonce": 1491,
    "stays": 15691,
    "Ġaxe": 15065,
    "Ġreturning": 5326,
    "leaped": 17845,
    "Ġfrigates": 25707,
    "sized": 15430,
    "circum": 16738,
    "Ġmortar": 19396,
    "Ġdidn": 4362,
    "Ġnod": 1887,
    "Ġrending": 19470,
    "Ġne": 390,
    "ĠĠĠĠĠĠĠĠĠĠĠĠĠĠĠĠĠĠĠĠĠĠĠĠĠĠĠĠ": 9977,
    "Ġhonors": 23603,
    "fic": 20854,
    "Ġquench": 22424,
    "breckinridge": 24077,
    "nineteenth": 26139,
    "atum": 21262,
    "Ġextremity": 8990,
    "Ġlarboard": 11010,
    "belongs": 25597,
    "Ġcompares": 20169,
    "Ġhaunts": 18199,
    "vital": 17701,
    "Ġpopulation": 16828,
    "terms": 15754,
    "Ġunsub": 22026,
    "achable": 14139,
    "Ġlightly": 13087,
    "Ġwonders": 7499,
    "Ġsoothe": 7404,
    "Ġfloor": 4378,
    "Ġriv": 10747,
    "Ġcounteracted": 19864,
    "opic": 22481,
    "bery": 9789,
    "aphs": 22340,
    "sch": 21053,
    "Ġovertake": 15967,
    "Ġprevented": 5943,
    "eldom": 4413,
    "Ġpiling": 17911,
    "forest": 22523,
    "circumamb": 26088,
    "retrie": 18926,
    "buck": 17492,
    "Ġincarnate": 20378,
    "Ġperiod": 4003,
    "Ġmeasuring": 22886,
    "Ġproportionably": 19974,
    "warmly": 25029,
    "Ġfrosted": 19806,
    "ression": 3406,
    "perai": 10278,
    "esc": 618,
    "Ġcharnel": 22257,
    "Ġaccompanied": 6780,
    "Ġcottages": 14729,
    "rusted": 16508,
    "roof": 17956,
    "sincerely": 24586,
    "removed": 15518,
    "metals": 24765,
    "ickory": 22673,
    "enesis": 24387,
    "Ġdreaded": 8290,
    "Ġoverhanging": 22356,
    "Ġdoubt": 2223,
    "Ġharder": 14451,
    "extraordinary": 9097,
    "observed": 7675,
    "singing": 24362,
    "spell": 22736,
    "ison": 3078,
    "Ġaslant": 21906,
    "Ġlocations": 12416,
    "Ġinvulnerable": 19148,
    "Ġpresume": 8039,
    "coff": 9111,
    "Ġfore": 2155,
    "Ġkink": 22198,
    "Ġcompat": 2938,
    "Ġtheirs": 7025,
    "Ġtorrid": 25035,
    "Ġbackwoods": 22652,
    "Ġcomb": 1048,
    "umed": 6555,
    "eping": 5834,
    "amore": 21848,
    "Ġbone": 4695,
    "acquired": 24297,
    "Ġcause": 2411,
    "ĠĠĠĠĠĠĠĠĠĠĠĠĠĠĠĠĠĠĠĠĠĠĠĠĠĠĠĠĠĠĠ": 19703,
    "turbable": 24530,
    "Ġentire": 2558,
    "Ġintegr": 7970,
    "Ġubiqu": 18046,
    "Ġfleecy": 17024,
    "Ġlistened": 4469,
    "wouldn": 23538,
    "corrupt": 14897,
    "drew": 7333,
    "ined": 1259,
    "Ġcommended": 18657,
    "urons": 3134,
    "shame": 16022,
    "insensibility": 23074,
    "o": 83,
    "heartily": 24217,
    "question": 5418,
    "cro": 13699,
    "Ġth": 299,
    "Ġbrood": 23105,
    "sec": 6153,
    "Ġerect": 6144,
    "shr": 10979,
    "rimshander": 20659,
    "unlike": 18159,
    "Ġblundering": 26285,
    "arranging": 19320,
    "bell": 7331,
    "Ġgrievances": 20650,
    "Ġdescends": 14289,
    "Ġdisasters": 16057,
    "Ġunlock": 18241,
    "Ġimmensely": 13598,
    "Ġimbib": 22180,
    "warn": 11544,
    "replied": 11567,
    "gg": 1995,
    "Ġscience": 1565,
    "pth": 2381,
    "Ġmaids": 19694,
    "Ġcharacters": 9374,
    "Ġmend": 8408,
    "Ġcock": 11001,
    "Ġjetted": 24430,
    "Ġothers": 2581,
    "Ġexpl": 488,
    "Ġspire": 18307,
    "Ġfluffy": 19367,
    "Ġessence": 13408,
    "drown": 13707,
    "Ġpromontory": 11944,
    "our": 534,
    "Ġattent": 4360,
    "Ġsmells": 8893,
    "Ġfortnight": 6201,
    "prehensible": 12363,
    "atched": 6375,
    "posture": 16928,
    "queen": 12731,
    "Ġsubdivisions": 26038,
    "vil": 2731,
    "Ġtenement": 23550,
    "door": 6194,
    "Ġbush": 23339,
    "untarily": 6313,
    "Ġknee": 7094,
    "Ġpresided": 20210,
    "Ġaffection": 2638,
    "acknowledged": 15205,
    "Ġharbor": 10029,
    "Ġcovered": 5171,
    "declared": 15121,
    "Ġconverts": 2807,
    "Ġmultitudinous": 26275,
    "mis": 4520,
    "anely": 17838,
    "Ġfortunate": 6215,
    "sunlight": 24852,
    "Ġvine": 8473,
    "invariably": 26417,
    "suspicious": 25391,
    "Ġdevil": 3613,
    "drove": 16994,
    "Ġcrosswise": 18887,
    "deed": 1519,
    "Ġelated": 18633,
    ".âĢĶâĢľ": 20749,
    "âĢĶ_": 3204,
    "l": 80,
    "Ġjoys": 13224,
    "Ġfanning": 23391,
    "Ġpeleg": 3739,
    "keys": 15861,
    "Ġ35": 24079,
    "hearts": 13348,
    "Ġpredestinated": 18530,
    "Ġpart": 859,
    "Ġpossessor": 23827,
    "exclaimed": 11793,
    "lean": 21368,
    "usations": 15950,
    "Ġglim": 9345,
    "west": 10740,
    "illed": 2623,
    "hunsford": 24385,
    "Ġprogram": 12997,
    "Ġcomputers": 2644,
    "anguish": 15986,
    "aul": 6353,
    "Ġmoot": 22437,
    "accomplished": 17213,
    "Ġsearch": 2589,
    "Ġjerking": 12249,
    "Ġuncertain": 4067,
    "Ġrum": 5925,
    "Ġstile": 21737,
    "Ġcin": 13877,
    "umbers": 10919,
    "Ġsaying": 3246,
    "Ġdigesting": 19812,
    "Ġdesperation": 19821,
    "ortunity": 4403,
    "Ġoriginated": 24123,
    "advise": 24219,
    "Ġprair": 7747,
    "Ġraft": 16120,
    "ariously": 18527,
    "pute": 8848,
    "Ġrejoiced": 8687,
    "venerable": 26409,
    "Ġdispersed": 16598,
    "Ġenraptured": 26501,
    "removing": 17765,
    "Ġalleged": 17292,
    "Ġgrat": 4056,
    "Ġhate": 5445,
    "Ġcommunicates": 24546,
    "Ġresent": 6050,
    "Ġescaping": 13138,
    "stop": 11636,
    "Ġgrows": 4985,
    "Ġprepared": 5878,
    "doors": 19096,
    "Ġintuitions": 17343,
    "&": 10,
    "Ġsturgeon": 20595,
    "Ġelement": 6896,
    "Ġdrowning": 19906,
    "requiem": 24857,
    "Ġjoll": 11768,
    "runs": 25416,
    "Ġmother": 2067,
    "uiperai": 10665,
    "Ġfailure": 13318,
    "Ġordinary": 6098,
    "stave": 21647,
    "5": 25,
    "Ġtheories": 13851,
    "Ġagony": 5388,
    "Ġobsequious": 17406,
    "Ġdecently": 22456,
    "Ġcripp": 9655,
    "Ġhumorous": 10362,
    "Ġchilled": 18383,
    "elephant": 12354,
    "Ġhand": 858,
    "ince": 4339,
    "Ġwild": 2601,
    "Ġdiscove": 16158,
    "Ġcorrection": 5062,
    "inarticulate": 21198,
    "ivory": 10271,
    "ions": 449,
    "Ġrecklessness": 24744,
    "nx": 17608,
    "Ġmess": 7832,
    "Ġpleated": 16299,
    "dom": 6223,
    "bergs": 18682,
    "Ġconcerning": 4068,
    "Ġvoice": 2191,
    "Ġstrings": 11832,
    "Ġharbors": 24902,
    "hilar": 25084,
    "nothing": 3157,
    "Ġbarricade": 14661,
    "pits": 15414,
    "Ġnamely": 20692,
    "Ġcrevice": 22732,
    "Ġtorch": 25033,
    "etymology": 14703,
    "Ġdoubloon": 6944,
    "Ġallows": 3235,
    "uses": 11764,
    "ily": 1034,
    "?âĢĶ": 3468,
    "Ġimpet": 11782,
    "é": 170,
    "Ġharmless": 9967,
    "Ġsatisfaction": 5667,
    "Ġgretna": 26469,
    "Ġaverage": 3143,
    "Ġcatches": 23430,
    "04": 10681,
    "Ġoverlapping": 26240,
    "mming": 1175,
    "Ġobserv": 8589,
    "Ġmicroscopic": 26375,
    "Ġdegener": 14049,
    "Ġactor": 16051,
    "tornadoes": 26154,
    "wins": 21132,
    "Ġcrony": 23441,
    "Ġcalculate": 13267,
    "Ġmabel": 17326,
    "ers": 406,
    "Ġsuit": 5725,
    "conv": 7212,
    "Ġlivel": 11356,
    "repairing": 24494,
    "offended": 16398,
    "Ġunprofitable": 18265,
    "Ġmanly": 22329,
    "Ġmizzen": 20292,
    "Ġgracefully": 13394,
    "Ġpassionate": 11274,
    "inforcement": 3003,
    "Ġpine": 8800,
    "before": 3117,
    "Ġcheek": 8579,
    "grat": 5052,
    "Ġunduly": 25995,
    "iracle": 11245,
    "rane": 17654,
    "Ġunwillingness": 20035,
    "Ġsamples": 2963,
    "programming": 10065,
    "Ġscoundrel": 13673,
    "Ġrobbery": 11924,
    "oices": 7347,
    "Ġbeams": 14632,
    "Ġslammed": 20451,
    "Ġordained": 19448,
    "Ġpredicts": 2594,
    "Ġtax": 13818,
    "seldom": 13789,
    "Ġassurance": 7775,
    "usation": 18402,
    "definition": 23124,
    "rrh": 26145,
    "smith": 5669,
    "Ġflag": 7241,
    "Ġinstant": 2704,
    "Ġdeliverer": 11953,
    "Ġbasement": 24701,
    "Ġindiam": 22957,
    "going": 6314,
    "surrounded": 26089,
    "thirds": 25049,
    "--------": 14784,
    "wel": 6118,
    "contained": 22472,
    "match": 15393,
    "Ġrobbed": 23041,
    "Ġpersistence": 3024,
    "mbly": 9796,
    "Ġdart": 4585,
    "is": 280,
    "Ġcomes": 3424,
    "ution": 4349,
    "creat": 20802,
    "athered": 6972,
    "Ĝ": 221,
    "Ġsalutations": 25383,
    "acetty": 24463,
    "Ġcowards": 12577,
    "Ġbeating": 8146,
    "ications": 4445,
    "Ġoffering": 3008,
    "Ġsummar": 3525,
    "icket": 22672,
    "Ġnoble": 3441,
    "wrapped": 15212,
    "Ġhardest": 18914,
    "Ġscound": 12835,
    "Ġbushes": 16401,
    "Ġvess": 3295,
    "Ġfloat": 12035,
    "yours": 7695,
    "wling": 11546,
    "Ġhull": 5446,
    "ria": 15801,
    "Ġsir": 1570,
    "Ġpretensions": 16559,
    "Ġpanelled": 19657,
    "houn": 20895,
    "excellent": 8045,
    "new": 1466,
    "Ġsixteen": 8284,
    "Ġastonishing": 10503,
    "screwed": 17189,
    "brought": 7284,
    "Ġrecklessly": 16984,
    "iom": 20917,
    "ipl": 20920,
    "Ġfoot": 3165,
    "Ġclattering": 22366,
    "drowned": 17371,
    "io": 3803,
    "hester": 9633,
    "astrous": 15889,
    ").âĢĿ": 20743,
    "Ġfacts": 2290,
    "harm": 13737,
    "Ġbest": 1971,
    "Ġabstracted": 17184,
    "conditionally": 24835,
    "Ġprotruded": 19473,
    "bes": 6643,
    "appeared": 4281,
    "Ġacts": 2296,
    "Ġcomposition": 1687,
    "glorious": 19370,
    "mechan": 11860,
    "queness": 18150,
    "Ġinher": 10181,
    "Ġclink": 22360,
    "Ġfan": 2035,
    "Ġperceive": 6700,
    "Ġdownright": 16121,
    "Ġchemist": 11135,
    "Ġstick": 6027,
    "omination": 21666,
    "ists": 3999,
    "erated": 21273,
    "nurtured": 25525,
    "Ġsuccession": 12105,
    "Ġprivilege": 11420,
    "Ġbagging": 24538,
    "Ġdepressed": 10883,
    "daw": 17523,
    "Ġbegan": 2020,
    "sy": 2813,
    "Ġperiodical": 14774,
    "Ġord": 3736,
    "simp": 17666,
    "Ġstowed": 21741,
    "Ġwaiter": 16429,
    "fa": 7335,
    "Ġpalm": 10515,
    "Ġdated": 10939,
    "Ġsecond": 1879,
    "regret": 16450,
    "Ġshining": 8173,
    "ured": 1656,
    "Ġcame": 1297,
    "erve": 12553,
    "creator": 26382,
    "Ġstranded": 9777,
    "Ġplat": 8522,
    "illa": 12797,
    "Ġnoon": 6560,
    "extinguished": 16153,
    "ile": 520,
    "Ġsavage": 4010,
    "Ġemployer": 19435,
    "Ġwaste": 9236,
    "Ġdefects": 12336,
    "Ġhalls": 19528,
    "Ġsand": 6236,
    "Ġadm": 2402,
    "same": 5362,
    "v": 90,
    "eli": 3876,
    "Ġsymph": 22208,
    "ld": 385,
    "Ġstam": 18068,
    "hunt": 20905,
    "clean": 14762,
    "itives": 17821,
    "Ġshivered": 14110,
    "Ġjenny": 20165,
    "erest": 10698,
    "Ġverge": 23890,
    "Ġunpleasant": 7190,
    "relu": 17760,
    "Ġpul": 2040,
    "Ġreview": 18033,
    "Ġshades": 9465,
    "companion": 9559,
    "ris": 9139,
    "anous": 21362,
    "press": 1732,
    "please": 8180,
    "jet": 13744,
    "emorial": 10243,
    "spersed": 22739,
    "Ġadmired": 7983,
    "Ġphaet": 16320,
    "furniture": 20245,
    "strom": 15686,
    "Ġdoors": 6418,
    "Ġcoal": 18592,
    "ued": 7560,
    "Ġgathers": 24742,
    "educated": 17261,
    "------": 12137,
    "Ġfaire": 13368,
    "Ġcreating": 2996,
    "pit": 3982,
    "Ġloose": 4648,
    "thodox": 21993,
    "Ġbeale": 12703,
    "Ġfellow": 2778,
    "sp": 894,
    "Ġblowing": 10486,
    "Ġunfathomable": 20551,
    "Ġdodo": 9074,
    "Ġspacious": 18313,
    "alog": 8808,
    "Ġforeshad": 23454,
    "Ġbeauty": 3769,
    "Ġ47": 14773,
    "Ġrailway": 15022,
    "baboon": 25517,
    "bestow": 16930,
    "Ġsex": 8845,
    "organic": 25947,
    "Ġbravely": 23842,
    "mock": 5174,
    "plicable": 10258,
    "harpooneers": 8693,
    "unction": 10236,
    "Ġ17": 5740,
    "Ġunderground": 18985,
    "Ġreveren": 13200,
    "Ġlikelihood": 16502,
    "Ġmurmur": 14590,
    "hence": 16626,
    "Ġignominy": 15088,
    "Ġtrained": 8504,
    "path": 10120,
    "ompl": 4535,
    "drifting": 19827,
    "Ġslack": 8957,
    "[_": 5131,
    "Ġbodily": 6107,
    "Ġchristendom": 16695,
    "view": 5897,
    "Ġinequalities": 26454,
    "Ġaffirm": 11890,
    "Ġastir": 14641,
    "Ġrigid": 16717,
    "Ġland": 1996,
    "supposing": 24136,
    "Ġtestament": 23216,
    "Ġtrailing": 23084,
    "ilege": 22261,
    "Ġevap": 19626,
    "Ġcocaine": 20723,
    "Ġdesertion": 24786,
    "private": 13585,
    "Ġannealing": 1554,
    "Ġcombines": 1147,
    "imson": 12693,
    "Ġtoiling": 15638,
    "Ġcupidity": 24534,
    "warmest": 25030,
    "Ġperformance": 1304,
    "absurd": 21800,
    "ressed": 3023,
    "Ġgardens": 16452,
    "Ġdark": 2113,
    "strangely": 17278,
    "Ġtouches": 20573,
    "surprised": 9533,
    "Ġtropics": 17066,
    "erc": 5906,
    "_--": 20764,
    "Ġcomplied": 14736,
    "igning": 12686,
    "Ġunceasingly": 20362,
    "Ġsuffoc": 18871,
    "Ġmoby": 3665,
    "thirty": 12766,
    "Ġtol": 6676,
    "Ġ1825": 25719,
    "Ġnaval": 16900,
    "Ġstoried": 18075,
    "Ġsanctified": 25883,
    "Ġyellow": 5302,
    "immortal": 21714,
    "Ġagreeably": 24955,
    "Ġjup": 15955,
    "Ġcyp": 21348,
    "Ġwidely": 8034,
    "Ġalman": 21786,
    "Ġdiscoveries": 13362,
    "unconquerable": 21896,
    "contents": 12061,
    "Ġcomplet": 4423,
    "rest": 1635,
    "Ġfreshness": 23991,
    "mmet": 10989,
    "Ġbennet": 1576,
    "Ġconnex": 10667,
    "commencement": 26350,
    "zza": 24169,
    "heavily": 24533,
    "mat": 2199,
    "reigned": 21245,
    "Ġpot": 2990,
    "Ġunpitying": 25661,
    "affection": 7486,
    "Ġconnect": 799,
    "Ġreminiscences": 26271,
    "Ġcups": 16883,
    "Ġinheritance": 25356,
    "Ġpersever": 10005,
    "theirs": 23604,
    "Ġarray": 12814,
    "deficient": 23123,
    "Ġboughs": 20492,
    "Ġwides": 17790,
    "Ġugly": 8719,
    "Ġwicked": 5962,
    "Ġtipt": 21176,
    "farmer": 25900,
    "Ġaudacity": 19884,
    "venison": 22632,
    "Ġremain": 1871,
    "ishments": 9275,
    "Ġhus": 3096,
    "´": 117,
    "Ġbulb": 23858,
    "Ġdeftly": 26494,
    "striking": 13443,
    "tailed": 17686,
    "Ġbedford": 7474,
    "gentleness": 24845,
    "establish": 17395,
    "Ġsembl": 19061,
    "ternatural": 12719,
    "uous": 4144,
    "Ġcheery": 16372,
    "advent": 10222,
    "Ġyelled": 9696,
    "rinted": 21046,
    "haz": 17565,
    "ato": 17770,
    "atever": 3083,
    "Ġsurely": 6308,
    "Ġflight": 6581,
    "recollected": 25348,
    "Ġintercepted": 25828,
    "Ġbread": 5404,
    "icates": 11619,
    "Ġrefine": 3141,
    "Ġgrinned": 16858,
    "izes": 884,
    "Ġfrantic": 7958,
    "petulance": 24300,
    "biting": 20783,
    "attributed": 23126,
    "12": 20751,
    "Ġsmoothe": 23658,
    "Ġcracked": 8597,
    "eman": 5636,
    "Ġrio": 23894,
    "Ġgown": 10203,
    "Ġconfederate": 17355,
    "Ġsp": 457,
    "neck": 14242,
    "Ġprocedure": 2811,
    "Ġaf": 785,
    "Ġundersampling": 19521,
    "Ġconsequences": 11336,
    "Ġspaniard": 20366,
    "Ġscalding": 16308,
    "acup": 14280,
    "mblance": 7322,
    "Ġrecoil": 18691,
    "lement": 10168,
    "Ġcommunity": 19010,
    "pretend": 24883,
    "Ġquietly": 4566,
    "gallant": 7781,
    "Ġfurnace": 19443,
    "fastened": 19327,
    "bureau": 20791,
    "Ġmau": 21313,
    "Ġcoin": 9773,
    "Ġdusky": 13552,
    "Ġnext": 2142,
    "Ġsly": 9634,
    "difficulty": 12393,
    ",âĢĿ": 581,
    "Ġmaxim": 3089,
    "Ġhandsomer": 20336,
    "Ġuncounted": 19118,
    "ban": 9586,
    "Ġexploration": 2337,
    "taken": 7559,
    "Ġdavy": 25952,
    "illation": 14143,
    "Ġportable": 19373,
    "Ġembod": 14414,
    "Ġrheumatic": 20707,
    "punct": 20195,
    "Ġwrinkles": 8573,
    "Ġmiscellaneous": 17464,
    "py": 17625,
    "Ġcam": 10163,
    "encoura": 15050,
    "Ġbushy": 16402,
    "Ġharpooneer": 3772,
    "fect": 2301,
    "shake": 22445,
    "Ġextinct": 14339,
    "height": 21208,
    "Ġclothing": 18430,
    "wandered": 20288,
    "Ġvirtuous": 14757,
    "Ġresisted": 22546,
    "have": 2057,
    "erland": 9642,
    "ux": 7814,
    "geon": 6270,
    "Ġthre": 2058,
    "Ġflattening": 26049,
    "Ġverify": 12091,
    "visited": 13351,
    "antucket": 2643,
    "Ġpair": 5706,
    "hil": 8380,
    "Ġstandard": 14498,
    "Ġhood": 10824,
    "prop": 1025,
    "opened": 7915,
    "Ġadd": 630,
    "Ġsearching": 13165,
    "ulate": 5233,
    "Ġveneration": 25047,
    "Ġpersecutor": 26097,
    "Ġenorm": 5304,
    "Ġbeneath": 3239,
    "Ġmerc": 9428,
    "Ġreverend": 15262,
    "binder": 17501,
    "Ġports": 10819,
    "Ġspokes": 18314,
    "formal": 14172,
    "tormented": 13648,
    "Ġsickness": 10540,
    "Ġdefence": 11068,
    "Ġsuperlatively": 26076,
    "Ġtallest": 15476,
    "summoned": 26592,
    "Ġdews": 21842,
    "Ġgardener": 19136,
    "Ġroses": 11789,
    "ready": 2361,
    "Ġminers": 22840,
    "Ġsust": 7007,
    "unknown": 10891,
    "Ġpistol": 7848,
    "Ġstained": 11654,
    "Ġ7": 4745,
    "Ġpyramid": 8805,
    "Ġrumors": 11322,
    "Ġhuzza": 12637,
    "Ġpigeon": 9518,
    "Ġrelapses": 26280,
    "Ġsimon": 5172,
    "Ġtermination": 16462,
    "iards": 17575,
    "const": 5940,
    "Ġincompetent": 25680,
    "Ġunc": 2125,
    "irty": 4049,
    "sudden": 5316,
    "boscombe": 26122,
    "Ġdevilish": 11229,
    "Ġentertain": 6055,
    "âĢĶâĢľ_": 13207,
    "Ġgas": 8134,
    "obstructed": 15229,
    "Ġcongratulate": 9065,
    "Ġtap": 12530,
    "Ġcomplacency": 19451,
    "Ġlug": 15655,
    "bones": 8373,
    "Ġpo": 736,
    "omited": 21665,
    "answ": 15887,
    "Ġt": 261,
    "Ġimpreg": 15990,
    ".}": 20747,
    "Ġprocopius": 19733,
    "imagination": 13483,
    "Ġparcels": 25466,
    "Ġwonderful": 4562,
    "8": 28,
    "Ġsacrificial": 24872,
    "Ġyouthful": 16724,
    "Ġporter": 15614,
    "Ġlengthened": 25959,
    "sticks": 25965,
    "Ġcolumbus": 26565,
    "Ġwick": 2004,
    "maged": 15396,
    "irts": 9240,
    "Ġnightfall": 23136,
    "izing": 1067,
    "Ġdivulged": 16650,
    "orum": 12594,
    "thoroughly": 26509,
    "Ġxviii": 23413,
    "wand": 10739,
    "Ġsaratoga": 26424,
    "Ó": 148,
    "Ġnevertheless": 5040,
    "¯": 112,
    "sor": 7351,
    "Ġrecursive": 4782,
    "alth": 3257,
    "oved": 5215,
    "Ġcautiously": 16978,
    "Ġvelvets": 25394,
    "osp": 6853,
    "otic": 15748,
    "wore": 21127,
    "Ġcareful": 2611,
    "Ġwitness": 4621,
    "inde": 17732,
    "Ġcontentment": 14872,
    "Ġpretend": 7722,
    "eastern": 17534,
    "Ġlose": 5028,
    "stein": 5505,
    "?âĢĿâĢĶ": 12899,
    "Ġtrim": 15980,
    "Ġtorture": 9067,
    "Ġrh": 9246,
    "Ġes": 8773,
    "squee": 15432,
    "Ġpupp": 10821,
    "Ġsurpr": 2549,
    "Ġwhoever": 10976,
    "Ġbite": 10798,
    "science": 11912,
    "Ġsur": 2184,
    "chorus": 19814,
    "Ġgreek": 10632,
    "Ġgeneration": 2133,
    "Ġthursday": 12648,
    "Ġpossesses": 19355,
    "Ġscheduling": 2350,
    "bul": 6950,
    "Ġtinker": 15134,
    "Ġcries": 7154,
    "Ġmalignity": 10558,
    "Ġsurmises": 17055,
    "Ġworms": 25217,
    "Ġfirm": 3873,
    "Ġidler": 16405,
    "Ġrascal": 11703,
    "Ġdiminish": 14747,
    "Ġembark": 8559,
    "õ": 182,
    "Ġturtle": 4204,
    "Ġdesc": 772,
    "itation": 1780,
    "Ġundo": 15843,
    "Ġseventh": 18205,
    "âĢľ_": 5720,
    "Ġwardrobe": 17227,
    "Ġfeasts": 25370,
    "rossing": 18641,
    "Ġalter": 6543,
    "wealth": 22692,
    "Ġallow": 1128,
    "Ġshovel": 23495,
    "helmsman": 24288,
    "salis": 25150,
    "magnetic": 20555,
    "Ġsli": 4748,
    "Ġcontinent": 14890,
    "totally": 25418,
    "Ġfrequ": 3328,
    "Ġphys": 5653,
    "painter": 24897,
    "Ġbacked": 12927,
    "dimly": 15349,
    "Ġtables": 9880,
    "Ġpoltroon": 26599,
    "Ġquakers": 22421,
    "Ġaware": 5756,
    "kov": 17587,
    "Ġstirring": 10581,
    "ignominious": 26588,
    "Ġstyled": 24672,
    "etite": 21583,
    "piece": 6657,
    "Ġcoals": 16076,
    "Ġwhisker": 23938,
    "Ġdemon": 7871,
    "judges": 19576,
    "Ġpeddling": 21485,
    "Ġmelbourne": 24290,
    "row": 1066,
    "Ġcommonest": 23094,
    "Ġload": 14147,
    "collinses": 19925,
    "Ġpeering": 8536,
    "Ġbrawn": 10483,
    "Ġbonds": 17871,
    "Ġunp": 12775,
    "Ġenig": 15802,
    "hon": 6793,
    "preserver": 20216,
    "Ġperdition": 15995,
    "Ġspitzbergen": 15290,
    "Ġsap": 18324,
    "Ġmiser": 18704,
    "meanwhile": 10611,
    "Ġestate": 6317,
    "Ġalbatross": 10872,
    "balance": 12009,
    "Ġclosely": 6488,
    "Ġcontraction": 16011,
    "Ġmine": 3183,
    "bo": 1690,
    "renew": 24449,
    "fitzwilliam": 11353,
    "meetings": 20381,
    "Ġsoliloquized": 17304,
    "Ġreceptive": 1563,
    "Ġexplained": 5937,
    "Ġreliance": 14387,
    "Ġsensitiveness": 23737,
    "Ġprincipally": 11310,
    "Ġpert": 22400,
    "tempered": 13449,
    "Ġbonnet": 10657,
    "Ġdiffers": 23783,
    "sou": 12509,
    "Ġpurp": 2391,
    "Ġsunwards": 19013,
    "Ġsprang": 5064,
    "Ġanatomical": 15079,
    "carb": 20812,
    "despairing": 25077,
    "Ġmoul": 15547,
    "Ġhud": 10823,
    "Ġenter": 4030,
    "Ġagitation": 6864,
    "gris": 8261,
    "endurable": 22226,
    "Ġcitadel": 25439,
    "pt": 387,
    "analysis": 26174,
    "game": 11492,
    "ken": 2803,
    "nal": 1899,
    "telesc": 22822,
    "aving": 2407,
    "Ġbanquet": 15243,
    "âĢľ": 344,
    "Ġvocabulary": 4995,
    "machine": 985,
    "physiogn": 26266,
    "threshold": 21992,
    "mon": 2309,
    "Ġsyntax": 958,
    "Ġwindibank": 7256,
    "Ġinfluence": 5515,
    "Ġbethinking": 25280,
    "Ġfare": 5810,
    "Ġlantern": 7117,
    "C": 39,
    "acency": 12912,
    "Ġshroud": 6483,
    "nson": 16096,
    "Ġbeaks": 21760,
    "augmented": 26288,
    "Ġexult": 10231,
    "Ġindefatigable": 17179,
    "Ġout": 543,
    "Ġlassitude": 20590,
    "Ġaperture": 26161,
    "Ġcreaking": 14331,
    "Ġweigh": 10895,
    "Ġwhaleman": 4654,
    "Ġpatriot": 23280,
    "Ġbrotherhood": 23670,
    "Ġsecret": 3721,
    "Ġstudy": 1752,
    "paus": 13775,
    "Ġate": 8843,
    "boil": 19000,
    "cigar": 26125,
    "three": 5239,
    "Ġsenseless": 12082,
    "Ġjurymen": 16848,
    "Ġrigging": 5600,
    "Ġsocks": 14135,
    "value": 18812,
    "Ġborrowed": 17231,
    "disagreeable": 11164,
    "edged": 15634,
    "Ġcoloured": 11045,
    "Ġprefers": 20517,
    "Ġplanet": 14752,
    "playful": 24356,
    "Ġpron": 6451,
    "Ġconversation": 3331,
    "Ġgans": 5822,
    "hun": 5210,
    "Ġvillainous": 25134,
    "Ġmisgiv": 14347,
    "anch": 15563,
    "Ġnobly": 22246,
    "come": 2377,
    "Ġlordly": 23746,
    "Ġram": 11014,
    "Ġsiam": 13840,
    "pron": 9008,
    "Ġgoin": 18470,
    "objections": 19918,
    "Ġguardian": 14944,
    "altogether": 12643,
    "resnet": 4069,
    "Ġfagged": 17884,
    "list": 7550,
    "flatter": 23970,
    "Ġfourth": 7707,
    "Ġdestructive": 23490,
    "Ġheads": 3741,
    "ral": 4627,
    "Ġabilities": 8870,
    "Ġmedit": 8026,
    "inqu": 6122,
    "Ġdisengaged": 12893,
    "Ġsund": 8250,
    "anse": 12579,
    "Ġoarsmen": 7738,
    "Ġprematurely": 24009,
    "Ġsaxon": 25469,
    "Ġfoolishly": 19785,
    "pick": 17635,
    "deemed": 18316,
    "Ġfancied": 7325,
    "Ġexcepting": 14681,
    "Ġexcite": 11969,
    "wanderer": 25424,
    "byter": 16216,
    "Ġrelevant": 1862,
    "questions": 16761,
    "glimmer": 26323,
    "Ġheroes": 10578,
    "Ġhadn": 9721,
    "Ġpod": 15607,
    "Ġbash": 12590,
    "eluded": 21579,
    "iece": 3231,
    "ounce": 6558,
    "Ġmerit": 9429,
    "Ġdiscoverer": 26036,
    "Ġshoving": 23493,
    "Ġcolossal": 11460,
    "Ġwink": 11571,
    "geese": 22369,
    "oga": 22702,
    "Ġpitches": 23905,
    "ernsey": 8901,
    "Ġinnocently": 24032,
    "Ġ115": 24438,
    "Ġmatters": 4974,
    "Ġkind": 1785,
    "Ġdiffidence": 14660,
    "Ġpref": 14173,
    "Ġlanguages": 1568,
    "Ġought": 3420,
    "Ġwooded": 23523,
    "Ġheaded": 11055,
    "Ġundeserving": 18266,
    "Ġcriminals": 19924,
    "aced": 2408,
    "Ġburns": 16524,
    "Ġpopular": 6217,
    "Ġpallid": 12302,
    "Ġscheme": 7065,
    "Ġenchant": 7184,
    "pigs": 17142,
    "Ġflock": 21415,
    "Ġkrusenstern": 20716,
    "really": 6971,
    "ask": 856,
    "Ġmature": 17801,
    "Ġtranslations": 12055,
    "Ġglory": 6066,
    "±": 114,
    "ignation": 11129,
    "clam": 13059,
    "Ġsitting": 3604,
    "Ġce": 3032,
    "ume": 4836,
    "Ġnich": 21524,
    "Ġhaze": 18197,
    "Ġtattered": 21174,
    "Ġremoved": 5275,
    "Ġlazarus": 15030,
    "Ġnewcomers": 26042,
    "Ġconsole": 8152,
    "ude": 7561,
    ",âĢĶâĢľ": 10072,
    "strils": 10459,
    "imin": 1769,
    "Ġmorphology": 3011,
    "painful": 13504,
    "repeating": 20132,
    "Ġserv": 3329,
    "Ġanalytical": 22914,
    "Ġad": 443,
    "encies": 4079,
    "Ġstrength": 4259,
    "Ġprof": 2460,
    "ezing": 10575,
    "Ġfull": 2179,
    "Ġseethings": 26504,
    "valued": 2856,
    "maybe": 23994,
    "torn": 17683,
    "ember": 1953,
    "Ġbanished": 10618,
    "Ġsupreme": 13610,
    "Ġpolic": 13164,
    "serve": 13051,
    "achel": 7033,
    "Ġmacro": 25940,
    "Ġeternally": 11370,
    "ĠĠĠĠĠĠĠĠ": 710,
    "Ġd": 284,
    "blue": 13696,
    "Ġunsophisticated": 25993,
    "Ġbedfellows": 23448,
    "Ġbapt": 13898,
    "showed": 16025,
    "Ġlibrary": 6423,
    "deceptive": 22153,
    "Ġearn": 3547,
    "Ġmoreover": 6164,
    "Ġcalamity": 17351,
    "Ġfeet": 2258,
    "||": 4870,
    "complaisance": 24808,
    "Ġterminated": 23513,
    "Ġextended": 7926,
    "day": 1856,
    "Ġearth": 2853,
    "anc": 6379,
    "ologies": 18768,
    "Ġassuring": 13068,
    "Ġconfusion": 7272,
    "Ġdealer": 23980,
    "bet": 6110,
    "Ġlydia": 2374,
    "Ġshorter": 4498,
    "Ġfoam": 6890,
    "Ġdiscrimin": 2544,
    "Ġadvised": 16208,
    "Ġmonsters": 11075,
    "disappearing": 23506,
    "Ġunkindness": 22045,
    "observation": 17271,
    "ivery": 17573,
    "Ġrelied": 16197,
    "Ġwonderfully": 10431,
    "Ġoffence": 12948,
    "Ġbetrayed": 9563,
    "impenetrable": 26198,
    "ivility": 12791,
    "Ġemail": 19074,
    "Ġindistinct": 17410,
    "means": 9788,
    "Ġdefile": 18825,
    "Ġbegrim": 23019,
    "Ġmathemat": 3206,
    "Ġsculpt": 15948,
    "achalot": 15866,
    "Ġdisp": 3360,
    "impulse": 20647,
    "İ": 241,
    "Ġbabel": 24425,
    "ble": 542,
    "Ġoars": 3900,
    "Ġstumbling": 21747,
    "/": 19,
    "angled": 6843,
    "utted": 15664,
    "Ġmalignant": 14880,
    "remaining": 20223,
    "gration": 9123,
    "facts": 19845,
    "Ġyields": 19659,
    "hog": 8381,
    "Ġcovering": 13258,
    "Ġremarked": 3696,
    "Ġtrain": 515,
    "Ġmorality": 22977,
    "asted": 4649,
    "librarian": 26569,
    "naturally": 14560,
    "Ġattend": 5035,
    "Ġfact": 1729,
    "Ġparliament": 18303,
    "Ġminute": 4278,
    "spr": 7434,
    "Ġseldom": 4629,
    "gryphon": 15361,
    "Ġridges": 16732,
    "Ġadapts": 3818,
    "Ġringle": 18211,
    "Ġkra": 18349,
    "trap": 24333,
    "ulity": 10887,
    "laz": 15388,
    "doubtful": 24790,
    "queens": 22910,
    "Ġecstasy": 11632,
    "Ġdreamt": 23942,
    "bit": 3933,
    "Ġhav": 12758,
    "Ġpunctil": 20117,
    "Ġabsolute": 6765,
    "Ġpursuers": 13230,
    "had": 1948,
    "Ġravines": 25833,
    "Ġlens": 8440,
    "Ġjoyously": 19350,
    "residual": 19263,
    "five": 6357,
    "Ġyours": 4123,
    "base": 20779,
    "Ġakin": 15497,
    "Ġamusing": 11803,
    "Ġpens": 21463,
    "antial": 8489,
    "Ġforeman": 23449,
    "din": 8375,
    "Ġdrunk": 9426,
    "suspicions": 25392,
    "Ġapt": 9157,
    "Ġentrapped": 26264,
    "Ġshoes": 7072,
    "Ġplying": 17914,
    "Ġdisplay": 6428,
    "Ġappetites": 20209,
    "Ġpadded": 25039,
    "Ġcostume": 16497,
    "Ġarsacidean": 20368,
    "illing": 8176,
    "Ġacquaintances": 17352,
    "Ġoptimize": 1615,
    "Ġsprain": 18306,
    "Ġtrustworthy": 24107,
    "ails": 6161,
    "Ġcat": 2122,
    "Ġscrewed": 15123,
    "Ġconductor": 24010,
    "Ġturnkeys": 23031,
    "Ġhorse": 4725,
    "capitals": 25083,
    "Ġdepends": 1080,
    "garity": 17555,
    "oward": 6022,
    "phys": 18711,
    "Ġcharlotte": 3892,
    "Ġcab": 2632,
    "Ġscuff": 15944,
    "Ġexpress": 2195,
    "ounds": 4157,
    "Ġdecline": 9290,
    "bent": 15314,
    "Ġprot": 3850,
    "directed": 20408,
    "û": 188,
    "Ġpossible": 2583,
    "cavity": 26127,
    "Ġfolly": 7942,
    "Ġpredict": 681,
    "begone": 12882,
    "don": 3544,
    "Ġmutual": 8297,
    "cap": 8374,
    "imp": 3034,
    "Ġcured": 21350,
    "Ġmystery": 5509,
    "shortly": 12262,
    "readers": 23851,
    "Ġlimp": 19182,
    "Ġlend": 17965,
    "uture": 1071,
    "Ġundaunted": 24120,
    "irmed": 9241,
    "Ġportion": 7491,
    "Ġ[\"": 19933,
    "Ġpleasant": 4170,
    "active": 16106,
    "Ġsupposing": 6730,
    "Ġchips": 14183,
    "Ġfair": 2841,
    "force": 12963,
    "Ġtreasures": 17047,
    "mortals": 25410,
    "Ġdaggoo": 5441,
    "Ġruskin": 25809,
    "violently": 23545,
    "throne": 25658,
    "Ġreference": 2564,
    "Ġdocile": 19962,
    "Ġclasp": 9747,
    "brandy": 19202,
    "erately": 21276,
    "Ġtrait": 23079,
    "Ġdecomp": 3812,
    "ople": 2319,
    "ogra": 4572,
    "Ġschemes": 11132,
    "Ġbreathe": 9014,
    "metal": 24764,
    "Ġcos": 2208,
    "Ġargument": 7099,
    "Ġconven": 6152,
    "saying": 8644,
    "Ġdamps": 23478,
    "atives": 2235,
    "asher": 15649,
    "ene": 2171,
    "Ġemotion": 7690,
    "alescence": 15927,
    "Ġspo": 6845,
    "ĠĠĠĠĠĠĠĠĠĠĠĠĠĠĠĠĠĠĠĠĠĠĠĠĠĠĠĠĠĠĠĠĠĠĠĠĠĠĠĠ": 4516,
    "Ġstroll": 13356,
    "Ġnlp": 3065,
    "Ġloitered": 26526,
    "Ġkrem": 9728,
    "Ġbashee": 19851,
    "Ġacquies": 11098,
    "indef": 17736,
    "Ġpopularly": 12245,
    "Ġdrawback": 23993,
    "overing": 6307,
    "cherries": 19759,
    "Ġfit": 3684,
    "Ġvariance": 1170,
    "Ġdisputes": 25826,
    "Ġdivert": 23595,
    "Ġpurplish": 19142,
    "pertaining": 22193,
    "discovering": 24253,
    "iriously": 18172,
    "voc": 8395,
    "madam": 24420,
    "Ġsuffocated": 20730,
    ".âĢĶ": 4248,
    "tol": 17673,
    "Ġcoincid": 20320,
    "Ġdummy": 25450,
    "bunger": 20405,
    "mpus": 13759,
    "Ġwarmed": 12026,
    "than": 4087,
    "Ġrib": 4936,
    "exasper": 22432,
    "Ġmeets": 7395,
    "ourse": 8872,
    "Ġimpossible": 3543,
    "Ġnotable": 18223,
    "Ġrenders": 13287,
    "Ġtrampled": 20331,
    "each": 7334,
    "scenes": 16244,
    "Ġpersonal": 7478,
    "Ġfurrow": 22817,
    "Ġpartner": 6715,
    "Ġlubber": 17446,
    "Ġchamois": 16801,
    "Ġconfidence": 6591,
    "Ġusage": 9732,
    "twas": 15439,
    "Ġamidst": 9496,
    "Ġmissed": 8558,
    "Ġratio": 5066,
    "Ġmott": 17805,
    "Ġfight": 5366,
    "windows": 19537,
    "Ġacquaintance": 4133,
    "Ġsomething": 1794,
    "Ġbarrier": 16571,
    "Ġspl": 2985,
    "underneath": 23791,
    "ever": 1076,
    "av": 700,
    "Ġformal": 2942,
    "Ġspite": 4155,
    "geor": 15978,
    "Ġsinister": 8571,
    "Ġinfluenced": 19635,
    "Ġacutely": 14316,
    "Ġcrowded": 8013,
    "harpoone": 6108,
    "matlock": 23471,
    "giv": 13724,
    "uction": 15445,
    "shut": 10980,
    "Ġbreeds": 23350,
    "Ġideal": 13124,
    "steady": 14711,
    "Ġsouls": 6309,
    "Ġdinah": 9455,
    "Ġcareless": 11120,
    "inev": 21984,
    "skylight": 25624,
    "Ġreflections": 5948,
    "Ġlumps": 21560,
    "Ġdrawer": 13269,
    "member": 20977,
    "bless": 22317,
    "Ġhieroglyph": 11973,
    "Ġreads": 23117,
    "gon": 17553,
    "Ġencourages": 2060,
    "transom": 19737,
    "umes": 10918,
    "Ġtoken": 2038,
    "Ġcopper": 7424,
    "Ġunimpeachable": 26523,
    "Ġclassical": 22642,
    "Ġmember": 8588,
    "died": 11481,
    "Ġalan": 10870,
    "Ġunmingled": 18261,
    "Ġexcurs": 23318,
    "Ġ92": 24592,
    "tired": 21075,
    "âĢľâĢĻ": 10223,
    "Ġendured": 6074,
    "ura": 1050,
    "Ġtom": 15636,
    "engthen": 14459,
    "Ġeverybody": 4510,
    "Ġautomation": 13264,
    "elizabeth": 1985,
    "Ġparticular": 2449,
    "Ġaug": 6235,
    "cou": 13698,
    "Ġvows": 15811,
    "itically": 21333,
    "Ġsinking": 7306,
    "cing": 1015,
    "rogress": 21540,
    "Ġmisanthropic": 26561,
    "vius": 23544,
    "sphere": 22737,
    "Ġpeg": 22693,
    "Ġowner": 8924,
    "royal": 11394,
    "ably": 1846,
    "Ġanoint": 25538,
    "Ġsite": 17754,
    "iza": 6256,
    "Ġplanets": 24061,
    "Ġupon": 719,
    "soundest": 24796,
    "column": 19331,
    "precision": 4331,
    "Ġberkshire": 16885,
    "ific": 491,
    "Ġlogger": 11957,
    "Ġclaim": 5106,
    "Ġxlix": 25861,
    "Ġglare": 13017,
    "Ġsmiled": 5942,
    "Ġprovision": 14827,
    "Ġtransplanted": 22480,
    "Ġnumbers": 2890,
    "Ġexpressive": 8984,
    "run": 10722,
    "rd": 17650,
    "actually": 14299,
    "Ġorph": 9719,
    "stern": 7863,
    "Ġspecial": 2104,
    "Ġrestore": 9381,
    "Ġwelcome": 5603,
    "Ġfiend": 4411,
    "mistake": 24528,
    "Ġtarn": 21161,
    "Ġbrooks": 25701,
    "Ġreef": 10850,
    "Ġadjusting": 3413,
    "allest": 5485,
    "sets": 17661,
    "Ġremembered": 5277,
    "Ġforebodings": 17306,
    "yp": 1046,
    "Ġinsights": 13182,
    "Ġbohemia": 10651,
    "Ġtrucks": 19515,
    "Ġrejo": 5917,
    "Ġcenturies": 8626,
    "Ġenvironment": 3836,
    "Ġmaketh": 15190,
    "Ġinsip": 19269,
    "Ġapiece": 16814,
    "icirc": 15659,
    "ocation": 14627,
    "Ġexcess": 3343,
    "Ġmain": 812,
    "lob": 22512,
    "Ġtal": 7563,
    "Ġvex": 5950,
    "Ġtransactions": 18505,
    "lies": 15384,
    "colonel": 8286,
    "Ġunfaltering": 24113,
    "odhead": 18121,
    "Ġsame": 1342,
    "Ġtangles": 25762,
    "Ġincredible": 9517,
    "Ġcandelabra": 26603,
    "Ġenvironments": 24023,
    "Ġpatted": 16361,
    "Ġgrasped": 8035,
    "Ġchrysalis": 26539,
    "Ġbent": 5149,
    "Ġdra": 1597,
    "Ġobstacles": 19838,
    "Ġperman": 10966,
    "subsided": 25832,
    "Ġze": 8547,
    "Ġneighbors": 25807,
    "pressed": 6588,
    "Ġchurned": 18386,
    "wear": 22687,
    "Ġfugitive": 17329,
    "Ġbusier": 23340,
    "embra": 14076,
    "Ġsolicitude": 10042,
    "Ġ1991": 3016,
    "Ġconclusions": 10555,
    "Ġladies": 3197,
    "Ġcigarette": 20658,
    "oard": 4809,
    "!âĢĿâĢĶ": 8534,
    "gaff": 20884,
    "Ġ150": 22833,
    "Ġcrimin": 6900,
    "Ġcroquet": 9964,
    "sent": 761,
    "Ġsharper": 17181,
    "Ġdaintiest": 25954,
    "Ġfluttered": 16250,
    "painting": 17046,
    "americans": 25045,
    "merry": 16538,
    "alions": 21505,
    "Ġdevouring": 11862,
    "ch": 321,
    "Ġtreats": 19347,
    "ķ": 248,
    "Ġpupils": 20424,
    "Ġgash": 15674,
    "eag": 20844,
    "erative": 21275,
    "income": 15488,
    "Ġpledged": 20690,
    "Ġprudential": 17920,
    "sto": 3202,
    "teous": 16176,
    "Ġcanal": 8183,
    "displeasure": 23499,
    "Ġboats": 2636,
    "Ġcomfor": 14056,
    "Ġdeprec": 15759,
    "Ġprudent": 9186,
    "considered": 9582,
    "Ġtranquill": 6632,
    "isition": 11588,
    "Ġsymmetry": 20369,
    "ury": 3312,
    "yourself": 6743,
    "Ġdefiance": 11069,
    "Ġlab": 1869,
    "Ġcontain": 1552,
    "Ė": 215,
    "Ġloathing": 15072,
    "ancies": 11586,
    "atered": 22012,
    "Ġprovides": 1927,
    "Ġguns": 16777,
    "Ġpromote": 23197,
    "Ġconst": 1906,
    "Ġmeddle": 20580,
    "stump": 21651,
    "top": 4485,
    "Ġdaybreak": 18728,
    "Ġser": 1672,
    "stay": 9682,
    "Ġflog": 23625,
    "Ġfl": 1278,
    "Ġassembly": 10644,
    "Ġbattered": 17864,
    "ivorous": 22086,
    "Ġcategor": 4139,
    "Ġernest": 8720,
    "Ġgiver": 21609,
    "fain": 13717,
    "und": 4117,
    "Ġafter": 870,
    "nevertheless": 8287,
    "glad": 9010,
    "<PAD>": 0,
    "been": 3345,
    "event": 8078,
    "ilder": 15716,
    "widely": 25344,
    "Ġphrenologists": 25609,
    "Ġtalents": 15046,
    "dark": 5613,
    "swaying": 25911,
    "unctions": 18158,
    "lust": 15382,
    "Ġpersonally": 8602,
    "Ġcau": 13883,
    "ĠcÃ¦": 15558,
    "falgar": 26131,
    "Ġloop": 14148,
    "somewhat": 11161,
    "epilogue": 22105,
    "Ġhelp": 1643,
    "Ġsh": 419,
    "Ġphilosophical": 26336,
    "Ġrequest": 6052,
    "gunw": 17222,
    "gentlemanlike": 20005,
    "Ġmaking": 1779,
    "waste": 21137,
    "dro": 6646,
    "Ġmulti": 1045,
    "asses": 7017,
    "Ġroods": 22409,
    "heeded": 13836,
    "Ġstep": 752,
    "Ġstrung": 22620,
    "Ġhermit": 15860,
    "Ġpretended": 19316,
    "Ġbroken": 3449,
    "Ġalong": 1978,
    "Ġreeling": 18035,
    "Ġlessons": 7692,
    "Ġkitty": 3912,
    "their": 2538,
    "conquerable": 17401,
    "likeness": 19481,
    "Ġredu": 1353,
    "Ġlucy": 17972,
    "Ġmamm": 25093,
    "persuade": 13535,
    "Ġgarments": 15196,
    "Ġsnail": 19302,
    "Ġflann": 23016,
    "Ġfatt": 15582,
    "Ġblurred": 22935,
    "Ġuninterrupted": 22049,
    "Ġearning": 23944,
    "vest": 6231,
    "Ġjuicy": 25371,
    "Ġpatchwork": 24143,
    "Ġcy": 13876,
    "Ġdoctors": 12155,
    "Ġbulk": 5590,
    "articulate": 17400,
    "Ġdefine": 9817,
    "moonlight": 25376,
    "Ġbowsman": 11255,
    "ren": 549,
    "Ġclassifies": 11843,
    "Ġannesley": 19580,
    "Ġsuited": 12788,
    "Ġdecreasing": 2443,
    "Ġchristian": 6479,
    "Ġaxis": 12310,
    "brill": 16493,
    "Ġdiver": 2528,
    "Ġbehoo": 19034,
    "Ġregretted": 13403,
    "ouched": 4636,
    "Ġsettles": 22924,
    "Ġdoomed": 11343,
    "Ġinsure": 13181,
    "emone": 21930,
    "Ġmale": 9650,
    "Ġbundle": 13429,
    "Ġluc": 3311,
    "round": 3369,
    "Ġwails": 21299,
    "ellative": 21954,
    "user": 5105,
    "Ġinferred": 14501,
    "Ġappertain": 22228,
    "mistak": 16879,
    "Ġdif": 871,
    "Ġplane": 11826,
    "em": 389,
    "treat": 12517,
    "Ġvictor": 5125,
    "ott": 1870,
    "sum": 2089,
    "Ġgangway": 20161,
    "lands": 8242,
    "Ġnursing": 12218,
    "Ġstart": 3260,
    "ine": 405,
    "fishers": 24929,
    "Ġflattering": 13033,
    "claps": 23157,
    "Ġmic": 17799,
    "Ġdismember": 20218,
    "onstrate": 17769,
    "arson": 22752,
    "test": 13794,
    "asons": 6016,
    "longing": 23728,
    "Ġweaving": 12744,
    "Ġcracks": 12022,
    "Ġtiara": 26416,
    "Ġdefe": 21839,
    "Ġbawling": 25946,
    "couldn": 23720,
    "bucket": 17495,
    "osa": 22265,
    "Ġstead": 5650,
    "bol": 8721,
    "Ġsatur": 1928,
    "plexion": 14264,
    "Ġfortun": 4982,
    "revival": 26163,
    "Ġserviceable": 24717,
    "ingu": 2120,
    "fortnight": 13090,
    "dep": 6786,
    "Ġidentity": 2522,
    "Ġcrossing": 7252,
    "destroyed": 15263,
    "plate": 18208,
    "Ġreception": 9841,
    "Ġdiabolical": 20345,
    "springing": 24890,
    "Ġintervals": 5597,
    "rad": 2156,
    "Ġpoured": 8804,
    "Ġeyeing": 6460,
    "idirectional": 2422,
    "Ġbelted": 22952,
    "Ġconting": 18473,
    "Ġapparatus": 24909,
    "Ġnoted": 15830,
    "othed": 16512,
    "Ġcrack": 7710,
    "lucifer": 25302,
    "gentle": 5357,
    "Ġattacked": 10569,
    "Ġblasphemy": 26116,
    "Ġwester": 25156,
    "journey": 8748,
    "Ġparamount": 15881,
    "raction": 8139,
    "Ġexcuses": 19046,
    "Ġdischarged": 15223,
    "Ġproportionate": 17043,
    "Ġcumberland": 21358,
    "Ġincomplete": 17210,
    "branch": 23580,
    "soles": 18687,
    "Ġunhe": 22013,
    "Ġsane": 21224,
    "Ġshoulders": 5565,
    "Ġarguments": 8038,
    "Ġenchantment": 24870,
    "Ġblending": 14402,
    "stretched": 10207,
    "Ġamazing": 9979,
    "drovand": 24759,
    "Ġwander": 9033,
    "Ġnailed": 10191,
    "Ġrambled": 20171,
    "Ġshriek": 6639,
    "Ġexpert": 18875,
    "Ġthomas": 17950,
    "Ġenthus": 7231,
    "Ġcharms": 11131,
    "Ġcommanded": 6331,
    "Ġmortification": 12098,
    "Ġconc": 1841,
    "Ġcurse": 7668,
    "Ġinvariable": 13459,
    "remembrance": 25703,
    "Ġbritannica": 24681,
    "Ġveil": 7935,
    "Ġtorment": 8677,
    "jane": 4482,
    "Ġprosperity": 20260,
    "Ġdone": 1817,
    "Ġnorthwards": 19549,
    "Ġjelly": 22305,
    "Ġsuppressed": 11914,
    "capting": 24044,
    "pursued": 17283,
    "Ġpromotion": 23198,
    "Ġopposite": 5120,
    "pulling": 25149,
    "Ġeuroc": 14961,
    "Ġlizz": 21561,
    "Ġwrench": 12561,
    "Ġprofessed": 14726,
    "Ġprofession": 6208,
    "j": 78,
    "brous": 19200,
    "Ġmarine": 23034,
    "bohem": 19002,
    "Ġtid": 8108,
    "Ġvoyages": 6907,
    "Ġi": 312,
    "Ġlapl": 19780,
    "hopes": 15372,
    "Ġsumatra": 15289,
    "cial": 2648,
    "pain": 7349,
    "Ġpurch": 6600,
    "Ġtorn": 6001,
    "Ġcarter": 18902,
    "Ġgips": 10842,
    "Ġdespatched": 23833,
    "Ġuseful": 3558,
    "sar": 12508,
    "uments": 5551,
    "humored": 19456,
    "Ġautonomous": 10677,
    "Ġoccas": 2702,
    "present": 1137,
    "vens": 21115,
    "Ġpasses": 2678,
    "Ġxxv": 19720,
    "Ġentreating": 24209,
    "Ġboys": 5194,
    "liking": 22928,
    "Ġrefuge": 8541,
    "Ġbearing": 5300,
    "Ġhorseman": 19610,
    "Ġtransom": 22477,
    "Ġmaddening": 17244,
    "intense": 22940,
    "pretty": 10623,
    "Ġhousekeeper": 7455,
    "affrail": 11206,
    "Ġstudent": 14479,
    "unable": 14061,
    "Ġpeddler": 26181,
    "Ġstriding": 16093,
    "gument": 20887,
    "taste": 10131,
    "han": 12476,
    "yield": 13811,
    "Ġplace": 1655,
    "Ġgoney": 14546,
    "Ġhereby": 10360,
    "prof": 7699,
    "Ġgreatest": 4091,
    "Ġinquisitive": 26318,
    "Ġswarming": 16275,
    "Ġmortifying": 13248,
    "Ġhonest": 7286,
    "Ġtechnical": 17193,
    "Ġmast": 2902,
    "Ġtreading": 16506,
    "Ġoffered": 5817,
    "Ġhorner": 8960,
    "Ġtwentieth": 18660,
    "hement": 13834,
    "temper": 10006,
    "Ġcoco": 11002,
    "perishing": 22191,
    "Ġdumplings": 15193,
    "Ġshocks": 16459,
    "Ġrus": 14094,
    "unbidden": 21899,
    "Ġwars": 17787,
    "luc": 9754,
    "Ġfriendless": 23027,
    "Ġinscrut": 10036,
    "Ġfresh": 3670,
    "rosc": 17957,
    "rud": 4191,
    "unken": 10238,
    "Ġgratified": 8022,
    "Ġimpressive": 15000,
    "Ġbold": 5293,
    "Ġpainful": 6462,
    "chanced": 18803,
    "folding": 24928,
    "hav": 20899,
    "Ġpropag": 16350,
    "Ġagitates": 22522,
    "gen": 6503,
    "Ġsenate": 25215,
    "Ġfrancis": 26064,
    "Ġspain": 15883,
    "Ġrabbit": 4289,
    "Ġwishing": 7831,
    "riors": 18189,
    "keel": 14130,
    "Ġthinnest": 24185,
    "Ġconfirming": 25322,
    "Ġamend": 16037,
    "Ġexample": 5096,
    "Ġnewfound": 22936,
    "Ġraptures": 13499,
    "rederick": 14082,
    "Ġclam": 7415,
    "Ġgull": 15673,
    "bordered": 17500,
    "Ġexpanded": 14292,
    "Ġain": 6969,
    "Ġstarbuck": 2194,
    "Ġhabits": 6925,
    "rely": 6124,
    "Ġdair": 17891,
    "Ġbreak": 2871,
    "however": 4373,
    "Ġeurope": 8063,
    "ior": 2039,
    "Ġpath": 2115,
    "Ġadam": 2127,
    "iature": 8745,
    "Ġearnestness": 12129,
    "Ġdispositions": 13236,
    "reeling": 21247,
    "Ġ27": 8618,
    "Ġtossing": 8127,
    "Ġsisters": 3640,
    "ceed": 1075,
    "animate": 12581,
    "Ġmilk": 6485,
    "Ġfashioned": 13324,
    "inquiries": 13580,
    "won": 8396,
    "ÿ": 192,
    "Ġdod": 6674,
    ")(": 2982,
    "oars": 9616,
    "oters": 21804,
    "Ġeel": 18004,
    "Ġunmo": 12776,
    "Ġmended": 21316,
    "Ġcasts": 19429,
    "scorched": 25698,
    "Ġmood": 6277,
    "Ġoakshott": 12233,
    "Ġstride": 22618,
    "eter": 11623,
    "Ġintrospective": 20603,
    "Ġmodern": 3214,
    "Ġgidd": 25784,
    "iteness": 4392,
    "Ġarsacides": 17296,
    "Ġcoaxing": 18597,
    "Ġpleases": 16300,
    "Ġcovent": 16075,
    "ip": 551,
    "Ġdeliciousness": 24128,
    "Ġprotect": 6338,
    "neath": 12869,
    "angling": 14142,
    "acet": 5476,
    "character": 6332,
    "Ġforcibly": 10063,
    "Ġtrusted": 10519,
    "ĠâĢĶâĢĶ": 25758,
    "Ġwilderness": 14842,
    "Ġwarbling": 26169,
    "Ġannihil": 10176,
    "log": 18539,
    "Ġdistrust": 8206,
    "pursuit": 20343,
    "Ġdeck": 2141,
    "Ġroughs": 19960,
    "attacks": 23128,
    "Ġdecide": 9289,
    "added": 11661,
    "Ġconverted": 16116,
    "Ġflee": 7080,
    "Ġflooded": 24964,
    "shipping": 10308,
    "Ġshortly": 6197,
    "Ġacquired": 13048,
    "Ġbrist": 14380,
    "Ġdisturb": 7108,
    "Ġenabled": 9298,
    "Ġelusive": 22649,
    "nib": 5214,
    "protected": 19923,
    "coach": 23561,
    "persecut": 22194,
    "Ġactivation": 918,
    "Ġpretending": 19317,
    "histor": 13494,
    "industrious": 26241,
    "Ġcler": 11775,
    "Ġseasonable": 24405,
    "tps": 11536,
    "vel": 2384,
    "Ġemployed": 5200,
    "promote": 24726,
    "frock": 20124,
    "ges": 2876,
    "Ġfury": 7661,
    "lit": 9607,
    "Ġloaf": 15875,
    "privilege": 25264,
    "Ġest": 2265,
    "com": 993,
    "hollow": 24045,
    "Ġfold": 5530,
    "itations": 17819,
    "Ġsquall": 7044,
    "Ġglories": 16241,
    "anthrop": 17384,
    "Ġdines": 21427,
    "Ġwrecks": 16819,
    "Ġkin": 15907,
    "boilers": 26298,
    "danced": 20830,
    "isles": 15567,
    "Ġobvious": 4964,
    "Ġplaint": 10327,
    "poster": 11057,
    "turner": 19544,
    "?âĢĻâĢĿ": 23645,
    "Ġdelineate": 26058,
    "Ġsaville": 15892,
    "Ġbathe": 25444,
    "Ġtrance": 12848,
    "unteered": 26496,
    "Ġelementary": 24811,
    "interested": 9508,
    "Ġseeking": 7037,
    "Ġlovel": 10273,
    "Ġfedallah": 6109,
    "Ġextend": 18696,
    "Ġjumbled": 22302,
    "Ġexceptional": 19374,
    "uncle": 8160,
    "wol": 21125,
    "Ġcharm": 4547,
    "onious": 15520,
    "awk": 23118,
    "uck": 1234,
    "Ġimportance": 4901,
    "Ġwed": 7574,
    "accordingly": 19215,
    "Ġequilib": 4136,
    "Ġpattered": 19014,
    "Ġteeth": 4167,
    "Ġeyford": 10643,
    "offers": 16396,
    "Ġconcer": 23324,
    "ĠâĢĺ": 1634,
    "uguese": 20734,
    "lead": 10167,
    "Ġsires": 21229,
    "ena": 11570,
    "beyond": 8885,
    "Ġleaves": 5021,
    "roylott": 20030,
    "¡": 99,
    "Ġnarrative": 6216,
    "quarried": 24948,
    "gained": 20883,
    "ky": 4519,
    "Ġtread": 9411,
    "Ġpolynesian": 26027,
    "Ġmastery": 23996,
    "Ġsnarl": 25714,
    "Ġrect": 18028,
    "Ġspine": 7406,
    "Ġnantucket": 2842,
    "Ġoverjoyed": 17460,
    "bald": 16446,
    "bab": 11469,
    "varying": 13806,
    "Ġlaunched": 14928,
    "ilet": 12833,
    "Ġviol": 2072,
    "pardon": 10067,
    "Ġghast": 9211,
    "Ġretained": 7173,
    "Ġburn": 3683,
    "Ġgloss": 11961,
    ");": 7329,
    "Ġwarming": 23559,
    "Ġupp": 13994,
    "ophisticated": 22483,
    "itar": 15550,
    "Ġtiller": 8967,
    "Ġsatisf": 2808,
    "Ġforegoing": 23451,
    "Ġstars": 6150,
    "Ġsoliloqu": 11888,
    "Ġtestified": 16329,
    "azore": 23464,
    "prudently": 21037,
    "Ġinward": 11609,
    "lace": 13750,
    "Ġdevotees": 25377,
    "Ġpathways": 11154,
    "Ġintensified": 17019,
    "kingly": 20941,
    "Ġbrut": 18769,
    "Ġconcepts": 4550,
    "ernally": 22601,
    "onents": 8781,
    "Ġdropped": 4471,
    "quitted": 21862,
    "ountain": 2919,
    "Ġowe": 8116,
    "Ġrenewal": 12238,
    "walks": 19724,
    "âĢĶâĢĺ": 7014,
    "Ġ119": 24440,
    "Ġunmethodically": 22073,
    "Ġmournfully": 20120,
    "mists": 17605,
    "Ġwhispers": 14702,
    "Ġtendons": 19811,
    "Ġimpulsively": 24881,
    "uming": 8493,
    "adr": 6994,
    "Ġbanqu": 12592,
    "Ġremoving": 12120,
    "iny": 4294,
    "received": 9640,
    "Ġroast": 18458,
    "Ġbrine": 18770,
    "Ġfootsteps": 16574,
    "Ġill": 2193,
    "ĠĠĠĠĠĠĠĠĠĠĠĠĠĠĠĠĠĠĠĠĠĠĠĠĠĠĠĠĠĠĠĠĠ": 12046,
    "Ġfoul": 7159,
    "Ġinvoluntarily": 8553,
    "inburgh": 15492,
    "Ġnicely": 8712,
    "Ġinsc": 7585,
    "Ġwatchman": 23668,
    "Ġlanes": 19768,
    "resembled": 21249,
    "Ġformless": 22836,
    "Ġroute": 11382,
    "condescended": 26250,
    "embraced": 25805,
    "Ġyard": 5922,
    "Ġpedestrian": 25884,
    "Ġscand": 7201,
    "Ġdeclared": 5594,
    "sof": 17658,
    "stiff": 12678,
    "cott": 8075,
    "Ġseedy": 21960,
    "Ġtranqu": 4605,
    "Ġboot": 11841,
    "Ġrewarding": 13440,
    "standard": 22436,
    "Ġbarmaid": 19337,
    "Ġpersevering": 20236,
    "Ġinvaders": 23484,
    "zar": 11549,
    "æ": 167,
    "iness": 1279,
    "Ġpince": 21474,
    "wond": 8772,
    "ched": 1546,
    "Ġor": 437,
    "Ġdramatic": 4852,
    "Ġexquisite": 12385,
    "relatively": 24017,
    "sockets": 22734,
    "Ġvery": 636,
    "Ġtougher": 21179,
    "Ġquiver": 16006,
    "Ġrecede": 25969,
    "Ġperplexity": 2755,
    "tea": 18743,
    "withstanding": 8947,
    "tree": 11535,
    "ways": 1442,
    "Ġfists": 15586,
    "fortune": 4975,
    "Ġranks": 21977,
    "Ġexertion": 8055,
    "Ġrides": 21976,
    "afflicted": 23780,
    "opard": 9293,
    "Ġelegant": 7531,
    "Ġrepulsive": 14530,
    "Ġduration": 20356,
    "Ġnavigation": 9995,
    "organ": 15577,
    "Ġrecollect": 8311,
    "cocks": 23562,
    "Ġgang": 9209,
    "Ġsusp": 2663,
    "Ġforcing": 3227,
    "only": 3308,
    "would": 2352,
    "cons": 4309,
    "anned": 17841,
    "Ġmail": 17802,
    "amongst": 24673,
    "Ġcatch": 4441,
    "jer": 12484,
    "called": 6293,
    "Ġpreposterous": 13672,
    "Ġmotions": 8282,
    "Ġcrisis": 13130,
    "Ġtun": 6000,
    "Ġsagacity": 16975,
    "Ġtort": 5903,
    "Ġentrance": 7232,
    "where": 2094,
    "Ġsweep": 8267,
    "Ġthimble": 15640,
    "thrill": 25657,
    "Ġterrier": 23400,
    "Ġton": 15466,
    "bree": 15317,
    "Ġmouth": 3184,
    "Ġvir": 7001,
    "Ġarrive": 6906,
    "Ġdistur": 5313,
    "itchen": 7788,
    "Ġclassify": 1688,
    "Ġcontinents": 16850,
    "Ġsoul": 2725,
    "min": 4570,
    "bonnet": 25743,
    "rawling": 21640,
    "enth": 6681,
    "pets": 17637,
    "vul": 15450,
    "fort": 1749,
    "Ġfind": 1458,
    "feren": 766,
    "oried": 10803,
    "ul": 371,
    "Ġloving": 8177,
    "Ġmethodic": 23120,
    "necess": 4897,
    "leaving": 10792,
    "Ġvancou": 22881,
    "Ġdeclines": 23966,
    "Ġshone": 7403,
    "Ġmitigating": 1620,
    "Ġrepe": 3281,
    "Ġvindict": 13608,
    "rimsh": 17028,
    "place": 4153,
    "Ġreckless": 13461,
    "Ġtashtego": 4486,
    "Ġsuffer": 4722,
    "Ġexists": 14043,
    "Ġshares": 23250,
    "kers": 7133,
    "Ġthrob": 21522,
    "itic": 11580,
    "Ġmargaret": 10378,
    "Ġexhilar": 19686,
    "Ġthistle": 21921,
    "Ġeven": 1030,
    "Ġabject": 18397,
    "Ġflash": 8231,
    "clo": 5612,
    "Ġherring": 14128,
    "Ġpri": 5814,
    "schoolmaster": 15164,
    "Ġprov": 4400,
    "ank": 1364,
    "Ġdistracted": 11807,
    "Ġpeaceful": 9458,
    "repugnance": 16865,
    "ipelagoes": 13674,
    "insisted": 23072,
    "alleled": 14431,
    "tack": 12516,
    "bb": 2802,
    "mortar": 25409,
    "Ġsupremacy": 20263,
    "Ġfatality": 12099,
    "Ġembodiment": 20531,
    "Ġresembles": 25970,
    "Ġcapable": 5054,
    "ercial": 21277,
    "enormous": 26167,
    "Ġinhaled": 25452,
    "Ġaccuse": 14213,
    "Ġbachelors": 24861,
    "iloquent": 21730,
    "Ġmanipulated": 25179,
    "weather": 7228,
    "Ġobstructed": 24678,
    "amped": 12036,
    "Ġanvil": 11599,
    "Ġsmut": 22562,
    "bers": 2569,
    "Ġimpulsive": 19966,
    "Ġentropy": 2030,
    "ival": 4227,
    "Ġcurls": 22999,
    "aggo": 5097,
    "ho": 2861,
    "Ġengineering": 3026,
    "pest": 6964,
    "Ġlist": 2366,
    "Ġpiny": 21473,
    "Ġfar": 1451,
    "nnight": 20995,
    "Ġclosing": 11777,
    "Ġdispute": 16059,
    "Ġview": 2763,
    "countless": 24152,
    "Ġsail": 1673,
    "Ġgoose": 5939,
    "Ġloun": 7166,
    "Ġelevates": 24499,
    "Ġarmchair": 8272,
    "Ġpicturesqueness": 24479,
    "allions": 22203,
    "Ġtrag": 13044,
    "surprising": 16920,
    "efficient": 2873,
    "Ġwatched": 6298,
    "Ġadhes": 22108,
    "Ġinexperienced": 26101,
    "Ġcaw": 13885,
    "trick": 19416,
    "Ġphysiognomically": 25613,
    "Ġimproper": 22757,
    "Ġembedd": 1413,
    "Ġdemonstrate": 24999,
    "Ġinclinations": 19542,
    "Ġweedy": 15796,
    "union": 15773,
    "Ġusefulness": 19411,
    "Ġstating": 15725,
    "ishly": 14201,
    "Ġdangerous": 6614,
    "Ġmaps": 2964,
    "Ġnigh": 4879,
    "ection": 4948,
    "Ġflorida": 20661,
    "Ġundeniable": 26511,
    "Ġmiguel": 25767,
    "Ġsouth": 4910,
    "Ġslipping": 13364,
    "pour": 17631,
    "Ġhurst": 5581,
    "Ġtho": 21518,
    "Ġbeds": 14553,
    "Ġse": 401,
    "Ġmushroom": 13239,
    "kind": 3866,
    "Ġhearts": 4972,
    "etwork": 442,
    "gor": 547,
    "Ġprophes": 16351,
    "Ġcomputing": 2220,
    "Ġdescribing": 19255,
    "Ġpeeped": 10014,
    "Ġsimplicity": 2924,
    "venor": 16103,
    "Ġcontroverted": 23255,
    "Ġdriver": 16475,
    "scap": 22989,
    "grie": 12474,
    "Ġoct": 10160,
    "acled": 16084,
    "Ġapologize": 15131,
    "Ġpaw": 12624,
    "Ġcaptains": 7456,
    "Ġfastened": 7066,
    "Ġpursuing": 9440,
    "ificant": 22216,
    "persuasion": 20047,
    "Ġcounter": 6481,
    "lydon": 13991,
    "Ġsheets": 9724,
    "Ġsuav": 22080,
    "Ġwhirlpool": 20657,
    "Ġ121": 24465,
    "Ġturtles": 19222,
    "beef": 18523,
    "'": 11,
    "Ġsplice": 19311,
    "led": 582,
    "Ġimage": 3404,
    "Ġthose": 1176,
    "astern": 8583,
    "Ġverdict": 13478,
    "Ġjutting": 22306,
    "Ġserpents": 13080,
    "Ġaside": 5234,
    "Ġmethod": 1450,
    "rally": 17652,
    "indebted": 26159,
    "Ġodor": 12153,
    "Ġclimb": 15082,
    "Ġobey": 9521,
    "sheet": 16288,
    "Ġbackgammon": 22654,
    "shrouded": 26363,
    "wound": 21129,
    "dawson": 26129,
    "88": 20760,
    "Ġoaths": 13526,
    "Ġproport": 2299,
    "Ġtomahawk": 7538,
    "presence": 18495,
    "Ġgenus": 24428,
    "Ġrecess": 10848,
    "Ġloth": 17968,
    "rule": 15897,
    "Ġborders": 15575,
    "Ġperformer": 18757,
    "sli": 11524,
    "Ġconfirmation": 17212,
    "Ġaboriginal": 14193,
    "Ġrespectfully": 18995,
    "Ġalice": 1483,
    "Ġexposes": 22628,
    "Ġasiatic": 20433,
    "Ġphantom": 8710,
    "Ġdeferred": 18827,
    "Ġhissing": 15793,
    "Ġreckoned": 24743,
    "etent": 10201,
    "Ġruinous": 24635,
    "Ġpredicted": 2044,
    "ints": 3418,
    "Ġtemporal": 2613,
    "Ġgifts": 21616,
    "Ġcrav": 19175,
    "Ġperished": 11787,
    "Ġdim": 4757,
    "calmed": 16206,
    "Ġhim": 475,
    "caus": 11477,
    "warmth": 20056,
    "Ġfrenchman": 11284,
    "Ġasserted": 16950,
    "mighty": 9468,
    "operation": 13503,
    "Ġlast": 1123,
    "Ġmicha": 17813,
    "corpse": 24485,
    "Ġworks": 5859,
    "Ġsyn": 15911,
    "bone": 5611,
    "Ġidentify": 12016,
    "Ġcreature": 2383,
    "bird": 9587,
    "Ġmuscles": 12092,
    "Ġatonement": 21947,
    ".]": 15301,
    "Ġunobserved": 18247,
    "Ġre": 317,
    "Ġunprinciple": 18252,
    "Ġpromises": 10402,
    "ladies": 9531,
    "Ġunhappily": 18260,
    "Ġjogged": 26238,
    "agre": 18167,
    "drink": 10597,
    "Ġcocoanuts": 26364,
    "fri": 20856,
    "methodically": 20666,
    "Ġforb": 11665,
    "Ġthy": 2512,
    "whispering": 26104,
    "Ġcanvassed": 19938,
    "ascending": 24706,
    "Ġagent": 6278,
    "along": 6014,
    "Ġsatisfied": 4172,
    "so": 891,
    "Ġblock": 2574,
    "clair": 18935,
    "bud": 10685,
    "Ġobst": 6284,
    "artificial": 1019,
    "Ġpacific": 5153,
    "persu": 8029,
    "almost": 4943,
    "ĠĠĠĠĠĠĠĠĠĠĠĠĠĠĠĠĠĠĠĠĠĠĠĠĠĠĠĠĠĠĠĠĠĠĠĠĠĠĠĠĠĠĠĠĠĠĠĠĠ": 20041,
    "Ġradney": 6775,
    "ener": 557,
    "Ġsaloon": 24067,
    "Ġpulley": 2977,
    "tru": 10730,
    "ellig": 526,
    "Ġrowing": 10302,
    "hob": 20902,
    "Ġadmir": 12024,
    "M": 49,
    "acetti": 13399,
    "bru": 12442,
    "Ġ124": 24468,
    "Ġinquirers": 24967,
    "Ġspeak": 2229,
    "Ġdefy": 11900,
    "Ġbrah": 19360,
    "Ġshock": 6083,
    "allingly": 22204,
    "ertips": 23642,
    "Ġinterview": 9772,
    "Ġaccumul": 1412,
    "Ġ30": 10513,
    "Ġli": 602,
    "ĵ": 246,
    "Ġworrying": 22931,
    "Ġprolong": 6831,
    "eling": 6682,
    "george": 26020,
    "Ġenvelope": 7318,
    "Ġrepairing": 25590,
    "move": 11857,
    "Ġswear": 6461,
    "Ġmind": 1622,
    "Ġsucking": 12789,
    "talked": 14987,
    "Ġcharles": 11959,
    "atively": 2695,
    "Ġperse": 6273,
    "Ġfundamentals": 14636,
    "Ġacquiring": 2768,
    "Ġadrift": 11725,
    "Ġspasmodic": 20401,
    "Ġwear": 6032,
    "Ġsurpasses": 25269,
    "urs": 6989,
    "Ġopens": 23629,
    "Ġshade": 6551,
    "Ġcreatures": 4137,
    "Ġprovide": 7750,
    "Ġperceived": 4714,
    "Ġlieuten": 13330,
    "musical": 25341,
    "Ġlimited": 23547,
    "Ġharsh": 9523,
    "Ġsuitable": 18279,
    "Ġaspire": 21905,
    "Ġvexatious": 19784,
    "Ġforce": 5092,
    "Ġahead": 6664,
    "Ġcabin": 3303,
    "spoke": 11024,
    "Ġwaterloo": 11983,
    "Ġalterations": 19873,
    "Ġintelligence": 567,
    "Ġknew": 2054,
    "Ġwere": 555,
    "Ġcollection": 8224,
    "Ġrecumbent": 22744,
    "bearing": 9767,
    "oud": 1940,
    "newsp": 23139,
    "lun": 20948,
    "Ġhardened": 14452,
    "Ġungover": 18253,
    "Ġshaped": 15837,
    "Ġpraises": 16731,
    "spl": 9141,
    "Ġshaping": 22008,
    "intelligence": 5884,
    "deliver": 19507,
    "Ġency": 21939,
    "Ġentitled": 8540,
    "Ġrefreshing": 20267,
    "Ġnarrations": 24351,
    "ove": 1744,
    "Ġtartar": 17324,
    "Ġwaxed": 21300,
    "civil": 7797,
    "Ġbadly": 12135,
    "Ġgigantic": 5916,
    "Ġforetold": 23453,
    "Ġsad": 3870,
    "ility": 624,
    "Ġgasping": 17038,
    "Ġcorners": 18876,
    "Ġpace": 9184,
    "Ġowing": 6006,
    "deal": 12803,
    "Ġwalk": 1825,
    "Ġploughing": 26261,
    "pat": 10118,
    "stories": 18023,
    "twelve": 14623,
    "Ġexerting": 21837,
    "Ġbloss": 19257,
    "il": 329,
    "Ġappointment": 10648,
    "Ġconvergence": 971,
    "fab": 13718,
    "Ġyourself": 2593,
    "Ġdisinclination": 22541,
    "allet": 11083,
    "Ġapologies": 25197,
    "Ġslavish": 23177,
    "grammar": 6435,
    "march": 13757,
    "iform": 2201,
    "Ġstiggs": 25793,
    "Ġelectric": 15197,
    "Ġinland": 11610,
    "prevent": 11798,
    "Ġknown": 1645,
    "tattoo": 21090,
    "Ġcharted": 22255,
    "Ġpuzzled": 7316,
    "pretending": 17041,
    "Ġviews": 7289,
    "Ġgoodness": 6060,
    "unched": 10237,
    "Ġvaliant": 9802,
    "frightened": 17197,
    "snow": 10725,
    "Ġwidth": 16773,
    "Ġjoyous": 14665,
    "Ġwisest": 11233,
    "Ġproverb": 12720,
    "Ġdirectly": 2106,
    "Ġcooked": 13273,
    "sloop": 26146,
    "steam": 23963,
    "masterly": 24529,
    "Ġcautious": 12257,
    "Ġtimes": 2303,
    "###": 3828,
    "Ġcarr": 23095,
    "Ľ": 254,
    "Ġmour": 6973,
    "Ġbour": 4877,
    "Ġarbit": 4650,
    "vand": 21111,
    "nered": 18493,
    "irons": 10240,
    "cake": 20806,
    "Ġcheetah": 14503,
    "suffered": 24329,
    "end": 500,
    "Ġknowest": 12867,
    "lances": 15386,
    "Ġexpiration": 22629,
    "keepers": 16661,
    "belais": 24043,
    "reinforcement": 7827,
    "tumult": 12426,
    "Ġexperienced": 6583,
    "Ġcoffins": 13253,
    "400": 20757,
    "Ġdesisted": 22979,
    "inkers": 22622,
    "burg": 16774,
    "cham": 10854,
    "Ġtyrant": 24766,
    "Ġmild": 4146,
    "Ġcorps": 13037,
    "Ġdesmarest": 22980,
    "als": 2041,
    "Ġcomplaisance": 19452,
    "Ġnewly": 9340,
    "lightened": 12068,
    "inspector": 13649,
    "Ġapprehended": 26091,
    "chambers": 25455,
    "among": 6257,
    "Ġshouted": 5348,
    "Ġconcisely": 19048,
    "roll": 9198,
    "espe": 3500,
    "Ġanimals": 8980,
    "Ġcoils": 9306,
    "Ġhealthy": 10852,
    "master": 5687,
    "Ġstorm": 4301,
    "vast": 10737,
    "Ġincantation": 26259,
    "Ġwarn": 5695,
    "ineas": 15825,
    "Ġfactor": 19016,
    "Ġdouble": 4940,
    "Ġnaturalist": 22903,
    "Ġexceed": 1345,
    "Ġtwain": 16122,
    "Ġluxury": 20135,
    "Ġlively": 5449,
    "Ġflank": 8230,
    "Ġadapt": 1032,
    "Ġspectators": 19410,
    "mews": 22718,
    "Ġsecurely": 16803,
    "Ġportent": 12085,
    "ogue": 9786,
    "Ġforest": 9873,
    "onement": 21259,
    "Ġcreate": 2093,
    "patched": 17644,
    "Ġopenly": 8575,
    "Ġaccounting": 14574,
    "Ġwatch": 2743,
    "Ġstill": 1158,
    "goin": 23404,
    "Ġvan": 1090,
    "onah": 3338,
    "Ġsherlock": 3895,
    "henomena": 20275,
    "formation": 22232,
    "aught": 2679,
    "Ġdefines": 1743,
    "Ġinconceivable": 17940,
    "Ġpour": 13916,
    "jaw": 13745,
    "diver": 20833,
    "Ġattack": 5478,
    "joining": 19449,
    "Ġpurchasing": 19877,
    "Ġbashful": 20423,
    "bus": 5355,
    "Ġsul": 7569,
    "vis": 4577,
    "Ġork": 18285,
    "Ġovercome": 6044,
    "red": 397,
    "Ġoutbreak": 22322,
    "Ġunhallowed": 17182,
    "receive": 12546,
    "complete": 15036,
    "Ġschoolmasters": 19723,
    "utarch": 15665,
    "alid": 13937,
    "lays": 14924,
    "Ġmaximizing": 3173,
    "Ġfaculties": 14960,
    "Ġtr": 560,
    "Ġpedd": 17910,
    "Ġhearsed": 25042,
    "Ġbaff": 10800,
    "Ġexhaustion": 14963,
    "Ġagile": 22518,
    "Ġcott": 3709,
    "Ġsol": 1103,
    "grieved": 17319,
    "shop": 14237,
    "residence": 19264,
    "Ġfinery": 23131,
    "Ġenergies": 25460,
    "lott": 6652,
    "Ġaffliction": 25846,
    "attentive": 17191,
    "Ġstandpoint": 23282,
    "nelson": 25621,
    "Ġgrim": 7438,
    "Ġtokens": 1772,
    "Ġ33": 16677,
    "Ġcramped": 23533,
    "cle": 3956,
    "atived": 21265,
    "Ġpreprocessing": 26537,
    "Ġconsid": 1812,
    "Ġguidance": 9419,
    "Ġfood": 5080,
    "Ġprevail": 13445,
    "Ġspermaceti": 8969,
    "Ġdescribed": 6607,
    "Ġspectacles": 12101,
    "Ġat": 395,
    "Ġenglishman": 11230,
    "code": 15331,
    "accomp": 10456,
    "Ġjeer": 24124,
    "victim": 25531,
    "Ġshutting": 14761,
    "Ġfavourable": 7960,
    "Ġobtru": 18676,
    "Ġinterp": 16072,
    "Ġhall": 4184,
    "Ġgaping": 13971,
    "Ġretrogress": 23078,
    "Ġpadd": 9671,
    "Ġcomputational": 1629,
    "hole": 5586,
    "Ġbuffalo": 11430,
    "vulgar": 25919,
    "transform": 8051,
    "resist": 8277,
    "Ġsam": 7568,
    "Ġragged": 11849,
    "ipping": 2207,
    "dignity": 15348,
    "Ġwashington": 17204,
    "Ġexist": 9233,
    "Ġferocity": 16872,
    "quired": 21860,
    "ifying": 5235,
    "Ġbi": 919,
    "cords": 25139,
    "green": 7116,
    "Ġabsurd": 7202,
    "Ġostens": 25276,
    "Ġsubstance": 5510,
    "paid": 15416,
    "times": 8100,
    "urities": 18051,
    "remediable": 26296,
    "enstein": 5800,
    "Ġengaged": 3430,
    "Ġpor": 5225,
    "Ġforwarded": 19047,
    "Ġbrass": 11048,
    "Ġcrawled": 17044,
    "Ġjeroboam": 10602,
    "Ġslacked": 25189,
    "Ġdexterously": 25296,
    "Ġadvent": 4356,
    "opatra": 22482,
    "Ġsolemnisation": 24114,
    "Ġwandered": 6929,
    "Ġfetched": 24567,
    "arned": 21826,
    "Ġapothe": 12378,
    "hearth": 15501,
    "Ġwag": 10776,
    "ruded": 15900,
    "Ġmidnight": 5266,
    "cd": 15325,
    "©": 107,
    "Ġswandam": 11089,
    "Ġpocket": 4899,
    "Ġens": 2790,
    "Ġarranged": 9879,
    "wers": 12523,
    "Ġlimit": 10444,
    "Ġdev": 885,
    "Ġpitched": 9446,
    "Ġsubstant": 14811,
    "helm": 12175,
    "Ġnostrils": 10944,
    "ells": 5305,
    "Ġcru": 2827,
    "ĠarchÃ¦": 22782,
    "tch": 9143,
    "Ġple": 1469,
    "stranded": 19227,
    "Ġnow": 691,
    "antarctic": 22104,
    "Ġint": 414,
    "Ġstricken": 9778,
    "Ġdashing": 8799,
    "confid": 14869,
    "Ġmari": 6813,
    "Ġpest": 13915,
    "Ġvinegar": 20103,
    "mospheric": 17091,
    "Ġwires": 21298,
    "Ġcorresponds": 19824,
    "hunted": 16833,
    "Ġclients": 19734,
    "regulated": 23469,
    "Ġfluctuating": 24416,
    "port": 10720,
    "Ġcoiled": 11823,
    "Ġtenants": 23549,
    "gaining": 20127,
    "Ġsuspecting": 14912,
    "soul": 9142,
    "acknowledging": 25477,
    "mend": 20968,
    "Ġfinancier": 26584,
    "opement": 10313,
    "rene": 5379,
    "constellation": 24609,
    "Ġlamps": 14792,
    "Ġanimating": 23427,
    "garet": 9599,
    "Ġjungfrau": 15251,
    "Ä": 133,
    "four": 6114,
    "Ġreinforcement": 3243,
    "perse": 15903,
    "Ġcharcoal": 19008,
    "Ġsaved": 6691,
    "Ġtogether": 1876,
    "da": 17515,
    "Ġshepherd": 14154,
    "Ġscandinavian": 26347,
    "Ġthee": 2622,
    "ryphon": 4161,
    "Ġindelicacy": 25696,
    "Ġcourtesy": 9947,
    "Ġcaution": 11347,
    "Ġhardihood": 23116,
    "respectively": 24699,
    "supplemental": 25875,
    "Ġrapidity": 11101,
    "Ġvoluntary": 14801,
    "Ġenforced": 21944,
    "umn": 5836,
    "Ġquohog": 10973,
    "atherine": 2595,
    "ab": 345,
    "Ġol": 17816,
    "Ġeyel": 17096,
    "Ġshamefully": 24715,
    "Ġbeads": 18086,
    "Ġelasticity": 19561,
    "Ġ123": 24467,
    "Ġthickness": 13281,
    "clings": 23156,
    "Ġlay": 585,
    "bag": 7541,
    "Ġwarm": 2426,
    ";": 31,
    "Ġdisput": 14257,
    "Ġgraceful": 11297,
    "des": 3176,
    "Ġsil": 1796,
    "Ġpole": 6433,
    "pistol": 17643,
    "Ġhogarth": 25781,
    "Ġsweetheart": 19398,
    "ispensable": 9098,
    "Ġlift": 8814,
    "Ġtempted": 9058,
    "Ġgasps": 24866,
    "aciously": 12911,
    "Ġoakum": 16935,
    "extinguish": 22771,
    "Ġceasing": 23759,
    "Ġrevolt": 24500,
    "Ġbaw": 15572,
    "Ġpaintings": 15059,
    "Ġportents": 14680,
    "Ġglided": 7446,
    "horizon": 23617,
    "Ġsplit": 7994,
    "Ġhawsers": 26503,
    "71": 20758,
    "harrow": 20910,
    "Ġjustice": 5111,
    "Ġstory": 2903,
    "undant": 14793,
    "Ġmethinks": 10390,
    "Ġ110": 24434,
    "sies": 21057,
    "Ġ0": 1900,
    "Ġreproofs": 24893,
    "Ġguarded": 9828,
    "izon": 18144,
    "Ġcove": 22585,
    "Ġjudged": 12087,
    "Ġrepelled": 19087,
    "Ġemboldened": 22971,
    "quarters": 24949,
    "Ġcorrectly": 9406,
    "Ġhier": 1892,
    "entiating": 3438,
    "Ġgroaned": 11267,
    "saturday": 14860,
    "purposes": 25024,
    "Ġvia": 2382,
    "Ġloadstone": 25817,
    "Ġcrest": 12945,
    "connect": 1290,
    "exp": 2736,
    "Ġfearful": 6198,
    "Ġverbal": 19382,
[...]
