{
  "metadata": {
    "vocab_size": 26615,
    "algorithm": "BPE",
    "created_at": "2026-06-14 06:38:13",
    "special_tokens": [
      "<PAD>",
      "<SOS>",
      "<EOS>",
      "<UNK>",
      "<MASK>"
    ]
  },
  "vocab": {
    "Ġpyth": 21462,
    "Ġbanking": 19632,
    "Ġnotorious": 18223,
    "beer": 22492,
    "Ġisland": 4045,
    "Ġconvinced": 4204,
    "reshold": 21241,
    "Ġlurch": 21557,
    "eties": 10840,
    "Ġdispatched": 23883,
    "Ġimbecile": 17394,
    "vi": 2374,
    "inking": 6711,
    "direct": 12460,
    "Ġinfirm": 19018,
    "cra": 6356,
    "unvarying": 21890,
    "fowl": 17550,
    "Ġtarred": 23610,
    "Ġbarbarians": 19589,
    "otence": 14025,
    "Ġchased": 8866,
    "Ġmerc": 9430,
    "Ġwindward": 6885,
    "itarian": 21339,
    "orers": 14105,
    "leaped": 17844,
    "Ġpaces": 13921,
    "ind": 567,
    "Ġsporty": 19891,
    "Ġcharging": 23269,
    "uttle": 6249,
    "Ġstrands": 25575,
    "Ġwidest": 24236,
    "relation": 19449,
    "aphys": 15204,
    "coming": 3561,
    "Ġwindlass": 7256,
    "Ġviews": 7290,
    "Ġnecessitates": 23932,
    "dish": 12456,
    "smallest": 23914,
    "residual": 19263,
    "Ġrepugn": 23365,
    "Ġmississ": 18840,
    "Ġsill": 10768,
    "Ġbeads": 18085,
    "Ġfacetious": 20586,
    "fre": 5425,
    "Ġintact": 21992,
    "Ġkills": 15909,
    "Ġcarving": 14445,
    "Ġdescrib": 2718,
    "elope": 14463,
    "Ġbefell": 14012,
    "Ġfalsehood": 10527,
    "Ġmethod": 1497,
    "Ġobliged": 4286,
    "me": 877,
    "organic": 25946,
    "Ġarmada": 23581,
    "Ġwhat": 599,
    "limping": 26394,
    "Ġappellation": 22225,
    "Ġdeformity": 11679,
    "turns": 14908,
    "Ġsecrets": 9058,
    "import": 5668,
    "Ġbirds": 5875,
    "younger": 11315,
    "Ġpad": 8125,
    "atters": 18483,
    "Ġscruple": 25050,
    "refuge": 24732,
    "ury": 3311,
    "Ġmuzzle": 21323,
    "causing": 25519,
    "wreat": 21129,
    "Ġqual": 6276,
    "tier": 12518,
    "Ġharpoon": 3615,
    ");": 7330,
    "ud": 918,
    "Ġexternal": 8365,
    "Ġchest": 5185,
    "ppo": 18177,
    "Ġfallen": 5969,
    "dried": 20828,
    "Ġcoopman": 25828,
    "Ġastr": 15496,
    "Ġz": 999,
    "Ġmeets": 7396,
    "Ġmutineer": 19420,
    "Ġnat": 12649,
    "humiliation": 24023,
    "Ġgravesend": 15219,
    "Ġomit": 17816,
    "Ġhes": 6252,
    "Ġtribe": 10754,
    "lined": 12487,
    "Ġelephants": 9868,
    "Ġmerrily": 23733,
    "Ġcupboard": 16884,
    "degrad": 22146,
    "Ġstrife": 18613,
    "Ġgrapp": 14103,
    "eff": 2533,
    "Ġbargain": 23794,
    "Ġsnugly": 17111,
    "Ġrelated": 3713,
    "Ġhardly": 2432,
    "Ġago": 3136,
    "Ġspread": 5161,
    "oy": 1009,
    "Ġmorphology": 3013,
    "Ġ93": 24591,
    "Ġindiam": 22957,
    "cake": 20805,
    "act": 784,
    "Ġpleasantly": 14521,
    "flour": 23968,
    "Ġfervent": 14898,
    "Ġoffence": 12948,
    "Ġhighness": 22774,
    "itation": 1779,
    "Ġhowl": 12858,
    "Ġsign": 2493,
    "Ġinexorable": 12259,
    "Ġpresenting": 18988,
    "capitals": 25082,
    "Ġfeature": 746,
    "ocr": 10471,
    "Ġgases": 21604,
    "theories": 18080,
    "ency": 3867,
    "Ġattracted": 8909,
    "Ġscene": 3098,
    "rust": 2580,
    "Ġdramat": 23215,
    "Ġrising": 4356,
    "estim": 14171,
    "Ġengra": 7874,
    "Ġwarb": 17788,
    "Ġarranging": 11177,
    "Ġlose": 5028,
    "Ġdelicate": 6481,
    "darker": 24515,
    "Ġpreparing": 8652,
    "Ġsedentary": 25431,
    "Ġ\"": 6121,
    "Ġ1836": 25720,
    "Ġbra": 3255,
    "Ġlog": 1679,
    "Ġpoles": 11006,
    "ographical": 16787,
    "clay": 18932,
    "Ġaccursed": 9463,
    "Ġawaiting": 11393,
    "Ġconverse": 11850,
    "traversed": 19649,
    "sher": 5217,
    "Ġclasping": 20211,
    "Ġintercourse": 11001,
    "Ġconnections": 971,
    "Ġflounders": 23016,
    "ĠâĢĺ_": 11120,
    "Ġurging": 24504,
    "Ġprompt": 3191,
    "Ġpunctually": 17140,
    "Ġexert": 5722,
    "Ġbloodshed": 23802,
    "Ġvibrating": 13539,
    "Ġpresently": 5116,
    "atever": 3080,
    "Ġstarvation": 19793,
    "Ġdevout": 14331,
    "lovel": 22514,
    "Ġedition": 16457,
    "²": 115,
    "atical": 10774,
    "Ġdark": 2112,
    "Ġchivalrous": 20517,
    "Ġconceive": 8463,
    "str": 2577,
    "Ġmethodic": 23159,
    "Ġmutually": 23959,
    "Ġsatirical": 26280,
    "Ġadjac": 18292,
    "Ġinit": 819,
    "Ġ65": 24367,
    "noo": 9792,
    "yet": 3750,
    "barbs": 20239,
    "(": 12,
    "izes": 885,
    "stout": 21647,
    "dington": 12069,
    "Ġrobbed": 23061,
    "Ġminuteness": 19139,
    "Ġencoura": 1366,
    "excitement": 19671,
    "Ġmarriage": 3190,
    "usage": 12837,
    "Ġosc": 2836,
    "Ġhealthy": 10854,
    "olence": 10234,
    "Ġraw": 3320,
    "Ġwert": 12560,
    "18": 20752,
    "Ġlocations": 12416,
    "Ġdeeper": 2084,
    "screw": 9351,
    "Ġhab": 4217,
    "Ġmakest": 25436,
    "fairly": 17221,
    "Ġblu": 2686,
    "continually": 11305,
    "Ġcapering": 21356,
    "pp": 384,
    "Ġstiffly": 15006,
    "Ġrespond": 11179,
    "x": 92,
    "Ġoutlast": 22316,
    "fugitive": 26131,
    "counters": 25398,
    "Ġrheum": 18214,
    "bear": 10318,
    "atlantic": 15526,
    "ì": 173,
    "Ġexamined": 6336,
    "Ġinvis": 6902,
    "moby": 8540,
    "peasant": 23112,
    "Ġseparation": 11249,
    "streets": 13397,
    "ust": 501,
    "Ġvariation": 22667,
    "beloved": 19463,
    "task": 13795,
    "Ġuncouth": 14549,
    "Ġseek": 4510,
    "Ġprint": 18969,
    "fishers": 24928,
    "Ġbes": 2660,
    "inting": 9818,
    "replied": 11569,
    "rug": 18344,
    "Ġtakes": 5007,
    "usations": 15950,
    "Ġgives": 5018,
    "ores": 2412,
    "Ġsmothered": 20721,
    "oso": 12834,
    "preser": 9764,
    "Ġcheapside": 23290,
    "Ġdisput": 14257,
    "inct": 3292,
    "Ġstaple": 26199,
    "Ġearly": 2079,
    "ivened": 22974,
    "animated": 14977,
    "Ġfee": 7199,
    "Ġquant": 6425,
    "vic": 13804,
    "Ġforger": 15736,
    "Ġblackstone": 23391,
    "gossip": 23406,
    "Ġsat": 1132,
    "occupation": 15058,
    "Ġsincere": 11139,
    "Ġdoors": 6419,
    "Ġinsurgents": 26601,
    "Ġplunge": 13445,
    "Ġthoroughfares": 26095,
    "Ġspare": 5102,
    "Ġinfancy": 10412,
    "uncommonly": 25550,
    "Ġundoubtedly": 8313,
    "Ġcurric": 22967,
    "Ġroaring": 10973,
    "Ġodious": 12154,
    "pherd": 13647,
    "merc": 19281,
    "Ġperpendicularly": 11377,
    "Ġhearth": 11985,
    "Ġ82": 24457,
    "now": 548,
    "Ġparticulars": 5754,
    "abri": 6684,
    "erness": 6435,
    "Ġfris": 23257,
    "Ġinheritance": 25356,
    "Ġwilds": 16510,
    "Ġenforced": 21941,
    "rudence": 7094,
    "opÃ¦": 12876,
    "Ġcompanion": 3642,
    "istically": 14145,
    "Ġinsolent": 13603,
    "Ġsexes": 25172,
    "Ġweariness": 19796,
    "pid": 1359,
    "Ġfre": 1571,
    "Ġdread": 3165,
    "Ġchart": 10948,
    "Ġintric": 9250,
    "Ġequator": 7461,
    "Ġsumatra": 15289,
    "Ġenhancement": 23777,
    "Ġsuffice": 18870,
    "Ġlifting": 10200,
    "Ġdece": 6997,
    "Ġorb": 22094,
    "Ġnovels": 15932,
    "Ġdifficulties": 11228,
    "Ġdisadvantage": 12894,
    "Ġinconvenient": 20012,
    "Ġduplicity": 25332,
    "Ġconveys": 16856,
    "Ġexcused": 23314,
    "Ġhide": 4590,
    "Ġsoftware": 18919,
    "Ġthankful": 14740,
    "prevailed": 17347,
    "german": 11495,
    "daylight": 19056,
    "irts": 9242,
    "Ġguilt": 6181,
    "Ġcapacity": 10443,
    "nearer": 22453,
    "pie": 21012,
    "3": 23,
    "Ġassuredly": 14824,
    "Ġrecovery": 11444,
    "Ġconveying": 19716,
    "Ġstuffed": 13411,
    "Ķ": 247,
    "Ġref": 915,
    "Ġadver": 5641,
    "Ġimpul": 7208,
    "Ġjabez": 11770,
    "Ġpoetry": 15083,
    "Ġcollectively": 19970,
    "boats": 6206,
    "Ġskull": 6290,
    "Ġrhone": 25231,
    "Ġembodiment": 20530,
    "Ġrout": 7402,
    "hil": 8379,
    "Ġcourting": 23293,
    "Ġappropriated": 23485,
    "Ġdrinks": 24281,
    "acceler": 23599,
    "Ġfossils": 20224,
    "Ġapparel": 20438,
    "Ġxv": 23408,
    "spoutings": 25003,
    "âĢĻ": 378,
    "H": 44,
    "Ġformer": 3322,
    "Ġperchance": 15994,
    "Ġclient": 5556,
    "necessity": 13370,
    "ientiously": 21944,
    "ryder": 18647,
    "Ġhor": 1663,
    "Ġcontradicted": 20213,
    "Ġrequirements": 9793,
    "Ġgrim": 7439,
    "infallibly": 26418,
    "Ġecstasy": 11634,
    "haw": 6363,
    "ilib": 4115,
    "Ġjumping": 13344,
    "heavenly": 20047,
    "chief": 4645,
    "missed": 11212,
    "Ġapartment": 6636,
    "Ġseventy": 7880,
    "Ġpalace": 16690,
    "Ġsecurity": 8981,
    "vul": 15450,
    "Ġcoming": 2616,
    "species": 13258,
    "xible": 13810,
    "Ġdons": 17889,
    "Ġissuing": 16949,
    "dham": 20831,
    "Ġthirds": 16709,
    "vacancies": 25919,
    "sailors": 9926,
    "Ġrider": 24187,
    "Ġchat": 6562,
    "Ġanimal": 2496,
    "Ġfif": 4216,
    "Ġacquainted": 5179,
    "eness": 2288,
    "Ġneat": 7000,
    "dil": 11481,
    "Ġmeadows": 11425,
    "orand": 21399,
    "Ġperplexed": 23662,
    "Ġrelev": 1715,
    "Ġunquestion": 18248,
    "Ġhereditarily": 25225,
    "Ġroylott": 7305,
    "Ġweig": 7620,
    "alizing": 17941,
    "Ġdishonor": 25601,
    "anded": 5924,
    "Ġsne": 6373,
    "ognit": 19181,
    "Ġgloomily": 14803,
    "deprived": 19899,
    "Ġenric": 21937,
    "izers": 18136,
    "Ġassumed": 9469,
    "ropy": 1103,
    "Ġreefed": 20304,
    "abilities": 3238,
    "Ġstake": 14005,
    "Ġuncomp": 15844,
    "Ġwidth": 16773,
    "p": 84,
    "Ġweighed": 8715,
    "Ġornamented": 20364,
    "imperturbable": 25790,
    "safe": 10058,
    "Ġdecoyed": 18488,
    "Ġinstrument": 7120,
    "mews": 22716,
    "attoo": 6808,
    "rom": 420,
    "Ġinfallible": 15073,
    "conda": 18993,
    "icting": 12856,
    "Ġspinal": 12305,
    "Ġpraised": 19555,
    "Ġintrospective": 20602,
    "Ġdinnertime": 16720,
    "Ġdiscoloured": 15255,
    "Ġbrightly": 13227,
    "Ġcontroverted": 23253,
    "Ġassault": 9841,
    "Ġpurport": 14581,
    ">": 34,
    "Ġwearied": 15796,
    "Ġloading": 15877,
    "Ġenter": 4027,
    "Ġpar": 456,
    "Ġinvari": 6530,
    "relatively": 24016,
    "Ġseaman": 8643,
    "fier": 9597,
    "Ġfam": 1585,
    "umbria": 23897,
    "Ġcompat": 2938,
    "quet": 6835,
    "Ġirrevoc": 15040,
    "hammock": 16356,
    "Ġbravery": 23839,
    "pond": 21014,
    "Ġsovereign": 10066,
    "Ġcringed": 25942,
    "boscombe": 26121,
    "Ġvirt": 3905,
    "Ġfog": 9665,
    "Ġrighteous": 18947,
    "faith": 15026,
    "ladyship": 14831,
    "Ġspecialized": 3918,
    "idol": 21769,
    "orious": 6009,
    "securing": 19815,
    "Ġpatter": 808,
    "Ġwhiteness": 5920,
    "Ġplus": 3881,
    "Ġshrill": 12145,
    "Ġabsorbed": 12334,
    "Ġgovernor": 16491,
    "Ġreciproc": 20624,
    "Ġfring": 11130,
    "fav": 6649,
    "Ġasiatics": 20433,
    "Ġgleaming": 24995,
    "til": 17672,
    "ĠĠĠĠĠĠĠĠĠĠĠĠĠĠĠĠĠĠĠĠĠĠĠĠĠĠĠĠĠĠĠĠĠĠĠĠĠĠĠ": 19260,
    "Ġshallow": 14397,
    "Ġsatisfaction": 5667,
    "ommod": 13979,
    "Ġrushed": 4084,
    "Ġleviathan": 3289,
    "joy": 3334,
    "Ġprimary": 25062,
    "lion": 20945,
    "ago": 14067,
    "ume": 4837,
    "Ġmechanism": 2294,
    "Ġcultivated": 17366,
    "Ġacid": 22684,
    "Ġoust": 21326,
    "Ą": 197,
    "Ġcomprehend": 6495,
    "queequeg": 4335,
    "box": 5749,
    "Ġneatly": 17017,
    "ui": 9148,
    "sick": 13786,
    "Ġmalacca": 24392,
    "Ġeternally": 11372,
    "deli": 15347,
    "Ġdisorder": 16053,
    "Ġsaxon": 25469,
    "Ġhebrew": 13990,
    "Ġrequested": 14299,
    "Ġbutler": 18270,
    "abb": 15742,
    "angle": 22107,
    "Ġsakes": 18326,
    "imental": 16534,
    "det": 5207,
    "olly": 3227,
    "xology": 21143,
    "Ġlocket": 22116,
    "Ġcoinc": 11004,
    "Ġhind": 9192,
    "acid": 11008,
    "rule": 15903,
    "Ġconclusion": 5987,
    "recked": 17763,
    "Ġbelfry": 26439,
    "era": 13849,
    "because": 4924,
    "cheer": 9441,
    "decan": 22144,
    "Ġsatisfy": 6912,
    "Ġqu": 603,
    "Ġexpression": 4517,
    "apers": 3479,
    "Ġdawned": 14996,
    "vate": 21111,
    "share": 14238,
    "Ġunh": 9257,
    "Ġsubmerged": 11875,
    "Ġdeftly": 26494,
    "Ġusage": 9734,
    "nuts": 15400,
    "artificial": 981,
    "Ġwickedness": 9530,
    "Ġjac": 1898,
    "Ġpromised": 5181,
    "Ġindignity": 18835,
    "leness": 4691,
    "interrupt": 8620,
    "Ġsulkily": 25881,
    "chanced": 18810,
    "Ġitem": 12705,
    "damp": 15346,
    "tackle": 17323,
    "Ġplied": 22599,
    "Ġthrough": 601,
    "Ġengagements": 9982,
    "Ġincessant": 15100,
    "iates": 13739,
    "Ġresiding": 16064,
    "Ġglo": 1714,
    "Ġtouched": 6002,
    "Ġdi": 6526,
    "Ġdiff": 3116,
    "ampl": 21845,
    "Ġshrieked": 9552,
    "semicirc": 26492,
    "fine": 10094,
    "urously": 18052,
    "star": 12676,
    "Ġplaning": 22603,
    "Ġtorm": 5434,
    "misfortunes": 16757,
    "Ġsculpture": 26016,
    "en": 271,
    "ulance": 15770,
    "Ġmorrow": 9347,
    "anse": 12579,
    "Ġdost": 7638,
    "gems": 20885,
    "Ġwaif": 9379,
    "Ġyes": 2688,
    "Ġlabrador": 23333,
    "Ġincom": 9773,
    "scotch": 25851,
    "Ġdisembow": 22540,
    "othe": 2613,
    "dissemble": 23493,
    "diminished": 20840,
    "Ġgn": 8823,
    "Ġfortun": 4982,
    "Ġlive": 2735,
    "Ġteacup": 16211,
    "Ġwar": 5526,
    "whiskers": 12314,
    "Ġmerry": 5870,
    "itement": 7835,
    "Ġappear": 2483,
    "Ġsteak": 9833,
    "bestowed": 12229,
    "Ġpitiful": 13241,
    "Ġcontinued": 2922,
    "Ġroared": 7025,
    "Ġinadequate": 17938,
    "Ġpaddock": 25039,
    "Ġaisle": 21203,
    "ipper": 13742,
    "Ġdissembling": 26255,
    "Ġcorresponds": 19823,
    "Ġpersuaded": 5769,
    "unts": 12735,
    "Ġodds": 13332,
    "Ġsnoo": 21230,
    "manner": 6172,
    "Ġopal": 23626,
    "counterpart": 26360,
    "augh": 1782,
    "Ġcautiously": 16978,
    "Ġoffing": 16146,
    "Ġvict": 3760,
    "Ġinquiring": 9003,
    "Ġunchanged": 22032,
    "Ġretort": 23071,
    "Ġexplo": 2283,
    "assment": 9743,
    "Ġcarries": 7675,
    "Ġduncan": 13463,
    "signed": 21063,
    "Ġcoat": 4555,
    "pop": 17632,
    "Ġarguments": 8037,
    "Ġbraz": 19360,
    "chet": 13219,
    "Ġafrica": 12348,
    "Ġsm": 704,
    "tling": 9146,
    "Ġprocedure": 2810,
    "Ġsignal": 5946,
    "inates": 21182,
    "Ġkitchen": 8498,
    "Ġjapanese": 10637,
    "Ġcling": 11775,
    "Ġhospitals": 24923,
    "intend": 16226,
    "constant": 11327,
    "Ġwinding": 8236,
    "sustained": 20570,
    "hours": 9128,
    "Ġout": 543,
    "claims": 25320,
    "Ġunjustifiable": 25111,
    "herself": 4891,
    "miraculous": 26397,
    "deployment": 26528,
    "vices": 21118,
    "irene": 15917,
    "Ġmonomaniac": 9572,
    "leads": 21372,
    "Ġbreakers": 12058,
    "ulus": 21867,
    "disposition": 10046,
    "neck": 14236,
    "fel": 8738,
    "Ġfootpath": 19339,
    "Ġdictated": 25219,
    "Ġgouldings": 26188,
    "unhappy": 10241,
    "Ġperfidious": 25666,
    "grateful": 10431,
    "gi": 17552,
    "Ġcongratulate": 9067,
    "wester": 21140,
    "Ġcommonest": 23091,
    "Ġate": 8845,
    "Ġunduly": 25994,
    "forbearance": 22802,
    "missionary": 24615,
    "correct": 24482,
    "Ġwhispers": 14702,
    "urp": 1473,
    "dearest": 11739,
    "Ī": 235,
    "Ġdetail": 635,
    "Ġportra": 9013,
    "Ġpossessions": 23827,
    "400": 20756,
    "forget": 11035,
    "Ġlong": 795,
    "Ġmadness": 6603,
    "maul": 11895,
    "emed": 3378,
    "christ": 10214,
    "Ġano": 11600,
    "dy": 4071,
    "miss": 3176,
    "Ġtusked": 25427,
    "Ġseedy": 21965,
    "Ġunknown": 4455,
    "Ġlasted": 11057,
    "Ġbegan": 2022,
    "alog": 8810,
    "antled": 18286,
    "returning": 12209,
    "Ġinterest": 2248,
    "Ġimply": 18443,
    "Ġpurse": 12014,
    "Ġdented": 17892,
    "Ġacceded": 22379,
    "Ġjustification": 22975,
    "Ġale": 9158,
    "Ġbowsprit": 16562,
    "horses": 17568,
    "pshire": 21025,
    "Ġcaw": 13885,
    "Ġfingers": 5672,
    "Ġvic": 5236,
    "Ġpand": 21456,
    "nui": 21001,
    "Ġinsomuch": 23684,
    "companion": 9561,
    "Ġcrush": 9426,
    "Ġthoroughly": 8348,
    "Ġcondem": 6340,
    "Ġchorus": 10949,
    "oriental": 23722,
    "Ġchecked": 9380,
    "glow": 20875,
    "Ġperiodical": 14774,
    "Ġnevertheless": 5040,
    "Ġlimping": 23545,
    "whales": 5187,
    "Ġconsequence": 5542,
    "Ġshocks": 16459,
    "lodged": 25907,
    "Ġgodly": 19081,
    "Ġvineyards": 25108,
    "rigging": 20008,
    "Ġthenceforth": 25183,
    "preservation": 25306,
    "Ġintelligible": 15944,
    "Ġsta": 18064,
    "Ġlads": 8601,
    "Ġbuff": 9176,
    "Ġintercept": 14271,
    "Ġdisappears": 18560,
    "Ġaustralia": 15235,
    "Ġchecking": 23288,
    "Ġetext": 23952,
    "Ġlizzie": 26463,
    "Ġla": 5914,
    "thed": 8832,
    "Ġfort": 2578,
    "hearth": 15501,
    "rested": 13077,
    "Ġfortifications": 23621,
    "Ġgradual": 20603,
    "icious": 7380,
    "Ġgifts": 21614,
    "Ġwithout": 1123,
    "Ġconvenient": 8346,
    "Ġzeros": 3324,
    "inent": 9632,
    "thrown": 8483,
    "Ġpromontory": 11944,
    "inspect": 11562,
    "Ġsoldiers": 8691,
    "Ġcorporeally": 25728,
    "atra": 17772,
    "charmed": 21698,
    "sooner": 14779,
    "ves": 697,
    "Ġdimin": 3870,
    "Ġcoarsely": 25829,
    "Ġsized": 11566,
    "Ġcha": 6853,
    "written": 7995,
    "Ġcoal": 18589,
    "inisc": 15490,
    "Ġideas": 5494,
    "Ġsuperfluous": 17416,
    "Ġcheeks": 5959,
    "Ġprehensile": 26535,
    "ugl": 23291,
    "Ġepit": 18008,
    "still": 4218,
    "ď": 208,
    "matical": 13131,
    "ique": 8747,
    "gled": 10702,
    "Ġjerking": 12249,
    "Ġlump": 21554,
    "Ġjaws": 5593,
    "ceptibly": 22360,
    "Ġtrapped": 23077,
    "77": 15303,
    "Ġmichael": 20681,
    "est": 500,
    "Ġxliv": 23410,
    "nonsense": 17616,
    "Ġhomely": 25220,
    "ader": 14014,
    "ibank": 6880,
    "Ġelephant": 8256,
    "Ġcab": 2631,
    "amed": 4450,
    "Ġpurposes": 11171,
    "oldened": 22642,
    "Ġsentry": 19025,
    "ccess": 3185,
    "Ġmazes": 25940,
    "Ġsluggishly": 25891,
    "hit": 20890,
    "fully": 2204,
    "james": 15375,
    "Ġworthless": 19567,
    "Ġhome": 2028,
    "photograph": 16157,
    "Ġing": 5284,
    "ires": 6039,
    "Ġlay": 582,
    "Ġ122": 24466,
    "instinct": 19545,
    "quite": 4647,
    "à": 161,
    "falgar": 26130,
    "Ġreb": 15694,
    "Ġ74": 24263,
    "Ġpraises": 16731,
    "Ġgoat": 16009,
    "abouts": 9456,
    "Ġmining": 22832,
    "Ġhorrid": 7999,
    "envelope": 17783,
    "Ġinvective": 26182,
    "Ġattractions": 13553,
    "illes": 12698,
    "Ġhemp": 9219,
    "Ġrevers": 21666,
    "apothe": 22337,
    "Ġabroad": 8870,
    "Ġolive": 12569,
    "Ġsubsequently": 16163,
    "Ġremained": 3142,
    "Ġlively": 5449,
    "Ġmatted": 22915,
    "Ġquebec": 24134,
    "Ġindulge": 10586,
    "Ġentered": 2847,
    "Ġsituation": 4068,
    "Ġdesist": 16241,
    "inian": 21184,
    "scot": 14420,
    "alf": 4639,
    "Ġell": 17716,
    "foreign": 18543,
    "ining": 3223,
    "flutter": 23973,
    "Ġlodged": 11253,
    "dances": 17522,
    "Ġeffeminacy": 20718,
    "Ġcontradictory": 20399,
    "Ġapologizing": 25198,
    "Ġprobability": 1127,
    "allows": 15910,
    "int": 1198,
    "Ġsquee": 7929,
    "rop": 540,
    "Ġtissu": 25920,
    "Ġverge": 23889,
    "Ġhospital": 15041,
    "Ġboarders": 16601,
    "Ġerie": 20056,
    "Ġchaos": 17010,
    "wantonly": 25153,
    "Ġherds": 9720,
    "Ġamateur": 22488,
    "Ġloun": 7167,
    "Ġsunrise": 9377,
    "Ġspurn": 18309,
    "Ġhorsey": 24251,
    "ux": 7813,
    "influences": 25251,
    "Ġren": 3844,
    "hereafter": 19218,
    "Ġnodding": 23338,
    "ry": 807,
    "Ġaccording": 5508,
    "Ġunpardonable": 22063,
    "Ġprophet": 7682,
    "Ġprovidence": 18746,
    "Ġangrily": 9411,
    "prevent": 11799,
    "Ġspir": 2427,
    "Ġsin": 1516,
    "Ġvaulted": 25171,
    "inkers": 22617,
    "Ġeth": 17717,
    "exceedingly": 9570,
    "Ġbound": 3518,
    "Ġisn": 7866,
    "Ġattitude": 8908,
    "Ġconvulsive": 19307,
    "Ġmaj": 3924,
    "eled": 2356,
    "Ġstones": 9225,
    "osis": 18389,
    "Ġpeered": 18668,
    "Ġsod": 11565,
    "despair": 8344,
    "ips": 2591,
    "Ġdeep": 822,
    "Ġpulling": 5864,
    "Ġclair": 6270,
    "Ġcoars": 14273,
    "ldog": 21920,
    "Ġlimb": 9406,
    "Ġsunset": 8966,
    "Ġstrasburgh": 18614,
    "europe": 20667,
    "Ġfinger": 5274,
    "bonnet": 25742,
    "Ġpeter": 10539,
    "Ġsupper": 4666,
    "agues": 8161,
    "Ġsick": 4693,
    "Ġbrood": 23102,
    "Ġobsequious": 17406,
    "Ġproposition": 23251,
    "Ġreserves": 19672,
    "Ġentreat": 4511,
    "Ġfeebly": 24877,
    "sign": 8388,
    "*": 14,
    "cloudless": 20334,
    "Ġberkshire": 16885,
    "Ġpursuing": 9442,
    "Ġvoyagings": 19237,
    "Ġconcre": 16389,
    "Ġrobustness": 18916,
    "joined": 13277,
    "Ġcaresses": 26059,
    "igate": 8828,
    "Ġswarming": 16272,
    "advancing": 14838,
    "voice": 7816,
    "Ġsuperior": 2752,
    "adier": 18091,
    "Ġconstable": 19067,
    "Ġself": 1777,
    "Ġgenial": 12198,
    "restored": 18979,
    "Ġindulged": 13419,
    "feels": 22506,
    "Ġdeafened": 25651,
    "Ġsuppressed": 11915,
    "Ġswamp": 14438,
    "Ġimplement": 2975,
    "ersampling": 18216,
    "Ġrecompense": 14840,
    "ence": 393,
    "Ġlessons": 7693,
    "ckled": 9261,
    "umbent": 12093,
    "Ġconsidered": 4612,
    "ulum": 21866,
    "ten": 1554,
    "driver": 14923,
    "Ă": 195,
    "Ġwhistles": 24624,
    "aft": 9587,
    ",)": 9105,
    "Ġbiting": 17862,
    "tackles": 25624,
    "Ġmoderate": 10941,
    "nihil": 9850,
    "Ġhours": 2819,
    "Ġomen": 11580,
    "Ġdeceived": 6546,
    "Ġpathways": 11156,
    "scra": 13025,
    "Ġinclemency": 22558,
    "foundation": 16715,
    "Ġresounded": 22547,
    "Ġlagged": 21560,
    "sych": 9893,
    "Ġfrighted": 24031,
    "acknowledge": 18468,
    "rodu": 1818,
    "comparatively": 25840,
    "Ġdeaden": 23461,
    "Ġsoap": 14134,
    "Ġmatrices": 4969,
    "isms": 12584,
    "cd": 15325,
    "Ġmoods": 14953,
    "Ġsuspic": 4472,
    "charge": 9452,
    "Ġplanets": 24058,
    "valu": 1661,
    "Ġcomponents": 8897,
    "Ġwind": 1434,
    "Ġscrib": 22286,
    "commence": 19994,
    "achines": 1722,
    "Ġzodiac": 16176,
    "Ġnoiseless": 10360,
    "indul": 22373,
    "Ġexecuted": 9476,
    "Ġechoed": 20426,
    "adequately": 20321,
    "stump": 21655,
    "Ġgrin": 5482,
    "Ġgout": 21598,
    "visited": 13350,
    "Ġpelt": 15613,
    "Ġbeneath": 3239,
    "invincible": 25091,
    "Ġwonderful": 4564,
    "Ġwee": 21921,
    "Ġwhoever": 10978,
    "asol": 21542,
    "Ġincognita": 26552,
    "Ġworks": 5860,
    "Ġlikeness": 11182,
    "Ġcring": 15555,
    "Ġadopt": 10636,
    "olerable": 7183,
    "Ġthrows": 14739,
    "Ġbluff": 16518,
    "sto": 3201,
    "loving": 18540,
    "Ġspeculations": 23000,
    "Ġvehicle": 20140,
    "impatient": 13643,
    "ously": 2489,
    "Ġschol": 17379,
    "Ġidentifies": 12018,
    "Ġrubbed": 12958,
    "chor": 6148,
    "corrob": 24484,
    "gences": 20878,
    "tempest": 16960,
    "ela": 21571,
    "Ġspoke": 2747,
    "tain": 558,
    "Ġacqu": 1418,
    "Ġticklish": 25036,
    "tent": 21066,
    "Ġtink": 9152,
    "Ġuneasiness": 9488,
    "dition": 15341,
    "etween": 775,
    "calculation": 25688,
    "beautiful": 10652,
    "Ġquit": 5245,
    "Ġeat": 4644,
    "Ġextremity": 8992,
    "Ġignorance": 6621,
    "els": 1762,
    "digger": 24311,
    "Ġcaptured": 7245,
    "elect": 20847,
    "entering": 17978,
    "Ġsolutions": 1945,
    "Ġyawned": 15053,
    "pression": 10410,
    "Ġimportance": 4901,
    "ites": 3896,
    "ster": 1950,
    "clopÃ¦dia": 15259,
    "Ġsanguinary": 25929,
    "Ġmortally": 23919,
    "ethics": 8882,
    "Ġtro": 7356,
    "Ġboomer": 20169,
    "retaining": 21247,
    "Ġavoided": 13260,
    "Ġbehaved": 13255,
    "Ġtransformer": 2634,
    "horror": 13161,
    "akened": 7415,
    "attentions": 13577,
    "Ġearlier": 9091,
    "onsense": 6432,
    "av": 739,
    "Ġinnovative": 1584,
    "ades": 5631,
    "Ġprophetic": 20022,
    "Ġfollies": 16256,
    "dilig": 17284,
    "disputed": 23501,
    "girdling": 26390,
    "Ġvirtues": 9940,
    "Ġearnestly": 5980,
    "Ġlowermost": 23245,
    "Ġsigned": 11180,
    "Ġsemicirc": 16395,
    "Ġbustle": 17229,
    "Ġtorments": 13396,
    "Ġsolicited": 20039,
    "Ġmiddle": 4136,
    "Ġwheels": 10915,
    "medi": 2627,
    "Ġsurplus": 26303,
    "Ġw": 272,
    "Ġmarshalled": 25316,
    "Ġperennial": 22696,
    "Ġapplies": 11965,
    "regularly": 13210,
    "<": 32,
    "Ġvinc": 14087,
    "Ġaug": 6236,
    "ov": 15402,
    "Ġmons": 10160,
    "avoid": 9309,
    "Ġhunters": 6302,
    "Ġcomplaint": 24774,
    "win": 6802,
    "Ġfetch": 7770,
    "onds": 12999,
    "surprised": 9535,
    "Ġpadd": 9673,
    "Ġthump": 11615,
    "Ġlonged": 6437,
    "ourage": 2451,
    "ulnerable": 18152,
    "willingly": 11986,
    "bantering": 25254,
    "officer": 17054,
    "dan": 17516,
    "Ġcasked": 24496,
    "eth": 622,
    "Ġaccelerating": 1619,
    "Ġinser": 6820,
    "Ġstaving": 21740,
    "Ġbesides": 3513,
    "Ġantiquity": 15233,
    "ĠĠĠĠĠĠĠĠĠĠĠĠĠĠĠĠĠĠĠĠĠĠĠĠĠĠĠ": 14888,
    "Ġpo": 737,
    "aken": 1869,
    "o": 83,
    "insulting": 26055,
    "Ġwomen": 4751,
    "resting": 23237,
    "Ġfloated": 7288,
    "thar": 18217,
    "Ġrecently": 11862,
    "Ġporpoise": 7108,
    "ampling": 12730,
    "Ġtore": 6532,
    "narrowly": 20349,
    "towards": 5003,
    "Ġmuttered": 7088,
    "rously": 17655,
    "Ġvia": 2382,
    "Ġchronic": 9933,
    "pray": 5429,
    "Ġuncommonly": 7760,
    "Ġsorely": 17258,
    "ċ": 204,
    "Ġvib": 8165,
    "Ġedges": 3825,
    "iloqu": 11651,
    "mense": 4781,
    "Ġhig": 754,
    "Ġfolly": 7941,
    "accompan": 11455,
    "Ġannot": 15605,
    "Ġdismasted": 15254,
    "kee": 18273,
    "alyards": 18782,
    "os": 525,
    "Ġtars": 21166,
    "Ġincome": 7917,
    "Ġardent": 9974,
    "irty": 4046,
    "causes": 20345,
    "Ġpatiently": 19919,
    "abeth": 907,
    "Ġalphabetical": 17203,
    "omuch": 21642,
    "Ġevid": 3500,
    "fitting": 1512,
    "oriented": 2947,
    "onious": 15520,
    "Ġweep": 7621,
    "Ġsecond": 1881,
    "anche": 10791,
    "mathematics": 26304,
    "Ġquadru": 16004,
    "Ġpardon": 5727,
    "Ġexpose": 10331,
    "peculiarities": 13473,
    "favourite": 15146,
    "turn": 4293,
    "Ġeclips": 20698,
    "Ġseethe": 21966,
    "float": 19807,
    "Ġassur": 6075,
    "mistake": 24528,
    "Ġfritters": 23258,
    "Ġuneasily": 24232,
    "Ġpitch": 5767,
    "Ġadaptation": 3158,
    "Ġcovered": 5171,
    "Ġfurled": 22813,
    "Ġpreceding": 7529,
    "Ġlikened": 16500,
    "ters": 1573,
    "Ġnovember": 11753,
    "position": 15415,
    "istence": 2642,
    "Ġgans": 5822,
    "Ġactor": 16051,
    "¸": 121,
    "iod": 3838,
    "fere": 10992,
    "Ġemergencies": 17364,
    "Ġillness": 8594,
    "xt": 2081,
    "Ġdesperately": 24656,
    "iliary": 21729,
    "Ġintroduction": 8974,
    "Ġmonkey": 8227,
    "Ġflowed": 10375,
    "Ġcaroline": 7255,
    "//": 11466,
    "Ġdeficient": 18826,
    "Ġportentous": 15232,
    "Ġhorizon": 6635,
    "multiple": 15110,
    "Ġprofess": 3697,
    "difference": 13710,
    "Ġsupposed": 4559,
    "Ġslang": 23161,
    "Ġwiser": 14732,
    "actor": 11841,
    "Ġiceberg": 14718,
    "sharp": 10310,
    "cares": 24310,
    "Ġlung": 7168,
    "Ġregretted": 13402,
    "Ġsn": 2949,
    "hereabouts": 23607,
    "few": 8204,
    "Ġhighway": 14348,
    "ateness": 15522,
    "Ġbrides": 22867,
    "Ġattempts": 10494,
    "Ġsympath": 4862,
    "Ġdistress": 5845,
    "Ġpurchasing": 19876,
    "pardonable": 17219,
    "Ġxiv": 23409,
    "Ġdiscernment": 15071,
    "Ġlargely": 14287,
    "allied": 7410,
    "Ġran": 3342,
    "Ġpresumed": 10548,
    "unken": 10240,
    "Ġfingertips": 24019,
    "Ġemaciated": 20640,
    "Ġsurm": 7477,
    "Ġbiological": 1932,
    "Ġshowers": 16606,
    "Ġwestern": 10658,
    "Ġdecay": 1015,
    "recurring": 24196,
    "Ġrenew": 6147,
    "characteristic": 24685,
    "Ġexamination": 8005,
    "Ġrecounted": 22730,
    "Ġinexpress": 12639,
    "Ġnarrations": 24351,
    "Ġwails": 21298,
    "Ġgardiner": 3240,
    "asily": 13948,
    "dug": 18457,
    "Ġsatisf": 2807,
    "ę": 218,
    "finger": 10097,
    "soldiers": 25911,
    "Ġdub": 13911,
    "Ġuprising": 12806,
    "Ġresided": 11815,
    "uteronomy": 15667,
    "Ġshelf": 12271,
    "eleg": 20850,
    "earliest": 20122,
    "Ġfootmen": 23799,
    "Ġanomalous": 25637,
    "Ġbenchmarks": 15023,
    "Ġsharing": 3475,
    "porary": 14551,
    "view": 5897,
    "Ġeste": 6085,
    "orting": 9739,
    "Ġunbroken": 18250,
    "invite": 25090,
    "Ġarctic": 12815,
    "Ġfaintness": 24570,
    "Ġdisappearance": 9301,
    "Ġraise": 6168,
    "Ġmathemat": 3206,
    "tolerable": 17689,
    "Ġsay": 932,
    "dient": 441,
    "linearity": 1651,
    "Ġdeployment": 11194,
    "Ġfixing": 13158,
    "belief": 13284,
    "Ġeggs": 12345,
    "ints": 3414,
    "Ġinstincts": 16987,
    "Ġcolle": 8929,
    "Ġphenomena": 21485,
    "Ġskil": 14355,
    "ackled": 22423,
    "Ġinconsist": 17937,
    "Ġcontinuation": 22920,
    "Ġgentleness": 8714,
    "heredit": 21211,
    "Ġfragrant": 13102,
    "Ġshrink": 14806,
    "Ġexterior": 19990,
    "Ġantichron": 24183,
    "unworthy": 18163,
    "Ġshin": 18227,
    "Ġluxurious": 17313,
    "ouncing": 8497,
    "Ġlubber": 17446,
    "Ġnarrated": 14873,
    "Ġcompassionate": 24721,
    "Ġ11": 5319,
    "Ġlogs": 16349,
    "rict": 8093,
    "Ġarom": 15494,
    "Ġforbe": 8459,
    "mal": 6795,
    "Ġerred": 21158,
    "yielded": 25756,
    "Ġbuzz": 23999,
    "asleep": 21546,
    "Ġscatter": 18397,
    "Ġheavens": 5050,
    "Ġcurve": 22965,
    "ected": 7873,
    "osity": 14187,
    "arled": 21444,
    "Ġaims": 15498,
    "Ġphase": 14473,
    "desc": 1393,
    "Ġconsequent": 18112,
    "Ġtapers": 11555,
    "Ġfreely": 7058,
    "Ġhoe": 23353,
    "Ġbub": 8118,
    "Ġmagnificence": 20634,
    "Ġanxious": 4519,
    "Ġriddles": 16733,
    "Ġocc": 889,
    "Ġ97": 19776,
    "Ġbeale": 12703,
    "gain": 8741,
    "Ġstump": 7604,
    "Ġslept": 8259,
    "Ġcolumn": 9332,
    "canst": 22970,
    "Ġstudent": 14480,
    "izer": 2030,
    "Ġruthless": 15288,
    "Ġinsane": 19270,
    "Ġwhelmed": 25999,
    "Ġsheath": 14153,
    "Ġcrystals": 20229,
    "Ġinheriting": 25355,
    "Ġagile": 22516,
    "tr": 3578,
    "greatly": 16625,
    "Ġdefection": 22944,
    "Ġgre": 1582,
    "Ġshutters": 9941,
    "haz": 17565,
    "gun": 10100,
    "Ġsmoking": 6430,
    "Ġlatitudes": 9500,
    "Ġcop": 7581,
    "Ġducks": 25161,
    "Ġwhether": 1998,
    "ertion": 12043,
    "Ġstout": 6026,
    "dut": 10091,
    "Ġprob": 970,
    "Ġmurder": 4281,
    "plex": 708,
    "Ġgodlike": 23359,
    "Ġwhile": 605,
    "uguese": 20733,
    "oked": 4309,
    "Ġviolent": 5117,
    "Ġhints": 8431,
    "truth": 9923,
    "pacific": 17642,
    "Ġsiber": 17756,
    "respectively": 24698,
    "large": 6628,
    "tur": 5688,
    "Ġmug": 21314,
    "antingly": 22101,
    "darcy": 5208,
    "Ġlooked": 1802,
    "Ġgibberish": 25786,
    "bright": 8993,
    "Ġanx": 3183,
    "pitch": 13301,
    "Ġcurtains": 22969,
    "Ġungod": 22025,
    "Ġbeloved": 5572,
    "Ġgaiety": 16750,
    "Ġinquir": 4242,
    "Ġhold": 2244,
    "Ġworlds": 11950,
    "agitation": 14070,
    "Ġgover": 2461,
    "forks": 26388,
    "Ġlongbourn": 3508,
    "Ġunreasoning": 15848,
    "Ġis": 347,
    "Ġeffusion": 22490,
    "mingled": 14715,
    "cong": 10692,
    "lead": 10169,
    "prisoner": 20545,
    "Ġbreaches": 14522,
    "Ġcanoes": 12809,
    "Ġbill": 4037,
    "Ġplank": 7035,
    "Ġretention": 23072,
    "Ġlamb": 8818,
    "oard": 4810,
    "Ġsynd": 22213,
    "Ġdecency": 18485,
    "Ġadrift": 11726,
    "saturday": 14860,
    "Ġplainer": 23705,
    "Ġvanished": 6874,
    "Ġwheel": 9722,
    "Ġoperations": 2297,
    "Ġsub": 952,
    "whalers": 17265,
    "Ġengineering": 3027,
    "Ġcolumb": 22856,
    "objections": 19917,
    "modern": 1166,
    "Ġowns": 22827,
    "Ġdent": 13908,
    "Ġincommod": 25308,
    "cork": 20797,
    "Ġcharted": 22253,
    "itous": 13869,
    "Ġprotecting": 24686,
    "solic": 16382,
    "Ġarthur": 7196,
    "dear": 6557,
    "ingolstadt": 21305,
    "Ġberm": 21385,
    "arken": 18667,
    "Ġtexture": 19161,
    "gro": 10098,
    "Ġstrolled": 16771,
    "Ġguineas": 16271,
    "Ġdays": 2078,
    "ĠĠĠĠĠĠĠĠĠĠĠĠĠĠĠĠĠĠĠĠĠĠĠĠĠĠĠĠĠĠĠĠ": 2738,
    "Ġpray": 3897,
    "Ġmartial": 20293,
    "Ġrevealing": 3922,
    "Ġlizzy": 3545,
    "master": 5687,
    "Ġadmits": 23553,
    "Ġmixture": 9566,
    "mouth": 9134,
    "harpooneers": 8694,
    "Ġpurring": 23476,
    "Ġoutlandish": 12842,
    "Ġsa": 474,
    "Ġexplanatory": 22205,
    "Ġcurse": 7668,
    "uvian": 12246,
    "Ġsees": 8848,
    "Ġmoodily": 19836,
    "Ġsurrounds": 24233,
    "Ġfounded": 8562,
    "Ġindu": 5295,
    "Ġwash": 9707,
    "Ġsurprising": 14598,
    "Ġgoin": 18469,
    "rederick": 14082,
    "Ġour": 1011,
    "Ġpanel": 13374,
    "Ġhelm": 5276,
    "Ġcalmness": 12097,
    "code": 15331,
    "Ġribbons": 24324,
    "Ġchamber": 6215,
    "Ġfraud": 19043,
    "Ġwilling": 7421,
    "Ġlichen": 20094,
    "Ġquarrels": 16568,
    "Ġmagnified": 23205,
    "lived": 12490,
    "Ġeasy": 3450,
    "Ġmouths": 7492,
    "Ġsymp": 4504,
    "Ġyojo": 7612,
    "Ġthreading": 23404,
    "Ġtiles": 17727,
    "Ġcas": 8412,
    "acter": 2504,
    "hurt": 19879,
    "Ġdrugged": 12606,
    "poles": 16213,
    "Ġprofound": 5497,
    "brought": 7285,
    "Ġlimit": 10446,
    "Ġaz": 9633,
    "burning": 25080,
    "Ġgrip": 11631,
    "Ġshag": 9255,
    "Ġsubterranean": 13614,
    "Ġchilian": 25564,
    "Ġglow": 7171,
    "Ġpan": 5082,
    "Ġflee": 7081,
    "Ġfitzwilliam": 5771,
    "Ġrival": 10489,
    "Ġcripple": 11443,
    "auley": 22625,
    "wished": 13807,
    "eag": 20843,
    "Ġselfishness": 12292,
    "Ġskirting": 22799,
    "Ġdesirous": 8946,
    "Ġblameless": 19860,
    "Ġdizzy": 21434,
    "Ġefficient": 1032,
    "scissors": 20728,
    "ľ": 255,
    "Ġalleg": 14019,
    "nobody": 16139,
    "Ġwhitney": 11376,
    "again": 3396,
    "^{": 15307,
    "Ġapparatus": 24908,
    "Ġswift": 3667,
    "Ġglobu": 23273,
    "Ġexpanding": 25239,
    "Ġfry": 17880,
    "Ġirregular": 9869,
    "Ġpleated": 16300,
    "Ġsomebody": 7912,
    "Ġthousandth": 23685,
    "Ġlapse": 17122,
    "ulatory": 15771,
    "Ġmilitary": 11261,
    "-": 17,
    "erer": 8736,
    "Ġbowditch": 19324,
    "Ġconting": 18472,
    "bweb": 20792,
    "Ġsle": 2013,
    "oney": 3051,
    "Ġvit": 10249,
    "Ġfrowning": 13626,
    "Ġprison": 5403,
    "Ġsmelling": 16069,
    "Ġbutter": 6842,
    "Ġdestructive": 23487,
    "jumped": 20248,
    "Ġ9": 5902,
    "Ġgrecian": 26296,
    "Ġunprinciple": 18254,
    "Ġsecondly": 14519,
    "Ġofficially": 24838,
    "Ġpausing": 8657,
    "Ġcaused": 5048,
    "Ġeagle": 13202,
    "Ġleading": 7297,
    "Ġaddress": 2269,
    "Ġinjustice": 9194,
    "Å": 134,
    "Ġearthquake": 14629,
    "pron": 9010,
    "felicity": 25143,
    "Ġwholly": 4449,
    "frisco": 16788,
    "hello": 13366,
    "Ġaccused": 8510,
    "Ġown": 1007,
    "whal": 10943,
    "Ġchanc": 18384,
    "Ġlodging": 24094,
    "wear": 22685,
    "Ġsurmis": 23464,
    "Ġpersuas": 23949,
    "Ġaccounting": 14572,
    "Ġtoken": 2038,
    "Ġcalculate": 13266,
    "Ġtrample": 20329,
    "rip": 9245,
    "Ġattent": 4361,
    "Ġdiverse": 19211,
    "je": 11499,
    "appears": 12063,
    "Ġhunted": 7453,
    "Ġelegant": 7533,
    "Ġcities": 17828,
    "Ġalan": 10872,
    "rolled": 9063,
    "fresh": 13394,
    "earnestly": 17315,
    "seized": 14037,
    "illings": 14144,
    "itage": 17817,
    "ulpt": 10888,
    "Ġaffectionately": 13170,
    "Ġenvy": 13205,
    "Ġexecute": 7506,
    "Ġraving": 16110,
    "Ġsilly": 7687,
    "Ġinch": 7850,
    "ni": 1611,
    "fe": 679,
    "Ġoutlined": 22323,
    "Ġivory": 4478,
    "athom": 12942,
    "Ġthroughout": 8881,
    "Ġsteered": 11094,
    "Ġcrunched": 19121,
    "Ġcares": 9371,
    "combined": 20322,
    "crowded": 20192,
    "Ġpang": 15608,
    "Ġjackal": 24241,
    "romang": 22008,
    "iture": 5696,
    "Ġmoccas": 22439,
    "Ġfates": 15581,
    "Ġasylum": 13669,
    "Ġcruellest": 19660,
    "Ġatrocious": 21946,
    "relig": 15514,
    "Ġbu": 3680,
    "Ġrapt": 7225,
    "Ġcabaco": 13169,
    "Ġprove": 5231,
    "zers": 21148,
    "akin": 11772,
    "gence": 875,
    "Ġsanely": 24982,
    "flames": 14714,
    "Ġjonas": 20611,
    "Ġwatchman": 23669,
    "Ġslee": 8978,
    "reproof": 25433,
    "Ġmightier": 18730,
    "Ġkl": 2736,
    "Ġriveted": 13621,
    "Ġsherry": 19453,
    "musical": 25341,
    "faint": 17546,
    "ralian": 19602,
    "Ġgriefs": 16772,
    "Ġoftentimes": 20157,
    "Ġgoodge": 22824,
    "Ġtoday": 12647,
    "Ġilleg": 21625,
    "Ġringleader": 26213,
    "Ġsales": 12811,
    "Ġdraws": 19438,
    "Ġstudy": 1789,
    "Ġneurons": 977,
    "hunter": 10559,
    "Ġmealy": 18121,
    "umbers": 10921,
    "Ġlarge": 1066,
    "gument": 20886,
    "Ġwarnings": 16882,
    "Ġowning": 18745,
    "Ġdarkness": 4278,
    "Ġtangle": 25760,
    "tipt": 25085,
    "direful": 25896,
    "embarr": 17294,
    "reluct": 26163,
    "Ġpoet": 8208,
    "eel": 11487,
    "app": 1043,
    "Ġsatisfied": 4170,
    "Ġinfatuation": 25857,
    "path": 10122,
    "Ġfoundling": 22977,
    "pemberley": 9624,
    "Ġdaw": 21431,
    "dishonourable": 26366,
    "Ġdisregarded": 22533,
    "Ġloveliness": 13611,
    "Ġventilator": 8718,
    "Ġdiminish": 14747,
    "laug": 10710,
    "Ġfabric": 25947,
    "besides": 8700,
    "Ġomens": 21330,
    "Ġencoun": 4513,
    "Ġgoverning": 2796,
    "Ġmuskets": 17057,
    "Ġoverwhelmed": 11406,
    "Ġsofas": 26225,
    "far": 5787,
    "curiosity": 8628,
    "ording": 9768,
    "Ġdecanter": 22447,
    "cest": 12448,
    "Ġslapped": 23173,
    "Ġintroduces": 3269,
    "Ġunseen": 3523,
    "Ġtens": 17724,
    "Ġwake": 4750,
    "Ġsome": 655,
    "Ġgrammar": 1062,
    "partly": 14603,
    "Ġnonsensical": 21531,
    "Ġlowly": 11124,
    "tles": 10733,
    "main": 8088,
    "mmed": 7914,
    "itt": 571,
    "inder": 9156,
    "Ġbells": 19603,
    "Ġbubbles": 11401,
    "Ġattaining": 15806,
    "ratches": 20127,
    "Ġconf": 1819,
    "windward": 24162,
    "Ġsplinter": 23748,
    "ject": 874,
    "Ġvenge": 5420,
    "deceptive": 22152,
    "Ġrighted": 23181,
    "Ġsuppression": 23003,
    "Ġthreatening": 16829,
    "Ġ15": 9328,
    "training": 2515,
    "Ġunforeseen": 22054,
    "Ġequinoctial": 20534,
    "Ġuppermost": 15281,
    "egypt": 15352,
    "Ġcrown": 5289,
    "ruit": 22190,
    "property": 20002,
    "Ġsmokes": 22562,
    "Ġgra": 415,
    "Ġkn": 4547,
    "pur": 7806,
    "Ġexal": 10880,
    "Ġcarried": 3692,
    "Ġcharley": 19006,
    "adjust": 21762,
    "resentment": 15188,
    "melancholy": 12356,
    "Ġspy": 22126,
    "Ġpil": 5014,
    "Ġhappily": 9335,
    "iss": 2176,
    "Ġclothed": 19608,
    "Ġugly": 8720,
    "struck": 7862,
    "below": 12125,
    "Ġver": 3391,
    "Ġstream": 5186,
    "Ġphrenologists": 25608,
    "wheel": 22871,
    "Ġparish": 8859,
    "took": 6166,
    "ications": 4447,
    "evidently": 20347,
    "arer": 3967,
    "autumn": 23344,
    "Ġmutter": 23956,
    "Ġcraven": 16471,
    "Ġresolved": 3795,
    "Ġro": 606,
    "iliation": 10863,
    "kindred": 24051,
    "flask": 12103,
    "Ġuseless": 7039,
    "ippi": 20246,
    "ė": 216,
    "med": 1912,
    "hastening": 24447,
    "contemplated": 20460,
    "forgetting": 25486,
    "Ġflattered": 10378,
    "Ġundulated": 19518,
    "Ġbewitched": 25975,
    "bourne": 19103,
    "ague": 3904,
    "forward": 2188,
    "Ġardour": 8043,
    "ospit": 22266,
    "Ġdaring": 8121,
    "Ġbelieve": 2145,
    "mph": 20973,
    "communication": 25880,
    "Ġsensitivity": 3071,
    "Ġwreaths": 25937,
    "Ġlethar": 21749,
    "Ġmeridians": 17357,
    "Ġdreading": 23800,
    "enough": 6810,
    "begone": 12882,
    "readers": 23850,
    "Ġwink": 11573,
    "Ġprovided": 6579,
    "incing": 15487,
    "Ġpines": 12621,
    "interred": 23738,
    "million": 25751,
    "Ġhardest": 18912,
    "Ġcrews": 8994,
    "Ġmiserable": 3633,
    "Ġlist": 2364,
    "Ġmortification": 12098,
    "ike": 5000,
    "Ġthoughtless": 16195,
    "Ġleader": 14704,
    "Ġsands": 14950,
    "Ġtutored": 20130,
    "Ġtackles": 8051,
    "Ġ1000": 3118,
    "oise": 15406,
    "Ġnatures": 16506,
    "ante": 11725,
    "ings": 631,
    "post": 6063,
    "Ġbrushed": 15574,
    "disgrace": 16460,
    "?âĢĿ": 700,
    "somebody": 14565,
    "disp": 7977,
    "Ġrevolver": 14902,
    "stricken": 9888,
    "Ġeul": 21620,
    "Ġundulates": 24118,
    "Ġcomplet": 4424,
    "Ġbrute": 8931,
    "persecutor": 26530,
    "gracious": 11835,
    "ĠĠĠĠĠĠĠĠĠĠĠĠĠĠĠĠĠ": 22953,
    "after": 2896,
    "ream": 2709,
    "spirits": 8055,
    "Ġenquired": 21943,
    "Ġtrip": 16789,
    "Ġacting": 10994,
    "discovering": 24253,
    "Ġbenevolent": 7773,
    "Ġnoticed": 5549,
    "arched": 10818,
    "Ġprovoke": 14828,
    "aching": 5832,
    "Ġdevoted": 6575,
    "resides": 23673,
    "Ġsoothingly": 25049,
    "Ġseams": 12128,
    "Ġsystems": 799,
    "ĠĠĠĠĠĠĠĠĠĠĠĠĠĠĠĠĠĠĠĠĠĠĠĠĠĠĠĠĠĠĠĠĠĠĠĠĠĠ": 16527,
    "Ġphysiognomically": 25612,
    "eded": 9677,
    "ippers": 17577,
    "boots": 11129,
    "nants": 17614,
    "Ġidentical": 10437,
    "Ġbaffled": 12406,
    "Ġserved": 8247,
    "Ġpool": 5173,
    "Ġmathematical": 3349,
    "Ġmajority": 13295,
    "Ġtwist": 11854,
    "Ġrefers": 1565,
    "odecimo": 11447,
    "grin": 19106,
    "rous": 3749,
    "Ġrheumatic": 20706,
    "Ġsung": 23274,
    "Ġattentively": 9954,
    "plague": 21956,
    "Ġhurled": 10432,
    "lamps": 25261,
    "Ġriots": 23894,
    "urn": 777,
    "Ġfled": 6673,
    "Ġfills": 12598,
    "troubled": 17112,
    "skirted": 24488,
    "taffrail": 15444,
    "Ġunimag": 12779,
    "Ġourselves": 5127,
    "âĢĶâĢĶâĢĿ": 15942,
    "iving": 1724,
    "Ġextremest": 19197,
    "Ġappo": 8501,
    "intending": 22937,
    "spouter": 22738,
    "father": 3774,
    "Ġmagnanimous": 17413,
    "fain": 13717,
    "Ġemails": 13109,
    "Ġaspire": 21903,
    "bedstead": 23934,
    "saf": 11528,
    "Ġdoubloon": 6945,
    "Ġcasualties": 25513,
    "bol": 8722,
    "Ġcustomary": 8674,
    "Ġfamiliarly": 11306,
    "disappearing": 23503,
    "iction": 4269,
    "const": 5940,
    "Ġunconscious": 9551,
    "Ġhaving": 1880,
    "Ġunappalled": 22066,
    "idually": 21772,
    "Ġwinged": 16996,
    "Ġavert": 14427,
    "iquet": 17576,
    "Ġflea": 23774,
    "acute": 22597,
    "abhorred": 17338,
    "pass": 4291,
    "onts": 15521,
    "Ġcreations": 18683,
    "istic": 1010,
    "Ġchurchyard": 16778,
    "fashioned": 9574,
    "Ġblood": 3170,
    "moved": 9788,
    "Ġencouraging": 2262,
    "Ġstam": 18067,
    "Ġdusky": 13551,
    "Ġaunts": 21202,
    "Ġchildhood": 13140,
    "comfortable": 7320,
    "Ġexecutioner": 12275,
    "Ġallowing": 2174,
    "suit": 18639,
    "Ġsidel": 9639,
    "(-": 2983,
    "baboon": 25517,
    "Ġendow": 23136,
    "Ġsnail": 19300,
    "Ġunobstructed": 18264,
    "Ġvilla": 14749,
    "sailing": 14716,
    "obli": 23096,
    "Ġir": 1991,
    "Ġsaving": 15890,
    "Ġidly": 16406,
    "Ġreveren": 13197,
    "Ġclubs": 25180,
    "Ġtaught": 6804,
    "iliating": 12699,
    "presbyter": 20620,
    "levi": 7049,
    "mixed": 17606,
    "Ġperform": 1038,
    "Ġperceptibly": 25821,
    "jah": 17582,
    "nineteenth": 26138,
    "Ġdisturbing": 19948,
    "Ġsocieties": 20184,
    "thr": 12764,
    "Ġthirst": 7591,
    "Ġanimated": 7702,
    "sympathy": 20544,
    "Ġstratag": 26028,
    "Ġjub": 22298,
    "Ġtyros": 26101,
    "Ġtiara": 26416,
    "Ġweaken": 21924,
    "Ġunavailing": 26216,
    "stript": 21659,
    "Ġanon": 9670,
    "Ġtool": 21513,
    "Ġtranslations": 12055,
    "Ġburg": 23652,
    "Ġsoup": 7069,
    "Ġemper": 9865,
    "Ġens": 2789,
    "Ġgardeners": 12124,
    "Ġmarvell": 7248,
    "Ġdefect": 8558,
    "feeders": 25236,
    "Ġmatter": 1732,
    "Ġcomprised": 14269,
    "sur": 4524,
    "Ġimpossible": 3542,
    "Ġpivot": 13925,
    "Ġbutcher": 18271,
    "Ġskilfully": 20526,
    "Ġknave": 11275,
    "thoroughly": 26509,
    "Ġturbid": 23612,
    "arboard": 7266,
    "Ġshare": 1659,
    "viv": 17699,
    "Ġwhence": 5840,
    "Ġdiscoverer": 26035,
    "Ġentailed": 11030,
    "Ġsanity": 24981,
    "vener": 21113,
    "Ġdevious": 22720,
    "Ġwreak": 16818,
    "ception": 6564,
    "Ġadd": 630,
    "Ġpaint": 7708,
    "Ġhedges": 19987,
    "Ġgro": 4398,
    "determination": 19947,
    ")(": 2984,
    "Ġapo": 9634,
    "Ġtaffrail": 15478,
    "oarsman": 25262,
    "Ġterrier": 23401,
    "inside": 23066,
    "Ġlays": 15992,
    "Ġcontinental": 19707,
    "tch": 9145,
    "olds": 9315,
    "Ġmad": 2425,
    "suitable": 18640,
    "hood": 2659,
    "isbury": 21379,
    "b": 70,
    "ñ": 178,
    "Ġquitted": 5311,
    "Ġwilliam": 3480,
    "Ġgrotesque": 26330,
    "Ġtyph": 10012,
    "Ġsord": 21221,
    "Ġmaker": 15546,
    "Ġacquaintance": 4131,
    "Ġdante": 21440,
    "exercise": 17461,
    "minute": 11277,
    "Ġaverage": 3140,
    "Ġmidst": 7986,
    "Ġpedd": 17909,
    "knowledge": 7479,
    "Ġcenturies": 8627,
    "Ġdwelt": 12609,
    "Ġinstruct": 2865,
    "over": 1847,
    "escape": 16010,
    "Ġpresentation": 14482,
    "Ġsustain": 10021,
    "Ġpartial": 2128,
    "Ġnow": 692,
    "elements": 25204,
    "Ġdictating": 20154,
    "Ġsnoring": 23741,
    "pede": 19931,
    "stalk": 21652,
    "Ġvig": 5460,
    "queens": 22898,
    "Ġselect": 3995,
    "Ġaside": 5234,
    "chronicle": 26481,
    "Ġseizure": 21967,
    "Ġhandful": 9786,
    "Ġveracity": 23891,
    "Ġgroans": 14826,
    "Ġbinnacle": 8119,
    "bots": 10086,
    "stuff": 15691,
    "Ġperplex": 2715,
    "Ġmetrics": 19076,
    "Ġvalu": 5039,
    "Ġsuffusing": 23031,
    "Ġbritannica": 24680,
    "Ġnoisier": 4625,
    "Ġclaim": 5106,
    "bler": 11475,
    "Ġhawsers": 26503,
    "Ġmist": 2877,
    "Ġstretching": 10019,
    "Ġpredestinated": 18520,
    "Ġrenounce": 19470,
    "Ġlangs": 13956,
    "finish": 24383,
    "Ġafternoon": 6054,
    "Ġceremonious": 24837,
    "eh": 13712,
    "Ġunlocked": 14122,
    "iluvian": 18062,
    "returns": 23140,
    "Ġprotracted": 19471,
    "Ġwithstand": 10229,
    "Ġarid": 22185,
    "Ġpauses": 14817,
    "zing": 7820,
    "Ġmutilated": 23961,
    "pred": 2803,
    "Ġepidemic": 20697,
    "ignor": 8965,
    "):": 11464,
    "Ġflask": 3041,
    "Ġrather": 1494,
    "found": 4213,
    "Ġparis": 8179,
    "Ġcompan": 2173,
    "Ġmarched": 18872,
    "Ġwhalers": 8048,
    "Ġcampaign": 20662,
    "aby": 18108,
    "Ġ112": 24436,
    "Ġbands": 14886,
    "frame": 17116,
    "Ġcalf": 16267,
    "stick": 15688,
    "Ġemigrant": 25859,
    "Ġwhereas": 3853,
    "Ġsumm": 3354,
    "Ġtenants": 23546,
    "Ġczar": 12578,
    "ounding": 22396,
    "Ġorgies": 18285,
    "desirable": 23812,
    "Ġaroused": 15901,
    "Ġsadly": 7302,
    "propagation": 1237,
    "brimming": 23578,
    "ishly": 14201,
    "forth": 9326,
    "Ġethiop": 26155,
    "ically": 853,
    "Ġ235": 25711,
    "Ġshrouded": 14971,
    "Ġholiday": 13001,
    "Ġbal": 1133,
    "Ġslacked": 25189,
    "give": 4689,
    "Ġforked": 11667,
    "autions": 20768,
    "Ġcro": 4874,
    "Ġgentlemanly": 19317,
    "reflection": 13457,
    "Ġadagrad": 2903,
    "dismay": 19155,
    "uous": 4143,
    "Ġliving": 3064,
    "lands": 8241,
    "oted": 4598,
    "erde": 21270,
    "Ġacquisition": 18898,
    "Ġcorrespondence": 10598,
    "male": 15391,
    "accur": 14594,
    "Ġburial": 16522,
    "Ġpossessor": 23826,
    "âĢĶ.âĢĿ": 22258,
    "ontory": 10462,
    "Ġhermit": 15860,
    "Ġaffidav": 18790,
    "peace": 13052,
    "Ġrifts": 21978,
    "icide": 11622,
    "Ġplants": 22600,
    "Ġindepend": 3666,
    "Ġ73": 24262,
    "Ġthem": 642,
    "Ġlegisl": 23534,
    "joint": 24011,
    "Ġcitizens": 25440,
    "usages": 22293,
    "along": 6014,
    "Ġunlikely": 10911,
    "oun": 483,
    "laying": 19774,
    "Ġpalm": 10517,
    "Ġgroup": 2037,
    "couldn": 23719,
    "ounce": 6559,
    "compared": 24035,
    "Ġveget": 11889,
    "Ġeaves": 15679,
    "thur": 7188,
    "scar": 9820,
    "Ġlaugh": 4111,
    "Ġsolitary": 5856,
    "Ġtry": 3134,
    "Ġceased": 6469,
    "Ġmusky": 19384,
    "Ġfalsely": 20584,
    "Ġyelling": 18098,
    "laz": 15388,
    "Ġcrouching": 23442,
    "Ġuntil": 2667,
    "Ġejaculation": 20256,
    "Ġspitzbergen": 15290,
    "scor": 13023,
    "Ġlye": 21553,
    "Ġbreast": 8972,
    "Ġmingled": 12380,
    "Ġmain": 810,
    "Ġprettier": 23766,
    "scarcely": 12389,
    "spect": 3234,
    "Ġduly": 13353,
    "flies": 19426,
    "Ġequin": 14496,
    "Ġalow": 18101,
    "iminished": 19023,
    "Ġanticip": 7508,
    "Ġactual": 3735,
    "Ġvult": 12756,
    "wishes": 13809,
    "Ġspectators": 19409,
    "Ġsultry": 20290,
    "tained": 4407,
    "Ġtumb": 21171,
    "luyt": 18454,
    "Ġmockery": 12111,
    "shad": 10985,
    "Ġpurchased": 12264,
    "Ġpreserved": 9266,
    "muring": 17602,
    "Ġeffected": 14354,
    "Ġaudacity": 19883,
    "meeting": 11022,
    "Ġdarcy": 1341,
    "ying": 1450,
    "Ġengagement": 5397,
    "architect": 22885,
    "Ġmate": 3706,
    "mysteries": 26051,
    "fireside": 24692,
    "gust": 6362,
    "pretty": 10625,
    "Ġwhatsoever": 18455,
    "Ġknot": 7013,
    "Ġdemanded": 8327,
    "Ġfeasible": 22212,
    "Ġpages": 15611,
    "Ġlounging": 10026,
    "Ġstormy": 16729,
    "Ġfundamental": 3016,
    "remorse": 14469,
    "hum": 3776,
    "Ġomnipotent": 13550,
    "Ġrampart": 20320,
    "Ġscrew": 8872,
    "Ġnap": 8814,
    "Ġpierced": 12285,
    "glings": 23853,
    "Ġcollection": 8222,
    "eray": 21268,
    "Ġstro": 4596,
    "estion": 18361,
    "Ġpioneer": 17918,
    "Ġfoundations": 11076,
    "Ġunsafe": 22042,
    "enjoyments": 25434,
    "Ġtea": 5041,
    "pain": 7350,
    "Ġallen": 5160,
    "cottagers": 20050,
    "folding": 24927,
    "Ġreasoned": 23086,
    "aphs": 22338,
    "Ġsmaller": 1883,
    "convers": 6569,
    "Ġaccompaniments": 24481,
    "eu": 17531,
    "Ġspectrum": 4476,
    "itance": 13870,
    "horr": 14600,
    "question": 5418,
    "Ġlovers": 9724,
    "acquaintance": 6938,
    "atmospheric": 17777,
    "unity": 4150,
    "queness": 18148,
    "advice": 12161,
    "mockery": 24377,
    "Ġwalls": 6763,
    "Ġlobster": 11392,
    "Ġsavoury": 23879,
    "powers": 25411,
    "nowledge": 10293,
    "bourn": 3301,
    "bride": 19202,
    "Ġfurrow": 22814,
    "/`": 12432,
    "Ġsacrific": 15019,
    "pale": 13774,
    "Ġpilot": 5986,
    "Ġpumps": 8428,
    "ateur": 22074,
    "ments": 1401,
    "Ġdeploy": 2786,
    "Ġcow": 13878,
    "pshaw": 21029,
    "Ġcredulous": 17146,
    "Ġfestoon": 20296,
    "Ġphaeton": 17466,
    "solving": 3100,
    "licted": 20957,
    "omination": 21644,
    "Ġsituated": 9451,
    "Ġdoubts": 8584,
    "unning": 4495,
    "Ġattics": 22623,
    "Ġdiversion": 17199,
    "Ġtame": 17723,
    "Ġrural": 21970,
    "mitted": 5213,
    "....": 11319,
    "produced": 25415,
    "Ġseaport": 20601,
    "ĕ": 214,
    "Ġlxi": 21563,
    "Ġavowed": 16635,
    "Ġdepartment": 24243,
    "Ġmonogra": 22984,
    "pause": 12504,
    "Ġliberal": 12194,
    "entreaties": 26186,
    "Ġsnatch": 14640,
    "aky": 18411,
    "derest": 18314,
    "Ġdelicacy": 6342,
    "Ġsake": 4088,
    "under": 3132,
    "elfth": 22372,
    "ĠâĢľâĢĺ": 8506,
    "cons": 4310,
    "Ġkeeled": 18809,
    "Ġshoot": 11164,
    "iony": 9195,
    "sax": 21058,
    "ushion": 14722,
    "Ġbrigandish": 25488,
    "Ġromish": 19586,
    "unction": 10238,
    "doubted": 17527,
    "Ġback": 814,
    "Ġsculpt": 15949,
    "Ġscandinavian": 26346,
    "Ġcommunity": 19009,
    "happiness": 6470,
    "Ġphilosophical": 26335,
    "Ġfragments": 19045,
    "Ġtelegram": 15226,
    "Ġreference": 2565,
    "Ġpiercing": 13495,
    "Ġboon": 22640,
    "Ġselects": 4386,
    "Ġlingered": 13506,
    "Ġputting": 5327,
    "Ġconcentrate": 25065,
    "Ġbore": 5079,
    "Ġassembl": 20063,
    "eldom": 4415,
    "Ġmeditating": 20045,
    "Ġblazing": 11899,
    "roll": 9200,
    "Ġfaintest": 24569,
    "Ġowners": 7664,
    "female": 20668,
    "amiable": 14055,
    "wise": 2574,
    "ators": 7829,
    "Ġdeposition": 18612,
    "Ġoriginated": 24122,
    "Ġcommunicated": 9065,
    "Ġrumors": 11324,
    "Ġpercept": 14225,
    "Ġthunders": 15641,
    "screaming": 20327,
    "âĢĶâĢľ": 2970,
    "gul": 12469,
    "Ġunreliable": 3926,
    "cell": 10690,
    "Ġclusters": 25233,
    "idable": 8146,
    "Ġconfirms": 23310,
    "Ġupon": 719,
    "Ġmule": 13864,
    "instance": 24170,
    "Ġslaves": 23171,
    "ix": 1800,
    "Ġdrag": 6186,
    "ornament": 23489,
    "Ġconfident": 11141,
    "anged": 3586,
    "cheeks": 23809,
    "Ġfob": 21411,
    "ific": 489,
    "Ġcarve": 23094,
    "Ġjig": 15954,
    "Ġhorrify": 23821,
    "Ġsuav": 22084,
    "tide": 11536,
    "direction": 17525,
    "Ġguid": 2636,
    "Ġbarred": 9006,
    "dÃ¦mon": 17528,
    "accomp": 10458,
    "Ġcatholic": 20683,
    "Ġlinn": 13955,
    "Ġwalk": 1825,
    "ckets": 6843,
    "Ġeuroclydon": 15299,
    "Ġaggreg": 12888,
    "y": 93,
    "Ġshakes": 10907,
    "Ġattends": 19652,
    "Ġdarker": 13123,
    "riors": 18184,
    "Ġtrain": 515,
    "Ġrusty": 14966,
    "Ġparametric": 2395,
    "Ġnonsense": 6983,
    "Ġinst": 912,
    "ullo": 12733,
    "Ġjanuary": 13656,
    "Ġpatronage": 17053,
    "Ġvideo": 25366,
    "Ġappl": 1755,
    "enth": 6682,
    "apparat": 22848,
    "Ġmanor": 14198,
    "Ġserious": 4323,
    "Ġmedicine": 15209,
    "Ġtragedies": 25242,
    "Ġsalutations": 25383,
    "etuous": 21585,
    "Ġmultimodal": 18748,
    "ome": 535,
    "Ġhoofs": 14528,
    "Ġinstantaneous": 14612,
    "lac": 17590,
    "embraces": 25805,
    "fatigue": 20659,
    "Ġwit": 3840,
    "ÿ": 192,
    "sip": 10728,
    "Ġmoses": 21317,
    "Ġunnaturally": 24870,
    "Ġchallenge": 25472,
    "Ġoriginally": 7304,
    "Ġgerm": 13966,
    "Ġoverladen": 22369,
    "Ġexchanged": 10881,
    "underneath": 23790,
    "nib": 5214,
    "putation": 7626,
    "Ġblessings": 24178,
    "wide": 10141,
    "offended": 16399,
    "Ġwildest": 16511,
    "things": 6034,
    "Ġbil": 15568,
    "Ġsuggests": 12204,
    "walks": 19723,
    "Ġpartake": 18670,
    "Ġresume": 18565,
    "Ġrebounds": 25967,
    "perform": 15897,
    "Ġstudious": 23231,
    "Ġcoefficient": 2884,
    "greek": 25405,
    "Ġnameless": 7700,
    "neying": 22452,
    "Ġpint": 17908,
    "Ġjobs": 24832,
    "reed": 6374,
    "ented": 4349,
    "cheerfulness": 20182,
    "letters": 13176,
    "Ġsending": 8780,
    "Ġterr": 3274,
    "Ġimpertinence": 11369,
    "Ġprimal": 17107,
    "Ġiteratively": 3059,
    "bos": 17485,
    "Ġclassifies": 11839,
    "longbourn": 9900,
    "beating": 22493,
    "owards": 4595,
    "Ġpreprocessing": 26537,
    "Ġfireboard": 23532,
    "Ġuninterrupted": 22047,
    "Ġexerted": 15758,
    "Ġmand": 21306,
    "Ġchoose": 5983,
    "Ġamply": 22485,
    "measured": 19992,
    "Ġtragedy": 10671,
    "Ġinhabitants": 7525,
    "Ġcommun": 1706,
    "ateral": 19379,
    "Ġarrant": 23299,
    "ough": 472,
    "Ġinflamed": 13475,
    "holding": 7739,
    "Ġcounsell": 25385,
    "Ġlik": 2520,
    "Ġcash": 9656,
    "Ę": 217,
    "Ġagree": 7648,
    "Ġcontinents": 16850,
    "Ġmaintaining": 1511,
    "Ġhit": 7164,
    "Ġarrows": 18341,
    "Ġvillagers": 19476,
    "Ġspices": 22133,
    "ugues": 19022,
    "Ġthursday": 12648,
    "Ġcomparing": 14266,
    "Ġblew": 9049,
    "Ġtrustworthy": 24106,
    "har": 20891,
    "Ġmar": 1312,
    "Ġshould": 864,
    "Ġhamp": 12634,
    "Ġwheeled": 14140,
    "ulsive": 10237,
    "Ġfeels": 6882,
    "Ġsimultaneous": 22590,
    "Ġpaper": 4283,
    "Ġloungers": 24862,
    "access": 11183,
    "Ġneglig": 18878,
    "Ġtapping": 10755,
    "jammed": 25906,
    "Ġaffability": 14389,
    "iop": 20920,
    "Ġcomprehensiveness": 25074,
    "Ġhighland": 18711,
    "Ġtravelling": 11310,
    "representation": 20198,
    "Ġcurly": 18842,
    "Ġlif": 10199,
    "Ġsunda": 13545,
    "Ġdisappointing": 19581,
    "Ġansw": 2206,
    "trying": 15440,
    "Ġdecreases": 3407,
    "Ġfoolishly": 19784,
    "Ġpromoting": 3163,
    "Ġpinched": 17035,
    "Ġbremen": 23347,
    "destroyed": 15263,
    "Ġuncounted": 19117,
    "divers": 15345,
    "Ġathirst": 20600,
    "Ġorigin": 4117,
    "room": 2178,
    "Ġglobular": 19010,
    "rose": 6015,
    "stumps": 21661,
    "scruple": 26045,
    "Ġdiscrete": 2475,
    "Ġproport": 2296,
    "Ġunav": 18240,
    "Ġerecting": 24652,
    "Ġequ": 1733,
    "onents": 8782,
    "Ġdenote": 19334,
    "Ġbarrel": 23793,
    "classification": 4388,
    "Ġagric": 22518,
    "Ġnuptials": 20496,
    "Ġjune": 10292,
    "Ġglance": 4232,
    "Ġhow": 598,
    "antediluvian": 24345,
    "Ġtread": 9413,
    "Ġbowsman": 11254,
    "entary": 21569,
    "Ġpettiness": 24231,
    "Ġmodesty": 12821,
    "nav": 17613,
    "Ġtradesmen": 17105,
    "Ġoppressive": 20457,
    "ortunities": 15943,
    "Ġcastaways": 19430,
    "Ġviolence": 5964,
    "Ġinsensibly": 20078,
    "Ġrefrain": 12950,
    "Ġrisk": 8039,
    "ostentatious": 20653,
    "mund": 13760,
    "orter": 4256,
    "ism": 4875,
    "Ġsell": 7825,
    "Ġagrees": 22519,
    "lungs": 26135,
    "Ġloop": 14148,
    "sacred": 17029,
    "Ġexperienced": 6582,
    "Ġunpitying": 25660,
    "Ġtechn": 9370,
    "Ġconver": 805,
    "vy": 21109,
    "scattered": 22997,
    "recognised": 15265,
    "Ġdrawing": 3915,
    "Ġmisfortunes": 7043,
    "enesis": 24387,
    "Ġhom": 9190,
    "Ġunwillingness": 20034,
    "Ġcastors": 23978,
    "cheap": 23806,
    "encing": 21284,
    "Ġobed": 8539,
    "Ġsinusoid": 4782,
    "Ġshrouds": 11347,
    "icorn": 15660,
    "Ġannals": 17899,
    "Ġdemonstrate": 24996,
    "Ġperusal": 14226,
    "elled": 4019,
    "quis": 7870,
    "antucket": 2641,
    "Ġmanip": 8876,
    "skelter": 24489,
    "Ġconstraints": 2740,
    "pr": 3177,
    "abulary": 4801,
    "Ġdescrying": 18618,
    "Ġblessing": 11266,
    "gener": 3126,
    "uced": 13802,
    "Ġextracting": 11104,
    "Ġconfinement": 19037,
    "fin": 5209,
    "iced": 3898,
    "collinses": 19924,
    "azz": 8262,
    "lung": 17592,
    "ounder": 11748,
    "weekly": 25684,
    "Ġdash": 8122,
    "gra": 768,
    "heed": 15500,
    "Ġassail": 13066,
    "Ġphilosopher": 12187,
    "Ġeverlasting": 9341,
    "Ġextracted": 16297,
    "Ġconventional": 25548,
    "ubb": 1650,
    "Ġbedside": 19124,
    "Ġcontinuous": 1560,
    "oo": 7554,
    "Ġgift": 10843,
    "Ġauxiliary": 26419,
    "tray": 21079,
    "Ġcoloss": 11049,
    "lengths": 24846,
    "Ġtracing": 18889,
    "Ġfreer": 23208,
    "Ġfavourable": 7959,
    "Ġhappened": 3711,
    "Ġbourgh": 5069,
    "Ġconflag": 20337,
    "Ġweap": 6157,
    "Ġfaults": 12216,
    "bears": 22494,
    "Ġwedge": 24934,
    "Ġsympat": 13343,
    "ssed": 3732,
    "consol": 9766,
    "Ë": 140,
    "Ġseals": 11701,
    "Ġscra": 5841,
    "Ġwintry": 17436,
    "tubs": 15133,
    "Ì": 141,
    "Ġmountains": 4428,
    "cottage": 9573,
    "Ġtower": 8319,
    "lod": 15381,
    "hands": 5968,
    "Ġasyl": 12738,
    "ushes": 22294,
    "Ġhorizontally": 17013,
    "Ġstopped": 5958,
    "Ġintrospect": 15831,
    "Ġpow": 4638,
    "Ġproud": 5654,
    "Ġindomit": 22959,
    "quarter": 11391,
    "Ġreusable": 13560,
    "wearing": 22689,
    "Ġdevoutly": 25833,
    "condite": 23249,
    "Ġbegrimed": 26579,
    "achment": 5464,
    "Ġsettle": 6295,
    "Ġsling": 21222,
    "Ġcouch": 12575,
    "fetch": 12468,
    "threadbare": 25989,
    "circled": 24189,
    "Ġsurrounded": 5880,
    "Ġix": 12672,
    "Ġwild": 2601,
    "Ġbutts": 15858,
    "vanished": 15062,
    "Ġbloodthirsty": 26602,
    "tarpaulins": 26406,
    "Ġropes": 10751,
    "Ġthinnest": 24185,
    "Ġscarlet": 13226,
    "intu": 22935,
    "elaborate": 21578,
    "Ġpeevish": 26558,
    "Ġbliss": 13004,
    "Ġdesolate": 10017,
    "Ġpropose": 9857,
    "Ġserene": 8167,
    "Ġoper": 2120,
    "japan": 15377,
    "Ġshop": 9256,
    "Ý": 158,
    "accustomed": 13159,
    "cure": 11477,
    "entrance": 12661,
    "Ġsticks": 14933,
    "Ġye": 901,
    "Ġearned": 19407,
    "Ġrobins": 16277,
    "Ġtoiling": 15638,
    "behold": 12881,
    "Ġsingularly": 12152,
    "Ġknowing": 4459,
    "arians": 18529,
    "windlass": 16722,
    "Ġthorough": 6247,
    "largely": 19576,
    "mistress": 14907,
    "Ġslily": 23166,
    "Ġexclude": 19039,
    "Ġfrog": 23924,
    "Ġunsupp": 22022,
    "rians": 21928,
    "Ġconspicuous": 13606,
    "Ġprogra": 1147,
    "Ġdrawings": 14724,
    "vation": 4745,
    "Ġhessian": 3547,
    "ded": 2756,
    "Ġgods": 6455,
    "Ġshepherd": 14154,
    "Ġremarked": 3694,
    "owder": 8450,
    "Ġluxury": 20134,
    "Ġsupposing": 6731,
    "mentioning": 24885,
    "Ġits": 706,
    "Ġounce": 15275,
    "Ġcatherine": 2813,
    "Ġcocksure": 26259,
    "writing": 7721,
    "Ġdecomposes": 5506,
    "quod": 2164,
    "trees": 10734,
    "Ġbambooz": 26119,
    "canoes": 16236,
    "Ġallude": 12775,
    "spite": 16144,
    "Ġstrata": 26027,
    "Ġmasonry": 13602,
    "Ġexpiration": 22627,
    "reduc": 5459,
    "Ġtime": 689,
    "Ġrugged": 18720,
    "Ġstrongest": 11138,
    "Ġpractised": 23318,
    "Ġbernard": 20686,
    "typewritten": 26038,
    "pire": 9139,
    "Ġpots": 9432,
    "mell": 20965,
    "Ġincreases": 3793,
    "Ġmundane": 26430,
    "Ġcontinual": 6778,
    "grief": 13733,
    "call": 8727,
    "Ġtied": 7357,
    "intended": 11069,
    "Ġcolt": 11047,
    "Ġexcitement": 9385,
    "ks": 3146,
    "sli": 11526,
    "anchor": 13891,
    "Ġaccomplishments": 13381,
    "Ġunivers": 2125,
    "volutional": 1934,
    "Ġpracticable": 19042,
    "Ġqualities": 7534,
    "Ġfiver": 22762,
    "Ġdragging": 14476,
    "Ġsent": 1774,
    "Ġdie": 3961,
    "Ġconnected": 5393,
    "Ġabound": 8868,
    "clings": 23152,
    "Ġhoops": 9393,
    "lower": 8885,
    "Ġnocturn": 18375,
    "Ġsubject": 2464,
    "burnt": 20082,
    "Ġexamining": 8006,
    "Ġsweeter": 23920,
    "ignomin": 23268,
    "Ġyouthful": 16724,
    "chancing": 22919,
    "Ġpeople": 2542,
    "Ġsamuel": 10037,
    "shattered": 22462,
    "Ġwag": 10778,
    "droppers": 24757,
    "Ġcalcul": 3636,
    "Ġastronomy": 25926,
    "tstone": 21086,
    "Ġtormenting": 15107,
    "beauty": 20106,
    "Ġentreating": 24209,
    "Ġexclam": 6759,
    "fool": 9051,
    "mas": 5212,
    "Ġmanage": 7642,
    "S": 55,
    "Ġcommanding": 16591,
    "Ġfeeding": 7973,
    "Ġsavor": 23877,
    "Ġsimpl": 1579,
    "Ġsnorting": 23742,
    "bun": 12441,
    "Ġobliquely": 12365,
    "Ġspades": 12800,
    "pect": 1256,
    "Ġgood": 1000,
    "Ġdiscussion": 17196,
    "holmes": 4433,
    "Ġamong": 1670,
    "number": 10118,
    "ford": 2822,
    "Ġlip": 6534,
    "billows": 20238,
    "calmly": 20141,
    "Ġreject": 7386,
    "Ġposition": 1952,
    "Ġredundant": 16553,
    "ē": 212,
    "enderby": 25216,
    "wherein": 19108,
    "Ġarabic": 24980,
    "ĠÂ£": 5006,
    "Ġvicinity": 7315,
    "orns": 12596,
    "confidence": 16809,
    "Ġtax": 13818,
    "Ġpeering": 8538,
    "hearing": 8404,
    "Ġfury": 7662,
    "Ġresolve": 13172,
    "Ġflukes": 5267,
    "Ġsilver": 7464,
    "visitor": 15059,
    "france": 24283,
    "Ġseeth": 21963,
    "Ġhas": 826,
    "Ġbruised": 25772,
    "Ġinsect": 12640,
    "Ġdefilements": 26285,
    "painter": 24896,
    "scence": 14421,
    "Ġplayfully": 19240,
    "state": 13981,
    "Ġencomp": 12966,
    "Ġbecome": 3160,
    "Ġhollow": 5648,
    "Ġunsav": 18251,
    "special": 14707,
    "Ġbec": 1347,
    "Ġgrand": 3591,
    "Ġcruise": 12052,
    "Ġninetieth": 25358,
    "harpooned": 24287,
    "Ġri": 3392,
    "bly": 6112,
    "cannon": 22971,
    "Ġofficers": 4427,
    "Ġpaths": 2569,
    "welcome": 10005,
    "Ġacquiesce": 20331,
    "Ġweak": 5098,
    "Ġlass": 15651,
    "Ġberyls": 25775,
    "Ġmoritz": 11909,
    "previously": 17209,
    "Ġcister": 13884,
    "Ġspain": 15883,
    "Ġbery": 13900,
    "Ġconfed": 13099,
    "Ġinsip": 19268,
    "Ġstandard": 14497,
    "Ġseizing": 7879,
    "Ġarts": 11010,
    "ression": 3403,
    "Ġbashful": 20422,
    "grow": 10102,
    "Ġsweating": 16464,
    "them": 3021,
    "luck": 5733,
    "Ġsharpened": 17367,
    "rength": 4099,
    "Ġthistle": 21919,
    "Ġtranquo": 14845,
    "Ġfergus": 16868,
    "Ġadapts": 3816,
    "tle": 2408,
    "Ġhieroglyphics": 17305,
    "bted": 7794,
    "Ġma": 3253,
    "Ġcompanionship": 14922,
    "here": 2547,
    "uses": 11765,
    "insisted": 23068,
    "Ġhaz": 12759,
    "Ġswam": 6449,
    "Ġdo": 512,
    "Ġstubbornness": 25380,
    "Ġblinding": 14730,
    "Ġdisappearing": 22536,
    "observed": 7676,
    "Ġuninjured": 22057,
    "atement": 17774,
    "ò": 179,
    "Ġcalculus": 23985,
    "failed": 20864,
    "Ġdisgrace": 7214,
    "Ġmapple": 11153,
    "Ġtrance": 12845,
    "Ġgrief": 4621,
    "Ġintensely": 17018,
    "iably": 13740,
    "Ġphysiognomical": 25611,
    "idav": 18094,
    "|": 96,
    "Ġlizz": 21559,
    "year": 11097,
    "Ġmisty": 16542,
    "Ġmurmuring": 23580,
    "Ġadding": 2402,
    "Ġcostume": 16496,
    "Ġinformation": 1050,
    "Ġcomfortably": 16616,
    "surprise": 9534,
    "do": 1993,
    "Ġarrive": 6907,
    "humored": 19455,
    "xic": 9149,
    "Ġmagnifying": 16322,
    "Ġalb": 14018,
    "Ġpom": 21453,
    "Ġelated": 18641,
    "governed": 25406,
    "Ġcornelius": 13576,
    "simp": 17666,
    "Ġmovement": 9972,
    "Ġmankind": 6700,
    "_,âĢĿ": 6220,
    "Ġthimble": 15640,
    "Ġturks": 14599,
    "Ġextreme": 2513,
    "gratulation": 24348,
    "effort": 19216,
    "Ġvesu": 21952,
    "listened": 15045,
    "Ġdelivered": 11118,
    "Ġairy": 23320,
    "Ġinitial": 824,
    "Ġparmacetti": 20606,
    "Ġvictor": 5125,
    "Ġarticle": 9506,
    "tical": 10132,
    "Ġslip": 8958,
    "Ġrecourse": 22731,
    "Ġhideous": 5984,
    "butt": 15997,
    "ĠlinnÃ¦us": 15278,
    "Ġdrow": 21428,
    "Ġexerc": 6833,
    "Ġabundantly": 17158,
    "quarrel": 20017,
    "Ġfiddle": 25445,
    "Ġobstinacy": 17423,
    "Ġann": 4491,
    "ivities": 22080,
    "Ġodor": 12153,
    "vity": 7815,
    "hy": 4741,
    "Ġlav": 13952,
    "describe": 1517,
    "Ġiterate": 13201,
    "motives": 26137,
    "Ġchaldee": 26235,
    "discharging": 26305,
    "Ġsearch": 2589,
    "Ġstreamed": 14546,
    "swept": 19788,
    "bbed": 6911,
    "obed": 14448,
    "commun": 15035,
    "Ġgrace": 5374,
    "Ġhearses": 20062,
    "Ġcigars": 12256,
    "Ġtown": 2455,
    "Ġscre": 9741,
    "impress": 18053,
    "Ġfootman": 8288,
    "excuse": 13383,
    "Ġethics": 15464,
    "Ġrage": 5110,
    "Ġcomplete": 4383,
    "Ġfelix": 4850,
    "script": 11080,
    "Ġnumber": 1980,
    "Ġdoubting": 13103,
    "recklessly": 25270,
    "Ġswaying": 15048,
    "Ġengage": 9339,
    "judged": 14833,
    "Ġwildness": 14604,
    "theless": 4261,
    "Ġdesol": 6881,
    "Ġfist": 21406,
    "Ġbackwoods": 22662,
    "Ġrings": 11703,
    "Ġnin": 10191,
    "riumph": 4920,
    "Ġunostentatious": 22070,
    "octial": 20007,
    "Ġuncl": 22017,
    "acqu": 4844,
    "exciting": 19670,
    "qual": 8157,
    "Ġmust": 844,
    "suff": 4962,
    "Ġmagnitude": 1942,
    "Ġinquired": 7486,
    "gives": 15360,
    "ns": 750,
    "Ġfevers": 22210,
    "misery": 13346,
    "ensity": 11817,
    "50": 6785,
    "Ġsixteen": 8283,
    "Ġlimited": 23544,
    "Ġclanging": 18422,
    "Ġrecognise": 12032,
    "Ġdisconsol": 18557,
    "Ġcountess": 11967,
    "rious": 11692,
    "Ġbingleys": 18995,
    "resembling": 25932,
    "splash": 25210,
    "hurry": 24761,
    "icant": 21564,
    "Ġunfelt": 24110,
    "itan": 10163,
    "aking": 974,
    "rise": 6228,
    "lost": 8892,
    "Ġgovern": 10453,
    "strike": 14951,
    "testing": 12520,
    "Ġimpenitent": 26549,
    "Ġpilgr": 12184,
    "Ġcocks": 18591,
    "Ġsquatted": 25842,
    "Ġpist": 12619,
    "Ĺ": 250,
    "Ġeternities": 19945,
    "Ġmanipulation": 10662,
    "Ġmediocrity": 26609,
    "Ġdimly": 9492,
    "Ġfarthing": 14456,
    "Ġprogram": 12997,
    "descried": 11932,
    "endous": 6850,
    "Ġlaurel": 20655,
    "Ġxlvi": 25590,
    "ik": 17572,
    "Ġhuff": 21492,
    "allest": 5485,
    "Ġancho": 15606,
    "Ġunreserved": 19399,
    "Ġabst": 9270,
    "Ġraved": 22643,
    "abular": 4763,
    "super": 5945,
    "Ġpictured": 16624,
    "Ġcoiling": 12909,
    "backed": 9870,
    "pay": 10721,
    "Ġdue": 3843,
    "Ġtransfer": 2186,
    "Ġ2": 2929,
    "Ġeavesdroppers": 25963,
    "Ġsweat": 13142,
    "Ġmysteries": 11325,
    "Ġdenial": 13216,
    "Ġfluctuating": 24416,
    "Ġgets": 10842,
    "Ġbonnet": 10659,
    "Ġcable": 11584,
    "mers": 9614,
    "Ġcountries": 13098,
    "Ġbags": 24536,
    "ope": 4122,
    "moored": 22706,
    "Ġchry": 22249,
    "Ġcynicism": 25771,
    "Ġpressed": 6043,
    "Ġscorn": 7901,
    "anted": 5027,
    "Ġsangu": 15506,
    "Ġarchbishop": 18712,
    "Ġborne": 6353,
    "onstrate": 17769,
    "Ġparadigms": 3058,
    "flakes": 23970,
    "Ġnamely": 20691,
    ".": 18,
    "onom": 9162,
    "Ġbred": 9173,
    "resp": 13841,
    "erest": 10700,
    "Ġunthink": 18247,
    "oul": 4699,
    "Ġvariations": 22668,
    "ram": 13974,
    "Ġrolls": 8334,
    "Ġdenoted": 16567,
    "Ġdesisted": 22982,
    "Ġamiss": 18511,
    "Ġinevitable": 15170,
    "Ġcobbling": 20525,
    "Ġveter": 15814,
    "Ġnile": 21523,
    "acters": 9313,
    "sprinkling": 24912,
    "Ġtyro": 16995,
    "Ġratio": 5066,
    "itia": 11583,
    "Ġbled": 17857,
    "Ġconvers": 2906,
    "Ġinteractions": 12907,
    "Ġexcept": 3312,
    "Ġslouched": 13062,
    "Ġseam": 3906,
    "waving": 21133,
    "Ġroughly": 17040,
    "Ġvener": 8164,
    "Ġlimits": 3451,
    "Ġwas": 370,
    "Ġproc": 5545,
    "capting": 24041,
    "unerative": 21899,
    "Ġfiner": 13056,
    "T": 56,
    "Ġdrab": 13073,
    "Ġcousin": 3703,
    "Ġattention": 1161,
    "Ġhighest": 3528,
    "Ġtarts": 10756,
    "?_âĢĿ": 12319,
    "âĢľâĢĻ": 10225,
    "attending": 18917,
    "Ġdeliberately": 10628,
    "Ġgrazed": 15836,
    "mosp": 8089,
    "Ġbur": 2697,
    "eryton": 4092,
    "rucastle": 22191,
    "Ġhearken": 21687,
    "Ġrooms": 5180,
    "ore": 418,
    "chard": 21689,
    "Ġindividuality": 14911,
    "Ġlumber": 13954,
    "likes": 18816,
    "irably": 13298,
    "Ġ22": 8279,
    "Ġinte": 2064,
    "berg": 11867,
    "Ġweighted": 2090,
    "Ġmurmured": 7481,
    "Ġbreeding": 14523,
    "spoken": 11865,
    "Ġghostly": 24650,
    "made": 4809,
    "Ġwilderness": 14842,
    "Ġrucastle": 5176,
    "Ġunwarrantable": 26345,
    "Ġdisappoint": 24207,
    "Ġthirteen": 15277,
    "Ġcreative": 9834,
    "Ġjewels": 12372,
    "istol": 6261,
    "erman": 5108,
    "separation": 25227,
    "hest": 3367,
    "whar": 15930,
    "Ġwavering": 23282,
    "Ġyork": 11668,
    "Ġconfeder": 25707,
    "Ġenthr": 22745,
    "plendent": 21961,
    "nursery": 26400,
    "whatever": 6696,
    "Ġey": 8135,
    "Ġmaw": 15543,
    "Ġpunctual": 17139,
    "Ġflourished": 15128,
    "Ġcast": 3605,
    "85": 13684,
    "Ġlivid": 14991,
    "Ġbolts": 16944,
    "Ġcompre": 4451,
    "Ġislands": 6767,
    "Ġimbedded": 18332,
    "aborate": 14024,
    "perse": 15896,
    "Ġdeceit": 13483,
    "Ġishmael": 7395,
    "Ġinseparable": 20690,
    "board": 3564,
    "Ġsho": 2245,
    "Ġindeed": 1682,
    "Ġevanesc": 24295,
    "Ġreport": 6193,
    "hoisting": 23718,
    "lays": 14924,
    "Ġconfronted": 23309,
    "grand": 7970,
    "Ġdormouse": 4926,
    "Ġsums": 2902,
    "Ġunfaltering": 24112,
    "Ġyanke": 18099,
    "Ġphilosoph": 19653,
    "Ġstatistics": 1685,
    "Ġmeasureless": 14712,
    "Ġfulfilled": 11365,
    "tes": 11532,
    "deserts": 25382,
    "Ġstrain": 6025,
    "Ġunprovided": 18260,
    "Ġcandle": 8292,
    "Ġloud": 4701,
    "aution": 9391,
    "Ġcent": 3254,
    "enborough": 21287,
    "Ġcolleague": 17161,
    "Ġenigmatical": 20599,
    "Ġnormalizes": 1863,
    "ta": 13791,
    "wic": 21122,
    "inioned": 19287,
    "ishing": 1146,
    "Ġpagans": 16923,
    "urious": 21705,
    "Ġfast": 1716,
    "izings": 14046,
    "innocent": 20288,
    "Ġconceited": 12095,
    "lose": 12886,
    "Ġ100": 14367,
    "Ġplayed": 9420,
    "Ġbarricade": 14661,
    "Ġubiquitous": 26196,
    "Ġrevolutionized": 3365,
    "Ġrange": 9716,
    "Ġaffirm": 11890,
    "otent": 8837,
    "Ġwords": 1324,
    "Ġdungeon": 16997,
    "Ġenjoy": 3758,
    "exe": 11793,
    "Ġ42": 16679,
    "Ġless": 1937,
    "Ġminimize": 7052,
    "Ġendeavouring": 8035,
    "Ġsubproblems": 12960,
    "happily": 14658,
    "Ġanom": 12615,
    "Ġtenth": 13828,
    "Ġspect": 3551,
    "Ġreliably": 22879,
    "Ġve": 1108,
    "Ġchis": 11754,
    "Ġscound": 12836,
    "Ġexploration": 2334,
    "Ġencourages": 2060,
    "Ġgri": 17989,
    "Ġandrew": 21509,
    "suited": 22650,
    "Ġindividuals": 24545,
    "gradually": 12919,
    "Ġdesk": 11910,
    "Ġpudding": 17915,
    "ological": 1884,
    "Ġrokovoko": 22421,
    "Ġpalsied": 25779,
    "Ġuser": 15919,
    "folly": 20863,
    "ollen": 11301,
    "Ġxx": 5492,
    "Ġgrapple": 25811,
    "Ġgrammars": 11405,
    "Ġbeware": 8833,
    "Ġnurtured": 19751,
    "de": 459,
    "Ġbits": 11592,
    "anish": 2615,
    "Ġhappens": 2189,
    "Ġspanish": 2828,
    "Ġsquires": 16185,
    "swimming": 24260,
    "Ġingratitude": 17470,
    "ely": 619,
    "Ġnod": 1889,
    "Ġassu": 21900,
    "Ġquantity": 6948,
    "Ġstock": 7455,
    "Ġseverely": 14935,
    "icip": 6390,
    "tenderly": 20533,
    "Ġinserted": 8356,
    "Ġsurmise": 12298,
    "alling": 6038,
    "eli": 3872,
    "Ġconfidently": 24957,
    "Ġpallid": 12302,
    "Ġbegg": 16254,
    "Ġelopement": 10334,
    "Ġmaketh": 15190,
    "Ġagreeable": 4553,
    "Ġclings": 15966,
    "Ġmir": 9650,
    "Ġscant": 22283,
    "Ġloo": 22113,
    "Ġdisappo": 4507,
    "def": 1453,
    "narwhale": 17320,
    "progression": 20384,
    "Ġauto": 23303,
    "guessed": 25872,
    "Ġferry": 24497,
    "Ġmid": 2614,
    "Ġmappings": 2146,
    "girl": 12321,
    "alongside": 19791,
    "Ġshifted": 14109,
    "Ġ1820": 25717,
    "Ġforbear": 17123,
    "Ġswallow": 8954,
    "declared": 15121,
    "ondency": 15272,
    "Ġburns": 16523,
    "gered": 9280,
    "pate": 21011,
    "Ġset": 1177,
    "Ġrocking": 10974,
    "Ġreckoning": 14981,
    "Ġgetting": 4061,
    "Ġsend": 4105,
    "ĠmanÅĵuv": 18417,
    "Ġinsinuating": 19272,
    "buttons": 22403,
    "Ġexchange": 15757,
    "Ġpoisoned": 24886,
    "Ġderanged": 23176,
    "running": 6798,
    "Ġinstinctively": 13461,
    "uary": 11541,
    "Ġuniversal": 2234,
    "Ġthine": 7374,
    "belled": 24038,
    "Ġtrustees": 24107,
    "chel": 11210,
    "Ġconcentric": 20077,
    "wondered": 17117,
    "hug": 17564,
    "load": 12885,
    "Ġheap": 12682,
    "Ġgeneral": 1862,
    "ĠĠĠĠĠĠĠĠĠĠĠĠĠĠĠĠĠĠĠĠĠĠĠĠĠĠĠĠĠĠ": 24442,
    "foolish": 12350,
    "join": 12117,
    "Ġaccepted": 7751,
    "Ġunsc": 22015,
    "Ġfocus": 4235,
    "Ġnuptial": 25782,
    "Ġhemis": 21686,
    "questions": 16761,
    "stating": 21649,
    "dorff": 15240,
    "Ġrecesses": 17262,
    "Ġeigen": 4882,
    "Ġfought": 12597,
    "Ġclutched": 13520,
    "doubtless": 17003,
    "science": 11912,
    "Ġsphy": 18311,
    "Ġbell": 4636,
    "Ġdearest": 5457,
    "Ġaghast": 16050,
    "Ġbermud": 26440,
    "Ġrecovering": 11863,
    "Ġsmoke": 4715,
    "Ġcords": 14881,
    "Ġcarpent": 4467,
    "hes": 1398,
    "Ġprendergast": 26538,
    "enes": 5218,
    "Ġmassive": 9936,
    "Ġmistaking": 23720,
    "Ġreproach": 9560,
    "tahit": 17693,
    "Ġdecrease": 4199,
    "lances": 15386,
    "Ġcommons": 22674,
    "christmas": 20257,
    "Ġ133": 24781,
    "Ġpersian": 11103,
    "spirit": 11316,
    "Ġaffection": 2637,
    "Ġshoreless": 24296,
    "Ġwaterloo": 11984,
    "Ġpeddling": 21483,
    "pursue": 24975,
    "Ġpeaked": 2293,
    "Ġsubset": 9874,
    "looks": 12021,
    "trivial": 21094,
    "bennet": 5353,
    "Ġpublished": 11244,
    "oke": 1860,
    "Ġhardihood": 23113,
    "Ġlottery": 19889,
    "Ġobligations": 12096,
    "Ġrisks": 9968,
    "orous": 5294,
    "itig": 1330,
    "Ġdefinite": 11072,
    "ste": 3583,
    "Ġfluttered": 16250,
    "Ġenglishman": 11232,
    "ernity": 18615,
    "unhesitatingly": 26497,
    "Ġten": 2386,
    "misrepresented": 24213,
    "Ġinvulnerable": 19147,
    "ease": 12461,
    "Ġarabian": 9094,
    "Ġensures": 3057,
    "Ġslightest": 6093,
    "Ġwalton": 14974,
    "Ġdetermined": 2223,
    "Ġecl": 18007,
    "Ġtumultuous": 10619,
    "Ġcards": 7582,
    "Ġyourself": 2592,
    "Ġsled": 21220,
    "Ġrender": 8305,
    "Ġfashioned": 13323,
    "fatality": 25021,
    "aboard": 21797,
    "acceptance": 25186,
    "Ġbloody": 9892,
    "Ġtimor": 24226,
    "Ġrushes": 20510,
    "Ġcomes": 3420,
    "almost": 4943,
    "abond": 15744,
    "Ġflapp": 23011,
    "tit": 11531,
    "icuous": 10838,
    "Ġredress": 23753,
    "rown": 2193,
    "dashing": 20837,
    "Ġwig": 9165,
    "Ġiron": 3237,
    "Ġbroad": 3638,
    "Ġpretension": 23765,
    "Ġdisaster": 12891,
    "Ġdur": 11596,
    "Ġwards": 17790,
    "cherries": 19758,
    "Ġhabitu": 19530,
    "warrior": 24796,
    "Ġevident": 6615,
    "buttoned": 13635,
    "Ġthread": 14540,
    "hot": 8084,
    "Ġsixpence": 19318,
    "Ġbl": 1190,
    "Ġfolks": 14428,
    "astonished": 15034,
    "========": 2310,
    "Ġpetticoat": 15298,
    "ents": 1897,
    "Ġwinking": 17794,
    "desolation": 20461,
    "Ġign": 8294,
    "Ġdifferences": 18713,
    "Ġphaet": 16320,
    "Ġhierarchical": 1926,
    "Ġfab": 15579,
    "genteel": 19951,
    "Ġdisapprobation": 16060,
    "supportable": 12373,
    "Ġromans": 16760,
    "Ġdoes": 942,
    "horizon": 23616,
    "Ġspit": 22127,
    "go": 2062,
    "Ġrelating": 2705,
    "Ġpiping": 23228,
    "unavoidable": 17392,
    "Ġsteep": 2889,
    "Ġpertin": 18449,
    "peculiar": 6886,
    "acknowledged": 15205,
    "Ġsolved": 8935,
    "ier": 1137,
    "Ġflorida": 20660,
    "Ġlanding": 11988,
    "zy": 2669,
    "Ġrely": 8826,
    "âĢľ_": 5720,
    "Ġintend": 12768,
    "Ġundertaken": 18987,
    "Ġaloof": 21788,
    "Ġabridged": 26541,
    "Ġsavagely": 26324,
    "Ġreason": 1392,
    "oned": 4631,
    "Ġwaterward": 23369,
    "Ġmarbank": 23037,
    "Ġchink": 15935,
    "Ġafghan": 22632,
    "mai": 22916,
    "stand": 623,
    "Ġcutting": 4983,
    "verest": 13993,
    "Ġdeuteronomy": 15763,
    "Ġstructure": 842,
    "ispiece": 19727,
    "unfort": 21879,
    "Ġcorridor": 10675,
    "Ġwindibank": 7257,
    "Ġsor": 4144,
    "cy": 637,
    "mber": 5850,
    "americans": 25044,
    "×": 152,
    "Ġhaunted": 10257,
    "etw": 408,
    "isting": 5551,
    "Ġmistifying": 23721,
    "Ġdwell": 5813,
    "Ġpantry": 20297,
    "atory": 6127,
    "Ġhammock": 5768,
    "ensils": 22551,
    "okers": 18441,
    "Ġconquer": 14029,
    "Ġinvaluable": 10186,
    "Ġrect": 18027,
    "Ġprophes": 16351,
    "Ġglaciers": 20175,
    "eches": 8078,
    "Ġgradients": 612,
    "atherine": 2594,
    "Ġsympathising": 24298,
    "n": 82,
    "Ġwel": 4528,
    "Ġsket": 18728,
    "Ġhud": 10825,
    "Ġgrowl": 16540,
    "Ġfanciful": 24786,
    "Ġbeyond": 2458,
    "dued": 7909,
    "oat": 13766,
    "Ġsecre": 5493,
    "Ġtable": 2497,
    "Ġarist": 14163,
    "Ġnewcom": 16224,
    "Ġunsuccessful": 18257,
    "Ġ{": 21154,
    "particip": 23617,
    "asted": 4650,
    "somehow": 12015,
    "abriel": 6950,
    "said": 4102,
    "icity": 2538,
    "Ġgrotes": 19565,
    "Ü": 157,
    "youth": 11878,
    "Ġlaid": 3938,
    "Ġgr": 978,
    "Ġcarpets": 18901,
    "Ġiii": 7861,
    "urpr": 2285,
    "Ġhabits": 6926,
    "Ġanecd": 20156,
    "Ġneighbor": 25803,
    "fer": 1896,
    "aciously": 12911,
    "her": 488,
    "Ġplayers": 12042,
    "sensibility": 25025,
    "Ġdeliverer": 11953,
    "Ġlethargy": 26484,
    "Ġquestions": 3971,
    "loom": 18538,
    "uttering": 12666,
    "ored": 3893,
    "whel": 7666,
    "Ġpharaoh": 26586,
    "Ġtangles": 25761,
    "Ġ107": 24414,
    "rasing": 21047,
    "Ġcamp": 9168,
    "ipotent": 10963,
    "Ġstepping": 9358,
    "Ġtut": 8775,
    "eration": 10775,
    "antically": 22099,
    "leag": 21368,
    "Ġdependent": 14308,
    "Ġdeck": 2137,
    "possessed": 9532,
    "Ġcrawford": 24893,
    "Ġimm": 3964,
    "Ġhermits": 22077,
    "Ġbegone": 11920,
    "Ġsurmises": 17056,
    "unpardonable": 21893,
    "Ġlic": 8437,
    "each": 7335,
    "owl": 12687,
    "ensation": 22548,
    "support": 9473,
    "Ġconcluding": 9861,
    "altering": 12644,
    "Ġdevotees": 25377,
    "Ġwhose": 2007,
    "Á": 130,
    "Ġdines": 21425,
    "Ġchannels": 26013,
    "Ġoccasional": 7289,
    "ruct": 688,
    "Ġladen": 19179,
    "utarch": 15665,
    "scru": 16245,
    "Ġretreating": 19801,
    "standers": 18477,
    "Ġstandards": 19015,
    "Ġconfederate": 17355,
    "Ġrevive": 13481,
    "Ġmagnetic": 17242,
    "ellect": 7381,
    "wed": 5796,
    "Ġdistant": 5387,
    "Ġoutside": 5554,
    "derer": 4601,
    "text": 1972,
    "oman": 2018,
    "W": 59,
    "Ġblame": 6447,
    "solid": 16383,
    "dled": 9115,
    "Ġsagaciously": 24729,
    "Ġward": 10159,
    "everybody": 8615,
    "Ġtempted": 9060,
    "method": 17286,
    "Ġaught": 8778,
    "Ġcanopy": 18322,
    "Ġassure": 4420,
    "behaviour": 11304,
    "Ġshank": 22000,
    "xim": 1089,
    "clu": 20800,
    "Ġevidently": 6760,
    "Ġevian": 24293,
    "Ġseason": 5237,
    "Ġheard": 1400,
    "glory": 23854,
    "Ġsarat": 21229,
    "Ġundressed": 19515,
    "Ġeventually": 8621,
    "Ġ108": 19686,
    "allow": 5104,
    "Ġframed": 19044,
    "Ġapplied": 6188,
    "Ġrestrictions": 20637,
    "employ": 10898,
    "Ġ183": 13240,
    "Ġcens": 8414,
    "Ġelegance": 11335,
    "Ġreports": 19085,
    "Ġmast": 2900,
    "Ġinter": 726,
    "umst": 2501,
    "Ġruminated": 24599,
    "Ġhing": 11608,
    "thank": 4950,
    "othing": 6996,
    "what": 644,
    "west": 10742,
    "Ġdirectors": 18922,
    "Ġshipped": 9719,
    "Ġsolving": 2481,
    "tu": 12515,
    "dom": 6224,
    "Ġreaching": 7303,
    "Ġsledge": 8111,
    "Ġsurmount": 20003,
    "Ġhumped": 19771,
    "incidentally": 20541,
    "avoiding": 25237,
    "Ġstates": 1853,
    "osque": 22265,
    "Ġtrained": 8505,
    "Ġworms": 25217,
    "Ġabutted": 22278,
    "Ġshreds": 12774,
    "Ġmoreover": 6165,
    "Ġeyed": 12671,
    "Ġmighty": 4229,
    "Ġanticipated": 13512,
    "Ġregarding": 13212,
    "ond": 1162,
    "Ġcocoanuts": 26363,
    "Ġintent": 6410,
    "Ġdeal": 3607,
    "lowering": 16035,
    "Ġworse": 4719,
    "Ġfrench": 4939,
    "ample": 1363,
    "ady": 996,
    "Ġpitching": 16612,
    "Ġcask": 5527,
    "Ġcounterpane": 11346,
    "Ġbrig": 11050,
    "59": 17475,
    "rarely": 21636,
    "Ġconsequences": 11338,
    "affording": 23779,
    "Ġaperture": 26160,
    "Ġocean": 3303,
    "Ġconsideration": 5191,
    "Ġblue": 3452,
    "Ġacknowledgment": 16958,
    "Ġdies": 11597,
    "Ġvane": 22875,
    "iling": 3094,
    "Ġbulk": 5591,
    "Ġmabel": 17326,
    "Ġinstinct": 6576,
    "Ġpremeditated": 22237,
    "paws": 21030,
    "ills": 1627,
    "Ġturk": 6605,
    "Ġprosecution": 12384,
    "henomena": 20274,
    "ele": 9118,
    "Ġfringed": 17274,
    "informed": 17737,
    "Ġinstant": 2704,
    "arse": 7161,
    "Ġexpressing": 12012,
    "Ġgust": 21599,
    "Ġworldly": 16332,
    "urry": 13996,
    "Ġnodded": 11973,
    "Ġsermon": 12379,
    "Ġcausal": 3408,
    "commander": 16988,
    "neville": 22454,
    "suggest": 20378,
    "Ġgreatly": 5851,
    "Ġse": 402,
    "sicilian": 21065,
    "Ġordinarily": 20650,
    "irt": 3078,
    "¦": 104,
    "stool": 23822,
    "gloom": 17141,
    "Ġcontrols": 1730,
    "Ġnaut": 13943,
    "Ġensemble": 1607,
    "cried": 8729,
    "Ġmutual": 8296,
    "straw": 24096,
    "southern": 20411,
    "Ġbern": 17859,
    "alous": 7372,
    "disappeared": 14570,
    "Ġalmost": 1658,
    "Ġarchly": 22777,
    "ial": 410,
    "ozy": 17623,
    "Ġauger": 21205,
    "Ġeconomy": 17202,
    "Ġcommentaries": 20162,
    "Ġrevolved": 9988,
    "Ġhorror": 3770,
    "Ġdiffidence": 14660,
    "Ġcasks": 7522,
    "Ġisolated": 13562,
    "Ġcreating": 3000,
    "ied": 941,
    "Ġfreshets": 25704,
    "harpooneer": 8693,
    "Ġdisconsolate": 20720,
    "mist": 5686,
    "Ġwolves": 25934,
    "dreams": 12340,
    "aze": 10079,
    "idirection": 2410,
    "chiefly": 14848,
    "sterdam": 19090,
    "arrived": 12613,
    "Ġattachment": 6051,
    "Ġmassacre": 20549,
    "Ġmamm": 25092,
    "Ġhereafter": 9334,
    "humorously": 24022,
    "Ġru": 949,
    "Ġfaint": 5812,
    "utterly": 20014,
    "Ġdives": 17891,
    "emotions": 15800,
    "iceland": 21568,
    "recover": 24622,
    "care": 4929,
    "Ġdiverted": 14593,
    "ones": 2742,
    "Ġstag": 6150,
    "ogra": 4574,
    "Ġintegrated": 13532,
    "Ġproudly": 19744,
    "1775": 26379,
    "Ġbetokened": 18797,
    "sincere": 16908,
    "acity": 5735,
    "cooee": 12421,
    "Ġent": 904,
    "Ġwil": 4581,
    "Ġnib": 13942,
    "Ġbridges": 24682,
    "wrapped": 15212,
    "Ġerrone": 14432,
    "uten": 11626,
    "Ġsells": 21225,
    "Ġoriental": 9101,
    "Ġhip": 17922,
    "asiness": 8129,
    "cousin": 10656,
    "notice": 16150,
    "Ġguard": 6180,
    "Ġprevailing": 24673,
    "Ġvillain": 8640,
    "trouble": 8295,
    "Ġpossible": 2584,
    "Ġrepresentation": 14408,
    "scene": 14422,
    "Ġalleghan": 25795,
    "Ġmiseries": 10350,
    "ellation": 12754,
    "Ġbuckskin": 19954,
    "Ġpencils": 23197,
    "Ġringing": 13334,
    "Ġwaited": 4909,
    "Ġpowdered": 24239,
    "Ġvapor": 8704,
    "Ġoppress": 13174,
    "Ġhenceforth": 19644,
    "Ġweeds": 21926,
    "Ġliterary": 25166,
    "Ġperson": 2368,
    "wandered": 20287,
    "Ġwearing": 12743,
    "Ġfinishing": 23126,
    "forgive": 18731,
    "Ġoppression": 23651,
    "irr": 12741,
    "Ġpreliminary": 10061,
    "Ġimpud": 18444,
    "Ġcopper": 7425,
    "marked": 9052,
    "Ġgrudge": 20695,
    "Ġporter": 15614,
    "Ġeach": 895,
    "Ġjoys": 13223,
    "tures": 21071,
    "Ġbelt": 13006,
    "nel": 11508,
    "tacit": 21100,
    "bow": 5424,
    "mission": 5971,
    "hoist": 23715,
    "Ġnarrowed": 24354,
    "Ġforbade": 15217,
    "Ġresolves": 23648,
    "Ġclutch": 15055,
    "Ġoblig": 3442,
    "utmost": 21590,
    "Ġbart": 17858,
    "Ġjollies": 20372,
    "Ġeighty": 19478,
    "ions": 448,
    "Ġmagician": 25060,
    "Ġlestrade": 5826,
    "Ġbuilt": 8300,
    "cial": 2648,
    "northern": 23668,
    "Ġtattered": 21173,
    "meas": 7434,
    "Ġsimilitude": 19212,
    "Ġconsiderably": 7715,
    "Ġdiameter": 19868,
    "Ġoce": 3032,
    "chairs": 21695,
    "bpp": 20773,
    "accounted": 16502,
    "Ġinvestig": 10553,
    "Ġjuggler": 26367,
    "somers": 19370,
    "Ġwhilst": 9222,
    "helped": 18926,
    "Ġjug": 12839,
    "provoke": 26071,
    "Ġplaid": 22602,
    "mpt": 6656,
    "Ġfiercely": 12953,
    "Ġwarmup": 3919,
    "Ġjohnson": 18409,
    "Ġprejudiced": 24805,
    "Ġtruck": 19513,
    "Ġfriesland": 26443,
    "carte": 25401,
    "Ġthirt": 13941,
    "stood": 4114,
    "deep": 993,
    "Ġdispute": 16058,
    "Ġsuperstitious": 13521,
    "memory": 13620,
    "enc": 7575,
    "Ġground": 2848,
    "Ġidentity": 2521,
    "allet": 11085,
    "showing": 22464,
    "Ġturnkeys": 23030,
    "Ġbarrier": 16571,
    "âĢĿ--": 21819,
    "Ġhunts": 23158,
    "probable": 17022,
    "Ġconn": 9233,
    "cele": 21627,
    "Ġwad": 13853,
    "happy": 4426,
    "Ġdamning": 19140,
    "oker": 10966,
    "rolling": 9064,
    "justified": 19003,
    "netherfield": 9817,
    "deserted": 19343,
    "iard": 9605,
    "Ġand": 295,
    "Ġbus": 1904,
    "kn": 5791,
    "Ġshaved": 22005,
    "yn": 7819,
    "bed": 3490,
    "ened": 1386,
    "floated": 24643,
    "Ġvarious": 3509,
    "Ġvertu": 23892,
    "icking": 8915,
    "Ġslaughter": 20731,
    "Ġugliness": 20429,
    "'(": 2982,
    "Ġprodigies": 19795,
    "Ġapoplexy": 25266,
    "ü": 189,
    "Ġtried": 3646,
    "Ġties": 12531,
    "Ġimpulses": 19964,
    "Ġcountrymen": 23596,
    "Ġboxed": 24359,
    "suppose": 8649,
    "Ġduchess": 4800,
    "message": 17374,
    "Ġfountain": 7365,
    "eed": 20842,
    "Ġtrim": 15971,
    "Ġq": 1083,
    "Ġmisfortune": 5569,
    "distance": 12156,
    "Ġroyal": 5602,
    "immense": 18054,
    "Ġblasted": 7938,
    "fa": 7336,
    "wedding": 12525,
    "Ġchoicest": 24222,
    "decoder": 3643,
    "approb": 11045,
    "Ġevent": 2950,
    "Ġroughs": 19959,
    "Ġdespair": 4006,
    "ident": 3377,
    "Ġwithin": 2162,
    "Ĳ": 243,
    "clinging": 20823,
    "shows": 22459,
    "Ġsmacking": 20167,
    "ingle": 1040,
    "famous": 16917,
    "Ġpreservative": 24629,
    "Ġsignify": 16495,
    "Ġpurposely": 10447,
    "Ġforcing": 3226,
    "march": 13757,
    "Ġcolonies": 14377,
    "unreasonable": 18164,
    "Ġkeenly": 9489,
    "mblance": 7323,
    "apidated": 22339,
    "Ġconnex": 10669,
    "Ġpromising": 10403,
    "hast": 5358,
    "Ġidiotic": 25588,
    "cad": 17506,
    "ches": 2147,
    "Ġelder": 7226,
    "ods": 8840,
    "Ġclaims": 13375,
    "Ġmont": 8563,
    "therefore": 5955,
    "turning": 8317,
    "urred": 8451,
    "Ġclouded": 13293,
    "ician": 21567,
    "adv": 4538,
    "Ġclatter": 22347,
    "Ġjetted": 24430,
    "Ġcircumst": 2977,
    "Ġbridal": 14956,
    "Ġhopkins": 23131,
    "Ġimmortality": 26326,
    "Ġgle": 7859,
    "nur": 11509,
    "pag": 11514,
    "Ġimbec": 14158,
    "Ġfire": 2330,
    "obtain": 23095,
    "rage": 10846,
    "Ġexultation": 15174,
    "ĠvertebrÃ¦": 11438,
    "efficient": 2871,
    "Ġfunctional": 3050,
    "Ġdat": 495,
    "Ġmary": 3842,
    "Ġscrolled": 22287,
    "Ġenterprise": 8646,
    "Ġwillow": 18533,
    "Ġsolitudes": 22891,
    "Ġmadman": 13153,
    "Ġsymptoms": 8709,
    "Ġclinging": 10295,
    "Ġple": 1470,
    "Ġjust": 1244,
    "amongst": 24672,
    "Ġinsensible": 12328,
    "pretend": 24882,
    "proble": 9398,
    "Ġproportional": 2522,
    "tom": 15437,
    "Ġinvariable": 13458,
    "Ġcistern": 17383,
    "Ġrueful": 25581,
    "illum": 15872,
    "mankind": 14376,
    "Ġwhisker": 23937,
    "stall": 21648,
    "Ġbordeaux": 24564,
    "'t": 3145,
    "iding": 3845,
    "Ġ2026": 12338,
    "Ġherring": 14128,
    "Ġshrieking": 24756,
    "Ġinsignificant": 20458,
    "ass": 536,
    "Ġobjection": 6587,
    "Ġprepared": 5878,
    "gloves": 25146,
    "Ġyea": 8920,
    "Ġparamore": 22125,
    "opes": 10314,
    "Ġseap": 15820,
    "disgraceful": 26076,
    "Ġspouted": 14676,
    "accents": 19213,
    "Ġcollinses": 19130,
    "Ġpatches": 4236,
    "Ġwears": 10244,
    "Ġsprawling": 22142,
    "Ġyielding": 12190,
    "Ġperseverance": 13600,
    "Ġ6": 5141,
    "protest": 24811,
    "iet": 1773,
    "Ġsailed": 4890,
    "Ġdestroy": 5772,
    "aurus": 20562,
    "Ġreward": 6146,
    "Ġjob": 7017,
    "Ġmerely": 3768,
    "Ġgreenhorn": 23769,
    "Ġexhilar": 19685,
    "Ġhoky": 17928,
    "Ġmyself": 1455,
    "Ġharder": 14451,
    "Ġsublim": 19969,
    "Ġwitty": 21294,
    "Ġespecial": 26411,
    "urmount": 13998,
    "Ġconsecut": 18113,
    "inhab": 10760,
    "age": 503,
    "Ġdigesting": 19811,
    "Ġsqualidness": 25843,
    "Ġdreadful": 4921,
    "pleasing": 14744,
    "gabriel": 15363,
    "Ġgum": 21597,
    "Ġplanks": 5563,
    "enet": 10156,
    "chants": 21694,
    "Ġchip": 12829,
    "Ġhovering": 10182,
    "Ġunintermitted": 26220,
    "abomin": 15745,
    "airs": 2222,
    "resum": 17762,
    "plain": 1356,
    "thesize": 24906,
    "tempted": 26404,
    "Ġjurors": 17346,
    "shabbily": 26247,
    "itors": 2913,
    "curious": 10486,
    "Ġsuddenness": 23384,
    "ĠĠĠĠĠĠĠĠĠĠĠĠĠĠĠĠĠĠĠĠĠĠĠĠĠĠĠĠĠĠĠĠĠĠĠĠ": 23667,
    "Ġentering": 6287,
    "Ġbrisk": 9807,
    "Ġlazarus": 15030,
    "quadr": 15767,
    "Ġmississippi": 20726,
    "Ġin": 291,
    "Ġcaprice": 14576,
    "Ġmeat": 8152,
    "Ġglistening": 12368,
    "consolatory": 25307,
    "Ġhartshorn": 26181,
    "Ġsatisfactory": 11196,
    "Ġwooing": 19436,
    "Ġcherish": 10593,
    "Ġmoot": 22435,
    "Ġado": 7628,
    "cet": 15327,
    "biscuit": 17502,
    "Ġstra": 2994,
    "kov": 17587,
    "Ġfreckled": 18960,
    "Ġjoke": 8873,
    "deliver": 19506,
    "Ġvictim": 6099,
    "shock": 19856,
    "ð": 177,
    ",âĢĶâĢĺ": 23804,
    "Ġtestimony": 14479,
    "iest": 4033,
    "Ġforgive": 8010,
    "occupied": 12307,
    "Ġeff": 665,
    "Ġarithmetic": 18343,
    "fes": 20852,
    "gged": 3775,
    "Ġincarnation": 25574,
    "Ġsnatching": 10475,
    "aired": 8369,
    "istan": 22111,
    "Ġunchanging": 22046,
    "Ġimperfectly": 25726,
    "Ġtrod": 15028,
    "ipotence": 22362,
    "rance": 5995,
    "wrath": 23757,
    "Ġincorrect": 2729,
    "Ġseer": 21962,
    "Ġweld": 8112,
    "Ġtribute": 15477,
    "enched": 10158,
    "Ġpupp": 10823,
    "Ġfeathers": 15122,
    "Ġimpertinent": 9081,
    "Ġclo": 6044,
    "ruff": 15904,
    "isl": 21377,
    "Ġdemean": 12727,
    "handedness": 24920,
    "aps": 1231,
    "Ġsignificant": 8638,
    "Ġdistingu": 2512,
    "Ġglades": 19374,
    "like": 1885,
    "Ġsouthwards": 19635,
    "Ġshrine": 19533,
    "Ġlegal": 10442,
    "Ġthrilling": 19750,
    "Ġflogged": 23625,
    "Ġstaff": 14008,
    "Ġadduced": 26525,
    "Ġcorpora": 26581,
    "Ġmort": 3457,
    "Ġauthority": 7749,
    "Ġextending": 11023,
    "Ġstash": 18069,
    "howling": 18990,
    "Ġfurnishes": 19443,
    "chance": 6827,
    "Ġlin": 10836,
    "presently": 9813,
    "Ġwidespread": 20677,
    "Ġessentially": 24924,
    "Ġtype": 2020,
    "Ġcholera": 22256,
    "bound": 6222,
    "Ġmostly": 7665,
    "Ġexpanse": 14293,
    "hammad": 23265,
    "Ġjavelin": 26104,
    "isters": 11922,
    "ances": 1335,
    "food": 12467,
    "teness": 23206,
    "Ġof": 298,
    "alleled": 14431,
    "ard": 465,
    "itude": 1419,
    "Ġprefer": 6417,
    "Ġreynolds": 10213,
    "Ġlow": 1647,
    "Ġcorrect": 2430,
    "opportunity": 12278,
    "Ġbeg": 1285,
    "Ġencountered": 8322,
    "Ġidol": 7467,
    "sherlock": 5422,
    "Ġenormousness": 24514,
    "Ġwilt": 9647,
    "Ġscimet": 22291,
    "opius": 18508,
    "Ġsim": 734,
    "Ġexpiring": 16101,
    "Ġbiases": 2397,
    "Ġigniting": 25072,
    "Ġdive": 10176,
    "Ġdurst": 20354,
    "Ġteaching": 10368,
    "Ġdisturbed": 8676,
    "Ġkidnapping": 26357,
    "pervading": 18959,
    "Ġcontr": 1914,
    "Ġthan": 736,
    "unconquerable": 21894,
    "Ġgrove": 12150,
    "ifer": 11687,
    "brous": 19201,
    "arthly": 8030,
    "Ġhook": 6454,
    "variety": 23188,
    "Ġpersuade": 5874,
    "Ġfaster": 3200,
    "Ġgreat": 898,
    "Ġfailing": 12141,
    "artic": 14223,
    "Ġmilky": 9951,
    "iffe": 21905,
    "Ġexisted": 15756,
    "pot": 10121,
    "Ġheave": 7601,
    "Ġparted": 5930,
    "Ġhealthcare": 8016,
    "Ġdisengaged": 12893,
    "Ġdefy": 11900,
    "Ġisrael": 21806,
    "Ġattacking": 24464,
    "Ġanonymous": 26178,
    "Ġsus": 18276,
    "Ġanalyzing": 18796,
    "Ġcultiv": 13559,
    "ropes": 7903,
    "Ġcust": 11586,
    "Ġclerical": 25569,
    "ruined": 18345,
    "Ġmince": 22833,
    "equal": 14995,
    "Ġroute": 11384,
    "summit": 23418,
    "Ġwrinkles": 8575,
    "Ġpastures": 23421,
    "reading": 12083,
    "Ġtechni": 1677,
    "became": 10518,
    "Ġbeliefs": 24582,
    "Ġwaist": 6893,
    "Ġspecies": 5112,
    "anybody": 12086,
    "feet": 6570,
    "Ġtranslation": 3088,
    "Ġaccount": 2318,
    "Ġschool": 5512,
    "united": 14062,
    "alvan": 21506,
    "ery": 1269,
    "empty": 23635,
    "irst": 879,
    "Ġprecisely": 6467,
    "solut": 3362,
    "Ġstorms": 11265,
    "bench": 16804,
    "Ġpoints": 5248,
    "usually": 10289,
    "Ġleviathans": 8282,
    "divided": 25020,
    "Ġminded": 23233,
    "performances": 26006,
    "Ġsed": 10764,
    "Ġunimpe": 22073,
    "unnecessary": 21883,
    "ution": 4350,
    "Ġwhe": 439,
    "achalot": 15866,
    "rapidly": 15246,
    "strength": 13982,
    "kers": 7134,
    "eye": 6226,
    "doctor": 19096,
    "Ġconjoined": 21809,
    "capable": 13704,
    "Ġhen": 3502,
    "Ġlistener": 16476,
    "Ġpret": 3037,
    "Ġrelationship": 2313,
    "Ġteacher": 22910,
    "Ġsteal": 16285,
    "Ġappe": 1539,
    "Ġquick": 2581,
    "orne": 17873,
    "Ġbrooding": 18907,
    "arily": 4123,
    "seldom": 13789,
    "Ġstands": 5259,
    "thumb": 18218,
    "successful": 11361,
    "Ġmanhat": 22330,
    "Ġhesitation": 13443,
    "fancy": 7337,
    "Ġnour": 10833,
    "haven": 20913,
    "Ġcoaxing": 18594,
    "appeared": 4282,
    "Ġcongregational": 25104,
    "Ġspending": 10926,
    "ibilities": 13015,
    "Ġdoxology": 22247,
    "forecastle": 10993,
    "seam": 10877,
    "Ġeasily": 3889,
    "Ġur": 5540,
    "Ġwarehouse": 20419,
    "Ġrobes": 16276,
    "Ġnoblest": 13244,
    "Ġglided": 7447,
    "Ġmortal": 4682,
    "Ġconsisted": 10422,
    "Ġinstantaneously": 23661,
    "seen": 2881,
    "sue": 2077,
    "bare": 12444,
    "Ġdomineering": 23657,
    "Ġdun": 6676,
    "Ġrever": 6538,
    "Ġentit": 22742,
    "Ġcommentators": 25230,
    "Ġglasses": 9479,
    "freighted": 14894,
    "Ġgarn": 13965,
    "Ġtask": 1311,
    "duct": 3506,
    "Ġmason": 10161,
    "ection": 4948,
    "dancing": 12458,
    "Ġsomewhere": 5384,
    "Ġmuscle": 14690,
    "Ġfierceness": 26264,
    "beneath": 9539,
    "uted": 7594,
    "endeavour": 17031,
    "Ġear": 1424,
    "edmund": 17947,
    "convolutional": 4958,
    "Ġrecovered": 5481,
    "Ġcurb": 16234,
    "Ġfrighten": 13280,
    "computer": 2016,
    "Ġclank": 15967,
    "Ġvoid": 14088,
    "magnificent": 20276,
    "Ġcombines": 1170,
    "Ġfoss": 9855,
    "inj": 9155,
    "Ġwidely": 8033,
    "Ġpolitely": 8998,
    "Ġunrelieved": 20547,
    "Ġexcl": 3473,
    "Ġascertaining": 17205,
    "Ġdepl": 14048,
    "Ġscent": 10288,
    "Ġendeared": 26499,
    "Ġmore": 678,
    "eat": 11486,
    "pillar": 5619,
    "Ġboyhood": 23756,
    "Ġmanifested": 17159,
    "Ġseren": 7401,
    "akeman": 6269,
    "Ġcrib": 21350,
    "pul": 8758,
    "Ġattach": 14290,
    "Ġvalidation": 2355,
    "Ġdec": 643,
    "quest": 4539,
    "Ġunsupplied": 22044,
    "Ġgobern": 22428,
    "Ġinvited": 6903,
    "rusion": 11326,
    "Ġsentence": 6189,
    "Ġrecess": 10850,
    "Ġsweet": 3464,
    "icated": 7592,
    "thest": 11657,
    "peddling": 21033,
    "nets": 9136,
    "paper": 9140,
    "Ġsolic": 7933,
    "saddest": 25528,
    "Ġesteem": 7532,
    "qu": 368,
    "Ġpleaded": 16302,
    "Ġamsterdam": 22487,
    "Ġflowery": 16238,
    "swallow": 24259,
    "Ġquantization": 19855,
    "Ġgene": 15675,
    "Ġall": 421,
    "whisper": 17083,
    "phon": 4125,
    "Ġaries": 21199,
    "Ġkeys": 12000,
    "Ġvows": 15811,
    "Ġparty": 3510,
    "Ġdisenc": 22529,
    "Ġgordon": 26468,
    "Ġinspire": 11999,
    "Ġapparelled": 20439,
    "ales": 3316,
    "Ġdecoding": 3083,
    "pistol": 17643,
    "published": 26142,
    "Ġtransplanted": 22444,
    "Ġunappe": 22019,
    "Ġsoothed": 10033,
    "Ġdock": 15933,
    "Ġunearthly": 9040,
    "Ġrides": 21974,
    "Ġplague": 11828,
    "Ġinfrequent": 3823,
    "Ġfunere": 22262,
    "Ġterrors": 6918,
    "Ġconsistent": 14529,
    "Ġtahitian": 25428,
    "Ġmystical": 12136,
    "Ġmurderers": 16812,
    "Ġdevices": 2941,
    "Ġappals": 22223,
    "subst": 12168,
    "croquet": 25747,
    "Ġjump": 4505,
    "remental": 21249,
    "Ġcensured": 25096,
    "Ġcircumnavigation": 20402,
    "Ġdevelop": 1639,
    "Ġdearer": 14053,
    "ssible": 2996,
    "amount": 10887,
    "Ġcomputers": 2643,
    "Ġcocain": 18592,
    "Ġmechanical": 7937,
    "Ġclose": 3038,
    "Ġorlop": 22096,
    "Ġaffidavit": 20725,
    "Ġfirmly": 8014,
    "Ġmicrosc": 20678,
    "cowardly": 25749,
    "Ġscratching": 20371,
    "Ġentry": 11029,
    "sex": 12717,
    "formity": 10282,
    "Ġtertiary": 15297,
    "Ġembedding": 2104,
    "silent": 9978,
    "Ġflirting": 16251,
    "Ġentertainment": 12226,
    "Ġtopic": 9410,
    "Ġleaves": 5021,
    "Ġdetection": 3139,
    "Ġsitt": 21219,
    "Ġphara": 23201,
    "Ġforehead": 5262,
    "Ġoverfitting": 1541,
    "wins": 21131,
    "Ġfinds": 6301,
    "ollion": 19717,
    "Ġstrings": 11833,
    "aling": 1037,
    "Ġfork": 15735,
    "warrant": 21139,
    "Ġblackness": 9397,
    "Ġmitigates": 3053,
    "aned": 5147,
    "Ġtug": 11554,
    "superst": 11328,
    "Ġreluctant": 20527,
    "upon": 2721,
    "Ġeliza": 6438,
    "jur": 17579,
    "Ġsquared": 1381,
    "ssing": 3807,
    "Ġnapoleon": 20559,
    "Ġopium": 8999,
    "Ġmap": 2391,
    "Ġtoma": 7373,
    "Ġprosperity": 20259,
    "Ġfeeble": 12287,
    "bble": 17486,
    "ilder": 15716,
    "Ġscenari": 22290,
    "abbering": 21799,
    "aan": 20765,
    "Ġpotential": 3618,
    "asper": 7855,
    "istry": 22112,
    "Ġupward": 9725,
    "phere": 21020,
    "Ġaccusations": 22380,
    "shapes": 22465,
    "Ġproced": 2579,
    "Ġcensure": 15098,
    "Ġdevoid": 18682,
    ",--âĢľ": 19199,
    "cer": 6645,
    "Ġfaith": 5351,
    "labours": 16618,
    "Ġslink": 23165,
    "Ġrelu": 1048,
    "Ġusually": 6265,
    "Ġdiscrimin": 2544,
    "pres": 16031,
    "Ġpersons": 6184,
    "Ġstrength": 4260,
    "Ġthoughtfully": 12982,
    "Ġremonstrance": 20625,
    "Ġparson": 6689,
    "),": 1345,
    "hack": 20897,
    "Ġnorm": 763,
    "Ġunique": 12782,
    "Ġdampening": 2895,
    "cnns": 3620,
    "beware": 16043,
    "urday": 13997,
    "95": 17479,
    "antarctic": 22102,
    "vell": 3958,
    "Ġworthy": 7241,
    "Ġhorizont": 6937,
    "foundered": 20868,
    "Ġstirred": 12221,
    "Ġqueer": 4480,
    "Ġadjusted": 23458,
    "Ġpile": 8425,
    "odes": 18118,
    "Ġfragment": 14512,
    "Ġstriking": 6089,
    "got": 6955,
    "iltrated": 19306,
    "Ġcensus": 15099,
    "Ġeuropean": 20048,
    "Ġinflexibly": 26371,
    "emberley": 4169,
    ".âĢĿ": 464,
    "Ġrejection": 19986,
    "Ġthreshold": 2809,
    "ulity": 10889,
    "Ġspind": 18307,
    "Ġbundles": 26175,
    "Ġwelcomed": 9486,
    "Ġconsol": 3814,
    "Ġnewspapers": 17188,
    "Ġopine": 19229,
    "Ġobscured": 15012,
    "Ġstreaming": 19675,
    "Ġthreaten": 24373,
    "Ġlessened": 19088,
    "Ġhitting": 21490,
    "iences": 6957,
    "ersburgh": 18215,
    "oded": 11672,
    "Ġlodger": 24093,
    "Ġtriumphal": 24370,
    "ification": 1013,
    "Ġ[": 6968,
    "summer": 11997,
    "Ġcampa": 17175,
    "rocket": 13946,
    "enit": 17780,
    "ustom": 3787,
    "Ġsmiling": 5474,
    "naturally": 14585,
    "etts": 12664,
    "Ġjew": 9471,
    "Ġperilous": 7769,
    "mole": 22703,
    "castle": 3348,
    "nailed": 20997,
    "Ġmaria": 7126,
    "Ġquarto": 17298,
    "threshold": 21990,
    "dreaded": 25141,
    "Ġcoral": 11924,
    "ignorantly": 25190,
    "venor": 16103,
    "Ġcave": 10788,
    "Ġungovernable": 20710,
    "Ġsighed": 10341,
    "function": 4736,
    "anting": 6413,
    "Ġstrenuously": 17450,
    "quar": 7617,
    "¾": 127,
    "Ġtired": 9153,
    "Ġfeverish": 11351,
    "Ġassertion": 13491,
    "inces": 13830,
    "Ġcavity": 20490,
    "Ġdates": 6695,
    "<PAD>": 0,
    "Ġsingled": 23773,
    "Ġhigher": 1820,
    "Ġrecumbent": 22732,
    "Ġlights": 8964,
    "Ġtar": 2563,
    "Ġhookah": 16971,
    "orts": 2554,
    "banked": 25338,
    "ignity": 4375,
    "Ġportions": 19371,
    "pilot": 25908,
    "supposing": 24136,
    "Ġtuning": 3074,
    "Ġbut": 424,
    "Ġshout": 4265,
    "Ġfeeds": 16435,
    "Ġendure": 5957,
    "ousings": 18335,
    "Ġmemb": 14031,
    "Ġenjoyment": 7300,
    "Ġknock": 9977,
    "Ġglut": 18854,
    "Ġunfolding": 17086,
    "Ġbrain": 2088,
    "Ġsmith": 16067,
    "Ġtransformed": 22611,
    "Ġdestruction": 6602,
    "danish": 20834,
    "Ġvancouver": 26566,
    "Ġgaining": 9496,
    "Ġrevealed": 6753,
    "Ġviol": 2071,
    "Ġpalms": 8648,
    "Ġdifference": 1489,
    "lested": 14885,
    "not": 909,
    "ities": 1826,
    "Ġaffording": 14823,
    "Ġwick": 2003,
    "Ġlionel": 25287,
    "Ġtruce": 24115,
    "touching": 15094,
    "whew": 22870,
    "Ġbattering": 13903,
    "rible": 3229,
    "vib": 21117,
    "assed": 6422,
    "Ġden": 3108,
    "Ġprivile": 8650,
    "stock": 13225,
    "Ġlash": 8440,
    "grass": 23414,
    "Ġphantoms": 13488,
    "conced": 22473,
    "Ġobedient": 20107,
    "desponding": 26342,
    "rench": 3966,
    "Ġinvolved": 8928,
    "Ġintensity": 10020,
    "began": 6427,
    "Ġdetect": 1184,
    "Ġscandinav": 19963,
    "Ġspreading": 13380,
    "Ġattractive": 25121,
    "commanded": 16989,
    "wore": 21126,
    "Ġvint": 18194,
    "none": 6962,
    "Ġcircle": 4977,
    "Ġrewarding": 13439,
    "twelvemonth": 25862,
    "Ġentity": 10346,
    "Ġfondly": 19618,
    "Ġend": 1475,
    "Ġexciting": 23313,
    "approaching": 15013,
    "pounds": 21026,
    "con": 654,
    "Ġmole": 11795,
    "Ġpatience": 2644,
    "Ġaddressed": 5263,
    "quality": 10236,
    "Ġapprehending": 26091,
    "ronted": 14879,
    "Ġunsounded": 15852,
    "Ġdefile": 18825,
    "Ġfashionable": 19546,
    "information": 12396,
    "Ġmoss": 9288,
    "sul": 15423,
    "corrupt": 14897,
    "Ġoutriders": 26544,
    "travellers": 24338,
    "standing": 5558,
    "baggage": 24926,
    "eland": 11624,
    "Ġbennets": 9810,
    "bearded": 18525,
    "Ġblindly": 12113,
    "Ġcommands": 16590,
    "Ġdomains": 6614,
    "Ġnor": 1549,
    "por": 2148,
    "Ġamb": 9296,
    "scream": 11079,
    "sea": 4764,
    "Ġcub": 8415,
    "relics": 24017,
    "Ġinquire": 7720,
    "body": 2305,
    "Ġapproximate": 2340,
    "bringing": 17168,
    "bru": 12442,
    "charles": 14701,
    "ise": 707,
    "deser": 10482,
    "Ġdy": 2549,
    "Ġdiscompose": 25579,
    "Ġstraining": 11330,
    "Ġtwain": 16122,
    "Ġpinch": 15018,
    "Ġexerting": 21835,
    "anation": 5804,
    "eze": 20848,
    "Ġturkish": 12265,
    "Ġdetailed": 12828,
    "ibbald": 18849,
    "Ġthree": 1370,
    "Ġafforded": 8029,
    "prejudiced": 17299,
    "erative": 21274,
    "Ġexactly": 2768,
    "Ġdarkly": 19115,
    "Ġmaggie": 26292,
    "Ġface": 1721,
    "mons": 17601,
    "ris": 9141,
    "Ġpacked": 9984,
    "Ġnam": 17950,
    "Ġlady": 1586,
    "Ġf": 283,
    "foot": 9050,
    "Ġgreatness": 12947,
    "Ġcanes": 22166,
    "Ġwaterproof": 19089,
    "Ġcommercial": 22676,
    "itable": 5437,
    "Ġmelancholy": 5606,
    "Ġentail": 9797,
    "Ġdashing": 8801,
    "Ġoverlook": 10964,
    "shaped": 10312,
    "Ġscuttle": 7414,
    "Ġsanta": 26421,
    "Ġjeroboam": 10604,
    "Ġskirts": 14356,
    "Ġfit": 3682,
    "hip": 8745,
    "ifully": 13186,
    "Ġprevent": 757,
    "Ġidleness": 11146,
    "mus": 10114,
    "Ġindistinctly": 26117,
    "continual": 20645,
    "Ġtener": 21165,
    "Ġbeeches": 9230,
    "Ġrus": 14094,
    "Ġtall": 4035,
    "_).": 5888,
    "Ġdebility": 24274,
    "Ġnaked": 8127,
    "rodden": 21537,
    "Ġpollard": 20388,
    "Ġdom": 2698,
    "Ġrain": 5005,
    "Ġsparkled": 13464,
    "Ġarr": 1799,
    "Ġruskin": 25808,
    "Ġmargin": 11923,
    "ouri": 21449,
    "Ġwitnesses": 9490,
    "ran": 11519,
    "Ġpattered": 19016,
    "Ġcoppers": 22585,
    "arus": 13914,
    "Ġhypocritical": 20739,
    "Ġhawaiian": 25367,
    "disagreeable": 11166,
    "blood": 7780,
    "Ġfamilies": 8027,
    "dering": 5307,
    "vast": 10739,
    "Ġbeau": 9228,
    "Ġdupl": 9958,
    "confid": 14869,
    "Ġbankers": 24303,
    "Ġtold": 2185,
    "actions": 8911,
    "Ġappertain": 22222,
    "ina": 21181,
    "lemag": 21374,
    "Ġoutputs": 2886,
    "Ġcraft": 4377,
    "perpetually": 20514,
    "Ġnorthumbria": 24173,
    "hilar": 25083,
    "icle": 10837,
    "effectually": 25131,
    "Ġtowards": 1727,
    "Ġcaliforn": 14433,
    "georgiana": 26020,
    "Ġentertain": 6055,
    "Ġturtles": 19222,
    "Ġweaver": 11691,
    "hed": 671,
    "hat": 6956,
    "riers": 18183,
    "Ġspacious": 18312,
    "Ġvillage": 5774,
    "composure": 24036,
    "Ġgul": 7860,
    "terr": 8154,
    "suggested": 17301,
    "uncomfortable": 18162,
    "Ġultimately": 17166,
    "Ġhatherley": 7849,
    "Ġsweep": 8266,
    "Ġduties": 6611,
    "Ġfool": 4234,
    "Ġmartha": 16263,
    "Ġtwink": 8216,
    "specific": 10501,
    "Ġbringing": 5871,
    "qualified": 17098,
    "Ġweeping": 11690,
    "Ġtrains": 10950,
    "Ġestimated": 16595,
    "conject": 8884,
    "umb": 3400,
    "Ġtrappings": 23083,
    "aks": 8509,
    "Ġstraps": 19310,
    "Ġeas": 2350,
    "uncont": 15777,
    "Ġreveries": 11350,
    "Ġbody": 2435,
    "asant": 17960,
    "Ġneglect": 7942,
    "crimin": 17510,
    "brated": 12030,
    "thirds": 25048,
    "susp": 10600,
    "br": 2477,
    "Ġsupre": 10273,
    "Ġwherefore": 8528,
    "Ġscal": 1567,
    "Ġgoney": 14545,
    "gy": 2096,
    "Ġwrinkled": 7264,
    "scap": 22992,
    "Ġimagined": 8611,
    "://": 11468,
    "Ġoverhanging": 22368,
    "ts": 960,
    "Ġproper": 1378,
    "Ġapiece": 16814,
    "Ġbestir": 13112,
    "Ġwaifing": 25244,
    "floor": 14938,
    "brow": 15318,
    "Ġinvisibly": 24813,
    "sum": 2087,
    "Ġbeard": 11658,
    "reduced": 15808,
    "Ġnext": 2138,
    "Ġpalaces": 24092,
    "Ġgestic": 21610,
    "Ġlodge": 5779,
    "Ò": 147,
    "icirc": 15659,
    "Ġimprecations": 25820,
    "Ġobsequ": 14322,
    "Ġregular": 947,
    "trimmed": 23951,
    "eyeing": 14948,
    "Ġabomination": 22281,
    "Ġclust": 9278,
    "Ġgaping": 13971,
    "unaffected": 21886,
    "¯": 112,
    "Ġpolicy": 10460,
    "Ġris": 4887,
    "insufferable": 21194,
    "Ġ": 225,
    "Ġhe": 318,
    "ourse": 8874,
    "Ġmemory": 2274,
    "Ġunperceived": 22038,
    "Ġsurpassing": 20470,
    "Ġadvoc": 12991,
    ".âĢĶâĢľ": 20748,
    "stubb": 6019,
    "advent": 10224,
    "Ġsepar": 3996,
    "Ġsuns": 23275,
    "Ġsoar": 18282,
    "Ġdiver": 2527,
    "Ġnineveh": 13391,
    "Ġcrowding": 13281,
    "Ġmere": 2713,
    "Ġsow": 17750,
    "Ġxxxiv": 24969,
    "cupboards": 25402,
    "contin": 16544,
    "Ġebony": 18010,
    "reporting": 24493,
    "itiously": 13873,
    "Ġcapricious": 20540,
    "Ġsufficiently": 8977,
    "hav": 20898,
    "elevating": 20408,
    "Ġtraps": 23081,
    "iantly": 13741,
    "Ġclasses": 4051,
    "Ġadm": 2401,
    "Ġdriving": 3616,
    "himself": 3970,
    "ately": 1731,
    "Ġbecalmed": 18088,
    "affections": 17358,
    "Ġwer": 12556,
    "Ġharpooned": 13264,
    "Ġsentiment": 6590,
    "Ġhilarity": 20299,
    "Ġstandpoint": 23279,
    "igns": 8449,
    "Ġrefrained": 14346,
    "ouched": 4637,
    "Ġrud": 8480,
    "Ġpotency": 14647,
    "Ġcreatures": 4135,
    "Ġinterests": 14569,
    "Ġdescends": 14289,
    "den": 938,
    "Ġpractical": 3166,
    "Ġirrespective": 23377,
    "Ġrainbows": 19650,
    "utter": 7595,
    "Ġvelv": 10623,
    "Ġensl": 19275,
    "Ġbaleen": 10041,
    "Ġrelent": 18773,
    "perplex": 18338,
    "Ġsly": 9636,
    "ived": 1533,
    "Ġearl": 7677,
    "Ġfive": 2837,
    "independ": 15984,
    "Ġleeward": 6212,
    "headsman": 16698,
    "Ġignominy": 15088,
    "Ġmusket": 12299,
    "murdered": 12206,
    "Ġclaps": 22349,
    "Ġcastaway": 16642,
    "temper": 10008,
    "Ġpromotion": 23196,
    "Ġapothecary": 13662,
    "Ġvir": 7002,
    "yond": 2327,
    "arch": 1099,
    "Ġunp": 12776,
    "Ġcranial": 25592,
    "Ġassign": 11113,
    "Ġmeanest": 12914,
    "Ġmood": 6278,
    "Ġmiles": 3802,
    "Ġgolden": 5337,
    "deploy": 22145,
    "conception": 22477,
    "ardy": 22159,
    "worn": 13808,
    "Ġcreature": 2383,
    "Ġstreets": 5865,
    "Ġedge": 5189,
    "Ġfulfil": 9555,
    "Ġmatrimony": 13638,
    "Ġmumbling": 11578,
    "itime": 15551,
    "toller": 20674,
    "Ġbestow": 6456,
    "fit": 6648,
    "Ġswallowed": 7944,
    "Ġlife": 1350,
    "lies": 15384,
    "Ġglass": 4370,
    "Ġpersisted": 13049,
    "Ġmatrimonial": 25490,
    "Ġundoubted": 19516,
    "Ġinquis": 19304,
    "Ġnoticing": 18224,
    "Ġprow": 6686,
    "Ġdinah": 9457,
    "Ġpropos": 7064,
    "Ġneighbour": 3806,
    "Ġloathing": 15070,
    "veil": 18044,
    "awk": 23115,
    ";âĢĻ": 15305,
    "Ġvault": 8846,
    "Ġponies": 21477,
    "Ġdebts": 8036,
    "Ġexcuses": 19040,
    "seriously": 18904,
    "Ġsilently": 6895,
    "oud": 1940,
    "Ġhose": 12631,
    "Ġnaturally": 2466,
    "irations": 18173,
    "Ġtransition": 14235,
    "Ġtransmit": 10308,
    "Ġbefall": 8834,
    "Ġhat": 2772,
    "Ġprocopius": 19733,
    "mir": 20964,
    "Ġsympathise": 16795,
    "Ġcomparison": 7101,
    "Ġdressed": 5081,
    "Ġshaft": 18229,
    "Ġjago": 22302,
    "Ġworrying": 22929,
    "Ġdr": 2825,
    "Ġexhaust": 6400,
    "iality": 8849,
    "Ġshadows": 8013,
    "ecess": 17533,
    "Ġinvade": 19143,
    "Ġcoals": 16076,
    "ufactured": 15184,
    "Ġhilarious": 20300,
    "Ġcosmetic": 23472,
    "Ġfanny": 23393,
    "Ġclimax": 25053,
    "Ġwall": 3841,
    "Ġquaint": 18460,
    "individual": 18436,
    "Ġfelt": 1744,
    "meant": 7921,
    "Ġmeeting": 5193,
    "Ġtashtego": 4488,
    "Ġdividing": 12115,
    "Ġsea": 1208,
    "Ġhypotheses": 4387,
    "Ġonly": 786,
    "Ġdilatory": 24703,
    "four": 6115,
    "pad": 13770,
    "Ġsaturation": 2061,
    "gor": 547,
    "ans": 458,
    "Ġcramped": 23530,
    "Ġboundless": 10499,
    "Ġclerval": 4654,
    "Ġsensitive": 13199,
    "nial": 20985,
    "zeal": 16259,
    "Ġmors": 17802,
    "armon": 23057,
    "ispens": 8336,
    "Ġthrone": 12217,
    "indian": 11782,
    "obliged": 20633,
    "Ġdifficulty": 5770,
    "kitty": 10109,
    "Ġlieutenant": 15264,
    "Ġposted": 16725,
    "Ġselected": 9715,
    "Ġtrifle": 10605,
    "Ġraised": 4660,
    "indifferent": 14210,
    "Ġbod": 4582,
    "³": 116,
    "ortations": 22261,
    "Ġnapole": 15118,
    "Ġregions": 10327,
    "Ġadapt": 1024,
    "ows": 1917,
    "Ġoccupant": 16653,
    "Ġpractically": 13101,
    "Ġinterlude": 16073,
    "Ġreasonable": 7253,
    "Ġknee": 7095,
    "Ġerroneous": 17411,
    "remembered": 17353,
    "itud": 2931,
    "Ġcrawling": 17045,
    "Ġjam": 10954,
    "ideas": 18581,
    "ineffectual": 26508,
    "Ġtig": 13815,
    "Ġdiffused": 12072,
    "Ġcabs": 23641,
    "irksome": 18175,
    "Ġ7": 4746,
    "Ġcirculating": 23375,
    "Ġfleeting": 19328,
    "Ġriv": 10749,
    "craft": 12250,
    "awakened": 14455,
    "leful": 17843,
    "Ġparallel": 1415,
    "studies": 25170,
    "cordiality": 25140,
    "Ġblow": 3372,
    "inburgh": 15492,
    "Ġprudence": 13922,
    "Ġendeavored": 19303,
    "Ġimplore": 24872,
    "Ġimpat": 4458,
    "weed": 14317,
    "Ġmost": 1021,
    "fabulous": 20476,
    "Ġthough": 991,
    "Ġembarked": 17136,
    "iver": 2048,
    "Ġrattler": 24997,
    "Ġsusp": 2663,
    "neglect": 25668,
    "greenland": 10025,
    "sed": 4175,
    "Ġgoblets": 20521,
    "Ġthreats": 13379,
    "imet": 21708,
    "Ġanalogy": 25639,
    "lue": 8511,
    "ening": 3106,
    "see": 3048,
    "ichever": 13959,
    "Ġemail": 19073,
    "71": 20757,
    "mysterious": 26052,
    "Ġrevellers": 21680,
    "®": 111,
    "Ġgruff": 21616,
    "Ġdynamically": 4244,
    "jud": 4483,
    "Ġdemands": 19640,
    "ous": 477,
    "Ġlangu": 574,
    "Ġnecess": 3474,
    "Ġstick": 6027,
    "ropri": 2179,
    "representing": 25272,
    "Ġranks": 21975,
    "unt": 2043,
    "Ġadmirably": 16482,
    "Ġestablish": 9547,
    "remain": 9842,
    "Ġbrawn": 10485,
    "Ġconcerns": 11971,
    "ubl": 3593,
    "dough": 15337,
    "Ġinsincere": 26600,
    "swiss": 24257,
    "Ġfrightened": 5342,
    "Ġobserver": 11992,
    "power": 7138,
    "Ġcongreg": 8464,
    "Ġchains": 8251,
    "Ġimplac": 24874,
    "Ġfrayed": 23322,
    "Ġunche": 23430,
    "injustice": 17738,
    "spike": 16145,
    "Ġdreams": 7497,
    "Ġwoke": 21291,
    "sk": 5521,
    "conf": 4957,
    "icacy": 15661,
    "oid": 3127,
    "bud": 10687,
    "igan": 21701,
    "forgot": 11036,
    "yonder": 21146,
    "Ġcharacters": 9376,
    "Ġlord": 2965,
    "Ġpat": 1743,
    "drink": 10599,
    "Ġmodest": 15918,
    "Ġ(": 595,
    "Ġabrupt": 9740,
    "Ġabhor": 5467,
    "Ġlimber": 16480,
    "belais": 24040,
    "eng": 1488,
    "oug": 432,
    "been": 3343,
    "Ġdirecting": 16303,
    "Ġebb": 21624,
    "Ġcondesc": 7182,
    "inlaid": 21192,
    "Ġprodigy": 19794,
    "anxiety": 25159,
    "erring": 11060,
    "Ġcompromised": 22574,
    "dread": 8733,
    "perch": 18336,
    "Ġdrags": 16942,
    "Ġindignantly": 16940,
    "Ġplantation": 11426,
    "Ġspecially": 12001,
    "Ġveiled": 16203,
    "opy": 4460,
    "frank": 7758,
    "ari": 672,
    "Ġbrightness": 16578,
    "Ġvoluntarily": 12144,
    "Ġmistake": 6205,
    "Ġcitadel": 25439,
    "Ġunintellig": 22027,
    "Ġlongest": 18629,
    "Ġbitterness": 8024,
    "ined": 1261,
    "mindful": 19601,
    "reds": 12752,
    "Ġriding": 14096,
    "Ġdecreas": 1648,
    "paint": 21019,
    "rely": 6125,
    "aught": 2680,
    "Ġday": 957,
    "furnished": 20243,
    "Ġought": 3416,
    "ium": 4865,
    "Ġsubstances": 24167,
    "Ġ92": 24590,
    "Ġcaus": 1723,
    "Ġcoin": 9775,
    "Ġdiagon": 24738,
    "Ġassist": 3563,
    "solved": 7686,
    "E": 41,
    "glorious": 19369,
    "Ġprinciples": 10015,
    "Ġsinned": 18952,
    "Ġcubic": 20090,
    "Ġbor": 5805,
    "tolerably": 21097,
    "Ġcows": 15556,
    "aus": 1502,
    "Ġexercising": 19908,
    "Ġobliterated": 17407,
    "Ġremarking": 13127,
    "atically": 2671,
    "etical": 13960,
    "slackened": 26094,
    "Ġsymptom": 13485,
    "Ġcoiled": 11824,
    "Ġstrewed": 23423,
    "Ġstatement": 5255,
    "Ġrickety": 26506,
    "Ġunhinged": 26217,
    "crat": 24085,
    "Ġsharpen": 13572,
    "myst": 9826,
    "runs": 25416,
    "Ġjacket": 6490,
    "unaccountable": 15782,
    "Ġtrespass": 23601,
    "Ġbrimstone": 25686,
    "adow": 18089,
    "Ġserpent": 6739,
    "useness": 22295,
    "iries": 18172,
    "eskye": 21486,
    "wand": 10741,
    "loath": 22512,
    "remarked": 12291,
    "Ġeddystone": 25735,
    "Ġcruising": 6913,
    "pyramid": 21031,
    "left": 6976,
    "ouder": 17901,
    "Ġnephew": 6406,
    "assin": 22308,
    "Ġrecurred": 18978,
    "Ġopenness": 18957,
    "wrote": 11550,
    "Ġsyllable": 9733,
    "miniature": 16766,
    "conc": 3944,
    "Ġancestors": 25642,
    "ringle": 21042,
    "Ġcourtship": 24137,
    "Ġproportionably": 19973,
    "Ġfut": 15578,
    "concent": 19482,
    "conducted": 25573,
    "Ġwrench": 12561,
    "kshire": 13748,
    "fordshire": 4677,
    "Ġsugg": 4501,
    "Ġvoy": 2618,
    "Ġmead": 8841,
    "rudent": 6483,
    "Ġrid": 4355,
    "rant": 11520,
    "Ġpond": 13918,
    "Ġbul": 3293,
    "Ġbent": 5149,
    "Ġobeyed": 12220,
    "promise": 12254,
    "plac": 15819,
    "Ġwallowed": 24044,
    "Ġequatorial": 13510,
    "othed": 16512,
    "oar": 12501,
    "Ġsanguine": 25928,
    "Ġbreaths": 14859,
    "Ġannounce": 13341,
    "rudently": 16711,
    "Ġtransformers": 1121,
    "Ġepicures": 25879,
    "Ġsafer": 22173,
    "Ġdare": 3544,
    "yra": 8103,
    "nosed": 20993,
    "Ġinferiority": 17115,
    "Ġmizzen": 20291,
    "lanterns": 17431,
    "Ġcategorization": 12140,
    "compasses": 19460,
    "phant": 6289,
    "Ġsupplication": 25492,
    "jaws": 20933,
    "Ġblossom": 26312,
    "Ġhollowly": 24525,
    "Ġobstinate": 11339,
    "Ġdisquis": 22530,
    "Ġpens": 21461,
    "!_âĢĿ": 11379,
    "Ġagreeing": 20021,
    "Ġmizen": 17260,
    "vitality": 20481,
    "asis": 12654,
    "Ġgrating": 14358,
    "Ġsystem": 585,
    "Ġsnuffing": 25014,
    "Ġmagazine": 23101,
    "Ġdiscern": 7926,
    "against": 5872,
    "Ġswims": 12123,
    "ancies": 11588,
    "kempt": 20942,
    "Ġreplied": 2263,
    "prow": 15413,
    "Ġever": 1181,
    "Ġfuller": 11159,
    "Ġfriends": 2654,
    "Ġroots": 11188,
    "attributed": 23122,
    "================================================================": 9994,
    "virtue": 20571,
    "ivial": 15862,
    "daring": 20830,
    "Ġintricate": 15140,
    "Ġunderneath": 16340,
    "Ġdisown": 22527,
    "Ġind": 1224,
    "Ġclattering": 22354,
    "wolf": 26410,
    "Ġdistinction": 8890,
    "clergy": 18935,
    "Ġbillow": 14782,
    "Ġtag": 15470,
    "mud": 20972,
    "squee": 15432,
    "balls": 12308,
    "Ġlofty": 6219,
    "copyright": 5278,
    "Ġoptimizer": 5036,
    "Ġrapture": 13496,
    "Ġoccur": 1080,
    "point": 6064,
    "Ġpenetrate": 12273,
    "Ġinh": 10827,
    "Ġgild": 15672,
    "Ġtrappers": 23082,
    "inferiors": 25347,
    "Ġlaws": 8003,
    "Ġerected": 12237,
    "Ġbread": 5404,
    "Ġsmoked": 10326,
    "Ġcalculating": 9929,
    "Ġrule": 1534,
    "Ġrejoice": 10212,
    "Ġbeards": 21754,
    "convenient": 12241,
    "inished": 17735,
    "icken": 6713,
    "Ġrecre": 22729,
    "Ġdecreed": 18486,
    "Ġsize": 1220,
    "Ġruined": 12957,
    "Ġdefault": 3040,
    "Ġhawk": 15176,
    "appointment": 24061,
    "Ġslavish": 23175,
    "field": 3073,
    "cated": 20804,
    "ittarius": 22383,
    "Ġterti": 14539,
    "teeth": 10359,
    "cus": 3978,
    "Ġtornado": 24621,
    "ius": 5789,
    "Ġexe": 3991,
    "Ġenthusiastic": 19968,
    "Ġmisconduct": 22759,
    "Ġsulk": 15047,
    "Ġfuneral": 10286,
    "rawling": 21638,
    "treat": 12517,
    "Ġsundering": 23276,
    "Ġfamine": 16330,
    "amples": 1822,
    "Ġmax": 2004,
    "Ġshar": 9254,
    "nantucket": 7804,
    "Ġhitherto": 5881,
    "Ġpupils": 20423,
    "Ġstoop": 16313,
    "Ġrepugnance": 19087,
    "many": 5250,
    "Ġdivinely": 25722,
    "Ġempty": 5354,
    "aug": 1215,
    "owing": 7603,
    "Ġbarbara": 24814,
    "links": 20959,
    "cocks": 23559,
    "Ġaffliction": 25845,
    "learned": 8605,
    "Ġcandid": 4097,
    "Ġcomplain": 6687,
    "Ç": 136,
    "Ġtremor": 24766,
    "Ġdeparted": 5564,
    "Ġcronies": 23441,
    "Ġcathed": 14548,
    "Ġlandsman": 11353,
    "Ġsucked": 14132,
    "Ġstamped": 13528,
    "Ġ1807": 26083,
    "Ġwhite": 1537,
    "acked": 10976,
    "Ġnom": 21521,
    "Ġhimself": 1349,
    "Ġaver": 1288,
    "Ġbrim": 12979,
    "mises": 20979,
    "Ġgpt": 4351,
    "Ġcontinuing": 14399,
    "Ġtus": 10752,
    "shri": 14237,
    "Ġcrystall": 20228,
    "successively": 24777,
    "irm": 3109,
    "nt": 922,
    "Ġevaporate": 26333,
    "Ġprocessions": 18433,
    "Ġheavier": 13105,
    "william": 4563,
    "Ġprivileged": 20115,
    "Ġwhirlpool": 20656,
    "fight": 17539,
    "Ġsentimental": 24752,
    "consciously": 19627,
    "Ġtemptation": 8682,
    "Ġstubb": 1785,
    "Ġrested": 9383,
    "Ġgamesome": 17291,
    "Ġparaph": 22123,
    "Ġvicissitudes": 12422,
    "Ġcrater": 16437,
    "Ġexc": 1831,
    "Ġponderous": 8355,
    "noise": 14332,
    "Ġnewfoundland": 26570,
    "Ġfile": 13905,
    "wers": 12523,
    "Ġstrike": 4857,
    "Ġscr": 11764,
    "Ġrazors": 22649,
    "Ġconcerning": 4064,
    "Ġconfining": 23307,
    "Ġintruding": 21994,
    "ç": 168,
    "Ġvote": 21950,
    "varying": 13806,
    "Ġrnns": 2394,
    "Ġreaction": 15698,
    "Ġmysteriously": 24601,
    "abound": 15743,
    "Ġcrosses": 23063,
    "verty": 8454,
    "oring": 1861,
    "dict": 15340,
    "Ġsovere": 9260,
    "philosop": 9571,
    "Ġgems": 9212,
    "born": 7544,
    "Ġillustrate": 25067,
    "Ġobjects": 5578,
    "Ġraising": 8913,
    "Ġbarbs": 10535,
    "Ġbrigs": 20324,
    "tarpaul": 21099,
    "riage": 2123,
    "icilian": 20693,
    "standard": 22431,
    "Ġcontrasting": 11157,
    "wr": 3030,
    "sleepy": 24727,
    "Ġjets": 10291,
    "Ġears": 4492,
    "utch": 21588,
    "Ġheedful": 19742,
    "perseus": 26005,
    "Ġsolely": 9914,
    "Ġadaptively": 3947,
    "Ġmonosyllable": 20727,
    "Ġreal": 1633,
    "Ġstranded": 9779,
    "Ġsprained": 15886,
    "Ġflung": 8567,
    "Ġperse": 6273,
    "Ġsurrey": 14559,
    "Ġclapping": 14204,
    "Ġmagnanim": 14474,
    "Ġstacks": 18076,
    "rine": 21039,
    "Ġincumbent": 16065,
    "extensive": 18709,
    "Ġsyrian": 18354,
    "bond": 17491,
    "omnipotent": 25964,
    "quick": 6401,
    "separ": 9234,
    "Ġrecords": 12199,
    "Ġluxuriant": 20397,
    "Ġrecol": 4025,
    "omitted": 18018,
    "Ġlingu": 11618,
    "Ġupbraid": 18318,
    "Ġnodes": 1965,
    "izar": 14045,
    "Ġpour": 13916,
    "servant": 15037,
    "someone": 14564,
    "84": 15304,
    "Ġsprout": 24089,
    "ory": 1079,
    "hold": 3980,
    "precision": 4332,
    "Ġpitches": 23904,
    "Ġunfair": 19509,
    "onder": 3777,
    "chat": 21688,
    "vember": 10858,
    "Ġsecurely": 16803,
    "Ġcarelessness": 13078,
    "Ġspeeches": 22665,
    "grey": 14914,
    "Ġscreamed": 9528,
    "late": 11502,
    "oss": 10119,
    "Ġhospitality": 13514,
    "tfordshire": 4812,
    "Ġsignature": 16494,
    "turned": 7306,
    "Ġbetake": 22909,
    "Ġplaned": 24057,
    "total": 17252,
    "Ġisolation": 17152,
    "partiality": 13162,
    "Ġtrait": 23075,
    "Ġvoluntary": 14801,
    "Ġimparted": 15991,
    "Ġcetace": 14990,
    "trans": 5594,
    "upwards": 18865,
    "rugg": 15905,
    "iform": 2202,
    "Ġassailants": 20451,
    "Ġappetites": 20208,
    "Ġroman": 8323,
    "Ġincorporated": 25709,
    "Ġequals": 4727,
    "Ġmartin": 25437,
    "locks": 14458,
    "ensive": 6281,
    "Ġastern": 6091,
    "Ġbacks": 8532,
    "world": 5058,
    "Ġnug": 21527,
    "influ": 9545,
    "cious": 6646,
    "shipmates": 11931,
    "Ġtext": 2266,
    "reposed": 24491,
    "ineas": 15825,
    "Ġedward": 19152,
    "Ġassented": 17340,
    "Ġlit": 6248,
    "Ġkept": 3345,
    "Ġreplaced": 13074,
    "ā": 194,
    "Ġdiverged": 23595,
    "onah": 3336,
    "from": 1989,
    "Ġsurve": 9878,
    "plicable": 10259,
    "Ġencode": 4365,
    "Ġdreamy": 14705,
    "Ġunmo": 12777,
    "Ġdangers": 12357,
    "Ġpark": 5465,
    "us": 532,
    "ested": 3477,
    "Ġduke": 7756,
    "Ġprofusion": 23569,
    "elling": 5831,
    "Ġauthorities": 11267,
    "Ġvisits": 8224,
    "Ġcrushing": 20178,
    "ham": 1702,
    "Ġbagging": 24538,
    "Ġabruptly": 15153,
    "conversations": 24747,
    "include": 23590,
    "Ġknife": 7309,
    "inea": 7625,
    "Ġmarbles": 18873,
    "Ġcomforted": 19393,
    "aton": 21260,
    "revealed": 20418,
    "ckles": 22092,
    "Ġundivided": 24120,
    "Ġlogits": 3448,
    "Ġports": 10821,
    "Ġlivelihood": 24772,
    "Ġ86": 24460,
    "ided": 2785,
    "oped": 6048,
    "endeavouring": 15017,
    "perils": 22181,
    "quaker": 15766,
    "igger": 21703,
    "Ġselection": 18204,
    "Ġshipwreck": 20448,
    "Ġmounted": 7832,
    "significant": 25084,
    "ield": 2407,
    "send": 15425,
    "herds": 22206,
    "Ġdishes": 16052,
    "Ġproposed": 7460,
    "Ġtyp": 1131,
    "Ġthumb": 6982,
    "Ġsaying": 3245,
    "Ġdeduce": 8337,
    "Ġjealously": 24124,
    "Ġclump": 15968,
    "avenza": 17104,
    "Ġsounds": 5190,
    "Ġarc": 14162,
    "Ġcleaned": 23185,
    "bodily": 17317,
    "Ġinanimate": 13935,
    "sol": 1790,
    "gan": 2200,
    "religion": 20577,
    "acting": 22633,
    "Ġbalmy": 22907,
    "Ġ10": 5249,
    "puted": 8851,
    "precip": 14666,
    "wn": 720,
    "Ġbritain": 16957,
    "Ġstructural": 2799,
    "Ġelab": 22652,
    "Ġvindictiveness": 25738,
    "Ġstooping": 13065,
    "Ġmorals": 22979,
    "Ġsubsc": 22792,
    "Ġcount": 1815,
    "estations": 22227,
    "Ġtransc": 12868,
    "Ġvivacity": 14943,
    "Ġceler": 15554,
    "Ġalgorithms": 855,
    "Ġquoted": 22413,
    "Ġburying": 19253,
    "ridden": 24361,
    "oning": 7573,
    "Ġfirmness": 11240,
    "ink": 756,
    "flukes": 25206,
    "woof": 21141,
    "Ġcelerity": 17438,
    "ilies": 18058,
    "hearts": 13347,
    "Ġperpendicular": 7209,
    "Ġbattered": 17863,
    "Ġpartners": 11856,
    "Ġsire": 15503,
    "Ġslackened": 15129,
    "Ġ}": 21155,
    "Ġemergency": 25730,
    "Ġgouge": 26189,
    "Ġresembling": 4096,
    "retreat": 23139,
    "Ġprincely": 24150,
    "Ġdrawling": 19439,
    "Ġstil": 15721,
    "Ġrail": 7224,
    "earthly": 24722,
    "Ġselves": 21224,
    "Ġtexas": 25922,
    "Ġhauling": 14089,
    "isles": 15567,
    "persuasion": 20046,
    "thinness": 25810,
    "Ġdry": 5624,
    "bib": 17493,
    "Ġgarb": 21605,
    "Ġcombinations": 22863,
    "rep": 5525,
    "hero": 21206,
    "Ġsources": 10151,
    "Ġwounded": 8662,
    "Ġital": 10869,
    "Ġfootmarks": 19338,
    "Ġhosmer": 6775,
    "Ġunwarrant": 19935,
    "Ġreferences": 21676,
    "arned": 21824,
    "Ġfairest": 20465,
    "Ġweal": 21922,
    "Ġpasses": 2679,
    "Ġbold": 5293,
    "Ġslaugh": 18939,
    "Ġmerest": 14032,
    "Ġplanisphere": 26608,
    "Ġassured": 4373,
    "leagues": 21375,
    "Ġscanning": 18399,
    "advantage": 8663,
    "ven": 781,
    "ider": 21768,
    "Ġrepublican": 17414,
    "Ġexhaustion": 14963,
    "Ġm": 274,
    "Ġengland": 3856,
    "olet": 13768,
    "overfitting": 13104,
    "unbe": 21875,
    "avail": 18604,
    "rive": 9711,
    "Ġcommunicative": 24547,
    "pig": 8757,
    "carry": 19528,
    "legra": 10792,
    "Ġgermany": 25785,
    "Ġme": 351,
    "thorough": 21988,
    "Ġdelighted": 5499,
    "Ġevaluation": 16539,
    "Ġnominally": 17233,
    "gration": 9125,
    "Ġdispose": 23881,
    "Ġresponsiveness": 2897,
    "Ġphilips": 5410,
    "Ġscrutiny": 26015,
    "jee": 17580,
    "Ġadhering": 14141,
    "plan": 15817,
    "Ġtarquin": 23611,
    "Ġadored": 18291,
    "need": 10982,
    "wound": 21128,
    "histicated": 20902,
    "Ġshorter": 4500,
    "chosen": 21697,
    "stud": 8825,
    "Ġdirections": 1968,
    "Ġimpelled": 11786,
    "arpo": 1753,
    "Ġconfirm": 9860,
    "Ġ131": 24780,
    "Ġcaptains": 7457,
    "Ġresentment": 7531,
    "+": 15,
    "Ġvoyages": 6908,
    "Ġgrieved": 8297,
    "Ġearls": 18903,
    "coffin": 10666,
    "Ġschedu": 1823,
    "Ġclearly": 6897,
    "Ġsundry": 20076,
    "Ġovers": 14207,
    "Ġtying": 15475,
    "Ġclean": 5652,
    "Ġhumorous": 10363,
    "Ġalien": 14020,
    "enced": 4297,
    "Ġassert": 7122,
    "right": 2769,
    "unavoid": 14064,
    "Ġbroke": 5323,
    "Ġjoking": 12841,
    "ioneer": 15635,
    "Ġshiver": 12771,
    "hau": 17563,
    "Ġbanished": 10620,
    "lled": 10111,
    "Ġtoler": 7590,
    "Ġhost": 7070,
    "attempted": 20176,
    "somewhat": 11163,
    "Ġmah": 15544,
    "idual": 1557,
    "mped": 16649,
    "Ġcarr": 23092,
    "ittance": 12850,
    "mechanically": 17302,
    "Ġfocuses": 8654,
    "andish": 18155,
    "doors": 19095,
    "Ġ1991": 3018,
    "Ġunreason": 15845,
    "strom": 15687,
    "Ġbennet": 1575,
    "Ġshot": 4545,
    "Ġcause": 2409,
    "imson": 12693,
    "Ġleak": 2159,
    "olidity": 18134,
    "Ġheinous": 18040,
    "Ġlearning": 387,
    "despairing": 25076,
    "Ġcounter": 6482,
    "Ġlandsmen": 11354,
    "bo": 1692,
    "mered": 8218,
    "Ġtufted": 17015,
    "Ġbraided": 16583,
    "Ġsparkling": 11359,
    "Ġcran": 12004,
    "mies": 20969,
    "shel": 11933,
    "system": 4241,
    "agonies": 21912,
    "voc": 8394,
    "Ġfundamentals": 14636,
    "kinder": 24845,
    "killed": 15379,
    "tar": 8098,
    "Ġreduced": 11926,
    "Ġgu": 1327,
    "aurs": 20770,
    "Ġconsidering": 4616,
    "Ġultimate": 12352,
    "Ġspots": 11733,
    "Ġstern": 4221,
    "Ġtrop": 7566,
    "ount": 1114,
    "Ġminima": 3462,
    "Ġscaramouch": 23830,
    "Ġparagra": 15882,
    "Ġexplaining": 15963,
    "love": 9298,
    "Ġced": 10787,
    "mistakable": 20654,
    "instances": 13322,
    "Ġjost": 23631,
    "Ġrelevant": 1864,
    "Ġsliding": 9368,
    "Ġcomplimented": 14906,
    "Ġheroine": 24542,
    "Ġplate": 8903,
    "represent": 9641,
    "shoulder": 16585,
    "Ġmissing": 6177,
    "orum": 12594,
    "Ġswears": 16465,
    "Ġabandoned": 8352,
    "Ġtended": 21168,
    "Ġmathematics": 12077,
    "sory": 17660,
    "luent": 15999,
    "etence": 21579,
    "ats": 4254,
    "Ġundisturbed": 19521,
    "Ġinherent": 4592,
    "Ġconstantinople": 19839,
    "Ġunwaning": 24829,
    "Ġgrud": 17997,
    "Ġimproper": 22754,
    "sunlight": 24851,
    "instr": 12535,
    "glasses": 11218,
    "Ġpolice": 4675,
    "Ġcaptive": 14429,
    "henry": 16627,
    "Ġmournful": 12339,
    "lone": 11503,
    "umn": 5836,
    "ony": 3031,
    "landish": 11945,
    "Ġdeduced": 12211,
    "Ġitself": 2519,
    "Ġcontest": 18473,
    "Ġfuriously": 9805,
    "Ġtrue": 1338,
    "feeling": 6619,
    "Ġspouter": 12802,
    "Ġontario": 26206,
    "Ġfamiliar": 5511,
    "Ġexile": 12721,
    "Ġscott": 22284,
    "Ġtossed": 5816,
    "Ġwilful": 10538,
    "Ġroy": 4228,
    "Ġjuly": 17238,
    "Ġlistened": 4471,
    "Ġnever": 1020,
    "poster": 11059,
    "Ġlocal": 1199,
    "pike": 11518,
    "Ġrevolut": 3258,
    "Ġsens": 1854,
    "bloom": 24689,
    "Ġdoubtfully": 23478,
    "crier": 20821,
    "Ġburglar": 17356,
    "Ġrobe": 18465,
    "Ġgenerally": 4156,
    "Ġdews": 21842,
    "Ġquitting": 7647,
    "Ġaugust": 10601,
    "Ġpenalty": 1841,
    "Ġhapp": 1087,
    "terms": 15754,
    "Ġdecayed": 22828,
    "Ġandes": 12645,
    "Ġbruited": 25773,
    "Ġsnarl": 25713,
    "Ġwhitt": 18056,
    "Ġalter": 6544,
    "Ġsuspecting": 14912,
    "Ġardently": 9502,
    "Ġcost": 2503,
    "engagement": 14460,
    "Ġunite": 9258,
    "lers": 10110,
    "aited": 12438,
    "Ġbland": 11067,
    "Ġleisure": 6541,
    "Ġfrigid": 17354,
    "Ġtransport": 11281,
    "Ġcourt": 4167,
    "bingley": 4928,
    "war": 6803,
    "prof": 7471,
    "Ġargued": 13632,
    "coll": 23781,
    "oors": 17621,
    "apprehens": 17408,
    "rences": 9276,
    "hated": 17562,
    "Ġbracing": 16582,
    "sets": 17661,
    "Ġcashier": 20200,
    "Ġconvenience": 11334,
    "address": 14883,
    "/`)": 13663,
    "Ġcarpenter": 4685,
    "Ġfragmentary": 25858,
    "official": 24914,
    "Ġconfided": 19035,
    "Ġheadsman": 13276,
    "Ġpredef": 18519,
    "Ġbounce": 21395,
    "Ġpacing": 8427,
    "Ġmeaning": 1417,
    "Ġbulge": 23859,
    "Ġtracks": 18890,
    "Ġbrotherly": 16529,
    "Ġraptures": 13497,
    "lorn": 12491,
    "Ġpanthe": 19655,
    "Ġsublime": 8066,
    "osc": 18387,
    "tranquillity": 20548,
    "Ġestimable": 23874,
    "Ġpersistence": 3445,
    "Ġaven": 10762,
    "byshire": 6174,
    "Ġintervening": 17269,
    "enormous": 26166,
    "Ġstep": 752,
    "Ġspectre": 16632,
    "ikes": 8087,
    "mish": 17599,
    "emic": 18186,
    "passed": 8026,
    "Ġungodly": 26514,
    "phology": 3011,
    "Ġpoul": 15616,
    "Ġmaid": 5287,
    "Ġalt": 18100,
    "Ġmadly": 16486,
    "suspected": 12375,
    "Ġuncork": 23431,
    "Ġevidence": 5270,
    "Ġdecisive": 18487,
    "evade": 24816,
    "quer": 11681,
    "Ġunwe": 15841,
    "Ġdisease": 14259,
    "bones": 8372,
    "moderate": 22852,
    "real": 10153,
    "Ġnative": 4641,
    "Ġporthole": 24398,
    "Ġpain": 2301,
    "Ġhumorousness": 25378,
    "Ġadventurous": 16734,
    "okened": 15987,
    "Ġtranspointed": 22443,
    "Ġfibres": 12952,
    "Ġtitle": 11411,
    "Ġjoppa": 12040,
    "ru": 481,
    "diss": 17524,
    "Ġled": 3521,
    "Ġsires": 21228,
    "Ġharpooneers": 4732,
    "Ġflap": 14424,
    "wling": 11548,
    "te": 995,
    "Ġimpl": 7195,
    "Ġsemantic": 1956,
    "Ġdesires": 9460,
    "wood": 5899,
    "intment": 4720,
    "Ġpasture": 14543,
    "Ġbake": 21384,
    "Ġinsights": 13181,
    "Ġexposure": 16102,
    "ap": 546,
    "ice": 588,
    "wam": 10139,
    "oundering": 11750,
    "Ġfronts": 19002,
    "Ġonto": 14034,
    "provided": 13640,
    "Ġdelicately": 24126,
    "Ġscolded": 25473,
    "Ġsternly": 16716,
    "plexy": 18575,
    "Ġpreternatural": 12827,
    "Ġtendinous": 16932,
    "carpet": 25203,
    "Ġpattering": 18648,
    "Ġrecollecting": 17113,
    "Ġreflection": 6441,
    "Ġverd": 6919,
    "queer": 10367,
    "Ġsab": 10765,
    "were": 2557,
    "assist": 11771,
    "shoulders": 16586,
    "greg": 6650,
    "fact": 6360,
    "Ġflickering": 23017,
    "acy": 3954,
    "etus": 21580,
    "added": 11662,
    "Ġrele": 2916,
    "Ġdoomed": 11345,
    "Ġheath": 15705,
    "Ġexult": 10233,
    "Ġcastles": 16641,
    "utherland": 9582,
    "Ġperpetual": 12306,
    "Ġpassage": 3883,
    "Ġireland": 17337,
    "Ġwildly": 9418,
    "Ġharriet": 24572,
    "Ġdiscre": 2416,
    "parted": 21017,
    "Ġsnake": 12064,
    "Ġstony": 21742,
    "shud": 18492,
    "Ġ68": 24369,
    "Ġwan": 15530,
    "Ġinmost": 17932,
    "Ġabhorrent": 16857,
    "water": 4869,
    "Ġfarm": 7840,
    "Ġcapt": 1293,
    "Ġimmortal": 8018,
    "Ġshutting": 14761,
    "Ġsheltered": 19912,
    "Ġunob": 22016,
    "cavity": 26126,
    "Ġbraw": 23837,
    "anything": 5518,
    "tains": 10965,
    "Ġservant": 5764,
    "projecting": 26073,
    "welcomed": 24644,
    "account": 5330,
    "Ġcommend": 10338,
    "Ġdeclines": 23965,
    "hears": 12537,
    "Ġserving": 14487,
    "Ġsallied": 12541,
    "cils": 20815,
    "eastern": 17534,
    "ĺ": 251,
    "Ġdrove": 4984,
    "apothecary": 26546,
    "ignantly": 23267,
    "Ġterritories": 23848,
    "Ġanything": 2187,
    "Ġaccustomed": 6861,
    "Ġjunks": 25115,
    "discovered": 8325,
    "Ġfluid": 11215,
    "g": 75,
    "deliberated": 26118,
    "hawks": 24694,
    "Ġjuggling": 20441,
    "Ġtomorrow": 21515,
    "Ġrequisite": 18627,
    "Ġfirst": 937,
    "rear": 21234,
    "Ġblasts": 19998,
    "Ġfine": 1317,
    "Ġproportions": 16469,
    "Ġacquitted": 18897,
    "vult": 21115,
    "mens": 20970,
    "holder": 13285,
    "Ġmaps": 2962,
    "Ġord": 3733,
    "Ġguards": 16269,
    "Ġanger": 5442,
    "ational": 5716,
    "co": 2433,
    "Ġunholy": 26219,
    "Ġaddition": 1148,
    "Æ": 135,
    "Ġinasmuch": 10828,
    "Ġflattening": 26048,
    "Ġrehearsed": 25971,
    "Ġmodular": 12820,
    "Ġatonement": 21945,
    "offered": 14520,
    "dock": 16421,
    "Ġunallied": 22033,
    "grandfather": 25011,
    "Ġaut": 1814,
    "Ġoffered": 5817,
    "Ġyaw": 18096,
    "Ġideal": 13124,
    "Ġtrowsers": 9631,
    "Ġmur": 2487,
    "-------": 20391,
    "coal": 12028,
    "Ġtraced": 10387,
    "Ġberries": 13409,
    "Ġemblem": 20500,
    "Ġenjoyments": 24020,
    "Ġfacing": 10175,
    "Ġlearns": 2640,
    "bers": 2570,
    "fedallah": 25523,
    "Ġfactor": 19012,
    "Ġreef": 10852,
    "Ġcravat": 26307,
    "even": 3836,
    "lot": 3210,
    "acrity": 14281,
    "ruding": 9728,
    "Ġtwilight": 16124,
    "Ġport": 3309,
    "form": 496,
    "arr": 3046,
    "pense": 10372,
    "ĠĠĠĠĠĠĠĠĠĠĠĠĠĠĠĠĠĠĠĠĠĠĠ": 18834,
    "Ġlassitude": 20589,
    "though": 2116,
    "Ġtrouble": 3689,
    "contempt": 13190,
    "ediction": 17946,
    "Ġwatching": 4856,
    "Ġprofuse": 23567,
    "dening": 22779,
    "Ġboisterously": 25682,
    "Ġemperor": 15161,
    "indeed": 4489,
    "Ġ1671": 25007,
    "Ġcrucifix": 26079,
    "awned": 19462,
    "Ġhusband": 3619,
    "create": 24161,
    "Ġruth": 14095,
    "unctuous": 21885,
    "Ġstamp": 7864,
    "Ġunited": 6840,
    "Ġendless": 7055,
    "================================": 5671,
    "Ġunrestingly": 20363,
    "rat": 8760,
    "Ġenglish": 3613,
    "Ġyour": 634,
    "Ġapplying": 13094,
    "Ġalders": 21787,
    "Ġgrounded": 23713,
    "smiles": 14694,
    "useful": 16503,
    "Ġpartially": 13126,
    "Ġreflect": 6577,
    "Ġgloves": 8579,
    "Ġsore": 10767,
    "Ġdrily": 23539,
    "wa": 5898,
    "Ġunful": 22012,
    "ff": 461,
    "Ġethere": 23953,
    "inkle": 22616,
    "Ġneither": 3685,
    "Ġprevention": 16094,
    "Ġderive": 10398,
    "Ġoutsk": 15959,
    "Ġcommunication": 1870,
    "idation": 5022,
    "Ġodd": 6627,
    "scythes": 26403,
    "Ġcape": 5146,
    "Ġneighbors": 25804,
    "aract": 17895,
    "Ġsiam": 13840,
    "Ġfrequent": 3287,
    "Ġfrosty": 14937,
    "Ġfrozen": 9017,
    "Ġtroubling": 26548,
    "Ġ31": 12134,
    "shout": 22455,
    "Ġobserve": 4671,
    "Ġaltern": 7394,
    "Ġbachel": 7159,
    "Ġreverse": 16983,
    "term": 3756,
    "ren": 549,
    "Ġintense": 6159,
    "Ġlumps": 21558,
    "Ġforecastle": 5495,
    "obscure": 23099,
    "smiled": 16615,
    "Ġanointing": 25540,
    "farmer": 25899,
    "iferous": 17293,
    "Ġpass": 1041,
    "Ġdoom": 6418,
    "commanding": 24750,
    "Ġgiants": 25960,
    "Ġarise": 7896,
    "Ġgeor": 3385,
    "Ġtennes": 23548,
    "Ġscale": 1547,
    "beheld": 11806,
    "Ġthing": 1638,
    "ulence": 15769,
    "reflect": 19866,
    "angible": 22108,
    "Ġrows": 10564,
    "Ġsmelt": 16068,
    "prosperity": 20736,
    "Ġhundredth": 16519,
    "crippled": 26385,
    "slouched": 24556,
    "singing": 24362,
    "Ġgrandeur": 8632,
    "Ġsmoky": 22561,
    "involved": 25626,
    "Ġinsure": 13180,
    "Ġdistrusting": 25055,
    "Ġtrepidation": 19217,
    "Ġincreasingly": 9375,
    "Ġeternity": 12282,
    "ding": 3028,
    "Ġleech": 24157,
    "Ġbenjam": 22895,
    "Ġpermitting": 22402,
    "ctuous": 9209,
    "Ġbitterly": 8315,
    "Ġproble": 1111,
    "Ġplush": 18609,
    "Ġassociated": 12253,
    "Ġble": 5223,
    "Ġarsacides": 17296,
    "Ġinfants": 16369,
    "Ġthreatened": 8330,
    "Ġchocks": 13348,
    "Ġaffords": 16735,
    "Ġstrongly": 5657,
    "Ġenrapt": 21942,
    "Ġhurried": 4029,
    "mes": 1197,
    "Ġtropic": 17065,
    "lucas": 15154,
    "rimsh": 17028,
    "Ġduplicates": 17218,
    "Ġsupple": 23002,
    "uation": 17695,
    "uction": 15445,
    "Ġsheaves": 22161,
    "Ġexplanations": 15913,
    "Ġfame": 21408,
    "Ġsouthampton": 24308,
    "Ġstating": 15725,
    "Ġhatches": 12048,
    "Ġintegral": 25010,
    "earth": 6503,
    "reck": 9640,
    "Ġhurry": 4914,
    "Ġmac": 15541,
    "sort": 6799,
    "Ġsanctified": 25882,
    "Ġboil": 16107,
    "women": 15458,
    "Ġtension": 13826,
    "Ġshel": 6847,
    "Ġsavag": 19376,
    "Ġstrict": 7222,
    "Ġwinter": 5220,
    "Ġsuccession": 12105,
    "Ġfancied": 7326,
    "enstein": 5800,
    "roofed": 26184,
    "Ġbegin": 3099,
    "oried": 10805,
    "ĠĠĠĠĠĠĠĠĠĠĠĠĠĠĠĠĠĠĠ": 22954,
    "berwell": 22748,
    "smooth": 20250,
    "lady": 4435,
    "Ġappointment": 10650,
    "interest": 5421,
    "Ġmariners": 6069,
    "Ġincreased": 2212,
    "Ġawaited": 17074,
    "Ġbeams": 14632,
    "Ġcomforter": 20509,
    "Ġlinen": 12410,
    "requiem": 24856,
    "Ġindel": 13007,
    "Ġblank": 5952,
    "Ġpresto": 22233,
    "Ġpurporting": 19185,
    "Ġrumbling": 18211,
    "pleasures": 24048,
    "Ġgazette": 19503,
    "Ġbrit": 6291,
    "practical": 17223,
    "umbered": 22120,
    "Ġenc": 967,
    "Ġmoist": 9289,
    "Ġbrightest": 13228,
    "Ġgardiners": 11160,
    "Ġoverwhelming": 17102,
    "Ġexhib": 6351,
    "Ġrunning": 3951,
    "Ġroundabout": 23060,
    "Ġpinioned": 21484,
    "Ġincludes": 2011,
    "Ġresemble": 15696,
    "Ġcomment": 9236,
    "Ġkin": 15907,
    "Ġsudden": 1997,
    "sleepers": 24728,
    "ork": 417,
    "Ġbehalf": 14507,
    "Ġrobberies": 23062,
    "collecting": 26081,
    "mansion": 20984,
    "izing": 1068,
    "Ġcorrectly": 9408,
    "firmly": 20282,
    "Ġsullen": 9161,
    "Ġhysterical": 26092,
    "oting": 2744,
    "Ġlifetime": 13605,
    "Ġunrivalled": 26520,
    "Ġpostpone": 17309,
    "congenial": 25400,
    "Ġmonomania": 17085,
    "oment": 921,
    "Ġinner": 9674,
    "estruct": 22226,
    "Ġartificial": 791,
    "uc": 1876,
    "Ġaccuse": 14213,
    "insupportable": 21195,
    "Ġinflicted": 11368,
    "ickory": 22671,
    "Ġtilted": 20415,
    "Ġheated": 21684,
    "Ġarray": 12814,
    "Ġcontinu": 1168,
    "crowd": 25255,
    "Ġadmirers": 19688,
    "whispered": 20036,
    "Ġjuncture": 17131,
    "Ġguided": 10463,
    "Ġburton": 23653,
    "Ġbrook": 13051,
    "Ġconcerned": 5332,
    "Ġhysterics": 26093,
    "Ġelucidated": 26029,
    "asable": 21543,
    "Ġsnaky": 23743,
    "Ġextraction": 11255,
    "boxes": 16889,
    "Ġeber": 18005,
    "Ġsaviour": 20714,
    "gle": 20870,
    "Ġserviceable": 24716,
    "Ġgentleman": 3042,
    "Ġorders": 5341,
    "Ġtarpaulin": 26157,
    "Ġpicturesqueness": 24479,
    "Ġweary": 5635,
    "Ġgoes": 3851,
    "Ġumbrell": 13653,
    "Ġmounting": 19979,
    "Ġpulse": 13117,
    "Ġpettic": 14843,
    "Ġterrific": 6756,
    "unsupervised": 10892,
    "Ġmitigating": 1618,
    "hate": 20893,
    "Ġtub": 7147,
    "Ġskies": 8925,
    "Ġ179": 19756,
    "Ġverdict": 13477,
    "Ġesc": 2252,
    "Ġcrippled": 25279,
    "Ġeigenvalues": 4998,
    "ython": 1031,
    "innacle": 7520,
    "Ġvisiting": 10365,
    "eastward": 15132,
    "Ġreader": 11937,
    "Ġnotable": 18222,
    "vously": 23505,
    "Ġlace": 13951,
    "Ġphantom": 8711,
    "Ġfacility": 19851,
    "Ġaccosted": 13675,
    "ssip": 14081,
    "Ġspasmod": 12417,
    "Ġspeech": 4611,
    "dig": 4930,
    "swift": 14854,
    "Ġhoped": 5488,
    "Ġforeman": 23447,
    "Ġsigns": 2441,
    "fluke": 25205,
    "softened": 20412,
    "Ġbewildered": 15216,
    "opened": 7913,
    "Ġmacy": 19357,
    "Ġrollicking": 24450,
    "Ġaccomplishment": 19667,
    "ornamented": 26596,
    "encountered": 20395,
    "Ġdynam": 3270,
    "Ġleisurely": 24744,
    "Ġentic": 16149,
    "mason": 17603,
    "Ġwedded": 15538,
    "user": 5105,
    "Ġanybody": 5314,
    "initely": 7569,
    "Ġpleasurable": 23342,
    "Ġcaves": 15557,
    "Ġexcavating": 23316,
    "breeze": 20564,
    "Ġobscurely": 20190,
    "Ġmim": 3107,
    "Ġdiscussing": 5202,
    "Ġarranged": 9881,
    "gh": 3799,
    "impatience": 25501,
    "Ġvide": 10254,
    "Ġnar": 7375,
    "Ġtrivial": 10146,
    "Ġtweezers": 26557,
    "beth": 13691,
    "Ġdoted": 21435,
    "Ġsneer": 13449,
    "Ġalthough": 4149,
    "Ġsharper": 17181,
    "ipt": 12482,
    "Ġslack": 8959,
    "Ġmice": 13861,
    "ti": 8390,
    "Ġscand": 7203,
    "Ġeel": 18003,
    "Ġproportionate": 17043,
    "certain": 3674,
    "ated": 731,
    "Ġslung": 23170,
    "Ġleaf": 15726,
    "Ġirrevocably": 15300,
    "trop": 15438,
    "Ġslide": 10397,
    "gypt": 8261,
    "Ġslates": 11110,
    "Ġautonom": 10418,
    "axen": 22524,
    "hunt": 20904,
    "cord": 8728,
    "Ġdaintiest": 25953,
    "pooh": 18803,
    "Ġjogged": 26237,
    "Ġdumplings": 15193,
    "Ġapprehended": 26090,
    "mind": 4627,
    "ards": 2502,
    "Ġransacked": 26505,
    "ugn": 9382,
    "rapid": 12674,
    "orton": 11760,
    "Ġinscriptions": 20011,
    "bons": 17488,
    "Ġconject": 6028,
    "Ġaberde": 22280,
    "Ġjungfrau": 15251,
    "latitudes": 17198,
    "investments": 25533,
    "hever": 13833,
    "Ġrambling": 18634,
    "Ġrefreshed": 15293,
    "Ġinjection": 3465,
    "albatross": 15633,
    "Ġmarching": 16697,
    "Ġminimum": 23040,
    "atherley": 7220,
    "usoid": 4768,
    "Ġcovering": 13257,
    "mbl": 5947,
    "tastes": 21098,
    "Ġsig": 868,
    "ú": 187,
    "verity": 14003,
    "honour": 13469,
    "blast": 9591,
    "fters": 20862,
    "scornful": 26576,
    "determine": 19946,
    "fiery": 13584,
    "Ġwhirled": 14962,
    "Ġindefinite": 17178,
    "Ġhumming": 12988,
    "always": 5708,
    "âĢĻ,": 14072,
    "Ġfastened": 7067,
    "eridge": 15528,
    "condemned": 26060,
    "Ġ8": 5433,
    "stri": 6251,
    "okes": 9281,
    "whis": 7898,
    "Ġtil": 12528,
    "Ġmelt": 21320,
    "Ġworshipper": 25692,
    "Ġhedgehog": 10648,
    "Ġnorthward": 13324,
    "Ġdocks": 14179,
    "Ġbasic": 24699,
    "obliv": 23098,
    "Ġjen": 9271,
    "Ġlie": 4408,
    "Ġprofits": 16490,
    "Ġswart": 14436,
    "Ġinfamy": 14503,
    "source": 11529,
    "Ġclos": 4550,
    "Ġsplendid": 17215,
    "Ġfeatureless": 22608,
    "Ġdejected": 20306,
    "vengeance": 13359,
    "Ġzealand": 12353,
    "÷": 184,
    "despond": 19802,
    "Ġreiterating": 26475,
    "Ġwasting": 12732,
    "Ġweakened": 16824,
    "ivery": 17573,
    "Ġlargest": 6284,
    "F": 42,
    "Ġ*": 1274,
    "ener": 564,
    "front": 12174,
    "Ġwisest": 11235,
    "odd": 21812,
    "Ġgritted": 22806,
    "itories": 15552,
    "Ġdependencies": 2312,
    "distinguished": 10530,
    "Ġ41": 24080,
    "Ġ99": 10748,
    "Ġcuriously": 13011,
    "Ġstatements": 7517,
    "oa": 9616,
    "Ġidolator": 20000,
    "violent": 14579,
    "Ġencourag": 1391,
    "Ġwhisky": 23936,
    "Ġbooks": 4676,
    "Ġostentatious": 25736,
    "Ġrestricted": 19027,
    "Ġmatters": 4974,
    "_.âĢĶ": 23473,
    "particulars": 11318,
    "nine": 13763,
    "occupations": 24966,
    "Ġferrule": 24499,
    "Ġpresents": 8245,
    "figured": 20125,
    "finding": 17014,
    "ended": 1834,
    "attend": 11105,
    "Ġsunlight": 13087,
    "Ġnocturnal": 20716,
    "Ġdefe": 21839,
    "Ġtwo": 1045,
    "Ġconference": 15750,
    "lingering": 18601,
    "sens": 8096,
    "order": 1957,
    "Ġherself": 1566,
    "Ġsepulchre": 20561,
    "Ġdecisions": 6704,
    "broad": 8647,
    "agre": 18166,
    "falling": 24360,
    "Ġrestrain": 8968,
    "Ġtree": 5285,
    "Ġslime": 23163,
    "Ġpropagating": 20635,
    "clothed": 19740,
    "miserable": 8661,
    "Ġcompared": 2229,
    "removing": 17765,
    "ô": 181,
    "retched": 3070,
    "resistible": 10647,
    "brilliancy": 26077,
    "putting": 14102,
    "Ġpreposter": 12826,
    "Ġchoosing": 19592,
    "Ġhum": 1096,
    "Ġbenefits": 4287,
    "icket": 22670,
    "oura": 1061,
    "Ġleaps": 14010,
    "Ġlighter": 12657,
    "Ġeasiness": 23536,
    "Ġreality": 7059,
    "Ġfloundered": 18863,
    "emason": 18188,
    "Ġknights": 15152,
    "Ġsnap": 11204,
    "rog": 15643,
    "Ġsuccor": 25662,
    "Ġamounted": 18512,
    "anely": 17837,
    "Ġinferences": 17936,
    "Ġpend": 15609,
    "Ġnation": 12651,
    "Ġrescales": 5068,
    "Ġeh": 6988,
    "improve": 15715,
    "Ġpaltry": 16692,
    "prove": 11150,
    "sway": 15426,
    "plish": 18200,
    "Ġblooming": 17214,
    "Ġhelmeted": 19690,
    "poled": 22911,
    "ivity": 1664,
    "Ġbeheld": 4494,
    "Ġconsciousness": 9952,
    "Ġemir": 23352,
    "6": 26,
    "Ġenjoyed": 8008,
    "au": 778,
    "Ġbrown": 6300,
    "Ġrussian": 14352,
    "Ġspeedy": 11175,
    "Ġpleasantness": 24140,
    "brown": 15320,
    "Ġsyntax": 958,
    "Ġcondemned": 7779,
    "Ġdiscipline": 26562,
    "Ġif": 698,
    "Ġdu": 4585,
    "¬": 110,
    "Ġextravagance": 17281,
    "Ġwired": 17787,
    "Ġmend": 8407,
    "Ġfoundation": 4231,
    "Ġexperiences": 13027,
    "Ġsav": 3355,
    "Ġbolivia": 24667,
    "Ġmal": 5221,
    "Ġfuture": 1144,
    "Ġconce": 3419,
    "Ġmouldy": 14976,
    "Ġ116": 24439,
    "Ġsunk": 5752,
    "audible": 17134,
    "forming": 15921,
    "Ġol": 17815,
    "Ġtrotting": 19978,
    "pumps": 21028,
    "you": 1006,
    "Ġcarcase": 14446,
    "Ġemptied": 24346,
    "Ġpurp": 2392,
    "iloquent": 21728,
    "Ġstumble": 26483,
    "Ġdistended": 16047,
    "expose": 23665,
    "Ġ150": 22829,
    "Ġexotic": 21834,
    "heading": 5487,
    "Ġmonica": 22987,
    "Ġbind": 12586,
    "Ġorganization": 7984,
    "clam": 13058,
    "--": 1044,
    "Ġvacancy": 9048,
    "can": 1235,
    "Ġkindled": 19028,
    "Ġinexperience": 26099,
    "Ġwis": 3726,
    "Ġcannon": 14155,
    "orph": 21401,
    "keel": 14130,
    "same": 5362,
    "erately": 21275,
    "brill": 16492,
    "Ġconfl": 11140,
    "Ġphrenolog": 12337,
    "?âĢĻâĢĿ": 23643,
    "Ġthat": 335,
    "surpr": 5998,
    "discoloured": 23499,
    "Ġsolace": 16202,
    "Ġ85": 24459,
    "quickness": 19852,
    "Ġplight": 14283,
    "Ġrally": 21971,
    "Ġcongregation": 12332,
    "Ġcanal": 8182,
    "deliber": 17428,
    "beaten": 20317,
    "matic": 4619,
    "Ġawfulness": 23588,
    "Ġsenseless": 12082,
    "Z": 62,
    "tuesday": 17691,
    "death": 6263,
    "]": 65,
    "Ġdisgusted": 14992,
    "mod": 1049,
    "Ġfrenzy": 13625,
    "Ġhaunts": 18198,
    "Ġobtain": 8919,
    "Ġgips": 10844,
    "Ġcapable": 5054,
    "Ġunluck": 8487,
    "Ġsweatings": 25708,
    "Ġbarnacled": 25537,
    "lestrade": 9660,
    "Ġcanada": 22168,
    "aintance": 3568,
    "Ġdrew": 3536,
    "becomes": 22500,
    ".--": 20747,
    "vable": 10136,
    "iant": 5427,
    "Ġperdition": 15995,
    "Ġsame": 1340,
    "soever": 11864,
    "Ġoughts": 23903,
    "Ġroast": 18464,
    "Ġscar": 3214,
    "feelings": 5674,
    "Ġdauntless": 26337,
    "band": 3060,
    "olstad": 7613,
    "Ġclaw": 22350,
    "Ġlightly": 13086,
    "hounds": 20908,
    "Ġadmitting": 19186,
    "peaceful": 20449,
    "Ġpositions": 2056,
    "Ġoath": 7833,
    "metallic": 19881,
    "Ġdeny": 7489,
    "Ġhappy": 2465,
    "Ġdance": 4444,
    "Ġapproved": 16038,
    "Ġhumanity": 6733,
    "ports": 13776,
    "Ġcraggy": 23529,
    "Ġsword": 6734,
    "including": 23591,
    "magn": 10614,
    "Ġimpropriety": 17397,
    "Ġsubsets": 2343,
    "Ġwarsaw": 26167,
    "Ġrasc": 21977,
    "Ġinstructing": 3123,
    "dry": 13706,
    "ishments": 9277,
    "Ġaffronted": 22896,
    "µ": 118,
    "Ġbrawny": 13616,
    "Ġperishing": 22400,
    "Ġpillar": 21474,
    "Ġcounterbalance": 24720,
    "smeer": 26147,
    "Ġconnect": 797,
    "Ġone": 568,
    "activity": 22634,
    "roylott": 20029,
    "Ġenough": 1760,
    "Ġdromedary": 17441,
    "Ġlifeless": 8952,
    "Ġinnumerable": 13354,
    "atus": 21262,
    "Ġubiqu": 18048,
    "w": 91,
    "Ġsurely": 6309,
    "Ġwent": 1536,
    "Ġoperation": 12002,
    "beam": 16042,
    "passing": 14814,
    "performed": 18339,
    "fixed": 7549,
    "Ġhoriz": 4726,
    "Ġid": 1908,
    "Ġdeliverance": 15160,
    "Ġcemeteries": 26376,
    "Ġthinks": 6171,
    "possible": 5743,
    "Ġhilariously": 25451,
    "ead": 2599,
    "Ġcounty": 9034,
    "displayed": 20737,
    "Ġhoary": 23356,
    "terrible": 8468,
    "Ġbuilded": 24717,
    "Ġfemale": 8345,
    "Ġbranches": 6777,
    "ureau": 10230,
    "Ġenrolled": 21940,
    "encoun": 12301,
    "Ġabominate": 20067,
    "Ġelbow": 12924,
    "australian": 20563,
    "Ġdefray": 22943,
    "profound": 16428,
    "corpse": 24485,
    "island": 10797,
    "Ġprognost": 15284,
    "level": 2653,
    "embarrassed": 20666,
    "Ġpriv": 4182,
    "Ġpull": 5152,
    "Ġinsatiate": 19271,
    "oured": 2672,
    "Ġwithheld": 18116,
    "ri": 389,
    "Ġlistening": 6320,
    "cabin": 8363,
    "ribution": 14309,
    "Ġsuffered": 5649,
    "!_âĢĶ": 19975,
    "false": 15357,
    "Ġindestruct": 22962,
    "inal": 15482,
    "Ġtraged": 9356,
    "Ġperplexity": 2754,
    "Ġimitation": 22174,
    "yes": 985,
    "Ġanomalously": 25638,
    "overlooked": 23327,
    "cient": 4570,
    "scales": 22996,
    "Ġtwine": 14313,
    "carpenter": 11430,
    "Ġfacts": 2286,
    "Ġprofessions": 11234,
    "Ġgenerations": 10969,
    "Ġwaggish": 25435,
    "Ġlightness": 23262,
    "Ġshrugged": 12773,
    "answ": 15887,
    "Ġsant": 21216,
    "arian": 10319,
    "doesn": 19822,
    "Ġankers": 21447,
    "stars": 18021,
    "breakfast": 8692,
    "Ġpatagonia": 25856,
    "oner": 6126,
    "ahab": 4290,
    "listener": 24930,
    "ĠĠĠĠĠĠĠĠĠĠ": 18577,
    "scans": 22991,
    "better": 7121,
    "Ġcit": 10786,
    "Ġstealing": 18893,
    "house": 4073,
    "jonah": 11500,
    "ouncement": 11749,
    "limbs": 20193,
    "Ġcunning": 6240,
    "covering": 15336,
    "conven": 6164,
    "ners": 3272,
    "Ġsuspects": 16891,
    "Ġsoothing": 8173,
    "Ġbou": 17853,
    "Ġdood": 22245,
    "Ġwaylaid": 22874,
    "hard": 4690,
    "Ġdictionary": 15115,
    "Ġcell": 6239,
    "Ġgrapes": 15218,
    "pos": 15412,
    "versed": 9829,
    "Ġplanning": 14753,
    "Ġtoes": 10832,
    "rebell": 17764,
    "affairs": 14657,
    "wid": 10138,
    "proved": 11990,
    "solemn": 19819,
    "Ġperu": 14224,
    "Ġmortar": 19395,
    "especially": 3571,
    "Ġunguarded": 15853,
    "Ġfloats": 9417,
    "itz": 6007,
    "Ġprayed": 16669,
    "Ġascribed": 14857,
    "Ġrelationships": 2925,
    "Ġattraction": 18619,
    "Ġremem": 4314,
    "Ġmetallic": 19075,
    "Ġintention": 5638,
    "rod": 10834,
    "Ġcircumstantial": 14644,
    "Ġforeheads": 23448,
    "Ġantilles": 24181,
    "kl": 4866,
    "extric": 22768,
    "iled": 1763,
    "ples": 6845,
    "Ġdarts": 16769,
    "seat": 18126,
    "Ġpest": 13915,
    "Ġpositive": 2295,
    "rippling": 24711,
    "Ġcarrying": 6073,
    "pigs": 17142,
    "Ġcarry": 4780,
    "Ġforged": 12708,
    "Ġenjoined": 18191,
    "Ġloitering": 22119,
    "Ġpoll": 12034,
    "_,": 2800,
    "Ġmaybe": 12954,
    "Ġpitied": 14693,
    "Ġtahiti": 13622,
    "Ġopposite": 5120,
    "Ġbows": 4079,
    "anges": 1676,
    "Ġharbor": 10031,
    "Ġmarvelled": 18874,
    "police": 10587,
    "leading": 15565,
    "ominy": 13980,
    "Ġtumbled": 13408,
    "alas": 8809,
    "ppered": 15794,
    "ogr": 18673,
    "Ġinquest": 16549,
    "gressive": 2753,
    "kerchief": 7526,
    "cooks": 25069,
    "gratification": 24347,
    "Ġinc": 702,
    "Ġgerman": 6143,
    "narr": 12500,
    "Ġspectacles": 12101,
    "lantern": 17430,
    "quiet": 6156,
    "ender": 9164,
    "Ġjudges": 14686,
    "spermaceti": 12197,
    "Ġinsatiable": 19273,
    "Ġrecommendation": 17026,
    "ay": 355,
    "according": 12031,
    "article": 22395,
    "persuade": 13534,
    "Ġcon": 348,
    "Ġlamps": 14793,
    "Ġobserved": 3540,
    "deck": 4502,
    "venant": 22630,
    "eagerly": 17318,
    "duchess": 18458,
    "ck": 436,
    "catch": 17508,
    "Ġfitting": 21410,
    "depth": 12804,
    "Ġglory": 6066,
    "Ġmodeling": 2095,
    "Ġawed": 23586,
    "Ġpromises": 10404,
    "Ġevangelists": 20341,
    "Ġcontributed": 16012,
    "Ġcloth": 9747,
    "inate": 6235,
    "Ġcrab": 13146,
    "Ġserpentine": 11363,
    "manifested": 20528,
    "Ġjuicy": 25371,
    "elfare": 11781,
    "vitiated": 25754,
    "Ġrespected": 11956,
    "Ġcamberwell": 25351,
    "il": 329,
    "Ġfru": 8421,
    "icate": 9205,
    "reserved": 13845,
    "ildad": 3531,
    "Ġbuoy": 8004,
    "Ġejaculated": 15172,
    "Ġantelope": 24182,
    "Ġcounsel": 13618,
    "jumping": 20247,
    "Ġwatches": 11084,
    "ositions": 10287,
    "Ġboone": 11843,
    "gaz": 20879,
    "Ġparticularly": 5056,
    "Ġ80": 24455,
    "sford": 5999,
    "gradu": 18616,
    "ets": 1160,
    "Ġunansw": 22059,
    "Ġmotions": 8281,
    "beh": 5472,
    "Ġausten": 5882,
    "Ġdesc": 772,
    "quarried": 24947,
    "ioning": 21511,
    "Ġvengeance": 5886,
    "Ö": 151,
    "Ġthack": 21519,
    "Ġportcullis": 26604,
    "Ġsailors": 4277,
    "Ġeleven": 9394,
    "Ġlanguor": 12851,
    "ile": 521,
    "Ġchair": 3660,
    "teen": 6371,
    "hung": 8381,
    "Ġlieuten": 13329,
    "expense": 22434,
    "Ġmuscles": 12092,
    "Ġnon": 1624,
    "uge": 4013,
    "success": 6712,
    "Ġgaff": 17995,
    "Ġhisself": 21918,
    "shark": 14240,
    "imately": 12692,
    "Ġnearer": 5303,
    "gathered": 13734,
    "oology": 21007,
    "Ġveteran": 17452,
    "Ġfinally": 4667,
    "sperm": 5203,
    "for": 966,
    "Ġlinear": 3429,
    "commission": 22826,
    "Ġinvite": 14563,
    "Ġthreat": 5154,
    "Ġimpetuously": 20374,
    "Ġrestoration": 19026,
    "Ġmogul": 12866,
    "Ġrot": 10972,
    "Ġrevolve": 19732,
    "Ġbreathless": 12173,
    "Ġneural": 621,
    "Ġbandaged": 16843,
    "hospit": 25903,
    "Ġamusing": 11804,
    "Ġrachel": 11846,
    "Ġhurst": 5582,
    "Ġdefici": 22945,
    "lifted": 15389,
    "Ġimpo": 3439,
    "roads": 17959,
    "Ġreferred": 8921,
    "Ġimmedi": 2904,
    "Ġframe": 1971,
    "indirectly": 18437,
    "Ġpersonified": 19180,
    "chron": 21696,
    "Ġnest": 10192,
    "pleasure": 5979,
    "Ġpatted": 16362,
    "happiest": 19333,
    "Ġsilence": 3268,
    "poke": 18802,
    "Ġstage": 7389,
    "extra": 8219,
    "part": 2573,
    "Ġsatire": 22903,
    "anks": 3914,
    "Ġmidway": 14605,
    "Ġ*/": 10377,
    "atic": 4014,
    "immedi": 8452,
    "ants": 1389,
    "provid": 11152,
    "Ġpendulous": 25955,
    "Ġgin": 13963,
    "Ġvibrated": 25047,
    "Ġappar": 7411,
    "Ġgazed": 6479,
    "Ġstudied": 11119,
    "further": 7536,
    "Ġretreats": 16929,
    "f": 74,
    "involuntarily": 20417,
    "attended": 8956,
    "Ġcumberland": 21357,
    "Ġcrimin": 6901,
    "Ġbeak": 18081,
    "Ġbestowed": 6595,
    "Ġvomit": 21951,
    "ne": 647,
    "Ġrespons": 2684,
    "Ġintermission": 18587,
    "Ġcin": 13877,
    "acet": 5476,
    "Ġsherlock": 3891,
    "africa": 26308,
    "Ġat": 395,
    "addition": 13386,
    "Ġshe": 466,
    "sixty": 24852,
    "Ġhapless": 15815,
    "Y": 61,
    "hement": 13834,
    "orte": 14186,
    "ousness": 10278,
    "icles": 17974,
    "Ġgain": 4829,
    "news": 23134,
    "Ġbough": 13896,
    "N": 50,
    "brandy": 19203,
    "guinea": 16674,
    "Ġpre": 507,
    "orange": 21402,
    "Ġmarry": 4419,
    "Ġgrieve": 14709,
    "Ġanecdote": 26355,
    "Ġices": 21156,
    "Ġenergy": 2551,
    "Ġgratified": 8021,
    "comes": 5394,
    "Ġcyn": 13888,
    "commanders": 16990,
    "Ġcanaan": 22169,
    "Ġwoll": 21295,
    "Ġmaimed": 21318,
    "burn": 8371,
    "Ġcrescent": 16140,
    "Ġpensive": 21476,
    "playful": 24356,
    "Ġclearing": 8240,
    "Ġatmosphere": 10900,
    "giv": 13724,
    "ĠĠĠĠĠĠĠĠĠĠĠĠĠĠ": 22566,
    "Ġadmirals": 20387,
    "Ġgreeting": 18963,
    "continued": 8680,
    "Ġbuilding": 8063,
    "Ġemerged": 8689,
    "Ġinjurious": 24272,
    "ide": 721,
    "Ġdrifting": 19280,
    "home": 7341,
    "Ġbennett": 16327,
    "minds": 24234,
    "Ġrun": 2352,
    "ede": 21508,
    "speeches": 25240,
    "Ġreluct": 14374,
    "calculating": 25689,
    "Ġslave": 7454,
    "Ġmonsieur": 12424,
    "mselves": 2863,
    "Ġsweetest": 13249,
    "Ġeloped": 22655,
    "Ġdeceive": 12726,
    "swelled": 19612,
    "Ġgaz": 4040,
    "Ġgreenness": 23768,
    "Ġannesley": 19579,
    "Ġcomplacency": 19450,
    "mistaken": 12214,
    "Ġraises": 11844,
    "Ġgiant": 13970,
    "Ġhal": 1361,
    "blooded": 20025,
    "acceptable": 25185,
    "Ġexcepting": 14681,
    "proposal": 18755,
    "Ġdeft": 21840,
    "towns": 24854,
    "Ġilluminating": 25246,
    "fellows": 12277,
    "Ġtwenty": 3946,
    "Ġsophisticated": 1656,
    "Ġoffic": 3189,
    "Ġmothers": 14541,
    "Ġdiab": 10615,
    "Ġdestination": 19150,
    "stave": 21651,
    "ve": 322,
    "agreeable": 5830,
    "onic": 7827,
    "Ġtearless": 24784,
    "Ġglitter": 25126,
    "Ġmixed": 6975,
    "profitable": 17055,
    "ems": 5235,
    "comprehensive": 20628,
    "Ġkeen": 4614,
    "Ġvolume": 6770,
    "Åĵuv": 15185,
    "means": 9790,
    "Ġanoints": 25539,
    "perpendicular": 14161,
    "Ġtransported": 11282,
    "Ġdescent": 1005,
    "itche": 7580,
    "bless": 22315,
    "Ġdisregard": 22531,
    "deacon": 22150,
    "nical": 20992,
    "tin": 6118,
    "Ġcommotion": 9784,
    "ingly": 2134,
    "Ġwalker": 23311,
    "Ġelev": 5536,
    "Ġabandonment": 25603,
    "objection": 19916,
    "Ġzoned": 22821,
    "regards": 23467,
    "Ġunsur": 22023,
    "Ġclanking": 20613,
    "Ġkent": 6693,
    "Ġheathenish": 13619,
    "chair": 5918,
    "Ġjinglers": 26018,
    "Ġjane": 1756,
    "Ġslammed": 20450,
    "awing": 18915,
    "Ġoverspread": 14208,
    "Ġirritation": 20268,
    "Ġwarmly": 8991,
    "Ġjoined": 4565,
    "Ġ56": 24319,
    "among": 6258,
    "Ġfranc": 16354,
    "¢": 100,
    "ifers": 15785,
    "Ġcasket": 19726,
    "hel": 4815,
    "Ġeternal": 5977,
    "Ġstomach": 11656,
    "Ġtimber": 13352,
    "Ġtreacher": 8609,
    "Ġprecautions": 23728,
    "icing": 9204,
    "Ġsworn": 14437,
    "Ġlondon": 2840,
    "Ġpersecut": 16953,
    "Ġfour": 2215,
    "Ġbosoms": 16796,
    "Ġsalesman": 13671,
    "ains": 5094,
    "itchen": 7788,
    "Ġprophecy": 25705,
    "Ġwharves": 13507,
    "Ġconsummation": 17427,
    "mother": 5480,
    "Ġantique": 19553,
    "socket": 22733,
    "Ġpuppy": 12408,
    "remembrance": 25702,
    "difficulty": 12393,
    "Ġsafely": 9029,
    "prob": 7071,
    "unusual": 21882,
    "Ġroused": 7624,
    "Ġdoze": 14178,
    "Ġrepressed": 21670,
    "Ġconvolutional": 2161,
    "kye": 20939,
    "scrape": 25698,
    "Ġdownright": 16121,
    "matter": 5136,
    "Ġunquestionable": 26222,
    "Ġlunging": 24991,
    "plainly": 11091,
    "Ġexplain": 545,
    "fitzwilliam": 11355,
    "Ġdisp": 3357,
    "Ġwhalebone": 10980,
    "arthur": 14832,
    "C": 39,
    "Ġspray": 7894,
    "Ġcurv": 3511,
    "Ġoutfits": 22324,
    "Ġlithe": 24668,
    "Ġspectacle": 10500,
    "Ġinsurmountable": 16532,
    "Ġmiscellaneous": 17464,
    "Ġcommonly": 3264,
    "Ġresponses": 23649,
    "Ġsinew": 25432,
    "Ġenveloping": 19736,
    "Ġrails": 22645,
    "Ġsummer": 4791,
    "Ġinfluences": 14867,
    "ursday": 12280,
    "Ġcivil": 4679,
    "gallery": 24693,
    "Ġcultured": 25158,
    "Ġwinchester": 10070,
    "ilight": 12697,
    "Ġevaluate": 2926,
    "yards": 9627,
    "Ġrhine": 12359,
    "lording": 24052,
    "etime": 12663,
    "pattern": 4389,
    "Ġgurglings": 26466,
    "Ġflitting": 13030,
    "Ġobstetrics": 24678,
    "Ġcontrolled": 23252,
    "Ġfell": 1976,
    "peril": 18337,
    "Ġaltered": 7393,
    "Ġimpaling": 22386,
    "hyena": 24254,
    "Ġmelted": 19623,
    "Ġwaning": 15536,
    "Ġbanquet": 15243,
    "Ġpathetic": 19017,
    "Ġmenaced": 16295,
    "Ġwrought": 11947,
    "mr": 1901,
    "Ġplaint": 10329,
    "slipped": 25530,
    "ography": 13365,
    "Ġpalpitated": 26085,
    "Ġknowest": 12867,
    "Ġjames": 6420,
    "Ġdiggings": 24649,
    "Ġinquirer": 24963,
    "umed": 6556,
    "Ġtwice": 4662,
    "Ġreflected": 2908,
    "Ġfireside": 23531,
    "Ġpast": 2098,
    "Ġtelling": 5747,
    "considerable": 10552,
    "Ġarrang": 2468,
    "Ġunwarranted": 24830,
    "ect": 379,
    "Ġoozy": 21329,
    "Ġanyone": 4461,
    "Ġeighteen": 11241,
    "Ġvolley": 24147,
    "shortly": 12262,
    "crop": 20799,
    "reject": 21238,
    "Ġvoice": 2192,
    "Ġapr": 12536,
    "Ġaround": 3610,
    "complet": 11386,
    "jam": 15374,
    "Ġunaware": 22060,
    "Ġarrested": 9564,
    "Ġforfeit": 21778,
    "Ġparl": 8178,
    "lemagne": 26437,
    "pennies": 26286,
    "allingly": 22202,
    "Ġdeactivates": 20705,
    "Ġnoisy": 13321,
    "Ġthrees": 23403,
    "Ġwonders": 7501,
    "determined": 9083,
    "Ġrepeated": 3830,
    "moon": 10339,
    "ĠĊ": 12527,
    "Ġcomfits": 21862,
    "Ġeffort": 8202,
    "Ġhypocr": 19474,
    "Ġpickle": 16723,
    "inese": 12883,
    "Ġcalmed": 16268,
    "acle": 4716,
    "Ġinvolve": 11046,
    "Ġevolved": 9895,
    "ensities": 22549,
    "Ġattack": 5478,
    "Ġactivity": 7920,
    "Ġgreen": 3054,
    "lifeless": 24313,
    "att": 1458,
    "Ġkneeling": 12146,
    "Ġcau": 13883,
    "isson": 23462,
    "Ġmoles": 22437,
    "luc": 9756,
    "Ġblandly": 20325,
    "Ġothers": 2582,
    "ief": 2045,
    "Ġplough": 18608,
    "Ġglare": 13020,
    "Ġexpans": 18622,
    "minutely": 19595,
    "gree": 10704,
    "Ġknight": 9731,
    "Ġhideousness": 16916,
    "Ġcruelly": 13377,
    "Ġho": 1931,
    "Ġaveraging": 2418,
    "Ġdiffusion": 23784,
    "Ġgestures": 13537,
    "Ġlamp": 4112,
    "Ġcrows": 24033,
    "much": 3704,
    "Ġremorse": 6442,
    "Ġholy": 6593,
    "awe": 20766,
    "Ġplane": 11827,
    "Ġaffrighted": 13575,
    "throwing": 11707,
    "Ġpalpable": 15208,
    "Ġpennies": 17272,
    "jerked": 25618,
    "Ġdozing": 22246,
    "Ġsummoned": 9915,
    "Ġimagine": 3921,
    "Ġglens": 18855,
    "rese": 15510,
    "Ġforwards": 12707,
    "electricity": 26386,
    "ascending": 24705,
    "slightest": 25417,
    "Ġconjunction": 25102,
    "Ġsuperglue": 23457,
    "Ġclinched": 17396,
    "ables": 7890,
    "Ġriddle": 14822,
    "Ġcyp": 21347,
    "Ġblending": 14403,
    "Ġiceland": 15149,
    "Ġexpense": 7653,
    "ationally": 15708,
    "Ġdarkened": 16434,
    "Ġsaintly": 25931,
    "Ġtrifles": 16952,
    "urre": 10859,
    "Ġmodes": 22216,
    "pl": 401,
    "Ġbacked": 12927,
    "Ġsine": 10766,
    "Ġfree": 3373,
    "homely": 25617,
    "Ġbatt": 13901,
    "Ġauthor": 4376,
    "Ġdisappointment": 6629,
    "Ġsurvey": 13596,
    "ernation": 8212,
    "Ġinstability": 3812,
    "Ġcage": 17826,
    "Ġsideboard": 10389,
    "Ġvibration": 17099,
    "esu": 17920,
    "Ġcompunction": 18585,
    "Ġinvol": 1056,
    "Ġdavy": 25951,
    "Ġscoresby": 10465,
    "assisted": 22310,
    "Ġprodig": 6029,
    "Ġhired": 10181,
    "unting": 21877,
    "arks": 2846,
    "Ġ135": 24783,
    "Ġperches": 18448,
    "preading": 18499,
    "Ġprogressive": 5024,
    "Ġcompare": 9306,
    "Ġmult": 1023,
    "Ġweeps": 24949,
    "absolutely": 10649,
    "89": 20760,
    "heavens": 19747,
    "shook": 19857,
    "gon": 17553,
    "yours": 7696,
    "chambers": 25455,
    "Ġlucifers": 16589,
    "ruction": 4358,
    "Ġknotted": 17020,
    "Ġevangelical": 25507,
    "Ġscoundrel": 13673,
    "Ġhereby": 10361,
    "Ġ_": 839,
    "Ġinvolving": 18763,
    "jump": 10107,
    "Ġcharacteristics": 8614,
    "Ġnewcomers": 26041,
    "Ġcopy": 10167,
    "Ġflora": 11419,
    "proportions": 22837,
    "alone": 10187,
    "farewell": 12309,
    "Ġpompous": 20425,
    "osen": 6855,
    "descending": 16286,
    "alogies": 25162,
    "Ġmet": 1930,
    "continue": 16862,
    "Ġatone": 15805,
    "ploy": 2006,
    "Ġwiping": 25765,
    "empl": 5724,
    "Ġdiversity": 25285,
    "amped": 12037,
    "Ġorbs": 22095,
    "û": 188,
    "nable": 13764,
    "Ġrealising": 18983,
    "hem": 6666,
    "priv": 9623,
    "imodal": 17449,
    "Ġblunder": 18820,
    "ion": 296,
    "fast": 3072,
    "Ġveneration": 25046,
    "Ġsee": 803,
    "Ġoxen": 19953,
    "ette": 15662,
    "Ġconducted": 10506,
    "Ġderivatives": 2370,
    "Ġcreator": 7254,
    "Ġcry": 3496,
    "Ġalms": 21783,
    "leisure": 21373,
    "Ġhovers": 19079,
    "Ġtunnel": 14932,
    "umberland": 16838,
    "rene": 5379,
    "iles": 2862,
    "ription": 5676,
    "Ġorphans": 20206,
    "forster": 16169,
    "Ġscarce": 8626,
    "comfortableness": 24524,
    "Ġbrave": 6331,
    "Ġperfections": 23609,
    "Ġscream": 5936,
    "Ġpassions": 7930,
    "proceeding": 20143,
    "intellect": 18823,
    "Ġbusier": 23340,
    "Ġstraggling": 23752,
    "Ġdocile": 19961,
    "Ġjoky": 18406,
    "Ġwomanly": 23550,
    "Ġimminent": 11247,
    "complied": 19914,
    "Ġexordium": 26493,
    "angling": 14142,
    "Ġstriving": 9000,
    "Ġservants": 6612,
    "Ġoscill": 2858,
    "Ġcraw": 7282,
    "althily": 19361,
    "Ġdebt": 12171,
    "explained": 23145,
    "response": 25762,
    "Ġmott": 17804,
    "tri": 11533,
    "Ġbest": 1973,
    "rating": 7808,
    "Ġexploitation": 2345,
    "Ġgreece": 17070,
    "imp": 3035,
    "announced": 19761,
    "Ġpap": 8803,
    "impul": 16558,
    "hist": 7132,
    "eur": 7546,
    "Ġtears": 4230,
    "Ġpoets": 11825,
    "Ġcommunications": 16357,
    "#": 7,
    "Ġay": 15493,
    "Ġoutline": 15957,
    "Ġcounting": 13097,
    "echo": 15351,
    "paid": 15416,
    "emph": 21931,
    "Ġenabling": 1078,
    "Ġpawn": 12066,
    "Ġharpooneer": 3769,
    "Ġbelie": 14409,
    "pen": 1203,
    "Ġsuits": 22085,
    "Ġmach": 13859,
    "Ġaffecting": 2321,
    "Ġsettles": 22922,
    "Ġcelebrated": 13597,
    "Ġcruc": 16536,
    "Ġhelter": 24027,
    "Ġtal": 7565,
    "Ġexcell": 10420,
    "Ġtechnique": 2273,
    "smile": 23908,
    "Ġcontents": 7210,
    "Ġhanded": 8217,
    "Ġretained": 7174,
    "cruet": 17027,
    "Ġmultiplied": 23691,
    "resist": 8276,
    "simon": 16974,
    "_.âĢĿ": 5887,
    "Ġdilig": 8350,
    "fill": 15353,
    "Ġparent": 14646,
    "Ġtapped": 11557,
    "Ġbales": 21391,
    "cheered": 23807,
    "ctions": 961,
    "fted": 9122,
    "Ġjet": 5309,
    "Ġbodily": 6108,
    "oled": 17620,
    "Ġtropics": 17067,
    "Ġyoungest": 7954,
    "Ġpledged": 20689,
    "Ġtaken": 2525,
    "inked": 12917,
    "Ġhark": 8429,
    "Ġreminding": 19799,
    "K": 47,
    "soundest": 24795,
    "wander": 17710,
    "ghost": 20888,
    "Ġwre": 5077,
    "Ġdemo": 10883,
    "Ġbrighter": 16190,
    "edded": 8559,
    "Ġdiabol": 11456,
    "Ġcav": 13882,
    "Ġtruth": 3319,
    "Ġbelongs": 8015,
    "Ġdisgraceful": 15021,
    "rets": 12545,
    ").": 1273,
    "iously": 2677,
    "Ġadmiration": 5329,
    "pitchpoling": 25724,
    "Ġbecause": 2211,
    "Ġofficer": 6755,
    "solely": 19818,
    "Ġsupported": 9822,
    "satisfied": 10582,
    "tro": 15435,
    "Ġresolution": 5500,
    "Ġed": 2241,
    "Ġbrix": 12587,
    "Ġcontracting": 16014,
    "painting": 17046,
    "incredible": 16499,
    "Ġdiligent": 25077,
    "well": 1693,
    "Ġevenings": 18754,
    "quid": 18147,
    "jol": 20926,
    "Ġpropensity": 18996,
    "Ġsnuffed": 15075,
    "Ġsuppress": 13028,
    "wrong": 13208,
    "Ġbeds": 14552,
    "Ġcrossed": 6070,
    "clearly": 25196,
    "Ġowl": 20086,
    "mel": 9131,
    "fastened": 19326,
    "Ġsail": 1675,
    "iment": 2816,
    "26": 10077,
    "Ġflower": 16237,
    "gue": 12471,
    "recogn": 13427,
    "Ġextra": 4090,
    "buckets": 26123,
    "paus": 13775,
    "Ġoppressively": 25710,
    "Ġbumps": 21394,
    "eks": 4728,
    "Ġcotton": 17381,
    "Ġchimney": 6498,
    "Ġneared": 14075,
    "circle": 16737,
    "Ġusual": 3940,
    "sounding": 24794,
    "Ġunassuming": 20511,
    "Ġdreaded": 8289,
    "Ġinvariably": 8064,
    "thousands": 16873,
    "occasionally": 13522,
    "Ġappare": 12824,
    "Ġgracechurch": 12202,
    "Ġwreat": 15533,
    "Ġte": 1138,
    "hills": 13738,
    "51": 12434,
    "iny": 4295,
    "Ġindoors": 18838,
    "ivory": 10272,
    "servants": 15039,
    "Ġtranquillity": 7537,
    "Ġtargets": 4203,
    "Ġmurdering": 14813,
    "propriety": 14369,
    "Ġswaths": 23056,
    "Ġstr": 759,
    "Ġscalable": 1596,
    "adventure": 17235,
    "Ġcaps": 8416,
    "Ġledgers": 23940,
    "compassion": 12371,
    "fs": 17536,
    "Ġwouldst": 18501,
    "Ġpersuasion": 10502,
    "Ġcommenting": 25229,
    "oth": 1185,
    "ichron": 22171,
    "Ġ21": 11202,
    "common": 4126,
    "Ġtrail": 16284,
    "Ġlength": 2498,
    "sleeve": 26108,
    "Ġdoubtless": 6197,
    "Ġconcealment": 16915,
    "Ġadmit": 7711,
    "Ġvishnoo": 12757,
    "repid": 11568,
    "Ġnights": 7258,
    "Ġrevel": 9218,
    "ament": 2438,
    "omely": 21641,
    "odecim": 9836,
    "¥": 103,
    "ign": 1703,
    "Ġmouldings": 24735,
    "Ġislanders": 19504,
    "Ġinvaders": 23481,
    "jub": 20930,
    "aset": 10835,
    "Ġrelation": 2140,
    "dischar": 19154,
    "Ġfatality": 12099,
    "Ġunpleasing": 22056,
    "Ġstiff": 6993,
    "Ġcontingency": 26245,
    "Ġfields": 2141,
    "Ġimmovable": 15895,
    "ivation": 3111,
    "Ġtablet": 19207,
    "Ġvales": 21949,
    "Ġcamel": 25350,
    "Ġbeseeching": 26311,
    "Ġapprehen": 16830,
    "ulged": 12734,
    "Ġpianoforte": 15276,
    "Ġwise": 6812,
    "eg": 17530,
    "Ġmol": 12565,
    "Ġameric": 3852,
    "Ġclout": 22346,
    "Ġextravagant": 17280,
    "aisance": 15077,
    "prepare": 20214,
    "Ġstrang": 4159,
    "upt": 13800,
    "execut": 13658,
    "swed": 24255,
    "Ġangels": 11181,
    "iature": 8746,
    "consequence": 9767,
    "Ġlakes": 8131,
    "rief": 6204,
    "Ġsuper": 2153,
    "Ġfeat": 10940,
    "Ġtowns": 11176,
    "continuance": 19720,
    "dl": 20824,
    "Ġdeact": 18140,
    "ss": 396,
    "Ġincurable": 22555,
    "Ġ117": 19699,
    "fever": 22505,
    "ackinaw": 22424,
    "ĵ": 246,
    "Ġhandsom": 11127,
    "Ġamusements": 16914,
    "Ġwhole": 1665,
    "edd": 1207,
    "Ġsecrecy": 7316,
    "Ġperiods": 13306,
    "Ġspoon": 22137,
    "Ġsupercil": 23454,
    "Ġvacuous": 24343,
    "Ġ550": 19638,
    "des": 3174,
    "Ġhail": 7400,
    "breath": 15165,
    "posted": 24635,
    "fort": 1747,
    "aring": 1478,
    "Ġstructures": 2720,
    "Ġwednesday": 9088,
    "Ġhappening": 14385,
    "Ġacutely": 14316,
    "ij": 7802,
    "itty": 3553,
    "alid": 13937,
    "itical": 5802,
    "utility": 21589,
    "Ġpoignant": 22595,
    "Ġcusack": 26434,
    "Ġfear": 2275,
    "Ġinhabitant": 19757,
    "Ġsand": 6237,
    "eping": 5834,
    "creation": 14808,
    "Ġspared": 7893,
    "Ġregularizer": 2337,
    "rubbed": 22193,
    "Ġ13": 6720,
    "Ġamel": 18509,
    "Ġnumer": 3637,
    "Ġpleadings": 25853,
    "Ġenchant": 7185,
    "gress": 2214,
    "Ġegg": 8824,
    "Ġcommunicate": 10581,
    "Ġpoltroon": 26599,
    "Ġexhausted": 8698,
    "Ġadditionally": 1176,
    "esteemed": 26009,
    "Ġwandered": 6930,
    "ha": 3979,
    "Ġinfiltrated": 23285,
    "Ġdz": 4757,
    "Ġtant": 12529,
    "spirited": 19755,
    "mit": 4934,
    "Ġrug": 16160,
    "Ġstrung": 22620,
    "Ġwhar": 7388,
    "Ġcrests": 25685,
    "fins": 13721,
    "Ġmagnitudes": 3821,
    "Ġbrand": 16189,
    "on": 267,
    "punct": 20194,
    "chery": 24550,
    "horrible": 14601,
    "begged": 18523,
    "eminence": 20101,
    "Ġscener": 10952,
    "cules": 12394,
    "winds": 10525,
    "Ġhandfuls": 17211,
    "Ġlewis": 15728,
    "Ġdimens": 3151,
    "?_": 8070,
    "dignity": 15348,
    "Ġ4": 3984,
    "lar": 4485,
    "character": 6333,
    "Ġshadowed": 24047,
    "poured": 17638,
    "Ġindul": 5858,
    "Ġprobably": 4315,
    "Ġepistle": 24904,
    "Ġtransaction": 22442,
    "mention": 7215,
    "Ġpostponed": 20392,
    "Ġinspect": 5965,
    "Ġvolumes": 14802,
    "Ġtransports": 24279,
    "ĠĠĠĠĠĠĠĠĠĠĠĠĠĠĠĠĠĠĠĠĠĠĠĠĠ": 24441,
    "Ġadv": 1112,
    "Ġbristol": 14382,
    "les": 1018,
    "Ġresc": 4508,
    "âĢĻâĢĶ": 12740,
    "Ġinj": 4761,
    "azine": 19131,
    "geor": 15981,
    "Ġcomposition": 1690,
    "hound": 20896,
    "Ġbackgammon": 22664,
    "ĠĠĠĠĠĠĠĠĠĠĠĠĠĠĠĠĠĠĠĠĠĠĠĠĠĠĠĠĠĠĠĠĠĠĠĠĠĠĠĠĠĠĠĠĠĠĠĠ": 7989,
    "bearer": 18524,
    "Ġenormous": 5609,
    "datasets": 11954,
    "Ġcoleridge": 18767,
    "Ġheaps": 11645,
    "Ġhonorable": 16877,
    "rece": 21236,
    "stranded": 19227,
    "Ġbrid": 6292,
    "indef": 17736,
    "Ġcheers": 16371,
    "Ġinquirers": 24964,
    "Ġtougher": 21178,
    "https": 11688,
    "Ġslewed": 23387,
    "Ġanno": 9671,
    "crowning": 25748,
    "Ġrapid": 1413,
    "abst": 21791,
    "obey": 11513,
    "Ġstript": 23695,
    "Ġexceedingly": 4615,
    "nour": 20989,
    "Ġunmanner": 22030,
    "Ġphant": 7057,
    "Ġcommunion": 19008,
    "lydon": 13991,
    "Ġglimmering": 25241,
    "Ġlaud": 17969,
    "Ġfilthy": 13250,
    "movable": 14326,
    "Ġrede": 13986,
    "Ġpolite": 9886,
    "hall": 8085,
    "Ġemboldened": 22952,
    "depths": 25663,
    "Ġindomitableness": 26572,
    "Ġsymbols": 2797,
    "Ġalgorith": 562,
    "pra": 15409,
    "Ġseventh": 18206,
    "Ġhinge": 25542,
    "Ġunctuousness": 17236,
    "Ġquies": 18459,
    "iner": 2670,
    "Ġswings": 11088,
    "Ġahead": 6665,
    "Ġfrenchman": 11286,
    "drovand": 24758,
    "{": 95,
    "spiracle": 22740,
    "Ġdid": 835,
    "Ġunreasonable": 12781,
    "Ġmaintains": 2143,
    "Ġexcellence": 11454,
    "Ġsummar": 3524,
    "enter": 7858,
    "Ġmates": 4873,
    "lik": 3913,
    "Ġabsurdities": 24878,
    "Ġstruck": 3387,
    "Ġpump": 12625,
    "Ġaudits": 24768,
    "Ġscrewing": 20210,
    "Ġvoyager": 16513,
    "andes": 18153,
    "Ġmissionary": 25696,
    "Ġrear": 6537,
    "Ġisles": 8461,
    "finds": 19928,
    "Ġsupplying": 19800,
    "Ġexplored": 23518,
    "Ġrind": 21972,
    "expressed": 9045,
    "using": 5468,
    "Ġcounties": 23304,
    "Ġrigged": 16718,
    "Ġathe": 17742,
    "Ġsimplest": 16336,
    "Ġpresent": 1641,
    "Ġluff": 15656,
    "Ġfurlong": 18739,
    "Ġrephr": 21681,
    "Ġaccumulating": 2722,
    "Ġacquiring": 2767,
    "Ġtones": 8401,
    "Ġevolve": 3005,
    "Ġtoilings": 24740,
    "ims": 7177,
    "robe": 15645,
    "become": 14248,
    "Ġshavings": 14112,
    "travelling": 24337,
    "Ġgabriel": 7597,
    "Ġegyptian": 13589,
    "have": 2057,
    "Ġcheered": 16374,
    "mightily": 24103,
    "quired": 21852,
    "Ġenorm": 5304,
    "Ġmake": 1287,
    "Ġplainly": 4382,
    "Ġadvance": 5484,
    "alarm": 15630,
    "Ġprofessed": 14726,
    "Ġobst": 6286,
    "stache": 15693,
    "Ġmotives": 7487,
    "ens": 701,
    "Ġpossession": 5589,
    "Ġadversity": 24304,
    "Ġingrat": 16841,
    "regret": 16450,
    "Ġpince": 21472,
    "Ġtwin": 12931,
    "Ġcigarette": 20657,
    "conjectured": 25182,
    "delight": 5345,
    "Ġhil": 10824,
    "Ġpieces": 7369,
    "Ġsomewhat": 4898,
    "Ġbottom": 3672,
    "Ġgamming": 25543,
    "Ġgrant": 11876,
    "inging": 5908,
    "Ġtalks": 23372,
    "weakness": 16127,
    "Ġclimb": 15082,
    "Ġbulkhead": 24510,
    "Ġmonuments": 22986,
    "Ġ102": 24409,
    "Ġdiscover": 4718,
    "Ġjustice": 5111,
    "Ġaccomplice": 24375,
    "Ġfads": 21418,
    "meth": 11506,
    "atre": 17771,
    "Ġtrinity": 22359,
    "ayed": 12716,
    "Ġelig": 9781,
    "snapping": 24849,
    "ĝ": 222,
    "Ġslumbers": 18943,
    "Ġtechnically": 12369,
    "Ġgeorge": 3746,
    "estone": 18362,
    "orphans": 26441,
    "oga": 22707,
    "Ġhandling": 8917,
    "Ġlingering": 11382,
    "Ġdeclaring": 19422,
    "Ġ177": 13414,
    "cures": 20806,
    "Ġsermons": 20196,
    "Ġerr": 1321,
    "Ġgeneralize": 3101,
    "helpless": 16791,
    "intelligent": 16845,
    "Ġunpleasant": 7191,
    "Ġshortly": 6198,
    "Ġsunday": 7270,
    "leaning": 10793,
    "etch": 9208,
    "anning": 10168,
    "Ġamidst": 9498,
    "Ġrotterdam": 25476,
    "Ġmelting": 24289,
    "Ġfoes": 11955,
    "Ġvouch": 15812,
    "Ġvictory": 16655,
    "looking": 4030,
    "Ġhopelessly": 16381,
    "Ġlone": 11617,
    "Ġevangelist": 20340,
    "Ġdistricts": 20265,
    "Ġlayer": 1014,
    "Ġfanning": 23392,
    "powder": 17646,
    "Ġinwards": 15624,
    "Ġregarded": 5762,
    "an": 278,
    "car": 4211,
    "value": 18805,
    "Ġdreaming": 11226,
    "Ġjerk": 16951,
    "press": 1729,
    "rid": 5137,
    "Ġape": 21198,
    "Ġfather": 1452,
    "asing": 5913,
    "suspicions": 25392,
    "Ġsentiments": 7961,
    "Ġbarrow": 12073,
    "Ġha": 400,
    "whole": 6086,
    "Ġirresolution": 24915,
    "Ġmight": 964,
    "mary": 8753,
    "Ġrash": 10901,
    "Ġregards": 16080,
    "Ġanim": 2113,
    "Ġdifferently": 10392,
    "Ġtem": 804,
    "Ġbale": 7838,
    "Ġbattle": 5909,
    "crown": 13701,
    "change": 6393,
    "Ġtemptations": 24507,
    "belongs": 25596,
    "seemed": 4305,
    "oir": 21003,
    "captain": 3953,
    "Ġdelay": 5748,
    "Ġundertaking": 8578,
    "Ġcentre": 5122,
    "marrying": 19549,
    "please": 8177,
    "Ġimplicated": 24875,
    "Ġpier": 7163,
    "Ġdreary": 10411,
    "Ġtrib": 13821,
    "Ġtidy": 17093,
    "spears": 23944,
    "Ġungover": 18255,
    "athan": 2956,
    "onstr": 12550,
    "injured": 15135,
    "Ġmask": 1866,
    "Ġunnatural": 7190,
    "Ġcarriages": 11101,
    "Ġdelirium": 10408,
    "Ġ275": 20113,
    "ohog": 9847,
    "Ġincompatible": 25680,
    "Ġvineyarder": 25606,
    "Ġlime": 13950,
    "follows": 24527,
    "Ġsuppl": 11081,
    "Ġpropag": 16350,
    "vest": 6232,
    "Ġexpectations": 13145,
    "fluttering": 23975,
    "Ġfow": 6135,
    "Ġembatt": 18833,
    "answer": 11736,
    "din": 8374,
    "Ġbackbones": 22661,
    "Ġexponential": 1059,
    "urons": 3131,
    "Ġcoolly": 9776,
    "Ġ32": 19491,
    "Ġrem": 955,
    "Ġcomplement": 23711,
    "Ġpunishment": 9960,
    "delay": 16696,
    "addressed": 13387,
    "Ġserve": 9373,
    "Ġfamed": 16329,
    "conv": 7213,
    "Ġlug": 15655,
    "Ġcoffin": 4430,
    "Ġcreates": 2008,
    "Ġcontemptuously": 19835,
    "lin": 9607,
    "voyages": 24855,
    "Ġdoubled": 19639,
    "terrors": 25043,
    "sent": 760,
    "Ġexamples": 2604,
    "Ġamours": 22484,
    "Ġsummit": 7731,
    "venison": 22631,
    "Ġnursery": 19752,
    "Ġanticipating": 17059,
    "maker": 12496,
    "velled": 9880,
    "hering": 12818,
    "tiest": 21083,
    "outward": 22163,
    "ching": 5156,
    "Ġamaz": 5385,
    "Ġpallidness": 25604,
    "Ġeverything": 3157,
    "Ġbosom": 6939,
    "Ġsuperiors": 23455,
    "Ġmyster": 5927,
    "ighted": 8479,
    "planted": 11700,
    "Ġkrusenstern": 26378,
    "writhed": 26080,
    "arest": 4001,
    "Ġprefers": 20516,
    "examined": 17268,
    "Ġexhibiting": 19840,
    "Ġsquare": 2396,
    "Ġexpost": 18624,
    "sugg": 11847,
    "Ġpeculiarly": 8287,
    "Ġcrozetts": 19631,
    "also": 7851,
    "use": 2534,
    "irement": 18355,
    "Ġmantel": 11442,
    "Ġlab": 1871,
    "inching": 21191,
    "Ġdere": 21838,
    "Ġknown": 1642,
    "comparison": 25841,
    "Ġchaplain": 19913,
    "Ġ199": 3012,
    "Ġlydia": 2373,
    "approached": 13487,
    "Ġforeshad": 23452,
    "Ġfashions": 17886,
    "Ġenergetic": 15200,
    "Ġach": 2619,
    "quently": 9706,
    "Ġbalmoral": 16210,
    "Ġdivineness": 25723,
    "uding": 16153,
    "}": 97,
    "Ġspires": 11734,
    "!âĢĶâĢĻ": 23566,
    "offices": 19062,
    "Ġfossil": 12390,
    "Ġsplit": 7993,
    "Ġh": 290,
    "hibited": 17429,
    "Ġthrill": 24540,
    "regarded": 12011,
    "mar": 4336,
    "Ġoccupations": 9461,
    "Ġlaz": 7378,
    "seamen": 13629,
    "Ġimmediately": 3364,
    "emone": 21930,
    "Ġamuse": 5941,
    "ultaneously": 4192,
    "shavings": 22466,
    "cription": 20819,
    "grounds": 11154,
    "iana": 7050,
    "aths": 22701,
    "Ġparting": 9787,
    "Ġrelapses": 26279,
    "comfortably": 16876,
    "Ġkeeping": 7283,
    "yarn": 15459,
    "may": 3677,
    "Ġalong": 1978,
    "Ġpurch": 6601,
    "Ġbedford": 7476,
    "Ġsacrificed": 17424,
    "opinion": 10987,
    "experience": 17160,
    "ither": 1545,
    "Ġcolouring": 16752,
    "94": 4804,
    "ouble": 2661,
    "90": 12435,
    "Ġglit": 8564,
    "Ġthen": 666,
    "Ġgame": 3627,
    "Ġoperated": 14547,
    "lass": 5994,
    "Ġpoising": 22593,
    "Ġgull": 15673,
    "shells": 26056,
    "Ġtucked": 12395,
    "Ġ52": 24316,
    "ley": 1816,
    "vo": 11543,
    "Ġtoiled": 12646,
    "Ġcomputer": 1214,
    "Ġohio": 19129,
    "Ġreading": 5114,
    "Ġhissed": 15792,
    "Ġlangsdorff": 15279,
    "trained": 4238,
    "kill": 13746,
    "Ġcommended": 18656,
    "Ġdents": 13913,
    "Ġgaunt": 11271,
    "Ġmaintained": 12937,
    "Ġexplicit": 3587,
    "accident": 11184,
    "kick": 20937,
    "onent": 21250,
    "Ġinstituted": 18697,
    "Ġambiguous": 20166,
    "bone": 5612,
    "pre": 651,
    "col": 3104,
    "Ġaccost": 12849,
    "meat": 18678,
    "Ġadvertising": 25390,
    "Ġconfusion": 7273,
    "constantly": 24606,
    "tee": 16174,
    "Ġlies": 5297,
    "Ġpecks": 18669,
    "Ġhath": 12632,
    "bergs": 18695,
    "Ġferocious": 17421,
    "Ġcandour": 14674,
    "birth": 15324,
    "spot": 9796,
    "umpled": 15879,
    "Ġgovernments": 20269,
    "Ġbeamed": 23723,
    "Ġply": 21454,
    "âĢĶâĢĺ_": 24831,
    "drew": 7334,
    "Ġnarrower": 24353,
    "Ġpilgrim": 25599,
    "Ġusefulness": 19410,
    "french": 9123,
    "cannib": 11906,
    "dling": 15342,
    "Ġimpart": 11784,
    "engines": 18929,
    "Ġnooks": 26011,
    "Ġreassure": 21674,
    "brÃ¦": 11178,
    "attempts": 17192,
    "Ġpenetration": 19918,
    "Ġdissimilar": 22534,
    "Ġmillion": 14989,
    "rential": 22921,
    "Ġshears": 18319,
    "Ġbay": 9172,
    "ives": 1409,
    "langu": 4808,
    "Ġpassengers": 13678,
    "Ġsatiated": 22905,
    "ok": 572,
    "Ġlook": 881,
    "Ġdisobey": 18559,
    "oop": 10718,
    "Ġtravelled": 7772,
    "Ġenjoying": 11237,
    "Ġprior": 11321,
    "Ġsurvivor": 17365,
    "[": 63,
    "Ġloathsome": 13529,
    "Ġretiring": 16282,
    "Ġroses": 11791,
    "etite": 21581,
    "certainly": 5340,
    "Ġinclud": 1514,
    "Ġpian": 13919,
    "wor": 3413,
    "tese": 21085,
    "rel": 3751,
    "service": 15038,
    "Ġprejudices": 13471,
    "riet": 18181,
    "assistance": 20373,
    "protected": 19922,
    "gryphon": 15361,
    "Ġtobacco": 8367,
    "levelled": 23644,
    "Ġcity": 4531,
    "moonlight": 25376,
    "Ġunmolested": 15248,
    "Ġmile": 7152,
    "Ġpen": 1532,
    "ree": 873,
    "elizabeth": 1985,
    "Ġheat": 5453,
    "Ġlatterly": 24083,
    "Ġenchanted": 9084,
    "careful": 14868,
    "onden": 13846,
    "Ġdri": 2362,
    "Ġstubbs": 23297,
    "Ġinsist": 9894,
    "doc": 23378,
    "Ġminutely": 14561,
    "Ġchristians": 13311,
    "Ġmaking": 1778,
    "Ġunderstand": 830,
    "Ġheadway": 18793,
    "protested": 13476,
    "Ġheightens": 24156,
    "Ġcritically": 23444,
    "clo": 5613,
    "outh": 2687,
    "red": 397,
    "Ġwet": 6519,
    "Ġrepeating": 11216,
    "Ġbackstays": 22663,
    "Ġtwinkled": 14314,
    "odhead": 18119,
    "Ġsons": 10769,
    "mill": 13756,
    "Ġpreser": 6042,
    "cav": 17509,
    "Ġknees": 6928,
    "Ġpost": 4273,
    "Ġabstracted": 17184,
    "Ġdirty": 9182,
    "animate": 12581,
    "Ġdistorted": 14251,
    "Ġpsalmody": 20587,
    "Ġsafety": 6341,
    "Ġspeakest": 23486,
    "va": 4744,
    "ama": 11680,
    "Ġfuel": 13906,
    "Ġremote": 8924,
    "Ġbuildings": 24718,
    "Ġbasement": 24700,
    "Ġshovel": 23492,
    "Ġnoted": 15833,
    "Ġadvantage": 4317,
    "Ñ": 146,
    "Ġclink": 22348,
    "Ġoccas": 2703,
    "asked": 8916,
    "Ġrenewing": 19812,
    "Ġdismember": 20217,
    "Ġhang": 9191,
    "!âĢĻ": 3331,
    "Ġlabels": 3288,
    "Ġhighly": 4846,
    "nameless": 19904,
    "Ġredoubled": 23754,
    "asons": 6016,
    "ivility": 12787,
    "Ġcontrari": 23351,
    "Ġevince": 24294,
    "Ġre": 317,
    "inte": 5144,
    "Ġtickets": 17094,
    "Ġfascinating": 17330,
    "aswag": 21548,
    "church": 8140,
    "ourney": 3552,
    "Ġshiny": 14108,
    "Ġnarrative": 6217,
    "Ġkneel": 14809,
    "hercules": 22207,
    "Ġrouse": 15824,
    "Ġfinanc": 23129,
    "Ġcouples": 16853,
    "Ġeccentric": 13652,
    "Ġdil": 6384,
    "Ġshyness": 20308,
    "is": 280,
    "Ġundertone": 23241,
    "Ġbel": 1219,
    "Ġwester": 25156,
    "Ġrequiring": 2921,
    "Ġwebster": 20163,
    "Ġpreserving": 19798,
    "Ġrecollected": 8311,
    "Ġrecurrent": 1803,
    "enances": 10157,
    "russian": 22192,
    "Ġmales": 17806,
    "Ġfeedforward": 2324,
    "don": 3543,
    "Ġaffl": 14388,
    "sander": 11530,
    "Ġtest": 1605,
    "Ġinterconnected": 1336,
    "Ġdim": 4758,
    "cence": 9592,
    "Ġhint": 5016,
    "floating": 12231,
    "Ġmomentum": 1601,
    "prior": 21034,
    "Ġshuddering": 9055,
    "Ġstepped": 7053,
    "Ġhastily": 5763,
    "riptions": 14797,
    "ittleness": 22382,
    "Ġlaborious": 13106,
    "ild": 1155,
    "mody": 16186,
    "Ġscotch": 12213,
    "Ġbrothers": 13177,
    "alth": 3256,
    "Ġgould": 17991,
    "apable": 6423,
    "Ġkill": 4456,
    "Ġmaze": 23833,
    "overcome": 19053,
    "Ġyer": 15737,
    "Ġprices": 15615,
    "surface": 10534,
    "ernsey": 8906,
    "Ġcleared": 6076,
    "Ġsprain": 18305,
    "dat": 1636,
    "binary": 20785,
    "Ġskin": 5038,
    "Ġprized": 23218,
    "Ġgangway": 20160,
    "Ġpau": 17907,
    "excepting": 19708,
    "Ġissue": 2308,
    "Ġner": 1646,
    "Ġwillingness": 24910,
    "look": 2260,
    "Ġdescribe": 2766,
    "naturalists": 23563,
    "Ġfun": 523,
    "Ġclad": 12843,
    "resc": 21240,
    "changed": 7176,
    "ivil": 6412,
    "torn": 17683,
    "Ġextract": 1442,
    "Ġbeats": 21755,
    "Ġsy": 491,
    "Ġbounded": 16628,
    "knife": 6942,
    "Ġtak": 15472,
    "Ġdifferen": 936,
    "plete": 10922,
    "Ġmariner": 7247,
    "Ġchristmas": 6924,
    "Ġpalsy": 25778,
    "Ġwherein": 14295,
    "Ġpole": 6434,
    "simple": 13454,
    "spade": 10344,
    "Ġpriority": 19764,
    "dirty": 20835,
    "Ġhole": 6080,
    "steady": 14711,
    "marvell": 24174,
    "stains": 11640,
    "Ġca": 21341,
    "enchant": 21285,
    "Ġtugged": 17290,
    "Ġmyth": 18220,
    "Ġmeasured": 9808,
    "Ġmoored": 11796,
    "Ġdeaths": 14538,
    "blo": 6355,
    "guess": 14763,
    "Ġexisting": 12722,
    "arking": 16128,
    "description": 11096,
    "Ġowned": 11879,
    "Ġbutterfly": 19911,
    "Ġgeneralization": 984,
    "Ġelaborate": 18644,
    "Ġambergris": 8710,
    "missing": 13222,
    "Ġtransl": 2830,
    "silly": 24421,
    "Ġinfinite": 8581,
    "rane": 17654,
    "scoured": 22995,
    "Ġconj": 8462,
    "Ġmourn": 8708,
    "enjoyment": 17259,
    "87": 20758,
    "brows": 17498,
    "ilt": 2968,
    "Ġminute": 4279,
    "Ġpenalizing": 13093,
    "piece": 6658,
    "ctic": 8443,
    "Ġearth": 2851,
    "startled": 24943,
    "Ġtresses": 21177,
    "fortune": 4975,
    "Ġjourney": 3878,
    "rd": 17650,
    "untarily": 6314,
    "Ġincomp": 12901,
    "Ġreaches": 18033,
    "Ġextravag": 11256,
    "huzza": 20914,
    "Ġreceived": 2951,
    "Ġsphynx": 20713,
    "Ġmidnight": 5266,
    "Ġfeed": 2127,
    "clothes": 9061,
    "Ġacross": 1329,
    "Ġspars": 3808,
    "Ê": 139,
    "Ġoutlaws": 22326,
    "swaying": 25910,
    "Ġrossum": 3015,
    "boat": 3360,
    "Ġdesire": 3715,
    "arson": 22750,
    "vulgar": 25918,
    "Ġbitter": 4171,
    "Ġdepicting": 22614,
    "leaves": 12582,
    "Ġadviser": 25313,
    "Ġvitality": 15175,
    "Ġshud": 5461,
    "och": 21002,
    "Ġdistrict": 10322,
    "Ġstingy": 25456,
    "Ġproceeds": 12081,
    "irectly": 6940,
    "Åĵ": 10747,
    "advance": 12160,
    "comple": 7441,
    "convul": 24883,
    "ilingly": 21726,
    "Ġremoving": 12120,
    "Ġstrictest": 17042,
    "Ġdev": 886,
    "snowy": 20285,
    "ious": 769,
    "ricted": 15422,
    "Ġpredicting": 2415,
    "Ġhearse": 10423,
    "Ġreveal": 11203,
    "allowance": 16825,
    "Ġstrong": 1786,
    "mun": 20963,
    "Ġmund": 21319,
    "Ġinsolence": 20255,
    "control": 16545,
    "getic": 12969,
    "didn": 9011,
    "Ġrepugnant": 26591,
    "interrupted": 11420,
    "Ġfidget": 15192,
    "onings": 21254,
    "Ġleaks": 16446,
    "Ġwatery": 6298,
    "watches": 14949,
    "Ġascend": 9964,
    "Ġtrembled": 8706,
    "Ġrover": 18463,
    "orn": 2243,
    "Ġbillows": 7503,
    "ames": 2953,
    "ur": 326,
    "Ġstigma": 25791,
    "Ġcure": 21342,
    "Ġplacing": 8905,
    "Ġenig": 15802,
    "Ġobsc": 7041,
    "oice": 1382,
    "kindly": 14746,
    "Ġcognitive": 13637,
    "Ġdoing": 3659,
    "Ġrespectable": 6738,
    "reached": 13843,
    "inglass": 21304,
    "Ġdisadvantages": 18558,
    "trust": 21080,
    "moran": 24154,
    "Ġutmost": 5496,
    "variance": 2655,
    "tailed": 17686,
    "sa": 8761,
    "Ġcommissioned": 19896,
    "ifice": 7198,
    "contrary": 23730,
    "Ġvain": 3628,
    "Ġinformed": 6719,
    "Ġfavourably": 16367,
    "isa": 17846,
    "Ġbuoyant": 13533,
    "Ġconcrete": 20638,
    "Ġprovocation": 24193,
    "Ġrevelation": 25223,
    "Ġremoved": 5275,
    "prejudice": 25572,
    "Ġcrashes": 13128,
    "tie": 21070,
    "Ġtrough": 15972,
    "binnacle": 20788,
    "judgment": 16754,
    "hear": 10150,
    "thou": 4709,
    "Ġsage": 17753,
    "Ġutilize": 4799,
    "aur": 15311,
    "knows": 19173,
    "Ġcylinders": 25943,
    "Ġjavelins": 26105,
    "itting": 1153,
    "Ġdiscovering": 13360,
    "would": 2349,
    "Ġthreatens": 24374,
    "Ġproductions": 22948,
    "gracechurch": 24581,
    "Ġunre": 3476,
    "Ġspecimens": 18859,
    "Ġmedd": 15542,
    "five": 6358,
    "wer": 8396,
    "Ġsubdued": 11033,
    "Ġravings": 18636,
    "Ġstoutest": 24628,
    "Ġretired": 6072,
    "Ġimpudence": 26242,
    "unders": 13312,
    "bable": 8723,
    "Į": 239,
    "Ġkink": 22196,
    "lid": 20946,
    "Ġloved": 4600,
    "Ġlean": 7607,
    "Ġcord": 5222,
    "sc": 1260,
    "Ġbott": 3150,
    "ectual": 21914,
    "Ġacceptable": 16745,
    "Ġthrice": 10579,
    "Ġgour": 21600,
    "mency": 18927,
    "Ġvillanous": 24056,
    "Ġembrace": 16991,
    "Ġcooper": 16078,
    "Ġprey": 6416,
    "Ġdus": 8424,
    "Ġenvelopes": 24509,
    "bulk": 19925,
    "ient": 394,
    "Ġlabors": 23331,
    "Ġanvil": 11601,
    "distressed": 24201,
    "rud": 4189,
    "_âĢĶ": 11470,
    "asher": 15649,
    "Ġagents": 9770,
    "Ġphiladelphia": 26605,
    "rimin": 2422,
    "Ġdecorated": 22448,
    "Ġwes": 8784,
    "above": 8148,
    "companions": 15025,
    "Ġask": 1492,
    "Ġrigid": 16717,
    "Ġaccusation": 22381,
    "iber": 6507,
    "Ġinvoluntary": 18764,
    "hither": 11496,
    "Ġspiteful": 19524,
    "Ġwalked": 3141,
    "Ġyelled": 9698,
    "ezing": 10577,
    "Ġconnectivity": 3665,
    "Ġdevoting": 22721,
    "reng": 3999,
    "heaven": 8053,
    "lucifer": 25302,
    "Ġletting": 10366,
    "Ġmute": 19418,
    "Ġgryphon": 4301,
    "embra": 14078,
    "Ġcapst": 8600,
    "Ġaccident": 5380,
    "Ġvalued": 12186,
    "Ġsitu": 3495,
    "racts": 14353,
    "ersman": 11706,
    "Ġfleece": 10618,
    "assault": 22309,
    "princ": 8625,
    "Ġmeditations": 25015,
    "bee": 16041,
    "Ġincul": 22552,
    "son": 2326,
    "verdict": 21732,
    "coronet": 16864,
    "abashed": 21795,
    "sho": 6426,
    "swam": 24256,
    "Ġwore": 6378,
    "ribbed": 16415,
    "Ġbasin": 19849,
    "Ġprimitive": 25063,
    "Ġrambles": 17186,
    "Ġlatest": 16823,
    "Ġlaying": 7908,
    "Ġserv": 3328,
    "Ġenhance": 3102,
    "Ġwayward": 22873,
    "Ġvale": 14084,
    "Ġod": 4441,
    "º": 123,
    "coast": 10452,
    "Ġhesitating": 16948,
    "furnish": 25339,
    "Ġcot": 13879,
    "izure": 21837,
    "bolt": 25138,
    "Ġun": 422,
    "Ġmermaid": 17814,
    "Ġspeak": 2230,
    "critters": 14777,
    "Ġrestore": 9384,
    "invariably": 26417,
    "Ġavocation": 23955,
    "Ġindication": 22956,
    "odings": 4401,
    "prodig": 16429,
    "Ġcranes": 20385,
    "Ġimpotently": 22393,
    "scept": 21055,
    "Ġfeather": 8864,
    "bill": 10080,
    "Ġnum": 1346,
    "Ġsect": 17752,
    "Ġpersever": 10007,
    "Ġresuming": 12897,
    "asmuch": 10198,
    "Ġcottages": 14729,
    "Ġbowing": 10478,
    "ral": 4628,
    "Ġmechan": 1179,
    "Ġcoil": 11822,
    "Ġgeometric": 3220,
    "springing": 24889,
    "Ġcurbstone": 26043,
    "scheme": 15257,
    "Ġendeavoured": 4919,
    "ensing": 12900,
    "material": 13132,
    "Ġreneg": 21677,
    "Ġrol": 3554,
    "Ġmuff": 8114,
    "pour": 17631,
    "lic": 17588,
    "Ġache": 18663,
    "birds": 15147,
    "perv": 1558,
    "Ġpersonal": 7480,
    "Ġsank": 5076,
    "lun": 20947,
    "acon": 10685,
    "t": 88,
    "Ġtinkling": 25213,
    "Ġrecomm": 4996,
    "Ġshan": 9253,
    "Ġtangled": 13829,
    "Ġmeadow": 17153,
    "Ġflashing": 13032,
    "Ġfisheries": 17440,
    "Ġvowed": 14086,
    "tut": 15436,
    "Ġlanc": 19766,
    "cess": 539,
    "Ġfidgeted": 25889,
    "Ġhop": 1462,
    "come": 2377,
    "ulent": 21865,
    "Ġinsol": 10184,
    "Ġeaglet": 19305,
    "discover": 10543,
    "whaling": 7899,
    "ĠĠĠĠĠ": 3526,
    "Ġsuspend": 14609,
    "lection": 3651,
    "Ġoften": 1953,
    "Ġdevil": 3612,
    "Ġclearness": 23186,
    "Ġhussey": 7725,
    "perquis": 22184,
    "Ġprodigiously": 14934,
    "Ġassaults": 15159,
    "Ġcontinent": 14890,
    "iz": 364,
    "depend": 9116,
    "Ġnav": 5819,
    "uously": 7353,
    "Ġcoronation": 13336,
    "putable": 10904,
    "gans": 11493,
    "ics": 3257,
    "Ġfrosts": 19804,
    "Ġpiratical": 24797,
    "Ġth": 299,
    "Ġusages": 15920,
    "Ġphyseter": 26587,
    "Ġenslaved": 26314,
    "Ġrecollection": 6623,
    "december": 25559,
    "Ġtells": 9366,
    "Ġunfulfilled": 26510,
    "Ġdismay": 11813,
    "angel": 5726,
    "Ġoscillations": 2898,
    "¶": 119,
    "Ġlimbs": 5967,
    "rates": 21040,
    "Ġpert": 22398,
    "Ġunimportant": 22031,
    "Ġcoolness": 16887,
    "Ġbrains": 2628,
    "Ġricher": 12763,
    "income": 15488,
    "searching": 25105,
    "Ġelastic": 4362,
    "i": 77,
    "ses": 3029,
    "iogn": 20922,
    "insanity": 23069,
    "Ġgather": 6536,
    "Û": 156,
    "Ġjaw": 3318,
    "culine": 19064,
    "Ġbull": 7839,
    "Ġter": 2050,
    "Ġcommon": 1414,
    "Ġconcisely": 19047,
    "hom": 12477,
    "anct": 21360,
    "Ġinspector": 6499,
    "Ġbehooves": 20734,
    "Ġcherry": 16936,
    "member": 20976,
    "Ġcath": 17827,
    "Ġcold": 3034,
    "Ġinquiry": 6485,
    "Ġtomahawk": 7540,
    "prise": 7727,
    "es": 289,
    "Ġachieved": 13168,
    "Ġsummarization": 3645,
    "Ġimmemorially": 25384,
    "Ġarri": 2552,
    "heidelburgh": 21213,
    "Ġineffect": 13932,
    "Ġtemporary": 7981,
    "Ġestab": 6317,
    "Ġsustenance": 19936,
    "meaning": 2907,
    "Ġjewell": 19522,
    "hers": 7637,
    "hetic": 12207,
    "Ġoutstretched": 14197,
    "Ġdummy": 25450,
    "iousness": 4900,
    "rot": 21534,
    "Ġsecretly": 13273,
    "Ġthyself": 6604,
    "your": 1983,
    "bies": 15315,
    "Ġhut": 15622,
    "accomplishments": 25327,
    "]]": 5205,
    "Ġslightly": 7293,
    "situ": 9625,
    "Ġrenowned": 26194,
    "Ġnovelist": 24775,
    "future": 13719,
    "Ġnormalizing": 1821,
    "Ġjog": 18404,
    "ships": 5486,
    "Ġheaded": 11058,
    "Ġwhitish": 24866,
    "road": 6679,
    "Ġcond": 3873,
    "swinging": 25912,
    "Ġcuriosity": 2309,
    "Ġhearty": 9849,
    "Ġexposes": 22626,
    "è": 169,
    "exper": 8883,
    "Ġje": 4120,
    "ighter": 7968,
    "Ġpun": 4588,
    "Ġplumber": 16087,
    "Ġsmiting": 12902,
    "expect": 4770,
    "encoura": 15050,
    "Ġresides": 22543,
    "Ġshad": 3848,
    "Ġconsuming": 22795,
    "Ġcorpor": 23039,
    "merry": 16538,
    "Ġornaments": 17454,
    "emb": 11693,
    "arising": 17896,
    "Ġdirected": 5579,
    "Ġstationary": 19696,
    "Ġclamped": 18425,
    "treasures": 26152,
    "Ġlikewise": 5386,
    "Ġpicking": 11262,
    "Ġascendency": 20234,
    "Ġpredictions": 1456,
    "Ġmonosy": 18852,
    "Ġab": 528,
    "Ġchord": 22248,
    "Ġalice": 1484,
    "Ġpyramid": 8807,
    "Ġopening": 5045,
    "Ġrum": 5925,
    "tranqu": 14708,
    "oping": 5559,
    "grained": 20884,
    "Ġdiscipl": 22786,
    "lement": 10170,
    "Ġgrain": 15834,
    "Ġobstacles": 19837,
    "Ġinsensibility": 17110,
    "attached": 11938,
    "Ġunsub": 22024,
    "tanh": 5204,
    "Ġcheetah": 14504,
    "Ġcanst": 8862,
    "Ġincess": 8432,
    "Ġfad": 17877,
    "Ġleathern": 15052,
    "Ġmachine": 811,
    "Ġappro": 661,
    "Ġsultan": 15187,
    "Ġmasterless": 23997,
    "willing": 6594,
    "courageous": 26127,
    "Ġdoorway": 14498,
    "Ġonce": 1491,
    "bbles": 13694,
    "ating": 664,
    "Ġbugs": 13651,
    "Ġnominal": 15171,
    "Ġhelps": 9372,
    "Ġhorn": 6187,
    "Ġvigil": 9511,
    "acks": 11792,
    "Ġsurface": 5119,
    "Ġaverted": 16255,
    "ropol": 10956,
    "Ġgomorrah": 21617,
    "Ġdemanding": 16806,
    "Ġacquire": 2723,
    "Ġspence": 22129,
    "period": 15898,
    "appo": 3912,
    "Ġcreditor": 24291,
    "olently": 15760,
    "Ġparties": 7040,
    "ques": 2842,
    "Ġdemeanour": 17339,
    "test": 13794,
    "ercely": 12554,
    "aim": 2755,
    "Ġunnear": 22029,
    "consumed": 25675,
    "Ġconfused": 7964,
    "Ġcelestial": 10071,
    "Ġconvulsively": 25715,
    "chemical": 23810,
    "tried": 13796,
    "lesson": 22773,
    "Ġhumility": 12987,
    "peare": 18911,
    "Ġcharge": 5325,
    "pick": 17635,
    "Ġwarning": 9062,
    "Ġyellowish": 24429,
    "Ġmagg": 18905,
    "Ġdrugg": 17121,
    "Ġtattooings": 24900,
    "Ġtwelve": 4963,
    "ieces": 4773,
    "god": 4864,
    "pips": 21021,
    "Ġpolluted": 25593,
    "Ġsar": 21215,
    "Ġmatches": 14398,
    "ĠdÃ¦mon": 7844,
    "cracy": 24690,
    "Ġshows": 8485,
    "Ġstronger": 8583,
    "rowsers": 8699,
    "Ġinspiring": 19113,
    "Ġproximity": 3221,
    "Ġwine": 6811,
    "ignific": 11958,
    "Ġguests": 12290,
[...]
