{
  "metadata": {
    "vocab_size": 26613,
    "algorithm": "BPE",
    "created_at": "2026-06-10 06:22:07",
    "special_tokens": [
      "<PAD>",
      "<SOS>",
      "<EOS>",
      "<UNK>",
      "<MASK>"
    ]
  },
  "vocab": {
    "Ġagency": 11804,
    "inst": 4435,
    "Ġnum": 1347,
    "explaining": 23141,
    "â": 163,
    "Ġplight": 14280,
    "Ġemblem": 20495,
    "enormous": 26166,
    "Ġunintellig": 22024,
    "Ġremembering": 14611,
    "sequence": 2857,
    "aust": 15307,
    "Ġcry": 3495,
    "aire": 10679,
    "Ġdef": 1201,
    "Ġencountered": 8321,
    "Ġrickety": 26505,
    "Ġleakage": 23459,
    "Ġinducement": 16842,
    "»": 124,
    "cost": 19185,
    "Ġnephew": 6404,
    "Ġroad": 3880,
    "Ġbell": 4635,
    "Ġcrush": 9419,
    "icing": 9199,
    "Ġnecess": 3475,
    "Ġclose": 3037,
    "Ġcreator": 7253,
    "Ġmourn": 8703,
    "beries": 22718,
    "Ġdiscount": 22781,
    "Ġsepulchre": 20558,
    "tot": 10727,
    "g": 75,
    "Ġhandle": 3139,
    "neighbourhood": 10023,
    "Ġtrunks": 15968,
    "Ġfra": 1803,
    "mantel": 26393,
    "pedest": 24694,
    "Ġdrawers": 12102,
    "Ġenable": 684,
    "Ġsmilingly": 22559,
    "Ġoverpow": 14207,
    "Ġyounger": 5252,
    "Ġpoultry": 17439,
    "Ġmccarthys": 19660,
    "urn": 776,
    "refusal": 24735,
    "Ġcharity": 8861,
    "Ġboisterous": 20440,
    "Ġenjoyment": 7299,
    "Ġtra": 1384,
    "Ġanteced": 26177,
    "Ġcentral": 7727,
    "Ġoriginated": 24122,
    "Ġexperience": 1370,
    "dwelt": 23870,
    "oms": 4593,
    "ribly": 8254,
    "recollected": 25347,
    "Ġblaze": 16217,
    "Ġfunny": 7636,
    "uth": 3020,
    "00": 1610,
    "Ġofficial": 7080,
    "Ġconstruction": 9382,
    "Ġfumbling": 21416,
    "Ġhung": 4560,
    "Ġreadily": 5253,
    "Ġknob": 24407,
    "Ġimpreg": 15984,
    "Ġquick": 2582,
    "bul": 6951,
    "Ġrecede": 25968,
    "restrained": 16333,
    "Ġdivert": 23592,
    "Ġstaving": 21738,
    "Ġearned": 19403,
    "Ġslain": 8952,
    "Ġoverwhelming": 17101,
    "Ġprefer": 6415,
    "Ġencirc": 18732,
    "Ġastonishment": 4794,
    "Ġblown": 12082,
    "breeding": 16674,
    "con": 653,
    "Ġwaved": 9643,
    "peculiar": 6886,
    "Ġglass": 4369,
    "fit": 6645,
    "comfortable": 7319,
    "cure": 11474,
    "angle": 22102,
    "norm": 20984,
    "Ġpled": 17908,
    "Ġinfiltrated": 23281,
    "Ġbaffled": 12400,
    "Ġcirc": 1986,
    "Ġcommerce": 11014,
    "Ġunequal": 14841,
    "newsp": 23135,
    "Ġskipper": 22798,
    "accomplished": 17210,
    "supernatural": 19776,
    "iza": 6255,
    "subst": 12161,
    "Ġfundamental": 3015,
    "etimes": 1988,
    "Ġstreaming": 19671,
    "Ġcucumber": 21354,
    "Ġovertake": 15970,
    "Ġgladness": 16590,
    "Ġdiscoloured": 15250,
    "Ġharpooned": 13258,
    "Ġlantern": 7115,
    "Ġstaid": 21736,
    "lift": 15382,
    "Ġseeks": 14301,
    "strange": 6087,
    "nails": 17613,
    "Ġspiracle": 14149,
    "subject": 6631,
    "orphans": 26439,
    "lands": 8240,
    "sized": 15426,
    "Ġbleak": 10557,
    "cary": 10688,
    "oriented": 2947,
    "Ġminut": 2202,
    "Ġwrinkles": 8569,
    "Ġgaping": 13967,
    "queer": 10361,
    "utherland": 9577,
    "Ġhosts": 19936,
    "Ġfished": 21409,
    "Ġchry": 22244,
    "Ġembattled": 26289,
    "brave": 19821,
    "Ġcracked": 8593,
    "Ġintegration": 9866,
    "Ġdecrease": 4203,
    "Ġtur": 2565,
    "conjecturing": 20132,
    "gress": 2212,
    "Ġinterpreter": 23212,
    "Ġhappier": 10358,
    "Ġclue": 7019,
    "ibility": 2390,
    "Ġeconomical": 25287,
    "Ġincl": 4273,
    "Ġtragic": 15253,
    "athered": 6972,
    "field": 3075,
    "Ġundoubted": 19513,
    "Ġimpro": 911,
    "Ġdust": 5909,
    "Ġformed": 3883,
    "ive": 428,
    "<PAD>": 0,
    "disapprobation": 19155,
    "winding": 16719,
    "elaborate": 21574,
    "amplified": 26493,
    "Ġessence": 13403,
    "sively": 13784,
    "acter": 2507,
    "Ġunforgiving": 25995,
    "method": 17283,
    "Ġabstraction": 26538,
    "Ġcupboard": 16882,
    "vers": 1327,
    "agery": 21906,
    "Ġdocile": 19956,
    "lot": 3208,
    "impul": 16554,
    "philips": 20032,
    "Ġpronouncing": 16967,
    "ogue": 9780,
    "Ġcreativity": 2792,
    "Ġhow": 596,
    "Ġforge": 8455,
    "new": 1470,
    "Ġhampshire": 15240,
    "Ġdrow": 21425,
    "Ġcleaning": 23180,
    "patched": 17642,
    "Ġupdates": 1299,
    "Ġhyp": 3871,
    "bol": 8717,
    "Ġallurements": 22006,
    "Ġcred": 8779,
    "Ġsulk": 15045,
    "recur": 4437,
    "surprise": 9527,
    "Ġson": 2985,
    "Ġretrie": 10381,
    "Ġtaffrail": 15474,
    "stubb": 6017,
    "altogether": 12635,
    "Ġreefed": 20300,
    "causes": 20341,
    "garet": 9596,
    "anel": 21355,
    "Ġcondem": 6337,
    "Ġpauper": 26179,
    "som": 3292,
    "Ġgir": 2254,
    ",*": 17470,
    "Ġsoftened": 11101,
    "Ġlucases": 9008,
    "mockery": 24378,
    "Ġcompressed": 21855,
    "derick": 22160,
    "three": 5239,
    "utter": 7592,
    "Ġboomer": 20165,
    "Ġbeards": 21749,
    "Ġ55": 24323,
    "import": 5668,
    "Ġponies": 21475,
    "tracks": 19636,
    "vert": 15711,
    "Ġshaft": 18230,
    "Ġcertain": 1558,
    "Ġarrangement": 2657,
    "thin": 14095,
    "cherries": 19754,
    "ere": 6789,
    "Ġbeech": 18083,
    "Ġembarkation": 25123,
    "biscuit": 17499,
    "Ġpatagon": 14503,
    "Ġswiss": 18880,
    "knowledge": 7477,
    "Ġinquir": 4245,
    "emberley": 4173,
    "Ġimbedded": 18332,
    "thing": 1483,
    "Ġstile": 21733,
    "rison": 13777,
    "Ġsuggestions": 24453,
    "Ġrubbing": 9319,
    "Ġreduces": 2344,
    "impregnable": 26480,
    "Ġdines": 21422,
    "ĠarchÃ¦": 22764,
    "Ġdeterminate": 23001,
    "Ġdetermination": 9817,
    "Ġleaped": 8823,
    "neys": 23581,
    "Ġfelt": 1743,
    "Ġperplex": 2716,
    "Ġhardly": 2433,
    "Ġpreach": 14172,
    "Ġbordered": 24563,
    "acle": 4715,
    "Ġcorrectly": 9401,
    "Ġcrony": 23440,
    "Ġtested": 23233,
    "Ġmarrying": 6177,
    "Ġmark": 2332,
    "Ġskies": 8919,
    "Ġinquiries": 5678,
    "ingu": 2119,
    "lightning": 16550,
    "inced": 3336,
    "Ġroy": 4231,
    "Ġpreliminaries": 25176,
    "Ġfarmhouse": 24986,
    "developed": 15262,
    "tu": 12508,
    "Ġsoap": 14133,
    "Ġdexter": 9699,
    "cket": 3685,
    "Ġfamily": 1964,
    "Ġgradu": 15829,
    "cause": 7795,
    "Ġincludes": 2011,
    "Ġbears": 6829,
    "Ġbas": 6379,
    "Ġhospit": 7513,
    "Ġglit": 8557,
    "Ġtreacherously": 25129,
    "Ġspaniards": 25555,
    "ctive": 11622,
    "Ġavenue": 13619,
    "Ġbeware": 8826,
    "hoped": 20909,
    "turning": 8316,
    "wit": 7817,
    "Ġunra": 18238,
    "gradu": 18615,
    "Ġlondon": 2841,
    "Ġthread": 14538,
    "Ġblan": 18816,
    "market": 16838,
    "fil": 12459,
    "Ġregarded": 5762,
    "expectation": 14855,
    "Ġfixed": 2687,
    "Ġcurved": 18846,
    "arm": 1356,
    "spin": 22728,
    "Ġtwig": 11848,
    "Ġsailors": 4279,
    "Ġfang": 21401,
    "Ġcommodores": 25374,
    "Ġbes": 2661,
    "inders": 15977,
    "creature": 5346,
    "subs": 14302,
    "Ġtraits": 23075,
    "beside": 19875,
    "Ġinferences": 17935,
    "tw": 2814,
    "Ġextracted": 16292,
    "troubled": 17111,
    "sory": 17658,
    "Ġglowing": 12279,
    "secret": 12233,
    "Ġadorned": 15245,
    "Ġcondescend": 19952,
    "Ġ71": 24259,
    "Ġbecoming": 4397,
    "Ġdays": 2077,
    "À": 129,
    "gging": 7696,
    "Ġtoma": 7372,
    "brought": 7284,
    "Ġliber": 5168,
    "onze": 21254,
    "Ġbeholding": 8668,
    "lines": 6959,
    "some": 2234,
    "sorrow": 12505,
    "Ġyojo": 7609,
    "gument": 20884,
    "Ġbanished": 10615,
    "Ġath": 15798,
    "bare": 12438,
    "Ġunmannerly": 26516,
    "Ġwelded": 9569,
    "Ġhammer": 6094,
    "errand": 22910,
    "Ġsolicitude": 10038,
    "Ġimport": 1025,
    "happ": 3107,
    "eg": 17528,
    "Ġtheory": 5798,
    "Ġunearthly": 9035,
    "Ġinsertion": 26343,
    "Ġcallest": 17833,
    "Ġgums": 21609,
    "company": 9457,
    "fitters": 24761,
    "Ġbeauties": 10444,
    "Ġaround": 3607,
    "itchen": 7787,
    "Ġtis": 15463,
    "Ġliberty": 7761,
    "ario": 14247,
    "Ġcompetent": 11814,
    "Ġlargely": 14284,
    "vit": 13799,
    "Ń": 260,
    "ctions": 952,
    "Ġveritable": 19379,
    "Ġus": 492,
    "Ġcart": 11582,
    "Ġsport": 6688,
    "jacket": 12289,
    "consid": 4924,
    "Ġinscriptions": 20006,
    "Ġmagnetic": 17239,
    "Ġhonest": 7286,
    "Ġdrunk": 9421,
    "icate": 9200,
    "Ġdexterously": 25295,
    "Ġsorting": 3235,
    "ums": 10271,
    "ther": 481,
    "Ġforefinger": 16442,
    "hog": 8379,
    "getting": 12963,
    "Ġvitality": 15171,
    "Ġfacil": 16960,
    "Ġgoring": 21602,
    "Ġexchange": 15749,
    "Ġpredecess": 18542,
    "Ġsigma": 1543,
    "Ġcirclings": 26430,
    "Ġcreature": 2384,
    "grew": 17554,
    "Ġcourtship": 24135,
    "Ġmission": 13002,
    "Ġspectator": 19404,
    "itary": 4750,
    "Ġgasping": 17037,
    "Ġcontempt": 6275,
    "osque": 22260,
    "Ġdoubts": 8577,
    "Ġplayful": 19236,
    "Ġcant": 17825,
    "Ġroute": 11381,
    "Ġhopkins": 23131,
    "Ġspeakest": 23485,
    "Ġmary": 3841,
    "bill": 10074,
    "Ġrelapses": 26278,
    "Ġbenediction": 18785,
    "thr": 12756,
    "Ġbreckinridge": 14522,
    "Ġrestrain": 8963,
    "Ġpreface": 18367,
    "Ġcompass": 4408,
    "Ġjust": 1241,
    "Ġexamine": 7734,
    "Ġchurning": 15934,
    "Ġtypically": 1538,
    "Ġmisty": 16538,
    "ieties": 19022,
    "consolatory": 25306,
    "let": 2733,
    "inctions": 17731,
    "Ġsupplied": 8942,
    "verd": 21725,
    "Ġreality": 7056,
    "Ġfreed": 7266,
    "Ġintim": 6838,
    "Ġaff": 1118,
    "Ġrely": 8819,
    "pictures": 15089,
    "Ġcandelab": 23847,
    "ullo": 12725,
    "Ġvital": 9241,
    "igned": 5656,
    "Ġvenerable": 9092,
    "Ġslope": 14459,
    "onged": 18411,
    "Ġtemple": 7652,
    "Ġcocoanuts": 26362,
    "Ġuniversity": 13119,
    "tim": 13789,
    "Ġdisguises": 25055,
    "Ġspoils": 24808,
    "sings": 4254,
    "Ġrocking": 10968,
    "_âĢĶ": 11467,
    "lydia": 6826,
    "Ġmagnet": 10389,
    "Ġtawn": 13821,
    "ineer": 11697,
    "Ġmenaces": 23107,
    "unsupervised": 10888,
    "Ġergo": 25029,
    "quohog": 21850,
    "encounter": 20389,
    "instr": 12527,
    "Ġgreen": 3054,
    "Ġproblem": 1269,
    "Ġappre": 5165,
    "rises": 17654,
    "Ġviciously": 24404,
    "licted": 20955,
    "Ġsurely": 6306,
    "Ġisles": 8458,
    "Ġexcited": 5579,
    "hmael": 7341,
    "Ġalders": 21782,
    "Ġfowler": 16936,
    "Ġblasts": 19993,
    "Ġromantic": 8030,
    "Ġoffering": 3008,
    "although": 8804,
    "north": 14616,
    "Ġexhibited": 9541,
    "Ġantiqu": 12141,
    "deeply": 16178,
    "Ġwharf": 9557,
    "eyed": 11486,
    "Ġaddressed": 5262,
    "dia": 2133,
    "Ġsinks": 19546,
    "ificent": 8183,
    "Ġlining": 13949,
    "Ġnative": 4640,
    "compass": 9456,
    "Ġplanisphere": 26606,
    "Ġbrought": 2516,
    "Ġ90": 24590,
    "Ġrepelled": 19083,
    "points": 14393,
    "Ġshown": 5159,
    "Ġbelike": 18829,
    "unctuous": 21881,
    "ven": 781,
    "lower": 8879,
    "onist": 21249,
    "Ġ44": 16678,
    "Ġteaching": 10363,
    "Ġresentful": 24633,
    "insufficient": 15487,
    "###": 3825,
    "rooms": 10431,
    "Ġgar": 10837,
    "Ġcran": 11997,
    "Ġstreat": 15720,
    "raising": 21630,
    "Ġauthors": 10417,
    "Ġoccupied": 5272,
    "quent": 2094,
    "Ġprognost": 15279,
    "structure": 4785,
    "Ġindepend": 3666,
    "daughters": 13464,
    "Ġpleadings": 25852,
    "Ġboys": 5194,
    "Ġwhim": 13997,
    "Ġtorments": 13392,
    "greatly": 16622,
    "Ġlexic": 15714,
    "Ġempire": 11143,
    "Ġfront": 3452,
    "Ġentered": 2847,
    "Ġfolded": 7767,
    "iless": 10280,
    "Ġdisgracing": 26255,
    "Ġcasket": 19722,
    "mai": 22913,
    "roman": 22003,
    "Ġpart": 858,
    "glancing": 11214,
    "Ġarticulated": 24433,
    "Ġcopied": 20005,
    "iece": 3230,
    "Ġdismal": 11808,
    "lovely": 16042,
    "pour": 17629,
    "Ġbroods": 23103,
    "include": 23588,
    "according": 12024,
    "saturday": 14857,
    "embraced": 25804,
    "Ġilleg": 21621,
    "Ġ114": 24438,
    "Ġtattooed": 11378,
    "Ġcherish": 10588,
    "Ġarthur": 7195,
    "Ġregret": 5560,
    "Ġdispelling": 23879,
    "Ġtobacc": 7852,
    "hyp": 15364,
    "Ġnotice": 4543,
    "Ġdy": 2354,
    "Ġsnar": 13196,
    "Ġwillingness": 24910,
    "Ġreputed": 18036,
    "Ġbestow": 6454,
    "nihil": 9846,
    "Ġdisposing": 19373,
    "keel": 14128,
    "Ġdeemed": 7613,
    "Ġinconvenient": 20007,
    "Ġexponentiating": 3446,
    "huzza": 20912,
    "fem": 17536,
    "Ġbremen": 23343,
    "Ġcalhoun": 23042,
    "Ġsweating": 16461,
    "Ġflew": 5587,
    "stoke": 18023,
    "Ġpink": 12614,
    "Ġgentleman": 3041,
    "Ġpositional": 2598,
    "Ġcouples": 16851,
    "Ġfiles": 21412,
    "wishes": 13805,
    "Ġpossessed": 5195,
    "Ġcorrected": 10447,
    "ites": 3898,
    "parlour": 16387,
    "Ġheart": 1592,
    "Ġincreasing": 8246,
    "Î": 143,
    "Ġwhisker": 23933,
    "ese": 4444,
    "Ġentertainment": 12219,
    "Ġhinge": 25541,
    "eties": 10836,
    "Ġformation": 2943,
    "relieved": 13272,
    "Ġunass": 14112,
    "cing": 1013,
    "Ġdefines": 1740,
    "Ġairy": 23315,
    "Ġoverspread": 14206,
    "Ġresembling": 4099,
    "Ġcabaco": 13165,
    "Ġimmut": 13295,
    "Ġrelied": 16193,
    "Ġsentinel": 26065,
    "ied": 941,
    "wilful": 25086,
    "ï": 176,
    "staff": 21654,
    "cial": 2649,
    "gg": 1996,
    "ounix": 14163,
    "oqu": 7554,
    "anth": 13885,
    "Ġintricate": 15136,
    "Ġpoisoned": 24886,
    "Ġprivate": 5345,
    "Ġgale": 5822,
    "Ġcompliments": 8632,
    "Ġresidual": 1681,
    "!âĢĻ": 3332,
    "mingled": 14712,
    "Ġthoughtlessness": 16191,
    "Ġresounded": 22542,
    "Ġlanguor": 12844,
    "Ġdenny": 9000,
    "Ġunmethodically": 22069,
    "Ġaccorded": 24086,
    "beginning": 13559,
    "just": 1700,
    "Ġmills": 21310,
    "Ġapartment": 6633,
    "handsome": 13174,
    "Ġrises": 9711,
    "idents": 6150,
    "Ġchanc": 18383,
    "Ġprovocation": 24190,
    "Ġhonourable": 10455,
    "Ġrecurred": 18978,
    "ascar": 8434,
    "Ġhoe": 23349,
    "remes": 21236,
    "Ġaverage": 3141,
    "Ġunhappy": 5640,
    "Ġsaturn": 22901,
    "Ġlav": 13947,
    "nnight": 20992,
    "Ġstrikes": 13179,
    "sister": 5139,
    "Ġcomstock": 21856,
    "Ġbrooks": 25700,
    "Ġexperiences": 13026,
    "Ġnar": 7374,
    "âĢĶ_": 3202,
    "Ġpricking": 23221,
    "rew": 3646,
    "uerus": 26405,
    "Ġmorcar": 13007,
    "important": 7111,
    "hawk": 7120,
    "Ġlethargy": 26481,
    "Ġsubmerged": 11870,
    "Ġpopulous": 16825,
    "Ġpostponed": 20387,
    "Ġamiable": 4272,
    "Ġsensation": 6895,
    "Ġjoppa": 12033,
    "Ġoffended": 7039,
    "harpo": 4805,
    "Ġvirtual": 11240,
    "Ġdams": 16455,
    "maul": 11890,
    "Ġconsummate": 25310,
    "Ġsanguinary": 25929,
    "Ġjunks": 25113,
    "ashed": 3783,
    "ac": 739,
    "arranted": 19319,
    "attacks": 23124,
    "Ġfeel": 1261,
    "Ġparading": 23710,
    "Ġaided": 17745,
    "Ġoutskirts": 17455,
    "ulum": 21861,
    "Ġgraph": 10901,
    "Ġlads": 8596,
    "ar": 285,
    "Ġsurgeon": 8980,
    "Ġmoot": 22430,
    "Ġsomewhat": 4897,
    "nings": 9130,
    "glim": 19363,
    "Ġsperm": 1840,
    "iew": 2446,
    "Ġcyn": 13884,
    "ep": 443,
    "Ġdiffers": 23781,
    "Ġsmite": 22556,
    "Ġphilosophical": 26334,
    "tub": 9142,
    "large": 6625,
    "Ġ8": 5433,
    "Ġstowing": 18075,
    "Ġglorious": 11074,
    "Ġtraffic": 23083,
    "Ġgot": 2279,
    "light": 3018,
    "ally": 531,
    "contempt": 13186,
    "utions": 1886,
    "Ġsurmis": 23463,
    "entle": 1737,
    "Ġdagger": 21436,
    "Ġclump": 15963,
    "Ġsundial": 15081,
    "Ġsales": 12803,
    "sulphur": 25909,
    "Ġadmeasure": 18293,
    "hours": 9123,
    "å": 166,
    "Ġexceptional": 19369,
    "Ġcorrid": 9822,
    "Ġdl": 3375,
    "Ġbelted": 22947,
    "Ġnumbers": 2888,
    "Ġ83": 24459,
    "Ġorgies": 18285,
    "bingley": 4927,
    "pacific": 17640,
    "local": 22508,
    "cords": 25136,
    "oline": 6834,
    "omit": 13972,
    "hid": 13732,
    "Ġinnoc": 3793,
    "Ġignominy": 15084,
    "Ġpresided": 20205,
    "Ġfurthest": 22815,
    "Ġcontingency": 26244,
    "Ġr": 405,
    "Ġdanish": 21430,
    "Ġrods": 9752,
    "Ġfinding": 3266,
    "Ġlory": 12648,
    "Ġspending": 10922,
    "wickham": 5884,
    "Ġarrayed": 25664,
    "aver": 6785,
    "Ġpile": 8423,
    "gins": 12465,
    "Ġovers": 14205,
    "Ġgraceful": 11296,
    "uits": 21103,
    "Ġenhance": 2980,
    "Ġdab": 15584,
    "Ġsyntax": 958,
    "nants": 17612,
    "ip": 556,
    "interval": 7990,
    "european": 26371,
    "Ġwreath": 25936,
    "Ġshared": 10262,
    "Ġbourgh": 5069,
    "Ġprecision": 13185,
    "draw": 23897,
    "corrupt": 14894,
    "Ġfactor": 19011,
    "Ġclamped": 18425,
    "hanging": 10099,
    "epilogue": 22101,
    "arms": 10172,
    "rugg": 15899,
    "expectant": 24275,
    "Ġspeedily": 7711,
    "view": 5896,
    "Ġ1846": 26084,
    "Ġpret": 3036,
    "Ġfalling": 6915,
    "Ġcalf": 16264,
    "._": 3222,
    "rece": 21233,
    "consc": 4840,
    "Ġwished": 3728,
    "Ġwavering": 23403,
    "Ġpent": 17904,
    "Ġlithe": 24669,
    "Ġceremonies": 24836,
    "Ġdreadfully": 7725,
    "Ġkind": 1783,
    "grown": 10098,
    "Ġdoub": 1834,
    "Ġsilvery": 13091,
    "lested": 14882,
    "ada": 14009,
    "Ġvolcanoes": 24145,
    "terms": 15747,
    "Ġfatally": 19392,
    "investments": 25532,
    "bler": 11472,
    "Ġungrateful": 14120,
    "Ġconcre": 16383,
    "adequate": 15202,
    "stove": 21650,
    "Ġfair": 2839,
    "ically": 846,
    "mit": 4933,
    "intervals": 10636,
    "Ġenric": 21934,
    "Ġhatchways": 24989,
    "Ġcheers": 16362,
    "âĢĿ;": 11669,
    "here": 2550,
    "mature": 20966,
    "Ġanytime": 12881,
    "Ġaccents": 14210,
    "Ġcrying": 10785,
    "Ġbull": 7839,
    "Ġsuite": 18278,
    "Ġreader": 11931,
    "Ġvoc": 4451,
    "Ġpondicherry": 20488,
    "prospect": 23393,
    "flying": 13719,
    "Ġreturns": 11924,
    "squeezing": 25913,
    "Ġsubl": 7234,
    "cence": 9587,
    "erately": 21272,
    "/(": 2984,
    "Ġgrazed": 15830,
    "author": 9858,
    "Ġsubdivisions": 26037,
    "ineering": 21966,
    "eh": 13708,
    "horn": 8085,
    "twelve": 14622,
    "chain": 18040,
    "facts": 19839,
    "Ġcrystals": 20225,
    "Ġdisappears": 18559,
    "Ġaccomplished": 7103,
    "aren": 10072,
    "Ġdiscrete": 2477,
    "Ġperempt": 13671,
    "Ġprow": 6684,
    "chancing": 22918,
    "honour": 13465,
    "Ġcordially": 16835,
    "ig": 322,
    "Ġgibraltar": 25787,
    "Ġfancies": 10423,
    "innocence": 15182,
    "Ġconsequence": 5541,
    "Ġmaledictions": 26427,
    "oft": 3588,
    "Ġincome": 7917,
    "Ġgre": 1582,
    "arness": 11670,
    "Ġtangles": 25761,
    "rate": 2423,
    "Ġbehold": 5049,
    "Ġmaintainable": 12931,
    "Ġtickets": 17093,
    "accountable": 7108,
    "Ġexceptions": 13227,
    "Ġshouts": 19536,
    "Ġpermitted": 9276,
    "Ġcannibal": 7773,
    "Ġlanc": 19762,
    "irresistible": 18174,
    "engagement": 14457,
    "exceeded": 25001,
    "rences": 9270,
    "Ġcastle": 14716,
    "Ġinestim": 15620,
    "Ġeyebrows": 23514,
    "Ġsafer": 22168,
    "recklessly": 25269,
    "Ġexamples": 2606,
    "Ġacute": 16120,
    "vell": 3957,
    "Ġhearse": 10419,
    "Ġsleeve": 20138,
    "Ġfirmness": 11238,
    "comfortably": 16874,
    "proves": 23391,
    "beef": 18520,
    "Ġinsipid": 26313,
    "Ġselfishness": 12286,
    "Ġwail": 21285,
    "Ġkelson": 18350,
    "Ġpom": 21451,
    "Ġdespatched": 23828,
    "Ġcaged": 21350,
    "Ġinnocently": 24026,
    "Ġsyllables": 25298,
    "leader": 25351,
    "Ġunprejudiced": 18269,
    "Ġfern": 21405,
    "Ġrecognition": 2978,
    "Ġsystematic": 5245,
    "Ġlur": 5226,
    "resol": 17760,
    "Ġrummaged": 16909,
    "divers": 15340,
    "ana": 15555,
    "velled": 9874,
    "Ġflora": 11416,
    "only": 3308,
    "Ġscolding": 15199,
    "expl": 9281,
    "Ġxxxii": 24972,
    "Ġamazing": 9975,
    "vitiated": 25754,
    "Ġunfor": 15836,
    "aks": 8505,
    "put": 413,
    "Ġintentionally": 24523,
    "Ġvaults": 17152,
    "housekeeper": 24100,
    "Ġbelt": 12999,
    "Ġsympathise": 16793,
    "Ġbetray": 7441,
    "Ġcuba": 25095,
    "vex": 21700,
    "Ġsuperiors": 23455,
    "Ġhist": 2444,
    "Ġpraise": 6485,
    "Ġenjoy": 3759,
    "Ġmassacre": 20546,
    "Ġfatig": 6756,
    "Ġtahit": 10753,
    "Ġconviction": 6325,
    "hed": 670,
    "Ġmagnifying": 16318,
    "Ġfunere": 22257,
    "athed": 7828,
    "Ġsympat": 13338,
    "folio": 10545,
    "Ġcountenances": 11962,
    "Ġinclement": 22552,
    "bation": 9101,
    "Ġbountiful": 25944,
    "Ġhedge": 8363,
    "Ġregularity": 22779,
    "Ġskirting": 22797,
    "chiefly": 14845,
    "unching": 18159,
    "Ġshouted": 5347,
    "Ġsomnam": 23004,
    "il": 329,
    "Ġforfeit": 21773,
    "Ġjur": 12830,
    "ention": 862,
    "Ġunw": 8848,
    "usually": 10284,
    "Ġadoration": 18290,
    "Ġconnected": 5393,
    "Ġveneration": 25044,
    "Ġscotland": 6639,
    "autumn": 23341,
    "Ġwife": 2588,
    "Ġhanging": 5447,
    "tanh": 5204,
    "caves": 20812,
    "Ġposture": 24164,
    "Ġbeak": 18080,
    "carefully": 13366,
    "----âĢĻ": 24095,
    "Ġfelony": 18951,
    "monkey": 19169,
    "Ġreply": 4515,
    "inities": 21184,
    "Ġfleetness": 20177,
    "illity": 18296,
    "âĢĻâĢĶ": 12732,
    "Ġsprawling": 22137,
    "ago": 14063,
    "ists": 3999,
    "urday": 13993,
    "birds": 15143,
    "/`": 12426,
    "Ġseaport": 20598,
    "Ġezek": 18010,
    "announced": 19757,
    "âĢĻ,": 14068,
    "Ġteeth": 4168,
    "Ġmournfully": 20114,
    "upid": 6581,
    "Ġgood": 1000,
    "Ġhig": 754,
    "Ġaglow": 22512,
    "Ġshine": 12762,
    "steep": 19417,
    "Ġintrospective": 20599,
    "precaution": 23821,
    "Ġclutched": 13517,
    "fered": 5559,
    "Ġdisturbed": 8671,
    "Ġpedest": 14995,
    "Ġturkish": 12258,
    "hood": 2659,
    "begins": 18522,
    "w": 91,
    "Ġminima": 3464,
    "exam": 10975,
    "txt": 12512,
    "Ġbecause": 2208,
    "Ġdazz": 11593,
    "Ġcommon": 1412,
    "scream": 11075,
    "Ġweariness": 19791,
    "Ġluxur": 12338,
    "aco": 12902,
    "Ġhem": 8444,
    "Ġanything": 2185,
    "Ġcolon": 18763,
    "Ġcouns": 10519,
    "Ġgestures": 13534,
    "hills": 13734,
    "Ġtrans": 637,
    "iety": 2820,
    "Ġenlightened": 12742,
    "Ġdeclared": 5594,
    "rat": 8755,
    "iors": 9124,
    "settle": 16660,
    "Ġpromontory": 11938,
    "examination": 25478,
    "Ġconfound": 23302,
    "nant": 17608,
    "inforcement": 3043,
    "ll": 1141,
    "Ġ1869": 19382,
    "Ġdictator": 20151,
    "chron": 21692,
    "ulnerable": 18151,
    "asions": 12647,
    "Ġcrags": 23526,
    "Ġacres": 14312,
    "Ġaimed": 20248,
    "Ġmining": 22830,
    "Ġtune": 17724,
    "Ġadditionally": 1175,
    "Ġdisappointed": 7096,
    "Ġ17": 5740,
    "Ġtribute": 15473,
    "Ġunaware": 22057,
    "Ġribbed": 16803,
    "perceive": 12807,
    "dream": 8727,
    "Ġdesperado": 19817,
    "Ġsculpt": 15943,
    "maid": 8552,
    "Ġadvis": 9802,
    "Ġstone": 4645,
    "Ġclaws": 15964,
    "Ġordinary": 6097,
    "Ġhorseman": 19605,
    "urged": 18049,
    "churning": 21695,
    "Ġlysander": 13137,
    "Ġsolomon": 11051,
    "hest": 3368,
    "Ġwings": 9162,
    "Ġshriek": 6637,
    "Ġnourishment": 15191,
    "Ġpurses": 23476,
    "miss": 3176,
    "Ġrevelations": 25223,
    "Ġexert": 5722,
    "joined": 13271,
    "ĠĠĠĠĠĠĠĠĠĠ": 18578,
    "Ġdiscomp": 11864,
    "Ġdeposited": 25484,
    "ella": 12747,
    "Ġpat": 1784,
    "aking": 978,
    "Ġgoodness": 6059,
    "Ġscandalous": 24879,
    "unc": 15765,
    "Ġmabel": 17322,
    "Ġresiding": 16058,
    "inarticulate": 21194,
    "Ġtolerable": 6949,
    "Ġupheld": 22150,
    "Ġoakshott": 12226,
    "Ġwearing": 12735,
    "Ġmummy": 25768,
    "despairing": 25074,
    "imperturbable": 25790,
    "bale": 20773,
    "Ġassurance": 7774,
    "attended": 8951,
    "Ġpipeline": 2297,
    "ertips": 23641,
    "Ġutil": 4672,
    "Ġdoran": 9178,
    "fifth": 20144,
    "acknowledging": 25476,
    "Ġdeliberately": 10623,
    "Ġgoose": 5938,
    "Ġshocked": 9398,
    "oured": 2674,
    "Ġdil": 6382,
    "_.": 2211,
    "Ġjaw": 3319,
    "Ġdictate": 20149,
    "Ġslip": 8953,
    "abominable": 20592,
    "pal": 9615,
    "disaster": 23492,
    "atter": 646,
    "towns": 24854,
    "Ġsofa": 10269,
    "liament": 16215,
    "Ġextravagance": 17278,
    "Ġyou": 366,
    "genteel": 19946,
    "cheered": 23805,
    "Ġgilt": 21604,
    "Ġrequisition": 22638,
    "cook": 8269,
    "Ġtender": 5753,
    "Ġvirtues": 9934,
    "Ġfeather": 8858,
    "Ġhercules": 14127,
    "overhearing": 19051,
    "Ġaveraging": 2419,
    "Ġinspecting": 24611,
    "lection": 3650,
    "Ġreport": 6191,
    "Ġlim": 2381,
    "Ġdiscerning": 24955,
    "ighbour": 3388,
    "Ġspinning": 15052,
    "alization": 732,
    "brilliancy": 26077,
    "Ġbath": 9657,
    "fail": 17539,
    "rapid": 12666,
    "Ġinformed": 6717,
    "kindled": 16659,
    "Ġun": 423,
    "Ġcombat": 16183,
    "pens": 17631,
    "Ġshocks": 16456,
    "Ġstudent": 14477,
    "prit": 19340,
    "Ġshadows": 8012,
    "Ġgardiner": 3239,
    "Ġalbino": 20500,
    "Ġinher": 10178,
    "177": 20751,
    "Ġnorthern": 7264,
    "Ġlima": 10441,
    "pol": 5893,
    "Ġmassac": 14735,
    "orting": 9733,
    "enc": 7573,
    "Ġravine": 18649,
    "Ġfable": 15573,
    "Ġneighbours": 8302,
    "intentions": 22938,
    "Ġdynamically": 3640,
    "Ġinsupportable": 13930,
    "arrangement": 17413,
    "Ġreference": 2566,
    "dri": 5888,
    "Ġsatisf": 2808,
    "Ġantagon": 19547,
    "inaw": 21182,
    "Ġfurthermore": 1169,
    "metallic": 19878,
    "Ġrepose": 6741,
    "Ġjuggler": 26366,
    "Ġdevout": 14335,
    "Ġheels": 10849,
    "Ġremem": 4314,
    "Ġbelieved": 4368,
    "Ġreliably": 22879,
    "Ġsol": 1104,
    "ved": 868,
    "iro": 20913,
    "Ġcaptain": 1603,
    "Ġmichaelmas": 26374,
    "Ġbump": 9658,
    "Ġknelt": 12155,
    "Ġslender": 11937,
    "enged": 23147,
    "ulpt": 10884,
    "Ġpeas": 8532,
    "scru": 16239,
    "Ġlicence": 25096,
    "glass": 9907,
    "Ġwives": 12551,
    "Ġcoding": 8115,
    "Ġstagnant": 24655,
    "revealed": 20413,
    "needle": 20311,
    "Ġdecap": 16021,
    "+": 15,
    "attering": 7417,
    "Ġbestirred": 20449,
    "Ġsuccessfully": 19427,
    "Ġcontinually": 5042,
    "Ġharness": 17928,
    "ton": 1725,
    "Ġpounds": 5368,
    "Ġnap": 8807,
    "sailor": 14714,
    "Ġexpecting": 10435,
    "Ġbrad": 8785,
    "dest": 4105,
    ")": 13,
    "Ġleagues": 9220,
    "Ġacceded": 22377,
    "Ġheadstrong": 14387,
    "specim": 23942,
    "Ě": 219,
    "knows": 19171,
    "Ġdens": 21423,
    "_,âĢĻ": 12430,
    "Ġforgiven": 24025,
    "Ġinclusive": 24163,
    "Ġepsom": 19980,
    "Ġaggregated": 25678,
    "thousands": 16869,
    "learn": 2536,
    "sank": 17661,
    "evade": 24820,
    "Ġcurios": 18847,
    "Ġbalmoral": 16205,
    "Ġregardless": 19323,
    "Ġkeeping": 7282,
    "Ġunctuousness": 17233,
    "Ġallegro": 25794,
    "conversations": 24748,
    "Ġbrine": 18768,
    "Ġcries": 7153,
    "ee": 1662,
    "Ġbrow": 3987,
    "Ġwit": 3839,
    "voyage": 7785,
    "chosen": 21693,
    "Ġreven": 18029,
    "Ġvariously": 18653,
    "Ġundecided": 22046,
    "Ġexclamation": 8698,
    "Ġuncounted": 19116,
    "Ġcomb": 1061,
    "pest": 6964,
    "Ġpaws": 13919,
    "myster": 16261,
    "Ġreb": 15687,
    "Ġassigned": 16309,
    "Ġprocedure": 2812,
    "thern": 4953,
    "Ġirrevocably": 15295,
    "Ġrecognised": 8994,
    "Ġjunk": 15950,
    "piteous": 21032,
    "Ġfoiled": 23246,
    "Ġoverflow": 10291,
    "dra": 3413,
    "Ġbridges": 24681,
    "Ġquenched": 22415,
    "Ġterr": 3274,
    "Ġunexplored": 26517,
    "Ġfacilitate": 26098,
    "gno": 13725,
    "Ġvulgarity": 25363,
    "Ġdiffident": 23783,
    "Ġlane": 5627,
    "Ġsparkling": 11356,
    "apes": 9739,
    "Ġfaintly": 14914,
    "Ġunpardonable": 22060,
    "Ġrealism": 18984,
    "asc": 6385,
    "Ġdisappoint": 24205,
    "Ġiterate": 13197,
    "Ġguardianship": 17418,
    "Ġpouch": 21468,
    "Ġear": 1422,
    "Ġbarrier": 16568,
    "Ġwondered": 11124,
    "pass": 4293,
    "Ġmahogany": 20576,
    "from": 1991,
    "rr": 17649,
    "Ġimpotently": 22388,
    "Ġain": 6969,
    "Ġslightly": 7292,
    "Ġsi": 21211,
    "sorts": 21059,
    "Ġthose": 1172,
    "Ġpul": 2040,
    "dman": 10087,
    "Ġfigure": 4209,
    "ult": 722,
    "cer": 6642,
    "lessness": 5317,
    "Ġannihil": 10173,
    "Ġspilled": 10923,
    "apt": 727,
    "stirred": 20422,
    "christmas": 20253,
    "Ġprocessions": 18438,
    "ientious": 11688,
    "Ġdeepest": 8213,
    "Ġtake": 1578,
    "Ġdecaying": 2246,
    "Ġpendulous": 25955,
    "Ġguise": 14431,
    "Ġknives": 14836,
    "Ġtossing": 8125,
    "Ġchanced": 8186,
    "Ġpuffing": 12251,
    "dreams": 12334,
    "Ġdeficiencies": 26569,
    "looked": 6084,
    "half": 4931,
    "arks": 2846,
    "Ġwester": 25152,
    "urean": 18123,
    "Ġaversion": 18866,
    "Ġirregular": 9863,
    "urer": 18122,
    "Ġproverb": 12715,
    "Ġtroubled": 6615,
    "loath": 22507,
    "accomp": 10454,
    "thar": 18218,
    "Ġanomaly": 25636,
    "danced": 20827,
    "Ġpersuasions": 16630,
    "uc": 1873,
    "Ġcriminal": 7536,
    "emotions": 15791,
    "Ġmatrices": 4969,
    "Ġstretched": 5920,
    "Ġpractises": 23325,
    "Ġscents": 22280,
    "Ġfocus": 4239,
    "Ġsuggestive": 11297,
    "repro": 10769,
    "Ġunfav": 14786,
    "protected": 19919,
    "crown": 13696,
    "Ġproduce": 4367,
    "Ġtotal": 4993,
    "Ġthre": 2058,
    "Ġ85": 24460,
    "ela": 21567,
    "Ġlimit": 10442,
    "Ġinto": 648,
    "Ġmysterious": 7526,
    "hearse": 17748,
    "Ġlooking": 2476,
    "Ġnest": 10187,
    "unnatural": 15769,
    "ersampling": 18217,
    "iard": 9600,
    "Ġerection": 23999,
    "Ġpallet": 21480,
    "Ġresearch": 3072,
    "Ġoversampling": 20514,
    "Ġchildish": 13135,
    "Ġtherefore": 2238,
    "Ġwine": 6810,
    "Ġsequ": 984,
    "Ġheadland": 22897,
    "Ġresist": 7916,
    "Ġpaddles": 15146,
    "Ġdissatisfied": 14256,
    "georgiana": 26020,
    "Ġ100": 14362,
    "autions": 20766,
    "etting": 21578,
    "Ġlothario": 26184,
    "Ġdissect": 16049,
    "Ġ35": 24074,
    "Ġadaptation": 3158,
    "Ġhorizontal": 7782,
    "pents": 11512,
    "Ġportcull": 23862,
    "Ġridic": 7506,
    "Ġselecting": 16683,
    "Ġpilgrim": 25599,
    "racing": 21629,
    "Ġabruptly": 15149,
    "Ġmending": 17805,
    "Ġable": 3085,
    "Ġlinks": 13953,
    "Ġissuing": 16947,
    "Ġcalves": 13031,
    "Ġdiffused": 12065,
    "batross": 9091,
    "Ġinsens": 8276,
    "Ġsanctified": 25883,
    "theless": 4263,
    "Ġswimming": 5507,
    "Ġcomplain": 6685,
    "sin": 21047,
    "Ġconveyed": 8334,
    "moon": 10334,
    "Ġdecoding": 3086,
    "Ġdesigned": 7740,
    "itement": 7835,
    "Ġhonor": 5664,
    "Ġverify": 12084,
    "raction": 8137,
    "nui": 20999,
    "Ġproves": 14037,
    "Ġstreet": 2958,
    "Ġbackbones": 22647,
    "takes": 21074,
    "minutely": 19591,
    "Ġhardships": 14450,
    "Ġcol": 1058,
    "bert": 4662,
    "month": 6462,
    "Ġgather": 6533,
    "Ġmartial": 20289,
    "Ġorthodox": 22093,
    "Ġvortex": 26208,
    "bless": 22311,
    "Ġsand": 6235,
    "Ġcreamy": 14330,
    "Ġpeaking": 22688,
    "Ġshrew": 21999,
    "Ġcour": 1766,
    "unts": 12727,
    "Ġfloats": 9410,
    "Ġresidence": 8206,
    "Ġgaily": 16747,
    "Ġloveliest": 20259,
    "resum": 17761,
    "usable": 22287,
    "inity": 5693,
    "calling": 12446,
    "ting": 1333,
    "ifled": 14061,
    "Ġfetch": 7769,
    "confusion": 13367,
    "Ġabounding": 12341,
    "pine": 13767,
    "Ġconceived": 8149,
    "twain": 23700,
    "Ġinform": 997,
    "Ġprices": 15608,
    "Ġtent": 15465,
    "speptic": 23944,
    "Ġexasper": 8465,
    "Ġcomprehended": 11294,
    "wa": 5897,
    "Ġreplete": 15694,
    "Ġrisen": 9490,
    "Ġtap": 12522,
    "header": 11930,
    "Ġimprudence": 10296,
    "inhabited": 13618,
    "Ġpaints": 23522,
    "Ġskylight": 24070,
    "Ġsex": 8840,
    "Ġbrig": 11045,
    "Ġraises": 11843,
    "Ġnoting": 18222,
    "Ġpicture": 4856,
    "Ġadvent": 4357,
    "consp": 18504,
    "apped": 5395,
    "Ġindependence": 12101,
    "Ġcharnel": 22250,
    "Ġchristians": 13306,
    "Ġmouldy": 14972,
    "Ġstore": 8452,
    "nur": 11505,
    "wedding": 13369,
    "alogies": 25158,
    "Ġassertion": 13487,
    "Ġmorose": 18841,
    "Ġbit": 2964,
    "Ġdistantly": 18531,
    "Ġuniform": 2225,
    "Ġliterature": 17147,
    "icions": 21561,
    "Ġwheels": 10911,
    "Ġdepressions": 25798,
    "Ġsulkily": 25882,
    "folding": 24927,
    "ings": 636,
    "Ġsnatched": 10470,
    "Ġjumped": 7095,
    "Ġresnet": 5473,
    "ĠâĢĶâĢĶ": 25757,
    "cheap": 23804,
    "Ġleaking": 21728,
    "Ġindependently": 4249,
    "Ġthreaten": 24374,
    "Ġstabbing": 20301,
    "namely": 23616,
    "Ġhumiliating": 22883,
    "jep": 20925,
    "erman": 5108,
    "Ġlass": 15644,
    "bidden": 19734,
    "omed": 13973,
    "voice": 7816,
    "Ġ115": 24439,
    "Ġvigil": 9504,
    "ensibility": 22546,
    "ullied": 23105,
    "Ġbite": 10796,
    "Ġindistinctly": 26117,
    "Ġdecomp": 3809,
    "fere": 10988,
    "Ġcampaign": 20660,
    "Ġgover": 2462,
    "ĠÂ£": 5006,
    "ĠĠĠĠĠĠĠĠ": 711,
    "still": 4222,
    "Ġfordham": 21774,
    "kitchen": 17584,
    "iac": 6225,
    "Ġsickening": 19602,
    "Ġpeter": 10534,
    "Ġhole": 6080,
    "ipt": 12475,
    "rey": 12534,
    "Ġsincerity": 13676,
    "first": 3932,
    "Ġupbraid": 18318,
    "wich": 11543,
    "Ġimag": 2677,
    "Ġif": 697,
    "conclude": 24064,
    "ie": 728,
    "Ġnewcom": 16220,
    "gryphon": 15356,
    "think": 3605,
    "Ġchin": 4891,
    "Ġevents": 4472,
    "conspicuous": 26247,
    "!--": 10676,
    "raged": 9210,
    "Ġyonder": 7391,
    "Ġglories": 16237,
    "scissors": 20726,
    "Ġbales": 21387,
    "trifling": 19412,
    "igating": 21697,
    "Ġdisappearing": 22531,
    "Ġmonument": 16236,
    "ulent": 21860,
    "ulation": 5458,
    "Ġjob": 7015,
    "Ġtropical": 17064,
    "truck": 15439,
    "Ġapologizing": 25197,
    "ription": 5676,
    "Ġrejoicing": 13419,
    "ò": 179,
    "twinkle": 23703,
    "Ġassembly": 10641,
    "naught": 20993,
    "Ġdivision": 19442,
    "Ġmaintaining": 1511,
    "him": 1938,
    "Ġfritters": 23258,
    "arious": 10316,
    "Ġchronicled": 25328,
    "ory": 1078,
    "Ġrather": 1497,
    "adays": 14011,
    "cannibal": 15223,
    "Ġincreased": 2210,
    "Ġrefinement": 18700,
    "Ġavowed": 16632,
    "Ġbeckoned": 25793,
    "Ġpail": 15603,
    "Ġtoler": 7587,
    "Ġfootmarks": 19336,
    "iliation": 10859,
    "ach": 433,
    "Ġsuffocated": 20727,
    "Ġrejoiced": 8683,
    "Ġmodes": 22212,
    "Ġsixteen": 8282,
    "hypothe": 25905,
    "preservation": 25305,
    "hug": 17562,
    "Ġimprecate": 20516,
    "ython": 1032,
    "Ġcamp": 9163,
    "blu": 12437,
    "Ġriddles": 16731,
    "Ġwaggish": 25434,
    "Ġperth": 7022,
    "Ġpratt": 23219,
    "Ġnavigators": 19761,
    "Ġrecall": 3854,
    "Ġgrieved": 8297,
    "Ġunde": 11710,
    "finger": 10092,
    "Ġsinew": 25431,
    "Ġdescending": 8901,
    "cuniary": 26378,
    "Ġjura": 14192,
    "grass": 23412,
    "zen": 5140,
    "Ġleaks": 16446,
    "Ġsimply": 7217,
    "Ġreduce": 7942,
    "know": 2319,
    "Ġangle": 8601,
    "Ġfriday": 14488,
    "Ġencompassed": 15251,
    "claim": 9833,
    "compose": 24030,
    "Ġulster": 14997,
    "till": 6965,
    "Ġsignificant": 8633,
    "Õ": 150,
    "Ġsperma": 19047,
    "Ġthoughts": 3140,
    "Ġmitigates": 3052,
    "Ġsoldier": 16918,
    "bad": 12433,
    "Ġoverlooked": 15971,
    "Ġhazard": 20429,
    "ught": 2750,
    "stone": 5089,
    "block": 11470,
    "ii": 4014,
    "Ġdestroyer": 13411,
    "Ġinclosed": 19537,
    "Ġaboriginal": 14188,
    "rapidly": 15241,
    "Ġwords": 1325,
    "Ġocean": 3305,
    "Ġungover": 18256,
    "shout": 22440,
    "gloom": 17138,
    "Ġdoctor": 5067,
    "Ġcollapsed": 15080,
    "Ġdeeper": 2084,
    "Ġsubs": 2129,
    "Ġrespite": 13152,
    "sentence": 2939,
    "repent": 15511,
    "icherry": 15134,
    "Ġwickedness": 9523,
    "Ķ": 247,
    "Ġwanted": 4968,
    "Ġwards": 17790,
    "V": 58,
    "Ġsof": 18282,
    "intosh": 22939,
    "msprop": 2626,
    "Ġmisanthrop": 22758,
    "Ġwill": 677,
    "Ġresp": 2495,
    "and": 372,
    "Ġunwritten": 22032,
    "Ġhugh": 15004,
    "Ġunconcern": 14116,
    "unt": 2043,
    "ĉ": 202,
    "Ġcandelabra": 26601,
    "squee": 15428,
    "Ġessays": 19742,
    "casks": 20400,
    "Ġfagged": 17883,
    "Ġisrael": 21801,
    "ĠĠĠĠĠĠĠĠĠĠĠĠĠĠĠĠĠĠĠĠĠĠĠĠĠĠĠĠĠĠĠĠĠĠĠĠĠĠĠ": 19258,
    "Ġslaughter": 20729,
    "consequ": 18506,
    "Ġcomple": 2843,
    "Ġdavis": 25952,
    "characteristic": 24684,
    "Ġcreat": 1385,
    "eches": 8077,
    "Ġent": 901,
    "Ġgrecian": 26296,
    "Ġkent": 6691,
    "Ġgrizz": 10351,
    "Ġrespond": 11176,
    "Ġfurs": 18739,
    "Ġby": 383,
    "Ġenters": 11024,
    "created": 12447,
    "Ġanyhow": 14254,
    "bordered": 17497,
    "anced": 1248,
    "Ġchrist": 4074,
    "separation": 25226,
    "Ġcast": 3602,
    "cription": 20817,
    "gather": 20874,
    "Ġdoct": 4455,
    "Ġeleg": 6192,
    "vig": 15444,
    "Ġchamp": 18380,
    "Ġgazed": 6477,
    "Ġtinted": 13820,
    "Ġlandsc": 11145,
    "Ġemigrant": 25859,
    "Ġclever": 7053,
    "Ġmoved": 4839,
    "Ġmountains": 4426,
    "Ġbrush": 17865,
    "Ġthink": 987,
    "appl": 9324,
    "Ġrepent": 9861,
    "Ġheredit": 9215,
    "Ġharpooning": 23977,
    "jephro": 26391,
    "Ġterrors": 6918,
    "frankenstein": 11391,
    "Ġmayhap": 18707,
    "stirring": 20423,
    "Ġregain": 22578,
    "wrapped": 15208,
    "Ġvines": 12744,
    "Ġcataract": 23427,
    "Ġconstraint": 16513,
    "Ġdoubt": 2222,
    "Ġcircumnavigating": 25614,
    "children": 9054,
    "Ġqueen": 3214,
    "Ġglist": 9343,
    "====": 1485,
    "Ġcombination": 22859,
    "firm": 10697,
    "Ġsick": 4692,
    "Ġalternate": 19983,
    "Ġforget": 2635,
    "inex": 14090,
    "roll": 9195,
    "Ġportents": 14679,
    "Ġbeaks": 21753,
    "Ġregularly": 7656,
    "astern": 8579,
    "Ġandrew": 21505,
    "adventure": 17232,
    "ath": 861,
    "Ġabund": 8863,
    "Ġowe": 8114,
    "entitled": 21566,
    "Ġfounded": 8555,
    "Ġhydraulic": 10062,
    "Ġcrushing": 20174,
    "Ġporter": 15607,
    "Ġexcuses": 19041,
    "Ġcomput": 602,
    "Ġwast": 21858,
    "Ġig": 3500,
    "Ġaghast": 16043,
    "Ġcollect": 7236,
    "chants": 21690,
    "Ġinequal": 21495,
    "buncle": 13690,
    "Ġdiscove": 16152,
    "enesis": 24388,
    "presents": 18800,
    "quin": 21845,
    "Ġsnake": 12058,
    "Ġobsequ": 14319,
    "bishop": 13692,
    "ó": 180,
    "lady": 4432,
    "Ġsame": 1341,
    "immediately": 10047,
    "Ġpositively": 13027,
    "catherine": 7126,
    "iem": 20916,
    "feature": 4232,
    "Ġpolitical": 19222,
    "Ġtendency": 11329,
    "wick": 5362,
    "Ġtoast": 21510,
    "Ġasiatic": 20427,
    "Ġminimax": 5857,
    "Ġmorbidness": 20627,
    "Ġnantucketers": 9893,
    "Ġgl": 1256,
    "Ġaqu": 17742,
    "Ġ130": 24781,
    "Ġagile": 22511,
    "summer": 11990,
    "live": 7549,
    "ulate": 5233,
    "Ġdistinction": 8884,
    "Ġdirect": 1475,
    "Ġmississippi": 20724,
    "force": 12955,
    "Ġmagical": 23099,
    "Ġgodlike": 23355,
    "Ġwonder": 2117,
    "Ġculprit": 26172,
    "Ġpleated": 16295,
    "declaration": 25175,
    "burn": 8370,
    "osis": 18389,
    "Ġeyelids": 26107,
    "aside": 10190,
    "Ġhousekeeping": 18943,
    "Ġblossom": 26312,
    "Ġoaken": 13863,
    "itative": 13868,
    "Ġindicated": 10468,
    "Ġbeacon": 21754,
    "pul": 8753,
    "Ġcler": 11768,
    "abhor": 12703,
    "Ġpiqu": 21476,
    "Ġchinks": 22249,
    "Ġsaturday": 6451,
    "Ġimmured": 24069,
    "Ġexulting": 20255,
    "craft": 12243,
    "Ġcommons": 22670,
    "Ġinst": 910,
    "Ġtumble": 16878,
    "Ġridicule": 13510,
    "Ġmovement": 9966,
    "Ġdisse": 18547,
    "herself": 4890,
    "Ġapproximate": 2343,
    "Ġhorsham": 10405,
    "Ġcl": 553,
    "Ġabaft": 22272,
    "bree": 15312,
    "Ġoh": 2174,
    "fever": 22500,
    "Ġdrinks": 24279,
    "Ġdotted": 16791,
    "Ġembrace": 16989,
    "rict": 8092,
    "Ġbegging": 11078,
    "prisoner": 20542,
    "je": 11495,
    "Ġintrusion": 12761,
    "Ġmol": 12557,
    "say": 3982,
    "public": 17645,
    "is": 280,
    "Ġunconditional": 15841,
    "county": 25396,
    "Ġinstinctively": 13457,
    "runs": 25415,
    "j": 78,
    "Ġdifferences": 18715,
    "Ġsavagely": 26323,
    "Ġdynamic": 5122,
    "Ġdiameter": 19864,
    "Ġinherited": 25353,
    "machine": 948,
    "mel": 9126,
    "ping": 9614,
    "umps": 6316,
    "Ġbolivia": 24668,
    "vineyard": 25421,
    "Ġfoolish": 5979,
    "permission": 15895,
    "Ġhauled": 11692,
    "Ġsanta": 26419,
    "now": 549,
    "second": 6542,
    "Ġcirculation": 16413,
    "hopper": 23714,
    "Ġjapan": 7638,
    "Ġgreek": 10629,
    "Ģ": 227,
    "mess": 13751,
    "Ġdost": 7635,
    "Ġinterrupted": 6342,
    "Ġstruggling": 12071,
    "Ġpicked": 6340,
    "Ġpredef": 18540,
    "ientiously": 21931,
    "Ġstructures": 2720,
    "Ġawake": 8271,
    "Ġpanthe": 19651,
    "bouton": 17500,
    "masters": 16833,
    "Ġbedrooms": 19967,
    "Ġerad": 25028,
    "Ġaccounts": 7206,
    "Ġdanced": 7842,
    "Ġparts": 4166,
    "conceal": 25114,
    "ksome": 10103,
    "lives": 12482,
    "Ġmill": 6666,
    "Ġtalent": 12294,
    "Ġfatigued": 13463,
    "apparatus": 26562,
    "Ġoppressed": 11189,
    "noted": 22748,
    "Ġlucky": 7758,
    "Ġsnug": 8279,
    "jerked": 25618,
    "adow": 18088,
    "Ġremorselessly": 16965,
    "Ġrebellion": 26474,
    "renewed": 19702,
    "Ġmarch": 4084,
    "jar": 17576,
    "Ġfires": 16470,
    "Ġpainted": 7978,
    "kne": 20934,
    "mad": 5280,
    "Ġproportion": 7280,
    "Ġfare": 5809,
    "Ġstanders": 19013,
    "Ġdial": 10809,
    "attention": 2109,
    "eternal": 17983,
    "Ġirresolution": 24915,
    "wonder": 6370,
    "Ġemperor": 15157,
    "Ġrolls": 8333,
    "Ġincognita": 26550,
    "Ġorange": 8485,
    "Ġpest": 13911,
    "Ġjuly": 17235,
    "kindred": 24047,
    "Ġthem": 639,
    "Ġsling": 21219,
    "itarian": 21335,
    "Ġgladly": 14681,
    "Ġnormalization": 1243,
    "thinks": 16640,
    "bewil": 22495,
    "deserted": 18958,
    "loud": 11500,
    "Ġsociety": 3976,
    "Ġsubsets": 2347,
    "cious": 6643,
    "Ġhabitations": 24789,
    "Ġunintermitted": 26219,
    "Ġabout": 632,
    "pid": 1407,
    "express": 4895,
    "Ġado": 7625,
    "Ġfil": 3472,
    "follow": 5680,
    "woods": 13417,
    "Ġintolerable": 8480,
    "Ġdesertion": 24787,
    "spoutings": 25003,
    "read": 3276,
    "suited": 22644,
    "Ġinfinity": 23280,
    "Æ": 135,
    "icts": 22405,
    "Ġcrimson": 16439,
    "Ġnarrowly": 16819,
    "Ġadjacent": 20710,
    "confirmation": 26089,
    "Ġvibrated": 25045,
    "train": 2034,
    "fur": 6354,
    "Ġtransportation": 13640,
    "Ġpasture": 14543,
    "akened": 7414,
    "yset": 21144,
    "might": 4080,
    "inate": 6233,
    "Ġadvertised": 17246,
    "Ġdevoid": 18691,
    "Ġane": 9180,
    "trade": 19634,
    "Ġillustrate": 25065,
    "acency": 12904,
    "Ġnoisy": 13316,
    "Ġmisanthropic": 26559,
    "ortunities": 15937,
    "erity": 21266,
    "Ġfaithfulness": 24446,
    "oken": 4308,
    "Ġseclusion": 18207,
    "Ġpredicted": 2044,
    "Ġofficious": 19346,
    "_.,": 14561,
    "Ġsummit": 7730,
    "formation": 22214,
    "Ġperson": 2370,
    "Ġattempts": 10489,
    "acca": 23596,
    "ð": 177,
    "Ġescaping": 13133,
    "Ġunexpl": 22037,
    "Ġhor": 1663,
    "Ġrefresh": 10344,
    "Ġsheets": 9720,
    "Ġrattler": 24997,
    "Ġloving": 8175,
    "ced": 687,
    "Ġarist": 14159,
    "Ġinterpretation": 19714,
    "Ġknew": 2054,
    "Ġsweetly": 23917,
    "Ġpriest": 7525,
    "singular": 12185,
    "Ġextras": 22715,
    "Ġrival": 10484,
    "aning": 2252,
    "secure": 12232,
    "steel": 8298,
    "etus": 21576,
    "Ġgales": 12661,
    "Ġclung": 10957,
    "Ġdress": 4021,
    "Ġriverside": 25247,
    "conduct": 11795,
    "irty": 4050,
    "Ġresolve": 13168,
    "Ġgettest": 23235,
    "gences": 20876,
    "property": 19997,
    "ß": 160,
    "ots": 3296,
    "Ġfest": 10803,
    "thole": 21985,
    "Ġoutrages": 18415,
    "Ġundiscovered": 18253,
    "gings": 7548,
    "izar": 14041,
    "Ġhydraul": 9511,
    "Ġliar": 22406,
    "Ġi": 312,
    "Ġcountries": 13094,
    "har": 20889,
    "gan": 2197,
    "Ġfeels": 6882,
    "Ġfloundered": 18861,
    "Ġloun": 7165,
    "Ġcompanions": 5865,
    "Ġappar": 7410,
    "Ġnic": 7375,
    "Ġenvied": 19307,
    "nne": 20988,
    "amy": 8466,
    "Ġfleets": 23774,
    "Ġsul": 7569,
    "Ġfeet": 2257,
    "Ġincorporate": 20452,
    "Ġbare": 6132,
    "Ġcolonial": 22856,
    "Ġduration": 20351,
    "Ġsaturation": 2061,
    "Ġshuddering": 9050,
    "unwho": 21876,
    "Ġtriumphal": 24371,
    "worm": 15451,
    "threaten": 25461,
    "Ġfirmest": 16663,
    "boy": 4737,
    "dun": 17515,
    "Ġapparatus": 24908,
    "incredible": 16497,
    "Ġgen": 5296,
    "chamber": 13623,
    "determination": 19942,
    "Ġpanther": 16818,
    "Ġachieve": 3671,
    "nd": 11503,
    "Ġconsternation": 9857,
    "Ġmetropolitan": 17274,
    "Ġarabic": 24980,
    "Ġmates": 4872,
    "ogn": 2448,
    "Ġcautiousness": 19863,
    "Ġproportionably": 19968,
    "Ġbathed": 17866,
    "friends": 8305,
    "Ġmiracle": 15092,
    "¼": 125,
    "ad": 337,
    "Ġwouldst": 18501,
    "Ġconcernment": 23623,
    "Ġdomestic": 6910,
    "Ġglimpses": 13430,
    "vol": 737,
    "rows": 6441,
    "Ġideal": 13118,
    "Ġcomposure": 7216,
    "rippa": 11340,
    "hunting": 24385,
    "copy": 5133,
    "Ġinhale": 20298,
    "Ġmasses": 10502,
    "Ġcontempl": 6701,
    "Ġsaville": 15885,
    "Ġgovernor": 16489,
    "Ġrare": 7036,
    "Ġmonosy": 18849,
    "Ġmonomaniac": 9566,
    "Ġlets": 18064,
    "Ġladyship": 5046,
    "repaid": 24491,
    "isting": 5550,
    "humorously": 24018,
    "Ġplanning": 14750,
    "Ġevenness": 22834,
    "Ġcreatures": 4139,
    "Ġgrizzled": 11450,
    "Ġcommend": 10333,
    "iate": 6504,
    "rie": 2785,
    "Ġpriv": 4184,
    "Ġfiftieth": 24702,
    "vis": 4577,
    "ura": 1079,
    "Ġexpedite": 24953,
    "izes": 884,
    "Ġweeping": 11685,
    "ted": 793,
    "Ġforeheads": 23448,
    "Ġjelly": 22298,
    "elijah": 19471,
    "Ġentries": 22743,
    "Ġimprobable": 9792,
    "Ġsweetheart": 19393,
    "Ġmisfortunes": 7040,
    "acquaintance": 6938,
    "inary": 3275,
    "µ": 118,
    "Ġdrowned": 9549,
    "Ġround": 1369,
    "Ġmultiplied": 23690,
    "unk": 4539,
    "hamlet": 23263,
    "remorse": 14465,
    "Ġrequirements": 9789,
    "Ġconclusion": 5985,
    "prophet": 16176,
    "Ġsolution": 9805,
    "Ġtem": 806,
    "--": 1043,
    "ston": 15679,
    "shabb": 18488,
    "Ġenrapt": 21939,
    "thence": 23397,
    "inridge": 11560,
    "chemical": 23808,
    "inkles": 7425,
    "Ġshape": 5639,
    "T": 56,
    "Ġreserved": 7514,
    "onial": 11566,
    "Ġattaining": 15800,
    "acute": 22593,
    "anity": 9653,
    "Ġbracing": 16579,
    "esu": 17902,
    "Ġconnect": 799,
    "Ġmodified": 14166,
    "ors": 853,
    "Ġintelligent": 1418,
    "Ġshaster": 21997,
    "teness": 23204,
    "Ġsle": 2013,
    "treatment": 20409,
    "Ġinterpre": 1587,
    "Ġbuoyancy": 20039,
    "sperm": 5203,
    "Ġheavily": 6740,
    "Ġstiff": 6992,
    "isite": 15559,
    "Ġseems": 2483,
    "Ġsummary": 19401,
    "Ġmantelpiece": 15206,
    "Ġbaboon": 19691,
    "Ġoutright": 18413,
    "sar": 12501,
    "Ġstead": 5650,
    "Ġweltering": 19583,
    "wander": 17708,
    "trembling": 17141,
    "there": 1424,
    "cheerful": 13573,
    "Ġmoral": 6578,
    "Ġweeds": 21923,
    "pooh": 18802,
    "Ġeverlasting": 9335,
    "Ġquieted": 23841,
    "Ġbene": 2032,
    "Ġdeliver": 9848,
    "Ġclerval": 4653,
    "Ġclink": 22344,
    "Ġspectre": 16629,
    "Ġmaddening": 17242,
    "oubtedly": 6943,
    "unlike": 18157,
    "treat": 12510,
    "Ġsag": 6513,
    "Ġhanding": 16127,
    "Ġx": 2073,
    "insula": 23066,
    "Ġstatements": 7515,
    "shire": 3023,
    "rug": 18345,
    "Ġintimidated": 24805,
    "uberance": 25916,
    "Ġhappens": 2187,
    "Ġtalker": 23368,
    "grees": 20885,
    "goodbye": 12053,
    "Ġfamiliar": 5511,
    "Ġannual": 14831,
    "roqu": 21532,
    "Ġmotions": 8280,
    "Ġcritical": 7474,
    "Ġenables": 724,
    "Ġmed": 3985,
    "Ġstripped": 10464,
    "Ġpitied": 14691,
    "Ġtwisted": 7227,
    "Ġplanks": 5562,
    "billiard": 25334,
    "Ġstudded": 18974,
    "Ġbelongs": 8014,
    "Ġupwards": 7632,
    "Ġbetween": 794,
    "frozen": 25139,
    "inexplicable": 25808,
    "Ġcurt": 18843,
    "Ġpurple": 10432,
    "Ġgurglings": 26464,
    "Ġsurvivors": 25732,
    "sort": 6798,
    "Ġhalyards": 21492,
    "Ġcandles": 9906,
    "Ġasyl": 12730,
    "prevailed": 17343,
    "furn": 10090,
    "Ġputting": 5326,
    "quimaux": 21851,
    "opes": 10309,
    "Ã": 132,
    "Ġdoubtless": 6195,
    "authority": 13589,
    "orial": 8416,
    "Ġnewton": 3531,
    "Ġpurplish": 19140,
    "obser": 11098,
    "Ġproceed": 3243,
    "Ġimpenet": 14218,
    "Ġscr": 11758,
    "Ġethiop": 26155,
    "Ġflexible": 23775,
    "Ġwardrobe": 17224,
    "Ġnoiselessly": 22865,
    "Ġstrangers": 8313,
    "Ġdistance": 3483,
    "Ġscales": 4849,
    "ort": 522,
    "Ġbaff": 10798,
    "Ġemploys": 19429,
    "Ġrevolutionized": 3366,
    "Ġgreatness": 12940,
    "pets": 17635,
    "Ġdisgust": 6705,
    "Ġdevoting": 22735,
    "Ġinspirited": 23420,
    "Ġdeceitfulness": 25734,
    "Ġcharacteristics": 8609,
    "matters": 14873,
    "leading": 15558,
    "Ġweap": 6155,
    "ascribed": 24707,
    "miserable": 8656,
    "shoulders": 16583,
    "Ġrecommended": 8667,
    "stolidity": 21661,
    "Ġsolace": 16198,
    "Ġseemingly": 9316,
    "Ġpulse": 13112,
    "heeded": 13832,
    "Ġrefusing": 11027,
    "Ġretire": 10380,
    "iour": 4038,
    "Ġreminded": 9997,
    "itting": 1153,
    "swam": 24254,
    "Ġmechanically": 14397,
    "usoid": 4766,
    "Ġconsidering": 4615,
    "Ġsetbacks": 11062,
    "Ġdragg": 23214,
    "Ġcomment": 9231,
    "Ġshutter": 16669,
    "Ġbug": 11588,
    "Ġappeal": 16313,
    "Ġprovoking": 16742,
    "stem": 566,
    "emin": 8468,
    "Ġingenious": 12345,
    "Ġrascal": 11699,
    "Ġgenerates": 3662,
    "Ġnimble": 21526,
    "Ġburton": 23656,
    "talk": 6656,
    "Ġlodgings": 8311,
    "occupied": 12301,
    "Ġsqualidness": 25842,
    "ers": 406,
    "Ġsmiling": 5475,
    "icacy": 15654,
    "Ġ1950": 11359,
    "Ġcomputation": 968,
    "Ġanxiously": 8289,
    "Ġdinnertime": 16718,
    "Ġkitty": 3909,
    "Ġnecessarily": 13246,
    "Ġcountryside": 23595,
    "Ġcommanding": 16589,
    "Ġprobably": 4315,
    "Ġspar": 10920,
    "oriental": 23720,
    "Ġvint": 18195,
    "Ġdus": 8422,
    "mere": 11853,
    "Ġdecks": 6900,
    "Ġineff": 12630,
    "Ġhave": 444,
    "recol": 10149,
    "rawling": 21634,
    "Ġparamount": 15875,
    "Ġpillows": 24988,
    "Ġingrat": 16839,
    "Ġforster": 5230,
    "izard": 10878,
    "Ġknowest": 12859,
    "Ġimpelling": 22383,
    "matical": 13127,
    "ould": 427,
    "Ġhonour": 3921,
    "hereditary": 26418,
    "imod": 15706,
    "benefit": 24643,
    "Ġsow": 17749,
    "ieged": 22577,
    "fetch": 12461,
    "outon": 12799,
    "Ġpredictions": 1457,
    "Ġpruning": 18970,
    "Ġrect": 18026,
    "Ġexpatiate": 18624,
    "Ġconfirming": 25321,
    "ologically": 22864,
    "Ġsprain": 18305,
    "comprehend": 14357,
    "Ġunprovided": 18261,
    "ĺ": 251,
    "infliction": 25924,
    "Ġconcl": 5095,
    "myself": 5113,
    "Ġreveries": 11346,
    "Ġsupplication": 25491,
    "coarse": 16486,
    "400": 20754,
    "andish": 18154,
    "prove": 11146,
    "Ġbizarre": 17872,
    "asper": 7854,
    "Ġabatement": 22274,
    "immed": 9216,
    "spears": 23940,
    "Ġsemblance": 20733,
    "Ġeveryone": 8916,
    "Ġsystem": 573,
    "Ġinstance": 2546,
    "Ġfoolishly": 19779,
    "Ġcandidates": 4334,
    "Ġexclamations": 11361,
    "inglass": 21301,
    "astrop": 3316,
    "Ġconcise": 23320,
    "count": 4216,
    "aid": 1921,
    "Ġcategorization": 12133,
    "atics": 15520,
    "favouring": 24762,
    "Ġwhit": 7176,
    "subjects": 19874,
    "Ġsouthampton": 24307,
    "Ġporus": 24398,
    "search": 8463,
    "Ġlam": 21547,
    "cture": 15661,
    "itudes": 3016,
    "ish": 551,
    "Ġstream": 5186,
    "Ġband": 5290,
    "Ġneedless": 19229,
    "ning": 950,
    "ahit": 9379,
    "Ġpuzzling": 14895,
    "Ġbroom": 18906,
    "deacon": 22145,
    "Ġremo": 3784,
    "rence": 5554,
    "Ġrid": 4355,
    "jud": 4482,
    "distraction": 24200,
    "Ġcloser": 8659,
    "Ġcynicism": 25771,
    "Ġbarbs": 10530,
    "pardon": 10063,
    "asol": 21538,
    "Ġfigures": 8629,
    "cnns": 3617,
    "Ġfurnished": 6474,
    "Ġphys": 5653,
    "clings": 23152,
    "Ġunsuccessful": 18258,
    "bastian": 10672,
    ".âĢĶ": 4251,
    "Ġcrescentic": 20619,
    "Ġbade": 9170,
    "attributed": 23122,
    "gaz": 20877,
    "Ġneatly": 17015,
    "unquiet": 21880,
    "elstrom": 17982,
    "Ġlate": 3376,
    "Ġbrazier": 26320,
    "Ġgenerously": 22392,
    "output": 4401,
    "despair": 8343,
    "ming": 3597,
    "Ġfeminine": 15261,
    "tin": 6116,
    "Ġmotives": 7485,
    "Ġmarbank": 23034,
    "Ġnail": 9194,
    "Ġinstantaneously": 23661,
    "Ġtroublesome": 24000,
    "terns": 21820,
    "odd": 21807,
    "mering": 12487,
    "Ġinvestigation": 9041,
    "Ġtranspointed": 22438,
    "bo": 1692,
    "ateful": 5927,
    "Ġwhaleboats": 18478,
    "Ġgag": 21591,
    "Ġmaid": 5285,
    "Ġ1778": 25730,
    "Ġblast": 7444,
    "welt": 12517,
    "nder": 20986,
    "arling": 10813,
    "Ġmodern": 3212,
    "onement": 21255,
    "Ġjo": 2610,
    "onomy": 12543,
    "ħ": 232,
    "Ġsaying": 3244,
    "Ġreserve": 9969,
    "Ġfloat": 12029,
    "ĠĠĠĠĠĠĠĠĠĠĠĠĠĠĠĠĠĠĠĠĠĠĠĠĠĠĠĠĠĠĠĠĠĠĠĠĠĠĠĠĠĠĠĠĠĠ": 9951,
    "attend": 11100,
    "Ġdashed": 6009,
    "Ġrevolving": 9981,
    "Ġaud": 6661,
    "800": 17475,
    "horrible": 14600,
    "attracted": 13047,
    "consternation": 16924,
    "asion": 5714,
    "supp": 4163,
    "Ġmungo": 25631,
    "Ġerud": 20052,
    "Ġsyn": 15909,
    "icating": 15651,
    "Ġpairs": 4183,
    "bore": 13684,
    "Ġpupp": 10819,
    "asleep": 21542,
    "vic": 13800,
    "Ġextent": 7654,
    "Ġgu": 1328,
    "hee": 10759,
    "writ": 16551,
    "Ġactivity": 7920,
    "Ġsavannah": 17414,
    "Ġconceals": 23902,
    "Ġshift": 2281,
    "Ġgrain": 15828,
    "Ġpinch": 15016,
    "Ġhapp": 1087,
    "Ġtimes": 2302,
    "Ġentic": 16142,
    "Ġsnatch": 14639,
    "Ġgranite": 22809,
    "Ġsharpened": 17363,
    "already": 6980,
    "rap": 21626,
    "ordered": 8788,
    "Ġkings": 7196,
    "scotland": 20526,
    "Ġgravely": 7883,
    "itia": 11578,
    "Ġcontrolled": 23252,
    "ulsive": 10232,
    "Ġagric": 22513,
    "fainting": 20470,
    "Ġindisp": 18833,
    "Ġtrading": 23076,
    "Ġagrees": 22514,
    "awing": 18915,
    "Ġcasualty": 20339,
    "urmountable": 15277,
    "Ġveget": 11884,
    "Ġsewing": 21953,
    "Ġdisregarded": 22528,
    "Ġrending": 19465,
    "Ġalien": 14016,
    "Ġrestraint": 15126,
    "Ġvexation": 10585,
    "attacked": 23123,
    "Ġ64": 24367,
    "inement": 11557,
    "Ġflap": 14421,
    "Ġirrad": 19093,
    "Ġfeelings": 2454,
    "pride": 11210,
    "Ġstoke": 10394,
    "Ġcrazy": 8592,
    "Ġheat": 5453,
    "culiarity": 11140,
    "Ġhearth": 11978,
    "Ġdismally": 20212,
    "Ġowen": 15093,
    "Ġsoliloquized": 17300,
    "plish": 18209,
    "Ġ10": 5249,
    "Ġadmirers": 19684,
    "Ġsledge": 8110,
    "unaccountable": 15775,
    "efficient": 2871,
    "Ġcorrupt": 11921,
    "Ġdescribing": 19253,
    "Ġelevating": 19726,
    "shore": 10304,
    "Ġstriking": 6089,
    "since": 5895,
    "tide": 11532,
    "Ġdu": 4584,
    "Ġpossessions": 23823,
    "Ġhealthy": 10850,
    "Ġfinest": 10391,
    "pread": 7418,
    "Ġspars": 3808,
    "Ġtub": 7145,
    "right": 2769,
    "Ġwhaleman": 4654,
    "Ġdisobey": 18558,
    "despond": 19798,
    "Ġsymptoms": 8704,
    "Ġtoss": 10183,
    "follows": 24528,
    "Ġpsych": 10175,
    "Ġbrief": 6976,
    "Ġ110": 24435,
    "slouched": 24557,
    "Ġreflecting": 24751,
    "christian": 17231,
    "Ġexhaled": 19680,
    "Ġwait": 4910,
    "inj": 9150,
    "Ġabominable": 12319,
    "Ġbil": 15561,
    "Ġseasonable": 24406,
    "Ġnaught": 8127,
    "uniform": 18158,
    "certainly": 5339,
    "revol": 12536,
    "confess": 12172,
    "Ġender": 11689,
    "Ġbeth": 9656,
    "fedallah": 25522,
    "Ġ67": 19658,
    "Ġinfancy": 10408,
    "Ġcontinue": 5398,
    "disreputable": 23502,
    "Ġjeer": 24123,
    "Ġowning": 18744,
    "Ġtremulous": 14985,
    "Ġconjure": 17122,
    "Ë": 140,
    "Ġpopularly": 12238,
    "mpt": 6653,
    "older": 15752,
    "chairs": 21691,
    "giana": 7800,
    "erted": 7360,
    "Ġstumble": 26482,
    "Ġprincip": 5599,
    "Ġsweeping": 8984,
    "Ġwapping": 21293,
    "Ġdismantled": 20214,
    "doctor": 19095,
    "Ġglued": 20587,
    "rudence": 7091,
    "Ġspoilt": 24807,
    "twill": 21073,
    "Ġexterior": 19985,
    "Ġparch": 11724,
    "Ġconstitutes": 13550,
    "Ġforests": 13590,
    "someone": 14563,
    "Ġpeevish": 26556,
    "squall": 13520,
    "moored": 22705,
    "Ġhorse": 4724,
    "Ġtorment": 8673,
    "Ġcuff": 17830,
    "Ġtennessee": 26595,
    "Ġindications": 14632,
    "jammed": 25906,
    "shish": 11791,
    "sense": 11523,
    "Ġinvesting": 19644,
    "reds": 12749,
    "Ġprosecut": 9697,
    "actorily": 25576,
    "visible": 10532,
    "Ġmanifested": 17156,
    "Ġasp": 15777,
    "Ġschedu": 1820,
    "partly": 14602,
    "precip": 14664,
    "Ġdevoured": 16135,
    "Ġhomely": 25219,
    "cloud": 11105,
    "Ġexecuted": 9469,
    "Ġlandless": 23376,
    "yt": 17710,
    "intellect": 18821,
    "oors": 17619,
    "nobody": 16143,
    "Ġsuns": 23274,
    "Ġmuhammad": 26169,
    "Ġgra": 415,
    "rudent": 6481,
    "about": 3584,
    "sure": 5522,
    "regulated": 23467,
    "totally": 25417,
    "Ġinvaders": 23480,
    "Ġdelayed": 9515,
    "Ġnational": 13940,
    "arter": 17894,
    "Ġmarshy": 20216,
    "Ġballasted": 23978,
    "Ġuncommonly": 7759,
    "Ġdocuments": 10021,
    "Ġ184": 16606,
    "Ġdro": 2771,
    "solved": 7684,
    "ipotent": 10959,
    "incess": 15480,
    "Ġarray": 12805,
    "arctic": 12606,
    "eteenth": 20155,
    "Ġspeak": 2228,
    "gun": 10095,
    "Ġbraced": 16578,
    "eel": 11483,
    "Ġalternately": 15031,
    "Ġslipper": 24265,
    "Ġparticulars": 5754,
    "wled": 15452,
    "government": 25406,
    "Ġdesper": 6176,
    "Ġreasonable": 7250,
    "mph": 20971,
    "Ñ": 146,
    "supportable": 12367,
    "aphys": 15200,
    "ounts": 4651,
    "Ġcontemptuous": 24677,
    "Ġsl": 1499,
    "Ġaltering": 18103,
    "Ġundulates": 24118,
    "harpoons": 24285,
    "Ġdigging": 14937,
    "Ġfortunately": 12176,
    "Ġreve": 2933,
    "Ġarriving": 19216,
    "Ġseek": 4509,
    "uming": 8490,
    "Ġcanst": 8856,
    "atively": 2697,
    "Ġabilities": 8865,
    "Ġparsee": 6412,
    "Ġwaiting": 4325,
    "Ġsuggest": 5417,
    "Ġgnarled": 25165,
    "abetical": 15739,
    "Ġprophes": 16345,
    "vation": 4743,
    "reserved": 13841,
    "ance": 478,
    "orrah": 17876,
    "Ġsubordinate": 18722,
    "Ġtouched": 6000,
    "Ġmutters": 23954,
    "Ġillum": 9397,
    "Ġhimself": 1351,
    "Ġelegance": 11332,
    "wis": 12515,
    "Ġgans": 5821,
    "Ġprocure": 9507,
    "ĠâĢľ": 516,
    "mercenary": 26315,
    "Ġconfess": 3765,
    "Ġdut": 2990,
    "gu": 3955,
    "Ġembod": 14418,
    "Ġwhip": 8450,
    "burning": 25078,
    "ifiable": 18164,
    "Ġyarman": 12701,
    "Ġoccur": 1080,
    "Ġbrah": 19355,
    "icted": 5937,
    "dum": 17517,
    "Ġsize": 1216,
    "Ġtiara": 26414,
    "spring": 7229,
    "Ġaddition": 1148,
    "osal": 11757,
    "Ġinflexibly": 26370,
    "Ġassert": 7119,
    "Ġgent": 7382,
    "Ġpurposes": 11168,
    "Ġshaped": 15831,
    "Ġdazzling": 15210,
    "co": 2434,
    "Ġdamn": 11157,
    "emotion": 21927,
    "Ġmurdered": 6463,
    "Ġaccounting": 14572,
    "Ġsemantic": 1956,
    "Ġponder": 6819,
    "Ġmaster": 3679,
    "quadr": 15760,
    "Ġbrid": 6289,
    "Ġhob": 12625,
    "Ġmicha": 17812,
    "Ġnon": 1628,
    "alyards": 18773,
    "Ġunjustifiable": 25109,
    "Ġlobster": 11389,
    "Ġsummers": 23872,
    "Ġclothing": 18423,
    "Ġsk": 962,
    "Ġfast": 1716,
    "Ġ121": 24466,
    "ef": 5134,
    "Ġcastaways": 19426,
    "gage": 13722,
    "Ġpens": 21459,
    "Ġsimilarity": 3169,
    "Ġfrequ": 3328,
    "clu": 20798,
    "oon": 6363,
    "Ġimmovable": 15889,
    "erated": 21270,
    "Ġass": 1506,
    "Ġmarvel": 23032,
    "bearer": 18518,
    "proportion": 16177,
    "carry": 19525,
    "ills": 1633,
    "Ġoverladen": 22364,
    "longbourn": 9894,
    "insensibility": 23069,
    "erce": 6126,
    "Ġsincerely": 7962,
    "Ġdisgraceful": 15019,
    "vint": 21113,
    "Ġoptimizers": 18620,
    "Ġcoward": 7154,
    "Ġtry": 3136,
    "Ġchast": 18379,
    "Ġphara": 23199,
    "fastened": 19324,
    "Ġamusements": 16911,
    "Ġadjusted": 23458,
    "Ġgrim": 7440,
    "Ġsinusoid": 4780,
    "Ġguide": 3217,
    "ą": 198,
    "track": 24314,
    "icult": 3341,
    "oquence": 11386,
    "face": 3675,
    "âĢľ_": 5720,
    "Ġrebell": 21667,
    "Ġmildness": 9942,
    "asy": 5294,
    "raid": 3280,
    "Ġconstable": 19068,
    "urbed": 15705,
    "ate": 422,
    "uvian": 12239,
    "door": 6193,
    "Ġdrought": 19277,
    "I": 45,
    "Ġforbe": 8456,
    "ribution": 14303,
    "morland": 24152,
    "Ġguernsey": 9349,
    "Ġdebility": 24272,
    "Ġapprehension": 7112,
    "Ġpinioned": 21481,
    "Ġlacey": 10196,
    "Ġvisit": 2584,
    "gratulation": 24349,
    "Ġcherry": 16934,
    "moreover": 12965,
    "blocks": 25517,
    "Ġcomply": 8890,
    "Ġdollar": 25283,
    "Ġcustom": 5078,
    "Ġright": 1507,
    "distressed": 24199,
    "canst": 22960,
    "arded": 5029,
    "hullo": 17569,
    "Ġpaddock": 25037,
    "occasion": 7753,
    "Ġdilated": 24703,
    "Ġheiress": 20696,
    "Ġaddresses": 3767,
    "Ġtempered": 12919,
    "Ġpastures": 23419,
    "Ġinsol": 10179,
    "Ġyawning": 12297,
    "member": 20974,
    "Ġinconceivable": 17938,
    "Ġcogent": 14273,
    "kins": 7344,
    "clergyman": 20728,
    "Ġtreacher": 8603,
    "Ġfrigate": 13079,
    "Ġsombre": 18859,
    "Ġpatterns": 1213,
    "rador": 19158,
    "Ġtext": 2267,
    "Ġ91": 24591,
    "Ġborder": 10168,
    ".*": 7330,
    "cor": 5520,
    "ouching": 13175,
    "dependence": 17166,
    "ensing": 12892,
    "Ġissued": 10598,
    "mentioned": 10622,
    "Ġobjects": 5577,
    "Ġknows": 4161,
    "Ġpersu": 3561,
    "Ġterribly": 10424,
    "Ġfashions": 17886,
    "Ġyields": 19654,
    "deemed": 18315,
    "Ġcustomary": 8669,
    "100": 11464,
    "fters": 20860,
    "Ġembarked": 17133,
    "Ġendeavouring": 8034,
    "dirty": 20833,
    "adequately": 20317,
    "ation": 320,
    "if": 376,
    "Ġslaves": 23166,
    "Ġempires": 19073,
    "disgraceful": 26076,
    "Ġolive": 12561,
    "Ġentitled": 8537,
    "ality": 2512,
    "Ġpurring": 23475,
    "Ġeurope": 8061,
    "Ġensl": 19273,
    "Ġtreasure": 9556,
    "Ġlambton": 10656,
    "plexion": 14262,
    "Ġtracks": 18889,
    "bid": 5610,
    "pitching": 24073,
    "Ġpushing": 10818,
    "Ġeternally": 11369,
    "ical": 753,
    "previously": 17206,
    "Ġcomforters": 25800,
    "Ġbressed": 21385,
    "rage": 10842,
    "person": 7745,
    "Ġinternal": 2245,
    "part": 2574,
    "eked": 16399,
    "Ġalready": 2713,
    "Ġarrived": 3745,
    "//": 11463,
    "Ġpo": 736,
    "Ġegyptians": 25289,
    "Ġtiar": 21166,
    "Ġcased": 21344,
    "scans": 22986,
    "Ġarctic": 12806,
    "Ġlodged": 11252,
    "shells": 26056,
    "F": 42,
    "baggage": 24926,
    "zed": 8103,
    "Ġfeeding": 7971,
    "sixteen": 24853,
    "Ġhey": 11640,
    "gate": 12463,
    "Ġprognostics": 20557,
    "Ġexhibit": 14954,
    "Ġsuggested": 8320,
    "Ġclay": 7018,
    "Ġflorid": 17134,
    "gratification": 24348,
    "Ġtranquo": 14842,
    "ffy": 18316,
    "Ġlazarus": 15028,
    "Ġobliged": 4288,
    "Ġsincere": 11135,
    "Ġaccounted": 10293,
    "Ġdelic": 4136,
    "Ġdecency": 18489,
    "Ġembeddings": 2306,
    "rom": 420,
    "Ġtantalizing": 20411,
    "ops": 5247,
    "Ġfathers": 16294,
    "Ġinflu": 4907,
    "Ġlightness": 23261,
    "Ġconversation": 3330,
    "Ġmontan": 22980,
    "spikes": 10339,
    "Ġconcluded": 5658,
    "Ġtang": 13812,
    "Ġpermission": 9277,
    "Ġsting": 10860,
    "Ġhappening": 14382,
    "Ġcomputing": 2219,
    "Ġmexico": 15278,
    "elephant": 12348,
    "harm": 13733,
    "abern": 21787,
    "Ġapparently": 6778,
    "Ġfoolscap": 24158,
    "Ġdeceive": 12718,
    "Ġcheshire": 13087,
    "Ġdisappeared": 5645,
    "sailing": 14713,
    "tered": 2229,
    "Ġprodigy": 19789,
    "Ġcorn": 9348,
    "Ġstunsail": 25543,
    "Ġcursory": 18848,
    "Ġumb": 11645,
    "Ġpledged": 20686,
    "Ġsuccess": 3606,
    "ouring": 6419,
    "adieu": 26200,
    "Ġevery": 925,
    "Ġequin": 14495,
    "Ġnoted": 15827,
    "mber": 7803,
    "ĠĠĠĠĠĠĠĠĠĠĠĠĠĠĠĠĠĠĠĠĠĠĠĠĠ": 24442,
    "Ġunknown": 4453,
    "circumstantial": 24444,
    "Ġdo": 510,
    "Ġskewer": 19618,
    "Ġforesight": 13126,
    "Ġrustling": 24714,
    "Ġdepend": 788,
    "Ġfoundations": 11072,
    "Ġdecay": 1012,
    "Ġgods": 6453,
    "Ġdiminished": 16664,
    "Ġseethings": 26502,
    "Ġlestrade": 5824,
    "circumstance": 7763,
    "Ġinvisibly": 24817,
    "Ġgangway": 20156,
    "dropping": 14981,
    "Ġxliv": 23408,
    "Ġunce": 11709,
    "Ġsolemn": 4101,
    "uger": 21102,
    "Ġobliter": 14321,
    "Ġendured": 6073,
    "Ġtr": 555,
    "arranged": 19318,
    "globe": 25142,
    "Ġimproved": 7655,
    "Ġplough": 18608,
    "knife": 6942,
    "ale": 504,
    "Ġrighted": 23178,
    "concerned": 24584,
    "holder": 13278,
    "Ġsatisfy": 6912,
    "ree": 872,
    "Ġproportions": 16466,
    "Ġgoverned": 23568,
    "Ġmincer": 14364,
    "Ġconnex": 10664,
    "clump": 23155,
    "Ġtheoretic": 23309,
    "esty": 4307,
    "Ġflukes": 5266,
    "ud": 914,
    "Ġusage": 9728,
    "Ġcompanies": 14557,
    "haz": 17563,
    "Ġboscombe": 8325,
    "Ġquiver": 16000,
    "surrounded": 26088,
    "Ġahead": 6662,
    "Ġfainted": 8790,
    "Ġpleasantly": 14519,
    "Ġalleys": 25978,
    "Ġghost": 6142,
    "Ġcrab": 13142,
    "woes": 21132,
    "Ġmorality": 22970,
    "Ġlovers": 9718,
    "Ġevolved": 9890,
    "Ġpearl": 20374,
    "Ġrussian": 14349,
    "Ġken": 22189,
    "Ġverte": 9438,
    "attachment": 13048,
    "extric": 22772,
    "Ġunexampled": 20357,
    "Ġintegrated": 13529,
    "snap": 24848,
    "ast": 472,
    "covering": 15332,
    "Ġdavy": 25951,
    "Ġmaterial": 5178,
    "berg": 11856,
    "Ġindomitableness": 26570,
    "Ġexec": 19491,
    "Ġbrew": 23342,
    "Ġsad": 3866,
    "Ġmeek": 21810,
    "maybe": 23989,
    "Ġunworthy": 11713,
    "choice": 21689,
    "Ġbeneath": 3238,
    "Ġimpotent": 18447,
    "extremely": 26264,
    "Ġappertain": 22217,
    "Ġherein": 16188,
    "eskye": 21449,
    "Ġrandomly": 1920,
    "Ġ270": 25130,
    "Ġretains": 20027,
    "occupations": 24966,
    "Ġbackwater": 18641,
    "Ġoat": 21321,
    "rope": 3187,
    "Ġput": 1796,
    "Ġimpatiently": 8337,
    "Ġdisposition": 5409,
    "Ġvoluntarily": 12137,
    "Ġimproving": 1210,
    "Ġpatient": 6893,
    "Ġnetwork": 453,
    "hero": 21203,
    "circumspect": 26086,
    "listener": 24930,
    "Ą": 197,
    "Ġbos": 4875,
    "Ġrace": 5847,
    "ignantly": 23266,
    "table": 5795,
    "Ġfriend": 1296,
    "gall": 6358,
    "adr": 6994,
    "Ġhark": 8427,
    "Ġposition": 1952,
    "Ġdevious": 22734,
    "ends": 6038,
    "Ġtoday": 12639,
    "Ġhaunt": 18198,
    "crat": 24096,
    "robust": 19725,
    "rush": 7010,
    "âĢ": 294,
    "retrie": 18922,
    "inioned": 19285,
    "Ġheeded": 13401,
    "achalot": 15858,
    "reated": 10301,
    "Ġcrawl": 11375,
    "meet": 11854,
    "Ġlingu": 11613,
    "burned": 25079,
    "replied": 11565,
    "Ġens": 2786,
    "Ġincommod": 25307,
    "food": 12460,
    "Ġbarnacled": 25536,
    "call": 8722,
    "Ġclam": 7415,
    "Ġbriony": 9327,
    "Ġlawyer": 10667,
    "Ġvariety": 8529,
    "Ġliable": 14228,
    "Ġdead": 2169,
    "Ġchained": 16384,
    "glanced": 19364,
    "Ġsurgeons": 23464,
    "Ġaudible": 19879,
    "entials": 22662,
    "quer": 11677,
    "Ġcloak": 9531,
    "Ġagon": 10319,
    "hement": 13830,
    "alid": 13933,
    "Ġelud": 22640,
    "Ġspies": 22126,
    "Ġsam": 7568,
    "Ġtended": 21165,
    "otics": 10222,
    "ke": 429,
    "Ġsteer": 10385,
    "Ġpeople": 2545,
    "Ġsplin": 8618,
    "watson": 12240,
    "Ġbor": 5804,
    "bony": 15317,
    "Ġbol": 6241,
    "Ġflutter": 16246,
    "Ġthing": 1642,
    "impud": 23760,
    "Ġtransformer": 2637,
    "mine": 5617,
    "brace": 16941,
    "Ġprinted": 11946,
    "Ġnoblest": 13239,
    "Ġrobust": 1392,
    "Ġconfessor": 24017,
    "che": 3174,
    "ned": 3491,
    "Ġpictures": 5503,
    "Ġclimax": 25051,
    "Ġfreshe": 13067,
    "Ġprimary": 25060,
    "Ġapolog": 9042,
    "Ġabhorred": 9505,
    "Ġfury": 7661,
    "lilies": 20960,
    "Ġsensitiveness": 23734,
    "icked": 10331,
    "Ġmosses": 20161,
    "Ġdecoyed": 18492,
    "Ġphiladelphia": 26603,
    "Ġsaint": 15505,
    "Ġwont": 9850,
    "Ġcabin": 3304,
    "Ġveil": 7934,
    "Ġflag": 7241,
    "Ġcourtiers": 24136,
    "Ġfrocks": 23920,
    "Ġreception": 9837,
    "Ġinteresting": 4326,
    "ivering": 7697,
    "Ġmule": 13860,
    "Ġcares": 9365,
    "Ġshutting": 14758,
    "spouting": 25002,
    "Ġfren": 10804,
    "Ġbooks": 4675,
    "Ġinterpret": 5490,
    "scornful": 26574,
    "Ġcru": 2825,
    "apidated": 22335,
    "Ġvagu": 13587,
    "Ġeasiness": 23534,
    "Ġnose": 4402,
    "concent": 19478,
    "Ġ235": 25713,
    "Ġpompous": 20420,
    "Ġgripping": 26186,
    "damn": 20021,
    "Ġphr": 2683,
    "Ġinitialized": 3946,
    "Ġsolicited": 20034,
    "atiate": 12544,
    "haw": 6360,
    "Ġmagazine": 23100,
    "gro": 10093,
    "zening": 21147,
    "Ġguard": 6178,
    "Ġphant": 7054,
    "izon": 18134,
    "Ġhinted": 6011,
    "Ġroared": 7023,
    "Ġtranslates": 12048,
    "Ġmale": 9647,
    "Ġtranque": 14204,
    "parsee": 14509,
    "fear": 8512,
    "Ġanalysis": 1970,
    "Ġattractions": 12914,
    "aped": 3763,
    "Ġemergency": 25731,
    "Ġfield": 1234,
    "eastward": 15128,
    "kicked": 20942,
    "Ġbusied": 19064,
    "Ġbandaged": 16841,
    "Ġlaughs": 24116,
    "Ġenvironments": 24087,
    "mons": 17599,
    "Ġrush": 5925,
    "Ġminute": 4281,
    "Ġplaces": 5390,
    "Ġweaver": 11686,
    "azore": 23462,
    "Ġhus": 3096,
    "entrance": 12653,
    "Ġpasseng": 12967,
    "Ġeccentric": 13647,
    "oled": 17618,
    "Ġtertiary": 15292,
    "Ġcomprises": 22571,
    "Ġhappiness": 2945,
    "Ġinhuman": 13927,
    "fug": 17542,
    "ufactured": 15180,
    "Ġfamil": 4321,
    "Ġwight": 12549,
    "Ġgibberish": 25786,
    "poise": 6171,
    "Ġcaused": 5048,
    "Ġundulated": 19515,
    "Ġbending": 12581,
    "networks": 2405,
    "Ġforeign": 9870,
    "Ġcannib": 6035,
    "Ġhandsomely": 25497,
    "Ġunreliable": 3927,
    "Ġshrunk": 16717,
    "Ġreciprocating": 26369,
    "storied": 18025,
    "Ġbernard": 20683,
    "ipper": 13738,
    "tum": 11531,
    "Ġshouting": 10521,
    "Ġcopying": 17067,
    "Ġgallantry": 15102,
    "Ġneither": 3684,
    "forgive": 18727,
    "weigh": 18665,
    "Ġmarlingspike": 26578,
    "march": 13753,
    "Ġoaths": 13522,
    "Ġrefreshed": 15288,
    "ezes": 9989,
    "Ġflirting": 16248,
    "vill": 10734,
    "Ġuplifted": 11646,
    "ishness": 22340,
    "trial": 20348,
    "Ġemployed": 5200,
    "Ġvolition": 14796,
    "stop": 11634,
    "Ġsaints": 20673,
    "Ġslouched": 13055,
    "Ġkrempe": 10668,
    "Ġpagoda": 19785,
    "umst": 2504,
    "suit": 18636,
    "reflect": 19862,
    "Ġbelrive": 18830,
    "involved": 25626,
    "bbles": 13689,
    "Ġwhisper": 6205,
    "amuse": 14050,
    "Ġtore": 6529,
    "Ġmerchant": 6466,
    "glow": 20873,
    "etieth": 21582,
    "Ġfive": 2838,
    "pil": 15406,
    "jam": 15369,
    "Ġenchanted": 9079,
    "law": 6115,
    "whale": 2139,
    "Ġelij": 8907,
    "Ġbuttoned": 25368,
    "Ġunimpe": 22070,
    "Ġreveren": 13193,
    "Ġspleen": 26420,
    "enstein": 5799,
    "french": 9118,
    "gale": 13721,
    "Ġconflict": 17272,
    "Ġepid": 18005,
    "Ġdrunken": 12047,
    "Ġstatistics": 1685,
    "Ġherds": 9714,
    "susceptible": 24662,
    "Ġkicked": 10580,
    "Ġla": 5913,
    "Ġscarce": 8621,
    "Ġopposed": 11188,
    "Ġunexpectedly": 19907,
    "Ġstacked": 21744,
    "nuts": 15396,
    "Ġprocess": 569,
    "ectual": 21914,
    "questions": 16759,
    "gallant": 7780,
    "Ġverdict": 13473,
    "Ġmight": 965,
    "ric": 1377,
    "Ġrenegades": 26475,
    "compliment": 11364,
    "Ġse": 401,
    "Ġfurnishes": 19439,
    "hib": 15365,
    "Ġoutputs": 2886,
    "Ġcave": 10784,
    "Ġphotograph": 6301,
    "Ġfabric": 25947,
    "Ġchancery": 20715,
    "Ġbaw": 15565,
    "ernal": 4313,
    "Ġspasmodic": 20395,
    "Ġrapt": 7226,
    "Ġexplanatory": 22200,
    "Ġfrightful": 7735,
    "hears": 12529,
    "Ġli": 603,
    "continu": 5501,
    "Ġvariance": 1167,
    "Ġoriginally": 7303,
    "Ġeffemin": 18525,
    "Ġdealer": 23975,
    "Ġpremeditated": 22232,
    "battering": 20785,
    "Ġunder": 1639,
    "ells": 5303,
    "itic": 11577,
    "Ġchalk": 15930,
    "Ġtrials": 16788,
    "Ġexhilar": 19681,
    "Ġhomeward": 9388,
    "-": 17,
    "apers": 3481,
    "conjecture": 15121,
    "Ġfelix": 4848,
    "inder": 9151,
    "hint": 12472,
    "Ġtuesday": 9625,
    "Ġjoyful": 13218,
    "treas": 17678,
    "spermaceti": 12190,
    "Y": 61,
    "bingleys": 19632,
    "thodox": 21987,
    "est": 501,
    "Ġagonising": 25373,
    "week": 12927,
    "civilities": 24973,
    "generations": 23785,
    "anxiously": 15109,
    "Ġpublicly": 13319,
    "tie": 21067,
    "Ġcou": 5286,
    "Ġalb": 14014,
    "Ġdefect": 8553,
    "Ġfurled": 22813,
    "kindly": 14743,
    "expected": 5780,
    "Ġblight": 18817,
    "Ġharry": 24571,
    "asher": 15642,
    "atement": 17773,
    "Ġpiping": 23216,
    "uttermost": 24940,
    "rimsh": 17026,
    "sl": 5794,
    "Ġnapkins": 25161,
    "happening": 16563,
    "Ġglac": 9344,
    "strangely": 17275,
    "Ġprudence": 13918,
    "Ġapex": 24342,
    "Ġsail": 1676,
    "Ġcautious": 12250,
    "Ġdoings": 18375,
    "Ġgait": 13328,
    "ce": 313,
    "Ġcontinuously": 23205,
    "Ġspecimens": 18856,
    "Ġshun": 11707,
    "Ġasser": 6257,
    "jack": 7343,
    "Ġexcuse": 5861,
    "Ġgrounded": 23711,
    "Ġsmacking": 20163,
    "perquis": 22183,
    "Ġtorpor": 25031,
    "Ġabominate": 20062,
    "unavoid": 14060,
    "Ġhatty": 19264,
    "distinguished": 10525,
    "specific": 10496,
    "Ġlatterly": 24082,
    "Ġabrupt": 9734,
    "Ġhero": 5715,
    "Ġhasten": 10477,
    "oury": 22302,
    "aged": 2608,
    "Ġsqueeze": 10037,
    "Ġtopmost": 14586,
    "Ġbrahma": 26319,
    "Ġproxim": 3201,
    "Ġexcurs": 23312,
    "Ġchronic": 9927,
    "Ġbelly": 10368,
    "Ġrans": 21968,
    "Ġrepairing": 25589,
    "Ġcatastrop": 3347,
    "Ġpursue": 6313,
    "Ġsoph": 1620,
    "mology": 12488,
    "Ġfinal": 5400,
    "Ġev": 4828,
    "ruit": 22185,
    "card": 11475,
    "Ġlikened": 16498,
    "Ġsurmised": 24919,
    "Ġambition": 11432,
    "Ġdang": 9173,
    "col": 3106,
    "Ġunbounded": 18260,
    "Ġbouton": 17869,
    "Ġcleat": 18946,
    "Ġcircumference": 13543,
    "ensive": 6279,
    "Ġpetrified": 19594,
    "Ġinterview": 9768,
    "marvell": 24171,
    "leaned": 21367,
    "Ġache": 18663,
    "Ġbaleen": 10035,
    "rodden": 21533,
    "Ġphilist": 16600,
    "Ġdoom": 6416,
    "ood": 964,
    "Ġpoky": 21478,
    "Ġderivative": 3000,
    "oregressive": 3425,
    "vessel": 11377,
    "cules": 12388,
    "fourths": 25509,
    "Ġaccompaniments": 24482,
    "Ġav": 3579,
    "Ġpadded": 25036,
    "Ġfict": 21403,
    "Ġhemis": 21682,
    "rowing": 7930,
    "Ġwealth": 7619,
    "Ġsatisfactory": 11192,
    "Ġmilliner": 19882,
    "Ġvoyage": 3056,
    "Ġinconveniences": 24939,
    "antee": 22095,
    "hunt": 20902,
    "Ġunwarrant": 20131,
    "Ġsay": 931,
    "Ġdesperate": 7776,
    "Ġring": 4452,
    "however": 4373,
    "mountain": 10712,
    "Ġshrugged": 12765,
    "Ġtides": 13819,
    "oundering": 11744,
    "Ġdisinterested": 16053,
    "Ġann": 4490,
    "helm": 12168,
    "Ġequinoctial": 20531,
    "mouth": 9129,
    "ounce": 6556,
    "creation": 14805,
    "formality": 22215,
    "Ġexist": 9230,
    "see": 3048,
    "Ġbowed": 6242,
    "otently": 21798,
    "Ġcross": 1374,
    "ultural": 22567,
    "Ġmoney": 3418,
    "Ġcontributed": 16006,
    "Ġthanked": 9455,
    "Ġcalms": 23040,
    "arying": 9799,
    "Ġactively": 18654,
    "Ġeating": 8135,
    "Ġthickening": 24022,
    "utral": 12659,
    "akeman": 6267,
    "omeness": 18016,
    "Ġsuffer": 4721,
    "insist": 23064,
    "Ġisa": 14023,
    "Ġbrass": 11046,
    "Ġensue": 18191,
    "Ġtusked": 25426,
    "Ġcrucial": 9891,
    "Ġunsocial": 18257,
    "ellect": 7380,
    "vari": 1519,
    "arians": 18526,
    "Ġmiserable": 3630,
    "Ġcows": 15549,
    "Ġhated": 7583,
    "ighted": 8475,
    "Ġgregarious": 18963,
    "Ġocc": 885,
    "exped": 16524,
    "soever": 11857,
    "Ġproblems": 2850,
    "complet": 11383,
    "machines": 8384,
    "Ġdarkness": 4280,
    "Ġparcels": 25465,
    "Ġwits": 15529,
    "Ġarrogance": 26231,
    "Ġventing": 19492,
    "Ġrecords": 12192,
    "amples": 1819,
    "nx": 17606,
    "Ġvarying": 15805,
    "prison": 14662,
    "Ġswap": 23052,
    "Ġtyph": 10006,
    "etrics": 21583,
    "itories": 15545,
    "Ġhighway": 14347,
    "Ġrelinqu": 12981,
    "Ġregulate": 22579,
    "Ġsmart": 11813,
    "Ġodorous": 19564,
    "Ġtransported": 11279,
    "Ġcontrivances": 12354,
    "Ġstochastic": 3267,
    "royal": 11393,
    "phants": 9318,
    "cring": 20810,
    "posted": 24637,
    "rived": 5373,
    "stood": 4118,
    "Ġscound": 12828,
    "Ġderives": 16306,
    "Ġpurchase": 12256,
    "Ġhushed": 13923,
    "alice": 3209,
    "Ġamerican": 5061,
    "Ġitem": 12697,
    "instruct": 17735,
    "eman": 5636,
    "Ġintroduced": 7690,
    "Ġhermits": 22072,
    "Ġamerica": 6763,
    "onstr": 12542,
    "inf": 6232,
    "photograph": 16151,
    "Ġmatrix": 1605,
    "Ġmarking": 16467,
    "Ġkinds": 14502,
    "Ġah": 5075,
    "wild": 8766,
    "phur": 16150,
    "Ġpalm": 10512,
    "¾": 127,
    "Ġbracelets": 25502,
    "vy": 21106,
    "Ġelements": 2668,
    "ĠĠĠĠĠĠĠĠĠĠĠĠĠĠĠĠĠĠĠĠĠĠĠĠĠĠĠĠĠĠ": 24443,
    "become": 14246,
    "baboon": 25516,
    "Ġperched": 10298,
    "work": 1750,
    "Ġthomson": 26453,
    "fatigue": 20657,
    "Ġforger": 15729,
    "Ġpip": 1595,
    "isive": 10792,
    "Ġgoat": 16004,
    "Ġforeshad": 23452,
    "Ġrefill": 18698,
    "Ġunmanufactured": 20431,
    "drove": 16992,
    "Ġarm": 2493,
    "Ġforeseeing": 23450,
    "Ġexterm": 21827,
    "Ġasc": 4764,
    "decease": 25557,
    "Ġchaos": 17008,
    "Ġmiscellaneous": 17461,
    "fatal": 17087,
    "Ġdismissed": 12888,
    "oke": 1856,
    "lan": 15375,
    "Ġferguson": 17468,
    "Ġpage": 6978,
    "Ġperseverance": 13595,
    "Ġfailing": 12134,
    "rennial": 22339,
    "ads": 5718,
    "Ġinaudible": 21497,
    "vedale": 22709,
    "Ġmisunderstand": 18704,
    "Ġstriving": 8995,
    "ispiece": 19723,
    "bethinking": 25745,
    "Ġmail": 17801,
    "numer": 15397,
    "Ġheroic": 14907,
    "cy": 650,
    "Ġshade": 6549,
    "Ġinhabited": 12182,
    "baby": 25515,
    "lotts": 23824,
    "Ġcrescent": 16132,
    "Ġpolitic": 23619,
    "Ġcape": 5146,
    "Ġcottage": 4733,
    "acquired": 24296,
    "Ġmonstr": 7667,
    "Ġconsuming": 22792,
    "anded": 5923,
    "Ġsheepfold": 25466,
    "Ġrestrict": 16370,
    "volut": 1561,
    "Ġblue": 3455,
    "likewise": 13103,
    "Ġmomentous": 16169,
    "Ġunp": 12768,
    "bur": 4686,
    "untarily": 6311,
    "Ġexploded": 15906,
    "relu": 17759,
    "spersed": 22732,
    "Ġforced": 4353,
    "Ġ*": 1271,
    "broken": 8020,
    "Ġeduc": 4784,
    "Ġpropagating": 20632,
    "terday": 4704,
    "Ġsound": 2241,
    "paralleled": 14510,
    "hauled": 20667,
    "print": 23810,
    "Ġremove": 7498,
    "Ġmish": 15534,
    "Ġbetokened": 18799,
    "Ġshin": 18228,
    "Ġrobes": 16259,
    "Ġsculpture": 26016,
    "Ġres": 696,
    "retirement": 23139,
    "ately": 1735,
    "Ġstam": 18069,
    "ize": 771,
    "Ġdropping": 7482,
    "extent": 22771,
    "Ġlawn": 7378,
    "Ġtarn": 21157,
    "Ġshining": 8171,
    "Ġdecision": 2678,
    "Ġheaped": 18038,
    "Ġowes": 20082,
    "Ġjabez": 11764,
    "Ġthro": 5817,
    "Ġ84": 19707,
    "Ġdine": 7365,
    "ises": 3651,
    "Ġgentle": 1887,
    "thoughtfully": 24042,
    "Ġimpaling": 22381,
    "ids": 21761,
    "Ġwhispering": 14944,
    "Ġquies": 18464,
    "Ġfacetious": 20582,
    "Ġdeduce": 8336,
    "tormented": 13643,
    "Ġconcealed": 7494,
    "organ": 15570,
    "Ġol": 17815,
    "Ġtravellers": 11308,
    "comprehens": 16167,
    "gre": 5788,
    "ic": 304,
    "Ġdistances": 22502,
    "Ġincessant": 15096,
    "Ġgallery": 10523,
    "Ġeye": 2280,
    "ather": 738,
    "asional": 17960,
    "ourage": 2451,
    "Ġamericans": 14742,
    "Ġclap": 10956,
    "shall": 4550,
    "Ġpreliminary": 10055,
    "Ġfirmament": 19469,
    "Ġsolitude": 6877,
    "net": 1196,
    "etency": 21580,
    "Ġrelate": 6876,
    "Ġstudy": 1781,
    "Ġexplaining": 15957,
    "Ġactor": 16045,
    "Ġprogra": 1147,
    "Ġcheek": 8575,
    "Ġsugg": 4500,
    "Ġwinking": 17794,
    "entropy": 1437,
    "Ġproficiency": 19192,
    "Ġbucket": 8786,
    "foundation": 16714,
    "Ġfoes": 11949,
    "quadrille": 20593,
    "etical": 13956,
    "Ġindirectly": 8938,
    "Ġthirteen": 15272,
    "each": 7334,
    "ized": 1529,
    "known": 3566,
    "planks": 21959,
    "securing": 19811,
    "Ġfed": 5529,
    "kington": 11202,
    "Ġunlocked": 14119,
    "itche": 7577,
    "Ġavoid": 5199,
    "instead": 14828,
    "Ġdodo": 9071,
    "Ġalongside": 6310,
    "heard": 5009,
    "der": 468,
    "Ġspectacles": 12094,
    "Ġbust": 10166,
    "oldened": 22637,
    "haven": 20911,
    "fortun": 3537,
    "iners": 4937,
    "lucifer": 25301,
    "Ġ1890": 23894,
    "Ġreally": 2158,
    "Ġbrighton": 6469,
    "Ġcordage": 19676,
    "Ġsy": 489,
    "Ġinsensibly": 20073,
    "Ġtrifled": 24675,
    "cest": 12441,
    "Ġor": 437,
    "Ġtottenham": 24141,
    "Ġhandfuls": 17208,
    "whalemen": 10430,
    "hind": 20893,
    "hroom": 12473,
    "ipagos": 22358,
    "bourne": 19102,
    "Ġcharacters": 9370,
    "Ġfatt": 15575,
    "prince": 23813,
    "Ġo": 275,
    "ividually": 22078,
    "Ġwritten": 4170,
    "Ġseeth": 21952,
    "uled": 11536,
    "Ġgazes": 24092,
    "control": 16541,
    "Ġtroubling": 26546,
    "inkled": 5477,
    "Ġregions": 10322,
    "Ġstudied": 11114,
    "Ġmoored": 11790,
    "july": 20472,
    "Ġafterwards": 3529,
    "trees": 10730,
    "Ġunluck": 8483,
    "gor": 541,
    "traversed": 19637,
    "Ġrallied": 14094,
    "Ġarrow": 10930,
    "vate": 21108,
    "ies": 582,
    "varieties": 23186,
    "D": 40,
    "ensils": 22547,
    "Ġathe": 17741,
    "Ġinfl": 6892,
    "Ġgreedy": 3055,
    "anke": 15557,
    "Ġmirror": 12375,
    "Ġjav": 7902,
    "Ġdull": 6383,
    "Ġlecture": 13565,
    "Ġdistressing": 12215,
    "Ġmusty": 22678,
    ",âĢĿâĢĶ": 14219,
    "drowned": 17367,
    "eager": 12456,
    "Ġmcc": 21305,
    "Ġacquies": 11096,
    "lane": 10705,
    "mush": 20976,
    "cu": 10082,
    "!âĢĿ": 847,
    "Ġvineyarder": 25606,
    "requ": 7147,
    "sey": 5542,
    "inces": 13826,
    "Ġgobern": 22423,
    "Ġgrinning": 9052,
    "Ġsole": 3299,
    "atible": 17772,
    "Ġbackwoods": 22648,
    "Ġdiscretion": 10346,
    "Ġmult": 1021,
    "Ġdisposed": 7082,
    "Ġbecher": 18878,
    "adequ": 11020,
    "Ġinfat": 14498,
    "niest": 18967,
    "Ġexperienced": 6582,
    "Ġcomprehens": 8319,
    "Ġ150": 22825,
    "Ġphilips": 5410,
    "ornament": 23487,
    "maritime": 24172,
    "ronted": 14876,
    "Ġpaternal": 16374,
    "Ġpenetration": 19915,
    "azine": 19130,
    "emper": 18181,
    "Ġsufferer": 16256,
    "Ġbeating": 8144,
    "entieth": 17979,
    "Ġawa": 7713,
    "Ġprepared": 5877,
    "mon": 2309,
    "learning": 2767,
    "Ġspans": 18304,
    "Ġvacuous": 24344,
    "Ġdemean": 12719,
    "kempt": 20940,
    "Ġoverthrown": 18431,
    "ants": 1390,
    "89": 20758,
    "Ġsubstant": 14808,
    "mbly": 9793,
    "Ġlashings": 25097,
    "prejud": 11794,
    "Ġphrenolog": 12331,
    "Ġverdant": 15002,
    "binder": 17498,
    "impatient": 13638,
    "Ġrigger": 19529,
    "Ġtranquilly": 12287,
    "aders": 21756,
    "Ġshr": 4228,
    "Ġpitiless": 19386,
    "Ġincommunicable": 26610,
    "Ġclearing": 8239,
    "Ġshapeless": 24524,
    "atical": 10770,
    "Ġprotection": 9458,
    "Ġeels": 21618,
    "illa": 12789,
    "Ġhonestly": 19969,
    "Ġspire": 18306,
    "Ġslackened": 15125,
    "Ġgrey": 4513,
    "Ġcastles": 16638,
    "Ġdaggoo": 5441,
    "Ġshow": 3402,
    "Ġlichen": 20089,
    "dislike": 23493,
    "pper": 3210,
    "O": 51,
    "apparently": 15203,
    "equally": 19897,
    "Ġsoothingly": 25047,
    "Ġlydia": 2375,
    "throughout": 24084,
    "Ġinhab": 5083,
    "lyph": 10851,
    "Ġirritated": 17241,
    "orange": 21398,
    "hence": 16623,
    "Ġcombining": 22860,
    "Ġdrove": 4984,
    "Ġanxious": 4518,
    "Ġsideboard": 10384,
    "aggoo": 5130,
    "swe": 5995,
    "Ġyea": 8914,
    "doubted": 17525,
    "accompan": 11452,
    "Ġsavory": 23875,
    "Ġprotecting": 24685,
    "Ġrabb": 4165,
    "aciously": 12903,
    "Ġabstract": 17180,
    "sn": 7137,
    "Ġcustoms": 19650,
    "Ġatonement": 21941,
    "Ġedinburgh": 16434,
    "Ġattending": 3285,
    "Ġoverheard": 11772,
    "Ġadmits": 23551,
    "Ġchips": 14179,
    "tes": 11528,
    "frankly": 20019,
    "Ġimaginary": 11186,
    "Ġroving": 22400,
    "Ġslung": 23169,
    "Ġtroub": 22354,
    "imony": 12686,
    "Ġbass": 17856,
    "plans": 21957,
    "Ġweb": 9238,
    "Ġstiffness": 24830,
    "Ġrains": 24340,
    "Ġineffectual": 17382,
    "Ġmoulded": 16973,
    "paused": 17372,
    "Ġcumbrous": 26431,
    "Ġpoul": 15609,
    "Ġdoomed": 11341,
    "presently": 9807,
    "Ġepicures": 25880,
    "Ġbone": 4694,
    "Ġtargets": 4207,
    "Ġinsince": 23679,
    "Ġcountry": 2531,
    "Ġabomination": 22276,
    "Ġbreakfast": 3974,
    "Ġestim": 3348,
    "malicious": 19900,
    "Ġrequires": 1017,
    "Ġelevated": 7317,
    "ount": 1114,
    "Ġstooping": 13058,
    "gies": 13724,
    "Ġchests": 19669,
    "Ġproceeds": 12074,
    "Ġgrown": 5628,
    "Ġyielded": 14871,
    "Ġbreaches": 14520,
    "Ġcurbstone": 26042,
    "Ġbottom": 3672,
    "aract": 17895,
    "Ġdevoutly": 25832,
    "detached": 19672,
    "carb": 20809,
    "cond": 1670,
    "Ġsod": 11561,
    "jure": 20923,
    "Ġdisagree": 22530,
    "particular": 5757,
    "Ġsecure": 4912,
    "ident": 3378,
    "Ġcorrection": 5062,
    "Ġopt": 777,
    "Ġintegral": 25008,
    "iarity": 8743,
    "Ġdevouring": 11859,
    "Ġtw": 841,
    "Ġmince": 22831,
    "99": 1894,
    "Ġjames": 6418,
    "wanted": 10742,
    "quod": 2163,
    "Ġflying": 5413,
    "Ġstung": 21740,
    "mult": 8747,
    "Ġgroaned": 11266,
    "Ġchorus": 10945,
    "Ġpoints": 5248,
    "Ġdevotion": 22736,
    "Ġappals": 22218,
    "Ġknot": 7011,
    "Ġbulky": 13226,
    "Ġpillow": 10036,
    "è": 169,
    "Ġdispleased": 18554,
    "Ġgentlemanly": 19315,
    "Ġcontext": 1760,
    "Ġhull": 5446,
    "brandy": 19200,
    "Ġpoint": 2055,
    "angry": 18294,
    "swallowed": 14852,
    "phantoms": 24678,
    "Ġpaths": 2569,
    "Ġcolumn": 9326,
    "cork": 20795,
    "Ġ104": 24412,
    "waving": 21130,
    "browed": 25894,
    "reeling": 21243,
    "Ġbackgammon": 22650,
    "Ġjulia": 22300,
    "Ġprepare": 8646,
    "ont": 2623,
    "Ġofficer": 6753,
    "Ġcompromised": 22570,
    "Ġenergy": 2553,
    "Ġ120": 16857,
    "Ġprone": 18968,
    "Ġforward": 1835,
    "been": 3344,
    "merit": 19280,
    "Ġproduces": 2093,
    "fellows": 12270,
    "Ġrecognise": 12037,
    "Ġdeliriously": 23229,
    "Ġhap": 18196,
    "Ġroughly": 17039,
    "Ġfollows": 7672,
    "rupt": 3211,
    "discharging": 26305,
    "Ġitalian": 12407,
    "Ġdomains": 6611,
    "Ġdisk": 22520,
    "despatched": 19799,
    "caut": 20811,
    "claimed": 9834,
    "hammered": 19003,
    "Ġantichronical": 26608,
    "ĠĠĠĠĠĠĠĠĠĠĠĠĠĠĠĠĠĠĠĠĠĠĠĠĠĠ": 13386,
    "oriously": 17875,
    "osp": 6854,
    "Ġextremely": 2670,
    "Ġagreement": 18539,
    "Ġnarrower": 24354,
    "Ġpoland": 23618,
    "per": 480,
    "Ġsummoned": 9909,
    "oblig": 16288,
    "Ġattent": 4361,
    "Ġcommonly": 3265,
    "Ġaccompanying": 11304,
    "½": 126,
    "Ġpause": 5707,
    "Ġprecipitous": 24835,
    "ert": 2633,
    "Ġpsalmody": 20583,
    "Ġterrier": 23396,
    "Ġparmacetti": 20603,
    "'": 11,
    "ress": 928,
    "Ġapprovingly": 26252,
    "Ġodd": 6624,
    "bus": 5354,
    "vast": 10735,
    "Ġdeclined": 9919,
    "join": 12110,
    "awful": 23117,
    "Ġreplenished": 13634,
    "Ġexhibition": 14955,
    "Ġtwink": 8215,
    "Ġcoppers": 22584,
    "oves": 15402,
    "Ġenvy": 13200,
    "asily": 13944,
    "allest": 5485,
    "Ġpenetrate": 12266,
    "phenomenon": 17647,
    "Ġgovernments": 20265,
    "Ġconfirmed": 11138,
    "judgment": 16752,
    "Ġconditions": 8306,
    "Ġquote": 18466,
    "Ġdogs": 7741,
    "romang": 22004,
    "Ġoperate": 19115,
    "Ġuniformly": 19147,
    "Ġbackwards": 12921,
    "Ġavailed": 23950,
    "concluded": 11243,
    "iscreet": 20681,
    "Ġnorms": 3664,
    "Ġedged": 23436,
    "Ġindies": 22950,
    "Ġtwee": 22673,
    "ung": 2745,
    "Ġearnest": 3928,
    "Ġwhittingham": 26197,
    "infallibly": 26416,
    "Ġprograms": 7238,
    "Ġwallet": 21297,
    "germans": 20564,
    "Ġacknowledge": 13400,
    "Ġconfusing": 23305,
    "angled": 6844,
    "Ġprophecy": 25706,
    "Ġstowed": 21737,
    "Ġmidst": 7985,
    "Ġjury": 5378,
    "Ġsine": 10762,
    "tures": 21068,
    "ca": 20792,
    "Ġforces": 12698,
    "Ġconstrued": 26301,
    "Ġsultry": 20286,
    "Ġnobly": 22239,
    "Ġproportionate": 17042,
    "Ġissu": 6253,
    "Ġservox": 23869,
    "claims": 25319,
    "Ġwarehouses": 20415,
    "Ġdisordered": 16051,
    "Ġgarden": 3824,
    "orient": 2879,
    "oh": 1577,
    "Ġtempted": 9055,
    "Ġhurriedly": 11250,
    "cho": 2760,
    "Ġsemicircular": 26068,
    "ou": 287,
    "Ġtars": 21163,
    "Ġivory": 4477,
    "ps": 4574,
    "Ġopulence": 23629,
    "Ġeconomy": 17199,
    "Ġbiscuit": 12585,
    "Ġyankees": 26201,
    "Ġgayer": 24498,
    "Ġterm": 2266,
    "Ġrealities": 18982,
    "Ġaccusation": 22379,
    "Ġstones": 9222,
    "anc": 6378,
    "luding": 6700,
    "tfordshire": 4811,
    "weaving": 18666,
    "Ġwhosoever": 21717,
    "Ġdit": 21419,
    "emph": 21925,
    "considered": 9579,
    "middle": 11310,
    "Ġpear": 11850,
    "future": 13715,
    "Ġchili": 25561,
    "overs": 17620,
    "Ġheadlong": 11886,
    "Ġlieu": 19561,
    "Ġrepaid": 19080,
    "Ġthoughtful": 16189,
    "Ġlegit": 16471,
    "liberal": 26281,
    "degree": 12797,
    "motives": 26137,
    "Ġdivulged": 16647,
    "ush": 3628,
    "Ò": 147,
    "Ġunguarded": 15847,
    "Ġundo": 15837,
    "Ġmask": 1863,
    "Ġholder": 6724,
    "Ġhighness": 22768,
    "Ġscheduling": 2351,
    "\\": 64,
    "Ġwhitting": 18056,
    "Ġelimin": 16104,
    "Ġstupid": 7605,
    "Ġcrews": 8989,
    "elf": 564,
    "Ġnay": 5711,
    "[": 63,
    "Ġchimneys": 16970,
    "Ġconfiding": 19037,
    "Ġsuffice": 18869,
    "ĸ": 249,
    "Ġstole": 7952,
    "Ġcrowding": 13275,
    "Ġmod": 496,
    "viating": 14578,
    "Ġvectors": 1769,
    "iable": 3334,
    "Ġhospitality": 13511,
    "tering": 3805,
    "Ġvolley": 24144,
    "Ġdupl": 9952,
    "Ġstudying": 9847,
    "impressions": 20697,
    "Ġfloating": 6604,
    "Ġintrusted": 21991,
    "Ġplied": 22595,
    "atmospheric": 17776,
    "Ġadjust": 2154,
    "Ġrepairs": 19081,
    "absolutely": 10644,
    "Ġexercised": 24803,
    "Ġsust": 7006,
    "sa": 8756,
    "roof": 17954,
    "utely": 8131,
    "chanced": 18810,
    "diver": 20830,
    "Ġadvantages": 9803,
    "Ġwhis": 3503,
    "atious": 10150,
    "Ġcivilities": 14847,
    "inated": 6804,
    "Ġestablishment": 13577,
    "onel": 3094,
    "Ġprisoner": 8672,
    "Ġburnt": 9926,
    "pleas": 3849,
    "irious": 15782,
    "Ġsoldiers": 8686,
    "Ġboasted": 16103,
    "amed": 4448,
    "mbl": 5946,
    "fro": 8732,
    "Ġeyed": 12663,
    "Ġencapsulate": 13672,
    "Ġplus": 3882,
    "Ġbrides": 22867,
    "ē": 212,
    "Ġsuperlatively": 26075,
    "Ġmutiny": 13256,
    "Ġfit": 3682,
    "wh": 508,
    "Ġchasing": 11752,
    "Ġrosings": 4607,
    "unhesitatingly": 26495,
    "....": 11316,
    "Ġbeast": 7178,
    "lemag": 21370,
    "Ġespe": 21154,
    "merry": 16535,
    "hes": 1398,
    "luckily": 19750,
    "Ġcarter": 18900,
    "Ġacquitted": 18898,
    "Ġbravely": 23837,
    "Ġseething": 18202,
    "Ġsoaked": 15860,
    "Ġcombing": 22858,
    "Ġparchment": 13650,
    "Ġunfinished": 19508,
    "Ġselves": 21221,
    "Ġ(_": 3735,
    "Ġdeed": 7868,
    "infernal": 24663,
    "Ġspade": 9257,
    "Ġver": 3394,
    "habit": 16187,
    "Ġvernal": 23887,
    "seldom": 13785,
    "Ġinherent": 4591,
    "bbed": 6911,
    "ides": 2160,
    "Ġsubmission": 22790,
    "iest": 4037,
    "owners": 16083,
    "iam": 2509,
    "Ġheaths": 25972,
    "Ġcondensed": 24050,
    "Ġparticip": 16128,
    "Ġfails": 13311,
    "Ġconstrain": 2630,
    "stricken": 9883,
    "Ġpractically": 13100,
    "Ġindomit": 22954,
    "rayed": 23560,
    "Ġpersuading": 19408,
    "Ġrepressed": 21666,
    "Ġquaff": 22412,
    "Ġinn": 4590,
    "acquainted": 7312,
    "Ġappalling": 8498,
    "spirit": 11313,
    "Ġcemeteries": 26375,
    "Ġadmission": 23552,
    "architect": 22888,
    "loa": 18533,
    "Ġcheery": 16364,
    "Ġheaven": 3364,
    "Ġexisted": 15748,
    "sec": 6152,
    "sincere": 16906,
    "ing": 273,
    "Ġuntidy": 23521,
    "Ġpresumption": 10544,
    "olly": 3227,
    "Ġsimplest": 16330,
    "%": 9,
    "leness": 4690,
    "Ġzeros": 3325,
    "Ġunhallowed": 17179,
    "ugn": 9375,
    "ier": 1138,
    "Ġflounders": 23012,
    "sorrows": 17318,
    "ord": 666,
    "Ġ(": 594,
    "Ġbrutality": 26276,
    "Ġhalting": 16271,
    "Ġdaunt": 19662,
    "Ġhunch": 18934,
    "Ġhath": 12624,
    "Ġsickly": 16773,
    "Ġracket": 22658,
    "Ġamb": 9290,
    "Ġsickle": 24245,
    "gia": 20875,
    "Ġcherub": 23285,
    "Ġelijah": 9098,
    "ingley": 1547,
    "Ġso": 434,
    "Ġcomprehension": 15085,
    "Ġresort": 18563,
    "Ġexplore": 15905,
    "crum": 17510,
    "Ġlifting": 10195,
    "moderate": 22848,
    "Ġfavours": 23279,
    "Ġfierc": 18709,
    "Ġdazed": 15592,
    "Ġrol": 3553,
    "Ġdiffusion": 23782,
    "Ġdearer": 14049,
    "Ġunrivalled": 26518,
    ",--âĢľ": 19196,
    "Ġfairest": 20460,
    "arking": 16122,
    "death": 6261,
    "Ġcruises": 23705,
    "oyed": 14365,
    "Ġask": 1495,
    "wedged": 24338,
    "Ġremains": 4908,
    "Ġsubstances": 24165,
    "gyric": 19109,
    "william": 4562,
    "warnings": 20349,
    "vings": 9749,
    "Ġfloated": 7287,
    "mody": 16181,
    "gers": 8375,
    "plifted": 9709,
    "Ġsavesoul": 26227,
    "Ġuncivil": 11154,
    "resembled": 21245,
    "Ġbart": 17858,
    "Ġconfidential": 9086,
    "Ġconsequently": 8059,
    "Ġpyth": 21460,
    "Ġsublime": 8065,
    "crimin": 17507,
    "Ġcooped": 22582,
    "Ġterror": 5124,
    "promise": 12247,
    "Ġantique": 19548,
    "Ġmainten": 16110,
    "Ġplain": 2819,
    "duodecimo": 15999,
    "Ġenormity": 19693,
    "Ġgrasped": 8033,
    "Ġunqualified": 22059,
    "Ġmethodic": 23114,
    "Ġfate": 4753,
    "Ġinscrut": 10032,
    "Ġflashed": 11911,
    "Ġdism": 9765,
    "Ġstro": 4595,
    "Ġwood": 2291,
    "tiness": 21070,
    "Ġrigged": 16716,
    "Ġdeigned": 18142,
    "Ġinquirers": 24964,
    "Ġcomposition": 1690,
    "Ġawaken": 23585,
    "cushion": 20820,
    "Ġu": 324,
    "Ġdreadful": 4920,
    "Ġdisreputable": 22532,
    "Ġexaggerated": 25650,
    "Ġwholesome": 16002,
    "irited": 15783,
    "Ġblankness": 24608,
    "gratitude": 16815,
    "plate": 18208,
    "delight": 5344,
    "Ġpassionate": 11273,
    "uncommonly": 25549,
    "Ġdaybreak": 18726,
    "Ġcarries": 7673,
    "Ġlaboratory": 13610,
    "Ġimpersonal": 17394,
    "Ġspasmodically": 17312,
    "Ġtar": 2564,
    "Ġanoints": 25538,
    "Ġmonstrous": 7789,
    "Ġintermediate": 18590,
    "estim": 14169,
    "Ġune": 4598,
    "Ġconstitution": 20106,
    "Ġillness": 8589,
    "Ġmeal": 9695,
    "instant": 8655,
    "urrection": 12406,
    "bone": 5611,
    "Ġsnap": 11200,
    "acious": 5561,
    "became": 10513,
    "Ġholiday": 12994,
    "Ġlittle": 866,
    "Ġstoried": 18076,
    "Ġteach": 8551,
    "Ġintensely": 17016,
    "Ġconvul": 13199,
    "Ġcomplet": 4422,
    "Ġsentiments": 7960,
    "69": 17473,
    "clothed": 19735,
    "Ġtangled": 13825,
    "Ġaspired": 25984,
    "Ġpretend": 7721,
    "Ġmem": 2069,
    "Ġrefuge": 8538,
    "py": 17623,
    "Ġmouthfuls": 20645,
    "Ġhypotheses": 4386,
    "removing": 17764,
    "Ġbiting": 17862,
    "Ġbreaking": 6309,
    "Ġkilling": 13330,
    "owders": 18048,
    "andering": 21865,
    "Ġunfold": 8022,
    "culous": 11139,
    "function": 4012,
    "Ġreputation": 11639,
    "scho": 8759,
    "Ġreturned": 2891,
    "fic": 20851,
    "correspond": 13396,
    "¯": 112,
    "beautiful": 10647,
    "politeness": 16905,
    "mond": 20972,
    "Ġfinished": 5044,
    "sor": 7351,
    "Ġhe": 318,
    "uded": 6285,
    "Ġdan": 8791,
    "solitude": 23295,
    "Ġsub": 951,
    ".}": 20744,
    "Ġsights": 7471,
    "Ġsingle": 1694,
    "dance": 17518,
    "Ġconnections": 974,
    "Ġbottle": 7489,
    "heav": 5694,
    "Ġlat": 5087,
    "Ġecho": 12662,
    "sooner": 14774,
    "Ġholland": 10364,
    "Ġblasted": 7937,
    "evid": 11484,
    "Ġthw": 21513,
    "Ġfrosts": 19800,
    "seemingly": 25362,
    "Ġreturning": 5325,
    "end": 502,
    "ublic": 11227,
    "Ġgodson": 23356,
    "Ġmolasses": 25628,
    "Ġappro": 662,
    "Ġlazily": 11380,
    "Ġcarpets": 18902,
    "Ġhired": 10176,
    "Ġlabourers": 23330,
    "Ġdynam": 2926,
    "Ġcomplete": 4382,
    "sence": 3307,
    "Ġbushy": 16398,
    "Ġlogic": 13075,
    "Ġho": 1930,
    "Ġcommotion": 9778,
    "ationally": 15701,
    "Ġsaxon": 25468,
    "Ġblush": 14401,
    "Ġquestioning": 10463,
    "Ġridiculous": 10627,
    "Ġcaring": 23091,
    "assment": 9737,
    "discovered": 8324,
    "Ġtrample": 20325,
    "Ġposterity": 17400,
    "Ġstool": 14460,
    "igning": 12676,
    "Ġwaiter": 16424,
    "âĢĶ.âĢĿ": 22253,
    "Ġminuteness": 19138,
    "pp": 384,
    "Ġupstairs": 5836,
    "itar": 15543,
    "inkling": 16086,
    "Ġsheeted": 19829,
    "attentive": 17188,
    "Ġg": 310,
    "Ġcollected": 2612,
    "Ġskill": 6872,
    "Ġdishes": 16046,
    "pressing": 19012,
    "Ġfulfil": 9548,
    "Ġswift": 3667,
    "Ġparameters": 993,
    "Ġward": 10154,
    "Ġrespectful": 16342,
    "Ġpiece": 5367,
    "Ġhissed": 15785,
    "Ġdemanded": 8326,
    "Ġlived": 3989,
    "reed": 6372,
    "Ġprocesses": 3629,
    "Ġpen": 1534,
    "skirted": 24489,
    "Ġclients": 19729,
    "feeders": 25235,
    "Ġsheep": 10925,
    "sequently": 14582,
    "Ġexpands": 25237,
    "Ġmockery": 12104,
    "nantucketer": 24974,
    "Ġentrance": 7232,
    "nearly": 8680,
    "Ġwrenching": 17321,
    "anch": 15556,
    "Ġclout": 22342,
    "Ġhistorically": 19376,
    "encing": 21281,
    "Ġbelonging": 8307,
    "belated": 24035,
    "Ġsymb": 2592,
    "Ġvaulted": 25167,
    "Ġextinct": 14325,
    "hun": 5210,
    "Ġstrands": 25574,
    "sect": 8152,
    "barbar": 20236,
    "Ġneglig": 18877,
    "haps": 1674,
    "daw": 17521,
    "ze": 1280,
    "Ġmurderers": 16810,
    "Ġdilatory": 24704,
    "Ġgates": 10199,
    "_": 67,
    "Ġinferiority": 17114,
    "yourself": 6742,
    "fain": 13713,
    "Ġcrocod": 19626,
    "Ġinformation": 1048,
    "Ġusefulness": 19406,
    "Ġwad": 13849,
    "Ġcool": 5734,
    "Ġdecipher": 22458,
    "mosphere": 10041,
    "windlass": 16720,
    "Ġbraved": 23836,
    "Ġdarted": 4757,
    "Ġadds": 1804,
    "Ġlullaby": 20586,
    "ssian": 3400,
    "Ġwhirlpool": 20654,
    "ifying": 5235,
    "Ġomnipotent": 13546,
    "locked": 7677,
    "Ġafresh": 18625,
    "estion": 18362,
    "breath": 15161,
    "Ġtorn": 5999,
    "Ġ56": 24324,
    "Ġmothers": 14540,
    "Ġprevailed": 7777,
    "Ġhover": 15616,
    "great": 3515,
    "urously": 18051,
    "Ġcanada": 22164,
    "Ġsheet": 6262,
    "Ġ112": 24437,
    "ontory": 10458,
    "mag": 6507,
    "Ġslay": 16304,
    "Ġrequesting": 24634,
    "Ġspeaker": 19148,
    "noble": 7924,
    "Ġsurprised": 3828,
    "ulged": 12726,
    "jee": 17578,
    "Ġfossil": 12384,
    "Ġdepended": 9775,
    "overing": 6305,
    "esy": 9181,
    "Ġdread": 3165,
    "Ġcrocodile": 20739,
    "Ġmanifold": 13558,
    "Ġpulley": 2976,
    "Ġensued": 11394,
    "Ġcontinent": 14887,
    "Ġinnermost": 12157,
    "vigorous": 25917,
    "Ġzer": 1093,
    "Ġaddison": 14232,
    "Ġnewcomers": 26041,
    "metals": 24766,
    "slow": 7810,
    "Ġaddu": 22099,
    "Ġslept": 8258,
    "Ġpole": 6432,
    "Ġpersian": 11090,
    "Ġdiab": 10610,
    "Ġwaves": 3896,
    "Ġboarders": 16599,
    "Ġunrest": 11712,
    "ipped": 5790,
    "Ġhumor": 11050,
    "Ġrestore": 9377,
    "Ġtest": 1625,
    "spiracle": 22733,
    "kn": 5791,
    "rings": 10721,
    "Ġabsurdly": 19957,
    "âĢĶ.": 11753,
    "Ġteacup": 16206,
    "Ġminutely": 14560,
    "desolate": 25703,
    "._)": 10479,
    "pretending": 17040,
    "Ġtrustees": 24106,
    "Ġexciting": 23310,
    "Ġspringing": 10517,
    "Ġcolleague": 17158,
    "of": 766,
    "nour": 20987,
    "Ġmental": 21318,
    "Ġconsiderable": 4005,
    "Ġheadsman": 13270,
    "Ġcharmed": 16761,
    "Ġexpiration": 22621,
    "ě": 220,
    "Ġinstrum": 6055,
    "shold": 2773,
    "Ġprolong": 6833,
    "Ġnames": 4533,
    "Ġswells": 9825,
    "Ġdevotedly": 24750,
    "athans": 7432,
    "Ġclass": 784,
    "linging": 16075,
    "opius": 18508,
    "Ġinter": 726,
    "Ġinvented": 17036,
    "violent": 14579,
    "deficient": 23119,
    "Ġparallel": 1413,
    "ego": 4036,
    "Ġbrown": 6297,
    "Ġuncovered": 23431,
    "antly": 1989,
    "osures": 22259,
    "Ġfumbled": 17882,
    "Ġpreferment": 19850,
    "Ġdied": 4113,
    "udg": 22753,
    "iasm": 8060,
    "Ġnothing": 1359,
    "loveliness": 26548,
    "idy": 21762,
    "igators": 18045,
    "Ġslam": 13054,
    "Ġsteamer": 17187,
    "Ġalike": 8146,
    "Ġmississ": 18837,
    "Ġenforced": 21938,
    "yards": 9622,
    "Ġraging": 14308,
    "Ġpredict": 686,
    "Ġstarlight": 24624,
    "neglect": 25668,
    "Ġmusk": 7493,
    "Ġelemental": 19917,
    "Ġreadiness": 13046,
    "sleet": 20147,
    "Ġrode": 15995,
    "Ġcircle": 4977,
    "Ġread": 1448,
    "poured": 17636,
    "Ġunceasing": 20355,
    "Ġpattered": 19028,
    "vens": 21111,
    "Ġfault": 5702,
    "fitted": 17543,
    "ur": 326,
    "resistible": 10642,
    "Ġburst": 4380,
    "Ġbul": 3294,
    "Ġweig": 7617,
    "cruet": 17025,
    "Ġleading": 7296,
    "owal": 13991,
    "aff": 3105,
    "Ġadmire": 5263,
    "Ġleyden": 21730,
    "Ġancestors": 25642,
    "Ġeighty": 19474,
    "abond": 15737,
    "Ġlombardy": 26462,
    "Ġjustified": 11902,
    "cig": 17502,
    "Ġnodding": 23334,
    "av": 700,
    "delirium": 14783,
    "Ġ59": 24327,
    "Ġfolds": 12203,
    "dock": 16415,
    "Ġsymmetry": 20363,
    "carpet": 25202,
    "meal": 22712,
    "Ġgene": 15668,
    "Ġbrilliant": 11414,
    "tired": 21071,
    "ensical": 18569,
    "aston": 7407,
    "Ġmotionless": 8323,
    "vocation": 25084,
    "Ġdri": 2365,
    "isons": 17850,
    "¶": 119,
    "Ġharem": 9707,
    "1": 21,
    "Ġflea": 23773,
    "encoun": 12295,
    "vo": 11539,
    "doublo": 24661,
    "ilogue": 21722,
    "iet": 1772,
    "5": 25,
    "iration": 4540,
    "Ġsymbol": 7716,
    "Ġostentatious": 25736,
    "Ġunf": 4091,
    "log": 18534,
    "Ġbarbar": 6935,
    "lled": 10106,
    "Ġidler": 16402,
    "Ġtechnique": 2231,
    "Ġireland": 17333,
    "biting": 20779,
    "Ġconfederate": 17352,
    "Ġdoubloon": 6945,
    "Ġcommis": 22669,
    "awe": 20764,
    "Ġensure": 23688,
    "leaving": 10790,
    "Ġringleader": 26212,
    "Ġsho": 2244,
    "Ġunlab": 3787,
    "Ġcalculating": 9923,
    "Ġcranial": 25592,
    "Ġvessels": 6755,
    "ede": 21504,
    "ifice": 7198,
    "rog": 15636,
    "Ġunfl": 22018,
    "Ġincantation": 26257,
    "Ġany": 688,
    "Ġmean": 740,
    "Ġsignal": 5944,
    "witted": 17706,
    "Ġreckoned": 24743,
    "Ġevol": 2817,
    "Ġbellies": 13353,
    "Ġovertook": 18429,
    "Ġdetestable": 15097,
    "attending": 18916,
    "Ġuprising": 12798,
    "Ġsuperficial": 23456,
    "Ġextend": 18681,
    "Ġschool": 5512,
    "ly": 319,
    "ĠĠĠĠĠĠĠĠĠĠĠĠĠĠĠĠĠĠĠĠĠĠĠĠĠĠĠĠĠĠĠĠĠĠĠĠ": 23667,
    "Ġintently": 8168,
    "stad": 7596,
    "Ġcommodore": 12392,
    "Ġliterary": 25162,
    "vel": 2385,
    "sion": 8093,
    "likes": 18814,
    "Ġasleep": 6836,
    "Ġpaste": 23418,
    "Ġreasoner": 14433,
    "Ġlbs": 11614,
    "Ġinsights": 13177,
    "Ġcompassionate": 24722,
    "awned": 19458,
    "Ġfool": 4238,
    "seals": 21816,
    "secur": 18127,
    "Ġbreakers": 12052,
    "Ġhog": 13922,
    "Ġ72": 19609,
    "Ġwrithing": 11943,
    "Ġseverely": 14932,
    "dro": 6644,
    "Ġrake": 18645,
    "Ġgerm": 13962,
    "icting": 12852,
    "belais": 24036,
    "Ġalter": 6541,
    "Ġvisions": 12969,
    "Ġaccommodate": 20515,
    "Ġlament": 7856,
    "Ġfilled": 4394,
    "Ġhesitated": 10000,
    "Ġfacet": 15581,
    "Ġbespe": 19241,
    "Ġcrowd": 6335,
    "Ġjoin": 4853,
    "Ġarrog": 18337,
    "onsible": 22560,
    "Ġrepeatedly": 9019,
    "Ġsubdiv": 16156,
    "largely": 19572,
    "civilized": 17074,
    "Ġdivided": 8631,
    "Ġyoun": 1406,
    "Ġroanoke": 22404,
    "ouch": 2779,
    "Ġguiltless": 16939,
    "Ġelse": 2482,
    "Ġdeveloped": 16347,
    "Ġconstruct": 8582,
    "thinking": 9012,
    "Ġaffectionate": 5584,
    "Ġcult": 8780,
    "Ġtestified": 16332,
    "Ġfarthest": 23118,
    "Ġrunning": 3950,
    "excepting": 19704,
    "Ġnantucket": 2840,
    "Ġslipping": 13358,
    "Ġpapers": 4022,
    "enter": 7857,
    "Ġsubst": 4276,
    "Ġpeaceable": 14722,
    "Ġmild": 4148,
    "vii": 13146,
    "Ġpreceding": 7527,
    "Ġsave": 4052,
    "Ġdel": 1613,
    "Ġvic": 5237,
    "Ġunremitting": 26217,
    "arian": 10315,
    "Ġranging": 8477,
    "Ġversion": 10628,
    "whosoever": 22238,
    "Ġcalamities": 25699,
    "Ġscoresby": 10461,
    "flag": 14710,
    "alone": 10182,
    "accurately": 25861,
    "addressed": 13383,
    "Ġpresented": 5183,
    "Ġrev": 6988,
    "Ġoccurred": 4462,
    "Ġsimilarly": 24308,
    "Ġmultitud": 18746,
    "Ġaffectation": 14440,
    "Ġoutwardly": 25000,
    "Ġstupendous": 20498,
    "Ġtarshish": 12025,
    "Ġ122": 24467,
    "aloud": 17941,
    "Ġthrice": 10574,
    "Ġrooms": 5180,
    "Ġgothic": 18000,
    "england": 18928,
    "Ġparacelsus": 15264,
    "Ġpenalizing": 13088,
    "faced": 8079,
    "Ġstretch": 6993,
    "cleanliness": 25871,
    "Ġvillainous": 25131,
    "boots": 11125,
    "Ġwisdom": 11234,
    "Ġmagn": 1556,
    "Ġnegro": 6446,
    "Ġcaterpillar": 5864,
    "Ġpoorly": 9853,
    "us": 532,
    "says": 13297,
    "Ġamply": 22480,
    "Ġ\"": 6119,
    "Ġstability": 1363,
    "Ġfight": 5366,
    "Ġobsolete": 26557,
    "Ġonset": 12706,
    "Ġloftiest": 16873,
    "Ġenthr": 22745,
    "honest": 17002,
    "Ġtepid": 26411,
    "Ý": 158,
    "Ġniece": 5712,
    "sery": 17660,
    "_,âĢĿ": 6218,
    "Ġhearty": 9843,
    "enet": 10151,
    "Ġfoaming": 18992,
    "studies": 25166,
    "Ġago": 3138,
    "Ġunholy": 26218,
    "Ġlashing": 11615,
    "Ġabsence": 4894,
    "Ġmorocc": 22971,
    "Ġvine": 8470,
    "...": 24549,
    "Ġdispose": 23878,
    "Ġdoxology": 22242,
    "Ġclaim": 5106,
    "nurse": 15207,
    "Ġremoval": 12114,
    "viv": 17697,
    "intending": 22934,
    "Ġstay": 3098,
    "Ġundertaken": 18987,
    "Ġforlorn": 14013,
    "Ġchronicler": 20227,
    "Ġpolitics": 19223,
    "Ġsway": 7570,
    "regular": 3042,
    "Ġmiller": 19881,
    "iantly": 13737,
    "comed": 8543,
    "ul": 371,
    "Ġdiscredit": 22782,
    "ag": 377,
    "Ġperplexed": 23662,
    "Ġtobacco": 8366,
    "Ġalgorith": 554,
    "Ġobtain": 8913,
    "Ġ113": 19694,
    "sentiment": 12910,
    "Ġnext": 2138,
    "Ġslop": 23162,
    "Ġour": 1009,
    "elve": 4641,
    "cul": 1899,
    "Ġcarve": 23092,
    "Ġfiendish": 13324,
    "Ġconvergence": 977,
    "loom": 18535,
    "Ġirish": 14533,
    "asse": 15641,
    "Ġcombine": 4415,
    "Ġmechanisms": 1576,
    "mselves": 2863,
    "Ġfeatures": 1432,
    "Ġreplace": 14475,
    "Ġanswerable": 23470,
    "Ġcumberland": 21353,
    "Ġevangelist": 20336,
    "Ġbreaths": 14856,
    "rote": 4592,
    "Ġrecommendation": 17024,
    "Ġwarmest": 16483,
    "Ġaccidental": 16847,
    "Ġheire": 18037,
    "Ġworks": 5858,
    "Ġdetermined": 2221,
    "Ġstr": 772,
    "ink": 755,
    "depths": 25663,
    "Ġwaldman": 11344,
    "darkness": 9509,
    "ptember": 10892,
    "indian": 11775,
    "Ġunlikely": 10907,
    "farm": 15349,
    "Ġcorrespond": 6209,
    "cated": 20802,
    "Ġjetted": 24431,
    "Ġresolute": 19244,
    "Ġstript": 23694,
    "Ġmount": 7361,
    "Ġdissuade": 26256,
    "irregular": 21910,
    "thur": 7187,
    "Ġsalted": 14755,
    "set": 3864,
    "cible": 20805,
    "Ġbestowing": 16969,
    "saf": 11524,
    "Ġjago": 22297,
    "bitter": 11241,
    "upwards": 18863,
    "Ġvari": 834,
    "Ġspecial": 2102,
    "orton": 11754,
    "Ġstamp": 7864,
    "Ġhermit": 15854,
    "Ġwinding": 8235,
    "Ġriver": 5411,
    "ode": 1455,
    "Ġceremony": 8360,
    "Ġaft": 5737,
    "]": 65,
    "recollection": 25348,
    "dat": 1653,
    "Ġhelps": 9366,
    "bread": 10683,
    "Ġloads": 22112,
    "lascar": 20959,
    "Ġmarried": 3408,
    ",âĢĿ": 579,
    "Ġmariners": 6068,
    "Ġlying": 4825,
    "nial": 20983,
    "Ġair": 1833,
    "Ġunexpected": 6841,
    "tles": 10729,
    "Ġport": 3310,
    "body": 2308,
    "Ġunsub": 22021,
    "Ġmort": 3460,
    "Ġdistingu": 2514,
    "atha": 6572,
    "Ġfleecy": 17022,
    "Ġpressing": 9259,
    "Ġinstigated": 18702,
    "relapse": 24014,
    "Ġfuneral": 10281,
    "enched": 10153,
    "Ġevalu": 3065,
    "gloomy": 25144,
    ",âĢĶ": 3173,
    "Ġvoid": 14083,
    "aws": 8236,
    "Ġsluggish": 25890,
    "Ġevangelical": 25506,
    "Ġhostile": 19937,
    "ech": 4389,
    "Ġdeparted": 5563,
    "Ġsecurely": 16801,
    "Ġhaws": 21950,
    "delighted": 10561,
    "ropout": 1320,
    "Ġtransfer": 2179,
    "moonlight": 25375,
    "Ġentertain": 6054,
    "enchanted": 26423,
    "Ġcous": 3437,
    "throne": 25657,
    "Ġswart": 14434,
    "leviathans": 19935,
    "Ġpeace": 3690,
    "dient": 440,
    "Ġresembled": 18034,
    "warm": 8101,
    "sinking": 17667,
    "Ġdenial": 13212,
    "Ġsooner": 5572,
    "ishing": 1146,
    "Ġscaffold": 18400,
    "Ġscruples": 15077,
    "fle": 7127,
    "Ġ12": 5483,
    "ases": 1524,
    "Ġmarshalled": 25315,
    "plumed": 21960,
    "strangers": 20334,
    "Ġresolutely": 14610,
    "Ġawfulness": 23586,
    "outward": 22158,
    "Ġgreenhorn": 23768,
    "Ġalice": 1486,
    "remains": 10397,
    "Ġcetology": 10007,
    "sharks": 14238,
    "bank": 10078,
    "Ġhousekeeper": 7455,
    "all": 486,
    "err": 1143,
    "Ġdimmed": 24267,
    "Ġdarling": 12600,
    "Ġencounter": 6627,
    "racts": 14353,
    "imental": 16532,
    "Ġuncommon": 5026,
    "Ġhump": 5853,
    "Ġdubious": 17381,
    "daggoo": 13705,
    "Ġsund": 8248,
    "opotam": 22477,
    "Ġappearance": 3697,
    "Ġcoopers": 20520,
    "for": 959,
    "Ġengineering": 3027,
    "arbuck": 2024,
    "kindness": 10504,
    "wonders": 17142,
    "gave": 7799,
    "Ġnowadays": 18545,
    "desolation": 20447,
    "Ġsold": 6002,
    "cross": 3573,
    "Ġwithdrawing": 11339,
    "syntax": 5866,
    "Ġmou": 13853,
    "orrow": 2914,
    "outer": 9667,
    "Ġconscious": 7743,
    "Ġdaintiest": 25953,
    "Ġwasn": 6997,
    "anque": 13886,
    "Ġmajor": 13288,
    "Ġtrem": 6659,
    "Ġclattered": 22348,
    "Ġmoritz": 11903,
    "prosper": 19100,
    "Ġtut": 8769,
    "Ġslack": 8954,
    "Ġforecastle": 5495,
    "official": 24914,
    "case": 5206,
    "outre": 18320,
    "reason": 4414,
    "scept": 21052,
    "Ġincensed": 18573,
    "Ġvigour": 24462,
    "entiful": 10835,
    "Ġdesk": 11904,
    "Ġciv": 3309,
    "Ġconceive": 8460,
    "Ġstalk": 12694,
    "loss": 22506,
    "Ġpeddling": 24799,
    "harmony": 25750,
    "Ġautonomous": 10674,
    "Ġphrenologically": 20391,
    "signs": 16537,
    "Ġfrankness": 16745,
    "Ġtherein": 11773,
    "queness": 18147,
    "Ġshri": 5375,
    "Ġstalked": 20426,
    "attent": 9358,
    "Ġemployer": 19430,
    "ir": 379,
    "Ġshades": 9459,
    "Ġbequest": 21751,
    "Ġalbatross": 10870,
    "warmest": 25027,
    "appalled": 18760,
    "Ġmariner": 7246,
    "iced": 3900,
    "thought": 3846,
    "Ġblindly": 12106,
    "Ġcompute": 2905,
    "Ġnation": 12643,
    "expression": 10546,
    "Ġkiss": 8182,
    "solute": 16597,
    "Ġgreenness": 23767,
    "introduced": 15123,
    "letters": 13172,
    "Ġcrosswise": 18885,
    "younger": 11312,
    "Ġintric": 9244,
    "Ġsignals": 10584,
    "Ġuntimely": 16465,
    "Ġunrem": 18245,
    "Ġperu": 14222,
    "Ġconfluent": 19039,
    "Ġpantheistic": 26335,
    "ĠĠĠĠĠĠĠĠĠĠĠĠ": 12896,
    "Ġstig": 14001,
    "Ġerskine": 17430,
    "feeder": 12358,
    "Ġtriangular": 14858,
    "influence": 13576,
    "vicious": 21117,
    "ashtego": 4104,
    "Ġcauldron": 25441,
    "Ġaccidentally": 9502,
    "Ġintens": 7003,
    "Ġjerked": 19830,
    "Ġclearly": 6896,
    "Ġfac": 6380,
    "deploy": 22141,
    "term": 3757,
    "other": 1315,
    "Ġinfallible": 15069,
    "Ġcharacteristic": 12045,
    "Ġcurric": 22974,
    "Ġasia": 11681,
    "Ġfairness": 9892,
    "Ġbelieves": 14406,
    "Ġcrystal": 17213,
    "desponding": 26341,
    "Ġmiscell": 16146,
    "N": 50,
    "xim": 1091,
    "bub": 15314,
    "Ġmole": 11789,
    "Ġobservable": 25126,
    "Ġheaded": 11054,
    "learned": 8604,
    "Ġrelations": 5852,
    "Ġcircumspection": 25884,
    "Ġarri": 2554,
    "Ġconcussion": 26300,
    "Ġindiscriminately": 20626,
    "Ġrecovered": 5481,
    "Ġwee": 21918,
    "Ġsupplement": 22999,
    "Ġwhich": 503,
    "Ġblending": 14399,
    "Ġriots": 23891,
    "reckoning": 25270,
    "Ġspake": 18308,
    "Ġshunned": 17291,
    "anct": 21356,
    "eps": 12787,
    "properly": 24918,
    "Ġdwell": 5812,
    "Ġopine": 19226,
    "Ġinstruction": 14343,
    "Ġansw": 2203,
    "surround": 16757,
    "Ġpalsied": 25779,
    "Ġvirt": 3907,
    "overcome": 19049,
    "surprised": 9528,
    "Ġfoot": 3164,
    "certain": 3674,
    "imprudent": 14651,
    "hatred": 24821,
    "handle": 11190,
    "Ġtwelve": 4963,
    "Ġstolen": 14006,
    "Ġcounted": 12136,
    "Ġawhile": 13828,
    "Ġdot": 4820,
    "Ġdexterous": 15147,
    "Ġgoethe": 22422,
    "Ġenl": 18189,
    "Ġaudio": 24772,
    "start": 7597,
    "Ġdictating": 20150,
    "gossip": 23401,
    "Ġmutual": 8296,
    "Ġportra": 9007,
    "Ġqualities": 7532,
    "ellow": 3875,
    "owl": 12679,
    "Ġoarsmen": 7737,
    "Ġturk": 6603,
    "scruple": 26044,
    "Ġfounder": 17884,
    "Ġmicroscopic": 26373,
    "toed": 18580,
    "Ġgoble": 14230,
    "Ġavowal": 19413,
    "Ġest": 2265,
    "Ġadm": 2402,
    "Ġbead": 21748,
    "Ġprofession": 6207,
    "itely": 5365,
    "homely": 25617,
    "Ġlooks": 4167,
    "dling": 9110,
    "Ġbliss": 12997,
    "Ġjane": 1754,
    "Ġparcel": 15198,
    "greek": 25404,
    "ember": 1954,
    "Ġgateway": 24802,
    "Ġsteady": 4847,
    "highest": 20405,
    "Ġgeese": 7693,
    "quired": 21847,
    "Ġshop": 9250,
    "feelings": 5674,
    "opÃ¦": 12868,
    "prehensible": 12357,
    "sacrifice": 13490,
    "Ġberyls": 25775,
    "ust": 498,
    "Ġ30": 10510,
    "Ġhol": 1181,
    "Ä": 133,
    "dimens": 2318,
    "Ġtoilings": 24741,
    "host": 5867,
    "inger": 6812,
    "several": 5543,
    "Ġmachinations": 25767,
    "Ġtrapped": 23077,
    "Ġetern": 7084,
    "Ġrecording": 24434,
    "Ġgate": 6825,
    "Ġledge": 19399,
    "oved": 5215,
    "Ġpines": 12613,
    "Ġclassifies": 11832,
    "Ġstrives": 23695,
    "Ġlater": 6016,
    "Ġinvariably": 8063,
    "explained": 23142,
    "Ġimbalanced": 18333,
    "Ġmoment": 990,
    "Ġprogress": 5023,
    "Ġshoreless": 24295,
    "connect": 1293,
    "Ġspeeches": 22654,
    "Ġpleasurable": 23339,
    "Ġsaith": 14155,
    "Ġgovern": 10449,
    "Ġdestruction": 6600,
    "Ġslo": 15504,
    "amaz": 21842,
    "tick": 17677,
    "Ġdusk": 12324,
    "Ġtolland": 24990,
    "sun": 7138,
    "Ġcod": 8411,
    "wand": 10737,
    "dataset": 23245,
    "glasses": 11215,
    "Ġdissipate": 13631,
    "Ġgeneralization": 985,
    "Ġabreast": 18394,
    "irous": 8837,
    "Ġconjured": 25099,
    "Ġseven": 4542,
    "Ġformerly": 7492,
    "Ġvalidation": 2359,
    "anqu": 4112,
    "rich": 11517,
    "Ġdreading": 23798,
    "hur": 6648,
    "conqu": 14244,
    "rect": 1597,
    "Ġworkflow": 2469,
    "Ġbreathes": 13243,
    "Ġpossessor": 23822,
    "peter": 24298,
    "ench": 21278,
    "Ġcharges": 23269,
    "Ġphilosop": 5057,
    "Ġstubbs": 23294,
    "hurriedly": 25510,
    "Ġcrust": 21349,
    "Ġadvers": 4887,
    "Ġzero": 1202,
    "disposed": 25010,
    "acon": 10680,
    "Ġisn": 7866,
    "gling": 10096,
    "ratches": 20122,
    "admit": 18091,
    "Ġen": 393,
    "Ġprocuring": 16867,
    "Ġvalu": 5038,
    "Ġmirth": 15541,
    "Ġmulti": 1045,
    "waist": 13416,
    "Ġcomfor": 14052,
    "quitted": 21849,
    "whilst": 18371,
    "Ġconven": 6151,
    "led": 580,
    "Ġsucceeding": 16760,
    "Ġgigantic": 5915,
    "Ġspiritual": 9928,
    "token": 21081,
    "Ġstoven": 23175,
    "Ġolfactories": 26171,
    "Ġtahitian": 25427,
    ").": 1270,
    "hearts": 13342,
    "Ġum": 10210,
    "Ł": 258,
    "Ġreeled": 13984,
    "Ġlately": 6386,
    "delay": 16697,
    "play": 5099,
    "Ġtechn": 9364,
    "Ġwholly": 4447,
    "Ġxxxvi": 24971,
    "Ġhalts": 3161,
    "Ġfleeting": 19326,
    "Ġtrifling": 10601,
    "Ġstoper": 14461,
    "activation": 3232,
    "Ġdetail": 634,
    "Ġimpo": 3442,
    "Ġimitated": 18329,
    "winter": 10740,
    "Ġaddressing": 11163,
    "Ġtimidly": 11337,
    "lish": 1949,
    "Ġalternating": 15030,
    "Ġmasking": 2420,
    "account": 5329,
    "Ġordained": 19443,
    "Ġbloom": 9887,
    "Ġtestimony": 14478,
    "Ġrepresentations": 1872,
    "ghost": 20886,
    "Ġfisher": 3224,
    "Ġsuperhuman": 23453,
    "Ġpaced": 7582,
    "Ġswaths": 23058,
    "Ġinfinite": 8574,
    "Ġfly": 3868,
    "persecutor": 26529,
    "Ġstandard": 14496,
    "Ġindians": 14408,
    "condescended": 26248,
    "sens": 8096,
    "Ġwax": 10775,
    "Ġproviding": 1361,
    "Ġborrowed": 17228,
    "bedstead": 23848,
    "embed": 18183,
    "disappo": 8983,
    "Ġyaw": 18095,
    "Ġgirth": 13134,
    "Ġbenefited": 19396,
    ".]": 15296,
    "Ġhymn": 24518,
    "affected": 10475,
    "Ġattractive": 25575,
    "harpooneers": 8689,
    "Ġrings": 11698,
    "Ġobliv": 16130,
    "Ġruthless": 15283,
    "ashing": 4824,
    "Ġparametric": 2395,
    "Ġvexed": 9992,
    "Ġfriends": 2655,
    "Ġargued": 13627,
    "Ġlively": 5449,
    "Ġreplying": 19579,
    "proceed": 8975,
    "Ġendowed": 18924,
    "Ġfell": 1978,
    "Ġuniversally": 11996,
    "Ġnarrow": 5086,
    "Ġcausal": 3410,
    "thes": 7390,
    "Ġladies": 3195,
    "Ġiteratively": 3059,
    "Ġprefers": 20512,
    "Ġseventy": 7878,
    "Ġadd": 630,
    "Ġfun": 523,
    "inter": 2948,
    "pattern": 4076,
    "Ġstranded": 9773,
    "Ġsepul": 14087,
    "Ġinjurious": 24270,
    "Ġcoloss": 11044,
    "reflected": 24732,
    "Ġforgetting": 3435,
    "Ġkins": 22192,
    "Ġgerman": 6141,
    "Ġadded": 2717,
    "gressive": 2753,
    "tribute": 21087,
    "Ġafrica": 12342,
    "Ġhears": 8138,
    "Ġtrembled": 8701,
    "iftings": 23224,
    "tallied": 21088,
    "Ġling": 7376,
    "Ġletters": 3791,
    "orous": 5292,
    "Ġcharm": 4548,
    "pumps": 21026,
    "Ġlouisa": 13544,
    "terrific": 25040,
    "Ġreasons": 6019,
    "Ġembra": 6579,
    "estations": 22222,
    "thick": 10259,
    "Ġdignity": 5704,
    "whaling": 7899,
    "Ġ51": 24320,
    "Ġinstructions": 11195,
    "ccarthy": 4889,
    "pronounced": 12343,
    "Ġdescends": 14285,
    "then": 2052,
    "Ġmizen": 17257,
    "avern": 24792,
    "Ġconvulsively": 25717,
    "Ġlye": 21549,
    "luent": 15993,
    "Ġnotable": 18223,
    "Ġceases": 19312,
    "olently": 15753,
    "ojo": 7348,
    "Ġknowing": 4457,
    "infidel": 24664,
    "lotte": 3331,
    "Ġcovers": 18596,
    "bted": 7793,
    "sych": 9885,
    "İ": 241,
    "Ġretort": 23070,
    "Ġthough": 992,
    "Ġgree": 7593,
    "Ġsensations": 5259,
    "Ġneville": 7398,
    "Ġfound": 1246,
    "nal": 1901,
    "neighbour": 7210,
    "initions": 21186,
    "elab": 21568,
    "Ġinterven": 10997,
    "x": 92,
    "Ġmig": 13854,
    "Ġinitial": 824,
    "orously": 8418,
    "Ġhunted": 7452,
    "acks": 11786,
    "elect": 20845,
    "forgotten": 12413,
    "conversation": 7121,
    "Ġnovember": 11747,
    "Ġneglect": 7941,
    "Ġequator": 7460,
    "Ġbackpropagation": 1238,
    "Ġshrivelled": 19701,
    "Ġdecreasing": 2443,
    "Ġthickets": 24021,
    "functions": 11230,
    "Ġunwonted": 14124,
    "dropped": 12259,
    "slept": 17168,
    "things": 6032,
    "Ġcobweb": 22585,
    "Ġredress": 23752,
    "Ġnevertheless": 5040,
    "Ġforemast": 12002,
    "Ġendeavours": 8617,
    "Ġtrout": 22353,
    "Ġthrobbing": 16897,
    "Ġnecessity": 7295,
    "streamed": 25966,
    "Ġinterior": 8894,
    "kov": 17585,
    "Ġseconds": 16394,
    "recurrent": 4994,
    "Ġhuff": 21488,
    "Ġachieved": 13164,
    "Ġderanged": 23174,
    "repeating": 20126,
    "Ġesteemed": 10587,
    "Ġtribes": 20478,
    "Ġaccess": 9745,
    "Ġopposite": 5120,
    "inside": 23065,
    "illed": 2625,
    "Ġdip": 13905,
    "Ġdance": 4442,
    "Ġroses": 11784,
    "Ġplenty": 6708,
    "cannot": 5745,
    "Ġreproofs": 24892,
    "Ġrecess": 10846,
    "it": 276,
    "nes": 6961,
    "charming": 15702,
    "Ġcasually": 25093,
    "othing": 6995,
    "assist": 11765,
    "feeling": 6616,
    "Ġcreaking": 14329,
    "continually": 11302,
    "loaded": 22510,
    "Ġgratefully": 20442,
    "stones": 11635,
    "Ġrim": 21967,
    "Ġab": 528,
    "Ġtruce": 24115,
    "Ġprogressive": 5024,
    "footsteps": 25199,
    "cats": 17511,
    "Ġvalid": 1661,
    "narrow": 11507,
    "Ġrudder": 25107,
    "ection": 4948,
    "lessly": 4556,
    "eping": 5833,
    "reliable": 21239,
    "aps": 1229,
    "Ġequinox": 25855,
    "unsuitable": 21892,
    "screaming": 20323,
    "Ġmonogram": 26573,
    "Ġpie": 13913,
    "Ġcoaxing": 18600,
    "suspicions": 25391,
    "ĕ": 214,
    "Ġboil": 16101,
    "Ġadult": 18289,
    "has": 4013,
    "plied": 10254,
    "breaths": 25336,
    "Ġprender": 22233,
    "tram": 19633,
    "landish": 11939,
    "Ġghosts": 12229,
    "animation": 16977,
    "ĠĠĠĠĠĠĠĠĠĠĠĠĠĠĠĠĠĠĠĠĠĠĠĠĠĠĠĠĠĠĠĠĠĠĠĠĠĠĠĠĠĠĠĠĠ": 9950,
    "jury": 15371,
    "Ġjeopardy": 13594,
    "deceit": 25556,
    "Ġfortitude": 9884,
    "Ġtags": 20570,
    "Ġtierce": 15476,
    "umb": 3478,
    "Ġintroduce": 3206,
    "okers": 18441,
    "Ġfors": 21769,
    "Ġcurrent": 13008,
    "Ġpia": 21463,
    "Ġcomplex": 751,
    "Ġearly": 2078,
    "Ġeaglet": 19303,
    "Ġacquaintance": 4135,
    "Ġerecting": 24653,
    "appin": 18758,
    "Ġenlist": 21936,
    "Ġheroism": 24544,
    "Ġpublished": 11242,
    "conducted": 25572,
    "dial": 20824,
    "Ġvessel": 3797,
    "Ġretention": 23071,
    "Ġembarks": 23002,
    "scorched": 25697,
    "Ġusages": 15912,
    "lab": 3457,
    "h": 76,
    "Ġexchanging": 18131,
    "Ġensures": 3057,
    "Ġfullest": 14812,
    "Ġaccusations": 22378,
    "Ġdescried": 7919,
    "Ġspaces": 3114,
    "Ġpicturesqueness": 24480,
    "iel": 11493,
    "Ġplate": 8897,
    "Ġsuperl": 16444,
    "Ġnightfall": 23132,
    "rise": 6226,
    "thed": 8825,
    "Ġdocumentation": 20553,
    "Ġcome": 1242,
    "Ġchallenge": 25471,
    "generally": 9432,
    "Ġcasts": 19424,
    "pinn": 21025,
    "Ġlurch": 21553,
    "Ġlodger": 24090,
    "Ġwing": 6665,
    "Ġbritannica": 24679,
    "Ġintended": 5547,
    "ived": 1536,
    "Ġstrike": 4855,
    "Ġgenteel": 19978,
    "Å": 134,
    "Ġ27": 8614,
    "Ġsan": 7824,
    "--âĢĺ": 22849,
    "Ġmaintenance": 17460,
    "intend": 16222,
    "Ġmaxim": 3089,
    "ony": 3030,
    "Ġshark": 5549,
    "Ġvast": 3298,
    "Ġdaily": 5986,
    "Ġpardon": 5727,
    "these": 3242,
    "epend": 3315,
    "Ġunfathomable": 20547,
    "Ġpipes": 9845,
    "concerning": 9063,
    "sicilian": 21062,
    "few": 8203,
    "Ġrequested": 14300,
    "Ġannot": 15598,
    "iscuit": 10597,
    "Ġfootmen": 23797,
    "Ġextinction": 14326,
    "Ġaskance": 23150,
    "Ġhip": 17921,
    "Ġwearisome": 19792,
    "seven": 8462,
    "hide": 10702,
    "Ġreappeared": 21663,
    "oons": 12495,
    "Ġinv": 2223,
    "Ġisolated": 13557,
    "Ġmoisture": 12356,
    "Ġref": 909,
    "Ġcowards": 12569,
    "Ġwretch": 6377,
    "Ġliveliest": 24775,
    "Ġcomprehen": 5349,
    "Ġnine": 5369,
    "Ġofficio": 23814,
    "Ġwhitish": 24866,
    "Ġmaintains": 2145,
    "iguous": 18044,
    "oney": 3050,
    "project": 16421,
    "Ġbear": 3655,
    "Ġcouch": 12567,
    "Ġ54": 24322,
    "Ġgazing": 5876,
    "Ġragged": 11844,
    "Ġprovided": 6577,
    "Ġstorm": 4302,
    "two": 3858,
    "Ġdeliberate": 15022,
    "painted": 17638,
    "bled": 5469,
    "Ġtarpaul": 17729,
    "Ġweep": 7618,
    "Ġdearly": 10400,
    "Ġinsular": 19267,
    "Ġtint": 13815,
    "searching": 25103,
    "Ġcripp": 9652,
    "cement": 2827,
    "ell": 398,
    "Ġcase": 1939,
    "Ġallegor": 25545,
    "Ġcontinental": 19703,
    "Ġwhirlp": 16961,
    "Ġdaboll": 25950,
    "Ġ119": 24441,
    "no": 902,
    "composure": 24032,
    "Ġthenceforth": 25182,
    "Ġriggers": 24155,
    "Ġmayhew": 12946,
    "service": 15036,
    "_?âĢĿ": 15303,
    "Ġlog": 1679,
    "Ġmast": 2900,
    "qualities": 25043,
    "Ġgaiety": 16748,
    "Ġprestige": 22234,
    "anger": 2170,
    "Ġvap": 6837,
    "Ġconscientious": 16726,
    "Ġmurder": 4283,
    "Ġanticipation": 17056,
    "pole": 9331,
    "Ġinfirm": 19016,
    "Ġvelv": 10618,
    "Ġoccasion": 3247,
    "visitors": 13346,
    "religion": 20574,
    "Ġrelationships": 2925,
    "welcome": 9999,
    "eminently": 25105,
    "ocean": 12398,
    "iceland": 21564,
    "Ġodor": 12146,
    "Ġchall": 10943,
    "drawing": 10485,
    "Ġbeaver": 18086,
    "Ġdecreed": 18490,
    "Ġthanking": 18602,
    "affording": 23777,
    "Ġmonths": 3456,
    "Ġports": 10817,
    "blue": 13691,
    "Ġsigning": 22707,
    "surgeon": 24214,
    "persons": 24173,
    "Ġ15": 9322,
    "wives": 15453,
    "Ġnoble": 3440,
    "Ġending": 18190,
    "aways": 15308,
    "Ġtrouble": 3688,
    "Ġauthorities": 11264,
    "Ġconcer": 23318,
    "oda": 15745,
    "Ġhails": 21949,
    "ospel": 17009,
    "Ġvocabulary": 4995,
    "Ġguns": 16775,
    "Ġpush": 9183,
    "Ġcatastrophic": 3540,
    "Ġbidden": 24647,
    "orph": 21397,
    "Ġsolemnity": 9939,
    "pred": 2804,
    "Ġpau": 17909,
    "entric": 11618,
    "Ġslavery": 16305,
    "featured": 24157,
    "Ġattack": 5478,
    "contriv": 19291,
    "Ġbounty": 26436,
    "Ġhal": 1362,
    "Ġbour": 4876,
    "Ġberkshire": 16883,
    "Ġdaylight": 10349,
    "Ġunique": 12774,
    "Ġbiography": 22761,
    "trowsers": 17690,
    "Ġboasting": 19933,
    "Ġpra": 4347,
    "Ġhire": 21483,
    "Ġcourses": 10410,
    "Ġstaggered": 9536,
    "Ġoccurs": 1854,
    "mic": 12485,
    "Ġzones": 22818,
    "oubled": 23646,
    "rically": 15415,
    "Ġcontrive": 16007,
    "ts": 960,
    "various": 10396,
    "Ġfocused": 16338,
    "Ġquarters": 8619,
    "Ġflattening": 26049,
    "mannered": 22851,
    "Ġclin": 14200,
    "s": 87,
    "avers": 17479,
    "ove": 1741,
    "Ġthews": 21276,
    "Ġstained": 11651,
    "semicirc": 26490,
    "Ġtwo": 1044,
    "convalescence": 24884,
    "generative": 4331,
    "affairs": 14656,
    "Ġblemish": 19677,
    "bular": 15311,
    "Ġmaelstrom": 19354,
    "inating": 9152,
    "Ġunbending": 25464,
    "Ġdeer": 12716,
    "Ġkindliness": 23292,
    "95": 17476,
    "Ġlees": 18063,
    "Ġcabman": 14605,
    "Ġresume": 18565,
    "Ġrewarded": 14939,
    "readiness": 19361,
    "aur": 15306,
    "Ġoctober": 17225,
    "Ġchurchyard": 16776,
    "sell": 13779,
    "Ġeat": 4643,
    "Ġdownst": 3557,
    "depend": 9111,
    "gaff": 20881,
    "fishery": 10030,
    "bildad": 9585,
    "opol": 12867,
    "Ġardently": 9495,
    "Ġprop": 1683,
    "especially": 3570,
    "Ġ34": 16676,
    "circumst": 5348,
    "iability": 20919,
    "Ġhabitation": 14801,
    "ascending": 24706,
    "uneven": 23685,
    "Ġaccountability": 10437,
    "Ġlitter": 19827,
    "Ġpork": 21456,
    "structed": 11164,
    "Ġhigher": 1817,
    "Ġpropag": 16344,
    "beam": 16034,
    "sunlight": 24851,
    "encyclopÃ¦dia": 16662,
    "Ġdropt": 23676,
    "Ġswitching": 23057,
    "brimmed": 14587,
    "Ġincluding": 2849,
    "classification": 4387,
    "Ġidiotic": 25588,
    "Ġavalanche": 17431,
    "Ġexecut": 4250,
    "ackinaw": 22419,
    "Ġeducated": 16784,
    "hel": 4814,
    "Ġign": 8294,
    "Ġmainly": 22652,
    "Ġwas": 370,
    "precious": 12069,
    "Ġlac": 17965,
    "Ġundu": 15834,
    "Ġseating": 18200,
    "ittleness": 22374,
    "Ġlun": 7855,
    "Ġhertfordshire": 5377,
    "Ġyelled": 9692,
    "laz": 15383,
    "Ġsap": 18323,
    "Ġbiographical": 22762,
    "islanders": 25442,
    "Ġecl": 18006,
    "Ġpots": 9425,
    "Ġexpose": 10326,
    "planted": 11696,
    "Ġglittering": 10051,
    "Ġclaims": 13371,
    "hammad": 23264,
    "combe": 7659,
    "ophisticated": 22476,
    "fi": 12458,
    "Ġcalifornia": 20528,
    "ensed": 10995,
    "ancient": 9654,
    "complacency": 19912,
    "Ġeh": 6987,
    "Ġislands": 6766,
    "cast": 2928,
    "Ġquitting": 7644,
    "Ġspell": 8854,
    "Ġfrenchman": 11283,
    "Ġage": 3895,
    "Ġsubstantial": 14809,
    "Ġunable": 4951,
    "Ġdefray": 22940,
    "incidentally": 20538,
    "thirds": 25046,
    "iterranean": 15546,
    "inished": 17733,
    "Ġunmolested": 15243,
    "Ġshudder": 9049,
    "Ġlightnings": 16350,
    "fat": 8078,
    "Ġstigma": 25791,
    "boat": 3361,
    "Ġelder": 7223,
    "Ġshadow": 5595,
    "somers": 19366,
    "erpillar": 5797,
    "Ġconn": 9228,
    "Ġcheapside": 23286,
    "Ġbir": 17854,
    "Ġfinite": 2326,
    "Ġaccurately": 4476,
    "skin": 10567,
    "borrowed": 20791,
    "Ġjoint": 12031,
    "Ġemployment": 8628,
    "Ġjoined": 4564,
    "und": 4120,
    "Ġkindling": 19027,
    "Ġascertained": 25296,
    "milk": 20474,
    "tish": 17676,
    "houn": 20892,
    "Ġirresistible": 13110,
    "Ġcastor": 19425,
    "Ġperfections": 23608,
    "out": 467,
    "Ġforc": 9226,
    "Ġliver": 14227,
    "Ġarea": 14186,
    "Ġobsequious": 17402,
    "Ġtoy": 15630,
    "language": 5129,
    "resolved": 9638,
    "family": 7323,
    "Ġtarget": 2823,
    "wandered": 20283,
    "Ġsworn": 14435,
    "Ġhieroglyph": 11967,
    "Ġexistence": 4705,
    "iss": 2175,
    "Ġwilliam": 3482,
    "Ġattempt": 3486,
    "esc": 614,
    "Ġincomp": 12893,
    "Ġuniformity": 23483,
    "Ġfris": 23257,
    "aker": 3661,
    "======================================================================": 10066,
    "Ġoccasioned": 13224,
    "reg": 2183,
    "Ġvolcano": 24146,
    "Ġdecorated": 22457,
    "Ġcharge": 5324,
    "Ġguess": 4903,
    "itaries": 21334,
    "Ġanchors": 12609,
    "tacit": 21097,
    "Ġapplies": 11957,
    "librarian": 26567,
    "sen": 21048,
    "Ġinfrequent": 3822,
    "oce": 10713,
    "Ġlunch": 13524,
    "hill": 15360,
    "spade": 10338,
    "Ġmelbourne": 24289,
    ".âĢĻâĢĿ": 6739,
    "Ġconfide": 13096,
    "Ġconfident": 11137,
    "Ġquickly": 4244,
    "Ġneighb": 14074,
    "Ġsuperlative": 26074,
    "Ġattention": 1187,
    "Ġoversight": 22360,
    "Ġvale": 14079,
    "Ġvel": 7185,
    "Ġd": 284,
    "Ġmus": 3397,
    "Ġhurried": 4032,
    "iloquent": 21723,
    "Ġperches": 18449,
    "Ġarrival": 4730,
    "Ġregimentals": 19855,
    "Ġsecrets": 9053,
    "constantly": 24631,
    "critters": 14782,
    "Ġafore": 10757,
    "Ġsnarl": 25715,
    "cre": 4253,
    "Ġashore": 5351,
    "âĢľâĢĺ": 1487,
    "ener": 561,
    "Ġrambles": 17183,
    "iday": 8828,
    "Ġtread": 9406,
    "Ġhaunts": 18199,
    "Ġtwos": 18657,
    "Ġmeasureless": 14709,
    "Ġscrape": 14917,
    "Ġallusion": 7624,
    "regiment": 16451,
    "Ġevid": 3499,
    "ĠâĢĶ_": 3459,
    "interesting": 12198,
    "Ġpr": 1598,
    "Ġstoop": 16308,
    "Ġlob": 7626,
    "onah": 3337,
    "Ġease": 5629,
    "Ġmeta": 3717,
    "Ġmah": 15537,
    "Ġconstantly": 11969,
    "Ġshooting": 11161,
    "acting": 22629,
    "Ġshave": 21995,
    "Ġpossibly": 4514,
    "ened": 1388,
    "Ġnovels": 15926,
    "Ġlabyrin": 13102,
    "bling": 10077,
    "spl": 9138,
    "chief": 4644,
    "induce": 22372,
    "Ġcommonest": 23089,
    "Ġstables": 23658,
    "Ġmalicious": 10556,
    "ched": 1548,
    "inav": 15481,
    "Ġintersect": 22574,
    "Ġsitting": 3601,
    "Ġmutually": 23955,
    "Ġcharted": 22248,
    "Ġdegree": 3701,
    "fooled": 24419,
    "Ġjourney": 3878,
    "rabb": 15676,
    "Ġsells": 21222,
    "Ġfellow": 2776,
    "Ġstared": 8453,
    "Ġinclined": 6622,
    "Ġparagraph": 17452,
    "Ġreconciliation": 25292,
    "precedented": 15173,
    "Ġdist": 679,
    "rabbit": 20589,
    "Ġheated": 21680,
    "Ġopinion": 3144,
    "abbering": 21794,
    "wandering": 20282,
    "Ġtwice": 4661,
    "Ġbast": 21377,
    "lp": 897,
    "Ġbar": 3150,
    "uncomfortable": 18161,
    "Ġrelated": 3713,
    "Ġdeceiving": 21836,
    "maintained": 25020,
    "Ġheathenish": 13614,
    "abomin": 15738,
    "Ġconsummation": 17423,
    "Ġ126": 24471,
    "precipitance": 25867,
    "Ġfossiliferous": 25609,
    "Ġwired": 17787,
    "osity": 14185,
    "ipping": 2205,
    "Ġmiser": 18703,
    "Ġnought": 21520,
    "aciousness": 18606,
    "ô": 181,
    "Ġmurmured": 7479,
    "Ġlegitimate": 20641,
    "Ġanimate": 23422,
    "Ġsophisticated": 1627,
    "Ġlieutenant": 15259,
    "australian": 20560,
    "Ġdefici": 22942,
    "Ġmun": 12558,
    "Ġvan": 1084,
    "Ġher": 426,
    "Ġdungeon": 16995,
    "Ġlust": 9196,
    "engaged": 7451,
    "grace": 5846,
    "Ġperilously": 24504,
    "Ġmason": 10156,
    "script": 11076,
    "endeavour": 17030,
    "Ġcunning": 6238,
    "Ġcruel": 5121,
    "Ġvisitors": 7984,
    "Ġtweezers": 26555,
    "Ġsingers": 23771,
    "Ġhunger": 8565,
    "icy": 6140,
    "remote": 23189,
    "Ġcrown": 5287,
    "Ġdeeps": 16111,
    "Ġoverall": 4359,
    "Ġdraws": 19434,
    "Ġheadsmen": 14731,
    "Ġattorney": 18627,
    "worth": 8626,
    "Ġmitt": 21306,
    "Ġother": 759,
    "Ġwed": 3959,
    "Ġdetached": 10279,
    "determine": 19941,
    "ratulations": 20123,
    "returned": 7765,
    "Ġins": 2780,
    "Ġhungry": 10531,
    "ck": 436,
    "Ġloggerhead": 13655,
    "Ġamazed": 14888,
    "sleepers": 24729,
    "Ġlikely": 3595,
    "imp": 3034,
    "Ġcollecting": 12283,
    "Ġhare": 5157,
    "possibly": 10542,
    "Ġlectures": 17177,
    "Ġratio": 5066,
    "ouses": 5163,
    "Ġdimin": 3870,
    "Ġcheap": 13086,
    "Ġtransport": 11278,
    "vels": 5432,
    "wretch": 17707,
    "Ġquiescent": 26242,
    "idge": 14012,
    "rily": 7620,
    "backed": 9864,
    "lers": 10105,
    "Ġpreternatural": 12819,
    "izings": 14042,
    "naturally": 14588,
    "Ġhinges": 15211,
    "Ġmildly": 9028,
    "hush": 20905,
    "cheon": 23803,
    "Ġevident": 6612,
    "words": 7982,
    "Ġseparating": 16684,
    "ette": 15655,
    "Ġspades": 12792,
    "superiority": 20183,
    "Ġjoky": 18406,
    "Ġmumbled": 17808,
    "reen": 21230,
    "Ġconsolation": 6208,
    "Ġsanct": 15064,
    "Ġconcluding": 9855,
    "whips": 22236,
    "Ġcounterpane": 11342,
    "Ġtreacle": 14595,
    "Ġinj": 4759,
    "warp": 17705,
    "ivot": 11716,
    "?âĢĿ": 699,
    "Ġsurtout": 23465,
    "Ġreplied": 2263,
    "Ġside": 1387,
    "Ġtall": 4039,
    "Ġconsistent": 14527,
    "who": 2445,
    "oak": 21002,
    "ispensable": 9094,
    "Ġdeliverance": 15156,
    "Ġsamples": 2962,
    "Ġdistress": 5844,
    "Ġwidower": 24235,
    "Ġconcisely": 19043,
    "Ġdemanding": 16804,
    "sartain": 25622,
    "Ġthroes": 24574,
    "gracechurch": 24581,
    "conside": 9288,
    "Ġjourneys": 19473,
    "ission": 6456,
    "country": 6103,
    "Ġobligations": 12088,
    "contracting": 19292,
    "Ġquality": 3526,
    "Ġsur": 2182,
    "Ġquadrille": 13539,
    "father": 3775,
    "Ġappe": 1542,
    "gallantry": 15060,
    "ro": 301,
    "Ġlamented": 24993,
    "bald": 16445,
    "Ġsen": 9155,
    "ifference": 5632,
    "ourney": 3551,
    "anx": 8782,
    "Ġincisive": 18572,
    "sebastian": 21818,
    "Ġflattered": 10373,
    "Ġ95": 19771,
    "iag": 20915,
    "suggested": 17297,
    "Ġenquired": 21940,
    "turbaned": 24532,
    "Ġquitted": 5311,
    "Ġtambourine": 9562,
    "ve": 323,
    "Ġprot": 3845,
    "Ġinseparable": 20687,
    "ĠâĢľâĢĶ": 9732,
    "thrusting": 20257,
    "succeeded": 15174,
    "Ġvigorously": 11299,
    "Ġminds": 6302,
    "pher": 11511,
    "Ġleaf": 15713,
    "equ": 6790,
    "Ġunsh": 14113,
    "Ġaloft": 4304,
    "nor": 2741,
    "Ġscra": 5840,
    "Ġunthinkingly": 26220,
    "prick": 19341,
    "Ġislanders": 19500,
    "Ġcontest": 18473,
    "Ġinattention": 17932,
    "hole": 5585,
    "yield": 13807,
    "justified": 19002,
    "gently": 13727,
    "iers": 5990,
    "lim": 9605,
    "u": 89,
    "Ġliv": 6679,
    "Ġstag": 6148,
    "Ġcoll": 8221,
    "Ġsubject": 2465,
    "Ġcounsell": 25384,
    "Ġfielding": 16228,
    "teenth": 11872,
    "Ġabiding": 22268,
    "frost": 15105,
    "volume": 18605,
    "oarsman": 25261,
    "Ġmoccas": 22434,
    "rians": 21929,
    "Ġpupils": 20418,
    "Ġcategor": 4141,
    "sounding": 24796,
    "Ġincites": 22550,
    "visit": 7754,
    "farintosh": 24553,
    "Ġpant": 10816,
    "Ġelect": 10841,
    "omet": 3079,
    "Ġrheum": 18215,
    "Ġentire": 2560,
    "Ġuncouth": 14549,
    "Ġgrand": 3590,
    "Ġsands": 14947,
    "Ġmaw": 15536,
    "aton": 21257,
    "Ġdowncast": 18652,
    "Ġterminating": 23509,
    "Ġengagements": 9976,
    "Ġhaste": 9002,
    "Ġmagnitude": 1942,
    "Ġcaptioning": 23020,
    "Ġfearfulness": 23511,
    "atural": 961,
    "Ġtendinous": 16930,
    "Ġability": 2763,
    "Ġdistributes": 4197,
    "Ġcoin": 9769,
    "glances": 23852,
    "ingle": 1039,
    "direct": 12453,
    "ordingly": 18515,
    "Ġcott": 3706,
    "Ġskilful": 25837,
    "baron": 24925,
    "Ġsoftly": 7947,
    "Ġgreeted": 23211,
    "Ġeffusion": 22496,
    "throt": 25659,
    "reporting": 24494,
    "asis": 12646,
    "creat": 20799,
    "Ġdared": 5440,
    "Ġott": 13864,
    "Ġ199": 3010,
    "legged": 10465,
    "ĠĠĠĠĠĠĠĠĠĠĠĠĠĠĠĠĠĠĠĠĠĠĠĠĠĠĠĠĠĠĠĠĠĠĠĠĠĠĠĠĠĠĠĠĠĠĠĠĠĠĠĠĠ": 20037,
    "Ġexceedingly": 4614,
    "Ġser": 1675,
    "sterdam": 19088,
    "exercise": 17458,
    "Ġstudents": 23227,
    "Ġpeg": 22687,
    "obedience": 17408,
    "Ġscent": 10283,
    "garious": 17557,
    "ichever": 13955,
    "Ġpatted": 16372,
    "preser": 9758,
    "Ġounce": 15270,
    "Ġconsciousness": 9946,
    "appear": 13194,
    "Ġunparalleled": 15850,
    "Ġjoints": 12032,
    "taffrail": 15440,
    "ccess": 3185,
    "increas": 10453,
    "Ġtransient": 18481,
    "Ġlength": 2501,
    "Ġobservations": 13551,
    "Ġohio": 19128,
    "Ġdebar": 24271,
    "mark": 5281,
    "Ġpencil": 11940,
    "Ġimbu": 15888,
    "Ġforcing": 3226,
    "liness": 8746,
    "Ġincoherent": 17398,
    "Ġmoderately": 22213,
    "Ġtelesc": 12988,
    "Ġmere": 2714,
    "finds": 19925,
    "Ġmadam": 5663,
    "imens": 1744,
    "bag": 7541,
    "Ġchildhood": 13136,
    "justine": 7682,
    "hospit": 25903,
    "Ġbritain": 16954,
    "Ġphilosoph": 19649,
    "Ġorganize": 8990,
    "develop": 13516,
    "Ġincreas": 1695,
    "Ġvariations": 22664,
    "sper": 4434,
    "marching": 25752,
    "Ġpostpone": 17305,
    "anyth": 5438,
    "Ġmomentarily": 22812,
    "Ġprivileged": 20110,
    "Ġlead": 3521,
    "ubbub": 23244,
    "ilight": 12689,
    "elius": 13284,
    "Ġcomparatively": 9487,
    "bpp": 20771,
    "mr": 1900,
    "Ġguardian": 14941,
    "conveyed": 20519,
    "Ġfantastic": 10057,
    "Ġoldest": 12970,
    "Ġbuttoning": 17234,
    "Ġcommenting": 25228,
    "Ġpitched": 9441,
    "Ġmurky": 19201,
    "Ġmodeling": 2095,
    "Ġsatur": 1929,
    "Ġ7": 4744,
    "Ġfestoon": 20292,
    "Ġsupreme": 13605,
    "enance": 3370,
    "Ġtelegraph": 25583,
    "designated": 26295,
    "ips": 2593,
    "ed": 293,
    "Ġeddy": 13121,
    "Ġency": 21933,
    "Ġis": 347,
    "leaped": 17844,
    "Ġacknowledgment": 16955,
    "cape": 13695,
    "Ġincarnation": 25573,
    "conscience": 14859,
    "herald": 22203,
    "Ġunex": 11711,
    "Ġlabor": 10415,
    "Ġprofile": 16487,
    "untary": 9865,
    "Ġpolicy": 10456,
    "Ġmaj": 3925,
    "plutarch": 21962,
    "Ġchaldee": 26234,
    "Ġkeener": 22914,
    "uend": 21100,
    "Ġless": 1937,
    "Ġfaces": 6008,
    "Ġblameless": 19856,
    "Ġconvert": 11841,
    "fully": 2201,
    "line": 1439,
    "irksome": 18173,
    "Ġimputed": 12804,
    "Ġrejoined": 14926,
    "ient": 392,
    "Ġdoubloons": 13432,
    "Ġnephews": 24713,
    "Ġdouble": 4940,
    "Ġexerting": 21830,
    "humoredly": 26324,
    "Ġrationally": 18214,
    "Ġshamefully": 24715,
    "purposes": 25021,
    "Ġscru": 8190,
    "Ġopenly": 8571,
    "Ġtor": 8105,
    "Ġrude": 7233,
    "Ġobedient": 20102,
    "Ġcompleted": 8996,
    "coward": 13698,
    "Ġcombinations": 22861,
    "Ġseizing": 7877,
    "Ġincumbent": 16059,
    "Ġcontrast": 2118,
    "Ġgang": 9206,
    "unicorn": 21888,
    "Ġentr": 14337,
    "ond": 1161,
    "discovering": 24251,
    "ign": 1703,
    "Ġmice": 13857,
    "lingly": 9771,
    "Ġpractised": 23324,
    "upp": 10129,
    "Ġgrimes": 11034,
    "Ġrates": 1403,
    "evenings": 19461,
    "rd": 17648,
    "Ġoften": 1953,
    "Ġspoken": 4836,
    "Ġexaggerate": 25649,
    "Ġmanipulated": 25178,
    "Ġunravel": 26214,
    "Ġvult": 12745,
    "Ġfloundering": 16249,
    "wharf": 20605,
    "uzza": 11270,
    "Ġschedule": 2373,
    "Ġtriumphantly": 11287,
    "smallest": 23910,
    "another": 5439,
    "lesson": 22766,
    "Ġfanned": 19099,
    "oding": 1463,
    "aming": 5828,
    "Ġpiling": 17911,
    "ivia": 22074,
    "Ġtypes": 8935,
    "mits": 13754,
    "sharp": 10305,
    "anoke": 21359,
    "Ġmainz": 22651,
    "id": 338,
    "Ġrelaps": 18776,
    "Ġbrougham": 17871,
    "Ġattentively": 9948,
    "Ġwires": 21294,
    "Ġreporting": 24658,
    "Ġpurest": 14938,
    "Ġprank": 23218,
    "Ġquoted": 22413,
    "Ġshrinking": 14803,
    "Ġyield": 5093,
    "unteered": 26494,
    "Ġbreathing": 9442,
    "Ġtransl": 2832,
    "Ġkicks": 19766,
    "Ġeverybody": 4511,
    "nothing": 3156,
    "Ġsurmises": 17054,
    "Ġtrampling": 25492,
    "Ġtallow": 14776,
    "dischar": 19151,
    "Ġlaugh": 4115,
    "Ġfurniture": 6475,
    "d": 72,
    "Ġsixth": 16557,
    "imes": 1301,
    "Ġchronicle": 20226,
    "Ġpal": 4042,
    "turner": 19540,
    "Ġineffable": 17330,
    "Ġinvis": 6902,
    "Ġshan": 9247,
    "Ġvane": 22875,
    "poling": 12216,
    "Ġwhale": 627,
    "Ġcrevice": 22725,
    "Ġdisadvantage": 12886,
    "Ġimpediments": 26240,
    "Ġparallelization": 3431,
    "ulgences": 21863,
    "Ġscre": 9735,
    "Ġartful": 22607,
    "Ġcommentaries": 20158,
    "Ġmultiplicity": 19274,
    "benefact": 24642,
    "blast": 9586,
    "pence": 15407,
    "Ġscores": 2715,
    "Ġshadowed": 24043,
    "Ġemployments": 12099,
    "endous": 6850,
    "Ġinquis": 19302,
    "Ġchicha": 15933,
    "Ġoverjoy": 15969,
    "Ġchilly": 25562,
    "Ġcamberwell": 25350,
    "glance": 16586,
    "satisfied": 10577,
    "return": 5489,
    "Ġpenalties": 10411,
    "rift": 11519,
    "homage": 25616,
    "stream": 15683,
    "Ġrever": 6535,
    "sockets": 22727,
    "Ġannounced": 9033,
    "instances": 13325,
    "excuse": 13379,
    "cain": 15324,
    "Ġreigning": 15697,
    "Ġresult": 4460,
    "hateful": 20908,
    "ding": 1231,
    "Ġmeans": 698,
    "Ġparliament": 18302,
    "uous": 4146,
    "Ġmass": 3779,
    "wrinkled": 16552,
    "Ġthursday": 12640,
    "touching": 15090,
    "Ġwhistled": 24621,
    "Ġimpul": 7207,
    "Ġadventurous": 16732,
    "Ġlies": 5295,
    "pagan": 17284,
    "judge": 13334,
    "Ġboxes": 13372,
    "!": 5,
    "rubber": 12808,
    "Ġcontemplated": 13462,
    "Ġsurrounded": 5879,
    "Ġafric": 8902,
    "command": 6576,
    "Ġpitches": 23900,
    "Ġdrive": 5055,
    "irms": 18169,
    "cares": 24309,
    "Ġaccuracy": 1124,
    "Ġman": 545,
    "Ġbosom": 6939,
    "borean": 25743,
    "Ġreversed": 15693,
    "Ġsuppressed": 11908,
    "Ġsuspecting": 14909,
    "Ġwatchman": 23669,
    "familiar": 19780,
    "Ġvehicles": 10658,
    "Ġawed": 23584,
    "ources": 2787,
    "Ġcompiled": 22569,
    "ceiving": 3902,
    "Ġpeeled": 14317,
    "Ġtransf": 22435,
    "Ġferrule": 24517,
    "Ġelapsed": 7651,
    "Ġmilitia": 13315,
    "Ġhumanity": 6731,
    "ocratic": 17244,
    "Ġexamination": 8004,
    "cher": 5786,
    "elly": 17980,
    "Ġmealy": 18121,
    "Ġcalifornian": 25851,
    "Ġfavoring": 2346,
    "Ġcoleridge": 18765,
    "Ġfruit": 12323,
    "oided": 11508,
    "Ġranks": 21974,
    "Ġcanaller": 25467,
    "requirements": 24857,
    "Ġunfavourable": 17415,
    "othe": 2616,
    "Ġhooked": 19077,
    "Ġmarshal": 20217,
    "having": 5211,
    "Ġminutest": 14559,
    "Ġinstructed": 19283,
    "Ġcore": 13876,
    "*": 14,
    "Ġleaned": 7603,
    "Ġdisco": 3429,
    "Ġcoopman": 25827,
    "mo": 863,
    "Ġanalyzing": 18791,
    "Ġashes": 7615,
    "request": 21240,
    "Ġut": 2277,
    "Ġtropic": 17063,
    "Ġpromoting": 3163,
    "izer": 2030,
    "lott": 6650,
    "Ġpredicting": 2416,
    "Ġloomed": 12298,
    "plan": 15815,
    "theirs": 23602,
    "Ġsong": 5903,
    "Ġblunt": 11892,
    "sil": 5282,
    "uce": 11535,
    "honor": 19898,
    "Ġstartling": 14670,
    "Ġdissol": 18550,
    "owers": 12680,
    "Ġtents": 13816,
    "Ġliked": 5264,
    "Ġvii": 13106,
    "Ġcad": 12564,
    "Ġmutineer": 19416,
    "aples": 20767,
    "Ġmuch": 921,
    "sufferable": 12173,
    "ound": 586,
    "Ġcelerity": 17434,
    "Ġprocedural": 12027,
    "Ġpliny": 11823,
    "Ġoun": 13861,
    "Ġannals": 17899,
    "prob": 7068,
    "Ġsqualls": 17019,
    "ials": 11704,
    "Ġexcl": 3474,
    "Ġimposing": 11779,
    "sheet": 16283,
    "Ġsensitivity": 3073,
    "arrang": 14652,
    "Ġmuse": 13858,
    "Ġcolumb": 22854,
    "Ġbriskly": 25311,
    "E": 41,
    "altern": 17942,
    "Ġinstantly": 3589,
    "Ġdesist": 16235,
    "Ġmichigan": 26425,
    "striving": 24670,
    "Ġsomnambul": 26575,
    "Ġearn": 3545,
    "teeth": 10354,
    "gn": 8081,
    "Ġattach": 14291,
    "fold": 7545,
    "whatsoever": 18493,
    "Ġshakes": 10903,
    "Ġconscience": 6929,
    "Ġelix": 22641,
    "remarkable": 13496,
    "Ġquivered": 18467,
    "Ġbee": 21747,
    "september": 14034,
    "amore": 21841,
    "dashed": 12452,
    "lighter": 20958,
    "Ġroylott": 7304,
    "lun": 20945,
    "Ġcharcoal": 19006,
    "Ġmystic": 7502,
    "practical": 17220,
    "yourselves": 24958,
    "Ġdeftly": 26492,
    "||": 4869,
    "ootiful": 17371,
    "Ġcarpenter": 4684,
    "atmosphere": 21263,
    "Ġmainland": 22653,
    "nights": 16447,
    "Ġunmanner": 22027,
    "Ġweaving": 12736,
    "Ġdoors": 6417,
    "inese": 12875,
    "Ġforg": 3786,
    "Ġreserves": 19668,
    "anum": 17836,
    "luxur": 25822,
    "cun": 20794,
    "Ġsnapped": 9895,
    "battle": 12439,
    "Ġapprehensiveness": 16876,
    "Ġrising": 4356,
    "Ġinstructing": 3125,
    "Ġidentify": 12010,
    "vessels": 10624,
    "«": 109,
    "Ġdemi": 25548,
    "ifling": 15779,
    "Ġsagacious": 14969,
    "heed": 15496,
    "Ġkra": 18348,
    "Ġdistrusted": 13540,
    "ption": 7397,
    "Ġsant": 21213,
    "Ġexchanged": 10877,
    "Ġmerest": 14029,
    "Ġsailor": 3534,
    "poor": 6061,
    "Ġexquisitely": 20200,
    "passed": 8025,
    "tee": 16170,
    "dington": 11899,
    "Ġnice": 6676,
    "Ġcompassion": 6486,
    "Ġextravagant": 17277,
    "Ġembraced": 10004,
    "Ġpressed": 6041,
    "Ġcon": 348,
    "Ġchecking": 23284,
    "recognised": 15260,
    "Ġjealousy": 13574,
    "Ġjewels": 12366,
    "Ġtongs": 9959,
    "sky": 12507,
    "Ġbanker": 8666,
    "Ġdepths": 4327,
    "Ġniagara": 26457,
    "Ġambitious": 18513,
    "perform": 15893,
    "abases": 3007,
    "Ġwhoa": 22420,
    "buried": 14848,
    "Ġworthy": 7240,
    "Ġskilfully": 20522,
    "Ġschooner": 16746,
    "tashtego": 9621,
    "miserably": 24210,
    "Ġbleeds": 24397,
    "Ġjam": 10950,
    "Ġcrop": 10161,
    "Ġthirty": 4944,
    "Ġnocturnal": 20714,
    "grief": 13729,
    "fted": 9117,
    "Ġowl": 20081,
    "olog": 1067,
    "muring": 17600,
    "Ġhay": 11604,
    "Ġcircumn": 11980,
    "leap": 21365,
    "Ġsavoury": 23876,
    "Ġbec": 1348,
    "Ġrenow": 18028,
    "arman": 11594,
    "Ġcoronation": 13331,
    "barrel": 17059,
    "Ġblackness": 9389,
    "Ġscand": 7202,
    "steady": 14708,
    "tle": 2409,
    "Ġbroiled": 18908,
    "Ġtangle": 25760,
    "Ġhoping": 11102,
    "Ġoutlast": 22312,
    "Ġillinois": 19136,
    "Ġindign": 6173,
    "Ġunsatisfied": 22042,
    "tell": 1380,
    "Ġpallid": 12296,
    "persuade": 13531,
    "Ġanswers": 7069,
    "perfectly": 9084,
    "Ġalan": 10868,
    "stave": 21647,
    "Ġwhom": 1827,
    "st": 316,
    "iding": 3844,
    "Ġfrog": 23919,
    "Ġbalances": 2341,
    "Ġwhiskers": 10491,
    "behaved": 24463,
    "Ġcare": 1641,
    "Ġstings": 21735,
    "eff": 2533,
    "ography": 13360,
    "Ġsubsiding": 23433,
    "Ġchapter": 2955,
    "Ġding": 12595,
    "Ġassum": 4066,
    "suitable": 18637,
    "ictions": 14226,
    "Ġcompares": 20164,
    "bran": 23571,
    "Ġpettic": 14840,
    "Ġpresenting": 18988,
    "Ġwheeling": 18288,
    "Ġredness": 19311,
    "cup": 10689,
    "cont": 2920,
    "Ġclinging": 10290,
    "Ġnam": 17949,
    "Ġimpossible": 3541,
    "aired": 8368,
    "Ġgratification": 24094,
    "Ġinstantaneous": 14612,
    "Ġmach": 13855,
    "Ġbuilded": 24718,
    "nurtured": 25524,
    "Ġoverhung": 15972,
    "icest": 21562,
    "Ġam": 659,
    "Ġproducts": 5198,
    "Ġfrosted": 19801,
    "Ġtorch": 25030,
    "beheld": 11799,
    "icilian": 20690,
    "Ġspurred": 22136,
    "despicable": 24638,
    "Ġred": 3006,
    "speed": 19407,
    "tese": 21082,
    "Ġlearn": 362,
    "Ġthoroughly": 8347,
    "Ġsmell": 7215,
    "vered": 4830,
    "how": 1646,
    "Ġprediction": 2190,
    "pleasanter": 24045,
    "elfth": 22367,
    "Ġjavelins": 26105,
    "Ġsmiles": 6706,
    "Ġboisterously": 25682,
    "Ġchambers": 16798,
    "Ġfairer": 20459,
    "Ġwallowing": 24041,
    "Ġstately": 9832,
    "Ġtoo": 1164,
    "Ġuncl": 22014,
    "organic": 25946,
    "bones": 8371,
    "asing": 5912,
    "chains": 9683,
    "supplied": 10518,
    "Ġchemist": 11133,
    "Ġtranquillity": 7535,
    "Ġmeant": 3548,
    "Ġextended": 7922,
    "estate": 12817,
    "th": 407,
    "Ġhastened": 9003,
    "overfitting": 13098,
    "Ġ39": 19488,
    "Ġradiance": 13368,
    "Ġmerrily": 23731,
    "Ġbristles": 25843,
    "hurst": 19877,
    "Ġconnection": 5479,
    "cheer": 9434,
    "dham": 20829,
    "shavings": 22451,
    "reject": 21235,
    "Ġdirection": 1791,
    "Ġrepublican": 17410,
    "Ġseptember": 18206,
    "Ġnursing": 12211,
    "happened": 9430,
    "Ġexh": 5231,
    "stately": 18022,
    "linen": 25257,
    "presume": 25670,
    "Ġfonder": 17881,
    "kitty": 10104,
    "gabriel": 15358,
    "oun": 482,
    "crews": 15042,
    "scattered": 22992,
    "Ġflatter": 9346,
    "repeated": 12336,
    "Ġ166": 25004,
    "Ġbook": 2703,
    "Ġreached": 4023,
    "Ġwhence": 5839,
    "wished": 13803,
    "Ġstaves": 21739,
    "Ġrug": 16154,
    "dam": 7797,
    "03": 20747,
    "supers": 22645,
    "Ġunidirectional": 3426,
    "front": 12167,
    "greatest": 10492,
    "Ġobli": 9314,
    "Ġcadiz": 17323,
    "Ġdestroying": 14728,
    "Ġrob": 1313,
    "screw": 9345,
    "Ġcrumb": 16438,
    "Ġendeavors": 16544,
    "Ġga": 4446,
    "accounted": 16500,
    "Ġchisel": 20365,
    "asant": 17959,
    "rigged": 17061,
    "Ġsplendour": 20222,
    "Ġconsist": 1932,
    "Ġdefile": 18823,
    "special": 14704,
    "Ġlive": 2735,
    "ant": 438,
    "Ġjoking": 12833,
    "Ġindelicacy": 25695,
    "Ġcoming": 2619,
    "agreeable": 5829,
    "Ġshreds": 12766,
    "ifting": 6544,
    "ideas": 18583,
    "Ġscorched": 17100,
    "prepar": 22464,
    "Ġornam": 15861,
    "Ġchased": 8860,
    "Ġsar": 21212,
    "nez": 22459,
    "Ġindu": 5293,
    "standard": 22429,
    "continual": 20643,
    "Ġneck": 4885,
    "cific": 10084,
    "alarm": 15623,
    "invite": 25088,
    "shot": 2083,
    "Ġlungs": 8361,
    "Ġunconsciously": 10003,
    "Ġwreak": 16816,
    "Ġdeserving": 14752,
    "Ġsermon": 12373,
    "Ġtomorrow": 21511,
    "ating": 663,
    "Ġplead": 14454,
    "Ġmanipulation": 10657,
    "Ġreigns": 21669,
    "Ġstrain": 6023,
    "Ġes": 8768,
    "Ġmagic": 8232,
    "Ġparis": 8178,
    "distance": 12149,
    "ience": 804,
    "Ġyours": 4126,
    "Ġfarm": 7840,
    "Ġbusier": 23337,
    "alley": 23021,
    "olerably": 11672,
    "formal": 14167,
    "Ġmanners": 3789,
    "Ġneeded": 7717,
    "Ġarithmetic": 18338,
    "Ġvisiting": 10355,
    "Ġrotterdam": 25475,
    "Ġhardware": 4904,
    "our": 534,
    "ivial": 15856,
    "ĠĠĠĠĠĠĠ": 7630,
    "Ġrelease": 19289,
    "Ġadvancement": 24475,
    "chair": 5917,
    "erness": 6433,
    "Ġprudent": 9184,
    "Ġjagged": 18407,
    "entreaties": 26185,
    "ĠdÃ¦mon": 7844,
    "Ġboot": 11837,
    "<": 32,
    "Ġemploy": 3611,
    "Ġthr": 5709,
    "isis": 12575,
    "stretched": 10206,
    "ization": 483,
    "Ġamel": 18509,
    "Ġtoilet": 13935,
    "assured": 10951,
    "Ġmine": 3181,
    "Ġsuspicions": 9476,
    "Ġplaced": 3444,
    "Ġsolve": 4199,
    "perv": 1608,
    "gentleness": 24844,
    "Ġconsider": 2568,
    "Ġpoem": 22588,
    "Ġaggreg": 12880,
    "tern": 4226,
    "Ġwaylaid": 22874,
    "Ġemotion": 7689,
    "Ġkilled": 4955,
    "arrant": 10473,
    "nades": 20996,
    "igms": 3047,
    "Ġechoed": 20421,
    "sleepy": 24728,
    "Ġdying": 2135,
    "Ġvincent": 15281,
    "kered": 18274,
    "Ġstruck": 3389,
    "Ġtyrant": 24767,
    "Ġext": 877,
    "Ġtram": 11091,
    "Ġbrace": 11211,
    "Ġdecline": 9286,
    "maj": 18804,
    "ouse": 1193,
    "Ġthankful": 14737,
    "ux": 7813,
    "ortions": 10947,
    "dition": 15338,
    "umerable": 11723,
    "Ġdevelopment": 7061,
    "Ġfocuses": 8649,
    "Ġthinkings": 22811,
    "neat": 22460,
    "Ġsumat": 14129,
    "Ġlegal": 10438,
    "Ġsinusoidal": 4801,
    "Ġcaulking": 20291,
    "Ġanalyze": 1530,
    "Ġflavor": 16250,
    "assistance": 20368,
    "Ġmentioned": 4330,
    "abriel": 6950,
    "Ġpurport": 14580,
    "Ġarbit": 4650,
    "cherish": 24552,
    "Ġhurrah": 9867,
    "circumstances": 8046,
    "Ġended": 7949,
    "Ġdisgu": 8205,
    "Ġpagan": 7116,
    "Ġapproximates": 2418,
    "Ġbelf": 21379,
    "orne": 17873,
    "Ġbrittle": 22866,
    "connected": 1309,
    "daring": 20828,
    "flaming": 23968,
    "subsided": 25830,
    "Ġbattering": 13899,
    "estinated": 15918,
    "hidden": 17369,
    "Ġjoys": 13217,
    "oin": 17616,
    "Ġamaze": 22481,
    "Ġstave": 11650,
    "Ġafter": 869,
    "Ġdare": 3543,
    "Ġfobbing": 26440,
    "Ġdistraction": 22504,
    "Ġwhelm": 25998,
    "exertion": 16013,
    "Ġhorrify": 23817,
    "Ġunreasonable": 12773,
    "Ġdurst": 20350,
    "veh": 12677,
    "white": 4602,
    "Ġscrib": 22281,
    "Ġgiant": 13966,
    "Ġprometheus": 15290,
    "Ġsideways": 6182,
    "Ġgriff": 22807,
    "Ġtuples": 13475,
    "articulate": 17396,
    "false": 15352,
    "Ġwhose": 2008,
    "difference": 13706,
    "Ġstrat": 16090,
    "Ġisol": 8832,
    "elev": 12455,
    "Ġspec": 1262,
    "vent": 681,
    "Ġchristian": 6478,
    "Ġfarthing": 14453,
    "Ġintense": 6157,
    "Ġstarry": 16921,
    "Ġbaked": 21384,
    "umbent": 12092,
    "Ġporing": 21466,
    "Ġlany": 21552,
    "Ġsparks": 22130,
    "Ġarab": 7823,
    "blows": 17164,
    "Ġappeased": 23197,
    "Ġoutlandish": 12834,
    "Ġusher": 22210,
    "Ġsubur": 12952,
    "Ġfolios": 23018,
    "links": 20957,
    "Ġunfitted": 24107,
    "Ġaisle": 21200,
    "gi": 17550,
    "Ġimprinted": 22387,
    "apothe": 22333,
    "occur": 19573,
    "murderer": 13391,
    "Ġhorn": 6185,
    "ermost": 7429,
    "Ġfejee": 18354,
    "embers": 21926,
    "Ġcovent": 16071,
    "Ġroman": 8322,
    "iring": 1708,
    "Ġunche": 23428,
    "Ġceaseless": 13486,
    "Ġwhistling": 19787,
    "itor": 12562,
    "erate": 7148,
    "Ġvesuvius": 26500,
    "fierce": 25255,
    "Ġbig": 5805,
    "Ġfortune": 4243,
    "atched": 6374,
    "Ġguardians": 14942,
    "poles": 16208,
    "torn": 17681,
    "stuff": 15684,
    "inc": 2520,
    "Ġconverse": 11842,
    "Ġpatches": 4240,
    "Ġconductor": 24005,
    "quit": 15758,
    "Ġgour": 21596,
    "use": 2534,
    "ieved": 3231,
    "establishment": 26113,
    "Ġrichness": 19310,
    "procure": 23394,
    "Ġtranslation": 3091,
    "banish": 20781,
    "Ġselfish": 7271,
    "position": 15411,
    "Ġimagination": 5759,
    "Ġdispel": 16595,
    "Ġbennets": 9806,
    "Ġnods": 19062,
    "Ġkeys": 11993,
    "assertion": 22309,
    "Ġpronounced": 8350,
    "Ġ": 225,
    "Ġbleeding": 14879,
    "importance": 9987,
    "variety": 23185,
    "Ġcheeks": 5957,
    "Ġdepartments": 24242,
    "Ġbeckoning": 20499,
    "Ġeconomically": 25288,
    "Ġdiffer": 18677,
    "create": 24159,
    "Ġpe": 851,
    "proportions": 22828,
    "Ġcircus": 19091,
    "Ġbeam": 2880,
    "frequented": 25900,
    "wheeler": 16186,
    "owner": 18610,
    "Ġmaximizing": 3172,
    "datasets": 11948,
    "Ġgranting": 18738,
    "ishnoo": 10954,
    "Ġpalmy": 19497,
    "Ġbrood": 23101,
    "ld": 385,
    "Ġwarsaw": 26167,
    "Ġoutsk": 15953,
    "loving": 18537,
    "Ġcompasses": 11267,
    "Ġsnarled": 25716,
    "Ġperdition": 15989,
    "Ġpretty": 3859,
    "Ġbuck": 7156,
    "Ġframed": 19034,
    "leviathan": 7784,
    "Ġmethod": 1449,
    "cru": 7125,
    "Ġscared": 14189,
    "Ġxlvi": 25590,
    "Ġpittance": 15613,
    "garity": 17553,
    "Ġchink": 15929,
    "pulous": 15414,
    "igen": 4829,
    "furthermore": 20001,
    "Ġcleaned": 23182,
    "Ġunspeak": 8849,
    "Ġpound": 12612,
    "Ġadhering": 14139,
    "Ġraving": 16112,
    "Ġenumerating": 15242,
    "Ġbrightness": 16575,
    "Ġoppressively": 25712,
    "tal": 17669,
    "treated": 21093,
    "Ġcomfits": 21857,
    "Ġdivinely": 25723,
    "Ġunlabeled": 3798,
    "Ġnarrated": 14870,
    "Ġacquainted": 5179,
    "ested": 3479,
    "Ġpromptly": 23816,
    "impetuous": 23763,
    "cream": 15329,
    "bet": 6109,
    "shud": 18483,
    "Ġfailed": 6671,
    "Ġgowns": 25359,
    "girdling": 26388,
    "Ġelevate": 24499,
    "Ġrumpled": 24602,
    "Ġsympathising": 24297,
    "Ġmasters": 11574,
    "ille": 9218,
    "Ġoffic": 3189,
    "Ġberth": 8679,
    "Ġshed": 8180,
    "Ġlessen": 14531,
    "Ġages": 7027,
    "Ġnovelist": 24777,
    "================================": 5671,
    "Ġagitation": 6865,
    "retrospect": 23138,
    "Ġtreating": 4286,
    "Ġadrift": 11720,
    "humored": 19451,
    "Ġorphan": 12380,
    "Ġgoodge": 22822,
    "Ġcharacter": 2796,
    "Ġcalculus": 23981,
    "Ġpersist": 16273,
    "cus": 3978,
    "Ġjerk": 16949,
    "iveness": 2468,
    "Â": 131,
    "Ġdiscernment": 15054,
    "Ġacceptable": 16743,
    "Ġregal": 16069,
    "Ġwhine": 21713,
    "Ġharbor": 10025,
    "Ġrejo": 5916,
    "Ġafford": 4366,
    "Ġspurn": 18309,
    "propriety": 14363,
    "bellies": 19971,
    "Ġconfid": 7686,
    "struct": 2321,
    "Ġsurest": 19055,
    "grandfather": 25009,
    "del": 4078,
    "Ġthrowing": 6334,
    "Ġbetake": 22907,
    "volous": 18604,
    "similar": 13451,
    "arial": 5531,
    "conclusive": 25673,
    "Ġdimension": 3241,
    "hatchet": 24822,
    "progression": 20379,
    "Ġdecomposition": 5342,
    "Ġinterlude": 16067,
    "verest": 13989,
    "Ġraptures": 13495,
    "chop": 21686,
    "Ġalcoves": 26485,
    "flukes": 25205,
    "irted": 14070,
    "Ġcurve": 22972,
    "Ġ62": 24365,
    "keeper": 5596,
    "Ġstory": 2901,
    "piece": 6655,
    "ierce": 14391,
    "Ġpouring": 12620,
    "Ġfro": 3471,
    "Ġintelligible": 15938,
    "Ġstands": 5258,
    "Ġnegatived": 23045,
    "Ġdeal": 3604,
    "Ġindirect": 18834,
    "Ġlives": 4826,
    "Ġmostly": 7663,
    "support": 9467,
    "declared": 15117,
    "shr": 10977,
    "Ġheadlands": 22898,
    "Ġjesty": 18405,
    "Ġslice": 23160,
    "Ġleaky": 2348,
    "sand": 21051,
    "ivates": 18275,
    "Ġlig": 21546,
    "Ġkrus": 18349,
    "char": 3502,
    "ses": 3028,
    "Ġfirm": 3869,
    "cases": 12444,
    "Ġpint": 17910,
    "bergen": 14328,
    "Ġportion": 7491,
    "ihood": 20921,
    "Ġunb": 10906,
    "achable": 14131,
    "latter": 15380,
    "Ġfinancier": 26582,
    "Ġsacri": 18328,
    "ativeness": 15518,
    "Ġloses": 15870,
    "Ġparagra": 15876,
    "Ġburtons": 19252,
    "ficial": 17547,
    "Ġresemble": 15689,
    "Ġhang": 9186,
    "Ġcarcase": 14443,
    "veil": 18046,
    "Ġ87": 19708,
    "painting": 17045,
    "Ġassemblage": 26351,
    "Ġant": 4346,
    "slowly": 9087,
    "Ġsinned": 18950,
    "mency": 18925,
    "Ġcuriosity": 2453,
    "imagination": 13478,
    "Ġhook": 6452,
    "Ġeffusions": 18524,
    "Ġpert": 22394,
    "Ġvoracity": 25986,
    "Ġmur": 2490,
    "Ġperfidious": 25666,
    "Ġindulge": 10581,
    "Ġunfrequently": 20738,
    "reference": 13838,
    "Ġtarpaulin": 26157,
    "Ġhundred": 2695,
    "Ġsallies": 21228,
    "mangled": 20980,
    "Ġthreatens": 24375,
    "bacc": 7794,
    "Ġlimping": 23543,
    "Ġcontact": 9279,
    "jac": 8381,
    "Ġrevelation": 25222,
    "Ġtradeoff": 2658,
    "Ġdelirium": 10404,
    "Ġunforeseen": 22051,
    "Ġwars": 17786,
    "Ġsuperstition": 15056,
    "Ġbestir": 13107,
    "Ġstubborn": 10413,
    "Ġhoped": 5488,
    "Ġrecourse": 22739,
    "hr": 20887,
    "Ġdistant": 5387,
    "Ġwakes": 11571,
    "Ġdiscovers": 4427,
    "frequently": 9977,
    "names": 16505,
    "howling": 18990,
    "restoration": 23238,
    "Ġmistakes": 16539,
    "Ġstre": 2107,
    "gal": 15353,
    "itz": 6005,
    "actor": 11836,
    "rolling": 9059,
    "remember": 7261,
    "anation": 5803,
    "pate": 21009,
    "Ġprair": 7746,
    "Ġrouse": 15819,
    "Ġgamming": 25542,
    "heric": 15908,
    "egyptians": 25898,
    "Ġpol": 2577,
    "Ġclient": 5555,
    "Ġcircumstance": 4987,
    "Ġw": 272,
    "vag": 8764,
    "draul": 9440,
    "Ġsalesman": 13666,
    "Ġlingering": 11379,
    "Ġmingled": 12374,
    "elt": 4117,
    "Ġcirculating": 23370,
    "Ġdates": 6693,
    "Ġtoils": 10184,
    "Ġhighlands": 22769,
    "elope": 14467,
    "prop": 1026,
    "sacred": 17027,
    "tipt": 25083,
    "button": 10965,
    "Ġdoctrine": 24197,
    "aky": 18412,
    "arken": 18667,
    "Ġdeserts": 10506,
    "Ġperceptibly": 25821,
    "Ġapproached": 5843,
    "Ġexcellent": 4241,
    "Ġampl": 22478,
    "Ġpeev": 22691,
    "Ġchosen": 7200,
    "hosmer": 25902,
    "Ġwhipcord": 20092,
    "Ġsoda": 25534,
    "Ġpunch": 9953,
    "rem": 1523,
    "Ġtemples": 18638,
    "Ġintercepted": 25826,
    "Ġeverything": 3157,
    "Ġwarnings": 16880,
    "Ġcoron": 4464,
    "acet": 5476,
    "Ġruns": 8594,
    "redit": 3876,
    "Ġbundle": 13424,
    "sad": 11520,
    "Ġsagaciously": 24730,
    "Ġaccomplice": 24376,
    "]]": 5205,
    "Ġwhittling": 20698,
    "Ġexpressed": 4467,
    "Ġcertainty": 6734,
    "Ġcapstan": 9097,
    "intended": 11065,
    "Ġheedless": 14902,
    "Ġfainting": 16896,
    "understanding": 1142,
    "Ġamph": 18510,
    "##": 2317,
    "Ġexpon": 971,
    "Ġdisc": 943,
    "Ġgaining": 9489,
    "occupation": 15058,
    "Ġdong": 17888,
    "jumped": 20244,
    "Ġunlocking": 20705,
    "Ġthreading": 23399,
    "enger": 10772,
    "prior": 21031,
    "transformers": 8714,
    "ism": 4874,
    "Ġsuspense": 9415,
    "Ġamsterdam": 22482,
    "Ġlookest": 22716,
    "brown": 15315,
    "lead": 10164,
    "irations": 18171,
    "in": 262,
    "Ġmat": 1150,
    "detained": 24382,
    "Ġcrash": 11998,
    "Ġnumerous": 6920,
    "Ġvault": 8839,
    "Ġpurchased": 12257,
    "Ġtwinkle": 12320,
    "shipped": 18486,
    "Ġarsac": 11740,
    "acing": 2718,
    "Ġsounds": 5190,
    "hecy": 21205,
    "Ġpreserve": 7528,
    "Ġclosing": 11770,
    "Ġ93": 24593,
    "Ġrevenue": 26194,
    "Ġcabal": 23643,
    "Ġwhether": 2000,
    "Ġgeneric": 18448,
    "Ġtemporarily": 11167,
    "blood": 7779,
    "bond": 17488,
    "Ġfamiliarly": 11303,
    "Ġinvariable": 13454,
    "aked": 2015,
    "aded": 3547,
    "agne": 21904,
    "concealed": 25115,
    "esteem": 26008,
    "?": 35,
    "Ġmediterranean": 12312,
    "either": 6791,
    "Ġchains": 8250,
    "waters": 11333,
    "propagation": 1223,
    "something": 4287,
    "Ġtreated": 7079,
    "Ġuniverse": 14123,
    "dan": 17514,
    "Ġscare": 18396,
    "adem": 21755,
    "ages": 829,
    "Ġhomeless": 23384,
    "Ġtermination": 16459,
    "Ġpromising": 10398,
    "Ġadmeasurements": 26225,
    "Ġner": 1648,
    "extinguished": 16149,
    "Ġreeling": 18033,
    "Ġvon": 14078,
    "ruff": 15898,
    "Ġmead": 8834,
    "arson": 22747,
    "Ġinconsist": 17936,
    "Ġexpeditions": 24954,
    "Ġassoc": 6401,
    "Ġdraw": 3669,
    "Ġhellish": 10549,
    "Ġsmitten": 12895,
    "Ġ82": 24458,
    "thanking": 24330,
    "Ġartificial": 792,
    "Ġbet": 1137,
    "Ġshapes": 14107,
    "Ġaccident": 5380,
    "Ġdisrespect": 18552,
    "emic": 18180,
    "Ġapparel": 20433,
    "Ġduring": 871,
    "ckery": 22088,
    "Ġarrows": 18336,
    "ha": 3979,
    "Ġleadenhall": 16627,
    "Ġchamber": 6213,
    "rous": 3751,
    "ahab": 4292,
    "oe": 7551,
    "Ġguilt": 6179,
    "Ġlazy": 17049,
    "urance": 10856,
    "Ġthirdly": 24142,
    "ival": 4229,
    "Ġapproved": 16032,
    "Ġapiece": 16812,
    "Ġcheese": 9374,
    "covery": 11171,
    "complete": 15034,
    "erring": 11056,
    "Ġexertions": 13408,
    "Ġstreaked": 19113,
    "ute": 4642,
    "ĠĠĠĠĠĠĠĠĠĠĠĠĠĠĠĠĠĠĠĠĠĠĠĠĠĠĠ": 14885,
    "broad": 8642,
    "Ġje": 4125,
    "Ġalong": 1980,
    "Ġhorizontally": 17011,
    "ibank": 6880,
    "Ġgraves": 11706,
    "dis": 2249,
    "Ġcalmer": 23041,
    "Ġjohn": 5032,
    "fth": 20855,
    "inked": 12909,
    "Ġwinc": 9641,
    "Ġrepulsive": 14529,
    "patient": 25342,
    "profess": 10633,
    "Ġaboard": 6697,
    "Ġunrestingly": 20358,
    "aggra": 21905,
    "Ġecstasy": 11629,
    "Ġmurmur": 14589,
    "Ġpurp": 2392,
    "Ġapo": 9629,
    "attered": 4019,
    "possess": 5983,
    "Ġinnocent": 4921,
    "Ġbashful": 20417,
    "agitation": 14066,
    "further": 7534,
    "irs": 14069,
    "Ġsomewhere": 5384,
    "Ġdocks": 14175,
    "Ġfolk": 10374,
    "Ġcommanded": 6329,
    "Ġchoose": 5981,
    "Ġslides": 18938,
    "Ġinterlacing": 22575,
    "ribs": 23363,
    "Ġsplinter": 23747,
    "rifice": 12500,
    "loved": 14250,
    "Ġvariation": 22663,
    "Ġclams": 19986,
    "success": 6710,
    "Ġembodiment": 20527,
    "Ġvisible": 4776,
    "Ġhilarious": 20296,
    "Ġproprietors": 20184,
    "Ġchival": 14180,
    "ternatural": 12711,
    "Ġmichael": 20678,
    "Ġapprehending": 26090,
    "smo": 10124,
    "Ġaid": 6122,
    "ricted": 15418,
    "Ġentit": 22742,
    "Ġtidy": 17092,
    "Ġremotest": 10050,
    "sutherland": 21061,
    "unhappy": 10236,
    "Ġsubsequent": 7658,
    "bweb": 20790,
    "Ġcanaan": 22165,
    "Ġbegone": 11914,
    "Ġinf": 1753,
    "when": 1588,
    "Ġannealing": 1555,
    "Ġrafters": 22660,
    "rmsprop": 4522,
    "Ġcoff": 3506,
    "Ġiroqu": 21622,
    "Ġavert": 14424,
    "Ġdefinitions": 22943,
    "Ġmaddened": 17243,
    "Ġpious": 11598,
    "arrived": 12605,
    "harb": 9122,
    "ursday": 12273,
    "Ġfaintest": 24569,
    "Ġlady": 1585,
    "onden": 13842,
    "sink": 11521,
    "wedded": 24339,
    "daugh": 6788,
    "!âĢĿâĢĶ": 8531,
    "Ġcoast": 4655,
    "Ġobtruded": 20721,
    "canonical": 22962,
    "Ġimpenit": 22386,
    "failed": 20862,
    "itying": 21993,
    "Ġridges": 16730,
    "Ġpetticoat": 15293,
    "Ġsherry": 19449,
    "Ġfeature": 747,
    "notwithstanding": 22750,
    "Ġstamped": 13525,
    "house": 4079,
    "azed": 9396,
    "Ġgabriel": 7594,
    "hung": 8380,
    "coll": 23779,
    "Ġjoke": 8867,
    "Ġstalls": 25647,
    "ractions": 11632,
    "bit": 3930,
    "Ġtales": 10140,
    "Ġforever": 14553,
    "Ġscraggy": 24579,
    "uctive": 17695,
    "Ġdeuteronomy": 15756,
    "Ĝ": 221,
    "ezing": 10572,
    "iated": 5890,
    "ror": 7350,
    "Ġregent": 18591,
    "Ġlandsman": 11350,
    "comm": 7438,
    "ument": 5240,
    "ene": 2167,
    "Ġbits": 11587,
    "employed": 17260,
    "viii": 12017,
    "seemed": 4305,
    "Ġdiverged": 23593,
    "hopes": 15367,
    "Ġornamented": 20359,
    "Ġsealed": 15812,
    "hard": 4689,
    "Ġproceeded": 5335,
    "Ġfingers": 5672,
    "Ġglared": 13014,
    "eringly": 23000,
    "Ġplayers": 12035,
    "Ġconject": 6026,
    "Ġproject": 5545,
    "Ġdeference": 10881,
    "Ġbrand": 16184,
    "Ġsplash": 16547,
    "Ġflapped": 23010,
    "Ġyarn": 10867,
    "ĠâĢĺ_": 11116,
    "gans": 11489,
    "Ġsavages": 9910,
    "Ġinquest": 16545,
    "theories": 18079,
    "rell": 11563,
    "iastic": 12476,
    "mile": 17596,
    "Ġreasoning": 1976,
    "Ġtwisting": 18658,
    "Ġpercept": 14223,
    "Ġprint": 18969,
    "Ġventilator": 8713,
    "Ġdisorder": 16047,
    "Ġinh": 10823,
    "Ġcreep": 22722,
    "Ġexposes": 22620,
    "Ġlegs": 4916,
    "Ġgritted": 22806,
    "Ġsweat": 13138,
    "Ġcapacious": 19175,
    "Ġattacking": 24465,
    "Ġpermanently": 25473,
    "Ġinterp": 16066,
    "Ġmedit": 8018,
    "Ġrelief": 6060,
    "Ġworker": 23046,
    "Ġbeats": 21750,
    "Ġinner": 9669,
    "Ġsweet": 3466,
    "ostent": 16845,
    "Ġsafe": 5103,
    "pregn": 18500,
    "Ġvanishing": 1345,
    "Ġpertur": 12847,
    "Ġmartyr": 26360,
    "eter": 11620,
    "Ġmorass": 22968,
    "yra": 8102,
    "Ġslippery": 12163,
    "west": 10738,
    "Ġduchess": 4799,
    "Ġjun": 8504,
    "onde": 21250,
    "Ġrepeat": 7999,
    "Ġmathemat": 3204,
    "Ġglobular": 19009,
    "directly": 13707,
    "Ġjud": 3357,
    "Ġwreat": 15528,
    "Ġquench": 22417,
    "Ġincalculable": 17459,
    "Ġstifle": 18077,
    "Ġdown": 833,
    "Ġdefection": 22941,
    "Ġstreamed": 14546,
    "eth": 619,
    "safety": 20347,
    "Ġtrance": 12837,
    "Ġfiltering": 23924,
    "eric": 3470,
    "ousings": 18335,
    "Ġdistributions": 1051,
    "Ġassociate": 13448,
    "Ġdev": 892,
    "Ġdrugged": 12598,
    "Ġbigot": 24565,
    "Ġworry": 18815,
    "Ġlubber": 17442,
    "Ġgeneral": 1859,
    "iple": 4806,
    "Ġfidelity": 15239,
    "assin": 22303,
    "Ġexpand": 9305,
    "Ġturing": 7565,
    "Ġvalued": 12179,
    "Ġvanquished": 22877,
    "Ġwrap": 24596,
    "Ġundet": 16703,
    "Ġevenly": 4131,
    "sy": 2660,
    "Ġcharmingly": 24221,
    "eld": 963,
    "oment": 918,
    "Ġdestro": 3721,
    "american": 11400,
    "Ġstories": 10864,
    "Ġhammered": 13237,
    "proachable": 23395,
    "Ġinvari": 6528,
    "Ġswinging": 7448,
    "Ġscholar": 26111,
    "Ġcage": 17826,
    "comprehensive": 20625,
    "netherfield": 9811,
    "ore": 418,
    "Ġsympathies": 14860,
    "cabin": 8362,
    "Ġeucl": 24708,
    "hilar": 25081,
    "better": 7118,
    "profitable": 17070,
    "A": 37,
    "Ġpersons": 6180,
    "conject": 8878,
    "Ġruinous": 24635,
    "Ġ88": 19709,
    "Ġdumbly": 24987,
    "Ġfins": 9662,
    "spirited": 19751,
    "wall": 10135,
    "nose": 17610,
    "ernally": 22611,
    "Ġscrews": 25177,
    "axed": 8887,
    "Ġmoby": 3663,
    "Ġcrimin": 6901,
    "Ġblankets": 24609,
    "Ġrocks": 6863,
    "itates": 13867,
    "cures": 20804,
    "Ġterminated": 23508,
    "Ġgreeting": 18962,
    "questioning": 16849,
    "Ġinterconnected": 1338,
    "Ġrephrased": 26476,
    "Ġwaning": 15531,
    "topp": 22564,
    "Ġextravag": 11254,
    "Ġaudacity": 19880,
    "Ġcream": 22721,
    "Ġwhereon": 16098,
    "Ġswim": 3818,
    "stealthily": 23960,
    "story": 9211,
    "Ġcumul": 4180,
    "Ġof": 298,
    "Ġhis": 380,
    "Ġnug": 21523,
    "whether": 5319,
    "Ġthee": 2624,
    "plainly": 11089,
    "Ġluxurious": 17309,
    "Ġpatriot": 23293,
    "Ġintensified": 17017,
    "Ġhypothesis": 14780,
    "slo": 17655,
    "clad": 14458,
    "fanning": 20865,
    "Ġplanets": 24054,
    "ological": 1880,
    "Ġinvestigated": 25386,
    "Ġindividual": 5744,
    "Ġargemone": 24274,
    "encoura": 15048,
    "Ġprematurely": 24004,
    "effect": 8602,
    "Ġscenarios": 26541,
    "Ġpromote": 23192,
    "Ġreview": 18031,
    "Ġstagger": 10590,
    "urches": 12681,
    "Ġtheoretically": 3564,
    "Ġwow": 15526,
    "Ġits": 706,
    "Ġburying": 19251,
    "nosed": 20991,
    "apothecary": 26544,
    "Ġeas": 2355,
    "Ġpertaining": 18451,
    "six": 7140,
    "Ġinjuring": 24268,
    "Ġforeboding": 20381,
    "silly": 24422,
    "benevolently": 25600,
    "alas": 8802,
    "Ġdomin": 10460,
    "otic": 15741,
    "tit": 11527,
    "Ġimitation": 22169,
    "fri": 20853,
    "means": 9784,
    "serious": 14447,
    "ior": 2039,
    "Ġdolphins": 20393,
    "therefore": 5953,
    "Ġweapons": 10592,
    "Ġconsid": 1810,
    "Ġdart": 4585,
    "agre": 18165,
    "rushed": 10583,
    "sive": 4145,
    "Ġway": 1083,
    "sul": 15419,
    "dinah": 20078,
    "Ġfingertips": 24015,
    "ceed": 1073,
    "earliest": 20117,
    "dawson": 26128,
    "Ġcurrents": 13011,
    "ineffectual": 26503,
    "Ġcompare": 9301,
    "Ġpacket": 14892,
    "Ġguinea": 8946,
    "Ġwish": 2097,
    "warmly": 25026,
    "Ġconsequences": 11335,
    "asets": 2310,
    "define": 1527,
    "Ġvinc": 14082,
    "Ġregion": 2271,
    "Ġdeclares": 16991,
    "begin": 8882,
    "Ġremorseless": 13449,
    "Ġplaned": 24053,
    "Ġlisten": 4673,
    "Ġ181": 23893,
    "done": 6499,
    "Ġdiscomposed": 25580,
    "destiny": 16701,
    "rine": 21036,
    "Ġtucked": 12389,
    "Ġencouragement": 13039,
    "playing": 19655,
    "tables": 19755,
    "digger": 24310,
    "Ġunnatural": 7189,
    "Ġintervening": 17266,
    "Ġal": 342,
    "Ġwhitney": 11373,
    "Ġplace": 1655,
    "arts": 6562,
    "wow": 21120,
    "Ġchuck": 8499,
    "t": 88,
    "Ġicebergs": 23973,
    "Ġinstability": 3811,
    "Ġabide": 14187,
    "oars": 9613,
    "Ġgnashed": 20130,
    "Ġdevice": 1927,
    "grie": 12467,
    "Ġdint": 15587,
    "visited": 13345,
    "opic": 22474,
    "Ġsisters": 3636,
    "centre": 17086,
    "Ġspoke": 2747,
    "Ġfancied": 7325,
    "uncont": 15770,
    "Ġcorpor": 23038,
    "Ġwool": 19431,
    "perseus": 26005,
    "Ġdeclines": 23961,
    "intu": 22932,
    "Ġchain": 1841,
    "Ġflowery": 16230,
    "obli": 23095,
    "xible": 13806,
    "Ġlimb": 9399,
    "tails": 21085,
    "Ġdug": 21429,
    "Ġkid": 9723,
    "irmed": 9237,
    "Ġnations": 8808,
    "ouement": 21447,
    "ions": 448,
    "avoid": 9297,
    "Ġdelicate": 6479,
    "Ġfreshly": 23985,
    "priv": 9618,
    "Ġostr": 21323,
    "Ġshivered": 14106,
    "scence": 14415,
    "Ġjurors": 17342,
    "Ġdomineer": 23650,
    "Ġlustrous": 20154,
    "Ġpresuming": 16792,
    "Ġfl": 1281,
    "Ġident": 2239,
    "Ġcit": 10782,
    "continuance": 19716,
    "shunned": 22453,
    "Ġdownright": 16115,
    "Ġundulations": 19514,
    "Ġscheme": 7063,
    "Ġarchly": 22763,
    "ten": 1557,
    "onent": 21247,
    "Ġblack": 2033,
    "departure": 15232,
    "sofa": 26146,
    "Ġthy": 2513,
    "Ġoutset": 15952,
    "Ġfiend": 4411,
    "Ġbubbles": 11398,
    "Ġstopping": 2749,
    "pump": 21016,
    "Ġmalice": 7151,
    "Ġuntil": 2669,
    "Ġpaying": 9936,
    "riety": 12739,
    "Ġnovel": 6695,
    "fury": 17546,
    "ipotence": 22357,
    "Ġcro": 4873,
    "inguished": 6598,
    "concluding": 19479,
    "aimed": 3951,
    "Ġsharkish": 24503,
    "swear": 16916,
    "Ġconse": 21802,
    "Ġastir": 14640,
    "Ġenergetic": 15196,
    "robustness": 26338,
    "Ġblunder": 18818,
    "thousand": 5546,
    "Ġpiteous": 17918,
    "Ġcircumstances": 3924,
    "Ġguar": 23043,
    "turns": 14905,
    "Ġsteeple": 19286,
    "atters": 18496,
    "Ġsumm": 3355,
    "Ġflow": 1240,
    "Ġearthquake": 14628,
    "Ġtrumpet": 9571,
    "Ġpaddling": 25285,
    "Ġhovering": 10177,
    "Ġsullen": 9156,
    "umns": 14147,
    "Ġmincing": 18751,
    "smooth": 20246,
    "Ġmermaid": 17814,
    "based": 2960,
    "honorable": 19899,
    "Ġjolly": 6858,
    "Ġship": 1090,
    "ppings": 18177,
    "particip": 23617,
    "roc": 9673,
    "fering": 17541,
    "Ġguidance": 9414,
    "Ġenderby": 13649,
    "taking": 5689,
    "Ġgeomet": 3193,
    "Ġmonster": 3792,
    "atches": 13844,
    "Ġsufferable": 16255,
    "severe": 21817,
    "Ġthreads": 13115,
    "Ġcarpet": 9354,
    "ause": 1314,
    "anean": 7442,
    "remaining": 20218,
    "Ġmemorand": 23404,
    "?âĢĻâĢĿ": 23644,
    "Ġhelping": 3268,
    "Ġexception": 11216,
    "million": 25751,
    "Ġ53": 19638,
    "Ġshowing": 7731,
    "Ġdashing": 8794,
    "swiftly": 20550,
    "Ġlivers": 18461,
    "pain": 7349,
    "wig": 17703,
    "hear": 10145,
    "Ġtired": 9148,
    "wondered": 17028,
    "_).âĢĶ": 8681,
    "eler": 1572,
    "ginger": 13161,
    "chastic": 2335,
    "Ġtyro": 16993,
    "Ġcharles": 11953,
    "Ġconsiderably": 7714,
    "Ġswaying": 15046,
    "Ġprejudiced": 24809,
    "times": 8098,
    "ashions": 16414,
    "pleasures": 24044,
    "ĠĠĠĠĠĠĠĠĠĠĠĠĠĠĠĠĠĠĠĠĠĠ": 16224,
    "Ġbonnet": 10654,
    "Ġpasses": 2681,
    "Ġboarded": 13231,
    "Ġroyals": 19531,
    "Ġprofessional": 7298,
    "etian": 13957,
    "Ġcrawling": 17044,
    "Ġpulpit": 7469,
    "osing": 3687,
    "Ġle": 332,
    "Ġunostentatious": 22068,
    "Ġunsettled": 14122,
    "Ġobeying": 13412,
    "stalls": 26472,
    "respond": 12540,
    "Ġcrav": 19172,
    "Ġsurround": 4617,
    "Ġacquire": 2724,
    "ilingly": 21721,
    "Ġcheerfulness": 10515,
    "ercial": 21273,
    "Ġrephr": 21677,
    "Ġtatters": 21176,
    "hyena": 24252,
    "useness": 22290,
    "sigma": 3003,
    "ceived": 1962,
    "pt": 387,
    "Ġignorantly": 19494,
    "Ġork": 18284,
    "accepted": 20134,
    "riv": 3112,
    "Ġfru": 8419,
    "Ġvague": 6405,
    "Ġreasonably": 11085,
    "angel": 5726,
    "Ġblocked": 19221,
    "Ġplumage": 17296,
    "Ġasylum": 13664,
    "Ġrevolutions": 23840,
    "Ġwaste": 9232,
    "Ġphenomena": 21482,
    "Ġdarker": 13117,
    "Ġmerc": 9423,
    "Ġgushed": 21605,
    "Ġmediocrity": 26607,
    "Ġwithin": 2162,
    "Ġwoollen": 12100,
    "deception": 22143,
    "Ġsnorting": 23740,
    "Ġsash": 17754,
    "scarcely": 12383,
    "Ġnowhere": 12882,
    "embedding": 20703,
    "industrious": 26239,
    "Ġrisks": 9962,
    "Ġthrills": 24542,
    "Ġcomplying": 18586,
    "Ġnarrowed": 24355,
    "Ġassisting": 13254,
    "Ġcompan": 2171,
    "Ġpoisonous": 24887,
    "ĠĠĠ": 2114,
    "Ġfolly": 7940,
    "Ġmeryton": 4438,
    "Ġbowlines": 19321,
    "ates": 518,
    "Ġdisciple": 22783,
    "Ġmud": 11572,
    "ious": 769,
    "Ġarticulate": 24432,
    "allied": 7409,
    "tort": 17674,
    "scr": 16238,
    "Ġprincely": 24147,
    "Ġhesitate": 16945,
    "Ġdoted": 21432,
    "Ġdisquis": 22525,
    "Ġbreaching": 23345,
    "Ġjingling": 26017,
    "interview": 19297,
    "Ġalas": 5922,
    "Ġdirty": 9177,
    "Ġpenn": 11111,
    "Ġdun": 6673,
    "rigging": 20003,
    "Ġcommunicates": 24547,
    "Ġupset": 22151,
    "Ġiceberg": 14715,
    "Ġstat": 1493,
    "Ġsake": 4093,
    "Ġbounce": 21391,
    "Ġnicely": 8708,
    "Ġsins": 13835,
    "Ġklan": 23663,
    "Ġcommunication": 1867,
    "oniously": 21256,
    "Ġconcert": 11964,
    "Ġnois": 4270,
    "Ġsenses": 8251,
    "rest": 1636,
    "Ġcorrob": 16263,
    "Ġdeposit": 17267,
    "Ġprivacy": 19523,
    "erc": 5905,
    "Ġvapory": 17005,
    "Ġsucceeded": 6105,
    "Ġdigest": 24648,
    "ades": 5631,
    "Ġglim": 9342,
    "Ġlearning": 386,
    "Ġprinciple": 6770,
    "harpoone": 6107,
    "Ġconsisted": 10418,
    "Ġmau": 21309,
    "opening": 10311,
    "supposed": 13313,
    "Ġstrictly": 12282,
    "antled": 18286,
    "valu": 1707,
    "Ġtrusting": 24104,
    "hastened": 16844,
    "Ġhansom": 13662,
    "Ġcruising": 6913,
    "Ġdeception": 18143,
    "ified": 3228,
    "conce": 8509,
    "Ġunfulfilled": 26508,
    "Ġcrushed": 9420,
    "Ġinsurmountable": 16530,
    "Ġvertebra": 20179,
    "agings": 18166,
    "Ġdifficult": 3569,
    "bitious": 16668,
    "Ġsuck": 15857,
    "yramid": 8367,
    "apprehension": 26114,
    "Ġanother": 1736,
    "Ġshook": 4468,
    "Ġpreside": 18365,
    "ament": 2439,
    "Ġeasily": 3890,
    "merged": 11193,
    "Ġattacked": 10566,
    "clergy": 18933,
    "Ġsimultaneous": 22587,
    "istical": 8488,
    "Ġnecks": 18188,
    "attempt": 9359,
    "K": 47,
    "mary": 8748,
    "Ġsovereign": 10060,
    "puted": 8844,
    "Ġdescrying": 18614,
    "acqu": 4842,
    "Ġdripping": 13145,
    "istan": 22106,
    "Ġstable": 2700,
    "Ġthistle": 21915,
    "Ġpurpose": 2709,
    "accompanied": 12419,
    "exc": 5169,
    "Ġwidespread": 20674,
    "Ġembarrassed": 11384,
    "Ġwhaler": 7519,
    "Ġmeantime": 6206,
    "Ġsch": 13833,
    "latin": 25258,
    "extraordinary": 9093,
    "Ġcetus": 19883,
    "Ġmetrics": 19090,
    "Ġsuspicious": 9477,
    "Ġ76": 24262,
    "Ġstrung": 22618,
    "Ġvulture": 17337,
    "Ġmuteness": 19415,
    "Ġspoil": 17006,
    "Ġprince": 18971,
    "lacing": 17589,
    "ĠĠĠĠĠĠĠĠĠĠĠĠĠĠĠĠĠĠĠĠĠĠĠĠĠĠĠĠĠĠĠĠĠ": 12040,
    "Ġarabian": 9088,
    "Ġhereford": 22878,
    "Ġsmallest": 6429,
    "Ġstabilizing": 3654,
    "Ġsuccessive": 10499,
    "Ġunmingled": 18264,
    "Ġstow": 21731,
    "sk": 5521,
    "Ġcauses": 2562,
    "Ġpolite": 9881,
    "Ġsob": 12784,
    "Ġproper": 1379,
    "Ġbeale": 12695,
    "Ġabundantly": 17155,
    "Ġsolving": 2484,
    "Ġimm": 3964,
    "Ġfading": 15580,
    "married": 9947,
    "libra": 22924,
    "apprehens": 17404,
    "Ġlexicon": 25973,
    "Ġsquare": 2396,
    "exhibited": 18477,
    "Ġobstacle": 16984,
    "Ġdiscriminative": 4328,
    "Ġknave": 11272,
    "Ġtouch": 3396,
    "Ç": 136,
    "Ġphilipses": 24452,
    "ester": 11597,
    "weight": 2940,
    "Ġincul": 22548,
    "Ġcoloured": 11043,
    "Ġvaried": 11846,
    "Ġtide": 6658,
    "ĵ": 246,
    "Ġspout": 3283,
    "Ġslipped": 6491,
    "anxious": 15108,
    "Ġopenness": 18955,
    "Ġportions": 19367,
    "Ġidle": 8252,
    "Ġcoffee": 6760,
    "omin": 4702,
    "Ġboarding": 12083,
    "bb": 2802,
    "directed": 20402,
    "Ġgrammars": 11402,
    "Ġphyseter": 26585,
    "Ġdisquiet": 18551,
    "Ġskylarking": 19485,
    "Ġburden": 8607,
    "Ġairs": 14508,
    "fortunate": 4792,
    "sides": 12504,
    "Ġboard": 3383,
    "etent": 10198,
    "Ġlofty": 6217,
    "Ġchowders": 18385,
    "Ġobservant": 20107,
    "information": 12390,
    "Ġsun": 1719,
    "Ġeuropean": 20043,
    "Ġjets": 10286,
    "Ġdeadliest": 14556,
    "conjectured": 25181,
    "establish": 17391,
    "Ġelbowed": 16106,
    "bug": 17491,
    "Ġresentment": 7529,
    "Ġoverdone": 22361,
    "Ġinterests": 14568,
    "Ġslopes": 18940,
    "counterpart": 26359,
    "helpless": 16789,
    "Ġpost": 4275,
    "loun": 17587,
    "Ġfaced": 10807,
    "Ġvery": 635,
    "derer": 4600,
    "ui": 9143,
    "ered": 1686,
    "Ġextreme": 2515,
    "88": 20757,
    "Ġglobe": 6077,
    "aye": 3657,
    "Ġetc": 7083,
    "Ġdegenerating": 25799,
    "Ġobliging": 13240,
    "Ġpassed": 2010,
    "Ġsignature": 16492,
    "Ġende": 21932,
    "Ġbaleful": 24984,
    "Ġfashionable": 19541,
    "Ġinsane": 19268,
    "Ġbeau": 9223,
    "wrinkles": 16553,
    "Ġdisclose": 16153,
    "wherever": 13116,
    "Ġdevil": 3609,
    "Ġperformance": 1307,
    "Ġraising": 8908,
    "def": 1453,
    "qual": 8156,
    "wise": 2575,
    "Ġmess": 7831,
    "spoken": 11858,
    "Ġtailed": 21167,
    "everywhere": 23698,
    "Ġrevolut": 3259,
    "romised": 14110,
    "cake": 20803,
    "Ġgrosvenor": 17416,
    "ocr": 10467,
    "Ġratt": 7881,
    "self": 618,
    "Ġharmless": 9963,
    "Ġfriendship": 7245,
    "Ġsurve": 9872,
    "humour": 7497,
    "Ġmedium": 16680,
    "bing": 7791,
    "Ġdecisions": 6702,
    "Ġbradstreet": 9575,
    "send": 15421,
    "Ġbearing": 5298,
    "Ġvillas": 24051,
    "Ġreflected": 2908,
    "flagged": 23970,
    "Ġcharing": 14178,
    "crack": 19837,
    "Ġgramm": 8170,
    "Ġminor": 12964,
    "Ġdisgra": 18548,
    "Ġapplying": 13089,
    "ashion": 3857,
    "downward": 16618,
    "Ġunansw": 22056,
    "Ġseer": 21951,
    "reading": 12076,
    "alive": 10826,
    "affectionate": 24921,
    "madam": 24421,
    "Ġadoption": 24948,
    "Ġwho": 613,
    "green": 7114,
    "shell": 16284,
    "Ġwind": 1433,
    "Ġquebec": 24132,
    "Ġpenetrated": 13470,
    "rear": 21231,
    "ureau": 10225,
    "bl": 4143,
    "strang": 11183,
    "appropri": 22842,
    "scor": 13016,
    "ins": 1378,
    "Ġdarkly": 19114,
    "ateral": 19375,
    "Ġrevisit": 21668,
    "ane": 1178,
    "Ġmoves": 14231,
    "Ġinno": 1454,
    "tt": 13788,
    "frightened": 17194,
    "Ġrank": 6258,
    "aut": 1912,
    "Ġbewitched": 25975,
    "umul": 1290,
    "Ġflattened": 26048,
    "Ġfluke": 14673,
    "Ġannoyed": 17198,
    "Ġwhist": 6021,
    "convinced": 10621,
    "Ġdisapprobation": 16054,
    "ture": 7557,
    "poises": 11889,
    "possibility": 13359,
    "grave": 16089,
    "americans": 25042,
    "dÃ¦mon": 17526,
    "Ġadvantageously": 19542,
    "blow": 9102,
    "fluke": 25204,
    "pronouncing": 25193,
    "Ġcronies": 23442,
    "Ġjoker": 22296,
    "Ġwidely": 8032,
    "powerful": 24847,
    "Ġnerve": 16337,
    "Ġloud": 4700,
    "Ġwedged": 24068,
    "Ġpeasant": 13549,
    "contrivance": 26316,
    "Ġclearness": 23183,
    "feather": 16039,
    "Ġtalking": 3856,
    "Ġembellished": 25850,
    ",)": 9099,
    "Ġannum": 24203,
    "Ġindex": 17048,
    "ieth": 10703,
    "Ġ33": 16675,
    "ograph": 4797,
    "bon": 13682,
    "Ġmagnified": 23203,
    "trucks": 25419,
    "Ġgirls": 4282,
    "limping": 26392,
    "Ġjan": 11760,
    "Ġpassages": 12966,
    "verize": 21726,
    "critical": 19502,
    "Ġnaturalist": 22905,
    "04": 10678,
    "Ġschedules": 3386,
    "Ġpeculiarly": 8286,
    "Ã¦st": 24174,
    "Ġhelplessness": 25071,
    "Ġirregularity": 25324,
    "Ġusing": 708,
    "Ġcurled": 8225,
    "Ġvengeance": 5885,
    "Ġencl": 16163,
    "Ġdate": 7841,
    "cool": 19186,
    "Ġconsoled": 18113,
    "ility": 622,
    "Ġbroke": 5322,
    "Ġapprehensions": 13402,
    "ceased": 21624,
    "Ġvisits": 8220,
    "/`)": 13658,
    "unity": 4153,
    "cceed": 4144,
    "Ġmors": 17802,
    "horr": 14599,
    "virtue": 20568,
    "nineteenth": 26138,
    "yth": 983,
    "Ġzealand": 12347,
    "Ġ38": 24076,
    "Ġnaval": 16898,
    "abil": 2007,
    "mus": 10109,
    "Ġmarines": 16257,
    "calculation": 25688,
    "adler": 21760,
    "Ġprofund": 13151,
    "axing": 18546,
    "Ġgreenland": 5761,
    "third": 8167,
    "Ġbaltic": 18795,
    "Ġcher": 6129,
    "Ġcivilized": 8664,
    "Ġplu": 8797,
    "ky": 4520,
    "promised": 12248,
    "Ġneat": 6999,
    "years": 6883,
    "Ġcalculated": 4475,
    "Ġsociable": 19402,
    "spr": 7434,
    "Ġwarehouse": 20414,
    "beating": 22486,
    "Ġgeneration": 2218,
    "stall": 21644,
    "miles": 10711,
    "Ġland": 1997,
    "Ġpassage": 3884,
    "Ġbalm": 22903,
    "respect": 6373,
    "condition": 7057,
    "Ġexclusion": 19394,
    "Ġmarble": 7668,
    "Ġunwound": 25169,
    "cloth": 11934,
    "empt": 2620,
    "lux": 14225,
    "Ġ70": 11276,
    "su": 805,
    "reigned": 21241,
    "Ġprocedures": 9409,
    "Ġphase": 14470,
    "dashing": 20835,
    "curious": 10481,
    "Ġsquint": 22837,
    "Ġlowering": 7986,
    "Ġdeprived": 8209,
    "Ġbrilliantly": 25120,
    "Ġperform": 1037,
    "Ġneighbors": 25806,
    "Ġwet": 6517,
    "Ġfing": 3756,
    "Ġrefuse": 5739,
    "discover": 10538,
    "Ġowest": 25091,
    "Ġcir": 21339,
    "usiveness": 22291,
    "without": 4846,
    "Ġlonging": 14298,
    "Ġthoughtfully": 12976,
    "bun": 12435,
    "Ġsibbald": 21229,
    "H": 44,
    "isturbed": 18297,
    "faint": 17544,
    "Ġabusive": 22271,
    "written": 7994,
    "circle": 16735,
    "Ġmasterly": 23992,
    "Ġsnugly": 17110,
    "berwell": 22719,
    "Ġdictionary": 15111,
    "lances": 15381,
    "Ġinflicted": 11365,
    "Ġthinner": 24181,
    "Ġwor": 1190,
    "Ġancles": 21445,
    "Ġbarely": 16935,
    "tackles": 25624,
    "congreg": 25398,
    "Ġswept": 7977,
    "ivable": 10909,
    "Ġsupports": 3051,
    "llable": 6879,
    "Ġasi": 12728,
    "lo": 680,
    "liber": 18813,
    "Ġoriginate": 24121,
    "Ġdigress": 24649,
    "Ġcelest": 9899,
    "testing": 12513,
    "Ġrest": 1779,
    "period": 15894,
    "Ġdorm": 4821,
    "Ġinhospit": 25452,
    "Ġstealing": 18892,
    "semble": 1526,
    "Ġfireside": 23529,
    "isk": 9166,
    "gone": 6503,
    "puzz": 17639,
    "confidence": 16807,
    "heaven": 8052,
    "Ġcolossal": 11459,
    "Ġdelicacy": 6339,
    "Ġexamined": 6333,
    "Ġfisheries": 17436,
    "semic": 21819,
    "Ġsailing": 5323,
    "Ġdemand": 4947,
    "saying": 8640,
    "Ġunwe": 15835,
    "Ġisle": 8831,
    "Ġre": 317,
    "Ġbonds": 17870,
    "Ġbreeze": 5681,
    "page": 13770,
    "terr": 8153,
    "zag": 17712,
    "Ġcommencement": 12235,
    "indeed": 4488,
    "ibilities": 13004,
    "closing": 23156,
    "crow": 9589,
    "Ġutterly": 6100,
    "Ġdrank": 16534,
    "dered": 2474,
    "Ġrequ": 801,
    "Ġpointed": 4772,
    "Ġaffability": 14386,
    "Ġhardship": 18913,
    "placed": 7880,
    "obvious": 9355,
    "dr": 6221,
    "Ġjapanese": 10631,
    "Ġimpute": 18331,
    "Ġisland": 4049,
    "Ġhulls": 13924,
    "stead": 10845,
    "doubtful": 24791,
    "mal": 6794,
    "Ġadvocate": 13674,
    "shortened": 24747,
    "agos": 21903,
    "Ġspurned": 12793,
    "Ġgrasp": 4663,
    "Ġcommitting": 22671,
    "Ġunthink": 18248,
    "Ġheav": 1847,
    "cavity": 26126,
    "Ġchooses": 13344,
    "ateur": 22007,
    "chard": 21685,
    "Ġmemorable": 16425,
    "Ġsocket": 12785,
    "Ġpar": 456,
    "Ġlion": 9674,
    "tical": 10127,
    "housekeeping": 24101,
    "ctor": 13958,
    "display": 19154,
    "£": 101,
    "Ġleaping": 8340,
    "Ġsuperseded": 26223,
    "Ġirre": 7467,
    "Ġopened": 3511,
    "Ġweighted": 2090,
    "Ġsacr": 7193,
    "Ġindolence": 16226,
    "given": 8376,
    "Ġcompetition": 14267,
    "spee": 9315,
    "Ġrobustness": 18893,
    "Ġringing": 13329,
    "Ġfierceness": 26263,
    "Ġvaliantly": 22787,
    "byshire": 6172,
    "Ġcreating": 2997,
    "Ġherbage": 25996,
    "Ġhost": 7067,
    "y": 93,
    "ousness": 10273,
    "ghan": 19453,
    "desperate": 17350,
    "decided": 13213,
    "clifford": 23157,
    "animate": 12573,
    "converse": 22473,
    "poled": 22908,
    "surv": 24213,
    "Ġyesterday": 5332,
    "Ġplayed": 9413,
    "vult": 21112,
    "Ġpipe": 4322,
    "oky": 8197,
    "Ġwhither": 10213,
    "Ġworried": 22925,
    "Ġryder": 10257,
    "Ġinterruptions": 24185,
    "=": 33,
    "Ġostlers": 25276,
    "Ġencamp": 22801,
    "fiery": 13579,
    "silver": 19688,
    "Ġmoses": 21314,
    "Ġbasket": 9570,
    "Ľ": 254,
    "Ġ102": 24410,
    "ain": 343,
    "Ġexposing": 11830,
    "slipping": 25528,
    "ighter": 7967,
    "Ġtexture": 19159,
    "==": 944,
    "showed": 16020,
    "Ġrealistic": 5860,
    "Ġaffront": 18788,
    "step": 2457,
    "ations": 710,
    "usion": 3302,
    "iven": 1237,
    "chat": 21684,
    "Ġinches": 5845,
    "ities": 1823,
    "tain": 559,
    "Ġpron": 6450,
    "Ġassid": 18944,
    "Ġchoosing": 19588,
    "Ġschol": 17375,
    "Ġimparted": 15985,
    "Ġpublisher": 24063,
    "eye": 6224,
    "ggy": 13111,
    "Ġpolluted": 25593,
    "Ġbehavioral": 11396,
    "Ġcaptains": 7456,
    "..": 5783,
    "shipmates": 11926,
    "trick": 19411,
    "Ġcriminals": 19920,
    "narrated": 25621,
    "Ġ5": 4935,
    "what": 642,
    "fred": 20854,
    "Ġvanish": 8925,
    "Ġcrowned": 16840,
    "gorith": 547,
    "ition": 652,
    "Ġalmanac": 26484,
    "erm": 789,
    "Ġgambler": 26190,
    "Ġruined": 12950,
    "Ġcoldly": 14650,
    "Ġinvoluntary": 18772,
    "Ġcrossing": 7252,
    "Ġmamm": 25090,
    "Ġfortun": 4982,
    "Ġcomrades": 9552,
    "Ġhusband": 3616,
    "Ġgermany": 25785,
    "Ġaccept": 4410,
    "Ġindignant": 12236,
    "cadence": 26125,
    "ik": 17570,
    "Ġproperly": 7944,
    "Ġpos": 1010,
    "Ġbreak": 2869,
    "Ġtougher": 21175,
    "Ġunimag": 12771,
    "relation": 19445,
    "Ġhenceforth": 19645,
    "Ġfix": 2508,
    "dron": 17524,
    "main": 8087,
    "p": 84,
    "Ġengine": 1919,
    "Ġburied": 7718,
    "Ġrounding": 16272,
    "Ġlimited": 23542,
    "Ġprevent": 756,
    "Ġsomebody": 7912,
    "Ġmyster": 5926,
    "Ġlace": 13948,
    "Ġ4": 3984,
    "Ġleatherhead": 20011,
    "volutions": 16320,
    "Ġranged": 10256,
    "Ġbo": 798,
    "Ġjug": 12831,
    "Ġcontraction": 16005,
    "Ġbenjam": 22891,
    "Ġdrives": 14577,
    "Ġepic": 15029,
    "ority": 8417,
    "Ġpretended": 19313,
    "Ġarom": 15490,
    "Ġpoison": 7218,
    "zwilliam": 5074,
    "Ġvigorous": 10565,
    "Ġgames": 11625,
    "ruct": 695,
    "Ġbloodshed": 23800,
    "Ġce": 3032,
    "onstrate": 17768,
    "Ġstem": 15718,
    "tons": 7558,
    "guilty": 19481,
    "izarre": 17387,
    "Ġperfume": 25665,
    "Ġcum": 21340,
    "Ġsour": 21215,
    "idirection": 2411,
    "Ġanswering": 7476,
    "beyond": 8881,
    "Ġprison": 5403,
    "Ġgroping": 13663,
    "Ġtex": 15470,
    "wins": 21128,
    "Ġeasier": 11165,
    "fits": 13716,
    "Ġtranquill": 6630,
    "Ġsuff": 1303,
    "Ġcards": 7579,
    "estruct": 22221,
    "Ġvain": 3625,
    "ourable": 4967,
    "Ġxiii": 25591,
    "Ġeel": 18002,
    "context": 3404,
    "Ġunfailing": 24110,
    "Ġidentical": 10433,
    "Ġwert": 12552,
    "Ġbow": 3062,
    "Ġmanner": 2195,
    "icuous": 10834,
    "ortunity": 4403,
    "Ġcastaway": 16639,
    "tained": 4405,
    "warrior": 24798,
    "12": 20748,
    "Ġamaz": 5385,
    "Ġhatchway": 13523,
    "france": 24282,
    "al": 292,
    "Ġmarvellous": 7537,
    "Ġmoodily": 19832,
    "Ġaustralia": 15230,
    "rice": 13775,
    "Ġlangu": 581,
    "Ġrelationship": 2315,
    "Ġwhalers": 8047,
    "Ġwriters": 13541,
    "_:": 17477,
    "breakfast": 8687,
    "Ġneared": 14073,
    "Ġclubbed": 26545,
    "ntax": 934,
    "Ġservices": 11217,
    "Ġcascade": 20579,
    "Ġabraham": 18395,
    "Ġejac": 10202,
    "Ġactionable": 24559,
    "up": 1284,
    "Ġfruitless": 25605,
    "uten": 11621,
    "Ġsimulation": 2751,
    "Ġsouth": 4909,
    "Ġthinker": 22810,
    "Ġcurly": 18844,
    "Ġmacy": 19353,
    "Ġrudimental": 25108,
    "Ġsplashed": 23748,
    "Ġardu": 22176,
    "oing": 15399,
    "pervading": 18973,
    "lion": 20943,
    "Ġstun": 11649,
    "Ġcontents": 7209,
    "claps": 23153,
    "dishonourable": 26365,
    "charmed": 21694,
    "sim": 6509,
    "spouter": 22731,
    "daughter": 8353,
    "Ġpitch": 5767,
    "Ġremarkable": 4915,
    "garden": 15025,
    "eliest": 14745,
    "changed": 7174,
    "Ġsynthe": 26007,
    "Ġarrowy": 25469,
    "ains": 5094,
    "Ġautumn": 14515,
    "Ġapprehen": 16828,
    "Ġmanual": 14197,
    "Ġinclu": 1101,
    "Ġcongratulate": 9062,
    "Ġtravel": 5952,
    "threw": 21983,
    "after": 2896,
    "ourers": 21448,
    "number": 10113,
    "Ġconceit": 7294,
    "Ġdark": 2111,
    "Ġtempt": 5564,
    "speaks": 19717,
    "Ġwrig": 13064,
    "yder": 10137,
    "iliating": 12691,
    "ours": 3428,
    "Ġuns": 15833,
    "Ġstraggling": 23750,
    "Ġquit": 5246,
    "Ġdiscl": 9795,
    "Ġunconsc": 6551,
    "Ġamused": 11797,
    "onds": 12992,
    "mystery": 15154,
    "Ē": 211,
    "scot": 14414,
    "Ġcompensated": 17399,
    "Ġequals": 4726,
    "ushion": 14719,
    "umbled": 8491,
    "Ġwafted": 14539,
    "anter": 9165,
    "Ġunspeakable": 10054,
    "height": 21204,
    "Ġindependent": 9014,
    "Ġmultipl": 2790,
    "Ġrejoinder": 24599,
    "Ġretreated": 13431,
    "Ġtophet": 23570,
    "Ġdwelt": 12601,
    "pool": 16207,
    "bell": 7331,
    "Ġrural": 21969,
    "Ġegypt": 9677,
    "invisible": 17740,
    "Ġattends": 19648,
    "Ġsupposition": 9815,
    "Ġhardihood": 23112,
    "enth": 6680,
    "Ġbohemian": 17132,
    "took": 6164,
    "Ġapprehended": 26091,
    "Ġpowers": 5419,
    "Ġgretna": 26467,
    "Ġtapering": 8770,
    "Ġslapped": 23171,
    "Ġblo": 2734,
    "Ġparticular": 2449,
    "Ġappearing": 9839,
    "Ġstepdaughter": 22612,
    "Ġrepentance": 15159,
    "merc": 19279,
    "Ġrecept": 1525,
    "Ġengland": 3855,
    "Ġomens": 21326,
    "Ġsucceed": 4545,
    "Ġpleasant": 4172,
    "Ġstops": 3168,
    "ribut": 817,
    "Ġbaling": 17860,
    "reme": 2425,
    "shaped": 10307,
    "irm": 3111,
    "Ġpumping": 25643,
    "civility": 17512,
    "ė": 216,
    "plexy": 18579,
    "Ġcall": 2074,
    "Ġtrustworthy": 24105,
    "Ġappearances": 10450,
    "Ġmaria": 7123,
    "hued": 20910,
    "heartily": 24215,
    "Ġtok": 1245,
    "Ġclank": 15962,
    "ropol": 10952,
    "Ġfant": 9172,
    "moment": 3576,
    "near": 5842,
    "diversity": 25897,
    "Ġxavier": 2856,
    "Ġhit": 7162,
    "Ġensuing": 12306,
    "Ġxi": 16427,
    "10": 17471,
    "explanation": 12355,
    "Ġarrange": 3123,
    "Ġprobability": 1128,
    "Ġpence": 17906,
    "please": 8176,
    "Ġattics": 22627,
    "Ġhammock": 5768,
    "mas": 5212,
    "find": 6954,
    "coburg": 13596,
    "Ġtrain": 513,
    "unken": 10235,
    "Ġeastward": 13388,
    "iably": 13736,
    "abhorred": 17334,
    "mediate": 16512,
    "could": 2873,
    "Ġhazarded": 25654,
    "Ġcommander": 8624,
    "rederick": 14084,
    "gravel": 22615,
    "Ġenglishman": 11229,
    "Ġfriendless": 23023,
    "Ġpersevering": 20231,
    "Ġagatha": 6866,
    "bench": 16802,
    "cking": 4268,
    "Ġleap": 5823,
    "ov": 15398,
    "mankind": 14373,
    "Ġrapidity": 11103,
    "Ġsigh": 10335,
    "Ġspoutings": 14675,
    "urried": 21702,
    "Ġselect": 3997,
    "Ġthack": 21515,
    "ceptibly": 22341,
    "clean": 14759,
    "Ġid": 1909,
    "Ġcampa": 17172,
    "Ġconfessed": 8008,
    "Ġber": 5698,
    "ecess": 17531,
    "Ġbankrupt": 16795,
    "Ġdecayed": 22824,
    "Ġswallow": 8949,
    "ocity": 8277,
    "oes": 4433,
    "ĠmanÅĵuv": 18417,
    "Ġprogno": 14039,
    "Ġpermanent": 13629,
    "Ġweigh": 10893,
    "Ġstoutly": 16922,
    "Ġnautical": 17384,
    "Ġjudges": 14685,
    "endeavoured": 12277,
    "Ġimmedi": 2904,
    "Ġjoll": 11763,
    "Ġloc": 10913,
    "invested": 17116,
    "Ġremote": 8918,
    "Ġrhyme": 21980,
    "Ġtranquillize": 24757,
    "hundred": 8330,
    "Ġrespective": 16341,
    "Ġfever": 6557,
    "Ġcolle": 8921,
    "grinder": 23414,
    "Ġunembarrassed": 22067,
    "Ġamongst": 8958,
    "Ġclassification": 1095,
    "han": 12469,
    "collar": 19327,
    "Ġoscill": 2858,
    "Ġpaw": 12616,
    "|": 96,
    "before": 3117,
    "Ġresumed": 11810,
    "Ġdefined": 11896,
    "Ġhut": 15615,
    "caroline": 24148,
    "Ġmiseries": 10345,
    "Ġuneasiness": 9481,
    "any": 3338,
    "Ġsentimental": 24754,
    "Ġabsorbed": 12328,
    "mass": 12486,
    "bearings": 25371,
    "Ġsaid": 576,
    "Ġdard": 21421,
    "fight": 17537,
    "Ġimpetus": 25569,
    "Ġvivacious": 19813,
    "Ġdemeanour": 17335,
    "evident": 25520,
    "Ġdece": 6996,
    "Ġmiriam": 25273,
    "wrote": 11546,
    "conc": 3945,
    "Ġdemo": 10879,
    "Ġaim": 10144,
    "trivial": 21091,
    "uzz": 4524,
    "Ġawe": 7146,
    "Ġelderly": 13493,
    "uck": 1233,
    "Ġgle": 7858,
    "Ġpenal": 1771,
    "Ġsmoky": 22557,
    "Ġcardboard": 19976,
    "Ġimpressive": 14999,
    "Ġexcessive": 3891,
    "fatig": 17088,
    "Ġdummy": 25449,
    "Ġinfluenced": 19630,
    "Ġapprove": 12869,
    "Ġjew": 9465,
    "Ġfountain": 7364,
    "Ġack": 5621,
    "significant": 25082,
    "mystic": 25316,
    "jah": 17580,
    "Ġsuffered": 5649,
    "Ġfeelingly": 22994,
    "Ġnoises": 18373,
    "bucket": 17492,
    "seat": 18126,
    "Ġeternities": 19940,
    "Ġretreating": 19797,
    "Ġenlarge": 21935,
    "Ġwindlass": 7255,
    "dilig": 17281,
    "Ġrecol": 4029,
    "Ġsized": 11562,
    "chose": 18041,
    "Ġimpart": 11778,
    "Ġpirates": 9072,
    "Ġpalsy": 25778,
    "drugg": 20837,
    "Ġargument": 7097,
    "Ġlined": 15646,
    "igner": 21699,
    "Ġwave": 7574,
    "Ġenthus": 7231,
    "helping": 23140,
    "Ġimpassable": 20611,
    "Ġbodiless": 24226,
    "Ġdisembow": 22535,
    "Ġsupernatural": 9871,
    "Ġknights": 15148,
    "Ġeasterly": 25962,
    "Ġtorrents": 20053,
    "Ġshavings": 14108,
    "oboam": 9356,
    "Ġaffright": 9330,
    "Ġspoiled": 11363,
    "Ġdisadvantages": 18557,
    "Ġunhappily": 18263,
    "Ġhams": 16611,
    "Ġwandering": 8652,
    "Ġtransformers": 1127,
    "Ġphrenologist": 25607,
    "itect": 966,
    "Ġneed": 2609,
    "âĢĶ": 517,
    "Ġimplicated": 24875,
    "Ġverse": 16601,
    "Ġstraining": 11326,
    "conclusion": 25671,
    "Ġca": 21337,
    "Ġsleepy": 8267,
    "Ġparents": 6752,
    "Ġmould": 6518,
    "Ġsuspending": 19243,
    "Ġincess": 8430,
    "Ġtahiti": 13617,
    "gether": 1593,
    "arer": 3967,
    "Ġdevils": 7230,
[...]
