{
  "metadata": {
    "vocab_size": 26614,
    "algorithm": "BPE",
    "created_at": "2026-09-17 07:08:39",
    "special_tokens": [
      "<PAD>",
      "<SOS>",
      "<EOS>",
      "<UNK>",
      "<MASK>"
    ]
  },
  "vocab": {
    "Ġjustify": 11072,
    "dart": 20825,
    "Ġquestioned": 14620,
    "rendering": 22348,
    "Ġsucked": 14137,
    "Ġrecip": 16138,
    "Ġcarrying": 6071,
    "Ġimitation": 22168,
    "make": 5793,
    "Ġamsterdam": 22481,
    "Ġchanging": 11751,
    "Ġdiff": 3116,
    "Ġanomalous": 25637,
    "merry": 16535,
    "Ġquoin": 22415,
    "gy": 2096,
    "Ġcubic": 20086,
    "pression": 10407,
    "Ġballarat": 14718,
    "Ġpacing": 8425,
    "oking": 4606,
    "ura": 1068,
    "Ġshallow": 14393,
    "olstad": 7612,
    "Ġtransitory": 16016,
    "Ġcoverage": 4289,
    "Ġunfolding": 17086,
    "atlantic": 15522,
    "lizzy": 6651,
    "orton": 11754,
    "Ġanimated": 7701,
    "trifling": 19412,
    "rained": 5162,
    "served": 5043,
    "Ġcommend": 10334,
    "gh": 3803,
    "era": 13846,
    "Ġjob": 7015,
    "Ġproducing": 11897,
    "Ġlakes": 8130,
    "Ġpositives": 4319,
    "Ġworsted": 19993,
    "Ġuser": 15913,
    "Ġgpt": 4352,
    "Ġobe": 5800,
    "ally": 529,
    "somerset": 26322,
    "round": 3371,
    "Ġ120": 16858,
    "Ġsegmentation": 17339,
    "Ġregarding": 13209,
    "Ġsums": 2904,
    "Ġ107": 24415,
    "Ġhurrying": 11993,
    "Ġlock": 5927,
    "Ġresistance": 13529,
    "Ġtoler": 7589,
    "eries": 6808,
    "kick": 20935,
    "handsome": 13175,
    "Ġcongregated": 20095,
    "phant": 6287,
    "Ġdub": 13908,
    "flies": 19422,
    "Ġirrespective": 23373,
    "Ġhier": 1895,
    "¡": 99,
    "contr": 12055,
    "university": 25983,
    "brimmed": 14588,
    "Ġtoiled": 12639,
    "py": 17624,
    "urpation": 16299,
    "Ġ55": 24323,
    "Ġsaith": 14155,
    "Ġ156": 20169,
    "rers": 14717,
    "Ġtheirs": 7024,
    "Ġeighty": 19474,
    "ospit": 22260,
    "holder": 13281,
    "Ġvengeful": 14889,
    "Ġjamming": 17264,
    "Ġtester": 21171,
    "liking": 22921,
    "Ġboun": 21378,
    "Ġbundles": 26175,
    "Ġsuperstitions": 17072,
    "slave": 16895,
    "pping": 1422,
    "Ġvancouver": 26565,
    "Ġmadly": 16484,
    "Ġargued": 13628,
    "Ġunerringly": 18265,
    "coward": 13699,
    "ann": 5802,
    "Ġinsatiate": 19269,
    "ostent": 16846,
    "_,âĢĻâĢĿ": 20399,
    "Ġnewton": 3535,
    "Ġrenowned": 26193,
    "Ġeasy": 3456,
    "Ġ135": 24785,
    "answering": 26004,
    "impregn": 21711,
    "Ġbare": 6132,
    "Ġvale": 14080,
    "kitchen": 17585,
    "Ġpolynes": 16077,
    "occupied": 12302,
    "Ġtanning": 17729,
    "Ġoutput": 930,
    "Ġabutted": 22272,
    "eled": 2358,
    "pr": 3173,
    "notwithstanding": 22746,
    "Ġparallelization": 3433,
    "Ġshout": 4265,
    "Ġamel": 18510,
    "ackled": 22421,
    "doubted": 17526,
    "umb": 3482,
    "Ġdefined": 11896,
    "individual": 18436,
    "Ġpicturesque": 14893,
    "Ġdistress": 5844,
    "lays": 14921,
    "gypt": 8260,
    "eed": 20840,
    "Ġcool": 5734,
    "Ġscattered": 6856,
    "Ġnight": 1465,
    "hairs": 20903,
    "Ġprofanely": 23569,
    "mistaken": 12208,
    "Ġfundamental": 3017,
    "Ġpoetic": 17103,
    "Ġabode": 7899,
    "Ġsuffering": 8946,
    "sort": 6798,
    "Ġhappened": 3712,
    "Ġevent": 2951,
    "oda": 15747,
    "covery": 11171,
    "Ġinstituted": 18695,
    "Ġgenerate": 1487,
    "Ġasked": 2277,
    "berg": 11856,
    "Ġgoodness": 6058,
    "Ġarchbishop": 18710,
    "elsewhere": 19867,
    "punct": 20191,
    "grew": 17555,
    "included": 19207,
    "Ġanguish": 5583,
    "Ġalice": 1481,
    "Ġdenomin": 12065,
    "Ġegot": 18007,
    "Ġgravity": 9247,
    "irting": 11684,
    "Ġfavoured": 16362,
    "broker": 13303,
    "Ġprotesting": 14740,
    "Ġfurther": 1055,
    "Ġwatches": 11082,
    "Ġtomahawk": 7540,
    "Ġoutrageous": 20609,
    "Ġxliv": 23407,
    "congratulations": 20278,
    "ancies": 11583,
    "Ġingolstadt": 8332,
    "hearse": 17748,
    "Ġprairie": 8712,
    "Ġpropag": 16346,
    "Ġloomed": 12299,
    "Ġinaudible": 21496,
    "Ġmaty": 22908,
    "cape": 13696,
    "Ġpul": 2041,
    "qualities": 25043,
    "Ġseldom": 4629,
    "mankind": 14373,
    "steelkilt": 10046,
    "itigated": 23042,
    "Ġthan": 736,
    "Ġfloundered": 18862,
    "Ġsaintsbury": 26372,
    "scruple": 26046,
    "Ġfeverish": 11348,
    "Ġindulgence": 11319,
    "Ġairs": 14511,
    "quently": 9701,
    "Ġinestim": 15621,
    "returning": 12203,
    "Ġclams": 19987,
    "arying": 9800,
    "Ġorange": 8486,
    "Ġstiffness": 24830,
    "Ġhue": 8428,
    "Ġrelaxed": 12981,
    "Ġglit": 8558,
    "arabian": 26446,
    "Ġswitzerland": 10379,
    "Ġresemble": 15690,
    "Ġca": 21337,
    "figures": 20120,
    "overfitting": 13100,
    "Ġreturn": 1709,
    "Ġreplaced": 13070,
    "Ġwash": 9702,
    "pump": 21016,
    "Ġdecaying": 2245,
    "Ġfin": 1460,
    "settle": 16661,
    "ingle": 1037,
    "Ġpier": 7162,
    "norm": 20984,
    "Ġtenderest": 23547,
    "company": 9460,
    "Ġcables": 15555,
    "Ġheroism": 24544,
    "Ġfiles": 21411,
    "ullied": 23101,
    "compl": 6873,
    "anned": 17839,
    "Ġcrater": 16439,
    "Ġgrowled": 19283,
    "indebted": 26158,
    "isa": 17845,
    "Ġtruly": 4796,
    "Ġmaintained": 12931,
    "Ġutterly": 6100,
    "Ġsleet": 8975,
    "Ġobjectionable": 16991,
    "caterpillar": 26383,
    "Ġinward": 11606,
    "transformers": 8714,
    "Ġarrang": 2468,
    "Ġlandsc": 11146,
    "disp": 7976,
    "Ġscaffold": 18401,
    "Ġeat": 4643,
    "Ġoblig": 3449,
    "Ġwhelm": 25998,
    "bore": 13685,
    "collinses": 19922,
    "Ġsyllables": 25298,
    "unc": 15766,
    "roses": 17956,
    "easy": 9592,
    "Ġlids": 12273,
    "walks": 19720,
    "hideous": 25407,
    "Ġenchanting": 17039,
    "Ġsleek": 23382,
    "Ġopposed": 11188,
    "Ġspectre": 16630,
    "calmed": 16203,
    "ays": 6683,
    "vitiated": 25754,
    "Ġbecalmed": 18086,
    "Ġabandonment": 25603,
    "Ġdearly": 10401,
    "Ġdust": 5908,
    "Ġheedless": 14902,
    "Ġoffing": 16141,
    "impenetrable": 26196,
    "senses": 25022,
    "tempt": 21078,
    "Ġcolon": 18764,
    "feed": 9292,
    "Ġmoustache": 20482,
    "Ġinquis": 19303,
    "ishness": 22350,
    "cried": 8724,
    "Ġpassion": 4557,
    "neglect": 25668,
    "afric": 19178,
    "column": 19328,
    "iom": 20914,
    "Ġsakes": 18326,
    "Ġmovable": 22432,
    "kingly": 20938,
    "Ġhalloa": 13315,
    "Ġgouge": 26188,
    "hatchway": 25904,
    "lifeless": 24312,
    "Ġicicles": 25264,
    "Ġassurance": 7774,
    "Ġdin": 3626,
    "commend": 19991,
    "Ġremoter": 20104,
    "Ġwise": 6811,
    "Ġcondem": 6338,
    "quest": 4538,
    "see": 3048,
    "Ġcompression": 18145,
    "estation": 15918,
    "hedge": 22496,
    "Ġsiber": 17755,
    "Ġinseparable": 20687,
    "Ġimpelling": 22382,
    "icorn": 15654,
    "Ġ54": 24322,
    "Ġconfine": 14510,
    "Ġburial": 16521,
    "Ġgarnery": 17386,
    "Ġagreeing": 20017,
    "ò": 179,
    "Ġsteadfast": 8678,
    "Ġbutler": 18270,
    "Ġpince": 21469,
    "Ġfree": 3378,
    "Ġswelling": 11923,
    "trust": 21077,
    "Ġvenom": 24238,
    "Ġload": 14145,
    "Ġmanilla": 15957,
    "Ġspecific": 2002,
    "umbria": 23928,
    "Ġwalking": 4326,
    "Ġsanctioned": 26349,
    "Ġabuse": 18392,
    "closing": 23151,
    "Ġsmelt": 16063,
    "Ġcourse": 2130,
    "decor": 23779,
    "tout": 21064,
    "aire": 10680,
    "Ġrifts": 21975,
    "itect": 967,
    "gyric": 19109,
    "Ġexpl": 487,
    "Ġesquimaux": 25150,
    "Ġphilipp": 23882,
    "dropping": 14981,
    "belt": 24034,
    "ilty": 6394,
    "Ġfaint": 5811,
    "wall": 10136,
    "ni": 1661,
    "Ġensemble": 1604,
    "ways": 1441,
    "Ġsmothe": 18573,
    "Ġfatt": 15576,
    "retrospect": 23133,
    "Ġmeanness": 22593,
    "delight": 5344,
    "Ġpresently": 5116,
    "Ġlectures": 17178,
    "Ġretrogression": 26581,
    "Ġpatient": 6892,
    "Ġwreck": 7314,
    "bble": 17484,
    "omically": 13975,
    "Ġresulting": 24198,
    "hroom": 12474,
    "streets": 13394,
    "Ġuneasiness": 9483,
    "Ġmer": 2930,
    "Ġurged": 6781,
    "Ġsurmount": 19999,
    "Ġinexorable": 12253,
    "Ġnotice": 4543,
    "Ġcivilities": 14847,
    "Ġconcise": 23322,
    "Ġrelationships": 2926,
    "nourished": 26398,
    "Ġyoun": 1406,
    "Ġmurderous": 8315,
    "Ġlane": 5627,
    "insisted": 23064,
    "Ġequin": 14495,
    "Ġimplement": 3086,
    "Ġscene": 3099,
    "Ġtener": 21162,
    "isite": 15560,
    "clusion": 16303,
    "Ġoverthrow": 18432,
    "Ġtouching": 4680,
    "Ġprotruded": 19468,
    "Ġporus": 24398,
    "Ġsubstantial": 14809,
    "there": 1421,
    "Ġinsanity": 12045,
    "remind": 23183,
    "Ġbanqu": 12585,
    "Ġchoked": 9263,
    "Ġimputation": 22169,
    "Ġlouder": 13467,
    "Ġshaped": 15832,
    "stalk": 21647,
    "Ġoffspring": 16143,
    "companions": 15023,
    "persuasion": 20042,
    "capitals": 25080,
    "image": 9685,
    "Ġlesson": 7276,
    "Ġcommonplace": 11096,
    "Ġrole": 15995,
    "Ġrec": 895,
    "wooden": 24587,
    "Ġjewelled": 20182,
    "Ġstalls": 25647,
    "Ġfixed": 2688,
    "sinking": 17668,
    "severe": 21816,
    "Ġcolder": 22853,
    "Ġsymptom": 13482,
    "instinctively": 26327,
    "Ġgallons": 14817,
    "Ġvalid": 1716,
    ",": 16,
    "Ġsorry": 4211,
    "Ġtrading": 23073,
    "cheon": 23802,
    "Ġbarrel": 23790,
    "Ġdu": 4584,
    "Ġfooted": 23795,
    "right": 2770,
    "shoes": 14241,
    "Ġconcealed": 7496,
    "ces": 579,
    "Ġxxi": 24476,
    "alling": 6036,
    "Ġevenings": 18753,
    "Ġhonor": 5664,
    "Ġclasped": 17206,
    "Ġsa": 474,
    "Ġsnuffed": 15071,
    "iod": 3842,
    "request": 21240,
    "anxiety": 25155,
    "iforn": 14063,
    "Ġtrusty": 24105,
    "Ġhoped": 5488,
    "Ġplat": 8520,
    "Ġgradu": 15830,
    "Ġhook": 6453,
    "Ġbedroom": 7277,
    "thinks": 16641,
    "flames": 14711,
    "Ġflail": 23007,
    "Ġbasis": 16961,
    "Ġcontingency": 26244,
    "kindred": 24048,
    "Ġdownright": 16116,
    "Ġrascal": 11699,
    "Ġinfatuation": 25857,
    "ĠĠĠĠĠĠĠĠĠĠĠĠĠĠĠĠĠĠĠĠĠĠĠĠĠĠĠĠĠĠĠĠĠĠĠĠĠĠĠĠĠĠĠĠĠĠĠĠĠĠĠ": 20037,
    "Ġdew": 14044,
    "Ġhelplessness": 25071,
    "Ġsuffocated": 20727,
    "Ġfists": 15580,
    "Ġbending": 12582,
    "earn": 10696,
    "Ġsulk": 15045,
    "Ġtyph": 10007,
    "Ġvile": 8472,
    "Ġcontained": 7679,
    "Ġhorrors": 10479,
    "alescence": 15922,
    "Ġreveren": 13196,
    "Ġlob": 7628,
    "Ġang": 2512,
    "Ġlooking": 2474,
    "Ġfossiliferous": 25609,
    "Ġenc": 968,
    "Ġshy": 10903,
    "Ġobstacles": 19834,
    "recklessly": 25269,
    "Ġlift": 8810,
    "Ġthickly": 12113,
    "Ġwhims": 12689,
    "Ġtaurus": 21177,
    "convenient": 12235,
    "makers": 20981,
    "Ġprior": 11318,
    "fine": 10090,
    "pronouncing": 25193,
    "Ġfools": 14481,
    "iced": 3903,
    "Ġpenalties": 10414,
    "Ġnews": 3821,
    "Ġspout": 3283,
    "Ġunmo": 12770,
    "Ġrephr": 21676,
    "Ġiter": 2953,
    "doubt": 6782,
    "Ġpeaceable": 14722,
    "ially": 9245,
    "ouri": 21445,
    "Ġradiance": 13369,
    "Ġhampshire": 15241,
    "required": 17030,
    "Ġthreatening": 16828,
    "Ġaltogether": 4831,
    "enses": 10994,
    "Ġintercepted": 25826,
    "Ġdoesn": 7438,
    "Ġtropic": 17065,
    "Ġrot": 10967,
    "ipper": 13739,
    "twain": 23698,
    "Ġjollity": 25566,
    "Ġviolin": 16427,
    "idelburgh": 10560,
    "Ġvacantly": 16815,
    "Ġsideways": 6182,
    "Ġangle": 8602,
    "Ġarticles": 7108,
    "Ġobligation": 13244,
    "Ġclim": 8194,
    "anyth": 5438,
    "Ġpear": 11850,
    "Ġimp": 575,
    "education": 20300,
    "conside": 9289,
    "icher": 9202,
    "Ġbrothers": 13174,
    "Ġscorched": 17101,
    "Ġenorm": 5302,
    "Ġinfallible": 15069,
    "Ġastr": 15493,
    "Ġsubdued": 11030,
    "ok": 572,
    "eryton": 4097,
    "ript": 4155,
    "Ġcrutch": 23445,
    "Ġtraverse": 18891,
    "front": 12168,
    "Ġperfectly": 3700,
    "Ġpopulous": 16826,
    "liked": 10508,
    "Ġdismay": 11807,
    "enthusiastic": 20691,
    "Ġsituated": 9447,
    "Ġroyal": 5602,
    "Ġbeaten": 10528,
    "letter": 6201,
    "Ġoffence": 12941,
    "Ġfootsteps": 16571,
    "conviction": 19963,
    "two": 3862,
    "Ġtucked": 12390,
    "Ġreceiving": 4882,
    "Ġspeaker": 19148,
    "unciation": 25982,
    "consideration": 14954,
    "Ġwindlass": 7256,
    "willingness": 24755,
    "without": 4846,
    "Ġinstruments": 12221,
    "perfectly": 9085,
    "Ġdisgu": 8205,
    "Ġinfamy": 14502,
    "itoring": 21330,
    "000": 2562,
    "upid": 6582,
    "Ġpronounced": 8350,
    "Ġhead": 1127,
    "ides": 2161,
    "holloa": 19462,
    "yes": 984,
    "Ġgenerator": 3385,
    "Ġbuckle": 17033,
    "ne": 645,
    "Ġdread": 3162,
    "strength": 13979,
    "Ġindisc": 16225,
    "intercourse": 14638,
    "Ġhistorically": 19376,
    "tomb": 21092,
    "Ġprep": 4193,
    "tains": 10962,
    "precise": 19349,
    "Ġmounting": 19975,
    "rael": 21626,
    "binnacle": 20786,
    "Ġclustered": 25233,
    "nable": 13761,
    "sterns": 23366,
    "Ġquitting": 7646,
    "ander": 6401,
    "Ġinducement": 16843,
    "Ġgoes": 3855,
    "ored": 3898,
    "consequ": 18506,
    "Ġunpardonable": 22059,
    "Ġsteadfastly": 10651,
    "scheme": 15253,
    "confidential": 25876,
    "Ġprocedural": 12029,
    "Ġmicrosc": 20675,
    "Ġstraightened": 12106,
    "Ġmowers": 17812,
    "Ġimplicated": 24875,
    "Ġdisasters": 16052,
    "Ġboard": 3386,
    "ue": 1179,
    "ager": 6546,
    "Ġquadrant": 11404,
    "embraces": 25805,
    "Ġjudging": 16595,
    "Ġgorgeous": 20465,
    "apple": 22836,
    "Ġfolds": 12204,
    "Ġerroneous": 17408,
    "bar": 7542,
    "enjoyments": 25433,
    "neying": 22446,
    "histicated": 20900,
    "patter": 4293,
    "Ġceases": 19312,
    "ral": 4627,
    "Ġutil": 4672,
    "rail": 10204,
    "Ġren": 3848,
    "Ġfoe": 7680,
    "Ġstandard": 14496,
    "worm": 15452,
    "Ġindolence": 16226,
    "weep": 22681,
    "Ġheightens": 24154,
    "Ġsecretary": 19440,
    "lucases": 20209,
    "Ġhaul": 11690,
    "Ġdrawn": 4276,
    "orney": 17873,
    "Ġdiscoloured": 15251,
    "yrin": 12519,
    "iliary": 21723,
    "Ġcourting": 23290,
    "Ġprofessions": 11231,
    "Ġslighted": 16566,
    "ities": 1827,
    "Ġdeprived": 8210,
    "Ġhackluyt": 25655,
    "usiveness": 22280,
    "Ġreply": 4515,
    "Ġsuperior": 2755,
    "Ġointment": 21324,
    "Ġdesign": 4134,
    "stir": 12670,
    "Ġrelease": 19290,
    "Ġhonorable": 16876,
    "Ġdistrict": 10318,
    "angular": 11721,
    "Ġdeference": 10882,
    "Ġunwarrant": 20132,
    "Ġborne": 6351,
    "oct": 7555,
    "Ġgorge": 13565,
    "Ġsatire": 22898,
    "Ġunheeded": 18261,
    "nez": 22444,
    "Ġgasp": 7172,
    "Ġpens": 21458,
    "Ġbuckets": 17034,
    "Ġpyramids": 15113,
    "contempt": 13189,
    "stop": 11634,
    "ro": 301,
    "jonah": 11496,
    "Ġthus": 2036,
    "Ġviewed": 10463,
    "mises": 20977,
    "Ġburglar": 17354,
    "Ġrecounted": 22734,
    "ineas": 15819,
    "Ġproof": 6153,
    "Ġstabilizing": 3657,
    "Ġrecept": 1523,
    "Ġph": 1545,
    "ferred": 16392,
    "Ġdimension": 3241,
    "itude": 1416,
    "Ġreflection": 6440,
    "Ġunrestrained": 25554,
    "Ġelated": 18634,
    "Ġmadam": 5663,
    "Ġga": 4447,
    "Ġdemonstrate": 24994,
    "Ġemerg": 13423,
    "ciousness": 20816,
    "Ġpremium": 23902,
    "Ġrust": 6408,
    "Ġwindibank": 7257,
    "announced": 19758,
    "Ġbathe": 25443,
    "quitted": 21854,
    "appearing": 14637,
    "Ġsooner": 5573,
    "Ġrewards": 10848,
    "Ġindex": 17049,
    "heaven": 8052,
    "brought": 7285,
    "Ġsings": 15504,
    "Ġimportance": 4900,
    "Ġancho": 15600,
    "fanning": 20865,
    "aft": 9583,
    "Ġput": 1798,
    "Ġshape": 5639,
    "neat": 22445,
    "jur": 17578,
    "Ġappro": 659,
    "Ġjumbled": 22294,
    "Ġped": 6817,
    "Ġjumped": 7096,
    "Ġkith": 22189,
    "Ġterrific": 6754,
    "locks": 14455,
    "Ġroy": 4230,
    "answer": 11730,
    "Ġdoubloons": 13433,
    "Ġplied": 22594,
    "Ġconvergence": 974,
    "Ġnewcom": 16220,
    "flask": 12097,
    "Ġinmates": 15620,
    "Ġgeneric": 18448,
    "ist": 449,
    "Ġstren": 15717,
    "Ġnin": 10187,
    "Ġcruisers": 25863,
    "Ġbegging": 11080,
    "Ġgaz": 4045,
    "Ġfamily": 1967,
    "call": 8722,
    "fears": 18528,
    "Ġvel": 7186,
    "Ġconfirmation": 17210,
    "antee": 22094,
    "Ġattribute": 16095,
    "Ġpol": 2578,
    "Ġal": 342,
    "omin": 4703,
    "O": 51,
    "homage": 25616,
    "wh": 508,
    "Ġunlikely": 10908,
    "Ġgardens": 16453,
    "ine": 404,
    "kicked": 20942,
    "inkle": 22614,
    "Ġgrunted": 16166,
    "Ġaffair": 4464,
    "appeared": 4282,
    "Ġfew": 1223,
    "Ġtransparen": 10541,
    "Ġendeared": 26498,
    "Ġsting": 10861,
    "Ġcircumstance": 4987,
    "Ġseams": 12122,
    "ooped": 17623,
    "Á": 130,
    "Ġsket": 18728,
    "Ġloathsome": 13527,
    "Ġparagraph": 17453,
    "Ġfrightful": 7735,
    "Ġimpenetrable": 17396,
    "bureau": 20788,
    "insula": 23063,
    "Ġres": 697,
    "Ġparalle": 1408,
    "bolt": 25135,
    "Ġdrinks": 24279,
    "fre": 5425,
    "Ġepis": 19980,
    "Ġmassac": 14735,
    "Ġpumps": 8426,
    "inctions": 17732,
    "Ġhamper": 19387,
    "Ġharmless": 9964,
    "Ġhavoc": 15811,
    "pooh": 18799,
    "miraculous": 26396,
    "Ġwaist": 6893,
    "Ġsite": 17753,
    "Ġsilently": 6895,
    "ivity": 1663,
    "pain": 7350,
    "Ġthing": 1638,
    "Ġrecovery": 11441,
    "ort": 520,
    "sing": 5138,
    "Ġbreeding": 14522,
    "\"]": 17470,
    "hurrying": 14982,
    "ellations": 21945,
    "Ġnods": 19064,
    "Ġbar": 3147,
    "Ġvor": 15802,
    "circumst": 5348,
    "Ġinventing": 24861,
    "op": 658,
    "gird": 20878,
    "begone": 12875,
    "Ġabsurdities": 24878,
    "estruct": 22220,
    "Ġexploding": 2108,
    "Ġwashing": 9704,
    "Ġinquiries": 5678,
    "ras": 21035,
    "Ġmisery": 3816,
    "Ġenigmatical": 20596,
    "incident": 14591,
    "Ġconnected": 5393,
    "huzza": 20912,
    "roar": 17952,
    "refuge": 24734,
    "Ġconsider": 2570,
    "Ġdig": 6135,
    "vered": 4829,
    "ortal": 6265,
    "church": 8139,
    "shown": 22453,
    "Ġhusband": 3621,
    "view": 5895,
    "Ġgifts": 21609,
    "Ġbasics": 13447,
    "Ġbow": 3062,
    "ensils": 22545,
    "Ġattention": 1173,
    "Ġalabama": 14018,
    "Ġunappe": 22015,
    "Ġcomplexion": 8209,
    "Ġenduring": 16301,
    "###": 3829,
    "Ġvapory": 17006,
    "begged": 18520,
    "Ġushered": 18356,
    "bul": 6951,
    "Ġsurvey": 13592,
    "cull": 20808,
    "Ġderivative": 3001,
    "lines": 6959,
    "Ġmelancholy": 5606,
    "Ġmatrix": 1601,
    "Ġrattled": 15065,
    "Ġgracefully": 13390,
    "Ġmouldings": 24737,
    "Ġtot": 4188,
    "arian": 10316,
    "Ġcapt": 1294,
    "north": 14616,
    "Ġforthwith": 16618,
    "rolling": 9060,
    "Ġeasterly": 25962,
    "Ġdaughter": 2871,
    "goose": 19101,
    "Ġunrestingly": 20359,
    "Ġbold": 5291,
    "Ġcigars": 12250,
    "Ġphant": 7055,
    "Ġmonuments": 22974,
    "cask": 12444,
    "Ġintellectual": 11401,
    "Ġsummary": 19402,
    "Ġscrewed": 15119,
    "Ġflush": 14423,
    "afraid": 10441,
    "Ġhammer": 6093,
    "Ġcomputes": 4768,
    "urously": 18049,
    "Ġabruptly": 15149,
    "carrying": 16712,
    "orious": 6007,
    "Ġmagn": 1552,
    "Ġstool": 14460,
    "Ġadvice": 4901,
    "Ġtranqu": 4605,
    "astrop": 3319,
    "bulkington": 19924,
    "oboam": 9357,
    "Ġwickedness": 9525,
    "Ġbuild": 6474,
    "Ġagents": 9765,
    "Ġjenkinson": 11431,
    "Ġcon": 348,
    "ough": 470,
    "Ġtrail": 16281,
    "ige": 12677,
    "84": 15300,
    "âĢľ_": 5720,
    "Ġinflamed": 13472,
    "orrah": 17875,
    "Ġcarcase": 14443,
    "teeth": 10354,
    "negro": 18489,
    "altern": 17941,
    "centred": 25017,
    "Ġsquid": 11876,
    "arch": 1116,
    "thereby": 14446,
    "gered": 9275,
    "_,âĢĻ": 12431,
    "chop": 21685,
    "Ġplump": 14281,
    "Ġnut": 12643,
    "Ġbeats": 21749,
    "Ġimmensities": 25330,
    "Ġappalled": 22214,
    "ichever": 13956,
    "Ġmended": 21312,
    "himself": 3974,
    "absolutely": 10645,
    "Ġquiescent": 26242,
    "acter": 2508,
    "Ġsurtout": 23464,
    "comparatively": 25839,
    "settled": 10506,
    "Ġuseless": 7037,
    "andish": 18153,
    "Ġmethods": 3160,
    "questions": 16760,
    "Ġhearsed": 25039,
    "Ġpracticable": 19042,
    "Ġdoct": 4456,
    "westward": 25424,
    "Ġshown": 5159,
    "Ġhawk": 15172,
    "Ġpenetrate": 12267,
    "Ġflash": 8229,
    "Ġregularity": 22761,
    "Ġmud": 11572,
    "swam": 24254,
    "organ": 15571,
    "Ġshiver": 12764,
    "Ġapt": 9155,
    "Ġtra": 1385,
    "committed": 18738,
    "Ġaimed": 20249,
    "tossing": 18580,
    "Ġflirt": 14422,
    "frozen": 25139,
    "Ġjoist": 19231,
    "relations": 14732,
    "Ġreducing": 1958,
    "Ġtemples": 18638,
    "bantering": 25253,
    "conced": 22467,
    "Ġdevotedly": 24750,
    "Ġstiffly": 15005,
    "Ġbump": 9659,
    "Ġoptimal": 1856,
    "prolong": 23393,
    "Ġvexations": 24609,
    "Ġrounds": 18885,
    "per": 480,
    "rane": 17653,
    "tashtego": 9622,
    "rably": 21630,
    "Ġunnaturally": 24870,
    "li": 1188,
    "Ġhatherley": 7848,
    "bold": 17487,
    "accessory": 25499,
    "Ġtallest": 15473,
    "Ġcig": 6520,
    "Ġhas": 824,
    "Ġvanished": 6874,
    "Ġdiscrete": 2477,
    "Ġknots": 15008,
    "punishment": 15144,
    "Ġgranting": 18737,
    "Ġearned": 19403,
    "billiard": 25334,
    "excited": 13379,
    "Ġchanced": 8186,
    "izers": 18134,
    "Ġpriv": 4185,
    "rib": 1946,
    "Ġcorroboration": 26053,
    "believed": 9932,
    "ial": 412,
    "Ġcompat": 2938,
    "izens": 18135,
    "Ġreplied": 2263,
    "ĠcÃ¦": 15552,
    "pendicular": 6499,
    "Ġsoothing": 8172,
    "Ġcalculate": 13263,
    "suitableness": 26260,
    "opotam": 22476,
    "violets": 23541,
    "av": 738,
    "Ġsoil": 9254,
    "Ġneskyeuna": 26459,
    "alloyed": 22198,
    "é": 170,
    "urrection": 12407,
    "hotel": 20048,
    "Ġendow": 23138,
    "Ġboisterously": 25682,
    "Ġcuriosities": 26288,
    "Ġseconds": 16398,
    "card": 11475,
    "shriek": 20518,
    "Ġmusty": 22677,
    "Ġlikened": 16498,
    "Ġinterests": 14568,
    "imming": 9686,
    "Ġjesty": 18405,
    "fortunately": 9450,
    "Ġtalents": 15044,
    "Ġwedged": 24070,
    "reading": 12077,
    "Ġnostrils": 10943,
    "Ġrushed": 4091,
    "bib": 17491,
    "Ġnobler": 14175,
    "appro": 7044,
    "Ġadoption": 24948,
    "Ġones": 3023,
    "Ġbluish": 23651,
    "Ġdreadful": 4920,
    "sneezes": 11446,
    "Ġcrotch": 9962,
    "Ġvillains": 14748,
    "Ġ{": 21151,
    "general": 7490,
    "investigations": 25533,
    "iters": 21327,
    "Ġattacks": 12202,
    "Ġdisturbing": 19944,
    "Ġsteel": 3891,
    "pleasures": 24045,
    "Ġspell": 8855,
    "Ġbeh": 1801,
    "cous": 8721,
    "Ġcrouching": 23442,
    "Ġrecursive": 4782,
    "Ġcrowned": 16841,
    "Ġclad": 12836,
    "Ġcheever": 23282,
    "Ġnegro": 6447,
    "Ġevaluation": 16574,
    "Ġblotted": 20216,
    "Ġundu": 15835,
    "Ġsar": 21212,
    "Ġtinkling": 25212,
    "Ġsights": 7473,
    "Ġwreat": 15529,
    "usoid": 4767,
    "Ġimmemorially": 25383,
    "Ġeel": 18001,
    "Ġcomparative": 10542,
    "Ġmutineer": 19416,
    "peculiarities": 13470,
    "illum": 15867,
    "Ġprophets": 20449,
    "moored": 22701,
    "track": 24314,
    "Ġsultan": 15183,
    "pots": 11513,
    "orses": 6051,
    "Ġjuicy": 25370,
    "Ġlarboard": 11009,
    "Ġdecreas": 1649,
    "Ġmid": 2617,
    "umes": 10917,
    "Ġbrows": 13299,
    "cus": 3982,
    "Ġexclude": 19043,
    "ildad": 3534,
    "Ġwatchman": 23667,
    "irregular": 21908,
    "trem": 17681,
    "Ġwat": 1289,
    "Ġoverlooking": 22358,
    "Ġintens": 7003,
    "Ġshun": 11707,
    "inated": 6804,
    "Ġfrank": 4421,
    "ssip": 14078,
    "ox": 9133,
    "Ġbough": 13893,
    "possession": 12219,
    "Ġfunction": 587,
    "teenth": 11872,
    "/`": 12427,
    "reas": 989,
    "Ġbarber": 23788,
    "Ġdifficulties": 11225,
    "ouching": 13176,
    "alf": 4638,
    "teen": 6370,
    "Ġviolation": 23404,
    "Ġfailing": 12135,
    "Ġfondly": 19615,
    "Ġdomineer": 23642,
    "erranean": 9333,
    "Ġendured": 6072,
    "loops": 12880,
    "ellation": 12750,
    "revenge": 13841,
    "Ġconjoined": 21803,
    "Ġgets": 10839,
    "message": 17371,
    "Ġmomentary": 11036,
    "Ġachieves": 4380,
    "tuesday": 17690,
    "mine": 5618,
    "Ġeither": 2605,
    "artic": 14224,
    "ratulations": 20124,
    "Ġweeks": 4565,
    "bering": 18680,
    "Ġunreasoning": 15843,
    "Ġquadrille": 13540,
    "Ġaltered": 7393,
    "Ġwants": 5742,
    "Ġcanada": 22164,
    "Ġhovel": 8253,
    "Ġstirs": 14916,
    "Ġadviser": 25312,
    "Ġharm": 5017,
    "Ġdisp": 3362,
    "harmony": 25750,
    "Ġtandem": 26411,
    "Ġhag": 12622,
    "Ġpeevish": 26557,
    "Ġfeed": 2126,
    "Ġpeeled": 14317,
    "rus": 5929,
    "striving": 24669,
    "Ġpovels": 22589,
    "Ġcontent": 5034,
    "Ġlima": 10442,
    "shel": 11928,
    "fixed": 7549,
    "isance": 17847,
    "Ġceaseless": 13487,
    "Ġthrill": 24541,
    "Ġdiscover": 4718,
    "Ġpompous": 20421,
    "Ġseam": 3911,
    "Ġdecided": 5471,
    "Ġengland": 3859,
    "egyptians": 25898,
    "comfortableness": 24525,
    "Ġhearers": 15700,
    "Ġconsecut": 18111,
    "Ġnapole": 15114,
    "Ġgir": 2253,
    "Ġdetermined": 2221,
    "iner": 2673,
    "Ġhairy": 23863,
    "ats": 4254,
    "Ġgrows": 4985,
    "moran": 24152,
    "Ġincludes": 2011,
    "gammon": 20242,
    "Ġunallied": 22029,
    "Ġbestowed": 6593,
    "als": 2042,
    "Ġwoody": 23516,
    "how": 1644,
    "Ġexempl": 21827,
    "damp": 15342,
    "away": 4625,
    "Ġsentin": 16373,
    "ival": 4228,
    "goodbye": 12054,
    "Ġgazette": 19499,
    "Ġaffronted": 22892,
    "Ġwickham": 2205,
    "Ġbackbones": 22658,
    "Ġepicurean": 20554,
    "enger": 10773,
    "Ġengagement": 5397,
    "my": 1317,
    "Ġapprobation": 10985,
    "Ġadopted": 15177,
    "Ġdiver": 2533,
    "exc": 5169,
    "Ġbeds": 14551,
    "unbounded": 21882,
    "fatigue": 20657,
    "application": 12361,
    "Ġways": 5396,
    "Ġstring": 11825,
    "animals": 24738,
    "soundest": 24797,
    "Ġvult": 12746,
    "orers": 14102,
    "Ġtranquillize": 24757,
    "belais": 24037,
    "Ġdeeds": 15756,
    "Ġentrance": 7233,
    "Ġinscribed": 24938,
    "noise": 14333,
    "Ġrev": 6988,
    "Ġfoam": 6891,
    "seldom": 13786,
    "Ġpacifics": 24373,
    "Ġplacid": 11824,
    "Ġmost": 1020,
    "masterly": 24530,
    "Ġslaught": 23162,
    "owers": 12682,
    "Ġdemi": 25548,
    "Ġdeacon": 18143,
    "Ġpot": 2991,
    "Ġhereford": 22874,
    "Ġridges": 16731,
    "ernal": 4314,
    "sofa": 26146,
    "Ġexhale": 24402,
    "Ġpast": 2098,
    "Ġcheerily": 13306,
    "urday": 13993,
    "Ġredeemed": 25789,
    "Ġkelson": 18350,
    "Ġquant": 6424,
    "Ġmarble": 7669,
    "Ġsqueezed": 20034,
    "cloth": 11935,
    "Ġphysiogn": 12386,
    "Ġtarpaul": 17730,
    "Ġsiberia": 26161,
    "comprehens": 16169,
    "Ġintellect": 8169,
    "atively": 2698,
    "Ġdivinest": 25722,
    "nants": 17613,
    "nay": 7135,
    "figured": 20121,
    "Ġimpulses": 19960,
    "Ġviolent": 5117,
    "Ġresults": 7308,
    "Ġmending": 17804,
    "Ġhandspike": 22693,
    "slept": 17169,
    "Ġchristmas": 6924,
    "Ġcircular": 13109,
    "mical": 9128,
    "crawling": 16958,
    "inclined": 10639,
    "shazzar": 15288,
    "fac": 17541,
    "itatingly": 25277,
    "Ġimprudence": 10297,
    "ded": 2421,
    "Ġp": 289,
    "Ġimpulsive": 19961,
    "tart": 21066,
    "Ġexultation": 15170,
    "Ġnext": 2138,
    "Ġsynd": 22203,
    "pening": 2834,
    "Ġbroker": 23098,
    "nesday": 8702,
    "Ġnocturn": 18375,
    "Ġcurb": 16238,
    "to": 715,
    "Ġdetained": 18372,
    "Ġimmortal": 8017,
    "Ġunrival": 22044,
    "Ġlucky": 7758,
    "Ġduties": 6609,
    "read": 3276,
    "atra": 17771,
    "educ": 10828,
    "Ġmodular": 12814,
    "Ġregiment": 6432,
    "Ġcumberland": 21353,
    "Ġbestir": 13108,
    "usage": 12829,
    "jury": 15372,
    "Ġendeavors": 16545,
    "Ġengineer": 11973,
    "commencement": 26347,
    "Ġmyself": 1454,
    "abetical": 15740,
    "ĠĠĠĠĠĠĠĠĠĠĠĠĠĠĠĠĠĠĠĠĠĠĠĠĠĠĠĠĠĠĠĠĠĠĠ": 19257,
    "Ġdeliberate": 15022,
    "Ġmad": 2426,
    "iasm": 8060,
    "á": 162,
    "%": 9,
    "Ġtapped": 11553,
    "Ġconspicuous": 13602,
    "Ġeduc": 4785,
    "mend": 20965,
    "Ġfretfulness": 25448,
    "Ġquakers": 22413,
    "diversity": 25897,
    "ver": 331,
    "Ġenvy": 13182,
    "Ġintact": 21986,
    "warn": 11542,
    "dismay": 19152,
    "local": 22507,
    "Ġallies": 18234,
    "Ġlodge": 5779,
    "boat": 3365,
    "shot": 2227,
    "Ġabaft": 22271,
    "blot": 20782,
    "Ġterrify": 19359,
    "Ġcrossed": 6068,
    "Ġenergetic": 15196,
    "Ġcrouched": 23440,
    "Ġunreason": 15840,
    "Ġforget": 2636,
    "ation": 320,
    "Ċ": 203,
    "Ġraiment": 22649,
    "Ġstanding": 3000,
    "Ġgestic": 21605,
    "Ġtranscend": 25667,
    "Ġpallet": 21479,
    "Ġbarnacled": 25536,
    "Ġpir": 6818,
    "fishers": 24928,
    "Ġaid": 6122,
    "Ġchange": 1994,
    "white": 4602,
    "Ġrudder": 25107,
    "Ġspeak": 2229,
    "Ġtranquil": 7310,
    "ashtego": 4105,
    "Ġbrim": 12974,
    "unwilling": 14060,
    "Ġsallied": 12534,
    "Ġghast": 9209,
    "Ġungover": 18255,
    "Ġgolden": 5336,
    "Ġn": 300,
    "pretty": 10621,
    "Ġexalted": 12410,
    "Ġdit": 21418,
    "Ġsuppl": 11078,
    "Ġquivering": 12855,
    "Ġrevolved": 9983,
    "ocation": 14626,
    "renew": 24450,
    "Ġinstance": 2547,
    "thole": 21983,
    "Ġdwell": 5812,
    "Ġcreditable": 19621,
    "where": 2092,
    "Ġoutskirts": 17456,
    "Ġomen": 11575,
    "sorts": 21059,
    "Ġruinous": 24633,
    "Ġtelegram": 15222,
    "disreputable": 23501,
    "Ġtarquin": 23609,
    "Ġafric": 8905,
    "burn": 8370,
    "Ġincrease": 9369,
    "evade": 24820,
    "Ġadhes": 22099,
    "Ġwhist": 6021,
    "wear": 22680,
    "Ġsituation": 4075,
    "meryton": 10111,
    "aston": 7408,
    "Ġbitterest": 12400,
    "Ġprodigiously": 14931,
    "Ġconceit": 7295,
    "ums": 10272,
    "Ġintentionally": 24523,
    "Ġmanip": 8871,
    "Ġisa": 14024,
    "instead": 14812,
    "icil": 17971,
    "bodily": 17314,
    "honorable": 19900,
    "fastened": 19324,
    "Ġdiabolism": 25514,
    "Ġmississippi": 20724,
    "stem": 570,
    "Ġsoftness": 18917,
    "Ġreverber": 19868,
    "Ġoutrage": 15956,
    "Ġorb": 22088,
    "Ġlazily": 11380,
    "Ġprobabilities": 4966,
    "Ġflukes": 5266,
    "Ġmeditative": 25014,
    "hounds": 20906,
    "critical": 19502,
    "duing": 22408,
    "Ġdrowning": 19903,
    "Ġcirc": 1985,
    "bergs": 18681,
    "Ġridicule": 13511,
    "giv": 13721,
    "blubber": 15235,
    "Ġpatagon": 14498,
    "Ġnails": 12645,
    "Ġhurriedly": 11249,
    "Ġlivid": 14988,
    "probable": 17021,
    "Ġtoe": 13935,
    "Ġf": 283,
    "willingly": 11981,
    "Ġbarbaric": 10013,
    "brim": 23574,
    "Ġmeditating": 20041,
    "Ġwick": 2005,
    "Ġbald": 16205,
    "Ġcondemned": 7778,
    "Ġcook": 3711,
    "Ġhelmet": 19686,
    "alization": 733,
    "Ġdivinely": 25723,
    "ped": 6365,
    "Ġfrown": 10807,
    "each": 7335,
    "Ġfidget": 15188,
    "equally": 19898,
    "estate": 12818,
    "overing": 6306,
    "Ġchronic": 9928,
    "Ġbott": 3148,
    "Ġlucases": 9009,
    "gree": 10701,
    "Ġear": 1420,
    "otently": 21797,
    "Ġbelie": 14405,
    "Ġsubt": 11866,
    "counters": 25397,
    "Ġhappier": 10359,
    "Ġstones": 9221,
    "humor": 19450,
    "shaven": 18497,
    "all": 485,
    "Ġcountries": 13095,
    "Ġmelt": 21317,
    "belonged": 25597,
    "Ġgriefs": 16771,
    "Ġdromedary": 17438,
    "Ī": 235,
    "sticking": 21657,
    "ermost": 7430,
    "adequ": 11020,
    "Ġswore": 10378,
    "Ġpent": 17903,
    "Ġeagerness": 6608,
    "Ġstave": 11650,
    "Ġserious": 4324,
    "Ġdestined": 7974,
    "Ġpref": 14171,
    "Ġwarbling": 26168,
    "Ġinitials": 11014,
    "Ġdissembling": 26254,
    "Ġbraced": 16579,
    "Ġpunctil": 20112,
    "Ġmanners": 3793,
    "orous": 5292,
    "Ġimped": 18442,
    "mantel": 26394,
    "tailed": 17685,
    "Ġtest": 1584,
    "sof": 17657,
    "terrible": 8465,
    "Ġrank": 6258,
    "Ġperseus": 10603,
    "incing": 15484,
    "Ġeloquence": 11840,
    "Ġthy": 2514,
    "laug": 10707,
    "mrs": 3744,
    "wandering": 20283,
    "Ġhaste": 9003,
    "Ġcogent": 14272,
    "Ġintercept": 14268,
    "Ġwhereon": 16099,
    "Ġpigeon": 9515,
    "Ġsociable": 19401,
    "º": 123,
    "geor": 15976,
    "Ġris": 4886,
    "cries": 17510,
    "Ġproduced": 2452,
    "Ġstriding": 16089,
    "crowning": 25748,
    "Ġsigmoid": 2462,
    "asper": 7854,
    "Ġdreamed": 16629,
    "Ġhill": 5626,
    "cet": 15324,
    "coiled": 16485,
    "Ġwonderland": 23423,
    "hearty": 14833,
    "Ġsinusoidal": 4801,
    "du": 605,
    "Ġkept": 3349,
    "heredit": 21208,
    "Ġillustrative": 25066,
    "Ġpondered": 15165,
    "young": 7321,
    "Ġconveyed": 8334,
    "Ġadaptive": 1363,
    "Ġeste": 6084,
    "Ġpurch": 6599,
    "Ġcolumb": 22855,
    "Ġgoodly": 22819,
    "Ġenvied": 19276,
    "lanter": 15386,
    "Ġcaul": 10787,
    "Ġabridged": 26540,
    "Ġmanned": 9270,
    "Ġalex": 15132,
    "akers": 9739,
    "Ġrider": 24185,
    "vius": 23539,
    "Ġpicturesqueness": 24480,
    "Ġperdition": 15990,
    "Ġoverhanging": 22362,
    "Ġen": 392,
    "Ġembarks": 22983,
    "Ġshowers": 16605,
    "particulars": 11315,
    "begin": 8883,
    "Ġdeliberation": 19967,
    "Ġundecided": 22045,
    "Ġpolynesian": 26026,
    "Ġbeware": 8827,
    "Ġcrav": 19172,
    "Ġinstantly": 3593,
    "Ġilliterate": 26594,
    "Ġimpenitent": 26548,
    "Ġmurder": 4281,
    "looking": 4035,
    "Ġsi": 21211,
    "Ġoverpower": 12840,
    "Ġlivelong": 25511,
    "throwing": 11701,
    "Ġsin": 1514,
    "Ġjan": 11760,
    "Ġpainfully": 13141,
    "Ġaboard": 6697,
    "Ġtitle": 11408,
    "Ġgener": 586,
    "Ġvesuvius": 26501,
    "Ġunusual": 6553,
    "²": 115,
    "Ġmovements": 24359,
    "þ": 191,
    "icated": 7591,
    "Ġbradstreet": 9576,
    "Ġineffect": 13929,
    "meadow": 18679,
    "Ġinn": 4590,
    "ird": 2427,
    "Ġpoliteness": 8273,
    "atter": 653,
    "Ġtraps": 23077,
    "Ė": 215,
    "Ġpoltroon": 26598,
    "ĥ": 230,
    "Ġusage": 9729,
    "pursue": 24973,
    "Ġply": 21451,
    "Ġstudent": 14474,
    "Ġnamely": 20688,
    "Ġsurv": 6081,
    "biqu": 17497,
    "ered": 1684,
    "others": 7670,
    "Ġubiqu": 18046,
    "Ġescort": 23503,
    "hib": 15366,
    "luent": 15994,
    "aim": 2758,
    "ignorance": 17161,
    "Ġanchor": 7368,
    "83": 13679,
    "expressing": 16801,
    "Ġclassifies": 11830,
    "Ġpurse": 12009,
    "Ġwid": 4632,
    "ì": 173,
    "Ġplane": 11821,
    "Ġsends": 14790,
    "Ġadmire": 5263,
    "Ġintroduced": 7691,
    "relate": 24008,
    "Ġchambers": 16799,
    "Ġinherent": 4591,
    "scap": 22987,
    "Ġbegan": 2022,
    "Ġprofess": 3698,
    "Ġuniform": 2225,
    "Ġcat": 2120,
    "Ġneur": 813,
    "africa": 26308,
    "Ġdissolved": 18553,
    "ignorant": 13562,
    "Ġadam": 2125,
    "Ġantichronical": 26609,
    "ille": 9219,
    "Ġattraction": 18620,
    "Ġstrengthen": 20699,
    "Ġhur": 2099,
    "congenial": 25399,
    "Ġcontrivance": 17183,
    "successively": 24779,
    "cing": 1012,
    "given": 8376,
    "Ġtail": 3091,
    "cushion": 20820,
    "apse": 14198,
    "Ġcausal": 3413,
    "Ġworshipping": 22925,
    "Ġpersisted": 13034,
    "connections": 14427,
    "ifle": 10891,
    "Ġstore": 8453,
    "Ġgor": 9206,
    "imitably": 21708,
    "scorched": 25697,
    "popular": 26140,
    "Ġbounding": 19398,
    "Ġblessings": 24176,
    "Ġfooting": 14482,
    "Ġfugitive": 17326,
    "lit": 9605,
    "Ġxi": 16428,
    "Ġenticements": 26034,
    "Ġgreenland": 5761,
    "Ġdevelopment": 7058,
    "Ġvultures": 25653,
    "Ġoutputs": 2888,
    "Ġpreacher": 18369,
    "ascribed": 24708,
    "russian": 22186,
    "inces": 13827,
    "Ġumbrell": 13649,
    "Ġhappily": 9330,
    "ulatory": 15765,
    "Ġrekindled": 21674,
    "Ġreliability": 22876,
    "Ġanxious": 4518,
    "Ġmuffled": 10640,
    "Ġpiled": 8424,
    "material": 13129,
    "Ġconflag": 20334,
    "Ġpetersburgh": 24228,
    "could": 2874,
    "Ġgable": 15664,
    "Ġbottled": 23794,
    "Ġdepends": 1122,
    "Ġdiscussing": 5202,
    "Ġalcoves": 26486,
    "pedest": 24695,
    "Ġinvisible": 7327,
    "Ġlighting": 13081,
    "Ġslime": 23156,
    "Ġmanager": 11767,
    "Ġcannibals": 10587,
    "thyself": 19297,
    "Ġlikely": 3599,
    "Ġstoried": 18072,
    "ozy": 17622,
    "mason": 17603,
    "Ġcruises": 23704,
    "male": 15387,
    "manif": 14372,
    "conda": 18993,
    "Ġturtle": 4205,
    "ulus": 21861,
    "Ġsummer": 4790,
    "Ġrepressed": 21665,
    "Ġ34": 16677,
    "Ġfig": 3625,
    "Ġmichael": 20678,
    "Ġcontrast": 2117,
    "Ġmeddling": 24083,
    "whales": 5187,
    "isition": 11585,
    "Ġhungry": 10532,
    "Ġdeemed": 7615,
    "Ġreel": 9213,
    "Ġincredible": 9514,
    "sery": 17661,
    "Ġsweeping": 8985,
    "Ġpresume": 8037,
    "Ġwhenever": 5166,
    "Ġunduly": 25994,
    "lantern": 17427,
    "Ġbulkhead": 24511,
    "Ġecl": 18005,
    "Ġsurging": 19133,
    "ª": 108,
    "Ġeighteen": 11238,
    "Ġscand": 7203,
    "Ġmedic": 11246,
    "Ġstables": 23656,
    "Ġsells": 21222,
    "difficulty": 12388,
    "Ġharvest": 13414,
    "Ġfavour": 3642,
    "Ġce": 3033,
    "Ġsuccessfully": 19427,
    "Ġsur": 2182,
    "Ġrazors": 22654,
    "Ġconveying": 19713,
    "Ġfriendly": 9819,
    "puzzling": 26143,
    "Ġcharging": 23265,
    "Ġebb": 21619,
    "Ġunnearable": 26516,
    "imagine": 19930,
    "lion": 20943,
    "Ġstab": 10862,
    "Ġshovel": 23489,
    "brain": 13686,
    "Ġnervousness": 23555,
    "Ġcomput": 601,
    "Ġenl": 18188,
    "Ġgrounds": 6749,
    "Ġconcil": 23321,
    "sides": 12505,
    "Ġprogress": 5023,
    "treacle": 25148,
    "Ġabomin": 8188,
    "previously": 17207,
    "Ġwrapping": 19774,
    "ouder": 17900,
    "Ġcramped": 23528,
    "Ġdemoniacal": 20555,
    "itional": 22465,
    "handedness": 24920,
    "Ġimpute": 18331,
    "Ġunfrequ": 19507,
    "lemagne": 26436,
    "Ġriverside": 25247,
    "roots": 15640,
    "Ġjoints": 12033,
    "aze": 10074,
    "Ġexcept": 3316,
    "Ġeffort": 8201,
    "great": 3519,
    "gr": 2086,
    "cott": 8073,
    "Ġsubstit": 19539,
    "Ġinnovative": 1629,
    "Ġdoctors": 12149,
    "oundered": 14164,
    "acific": 4960,
    "Ġuncontrollable": 25814,
    "omeness": 18015,
    "ulia": 18148,
    "Ġdisrespect": 18552,
    "Ġfrightened": 5341,
    "Ġimagination": 5759,
    "Ġinvent": 7164,
    "Ġcivilised": 24244,
    "Ġdebt": 12165,
    "september": 14035,
    "Ġbrings": 11878,
    "Ġdep": 748,
    "Ġcharing": 14180,
    "happ": 3105,
    "Ġsunken": 14493,
    "Ġconcre": 16385,
    "trop": 15435,
    "Ġprayers": 12121,
    "Ġnupt": 13942,
    "Ġherself": 1564,
    "fam": 5988,
    "Ġtunes": 24619,
    "Ġterrors": 6918,
    "Ġannihilated": 20251,
    "pressed": 6587,
    "confl": 22468,
    "ribution": 14303,
    "yond": 2329,
    "Ġback": 826,
    "trade": 19635,
    "Ġscholar": 26111,
    "Ġcompassionate": 24723,
    "Ġchoke": 22246,
    "clergy": 18933,
    "nearer": 22447,
    "Ġworshipped": 25691,
    "Ġendeav": 2955,
    "Ġdozen": 8185,
    "Ġcoinc": 11001,
    "Ġhideous": 5982,
    "brÃ¦": 11175,
    "Ġunchanged": 22028,
    "row": 1066,
    "Ġhove": 17922,
    "Ġquivered": 18467,
    "ellest": 21571,
    "Ġcommercial": 22671,
    "jackets": 24895,
    "bedroom": 14676,
    "Ġdivin": 13272,
    "Ġstrives": 23693,
    "Ġhath": 12625,
    "Ġsealed": 15816,
    "Ġarri": 2555,
    "Ġriding": 14094,
    "Ġquies": 18464,
    "Ġep": 7384,
    "oused": 6556,
    "oso": 12827,
    "Ġstory": 2903,
    "acknowled": 10975,
    "Ġbland": 11064,
    "Ġvanity": 7045,
    "Ġirre": 7468,
    "lock": 1470,
    "Ġvest": 8162,
    "Ġredress": 23751,
    "Ġvial": 10248,
    "Ġthanked": 9458,
    "Ġpoignant": 22590,
    "Ġgasps": 24865,
    "Ġconcealment": 16914,
    "Ġunseason": 22049,
    "Ġbul": 3296,
    "Ġ=": 1074,
    "respond": 12541,
    "Ġwed": 3962,
    "example": 16011,
    "Ġshetland": 22156,
    "Ġlandscape": 12415,
    "seamen": 13625,
    "Ġsupp": 1266,
    "pute": 8844,
    "Ġhopkins": 23126,
    "Ġdavy": 25951,
    "Ġworrying": 22924,
    "Ġvelvet": 12396,
    "sole": 6168,
    "wail": 21124,
    "distinct": 13334,
    "Ġapproved": 16031,
    "Ġreserve": 9970,
    "roman": 22001,
    "revealed": 20414,
    "Ġgips": 10841,
    "prophecy": 22844,
    "Ġsailor": 3538,
    "urned": 9305,
    "Ġdeaf": 12718,
    "Ġrobinson": 17463,
    "Ġnosegay": 24192,
    "Ġchival": 14182,
    "Ġcalifornia": 20528,
    "Ġaccuracy": 1112,
    "Ġexpecting": 10436,
    "Ġepo": 21616,
    "ias": 6362,
    "Ġfelicity": 7260,
    "Ġcheeks": 5957,
    "Ġshrubbery": 18232,
    "ock": 15401,
    "Ġdefects": 12331,
    "yramid": 8367,
    "comprehensive": 20625,
    "behaviour": 11301,
    "Ġapplication": 2129,
    "pulous": 15415,
    "Ġastonishing": 10501,
    "Ġinhab": 5083,
    "exceedingly": 9566,
    "Ġsigma": 1539,
    "ilege": 22255,
    "Ġmorbid": 16232,
    "Ġposition": 1955,
    "Ġdisobedience": 22532,
    "Ġfeasts": 25369,
    "Ġfour": 2214,
    "contact": 23727,
    "protected": 19920,
    "Ġcorresponding": 13437,
    "plague": 21950,
    "spir": 5738,
    "Ġsteals": 23081,
    "Ġprobed": 18734,
    "Ġashes": 7617,
    "Ġpepper": 9780,
    "activity": 22629,
    "Ġextremely": 2671,
    "bruary": 15234,
    "Ġloathed": 15873,
    "iage": 17573,
    "Ġhated": 7585,
    "Ġpermanent": 13630,
    "clergyman": 20728,
    "Ġaccents": 14210,
    "Ġclosing": 11770,
    "Ġdip": 13906,
    "Ġpine": 8796,
    "Ġelevate": 24502,
    "create": 24159,
    "Ġcircumst": 2975,
    "Ġmeasureless": 14709,
    "Ġallen": 5160,
    "Ġresearch": 3204,
    "Ġmasterless": 23992,
    "Ġacquainted": 5179,
    "Ġeloped": 22643,
    "Ġvirtuous": 14754,
    "Ġdisapprobation": 16056,
    "opy": 4459,
    "Ġpruning": 18970,
    "inable": 11555,
    "remained": 8569,
    "Ġcommunications": 16353,
    "Ġcoloss": 11046,
    "atha": 6572,
    "Ġreverse": 16982,
    "Ġ150": 22823,
    "Ġscorn": 7900,
    "Ġplanisphere": 26607,
    "weave": 22682,
    "Ġpool": 5173,
    "chiefly": 14845,
    "mass": 12487,
    "Ġzoned": 22817,
    "Ę": 217,
    "concluding": 19479,
    "str": 2579,
    "Ġphrenologists": 25608,
    "rennial": 22349,
    "bitious": 16669,
    "gir": 8082,
    "Ġsymbolize": 24960,
    "Ġdum": 10811,
    "Ġhonest": 7287,
    "uzza": 11270,
    "Ġspinal": 12300,
    "Ġelopement": 10329,
    "mistak": 16878,
    "Ç": 136,
    "Ġcorroborated": 26054,
    "Ġrattler": 24995,
    "prob": 7069,
    "beryls": 25309,
    "Ġanimating": 23422,
    "oft": 3592,
    "rmsprop": 4522,
    "Ġvector": 1972,
    "Ġpedest": 14995,
    "Ġmount": 7362,
    "Ġeleventh": 23367,
    "Ġspare": 5102,
    "ldog": 21914,
    "Ġwon": 1666,
    "invariably": 26416,
    "Ġsteersman": 13039,
    "Ġclearing": 8239,
    "<EOS>": 2,
    "Ġprevailed": 7777,
    "Ġobey": 9518,
    "Ġgranite": 22805,
    "Ġwaistcoat": 12268,
    "hid": 13733,
    "estations": 22221,
    "unreasonable": 18162,
    "inisc": 15487,
    "Ġconjectures": 16925,
    "stock": 13220,
    "giana": 7800,
    "danish": 20832,
    "Ġunwell": 22014,
    "Ġthirteen": 15273,
    "Ġborders": 15569,
    "immediate": 20092,
    "Ġdistorted": 14249,
    "Ġheedful": 19739,
    "Ġsalmon": 24060,
    "ols": 2412,
    "Ġunstructured": 3005,
    "Ġsailed": 4889,
    "io": 3804,
    "Ġrede": 13983,
    "Ġunassuming": 20507,
    "sea": 4763,
    "Ġswaying": 15046,
    "sil": 5282,
    "Ġstrokes": 16769,
    "Ġcurrent": 13010,
    "ingale": 21298,
    "Ġpumping": 25643,
    "Ġmild": 4149,
    "ario": 14247,
    "bil": 20770,
    "likes": 18814,
    "Ġvoids": 25807,
    "Ġselecting": 16684,
    "Ġhardship": 18913,
    "Ġcake": 12567,
    "ourers": 21447,
    "Ġestab": 6315,
    "Ġmarry": 4419,
    "volous": 18590,
    "Ġmince": 22827,
    "Ġfam": 1581,
    "robustness": 26338,
    "Ġ15": 9323,
    "fing": 13712,
    "Ġoffensive": 18692,
    "Ġbeacon": 21753,
    "Ġrhone": 25230,
    "ithing": 11648,
    "coach": 23559,
    "Ġsmoky": 22555,
    "Ġ33": 16676,
    "Ġrings": 11698,
    "Ġremove": 7500,
    "59": 17473,
    "Ġthoroughfares": 26095,
    "Ġsec": 2076,
    "etween": 775,
    "Ġchurning": 15935,
    "output": 4403,
    "score": 18856,
    "Ġdispositions": 13232,
    "ters": 1569,
    "Ġcapable": 5054,
    "lat": 9604,
    "intending": 22932,
    "obstructed": 15225,
    "broad": 8642,
    "Ġhumaneval": 25582,
    "Ġexpanding": 25238,
    "Ġaugust": 10597,
    "Ġschoolmasters": 19719,
    "Ġgest": 8133,
    "Ġforests": 13591,
    "ump": 2283,
    "Ġsteward": 6584,
    "Ġbusks": 23337,
    "Ġphren": 8571,
    "life": 4932,
    "Ġcalculates": 13264,
    "ina": 21178,
    "Ġaquiline": 26159,
    "Ġanchors": 12610,
    "Ġflies": 13023,
    "Ġcatholic": 20680,
    "Ġfinger": 5273,
    "bro": 4036,
    "Ġserpentine": 11360,
    "Ġdaring": 8120,
    "Ġtones": 8399,
    "hemat": 3129,
    "grow": 10098,
    "midnight": 14901,
    "ithmetic": 18061,
    "Ġnathan": 21523,
    "cas": 20793,
    "okers": 18441,
    "reeable": 3613,
    "betrayed": 24640,
    "Ġmining": 22826,
    "Ġcorridor": 10671,
    "surprise": 9529,
    "Ġirritated": 17242,
    "Ġhurst": 5582,
    "orate": 10800,
    "Ġitself": 2524,
    "Ġidentity": 2526,
    "Ġbrooks": 25700,
    "deserts": 25379,
    "iluvian": 18060,
    "waistcoat": 17360,
    "Ġbored": 16103,
    "servant": 15035,
    "ubb": 1650,
    "Ġseparating": 16685,
    "linging": 16076,
    "Ġinsomuch": 23681,
    "aton": 21257,
    "Ġadduced": 26524,
    "leviathans": 19936,
    "Ġult": 9074,
    "Ġsecuring": 11990,
    "Ġsaid": 578,
    "brown": 15316,
    "Ġaloof": 21782,
    "Ġaux": 21198,
    "Ġgardiners": 11157,
    "Ġslope": 14459,
    "Ġensuing": 12307,
    "Ġantiqu": 12142,
    "Ġfarthing": 14453,
    "Ġpoles": 11003,
    "Ġflaw": 23010,
    "Ġscratching": 20367,
    "benevolent": 15232,
    "Ġwhatever": 3477,
    "uing": 17693,
    "Ġnumber": 1981,
    "Ġidly": 16404,
    "Ġascent": 19617,
    "specim": 23941,
    "unguarded": 23668,
    "gate": 12464,
    "vely": 3869,
    "Ġunf": 4093,
    "Ġwheelbarrow": 17204,
    "Ġlofty": 6217,
    "wra": 11541,
    "wanted": 10743,
    "Ġcable": 11579,
    "shri": 14236,
    "_.âĢĶ": 23471,
    "Ġwantest": 18791,
    "whosoever": 22237,
    "u": 89,
    "commer": 22808,
    "Ġperforming": 7927,
    "shoe": 14966,
    "Ġdesired": 4664,
    "nar": 12491,
    "Ġheathenish": 13615,
    "Ġshepherd": 14152,
    "carpet": 25202,
    "Ġglided": 7446,
    "Ġgasping": 17038,
    "motives": 26137,
    "execution": 20470,
    "Ġinvulnerable": 19146,
    "pudding": 17647,
    "Ġthickets": 24021,
    "Ġundeserving": 18268,
    "Ġlunging": 24989,
    "Ġcreate": 2091,
    "Ġsleepers": 13148,
    "dinner": 11406,
    "Ġnecessitated": 23925,
    "Ġcolonel": 3410,
    "acceptable": 25184,
    "Ġunhappiness": 14117,
    "transform": 8049,
    "Ġcrippled": 25278,
    "Ġbitterly": 8314,
    "ub": 1224,
    "Ġtheorem": 2325,
    "forehead": 8515,
    "Ġwert": 12553,
    "Ġseasons": 9430,
    "ł": 259,
    "Ġreusability": 13557,
    "hunsford": 24386,
    "val": 1171,
    "Ġstole": 7952,
    "wedded": 24339,
    "Ġsidel": 9635,
    "Ġreaching": 7303,
    "Ġget": 1618,
    "yard": 5899,
    "Ġegypt": 9678,
    "method": 17284,
    "Ġpitchpoling": 14910,
    "Ġentries": 22740,
    "kerchief": 7526,
    "Ġminister": 18751,
    "Ġdoubtless": 6195,
    "Ġtown": 2455,
    "Ġtransf": 22434,
    "Ġwhipcord": 20093,
    "tru": 10729,
    "ds": 4688,
    "Ġreached": 4025,
    "Ü": 157,
    "descending": 16283,
    "Ġtur": 2566,
    "ux": 7813,
    "beings": 12873,
    "Ġbeckoning": 20500,
    "summon": 23414,
    "Ġshapeless": 24524,
    "Ġtwentieth": 18659,
    "Ġdisaster": 12884,
    "Ġroom": 1463,
    "diss": 17523,
    "Ġvill": 3878,
    "Ġmould": 6519,
    "phere": 21018,
    "Ġorigin": 4122,
    "Ġassemblage": 26351,
    "Ġcham": 4892,
    "Ġpeels": 22688,
    "Ġyale": 21776,
    "otograph": 5826,
    "Ġbount": 15565,
    "Ġdel": 1608,
    "Ġsundry": 20072,
    "Ġtrooped": 24899,
    "Ġbespe": 19241,
    "¶": 119,
    "ispens": 8335,
    "Ġwindings": 18909,
    "cription": 20817,
    "Ġinsane": 19268,
    "Ġspitz": 14148,
    "Ġchewing": 23283,
    "finger": 10093,
    "Ġconcisely": 19046,
    "Ġfinally": 4666,
    "belongs": 25596,
    "nur": 11505,
    "Ġveil": 7933,
    "Ġdisciple": 22781,
    "Ġcl": 549,
    "breath": 15161,
    "Ġremem": 4315,
    "Ġspeech": 4610,
    "een": 726,
    "georgiana": 26020,
    "Ġpositive": 2295,
    "Ġourselves": 5127,
    "Ġfive": 2839,
    "Ġlegendary": 20536,
    "Ġaccounted": 10294,
    "Ġcauses": 2563,
    "Ġsnugly": 17111,
    "Ġheaths": 25972,
    "Ġslipper": 24265,
    "Ġnigh": 4878,
    "upwards": 18864,
    "Ġkeels": 11061,
    "empt": 2620,
    "Ġscot": 5643,
    "expense": 22426,
    "Ġbr": 1072,
    "Ġinquisitive": 26317,
    "wit": 7817,
    "Ġmah": 15538,
    "Ġcloudy": 19475,
    "Ġaccomplished": 7104,
    "hole": 5587,
    "introduction": 15122,
    "Ġindec": 13927,
    "Ġpinioned": 21480,
    "Ġunfulfilled": 26509,
    "Ġpreserved": 9261,
    "Ġsuggestions": 24453,
    "Ġtremendous": 8352,
    "Ġcircumnav": 12424,
    "5": 25,
    "Ġheroes": 10576,
    "'d": 12425,
    "Ġactually": 5389,
    "faith": 15024,
    "ward": 706,
    "Ġandrew": 21504,
    "Ġbarrens": 25501,
    "Ġblundering": 26283,
    "insupportable": 21192,
    "orter": 4256,
    "Ġtatters": 21176,
    "service": 15036,
    "hill": 15361,
    "Ġrounded": 14438,
    "12": 20748,
    "Ġintermission": 18593,
    "Ġtight": 8107,
    "sl": 5794,
    "preser": 9758,
    "Ġwashes": 21858,
    "Ġouthouse": 22311,
    "itself": 7834,
    "================": 3722,
    "reported": 24493,
    "claimed": 9835,
    ":--âĢľ": 24550,
    "Ġpods": 17914,
    "Ġploughed": 22602,
    "Ġmine": 3177,
    "Ġlanguage": 643,
    "ls": 1293,
    "Ġvexation": 10586,
    "parsee": 14512,
    "oldened": 22638,
    "Ġpartner": 6714,
    "Ġbinding": 20417,
    "suggest": 20374,
    "Ġreputed": 18035,
    "glasses": 11215,
    "ignant": 11129,
    "Ġeuroclydon": 15295,
    "Ġelab": 22640,
    "arched": 10815,
    "conjecturing": 20133,
    "Ġfer": 5529,
    "Ġoverpowering": 15248,
    "maul": 11888,
    "Ġcomplied": 14733,
    "Ġordinary": 6096,
    "leaning": 10790,
    "Ġmeadows": 11422,
    "Ġhil": 10821,
    "countenances": 24151,
    "hold": 3984,
    "Ġrude": 7234,
    "safe": 10053,
    "Ġ221": 25068,
    "collins": 6916,
    "Ġaugmented": 15104,
    "Ġbegat": 18863,
    "Ġlangsdorff": 15275,
    "Ġexternal": 8364,
    "Ġ117": 19696,
    "Ġpredecessor": 26253,
    "Ġshrieks": 12197,
    "rapid": 12667,
    "Ġdiscoverer": 26035,
    "Ġpoised": 22587,
    "Ġsymmet": 11745,
    "va": 4743,
    "Ġclanking": 20610,
    "requent": 3650,
    "Ġvindictiveness": 25738,
    "Ġexclamations": 11361,
    "lined": 12481,
    "Ġsinners": 18949,
    "Ġsleeve": 20139,
    "Ġmildness": 9943,
    "fishermen": 17062,
    "Ġpress": 5931,
    "dense": 18716,
    "clock": 3935,
    "hors": 9598,
    "Ġcolossal": 11459,
    "Ġconfl": 11137,
    "Ġthrice": 10575,
    "piling": 15414,
    "Ġcruisings": 25864,
    "Ġunintelligible": 26514,
    "Ġrevolutions": 23839,
    "Ġtease": 18805,
    "reach": 17757,
    "apter": 1193,
    "Ġaudacious": 13459,
    "Ġmoderately": 22217,
    "itzerland": 9994,
    "Ġpivot": 13922,
    "effect": 8603,
    "itime": 15545,
    "Ġmanufactured": 22327,
    "luxur": 25822,
    "undertaking": 23786,
    "Ġaudible": 19880,
    "Ġadmiration": 5328,
    "Ġdispleasure": 16050,
    "Ġjack": 4652,
    "Ġoverwrites": 5033,
    "ography": 13361,
    "Ġenormousness": 24515,
    "Ġcleaned": 23177,
    "Ġoarsmen": 7737,
    "corn": 13698,
    "astonishment": 10029,
    "Ġprotection": 9461,
    "Ġbidirectional": 3756,
    "Ġcrazy": 8593,
    "measureless": 20234,
    "Ġpoll": 12028,
    "rous": 3753,
    "cost": 19185,
    "Ġgryphon": 4302,
    "Ġtargets": 4206,
    "throughout": 24087,
    "Ġthirt": 13938,
    "Ġloos": 15869,
    "extracts": 22766,
    "Ġdiffered": 22706,
    "histor": 13490,
    "Ġdiscourage": 3117,
    "abil": 2007,
    "failed": 20862,
    "Ġfairy": 14627,
    "Ġsuit": 5725,
    "regret": 16451,
    "Ġ87": 19709,
    "Ġprevents": 2559,
    "condemned": 26060,
    "ryder": 18639,
    "Ġabilities": 8866,
    "Ġponies": 21474,
    "Ġflavor": 16253,
    "Ġgull": 15667,
    "humiliation": 24019,
    "Ġtoll": 7851,
    "Ġdefinitions": 22941,
    "Ġpiteous": 17917,
    "ppered": 15788,
    "Ġimaginative": 19246,
    "pot": 10117,
    "Ġowe": 8114,
    "Ġpoliceman": 15257,
    "Ġcircus": 19091,
    "Ġtower": 8318,
    "thrown": 8480,
    "Ġunfit": 14787,
    "danger": 10089,
    "±": 114,
    "Ġwrists": 11112,
    "Ġrespects": 7269,
    "izabeth": 906,
    "save": 13784,
    "dimensional": 2348,
    "romising": 18233,
    "thomas": 18219,
    "------": 12131,
    "Ġoffers": 12942,
    "Ġshrouded": 14968,
    "Ġpurple": 10433,
    "ibles": 18786,
    "gryphon": 15357,
    "ports": 13773,
    "inition": 11556,
    "Ġmarines": 16260,
    "ollen": 11298,
    "Ġchilled": 18382,
    "Ġgossiping": 26243,
    "Ġplata": 25117,
    "axen": 22518,
    "Ġwillingly": 8884,
    "Ġcomposing": 16065,
    "Ġenjoys": 19448,
    "sav": 8096,
    "Ġexplaining": 15958,
    "Ġanointing": 25539,
    "level": 2654,
    "ouement": 21446,
    "bringing": 17166,
    "writing": 7720,
    "Ġbliss": 12998,
    "levi": 7047,
    "hertfordshire": 10936,
    "apside": 22957,
    "blo": 6353,
    "consequential": 26249,
    "quet": 6835,
    "Ġcompute": 2907,
    "Ġunre": 3481,
    "led": 581,
    "Ġhandled": 12934,
    "formal": 14168,
    "Ġinstead": 2792,
    "03": 20747,
    "hast": 5357,
    "would": 2351,
    "Ġtongue": 6347,
    "shining": 18495,
    "Ġac": 844,
    "Ġapothecary": 13658,
    "Ġmorass": 22966,
    "Ġdamn": 11158,
    "Ġcommunicated": 9061,
    "pips": 21019,
    "Ġgenial": 12192,
    "Ġwashington": 17202,
    "Ġpledged": 20686,
    "Ġinch": 7849,
    "Ġshipmates": 6720,
    "orified": 21400,
    "Ġshoes": 7071,
    "Ġstrolled": 16770,
    "Ġfond": 4755,
    "initions": 21186,
    "feature": 3971,
    "erial": 4631,
    "Ġcomprises": 22569,
    "Ġpilgrim": 25599,
    "Ġstupendous": 20499,
    "§": 105,
    "begging": 22494,
    "Ġsupposed": 4558,
    "Ġhappy": 2465,
    "uge": 4018,
    "Ġhol": 1181,
    "Ġspoiled": 11363,
    "Ġjew": 9467,
    "Ġwarming": 23557,
    "Ġexisting": 12715,
    "concerted": 16671,
    "unfort": 21873,
    "ougher": 18277,
    "putting": 14099,
    "Ġtribe": 10751,
    "Ġtrap": 7672,
    "minutely": 19592,
    "Ġgenealogies": 25961,
    "Ġburning": 5976,
    "fthand": 26386,
    "good": 2901,
    "Ġxx": 5492,
    "depth": 12797,
    "Ġchapel": 9522,
    "Ġbes": 2661,
    "pequod": 7052,
    "Ġovers": 14205,
    "Ġsanct": 15062,
    "Ġnoon": 6559,
    "sweep": 24617,
    "Ġperemptorily": 17366,
    "Ġdiamond": 15596,
    "Ġbowl": 11204,
    "wet": 15451,
    "Ġsangu": 15503,
    "izer": 2030,
    "Ġscience": 1648,
    "assistant": 25567,
    "ins": 1379,
    "Ġsport": 6688,
    "Ġpallor": 13515,
    "Ġbehoo": 19033,
    "mble": 1405,
    "Ġboisterous": 20441,
    "Ġquartered": 20371,
    "ilations": 21719,
    "Ġmartin": 25436,
    "Ġwhichever": 13999,
    "Ġspaulding": 11729,
    "Ġsepul": 14089,
    "Ġgrammars": 11402,
    "queequeg": 4336,
    "Ġbrut": 18769,
    "urred": 8448,
    "morn": 20975,
    "dancing": 12452,
    "Ġfair": 2840,
    "Ġwarriors": 19722,
    "Ġbackpropagation": 1277,
    "ittered": 18439,
    "Ġneighbor": 25803,
    "outon": 12800,
    "suffered": 24334,
    "Ġincline": 18569,
    "Ġinformation": 1046,
    "Ġretention": 23068,
    "fowl": 17549,
    "Ġfusion": 21412,
    "Ġresignation": 18566,
    "anywhere": 14682,
    "verse": 9687,
    "³": 116,
    "sust": 15421,
    "Ġinjurious": 24270,
    "Ġpend": 15603,
    "÷": 184,
    "accounted": 16500,
    "including": 23589,
    "Ġexclamation": 8698,
    "ground": 4671,
    "ase": 1158,
    "Ġapprehensions": 13403,
    "Ġsons": 10766,
    "Ġcompromised": 22568,
    "Ġnoticed": 5548,
    "Ġheels": 10850,
    "anyone": 16593,
    "uting": 15657,
    "Ġriot": 14688,
    "Ġpsych": 10176,
    "Ġduplicity": 25331,
    "Ġincomplete": 17208,
    "Ġpelt": 15607,
    "Ġlandlady": 10422,
    "Ġsurrounds": 24231,
    "?âĢĻâĢĿ": 23644,
    "avery": 13682,
    "tured": 13794,
    "horse": 8605,
    "curiosity": 8623,
    "rugged": 6849,
    "take": 4576,
    "Ġdemon": 7868,
    "Ġprev": 6264,
    "isation": 13892,
    "silent": 9973,
    ";âĢĶ": 3750,
    "Ġrome": 12153,
    "Ġmates": 4872,
    "):": 11461,
    "owal": 13995,
    "Ġignited": 25069,
    "Ġmassacre": 20546,
    "Ġspiritual": 9929,
    "ighted": 8476,
    "Ġangels": 11178,
    "Ġunseasonable": 26520,
    "glancing": 11214,
    "Ġamid": 4959,
    "Ġsire": 15500,
    "Ġpew": 9314,
    "visitor": 15057,
    "Ġelbows": 18636,
    "spot": 9787,
    "_,âĢĿ": 6218,
    "Ġreliance": 14384,
    "Ġfasc": 12595,
    "assist": 11765,
    "now": 548,
    "Ġrevered": 23733,
    "Ġmutilated": 23956,
    "Ġscenari": 22289,
    "Ġunsatisfied": 22041,
    "useness": 22279,
    "Ġconversing": 14633,
    "Ġredu": 1357,
    "aunted": 20769,
    "Ġspilled": 10924,
    "another": 5439,
    "natured": 7110,
    "Ġunsur": 22019,
    "so": 890,
    "Ġdire": 865,
    "whale": 2139,
    "Ġexotic": 21828,
    "Ġcalcul": 3638,
    "Ġtopic": 9405,
    "Ġmerits": 13195,
    "Ġfailed": 6671,
    "Ġhooks": 14967,
    "shr": 10980,
    "Ġhark": 8427,
    "Ġsmiled": 5940,
    "apparatus": 26563,
    "Ġsublime": 8065,
    "thousands": 16872,
    "appointment": 24058,
    "Ġchaos": 17009,
    "Ġhorrid": 7998,
    "Ġlabourers": 23330,
    "Ġominous": 12422,
    "hurt": 19877,
    "aphs": 22332,
    "Ġbon": 8785,
    "Ġsweating": 16462,
    "Ġaids": 12226,
    "Ġscan": 22281,
    "Ġalleghan": 25795,
    "troubled": 17112,
    "Ġbloom": 9887,
    "stories": 18023,
    "Ġmidnight": 5265,
    "Ġforefinger": 16444,
    "Ġconceived": 8149,
    "Ġcologne": 12972,
    "Ġcompliance": 12112,
    "aphys": 15200,
    "Ġgoose": 5937,
    "Ġmournful": 12334,
    "injustice": 17737,
    "tuning": 1577,
    "Ġlodges": 19498,
    "ĠĠĠĠĠĠĠ": 7632,
    "Ġpract": 1831,
    "Ġprophesied": 26062,
    "Ġtwee": 22672,
    "Ġseasoned": 24405,
    "Ġ28": 19294,
    "gradu": 18616,
    "Ġorthodox": 22092,
    "Ġspeeding": 23563,
    "Ġ1839": 20458,
    "Ġdirectly": 2104,
    "Ġfortitude": 9884,
    "Ġdisembow": 22534,
    "Ġmature": 17799,
    "resemblance": 25933,
    "nantucketer": 24972,
    "Ġacquitted": 18898,
    "rivial": 9433,
    "Ġomens": 21326,
    "bert": 4662,
    "ĠĠĠĠĠĠĠĠĠĠĠĠĠĠĠĠĠĠĠĠĠĠĠĠĠĠĠĠĠĠĠ": 19699,
    "Ġhum": 1096,
    "Ġrecorded": 11293,
    "urer": 18121,
    "Ġincreasing": 8246,
    "happening": 16563,
    "house": 4080,
    "Ġsensationalism": 26066,
    "Ġgasfitters": 25038,
    "Ġprocedures": 9411,
    "Ġturns": 4981,
    "disappo": 8984,
    "hyp": 15365,
    "Ġrig": 4226,
    "Ġlayers": 816,
    "Ġdesper": 6176,
    "Ġrabb": 4166,
    "Ġbrilliantly": 25120,
    "slight": 10727,
    "Ġhanging": 5447,
    "diligence": 26110,
    "Ġessence": 13404,
    "Ġeludes": 26554,
    "Ġvexed": 9993,
    "Ġdiscipline": 26561,
    "Ġjav": 7901,
    "angels": 22102,
    "lod": 15377,
    "Ġguiding": 19240,
    "Ġminutest": 14559,
    "Ġcontract": 18475,
    "Ġfreezing": 23881,
    "Ġcrackling": 24958,
    "!": 5,
    "Ġcoat": 4554,
    "anelles": 26434,
    "deformity": 22144,
    "Ġpastures": 23418,
    "Ġcomparable": 24278,
    "coloured": 7291,
    "Ġcomfits": 21849,
    "Ġodorous": 19565,
    "Ġdrinking": 12166,
    "pursued": 17281,
    "Ġvocation": 10525,
    "Ġtypically": 1534,
    "dum": 17518,
    "opius": 18508,
    "clo": 5613,
    "arance": 4698,
    "verdict": 21726,
    "Ġbug": 11588,
    "ifford": 15781,
    "Ġminimum": 23037,
    "feather": 16040,
    "Ġislanders": 19500,
    "Ġwinding": 8235,
    "Ġhatchet": 16528,
    "Ġheedfulness": 24522,
    "Ġsammy": 24932,
    "Ġpetty": 19594,
    "Ġtok": 1242,
    "frequented": 25900,
    "Ġkills": 15904,
    "voice": 7816,
    "Ġcapsizing": 20087,
    "Ġjerk": 16950,
    "Ġleviathanic": 12078,
    "wheels": 14380,
    "Ġperseverance": 13596,
    "orte": 14184,
    "Ġlining": 13950,
    "circumstances": 8046,
    "'re": 12426,
    "Ġcheek": 8577,
    "ooping": 21006,
    "Ġpanelled": 19653,
    "Ġclinging": 10290,
    "Ġpermitting": 22396,
    "gaff": 20881,
    "swim": 16779,
    "Ġgrounded": 23711,
    "Ġdizzy": 21430,
    "onings": 21251,
    "Ġlabeled": 3717,
    "Ġcorrespondence": 10594,
    "prepared": 13589,
    "Ġjing": 15947,
    "Ġefficiently": 3766,
    "Ġcorner": 4371,
    "ancient": 9655,
    "Ġteneriffe": 26414,
    "barbar": 20237,
    "onstrate": 17768,
    "headsman": 16700,
    "Ġwig": 9161,
    "man": 1054,
    "Ġconclusion": 5985,
    "Ġcountrymen": 23594,
    "Ġarrival": 4731,
    "ving": 594,
    "ide": 721,
    "kered": 18274,
    "Ġducks": 25157,
    "atered": 22004,
    "Ġinf": 1757,
    "illing": 8174,
    "Ġannotations": 25954,
    "secur": 18126,
    "Ġconcept": 662,
    "Ġtalk": 1970,
    "Ġexcuses": 19044,
    "Ġnose": 4404,
    "Ġcreditor": 24290,
    "decl": 8856,
    "ours": 3430,
    "Ġislands": 6766,
    "Ġstir": 5823,
    "Ġsupernatural": 9872,
    "Ġmedical": 9463,
    "Ġbulldog": 23857,
    "escript": 18470,
    "embed": 18187,
    "Ġoutcast": 18414,
    "Ġrespond": 11176,
    "Ġsplendid": 17213,
    "asher": 15643,
    "stove": 21649,
    "Ġtru": 4109,
    "Ġii": 7385,
    "Ġhurled": 10429,
    "Ġscare": 18397,
    "Ġthinking": 4033,
    "Ġpartial": 2127,
    "Ġutility": 23511,
    "Ġlooked": 1802,
    "yl": 7818,
    "Ġlydia": 2373,
    "Ġconfounded": 16382,
    "Ġtheatre": 21277,
    "Ġpalp": 11250,
    "Ġaffairs": 6878,
    "smart": 23904,
    "endous": 6850,
    "Ġprof": 2460,
    "Ġmissionary": 25696,
    "Ġsupply": 6066,
    "lucas": 15150,
    "weaving": 18666,
    "Ġafter": 869,
    "ily": 1032,
    "sorrow": 12506,
    "Ġconcluding": 9856,
    "Ġrequiring": 2922,
    "Ġbesides": 3516,
    "Ġdur": 11591,
    "Ġreasoning": 2016,
    "orns": 12589,
    "sailor": 14714,
    "saying": 8640,
    "omorrah": 18017,
    "Ġdes": 1247,
    "Ġsaratoga": 26423,
    "Ġender": 11688,
    "Ġsant": 21213,
    "swell": 17663,
    "sych": 9886,
    "station": 10844,
    "Ġstall": 12693,
    "Ġconcerning": 4072,
    "ose": 718,
    "Ġdepicted": 14283,
    "Ġunde": 11710,
    "factories": 19842,
    "Ġnewspapers": 17186,
    "race": 11630,
    "Ġpitching": 16611,
    "Ġimpose": 22379,
    "Ġdispirited": 23880,
    "Ġvainly": 9923,
    "Ġjets": 10287,
    "Ġago": 3136,
    "Ġinboard": 17932,
    "Ġatonement": 21939,
    "bpp": 20771,
    "Ġchr": 3688,
    "Ġcalves": 13032,
    "Ġcompelled": 14265,
    "anx": 8783,
    "Ġminuteness": 19138,
    "Ġpeered": 18668,
    "Ġmusical": 23891,
    "asht": 4087,
    "thick": 10260,
    "uel": 6966,
    "Ġparish": 8854,
    "Ġinteresting": 4327,
    "Ġshelter": 17008,
    "raising": 21629,
    "Ġtraces": 7945,
    "iron": 3442,
    "Ġforgotten": 5679,
    "grown": 10099,
    "Ġuncouth": 14549,
    "neighbourhood": 10024,
    "Ġestablish": 9542,
    "Ġdropout": 1555,
    "cer": 6642,
    "Ġbed": 2143,
    "Ġonly": 787,
    "susp": 10596,
    "Ġconvict": 23744,
    "Ġcombination": 22850,
    "Ġwilled": 21290,
    "Ġshrink": 14803,
    "Ġinsensibly": 20074,
    "Ġsplice": 19308,
    "Ġcrest": 12938,
    "following": 10572,
    "Ġunresting": 25553,
    "cork": 20795,
    "Ġstrangled": 24134,
    "aet": 15306,
    "ickering": 22667,
    "famous": 16916,
    "Ġdisc": 944,
    "Ġanat": 8123,
    "Ġbully": 23854,
    "leman": 21366,
    "Ġindians": 14409,
    "physiogn": 26265,
    "Ġcruising": 6913,
    "Ġadvancing": 6877,
    "returned": 7765,
    "results": 20385,
    "Ġvent": 3999,
    "disgu": 19153,
    "Ġextravagance": 17279,
    "Ġsink": 4342,
    "Ġfragmentary": 25858,
    "Ġrescales": 5068,
    "Ġdissu": 18549,
    "msman": 9269,
    "boards": 23253,
    "ich": 469,
    "Ġoverbearing": 12841,
    "Ġburn": 3683,
    "Ġwisest": 11232,
    "Ġimpressive": 14999,
    "xology": 21140,
    "Ġfatig": 6756,
    "Ġvirtues": 9935,
    "Ġeurope": 8061,
    "solely": 19815,
    "ows": 1917,
    "Ġfervour": 19725,
    "Ġingenuity": 17163,
    "Ġalluding": 18236,
    "Ġtahitian": 25427,
    "tubes": 25211,
    "escaped": 14230,
    "Ġhood": 10823,
    "prec": 3200,
    "rowing": 7930,
    "alled": 5910,
    "bra": 6219,
    "quely": 10231,
    "coarse": 16486,
    "ij": 7801,
    "Ġcathedral": 17412,
    "converse": 22472,
    "Ġcapsized": 20088,
    "Ġnlp": 3063,
    "vable": 10132,
    "Ġpled": 17907,
    "Ġdevoid": 18682,
    "Ġmau": 21309,
    "Ġuntidy": 23520,
    "ctor": 13959,
    "inative": 15483,
    "Ġcloser": 8659,
    "emporary": 15795,
    "delights": 19700,
    "osed": 1962,
    "Ġsaving": 15885,
    "ury": 3315,
    "arse": 7160,
    "ocity": 8277,
    "eland": 11619,
    "Ġcommanded": 6330,
    "Ġwildness": 14603,
    "nowled": 5470,
    "aint": 2544,
    "Ġdiscerned": 25003,
    "abhor": 12704,
    "Ġsurvived": 14933,
    "atmosphere": 21263,
    "Ġlysander": 13138,
    "Ġlunch": 13525,
    "ounted": 5030,
    "Ġended": 7949,
    "bs": 3751,
    "Ġthese": 820,
    "imagination": 13479,
    "Ġmasterly": 23991,
    "ignified": 14490,
    "Ġshell": 11734,
    "locked": 7678,
    "Ġtending": 17724,
    "Ġincreasingly": 9370,
    "roy": 7853,
    "ust": 494,
    "Ġspecial": 2102,
    "Ġsports": 18310,
    "Ġrats": 21973,
    "Ġrendering": 16657,
    "deal": 12796,
    "Ġdeterminate": 23002,
    "Ġencountered": 8321,
    "Ġflying": 5413,
    "Ġcards": 7581,
    "Ġcourtesy": 9944,
    "ivia": 22073,
    "Ġunfl": 22017,
    "Ġedition": 16433,
    "acles": 8519,
    "kn": 5791,
    "Ġscept": 15502,
    "haz": 17564,
    "Ġlegit": 16472,
    "Ġunion": 6839,
    "rederick": 14085,
    "Ġbell": 4635,
    "Ġpadd": 9669,
    "urmountable": 15278,
    "Ġnet": 3627,
    "Ġsubstitute": 16726,
    "Ġflourishing": 25187,
    "Ġregard": 3068,
    "Ġtransaction": 22436,
    "Ġassisting": 13257,
    "Ġdoctrine": 24197,
    "Ġsqueeze": 10038,
    "Ġbutcher": 18271,
    "Ġantagonist": 26328,
    "isons": 17849,
    "Ġparliament": 18302,
    "Ġottoman": 17377,
    "Ġsincerely": 7962,
    "Ġhears": 8138,
    "Ġforbearance": 12326,
    "Ġpolic": 13160,
    "offices": 19063,
    "Ġperse": 6272,
    "Ġthreat": 5154,
    "Ġsuffered": 5649,
    "Ġmayhap": 18707,
    "Ġcivilized": 8664,
    "Ġconfession": 11235,
    "Ġheadlands": 22896,
    "Ġreaches": 18031,
    "partner": 19221,
    "Ġrept": 13982,
    "Ġnoteworthy": 24162,
    "fugitive": 26131,
    "like": 1886,
    "Ġhoriz": 4726,
    "Ġmorrow": 9341,
    "Ġpace": 9183,
    "ided": 2787,
    "Ġinconsist": 17935,
    "iony": 9191,
    "Ġenables": 725,
    "Ġamerica": 6763,
    "Ġcaught": 3729,
    "Ġwallet": 21297,
    "Ġwester": 25152,
    "Ġrelief": 6059,
    "hand": 2759,
    "Ġsum": 2702,
    "amaz": 21841,
    "Ġwin": 9641,
    "Ġthat": 335,
    "Ġinterference": 8893,
    "Ġkindled": 19029,
    "Ġjup": 15950,
    "Ġrudimental": 25108,
    "spark": 18688,
    "elf": 563,
    "Ġsequ": 982,
    "Ġsimilarly": 24308,
    "Ġviii": 16412,
    "cripp": 20818,
    "Ġdiscern": 7925,
    "Ġabraham": 18395,
    "carbuncle": 26382,
    "iating": 3205,
    "Ġhugest": 17015,
    "Ġmoul": 15541,
    "Ġleaders": 16627,
    "Ġsluggish": 25890,
    "ivorous": 22076,
    "Ġshock": 6082,
    "cutting": 23783,
    "Ġaberde": 22274,
    "Ġpropri": 6738,
    "Ġaffectation": 14440,
    "deploy": 22141,
    "Ġfire": 2332,
    "Ġmight": 963,
    "project": 16423,
    "Ġauthorities": 11264,
    "Ġhousemaid": 14463,
    "arest": 4007,
    "Ġappare": 12813,
    "school": 10054,
    "Ġbreed": 19073,
    "Ġwasted": 9703,
    "Ġeloquent": 16108,
    "Ġhaunts": 18198,
    "Ġwe": 388,
    "surprised": 9530,
    "iminished": 19024,
    "Ġbermud": 26439,
    "Ġfurnaces": 24002,
    "got": 6955,
    "Ġconverted": 16109,
    "Ġloosed": 22109,
    "can": 1230,
    "rowsers": 8694,
    "veral": 2353,
    "har": 20889,
    "their": 2543,
    "igate": 8822,
    "Ġour": 1008,
    "caps": 20806,
    "isco": 12578,
    "Ġmarch": 4085,
    "Ġaloft": 4305,
    "us": 531,
    "Ġhoping": 11103,
    "perpet": 14161,
    "retreat": 23131,
    "Ġpresuming": 16793,
    "Ġspecimen": 13020,
    "Ġrecent": 7436,
    "limping": 26393,
    "Ġfo": 1652,
    "Ġfe": 490,
    "Ġforebodings": 17303,
    "wling": 11544,
    "Ġcoils": 9302,
    "Ġaback": 22263,
    "je": 11495,
    "cleanliness": 25871,
    "Ġhair": 3317,
    "Ġhideousness": 16915,
    "Ġdescend": 7427,
    "variance": 2656,
    "Ġdissimilar": 22528,
    "horrible": 14600,
    "masculine": 24387,
    "Ġtalks": 23368,
    "Ġcomfortably": 16615,
    "Ġspl": 2985,
    "Ġ82": 24458,
    "derstand": 646,
    "Ġ1894": 5196,
    "Ġphilosophy": 7103,
    "ientious": 11689,
    "pha": 22775,
    "taught": 17684,
    "unwillingness": 25802,
    "Ġfuel": 13903,
    "Ġhummed": 18777,
    "duchess": 18463,
    "Ġserpents": 13075,
    "Ġbritain": 16956,
    "Ġproverb": 12713,
    "Ġduke": 7755,
    "Ġwear": 6030,
    "Ġunderground": 18984,
    "dances": 17521,
    "whaleman": 23434,
    "bennet": 5352,
    "considerably": 13444,
    "Ġbore": 5079,
    "Ġpaintings": 15055,
    "Ġpoetical": 25056,
    "Ġcemet": 20679,
    "hon": 6793,
    "warmest": 25027,
    "reck": 9636,
    "Ġhaws": 21948,
    "Ġdrowsy": 26444,
    "Ġtelegra": 11890,
    "cloud": 11105,
    "Ġ}": 21152,
    "Ġretreats": 16928,
    "Ġgunwales": 12238,
    "Ġhydraul": 9513,
    "ctuous": 9205,
    "Ġsundial": 15081,
    "Ġdissuade": 26256,
    "Ġbroods": 23099,
    "Ġpump": 12618,
    "commod": 16168,
    "Ġconsideration": 5191,
    "Ġelement": 6898,
    "Ġsour": 21215,
    "astes": 11737,
    "Ġemac": 16406,
    "Ġhurry": 4913,
    "Ġbridegroom": 10604,
    "Ġneighb": 14073,
    "9": 29,
    "conclusion": 25671,
    "Ġparchment": 13651,
    "Ġenjoyments": 24015,
    "embers": 21926,
    "satisfied": 10578,
    "hercules": 22201,
    "Ġwedded": 16674,
    "decan": 22140,
    "Ġmorsel": 20676,
    "remain": 9837,
    "elzebub": 26464,
    "Ġwealth": 7621,
    "Ġ108": 19683,
    "Ġmounttop": 19976,
    "Ġsurrender": 16450,
    "Ġperpetually": 17071,
    "xes": 21139,
    "Ġcollection": 8221,
    "apply": 18760,
    "Ġmill": 6666,
    "Ġscho": 4437,
    "articulate": 17397,
    "Ġmem": 2070,
    "Ġcanals": 22163,
    "Ġency": 21930,
    "Ġvisiting": 10356,
    "yd": 21141,
    "Ġburying": 19251,
    "embra": 14075,
    "Ġpoetry": 15079,
    "traced": 19636,
    "itche": 7579,
    "comput": 1954,
    "Ġinterior": 8894,
    "Ġconfed": 13096,
    "Ġsplashed": 23747,
    "Ġexamine": 7734,
    "Ġdev": 886,
    "Ġroutine": 13507,
    "went": 6512,
    "Ġschooner": 16747,
    "Ġinquired": 7486,
    "saf": 11524,
    "Ġship": 1089,
    "darker": 24516,
    "Ġacknowledge": 13401,
    "Ġcrystall": 20225,
    "Ġhandle": 3137,
    "Ġupbra": 22151,
    "Ġsteering": 10387,
    "sample": 12504,
    "Ġteaches": 18807,
    ".": 18,
    "Ġrem": 956,
    "Ġimpropri": 14215,
    "Ġimpart": 11778,
    "Ġinstructions": 11195,
    "Ġ61": 24364,
    "harpo": 4805,
    "wig": 17704,
    "wearing": 22684,
    "driven": 19770,
    "Ġallowed": 4062,
    "plunging": 25987,
    "staking": 21645,
    "whe": 1073,
    "Ġpilgr": 12178,
    "elves": 2158,
    "Ġexistence": 4707,
    "Ġgathering": 14977,
    "Ġhinted": 6011,
    "Ġsatin": 12987,
    "train": 2034,
    "arrival": 15597,
    "Ġapology": 8327,
    "handkerchief": 14618,
    "Ġquoted": 22412,
    "Ġvariously": 18653,
    "Ġparcel": 15198,
    "Ġdistrusting": 25053,
    "treas": 17679,
    "Ġcommons": 22669,
    "Ġplunge": 13442,
    "Ġfootpath": 19337,
    "Ġannum": 24203,
    "Ġfreely": 7056,
    "bbs": 23690,
    "suspended": 15176,
    "Ġfishers": 19352,
    "cursed": 23841,
    "Ġlethar": 21743,
    "Ġhogshe": 20490,
    "Ġovercome": 6043,
    "Ġabsolute": 6765,
    "Ġpromises": 10400,
    "Ġparticle": 18671,
    "companies": 24894,
    "Ġsought": 5010,
    "Ġbower": 15564,
    "Ġdancing": 5703,
    "cousin": 10652,
    "Ġlightly": 13082,
    "Ġpostscript": 14807,
    "pul": 8753,
    "lean": 21363,
    "wreat": 21126,
    "smitten": 23906,
    "br": 2479,
    "Ġmarty": 20289,
    "Ġecc": 11627,
    "intelligent": 16844,
    "und": 4090,
    "ascending": 24707,
    "medium": 23637,
    "Ġ\"": 6119,
    "antic": 1599,
    "jewell": 25523,
    "ante": 11719,
    "stud": 8819,
    "Ġaroused": 15892,
    "Ġheinous": 18038,
    "Ġjar": 15948,
    "Ġsaville": 15887,
    "Ġxavier": 2857,
    "promise": 12248,
    "Ġdelivery": 18974,
    "Ġdistinguished": 8272,
    "oul": 4699,
    "weather": 7229,
    "incidentally": 20538,
    "Ġhollows": 19740,
    "Ġweakness": 9966,
    "Ġplaything": 19237,
    "Ġlimb": 9401,
    "Ġunprecedented": 15852,
    "Ġarchitects": 18733,
    "cheered": 23804,
    "Ġdismal": 11808,
    "Ġdrink": 4787,
    "iff": 3908,
    "Ġact": 690,
    "Ġpredecess": 18542,
    "ho": 2860,
    "Ġshiny": 14105,
    "Ġimpud": 18444,
    "Ġdry": 5624,
    "Ġ13": 6718,
    "Ġimbib": 22172,
    "ties": 2760,
    "humour": 7499,
    "Ġprinc": 4201,
    "thanked": 24331,
    "Ġsens": 1853,
    "Ġhumbled": 16195,
    "Ġirreparable": 19997,
    "featured": 24072,
    "ulpt": 10885,
    "ists": 4002,
    "Ġwine": 6810,
    "Ġgap": 21596,
    "Ġviol": 2072,
    "Ġnumbers": 2890,
    "Ġoriental": 9096,
    "Ġcarpent": 4466,
    "mering": 12488,
    "invested": 17117,
    "--------": 14780,
    "reel": 21232,
    "Ġsorely": 17256,
    "utored": 15660,
    "abri": 6682,
    "Ġprodigy": 19791,
    "Ġsaved": 6690,
    "Ġfundamentals": 14635,
    "Ġresc": 4507,
    "Ġtwist": 11849,
    "Ġaudio": 24772,
    "Ġsuperhuman": 23452,
    "Ġserm": 9633,
    "Ġphilistines": 26082,
    "Ġguido": 2977,
    "Ġhindrance": 25220,
    "ologies": 18785,
    "prick": 19341,
    "Ġmoth": 17802,
    "Ġcontinuing": 14396,
    "Ġpitched": 9443,
    "Ġvinegar": 20098,
    "agre": 18164,
    "lac": 17589,
    "Ġdrawback": 23987,
    "Ġdivineness": 25724,
    "Ġattained": 14077,
    "Ġreview": 18030,
    "species": 13256,
    "Ġobserve": 4670,
    "gast": 20870,
    "Ġserpent": 6737,
    "desper": 13067,
    "Ġpurport": 14580,
    "mannered": 22848,
    "Ġstuff": 5717,
    "Ġexponentially": 1443,
    "Ġtigers": 25758,
    "Ġgliding": 8559,
    "arctic": 12607,
    "Ġsheer": 14150,
    "Ġwrongfully": 24248,
    "outer": 9668,
    "uns": 21867,
    "Ġexerc": 6833,
    "osal": 11757,
    "Ġnibbling": 17384,
    "user": 5105,
    "Ġshuddering": 9051,
    "encounter": 20390,
    "Ġwhisker": 23932,
    "!âĢĿâĢĶ": 8532,
    "allic": 12810,
    "Ġbodings": 21389,
    "dep": 6786,
    "Ġaspire": 21897,
    "throne": 25657,
    "Ġgodfrey": 15292,
    "Ġkitchen": 8495,
    "Ġbash": 12583,
    "itates": 13868,
    "Ġseek": 4509,
    "iliation": 10860,
    "Ġfeet": 2256,
    "Ġvicious": 24403,
    "python": 4692,
    "reflection": 13454,
    "engines": 18927,
    "fold": 7547,
    "rium": 3133,
    "Ġtoast": 21509,
    "flag": 14710,
    "Ġattach": 14288,
    "nephew": 26397,
    "Ġring": 4453,
    "Ġsurrey": 14558,
    "byshire": 6172,
    "Ġassistant": 7298,
    "Ġfrenzy": 13621,
    "discoveries": 25385,
    "Ġholding": 4979,
    "doesn": 19819,
    "beth": 13687,
    "band": 3060,
    "Ġtrod": 15026,
    "Ġafore": 10758,
    "ank": 1368,
    "Ġcommunication": 1872,
    "alse": 4187,
    ".âĢĶâĢľ": 20746,
    "immortal": 21707,
    "ain": 343,
    "ors": 855,
    "Ġmizen": 17258,
    "treated": 21093,
    "riv": 3110,
    "Ġslice": 23155,
    "binary": 20783,
    "Ġtr": 554,
    "Ġappropriated": 23483,
    "Ġcircumspection": 25884,
    "nights": 16449,
    "pushed": 21022,
    "cain": 15325,
    "keen": 12779,
    "Ġinequalities": 26453,
    "Ġstash": 18067,
    "asted": 4649,
    "Ġshudderings": 25200,
    "Ġplease": 4723,
    "Ġreceive": 4704,
    "aves": 3600,
    "Ġdie": 3964,
    "Ġmachine": 783,
    "`": 68,
    "piled": 21014,
    "Ġlo": 453,
    "Ġcraggy": 23527,
    "ĠcÃ¦sar": 20578,
    "Ġwere": 557,
    "Ġlifelessly": 23047,
    "Ġfoiled": 23242,
    "look": 2259,
    "Ġsloping": 11937,
    "Ġcowards": 12570,
    "Ġrepositories": 23362,
    "Ġlowering": 7986,
    "Ġbottles": 16569,
    "Ġarched": 10932,
    "Ġsyntax": 959,
    "Ġwhipping": 21713,
    "Ġemotions": 8969,
    "robe": 15639,
    "Ġtire": 17720,
    "Ġv": 397,
    "hau": 17562,
    "Ġwire": 13851,
    "Ġsignificance": 13279,
    "weakness": 16122,
    "Ġrevers": 21661,
    "brad": 20780,
    "Ġdoings": 18376,
    "cially": 3493,
    "Ġinequal": 21494,
    "asion": 5714,
    "Ġdarling": 12601,
    "Ġships": 3713,
    "accur": 14593,
    "Ġaunt": 3175,
    "Ġbehaved": 13253,
    "Ġinvestment": 24336,
    "erxes": 21274,
    "Ġpreaching": 15924,
    "derest": 18315,
    "Ġwarp": 8112,
    "leep": 4634,
    "Ġvol": 4191,
    "Ġinsinuating": 19270,
    "join": 12111,
    "regularly": 13207,
    "compar": 14357,
    "Ġtamely": 24977,
    "Ġ105": 24413,
    "Ġwilderness": 14839,
    "precision": 4333,
    "Ġworker": 23044,
    "Ġlowermost": 23240,
    "ampton": 18144,
    "ourage": 2451,
    "Ġabsorbed": 12329,
    "Ġgenus": 24429,
    "Ġexpressions": 7705,
    "Ġroast": 18456,
    "Ġdecl": 3591,
    "usions": 6159,
    "const": 5938,
    "benefit": 24642,
    "Ġobsole": 22695,
    "Ġhearse": 10420,
    "Ġburtons": 19252,
    "Ġsuppressed": 11910,
    "Ġyell": 21774,
    "Ġunw": 8849,
    "Ġsuperst": 7703,
    "Ġultimate": 12347,
    "Ġneck": 4885,
    "Ġtolerably": 8067,
    "itten": 3444,
    "Ġcabal": 23640,
    "po": 1138,
    "Ġpuzzling": 14897,
    "pilot": 25908,
    "Ġbod": 4581,
    "sch": 21049,
    "cats": 17512,
    "Ġinsure": 13177,
    "Ġprim": 8243,
    "Ġwoodlands": 23518,
    "showing": 22460,
    "violence": 16477,
    "sle": 9138,
    "inction": 6660,
    "rann": 21043,
    "Ġcrocodile": 20739,
    "Ġenjoyment": 7300,
    "Ġcheers": 16367,
    "Ġoppressed": 11189,
    "attend": 11101,
    "Ġupp": 13991,
    "mur": 5428,
    "Ġfatality": 12092,
    "Ġcelebrate": 26357,
    "Ġpictured": 16622,
    "Ġtables": 9877,
    "://": 11465,
    "Ġdismasted": 15250,
    "Ġseeth": 21957,
    "andes": 18151,
    "peleg": 16292,
    "udg": 22747,
    "relative": 24010,
    "sensible": 20050,
    "Ġsensible": 4976,
    "Ġprincipal": 6496,
    "Ġalpine": 18105,
    "Ġillustrious": 17109,
    "Ġphenomenon": 17916,
    "apparat": 22840,
    "Ġarranging": 11174,
    "tled": 3461,
    "hack": 20895,
    "clay": 18930,
    "iloqu": 11647,
    "Ġwoeful": 19618,
    "Ġalpha": 13587,
    "Ġteaching": 10364,
    "comfortable": 7320,
    "Ġlur": 5226,
    "Ġtalent": 12295,
    "Ġblend": 14397,
    "Ġsalut": 10509,
    "Ġdepos": 11007,
    "Ġdisappointment": 6626,
    "Ġsavory": 23874,
    "Ġrestore": 9379,
    "Ġimprovements": 14516,
    "Ġboister": 12916,
    "Ġboot": 11837,
    "limp": 20951,
    "Ġsmooth": 2781,
    "Ġintolerable": 8481,
    "Ġlandowner": 23379,
    "presently": 9808,
    "Ġprogrammed": 11058,
    "Ġg": 310,
    "introduce": 25186,
    "aders": 21755,
    "Ġsat": 1133,
    "Ġrelu": 1045,
    "ceptibly": 22351,
    "Ġcoefficient": 2886,
    "Ġdomin": 10460,
    "Ġrelaps": 18775,
    "Ġland": 1997,
    "ears": 20844,
    "Ġdrugg": 17119,
    "Ġengineering": 3028,
    "Ġmultimodal": 18747,
    "rip": 9240,
    "ĠĠĠĠĠĠĠĠĠĠ": 18577,
    "eck": 20843,
    "Ġsta": 18062,
    "Ġperiodical": 14772,
    "Ġcocoa": 25482,
    "Ġlest": 6395,
    "scornful": 26575,
    "dischar": 19151,
    "Ġevap": 19622,
    "foundered": 20866,
    "exclaimed": 11788,
    "Ą": 197,
    "carb": 20809,
    "Ġvirtue": 4922,
    "atch": 673,
    "Ġoverflowing": 17237,
    "Ġkneeling": 12140,
    "Ġnav": 5818,
    ";--": 8068,
    "Ġhansom": 13663,
    "Ġconstitutes": 13551,
    "Ġchaise": 9076,
    "jure": 20923,
    "abst": 21785,
    "Ġparson": 6687,
    "Ġforces": 12699,
    "blow": 9103,
    "eps": 12788,
    "Ġslavery": 16305,
    "pointed": 9809,
    "displayed": 20735,
    "Ġrepair": 11977,
    "nett": 16219,
    "Ġchuck": 8501,
    "Ġpurchasing": 19874,
    "Ġdisengaged": 12886,
    "Ġoverlook": 10961,
    "aid": 1922,
    "Ġexploring": 4307,
    "Ġ235": 25713,
    "Ġgovern": 10450,
    "Ġplush": 18609,
    "Ġrefres": 14343,
    "Ġfasten": 11132,
    "Ġpaddled": 20200,
    "bweb": 20790,
    "Ġepsom": 19981,
    "allet": 11083,
    "narrative": 17318,
    "Ġgrievances": 20647,
    "Ġobsolete": 26558,
    "Ġjudge": 5502,
    "supper": 12917,
    "Ġstories": 10865,
    "Ġforg": 3789,
    "shame": 16023,
    "Ġadapted": 11040,
    "Ġpunchbowl": 20230,
    "mouthful": 25208,
    "dance": 17519,
    "acqu": 4842,
    "Ġscraps": 16902,
    "Ġapex": 24342,
    "Ġinsurgents": 26600,
    "Ġmiser": 18699,
    "Ġmagnificent": 9841,
    "low": 656,
    "Ġsympathies": 14860,
    "harbors": 20147,
    "nikin": 23245,
    "Ġmillion": 14986,
    "ubl": 3596,
    "apothecary": 26545,
    "Ġmentioning": 9898,
    "reve": 12536,
    "Ġ97": 19773,
    "Ġjo": 2610,
    "mun": 20961,
    "fireside": 24692,
    "irection": 2388,
    "Ġbrides": 22863,
    "calling": 12447,
    "Ġroaring": 10968,
    "Ġadhering": 14139,
    "Ġunostentatious": 22067,
    "ahawk": 23316,
    "Ġheavens": 5050,
    "phr": 18714,
    "Ġhedgehog": 10644,
    "icket": 22665,
    "Ġemergency": 25731,
    "Ġpaste": 23417,
    "belief": 13280,
    "Ġaggregated": 25678,
    "Ġunfortunately": 10909,
    "Ġlexicon": 25974,
    "mole": 22698,
    "ccarthy": 4888,
    "lig": 3171,
    "Ġincorpor": 13164,
    "inguished": 6598,
    "Ġdundee": 16997,
    "Ġexig": 21823,
    "Ġostent": 13583,
    "Ġspecks": 14307,
    "Ġapprehended": 26091,
    "Ġdiscrimin": 2548,
    "Ġgone": 2106,
    "Ġsplit": 7992,
    "Ġinvolves": 1083,
    "dered": 2472,
    "Ġcultivated": 17363,
    "Ġthen": 665,
    "Ġthro": 5817,
    "Ġcondensed": 24051,
    "sign": 8387,
    "Ġjoll": 11763,
    "otam": 21795,
    "Ġorphan": 12381,
    "Ġgrop": 12661,
    "Ġfreshe": 13068,
    "Ġdisgusting": 19893,
    "Ġvaults": 17153,
    "q": 85,
    "Ġwalker": 23308,
    "umer": 9257,
    "Ġlumps": 21553,
    "Ġraven": 16113,
    "Ġcondu": 18109,
    "spouter": 22730,
    "Ġembraced": 10005,
    "ane": 1177,
    "Ġretiring": 16279,
    "Ġlandsman": 11350,
    "Ġpond": 13915,
    "Ġwired": 17786,
    "Ġsne": 6372,
    "Ġsecondary": 23334,
    "tural": 21065,
    "Ġsoftware": 18918,
    "search": 8464,
    "Ġard": 5164,
    "Ġsmiles": 6706,
    "Ġath": 15799,
    "aspect": 10193,
    "Ġgravesend": 15215,
    "Ġcould": 703,
    "dy": 3864,
    "Ġinclusive": 24163,
    "Ġ0": 1903,
    "Ġraise": 6166,
    "nical": 20990,
    "Ġhitting": 21484,
    "Ġjeroboam": 10600,
    "Ġdown": 829,
    "Ġbugs": 13647,
    "Ġreconcile": 25291,
    "agon": 7870,
    "Ġrecognition": 3015,
    "eman": 5636,
    "Ġrampart": 20317,
    "itics": 13871,
    "Ġsuccession": 12099,
    "resnet": 4073,
    "Ġdescribed": 6606,
    "uttermost": 24940,
    "Ġwondrously": 24063,
    "Ġfinanc": 23124,
    "Ġext": 912,
    "dissemble": 23490,
    "Ġdriving": 3618,
    "arled": 21440,
    "Ġclair": 6268,
    "Ġrecollecting": 17113,
    "heidelburgh": 21210,
    "Ġalt": 18098,
    "wheeler": 16187,
    "Ġordering": 18997,
    "Ġscrawled": 24580,
    "Ġrelent": 18774,
    "Ġitems": 9691,
    "Ġcabaco": 13166,
    "Ġgushed": 21604,
    "Ġexord": 21824,
    "Ġprivileged": 20111,
    "Ġscotch": 12207,
    "pect": 1250,
    "Ġclubbed": 26546,
    "sper": 4436,
    "Ġborn": 5224,
    "Ġdod": 6672,
    "sphere": 22729,
    "Ġbodily": 6106,
    "uten": 11621,
    "č": 206,
    "Ġwet": 6518,
    "Ġbrilliancy": 20105,
    "Ġponder": 6819,
    "Ġstepdaughter": 22610,
    "rigible": 24931,
    "Ġpapers": 4023,
    "Ġting": 8397,
    "Ġswiftly": 5670,
    "Ġfangs": 12594,
    "Ġthundering": 24291,
    "Ġheaved": 9382,
    "Ġmodes": 22216,
    "Ġbrix": 12580,
    "Ġalmighty": 18104,
    "Ġinvesting": 19645,
    "Ġsmite": 22554,
    "reserve": 17765,
    "Ġscriptures": 26235,
    "Ġ181": 23892,
    "Ġtapers": 11551,
    "Ġclimax": 25051,
    "breathing": 25335,
    "Ġventil": 8019,
    "writ": 16552,
    "grat": 5052,
    "Ġsecurity": 8977,
    "Ġcumbrous": 26432,
    "caves": 20815,
    "Ġreports": 19084,
    "ivering": 7698,
    "Ġmay": 923,
    "Ġcoincidence": 25483,
    "conditional": 9078,
    "quid": 18146,
    "form": 497,
    "Ġpuffs": 14975,
    "els": 1765,
    "bted": 7793,
    "Ġbuildings": 24720,
    "staff": 21653,
    "Ġmon": 1248,
    "don": 3546,
    "clerval": 7950,
    "Ġladyship": 5046,
    "Ġfow": 6133,
    "Ġinvention": 19951,
    "countless": 24150,
    "Ġsavagely": 26323,
    "Ġfragments": 19036,
    "nect": 663,
    "Ġrigid": 16716,
    "tiest": 21080,
    "Ġsalvation": 14756,
    "precaution": 23820,
    "Ġdegenerated": 20504,
    "Ġindelible": 25694,
    "itiousness": 21332,
    "Ġchal": 18378,
    "Ġmushroom": 13235,
    "Ġlust": 9197,
    "Ġsketches": 26270,
    "Ġseriously": 7061,
    "Ġascertained": 25296,
    "Ġming": 9645,
    "Ġpail": 15604,
    "exposure": 19256,
    "Ġcareer": 11118,
    "estim": 14169,
    "Ġmeridian": 25714,
    "Ġdaggoo": 5441,
    "Ġatone": 15800,
    "Ġoccasionally": 5590,
    "Ġfearful": 6197,
    "Ġhosmer": 6774,
    "Ġhowled": 12852,
    "complied": 19912,
    "Ġwhalers": 8047,
    "Ġtarpaulin": 26157,
    "Ġsaloon": 24061,
    "Ġisn": 7865,
    "Ġfil": 3476,
    "Ġriver": 5411,
    "Ġparties": 7038,
    "Ġ1": 1013,
    "Ġexhibited": 9543,
    "Ġ78": 19612,
    "olidity": 18132,
    "putation": 7625,
    "Ġthinks": 6169,
    "Ġverdure": 10612,
    "Ġgathers": 24743,
    "Ġroses": 11784,
    "gardiner": 12289,
    "urean": 18122,
    "Ġvivacity": 14940,
    "Ġutensils": 23512,
    "longbourn": 9895,
    "ribed": 7693,
    "Ġresembled": 18033,
    "Ġallusions": 10906,
    "alone": 10183,
    "okingly": 22375,
    "Ġconsolation": 6208,
    "Ġswept": 7977,
    "Ġappertaining": 26533,
    "waiter": 24586,
    "resistible": 10643,
    "rating": 7808,
    "Ġparsonage": 7123,
    "Ġarist": 14159,
    "Ġrestrictions": 20634,
    "Ġholiest": 18811,
    "Ġcau": 13880,
    "Ġfacetious": 20582,
    "Ġmakest": 25435,
    "notice": 16145,
    "Ġirresistible": 13111,
    "delay": 16698,
    "Ġspong": 15879,
    "chooses": 23672,
    "Ġpeasants": 12330,
    "Ġmargin": 11919,
    "Ġferrule": 24500,
    "unts": 12728,
    "stein": 5505,
    "Ġtailed": 21167,
    "Ġunconnected": 18242,
    "Ġvaried": 11846,
    "Ġvanishing": 1348,
    "none": 6962,
    "Ġhesitate": 16946,
    "Ġstarting": 7728,
    "Ġsult": 10767,
    "barbs": 20236,
    "itaries": 21334,
    "Ġconcern": 2657,
    "Ġproductions": 22943,
    "Ġankles": 17899,
    "Ġbrill": 8549,
    "withstanding": 8945,
    "Ġprem": 3429,
    "Ġslumbers": 18941,
    "Ġrequires": 1015,
    "further": 7536,
    "were": 2560,
    "member": 20974,
    "Ġvoracity": 25986,
    "Ġbarbarians": 19586,
    "Ġaristotle": 25817,
    "Ġnorthward": 13320,
    "Ġdevelopments": 23243,
    "earnestly": 17312,
    "boys": 13358,
    "Ġchased": 8861,
    "telescope": 26562,
    "aped": 3765,
    "Ġmagistrate": 8233,
    "Ġbouquet": 20682,
    "Ġmerry": 5868,
    "Ġassures": 14464,
    "Ġconflict": 17273,
    "Ġxxx": 7766,
    "known": 3570,
    "dining": 13704,
    "Ġcrawled": 17044,
    "oqu": 7556,
    "Ġfrancisco": 26064,
    "Ġimpassable": 20611,
    "0": 20,
    "Ġwrig": 13065,
    "Ġte": 1155,
    "Ġcranes": 20381,
    "Ġlaughs": 24117,
    "bread": 10684,
    "Ġworn": 6445,
    "Ġneglect": 7941,
    "Ġghostly": 24650,
    "Ġconsequences": 11335,
    "Ġicebergs": 23972,
    "indul": 22367,
    "Ġ89": 19711,
    "Ġgrasped": 8033,
    "Ġhastening": 19335,
    "Ġgrapple": 25811,
    "Ġ23": 13191,
    "itious": 8779,
    "Ġconclude": 8580,
    "Ġlimited": 23542,
    "Ġlawyers": 25248,
    "structure": 2375,
    "(_": 7541,
    "affair": 14655,
    "Ġnoise": 1070,
    "ropes": 7902,
    "Ġemerged": 8684,
    "justine": 7683,
    "Ġblushed": 12999,
    "Ĥ": 229,
    "inexplicable": 25808,
    "display": 19154,
    "advice": 12155,
    "Ġbridal": 14953,
    "Ġbeams": 14631,
    "Ġdug": 21428,
    "Ġpenalizing": 13089,
    "ĠâĢľâĢĺ": 8503,
    "feet": 6568,
    "Ġunwillingly": 15846,
    "thickness": 25367,
    "med": 1908,
    "Ġ102": 24410,
    "roc": 9674,
    "accompanied": 12420,
    "Ġidea": 2488,
    "ouses": 5163,
    "Ġreap": 18026,
    "Ġjackal": 24239,
    "riot": 18181,
    "observation": 17269,
    "Ġwearily": 18177,
    "once": 5903,
    "Ġwoods": 5406,
    "nuts": 15397,
    "Ġtam": 7821,
    "delightful": 12194,
    "ios": 2275,
    "ureau": 10226,
    "Ġsplashing": 16549,
    "Ġseamen": 5063,
    "Ġparaphrasing": 26526,
    "rigged": 17063,
    "û": 188,
    "adr": 6994,
    "Ġrang": 9244,
    "warm": 8101,
    "iew": 2447,
    "Ġpurely": 12229,
    "ounding": 22389,
    "Ġrejoice": 10208,
    "matter": 5136,
    "Ġwhitened": 24867,
    "rig": 7557,
    "Ġindicates": 3193,
    "Ġsuffice": 18869,
    "Ġpictures": 5503,
    "stache": 15687,
    "imaux": 21709,
    "Ġfaulty": 14906,
    "tossed": 10996,
    "Ġdong": 17887,
    "Ġrenegades": 26476,
    "Ġextracted": 16330,
    "ome": 536,
    "Ġfoundering": 21417,
    "Ġinternal": 2244,
    "Ġcounty": 9030,
    "Ġboarded": 13233,
    "german": 11491,
    "Ġdella": 21437,
    "spoken": 11859,
    "Ġprynne": 25540,
    "Ġgrapnels": 25551,
    "Ġarrayed": 25664,
    "Ġjingling": 26017,
    "empty": 23633,
    "elev": 12456,
    "Ġdeclining": 23961,
    "velope": 17701,
    "art": 593,
    "civil": 7796,
    "vengeance": 13355,
    "Ġgould": 17989,
    "B": 38,
    "Ġagonized": 25372,
    "Ġfrowning": 13622,
    "thrust": 10261,
    "Ġengrossed": 12994,
    "before": 3115,
    "chased": 18041,
    "Ġcol": 1060,
    "Ġpag": 6010,
    "oration": 2208,
    "line": 1440,
    "Ġloops": 8852,
    "eler": 1568,
    "Ġoccasions": 7987,
    "excitement": 19668,
    "Ġsnoo": 21227,
    "Ġpolicy": 10457,
    "occurred": 13336,
    "itions": 4150,
    "Ġhomeless": 23385,
    "Ġuniverse": 14123,
    "Ġsuff": 1305,
    "Ġindefinitely": 25221,
    "Ġwarehouse": 20415,
    "Ġdetain": 14173,
    "masters": 16834,
    "Ġblue": 3458,
    "Ġislets": 21798,
    "Ġdestroy": 5772,
    "Ġporter": 15608,
    "Ġsympathise": 16794,
    "Ġoysters": 20577,
    "eel": 11483,
    "idious": 11661,
    "Ġbath": 9658,
    "Ġinterview": 9769,
    "founded": 16713,
    "knight": 20939,
    "Ġglacier": 11433,
    "Ġpreposterous": 13668,
    "Ġhelmsman": 10504,
    "garden": 15025,
    "Ġtune": 17725,
    "furnished": 20240,
    "Ġcontroverted": 23250,
    "ad": 337,
    "Ġmoves": 14231,
    "Ġtrinity": 22354,
    "Ġnay": 5711,
    "ribly": 8254,
    "desperate": 17351,
    "asked": 8911,
    "boo": 16349,
    "Ġkindling": 19030,
    "Ġroughly": 17040,
    "idually": 21766,
    "Ġshank": 21994,
    "inav": 15482,
    "confess": 12173,
    "Ġshrieked": 9547,
    "ppings": 18176,
    "Ġentirely": 3436,
    "Ġvernal": 23886,
    "hit": 20888,
    "photograph": 16152,
    "Ġinvari": 6529,
    "Ġwillow": 18530,
    "Ġguardian": 14941,
    "oors": 17620,
    "arcy": 1276,
    "Ġ62": 24365,
    "follows": 24528,
    "Ġgrunt": 18736,
    "Ġwounded": 8657,
    "Ġeffemin": 18518,
    "regard": 7972,
    "ford": 2825,
    "Ġowed": 10780,
    "Ġlevelled": 11284,
    "Ġfinishing": 23121,
    "zag": 17713,
    "Ġancestry": 25641,
    "kins": 7345,
    "Ġdiary": 24739,
    "Ġprofoundly": 16859,
    "Ġhovered": 12628,
    "iard": 9601,
    "attain": 21260,
    "Ġfoss": 9849,
    "Ġbone": 4695,
    "Ġtrout": 22352,
    "manners": 16183,
    "Ġflatt": 16248,
    "Ġinstincts": 16986,
    "appalling": 22839,
    "isis": 12576,
    "Ġimpass": 15983,
    "harb": 9123,
    "Ġsolitude": 6876,
    "Ġstatistics": 1683,
    "Ġbake": 21380,
    "Ġcruel": 5121,
    "urs": 6989,
    "Ġstifle": 18073,
    "Ġconsum": 9798,
    "Ġpers": 1364,
    "Ġobedience": 11413,
    "Ġcoolly": 9771,
    "dar": 20823,
    "dwelt": 23869,
    "Ġevinced": 7100,
    "Ġfads": 21414,
    "harrow": 20907,
    "Ġencourages": 2062,
    "lengths": 24846,
    "rubbed": 22187,
    "Ġawkwardness": 13486,
    "Ġabundant": 17154,
    "discovered": 8324,
    "Ġdepressions": 25798,
    "ounder": 11742,
    "thou": 4709,
    "firm": 10698,
    "commotion": 24913,
    "Ġ*/": 10373,
    "practical": 17221,
    "Ġinner": 9670,
    "entreat": 17975,
    "watching": 16930,
    "et": 307,
    "Ġcensus": 15095,
    "tracks": 19637,
    "Ġjealous": 9468,
    "Ġkeenly": 9484,
    "hering": 12811,
    "hanging": 10100,
    "Ġtrad": 9827,
    "Ġglanced": 5951,
    "Ġfeelingly": 22994,
    "Ġdiddled": 22664,
    "Ġworshipper": 25692,
    "Ġanalogical": 25640,
    "pregn": 18492,
    "itiously": 13870,
    "zed": 8103,
    "various": 10397,
    "decoder": 3645,
    "Ġberm": 21381,
    "Ġinjure": 16781,
    "dington": 11899,
    "Ġmerely": 3772,
    "Ġcronies": 23441,
    "atory": 6125,
    "pp": 384,
    "alliance": 22197,
    "Ġunnatural": 7190,
    "Ġlashes": 17966,
    "profound": 16424,
    "Ġmatted": 22909,
    "pped": 1998,
    "buoy": 7760,
    "Ġbolted": 12242,
    "Ġtearless": 24786,
    "Ġcharming": 6628,
    "®": 111,
    "Ġflounders": 23013,
    "Ġimparted": 15986,
    "ounds": 4159,
    "Ġobserved": 3543,
    "ssed": 3733,
    "aces": 2069,
    "Ġresidual": 1680,
    "ude": 7563,
    "Ġdiscoveries": 13357,
    "rucastle": 22185,
    "alt": 12635,
    "yra": 8102,
    "Ġcontradict": 12383,
    "Ò": 147,
    "Ġbert": 4582,
    "batim": 25016,
    "antediluvian": 24346,
    "Ġbrotherly": 16527,
    "inspect": 11558,
    "sincere": 16907,
    "Ġlurking": 11289,
    "ode": 1453,
    "promised": 12249,
    "Ġpanic": 11286,
    "anous": 21357,
    "Ġphrenologist": 25607,
    "ultaneously": 4195,
    "fee": 12877,
    "Ġsash": 17754,
    "orphans": 26440,
    "signs": 16538,
    "Ġsoul": 2728,
    "Ġathirst": 20597,
    "pig": 8752,
    "cturn": 17986,
    "Ġglued": 20587,
    "ery": 1270,
    "Ġsociet": 9449,
    "Ġcared": 8782,
    "hetic": 12201,
    "ilib": 4120,
    "Ġperman": 10965,
    "Ġhieroglyphic": 25587,
    "Ġsepulchre": 20558,
    "Ġiteratively": 3059,
    "Ġjacobians": 2895,
    "Ġproceeds": 12075,
    "ges": 2875,
    "Ġpavement": 9577,
    "Ġrightly": 13062,
    "Ġdrooping": 9419,
    "Ġmerged": 19296,
    "uneven": 23683,
    "lan": 15376,
    "1": 21,
    "cc": 471,
    "hitherto": 17283,
    "bitt": 17485,
    "Ġthrusts": 24350,
    "Ġshipping": 14103,
    "Ġenraptured": 26500,
    "Ġticklish": 25034,
    "ected": 7872,
    "Ġexquisite": 12380,
    "Ġindependently": 4247,
    "Ġlovel": 10271,
    "Ġhuggins": 24828,
    "Ġanalogy": 25639,
    "Ġchief": 3384,
    "hered": 5623,
    "hog": 8379,
    "Ġdictating": 20151,
    "awed": 10390,
    "Ġloc": 10914,
    "either": 6791,
    "Ġpouch": 21467,
    "sit": 13779,
    "eked": 16402,
    "Ġexecute": 7506,
    "Ġgurgling": 17445,
    "Ġnarrating": 24351,
    "precedented": 15173,
    "Ġthickest": 16654,
    "icirc": 15653,
    "Ġinjunction": 19616,
    "flowing": 14570,
    "elfth": 22366,
    "Ġcharged": 9853,
    "herself": 4890,
    "satisfactory": 16893,
    "Ġperusal": 14223,
    "marest": 20979,
    "lads": 20954,
    "sentiment": 12911,
    "Ġrooted": 13168,
    "fall": 5135,
    "ustry": 18358,
    "Ġviolently": 6456,
    "bit": 3934,
    "addressed": 13384,
    "``": 15305,
    "believe": 8303,
    "rolled": 9059,
    "Ġpunch": 9954,
    "ascertaining": 26460,
    "Ġmonotonically": 3835,
    "Ġblanched": 26282,
    "Ġpostponed": 20388,
    "Ġhumph": 22878,
    "oken": 4309,
    "?âĢĿ": 700,
    "Ġdependencies": 2313,
    "Ġveracity": 23887,
    "Ġinexper": 16980,
    "Ġdesponding": 25868,
    "ediction": 17944,
    "Ġthough": 992,
    "Ġagency": 11804,
    "Ġswerve": 14436,
    "Ġcurtain": 14413,
    "Ġorgans": 15863,
    "urity": 8142,
    "Ġassumed": 9465,
    "character": 6331,
    "Ġreside": 22536,
    "extric": 22763,
    "regarding": 15070,
    "objects": 13469,
    "Ġlodging": 24093,
    "esu": 17901,
    "unwittingly": 25801,
    "becomes": 22493,
    "ç": 168,
    "upper": 11538,
    "bee": 16034,
    "aments": 12722,
    "poise": 6171,
    "Ġach": 2622,
    "Ġreceives": 20353,
    "groom": 8739,
    "Ġknot": 7011,
    "Ġbenefit": 8293,
    "Ġnominal": 15167,
    "onse": 21248,
    "Ġdoubled": 19641,
    "Ġdeplored": 20503,
    "related": 24009,
    "Ġreus": 8821,
    "Ġruff": 14348,
    "Ġdece": 6996,
    "Ġmunro": 25630,
    "Ġsailors": 4277,
    "Ġfidgeted": 25889,
    "Ġpantaloons": 20295,
    "clothes": 9057,
    "Ġpawn": 12061,
    "Ġbachelor": 7786,
    "Ġbrightly": 13222,
    "allen": 22193,
    "Ġxerxes": 23409,
    "missing": 13217,
    "rants": 13777,
    "Ġnightfall": 23127,
    "Ġmonday": 6127,
    "Ġtradesmen": 17105,
    "Ġcounterbalance": 24722,
    "Ġvit": 10245,
    "Ġdamps": 23473,
    "Ġagreeably": 24952,
    "Ġsafe": 5103,
    "Ġestimable": 23870,
    "ger": 1104,
    "Ġobeying": 13413,
    "cav": 17507,
    "Ġvortex": 26208,
    "onday": 6063,
    "Ġsets": 8773,
    "Ġlodger": 24092,
    "wherefore": 19108,
    "Ġsmile": 4272,
    "Ġluckless": 16797,
    "Ġwr": 1541,
    "irra": 15782,
    "Ġtowns": 11173,
    "Ġsoar": 18279,
    "Ġsigns": 2443,
    "Ġlomb": 21556,
    "Ġusher": 22210,
    "Ġfavourites": 16644,
    "Ġinsince": 23677,
    "inous": 8771,
    "Ġpassions": 7929,
    "Ġvolition": 14797,
    "Ġvideos": 13605,
    "Ġmurmured": 7481,
    "Ġwarmed": 12022,
    "tle": 2409,
    "chose": 18040,
    "Ġimpediments": 26240,
    "Ġmisanthropic": 26560,
    "othe": 2616,
    "Ġentic": 16144,
    "Ġfireboard": 23530,
    "Ġoutstretched": 14195,
    "Ġpattering": 18652,
    "Ġadjusting": 3415,
    "Ġexpressly": 16454,
    "outward": 22157,
    "presents": 18797,
    "Ġconsent": 5372,
    "Ġmetrics": 19057,
    "sence": 3310,
    "startled": 24941,
    "Ġvagabond": 20202,
    "remark": 7261,
    "athies": 22697,
    "Ġincisive": 18570,
    "Ġjeopard": 9942,
    "Ġtoils": 10185,
    "feit": 16039,
    "ĠĠĠĠĠ": 3529,
    "phys": 18715,
    "pus": 3417,
    "Ġman": 544,
    "Ġdepart": 4656,
    "Ġfronts": 20530,
    "Ġinsult": 6747,
    "gracious": 11829,
    "(-": 2981,
    "presumption": 20440,
    "rece": 21233,
    "bal": 2156,
    "Ġ9": 5900,
    "Ġwidower": 24235,
    "Ġparallel": 1413,
    "Ġbaleful": 24982,
    "Ġagreeable": 4552,
    "Ġretreat": 6069,
    "Ġscaled": 2105,
    "Ġcolle": 8923,
    "Ġjustine": 4970,
    "Ġoy": 15543,
    "Ġmic": 17797,
    "Ġtheoretically": 3568,
    "Ġdining": 6977,
    "fearfully": 25116,
    "Ġroll": 5381,
    "Ġmock": 3691,
    "Ġredundant": 16550,
    "Ġpresum": 4837,
    "slee": 17168,
    "/(": 2983,
    "Ġlicence": 25096,
    "oblivious": 26582,
    "Ġliving": 3064,
    "Ġdz": 4756,
    "Ġpremises": 10487,
    "ĠĊ": 12520,
    "Ġrecommend": 7102,
    "crew": 7545,
    "Ġpleas": 1906,
    "Ġpy": 21449,
    "Ġknocking": 10559,
    "earnest": 12397,
    "Ġrules": 1919,
    "Ġmansion": 17809,
    "Ġforwards": 12700,
    "Ġpiratical": 24801,
    "Ġweld": 8111,
    "Ġcomstock": 21848,
    "Ġmoved": 4839,
    "Ġon": 350,
    "Ġdauntless": 26336,
    "ivial": 15858,
    "Ġangelic": 19626,
    "Ġvacancies": 24345,
    "Ġchoicest": 24220,
    "sebastian": 21817,
    "Ġhinges": 15211,
    "Ġburgl": 13172,
    "propriety": 14371,
    "Ġunappalled": 22062,
    "Ġevangelist": 20337,
    "rimsh": 17027,
    "umbrance": 22115,
    "Ġostlers": 25276,
    "Ġsickly": 16774,
    "Ġcreases": 22722,
    "Ġappeased": 23194,
    "âĢ": 294,
    "Ġplead": 14454,
    "aited": 12433,
    "hills": 13735,
    "?": 35,
    "Ġbusily": 9384,
    "Ġcomputers": 2646,
    "Ġplay": 2627,
    "Ġthyself": 6602,
    "Ġdomains": 6610,
    "Ġ83": 24459,
    "Ġaffright": 9331,
    ")âĢĶâĢľ": 20742,
    "pull": 6796,
    "Ġchimer": 24602,
    "Ġwooden": 4730,
    "Ġstreaked": 19113,
    "Ġriv": 10746,
    "Ġarmchair": 8270,
    "smiled": 16614,
    "m": 81,
    "Ġopposing": 12039,
    "Ġextinguished": 10343,
    "az": 2181,
    "Ġmead": 8834,
    "Ġbrace": 11211,
    "backpropagation": 11984,
    "arily": 4128,
    "somers": 19366,
    "Ġclaps": 22339,
    "Ġalien": 14017,
    "ulation": 5458,
    "scratch": 26045,
    "Ġsea": 1207,
    "Ġparents": 6752,
    "paus": 13772,
    "Ġcher": 6129,
    "Ġflow": 1236,
    "runs": 25415,
    "Ġfarm": 7840,
    "ugging": 23288,
    "Ġintru": 15826,
    "Ġcommendation": 13609,
    "Ġenvironment": 3836,
    "mblings": 19779,
    "Ġbeamed": 23721,
    "Ġexecution": 6927,
    "hoist": 23713,
    "andering": 21864,
    "U": 57,
    "Ġcarter": 18900,
    "imag": 6990,
    "Ġtrade": 2549,
    "pidation": 18896,
    "urre": 10856,
    "Ġmemories": 14541,
    "talk": 6656,
    "Ġcab": 2634,
    "Ġboarders": 16600,
    "sets": 17660,
    "Ġfinal": 5400,
    "Ġgrown": 5628,
    "yn": 7819,
    "heeded": 13833,
    "Ġsurest": 19058,
    "pt": 387,
    "gu": 3958,
    "Ġchestnuts": 24381,
    "Ġpacific": 5153,
    "Ġont": 18116,
    "overlooked": 23323,
    "Ġsurely": 6307,
    "Ġprejudiced": 24809,
    "Ġsix": 3045,
    "Ġpossessing": 16575,
    "Ġsympath": 4861,
    "medi": 2629,
    "Ġmemoirs": 26205,
    "Ġdeploy": 2883,
    "reliable": 21239,
    "Ġcivility": 4788,
    "Ġcountenances": 11963,
    "Ġleave": 2457,
    "Ġaccompl": 5167,
    "Ġshoots": 14567,
    "calmly": 20138,
    "Ġmerchantmen": 19859,
    "Ġmember": 8585,
    "Ġcanaan": 22165,
    "Ġstraggling": 23750,
    "Ġankers": 21443,
    ".âĢĶ": 4249,
    "Ġpercept": 14222,
    "lement": 10166,
    "furn": 10091,
    "Ġbrig": 11047,
    "tea": 18741,
    "Ġstaid": 21732,
    "Ġgeneralize": 3102,
    "albatross": 15627,
    "consult": 24169,
    "sugg": 11839,
    "Ġtresses": 21174,
    "Ġmonosy": 18844,
    "Ġrepast": 16410,
    "Ġ500": 24328,
    "frisco": 16787,
    "Ġgenteel": 19979,
    "Ġfails": 13312,
    "Ġinduce": 7762,
    "urch": 3995,
    "?--": 15302,
    "Ġ41": 24080,
    "exagger": 22425,
    "Ġsolace": 16198,
    "Ġcolourless": 19568,
    "Ġhandles": 22692,
    "esteemed": 26009,
    "Ġsufficient": 2003,
    "Ġyet": 1027,
    "encoura": 15048,
    "Ġkeen": 4613,
    "Ġhieroglyph": 11969,
    "Ġliveliness": 13642,
    "Ġinfallibly": 10040,
    "Ġbelshazzar": 16223,
    "Ġactivity": 7919,
    "Ġcompared": 2228,
    "waist": 13417,
    "Ġconcentrated": 15082,
    "Ġlinguistic": 12423,
    "alcul": 15625,
    "Ġinvaluable": 10182,
    "Ġconcluded": 5658,
    "listen": 13513,
    "177": 20751,
    "Ġbiases": 2397,
    "Ġappearance": 3699,
    "Ġdifferences": 18713,
    "Ġthieves": 15633,
    "Ġlingu": 11613,
    "remental": 21246,
    "Ġforeseeing": 23449,
    "imprisonment": 23761,
    "moon": 10335,
    "Ġinvariably": 8063,
    "Ġjem": 18402,
    "Ġsullenly": 17172,
    "Ġexercising": 19906,
    "Ġparr": 22116,
    "entered": 8814,
    "Ġglens": 18853,
    "yea": 23084,
    "Ġbale": 7838,
    "Ġalter": 6542,
    "nineteenth": 26138,
    "Ġhatch": 7847,
    "Ġaccompaniments": 24482,
    "Ġfascinated": 25635,
    "Ġextracting": 11115,
    "istical": 8489,
    "Ġharder": 14448,
    "Ġmanipulation": 10658,
    "besides": 8695,
    "involuntarily": 20413,
    "Ġcharges": 23266,
    "Ġsacrificed": 17421,
    "Ġkirwin": 8496,
    "Ġtranquilly": 12288,
    "Ġdropped": 4472,
    "Ġyield": 5093,
    "Ġ21": 11199,
    "Ġsandwic": 24664,
    "Ġpills": 21464,
    "Ġvehemently": 26039,
    "Ġfewer": 16227,
    "ison": 3076,
    "Ġunpleasing": 22052,
    "Ġdigest": 24647,
    "Ġdeposition": 18611,
    "Ġbaronial": 23792,
    "Ġmyst": 4052,
    "Ġflights": 24753,
    "riet": 18180,
    "Ġappl": 1739,
    "judgment": 16753,
    "page": 13770,
    "Ġrefreshment": 17239,
    "Ġcherish": 10589,
    "Ġdistrust": 8204,
    "discrimin": 19607,
    "min": 4571,
    "Ġprevent": 757,
    "Ġrouted": 24907,
    "Ġnew": 1195,
    "ked": 5616,
    "edily": 17943,
    "readiness": 19361,
    "loveliness": 26549,
    "Ġinhuman": 13928,
    "hus": 5072,
    "Ġsembl": 19061,
    "bale": 20773,
    "smallest": 23909,
    "Ġhor": 1662,
    "Ġscorching": 20066,
    "Ġblanket": 8342,
    "Ġsple": 21214,
    "splash": 25209,
    "Ġhearts": 4972,
    "arle": 21438,
    "Ġvide": 10250,
    "Ġcouldn": 7649,
    "Ġshocks": 16457,
    "Ġtistig": 26413,
    "Ġeast": 5370,
    "Ġdeduction": 14900,
    "Ġah": 5075,
    "Ġidentified": 19150,
    "================================": 5671,
    "hastening": 24448,
    "simp": 17665,
    "Ġknowing": 4458,
    "Ġwould": 651,
    "Ġasiatic": 20428,
    "Ġhanded": 8216,
    "Ġparagra": 15877,
    "straw": 24095,
    "Ġbade": 9171,
    "stiff": 12672,
    "Ġgroping": 13664,
    "Ġdisdain": 8359,
    "Ġdisclosed": 15152,
    "apers": 3485,
    "Ġfact": 1726,
    "ised": 1109,
    "Ġverily": 16603,
    "ene": 2168,
    "Ġcollected": 2612,
    "Ġancient": 5443,
    "Ġbefallen": 12341,
    "tell": 1381,
    "||": 4869,
    "Ġcontextual": 3742,
    "Ġcorrob": 16264,
    "Ġoverspread": 14206,
    "sperm": 5203,
    "Ġbegone": 11916,
    "Ġardent": 9969,
    "Ġpermitted": 9277,
    "Ġ**": 4721,
    "e": 73,
    "Ġaverse": 11081,
    "ladder": 19783,
    "Ġaband": 6561,
    "Ġtrains": 10947,
    "venth": 9294,
    "Ġspool": 24806,
    "Ġwarning": 9058,
    "ators": 7829,
    "Ġexasperate": 20096,
    "begins": 18525,
    "ah": 1834,
    "Ġprepare": 8646,
    "Ġpope": 11601,
    "ŀ": 257,
    "Ġcave": 10785,
    "Ġfaintest": 24569,
    "Ġnice": 6676,
    "Ġoperate": 19115,
    "Ġdrenched": 12600,
    "Ġexchanging": 18131,
    "spect": 3232,
    "Ġconsequently": 8059,
    "Ġgalvan": 21614,
    "Ġensigns": 23687,
    "Ġearnestness": 12123,
    "lanterns": 17428,
    "gled": 10699,
    "achel": 7032,
    "omed": 13974,
    "Ġglaring": 11905,
    "Ġacknowledges": 24688,
    "Ġhercules": 14127,
    "properly": 24918,
    "Ġwept": 7184,
    "anely": 17836,
    "Ġcravat": 26307,
    "Ġmachinery": 20483,
    "Ġdandy": 17892,
    "Ġlean": 7606,
    "Ġpurposes": 11168,
    "Ġcalendar": 18876,
    "fleet": 15013,
    "acled": 16079,
    "bath": 13688,
    "mr": 1901,
    "Ġenthusiasm": 8064,
    "hatred": 24821,
    "asily": 13945,
    "Ġbars": 13896,
    "Ġwhistle": 9065,
    "antled": 18286,
    "Ġshar": 9249,
    "event": 8076,
    "Ġselect": 4000,
    "Ġcatastrophic": 3544,
    "Ġaud": 6661,
    "Ġfav": 1755,
    "Ġpal": 4043,
    "Ġjealousy": 13575,
    "Ġsandwiched": 26610,
    "D": 40,
    "Ġcontents": 7210,
    "bound": 6220,
    "regular": 3043,
    "mers": 9610,
    "Ġglobular": 19009,
    "Ġunidirectional": 3428,
    "Ġpenetration": 19916,
    "Ġmake": 1287,
    "Ġhot": 4258,
    "Ġdegrees": 7294,
    "season": 14033,
    "Ġhuge": 4700,
    "Ġlend": 17962,
    "Ġandes": 12638,
    "Ġassaulted": 25320,
    "Ġgirdle": 19156,
    "Ġenergy": 2554,
    "Ġcontrasting": 11154,
    "Ġwatery": 6296,
    "Ġunlab": 3790,
    "Ġlaure": 16909,
    "sheets": 14441,
    "cherish": 24552,
    "Ġspiral": 14584,
    "lotte": 3334,
    "Ġimportant": 1059,
    "ously": 2492,
    "watch": 6118,
    "appe": 2944,
    "\",": 10678,
    "iation": 7343,
    "gener": 3126,
    "Ġemphasis": 20535,
    "Ġlin": 10833,
    "Ġappointed": 20101,
    "seals": 21815,
    "prom": 6509,
    "Ġitalian": 12408,
    "Ġlacey": 10197,
    "Ġexclaimed": 4682,
    "Ġangular": 19206,
    "author": 9859,
    "Ġrepeat": 7999,
    "Ġrejection": 19982,
    "exam": 10976,
    "ouncement": 11743,
    "Ġshapes": 14108,
    "Ġhorr": 3189,
    "raint": 18317,
    "Ġtransport": 11278,
    "vate": 21108,
    "Ġblunder": 18818,
    "Ġdiabolical": 20341,
    "maged": 15392,
    "al": 292,
    "nep": 20985,
    "guarded": 13293,
    "arn": 357,
    "epend": 3318,
    "Ġgarments": 15192,
    "Ġhint": 5016,
    "Ġrelated": 3714,
    "Ġpaltry": 16692,
    "Ġshaded": 14104,
    "Ġperpendicularly": 11374,
    "Ġdisconcerted": 18561,
    "adopt": 25544,
    "rence": 5556,
    "ernsey": 8901,
    "ckinridge": 11717,
    "Ġropes": 10748,
    "Ġreduces": 2343,
    "Ġtou": 15465,
    "derness": 11735,
    "disgrace": 16458,
    "lin": 9603,
    "emph": 21925,
    "must": 3579,
    "Ġdeclines": 23960,
    "Ġgraphs": 25463,
    "ceptible": 10958,
    "Ġprovoking": 16743,
    "Ġfaith": 5350,
    "Ġagonizing": 17238,
    "Ġexplanatory": 22199,
    "corrob": 24485,
    "abound": 15737,
    "chest": 11208,
    "Ġattested": 22621,
    "Ġdesirous": 8942,
    "Ġdepended": 9776,
    "Ġsees": 8842,
    "Ġexpand": 9306,
    "Ġjacob": 1899,
    "Ġinvaders": 23479,
    "Ġawaited": 17074,
    "Ġdoors": 6418,
    "Ġdiscovers": 4429,
    "Ġsneer": 13446,
    "fiery": 13580,
    "anct": 21356,
    "Ġshocked": 9400,
    "Ġinsincere": 26599,
    "Ġboughs": 20487,
    "Ġglaciers": 20172,
    "Ġabroad": 8865,
    "Ġlux": 8813,
    "umberland": 16837,
    "oysius": 14363,
    "Ġgang": 9207,
    "Ġwing": 6665,
    "mel": 9127,
    "Ġdoubloon": 6945,
    "rep": 5525,
    "monkey": 19169,
    "Ġinspector": 6498,
    "Ġdeity": 18137,
    "tormented": 13644,
    "Ġgratifying": 13304,
    "Ġclipping": 2441,
    "borough": 20784,
    "Ġyawn": 7610,
    "Ġagricultural": 26550,
    "Ġundet": 16704,
    "Ġhousehold": 8567,
    "delirium": 14784,
    "ographical": 16786,
    "avier": 2833,
    "osis": 18389,
    "Ġetc": 7084,
    "hel": 4814,
    "whom": 8184,
    "spirited": 19752,
    "nervous": 16276,
    "island": 10794,
    "Ġdifferently": 10388,
    "Ġ90": 24588,
    "Ġsuffoc": 18870,
    "requiem": 24856,
    "shott": 11794,
    "gentlemen": 9503,
    "Ġrucastles": 18721,
    "ge": 559,
    "mechan": 11855,
    "Ġsauce": 15888,
    "frankenstein": 11391,
    "Ġcongratulations": 10580,
    "aried": 10987,
    "Ġigniting": 25070,
    "Ġfought": 12590,
    "questioning": 16850,
    "Ġbruited": 25773,
    "Ġtech": 1689,
    "adm": 7609,
    "Ġsimilar": 4917,
    "Ġrequisition": 22639,
    "Ġcitations": 25437,
    "Ġafar": 14291,
    "Ġtremulous": 14985,
    "Ġexertions": 13409,
    "receive": 12539,
    "varieties": 23182,
    "Ġrevelry": 15135,
    "istol": 6259,
    "Ġstove": 6733,
    "Ġunderstand": 834,
    "thoroughly": 26508,
    "Ġloose": 4648,
    "ojo": 7349,
    "Ġjoosy": 23630,
    "ģ": 228,
    "Ġlastly": 16204,
    "pure": 17626,
    "warks": 5004,
    "Ġcallest": 17832,
    "prepar": 22449,
    "Ġprecise": 7075,
    "Ġlaughed": 5059,
    "Ġdusky": 13548,
    "boats": 6204,
    "ma": 1150,
    "esy": 9182,
    "and": 372,
    "Ġautomation": 13228,
    "Ġobject": 1394,
    "every": 2812,
    "Ġspence": 22123,
    "Ġblacks": 23386,
    "Ġtrembled": 8701,
    "weed": 14314,
    "Ġhandful": 9781,
    "amongst": 24672,
    "dimly": 15345,
    "Ġ184": 16607,
    "Ġconstrained": 19239,
    "Ġevian": 24292,
    "reason": 4416,
    "Ġlaug": 3628,
    "Ġolive": 12562,
    "enty": 2917,
    "humored": 19451,
    "otions": 7180,
    "Ġeth": 17716,
    "Ġdisturbance": 15012,
    "Ġwhirl": 13448,
    "Ġregret": 5561,
    "strange": 6086,
    "Ġrazor": 22652,
    "brushing": 20787,
    "Ġsouthern": 7689,
    "Ġhomely": 25219,
    "Ġdeck": 2137,
    "sur": 4523,
    "Ġmanly": 22321,
    "Ġsong": 5902,
    "Ġordinarily": 20648,
    "visitors": 13347,
    "Ġbattalions": 25776,
    "death": 6261,
    "Ġrector": 21673,
    "Ġsurvive": 9066,
    "ag": 377,
    "Ġtwos": 18657,
    "Ġfeared": 5930,
    "idation": 5022,
    "melancholy": 12351,
    "Ġ49": 24082,
    "Ġdisquiet": 18551,
    "professor": 17249,
    "Ġstructured": 2973,
    "Ġuntil": 2670,
    "ellow": 3880,
    "Ġlimber": 16478,
    "Ġreconciled": 13586,
    "bellies": 19972,
    "Ġexcess": 3345,
    "Ġod": 4440,
    "Ġexpectation": 6904,
    "intimate": 22934,
    "Ġaware": 5756,
    "Ġtrop": 7566,
    "Ġwaste": 9233,
    "mile": 17597,
    "mary": 8748,
    "Ġartistic": 18612,
    "mered": 8217,
    "Ġwrapped": 8341,
    "Ġmathemat": 3201,
    "pounds": 21024,
    "Ġbury": 12040,
    "Ġpagan": 7117,
    "Ġimpious": 15984,
    "Ġindependent": 9015,
    "iary": 15369,
    "Ġglimpses": 13431,
    "agne": 21902,
    "pol": 5892,
    "Ġreadability": 2727,
    "Ġacknowledged": 7535,
    "Ġcoloured": 11045,
    "Ġrevolve": 19729,
    "Ġencounters": 19579,
    "Ġsust": 7007,
    "ju": 13740,
    "Ġcreditors": 20128,
    "attendants": 25495,
    "Ġsnarl": 25715,
    "lascar": 20959,
    "Ġdecorated": 22442,
    "hind": 20893,
    "Ġdri": 2363,
    "comes": 5394,
    "Ġreinforcement": 3223,
    "prise": 7726,
    "Ġslim": 18936,
    "unmistakable": 21892,
    "gloom": 17139,
    "Ġdow": 17886,
    "Ġsen": 9156,
    "Ġphyseter": 26586,
    "redit": 3879,
    "Ġdecent": 10978,
    "iations": 11494,
    "Ġtriumph": 5143,
    "expectations": 24276,
    "Ġborrow": 10170,
    "Ġfalling": 6915,
    "Ġassiduous": 26292,
    "scar": 9815,
    "Ġobtruded": 20721,
    "lo": 680,
    "Ġimbalance": 22171,
    "Ġadmires": 19684,
    "Ġlighted": 7063,
    "neural": 3067,
    "âĢĿâĢĶ": 5721,
    "ficial": 17548,
    "feel": 3814,
    "bott": 9105,
    "ians": 2359,
    "Ġquarters": 8619,
    "Ġwhom": 1832,
    "Ġquivers": 22410,
    "Ġembod": 14414,
    "?_": 8069,
    "Ġleaves": 5021,
    "Ġcautiously": 16977,
    "Ġpalsy": 25778,
    "hurried": 11353,
    "Ġmonotonous": 13262,
    "Ġguns": 16776,
    "Ġshow": 3405,
    "Ā": 193,
    "miserably": 24210,
    "Ġentering": 6285,
    "Ġkin": 15902,
    "Ġcurls": 22977,
    "Ġneuron": 1808,
    "fier": 9593,
    "gely": 10700,
    "Ġconcent": 8249,
    "Ġgrievous": 13260,
    "aken": 1871,
    "suited": 22636,
    "Ġindolent": 13002,
    "rifle": 21045,
    "Ġsaleve": 17390,
    "Ġtexel": 25923,
    "Ġwhiff": 21715,
    "Ġembark": 8560,
    "Ġacting": 10991,
    "Ġswaths": 23055,
    "Ġprobably": 4316,
    "best": 6111,
    "G": 43,
    "Ġposterity": 17401,
    "Ġseasonable": 24406,
    "Ġwaited": 4908,
    "w": 91,
    "Ġevince": 24293,
    "Ġwhalebone": 10977,
    "Ġconvey": 9980,
    "Ġevalu": 3180,
    "Ġcast": 3607,
    "Ġpiping": 23224,
    "Ġwafted": 14499,
    "Ġpartaking": 22694,
    "Ġrafters": 22653,
    "through": 4026,
    "Ġdeem": 18136,
    "Ġsystem": 576,
    "Ġexhaled": 19681,
    "Ġdine": 7366,
    "caroline": 24149,
    "Ġmalignant": 14877,
    "offensive": 16397,
    "Ġresponded": 13637,
    "Ġenticing": 22741,
    "Ġcompleted": 8997,
    "Ġinsights": 13178,
    "Ġleyden": 21744,
    "Ġmention": 2987,
    "ile": 521,
    "amped": 12031,
    "Ġprocedure": 2811,
    "square": 15059,
    "Ġactively": 18654,
    "Ġextracts": 9364,
    "uberance": 25916,
    "flo": 6114,
    "Ġrun": 2354,
    "Ġtravelled": 7771,
    "Ġvic": 5236,
    "tri": 11529,
    "Ġgently": 7171,
    "Ġpurchase": 12257,
    "Ġencouraging": 2262,
    "Ġbingleys": 18995,
    "Ġ26": 10470,
    "Ġrespectfully": 18994,
    "cousins": 20116,
    "nowledge": 10289,
    "history": 15014,
    "Ġantiquities": 25598,
    "procure": 23395,
    "Ġbraided": 16581,
    "attentive": 17189,
    "rocket": 13943,
    "Ġcheerless": 16694,
    "wor": 3419,
    "Ġbase": 5013,
    "Ġintermediate": 18594,
    "Ġsiamese": 20481,
    "Ġfired": 16150,
    "serve": 13044,
    "Ġincantation": 26257,
    "Ġarchly": 22769,
    "Ġjoyously": 19345,
    "Ġshift": 2281,
    "regulated": 23466,
    "Ġtaste": 5524,
    "Ġascribed": 14854,
    "unimportant": 18159,
    "Ġranged": 10257,
    "Ġdrew": 3539,
    "Ġswayed": 15047,
    "Ġrecollected": 8310,
    "gments": 12467,
    "Ġbawling": 25945,
    "Ġexam": 3710,
    "Ġdollars": 11455,
    "Ġinstant": 2706,
    "rally": 17651,
    "just": 1699,
    "Ġroof": 6564,
    "Ġunche": 23427,
    "raise": 18011,
    "obst": 11930,
    "rupt": 3209,
    "Ġdecreases": 3412,
    "½": 126,
    "compan": 7301,
    "Ġloafer": 18299,
    "emed": 3383,
    "Ġgleaming": 24993,
    "Ġmoving": 1679,
    "Ġbales": 21387,
    "bastian": 10673,
    "Ġformation": 2943,
    "Ġsleeves": 10660,
    "bitts": 26122,
    "Ġinclude": 1876,
    "Ġfa": 4819,
    "loat": 8886,
    "impotence": 23760,
    "Ġrallied": 14095,
    "Ġedward": 19119,
    "Ġvehemence": 26566,
    "brace": 16942,
    "uary": 11537,
    "Ġgri": 17987,
    "colour": 9902,
    "Ġcasual": 11409,
    "Ġears": 4491,
    "Ġbuffaloes": 25217,
    "Ġwantonly": 22893,
    "Ġconsume": 12956,
    "tables": 19756,
    "Ġtreasure": 9558,
    "crop": 20797,
    "rive": 9706,
    "Ġlearnable": 3997,
    "truth": 9918,
    "Ġcrumb": 16440,
    "Ġthreatens": 24375,
    "Ġspurned": 12794,
    "Ġcomplement": 23709,
    "grees": 20885,
    "native": 17612,
    "Ġfall": 2988,
    "keys": 15856,
    "done": 6500,
    "cked": 2764,
    "Ġinspire": 11994,
    "Ġsumatra": 15285,
    "Ġcurse": 7668,
    "conc": 3949,
    "innacle": 7520,
    "Ġsoldier": 16920,
    "Ġamidst": 9493,
    "attending": 18916,
    "chair": 5916,
    "Ġcrests": 25685,
    "Ġwhosoever": 21716,
    "Ġinsisted": 12044,
    "Ġbrid": 6290,
    "Ġpotential": 3620,
    "lemag": 21370,
    "Ġbag": 5699,
    "vol": 727,
    "Ġripp": 11219,
    "swimming": 24258,
    "disappointed": 25191,
    "ia": 1256,
    "Ġsinful": 18948,
    "Ġvirt": 3910,
    "Ġfamiliarity": 16729,
    "etts": 12657,
    "Ġragged": 11844,
    "Ġuncomfortable": 8485,
    "Ġcriminal": 7538,
    "Ġgreen": 3053,
    "indispensable": 14209,
    "aux": 14287,
    "Ġchests": 19670,
    "Ġjeopardy": 13595,
    "Ġadditionally": 1175,
    "raid": 3280,
    "religion": 20574,
    "flutterings": 26606,
    "Ġargosy": 24273,
    "Ġderbyshire": 6586,
    "amy": 8467,
    "Ġmaketh": 15186,
    "Ġjustification": 22963,
    "Ġtapping": 10752,
    "stirring": 20424,
    "distrust": 19569,
    "Ġconfronted": 23306,
    "Ġscope": 15942,
    "Ġindia": 10370,
    "lemency": 21372,
    "Ġwaggish": 25434,
    "Ġhumanity": 6731,
    "Ġsurm": 7477,
    "Ġdelic": 4136,
    "sleeping": 13453,
    "Ġdated": 10939,
    "Ġdiscretion": 10347,
    "Ġuniversity": 13120,
    "Ġimpact": 10296,
    "Ġbashee": 19848,
    "Ġabominable": 12320,
    "Ġparis": 8178,
    "Ġlashings": 25097,
    "Ġterminated": 23507,
    "Ġfaithfulness": 24446,
    "Ġparmacetti": 20603,
    "Ġguinea": 8947,
    "Ġtiny": 11552,
    "Ġpattered": 19016,
    "Ġemotion": 7690,
    "Ġenterprise": 8641,
    "Ġpresents": 8244,
    "Ġspires": 11728,
    "Ġnoticing": 18224,
    "commanded": 16988,
    "venty": 6427,
    "Ġunluck": 8484,
    "liable": 3820,
    "Ġserves": 4668,
    "stricken": 9883,
    "cocks": 23560,
    "tis": 4108,
    "Ġbear": 3658,
    "Ġrepl": 1588,
    "Ġm": 274,
    "Ġoffend": 16142,
    "ear": 8730,
    "clu": 20798,
    "Ġpurpose": 2711,
    "Ġcannon": 14153,
    "Ġforeseen": 16443,
    "assin": 22301,
    "Ġconcert": 11965,
    "intern": 23735,
    "ifix": 21900,
    "Ġsolutions": 1947,
    "custom": 15332,
    "hum": 3780,
    "itation": 1782,
    "Ġimmens": 9938,
    "Ġprey": 6415,
    "Ġpause": 5707,
    "heard": 5009,
    "Ġlessened": 19087,
    "Ġjoking": 12834,
    "pay": 10718,
    "Ġdrunk": 9423,
    "Ġresidence": 8206,
    "Ġconnivance": 25225,
    "Ġthoroughly": 8347,
    "Ġghastly": 10059,
    "Ġclothed": 19605,
    "Ġbrandy": 11049,
    "acks": 11786,
    "Ġcordage": 19677,
    "resting": 23234,
    "Ġsearch": 2591,
    "mockery": 24378,
    "aning": 2251,
    "Ġundo": 15838,
    "Ġfleetness": 20178,
    "Ġbask": 8116,
    "Ġundertaking": 8573,
    "Ġsleeps": 10446,
    "ruct": 696,
    "ty": 999,
    "tall": 17673,
    "Ġalliance": 18235,
    "Ġdeline": 16331,
    "Ġtorch": 25030,
    "olds": 9310,
    "Ġcraven": 16469,
    "emin": 8470,
    "onsensical": 18576,
    "chie": 21687,
    "Ġunperceived": 22034,
    "precipitance": 25867,
    "Ġmonarch": 14412,
    "Ġjune": 10288,
    "third": 8167,
    "_": 67,
    "Ġzoology": 22818,
    "Ġadvantages": 9807,
    "Ġprivile": 8645,
    "Ġsucceed": 4545,
    "expound": 23662,
    "Ġtortured": 14923,
    "Ġwhen": 514,
    "âĢĶ(": 15936,
    "ster": 1952,
    "Ġrods": 9753,
    "Ġkate": 15903,
    "Ġnewfoundland": 26569,
    "Ġleviathans": 8281,
    "Ġtarget": 2823,
    "Ġpips": 9846,
    "Ġcleans": 18947,
    "Ġguilty": 7250,
    "hammock": 16352,
    "Ġcripple": 11440,
    "ronted": 14876,
    "Ġalone": 2569,
    "doubtful": 24791,
    "Ġsagaciously": 24731,
    "future": 13716,
    "edy": 2861,
    "inf": 6232,
    "cun": 20794,
    "Ġrefuse": 5739,
    "anum": 17835,
    "notches": 22745,
    "landsmen": 25059,
    "Ġsurveying": 25325,
    "discredit": 24250,
    "grounds": 11151,
    "Ġdistressing": 12216,
    "rosc": 17954,
    "Ġspaniards": 25555,
    "Ġdictate": 20150,
    "Ġmethodically": 23191,
    "Ġincred": 5646,
    "Ġmerchant": 6467,
    "allers": 22194,
    "Ġdanced": 7842,
    "Ġwildly": 9413,
    "Ġshilling": 18228,
    "Ġmouths": 7492,
    "rubber": 12809,
    "sworn": 24256,
    "dam": 7797,
    "Ġconstables": 19072,
    "reat": 619,
    "Ġwrecks": 16818,
    "Ġspoils": 24808,
    "Ġsteed": 13038,
    "Ġwhirled": 14959,
    "Ġlead": 3525,
    "Ġconstraint": 16513,
    "Ġresembles": 25969,
    "Ġsufficiently": 8973,
    "Ġdried": 7367,
    "Ġweep": 7620,
    "oam": 8751,
    "Ġtheme": 16017,
    "Ġeddies": 23436,
    "Ġfreshet": 25704,
    "Ġcum": 21340,
    "ringle": 21039,
    "Ġcrony": 23439,
    "Ġbeaufort": 13567,
    "Ġhandy": 12933,
    "Ġstarboard": 7605,
    "Ġschoolboys": 24481,
    "Ġdischar": 11806,
    "Ġnegatived": 23043,
    "Ġrudeness": 17124,
    "Ġmorris": 18843,
    "speps": 14332,
    "Ġrecourse": 22735,
    "rations": 10723,
    "Ġbilliard": 16689,
    "Ġbalmoral": 16206,
    "Ġgoethe": 22419,
    "Ġnotions": 14098,
    "Ġcharnel": 22249,
    "Ġbaltic": 18795,
    "Ġsyllable": 9727,
    "thur": 7188,
    "Ġwestern": 10654,
    "gratulation": 24349,
    "civility": 17513,
    "mod": 1052,
    "mouth": 9130,
    "Ġsubsc": 22786,
    "Ġsage": 17752,
    "Ġcorrect": 2432,
    "ollion": 19714,
    "Ġpreferred": 14965,
    "Ġmatrices": 4969,
    "izon": 18133,
    "lord": 3867,
    "Ġrepulses": 26070,
    "Ġsearching": 13161,
    "Ġrelate": 6875,
    "Ġcontributes": 15249,
    "ization": 486,
    "Ġfiver": 22774,
    "prove": 11147,
    "onym": 14649,
    "Ġrepresentations": 1877,
    "/": 19,
    "matic": 4618,
    "ucy": 15443,
    "uring": 819,
    "Ġmourning": 13477,
    "invite": 25088,
    "Ġaccounting": 14572,
    "Ġgasped": 11372,
    "Ġsheets": 9721,
    "Ġperpendicular": 7209,
    "oted": 4597,
    "blasted": 20188,
    "z": 94,
    "ĠĠĠ": 2114,
    "seven": 8463,
    "Ġminor": 12965,
    "Ġgeological": 14533,
    "brit": 19197,
    "bulk": 19923,
    "Ġcommissionaire": 17000,
    "Ġbackbone": 22657,
    "Ġattics": 22620,
    "cabinet": 25077,
    "cheerful": 13574,
    "Ġmurmuring": 23578,
    "Ġintroducing": 11974,
    "Ġmccarthy": 5145,
    "Ġdocumentation": 20553,
    "Ġdetection": 3287,
    "Ġsixteen": 8282,
    "Ġmanual": 14197,
    "stirred": 20423,
    "longing": 23725,
    "Ġsoften": 23120,
    "Ġsay": 934,
    "Ġcommerce": 11015,
    "Ġpie": 13914,
    "hers": 7636,
    "Ġrapid": 1447,
    "Ġpel": 17904,
    "personal": 24963,
    "heaving": 21206,
    "Ġyarman": 12702,
    "rises": 17655,
    "Ġdome": 15586,
    "Ġpatron": 7462,
    "Ġsax": 10929,
    "Ġwhis": 3507,
    "flu": 9117,
    "abama": 12706,
    "¢": 100,
    "Ġapproximates": 2417,
    "Ġfrighten": 13277,
    "Ġdollar": 25283,
    "Ġseventy": 7879,
    "Ġdined": 9176,
    "clean": 14759,
    "Ġphysical": 7523,
    "Ġmont": 8557,
    "sprit": 11382,
    "Ġsequentially": 4914,
    "Ġcommon": 1412,
    "Ġpained": 19166,
    "oles": 21004,
    "Ġexplore": 15906,
    "acknowledged": 15201,
    "charming": 15703,
    "Ġtemper": 957,
    "farintosh": 24553,
    "Ġplaited": 14282,
    "Ġranging": 8478,
    "Ġeffusion": 22483,
    "narrowly": 20346,
    "Ġpolite": 9881,
    "cele": 21622,
    "Ġgroups": 3718,
    "Ġcompetent": 11814,
    "ĠĠĠĠĠĠĠĠĠĠĠĠĠĠĠĠĠĠĠ": 22947,
    "useless": 14594,
    "Ġdrawing": 3920,
    "Ġbulge": 23855,
    "Ġfrivolous": 26176,
    "Ġexposes": 22622,
    "Ġor": 437,
    "Ġovertake": 15971,
    "od": 355,
    "Ġwreath": 25936,
    "Ġhorses": 6385,
    "ē": 212,
    "elements": 25203,
    "Ġverbal": 19377,
    "lid": 20944,
    "acc": 2536,
    "Ġexcl": 3478,
    "Ġsome": 655,
    "wickham": 5883,
    "+": 15,
    "Ġfrigate": 13080,
    "Ġmacro": 25939,
    "wil": 8395,
    "udding": 11863,
    "Ġ1778": 25730,
    "Ġascended": 8665,
    "created": 12448,
    "Ġfortun": 4982,
    "Ġtoilings": 24742,
    "Ġgiver": 21602,
    "Ġengravings": 15064,
    "abular": 4762,
    "Ġpenet": 6888,
    "washed": 13043,
    "ilogue": 21721,
    "Ġquiet": 3262,
    "Ġseeks": 14302,
    "leness": 4691,
    "scept": 21052,
    "better": 7119,
    "poled": 22904,
    "Ġshrimp": 24157,
    "deeply": 16181,
    "Ġcollateral": 20070,
    "olera": 21830,
    "Ġindistinctly": 26117,
    "ullen": 8234,
    "scence": 14418,
    "Đ": 209,
    "Ġintrodu": 1925,
    "fore": 685,
    "Ġlancaster": 26340,
    "Ġerrand": 11085,
    "oided": 11508,
    "Ġrambling": 18644,
    "towns": 24854,
    "projecting": 26073,
    "coal": 12023,
    "Ġhyper": 19738,
    "Ġcollect": 7237,
    "reproach": 15185,
    "igger": 21698,
    "ites": 3901,
    "speech": 10666,
    "scythes": 26402,
    "response": 25762,
    "sigma": 3004,
    "Ġform": 1023,
    "dec": 3113,
    "Ġinvestigations": 17246,
    "kitty": 10105,
    "xic": 9145,
    "Ġtongs": 9960,
    "inspector": 13645,
    "unusual": 21876,
    "Ġcomplain": 6685,
    "Ġapril": 13661,
    "Ġperuvian": 18453,
    "second": 6543,
    "palms": 25262,
    "Ġunsub": 22020,
    "Ġtor": 8105,
    "oub": 1632,
    "Ġmorbidness": 20627,
    "Ġmerited": 23730,
    "Ġpartake": 18670,
    "Ġinvade": 19142,
    "alty": 17938,
    "olerable": 7182,
    "Ġclothe": 4712,
    "Ġshutter": 16670,
    "Ġmalays": 19676,
    "Ġharris": 13926,
    "Ġaims": 15495,
    "Ġcrab": 13143,
    "Ġastronomy": 25926,
    "Ġnow": 692,
    "Ġmishap": 20575,
    "serv": 7451,
    "union": 15767,
    "Ġserving": 14485,
    "Ġseats": 14088,
    "Ġconver": 804,
    "Ġcharms": 11130,
    "Ġobstin": 14952,
    "athered": 6972,
    "Ġdefence": 11067,
    "Ġvisits": 8222,
    "Ġmaiden": 13385,
    "Ġkeeping": 7283,
    "Ġshakespeare": 20306,
    "ifer": 11683,
    "Ġgilder": 21610,
    "Ġcustomary": 8669,
    "Ġsatur": 1930,
    "Ġsuperiority": 14617,
    "rasing": 21044,
    "Ġscreaming": 13422,
    "Ġtiles": 17726,
    "Ġrepent": 9862,
    "Ġgrave": 5100,
    "puzz": 17640,
    "Ġmcc": 21305,
    "Ġexecutors": 19532,
    "eteenth": 20156,
    "Ġfierce": 7437,
    "namely": 23706,
    "Ġpistol": 7846,
    "Ġbid": 6131,
    "Ġgrandeur": 8627,
    "Ġslewed": 23383,
    "moil": 22700,
    "Ġlost": 2637,
    "Ġadmiring": 16479,
    "travelling": 24317,
    "Ġplaymate": 23636,
    "ellig": 525,
    "Ġpersistence": 3012,
    "Ġnar": 7375,
    "green": 7115,
    "acknowledge": 18471,
    "ruit": 22184,
    "Ġbells": 19600,
    "Ġgreatest": 4096,
    "rant": 11516,
    "Ġchewed": 16371,
    "advent": 10220,
    "Ġash": 4832,
    "Ġgemini": 26469,
    "untarily": 6312,
    "Ġdefile": 18823,
    "Ġpriests": 15040,
    "cho": 2762,
    "merchant": 10467,
    "trucks": 25419,
    "judged": 14830,
    "sake": 13782,
    "Ġlitter": 19828,
    "Ġdelineate": 26057,
    "Ġcomprehensive": 15086,
    "watches": 14946,
    "Ġeternity": 12276,
    "Ġarrogance": 26231,
    "alas": 8803,
    "Ġtutored": 20126,
    "formation": 22218,
    "Ġberyls": 25775,
    "joint": 24006,
    "ulating": 10887,
    "Ġhuman": 1319,
    "ption": 7398,
    "Ġtipped": 17728,
    "Ġthrown": 4639,
    "Ġverdict": 13474,
    "Ġplainpalais": 20736,
    "Ġspo": 6846,
    "Ġtribes": 20479,
    "Ġmeasurement": 19421,
    "Ġfan": 2035,
    "obtain": 23090,
    "Ġstag": 6148,
    "Ġtint": 13816,
    "ore": 418,
    "Ŀ": 256,
    "Ġirreducible": 5519,
    "hies": 17560,
    "Ġmeet": 2806,
    "blunder": 24130,
    "à": 161,
    "Ġconstrued": 26301,
    "Ġfraud": 19034,
    "Ġgracechurch": 12196,
    "made": 4808,
    "moby": 8536,
    "Ġfrequ": 3331,
    "etting": 21577,
    "Ġlav": 13949,
    "catch": 17506,
    "Ġharshly": 25249,
    "iving": 1723,
    "Ġrespecting": 14483,
    "umbent": 12093,
    "Ġcabinets": 23860,
    "Ġubiquitous": 26195,
    "shape": 10983,
    "Ġas": 374,
    "Ġfetch": 7769,
    "flow": 2274,
    "iosity": 2357,
    "Ġtrotting": 19974,
    "Ġamends": 14245,
    "bur": 4687,
    "crossing": 19409,
    "asses": 7016,
    "Ġpencil": 11941,
    "Ġhauling": 14086,
    "Ġslaughter": 20729,
    "Ġappellation": 22215,
    "Ġdistantly": 18531,
    "Ġcheerfulness": 10516,
    "Ġretained": 7173,
    "family": 7324,
    "Ġspiced": 22130,
    "Ġsqualls": 17020,
    "Ġexposed": 8522,
    "Ġaccounts": 7207,
    "Ġunlucky": 10049,
    "sell": 13780,
    "Ġdismember": 20214,
    "Ġwaters": 3597,
    "Ġtimidity": 24687,
    "Ġlingered": 13504,
    "Ġyoung": 1507,
    "entric": 11618,
    "compass": 9459,
    "wrong": 13205,
    "Ġwrapt": 24595,
    "fish": 3518,
    "Ġdeformity": 11675,
    "Ġwhaleman": 4654,
    "Ġunflinching": 26512,
    "annica": 24561,
    "Ġmaritime": 23035,
    "stige": 21658,
    "amouch": 21842,
    "approaching": 15011,
    "itated": 4441,
    "Ġdrags": 16941,
    "keel": 14128,
    "£": 101,
    "augmented": 26286,
    "Ġidentify": 12012,
    "ational": 5716,
    "Ġpeaceful": 9455,
    "Ġpoison": 7219,
    "pitching": 24076,
    "accompl": 9879,
    "guessed": 25872,
    "Ġthrone": 12211,
    "Ġsure": 1867,
    "Ġoffice": 4965,
    "Ġdrawled": 23986,
    "Ġblotting": 25313,
    "Ġdisease": 14257,
    "Ġwalled": 15533,
    "Ġmagnitude": 1943,
    "Ġbennet": 1571,
    "Ġarc": 14158,
    "Ġthunders": 15635,
    "borrowed": 20791,
    "Ġcusack": 26433,
    "Ġremarking": 13123,
    "Ġdenied": 9000,
    "Ġpile": 8423,
    "Ġplow": 21457,
    "Ġrucastle": 5176,
    "?âĢĿâĢĶ": 12892,
    "Ġstroke": 6936,
    "Ġtrades": 8231,
    "gain": 8736,
    "Ġrule": 1533,
    "Ġphyset": 23197,
    "Ġproceeded": 5335,
    "amidst": 25652,
    "Ġjoint": 12032,
    "amore": 21840,
    "Ġmuskets": 17057,
    "Ġgash": 15668,
    "Ġsuddenness": 23380,
    "Ġunspeakable": 10055,
    "refusal": 24736,
    "proble": 9393,
    "Ġliber": 5168,
    "ui": 9144,
    "Ġbil": 15562,
    "lacings": 26134,
    "Ġwelcome": 5604,
    "rossed": 11012,
    "Ġgale": 5822,
    "constable": 24605,
    "spades": 14331,
    "faint": 17545,
    "neurons": 3135,
    "Ġcastaway": 16640,
    "Ġactivation": 918,
    "Ġwrecked": 9965,
    "utarch": 15659,
    "gument": 20884,
    "Ġrival": 10485,
    "Ġanalytical": 22885,
    "âĢĶ": 517,
    "inferences": 17739,
    "Ġstup": 14004,
    "sadly": 25526,
    "Ġcompetition": 14266,
    "Ġaint": 17744,
    "Ġcannot": 1667,
    "against": 5870,
    "ulty": 22564,
    "Ġbristles": 25843,
    "Ġregal": 16067,
    "Ġwonderfully": 10430,
    "Ġcongrat": 5827,
    "Ġweigh": 10894,
    "Ġsuav": 22084,
    "ning": 950,
    "stairs": 5155,
    "Ġpor": 5225,
    "alley": 23021,
    "lording": 24049,
    "Ġintelligences": 12828,
    "Ġprodig": 6027,
    "Ġcrosses": 23059,
    "Ġcarpets": 18902,
    "Ġupwards": 7634,
    "Ġpounds": 5368,
    "Ġgrudge": 20692,
    "Ġverses": 17064,
    "Ġdeterm": 1271,
    "Ġprogram": 12990,
    "maltese": 24795,
    "colnett": 19329,
    "Ġquar": 3114,
    "www": 17251,
    "ilst": 8143,
    "ash": 1992,
    "Ć": 199,
    "Ġexpectantly": 23523,
    "Ġofficious": 19346,
    "Ġardu": 22175,
    "planted": 11694,
    "heric": 15909,
    "adding": 21756,
    "Ġwheeling": 18288,
    "hurry": 24763,
    "Ġframe": 1944,
    "draughts": 20386,
    "lakeman": 13750,
    "vings": 9750,
    "Ġbehalf": 14508,
    "circ": 4390,
    "Ġcleat": 18946,
    "whel": 7665,
    "mon": 2307,
    "property": 19998,
    "Ġ14": 9322,
    "Ġfrankenstein": 7095,
    "wed": 5003,
    "Ġimprisonment": 22384,
    "Ġcurios": 18849,
    "Ġreve": 2933,
    "Ġerudite": 26350,
    "Ġdesert": 6726,
    "Ġ58": 24326,
    "Ġlabyrinth": 13678,
    "Ġstarry": 16923,
    "supplied": 10519,
    "sciss": 18857,
    "Ġroots": 11185,
    "bler": 11472,
    "englishman": 23675,
    "Ġmoulded": 16975,
    "icide": 11617,
    "tremble": 17141,
    "childhood": 16868,
    "girls": 12317,
    "Ġglu": 15665,
    "Ġformer": 3326,
    "anim": 6522,
    "asions": 12648,
    "Ġconstru": 19071,
    "agery": 21904,
    "Ġdecomp": 3813,
    "vocation": 25084,
    "abeth": 905,
    "Ġincome": 7916,
    "iter": 4393,
    "Ġfiftieth": 24703,
    "Ġrises": 9712,
    "scho": 8759,
    "Ġtomb": 8807,
    "america": 17097,
    "Ġmonoman": 7938,
    "Ġinsignificant": 20455,
    "we": 847,
    "Ġcircumn": 11982,
    "finding": 17013,
    "Ġvalues": 2652,
    "anged": 3589,
    "enth": 6680,
    "Ġcell": 6237,
    "À": 129,
    "Ġdownwards": 8529,
    "noted": 22744,
    "dman": 10088,
    "Ġserenely": 13506,
    "Ġblaze": 16218,
    "Ġindoors": 18836,
    "ails": 6160,
    "tt": 13789,
    "bel": 3838,
    "Ġchannel": 26012,
    "Ġeffaced": 18516,
    "Ġdrive": 5055,
    "Ġfluttered": 16250,
    "painter": 24896,
    "Ġbowls": 23769,
    "Ġevaluate": 3247,
    "enges": 13051,
    "ny": 4017,
    "Ġtorn": 5999,
    "Ġborder": 10169,
    "Ġincredulity": 11311,
    "Ġconvulsively": 25717,
    "Ġintervals": 5598,
    "Ġbelieved": 4369,
    "common": 4130,
    "Ġturing": 7567,
    "Ġgentleness": 8709,
    "Ġembodiment": 20526,
    "Ġzeros": 3328,
    "uries": 6147,
    "Ġpowder": 11275,
    "Ġphysiology": 25332,
    "Ġmen": 1431,
    "Ġsomewhat": 4897,
    "theast": 21745,
    "stained": 21652,
    "ker": 5792,
    "security": 26206,
    "Ġwarped": 25035,
    "Ġattaining": 15801,
    "Ġagony": 5388,
    "ġ": 226,
    "Ġdair": 17889,
    "Ġabout": 632,
    "wing": 2521,
    "Ġstride": 22611,
    "Ġvex": 5948,
    "Ġinvestigation": 9042,
    "Ġunderneath": 16336,
    "Ġintention": 5638,
    "Ġbattering": 13900,
    "_).": 5886,
    "Ġreader": 11932,
    "ounded": 9747,
    "almost": 4943,
    "self": 617,
    "rab": 7597,
    "Ġmiller": 19882,
    "Ġobserving": 6080,
    "Ġpurses": 23475,
    "agos": 21901,
    "Ġthanks": 6707,
    "riumph": 4919,
    "Ġmitigates": 3052,
    "Ġalbino": 20501,
    "Ġjun": 8505,
    "Ġdispose": 23877,
    "Ġgallant": 8654,
    "Ġextinguish": 14341,
    "Ġmonomania": 17085,
    "consternation": 16912,
    "Ġfeathers": 15118,
    "Ġgiddy": 20495,
    "dest": 4106,
    "Ġdiverted": 14592,
    "Ġabusive": 22270,
    "tried": 13793,
    "bohem": 19001,
    "I": 45,
    "asets": 2308,
    "Ġoverfitting": 1540,
    "tacit": 21097,
    "Ġgodly": 19080,
    "Ġsty": 6251,
    "Ġeverything": 3154,
    "Ġled": 3524,
    "hob": 20899,
    "commun": 15033,
    "Ġunfailing": 24112,
    "Ġsimpleton": 16333,
    "Ġturner": 7049,
    "Ġcanal": 8181,
    "odes": 18119,
    "Ġfurthest": 22813,
    "Ġgloomily": 14800,
    "Ġmadame": 13149,
    "Ġbody": 2437,
    "batt": 20777,
    "igating": 21697,
    "Ġscrew": 8867,
    "Ġluxuries": 25163,
    "Ġkilled": 4955,
    "Ġcanterbury": 22166,
    "inaw": 21182,
    "kne": 20934,
    "Ġcasked": 24497,
    "Ġsocietal": 11436,
    "Ġmot": 2986,
    "Ġexceed": 1347,
    "Ġrobert": 10970,
    "Ġimperfect": 13338,
    "Ġfranc": 16350,
    "Ġplanisp": 24056,
    "herald": 22202,
    "Ġhealthcare": 8015,
    "accomplishments": 25326,
    "Ġkingdom": 12017,
    "deserted": 18958,
    "Ġtumble": 16879,
    "Ġ134": 24784,
    "beautiful": 10648,
    "rices": 4559,
    "cstasy": 11445,
    "Ġwolfish": 25935,
    "Ġmahogany": 20576,
    "conceal": 25114,
    "Ġlucifers": 16588,
    "Ġunattended": 15841,
    "Ġperiod": 4006,
    "hands": 5966,
    "Ġafforded": 8028,
    "ively": 1292,
    "Ġcircumnavigating": 25614,
    "Ġsunset": 8962,
    "Ġattempts": 10490,
    "Ġdedicated": 19208,
    "Ġdecipher": 22443,
    "gangway": 20666,
    "news": 23129,
    "Ġredness": 19311,
    "Ġrooms": 5180,
    "Ġvect": 1222,
    "Ġfanning": 23388,
    "R": 54,
    "tre": 8760,
    "Ġentitled": 8538,
    "Ġacutely": 14313,
    "Ġpret": 3037,
    "evident": 25520,
    "8": 28,
    "Ġchurches": 12825,
    "Ġjura": 14192,
    "icles": 17972,
    "Ġinvolve": 11041,
    "Ġcautious": 12251,
    "Ġsalisbury": 24062,
    "Ġseized": 4833,
    "t": 88,
    "Ġmeaning": 1414,
    "Ġflip": 11912,
    "Ġpoints": 5247,
    "empl": 5724,
    "itancy": 21331,
    "Ù": 154,
    "hetically": 21207,
    "Ġthack": 21514,
    "omination": 21639,
    "civilities": 24971,
    "spanish": 14330,
    "Ġdislike": 6047,
    "Ġstanzas": 21741,
    "fth": 20855,
    "Ġtax": 13815,
    "Ġbusiness": 2232,
    "someone": 14563,
    "Ġbravest": 23838,
    "Ġlump": 21549,
    "Ġswelled": 11087,
    "ricane": 16277,
    "consol": 9761,
    "leton": 5148,
    "Ġencoun": 4512,
    "Ġconcepts": 4551,
    "follow": 5680,
    "Ġkings": 7197,
    "Ġresponsiveness": 2899,
    "money": 8749,
    "soled": 14329,
    "Ġtu": 6968,
    "Ġprank": 23218,
    "guilty": 19481,
    "whiskers": 12309,
    "sartain": 25622,
    "Ġaisle": 21200,
    "Ġball": 3624,
    "Ġkra": 18348,
    "Ġlearn": 363,
    "Ġvagueness": 25737,
    "Ġextravagant": 17278,
    "Ġwanderings": 20142,
    "Ġjurymen": 16847,
    "Ġperfect": 2558,
    "Ġshivered": 14107,
    "Ġlouisiana": 25076,
    "Ġur": 5540,
    "Ġbundle": 13425,
    "Ġharbors": 24901,
    "Ġunworth": 22033,
    "Ġhorizon": 6632,
    "Ġcaptains": 7457,
    "vour": 17699,
    "Ġenraged": 10244,
    "emason": 18186,
    "squeezing": 25913,
    "Ġescape": 2648,
    "Ġclose": 3038,
    "ĠĠĠĠĠĠ": 6414,
    "swiftly": 20550,
    "Ġcork": 12566,
    "Ġvertical": 16604,
    "Ġlory": 12649,
    "ĠâĢĶ_": 3462,
    "baden": 25615,
    "Ġcuff": 17829,
    "Ġscorch": 20065,
    "Ġderiv": 1735,
    "Ġcomplying": 18584,
    "Ġimbecile": 17391,
    "Ġremaining": 6188,
    "she": 1396,
    "Ġopinion": 3142,
    "thank": 4950,
    "Ġunex": 11711,
    "neighbour": 7211,
    "merit": 19281,
    "Ġpeddler": 24800,
    "minute": 11274,
    "Ġarise": 7895,
    "unalterable": 21883,
    "Ġsolving": 2483,
    "Ġfaded": 10809,
    "Ġpredomin": 16045,
    "Ġcrossing": 7253,
    "Ġmachines": 1778,
    "Ġcharley": 19005,
    "apparent": 11042,
    "Ġembracing": 14979,
    "Ġrachel": 11845,
    "Ġj": 533,
    "charge": 9448,
    "Ġsignifies": 19203,
    "plan": 15812,
    "Ġpresentiment": 18988,
    "waves": 10742,
    "Ġclues": 18419,
    "repressed": 21242,
    "forgetting": 25485,
    "words": 7982,
    "Ġseizure": 21961,
    "Ġdumbly": 24985,
    "Ġbad": 3990,
    "Ġstamping": 20029,
    "hee": 10760,
    "leaned": 21367,
    "Ġreligions": 20106,
    "Ġostr": 21323,
    "Ġinsects": 25646,
    "Ġcrushed": 9422,
    "pond": 21012,
    "Ġtex": 15471,
    "ctu": 5088,
    "apes": 9740,
    "Ġdishonoured": 20389,
    "carte": 25400,
    "legs": 13181,
    "âĢĶâĢľ": 2971,
    "exercise": 17459,
    "freighted": 14891,
    "Ġinsip": 19266,
    "Ġmor": 1246,
    "Ġsnorting": 23740,
    "Ġconvent": 11667,
    "Ġmim": 3107,
    "dat": 1625,
    "Ġbat": 10795,
    "onic": 7827,
    "Ġmemorand": 23403,
    "directed": 20403,
    "repe": 8775,
    "stealthily": 23959,
    "irs": 14069,
    "Ġhealthful": 24057,
    "ivities": 22074,
    "Ġthreats": 13376,
    "Ġbubb": 12581,
    "wonderful": 16960,
    "injury": 25213,
    "dependence": 17167,
    "Ġstowing": 18071,
    "Ġguise": 14431,
    "Ġprivilege": 11419,
    "Ġstur": 15714,
    "Ġpalsied": 25779,
    "plete": 10919,
    "Ġco": 732,
    "Ġfishing": 9662,
    "Ġshaster": 21995,
    "usually": 10284,
    "Ġprofessional": 7299,
    "angs": 5833,
    "Ġduty": 4074,
    "Ġstepfather": 7221,
    "hil": 8378,
    "Ġknife": 7309,
    "Ġpaddock": 25037,
    "Ġindies": 22948,
    "superst": 11325,
    "Ġcretan": 22723,
    "Ġtend": 6120,
    "Ġregain": 22571,
    "Ġtremor": 24768,
    "Ġvers": 7564,
    "canst": 22958,
    "Ġstolen": 14006,
    "succeed": 10328,
    "atoes": 17775,
    "Ġdrives": 14577,
    "Ġknows": 4162,
    "eded": 9673,
    "Ġheaps": 11641,
    "Ġbony": 12584,
    "Ġwith": 349,
    "uch": 878,
    "Ġcasement": 25092,
    "fanc": 20863,
    "quired": 21852,
    "Ġmeagre": 21807,
    "Ġvoc": 4452,
    "Ġmedicine": 15204,
    "Ġeach": 891,
    "Ġsixth": 16558,
    "Ġadmirable": 8268,
    "Ġinclinations": 19538,
    "Ġsucc": 12783,
    "Ġenriched": 26499,
    "Ġcarr": 23087,
    "riminately": 16482,
    "Ġwhirling": 12246,
    "Ġeu": 6390,
    "Ġsuitable": 18283,
    "Ġconstrain": 2630,
    "Ġghosts": 12230,
    "ultural": 22565,
    "Ġbroom": 18906,
    "furthermore": 20002,
    "ĠâĢľ_": 6696,
    "neighbours": 24881,
    "Ġslumbering": 25701,
    "indignation": 18438,
    "Ġsqu": 1036,
    "Ġextra": 4058,
    "Ġtime": 688,
    "Ġrio": 23889,
    "Ġsheaves": 22155,
    "Ġsoothed": 10028,
    "Ġprecipice": 19939,
    "Ġpurest": 14938,
    "Ġtist": 21161,
    "Ġmanaged": 7905,
    "âĢĻ!âĢĿ": 18173,
    "Ġgrowth": 14629,
    "Ġbrick": 8925,
    "Ë": 140,
    "Ġliberal": 12188,
    "Ġapprehen": 16829,
    "Ġcalmly": 7733,
    "lively": 12482,
    "description": 11094,
    "ste": 3586,
    "eld": 964,
    "odecimo": 11444,
    "atiable": 17774,
    "Ġreasonably": 11091,
    "curious": 10482,
    "suggested": 17298,
    "Ġissued": 10599,
    "Ġfant": 9173,
    "Ġcolt": 11044,
    "levelled": 23645,
    "Ï": 144,
    "quakes": 21853,
    "Ġcents": 17828,
    "etuous": 21580,
    "Ġevery": 927,
    "Ġbamboo": 17436,
    "unk": 4539,
    "Ġgallery": 10524,
    "idge": 14013,
    "Ġwrenching": 17322,
    "Ġwithout": 1125,
    "Ġattached": 5392,
    "Ġloveliest": 20260,
    "dost": 14535,
    "dream": 8727,
    "Ġveget": 11884,
    "observed": 7675,
    "Ġelizabeth": 1131,
    "Ġyoungster": 23174,
    "Ġkindest": 23292,
    "ons": 710,
    "Ġfootfalls": 25866,
    "representing": 25271,
    "Ġrefusing": 11028,
    "Ġtyro": 16994,
    "Ġinsensibility": 17110,
    "Ġnotion": 7881,
    "Ġfavourably": 16363,
    "nal": 1902,
    "Ġaway": 1241,
    "ilt": 2969,
    "Ġquality": 3530,
    "Ġhermits": 22071,
    "Ġxiv": 23406,
    "print": 23809,
    "ootiful": 17372,
    "Ġmiles": 3806,
    "Ġcorrespond": 6209,
    "Ġarticle": 9501,
    "ading": 5091,
    "Ġblades": 11893,
    "Ġhorn": 6185,
    "Ġpauper": 26179,
    "branch": 23577,
    "ay": 354,
    "Ġruskin": 25809,
    "Ġretain": 7862,
    "Ġblossom": 26312,
    "Ġenlightened": 12743,
    "brevi": 24074,
    "Ġinterrupting": 19556,
    "ates": 518,
    "iscient": 17851,
    "angling": 14140,
    "burst": 10537,
    "slipping": 25528,
    "Ġinspired": 2520,
    "Ġcharm": 4548,
    "requirements": 24857,
    "Ġdom": 2635,
    "Ġcannibal": 7773,
    "Ġdeceit": 13480,
    "Ġstun": 11649,
    "Ġencapsulate": 13673,
    "Ġsuperflu": 14554,
    "amuse": 14051,
    "Ġacknowled": 6350,
    "Ġsuccor": 25662,
    "beyond": 8882,
    "combined": 20319,
    "Ġcombing": 22849,
    "accomp": 10455,
    "declare": 25173,
    "changing": 10854,
    "adv": 4537,
    "elab": 21567,
    "Ġcombines": 1163,
    "ilder": 15710,
    "Ġridge": 14818,
    "Ġdared": 5440,
    "cruet": 17026,
    "earliest": 20118,
    "Ġcompassion": 6487,
    "Ġindirect": 18835,
    "Ġanomalously": 25638,
    "Ġgrappling": 25812,
    "Ġupheld": 22149,
    "Ġprimitive": 25061,
    "partly": 14602,
    "Ġfountains": 13502,
    "Ġfemales": 14936,
    "Ġhoot": 19076,
    "Ġklan": 23661,
    "Ġhorns": 11123,
    "Ġyour": 633,
    "Ġgases": 21599,
    "Ġquench": 22416,
    "Ġvulgarity": 25363,
    "Ġautomatically": 3471,
    "Ġliterature": 17148,
    "Ġslippers": 19614,
    "Ġfiendish": 13326,
    "Ġaccurate": 13242,
    "dies": 15337,
    "Ġsolve": 4198,
    "Ġchurchyard": 16777,
    "aswag": 21543,
    "Ġscents": 22284,
    "Ġlaugh": 4116,
    "Åĵuv": 15181,
    "boil": 18999,
    "walk": 5523,
    "courageous": 26127,
    "Ġcampaign": 20660,
    "Ġsof": 18278,
    "Ġreveries": 11347,
    "Ġseems": 2482,
    "Ġfrosty": 14934,
    "Ġdevouring": 11857,
    "Ġindifferent": 6174,
    "Ġincommunicable": 26611,
    "Ġadding": 2403,
    "Ġmacy": 19353,
    "glad": 9007,
    "rop": 541,
    "Ġintolerably": 15828,
    "illar": 5101,
    "Ġmarked": 4619,
    "Ġsubstantiated": 25875,
    "Ġinstigated": 18696,
    "Ġadvis": 9806,
    "ique": 8742,
    "ometer": 19325,
    "ulties": 12898,
    "maid": 8552,
    "Ġstruggle": 3675,
    "Ġappeal": 16312,
    "Ġclimates": 25050,
    "Ġmainten": 16110,
    "Ġwool": 19431,
    "Ġglassy": 19559,
    "ĠĠĠĠĠĠĠĠĠĠĠĠĠĠĠĠĠĠĠĠĠĠĠĠĠĠĠĠĠĠĠĠĠĠĠĠĠĠĠĠĠĠĠĠĠ": 9951,
    "Ġinferior": 8365,
    "Ġtroub": 22353,
    "Ġstagger": 10591,
    "battle": 12440,
    "extinguish": 22765,
    "Ġconversed": 13187,
    "Ġdestination": 19149,
    "rows": 6442,
    "Ġcome": 1239,
    "Ġc": 277,
    "Ġgunwale": 7325,
    "stumps": 21656,
    "Ġincluding": 2850,
    "peddling": 24696,
    "bohemia": 20730,
    "Ġholiday": 12995,
    "ufact": 10733,
    "Ġspeed": 2448,
    "remarks": 23184,
    "Ġbloodshot": 23798,
    "Ġhoars": 19077,
    "Ġofficial": 7081,
    "Ġagain": 814,
    "discover": 10539,
    "arter": 17893,
    "ulations": 6028,
    "Ġcircumspect": 15083,
    "duodecimo": 16000,
    "fashioned": 9570,
    "Ġbloss": 19255,
    "Ġmisgiv": 14342,
    "coll": 23778,
    "transom": 19734,
    "Ġtherefore": 2238,
    "Ġpeleg": 3737,
    "Ġdoubt": 2222,
    "shortly": 12256,
    "assisted": 22303,
    "corrid": 24484,
    "Ġappet": 9730,
    "continuing": 24479,
    "dorff": 15236,
    "Ġacceded": 22376,
    "Ġillust": 8262,
    "aded": 3551,
    "Ġsubmission": 22787,
    "lucifer": 25301,
    "Ġsales": 12804,
    "Ġdesmarest": 22971,
    "Ġcaut": 6521,
    "Ġgates": 10200,
    "Ġhandsome": 4906,
    "ack": 616,
    "Ġwhy": 1760,
    "Ġgermans": 25784,
    "Ġstability": 1366,
    "ece": 17531,
    "Ġinstability": 3815,
    "Ġcons": 955,
    "Ġcrush": 9421,
    "elope": 14465,
    "omy": 6248,
    "uzzle": 19582,
    "Ġexterm": 21826,
    "cannibals": 25584,
    "employed": 17261,
    "Ġtrapped": 23074,
    "laws": 19806,
    "gre": 5788,
    "Ġswears": 16463,
    "Ġseverest": 14090,
    "desol": 13066,
    "lift": 15383,
    "smile": 23903,
    "Ġcirculating": 23371,
    "Ġlargest": 6282,
    "Ġduplicates": 17216,
    "canoes": 16228,
    "pervised": 1643,
    "ordingly": 18515,
    "Ġengaged": 3432,
    "owner": 18610,
    "Ġfloating": 6604,
    "mastod": 23971,
    "Ġireland": 17334,
    "Ġboil": 16102,
    "uteronomy": 15661,
    "Ġstaple": 26198,
    "board": 3567,
    "Ġungodly": 26513,
    "Ġdepress": 14047,
    "nurs": 20998,
    "touched": 15438,
    "feeling": 6616,
    "Ġexpansion": 22624,
    "Ġinter": 728,
    "intend": 16222,
    "Ġpurchases": 24756,
    "Ġwretchedly": 19505,
    "Ġspokes": 18313,
    "elstrom": 17981,
    "Ä": 133,
    "Ġmoreover": 6163,
    "idable": 8145,
    "constant": 11324,
    "¿": 128,
    "Ġforce": 5092,
    "Ġseemed": 1281,
    "illed": 2625,
    "Ġdistinct": 4609,
    "satisfaction": 9991,
    "Ġdull": 6384,
    "Ġfry": 17879,
    "Ġspices": 22127,
    "bing": 7791,
    "vent": 681,
    "rich": 11517,
    "Ġcanv": 7009,
    "Ġadvertising": 25389,
    "Ġrevolt": 24504,
    "Ġpeople": 2546,
    "Ġfloat": 12030,
    "Ġaberdeen": 26541,
    "uccas": 21105,
    "espe": 3501,
    "gn": 8081,
    "Ġclosely": 6488,
    "peace": 13046,
    "nel": 11504,
    "Ġconstitutional": 25125,
    ";": 31,
    "considered": 9580,
    "separately": 25227,
    "âĢĶ_": 3199,
    "Ġalley": 15733,
    "Ġtreacherous": 13553,
    "dressing": 11481,
    "trees": 10731,
    "Ġassistance": 6333,
    "Ġimport": 1007,
    "Ġcra": 2331,
    "Ġtriangular": 14858,
    "invisible": 17740,
    "rels": 6664,
    "Ġberyl": 20488,
    "honey": 20904,
    "Ġwhistling": 19789,
    "itively": 21329,
    "ansion": 10925,
    "Ġtomorrow": 21510,
    "Ġpage": 6978,
    "unless": 9234,
    "Ġpreventing": 882,
    "Ġrespite": 13153,
    "Ġconveniences": 19811,
    "Ġtiller": 8965,
    "ree": 872,
    "Ġunspeakably": 25172,
    ".]": 15297,
    "Ġmysticetus": 24922,
    "Ġforeb": 12002,
    "vac": 15449,
    "networks": 2405,
    "Ġexhib": 6349,
    "Ġcastors": 23973,
    "Ġsensitivity": 3071,
    "narrated": 25621,
    "admit": 18090,
    "ive": 427,
    "Ġmig": 13855,
    "Ġblooming": 17212,
    "Ġcomputations": 15997,
    "ackinaw": 22422,
    "jacket": 12290,
    "Ġprovoked": 13324,
    "Ġgradients": 610,
    "his": 1410,
    "del": 4079,
    "oyed": 14362,
    "Ġoptimization": 1434,
    "Ġbasic": 24701,
    "Ġglad": 3329,
    "Ġtwice": 4661,
    "john": 11497,
    "Ġinsensible": 12323,
    "Ġinferences": 17934,
    "eff": 2537,
    "Ġofficio": 23813,
    "Ġtransparent": 9488,
    "doing": 8584,
    "Ġgesture": 11399,
    "Ġswim": 3822,
    "Ġhauled": 11692,
    "Ġpianoforte": 15272,
    "whence": 23215,
    "shiver": 16025,
    "om": 315,
    "Ġfirmest": 16664,
    "Ġsanctified": 25883,
    "Ġem": 1924,
    "Ġtuileries": 24826,
    "Ġhast": 3150,
    "return": 5489,
    "ington": 21300,
    "commander": 16987,
    "Ġlack": 17963,
    "felicity": 25140,
    "ond": 1161,
    "Ġunsav": 18251,
    "Ġrecklessness": 24745,
    "Ġangel": 4852,
    "coffin": 10662,
    "Ġblasphemy": 26115,
    "ogrand": 26261,
    "Ġcreamy": 14328,
    "burnt": 20078,
    "Ġmisunderstood": 18701,
    "Ġsynthe": 26007,
    "Ġsupplies": 20325,
    "Ġmish": 15535,
    "bers": 2572,
    "Ġcrimes": 8588,
    "Ġslabs": 13058,
    "Ġlatitude": 8328,
    "Ġ4": 3988,
    "ologist": 22888,
    "rev": 17756,
    "Ġreferred": 8916,
    "Ġjacket": 6489,
    "Ġresearches": 13127,
    "Ġwoollen": 12101,
    "Ġelig": 9777,
    "Ġadieu": 10050,
    "Ġbizarre": 17871,
    "Ġwomen": 4750,
    "Ġgrizzled": 11450,
    "Ġvectors": 1773,
    "Ġpainted": 7978,
    "Ġquestioning": 10464,
    "Ġfailure": 13313,
    "ott": 1874,
    "Ġspatial": 2732,
    "agree": 14066,
    "gration": 9121,
    "ushing": 5730,
    "learning": 2500,
    "ods": 8835,
    "friendship": 24047,
    "Ġsuggested": 8320,
    "Ġsingled": 23771,
    "Ġforbe": 8457,
    "Ġdepression": 21838,
    "Ġspaces": 3112,
    "concl": 12866,
    "Ġbegged": 8230,
    "Ġempire": 11145,
    "Ġbrand": 16185,
    "Ġhelping": 3268,
    "Ġvib": 8164,
    "fingers": 17369,
    "authority": 13590,
    "lasting": 8010,
    "mme": 22498,
    "instant": 8651,
    "Ġcruc": 16533,
    "Ġsounded": 8590,
    "Ġsuite": 18281,
    "nam": 2836,
    "Ġunfold": 8022,
    "Ġfitzwilliam": 5771,
    "ercely": 12547,
    "covering": 15333,
    "Ġdumplings": 15189,
    "igan": 21696,
    "say": 3986,
    "Ġshadows": 8012,
    "_).âĢĶ": 8681,
    "toss": 22563,
    "Ġbelrive": 18830,
    "Ġscor": 8190,
    "Ġpanel": 13371,
    "Ġdexterity": 25294,
    "Ġincorruption": 26309,
    "Ġincluded": 8930,
    "Ġaccumulates": 2892,
    "ys": 3961,
    "peril": 18340,
    "Ġscrape": 14917,
    "antial": 8487,
    "Ġchil": 11749,
    "Ġfactory": 23274,
    "clearer": 24067,
    "Ġcontinuously": 23202,
    "Ġpreternatural": 12820,
    "viv": 17698,
    "Ĝ": 221,
    "Ġfestoon": 20293,
    "amp": 2607,
    "Ġwonders": 7501,
    "Ġlung": 7167,
    "reng": 4005,
    "Ġsold": 6002,
    "Ġlook": 880,
    "steps": 9404,
    "Ġsubst": 4274,
    "Ġgrimesby": 11457,
    "rit": 21034,
    "berries": 22716,
    "Ġstrongest": 11135,
    "compared": 24031,
    "Ġfainted": 8791,
    "dare": 12451,
    "Ġintensity": 10015,
    "_.âĢĻâĢĿ": 17479,
    "Ġkid": 9724,
    "althily": 19357,
    "Ġwhittling": 20698,
    "reast": 17758,
    "Ġsupport": 6728,
    "Ġchristians": 13307,
    "Ġbewitching": 25976,
    "Ġimpro": 910,
    "{": 95,
    "Ġfinny": 23123,
    "libra": 22922,
    "fri": 20853,
    "publ": 17638,
    "Ġrests": 13091,
    "Ġmaximizing": 3168,
    "Ġtell": 1468,
    "Ġdazed": 15593,
    "Ġreflected": 2910,
    "Ġgeneva": 5450,
    "Ġdiligently": 11405,
    "rable": 11631,
    "Ġbaker": 4696,
    "endeavoured": 12278,
    "Ġsquaring": 22834,
    "Ġreasonable": 7252,
    "Ġsped": 22122,
    "multiple": 15106,
    "Ġdiscipl": 22782,
    "bourgh": 19103,
    "Ġcloth": 9741,
    "secure": 12233,
    "Ġslung": 23163,
    "unhesitatingly": 26496,
    "Ġdispatched": 23879,
    "Ġhushed": 13924,
    "Ġstayed": 7997,
    "aways": 15309,
    "Ġimpregn": 26022,
    "Ġlvi": 21550,
    "pleasanter": 24046,
    "Ġpatronage": 17053,
    "emptied": 23634,
    "Ġfight": 5366,
    "Ġimpressions": 9552,
    "Ġschools": 9476,
    "bran": 23573,
    "Ġpart": 860,
    "sequ": 2401,
    "Ġprot": 3850,
    "Ġproportionably": 19969,
    "Ġdiscol": 12950,
    "Ġsoldiers": 8686,
    "imp": 3035,
    "Ġcop": 7580,
    "mediate": 16512,
    "fate": 17539,
    "Ġmissed": 8555,
    "Ġeucl": 24709,
    "explanations": 25234,
    "Ġfurnish": 9018,
    "Ġcandour": 14672,
    "Ġaff": 1120,
    "Ġbreathing": 9445,
    "Ġrejected": 12292,
    "hour": 7340,
    "Ġbrother": 2751,
    "Ġexpeditions": 24954,
    "fi": 12459,
    "powerful": 24847,
    "Ġinexperience": 26099,
    "romeda": 17262,
    "meeting": 11019,
    "Ġzodiac": 16173,
    "Ġderivatives": 2370,
    "ong": 537,
    "caus": 11476,
    "Ġpupils": 20419,
    "Ġtho": 21511,
    "Ġelasticity": 19557,
    "elastic": 17980,
    "Ġself": 1780,
    "Ġconc": 1842,
    "Ġleaned": 7608,
    "Ġrefusal": 10345,
    "Ġmach": 13856,
    "Ġstranger": 3489,
    "elter": 21568,
    "Ġ64": 24367,
    "kye": 20937,
    "ience": 807,
    "Ġstage": 7389,
    "Ġbethinking": 25279,
    "queen": 12724,
    "Ġyard": 5920,
    "Ġabreast": 18394,
    "hes": 1397,
    "Ġsanguinary": 25929,
    "Ġprehensile": 26534,
    "cad": 17504,
    "Ġnobody": 6158,
    "Ġhorrify": 23816,
    "Ġiv": 4046,
    "dled": 9110,
    "secondly": 16984,
    "ceive": 3065,
    "Ġactor": 16047,
    "Ġgoblet": 25823,
    "Ġlighter": 12650,
    "luding": 6700,
    "Ġpig": 5705,
    "special": 14704,
    "ask": 858,
    "Ġbeaches": 18084,
    "zza": 24167,
    "Ġgaze": 6932,
    "onstr": 12543,
    "Ġrocking": 10969,
    "Ġtrucks": 19511,
    "Ġwant": 1121,
    "Ġsticks": 14930,
    "Ġsprain": 18305,
    "Ġvane": 22871,
    "Ġarmy": 11739,
    "Ġblasphe": 17406,
    "weeks": 14315,
    "luc": 9751,
    "Ġflea": 23772,
    "Ġclasp": 9742,
    "ieves": 4008,
    "times": 8098,
    "hat": 6956,
    "Ġcruise": 12047,
    "Ġforswe": 21771,
    "visible": 10533,
    "ological": 1885,
    "Ġage": 3899,
    "insulting": 26055,
    "scy": 21054,
    "needles": 20310,
    "Ġshrunk": 16718,
    "Ġbeast": 7179,
    "Ġclang": 15960,
    "Ġtang": 13813,
    "Ġerect": 6143,
    "ould": 428,
    "Ġrejoined": 14926,
    "Ġterritories": 23843,
    "erce": 6126,
    "Ġcuts": 14607,
    "Ġban": 7156,
    "Ġbonds": 17869,
    "Ġamph": 18511,
    "Ġacquisition": 18899,
    "Ġxxxix": 24968,
    "training": 2519,
    "(": 12,
    "Ġcrop": 10162,
    "Ġleathern": 15050,
    "ĠĠĠĠĠĠĠĠĠĠĠĠĠĠĠĠĠĠĠĠĠĠĠĠĠĠĠĠĠĠĠĠĠĠĠĠĠĠĠ": 19258,
    "Ġcondescending": 24868,
    "Ġcountryside": 23595,
    "father": 3778,
    "steak": 14707,
    "Ġpitiable": 9913,
    "Ġlaud": 17967,
    "|": 96,
    "Ġintelligent": 1613,
    "Ġramad": 8527,
    "Ġneedle": 8274,
    "Ġcontext": 1729,
    "Ġsticking": 13426,
    "Ġinnocently": 24026,
    "ientific": 6547,
    "ans": 458,
    "opement": 10311,
    "ush": 3632,
    "Ġflora": 11416,
    "Ġrecurring": 23230,
    "Ġtwit": 12926,
    "dle": 3249,
    "Ġfru": 8419,
    "Ġfunny": 7638,
    "Ġrhyme": 21978,
    "bald": 16447,
    "Ġdressed": 5081,
    "Ġber": 5698,
    "thoughtfully": 24043,
    "Ġconsequent": 18110,
    "Ġadapt": 1028,
    "Ġshol": 21992,
    "Ġheavy": 3743,
    "Ġrever": 6536,
    "Ġcategorization": 12134,
    "hearted": 6970,
    "Ġtried": 3648,
    "Ġunite": 9253,
    "resolved": 9639,
    "Ġbelief": 5855,
    "solemn": 19816,
    "Ġdespite": 19351,
    "Ġstoven": 23170,
    "Ð": 145,
    "Ġquadr": 8199,
    "ote": 4596,
    "oton": 3608,
    "unted": 6998,
    "Ġworldly": 16327,
    "Ġcastaways": 19426,
    "jaw": 13742,
    "K": 47,
    "Ġmemb": 14028,
    "Ġ1883": 23894,
    "^{": 15303,
    "icant": 21559,
    "fel": 8733,
    "spirits": 8054,
    "Ġbarbed": 14834,
    "netherfield": 9812,
    "Ġneedlessly": 23628,
    "Ġsauc": 15886,
    "tain": 558,
    "Ġignorantly": 19494,
    "little": 3355,
    "Ġfail": 4151,
    "bru": 12437,
    "Ġstricken": 9775,
    "accomplishment": 20222,
    "leful": 17842,
    "Ġunrolled": 22035,
    "Ġcrown": 5287,
    "Ġblood": 3167,
    "rously": 17654,
    "Ġdeceitfulness": 25734,
    "tahit": 17692,
    "Ġrecesses": 17260,
    "ulate": 5233,
    "Ġnapkins": 25161,
    "Ġkneel": 14806,
    "crowd": 25254,
    "loud": 11500,
    "Ġswallow": 8950,
    "Ġswe": 2288,
    "Ġgibberish": 25786,
    "Ġxxxi": 24966,
    "Ġpiling": 17910,
    "Ġpushing": 10819,
    "Ġcanallers": 13626,
    "Ġbears": 6829,
    "Ġrigged": 16717,
    "direct": 12454,
    "Ġdegree": 3703,
    "_.": 2212,
    "Ġhabitation": 14802,
    "âĢľ": 344,
    "Ġmodesty": 12815,
    "Ġappre": 5165,
    "Ġhands": 1665,
    "ually": 2771,
    "Ġoutrid": 22312,
    "Ġsamuel": 10032,
    "Ġdangerous": 6613,
    "Ġemploying": 23975,
    "loved": 14250,
    "._)": 10480,
    "Ġincorporated": 25711,
    "Ġdemean": 12720,
    "room": 2178,
    "claims": 25319,
    "Ġincorporate": 20453,
    "about": 3588,
    "Ġsurpassing": 20466,
    "Ġincapable": 7423,
    "Ġunconscious": 9546,
    "Ġconstitution": 20107,
    "Ġenabling": 1079,
    "nowhere": 18418,
    "Ġcomputation": 965,
    "secret": 12234,
    "Ġ71": 24259,
    "Ġjet": 5307,
    "Ġilluminate": 17192,
    "Ġanxiously": 8289,
    "drew": 7334,
    "Ġnovember": 11747,
    "Ġparted": 5928,
    "Ġsent": 1777,
    "tha": 15821,
    "Ġlogical": 14486,
    "fordshire": 4676,
    "falsehood": 25901,
    "Ġwo": 3651,
    "phren": 22776,
    "aimed": 3954,
    "humoredly": 26324,
    "Ġthrusting": 10552,
    "oro": 21393,
    "securer": 25602,
    "Ġharpoone": 2912,
    "ret": 1474,
    "ables": 7889,
    "Ġharmony": 16814,
    "charlotte": 6473,
    "gish": 20872,
    "million": 25751,
    "arer": 3970,
    "Ġshoal": 12014,
    "Ġpersuasion": 10498,
    "Ġmingling": 20196,
    "cement": 2774,
    "Ġuninterrupted": 22043,
    "Ġoversight": 22359,
    "Ġhish": 21911,
    "Ġmagnanim": 14471,
    "Ġvouch": 15805,
    "bethink": 25744,
    "Ġtraits": 23072,
    "Ġcommission": 6712,
    "Ġplunging": 14951,
    "bab": 11468,
    "food": 12461,
    "Ġunsolved": 22030,
    "Ġdenoted": 16564,
    "Ġskylarking": 19485,
    "Ġenchanted": 9080,
    "Ġworms": 25216,
    "Ġnecessity": 7296,
    "Ġstunsail": 25543,
    "Ġpaced": 7584,
    "Ġyork": 11664,
    "Ġinspirited": 23419,
    "contrary": 23728,
    "Ġfanny": 23389,
    "Ġinnocence": 6477,
    "Ġmeanwhile": 5736,
    "anse": 12572,
    "Ġdebated": 9040,
    "Ġblacksmith": 6595,
    "Ġdevout": 14326,
    "remote": 23185,
    "fuller": 22497,
    "Ġprime": 10404,
    "bears": 22487,
    "Ġevanesc": 24294,
    "harpooned": 24286,
    "spe": 3562,
    "Ġgros": 14822,
    "cottage": 9569,
    "Ġuttering": 16461,
    "oring": 1861,
    "Ġunpitying": 25660,
    "Ġmatch": 4529,
    "Ġbadly": 12129,
    ",--": 2478,
    "M": 49,
    "Ġtenderly": 11314,
    "Ġchart": 10945,
    "osen": 6855,
    "pense": 10368,
    "Ġaccent": 10293,
    "lutions": 20949,
    "ordinate": 12872,
    "Ġdecay": 1011,
    "meat": 18678,
    "scenes": 16244,
    "capital": 15087,
    "Ġflorida": 20658,
    "Ġpresentation": 14480,
    "Ġrays": 10330,
    "thin": 14096,
    "Ġvocabulary": 4995,
    "Ġbenjam": 22887,
    "Ġinquirers": 24962,
    "attle": 4467,
    "planks": 21951,
    "Ġtambourine": 9564,
    "protection": 19919,
    "Ġbelieves": 14406,
    "overcome": 19052,
    "suff": 4961,
    "Ġchiswick": 25560,
    "Ġerror": 1767,
    "Ġcracking": 14573,
    "Ġdrab": 13069,
    "Ġtints": 17727,
    "ductive": 23933,
    "imely": 13997,
    "Ġtars": 21163,
    "Ġcaution": 11346,
    "Ġtartar": 17321,
    "Ġsolved": 8931,
    "ppers": 7618,
    "Ġnorris": 23198,
    "Ġarriving": 19217,
    "Ġlinn": 13952,
    "Ġadored": 18291,
    "Ġsagacious": 14970,
    "dress": 17520,
    "immediately": 10048,
    "Ġjavelin": 26104,
    "Ġpunctures": 25133,
    "Ġwollstonecraft": 26425,
    "Ġsharp": 2414,
    "placed": 7877,
    "withdrawn": 23025,
    "Ġopposite": 5120,
    "Ġunqualified": 22058,
    "Ġrout": 7402,
    "Ġstretching": 10014,
    "confirmation": 26089,
    "Ġandromeda": 21505,
    "bucket": 17493,
    "didst": 19347,
    "Ġgrate": 12961,
    "Ġphiladelphia": 26604,
    "ication": 987,
    "Ġinsatiable": 19271,
    "Ġsupreme": 13606,
    "Ġpractises": 23311,
    "Ġscale": 1546,
    "Ġsmokes": 22556,
    "Ġsemblance": 20733,
    "resh": 8403,
    "acit": 16078,
    "magnetic": 20551,
    "Ġcanopy": 18322,
    "wake": 11545,
    "coburg": 13597,
    "unned": 21875,
    "Ġhammered": 13239,
    "Ġfiltering": 23923,
    "itance": 13867,
    "Ġravings": 18646,
    "Ġdripping": 13146,
    "advancing": 14835,
    "soon": 4030,
    "ð": 177,
    "deliver": 19503,
    "Ġoblong": 14320,
    "elled": 4024,
    "supportable": 12368,
    "Ġluc": 3314,
    "Ġradiant": 16809,
    "supposing": 24135,
    "opatra": 22474,
    "Ġapparently": 6778,
    "Ġbite": 10797,
    "Ġblackest": 19098,
    "Ġjuggling": 20437,
    "final": 19675,
    "Ġcoach": 6867,
    "importance": 9988,
    "Ġstalked": 20427,
    "hair": 9122,
    "urn": 777,
    "Ġcolleague": 17159,
    "Ġhissed": 15786,
    "Ġ80": 24456,
    "Ġpassenger": 14368,
    "Ġjudges": 14685,
    "Ġextensive": 12943,
    "Ġflickering": 23014,
    "osures": 22258,
    "itering": 17818,
    "Ġrusty": 14963,
    "length": 7134,
    "Ġwhere": 784,
    "Ġcaliforn": 14430,
    "Ġwinc": 9642,
    "Ġbluff": 16517,
    "Ġlovely": 4710,
    "wheeling": 22868,
    "Ġtinge": 25087,
    "speaking": 12096,
    "jo": 3752,
    "Ġdoleful": 18377,
    "Ġsgd": 3130,
    "Ġplying": 17913,
    "Ġsurp": 9634,
    "Ġperil": 5557,
    "Ġclink": 22338,
    "Ġsuperstition": 15054,
    "Ġellenborough": 26154,
    "alously": 15626,
    "arthur": 14829,
    "rel": 3755,
    "mense": 4780,
    "shoals": 24717,
    "hav": 20896,
    "Ġscarcely": 4011,
    "Ġscanning": 18400,
    "Ġtowering": 16739,
    "Ġtells": 9360,
    "uesday": 8587,
    "Ġmeanly": 12906,
    "igantic": 5539,
    "prince": 23812,
    "tu": 12509,
    "Ġvowed": 14082,
    "tling": 9142,
    "varying": 13803,
    "Ġdarcy": 1345,
    "Ġencourage": 10380,
    "Ġmaelstrom": 19354,
    "Ġregions": 10323,
    "Ġconjunction": 25100,
    "prow": 15410,
    "Ġbarriers": 23793,
    "ource": 5243,
    "Ġsliding": 9362,
    "eastern": 17533,
    "Ġfainting": 16897,
    "Ġmodified": 14167,
    "mechanically": 17299,
    "Ġexacted": 23602,
    "enhall": 13849,
    "Ġdiscomposed": 25580,
    "Ġproblem": 1273,
    "stoke": 18022,
    "taking": 5689,
    "Ġprinces": 23222,
    "Ġstrasburgh": 18614,
    "Ġunforeseen": 22050,
    "Ġfarther": 5954,
    "Ġretrieval": 10674,
    "Ġassum": 4068,
    "gather": 20874,
    "Ġstout": 6024,
    "Ġheartless": 13071,
    "Ġaper": 17743,
    "Ġshud": 5461,
    "jour": 20926,
    "engine": 18926,
    "Ġdisliked": 12888,
    "Ġfeat": 10937,
    "Ġbill": 4042,
    "powers": 25410,
    "ething": 1596,
    "Ġcommod": 10333,
    "glances": 23851,
    "Ġcircles": 7966,
    "Ġswam": 6448,
    "Ġeh": 6987,
    "Ġportents": 14679,
    "draw": 23896,
    "Ġheeds": 24520,
    "Ġslaugh": 18937,
    "Ġstabbing": 20302,
    "Ġnum": 1352,
    "iteous": 14261,
    "Ġclutch": 15053,
    "trial": 20349,
    "purposes": 25021,
    "Ġmiriam": 25273,
    "Ġstud": 1579,
    "Ġtuesday": 9626,
    "mock": 5174,
    "farm": 15350,
    "Ġsap": 18323,
    "merc": 19280,
    "Ġinheriting": 25354,
    "tie": 21067,
    "Ġsavannah": 17415,
    "eling": 6681,
    "pall": 17628,
    "lead": 10165,
    "igen": 4830,
    "porpoise": 16438,
    "Ġdominion": 16514,
    "Ġreturning": 5325,
    "Ġunguarded": 15848,
    "Ġamuse": 5939,
    "Ġclaw": 22340,
    "Ġtechnical": 17191,
    "Ġcomfortable": 6094,
    "Ġsewing": 21958,
    "Ġplaces": 5390,
    "Ġmil": 4255,
    "Ġelephant": 8255,
    "Ġforged": 12701,
    "Ġfool": 4236,
    "Ġlongest": 18628,
    "Ġass": 1505,
    "Ġsolemnity": 9940,
    "Ġteacup": 16211,
    "Ġ275": 20109,
    "Ġrouse": 15820,
    "ensities": 22543,
    "mariners": 19547,
    "Ġcomposedly": 25183,
    "Ġletters": 3795,
    "Ġbohemian": 17133,
    "Ġhabit": 6771,
    "Ġcheating": 16368,
    "subjects": 19875,
    "Ġmeth": 1502,
    "Ġacceptable": 16744,
    "barrow": 15320,
    "ĠĠĠĠĠĠĠĠĠĠĠĠĠĠĠĠĠĠĠĠĠĠĠĠĠĠĠĠĠĠĠĠĠĠĠĠĠĠĠĠĠĠĠĠĠĠĠĠ": 7988,
    "Ġinfinity": 23280,
    "Ġfluid": 11212,
    "arpening": 21441,
    "fast": 3072,
    "horizon": 23614,
    "etence": 21574,
    "Ġsatan": 14389,
    "Ġsplinters": 15101,
    "Ġcollege": 11424,
    "reporting": 24494,
    "Ġstead": 5650,
    "ts": 960,
    "report": 13398,
    "Ġforb": 11662,
    "Ġplum": 11820,
    "Ġlast": 1126,
    "Ġgeorgia": 23884,
    "ip": 555,
    "malicious": 19901,
    "pid": 1398,
    "Ġsheltered": 19910,
    "truck": 15440,
    "Ġnine": 5369,
    "Ġshield": 21996,
    "ippi": 20243,
    "Ġseating": 18201,
    "term": 3759,
    "Ġchip": 12822,
    "onness": 21253,
    "Ġsog": 22079,
    ";âĢĿ": 7790,
    "ersed": 10259,
    "volume": 18591,
    "loa": 18533,
    "Ġingen": 9049,
    "clothed": 19737,
    "etymology": 14700,
    "wers": 12517,
    "late": 11498,
    "obser": 11099,
    "uck": 1231,
    "Ġseverely": 14932,
    "ivation": 3111,
    "Ã": 132,
    "rict": 8092,
    "ulged": 12727,
    "Ġvariation": 22662,
    "Ġindividual": 5744,
    "Ġresided": 11809,
    "Ġsloop": 25930,
    "Ġoccur": 1081,
    "imen": 12683,
    "Ġability": 2765,
    "Ġtolland": 24988,
    "proud": 9903,
    "nered": 18488,
    "racing": 21628,
    "Ġconstant": 6309,
    "Ġarsacidean": 20363,
    "zen": 5140,
    "Ġsabbee": 17255,
    "Ġgo": 612,
    "Ġyellowish": 24430,
    "Ġfate": 4754,
    "enormous": 26166,
    "frost": 15105,
    "Ġcalmer": 23039,
    "Ġinfirmity": 26298,
    "Ġhilariously": 25450,
    "ivory": 10268,
    "Ġwearing": 12736,
    "Ġcircumstantial": 14643,
    "oubted": 5859,
    "Ġzone": 14360,
    "Ġcollins": 2180,
    "alous": 7372,
    "20": 20752,
    "Ġrick": 21970,
    "Ġdesperation": 19817,
    "wam": 10135,
    "Ġmat": 1148,
    "Ġregression": 4411,
    "fal": 17536,
    "Ġillustrate": 25065,
    "iracle": 11243,
    "Ġpat": 1751,
    "Ġthrows": 14736,
    "Ġbutter": 6842,
    "Ġboon": 22634,
    "Ġprudent": 9185,
    "Ġelusive": 22644,
    "Ġsimultaneous": 22585,
    "Ġoat": 21321,
    "hosmer": 25902,
    "quar": 7616,
    "lev": 1233,
    "icting": 12853,
    "Ġinglorious": 24424,
    "Ġiroquois": 26472,
    "vation": 4744,
    "Ġtiara": 26415,
    "Ġinvader": 23477,
    "inside": 23062,
    "Ġhysterics": 26093,
    "Ġwit": 3844,
    "Ġaccident": 5380,
    "Ġvisibly": 22859,
    "purpose": 10043,
    "Ġwalk": 1826,
    "alogies": 25158,
    "Ġdwelling": 7322,
    "Ġfeigned": 22206,
    "Ġblasted": 7936,
    "atic": 4019,
    "apprehension": 26114,
    "pard": 9618,
    "directly": 13708,
    "Ġcenturies": 8622,
    "Ġpugnacious": 26451,
    "Ġfoaming": 18991,
    "untering": 15773,
    "Ġthroughout": 8876,
    "uning": 1314,
    "Ġhimmalehs": 26230,
    "Ġplainer": 23702,
    "Ġnarrowly": 16820,
    "Ġlothario": 26184,
    "Ġbubbles": 11398,
    "Ġstrangers": 8313,
    "Ġshortly": 6196,
    "fever": 22499,
    "hangs": 15367,
    "miserable": 8656,
    "Ġvac": 5025,
    "Ġbeasts": 10617,
    "Ġnature": 2541,
    "ogue": 9784,
    "Ġbenevolence": 9526,
    "owing": 7602,
    "mir": 20962,
    "ï": 176,
    "Ġoppose": 16519,
    "ish": 551,
    "Ġmortals": 9915,
    "icilian": 20690,
    "Ġarches": 14160,
    "akness": 14194,
    "Ġwinchester": 10065,
    "Ġbefell": 14009,
    "degree": 12798,
    "Ġaged": 10321,
    "Ġsaxon": 25468,
    "bled": 5469,
    "Ġadmir": 12020,
    "Ġrippling": 17277,
    "Ġblan": 18816,
    "Ġprovinc": 16742,
    "Ġundeceive": 25552,
    "Ġpreserve": 7530,
    "pine": 13768,
    "Ġcobbling": 20521,
    "Ġuntutored": 19165,
    "esty": 4308,
    "Ġrequire": 898,
    "Ġgilt": 21603,
    "Ġbetray": 7442,
    "Ġli": 602,
    "Ġanom": 12608,
    "Ġsharpened": 17364,
    "Ġnominally": 17231,
    "aby": 18106,
    "vener": 21110,
    "inking": 6709,
    "Ġcash": 9652,
    "closed": 23149,
    "Ġembarkation": 25123,
    "Ġprocopius": 19730,
    "oters": 21796,
    "Ġmassachusetts": 24020,
    "ap": 546,
    "Ġsubstant": 14808,
    "laz": 15384,
    "hunt": 20902,
    "Ġtransformed": 22609,
    "Ġdeliverer": 11948,
    "Ġcalamities": 25699,
    "destroyed": 15259,
    "Ġnoises": 18374,
    "crazy": 24691,
    "europe": 20664,
    "Ġdinners": 23979,
    "infernal": 24662,
    "perpendicular": 14162,
    "Ġsweetest": 13247,
    "Ġinnocent": 4921,
    "Ġsoothingly": 25047,
    "Ġforlorn": 14014,
    "versed": 9824,
    "Ġsymp": 4503,
    "Ġindefatigable": 17177,
    "Ġpagans": 16922,
    "Ġheathen": 10565,
    "Ġphilosopher": 12181,
    "Ġfamilies": 8026,
    "Ġwager": 17792,
    "plexion": 14260,
    "anth": 13886,
    "ou": 287,
    "Ġblown": 12083,
    "Ġtahiti": 13618,
    "bourne": 19102,
    "Ġfollowed": 1794,
    "Ġscarcity": 23824,
    "Ġdirectors": 18921,
    "erpillar": 5797,
    "or": 282,
    "interview": 19298,
    "Ġreluct": 14370,
    "shish": 11793,
    "Ġsulphur": 24933,
    "Ġreassure": 21669,
    "Ġreconciliation": 25292,
    "Ġsuspecting": 14909,
    "Ġinconsiderable": 21492,
    "Ġpondicherry": 20489,
    "iceland": 21563,
    "Ġmod": 496,
    "Ġtrained": 8502,
    "Ġaccidentally": 9504,
    "Ġrigging": 5601,
    "Ġproc": 5545,
    "Ġfest": 10804,
    "ict": 604,
    "inch": 10755,
    "Ġcoron": 4465,
    "Ġprices": 15609,
    "Ġlonger": 3363,
    "Ġrenewing": 19809,
    "anque": 13887,
    "Ġbiographical": 22760,
    "extra": 8218,
    "Ġobservant": 20108,
    "eleg": 20848,
    "Ġcarved": 7946,
    "Ġrelieve": 8223,
    "res": 2761,
    "Ġwriter": 11943,
    "Ġlists": 11166,
    "vell": 3960,
    "Ġdiving": 12598,
    "ĠĠĠĠĠĠĠĠĠĠĠĠĠĠĠĠĠĠĠĠĠĠĠĠĠĠĠĠĠĠĠĠĠĠĠĠĠĠĠĠĠĠĠ": 12152,
    "Ġoverhung": 15973,
    "Ġdangers": 12352,
    "Ġunable": 4951,
    "Ġmira": 8406,
    "okened": 15982,
    "Ġvintage": 26209,
    "Ġicy": 10747,
    "Ġocean": 3308,
    "Ġdives": 17890,
    "Ġscent": 10285,
    "Ġnobly": 22238,
    "âĢľâĢĺ": 1482,
    "Ġpeg": 22686,
    "Ġtroubles": 19437,
    "Ġchimneys": 16972,
    "onious": 15517,
    "Ġconvention": 25546,
    "retched": 3069,
    "icates": 11616,
    "Ġ47": 14771,
    "thee": 9689,
    "Ġsolomon": 11052,
    "Ġmeal": 9696,
    "Ġresounded": 22541,
    "ibule": 13004,
    "moid": 2450,
    "Ġbetween": 789,
    "Ġfagged": 17882,
    "Ġdozing": 22240,
    "Ġhowl": 12851,
    "Ġseal": 10256,
    "Ġsyrian": 18353,
    "pre": 648,
    "Ġfloundering": 16252,
    "Ġsign": 2496,
    "igh": 2029,
    "conclude": 24065,
    "Ġeducation": 5128,
    "lamps": 25260,
    "ocations": 23707,
    "oon": 6364,
    "Ġmotion": 4566,
    "Ġejac": 10203,
    "thirty": 12759,
    "Ġresting": 7961,
    "Ġidol": 7467,
    "eat": 11482,
    "Ġvarieties": 14309,
    "concerned": 24638,
    "Ġwhisper": 6205,
    "Ġprolonged": 8357,
    "Ġauthors": 10412,
    "Ġknights": 15148,
    "Ġoccurrences": 11050,
    "drink": 10595,
    "21": 10071,
    "Ġliterally": 15115,
    "Ġ39": 19488,
    "inkling": 16090,
    "Ġatt": 779,
    "unwillingly": 21881,
    "athy": 14322,
    "downward": 16619,
    "pherd": 13643,
    "Ġvary": 15803,
    "arking": 16123,
    "Ġhyperborean": 26339,
    "Ġinquiring": 8999,
    "hamed": 6305,
    "Ġdents": 13910,
    "near": 5842,
    "march": 13754,
    "different": 6501,
    "mix": 20973,
    "cious": 6643,
    "Ġtrough": 15968,
    "Ġnailing": 21524,
    "Ġprincess": 23223,
    "Ġherbage": 25996,
    "Ġsigned": 11177,
    "neys": 23581,
    "Ġperplexed": 23660,
    "Ġharsh": 9520,
    "induce": 22371,
    "ield": 2408,
    "rior": 12739,
    "Ġsilent": 3414,
    "Ġspectacle": 10496,
    "Ġdiggings": 24649,
    "ify": 1308,
    "Ġmax": 2006,
    "ricity": 23060,
    "Ġfigures": 8629,
    "Ġstaff": 14005,
    "Ġnon": 1620,
    "Ġunjust": 8483,
    "contrasted": 17305,
    "Ġvoyages": 6908,
    "Ġbrittle": 22862,
    "Ġendeavor": 16544,
    "entimes": 12653,
    "Ġlengthen": 15651,
    "Ġvii": 13107,
    "Ġadmirers": 19685,
    "gun": 10096,
    "Ġbuff": 9172,
    "Ġelements": 2669,
    "Ġcabs": 23639,
    "sy": 2733,
    "Ġhig": 755,
    "forty": 9373,
    "Ġpubl": 3942,
    "Ġnets": 21521,
    "Ġunlock": 18243,
    "Ġdinn": 23978,
    "Ġgentleman": 3042,
    "Ġsteep": 2891,
    "Ġcad": 12565,
    "Ġconditions": 8306,
    "Ġchronicle": 20227,
    "wishes": 13806,
    "Ġscreams": 24603,
    "ordinary": 4409,
    "Ġunbecoming": 22061,
    "Ġrenewed": 9537,
    "bree": 15313,
    "Ġsplintered": 11418,
    "Ġnailed": 10189,
    "resses": 16149,
    "Ġcomprehend": 6494,
    "Ġpermission": 9278,
    "Ġwounding": 19585,
    "foot": 9046,
    "artificial": 1030,
    "Ġprophe": 13077,
    "Ġdiffused": 12066,
    "Ġpleaded": 16297,
    "Ġreeds": 15693,
    "Ġlevers": 18077,
    "tum": 11531,
    "Ġsail": 1674,
    "cut": 3124,
    "Ġsaturday": 6452,
    "Ġinterlude": 16070,
    "Ġsharper": 17179,
    "Ġwrithed": 17106,
    "ĠĠĠĠĠĠĠĠĠĠĠĠĠĠĠĠĠĠĠĠĠĠĠĠĠĠĠĠĠĠĠĠĠĠĠĠĠĠĠĠ": 4517,
    "conce": 8510,
    "Ġplaid": 22597,
    "aw": 1448,
    "========": 2311,
    "Ġad": 442,
    "Ġexceptional": 19369,
    "Ġledger": 19400,
    "simply": 20669,
    "Ġtinged": 20081,
    "Ġenlar": 15798,
    "Ġsober": 10911,
    "Ġmediocr": 24084,
    "Ġnich": 21517,
    "Ġsl": 1497,
    "Ġcope": 17830,
    "Ġhisself": 21912,
    "Ġadmiral": 17304,
    "Ġsafely": 9025,
    "unerative": 21893,
    "Ġslo": 15505,
    "Ġpraises": 16730,
    "Ġdamp": 8263,
    "itement": 7835,
    "Ġintended": 5549,
    "Ġstacks": 18074,
    "Ġcap": 2362,
    "plainly": 11089,
    "Ġinfirm": 19018,
    "mixed": 15393,
    "ember": 1957,
    "Ġd": 284,
    "Ġ1836": 25721,
    "Ġparadigms": 3058,
    "gement": 13728,
    "leaving": 10791,
    "Ġplant": 8899,
    "Ġbreakers": 12053,
    "Ġmaggie": 26291,
    "rear": 21231,
    "itically": 21328,
    "ķ": 248,
    "blocks": 25517,
    "ppa": 10239,
    "oses": 3948,
    "Ġbitten": 21388,
    "suspected": 12370,
    "Ġentreating": 24207,
    "vari": 1517,
    "Ġbroke": 5322,
    "insufficient": 15488,
    "Ġwinds": 5746,
    "incl": 8109,
    "sounded": 12264,
    "readily": 19360,
    "Ġbutts": 15853,
    "Ġcalling": 5662,
    "Ġorder": 1686,
    "Ġenvironments": 24017,
    "Ġmodeling": 2095,
    "Ġhat": 2773,
    "terns": 21819,
    "handed": 7483,
    "Ġspouter": 12795,
    "henomen": 10494,
    "Ġpurchased": 12258,
    "Ġfertile": 20581,
    "Ġmutter": 23951,
    "Ġfantastic": 10058,
    "Ġexpands": 25237,
    "foundation": 16714,
    "Ġutilize": 4798,
    "Ġpretty": 3863,
    "tawn": 21079,
    "Ġregion": 2270,
    "Ġevangelical": 25506,
    "Ġpict": 3502,
    "Ġfathers": 16294,
    "Ġyounger": 5252,
    "gage": 13722,
    "Ġmarvelled": 18873,
    "Ġvessel": 3801,
    "Ġtrumpet": 9573,
    "alot": 15623,
    "Ġassist": 3566,
    "Ġbridges": 24682,
    "girl": 12316,
    "Ġcoiling": 12902,
    "tap": 17676,
    "Ġbricks": 13561,
    "Ġparts": 4167,
    "hro": 20890,
    "naturally": 14582,
    "Ġhilarious": 20297,
    "Ġcem": 17823,
    "Ġcloud": 3914,
    "Ġcaulk": 25440,
    "Ġmel": 4816,
    "meditation": 19068,
    "uneasy": 23684,
    "mpus": 13756,
    "age": 504,
    "Ġmeadow": 17151,
    "bless": 22309,
    "building": 17308,
    "ably": 1847,
    "Ġretains": 20028,
    "Ġdescribing": 19253,
    "urg": 8141,
    "Ġgover": 2461,
    "top": 4486,
    "Ġelder": 7224,
    "Ġreneg": 21672,
    "Ġpleased": 4067,
    "Ġfrayed": 23299,
    "uc": 1878,
    "Ġcorrupt": 11921,
    "Ġbeing": 1164,
    "¥": 103,
    "Ġceler": 15548,
    "chant": 4259,
    "Ġsummit": 7730,
    "Ġclimate": 9272,
    "Ġstrung": 22613,
    "Ġshamefully": 24716,
    "Ġwhittingham": 26197,
    "Ġbrimming": 22864,
    "class": 4099,
    "Ġexcel": 3569,
    "Ġstranded": 9774,
    "Ġscores": 2717,
    "shold": 2776,
    "Ġbison": 21386,
    "Ġpunishment": 9955,
    "Ġshipwrecked": 25687,
    "Ġstrateg": 1334,
    "Ġsquaw": 22833,
    "isbury": 21375,
    "richard": 17286,
    "angered": 16176,
    "franch": 24284,
    "aster": 1869,
    "Ġbruised": 25772,
    "hammad": 23261,
    "Ġmagnus": 18956,
    "aky": 18411,
    "turning": 8316,
    "Ġswell": 8949,
    "Ġinsurance": 23680,
    "arr": 3046,
    "Ġpatroness": 13509,
    "riage": 2122,
    "Ġfuriously": 9801,
    "Ġconsolidation": 5060,
    "Ġgrosvenor": 17417,
    "Ġspring": 4123,
    "aren": 10073,
    "Ġlikelihood": 16499,
    "eminence": 20097,
    "blind": 16705,
    "Ġshooting": 11162,
    "germans": 20564,
    "Ġhoky": 17926,
    "Ġpulse": 13113,
    "sutherland": 21061,
    "Ġseedy": 21959,
    "inions": 8401,
    "Ġchuckled": 10647,
    "Ġterrified": 14671,
    "gorith": 552,
    "Ġthousandth": 23682,
    "Ġsecured": 6745,
    "ctors": 21587,
    "Ġencamp": 22798,
    "itic": 11577,
    "Ġcharity": 8862,
    "head": 1432,
    "strangers": 20335,
    "presbyter": 20616,
    "Ġclothing": 18421,
    "Ġurging": 24505,
    "unearthly": 19272,
    "Ġmr": 661,
    "epilogue": 22103,
    "breat": 10077,
    "Ġstr": 753,
    "Ġinex": 6528,
    "apothe": 22331,
    "colonel": 8284,
    "wives": 15454,
    "husband": 8041,
    "Ġsignals": 10585,
    "Ġused": 2061,
    "Ġinexhaustible": 16981,
    "Ġunchanging": 22042,
    "i": 77,
    "Ġdifference": 1488,
    "Ġpersuade": 5872,
    "Ġsubsequent": 7659,
    "mark": 5281,
    "Ġnervously": 19183,
    "Ġderick": 9363,
    "Ġowning": 18744,
    "raised": 15676,
    "Ġhoist": 11975,
    "Ġfitted": 6243,
    "Ġmines": 21307,
    "Ġhang": 9187,
    "Ġdissol": 18550,
    "Ġeuropean": 20044,
    "Ġequinoctial": 20531,
    "toes": 22561,
    "gia": 20875,
    "Ġboasting": 19934,
    "Ú": 155,
    "convolutional": 4958,
    "Ġremained": 3141,
    "doms": 20834,
    "Ġaround": 3612,
    "germ": 15355,
    "Ġfrosted": 19802,
    "Ġswinging": 7449,
    "binder": 17499,
    "lives": 12483,
    "cock": 12024,
    "Ġfashion": 4300,
    "rannical": 26401,
    "restrained": 16334,
    "cheeks": 23806,
    "Ġblurred": 22928,
    "Ġsupre": 10270,
    "ements": 11107,
    "Ġwisely": 13271,
    "----âĢĻ": 24097,
    "Ġ133": 24783,
    "anity": 9654,
    "Ġdus": 8422,
    "lingly": 9772,
    "Ġchurch": 4711,
    "Ġknight": 9726,
    "Ġperfidious": 25666,
    "obvious": 9356,
    "desk": 23203,
    "Ġvalu": 5039,
    "mosphere": 10042,
    "Ġsneering": 24697,
    "Ġhempen": 13549,
    "Ġdaunt": 19663,
    "icious": 7380,
    "Ġsupposition": 9816,
    "Ġconvivial": 16547,
    "obtained": 23092,
    "ocean": 12399,
    "Ġpropagating": 20632,
    "particularly": 8339,
    "Ġstile": 21729,
    "rain": 462,
    "mistake": 24529,
    "Ġsmall": 892,
    "ivility": 12780,
    "true": 2587,
    "Ġcomplimented": 14903,
    "dee": 11731,
    "Ġspeakest": 23484,
    "Ġmir": 9646,
    "Ġexercised": 24803,
    "jointed": 24007,
    "Ġmade": 1049,
    "Ġrasc": 21974,
    "rowed": 22860,
    "Ġhoof": 23351,
    "expedition": 26078,
    "Ġinsufferable": 13930,
    "princ": 8620,
    "Ġobjections": 8564,
    "remorse": 14466,
    "Ġinexpress": 12632,
    "precisely": 6917,
    "Ġabsolut": 3913,
    "Ġencodings": 4775,
    "det": 5207,
    "herfield": 3631,
    "Ġdied": 4114,
    "Ġhereditary": 10664,
    "Ġrising": 4357,
    "Ġvis": 1062,
    "fatal": 17088,
    "Ġidentical": 10434,
    "Ġclanging": 18420,
    "Ġobed": 8535,
    "Ġhandwriting": 14318,
    "Ġunfrequently": 20738,
    "existence": 16012,
    "wife": 8100,
    "Ġcaucus": 17379,
    "drop": 15336,
    "!)": 10068,
    "Ġrad": 4962,
    "lott": 6650,
    "simultaneously": 19863,
    "iv": 431,
    "Ġdriver": 16473,
    "pro": 2051,
    "Ġmoist": 9284,
    "Ġkiller": 19567,
    "Ġwhirlp": 16963,
    "Ġtertiary": 15293,
    "Ġugl": 12679,
    "Ġhap": 18195,
    "Ġshutters": 9936,
    "Ġespe": 21154,
    "tically": 3395,
    "sky": 12508,
    "Ġsmoking": 6429,
    "tered": 2230,
    "reckoning": 25270,
    "deliber": 17425,
    "ph": 938,
    "Ġwow": 15527,
    "contents": 12056,
    "resum": 17761,
    "Ġfurnished": 6475,
    "springs": 24911,
    "âĢĿ)": 21808,
    "iring": 1706,
    "emy": 14074,
    "old": 799,
    "abroad": 18108,
    "Ġstick": 6025,
    "Ġmustard": 12927,
    "Ġbuoyed": 20039,
    "othed": 16510,
    "Ġarmitage": 23580,
    "Ġleg": 2334,
    "Ġvag": 9707,
    "Ġenter": 4032,
    "beholding": 16037,
    "clopÃ¦dia": 15255,
    "cup": 10690,
    "lose": 12879,
    "umst": 2505,
    "Ġgladly": 14681,
    "aggoo": 5130,
    "Ġcatherine": 2814,
    "breckinridge": 24075,
    "Ġit": 339,
    "Ġcontrad": 9754,
    "Ġstuffed": 13408,
    "ravity": 21632,
    "Ġcherry": 16935,
    "Ġbapt": 13895,
    "Ġracket": 22651,
    "Ġsuspic": 4471,
    "inguish": 9396,
    "iates": 13736,
    "Ġunwritten": 22031,
    "Ġbecame": 2694,
    "setting": 13284,
    "ais": 8070,
    "silenced": 24423,
    "Ġpro": 360,
    "Ġprognostics": 20557,
    "Ġdreams": 7497,
    "Ġdivision": 19442,
    "Ġculprit": 26172,
    "Ġjava": 12310,
    "Ġattended": 5391,
    "inserted": 18887,
    "Ġsunda": 13543,
    "inuating": 16202,
    "Ġluxuriant": 20393,
    "Ġinterval": 4056,
    "ribut": 815,
    "prehensible": 12358,
    "tray": 21076,
    "Ġheading": 8935,
    "Ġunderwent": 23237,
    "Ġnoiseless": 10357,
    "Ġmartha": 16261,
    "prop": 1048,
    "Ġrele": 2918,
    "Ġperformed": 8546,
    "Ġsweeter": 23915,
    "Ġadapts": 3819,
    "Ġbarbs": 10531,
    "Ġaffront": 18789,
    "Ġscant": 22282,
    "elect": 20845,
    "Ġbowsman": 11254,
    "Ġwra": 5905,
    "Ġhowling": 8509,
    "Ġfavourable": 7958,
    "Ġshears": 18319,
    "Ġdreaminess": 23937,
    "Ġazores": 20192,
    "Ġmonoton": 3637,
    "Ġnantucket": 2841,
    "Ġattractions": 12914,
    "cking": 4266,
    "Ġfrequented": 16585,
    "Ġbecher": 18879,
    "perceived": 8858,
    "Ġstri": 2805,
    "tips": 13795,
    "hinting": 17569,
    "Ġnam": 17948,
    "Ġmaddening": 17243,
    "Ġfrigid": 17352,
    "tick": 17678,
    "Ġconce": 3425,
    "Ġcompromising": 22570,
    "mopol": 15395,
    "Ġtand": 21159,
    "Ġsavor": 23873,
    "mistakable": 20652,
    "Ġunremitting": 26217,
    "kles": 17584,
    "receiving": 12540,
    "ints": 3420,
    "Ġbusier": 23336,
    "Ġthunder": 4823,
    "Ġclust": 9271,
    "Ġheire": 18036,
    "Ġpatagonia": 25856,
    "asant": 17958,
    "listened": 15043,
    "arious": 10317,
    "Ġ2": 2929,
    "Ġshr": 4227,
    "Ġnecessarily": 13249,
    "Ġseven": 4542,
    "Ġevident": 6612,
    "Ġproperties": 3119,
    "triumph": 15439,
    "ľ": 255,
    "scru": 16243,
    "asol": 21537,
    "Ġchowder": 10280,
    "fen": 20849,
    "actorily": 25576,
    "Ġphrases": 2799,
    "ep": 446,
    "Ġbred": 9169,
    "Ġcetology": 10008,
    "entirely": 7781,
    "etent": 10199,
    "Ġencouraged": 9354,
    "Ġsend": 4110,
    "Ġanyone": 4460,
    "ham": 1701,
    "listener": 24930,
    "Ġdespair": 4012,
    "amet": 582,
    "Ġadversary": 12171,
    "ribute": 7225,
    "frock": 20119,
    "Ġclearness": 23178,
    "Ġaddu": 22098,
    "Ġrotation": 25474,
    "consciousness": 13364,
    "âĢĶâĢĿ": 3302,
    "Ġmeekly": 26490,
    "Ġverge": 23885,
    "Ġtechni": 1736,
    "Ġrushes": 20506,
    "Ġlim": 2380,
    "Ġmelted": 19620,
    "Ġcor": 1323,
    "forks": 26387,
    "Ġmanx": 7904,
    "Ġglistened": 20171,
    "Ġrubber": 22784,
    "Ġsimil": 2534,
    "Ġwhirlpool": 20654,
    "Ġpasses": 2681,
    "Ġnearly": 3366,
    "=": 33,
    "Ġcats": 8979,
    "Ġjaws": 5593,
    "Ġweb": 9239,
    "volutional": 1935,
    "Ġinfinitely": 8963,
    "Ġmidday": 23631,
    "discharging": 26305,
    "bushes": 24447,
    "Ġost": 9649,
    "Ġequival": 4783,
    "Ġsit": 4217,
    "Ġdesperately": 24656,
    "Ġwindpipe": 23102,
    "Ġinconceivable": 17937,
    "do": 1995,
    "Ġrephrased": 26477,
    "tend": 17674,
    "Ġwitness": 4621,
    "ence": 394,
    "Ġpossess": 3202,
    "Ġleague": 6538,
    "Ġnoah": 10942,
    "Ġarts": 11008,
    "Ġnaked": 8126,
    "Ġaut": 1769,
    "Ġmerchants": 23732,
    "Ġimproves": 22749,
    "fluttering": 23970,
    "english": 2777,
    "Ġaccompanying": 11304,
    "Ġnook": 15926,
    "furthest": 19840,
    "ishing": 1144,
    "Ġcomplicated": 14734,
    "Ġgenuine": 14884,
    "oing": 15400,
    "re": 266,
    "Ġblew": 9045,
    "Ġgown": 10201,
    "Ġbirds": 5873,
    "clad": 14458,
    "Ġlandless": 23377,
    "Ġmatches": 14394,
    "iably": 13737,
    "_âĢĿ": 20760,
    "Ġprudential": 17919,
    "Ġfaithful": 9502,
    "Ġglobal": 2369,
    "89": 20758,
    "Ġdecline": 9286,
    "rudential": 16709,
    "Ġodds": 13328,
    "Ġforge": 8456,
    "Ġimparts": 18445,
    "inations": 7568,
    "Ġunusually": 15844,
    "source": 11525,
    "Ġvengeance": 5884,
    "shipping": 10308,
    "Ġlays": 15987,
    "Ġbedfellow": 16436,
    "flatter": 23964,
    "Ġmortified": 14694,
    "Ġgpus": 3731,
    "causing": 25518,
    "Ġunprotected": 22064,
    "ober": 15405,
    "Ġmonogram": 26574,
    "Ġimpl": 7195,
    "Ġbernard": 20683,
    "Ġcottages": 14726,
    "distinguished": 10526,
    "Ġafford": 4367,
    "tattoo": 21086,
    "Ġmeditations": 25013,
    "ortion": 11755,
    "mond": 20972,
    "Ġoriginate": 24122,
    "sail": 3604,
    "Ġcircumstances": 3928,
    "copy": 5133,
    "Ġplunged": 8692,
    "income": 15485,
    "mortals": 25409,
    "difference": 13707,
    "Ġhurried": 4034,
    "Ġstandards": 19014,
    "autumn": 23341,
    "Ġgay": 5535,
    "paused": 17373,
    "sli": 11522,
    "Ġjourney": 3882,
    "autions": 20766,
    "ó": 180,
    "unavoid": 14061,
    "soldiers": 25911,
    "arranged": 19318,
    "lydon": 13988,
    "Ġowing": 6004,
    "hidden": 17370,
    "Ġwarmest": 16483,
    "Ġdisenc": 22523,
    "Ġprodigies": 19792,
    "problems": 11434,
    "ind": 567,
    "Ġroughs": 19955,
    "âĢĶâĢĻ": 8187,
    "Ġcynicism": 25771,
    "Ġolder": 9326,
    "Ġbanks": 6814,
    "killed": 15375,
    "Ġpass": 1038,
    "Ġsubsisted": 19117,
    "Ġhey": 11640,
    "Ġfinest": 10391,
    "haven": 20911,
    "Ġlanterns": 24577,
    "tfordshire": 4811,
    "Ġentrapped": 26262,
    "$": 8,
    "Ġsetbacks": 11063,
    "icing": 9200,
    "however": 4374,
    "cause": 7795,
    "unctions": 18155,
    "Ġimpaling": 22380,
    "Ġinterven": 10997,
    "Ġnoted": 15825,
    "Ġeight": 3904,
    "Ġspilling": 22134,
    "Ġindiscriminately": 20626,
    "Ġspam": 7631,
    "sorting": 17004,
    "Ġrat": 4355,
    "Ġmagnet": 10389,
    "itor": 12563,
    "magn": 10610,
    "Ġindependence": 12102,
    "Ġcheery": 16369,
    "Ġholder": 6724,
    "Ġsedentary": 25430,
    "Ġpursued": 6328,
    "Ġcredit": 4818,
    "estone": 18363,
    "Ġtrappers": 23078,
    "Ġembatt": 18854,
    "Ġken": 22188,
    "cont": 2921,
    "Ġrow": 5309,
    "Ġnaut": 13940,
    "jane": 4483,
    "Ġprognost": 15280,
    "figure": 13554,
    "Ġslippery": 12164,
    "Ġkicks": 19767,
    "Ġmeddle": 19490,
    "Ġassume": 10515,
    "Ġfanciful": 24788,
    "its": 1149,
    "occup": 7752,
    "unpardonable": 21887,
    "Ġworlds": 11945,
    "knell": 24555,
    "Ġrely": 8820,
    "Ġledge": 19399,
    "Ġdwelt": 12602,
    "Ġtwenty": 3951,
    "innocence": 15182,
    "Ġthirdly": 24143,
    "Ġmisunderstand": 18700,
    "ateur": 22003,
    "Ġthoroughfare": 16944,
    "reluct": 26163,
    "worship": 19385,
    "Ġinfamous": 16366,
    "Ġdatasets": 2389,
    "Ġosc": 2838,
    "Ġmontan": 22973,
    "uther": 8816,
    "hailed": 17565,
    "perform": 15894,
    "too": 4508,
    "Ġrefrain": 12945,
    "impress": 18051,
    "urring": 21702,
    "Ġsuggest": 5417,
    "Ġrevel": 9214,
    "abash": 18107,
    "Ġexplo": 2284,
    "ctive": 11622,
    "Ġslopes": 18940,
    "grie": 12468,
    "Ġardour": 8042,
    "ite": 713,
    "Ġthroes": 24574,
    "Ġtorrid": 25032,
    "resent": 10769,
    "tained": 4407,
    "aloes": 21499,
    "Ġheartfelt": 18967,
    "ulance": 15764,
    "pool": 16207,
    "Ġmaterials": 11288,
    "Ġlain": 17961,
    "sequence": 2858,
    "Ġexhibition": 14956,
    "Ġclimbing": 20068,
    "mistress": 14904,
    "prehend": 14235,
    "vity": 7815,
    "Ġthackeray": 26455,
    "Ġoutfits": 22318,
    "really": 6971,
    "penny": 22942,
    "Ġsubmitted": 11869,
    "Ġbulls": 23856,
    "need": 10979,
    "presum": 12865,
    "Ġbennets": 9805,
    "isher": 2879,
    "Ġjackets": 19601,
    "Ġinsens": 8276,
    "Ġrepe": 3281,
    "Ġunbelief": 22046,
    "Ġtarshish": 12027,
    "Ġabominably": 20064,
    "Ġtows": 19561,
    "Ġpittance": 15614,
    "travellers": 24318,
    "Ġcarving": 14442,
    "Ġevol": 2816,
    "_âĢĶâĢĻâĢĿ": 25741,
    "Ġsurvivor": 17362,
    "Õ": 150,
    "Ġbacking": 16115,
    "oured": 2674,
    "unct": 18154,
    "fortnight": 13085,
    "Ġy": 341,
    "jack": 7344,
    "v": 90,
    "oe": 7553,
    "Ġcreature": 2383,
    "Ġconquer": 14026,
    "Ġsofa": 10269,
    "Ġsustain": 10016,
    "indirectly": 18437,
    "Ġintrude": 25990,
    "quarried": 24945,
    "Ġrespectively": 23247,
    "Ġsorrows": 13353,
    "Ġdispersed": 16597,
    "iant": 5427,
    "Ġsatisfactory": 11192,
    "ular": 709,
    "Ġstands": 5258,
    "Ġunsounded": 15847,
    "leaped": 17843,
    "Ġhelplessly": 20076,
    "Ġtal": 7565,
    "Ġchristianity": 19860,
    "Ġaye": 3356,
    "walton": 20248,
    "Ġbildad": 3783,
    "Ġprompt": 3188,
    "Ġbefore": 809,
    "ĠâĢľâĢĺ_": 25111,
    "Ġscornful": 24996,
    "brew": 11473,
    "Ġannals": 17898,
    "Ġexceeding": 1576,
    "Ġshould": 864,
    "culiarity": 11142,
    "Ġbolivia": 24667,
    "Ġinterrupted": 6343,
    "Z": 62,
    "Ġork": 18284,
    "affection": 7488,
    "yours": 7695,
    "Ġagon": 10320,
    "nals": 16399,
    "Ġconvenience": 11331,
    "architect": 22890,
    "Ġrom": 4525,
    "Ġband": 5290,
    "Ġkn": 4546,
    "somebody": 14564,
    "Ġ51": 24320,
    "Ġgle": 7858,
    "Ġfoes": 11950,
    "ands": 21863,
    "Ġfit": 3684,
    "Ġfiss": 21410,
    "ations": 711,
    "Ġmouth": 3178,
    "Ġwield": 21289,
    "extending": 22764,
    "adagrad": 9690,
    "Ġdepths": 4328,
    "Ġcontinue": 5398,
    "Ġtenement": 23545,
    "Ġbast": 21377,
    "Ġcontinues": 18808,
    "party": 8992,
    "lish": 1951,
    "Ġmimic": 3143,
    "Ġarid": 22173,
    "women": 15455,
    "00": 1606,
    "Ġtype": 2020,
    "recollection": 25348,
    "nobody": 16140,
    "telesc": 22815,
    "vapor": 25755,
    "70": 17475,
    "Ġwaking": 11569,
    "Ġequal": 4137,
    "Ġsubord": 22785,
    "Ġseethings": 26503,
    "Ġminimax": 5857,
    "Ġgobern": 22420,
    "splice": 17170,
    "Ġiterate": 13200,
    "Ġcakes": 13883,
    "intervals": 10637,
    "Ġarchitectures": 2911,
    "Ġgrinning": 9053,
    "Ġchance": 3321,
    "Ġspoutings": 14675,
    "send": 15422,
    "voices": 21116,
    "Ġallures": 22005,
    "Ġalternate": 19984,
    "Ġoakum": 16934,
    "clear": 9023,
    "Ġbeggars": 20628,
    "echo": 15347,
    "Ġoozy": 21325,
    "Ġlaughing": 5338,
    "Ġner": 1646,
    "Ġaccomp": 4713,
    "Ġbeautiful": 3672,
    "misrepresented": 24211,
    "warning": 25531,
    "noticed": 14337,
    "Ġradney": 6775,
    "Ġstriking": 6088,
    "Ġcandles": 9907,
    "Ġsuppress": 13022,
    "Ġdisd": 7029,
    "youth": 11873,
    "othing": 6995,
    "Ġdashed": 6009,
    "Ġadmon": 15866,
    "interred": 23736,
    "Ġsanguine": 25928,
    "Ġsaucer": 20604,
    "Ġobservable": 25126,
    "Ġcomprising": 16066,
    "beaut": 8512,
    "Ġbuzz": 23994,
    "topic": 10527,
    "elephant": 12349,
    "iantly": 13738,
    "Ġevid": 3503,
    "Ġconsiderable": 4009,
    "brated": 12025,
    "'s": 2469,
    "Ġaccelerate": 23226,
    "Ġviciss": 11292,
    "examined": 17266,
    "Ġpatience": 2684,
    "icest": 21561,
    "owed": 2268,
    "Ġincreases": 3798,
    "Ġpunctual": 17137,
    "gen": 6503,
    "brilliancy": 26077,
    "Ġcod": 8411,
    "Ġattic": 16093,
    "impropriety": 21710,
    "pents": 11512,
    "vital": 17700,
    "steering": 16635,
    "Ġhospitals": 24923,
    "Ġanatomy": 12318,
    "heum": 17747,
    "Ġbalmy": 22902,
    "library": 12996,
    "post": 6061,
    "71": 20755,
    "Ġends": 8237,
    "dataset": 23233,
    "Ġnest": 10188,
    "Ġphantoms": 13485,
    "mud": 20970,
    "Ġbaw": 15566,
    "matters": 14873,
    "turbaned": 24532,
    "crucible": 24842,
    "Ġvener": 8163,
    "repeated": 12337,
    "Ġbraw": 23832,
    "stump": 21650,
    "atious": 10151,
    "Ġapproximation": 2341,
    "Ġaloud": 6252,
    "conven": 6162,
    "Ġwes": 8778,
    "blacksmith": 17001,
    "Ġhissing": 15787,
    "Ġrequired": 7223,
    "bation": 9102,
    "whilst": 18371,
    "Ġsweatings": 25710,
    "Ġwebster": 20160,
    "Ġsuits": 22085,
    "discoloured": 23496,
    "killer": 20474,
    "Ġbelieving": 8224,
    "Ġherd": 7887,
    "cupboards": 25401,
    "Ġtwelve": 4963,
    "õ": 182,
    "Ġlimbs": 5965,
    "Ġsalted": 14755,
    "itty": 3556,
    "Ġbreaths": 14856,
    "Ġendued": 14076,
    "fell": 6953,
    "ruined": 18346,
    "disagreeable": 11163,
    "Ġsmoke": 4715,
    "Ġlap": 8436,
    "Ġmajesty": 5201,
    "Ġcoiled": 11818,
    "Ġplunder": 22599,
    "Ġplumber": 16082,
    "Ġingratitude": 17468,
    "Ġloun": 7166,
    "finds": 19926,
    "Ġfortresses": 23620,
    "Ġinflex": 20633,
    "Ġinfants": 16365,
    "Ġlash": 8438,
    "Ġawaiting": 11390,
    "law": 6115,
    "shad": 10982,
    "european": 26371,
    "Ġain": 6969,
    "Ġoffences": 18691,
    "Ġshoving": 23487,
    "Ġexh": 5232,
    "Ġobsequious": 17403,
    "Ġfind": 1457,
    "Ġ73": 24260,
    "Ġgravel": 14101,
    "fl": 3601,
    "Ġforecastle": 5495,
    "Ġdark": 2111,
    "Ġstyled": 24671,
    "Ġthoughtfulness": 18773,
    "Ġdeposited": 25484,
    "Ġimmense": 4952,
    "J": 46,
    "Ġelucidated": 26029,
    "Ġthrough": 603,
    "gins": 12466,
    "Ġprettier": 23764,
    "Ġpoor": 1708,
    "Ġtilted": 20411,
    "Ġdegener": 14049,
    "Ġinfatuated": 20533,
    "Ġunlabeled": 3802,
    "gallantry": 15058,
    "urance": 10857,
    "Ġglancing": 5399,
    "Ġdeputation": 21837,
    "Ġopenness": 18955,
    "Ġleast": 2065,
    "flesh": 13489,
    "Ġeasiest": 23535,
    "Ġnerve": 16338,
    "Ġ100": 14361,
    "rown": 2190,
    "Ġfrost": 6095,
    "Ġmetaphys": 16391,
    "Ġunfavourable": 17416,
    "din": 8373,
    "Ġstript": 23692,
    "steam": 23957,
    "Ġtablet": 19204,
    "Ġweap": 6155,
    "Ġbene": 2032,
    "Ġdespise": 14665,
    "Ġshocking": 10435,
    "mount": 9129,
    "Ġdistances": 22501,
    "Ġgrant": 11871,
    "darkness": 9511,
    "independent": 26021,
    "otes": 15741,
    "Ġevents": 4473,
    "Ġtheology": 21275,
    "Ġsubstance": 5510,
    "Ġexplain": 545,
    "Ġspouts": 7729,
    "ht": 375,
    "Ġnecessary": 4474,
    "Ġpecks": 18669,
    "Ġliveliest": 24775,
    "kee": 18273,
    "Ġide": 2121,
    "Ġunce": 11709,
    "Ġ127": 24472,
    "Ġoath": 7833,
    "Ġdoth": 13907,
    "isome": 17848,
    "preserve": 25303,
    "Ġloth": 17965,
    "iro": 20913,
    "Ġexposure": 16097,
    "Ġprone": 18968,
    "Ġcopies": 24935,
    "aset": 10832,
    "continued": 8675,
    "Ġspiteful": 19521,
    "sequently": 14583,
    "Ġsignificant": 8633,
    "Ġunh": 9252,
    "sailing": 14713,
    "Ġascertaining": 17203,
    "olets": 21007,
    "Ġparticip": 16129,
    "Ġcomplained": 16998,
    "Ġwest": 5219,
    "Ġgenerously": 22391,
    "Ġvindication": 25364,
    "ught": 2753,
    "Åĵ": 10744,
    "backed": 9865,
    "Ġpin": 7161,
    "Ġdigesting": 19808,
    "Ġwooing": 19432,
    "Ġo": 275,
    "Ġexperiment": 11909,
    "rible": 3227,
    "Ġcobb": 14271,
    "Ġmart": 10779,
    "Ġmarriage": 3187,
    "Ġconductor": 24004,
    "ipped": 5790,
    "Ġundergo": 23236,
    "Ġglared": 13015,
    "Ġreproachfully": 25251,
    "Ġlevi": 3036,
    "affect": 13211,
    "seems": 10875,
    "Ġsupposing": 6729,
    "undant": 14786,
    "Ġpole": 6433,
    "ħ": 232,
    "Ġlouis": 8356,
    "Ġsentiments": 7960,
    "period": 15895,
    "england": 18928,
    "Ġwhar": 7388,
    "Ġbroadway": 23981,
    "Ġturned": 2132,
    "otherwise": 7671,
    "Ġprocesses": 3634,
    "Ġbordered": 24563,
    "successful": 11358,
    "Ġmethodology": 2668,
    "irwin": 8468,
    "Ġblanc": 11065,
    "Ġtattooings": 24900,
    "Ġwas": 370,
    "osa": 22257,
    "emic": 18184,
    "ference": 1883,
    "jub": 20928,
    "disaster": 23491,
    "Ġdefray": 22938,
    "joined": 13274,
    "Ġcle": 1511,
    "except": 5383,
    "Ġpebbles": 16127,
    "Ġwines": 21286,
    "bent": 15310,
    "Ġshows": 8482,
    "eronomy": 15523,
    "Ġpretence": 13206,
    "Ġnecks": 18179,
    "Ġallowing": 2173,
    "Ġdepicting": 22605,
    "Ġaudits": 24770,
    "Ġlabel": 14517,
    "Ġnurtured": 19748,
    "etw": 407,
    "hound": 20894,
    "grace": 5846,
    "Ġslam": 13055,
    "difficult": 10057,
    "instantly": 7507,
    "Ġpatch": 4183,
    "endent": 15920,
    "Ġalive": 4400,
    "Ġburns": 16522,
    "Ġsoot": 14130,
    "Ġshed": 8180,
    "Ġbass": 17855,
    "wind": 4253,
    "Ġ50": 24319,
    "james": 15371,
    "Ġheaven": 3368,
    "mant": 20964,
    "present": 1137,
    "Ġpunct": 8660,
    "attoo": 6807,
    "Ġpersuas": 23944,
    "Ġeccentric": 13648,
    "Ġinsignificance": 20456,
    "wouldn": 23533,
    "Ġconquest": 15745,
    "breaths": 25336,
    "Ġwindigate": 18910,
    "Ġventure": 7739,
    "Ġstumped": 24942,
    "Ġpines": 12614,
    "Ġgrin": 5482,
    "Ġrelatives": 12979,
    "itheat": 21336,
    "Ġsave": 4053,
    "plings": 11693,
    "Ġdesk": 11904,
    "poverty": 22905,
    "thunder": 10262,
    "Ġmilitary": 11258,
    "Ġabide": 14187,
    "assured": 10952,
    "Ġst": 332,
    "Ġpanting": 11602,
    "apped": 5395,
    "Ġfields": 2141,
    "restoration": 23235,
    "Ġwomanly": 23548,
    "Ġunpleasant": 7191,
    "ssian": 3403,
    "Ġproceed": 3243,
    "Ġsprinkled": 19495,
    "Ġaggreg": 12881,
    "Ġpitiless": 19386,
    "Ġanybody": 5313,
    "Ġsharing": 3480,
    "urmount": 13994,
    "Ġbarb": 4531,
    "Ġoffering": 3008,
    "Ġstiff": 6992,
    "Ġpon": 10175,
    "whether": 5319,
    "Ġdescribes": 3122,
    "Ġportly": 14678,
    "Ġbadge": 16683,
    "Ġcolleg": 22854,
    "throw": 14097,
    "dev": 7633,
    "ocris": 23708,
    "Ġportions": 19367,
    "Ġstagnant": 24654,
    "Ġscandinavian": 26344,
    "ricade": 13036,
    "Ġshoulders": 5566,
    "Ġart": 749,
    "breeze": 20561,
    "Ġhouses": 6138,
    "Ġleisure": 6539,
    "entiating": 3440,
    "iled": 1766,
    "Ġsisters": 3641,
    "eon": 8729,
    "Â": 131,
    "Ġcarriages": 11098,
    "Ġlombardy": 26463,
    "Ġswiss": 18881,
    "birth": 15321,
    "Ġauger": 21202,
    "Ġmuster": 16120,
    "enter": 7857,
    "Ġgiant": 13967,
    "Ġassuming": 16693,
    "Ġanno": 9667,
    "Ġbrooding": 18907,
    "Ġroar": 9752,
    "fo": 5278,
    "Ġunlimited": 26222,
    "Ġguid": 2640,
    "pierced": 26141,
    "deed": 1519,
    "creator": 26381,
    "Ġadvert": 10571,
    "Ġagonies": 14251,
    "Ġcontradictory": 20395,
    "Ġclasping": 20208,
    "Ġwandering": 8653,
    "stolidity": 21660,
    "Ġposs": 1609,
    "cient": 4569,
    "Ġdanger": 3522,
    "fainting": 20471,
    "surely": 10569,
    "stretching": 20497,
    "any": 3341,
    "omach": 11633,
    "enesis": 24388,
    "had": 1950,
    "Ġpollard": 20384,
    "Ġtears": 4232,
    "Ġscrupulous": 20067,
    "Ġunlim": 18253,
    "Ġincognit": 22551,
    "Ġstrands": 25574,
    "agony": 14068,
    "clut": 23146,
    "Ġpoul": 15610,
    "Ġthr": 5709,
    "urons": 3131,
    "alarms": 21502,
    "Ġstoutest": 24628,
    "Ġhastened": 9004,
    "Ġinscrut": 10033,
    "Ġintrospective": 20599,
    "usages": 22277,
    "Ġchemistry": 11460,
    "Ġappointment": 10646,
    "Ġmalicious": 10557,
    ",âĢĶâĢľ": 10069,
    "Ġplaint": 10325,
    "iting": 2157,
    "oise": 15403,
    "Ġdiscussed": 19558,
    "cher": 5786,
    "Ġstreaming": 19672,
    "Ġgovernor": 16489,
    "ots": 3297,
    "foremost": 14252,
    "Ġbut": 424,
    "Ġaudibly": 24771,
    "use": 2538,
    "Ġtrouble": 3690,
    "ü": 189,
    "Ġpink": 12615,
    "Ġrosings": 4607,
    "Ġhorror": 3775,
    "strangely": 17276,
    "deserving": 17241,
    "bres": 11471,
    "Ġhistory": 4010,
    "battering": 20785,
    "Ġstripped": 10465,
    "Ġfidel": 12593,
    "Ġindecision": 25781,
    "Ġtale": 5142,
    "Ġnewcastle": 16221,
    "Ġcatching": 9477,
    "quite": 4646,
    "Ġstruggled": 9904,
    "Ġjenny": 20161,
    "Ġchina": 8039,
    "mild": 15390,
    "Ġcommunity": 19008,
    "Ġsweetly": 23916,
    "alleled": 14428,
    "Ġtranslates": 12049,
    "Ġdearest": 5457,
    "Ġcomfortless": 23910,
    "Ġexerting": 21829,
    "Ġmetropolitan": 17275,
    "aits": 20765,
    "steady": 14708,
    "Ġparlor": 13539,
    "Ġegotistical": 26191,
    "assed": 6420,
    "numbers": 17616,
    "cture": 15662,
    "Ġhazarded": 25654,
    "Ġaccuse": 14211,
    "Ġposted": 16724,
    "Ġharem": 9708,
    "Ġap": 5008,
    "Ġmonument": 16235,
    "Ġpyramid": 8801,
    "Ġsurvivors": 25732,
    "fare": 7798,
    "mal": 6794,
    "ings": 636,
    "sue": 2077,
    "Ġpangs": 15612,
    "quin": 21850,
    "Ġredden": 15691,
    "inlaid": 21189,
    "Ġram": 11013,
    "Ġhearties": 18966,
    "Ġhessian": 3550,
    "Ġcarries": 7674,
    "Ġdeafened": 25651,
    "Ġentra": 18693,
    "Ġlosing": 10916,
    "ezes": 9990,
    "Ġdisreputable": 22531,
    "Ġreminds": 13430,
    "Ġunconquerable": 22060,
    "Ġresume": 18565,
    "mency": 18925,
    "whar": 15925,
    "Ġknighthood": 25297,
    "hardly": 6491,
    "Ġslate": 11936,
    "Ġfancying": 12110,
    "Ġcir": 21339,
    "Ġscenarios": 26542,
    "Ġbounded": 16626,
    "Ġripe": 13234,
    "yder": 10138,
    "linearity": 1651,
    "Ġbenediction": 18784,
    "Ġcareless": 11119,
    "Ġjoky": 18406,
    "Ġclergy": 7643,
    "ingham": 21299,
    "Ġhadn": 9718,
    "Ġchristendom": 16695,
    "Ġepisode": 26346,
    "Ġstopped": 5956,
    "imprudent": 14651,
    "Ġwithhold": 18115,
    "Ġinhabited": 12183,
    "Ġmaterially": 12189,
    "Ġvehic": 8933,
    "prophet": 16179,
    "Ġplug": 17147,
    "Ġcheat": 19020,
    "Ġwil": 4580,
    "Ġarrangements": 16515,
    "commanding": 24752,
    "Ġgood": 998,
    "Ġimmeasurable": 26229,
    "commendation": 26348,
    "window": 7742,
    "biting": 20779,
    "thr": 12757,
    "paper": 9136,
    "Ġmysteries": 11322,
    "haut": 20901,
    "gratification": 24348,
    "momentum": 4991,
    "Ġdisputing": 25824,
    "Ġmerrily": 23731,
    "investments": 25532,
    "Ġdeclined": 9920,
    "Ġsling": 21219,
    "Ġcoars": 14270,
    "alterable": 13623,
    "ot": 346,
    "sne": 10124,
    "proof": 16422,
    "Ġgave": 2217,
[...]
