{
  "metadata": {
    "vocab_size": 26614,
    "algorithm": "BPE",
    "created_at": "2026-09-02 06:46:41",
    "special_tokens": [
      "<PAD>",
      "<SOS>",
      "<EOS>",
      "<UNK>",
      "<MASK>"
    ]
  },
  "vocab": {
    "Ġwhereby": 11835,
    "Ġdoomed": 11342,
    "Ġdownright": 16117,
    "Ġprotested": 9933,
    "onical": 21252,
    "Ġhandful": 9782,
    "Ġbehoo": 19033,
    "niest": 18994,
    "Ġimplicit": 19956,
    "Ġbids": 24645,
    "representativeness": 25272,
    "Ġmeanness": 22596,
    "Ġsk": 960,
    "irresistible": 18171,
    "earn": 10696,
    "het": 5435,
    "isted": 3297,
    "Ġorphans": 20203,
    "Ġpaces": 13918,
    "note": 14339,
    "Ġbreakers": 12053,
    "Ġcanterbury": 22165,
    "Ġliveliness": 13641,
    "decor": 23779,
    "gods": 13364,
    "Ġdocument": 15018,
    "Ġrelentless": 26277,
    "Ġjourneys": 19473,
    "Ġlibr": 16000,
    "Ġbitterness": 8024,
    "Ġcondemn": 13442,
    "rel": 3754,
    "Ġhussey": 7724,
    "Ġquill": 12855,
    "Ġsom": 1275,
    "rious": 11687,
    "cher": 5786,
    "ustomed": 6098,
    "Ġtiresome": 26156,
    "til": 17671,
    "Ġleaks": 16448,
    "thodox": 21985,
    "Ġbedside": 19121,
    "cen": 17502,
    "licted": 20955,
    "Ġspind": 18307,
    "line": 1441,
    "Ġgin": 13960,
    "taffrail": 15442,
    "Ġfavours": 23278,
    "scheme": 15253,
    "Ġconduct": 3733,
    "Ġequin": 14495,
    "bond": 17489,
    "Ġunsafe": 22038,
    "etts": 12658,
    "Ġrepentance": 15159,
    "====": 1484,
    "oce": 10714,
    "kles": 17584,
    "disappearing": 23500,
    "architect": 22885,
    "Ġpistols": 17328,
    "Ġrecover": 9790,
    "Ġhyperborean": 26339,
    "Ġridic": 7508,
    "âĢĿ]": 21812,
    "Ġoblong": 14320,
    "Ġsalut": 10509,
    "Ġpoliteness": 8273,
    "sh": 645,
    "Ġobserv": 8586,
    "com": 1000,
    "clopÃ¦": 13052,
    "mighty": 9466,
    "Ě": 219,
    "sick": 13783,
    "protest": 24815,
    "ospit": 22260,
    "ula": 2825,
    "dwelt": 23869,
    "Ġgordon": 26467,
    "ches": 2150,
    "Ġdemoniac": 15063,
    "ime": 625,
    "Ġbritannica": 24680,
    "having": 5211,
    "thus": 5158,
    "Ġperth": 7022,
    "road": 6677,
    "Ġsystem": 573,
    "Ġnav": 5818,
    "yder": 10138,
    "stem": 564,
    "Ġentail": 9791,
    "iss": 2177,
    "Ġbriefly": 11367,
    "insensibility": 23067,
    "pshire": 21023,
    "geor": 15974,
    "aged": 2606,
    "Ġtrappers": 23079,
    "Ġashes": 7616,
    "dening": 22776,
    "Ġaltered": 7393,
    "utely": 8131,
    "Ġanyone": 4460,
    "Ġgame": 3628,
    "Ġspiracle": 14149,
    "Ġhomeward": 9391,
    "Ġink": 8802,
    "Ġsurvivor": 17362,
    "ohog": 9842,
    "final": 19675,
    "aned": 5147,
    "mangled": 20980,
    "Ġcalls": 6744,
    "Ġseveral": 2673,
    "Ġpredestinated": 18529,
    "Ġcomforted": 19389,
    "Ġcabaco": 13165,
    "Ġblackest": 19098,
    "Ġstupidity": 15049,
    "consum": 12867,
    "Ġnantucket": 2837,
    "Ġgr": 976,
    "Ġdespise": 14665,
    "fiend": 13659,
    "vengeance": 13354,
    "Ġdoubtful": 19141,
    "Ġaim": 10145,
    "Ġreefed": 20301,
    "Ġir": 1992,
    "Ġpolicy": 10457,
    "¡": 99,
    "Ġbene": 2033,
    "Ġmeat": 8151,
    "Ġupset": 22150,
    "Ġlick": 21547,
    "consider": 6348,
    "Ġhappens": 2188,
    "Ġhundredth": 16518,
    "Ġmerid": 13193,
    "safe": 10053,
    "middle": 11310,
    "ĠĠĠĠĠĠĠĠĠĠĠĠĠĠĠĠĠĠĠĠĠĠĠĠĠĠĠĠĠĠĠĠĠĠĠĠĠĠĠĠĠ": 19581,
    "Ġdiameter": 19866,
    "lilies": 20960,
    "Ġattempted": 8000,
    "Ġblanche": 18820,
    "iations": 11494,
    "Ġmaintained": 12932,
    "Ġperson": 2366,
    "Ġphysiognomically": 25612,
    "Ġplan": 3882,
    "Ġpronounced": 8350,
    "Ġdistracted": 11801,
    "prec": 3201,
    "thrown": 8480,
    "crack": 19839,
    "Ġreduced": 11922,
    "lun": 20945,
    "Ġbes": 2661,
    "Ġfriendless": 23021,
    "Ġfab": 15574,
    "virt": 15451,
    "Ġbalmy": 22902,
    "Ġheroism": 24544,
    "is": 280,
    "lift": 15383,
    "Å": 134,
    "Ġexploit": 19161,
    "Ġspread": 5161,
    "Ġmidst": 7985,
    "Ġlangu": 575,
    "stately": 18021,
    "Ġvoy": 2619,
    "Ġgloomily": 14800,
    "Ġelbow": 12919,
    "Ī": 235,
    "Ġtrail": 16281,
    "elius": 13285,
    "Ġcrane": 23438,
    "bellies": 19972,
    "res": 2758,
    "Ġhonourable": 10456,
    "Ġweaver": 11686,
    "Ġcruisers": 25863,
    "hence": 16624,
    "acting": 22628,
    "Ġark": 10276,
    "Ġhesitated": 10001,
    "Ġhypocritical": 20737,
    "cases": 12445,
    "pre": 647,
    "owner": 18611,
    "Ġspasmodically": 17313,
    "ý": 190,
    "Ġdissolved": 18554,
    "ibles": 18787,
    "Ġad": 441,
    "Ġrepose": 6741,
    "scorn": 22981,
    "any": 3336,
    "ool": 17618,
    "Ġ14": 9322,
    "hid": 13733,
    "Ġsatisfactory": 11192,
    "Ġrecesses": 17260,
    "Ġbeast": 7179,
    "Ġheartless": 13070,
    "Ġdataset": 12814,
    "resides": 23667,
    "Ġsqueezed": 20034,
    "Ġprogrammed": 11058,
    "island": 10794,
    "sleeping": 13452,
    "shoulders": 16584,
    "Ġextent": 7655,
    "apprec": 22838,
    "Ġdissol": 18551,
    "oug": 434,
    "Ġcustody": 13645,
    "Ġhasty": 10477,
    "Ġsentence": 6187,
    "Ġhousehold": 8567,
    "Ġdetestation": 17127,
    "Ġdeposited": 25484,
    "Ġsheep": 10926,
    "Ġblanched": 26282,
    "Ġraptures": 13495,
    "Ġinforming": 18741,
    "Ġbubb": 12582,
    "ech": 4390,
    "Ġadjac": 18292,
    "Ġli": 603,
    "jointed": 24007,
    "Ġcau": 13880,
    "picture": 11407,
    "Ġcode": 1720,
    "Ġowners": 7662,
    "Ġrobe": 18458,
    "adem": 21754,
    "Ġostlers": 25276,
    "compl": 6873,
    "Ġpaus": 4300,
    "malice": 17604,
    "Ġdrug": 11410,
    "Ġindefinitely": 25221,
    "Ġeternal": 5975,
    "Ġsubstance": 5510,
    "Ġillinois": 19136,
    "Ġcensus": 15095,
    "Ġmu": 17795,
    "waving": 21130,
    "aits": 20765,
    "moving": 11017,
    "reference": 13839,
    "harpooneers": 8689,
    "Ġelbows": 18635,
    "È": 137,
    "Ġflatt": 16247,
    "Ġcost": 2504,
    "Ġpassion": 4557,
    "collar": 19327,
    "asc": 6386,
    "sisters": 13374,
    "Ġexceeded": 14432,
    "ulty": 22564,
    "Ġ183": 13236,
    "Ġobstructed": 24677,
    "Ġfifth": 11257,
    "Ġflannel": 26577,
    "Ġoccasions": 7987,
    "Ġfishing": 9662,
    "Ġjour": 11762,
    "aguy": 21907,
    "itations": 17817,
    "Ġsmoothed": 23655,
    "Ġanointing": 25539,
    "Ġbasic": 24701,
    "Ġasserted": 16949,
    "Ġfleece": 10614,
    "Ġfashioned": 13318,
    "fin": 5209,
    "Ġautonomous": 10675,
    "Ġpromised": 5181,
    "overlooked": 23321,
    "stairs": 5155,
    "Ġreconc": 9682,
    "Ġbundles": 26175,
    "ugues": 19023,
    "fulness": 4311,
    "pens": 17632,
    "Ġinev": 10181,
    "Ġmadness": 6601,
    "Ġsin": 1513,
    "Ġjoist": 19231,
    "Ġalarmed": 6923,
    "Ġbottles": 16569,
    "Ġring": 4453,
    "Ġscar": 3210,
    "Ġprofessed": 14723,
    "Ġlizard": 12652,
    "attention": 2109,
    "Ġdirector": 18920,
    "ifully": 13184,
    "Ġpondering": 17005,
    "Ġspoke": 2747,
    "trans": 5594,
    "Ġdesire": 3717,
    "Ġchart": 10945,
    "Ġbought": 8415,
    "Ġeating": 8135,
    "piece": 6655,
    "Ġpleased": 4065,
    "arctic": 12608,
    "eon": 8729,
    "Ġcorps": 13029,
    "Ġpatience": 2944,
    "Ġscrib": 22266,
    "Ġblanc": 11065,
    "slide": 24556,
    "borough": 20784,
    "vib": 21114,
    "Ġneville": 7399,
    "Ġcoloured": 11045,
    "Ġadam": 2126,
    "Ġchall": 10944,
    "tural": 21065,
    "Ġpasseng": 12968,
    "circle": 16736,
    "dece": 11732,
    "started": 10845,
    "Ġlaughs": 24117,
    "Ġinformed": 6717,
    "ripp": 6405,
    "Ġquench": 22416,
    "appetite": 22841,
    "hauled": 20667,
    "Ġoxen": 19949,
    "Ġsweet": 3466,
    "tain": 559,
    "Ġeaster": 15673,
    "Ġfollies": 16255,
    "ag": 377,
    "renched": 7906,
    "Ġcachalot": 17834,
    "evenings": 19461,
    "Ġalliance": 18235,
    "Ġknocking": 10559,
    "Ġmeditation": 16680,
    "Ġtoss": 10184,
    "Ġpoet": 8208,
    "bred": 11469,
    "Ġado": 7626,
    "Ġorthodox": 22092,
    "five": 6356,
    "Ġhired": 10177,
    "landed": 18955,
    "contented": 14634,
    "Ġprosperity": 20256,
    "Ġmillion": 14986,
    "iful": 2881,
    "Ġadapted": 11038,
    "ignant": 11129,
    "Ġshag": 9250,
    "Ġcandour": 14672,
    "Ġtaking": 3248,
    "Ġinfirmity": 26298,
    "hogs": 20080,
    "Ġenderby": 13649,
    "Ġenraged": 10244,
    "Ġbutchers": 18272,
    "captain": 3955,
    "Ġoverwhel": 8195,
    "onist": 21249,
    "ingley": 1549,
    "iciency": 9574,
    "lost": 8887,
    "ished": 1428,
    "Ġfearlessness": 19160,
    "valu": 1730,
    "Ġplanisp": 24056,
    "Ġclutched": 13517,
    "uff": 2731,
    "gorith": 548,
    "oology": 21005,
    "Ġcraw": 7282,
    "Ġsymmetry": 20364,
    "Ġdwelt": 12603,
    "dangerous": 20239,
    "ney": 2492,
    "ole": 9613,
    "Ġbinding": 20417,
    "Ġitem": 12699,
    "Ġsprung": 11248,
    "Ġcongeal": 25980,
    "Ġblurred": 22928,
    "Ġcrew": 2495,
    "executed": 25739,
    "ara": 12604,
    "Ġblend": 14399,
    "Ġlances": 6984,
    "Ġhundred": 2693,
    "Ġbrass": 11048,
    "fal": 17536,
    "Ġsauce": 15889,
    "rest": 1636,
    "Ġtrough": 15977,
    "profound": 16425,
    "ank": 1364,
    "tahit": 17692,
    "female": 20665,
    "entials": 22655,
    "consciousness": 13363,
    "rously": 17654,
    "Ġdejection": 15195,
    "Ġthom": 21513,
    ".âĢĶ": 4248,
    "Ġcarn": 17821,
    "Ġfoliage": 18866,
    "Ġopposed": 11188,
    "sil": 5282,
    "Ġchoke": 22246,
    "Ġmonument": 16236,
    "Ġseverity": 15819,
    "Ġhovel": 8253,
    "rell": 11563,
    "Ġcompanion": 3643,
    "Ġtrous": 10962,
    "Ġomitted": 12561,
    "Ġpoets": 11819,
    "Ġrat": 4354,
    "considered": 9580,
    "Ġbol": 6241,
    "Ġderived": 8238,
    "Ġanon": 9666,
    "ignific": 11953,
    "Ġcarpet": 9355,
    "works": 6587,
    "Ġmerged": 19296,
    "Ġweakness": 9966,
    "Ġadversary": 12171,
    "Ġfallen": 5967,
    "Ġ1890": 23893,
    "Ġcarr": 23088,
    "Ġpossessor": 23821,
    "unpardonable": 21887,
    "Ġclum": 8872,
    "inch": 10755,
    "ashions": 16417,
    "clerval": 7950,
    "Ġneighbour": 3808,
    "Ġstumble": 26482,
    "Ġextravag": 11253,
    "Ġprouder": 18972,
    "Ġscroll": 14189,
    "Ġcultured": 25154,
    "inion": 2874,
    "pat": 10116,
    "Ġgrating": 14354,
    "Ġcosy": 13129,
    "uously": 7353,
    "Ġalgorith": 553,
    "ricade": 13034,
    "Ġtrousers": 12413,
    "quick": 6400,
    "Ġosc": 2834,
    "utch": 21583,
    "threadbare": 25989,
    "Ġan": 286,
    "father": 3777,
    "Ġwinc": 9642,
    "Ġadieus": 25110,
    "Ġplumage": 17297,
    "continual": 20643,
    "Ġlimb": 9401,
    "Ġconnection": 5479,
    "Ġstubbornness": 25380,
    "son": 2327,
    "Ġperiod": 4006,
    "Ġmorbid": 16233,
    "Ġluckless": 16797,
    "Ġpedestrian": 25879,
    "Ġprosecut": 9697,
    "Ġdeclaration": 16636,
    "Ġgaily": 16748,
    "Ġprey": 6415,
    "Ġdeliberation": 19967,
    "Ġsounding": 8264,
    "Ġglue": 15672,
    "Ġsings": 15505,
    "Ġforget": 2634,
    "Ġlandau": 16419,
    "Ġerror": 1766,
    "oam": 8751,
    "Ġcharts": 12825,
    "uplifted": 17695,
    "Ġreliance": 14384,
    "lascar": 20959,
    "handle": 11190,
    "Ġstile": 21729,
    "Ġrel": 1096,
    "Ġdramat": 23213,
    "Ġregression": 4410,
    "Ġdefect": 8554,
    "?âĢĻâĢĿ": 23641,
    "ground": 4672,
    "Ġthoughtless": 16192,
    "Ġgur": 21589,
    "Ġpleasure": 2694,
    "albatross": 15628,
    "laden": 14928,
    "Ġmeanly": 12907,
    "Ġhummed": 18778,
    "Ġprovided": 6577,
    "Ġcared": 8782,
    "indignation": 18438,
    "pend": 6367,
    "Ġnick": 21520,
    "attachment": 13048,
    "narrow": 11507,
    "chosen": 21692,
    "Ġarisen": 11741,
    "Ġrending": 19465,
    "Ġwhereon": 16100,
    "yramid": 8367,
    "extent": 22764,
    "Ġgrop": 12662,
    "Ġincomp": 12895,
    "Ġeagle": 13200,
    "Ġpushing": 10819,
    "Ġgoes": 3853,
    "didst": 19347,
    "unicorn": 21886,
    "clu": 20798,
    "Ġpotent": 12062,
    "olent": 8154,
    "analy": 17838,
    "Ġdiary": 24739,
    "Ġinstructed": 19284,
    "Ġpush": 9184,
    "Ġnodding": 23331,
    "Ġcareful": 2611,
    "lotte": 3329,
    "Ġsuspects": 16890,
    "lantic": 6363,
    "Ġeager": 3570,
    "sleeves": 26109,
    "tut": 15434,
    "Ġlan": 5820,
    "Ġchurning": 15936,
    "cer": 6642,
    "Ġgrieved": 8297,
    "Ġmemoirs": 26205,
    "ded": 2420,
    "Ġgestures": 13534,
    "Ġnational": 13941,
    "ppered": 15789,
    "extracts": 22768,
    "Ġrese": 2122,
    "rannical": 26401,
    "Ġclosely": 6488,
    "Ġaddison": 14232,
    "Ġdescription": 7429,
    "Ġinflu": 4909,
    "Ġactually": 5389,
    "Ġjago": 22296,
    "Ġseldom": 4630,
    "offices": 19059,
    "]": 65,
    "osite": 4893,
    "snap": 24848,
    "Ġrevel": 9214,
    "8": 28,
    "saf": 11524,
    "Ġskylarking": 19485,
    "ĳ": 244,
    "elihood": 4622,
    "Ġhookah": 16970,
    "Ġthanked": 9458,
    "Ġoffended": 7040,
    "lizzy": 6651,
    "Ġretired": 6070,
    "Ġske": 4815,
    "churning": 21694,
    "define": 1531,
    "Ġloud": 4701,
    "Ġprettier": 23764,
    "Ġforward": 1837,
    "Ġpreluding": 18368,
    "Ġcakes": 13883,
    "Ġmusic": 5268,
    "otent": 8831,
    "Ġmanor": 14196,
    "Ġabsence": 4894,
    "ancial": 21360,
    "onse": 21248,
    "Ġemper": 9860,
    "Ġmission": 13002,
    "Ġsciences": 15943,
    "rief": 6202,
    "chemical": 23807,
    "Ġledge": 19399,
    "Ġhurling": 19110,
    "Ġconditions": 8306,
    "Ġmice": 13858,
    "ras": 21035,
    "sorting": 17004,
    "Ġthieves": 15634,
    "Ġabundantly": 17156,
    "agged": 9236,
    "bright": 8989,
    "completed": 19992,
    "aborate": 14021,
    "Ġmessages": 24981,
    "bour": 2073,
    "iday": 8829,
    "bbles": 13690,
    "Ġpres": 9731,
    "Ġsizes": 1523,
    "superior": 9524,
    "flutterings": 26606,
    "extending": 22766,
    "Ġsunday": 7270,
    "abern": 21787,
    "Ġimbib": 22172,
    "beaut": 8512,
    "tubs": 15129,
    "Ġqual": 6274,
    "incom": 21180,
    "Ġirregularity": 25324,
    "Ġconsummation": 17424,
    "Ġdamp": 8263,
    "vulgar": 25918,
    "Ġsuccessful": 9922,
    "furthermore": 20002,
    "about": 3587,
    "made": 4808,
    "Ġknave": 11272,
    "treasures": 26152,
    "xible": 13807,
    "Ġreflections": 5945,
    "Ġsordid": 26422,
    "Ġag": 683,
    "Ġcontents": 7210,
    "Ġsmut": 22553,
    "Ġtweezers": 26556,
    "Ġfasc": 12596,
    "meanwhile": 10609,
    "lace": 13747,
    "Ġtemptations": 24508,
    "Ġthistle": 21913,
    "gpt": 5355,
    "Ġtie": 10750,
    "pedest": 24695,
    "usive": 8191,
    "Ġplied": 22597,
    "Ġblended": 16218,
    "Ġnoiseless": 10356,
    "Ġunluck": 8484,
    "Ġwhitewashed": 14468,
    "Ġextract": 1522,
    "alled": 5910,
    "ayed": 12710,
    "ged": 1512,
    "alo": 7587,
    "quietude": 24655,
    "consequ": 18504,
    "Ġsurrounds": 24231,
    "iny": 4295,
    "resent": 10769,
    "Ġsleeping": 6319,
    "mindful": 19598,
    "Ġtemples": 18637,
    "sli": 11522,
    "possibility": 13359,
    "Ġdiscre": 2415,
    "Ġveter": 15810,
    "tout": 21064,
    "eled": 2356,
    "flies": 19422,
    "clever": 20812,
    "Ġnaught": 8127,
    "orph": 21397,
    "Ġtawn": 13822,
    "Ġentranced": 25833,
    "Ġthomas": 17947,
    "spirits": 8054,
    "Ġpursuits": 12074,
    "mill": 13753,
    "Ġrush": 5924,
    "Ġattacks": 12202,
    "Ġseparating": 16685,
    "Ġmother": 2068,
    "Ġi": 311,
    "Ġweapons": 10593,
    "Ġlegisl": 23533,
    "aming": 5828,
    "atching": 8201,
    "Ġreply": 4515,
    "Ġune": 4598,
    "Ġmerely": 3771,
    "Ġthroat": 7770,
    "Ġjamming": 17264,
    "iza": 6255,
    "Ġdirected": 5579,
    "Ġbud": 10168,
    "Ġoffending": 22740,
    "Ġamply": 22479,
    "Ġintrospect": 15827,
    "reply": 19721,
    "acetty": 24464,
    "Ġperfection": 19217,
    "cul": 1899,
    "Ġjenkinson": 11431,
    "thar": 18215,
    "icates": 11616,
    "ere": 6789,
    "Ġpup": 12617,
    "rich": 11517,
    "Ġrept": 13982,
    "enance": 3371,
    "Ġpictured": 16622,
    "punishment": 15144,
    "Ġinsupportable": 13931,
    "contriv": 19292,
    "Ġusual": 3944,
    "Ġcanvassed": 19933,
    "Ġshadow": 5596,
    "ome": 536,
    "Ġvegetables": 15220,
    "reclining": 20573,
    "german": 11491,
    "Ġuncivil": 11155,
    "Ġrelated": 3715,
    "acid": 11006,
    "Ġdinnertime": 16719,
    "Ġbraces": 14669,
    "usually": 10285,
    "Ġbolt": 11334,
    "Ġdeftly": 26493,
    "Ġconclusions": 10553,
    "lake": 13748,
    "th": 407,
    "objections": 19915,
    "atement": 17773,
    "Ġrambled": 20167,
    "ostent": 16846,
    "Ġsigning": 22705,
    "Ġoverwhelm": 25052,
    "Ġdesperately": 24656,
    "Ġdash": 8121,
    "Ġmetropolitan": 17275,
    "Ġripple": 25504,
    "Ġspeeches": 22647,
    "stayed": 25290,
    "knows": 19171,
    "pop": 17631,
    "Ġferocious": 17418,
    "Ġestab": 6315,
    "Ġlight": 1700,
    "Ġdemoniacal": 20555,
    "Ġglimpses": 13430,
    "Ġviv": 6156,
    "waist": 13416,
    "Ġpinioned": 21480,
    "hereabouts": 23605,
    "officer": 17054,
    "Ġcommanding": 16590,
    "education": 20300,
    "Ġstraightened": 12106,
    "sig": 2873,
    "ulgences": 21862,
    "hunter": 10555,
    "ft": 909,
    "home": 7341,
    "lover": 18539,
    "Ġprinces": 23218,
    "silver": 19689,
    "Ġsunlight": 13082,
    "mental": 16047,
    "Ġrises": 9712,
    "Ġornament": 11718,
    "Ġadaptive": 1324,
    "metic": 14983,
    "sworn": 24256,
    "Ġelbowed": 16108,
    "Ġmatrimonial": 25489,
    "Ą": 197,
    "Ġcemet": 20679,
    "disciple": 16778,
    "Ġallev": 18100,
    "falgar": 26130,
    "Ġaccomplishments": 13377,
    "Ġcap": 2360,
    "87": 20756,
    "ene": 2169,
    "pse": 21008,
    "Ġkiller": 19567,
    "Ġfuel": 13903,
    "mies": 20967,
    "Ġyelled": 9693,
    "mankind": 14373,
    "Ġcarelessness": 13073,
    "Ġdeformed": 14046,
    "lar": 4484,
    "Ġrheumatic": 20704,
    "Ġconsoling": 19455,
    "Ġapparent": 5466,
    "Ġtinged": 20081,
    "Ġpod": 15602,
    "mme": 22497,
    "Ġsloop": 25930,
    "Ġviewing": 19263,
    "minds": 24232,
    "Ġfree": 3375,
    "Ġcubs": 20085,
    "bank": 10079,
    "Ġedged": 23435,
    "Ġproportions": 16468,
    "Ġshudderings": 25200,
    "Ġvelv": 10619,
    "Ġinducements": 24965,
    "Ġgull": 15668,
    "Ġinfancy": 10409,
    "could": 2871,
    "Ġelab": 22639,
    "Ġanatomy": 12318,
    "wandered": 20284,
    "ided": 2783,
    "Ġshone": 7404,
    "Ġabide": 14190,
    "Ġobscurely": 20187,
    "Ġwaiting": 4324,
    "hopeless": 16917,
    "Ġhappening": 14382,
    "crime": 14782,
    "utter": 7593,
    "aster": 1866,
    "inv": 8400,
    "Ġturbulence": 26597,
    "Ġentic": 16145,
    "Ġ30": 10511,
    "Ġmar": 1312,
    "Ġcurbstone": 26046,
    "determined": 9079,
    "Ġplaymate": 23636,
    "Ġhardy": 8565,
    "will": 1967,
    "Ġabandoned": 8351,
    "animals": 24738,
    "brows": 17496,
    "Ġdaresay": 14703,
    "Ġcheese": 9376,
    "niece": 20994,
    "Ġgasping": 17038,
    "iates": 13736,
    "Ġamateur": 22482,
    "blubber": 15235,
    "Ġdemanded": 8326,
    "roads": 17957,
    "comra": 16172,
    "Ġsituated": 9447,
    "Ġspeckled": 14304,
    "Ġcreature": 2381,
    "Ġfalsehood": 10523,
    "Ġ199": 3007,
    "butt": 15993,
    "Ġvernal": 23886,
    "brink": 23575,
    "Ġimpenet": 14221,
    "Ġsped": 22122,
    "worshipping": 16610,
    "Ġvehic": 8933,
    "Ġaunt": 3176,
    "silly": 24422,
    "Ġrequiring": 2920,
    "Ġshift": 2281,
    "Ġordinarily": 20648,
    "//": 11463,
    "Ġscuff": 15941,
    "Ġboxed": 24360,
    "Ġbrazen": 23837,
    "succeed": 10328,
    "frank": 7757,
    "Ġremain": 1872,
    "Ġinclement": 22550,
    "penny": 22942,
    "hawk": 7121,
    "Ġmant": 9647,
    "Ġrenow": 18027,
    "Ġrole": 15996,
    "Ġbehold": 5049,
    "Ġunlimited": 26222,
    "Ġmadly": 16485,
    "aders": 21755,
    "adequately": 20318,
    "Ġuniversity": 13120,
    "ouncing": 8494,
    "Ġindolent": 13001,
    "washed": 13042,
    "Ġgeneralize": 3101,
    "Ġdaggoo": 5441,
    "Ġmysticetus": 24922,
    "Ġclustered": 25233,
    "Ġexistence": 4707,
    "Ġcontradictory": 20395,
    "Ġvivacious": 19814,
    "Ġratio": 5066,
    "Ġprogram": 12989,
    "archangel": 18781,
    "irement": 18357,
    "inting": 9813,
    "aths": 22698,
    "Ġte": 1159,
    "Ġincorrect": 2729,
    "Ġgothic": 17999,
    "ative": 737,
    "Ġteach": 8553,
    "dy": 3862,
    "Ġfabric": 25947,
    "Ġthey": 576,
    "Ġrobots": 11083,
    "Ġguardians": 14942,
    "context": 3405,
    "Ġrenew": 6145,
    "crucible": 24842,
    "Ġhorror": 3774,
    "Ġsink": 4341,
    "Ġslipped": 6492,
    "Ġunfrequent": 24110,
    "Ġ58": 24326,
    "Ġlashed": 9198,
    "Ġacqu": 1417,
    "Ġparlour": 12319,
    "ushed": 2970,
    "Ġcomparative": 10542,
    "Ġpriority": 19761,
    "Ġliberated": 19665,
    "Ġcatastrop": 3345,
    "Ġpatron": 7464,
    "inous": 8771,
    "Ġinsure": 13176,
    "cele": 21622,
    "Ġdeject": 10880,
    "irr": 12734,
    "wick": 5362,
    "subs": 14298,
    "Ġfriendship": 7246,
    "Ġsplitting": 4384,
    "timidity": 25753,
    "Ġcaptured": 7245,
    "Ġhelmet": 19686,
    "cheer": 9436,
    "eenth": 12458,
    "insist": 23062,
    "Ġpractical": 3164,
    "Ġexample": 5096,
    "Ġappearing": 9840,
    "Ġ112": 24437,
    "Ġlewis": 15723,
    "Ġgratify": 19501,
    "Ġunfitted": 24109,
    "Ġhitting": 21484,
    "Ġlungless": 24863,
    "Ġcomplet": 4423,
    "herfield": 3630,
    "Ġsighing": 18676,
    "Ġexploding": 2108,
    "Ġradney": 6775,
    "oded": 11668,
    "omited": 21638,
    "Ġdeceased": 15006,
    "Ġbuffaloes": 25217,
    "Ġfrederick": 15585,
    "Ġwidely": 8032,
    "Ġcitizens": 25439,
    "Ġhearing": 4761,
    "import": 5668,
    "mist": 5686,
    "Ġmalacca": 24393,
    "treatment": 20410,
    "difficulty": 12388,
    "ived": 1539,
    "urrection": 12407,
    "Ġgentleman": 3039,
    "oftener": 23962,
    "Ġhymn": 24518,
    "Ġregent": 18586,
    "blast": 9587,
    "arial": 5532,
    "Ć": 199,
    "Ġamusement": 8055,
    "Ġdoc": 7200,
    "Ġdevotion": 22720,
    "ons": 711,
    "Ġtheirs": 7024,
    "exagger": 22425,
    "l": 80,
    "Ġswiss": 18880,
    "Ġhalf": 1671,
    "unreasonable": 18162,
    "noble": 7921,
    "Ġheadstrong": 14387,
    "preservation": 25305,
    "Ġremot": 8543,
    "Ġrejection": 19982,
    "Ġgush": 10202,
    "Ġrazor": 22652,
    "chorus": 19810,
    "ė": 216,
    "ui": 9144,
    "Ġdispleasure": 16051,
    "Ġbus": 1903,
    "ropri": 2180,
    "initely": 7568,
    "Ġweakened": 16823,
    "ps": 4574,
    "Ġarmy": 11739,
    "suggested": 17298,
    "Ġsailors": 4277,
    "aux": 14290,
    "Ġunav": 18240,
    "peare": 18911,
    "Ġdishon": 12228,
    "Ġgive": 1712,
    "Ġcommend": 10334,
    "Ġbutter": 6842,
    "unw": 14056,
    "Ġeffected": 14353,
    "Ġsill": 10765,
    "Ġfang": 21401,
    "Ġnone": 3221,
    "Ġconv": 2968,
    "Ġflow": 1237,
    "Ġwaldman": 11345,
    "Ġdisclosed": 15152,
    "breat": 10077,
    "travel": 24316,
    "Ġargued": 13627,
    "Ġentirely": 3434,
    "aze": 10074,
    "Ġjoined": 4564,
    "ws": 7355,
    "serv": 7451,
    "Ġensued": 11394,
    "pos": 15410,
    "lacing": 17590,
    "sides": 12505,
    "Ġestimation": 11218,
    "Ġmix": 7576,
    "dissatisfied": 26612,
    "Ġreceipt": 20354,
    "Ġendowed": 18924,
    "Ġfrankly": 16745,
    "Ġbonnet": 10655,
    "Ġrele": 2916,
    "Ġstraightway": 9016,
    "Ġintricate": 15136,
    "measure": 10030,
    "allowing": 24358,
    "Ġdisease": 14257,
    "Ġbutterfly": 19909,
    "ahab": 4291,
    "Ġstoutest": 24628,
    "Ġdeferred": 18826,
    "marest": 20979,
    "sav": 8096,
    "Ġequilib": 4137,
    "Ġsage": 17752,
    "Ġfairy": 14627,
    "Ġsignals": 10585,
    "opolising": 25676,
    "Ġcolon": 18765,
    "orough": 5700,
    "Ġtarn": 21157,
    "Ġshop": 9251,
    "gen": 6503,
    "Ġaristotle": 25817,
    "machine": 922,
    "safie": 20347,
    "Ġcontinued": 2921,
    "collinses": 19922,
    "Ġtracing": 18888,
    "Ġperse": 6272,
    "Ġ110": 24435,
    "ov": 15400,
    "Ġbenevol": 5961,
    "Ġlandsc": 11146,
    "Ġlashings": 25097,
    "Ġeag": 2966,
    "mantel": 26394,
    ").âĢĿ": 20740,
    "Ġdependen": 1828,
    "Ġsnowy": 9017,
    "involuntarily": 20413,
    "Ġjur": 12832,
    "Ġrecol": 4031,
    "assumed": 22305,
    "Ġhospitable": 17059,
    "Ġsetting": 7046,
    "december": 25558,
    "isons": 17849,
    "Ġperusal": 14224,
    "Ġactions": 6278,
    "Ġpossesses": 19350,
    "Ġvictory": 16653,
    "Ġprivate": 5345,
    "Ġminute": 4279,
    "whether": 5319,
    "Ġmagnifying": 16319,
    "Ġsamuel": 10032,
    "Ġsnuffed": 15071,
    "Ġsamples": 2961,
    "fe": 674,
    "orphans": 26440,
    "Ġhanged": 17924,
    "Ġsign": 2494,
    "Ġworaciousness": 22926,
    "uzzle": 19582,
    "Ġcorroboration": 26053,
    "orton": 11754,
    "married": 9948,
    "Ġpel": 17904,
    "otion": 4946,
    "commend": 19991,
    "Ġeaves": 15674,
    "Ġplays": 12035,
    "inces": 13827,
    "Ġverse": 16602,
    "Ġjoker": 22295,
    "¿": 128,
    "Ġangles": 23587,
    "Ġensures": 3054,
    "Ġwave": 7575,
    "Ġincom": 9768,
    "exceeded": 24999,
    "dation": 2613,
    "rations": 10723,
    "Ġhanging": 5447,
    "alid": 13934,
    "Ġchocks": 13343,
    "Ġapplications": 4784,
    "Ġamazed": 14888,
    "Ġvigour": 24462,
    "Ġtesting": 23220,
    "anct": 21356,
    "Ġoptimizer": 5036,
    "Ġtroops": 24898,
    "Ġbrow": 3991,
    "Ġlobsters": 13515,
    "ashes": 6015,
    "Ġtendinous": 16931,
    "Ġfoes": 11950,
    "Ġgrapple": 25811,
    "Ġatonement": 21939,
    "Ġreveries": 11347,
    "ù": 186,
    "Ġaudacity": 19881,
    "Ġcarpent": 4466,
    "othic": 16215,
    "Ġjulia": 22299,
    "Ġrest": 1781,
    "Ġchaldee": 26234,
    "her": 488,
    "Ġwhilst": 9218,
    "clam": 13051,
    "iless": 10281,
    "was": 1422,
    "Ġcounties": 23299,
    "Ġmon": 1249,
    "attentive": 17189,
    "castles": 14636,
    "Ġvoc": 4452,
    "Ġfaintly": 14914,
    "Ġdesert": 6726,
    "Ġamounts": 6704,
    "Ġcal": 1327,
    "hamed": 6305,
    "Ġfisheries": 17437,
    "Ġreplaced": 13069,
    "Ġparsee": 6413,
    "sen": 21048,
    "Ġtwit": 12927,
    "evidence": 25521,
    "Ġregards": 16069,
    "Ġtotally": 9470,
    "Ġwalton": 14971,
    "ill": 447,
    "Ġshipw": 12975,
    "Ġtopmost": 14587,
    "Ġfiendish": 13325,
    "Ġgenial": 12192,
    "prairies": 20565,
    "Ġimplement": 2794,
    "Ġhandwriting": 14318,
    "mits": 13755,
    "Ġphotography": 24683,
    "Ġdeg": 3280,
    "Ġpersevering": 20232,
    "Ġsalmon": 24060,
    "ernally": 22616,
    "amb": 5723,
    "Ġexamine": 7734,
    "Ġash": 4832,
    "ĠĠĠĠĠĠĠĠĠĠĠĠĠĠĠĠĠĠĠĠĠĠĠĠ": 5321,
    "thinking": 9013,
    "inence": 15481,
    "Ġscot": 5643,
    "slouched": 24557,
    "Ġexperienced": 6582,
    "Ġbreaths": 14856,
    "twice": 14621,
    "Ġriots": 23890,
    "Ġinquiring": 8999,
    "halfway": 24311,
    "mering": 12488,
    "Ġclouded": 13288,
    "Ġunexampled": 20358,
    "Ġsmiling": 5474,
    "Ġtrif": 6270,
    "Ġprynne": 25540,
    "Ġwes": 8778,
    "Ġwriters": 13541,
    "Ġpeev": 22690,
    "follows": 24528,
    "Ġabilities": 8867,
    "Ġconceits": 19388,
    "wondrous": 12336,
    "moreover": 12966,
    "Ġnevertheless": 5040,
    "byshire": 6172,
    "etics": 21578,
    "Ġbroadway": 23981,
    "Ġma": 3251,
    "irene": 15915,
    "Ġalteration": 9545,
    "Ġabound": 8864,
    "Ġbul": 3292,
    "tempestuous": 26097,
    "Ġswim": 3820,
    "tailed": 17685,
    "Åĵuvre": 25887,
    "Ġfavourable": 7958,
    "Ġdimmed": 24267,
    "Ġsquid": 11876,
    "Ġpronounce": 16968,
    "compose": 24030,
    "Ġmagnificent": 9841,
    "ationally": 15703,
    "Ġcoal": 18593,
    "ched": 1550,
    "sus": 6228,
    "Ġverdure": 10612,
    "Ġfordham": 21773,
    "absent": 21786,
    "Ġirregular": 9864,
    "Ġicy": 10747,
    "Ġris": 4886,
    "Ġassertions": 19945,
    "reposed": 24492,
    "musket": 25341,
    "Ġremarkable": 4915,
    "Ġcoupled": 16851,
    "ours": 3428,
    "ode": 1454,
    "Ġunmanufactured": 20432,
    "Ġaccomplice": 24376,
    "connect": 1293,
    "Ġexponential": 1062,
    "Ġstocks": 23173,
    "Ġscratches": 22269,
    "heavens": 19744,
    "Ġsaturation": 2063,
    "Ġhammock": 5768,
    "animated": 14974,
    "irts": 9237,
    "ignominious": 26587,
    "Ġpersever": 10002,
    "Ġscream": 5934,
    "computer": 2014,
    "Ġdrugged": 12600,
    "calculating": 25689,
    "Ġundoing": 22032,
    "bedroom": 14676,
    "Ġran": 3341,
    "anned": 17839,
    "singular": 12186,
    "announced": 19758,
    "fooled": 24419,
    "ulnerable": 18150,
    "Ġcupboard": 16883,
    "Ġbrazier": 26320,
    "Ġparamore": 22119,
    "witted": 17707,
    "Ġcoburg": 18597,
    "mm": 673,
    "Ġtren": 17721,
    "Ġsignific": 3828,
    "Ġconcussion": 26300,
    "mopol": 15395,
    "Ġsplinter": 23745,
    "ribute": 7224,
    "batch": 1982,
    ".,": 5987,
    "forget": 11032,
    "Ġblacks": 23386,
    "Ġinfinitely": 8963,
    "term": 3758,
    "Ġtogether": 1877,
    "Ġprimal": 17107,
    "Ġvengeance": 5884,
    "Ġausten": 5880,
    "Ġgurg": 15671,
    "Ġmoonshine": 19596,
    "Î": 143,
    "Ġdeterminate": 22994,
    "reinforcement": 7826,
    "Ġepo": 21618,
    "Ġexcited": 5580,
    "feeders": 25235,
    "ivity": 1629,
    "Ġparts": 4165,
    "Ġcolds": 23757,
    "Ġdeer": 12718,
    "scale": 3534,
    "Ġsmoothe": 23654,
    "yards": 9623,
    "oms": 4593,
    "?âĢĿâĢĶ": 12893,
    "ref": 6515,
    "linked": 17593,
    "instantly": 7506,
    "mock": 5174,
    "bride": 19198,
    "em": 389,
    "Ġoccupy": 14730,
    "sequence": 2854,
    "iarity": 8743,
    "Ġstat": 1492,
    "Ġflu": 3276,
    "Ġdarker": 13117,
    "Ġport": 3308,
    "hy": 4740,
    "-": 17,
    "necessities": 24306,
    "Ġwheel": 9717,
    "province": 26072,
    "Ġdepresses": 25797,
    "ucy": 15444,
    "ourable": 4967,
    "Ġshameful": 19851,
    "inav": 15484,
    "Ġcustomary": 8669,
    "appl": 9325,
    "Ġdismay": 11807,
    "tarpaul": 21096,
    "consid": 4924,
    "bler": 11472,
    "&": 10,
    "Ġbrand": 16186,
    "Ġ26": 10470,
    "dutch": 17218,
    "strong": 6322,
    "pride": 11210,
    "Ġancient": 5443,
    "Ġbegged": 8230,
    "mr": 1900,
    "Ġpin": 7161,
    "ifford": 15782,
    "aviour": 11005,
    "Ġshort": 2223,
    "iest": 4038,
    "Ġworsted": 19993,
    "Ġunseen": 3523,
    "Ġprints": 16330,
    "guard": 12126,
    "cousins": 20116,
    "Ġscaramouch": 23825,
    "Ġabutted": 22282,
    "blue": 13692,
    "Ġsupplication": 25491,
    "Ġepidemic": 20694,
    "Ġheel": 9683,
    "Ġalmost": 1658,
    "outs": 7008,
    "Ġstaff": 14005,
    "ution": 4350,
    "Ġunmo": 12771,
    "Ġell": 17715,
    "Ġbetter": 1176,
    "Ġweather": 3999,
    "Ġestablish": 9542,
    "Ġpioneer": 17918,
    "Ġconcl": 5095,
    "Ġcommunication": 1869,
    "mend": 20965,
    "Ġsneeze": 24699,
    "Ġengaging": 9335,
    "Ġbeliefs": 24582,
    "meal": 22709,
    "hess": 4747,
    "Ġsharper": 17179,
    "ary": 986,
    "presume": 25669,
    "Ġoftentimes": 20154,
    "Ġtargets": 4204,
    "inquiries": 13575,
    "barbar": 20237,
    "Ġcollateral": 20070,
    "arm": 1355,
    "Ġdz": 4756,
    "N": 50,
    "Ġkingdom": 12017,
    "Ġscreening": 25299,
    "Ġascent": 19617,
    "£": 101,
    "Ġbounding": 19398,
    "Ġhut": 15617,
    "althily": 19357,
    "Ġconsented": 11295,
    "Ġmanifested": 17157,
    "Ġjing": 15948,
    "Ġpreprocessing": 26536,
    "inates": 21179,
    "Ġdeserved": 7736,
    "Ġbuff": 9172,
    "Ġsolar": 22882,
    "Ġrevenge": 5452,
    "respectable": 19846,
    "Ġdrawling": 19435,
    "Ġalchemists": 26487,
    "musical": 25340,
    "Ġcetace": 14987,
    "Ġchaise": 9076,
    "Ġburden": 8607,
    "Ġchoice": 2165,
    "Ġwhaleboats": 18478,
    "ú": 187,
    "iod": 3840,
    "shorn": 22449,
    "Ġmostly": 7663,
    "Ġecl": 18005,
    "ake": 748,
    "Ġprojects": 9510,
    "Ġswing": 13032,
    "requent": 3649,
    "Ġque": 4159,
    "Ġmainland": 22646,
    "Ġdominion": 16529,
    "lose": 12880,
    "owder": 8449,
    "Ġmarred": 23029,
    "inger": 6812,
    "Ġoccurred": 4463,
    "Ġburning": 5976,
    "Ġsemicirc": 16392,
    "Ġspin": 7629,
    "Ġcapting": 23016,
    "Ġattics": 22618,
    "Ġtoilette": 20491,
    "Ġcommonly": 3262,
    "Ġdistricts": 20262,
    "Ġconsidered": 4611,
    "ipagos": 22353,
    "Ġadequately": 15197,
    "hur": 6648,
    "clusion": 16304,
    "Ġrapture": 13494,
    "Ġsog": 22072,
    "Ġwhistles": 24624,
    "Ġsauntering": 18327,
    "companions": 15023,
    "99": 1895,
    "Ġcounterpart": 24721,
    "prehens": 9288,
    "queer": 10363,
    "Ġsiamese": 20481,
    "Ġstrictly": 12283,
    "arms": 10173,
    "Ġtoo": 1166,
    "Ġretreat": 6069,
    "Ġcounted": 12137,
    "throt": 25659,
    "Ġdisquiet": 18552,
    "upper": 11538,
    "iet": 1774,
    "ides": 2161,
    "Ġprior": 11318,
    "Ġhaunts": 18198,
    "olen": 9699,
    "Ġabroad": 8866,
    "Ġdisown": 22521,
    "Ġdiamond": 15597,
    "Ġbushy": 16400,
    "Ġleave": 2456,
    "osis": 18389,
    "obliged": 20630,
    "Ġglens": 18847,
    "because": 4923,
    "solved": 7684,
    "rasing": 21044,
    "joining": 19444,
    "Ġharem": 9708,
    "ica": 10198,
    "Ġmissed": 8555,
    "nns": 1892,
    "Ġdormouse": 4925,
    "lu": 597,
    "Ġdissembling": 26254,
    "Ġsumm": 3354,
    "wards": 1276,
    "Ġrebounds": 25967,
    "Ġaspired": 25984,
    "Ġcharted": 22247,
    "cutting": 23783,
    "Ġchace": 14178,
    "Ġforged": 12702,
    "Ġcollection": 8221,
    "turner": 19540,
    "Ġrejoinder": 24597,
    "Ġdes": 1248,
    "luxur": 25822,
    "Ġcrazy": 8592,
    "Ġfaded": 10809,
    "Ġpropont": 16349,
    "grees": 20885,
    "idation": 5022,
    "Ġstiggs": 25792,
    "Ġimitation": 22168,
    "blacksmith": 17001,
    "Ġphrenologist": 25607,
    "Ġneighbor": 25805,
    "continuance": 19717,
    "seas": 14032,
    "Ġunderstand": 843,
    "experience": 17158,
    "Ġavowed": 16633,
    "Ġinsincere": 26599,
    "Ġsilken": 16378,
    "glass": 9908,
    "Ġvehement": 16201,
    "wat": 6231,
    "infall": 21187,
    "Ġeyford": 10641,
    "ousings": 18335,
    "when": 1597,
    "Ġwooded": 23519,
    "charlotte": 6473,
    "mblance": 7323,
    "Ġanno": 9667,
    "Ġpanic": 11286,
    "verted": 10217,
    "Ġlighter": 12651,
    "Ġclient": 5556,
    "maintained": 25020,
    "ĠâĢľâĢĶ": 9733,
    "rees": 5436,
    "lean": 21363,
    "Ġgoney": 14545,
    "Ġcousins": 9914,
    "Ġequator": 7461,
    "onel": 3091,
    "ratches": 20123,
    "Ġdeformity": 11675,
    "happ": 3105,
    "doub": 6223,
    "Ġpretended": 19313,
    "to": 715,
    "Ġdeact": 18135,
    "constellation": 24607,
    "ifications": 9728,
    "Ġwr": 1548,
    "Ġcollar": 11877,
    "Ġcat": 2120,
    "isms": 12578,
    "Ġaffronted": 22891,
    "loved": 14250,
    "educ": 10828,
    "rod": 10831,
    "Ġconsecrate": 26489,
    "Ġhappen": 5571,
    "Ġpersonal": 7479,
    "Ġveteran": 17449,
    "Ġmutters": 23953,
    "Ġfeeble": 12282,
    "accomplished": 17211,
    "showed": 16025,
    "haust": 5777,
    "Ġhogarth": 25780,
    "Ġdepartment": 24241,
    "Ġconstrain": 2628,
    "Ġbrah": 19355,
    "Ġneskyeuna": 26459,
    "Ġridiculous": 10628,
    "Ġder": 1499,
    "Ġaccidentally": 9504,
    "Ġum": 10211,
    "Ġuniversally": 11998,
    "Ġravines": 25831,
    "Ġgovernments": 20266,
    "whatsoever": 18487,
    "Ġspeaking": 4029,
    "Ġnegro": 6447,
    "urn": 777,
    "Ġdiabolically": 25513,
    "Ġcripp": 9653,
    "Ġirons": 7695,
    "Ġassociates": 24712,
    "val": 1175,
    "Ġvirt": 3908,
    "dislike": 23492,
    "ï": 176,
    "elements": 25203,
    "roylott": 20025,
    "Ġopera": 23424,
    "Ġsuit": 5725,
    "Ġrepositories": 23362,
    "Ġprincipal": 6496,
    "Ġfert": 15580,
    "Ġarticulate": 24432,
    "Ġzeros": 3323,
    "judges": 19572,
    "Ġpan": 5082,
    "appeared": 4282,
    "Ġvan": 1088,
    ");": 7330,
    "Ġacknowledged": 7534,
    "Ġscaling": 3631,
    "atre": 17770,
    "ľ": 255,
    "Ġperishing": 22395,
    "Ġmiller": 19882,
    "taught": 17684,
    "Ġcreatures": 4138,
    "beheld": 11799,
    "Ġsorrow": 4629,
    "Ġunostentatious": 22067,
    "itters": 10781,
    "Ġalternative": 19985,
    "Ġalighted": 18103,
    "Ġapproaching": 6283,
    "Ġreproach": 9556,
    "Ġsocks": 14132,
    "Ġintact": 21986,
    "Ġforgotten": 5679,
    "Ġhorizontal": 7782,
    "Ġscenari": 22270,
    "liter": 11501,
    "Ġforehead": 5261,
    "Ġstar": 6022,
    "Ġlaug": 3627,
    "Ġtension": 13823,
    "accuracy": 9878,
    "Ġdetermination": 9818,
    "ather": 741,
    "Ġskylight": 24072,
    "lined": 12481,
    "Ġslit": 13053,
    "Ġbass": 17855,
    "Ġglimp": 6065,
    "Ĭ": 237,
    "Ġpreferred": 14965,
    "Ġmis": 914,
    "construction": 19777,
    "Ġportcullis": 26603,
    "Ġeuroclydon": 15295,
    "bearing": 9764,
    "Ġbee": 21746,
    "by": 1158,
    "Ġunappe": 22015,
    "resistible": 10643,
    "Ġcottagers": 6761,
    "Ġconclude": 8580,
    "Ġatmosphere": 10897,
    "Ġtyro": 16994,
    "Ġimpregnable": 26023,
    "Ġignominy": 15084,
    "Ġlingo": 24903,
    "olera": 21830,
    "Ġsaint": 15507,
    "actor": 11836,
    "oniously": 21256,
    "Ġrunning": 3953,
    "independ": 15980,
    "Ġherring": 14126,
    "Ġrestlessness": 23290,
    "Ġwarmest": 16484,
    "Ġdrenched": 12601,
    "running": 6797,
    "march": 13754,
    "Ġstochastic": 3264,
    "Ġcommodore": 12393,
    "Ġgoethe": 22419,
    "Ġhatchet": 16528,
    "Ġutensils": 23514,
    "ior": 2041,
    "Ġinclude": 1873,
    "Ġsmote": 18574,
    "Ġturner": 7049,
    "hosmer": 25902,
    "cur": 3269,
    "bildad": 9586,
    "Ġdisgracing": 26255,
    "request": 21240,
    "?--": 15302,
    "zar": 11547,
    "berwell": 22716,
    "Ġbush": 23333,
    "thou": 4709,
    "Ġsuffers": 2972,
    "Ġtenderly": 11314,
    "Ġcolossal": 11459,
    "younger": 11312,
    "world": 5058,
    "Ġenric": 21931,
    "Ġforth": 3463,
    "Ġoath": 7833,
    "Ġcaulking": 20292,
    "Ġenough": 1761,
    "agne": 21902,
    "useful": 16502,
    "otherwise": 7670,
    "Ġswimming": 5507,
    "grand": 7969,
    "Ġnowadays": 18546,
    "Ġimport": 1058,
    "def": 1452,
    "Ġsurprised": 3830,
    "inging": 5906,
    "sm": 3436,
    "Ġgritted": 22801,
    "whence": 23211,
    "Ġrender": 8304,
    "Ġrecumbent": 22739,
    "Ġspitzbergen": 15286,
    "Ġsufferer": 16260,
    "Ġlascar": 9199,
    "Ġwhereupon": 14295,
    "Ġenglishmen": 19428,
    "Ġcastaway": 16640,
    "Ġauthorities": 11264,
    "lant": 20946,
    "Ġjungfrau": 15247,
    "Ġtelegram": 15222,
    "trifling": 19412,
    "Ġcaves": 15552,
    "hester": 9631,
    "Ġcongreg": 8462,
    "luding": 6700,
    "atch": 672,
    "Ġbeams": 14631,
    "heaven": 8052,
    "Ġzoology": 22816,
    "progress": 11986,
    "however": 4374,
    "Ġcorpor": 23036,
    "fair": 10092,
    "oration": 2208,
    "osh": 18388,
    "Ġresort": 18563,
    "Ġlodger": 24092,
    "âĢĶâĢľ": 2969,
    "Ġportent": 12079,
    "Ġlab": 1870,
    "Ġovertook": 18428,
    "Ġcorrespond": 6209,
    "Ġconfessor": 24016,
    "Ġanalog": 12610,
    "vices": 21115,
    "por": 2151,
    "arrival": 15598,
    "Ġ2026": 12333,
    "athy": 14322,
    "Ġvillas": 24052,
    "Ġpyth": 21459,
    "Ġgroans": 14823,
    "entions": 17974,
    "Ġcetology": 10008,
    "Ġtows": 19561,
    "assertion": 22308,
    "á": 162,
    "Ġdis": 695,
    "Ġglac": 9344,
    "Ġbildad": 3782,
    "ors": 856,
    "rubbed": 22177,
    "edily": 17943,
    "Ġtolland": 24988,
    "Ġpie": 13914,
    "supposed": 13313,
    "pumps": 21026,
    "Ġhandsome": 4906,
    "Ġconsiderable": 4010,
    "wanted": 10743,
    "child": 5538,
    "Ġwithdraw": 16964,
    "Ġimmemorial": 10510,
    "erson": 7002,
    "Ġscholar": 26111,
    "Ġcrocod": 19627,
    "sombre": 23852,
    "Ġregard": 3066,
    "Ġl": 303,
    "Ġkicked": 10581,
    "Ġcliffs": 15966,
    "Ġowning": 18744,
    "Ġjumbled": 22294,
    "destroyed": 15259,
    "Ġmuteness": 19415,
    "Ġfortunately": 12177,
    "Ġdisgusted": 14989,
    "Ġcompliance": 12112,
    "tit": 11527,
    "stating": 21644,
    "Ġchains": 8250,
    "Ġflann": 23009,
    "Ġjove": 9268,
    "onement": 21255,
    "Ġdesires": 9456,
    "uts": 8815,
    "Ġreliably": 22877,
    "Ġthou": 1808,
    "Ġpreprocess": 22230,
    "Ġrank": 6258,
    "Ġfocuses": 8649,
    "Ġreplen": 11114,
    "ut": 308,
    "Ġactiv": 835,
    "linging": 16078,
    "bingley": 4927,
    "Ġcolonies": 14375,
    "Ġtreble": 16503,
    "Ġdied": 4112,
    "Ġgazette": 19499,
    "Ġcolonial": 22860,
    "Ġleast": 2065,
    "mistak": 16878,
    "Ġregularizer": 2337,
    "meet": 11854,
    "journey": 8744,
    "consternation": 16912,
    "fre": 5425,
    "Ġconjured": 25099,
    "ustry": 18361,
    "Ġslouched": 13055,
    "Ġsquint": 22832,
    "rupt": 3209,
    "Ġhole": 6079,
    "ences": 1262,
    "Ġanguish": 5583,
    "avish": 22594,
    "Ġworse": 4719,
    "Ġinvestigation": 9042,
    "Ġraw": 3319,
    "Ġbehaviour": 4385,
    "Ġchapter": 2954,
    "floor": 14935,
    "Ġintolerably": 15828,
    "seals": 21815,
    "Ġsingers": 23770,
    "Ġsil": 1797,
    "above": 8147,
    "Ġwipe": 25764,
    "changing": 10854,
    "Ġdais": 24372,
    "Ġsmilingly": 22557,
    "renewed": 19703,
    "Ġreporting": 24657,
    "Ġtried": 3647,
    "Ġpreposterous": 13668,
    "Ġaugment": 8691,
    "become": 14246,
    "Ġrib": 4936,
    "culous": 11140,
    "print": 23809,
    "Ġassurances": 9999,
    "ĩ": 234,
    "Ġpropontis": 17465,
    "Ġprudential": 17919,
    "Ġaugmentation": 20114,
    "Ġwhalers": 8047,
    "Ġforging": 18093,
    "Ġunworthy": 11713,
    "Ġescape": 2647,
    "Ġserve": 9367,
    "Ġour": 1007,
    "Ġdangling": 17174,
    "Ġbiography": 22762,
    "Ġwhirlp": 16963,
    "Ġinevitably": 17230,
    "Ġreception": 9838,
    "Ġwalk": 1825,
    "ources": 2787,
    "Ġcontour": 18474,
    "vain": 15447,
    "Ġsavage": 4014,
    "Ġviolin": 16428,
    "ites": 3899,
    "Ġdisplay": 6428,
    "Ġawaiting": 11390,
    "Ġsaf": 4004,
    "Ġroses": 11784,
    "iosity": 2452,
    "Ġexecut": 4247,
    "mistakable": 20652,
    "Ġcompliment": 5673,
    "Ġgriefs": 16771,
    "dimensional": 2347,
    "varying": 13803,
    "Ġglacier": 11433,
    "Ġwondrously": 24063,
    "Ġmuster": 16121,
    "Ġcontrast": 2117,
    "Ġthings": 1961,
    "Ġfullest": 14813,
    "Ġassistance": 6333,
    "Ġscraps": 16902,
    "lightning": 16551,
    "Ġunhappily": 18262,
    "Ġcomprehensiveness": 25072,
    "Ġcolumn": 9327,
    "Ġlouder": 13466,
    "groom": 8739,
    "Ġswart": 14433,
    "reasonable": 7751,
    "Ġelix": 22641,
    "lovel": 22508,
    "Ġtasks": 1789,
    "Ġrudeness": 17124,
    "Ġfinding": 3263,
    "Ġtinge": 25087,
    "ford": 2822,
    "?âĢĶ": 3468,
    "offensive": 16396,
    "ceive": 3062,
    "pervised": 1525,
    "Ġ103": 24411,
    "phere": 21018,
    "Ġconference": 15745,
    "mitting": 17602,
    "Ġgod": 1935,
    "Ġpreserve": 7529,
    "widely": 25343,
    "aggoo": 5130,
    "Ġundet": 16704,
    "Ġflourishing": 25187,
    "Ġstreet": 2956,
    "Ġclutches": 20016,
    "orney": 17873,
    "Ġanimating": 23422,
    "tackle": 17320,
    "Ġsustenance": 19932,
    "Ġopenness": 18956,
    "attle": 4467,
    "Ġcounting": 13093,
    "glances": 23851,
    "Ġoccupant": 16651,
    "Ġscents": 22265,
    "Ġleviathan": 3287,
    "cy": 650,
    "across": 10324,
    "Ġevangelical": 25506,
    "Ġexeget": 24085,
    "Ġbraced": 16579,
    "Ġremonstrance": 20621,
    "Ġdut": 2986,
    "teak": 22812,
    "Ġstrongest": 11135,
    "Ġgraphs": 25463,
    "possesses": 24616,
    "Ġfond": 4755,
    "oldened": 22638,
    "Ġdost": 7636,
    "Ġphantoms": 13484,
    "Ġreceiving": 4882,
    "Ġer": 8104,
    "nals": 16398,
    "wholly": 10941,
    "Ġsignificant": 8633,
    "Ġadvice": 4901,
    "Ġcolt": 11044,
    "Ġpiercing": 13492,
    "bermaid": 20789,
    "Ġstaying": 8283,
    "tre": 8760,
    "sky": 12508,
    "Ġsire": 15501,
    "ret": 1478,
    "Ġeigen": 4881,
    "swift": 14851,
    "Ġapprehens": 5682,
    "thunder": 10261,
    "Ġpretence": 13205,
    "Ġlofty": 6217,
    "likewise": 13102,
    "Ġenjoying": 11234,
    "ig": 323,
    "Ġsubsequent": 7658,
    "Ġconnex": 10665,
    "Ġstruct": 2782,
    "fol": 4862,
    "Ġintrospective": 20599,
    "Ġwrath": 16316,
    "despairing": 25074,
    "drop": 15336,
    "immortal": 21707,
    "Ġchronicled": 25328,
    "Ġallurements": 22006,
    "*": 14,
    "Ġkeen": 4613,
    "listen": 13512,
    "Ġkneel": 14806,
    "Ġremo": 3786,
    "according": 12026,
    "Ġadvis": 9806,
    "Ġstare": 10864,
    "civilities": 24971,
    "Ġsparkling": 11356,
    "Ġcomplaint": 24776,
    "Ġellenborough": 26154,
    "bit": 3933,
    "Ġconcil": 23319,
    "Ġmalignant": 14877,
    "arter": 17893,
    "stamp": 21651,
    "Ġbro": 1431,
    "Ġrevers": 21661,
    "obser": 11099,
    "raise": 18011,
    "shattered": 22451,
    "igned": 5656,
    "Ġloom": 7628,
    "Ġfemales": 14936,
    "Ġcoherent": 3261,
    "Ġglen": 18845,
    "ep": 446,
    "Ġwhip": 8451,
    "emph": 21923,
    "Ġleaps": 14007,
    "wonders": 17143,
    "covered": 11477,
    "frankenstein": 11391,
    "astic": 1867,
    "Ġuncont": 14115,
    "Ġwondering": 7970,
    "Ġdescended": 7428,
    "Ġmotioned": 19591,
    "pressing": 19013,
    "Ġlodgings": 8311,
    "Ġhonor": 5664,
    "Ġwhite": 1543,
    "pondicherry": 26400,
    "Ġelucidated": 26029,
    "problems": 11434,
    "Ġraft": 16115,
    "Ġshowers": 16605,
    "Ġjoin": 4853,
    "Ġperform": 1033,
    "spir": 5738,
    "Ġrepeat": 7999,
    "Ġprofile": 16488,
    "Ġarrogance": 26231,
    "Ġneighbourhood": 5126,
    "mpus": 13756,
    "cies": 1812,
    "ctive": 11622,
    "Ġprecious": 5760,
    "Ġstarbuck": 2194,
    "Ġbizarre": 17871,
    "Ġungracious": 18258,
    "attent": 9358,
    "handedness": 24920,
    "Ġmounttop": 19976,
    "Ġstated": 9688,
    "Ġsimilarity": 3167,
    "Ġmere": 2713,
    "###": 3827,
    "Ġnormal": 1204,
    "Ġcomparable": 24278,
    "summon": 23414,
    ".âĢĿ": 464,
    "possess": 5983,
    "Ġsuffocated": 20727,
    "Ġoverflowed": 20261,
    "Ġaddresses": 3769,
    "Ġtext": 2264,
    "Ġic": 9625,
    "au": 778,
    "copy": 5133,
    "tiest": 21080,
    "jar": 17577,
    "herald": 22202,
    "Ġunc": 2124,
    "itate": 6667,
    "Ġbanking": 19629,
    "arp": 2028,
    "remain": 9837,
    "Ġfolks": 14425,
    "Ġallies": 18234,
    "Ġcommenced": 8531,
    "Ġdiab": 10611,
    "Ġbridges": 24682,
    "Ġphilosophy": 7103,
    "pequod": 7052,
    "Ġdesol": 6881,
    "dial": 20824,
    "Ġowe": 8114,
    "Ġsubproblems": 12954,
    "insurance": 18887,
    "Ġcomplaints": 12262,
    "Ġweaken": 21918,
    "Ġvirtuous": 14754,
    "ators": 7829,
    "Ġyarns": 15194,
    "Ġchurned": 18385,
    "hand": 2756,
    "Ġdominic": 25381,
    "Ġcoldness": 23758,
    "Ġfig": 3624,
    "õ": 182,
    "Ġstarboard": 7604,
    "Ġbeard": 11654,
    "Ġroundabout": 23059,
    "fortune": 4975,
    "Ġmorocco": 26573,
    "Ġstruggling": 12072,
    "Ġruins": 16157,
    "arranged": 19318,
    "Ġbree": 5012,
    "Ġidentify": 12012,
    "avor": 14276,
    "cture": 15663,
    "Ġformal": 2940,
    "Ġinexpress": 12633,
    "Ġdedicated": 19225,
    "Ġunimpe": 22069,
    "finish": 24384,
    "Ġlicense": 20089,
    "Ġgall": 4352,
    "Ġraises": 11843,
    "amples": 1822,
    "values": 4973,
    "Ġfanny": 23389,
    "plexy": 18575,
    "Ġostr": 21323,
    "Ġeverything": 3155,
    "Ġcontributed": 16008,
    "Ġgrotes": 19562,
    "Ġheeded": 13401,
    "Ġblades": 11893,
    "gained": 20880,
    "Ġnewcomer": 26040,
    "zealand": 26045,
    "Ġdirectors": 18921,
    "Ġelect": 10842,
    "inent": 9628,
    "owal": 13995,
    "fortunately": 9450,
    "Ġbanish": 15568,
    "Ġresiding": 16060,
    "Ġdeveloped": 16342,
    "Ġpounds": 5368,
    "doesn": 19819,
    "Ġstilly": 25973,
    "Ġmartha": 16262,
    "Ġbursting": 8655,
    "Ġfiltering": 23923,
    "Ġfitly": 23996,
    "aved": 5475,
    "Ġlamentations": 17076,
    "Ġsail": 1675,
    "clock": 3934,
    "Ġgetting": 4067,
    "fr": 4804,
    "Ġhing": 11603,
    "Ġadieu": 10050,
    "Ġanonym": 17897,
    "beloved": 19459,
    "Ġhath": 12626,
    "Ġcomputers": 2645,
    "rollable": 13944,
    "wooden": 24587,
    "Ġmarlingspike": 26579,
    "folding": 24927,
    "Ġclinched": 17393,
    "Ġgirth": 13134,
    "Ġbowl": 11204,
    "Ġremonstr": 16160,
    "Ġsaleve": 17390,
    "Ġserpent": 6737,
    "Ġdistance": 3483,
    "paid": 15414,
    "Ġillustration": 19135,
    "Ġaccidents": 10295,
    "Ġcrowd": 6336,
    "deformity": 22143,
    "comparatively": 25839,
    "berg": 11856,
    "ect": 381,
    "nurs": 20998,
    "gir": 8082,
    "..": 5783,
    "Ġinsurg": 23679,
    "Ġdyspepsia": 20642,
    "Ġchalk": 15932,
    "Ġdespaired": 14668,
    "Ġtarred": 23608,
    "Ġmorality": 22968,
    "Ġtrib": 13818,
    "corpse": 24486,
    "Ġanything": 2186,
    "Ġencounters": 19579,
    "Ġworship": 10366,
    "Ġbaby": 6636,
    "Ġdestroyer": 13411,
    "apparatus": 26563,
    "wherever": 13116,
    "Ġdiscreet": 16482,
    "suff": 4961,
    "Ġretain": 7862,
    "Ġcircumspect": 15083,
    "Ġmention": 2984,
    "justice": 7957,
    "iloquent": 21722,
    "Ġgrammatical": 13537,
    "Ġundec": 22016,
    "spoutings": 25001,
    "Ġhindoo": 17175,
    "Ġwarrior": 24496,
    "folly": 20861,
    "Ġlady": 1592,
    "fail": 17540,
    "among": 6256,
    "Ġcretan": 22724,
    "Ġsincerely": 7962,
    "Ġveil": 7933,
    "Ġmortified": 14694,
    "Ġexplaining": 15959,
    "Ġdanger": 3519,
    "onah": 3335,
    "enorm": 17781,
    "Ġproblems": 2847,
    "Ġaffability": 14386,
    "ġ": 226,
    "Ġtremulous": 14985,
    "Ġrowing": 10300,
    "Ġmutually": 23954,
    "acceptable": 25184,
    "Ġgiants": 25960,
    "âĢĶ.": 11753,
    "Ġhas": 825,
    "brance": 7284,
    "Ġpresents": 8244,
    "irs": 14069,
    "eers": 20842,
    "Ġterrify": 19359,
    "Ġdangerously": 23934,
    "cold": 9589,
    "Ġfury": 7660,
    "Ġshake": 6033,
    "í": 174,
    "ump": 2283,
    "ivil": 6411,
    "front": 12168,
    "Ġsixpence": 19316,
    "ifting": 6545,
    "create": 24159,
    "Ġlustrous": 20155,
    "Ġbumping": 25280,
    "anx": 8783,
    "Ġapple": 14166,
    "Ġindirectly": 8939,
    "Ġsally": 15502,
    "Ġunwillingness": 20030,
    "ely": 622,
    "ing": 273,
    "tarpaulins": 26405,
    "Ġmortally": 23914,
    "Ġhot": 4257,
    "your": 1984,
    "Ġpatentee": 25586,
    "Ġunbroken": 18250,
    "Ġfootfalls": 25866,
    "ĥ": 230,
    "torture": 26151,
    "Ġclassical": 22626,
    "Ġdisp": 3357,
    "wishes": 13806,
    "itiously": 13870,
    "Ġinterp": 16070,
    "vint": 21113,
    "Ġhunks": 18935,
    "hind": 20893,
    "Ġgrowing": 6750,
    "Ġarticle": 9501,
    "Ġcoars": 14270,
    "Ġzoned": 22815,
    "Ġgarments": 15192,
    "Ġdropt": 23671,
    "equal": 14992,
    "Ġdespatched": 23827,
    "Ġinex": 6528,
    "dig": 4929,
    "Ġingrat": 16840,
    "Ġevolved": 9890,
    "Ġspokes": 18313,
    "Ġepsom": 19981,
    "fashioned": 9570,
    "Ġwhosoever": 21716,
    "diligence": 26110,
    "Ġpunish": 12157,
    "dearest": 11733,
    "Ġgrandeur": 8627,
    "yourself": 6742,
    "gam": 10095,
    "._": 3218,
    "Ġdecisions": 6702,
    "drab": 23895,
    "necessarily": 19630,
    "ĠĠĠĠĠĠĠĠĠĠĠĠĠĠĠĠĠĠĠĠĠĠĠĠĠĠĠ": 14885,
    "grin": 19105,
    "ribe": 1223,
    "racting": 10355,
    "Ġjud": 3356,
    "antediluvian": 24346,
    "ud": 915,
    "Ġapprehensions": 13402,
    "Ġelderly": 13493,
    "Ġpreserved": 9261,
    "Ġextinguished": 10341,
    "Ġvices": 14082,
    "Ġvicious": 24403,
    "Ġsheet": 6262,
    "resembling": 25932,
    "can": 1231,
    "knowledge": 7478,
    "Ġedinburgh": 16436,
    "Ġloathsome": 13526,
    "cri": 17505,
    "row": 1069,
    "Ġviol": 2072,
    "Ġsufficient": 2003,
    "hen": 3517,
    "Ġimpotently": 22390,
    "Ġdisconcerted": 18562,
    "clearly": 25195,
    "branch": 23577,
    "diff": 9113,
    "Ġjane": 1757,
    "Ġgloried": 22977,
    "itement": 7835,
    "Ġdigress": 24648,
    "Ġpersisting": 18895,
    "Ġfaintest": 24569,
    "zening": 21147,
    "dish": 12450,
    "ium": 4864,
    "Ġconnectivity": 3666,
    "trop": 15436,
    "Ġdelicate": 6480,
    "Ġappals": 22213,
    "Ġcounterpane": 11343,
    "Ġsnapping": 19300,
    "Ġcoolly": 9771,
    "Ġnature": 2537,
    "Ġdoctor": 5067,
    "ued": 7561,
    "support": 9469,
    "Ġjackson": 24240,
    "Ġtyph": 10007,
    "Ġresulting": 24198,
    "ule": 6800,
    "Ġindign": 6173,
    "T": 56,
    "Ġdismantled": 20215,
    "anel": 21355,
    "tu": 12509,
    "Ġbob": 22635,
    "Ġfolio": 11915,
    "Ġmoot": 22427,
    "Ġembattled": 26289,
    "Ġcomplete": 4383,
    "inders": 15979,
    "Ġmagn": 1559,
    "Ġpillar": 21471,
    "accept": 8897,
    "Ġrepine": 16409,
    "worse": 14690,
    "Ġdandy": 17892,
    "Ġmagistrate": 8233,
    "Ġmatrim": 11060,
    "Ġherself": 1573,
    "Ġtremor": 24768,
    "crowded": 20189,
    "Ġspecific": 2002,
    "gress": 2212,
    "Ġrounding": 16274,
    "Ġmoderately": 22221,
    "Ġappropri": 2225,
    "Ġthereupon": 18434,
    "Ġsuspicion": 6211,
    "Ġg": 310,
    "Ġbulky": 13226,
    "invite": 25088,
    "clump": 23152,
    "Ġworrying": 22924,
    "Ġcaught": 3730,
    "Ġrinal": 21977,
    "Ġowned": 11874,
    "Ġessentially": 24924,
    "flinging": 20867,
    "Ġimprudently": 22386,
    "Ġunprincipled": 20707,
    "aint": 2540,
    "acknowled": 10975,
    "Ġretreating": 19798,
    "igger": 21698,
    "aid": 1921,
    "Ġunctuousness": 17234,
    "Ġundiscovered": 18252,
    "Ġpick": 4256,
    "Ġsays": 3560,
    "Ġshun": 11707,
    "Ġfruit": 12324,
    "Ġinnocently": 24026,
    "eray": 21265,
    "emy": 14072,
    "Ġanoint": 25537,
    "Ġdecidedly": 9508,
    "Ġdesigns": 13008,
    "Ġsleeve": 20139,
    "Ġthroats": 24575,
    "shaken": 16023,
    "Ġcemeteries": 26375,
    "Ġlack": 17963,
    "Ġart": 749,
    "Ġprecipice": 19939,
    "Ġneedless": 19229,
    "Ġinstantaneously": 23656,
    "Ġsolemnity": 9940,
    "ĠĠĠĠĠĠĠĠĠĠĠĠĠĠĠĠĠĠĠĠĠĠĠĠĠĠĠĠĠĠĠĠĠĠĠĠĠĠĠĠĠĠĠĠĠĠĠĠ": 7988,
    "Ġinvolves": 1110,
    "iply": 22351,
    "belt": 24034,
    "Ġbomb": 17867,
    "Ġinquisitive": 26317,
    "shall": 4550,
    "6": 26,
    "ghost": 20886,
    "Ġenv": 2816,
    "Ġ42": 16678,
    "Ġrevealed": 6751,
    "Ġoverlapping": 26238,
    "Ġexquisitely": 20201,
    "reg": 2184,
    "Ġtumult": 7114,
    "Ġconsummate": 25310,
    "Ġtick": 8108,
    "Ġimprudent": 12847,
    "Ġbubbling": 17325,
    "irksome": 18170,
    "Ġinvisible": 7327,
    "apparently": 15203,
    "none": 6962,
    "Ġparticle": 18674,
    "Ġsuppl": 11078,
    "br": 2478,
    "Ġclamorous": 24909,
    "Ġbrewed": 23342,
    "aul": 6352,
    "ceived": 1963,
    "hend": 13250,
    "Ġachieves": 4380,
    "intosh": 22937,
    "Ġruggedness": 26268,
    "Ġbestirred": 20450,
    "ugnance": 12365,
    "politeness": 16906,
    "charm": 13989,
    "ugn": 9377,
    "95": 17477,
    "Ġplaintiffs": 13607,
    "tting": 17680,
    "myst": 9821,
    "observing": 25494,
    "Ġstrove": 9956,
    "Ġalternate": 19984,
    "Ġinhuman": 13928,
    "advanced": 19587,
    "Ġsuspicions": 9478,
    "ifers": 15780,
    "taking": 5689,
    "Ġoutline": 15953,
    "Ġtasted": 12526,
    "Ġjost": 23629,
    "Ġcarved": 7946,
    "Ġupd": 947,
    "Ġqualified": 14949,
    "cor": 5520,
    "Ġsomewhat": 4897,
    "endering": 21283,
    "Ġscold": 10950,
    "iantly": 13738,
    "Ġgames": 11625,
    "Ġessays": 19743,
    "hard": 4690,
    "Ġyawned": 15051,
    "Ġinexperienced": 26100,
    "Ġcheever": 23281,
    "Ġnecessary": 4474,
    "Ġdepicted": 14274,
    "iveness": 2466,
    "backpropagation": 11984,
    "sentence": 2937,
    "ments": 1401,
    "deli": 15343,
    "lot": 3206,
    "Ġtire": 17720,
    "effort": 19213,
    "Ġunpleasant": 7191,
    "conviction": 19963,
    "hooked": 23713,
    "Ġjacket": 6489,
    "asiness": 8128,
    "Ġbeads": 18083,
    "Ġspeculations": 22988,
    "Ġwithhold": 18115,
    "Ġscrewed": 15119,
    "atmospheric": 17776,
    "âĢĶâĢĿ": 3298,
    "Ġwallowing": 24042,
    "kine": 15374,
    "Ġfairness": 9892,
    "inform": 10143,
    "Ġimpression": 5732,
    "ishment": 3504,
    "Ġhackluyt": 25655,
    "joke": 20929,
    "Ġaustralia": 15231,
    "contact": 23725,
    "Ġanimal": 2497,
    "Ġgroup": 2039,
    "white": 4602,
    "dart": 20825,
    "Ġstrangers": 8313,
    "thought": 3849,
    "objection": 19914,
    "Ġprecipitate": 19940,
    "Ġ102": 24410,
    "helped": 18923,
    "Ġfounder": 17883,
    "neural": 3065,
    "Ġrussian": 14349,
    "drink": 10595,
    "Ġdizzy": 21430,
    "urp": 1473,
    "berries": 22717,
    "minded": 9037,
    "corn": 13698,
    "Ġbade": 9171,
    "Ġmelt": 21316,
    "Ġglimmering": 25240,
    "tranquil": 25870,
    "Ġxviii": 23408,
    "Ġholidays": 22919,
    "gall": 6359,
    "Ġthread": 14539,
    "certain": 3676,
    "ual": 946,
    "Ġlik": 2522,
    "Ġlordly": 23742,
    "Ġgurglings": 26465,
    "oled": 17619,
    "Ġpul": 2042,
    "Ġjogged": 26236,
    "icket": 22665,
    "opius": 18508,
    "Ġrecovering": 11861,
    "Ġsupposing": 6728,
    "Ġflutter": 16248,
    "closed": 23151,
    "Ġfries": 21413,
    "Ġman": 545,
    "Ġcontain": 1557,
    "gardiner": 12289,
    "Ġworks": 5858,
    "ruined": 18337,
    "Ġinvest": 4978,
    "draught": 12087,
    "Ġiron": 3234,
    "Ġnewcomers": 26041,
    "Ġstyled": 24671,
    "uv": 6229,
    "Ġork": 18284,
    "loaded": 22509,
    "Ġgenuine": 14884,
    "Ġvile": 8472,
    "aculate": 16082,
    "stretched": 10207,
    "Ġpractises": 23354,
    "Ġhum": 1099,
    "tracks": 19637,
    "Ġcirculation": 16416,
    "Ġvisit": 2580,
    "Ġmicha": 17811,
    "children": 9055,
    "Ġlodging": 24093,
    "Ġath": 15800,
    "ern": 761,
    "Ġbodings": 21389,
    "fug": 17543,
    ",âĢĶâĢľ": 10069,
    "Ġwhiting": 10859,
    "Ġsoothed": 10028,
    "Ġpeeped": 10011,
    "Ġepid": 18004,
    "valley": 16214,
    "Ġnewly": 9337,
    "ures": 838,
    "stiff": 12673,
    "oker": 10963,
    "assured": 10952,
    "Ġhaul": 11690,
    "newsp": 23132,
    "buncle": 13691,
    "Ġshowed": 4497,
    "Ġconceived": 8149,
    "Ġgross": 11624,
    "te": 994,
    "Ġcontraction": 16007,
    "cription": 20817,
    "Ġsher": 3763,
    "ralian": 19599,
    "atlantic": 15523,
    "Ġdances": 10812,
    "natured": 7110,
    "enemy": 15526,
    "probable": 17021,
    "Ġunwarrantable": 26353,
    "seated": 11671,
    "express": 4895,
    "Ġdomineering": 23675,
    "alter": 10826,
    "li": 1191,
    "Ġfervent": 14895,
    "Ġcompany": 3721,
    "Ġhatherley": 7848,
    "Ġcomra": 7183,
    "Ġunreliable": 3930,
    "Ġinhab": 5083,
    "Ġfundament": 2925,
    "Ġsam": 7569,
    "Ġpardon": 5727,
    "lingering": 18602,
    "mistaken": 12208,
    "Ġshade": 6550,
    "Ġworry": 18816,
    "Ġenchantment": 24869,
    "Ġmentioning": 9898,
    "Ġuniversal": 2231,
    "Ġinvincible": 23478,
    "tied": 21069,
    "Ġfriend": 1297,
    "Ġinform": 997,
    "Ġsewing": 21958,
    "Ġcreativity": 2791,
    "innocent": 20285,
    "although": 8805,
    "unbidden": 21891,
    "Ġgrand": 3593,
    "Ġrelation": 2141,
    "Ġflavor": 16252,
    "advice": 12155,
    "Ġrepeating": 11213,
    "taining": 7205,
    "Ġunlim": 18253,
    "popular": 26140,
    "Ġunmingled": 18263,
    "laug": 10707,
    "Ġfirmest": 16664,
    "Ġgoest": 22418,
    "rrh": 26144,
    "Ġsize": 1218,
    "Ġdeliberate": 15022,
    "Ġapprehen": 16829,
    "bell": 7332,
    "Ġpronouncing": 16969,
    "Ġsolved": 8931,
    "Ġlimber": 16479,
    "nial": 20983,
    "Ġcomputing": 2218,
    "canallers": 22961,
    "Ġneedles": 11184,
    "win": 6801,
    "Ġtending": 17724,
    "Ġreferred": 8916,
    "enced": 4297,
    "Ġwestward": 24389,
    "sies": 21053,
    "Ġearnestness": 12123,
    "science": 11906,
    "Ġcontroverted": 23250,
    "hideous": 25407,
    "allic": 12811,
    "intimate": 22934,
    "Ġabsorbed": 12329,
    "ounders": 22392,
    "ensity": 11811,
    "Ġearnest": 3931,
    "Ġfaintness": 24570,
    "Ġtumble": 16879,
    "recollection": 25348,
    "rigible": 24931,
    "itt": 571,
    "inate": 6233,
    "Ġmembrane": 20502,
    "Ġskulls": 12956,
    "Ġleaving": 3905,
    "iii": 14774,
    "uerus": 26406,
    "conce": 8510,
    "ened": 1389,
    "Ġdecently": 22434,
    "Ġpals": 13917,
    "Ġliving": 3061,
    "Ġauto": 23314,
    "ffy": 18317,
    "forgive": 18729,
    "som": 3290,
    "Ġmilitia": 13315,
    "Ġfellow": 2774,
    "Ġconcentric": 20073,
    "Ġglut": 18846,
    "ominy": 13977,
    "encyclopÃ¦dia": 16663,
    "courageous": 26127,
    "Ġeel": 18001,
    "somewhere": 12011,
    "Ġassistant": 7298,
    "believed": 9932,
    "globe": 25142,
    "princip": 17136,
    "Ġimpregn": 26022,
    "Ġcomstock": 21843,
    "Ġenlarged": 25985,
    "Ġquantity": 6948,
    "Ġperman": 10965,
    "nes": 6961,
    "Ġcoils": 9302,
    "Ġrepel": 23357,
    "Ġclothing": 18423,
    "Ġpermit": 9748,
    "oa": 9612,
    "urches": 12681,
    "Ġhers": 7888,
    "lorious": 17592,
    "rabb": 15678,
    "mentioned": 10623,
    "Ġdaft": 19662,
    "Ġdefault": 3036,
    "Ġacquired": 13040,
    "Ġnile": 21518,
    "Ġisles": 8459,
    "¥": 103,
    "Ġdeserts": 10507,
    "twilight": 23700,
    "Ġpaws": 13920,
    "Ġsheltered": 19910,
    "asing": 5911,
    "Ġobstinacy": 17420,
    "erie": 21270,
    "Ġcover": 3556,
    "master": 5687,
    "weakness": 16123,
    "Ġsettled": 3741,
    "Ġmeek": 21806,
    "Ġcou": 5286,
    "understood": 13214,
    "seventh": 12712,
    "Ġvers": 7563,
    "Ġcorridor": 10671,
    "Ġfurnishing": 16645,
    "Ġinfle": 16362,
    "Ġruss": 18719,
    "prow": 15411,
    "iation": 7343,
    "Ġincompatible": 25680,
    "Ġhiding": 9822,
    "conven": 6162,
    "Ġdearly": 10401,
    "Ġpreviously": 3920,
    "onely": 6516,
    "ort": 522,
    "Ġinert": 15620,
    "revolver": 25627,
    "Ġdetestable": 15097,
    "Ġboarded": 13232,
    "Ġdil": 6383,
    "Ġmetallic": 19069,
    "entiating": 3438,
    "strade": 5065,
    "Ġinspect": 5963,
    "Ġ(_": 3736,
    "Ġhatch": 7847,
    "Ġpurposes": 11168,
    "needles": 20310,
    "danish": 20832,
    "Ġtoiling": 15633,
    "commanding": 24752,
    "Ġethiop": 26155,
    "Ġbarnacled": 25536,
    "Ġboneless": 19604,
    "Ġordered": 5832,
    "Ġrelevance": 5184,
    "Ġacquaintances": 17349,
    "bird": 9585,
    "heidelburgh": 21210,
    "Ġknowledge": 1446,
    "Ġclouds": 5775,
    "ays": 6683,
    "Ġconsists": 11976,
    "Ġcrisis": 13125,
    "beaten": 20314,
    "mming": 1173,
    "Ġpoem": 22589,
    "Ġoversight": 22355,
    "church": 8139,
    "Ġcomplaisance": 19447,
    "Ġmosses": 20162,
    "Ġpacked": 9979,
    "pier": 17635,
    "uendoes": 26407,
    "Ġbulls": 23856,
    "ahawk": 23313,
    "apsed": 6295,
    "Ġdictated": 25218,
    "daggoo": 13706,
    "Ġsickened": 16775,
    "Ġchained": 16387,
    "Ġgoverning": 2795,
    "Ġpresentation": 14480,
    "Ġbit": 2963,
    "Ġloaded": 8490,
    "Ġpurely": 12229,
    "Ġconvey": 9980,
    "Ġpurring": 23474,
    "Ġheavier": 13099,
    "Ġyarman": 12703,
    "expanded": 23661,
    "Ġcoroner": 7510,
    "Ġscorching": 20064,
    "proceeded": 25190,
    "Ġxlix": 25860,
    "forty": 9373,
    "Ġ5": 4935,
    "Ġshetland": 22156,
    "pardonable": 17217,
    "Ġknives": 14836,
    "Ġinnocent": 4921,
    "another": 5439,
    "new": 1466,
    "grate": 23410,
    "Ġrewarding": 13435,
    "_),": 7125,
    "Ġtendons": 19807,
    "Ġprove": 5231,
    "Ġworldly": 16329,
    "Ġmanaging": 22323,
    "inspect": 11558,
    "Ġvouch": 15808,
    "Ġresignation": 18566,
    "Ġwondrous": 4735,
    "crew": 7544,
    "Ġpropensity": 18996,
    "Ġtartar": 17321,
    "Ġdreadfully": 7725,
    "Ġ221": 25068,
    "Ġagents": 9765,
    "Ġbowsprit": 16559,
    "Ġlistened": 4470,
    "Ġindec": 13927,
    "Ġcargo": 16289,
    "Ġviews": 7290,
    "Ġnot": 413,
    "Ġglistened": 20171,
    "Ġrallied": 14095,
    "Ġflashes": 11913,
    "Ġtimidly": 11338,
    "reported": 24493,
    "Ġtrailing": 23077,
    "Ġclimbing": 20068,
    "Ġ23": 13190,
    "assisted": 22304,
    "Ġwine": 6810,
    "Ġtag": 15468,
    "Ġuncomp": 15840,
    "yielded": 25756,
    "Ġfalse": 4344,
    "Ġbulkington": 14677,
    "Ġarsacides": 17293,
    "Ġschemes": 11131,
    "please": 8176,
    "arus": 13911,
    "Ġafford": 4366,
    "Ġpleasant": 4171,
    "izon": 18141,
    "find": 6954,
    "boone": 23252,
    "Ġrelig": 8550,
    "Ġgryphon": 4301,
    "Ġdab": 15586,
    "Ġsympathising": 24297,
    "Ġarchipelagoes": 14347,
    "Ġpyramids": 15113,
    "cient": 4569,
    "Ġfooted": 23795,
    "live": 7550,
    "Ġripp": 11219,
    "Ġwarrant": 17794,
    "Ġpig": 5705,
    "inery": 17733,
    "Ġsupposed": 4558,
    "Ġnoses": 18373,
    "Ġatlantic": 7000,
    "stupid": 12674,
    "Ġsnow": 3707,
    "Ġcalamities": 25699,
    "Ġclasping": 20208,
    "Ġpur": 2215,
    "Ġnear": 1717,
    "aceti": 7111,
    "esting": 7412,
    "intolerable": 22935,
    "affectionate": 24921,
    "Ġgood": 999,
    "Ġloses": 15872,
    "Ġstowed": 21733,
    "Ġcruises": 23703,
    "Ġexhaled": 19681,
    "ball": 7792,
    "regret": 16451,
    "Ġcowards": 12571,
    "Ġimplac": 24874,
    "Ġmeditating": 20041,
    "Ġsupport": 6727,
    "Ġsharpened": 17364,
    "Ġbones": 4583,
    "arking": 16124,
    "Ġgazed": 6478,
    "Ġcompromised": 22568,
    "great": 3516,
    "stubb": 6017,
    "Ġlim": 2378,
    "tol": 17672,
    "Ġmechanism": 2147,
    "eminent": 25104,
    "Ġforce": 5092,
    "enjoy": 10774,
    "Ġweb": 9239,
    "Ġglad": 3324,
    "sight": 5994,
    "misfortunes": 16756,
    "Ġtow": 4396,
    "code": 15328,
    "Ġstill": 1156,
    "Ġthat": 335,
    "Ġhour": 1810,
    "Ġlabours": 8582,
    "Ġunex": 11711,
    "Ġplanted": 9773,
    "Ġomniscient": 20084,
    "Ġfoaming": 18991,
    "ip": 554,
    "abez": 10222,
    "cks": 3081,
    "ĠâĢĻ": 3041,
    "Ġabominate": 20066,
    "oko": 18440,
    "disposition": 10041,
    "Ġmisunderstand": 18702,
    "ial": 410,
    "ally": 531,
    "Ġscrew": 8863,
    "ped": 6365,
    "respective": 19845,
    "Ġming": 9645,
    "®": 111,
    "Ġliked": 5264,
    "Ġyoungest": 7953,
    "Ġhimmale": 18334,
    "Ġsensit": 2945,
    "Ġawa": 7713,
    "emone": 21922,
    "Ġvel": 7186,
    "Ġpoignant": 22593,
    "Ġwhile": 607,
    "dering": 5305,
    "iance": 5279,
    "eli": 3874,
    "Ġ111": 24436,
    "Ġpleas": 1906,
    "Ġsecond": 1889,
    "Ġtaurus": 21177,
    "Ġplow": 21457,
    "Ġblue": 3455,
    "Ġheaps": 11641,
    "reme": 2424,
    "Ġthrice": 10575,
    "Ġbeards": 21748,
    "Ġusages": 15914,
    "Ġattractions": 12914,
    "Ġseren": 7401,
    "aried": 10987,
    "Ġinsanity": 12045,
    "arranging": 19317,
    "confid": 14866,
    "kind": 3864,
    "critters": 14783,
    "happiness": 6469,
    "Ġquick": 2578,
    "Ġstreaked": 19113,
    "âĢĿ": 354,
    "Ġencourag": 1393,
    "Ġruskin": 25809,
    "Ġmons": 10156,
    "backed": 9865,
    "thouse": 21979,
    "attacks": 23121,
    "fl": 3600,
    "corrupt": 14894,
    "Ġmuzzle": 21319,
    "paying": 25411,
    "Ġcomposed": 8891,
    "Ġbennett": 16324,
    "Ġstationary": 19693,
    "Ġcombination": 22844,
    "instrument": 15237,
    "direct": 12454,
    "prejudice": 25571,
    "jol": 20924,
    "educated": 17259,
    "ilib": 4118,
    "volume": 18600,
    "Ġadoption": 24948,
    "Ġdisobedience": 22532,
    "theast": 21745,
    "Ġwounds": 17790,
    "Ġhandspike": 22695,
    "Ġpetty": 19594,
    "Ġnominal": 15167,
    "sharpening": 22456,
    "erranean": 9333,
    "Ġgermans": 25784,
    "Ġblasp": 14401,
    "Ġwin": 9641,
    "Ġultimately": 17164,
    "Ġentreating": 24207,
    "Ġunrelieved": 20544,
    "cape": 13696,
    "oundered": 14164,
    "appears": 12058,
    "Ġcountry": 2531,
    "tered": 2228,
    "elag": 12656,
    "mrs": 3744,
    "empty": 23633,
    "Ġpalmed": 24090,
    "Ġmarchant": 14785,
    "Ġphotograph": 6302,
    "Ġcats": 8979,
    "soldiers": 25911,
    "Ġexcurs": 23311,
    "Ġbad": 3990,
    "Ġpresumed": 10544,
    "Ġborrow": 10170,
    "Ġknew": 2056,
    "Ġsh": 419,
    "Ġpermitted": 9277,
    "atically": 2650,
    "thole": 21983,
    "Ġsatisfying": 23695,
    "Ġfidelity": 15240,
    "Ġfishe": 15584,
    "Ġsurmised": 24919,
    "Ġwalks": 8966,
    "Ġstrongly": 5657,
    "asy": 5294,
    "Ġbleeding": 14879,
    "Ġcreditor": 24290,
    "Ġbalmoral": 16207,
    "ases": 1527,
    "ĠĠĠĠĠĠĠĠĠĠĠĠĠĠĠĠĠĠĠĠĠĠĠĠĠĠĠĠĠĠĠĠĠĠĠĠĠĠĠĠĠĠĠĠĠĠ": 9952,
    "Ġsooner": 5573,
    "Ġvoids": 25807,
    "Ġrambles": 17184,
    "Ġcop": 7579,
    "Ġscalding": 16322,
    "----âĢĻ": 24097,
    "Ġhumming": 12982,
    "eer": 15346,
    "Ġtranquillity": 7536,
    "accursed": 20539,
    "Ġabject": 18396,
    "Ġarist": 14161,
    "Ġhiss": 15786,
    "Ġpierced": 12279,
    "Ġradiance": 13368,
    "eng": 1490,
    "pause": 12498,
    "Ġstrait": 23748,
    "Ġscant": 22263,
    "deprived": 19897,
    "Ġsighed": 10337,
    "peculiarity": 23107,
    "Ġsed": 10761,
    "arab": 21439,
    "Ġenigmatical": 20596,
    "Ġglance": 4233,
    "Ġunch": 18239,
    "Ġbeadle": 26484,
    "Ġperceived": 4714,
    "Ġimpute": 18331,
    "Ġattitude": 8903,
    "questioning": 16850,
    "Ġpraying": 19553,
    "Ġcondescending": 24868,
    "wh": 509,
    "Ġlaid": 3942,
    "Ġoffing": 16142,
    "Ġ8": 5433,
    "Ġoil": 3373,
    "ician": 21562,
    "Ġoun": 13862,
    "ici": 8439,
    "arily": 4127,
    "Ġfitting": 21406,
    "Ġdestroying": 14728,
    "Ġquadrant": 11404,
    "capable": 13700,
    "Ġsurviving": 24637,
    "Ġcircumference": 13543,
    "elev": 12456,
    "flakes": 23965,
    "learnt": 23550,
    "dev": 7632,
    "iture": 5696,
    "morrow": 4572,
    "fatigue": 20657,
    "valuable": 8248,
    "Ġcannib": 6035,
    "droppers": 24759,
    "Ġinsists": 23676,
    "ioning": 21506,
    "Ġfluid": 11212,
    "Ġreasons": 6019,
    "curiosity": 8623,
    "Ġfigure": 4206,
    "Ġtoller": 9090,
    "Ġblinded": 13268,
    "visible": 10533,
    "urance": 10857,
    "Ġclapping": 14202,
    "sac": 7140,
    "elsewhere": 19867,
    "Ġunhappiness": 14117,
    "Ġretort": 23068,
    "Ġlikelihood": 16500,
    "sacrifice": 13490,
    "Ġcordon": 24394,
    "Ġbenjam": 22889,
    "Ġmisled": 22755,
    "Ġcirc": 1985,
    "Ġhated": 7584,
    "alone": 10183,
    "destiny": 16702,
    "Ġmaggie": 26291,
    "gust": 6360,
    "stirred": 20423,
    "Ġoars": 3898,
    "Ġharmony": 16814,
    "certainly": 5339,
    "anoke": 21359,
    "dropped": 12260,
    "Ġswear": 6461,
    "Ġconjectures": 16925,
    "avail": 18605,
    "impressions": 20697,
    "repeated": 12337,
    "aloons": 20009,
    "Ġantip": 24177,
    "mannered": 22850,
    "ow": 326,
    "Ġvir": 7001,
    "oked": 4309,
    "Ġneurons": 975,
    "Ġevenness": 22830,
    "Ġslee": 8974,
    "Ġexcessive": 3892,
    "inative": 15483,
    "delight": 5344,
    "Ġheroes": 10576,
    "ateful": 5926,
    "ress": 932,
    "ohn": 4561,
    "Ġhysterical": 26092,
    "Ġwet": 6518,
    "Ġdidst": 11847,
    "Ġunnaturally": 24870,
    "sinking": 17668,
    "Ġmuttering": 10499,
    "Ġfrigates": 25707,
    "Ġemploys": 19429,
    "Ġcurt": 18852,
    "raid": 3278,
    "Ġsubject": 2463,
    "Ġshuttle": 12124,
    "Ġtrembled": 8701,
    "Ġzeal": 9097,
    "Ġadequ": 10913,
    "blooded": 20021,
    "begone": 12877,
    "ernsey": 8901,
    "Ġeleven": 9389,
    "Ġireland": 17334,
    "ard": 465,
    "Ġalacrity": 15735,
    "Ġluggage": 25957,
    "Ġjustice": 5111,
    "Ġvul": 10247,
    "«": 109,
    "Ġsoup": 7067,
    "coarse": 16487,
    "Ġmistaken": 4986,
    "Ġparagra": 15878,
    "mped": 16647,
    "Ġtraced": 10383,
    "Ġappertaining": 26533,
    "whale": 2140,
    "Ġembraces": 19871,
    "Ġindustry": 18837,
    "judgment": 16753,
    "Ġclattered": 22346,
    "Ġgib": 13964,
    "Ġaccept": 4411,
    "ness": 853,
    "Ġdry": 5624,
    "Ġyour": 633,
    "Ġunspeakably": 25172,
    "Ġostentatious": 25736,
    "securing": 19812,
    "Ġpaused": 5416,
    "Ġinconsistency": 26182,
    "Ġpilot": 5984,
    "contin": 16541,
    "Ġeverybody": 4511,
    "lipped": 16216,
    "Ġfailed": 6671,
    "Ġmoody": 8200,
    "Ġwarmly": 8987,
    "really": 6971,
    "Ġlandsmen": 11351,
    "Ġfamiliar": 5511,
    "Ġenl": 18188,
    "anation": 5803,
    "Ġconsuming": 22789,
    "Ġtroop": 24897,
    "Ġascribe": 16782,
    "Ġreached": 4025,
    "dog": 10692,
    "Ġmarshalled": 25315,
    "fra": 8374,
    "Ġtrod": 15026,
    "Ġocc": 885,
    "naturalists": 23512,
    "izarre": 17388,
    "Ġturkish": 12259,
    "ounted": 5030,
    "Ġsupple": 22989,
    "town": 7142,
    "image": 9685,
    "Ġbachel": 7158,
    "Ġboat": 1277,
    "Ġpumping": 25643,
    "Ġmonosy": 18844,
    "shoes": 14239,
    "Ġforgo": 21770,
    "Ġforeb": 12002,
    "below": 12119,
    "rec": 6003,
    "chery": 24551,
    "Ġaug": 6234,
    "Ġunsc": 22011,
    "itions": 4148,
    "Ġambergris": 8705,
    "Ġoverpowering": 15248,
    "Ġslightly": 7293,
    "dragged": 16608,
    "Ġgently": 7171,
    "wrinkled": 16553,
    "Ġeucl": 24709,
    "Ġdoctrine": 24197,
    "hic": 3247,
    "Ġallures": 22005,
    "undertaking": 23786,
    "Ġwherever": 8523,
    "Ġflows": 13006,
    "Ġaccurate": 13227,
    "ertain": 1208,
    "otted": 14023,
    "Ġunless": 4092,
    "cim": 8719,
    "infernal": 24662,
    "Ġexile": 12715,
    "Ġdemi": 25548,
    "Ġmutter": 23951,
    "Ġstake": 14002,
    "bled": 5469,
    "Ġcanes": 22161,
    "Ġprevention": 16090,
    "||": 4869,
    "ourage": 2449,
    "Ġcontrive": 16009,
    "ĠĠĠĠĠĠĠĠĠĠĠĠĠĠĠĠĠĠĠĠĠĠĠĠĠĠĠĠĠĠĠĠĠĠĠ": 19257,
    "ement": 1502,
    "Ġshudder": 9050,
    "cery": 20807,
    "velope": 17701,
    "Ġrelics": 16195,
    "pow": 10717,
    "against": 5870,
    "ority": 8417,
    "ntax": 935,
    "Ġallegor": 25545,
    "lady": 4434,
    "Ġdri": 2361,
    "Ġscrupulous": 20065,
    "Ġimbalanced": 18333,
    "Ġwilling": 7421,
    "omon": 10206,
    "Ġreiterating": 26474,
    "Ġtorpor": 25031,
    "deficient": 23116,
    "Ġlasting": 18792,
    "rapidly": 15242,
    "Ġravine": 18647,
    "Ġate": 8839,
    "Ġhosmer": 6774,
    "Ġbrute": 8925,
    "Ġstoried": 18072,
    "Ġyears": 1890,
    "Ġsick": 4693,
    "Ġrobustness": 18884,
    "ch": 321,
    "penn": 18827,
    "Ġjelly": 22297,
    "ari": 671,
    "Ġprogressive": 5024,
    "Ġtops": 14586,
    "Ġbehav": 3539,
    "mysteries": 26051,
    "Ġthinnest": 24183,
    "Ġsuperstitious": 13518,
    "Ġsuspicious": 9479,
    "Ġcomprising": 16067,
    "garity": 17554,
    "Ġgreenness": 23766,
    "beries": 22715,
    "Ġturbid": 23610,
    "Ġannealing": 1558,
    "Ġrealities": 18981,
    "Ġtempor": 2364,
    "acetti": 13394,
    "Ġphilosophical": 26334,
    "Ġire": 12665,
    "crop": 20797,
    "ardy": 22153,
    "anim": 6522,
    "Ġbetray": 7442,
    "Ġrage": 5110,
    "Ġnews": 3819,
    "emorial": 10241,
    "ptic": 21921,
    "Ġsongs": 13418,
    "Ġshot": 4544,
    "bask": 20775,
    "Ġbeth": 9657,
    "Ġcovari": 2336,
    "Ġcaliforn": 14430,
    "Ġcorruption": 15224,
    "Ġsnorting": 23738,
    "Ġwidest": 24234,
    "Ġgathered": 8442,
    "achel": 7032,
    "Ġpacing": 8425,
    "Ġirreparable": 19997,
    "Ġbrightness": 16576,
    "Ġwalrus": 14972,
    "ipped": 5790,
    "Ġtobacco": 8366,
    "Ġwithdrew": 9695,
    "å": 166,
    "aphs": 22333,
    "Ġclock": 9532,
    "Ġsucceeding": 16761,
    "Ġpilgrim": 25599,
    "L": 48,
    "isters": 11917,
    "Ġbodily": 6106,
    "Ġunsolved": 22030,
    "libr": 22920,
    "delirium": 14784,
    "Ġimperfect": 13337,
    "Ġmember": 8585,
    "ivial": 15862,
    "ue": 1181,
    "authority": 13589,
    "Ġadmired": 7981,
    "Ġredeemed": 25789,
    "Ġcounsel": 13613,
    "\"],": 26120,
    "Ġaccident": 5380,
    "ĠâĢĶ_": 3459,
    "Ġorange": 8486,
    "Ġloath": 7890,
    "Ġquite": 1741,
    "Ġdiscours": 18717,
    "Ġthence": 8881,
    "Ġdisguise": 10045,
    "Ġajar": 21201,
    "Ġsurprise": 3829,
    "Ġjudging": 16595,
    "Ġparents": 6752,
    "Ġsnug": 8279,
    "Ġimpet": 11777,
    "Ġrushed": 4089,
    "Ġconveniently": 20077,
    "cloudless": 20331,
    "Ġestimate": 19371,
    "Ġseize": 8165,
    "mark": 5281,
    "Ġimpart": 11778,
    "Ġ84": 19708,
    "Ġsweep": 8265,
    "large": 6625,
    "Ġgarnery": 17386,
    "sad": 11520,
    "Ġvig": 5460,
    "@": 36,
    "Ġcruel": 5121,
    "Ġrests": 13091,
    "Ġunsav": 18251,
    "Ġmain": 809,
    "Ġdeclined": 9920,
    "Ġdies": 11592,
    "Ġcoming": 2617,
    "Ġmariner": 7247,
    "marks": 7346,
    "Ġpresenting": 18987,
    "Ġfun": 523,
    "heeded": 13833,
    "Ġdeterm": 1267,
    "Ġspilling": 22134,
    "51": 12429,
    "Ġbone": 4695,
    "want": 8765,
    "ople": 2318,
    "ider": 21762,
    "Ġfished": 21408,
    "Ġeuroc": 14958,
    "wam": 10135,
    "Ġwhirlwinds": 20463,
    "killing": 20941,
    "Ġmal": 5221,
    "Ġnatur": 17333,
    "Ġwindows": 4971,
    "emptied": 23634,
    "Ġtimes": 2301,
    "Ġkeeping": 7283,
    "Ġbast": 21377,
    "Ġharbors": 24901,
    "Ġvertical": 16604,
    "Ġconflag": 20334,
    "Ġproflig": 23566,
    "Ġlexicon": 25974,
    "Ġparted": 5928,
    "Ġharris": 13926,
    "Ġcomputes": 4768,
    "Ġsleeps": 10446,
    "Ġherd": 7887,
    "Ġste": 1390,
    "onom": 9158,
    "accompan": 11452,
    "mas": 5212,
    "speech": 10666,
    "Ġtrump": 8196,
    "Ġhappiest": 11880,
    "Ġterror": 5123,
    "Ġalgorithm": 765,
    "tum": 11531,
    "Ġpaddles": 15146,
    "Ġobjections": 8564,
    "Ġbrilliantly": 25120,
    "lie": 12480,
    "Ġshears": 18319,
    "Ġeyel": 17096,
    "Ġpoising": 22591,
    "Ġ38": 24078,
    "Ġgolden": 5336,
    "icking": 8910,
    "tumultuous": 20397,
    "keeper": 5597,
    "Ġbrilliant": 11414,
    "soon": 4030,
    "Ġmeditate": 16682,
    "Ġunconsc": 6552,
    "Ġ120": 16858,
    "ercely": 12547,
    "assault": 22303,
    "Ġwearied": 15791,
    "Ġalbatross": 10871,
    "Ġmoss": 9283,
    "Ġimages": 1606,
    "Ġwildly": 9413,
    "rect": 1604,
    "draul": 9443,
    "puzz": 17640,
    "Ġglided": 7446,
    "surprised": 9530,
    "Ġchiswick": 25560,
    "ent": 305,
    "Ġtechnique": 2467,
    "Ġtravelling": 11307,
    "Ġcontentment": 14869,
    "Ġviolation": 23404,
    "Ġdancing": 5703,
    "lived": 12484,
    "Ġdeplored": 20503,
    "Ġ**": 4721,
    "Ġfavourite": 5270,
    "ush": 3632,
    "isely": 4489,
    "Ġintermediate": 18592,
    "els": 1764,
    "Ġprim": 8243,
    "del": 4077,
    "Ġtower": 8318,
    "presbyterian": 26368,
    "Ġnursed": 16885,
    "Ġlevers": 18077,
    "Ġprevent": 756,
    "eag": 20841,
    "Ġmounting": 19975,
    "Ġspilled": 10924,
    "living": 7133,
    "figure": 13553,
    "dut": 10087,
    "standers": 18480,
    "preserver": 20212,
    "Ġpilgr": 12178,
    "oid": 3127,
    "Ġrepelled": 19085,
    "peril": 18339,
    "Ġlux": 8813,
    "stript": 21654,
    "sartain": 25622,
    "Ġdivulged": 16648,
    "Ġcombat": 16180,
    "injustice": 17737,
    "Ġmeans": 699,
    "Ġavoid": 5199,
    "Ġcapric": 14575,
    "alogue": 25159,
    "Ġ117": 19696,
    "sprang": 19989,
    "Ġobedient": 20103,
    "Ġneglecting": 25007,
    "Ġstabbing": 20302,
    "Ġicicles": 25264,
    "Ġbristling": 20525,
    "Ġfrigate": 13079,
    "Ġchrysalis": 26538,
    "Ġarrowy": 25469,
    "Ġgermany": 25785,
    "Ġtablets": 13153,
    "Ġgeese": 7693,
    "Ġpathetic": 19035,
    "Ġsig": 868,
    "Ġruin": 6055,
    "inconsiderable": 21190,
    "Ġant": 4346,
    "buttons": 22398,
    "evident": 25520,
    "Ġcand": 3275,
    "Ġbachelors": 24860,
    "omorrah": 18017,
    "Ġknocked": 9499,
    "dread": 8728,
    "Ġnarrations": 24352,
    "Ġcaps": 8414,
    "Ġdecrease": 4200,
    "Ġspend": 5304,
    "anzas": 17840,
    "accountable": 7109,
    "Ġflooring": 23622,
    "contracting": 19293,
    "aloud": 17940,
    "Ġwar": 5526,
    "Ġdock": 15929,
    "fellows": 12271,
    "Ġinasmuch": 10825,
    "Ġmercenary": 17193,
    "Ġreasoning": 2004,
    "Ġfashionable": 19543,
    "Ġunalterable": 15850,
    "Ġmuch": 921,
    "Ġmatted": 22910,
    "Ġhopeless": 7462,
    "Ġsandwich": 19827,
    "Ġperf": 12848,
    "bers": 2567,
    "Ġprovincial": 20649,
    "Ġchann": 15934,
    "Ġdeliverance": 15156,
    "indian": 11776,
    "Ġagatha": 6866,
    "eds": 6674,
    "Ġtamely": 24977,
    "name": 6795,
    "warmth": 20051,
    "buffalo": 20562,
    "denial": 18716,
    "Ġbed": 2144,
    "ces": 579,
    "Ġperpet": 7644,
    "Ġdiddled": 22664,
    "ŀ": 257,
    "Ġearn": 3546,
    "ashing": 4824,
    "Ġexperiment": 11916,
    "seam": 10874,
    "Ġbeer": 10219,
    "Ġprender": 22232,
    "Ġsolitude": 6876,
    "Ġdrowsy": 26444,
    "Ġvoice": 2190,
    "ton": 1725,
    "waters": 11333,
    "Ġgle": 7858,
    "Ġexagger": 12717,
    "ast": 473,
    "Ġextinct": 14334,
    "dient": 440,
    "Ġledger": 19400,
    "Ġmap": 2390,
    "lads": 20954,
    "Ġfamous": 5255,
    "Ġremorselessly": 16967,
    "ersed": 10262,
    "secre": 18127,
    "apolog": 22330,
    "Ġwarbling": 26168,
    "liament": 16217,
    "reshold": 21238,
    "trampled": 26333,
    "Ġirrespective": 23373,
    "Ġbiographical": 22763,
    "Ġassociation": 24711,
    "preserve": 25303,
    "abling": 1081,
    "Ġincreas": 1693,
    "Ġjolly": 6858,
    "Ġhousings": 21490,
    "Ġadoration": 18290,
    "Ġimmortality": 26325,
    "Ġaccepted": 7750,
    "Ġcoat": 4554,
    "Ġforefinger": 16444,
    "asburgh": 15645,
    "cures": 20804,
    "Ġcapst": 8595,
    "Ġnourishment": 15191,
    "Ġemb": 1279,
    "Ġexcl": 3474,
    "Ġrh": 9243,
    "Ġpope": 11601,
    "Ġbeque": 18080,
    "Ġmaterially": 12189,
    "Ġfreemason": 23207,
    "Ġsomnambul": 26576,
    "tipt": 25083,
    "Ġwinged": 16995,
    "Ġsuccour": 20433,
    "akin": 11766,
    "stalls": 26473,
    "Ġflashing": 13024,
    "Ġprodigies": 19792,
    "admiration": 11387,
    "Ġlocker": 16911,
    "Ġsquires": 16179,
    "Ġporpoise": 7106,
    "Ġinvent": 7164,
    "Ġgene": 15670,
    "Ġbourgh": 5069,
    "wretched": 10741,
    "Ġtame": 17722,
    "Ġcourse": 2131,
    "aggra": 21903,
    "Ġlatin": 16821,
    "Ġbible": 9319,
    "Ġdarted": 4758,
    "Ġuseless": 7037,
    "Ġincommun": 25308,
    "Ġost": 9649,
    "hent": 12531,
    "second": 6543,
    "Ġrich": 2991,
    "<": 32,
    "noo": 9786,
    "Ġfan": 2036,
    "Ġdishonor": 25601,
    "consult": 24169,
    "squall": 13520,
    "Ġsibbald": 21229,
    "Ġinsect": 12634,
    "utral": 12661,
    "Ġimperilled": 19577,
    "words": 7982,
    "clay": 18930,
    "Ġplains": 14623,
    "Ġgregarious": 18964,
    "Ġcreating": 2995,
    "Ġbrittle": 22864,
    "wra": 11541,
    "lighter": 20958,
    "Ġchaps": 14179,
    "try": 7812,
    "Ġmeets": 7396,
    "kick": 20935,
    "Ġstock": 7455,
    "Ġfrankenstein": 7095,
    "Ġapprobation": 10985,
    "Ġhaws": 21948,
    "Ġunsettled": 14122,
    "Ġiterate": 13199,
    "Ġflail": 23004,
    "Ġtangles": 25761,
    "Ġalone": 2564,
    "Ġday": 957,
    "Ġjudiciously": 23876,
    "Ġpost": 4272,
    "tch": 9141,
    "Ġvillains": 14748,
    "Ġ89": 19711,
    "limbs": 20190,
    "Ġoversampling": 20514,
    "Ġastern": 6090,
    "Ġsumat": 14136,
    "Ġhouse": 1504,
    "Ġparading": 23708,
    "Ġinterlacing": 22575,
    "Ġcalifornian": 25851,
    "Ġquivers": 22410,
    "Ġfrivolous": 26176,
    "odd": 21808,
    "Ġamount": 8511,
    "palms": 25262,
    "cd": 15322,
    "awakened": 14452,
    "hundreds": 25073,
    "Ġcomprised": 14267,
    "Ġrecurred": 18977,
    "Ġfisherman": 12073,
    "wreat": 21126,
    "Ġreadability": 2725,
    "Ġsignature": 16493,
    "Ġinferior": 8365,
    "jewell": 25523,
    "Ġpetersburgh": 24228,
    "Ġsweeter": 23915,
    "Ġsparkled": 13460,
    "icle": 10834,
    "Ġwedded": 16674,
    "Ġrattled": 15065,
    "Ġtransition": 14244,
    "Ġsummer": 4790,
    "opp": 6963,
    "Ġserviceable": 24718,
    "Ġstepping": 9353,
    "drown": 13703,
    "Ġpickle": 16722,
    "xt": 2081,
    "Ġeats": 15675,
    "Ġfeared": 5930,
    "nose": 17610,
    "sp": 893,
    "a": 69,
    "Ġwight": 12550,
    "erm": 788,
    "Ġassiduous": 26292,
    "Ġharpooneers": 4732,
    "exactly": 10636,
    "Ġemotion": 7689,
    "Ġincul": 22546,
    "diversity": 25897,
    "pot": 10117,
    "iciously": 17973,
    "Ġfath": 7364,
    "_.âĢĿ": 5885,
    "late": 11498,
    "Ġhogshead": 26367,
    "Ġsituations": 10491,
    "Ġintentions": 10607,
    "Ġilliterate": 26594,
    "Ġtwelve": 4963,
    "Ġinns": 17929,
    "elson": 16370,
    "erably": 7573,
    "grie": 12468,
    "Ġcronies": 23441,
    "ledyard": 22380,
    "ected": 7872,
    "Ġstim": 18063,
    "sequ": 2400,
    "Ġamel": 18510,
    "Ġforb": 11662,
    "Ġjonah": 3480,
    "owed": 2266,
    "going": 6313,
    "Ġresisted": 22538,
    "Ġhoping": 11102,
    "rocket": 13943,
    "Ġthanks": 6707,
    "Ġcircum": 8257,
    "Ġinwards": 15619,
    "manifested": 20524,
    "Ġguinea": 8947,
    "athan": 2955,
    "irably": 13293,
    "Ġdesign": 4133,
    "confirmation": 26089,
    "Ġcoward": 7155,
    "Ġhos": 4942,
    "woe": 21134,
    "Ġretire": 10381,
    "Ġdenied": 9000,
    "Ġpoker": 13921,
    "Ġxavier": 2853,
    "regarding": 15070,
    "Ġcondesc": 7181,
    "Ġmonths": 3456,
    "Ġblight": 18818,
    "ications": 4446,
    "âĢĻ-": 18172,
    "Ġdeadly": 5405,
    "Ġcrowds": 14738,
    "Ġdisguises": 25055,
    "Ġpistol": 7846,
    "Ġsacri": 18328,
    "Ġnobly": 22238,
    "Ġ275": 20109,
    "Ġfootsteps": 16571,
    "Ġpurpose": 2708,
    "presbyter": 20616,
    "15": 12428,
    "ushion": 14719,
    "Ġcapering": 21352,
    "agement": 4188,
    "Ġadrift": 11720,
    "Ġcrystall": 20225,
    "Ġslow": 2377,
    "Ġindirect": 18835,
    "Ġworshippers": 25693,
    "Ġdogs": 7741,
    "reas": 987,
    "Ġwhipcord": 20093,
    "Ġarter": 22185,
    "Ġblemish": 19678,
    "Ġisrael": 21800,
    "Ġgallery": 10524,
    "Ġunchanging": 22042,
    "Ġdead": 2171,
    "Ġber": 5698,
    "Ġendangered": 16303,
    "surd": 6934,
    "Ġstriving": 8996,
    "Ġ19": 6719,
    "Ġhermit": 15856,
    "Ġpane": 21461,
    "Ġded": 2585,
    "oro": 21393,
    "Ġperforming": 7927,
    "mists": 17605,
    "Ġrelating": 2705,
    "Ġdelight": 2546,
    "Ġloomings": 24949,
    "Ġyes": 2688,
    "Ġcraft": 4377,
    "Ġwonderfully": 10430,
    "cruet": 17026,
    "Ġboston": 22637,
    "Ġmainmast": 9778,
    "âĢĿ;": 11669,
    "ceptibly": 22360,
    "Ġdreamed": 16629,
    "Ġcrescentic": 20619,
    "Ġgould": 17989,
    "hound": 20894,
    "Ġlowered": 6735,
    "Ġsquee": 7928,
    "Ġfear": 2275,
    "Ġexperience": 1382,
    "Ġcomb": 1044,
    "oir": 21001,
    "Ġgrey": 4513,
    "×": 152,
    "Ġhilarious": 20297,
    "Ġlug": 15650,
    "Ġsettling": 11062,
    "Ġphren": 8571,
    "Ġabstained": 25231,
    "Ġgoverned": 23570,
    "Ġrubber": 22784,
    "Ġtwos": 18657,
    "uation": 17694,
    "Ġut": 2278,
    "insult": 16278,
    "feet": 6568,
    "floated": 24643,
    "Ġventing": 19492,
    "Ġsepulch": 15283,
    "Ġacting": 10991,
    "D": 40,
    "Ġbaronial": 23792,
    "calm": 8934,
    "Ġdined": 9176,
    "Ġhumaneval": 25582,
    "Ġenjoined": 18191,
    "Ġcategories": 4478,
    "perquis": 22183,
    "Ġbecome": 3158,
    "Ġhypothe": 4075,
    "Ġhorns": 11123,
    "Ġbaff": 10799,
    "occup": 7752,
    "fes": 20850,
    "Ġwalled": 15534,
    "Ġretirement": 25378,
    "cordiality": 25137,
    "stave": 21646,
    "Ġradiant": 16809,
    "Ġwoeful": 19618,
    "gent": 7129,
    "shabbily": 26246,
    "Ġdiffer": 18677,
    "Ġromans": 16759,
    "Ġwomen": 4750,
    "Ġcolleg": 22857,
    "influence": 13576,
    "precision": 4332,
    "Ġswelling": 11923,
    "Ġul": 6828,
    "Ġarabic": 24978,
    "tack": 12511,
    "type": 16175,
    "Ġprovoking": 16743,
    "Ġwick": 2006,
    "Ġpetticoat": 15294,
    "Ġextracts": 9364,
    "Ġunprepared": 22047,
    "anxiously": 15109,
    "asions": 12649,
    "wedded": 24339,
    "Ġdevotedly": 24750,
    "acquired": 24296,
    "ribution": 14302,
    "wantonly": 25149,
    "Ġdiscernible": 15068,
    "Ġcommenting": 25228,
    "oar": 12495,
    "Ġpr": 1605,
    "Ġintervals": 5598,
    "hello": 13361,
    "enough": 6809,
    "distance": 12150,
    "Ġfreedom": 9082,
    "Ġdevote": 10338,
    "flatter": 23964,
    "Ġpains": 5964,
    "Ġgamy": 17998,
    "4": 24,
    "Ġmetaphysical": 26069,
    "thirst": 15824,
    "Ġquickly": 4241,
    "itled": 7577,
    "Ġiter": 2951,
    "latin": 25258,
    "Ġnarrating": 24351,
    "Ġcapsizing": 20087,
    "inkers": 22611,
    "chronicle": 26480,
    "Ġrucastle": 5176,
    "Ġimportance": 4900,
    "Ġhypotheses": 4387,
    "Ġexasperate": 20096,
    "makes": 10711,
    "Ġcan": 471,
    "Ġheron": 22070,
    "Ġaccuracy": 1125,
    "ograph": 4797,
    "Ġheidelburgh": 11642,
    "Ġaccuse": 14211,
    "Ġdemean": 12721,
    "Ġfeedback": 23431,
    "Ġdoes": 943,
    "b": 70,
    "fitted": 17544,
    "Ġwails": 21295,
    "Ġhelmeted": 19687,
    "Ġide": 2121,
    "wrong": 13204,
    "inctions": 17732,
    "Ġreynolds": 10209,
    "aples": 20767,
    "Ġforg": 3788,
    "Ġclank": 15963,
    "Ġsimply": 7218,
    "harpoone": 6107,
    "Ġcreate": 2091,
    "Ġlam": 21546,
    "Ġworried": 22923,
    "Ġyields": 19655,
    "Ġprize": 11946,
    "Ġintric": 9246,
    "Ġexceeding": 1586,
    "mole": 22700,
    "shells": 26056,
    "Ġpods": 17914,
    "E": 41,
    "stood": 4117,
    "flames": 14711,
    "Ġsatan": 14389,
    "Ġdeepest": 8213,
    "Ġexamined": 6334,
    "mention": 7214,
    "Ġfive": 2835,
    "poling": 12217,
    "Ġlane": 5627,
    "sensations": 20049,
    "Ġrejoice": 10208,
    "tures": 21068,
    "tra": 4934,
    "Ġunnear": 22025,
    "Ġabominably": 20067,
    "Ġquietude": 19358,
    "shadows": 25479,
    "Ġlivel": 11355,
    "depend": 9112,
    "itous": 13866,
    "robotics": 11306,
    "esy": 9182,
    "iracle": 11243,
    "Ġuncles": 23429,
    "Ġlirra": 21557,
    "la": 10705,
    "Ġvolume": 6769,
    "Ġused": 2061,
    "Ġshrink": 14803,
    "illes": 12692,
    "Ġconfines": 23302,
    "fanning": 20865,
    "Ġanxious": 4518,
    "Ġcomplained": 16998,
    "boiling": 19000,
    "Ġundertaken": 18986,
    "narrative": 17318,
    "Ġgabriel": 7595,
    "Ġbruised": 25772,
    "Ġstranger": 3484,
    "Ġexclusion": 19394,
    "Ġhideous": 5982,
    "horrors": 20540,
    "Ġabove": 2934,
    "Ġended": 7949,
    "spread": 8388,
    "Ġbohemian": 17133,
    "Ġroad": 3881,
    "Ġheight": 4220,
    "Ġimag": 2675,
    "Ġdismal": 11808,
    "dep": 6786,
    "Ġclass": 782,
    "Ġneedlessly": 23628,
    "Ġpopularly": 12239,
    "usiveness": 22290,
    "Ġtroubles": 19437,
    "Ġviolently": 6456,
    "Ġsymp": 4503,
    "partly": 14602,
    "proportion": 16182,
    "Ġequinox": 25855,
    "Ġmagnanim": 14471,
    "Ġsnake": 12059,
    "Ġdrab": 13068,
    "Ġexerc": 6833,
    "Ġretiring": 16279,
    "recurring": 24194,
    "Ġhangs": 11605,
    "driver": 14920,
    "Ġcarving": 14442,
    "ledge": 1330,
    "Ġsupervised": 3064,
    "Ã¦": 4338,
    "Ġconsulting": 13427,
    "Ġimplicated": 24875,
    "Ġeggs": 12340,
    "Ġamused": 11797,
    "Ġequ": 1733,
    "2": 22,
    "Ġpaint": 7707,
    "Ġmonitors": 3157,
    "inkles": 7426,
    "Ġadmits": 23553,
    "Ġswept": 7977,
    "Ġyielded": 14871,
    "Ġperceptible": 18452,
    "Ġmustering": 18662,
    "queen": 12725,
    "ulgent": 18149,
    "Ġjavelins": 26105,
    "Ġgenerously": 22379,
    "Ġoughts": 23898,
    "Ġcele": 9899,
    "Ġbon": 8785,
    "Ġfine": 1317,
    "Ġrobbery": 11918,
    "Ġvesture": 20060,
    "Ġplayers": 12036,
    "Ġcontemptible": 16953,
    "Ġcrib": 21346,
    "Ġpoor": 1709,
    "Ġsaw": 1349,
    "stands": 22432,
    "omuch": 21637,
    "Ġ1": 1014,
    "Ġ&": 6513,
    "Ġmentioned": 4330,
    "Ġconcerning": 4070,
    "Ġhelper": 24024,
    "Ġhumane": 11882,
    "Ġseries": 7060,
    "oton": 3607,
    "cas": 20793,
    "Ġcommercial": 22671,
    "log": 18537,
    "injury": 25213,
    "Ġnovelist": 24777,
    "cop": 20800,
    "Ġrom": 4525,
    "Ġrascally": 26507,
    "iliation": 10860,
    "Ġsurgeon": 8981,
    "topp": 22562,
    "Ġzodiac": 16171,
    "Ġallusion": 7625,
    "Ġcattle": 12570,
    "Ġsprained": 15882,
    "Ġret": 1380,
    "aulets": 18622,
    "Ġwinding": 8235,
    "Ġnameless": 7699,
    "ameter": 2993,
    "Ġflirt": 14422,
    "acher": 6868,
    "Ġcontact": 9280,
    "antically": 22093,
    "Ġas": 374,
    "Ġrevive": 13477,
    "Ġju": 10286,
    "bid": 5611,
    "Ġpairs": 4182,
    "Ġcottage": 4734,
    "Ġsli": 4748,
    "Ġforgive": 8009,
    "Ġhudson": 15190,
    "Ġensuing": 12307,
    "links": 20957,
    "Ġshipwrecked": 25687,
    "Ġintelligently": 4371,
    "Ġoakum": 16934,
    "Ġbecoming": 4398,
    "prit": 19340,
    "Ġhel": 3787,
    "Ė": 215,
    "Ġaromatic": 25925,
    "oat": 13763,
    "Ġconsidering": 4615,
    "smoking": 23908,
    "rogress": 21533,
    "Ġecc": 11627,
    "Ġchimer": 24602,
    "Ġembarks": 23001,
    "Ġblocks": 6321,
    "Ġitems": 9691,
    "mightily": 24104,
    "Ġshrivelled": 19702,
    "carbuncle": 26382,
    "filled": 9594,
    ".)": 6783,
    "Ġanalyze": 1514,
    "Ġhistorically": 19376,
    "Ġcapable": 5054,
    "================================================================": 9989,
    "nearest": 16020,
    "Ġlapl": 19776,
    "dress": 17520,
    "ume": 4835,
    "Ġsleepy": 8267,
    "humored": 19451,
    "Ġhunters": 6300,
    "Ġ83": 24459,
    "setting": 13283,
    "Ġnautical": 17385,
    "Ġredden": 15692,
    "Ġlumber": 13951,
    "oon": 6364,
    "ested": 3479,
    "Ġpresum": 4837,
    "Ġcities": 17827,
    "Ġsafie": 6617,
    "Ġhandle": 3137,
    "Ġplough": 18609,
    "_.": 2211,
    "slow": 7810,
    "Ġlonged": 6436,
    "Ġlikeness": 11179,
    "Ġcount": 1813,
    "vered": 4829,
    "Ġresemblance": 7971,
    "Ġevanesc": 24294,
    "tstone": 21083,
    "Ġrepairs": 19083,
    "Ġcaroline": 7255,
    "Ġends": 8237,
    "feel": 3812,
    "aries": 6244,
    "Ġruined": 12951,
    "Ġbirth": 6524,
    "remental": 21246,
    "Ġalbino": 20501,
    "Ġcam": 10161,
    "Ġcalmer": 23039,
    "Ġperformer": 18754,
    "eridge": 15525,
    "Ġsimpl": 1585,
    "Ġtags": 20570,
    "Ġquiet": 3259,
    "Ġbrighter": 16187,
    "Ġsur": 2183,
    "Ġhatter": 4113,
    "Ġclothes": 4997,
    "fever": 22498,
    "ipt": 12476,
    "attentions": 13572,
    "Ġuninhabited": 22048,
    "gown": 9596,
    ".âĢĶâĢľ": 20746,
    "aud": 8521,
    "Ġforbidden": 17078,
    "Ġdrows": 21433,
    "Ġqueequeg": 2013,
    "hump": 12475,
    "Ġemerging": 24612,
    "Ġadjusts": 8980,
    "Ġunrem": 18244,
    "rians": 21927,
    "Ġstrung": 22614,
    "Ġallegro": 25794,
    "Ġbund": 17863,
    "including": 23589,
    "Ġexaggerated": 25650,
    "ontory": 10459,
    "Ġcivil": 4679,
    "Ġchanges": 2285,
    "resolution": 17766,
    "Ġpalaces": 24091,
    "eu": 17530,
    "pad": 13767,
    "Ġinqu": 2964,
    "dist": 4481,
    "Ġumbrell": 13648,
    "Ġ": 225,
    "gers": 8375,
    "Ġlaud": 17967,
    "Ġsod": 11561,
    "ifer": 11683,
    "Ġtimidity": 24687,
    "bad": 12434,
    "Ġscramble": 24578,
    "Ġtranqu": 4605,
    "not": 908,
    "Ġvishnoo": 12751,
    "Ġapart": 4746,
    "Ġaffecting": 2322,
    "painful": 13500,
    "Ġuncomfortable": 8485,
    "Ġcurds": 22998,
    "Ġcherished": 10590,
    "icult": 3339,
    "Ġsponge": 26003,
    "watching": 16930,
    "riot": 18185,
    "Ġjerked": 19831,
    "Ġplaything": 19237,
    "Ġmoul": 15542,
    "Ġcitadel": 25438,
    "Ġserious": 4323,
    "cheon": 23802,
    "Ġattempts": 10490,
    "itors": 2913,
    "Ġgerm": 13963,
    "enet": 10152,
    "Ġchallenge": 25471,
    "betrayed": 24640,
    "indulged": 22372,
    "Ġay": 15491,
    "Ġconvincing": 19307,
    "Ġfamily": 1965,
    "Ġoriental": 9096,
    "Ġpenetrating": 17011,
    "pag": 11510,
    "Ġperished": 11782,
    "asional": 17959,
    "Ġincidents": 9298,
    "bureau": 20788,
    "ropout": 1321,
    "Ġpracticable": 19079,
    "Ġpieces": 7369,
    "rudently": 16710,
    "Ġsuspending": 19243,
    "Ġtexas": 25922,
    "adays": 14012,
    "repeat": 25151,
    "Ġcabinets": 23860,
    "Ġlatter": 3992,
    "Ġexact": 2541,
    "Ġbaleful": 24982,
    "calmed": 16204,
    "Ġburke": 19250,
    "Ġirresolution": 24915,
    "Ġsheath": 14151,
    "bantering": 25253,
    "Ġforbid": 7864,
    "Ġdesperate": 7776,
    "Ġbarbary": 24216,
    "Ġgather": 6534,
    "brandy": 19199,
    "chased": 18041,
    "Ġreasonably": 11090,
    "Ġincred": 5646,
    "Ġvast": 3295,
    "Ġfund": 2842,
    "odings": 4400,
    "ĠĠĠĠĠĠĠĠĠĠĠĠĠ": 22559,
    "cl": 1495,
    "rat": 8755,
    "giv": 13721,
    "Ġnarrated": 14870,
    "ke": 430,
    "y": 93,
    "Ġwantest": 18791,
    "Ġcalled": 1971,
    "dependence": 17167,
    "ang": 445,
    "pike": 11514,
    "green": 7115,
    "Ġtablet": 19203,
    "Ġappalled": 22214,
    "Ġerskine": 17431,
    "inferences": 17739,
    "Ġwaning": 15533,
    "Ġpositive": 2296,
    "composed": 14739,
    "Ġfaltering": 17884,
    "Ġbusks": 23335,
    "Ġslate": 11936,
    "Ġunwearied": 20601,
    "Ġdawned": 14993,
    "Ġdegraded": 19226,
    "obscure": 23095,
    "cr": 4076,
    "Ġrecovered": 5481,
    "Ġsanctioned": 26349,
    "Ġouter": 6859,
    "autumn": 23339,
    "Ġoutlaws": 22321,
    "une": 2784,
    "Ġevent": 2949,
    "Ġcaptioning": 23017,
    "Ġnoblest": 13240,
    "Ġintimately": 24804,
    "Ġair": 1835,
    "Ġdoubtfully": 23476,
    "Ġbarrow": 12067,
    "unwillingness": 25802,
    "Ġamusements": 16913,
    "precaution": 23820,
    "arian": 10315,
    "whispered": 20032,
    "Ġyawning": 12298,
    "fell": 6953,
    "shipmates": 11926,
    "Ġvigilance": 12369,
    "tails": 21085,
    "Ġconcentration": 25062,
    "prev": 12864,
    "guilty": 19481,
    "Ġcanoe": 9722,
    "Ġsegment": 12755,
    "Ġun": 423,
    "barn": 17482,
    "Ġwest": 5219,
    "Ġphrenologists": 25608,
    "Ġmay": 923,
    "Ġtwisted": 7228,
    "fully": 2202,
    "bourne": 19102,
    "Ġcerem": 7077,
    "Ġpurposed": 23551,
    "Ġarrayed": 25664,
    "wandering": 20283,
    "orative": 21396,
    "vast": 10736,
    "Ġofficer": 6753,
    "Ġprivacy": 19523,
    "beg": 22484,
    "otle": 21794,
    "Ġrejo": 5915,
    "Ġangry": 5498,
    "'m": 9582,
    "ĠĠĠĠĠĠĠĠĠĠĠĠĠĠĠĠĠĠĠĠĠĠĠĠĠĠĠĠĠĠĠ": 19699,
    "anxiety": 25155,
    "Ġsust": 7007,
    "Ġrifts": 21975,
    "button": 10966,
    "Ġirreproachable": 24917,
    "Ġshortened": 23481,
    "Ġrug": 16156,
    "Ġbeaut": 2393,
    "Ġpigeon": 9515,
    "poison": 14391,
    "procure": 23395,
    "writ": 16552,
    "expect": 4769,
    "iably": 13737,
    "Ġchatting": 24747,
    "Ġknow": 630,
    "Ġperplex": 2715,
    "off": 1884,
    "Ġshelf": 12265,
    "ridge": 9496,
    "Ġexpectations": 13141,
    "\\": 64,
    "free": 8735,
    "Ġalso": 1343,
    "Ġendeavored": 19302,
    "Ġequatorial": 13507,
    "warn": 11542,
    "Ġdef": 1202,
    "fatal": 17088,
    "Ġstuffed": 13407,
    "Ġenem": 4708,
    "personal": 24963,
    "bishop": 13693,
    "Ġpea": 14316,
    "stige": 21658,
    "incidentally": 20538,
    "Ġbreaking": 6310,
    "Ġ1991": 3014,
    "Ġinsisted": 12044,
    "bitious": 16669,
    "olic": 14041,
    "Ġcompression": 18144,
    "deceit": 25556,
    "bear": 10314,
    "feelings": 5674,
    "un": 373,
    "itheat": 21336,
    "Ġinverted": 12635,
    "nowhere": 18418,
    "Ġjan": 11760,
    "Ġfoundering": 21417,
    "Ġforenoon": 19126,
    "Ġapprised": 18360,
    "Ġgown": 10201,
    "ose": 717,
    "Ġbeats": 21749,
    "Ġbigot": 24565,
    "Ġhire": 21482,
    "Ġtem": 804,
    "Ġfaithfully": 14886,
    "trust": 21077,
    "does": 6194,
    "Ġfurniture": 6476,
    "account": 5329,
    "amore": 21846,
    "Ġpreventing": 881,
    "Ġgodly": 19080,
    "Ġworthy": 7241,
    "Ġpaddock": 25037,
    "Ġsunset": 8962,
    "Ġvisions": 12972,
    "Ġgouge": 26188,
    "Ġreality": 7057,
    "Ġaglow": 22511,
    "Ġfeatures": 1433,
    "Ġromish": 19583,
    "Ġtroublesome": 23999,
    "Ġstory": 2901,
    "Ġsnoring": 23737,
    "etch": 9204,
    "pane": 10120,
    "Ġrocks": 6863,
    "itying": 21991,
    "Ġweedy": 15790,
    "ount": 1112,
    "Ġentries": 22742,
    "Ġjoys": 13217,
    "Ġbidirectional": 3755,
    "thyself": 19297,
    "Ġdecanter": 22436,
    "Ġdanish": 21429,
    "Ġcrumb": 16440,
    "Ġbehooves": 20732,
    "Ġresistance": 13528,
    "Ġcoloss": 11046,
    "Ġbirch": 26174,
    "Ġbrook": 13044,
    "nect": 662,
    "Ġcork": 12566,
    "conceive": 16027,
    "Ġspinning": 15052,
    "Ġinnermost": 12158,
    "µ": 118,
    "Ġbewil": 11656,
    "Ġperseverance": 13595,
    "arris": 13207,
    "altering": 12638,
    "Ġstubborn": 10414,
    "achusetts": 20709,
    "Ġsoutherly": 23330,
    "Ġspear": 9311,
    "mosp": 8088,
    "Ġconfided": 19036,
    "affect": 13210,
    "Ġfri": 17878,
    "ract": 1015,
    "accordingly": 19212,
    "Ġcommunications": 16354,
    "Ġgreatest": 4094,
    "ugal": 19022,
    "dler": 13705,
    "Ġstrong": 1788,
    "Ġcomparatively": 9489,
    "Ġhamp": 12628,
    "thickness": 25367,
    "quake": 11679,
    "Ġunhing": 18241,
    "Ġprofanely": 23569,
    "Ġ$": 21149,
    "Ġplug": 17147,
    "ered": 1684,
    "Ġcleaning": 23177,
    "Ġenterprise": 8641,
    "Ġegg": 8818,
    "Ġcrosses": 23060,
    "Ġcombining": 22845,
    "brim": 23574,
    "Ġflung": 8562,
    "Ġshaved": 21999,
    "fer": 1938,
    "Ġgir": 2252,
    "paralleled": 14516,
    "Ġvengeful": 14889,
    "Ġterrier": 23397,
    "Ġdiscomposure": 20377,
    "joint": 24006,
    "Ġharrow": 17925,
    "Ġcarried": 3693,
    "finds": 19926,
    "wing": 2518,
    "Ġperiodically": 19493,
    "Ġtightly": 13532,
    "Ġawaken": 23585,
    "fare": 7798,
    "Ġsixteen": 8282,
    "Ġinclemency": 22552,
    "whalemen": 10431,
    "etent": 10199,
    "Ġencoder": 3635,
    "Ġbale": 7838,
    "Ġfemale": 8344,
    "obli": 23092,
    "Ġdefinite": 11069,
    "Ġneglected": 10377,
    "Ġvirginia": 13498,
    "agra": 14065,
    "lying": 7174,
    "Ġtrained": 8502,
    "Ġattends": 19649,
    "Ġjanuary": 13651,
    "Ġglittering": 10052,
    "Ġsable": 15500,
    "making": 2569,
    "Ġwidower": 24235,
    "Ġsold": 6002,
    "Ġye": 900,
    "Ġcastor": 19425,
    "ifted": 4495,
    "Ġharvest": 13413,
    "Ġimplements": 2485,
    "orily": 15571,
    "Ġensuring": 11191,
    "Ġwouldn": 6045,
    "Ġextremity": 8988,
    "Ġlucas": 3832,
    "Ġloose": 4649,
    "Ġburying": 19251,
    "Ġlest": 6395,
    "Ġgraces": 18225,
    "disapprobation": 19155,
    "Ġsensation": 6896,
    "Ġfatigued": 13463,
    "Ġrattler": 24995,
    "Ġsatiated": 22900,
    "Ġsubmit": 11868,
    "Ġspanish": 2827,
    "Ġmach": 13856,
    "sius": 13787,
    "Ġsaid": 578,
    "Ġclaret": 22347,
    "Ġbaling": 17859,
    "shroud": 20311,
    "Ġparac": 12793,
    "ension": 6569,
    "apparat": 22840,
    "Ġherein": 16190,
    "Ġdoted": 21431,
    "abroad": 18108,
    "Ġabout": 631,
    "Ġimposs": 16616,
    "Ġtheoretically": 3565,
    "uture": 1042,
    "sincere": 16907,
    "Ġbestir": 13107,
    "pounds": 21024,
    "Ġseamen": 5063,
    "ansion": 10925,
    "ington": 21300,
    "ills": 1633,
    "nights": 16449,
    "Ġstalked": 20427,
    "Ġtheoretic": 23308,
    "Ġharness": 17927,
    "uneven": 23683,
    "Ġprint": 18969,
    "Ġcoll": 8220,
    "Ġmusical": 23891,
    "pulling": 25146,
    "z": 94,
    "Ġnarrower": 24354,
    "Ġpromotion": 23191,
    "rix": 1580,
    "Ġasks": 5115,
    "Ø": 153,
    "Ġmornings": 16234,
    "Ġmanip": 8871,
    "Ġmun": 12559,
    "didn": 9006,
    "prejud": 11794,
    "Ġconvergence": 973,
    "Ġenglishman": 11229,
    "poverty": 22905,
    "Ġrepairing": 25589,
    "Ġx": 2074,
    "ahit": 9381,
    "perfect": 7634,
    "animal": 16978,
    "vable": 10132,
    "peace": 13045,
    "Ġwithered": 19463,
    "Ġexpressions": 7705,
    "Ġgaze": 6932,
    "other": 1315,
    "Ġdivided": 8631,
    "Ġleading": 7297,
    "Ġacceptable": 16744,
    "encoura": 15048,
    "Ġmonica": 22975,
    "nigh": 13762,
    "Ġcases": 3963,
    "Ġincumbent": 16061,
    "Ġpia": 21462,
    "Ġfitted": 6243,
    "Ġantagon": 19549,
    "concern": 6099,
    "vation": 4744,
    "Ġflip": 11910,
    "Ġtongue": 6347,
    "received": 9638,
    "Ġ52": 24321,
    "flag": 14710,
    "erns": 8777,
    "Ġgrudge": 20692,
    "Ġthousandth": 23682,
    "Ġshells": 20362,
    "would": 2350,
    "Ġensl": 19273,
    "Ġres": 696,
    "Ġaffirmative": 15221,
    "Ġacceler": 1615,
    "Ġexclamation": 8698,
    "Ġchild": 2257,
    "Ġineff": 12632,
    "allest": 5485,
    "unable": 14058,
    "Ġdipped": 15593,
    "Ġtransformed": 22615,
    "Ġlaunched": 14925,
    "circum": 16737,
    "Ġatom": 18192,
    "erman": 5108,
    "beheaded": 22490,
    "Ġlumps": 21553,
    "intention": 10367,
    "backs": 9390,
    "Ġdissip": 10992,
    "Ġconfidently": 24955,
    "prom": 6509,
    "Ġoily": 13863,
    "unction": 10234,
    "Ġple": 1469,
    "Ġbulk": 5591,
    "jud": 4482,
    "extra": 8218,
    "Ġblaze": 16219,
    "Ġstudy": 1786,
    "Ġensure": 23686,
    "Ġinvariably": 8063,
    "\"": 6,
    "Ġtrades": 8231,
    "Ġsquaw": 22833,
    "augment": 18829,
    "arthur": 14829,
    "uction": 15443,
    "Ġupdating": 2690,
    "Ġadd": 629,
    "Ġingenuity": 17163,
    "Ġmotion": 4566,
    "izes": 884,
    "Ġpadded": 25036,
    "Ġpresented": 5183,
    "at": 268,
    "Ġskies": 8920,
    "wrote": 11546,
    "hundred": 8330,
    "Ġoff": 902,
    "Ġsplendour": 20223,
    "Ġexpon": 967,
    "poles": 16209,
    "Ġgodfrey": 15292,
    "Ġreeling": 18032,
    "imately": 12686,
    "here": 2547,
    "Ġcred": 8780,
    "Ġcake": 12567,
    "nine": 13760,
    "Ġinvite": 14562,
    "eland": 11619,
    "ylon": 24975,
    "Ġmajesty": 5201,
    "igen": 4830,
    "most": 1254,
    "Ġremarks": 7474,
    "path": 10118,
    "Ġcommencement": 12236,
    "Ġwayward": 22871,
    "iability": 20919,
    "Ġeclips": 20695,
    "Ġexpressed": 4468,
    "Ġimpud": 18446,
    "Ġroot": 2651,
    "Ġwield": 21289,
    "improve": 15710,
    "Ġexhaustion": 14960,
    "Ġbeautifully": 13265,
    "Ķ": 247,
    "ging": 2599,
    "Ġinst": 911,
    "Ġdrives": 14577,
    "istic": 964,
    "Ġaroused": 15902,
    "vapor": 25755,
    "susp": 10596,
    "Ġpropose": 9852,
    "Ġpsal": 15614,
    "alice": 3207,
    "Ġinvader": 23477,
    "fortunes": 6332,
    "strangers": 20335,
    "you": 1004,
    "concealed": 25115,
    "Ġrespect": 1670,
    "Ġabomin": 8190,
    "Ġblo": 2734,
    "Ġreeled": 13985,
    "totally": 25417,
    "Ġdrown": 6815,
    "Ġapologize": 15127,
    "Ġrot": 10967,
    "knew": 9126,
    "quar": 7615,
    "behaviour": 11301,
    "Ġpunchbowl": 20230,
    "Ġhartshorn": 26180,
    "complacency": 19913,
    "Ġtattooing": 15027,
    "Ġhousekeeping": 18944,
    "Ġcarpets": 18902,
    "shuff": 18491,
    "Ġunusually": 15845,
    "Ġcircular": 13108,
    "tumult": 12421,
    "Ġship": 1092,
    "Ġprevented": 5941,
    "Ġnonce": 23232,
    "Ġruminated": 24599,
    "Ġbutts": 15854,
    "nowledge": 10289,
    "transformers": 8714,
    "Ġindignity": 18833,
    "inquir": 9535,
    "Ġcourt": 4170,
    "Ġprofusion": 23567,
    "umnal": 18300,
    "Ġhighlands": 22773,
    "Ġaccelerating": 1623,
    "Ġheadland": 22894,
    "Ġthrill": 24541,
    "house": 4079,
    "Ġresults": 7308,
    "Ġsecure": 4912,
    "Ġaye": 3351,
    "iscuit": 10598,
    "rub": 15892,
    "Ġpiqu": 21475,
    "13": 20749,
    "range": 3493,
    "warning": 25531,
    "msman": 9266,
    "Ġcreditable": 19621,
    "Ġband": 5290,
    "om": 315,
    "Ġheld": 3586,
    "Ġobjectionable": 16991,
    "Ġincognita": 26551,
    "Ġbegins": 7244,
    "Ġprompted": 23814,
    "Ġunob": 22012,
    "remes": 21236,
    "Ġmethodically": 23110,
    "Ġinexhaustible": 16981,
    "Ġsystemat": 18442,
    "Ġdecap": 16018,
    "him": 1939,
    "Ġbequeathed": 20700,
    "Ġskills": 1838,
    "Ġmiraculous": 13545,
    "Ġstepped": 7051,
    "Ġidentifies": 12013,
    "nosed": 20991,
    "Ġearnestly": 5978,
    "Ġpolynesian": 26026,
    "Ġclatter": 22341,
    "Ġknowest": 12861,
    "reason": 4415,
    "Ġjo": 2608,
    "gia": 20875,
    "Ġgripping": 26186,
    "Ġentire": 2557,
    "Ġprocured": 8676,
    "arson": 22747,
    "Ġalt": 18098,
    "toss": 22563,
    "nur": 11505,
    "pton": 15792,
    "derbyshire": 18321,
    "Ġpunctual": 17137,
    "Ġdistress": 5844,
    "Ġinferences": 17934,
    "Ġkick": 5837,
    "abil": 2008,
    "Ġmeridians": 17355,
    "Ġweld": 8111,
    "Ġalan": 10869,
    "brilliancy": 26077,
    "sit": 13779,
    "mccarthy": 15394,
    "Ġthereof": 22365,
    "Ġbell": 4636,
    "dignity": 15344,
    "Ġclaw": 22344,
    "Ġassert": 7120,
    "flagged": 23969,
    "Ġlegendary": 20536,
    "Ġcompute": 2905,
    "endeavouring": 15015,
    "Ġsqueeze": 10038,
    "Ġcollins": 2181,
    "aring": 1479,
    "Ġroaring": 10968,
    "Ġdazed": 15594,
    "cater": 20814,
    "Ġlabyrinth": 13678,
    "Ġfads": 21414,
    "Ġaddu": 22098,
    "Ġselected": 9710,
    "emberley": 4172,
    "Ġache": 18663,
    "izard": 10883,
    "Ġrem": 955,
    "oysius": 14364,
    "alas": 8803,
    "armed": 7251,
    "anger": 2172,
    "Ġresentful": 24631,
    "chie": 21687,
    "Ġreflecting": 24751,
    "Ġign": 8293,
    "seems": 10875,
    "Ġvarieties": 14309,
    "Ġoat": 21321,
    "Ġloomed": 12299,
    "Ġjar": 15949,
    "Ġencouragement": 13038,
    "Ġbarren": 11206,
    "Ġlightened": 23259,
    "fulfilment": 26025,
    "modern": 1169,
    "mo": 864,
    "Ġevalu": 3197,
    "Ġregions": 10323,
    "Ġforecastle": 5495,
    "majesty": 26280,
    "ascribed": 24708,
    "pet": 4867,
    "Ġlance": 4879,
    "Ġsubsisting": 23433,
    "Į": 239,
    "Ġenvironmental": 24033,
    "Ġwilds": 16508,
    "omed": 13974,
    "Ġquestioning": 10463,
    "otes": 15742,
    "Ġdorm": 4821,
    "distressed": 24199,
    "nikin": 23247,
    "Ġalms": 21777,
    "gue": 12465,
    "enched": 10154,
    "enial": 17780,
    "Ġeffectually": 16166,
    "astrous": 15885,
    "tha": 15822,
    "Ġed": 2143,
    "Ġconquer": 14026,
    "Ġneighbours": 8302,
    "Ġsubsisted": 19117,
    "Ġwrit": 8241,
    "Ġrecital": 16141,
    "imely": 13997,
    "dressing": 11481,
    "trucks": 25419,
    "Ġabsurdities": 24879,
    "Ġamaze": 22480,
    "smallest": 23909,
    "Ġlagged": 21555,
    "haven": 20911,
    "Ġconse": 21801,
    "Ġinvests": 14867,
    "abs": 11666,
    "Ġlanguage": 648,
    "Ġfumbled": 17881,
    "ashtego": 4103,
    "liberal": 26281,
    "asters": 8433,
    "spring": 7231,
    "Ġdisgusting": 19893,
    "Ġexped": 7650,
    "Ġcle": 1511,
    "Ġfemin": 13434,
    "Ġencourages": 2062,
    "Ġmelting": 24288,
    "Ġrecounted": 22737,
    "age": 505,
    "Ġgrego": 18962,
    "Ġprosecuted": 25293,
    "obvious": 9356,
    "Ġspikes": 22133,
    "Ġchasing": 11752,
    "Ġperemptorily": 17366,
    "shold": 2771,
    "mes": 1199,
    "ounix": 14163,
    "Ġruthless": 15284,
    "four": 6113,
    "queness": 18147,
    "creator": 26381,
    "Ġfishery": 4176,
    "surpr": 5996,
    "ĠĊ": 12520,
    "onym": 14649,
    "rings": 10722,
    "adjust": 21757,
    "Ġmaddened": 17244,
    "throne": 25657,
    "Ġproperty": 6450,
    "Ġloosened": 26002,
    "acquainted": 7313,
    "Ġtypewriter": 19097,
    "ias": 6362,
    "Ġkid": 9724,
    "Ġfrenchman": 11283,
    "hunt": 20902,
    "och": 21000,
    "Ġknot": 7011,
    "Ġorigin": 4121,
    "Ġunderstanding": 1855,
    "Ġlambton": 10657,
    "Ġprecaution": 11197,
    "Ġbrine": 18771,
    "Ġast": 2960,
    "Ġfo": 1653,
    "vius": 23540,
    "Ġexclam": 6757,
    "Ġcontrol": 13077,
    "Ġcringing": 25941,
    "ubl": 3595,
    "Ġenquired": 21937,
    "Ġwaste": 9233,
    "Ġethere": 23948,
    "ringle": 21039,
    "who": 2444,
    "oquent": 12497,
    "Ġconvict": 23743,
    "gal": 15354,
    "Ġscores": 2714,
    "Ġexecution": 6927,
    "convalescence": 24884,
    "Ġcrimin": 6901,
    "even": 3838,
    "Ġopens": 23625,
    "partner": 19220,
    "Ġlimped": 19180,
    "returning": 12203,
    "Ġhotel": 8650,
    "Ġdurst": 20351,
    "romang": 22002,
    "Ġshakes": 10904,
    "hunting": 24385,
    "hilar": 25081,
    "Ġsagittarius": 24732,
    "urous": 10212,
    "iftings": 23223,
    "enderby": 25215,
    "ze": 1270,
    "ccas": 15884,
    "Ġcorroded": 18875,
    "Ġilluminate": 17192,
    "Ġspecialized": 3921,
    "Ġallusions": 10906,
    "Ġtusks": 17253,
    "keep": 3851,
    "opened": 7912,
    "Ġacceded": 22376,
    "prehensible": 12358,
    "Ġmanipulation": 10658,
    "Ġbrief": 6976,
    "Ġfoolscap": 24158,
    "Ġpedro": 14994,
    "isco": 12579,
    "Ġwestmorland": 24390,
    "fiercely": 25256,
    "Ġsales": 12805,
    "ears": 20844,
    "Ġuses": 1210,
    "ł": 259,
    "Ġugl": 12680,
    "Ġwhirled": 14959,
    "Ġfever": 6558,
    "Ġsurgeons": 23463,
    "Ġdisplays": 19856,
    "ĠĠĠĠĠĠĠĠĠĠĠĠĠĠĠĠĠĠĠĠĠĠĠĠĠĠĠĠ": 9974,
    "Ġtowns": 11173,
    "grat": 5052,
    "Ġcrying": 10786,
    "Ġcapture": 3385,
    "Ġthinker": 22806,
    "ulpt": 10885,
    "Ġcable": 11579,
    "Ġnormalizing": 1821,
    "Ġcentaurs": 23830,
    "Ġdescribe": 2764,
    "Ġ270": 25130,
    "Ġtriangular": 14858,
    "Ġcarry": 4779,
    "lutions": 20949,
    "Ġannouncing": 16754,
    "Ġdazz": 11593,
    "Ġoccurring": 2790,
    "Ġ115": 24439,
    "ounce": 6557,
    "Ġwomanly": 23549,
    "Ġbegging": 11079,
    "similar": 13451,
    "Ġinconstant": 21493,
    "Ġdrought": 19278,
    "Ġages": 7027,
    "Ġappearances": 10451,
    "Ġhoard": 23348,
    "Ġcomfort": 3439,
    "Ġcrunched": 19123,
    "Ġbidding": 9536,
    "databases": 3022,
    "atha": 6572,
    "Ġtheory": 5798,
    "Ġnominally": 17231,
    "Ġsubt": 11866,
    "Ġinviting": 19143,
    "ienced": 5685,
    "Ġgrecian": 26296,
    "olog": 1061,
    "Ġintertw": 18590,
    "gn": 8081,
    "Ġrecess": 10847,
    "Ġcumbrous": 26432,
    "uy": 21098,
    "utted": 15659,
    "Ġhurtling": 24957,
    "nelson": 25620,
    "corrid": 24484,
    "Ġcompressed": 21842,
    "Ġnineveh": 13387,
    "1": 21,
    "Ġshame": 6410,
    "Ġbenediction": 18785,
    "Ġsacred": 10930,
    ",âĢĻ": 2326,
    "Ġremarking": 13123,
    "appearing": 14637,
    "Ġlanyard": 26461,
    "impatiently": 20469,
    "hus": 5072,
    "Ġringbolts": 24196,
    "exciting": 19667,
    "Ġrepulses": 26070,
    "Ġplun": 6281,
    "prodig": 16426,
    "childhood": 16868,
    "_)": 9101,
    "Ġbliss": 12997,
    "Ġfollowed": 1794,
    "Ġportrait": 10661,
    "Ġcompensated": 17400,
    "Ġstoutly": 16924,
    "stretching": 20497,
    "Ġmeantime": 6206,
    "afford": 14654,
    "Ġwept": 7184,
    "Ġsleet": 8975,
    "Ġstrategy": 2382,
    "Ġterminating": 23508,
    "roses": 17956,
    "Ġdeadliest": 14556,
    "ojo": 7349,
    "tete": 10732,
    "causes": 20342,
    "Ġwarn": 5695,
    "from": 1990,
    "Ġfare": 5809,
    "Ġhorsey": 24249,
    "Ġstreng": 18070,
    "Ġintercept": 14268,
    "ocation": 14626,
    "Ġii": 7384,
    "Ġ118": 19697,
    "Ġespe": 21154,
    "Ġmotions": 8280,
    "converse": 22465,
    "labours": 16617,
    "Ġbrings": 11878,
    "iloqu": 11647,
    "anous": 21357,
    "negro": 18489,
    "Ġnearing": 15796,
    "abounding": 25979,
    "mant": 20964,
    "Ġconn": 9229,
    "Ġtrucks": 19511,
    "ses": 3025,
    "Ġsmart": 11813,
    "perseus": 26005,
    "Ġchilled": 18382,
    "Ġeddystone": 25709,
    "Ġintervene": 25480,
    "Ġdoorway": 14497,
    "spoken": 11859,
    "Ġcured": 21345,
    "vag": 8764,
    "blows": 17165,
    "prisoner": 20542,
    "Ġepic": 15029,
    "nurtured": 25524,
    "Ġdom": 2777,
    "Ġhelp": 1643,
    "Ġlaborious": 13100,
    "Ġbarrens": 25501,
    "function": 4623,
    "Ġsoil": 9254,
    "Ġcomponents": 8892,
    "Ġextremely": 2669,
    "Ġwade": 17784,
    "ove": 1743,
    "Ġcomput": 602,
    "vanished": 15060,
    "ivility": 12787,
    "Ġadvise": 7934,
    "leg": 2813,
    "reputable": 15517,
    "sir": 5001,
    "drovand": 24760,
    "Ġsitting": 3605,
    "tempest": 16959,
    "Ġpromises": 10400,
    "Ġfeeds": 16433,
    "Ġimitated": 18329,
    "scrape": 25698,
    "Ġparticularly": 5056,
    "herds": 22200,
    "Ġ108": 19683,
    "verize": 21725,
    "Ġsus": 18278,
    "cut": 3124,
    "plun": 15814,
    "japan": 15373,
    "Ġtheir": 642,
    "Ġdownward": 10331,
    "script": 11077,
    "Ġconductor": 24004,
    "Ġpallor": 13514,
    "Ġbur": 2697,
    "interruption": 20110,
    "Ġrestoration": 19027,
    "Ġunscrew": 22037,
    "Ġroasted": 18460,
    "ricity": 23061,
    "ructed": 7029,
    "Ġencirc": 18731,
    "Ġfeat": 10937,
    "awned": 19458,
    "Ġconvince": 14642,
    "Ġunique": 12776,
    "H": 44,
    "ights": 8475,
    "Ġstove": 6733,
    "im": 327,
    "Ġalmanac": 26485,
    "pid": 1419,
    "bulkington": 19924,
    "affa": 23775,
    "Ã¦st": 24175,
    "Ġaudio": 24772,
    "Ġmug": 21311,
    "spl": 9139,
    "Ġyork": 11664,
    "Ġleathern": 15050,
    "Ġdocks": 14177,
    "dispositions": 25011,
    "ò": 179,
    "Ġfors": 21768,
    "trunk": 23945,
    "Ġheath": 15700,
    "ulation": 5458,
    "pictures": 15089,
    "aloft": 8806,
    "Ġpurchas": 19873,
    ";": 31,
    "Ġcrumpled": 16442,
    "thin": 14096,
    "Ġpretext": 22226,
    "strate": 12672,
    "Ġconversed": 13186,
    "Ġcomprehension": 15085,
    "84": 15300,
    "Ġdoubt": 2221,
    "ective": 18174,
    "neys": 23581,
    "Ġballasted": 23977,
    "Ġconfine": 14508,
    "Ġground": 2845,
    "hateful": 20908,
    "Ġaught": 8772,
    "chan": 1138,
    "contains": 16028,
    "har": 20889,
    "hullo": 17570,
    "horrible": 14600,
    "settled": 10506,
    "combined": 20319,
    "Ġundergone": 18985,
    "Ġtenth": 13824,
    "occasionally": 13519,
    "Ġending": 18189,
    "rary": 4575,
    "Ġconvention": 25546,
    "Ġmeanest": 12908,
    "Ġease": 5629,
    "Ġwhiff": 21715,
    "ego": 4037,
    "Ġexhibit": 14955,
    "hate": 20891,
    "Ġunaccount": 22024,
    "venerable": 26408,
    "Ġdoublo": 6078,
    "Ġcoco": 11000,
    "iscre": 17850,
    "Ġwildness": 14603,
    "Ġexposes": 22621,
    "Ġmoved": 4839,
    "dings": 2315,
    "Ġmillar": 13860,
    "Ġpartly": 6713,
    "istence": 2521,
    "Ġdiminish": 14744,
    "Ġenthr": 22744,
    "Ġprovid": 1006,
    "walked": 10570,
    "position": 15413,
    "grant": 10427,
    "keepers": 16659,
    "Ġwashing": 9704,
    "Ġworking": 5575,
    "Ġpeterson": 9482,
    "Ġcedars": 20291,
    "Ġlabrador": 23327,
    "trees": 10731,
    "ighbour": 3390,
    "clo": 5613,
    "Ĺ": 250,
    "wl": 17702,
    "Ġreplenished": 13634,
    "erness": 6434,
    "Ġheap": 12676,
    "m": 81,
    "Ġcanaan": 22164,
    "j": 78,
    "Ġdeposed": 16077,
    "Ġshops": 21998,
    "Ġn": 300,
    "Ġfathom": 17048,
    "Ġunfav": 14787,
    "Ġval": 981,
    "Ġomens": 21326,
    "Ġshoving": 23487,
    "Ġponderous": 8354,
    "Ġnooks": 26011,
    "calabash": 22893,
    "Ġaccompanying": 11304,
    "pest": 6964,
    "Ġheat": 5453,
    "devilish": 17082,
    "Ġwoodlands": 23520,
    "desired": 8956,
    "Ð": 145,
    "ved": 869,
    "bble": 17484,
    "inclined": 10639,
    "Ġunheeded": 18261,
    "Ġspell": 8855,
    "pra": 15407,
    "rising": 7557,
    "farintosh": 24553,
    "Ġmeals": 12709,
    "abular": 4762,
    "ctu": 5088,
    "immediate": 20092,
    "metallic": 19879,
    "Ġflashed": 11911,
    "Ġoccasioned": 13224,
    "Ġgratified": 8021,
    "perpendicular": 14159,
    "Ġphara": 23196,
    "Ġfortunes": 12176,
    "solute": 16598,
    "Ġhopkins": 23128,
    "Ġly": 2265,
    "satisfaction": 9991,
    "cull": 20808,
    "Ġoxford": 11371,
    "continue": 16861,
    "inea": 7622,
    "Ġwarehouse": 20415,
    "deceiving": 22141,
    "Ġstarting": 7728,
    "Ġcries": 7154,
    "pushed": 21022,
    "collected": 13211,
    "daw": 17522,
    "Ġblinding": 14727,
    "Ġunconsciously": 10004,
    "isol": 17846,
    "Ġcalifornia": 20528,
    "Ġcircle": 4977,
    "Ġbuckets": 17034,
    "Ġpenalizing": 13089,
    "Ġlizz": 21554,
    "Ġpile": 8423,
    "illation": 14141,
    "Ġstride": 22612,
    "Ġspray": 7893,
    "Ġsuperhuman": 23452,
    "Ġvehemence": 26566,
    "witness": 10034,
    "causing": 25518,
    "Ġpreparations": 12308,
    "Ġbadly": 12129,
    "rifice": 12501,
    "âĢĻâĢĶ": 12735,
    "Ġinf": 1756,
    "Ġproceeded": 5335,
    "Ġusage": 9729,
    "million": 25751,
    "Ġgarb": 21600,
    "Ġmaybe": 12945,
    "Ġjackal": 24239,
    "Ġpeeling": 22689,
    "Ġthinner": 24182,
    "firm": 10698,
    "Ġshoreless": 24295,
    "judging": 24201,
    "Ġrustic": 14964,
    "Ġseizing": 7878,
    "Ġtruthful": 23865,
    "Ġseedy": 21959,
    "Ġimputable": 22170,
    "Ġfluttered": 16249,
    "Ġcloak": 9533,
    "Ġtorn": 5999,
    "neath": 12863,
    "forward": 2187,
    "Ġhoist": 11975,
    "Ġproverb": 12714,
    "truth": 9918,
    "Ġbritish": 11337,
    "rocious": 21536,
    "clear": 9023,
    "Ġwarnings": 16881,
    "Ġembarrassed": 11384,
    "whe": 1076,
    "Ġapologized": 25198,
    "Ġsgd": 3130,
    "ierce": 14390,
    "Ġcommon": 1414,
    "Ġlestrade": 5825,
    "Ġflank": 8228,
    "latitudes": 17196,
    "Ġbarriers": 23793,
    "umn": 5835,
    "Ġsurf": 19131,
    "sin": 21047,
    "Ġtid": 8106,
    "Ġbeholding": 8668,
    "Ġconfessed": 8008,
    "Ġadhes": 22099,
    "Ġsideways": 6181,
    "Ġnewton": 3532,
    "Ġstartling": 14670,
    "Ġdiet": 13909,
    "Ġportcull": 23861,
    "Ġinches": 5845,
    "alarmed": 21500,
    "u": 89,
    "Ġprofound": 5497,
    "aloes": 21499,
    "ouri": 21445,
    "Ġadmission": 23554,
    "Ġargosy": 24273,
    "Ġillustrations": 17108,
    "vitality": 20477,
    "Ġsculpture": 26016,
    "umbria": 23928,
    "Ġspaulding": 11729,
    "Ġdepart": 4657,
    "Ġrely": 8820,
    "Ġvice": 6548,
    "Ġhell": 5019,
    "Ġwolfish": 25935,
    "Ġaunts": 21199,
    "Ġinfirm": 19017,
    "ies": 582,
    "Ġsammy": 24932,
    "Ġirksome": 13109,
    "boilers": 26297,
    "Ġalways": 1696,
    "aret": 7417,
    "Ġveins": 8932,
    "Ġtold": 2185,
    "Ġseal": 10256,
    "rolling": 9060,
    "mouth": 9130,
    "Ġardour": 8042,
    "Ġpawnbroker": 13656,
    "Ġpenetrated": 13470,
    "afflicted": 23777,
    "ernation": 8211,
    "itted": 2440,
    "Ġpartner": 6714,
    "size": 15424,
    "Ġpast": 2098,
    "Ġlull": 15649,
    "Ġrespond": 11176,
    "rin": 10121,
    "Ġvult": 12750,
    "Ġtorrents": 20054,
    "Ġrings": 11698,
    "orte": 14184,
    "Ġalert": 18101,
    "ange": 1018,
    "Ġaway": 1242,
    "Ġthreshold": 2808,
    "wickham": 5883,
    "Ġboundless": 10495,
    "cho": 2759,
    "ired": 1445,
    "Ġsingular": 4424,
    "Ġportions": 19367,
    "Ġphys": 5653,
    "Ġtemporarily": 11167,
    "Ġsuperior": 2752,
    "Ġlisten": 4674,
    "sustained": 20567,
    "chairs": 21690,
    "magn": 10610,
    "Ġscal": 1569,
    "Ġatrocious": 21940,
    "earth": 6502,
    "formed": 2552,
    "âĢĻ,": 14071,
    "Ġmovements": 24359,
    "Ġrichest": 26211,
    "Ġbesee": 19242,
    "ility": 624,
    "infliction": 25924,
    "standing": 5558,
    "Ġvillages": 14747,
    "Ġdictate": 20150,
    "Ġner": 1648,
    "Ġworld": 1602,
    "embraces": 25803,
    "Ġmend": 8405,
    "Ġoffer": 4843,
    "Ġunfeeling": 14118,
    "04": 10679,
    "se": 358,
    "Ġtucked": 12390,
    "Ġsummers": 23871,
    "past": 8089,
    "Ġuncork": 23428,
    "unciation": 25982,
    "Ġattraction": 18620,
    "Ġjurors": 17343,
    "greatly": 16623,
    "miseries": 16757,
    "Ġclinging": 10291,
    "Ġaberde": 22284,
    "Ġaccountability": 10438,
    "Ġeighteen": 11238,
    "enterprise": 24992,
    "elijah": 19471,
    "Ġ500": 24328,
    "Ġdifferently": 10389,
    "icing": 9200,
    "Ġabrupt": 9737,
    "Ġchapel": 9522,
    "ete": 9203,
    "Ġ130": 24781,
    "Ġcontemporary": 16011,
    "Ġtuck": 10140,
    "Ġlabors": 23325,
    "Ġholland": 10365,
    "Ġbrooded": 23101,
    "Ġenumerating": 15243,
    "Ġlithe": 24668,
    "uch": 877,
    "Ġbridle": 24681,
    "tor": 15432,
    "artic": 14215,
    "_,âĢĿ": 6218,
    "Ġrelations": 5852,
    "Ġunrestingly": 20359,
    "Ġcor": 1323,
    "exception": 9975,
    "Ġsallied": 12534,
    "Ġpoetic": 17103,
    "rumours": 23897,
    "Ġnur": 5710,
    "²": 115,
    "which": 1707,
    "Ġrearing": 12675,
    "Ġtidings": 11397,
    "Ġexternal": 8364,
    "Ġtraitors": 23076,
    "Ġactor": 16048,
    "Ġblushed": 12998,
    "security": 26206,
    "Ġbreaches": 14521,
    "Ġped": 6817,
    "Ġwriggling": 15256,
    "Ġpleasurable": 23336,
    "Ġbowditch": 19322,
    "ju": 13740,
    "mot": 17596,
    "james": 15371,
    "eryton": 4095,
    "Ġcold": 3030,
    "Ġcompress": 21841,
    "Ġcopy": 10163,
    "Ġjournal": 15217,
    "Ġmelancholy": 5606,
    "Ġunquestionable": 26221,
    "Ġconsideration": 5191,
    "Ġsprawling": 22136,
    "male": 15387,
    "Ġthief": 11609,
    "relieved": 13274,
    "Ġgreyish": 24208,
    "Ġcredulous": 17144,
    "glad": 9007,
    "Ġfelix": 4848,
    "Ġstudied": 11115,
    "sank": 17662,
    "Ġordinary": 6096,
    "glim": 19363,
    "Ġengravings": 15064,
    "burnt": 20078,
    "became": 10514,
    "poss": 4778,
    "gone": 6504,
    "Ġparamount": 15877,
    "bun": 12436,
    "Ġdisappo": 4506,
    "ogene": 18671,
    "Ġlightnings": 16352,
    "Ġscore": 9736,
    "voyages": 24855,
    "teenth": 11872,
    "Ġvineyarder": 25606,
    "Ġexasperated": 11412,
    "unalterable": 21883,
    "grey": 14911,
    "Ġyoungster": 23176,
    "Ġenabled": 9295,
    "provoke": 26071,
    "fool": 9047,
    "Ġincantation": 26257,
    "Ġtranquil": 7310,
    "Ġmastiff": 23722,
    "!_": 7329,
    "Ġdiscoursing": 26266,
    "fordshire": 4677,
    "Ġcobbling": 20521,
    "Ġreluctant": 20523,
    "Ġdinner": 4244,
    "Ġcandelabra": 26602,
    "Ġsemicircular": 26068,
    "viating": 14578,
    "dra": 3414,
    "stir": 12671,
    "Ġlifeless": 8948,
    "colour": 9902,
    ").": 1269,
    "Ġunappalled": 22062,
    "Ġimaginations": 16516,
    "Ġrequesting": 24632,
    "Ġunprofitable": 18267,
    "Ġpopulation": 16827,
    "Ġhumped": 19768,
    "Ġjumping": 13339,
    "imson": 12687,
    "Ġhoky": 17926,
    "Ġprairie": 8712,
    "Ġobtruded": 20721,
    "body": 2306,
    "Ġformula": 2864,
    "adv": 4537,
    "kicked": 20942,
    "Ġadventures": 7747,
    "sicilian": 21062,
    "Ġwatching": 4854,
    "horse": 8605,
    "Ġhome": 2029,
    "Ġallured": 14112,
    "Ġabhor": 5467,
    "astonished": 15032,
    "garet": 9597,
    "Ġstamped": 13525,
    "Ġchaff": 18383,
    "Ġtwain": 16118,
    "forth": 9321,
    "Ġingratitude": 17468,
    "money": 8749,
    "entreaties": 26185,
    "Ġexceptional": 19369,
    "Ġplayfulness": 23635,
    "noon": 5037,
    "oh": 1583,
    "Ġtorture": 9064,
    "Ġconjoined": 21803,
    "Ġplain": 2817,
    "Ġeleg": 6192,
    "Ġunaffected": 14121,
    "culiar": 2820,
    "Ġinsertion": 26343,
    "oney": 3047,
    "Ġmerryweather": 9521,
    "eluded": 21572,
    "seemingly": 25362,
    "ains": 5094,
    "Ġgrowl": 16537,
    "iscient": 17851,
    "Ġgoodness": 6058,
    "Ġardent": 9969,
    "canoes": 16229,
    "Ġcorn": 9349,
    "resum": 17761,
    "Ġdiagon": 24740,
    "blending": 24129,
    "chanced": 18800,
    "pretty": 10621,
    "Ġjoy": 3183,
    "Ġplaid": 22600,
    "merit": 19281,
    "ittle": 811,
    "Ġarbit": 4651,
    "Ġaccomp": 4713,
    "leness": 4691,
    "Ġrhine": 12354,
    "warks": 5004,
    "Ġflattening": 26049,
    "ats": 4253,
    "Ġastonishment": 4794,
    "Ġepicurean": 20554,
    "Ġsof": 18276,
    "crated": 16696,
    "Ġbrack": 23833,
    "Ġgenerates": 3663,
    "sort": 6798,
    "Ġilluminating": 25245,
    "Ġtelescope": 17347,
    "Ġeyes": 1335,
    "head": 1436,
    "Ġcorpus": 13028,
    "Ġstages": 14003,
    "Ġdeclines": 23960,
    "ĠĠĠĠĠĠĠĠ": 713,
    "Ġastronomy": 25926,
    "Ġunlikely": 10908,
    "heedful": 20572,
    "Ġlengthwise": 10452,
    "eding": 7165,
    "Ġcaresses": 26059,
    "wherefore": 19108,
    "Ġrespite": 13152,
    "Ġvictim": 6097,
    "Ġsmelt": 16064,
    "Ġdrow": 21424,
    "overs": 17621,
    "Ġvines": 12749,
    "Ġshook": 4469,
    "Ġblank": 5950,
    "Ġsupplies": 20325,
    "Ġlump": 21549,
    "pidation": 18899,
    "Ġirreduc": 5491,
    "Ġbeggars": 20628,
    "Ġgenus": 24429,
    "opol": 12869,
    "Ġpostpone": 17306,
    "Ġbower": 15565,
    "Ġintending": 11703,
    "Ġeastern": 11628,
    "Ġsuite": 18279,
    "quietly": 10592,
    "Ġcryst": 9916,
    "Ġmaterial": 5178,
    "Ġsuitable": 18281,
    "remarkable": 13496,
    "Ġassaults": 15155,
    "mutually": 26136,
    "southern": 20407,
    "Ġpostscript": 14807,
    "reck": 9636,
    "istics": 1634,
    "Ġminutes": 2999,
    "Ġbarrier": 16568,
    "Ġconfusing": 23304,
    "Ġdard": 21420,
    "Ġpitiable": 9913,
    "Ġgrie": 3584,
    "Ġply": 21451,
    "umul": 1290,
    "Ġwanting": 6721,
    "Ġsalt": 8016,
    "offer": 19058,
    "ü": 189,
    "ning": 950,
    "Ġandromeda": 21505,
    "¬": 110,
    "Ġevolve": 3000,
    "considerably": 13443,
    "Ġinconveniences": 24939,
    "uing": 17693,
    "Ġidiotic": 25588,
    "Ġcirculating": 23371,
    "Ġentreated": 9950,
    "Ġghast": 9209,
    "Ġdiversion": 17197,
    "Ġpredictions": 1456,
    "Ġcoincidences": 26363,
    "alyards": 18769,
    "endent": 15916,
    "Ġcheat": 19018,
    "Ġpark": 5465,
    "Ġoscill": 2855,
    "Ġtumb": 21168,
    "Ġgoblet": 25823,
    "bearance": 22491,
    "Ġconc": 1841,
    "Ġstil": 15716,
    "Ġacceptance": 14826,
    "Ġins": 2779,
    "Ġreusability": 13556,
    "Ġsitu": 3494,
    "Ġanswering": 7477,
    "employed": 17261,
    "Ġconstraint": 16514,
    "complexion": 14360,
    "Ġcharacter": 2793,
    "on": 267,
    "serpent": 16291,
    "Ġsomehow": 4841,
    "sion": 8093,
    "instant": 8651,
    "Ġwaifing": 25243,
    "Ġrenewed": 9537,
    "conceal": 25114,
    "Ġhoisted": 5959,
    "ampling": 12724,
    "Ġrehearsed": 25971,
    "Ġlitter": 19828,
    "Ġpatchwork": 24141,
    "Ġcont": 621,
    "Ġwandering": 8653,
    "Ġtrain": 515,
    "Ġcomplexion": 8210,
    "Ġhaughty": 11449,
    "Ġcarter": 18900,
    "gage": 13722,
    "Ġhumph": 22880,
    "Ġwhit": 7177,
    "daring": 20828,
    "cet": 15324,
    "Ġgrandfather": 19420,
    "invested": 17117,
    "Ġgeneral": 1860,
    "Ġdespairing": 14773,
    "Ġstur": 15715,
    "planks": 21951,
    "Ġmud": 11572,
    "Ġtarpaulin": 26157,
    "shout": 22444,
    "semble": 1529,
    "grew": 17555,
    "Ġmetrics": 19070,
    "Ġcorrection": 5062,
    "Ġxvi": 19104,
    "Ġprelimin": 8860,
    "Ġcraggy": 23528,
    "Ġrelinquish": 17346,
    "itiousness": 21332,
    "solitary": 14505,
    "Ġposs": 1621,
    "grasp": 16430,
    "Ġmeditations": 25013,
    "seamen": 13624,
    "Ġbatt": 13898,
    "Ġagrees": 22513,
    "Ġnomin": 10190,
    "Ġtwelfth": 22675,
    "Ġyea": 8915,
    "ive": 425,
    "Ġreve": 2931,
    "Ġtreacher": 8604,
    "Ġrather": 1496,
    "Ġprot": 3848,
    "itive": 6668,
    "Ġterrible": 5327,
    "Ġdelayed": 9517,
    "ķ": 248,
    "wig": 17704,
    "Â·": 21148,
    "phants": 9317,
    "atever": 3080,
    "Ġcheered": 16368,
    "Ġdefile": 18824,
    "Ġm": 274,
    "Ġla": 5912,
    "Ġcolle": 8923,
    "Ġjup": 15951,
    "Ġcape": 5146,
    "evening": 7089,
    "chain": 18039,
    "Ġdeaths": 14537,
    "consequence": 9762,
    "Ġwe": 387,
    "Ġhyper": 19738,
    "bath": 13688,
    "Ġmasterless": 23992,
    "Ġclamped": 18425,
    "oriented": 2946,
    "Ġzigzag": 26272,
    "Ġgam": 11623,
    "Ġmercifully": 20177,
    "aut": 1912,
    "Ġsixty": 7722,
    "condescended": 26248,
    "Ġsty": 6251,
    "Ġround": 1369,
    "Ġintrude": 25990,
    "raved": 18012,
    "Ġfro": 3471,
    "Ġadduced": 26524,
    "ull": 1432,
    "oury": 22301,
    "nailed": 20995,
    "disguise": 26306,
    "Ġapproximation": 2339,
    "Ġseemingly": 9318,
    "travelling": 24317,
    "jour": 20926,
    "encing": 21281,
    "Ġtwitching": 25683,
    "Ġ87": 19709,
    "umbers": 10918,
    "Ġimprovement": 7964,
    "Ġstyle": 6946,
    "Ġif": 698,
    "jug": 17580,
    "Ġezekiel": 26192,
    "rict": 8092,
    "worked": 19010,
    "Ġvapors": 19907,
    "turkish": 24533,
    "Ġhappiness": 2943,
    "naught": 20993,
    "Ġpockets": 8895,
    "Ġsuper": 2154,
    "antarctic": 22096,
    "Ġforbe": 8457,
    "horror": 13157,
    "Ġperish": 8874,
    "Ġpredomin": 16042,
    "Ġcoach": 6867,
    "Ġbreathes": 13244,
    "Ġoysters": 20577,
    "Ġref": 924,
    "Ġrussia": 26267,
    "hob": 20899,
    "Ġmonogram": 26574,
    "pus": 3415,
    "Ġbespeaking": 26310,
    "Ġgaz": 4045,
    "Ġdeny": 7488,
    "Ġlionel": 25286,
    "Ġdemanding": 16805,
    "Ġconvulsively": 25717,
    "Ġlabelled": 23326,
    "currents": 23842,
    "Ġroyals": 19531,
    "Ġmildness": 9943,
    "Ġparchment": 13650,
    "ist": 448,
    "]]": 5205,
    "preading": 18497,
    "reckoning": 25270,
    "Ġhertfordshire": 5377,
    "aging": 2235,
    "esc": 610,
    "prejudiced": 17296,
    "Ġwisest": 11232,
    "remonstr": 23188,
    "Ġalterations": 19870,
    "increase": 20267,
    "Ġuppermost": 15277,
    "Ġparade": 18301,
    "Ġcritics": 23443,
    "Ġexec": 19491,
    "rist": 10122,
    "Ġcove": 22579,
    "match": 15389,
    "orders": 12872,
    "Ġfootmen": 23796,
    "Ġbr": 1075,
    "Ġinsignificance": 20456,
    "Ġpredicts": 2591,
    "revenge": 13841,
    "hoist": 23711,
    "Ġimmovable": 15891,
    "Ġhed": 7387,
    "Ġislets": 21798,
    "Ġshunned": 17292,
    "Ġunho": 18245,
    "Ġshrunk": 16718,
    "Ġdesirous": 8942,
    "_": 67,
    "Ġflirting": 16250,
    "ss": 396,
    "Ġmodular": 12816,
    "Ġknowingly": 18479,
    "Ġexploitation": 2346,
    "ument": 5240,
    "enge": 21279,
    "giving": 8738,
    "âĢĶâĢľ_": 13202,
    "ductive": 23933,
    "task": 13792,
    "Ġconcept": 681,
    "these": 3240,
    "Ġaffords": 16734,
    "Ġvomit": 21945,
    "learning": 2597,
    "cano": 18839,
    "Ġfishy": 16523,
    "Ġcheers": 16365,
    "Ġri": 3396,
    "Ġduring": 873,
    "Ġrod": 9279,
    "rennial": 22338,
    "Ġpugnacious": 26451,
    "hibited": 17426,
    "stranded": 19224,
    "Ġprehensile": 26534,
    "grained": 20882,
    "Ġmaw": 15538,
    "counters": 25397,
    "Ġtrad": 9827,
    "Ġramadan": 9575,
    "Ġthunder": 4823,
    "Ġprofundities": 20452,
    "Ġtowards": 1727,
    "Ġcracks": 12018,
    "described": 18893,
    "ressing": 8918,
    "Ġbalances": 2338,
    "Ġspinal": 12300,
    "Ġunspeakable": 10055,
    "Ġclipping": 2439,
    "Ġdiscoveries": 13356,
    "Ġadvanced": 1472,
    "orus": 10801,
    "Ġphantom": 8706,
    "âĢĶ": 518,
    "Ġmemorand": 23403,
    "Ġtranspointed": 22471,
    "Ġtortoise": 16908,
    "gay": 11488,
    "Ġerud": 20053,
    "Ġlees": 18075,
    "cking": 4265,
    "splash": 25209,
    "Ġboone": 11839,
    "ctic": 8441,
    "Ġblacksmiths": 19872,
    "Ġmyth": 18220,
    "endar": 18362,
    "Ġenvy": 13181,
    "Ġprev": 6264,
    "Ġthyself": 6602,
    "isation": 13892,
    "nant": 17609,
    "Ġspaniards": 25555,
    "Ġdetection": 3067,
    "Ġvehemently": 26039,
    "utting": 17984,
    "Ġheaded": 11054,
    "Ġcobweb": 22583,
    "Ġrequisite": 18649,
    "throwing": 11700,
    "Ġfascinated": 25635,
    "Ġpoison": 7219,
    "Ġdistressed": 8514,
    "Ġassociate": 13448,
    "oard": 4809,
    "Ġtechnical": 17191,
    "Ġarranged": 9876,
    "acy": 3956,
    "Ġsurvey": 13591,
    "revealed": 20414,
    "Ġtransparency": 10676,
    "Ġmule": 13861,
    "everywhere": 23696,
    "Ġcrutch": 23445,
    "Ġpudding": 17915,
    "Ġwickham": 2205,
    "later": 20952,
    "Ġattacking": 24465,
    "yrin": 12519,
    "Ġtamer": 24976,
    "Ġcrav": 19172,
    "jackets": 24895,
    "rained": 5162,
    "Ġlevi": 3032,
    "Ġhowl": 12851,
    "Ġexterm": 21826,
    "Ġpretending": 19314,
    "Ġjoke": 8868,
    "pip": 6654,
    "este": 15919,
    "estic": 4956,
    "Ġsuccessive": 10500,
    "Ġbewitched": 25975,
    "mentioning": 24885,
    "Ġis": 347,
    "Ġcandles": 9907,
    "Ġoppressively": 25712,
    "Ġeels": 21619,
    "Ġunfolded": 10638,
    "atic": 4020,
    "oes": 4435,
    "Ġveiled": 16200,
    "Ġrashness": 25460,
    "fitters": 24761,
    "adequ": 11020,
    "itives": 17819,
    "Ġtra": 1384,
    "Ġweighty": 16030,
    "Ġpurses": 23475,
    "Ġbankers": 24302,
    "Ġagainst": 1697,
    "announcement": 24562,
    "convinced": 10622,
    "Ġdarling": 12602,
    "Ġimaginary": 11186,
    "emper": 18180,
    "Ġwhole": 1664,
    "pleasantness": 19769,
    "erial": 4632,
    "Ġ*/": 10373,
    "Ġ88": 19710,
    "Ġbrides": 22865,
    "complain": 14357,
    "rr": 17650,
    "Ġconveniences": 19811,
    "Ġsurvived": 14933,
    "league": 17844,
    "Ġimmeas": 18330,
    "Ġvigil": 9506,
    "point": 6062,
    "ically": 855,
    "ivates": 18282,
    "jub": 20928,
    "partiality": 13158,
    "onet": 12542,
    "originally": 24937,
    "ling": 736,
    "uteness": 17985,
    "utarch": 15660,
    "Ġinfiltrated": 23280,
    "?âĢĿ": 701,
    "Ġdoran": 9179,
    "cav": 17507,
    "Ġger": 21588,
    "Ġscientific": 6857,
    "ivered": 7005,
    "Ġsayest": 22774,
    "Ġpartially": 13121,
    "Ġpresence": 5031,
    "sive": 4144,
    "ickory": 22666,
    "icial": 12653,
    "Ġcas": 8410,
    "Ġconcealment": 16914,
    "towing": 17689,
    "Ġwhichever": 13999,
    "Ġcrash": 12000,
    "Ġimprovements": 14509,
    "course": 6104,
    "Ġlately": 6387,
    "got": 6955,
    "Ġtransf": 22468,
    "Ġunclasp": 26511,
    "Ġbewildered": 15212,
    "antled": 18287,
    "Ġaddressing": 11164,
    "Ġjury": 5378,
    "Ġpaternal": 16382,
    "Ġrow": 5309,
    "Ġmead": 8834,
    "Ġpaints": 23523,
    "rudence": 7092,
    "metal": 24765,
    "cing": 1012,
    "purse": 20023,
    "Ġfixed": 2685,
    "Ġcreases": 22723,
    "Ġshut": 3943,
    "Ġexactly": 2766,
    "closing": 23153,
    "Ġgloom": 4201,
    "Ġlead": 3522,
    "Ġgouldings": 26187,
    "Ġencodings": 4775,
    "comed": 8545,
    "Ġexperiments": 23020,
    "Ġleviathans": 8281,
    "awk": 23113,
    "Ġmingling": 20196,
    "allies": 14165,
    "reproof": 25432,
    "Ġregion": 2270,
    "irting": 11684,
    "Ġdeed": 7867,
    "Ġheal": 21678,
    "Ġinfants": 16363,
    "erect": 20847,
    "hug": 17563,
    "alf": 4639,
    "lorn": 12485,
    "sme": 17658,
    "voice": 7816,
    "block": 11470,
    "Ġservox": 23868,
    "Ġguid": 2638,
    "Ġsolely": 9909,
    "mons": 17600,
    "ushes": 22288,
    "Ġfac": 6381,
    "ribut": 815,
    "Ġvisits": 8222,
    "conclusions": 25671,
    "design": 18958,
    "Ġtranslation": 3088,
    "Ġclaims": 13371,
    "lucifer": 25301,
    "Ġdepths": 4327,
    "Ġgems": 9208,
    "Ġrede": 13983,
    "Ġspaniard": 20361,
    "Ġdonkey": 23227,
    "acca": 23596,
    "Ġpeasant": 13549,
    "Ġstart": 3257,
    "lim": 9606,
    "tremendous": 20672,
    "elstrom": 17981,
    "Ġopposing": 12038,
    "Ġai": 3128,
    "courage": 17509,
    "Ġparties": 7038,
    "fury": 17547,
    "Ġsling": 21219,
    "governed": 25405,
    "Ġ0": 1902,
    "Ġhurried": 4034,
    "Ġlet": 1111,
    "Ġpassive": 22835,
    "Ġrepair": 11977,
    "bald": 16447,
    "Ġnugent": 26457,
    "Ġnowhere": 12884,
    "Ġcompre": 4449,
    "vid": 913,
    ",âĢĿ": 580,
    "Ġdears": 18136,
    "ase": 1160,
    "Ġquadrille": 13539,
    "Ġnicely": 8708,
    "quakes": 21853,
    "georgiana": 26020,
    "Ġting": 8397,
    "caut": 20811,
    "Ġhatred": 8608,
    "customary": 25895,
    "Ġfamiliarly": 11303,
    "prise": 7726,
    "Ġparc": 10920,
    "Ġgodlike": 23355,
    "Ġindepend": 3667,
    "Ġdent": 13905,
    "Ġsoftened": 11101,
    "Ġissuing": 16948,
    "Ġent": 903,
    "Ġpostmark": 16725,
    "Ġcased": 21344,
    "rons": 21038,
    "Ġcrucifix": 26079,
    "Ġbasement": 24702,
    "Ġimproper": 22745,
    "senses": 25022,
    "Ġpartake": 18673,
    "ni": 1673,
    "Ġneg": 1333,
    "crowd": 25254,
    "Ġgranite": 22804,
    "Ġswarming": 16271,
    "Ġsquatted": 25841,
    "paint": 21017,
    "Ġhood": 10823,
    "Ġodds": 13327,
    "Ġinn": 4590,
    "Ġinequal": 21494,
    "Ġcharcoal": 19006,
    "Ġpatriot": 23300,
    "Ġstoner": 7178,
    "Ġdow": 17886,
    "Ġunreasoning": 15844,
    "jump": 10103,
    "Ġproclaim": 18130,
    "Ġsour": 21215,
    "Ġnotice": 4543,
    "Ġseated": 4541,
    "Ġthemselves": 3250,
    "race": 11630,
    "Ġmustard": 12928,
    "apologizing": 26544,
    "Ġdisplayed": 10608,
    "Ġpom": 21450,
    "Ġpers": 1399,
    "viii": 12019,
    "oforte": 14286,
    "Ġsensibly": 14514,
    "Ġsubl": 7235,
    "Ġapprehended": 26091,
    "Ġdiscrimination": 23604,
    "Ġsurpassing": 20466,
    "rance": 5993,
    "Ġdens": 21422,
    "Ġnotorious": 18223,
    "Ġhandsomer": 20332,
    "Ġscare": 18390,
    "independent": 26021,
    "ire": 493,
    "Ġdemocracy": 25458,
    "Ġadditional": 7935,
    "Ġscru": 8189,
    "Ġreel": 9213,
    "Ġbelf": 21379,
    "Ġamazing": 9976,
    "Ġpruning": 18970,
    "Ġscaffold": 18394,
    "wis": 12516,
    "Ġcontest": 18473,
    "Ġbenefit": 8292,
    "Ġhenceforth": 19646,
    "haut": 20901,
    "Ġentangled": 10343,
    "Ġresponsiveness": 2896,
    "Ġconfining": 23303,
    "bery": 9787,
    "Ġunfortunate": 5376,
    "estinated": 15921,
    "Ġjesty": 18406,
    "Ġsebastian": 11696,
    "Ġcommissioned": 19894,
    "Ġadvantages": 9807,
    "flesh": 13488,
    "fen": 20849,
    "Ġseats": 14088,
    "Ġindians": 14409,
    "Ġfeeling": 3085,
    "Ġperuvian": 18453,
    "Ġdeeps": 16111,
    "Ġnorton": 12647,
    "Ġappearance": 3699,
    "anging": 3550,
    "etween": 775,
    "Ġopportunities": 19248,
    "Ġbamboo": 17436,
    "Ġpenn": 11112,
    "Ġcheering": 11133,
    "gainst": 25141,
    "Ġmorocc": 22969,
    "Ġsell": 7825,
    "riers": 18186,
    "Ġproportionably": 19969,
    "oof": 15405,
    "iew": 2445,
    "Ġsupplying": 19797,
    "antage": 3879,
    "Ġlimping": 23544,
    "Ġalpha": 13586,
    "Ġsenior": 17171,
    "Ġbleeds": 24397,
    "Ġclenched": 14203,
    "Ġprocess": 562,
    "Ġclasses": 4056,
    "Ġfattened": 25949,
    "Ġgrunted": 16167,
    "eling": 6681,
    "Ġtwilight": 16120,
    "Ġschedule": 2369,
    "Ġrap": 14305,
    "wait": 11320,
    "Ġvint": 18194,
    "chat": 21683,
    "perfectly": 9085,
    "Ġhieroglyphics": 17302,
    "Ġmatches": 14394,
    "Ġvery": 635,
    "Ġsympat": 13338,
    "Ġmortification": 12091,
    "Ġsentry": 19026,
    "Ġcame": 1302,
    "Ġsloping": 11937,
    "Ġdismast": 12886,
    "Ġpausing": 8652,
    "Ġproduced": 2450,
    "Ġconsol": 3815,
    "Ġmed": 3989,
    "Ġexpanded": 14291,
    "Ġowest": 25091,
    "hib": 15366,
    "health": 13832,
    "Ġdemeanour": 17336,
    "noted": 22748,
    "Ġprows": 19888,
    "Ġmince": 22827,
    "Ġbreeze": 5681,
    "imitably": 21708,
    "Ġcusack": 26433,
    "ucumber": 19056,
    "descending": 16283,
    "Ġtest": 1610,
    "Ġbaleen": 10036,
    "onstr": 12543,
    "Ġautoregressive": 3432,
    "Ġexcitement": 9380,
    "igms": 3044,
    "splinter": 25210,
    "Ġravings": 18646,
    "its": 1148,
    "inqu": 6121,
    "Ġcourtesy": 9944,
    "provid": 11149,
    "Ġnovember": 11747,
    "sherlock": 5422,
    "Ġintrusion": 12763,
    "Ġnavigation": 9992,
    "soft": 12507,
    "Ġtwelvemonth": 12175,
    "passing": 14811,
    "idate": 21764,
    "freighted": 14891,
    "Ġassent": 12731,
    "oppressed": 24824,
    "Ġtied": 7357,
    "Ġnormalizes": 1861,
    "exe": 11787,
    "Ġhoriz": 4726,
    "Ġexcavating": 23312,
    "Ġhat": 2770,
    "protected": 19920,
    "Ġwonders": 7500,
    "copper": 19187,
    "Ġcascade": 20579,
    "Ġapp": 495,
    "forbearance": 22796,
    "Ġspo": 6846,
    "Ġashamed": 6403,
    "brÃ¦": 11175,
    "Ġobjects": 5578,
    "ator": 1922,
    "Ġfactor": 19012,
    "Ġchar": 1703,
    "lement": 10166,
    "rosc": 17954,
    "Ġmouse": 4694,
    "Ġsuperlative": 26074,
    "mell": 20963,
    "Ġstrangeness": 16707,
    "offers": 16393,
    "darcy": 5208,
    "Ġserves": 4669,
    "Ġpermission": 9278,
    "Ġlocations": 12411,
    "Ġindignant": 12237,
    "watson": 12241,
    "intense": 22933,
    "Ġthro": 5817,
    "Ġintrepid": 11704,
    "secondly": 16984,
    "Ġfairest": 20461,
    "Ġroyal": 5602,
    "Ġinput": 609,
    "ruit": 22174,
    "Ġtomahawk": 7539,
    "nineteenth": 26138,
    "Ġbrought": 2515,
    "º": 123,
    "Ġgunw": 6212,
    "Ġon": 350,
    "Ġoverpower": 12840,
    "bergs": 18681,
    "Ġfeedforward": 2325,
    "Ġfluke": 14673,
    "Ġsmooth": 2776,
    "Ġjoyful": 13218,
    "Ġloun": 7166,
    "Ġreplete": 15696,
    "ray": 2436,
    "ager": 6546,
    "Ġinvestment": 24336,
    "minutes": 7512,
    "hope": 5989,
    "Ġinitialized": 3950,
    "Ġchose": 7413,
    "bul": 6951,
    "Ġstud": 1617,
    "holloa": 19462,
    "blood": 7779,
    "yea": 23085,
    "Ġwasted": 9703,
    "Ġob": 862,
    "cracy": 24690,
    "rates": 21037,
    "Ġbracelets": 25502,
    "Ġterr": 3272,
    "buck": 17490,
    "Ġfaire": 13362,
    "bweb": 20790,
    "Ġchis": 11748,
    "hands": 5966,
    "Ġprying": 15607,
    "Ġblasphe": 17406,
    "should": 3260,
    "Ġquoted": 22412,
    "Ġdiscovered": 4413,
    "Ġfootmarks": 19336,
    "fork": 20856,
    "Ġprized": 23216,
    "Ġpurplish": 19140,
    "Ġexecuted": 9471,
    "Ġkrus": 18349,
    "Ġprovoked": 13323,
    "Ġgeneration": 2191,
    "remediable": 26294,
    "Ġhospit": 7514,
    "Ġcompanions": 5865,
    "king": 3058,
    "Ġpendulous": 25955,
    "Ď": 207,
    "Ġvales": 21943,
    "Ġaston": 3701,
    "Ġearned": 19403,
    "Ġsqualidness": 25842,
    "Ġgrappling": 25812,
    "Ġcanst": 8857,
    "Ġjudged": 12081,
    "Ġexclaim": 11221,
    "Ġsupper": 4666,
    "fac": 17541,
    "Ġpulverize": 23391,
    "broken": 8020,
    "duchess": 18463,
    "perv": 1503,
    "Ġcoleridge": 18767,
    "atiously": 15521,
    "Ġdare": 3544,
    "Ġthreads": 13115,
    "sooner": 14775,
    "Ġprospects": 9958,
    "ield": 2407,
    "Ġcanall": 10928,
    "Ġfrigid": 17352,
    "Ġforthwith": 16618,
    "Ġassign": 11109,
    "Ġdeceive": 12720,
    "Ġferule": 24499,
    "Ġcorresponds": 19820,
    "studies": 25166,
    "tee": 16169,
    "Ġvalue": 2085,
    "manner": 6170,
    "Ġdomineer": 23674,
    "count": 4212,
    "Ġcaucus": 17379,
    "swiss": 24255,
    "stump": 21650,
    "Ġstripped": 10465,
    "Ġthirty": 4944,
    "characteristic": 24685,
    "âĢľâĢĻ": 10221,
    "analysis": 26173,
    "breeding": 16675,
    "Ġcrate": 19122,
    "neighbourhood": 10024,
    "Ġbesides": 3513,
    "tanh": 5204,
    "Ġdissatisfied": 14256,
    "Ġdeline": 16332,
    "ģ": 228,
    "ignantly": 23263,
    "ensive": 6279,
    "Ġnich": 21517,
    "Ġmicroscopic": 26373,
    "Ġstructures": 2719,
    "oping": 5559,
    "histicated": 20900,
    "Ġadorn": 12788,
    "Ġaverred": 18864,
    "drawers": 19384,
    "Ġfle": 3092,
    "Ġwelcomed": 9481,
    "indirect": 22369,
    "Ġfoiled": 23242,
    "Ġwoodcock": 19162,
    "Ġpeculiar": 3153,
    "peleg": 16293,
    "Ġnibbling": 17384,
    "Ġsteel": 3889,
    "Ġemblem": 20496,
    "Ġrobberies": 23023,
    "frequently": 9978,
    "Ġinterrupt": 4360,
    "Ġyourselves": 9028,
    ",âĢĶ": 3170,
    "Ġtraged": 9351,
    "Ġgra": 415,
    "Ġwoe": 4793,
    "Ġconcre": 16386,
    "Ń": 260,
    "Ġcheating": 16366,
    "practical": 17221,
    "Ġaged": 10321,
    "Ġevils": 9019,
    "Ġpicturesqueness": 24480,
    "onder": 3780,
    "Ġgoble": 14230,
    "dragging": 16609,
    "Ġdisorder": 16050,
    "maged": 15392,
    "Ġreal": 1638,
    "Ġfloor": 4379,
    "ufactured": 15180,
    "Ġsax": 10929,
    "Ġprojected": 16871,
    "Ġshabby": 14110,
    "Ġjog": 18405,
    "Ġlany": 21551,
    "animation": 16979,
    "Ġpangs": 15613,
    "Ġcollecting": 12284,
    "Ġcandelab": 23846,
    "wled": 15454,
    "cost": 19185,
    "Ġdepos": 11003,
    "Ġmountain": 3372,
    "Ġparmacetti": 20603,
    "asible": 21539,
    "Ġunlocked": 14119,
    "Ġflowers": 8940,
    "Ġhesitation": 13439,
    "osque": 22259,
    "arians": 18523,
    "gravel": 22617,
    "cigar": 26124,
    "remark": 7261,
    "Ġhemisphere": 26478,
    "Ġbird": 3756,
    "Ġjurymen": 16847,
    "Ġfring": 11127,
    "Ġdoors": 6418,
    "Ġsuckling": 25997,
    "Ġasyl": 12732,
    "Ġentreaties": 9035,
    "incing": 15485,
    "Ġsadder": 24050,
    "Ġpointing": 5661,
    "ulsive": 10233,
    "irregular": 21908,
    "Ġhaz": 12753,
    "Ġpillows": 24986,
    "Ġeternally": 11369,
    "language": 5129,
    "ails": 6160,
    "apt": 725,
    "Ġlawyer": 10668,
    "Ġjeopard": 9942,
    "Ġhauled": 11692,
    "complaisance": 24811,
    "Ġsaves": 18324,
    "Ġpouring": 12622,
    "ied": 942,
    "Ġimple": 1735,
    "Ġgoodly": 22817,
    "Ġaccumulates": 2889,
    "atives": 2233,
    "Ġtheore": 1829,
    "wouldn": 23534,
    "Ġboxes": 13372,
    "Ġthreatening": 16828,
    "storied": 18024,
    "Ġdiction": 8794,
    "degra": 22138,
    "false": 15353,
    "Ġaboard": 6697,
    "vigorous": 25917,
    "afraid": 10441,
    "removing": 17764,
    "Ġbloodthirst": 23800,
    "Ġmac": 15537,
    "Ġunlo": 22009,
    "Ġprincipally": 11309,
    "lins": 2027,
    "Ġwreaths": 25937,
    "Ġapex": 24342,
    "pious": 17633,
    "speak": 5504,
    "Ġdecapitated": 20614,
    "Ġprosper": 10228,
    "Ġroof": 6564,
    "Ġmrs": 1467,
    "imaux": 21709,
    "Ġsparing": 22126,
    "Ġtreated": 7080,
    "Ġclosed": 4604,
    "Ġsmoked": 10322,
    "rer": 3622,
    "Ġtashtego": 4487,
    "fam": 5988,
    "Ġsprang": 5064,
    "stock": 13219,
    "Ġnightfall": 23129,
    "Ġcatastrophic": 3541,
    "investments": 25532,
    "Ġlassitude": 20585,
    "death": 6261,
    "manners": 16184,
    "Ġpresentiment": 18988,
    "yden": 21142,
    "Ġimmensely": 13593,
    "Ġerection": 23998,
    "Ġsurtout": 23464,
    "sford": 5997,
    "Ġavail": 11226,
    "Ġinsensibly": 20074,
    "sun": 7139,
    "ckinridge": 11717,
    "Ġpines": 12615,
    "Ġacknowled": 6350,
    "Ġtight": 8107,
    "Ġchicha": 15935,
    "wail": 21124,
    "Ġrelaxed": 12980,
    "ont": 2621,
    "northern": 23663,
    "Ġeagerness": 6608,
    "furnished": 20240,
    "Ġcoral": 11920,
    "Ġbodies": 8031,
    "Ġreports": 19084,
    "Ġsanct": 15062,
    "min": 4571,
    "capt": 3837,
    "Ġheightened": 8648,
    "Ġmisanthrop": 22758,
    "Ġhalting": 16272,
    "Ġwhoever": 10973,
    "Ġuntoward": 19164,
    "Ġscarcely": 4012,
    "sample": 12504,
    "Ġnormalization": 1241,
    "Ġcollege": 11424,
    "Ġwhatsoever": 18455,
    "Ġdest": 2234,
    "mured": 6960,
    "zag": 17713,
    "Ġfancying": 12110,
    "dispute": 23497,
    "utes": 5913,
    "Ġangelic": 19626,
    "further": 7535,
    "itching": 21333,
    "stee": 21648,
    "robust": 19727,
    "Ġpalpitated": 26085,
    "Ġsinews": 20286,
    "Ġvaliant": 9799,
    "Ġfiver": 22775,
    "Ġflurry": 18860,
    "Ġsympt": 7012,
    "abomin": 15740,
    "Ġreputation": 11639,
    "py": 17624,
    "Ġuniform": 2224,
    "Ġsensitive": 13197,
    "stool": 23817,
    "ê": 171,
    "Ġfundamental": 3011,
    "Ġintervening": 17267,
    "belais": 24037,
    "Ġmasonry": 13597,
    "Ġsenor": 20149,
    "Ġancles": 21444,
    "Ġdamned": 13130,
    "Ġaforethought": 25428,
    "Ġtokens": 1772,
    "Ġquote": 18466,
    "Ġquartered": 20371,
    "protection": 19919,
    "Ġillum": 9399,
    "cnns": 3621,
    "patter": 4215,
    "Ġbrid": 6290,
    "Ġfly": 3870,
    "Ġplanting": 16085,
    "Ġverdant": 15002,
    "Ġmachine": 791,
    "Ġcheshire": 13087,
    "Ġwinds": 5746,
    "Ġrules": 1918,
    "okes": 9276,
    "Ġholder": 6724,
    "Ġsinking": 7307,
    "Ġprefers": 20512,
    "like": 1883,
    "ilt": 2967,
    "Ġdeaf": 12719,
    "cheered": 23804,
    "Ġharp": 17923,
    "ver": 331,
    "þ": 191,
    "often": 6165,
    "Ġmariners": 6067,
    "Ã": 132,
    "mil": 13751,
    "scales": 22984,
    "Ġwatches": 11081,
    "round": 3368,
    "Ġdrinking": 12166,
    "invincible": 25089,
    "Ġslumbering": 25701,
    "fier": 9593,
    "Ġrestraint": 15126,
    "Ġglowed": 24864,
    "Ġglances": 10372,
    "onged": 18411,
    "Ġsatisfaction": 5667,
    "Ġmasked": 3694,
    "Ġuniverse": 14123,
    "Ġfact": 1726,
    "added": 11658,
    "Ġsword": 6732,
    "Ġtypically": 1541,
    "Ġpugn": 21478,
    "european": 26371,
    "Ġrecovery": 11441,
    "uger": 21102,
    "Ġevangelist": 20337,
    "Ġcrews": 8990,
    "Ġpeculiarities": 12068,
    "lod": 15377,
    "Ġardu": 22186,
    "Ġpuzzling": 14897,
    "polar": 24583,
    "Ġowl": 20082,
    "ravity": 21632,
    "ropy": 1101,
    "Ġunrolled": 22035,
    "Ġinquir": 4242,
    "ploy": 2038,
    "Ġtrunks": 15978,
    "wrapped": 15208,
    "avering": 24793,
    "Ġsallow": 12533,
    "Ġinestimable": 17441,
    "ceiling": 21624,
    "Ġ27": 8614,
    "Ġgrimesby": 11457,
    "Ġtend": 6120,
    "Ġuntutored": 19165,
    "Ġguilty": 7250,
    "Ġfigured": 16643,
    "Ġsavannah": 17415,
    "Ġrelieved": 7665,
    "Ġplacing": 8900,
    "cour": 4480,
    "Ġfourteen": 12008,
    "Ġunfulfilled": 26509,
    "Ġrespectful": 16345,
    "Ġtakes": 5007,
    "Ġviolent": 5117,
    "Ġstreat": 15719,
    "neg": 12862,
    "Ġfurious": 10353,
    "impud": 23759,
    "drive": 8682,
    "Ġconspicuous": 13601,
    "Ġdepose": 22585,
    "Ġcrabs": 19173,
    "derstand": 656,
    "Ġcig": 6520,
    ",_": 11462,
    "iliary": 21723,
    "Ġbleak": 10558,
    "stri": 6249,
    "morning": 4859,
    "iron": 3440,
    "Ġfully": 6342,
    "Ġparallelization": 3431,
    "crane": 24099,
    "Ġflorid": 17135,
    "owders": 18050,
    "Ġinteresting": 4326,
    "Ġrecomm": 4996,
    "Ġartist": 12910,
    "Ġtouching": 4681,
    "eches": 8077,
    "Ġaffright": 9331,
    "uated": 10131,
    "ĠĠĠĠĠĠĠĠĠĠĠĠĠĠĠĠĠĠĠĠĠĠĠĠĠĠĠĠĠĠĠĠĠĠĠĠĠĠ": 16525,
    "Ġoverpowered": 15287,
    "trimmed": 23946,
    "sor": 7352,
    "ll": 1139,
    "Ġdilig": 8349,
    "Ġunderneath": 16337,
    "ulus": 21861,
    "Ġdilatory": 24705,
    "Ġshan": 9248,
    "Ġstrange": 2271,
    "situ": 9621,
    "Ġproport": 2297,
    "penetrate": 20323,
    "bil": 20770,
    "Ġmappings": 2149,
    "Ġstrata": 26027,
    "enthusiastic": 20691,
    "low": 659,
    "Ġrece": 11637,
    "romeda": 17262,
    "prevent": 11793,
    "itzerland": 9994,
    "Ġcourting": 23289,
    "Ġshelter": 17008,
    "sphere": 22730,
    "Ġflame": 7448,
    "conducted": 25572,
    "Ġcast": 3606,
    "Ġcetus": 19884,
    "Ġkeepers": 23537,
    "dw": 3331,
    "Ġsuch": 795,
    "³": 116,
    "Ġsoften": 23122,
    "Ġfloat": 12030,
    "Ġhad": 443,
    "slave": 16895,
    "antly": 1988,
    "Ġanswers": 7070,
    "coil": 23558,
    "Ġleak": 2160,
    "phew": 6368,
    "ly": 319,
    "Ġrekindled": 21674,
    "Ġincredulity": 11311,
    "ief": 2047,
    "Ġeyelids": 26107,
    "bert": 4663,
    "inities": 21184,
    "inst": 4296,
    "verdict": 21726,
    "told": 7811,
    "houn": 20892,
    "confl": 22461,
    "Ġchooses": 13344,
    "Ġnoon": 6559,
    "jury": 15372,
    "Ġcleansed": 26293,
    "indebted": 26158,
    "Ġdestroy": 5772,
    "Ġsells": 21222,
    "Ġforeseen": 16443,
    "Ġtalking": 3858,
    "avings": 12021,
    "aisance": 15073,
    "Ġstress": 18066,
    "Ġobtaining": 16131,
    "Ġgravity": 9247,
    "skelter": 24490,
    "especially": 3572,
    "iousness": 4899,
    "Ġunconquerable": 22060,
    "Ġmiscell": 16149,
    "Ġintens": 7003,
    "gement": 13727,
    "willingly": 11981,
    "ason": 1252,
    "mbl": 5946,
    "Ġdevoted": 6573,
    "reen": 21230,
    "uge": 4019,
    "ti": 8389,
    "Ġprophe": 13076,
    "fishery": 10031,
    "Ġfreezing": 23881,
    "holmes": 4432,
    "Ġoverhear": 15971,
    "Ġvenom": 24238,
    "Ġunreasonably": 17450,
    "osure": 5306,
    "bre": 3981,
    "Ġenjoyed": 8007,
    "Ġshrimp": 24157,
    "Ġsliding": 9362,
    "Ġgovern": 10450,
    "thankful": 16806,
    "Ġexacted": 23602,
    "extinguished": 16151,
    "Ġdeceitfulness": 25734,
    "leagued": 26435,
    "Ġsutherland": 10148,
    "Ġnapoleons": 25885,
    "Ġemails": 13103,
    "Ġafrica": 12343,
    "ensibility": 22544,
    "scornful": 26575,
    "leave": 7837,
    "Ġfill": 5701,
    "Ġrocked": 12854,
    "Ġach": 2620,
    "Ġ51": 24320,
    "ø": 185,
    "bur": 4687,
    "shock": 19854,
    "pendicular": 6499,
    "iogn": 20920,
    "Ġkindliness": 23292,
    "Ġvault": 8840,
    "Ġslugg": 15267,
    "archical": 1925,
    "Ġtipped": 17728,
    "Ġstrolled": 16770,
    "Ġmichigan": 26426,
    "Ġvolition": 14797,
    "top": 4486,
    "Ġemerged": 8684,
    "Ġtusk": 25425,
    "ted": 790,
    "Ġarchangel": 8542,
    "Ġdecline": 9286,
    "Ġelixir": 26555,
    "happily": 14657,
    "Ġdiscernment": 15067,
    "richard": 17286,
    "nez": 22439,
    "Ġsexes": 25168,
    "Ġharpooning": 23976,
    "thine": 15823,
    "Ġvote": 21944,
    "Ġshadows": 8012,
    "impregn": 21711,
    "Ġyore": 21775,
    "there": 1424,
    "Ġmisconduct": 22757,
    "Ġoy": 15544,
    "determ": 7105,
    "Ġears": 4491,
    "cords": 25136,
    "twenty": 6607,
    "Ġhaste": 9003,
    "Ġshriek": 6637,
    "tales": 17686,
    "warmly": 25026,
    "ante": 11719,
    "Ġsquared": 1381,
    "Ġsymbols": 2796,
    "Ġstagnant": 24654,
    "Ġbearded": 15725,
    "âĢĶâĢĶâĢĿ": 15938,
    "plenty": 14087,
    "ace": 720,
    "Ġdolphins": 20394,
    "Ġphyseter": 26586,
    "Ġdetective": 14398,
    "Ġjavan": 24997,
    "Ġdropped": 4472,
    "Ġjourneying": 25565,
    "proceed": 8976,
    "Ġclanging": 18422,
    "concluded": 11242,
    "rage": 10843,
    "Ġwhimsical": 20426,
    "Ġcoffins": 13248,
    "Ġdiverse": 19208,
    "Ġrav": 14306,
    "Ġmira": 8406,
    "Ġund": 4120,
    "exceed": 7910,
    "Ġropes": 10748,
    "ĠĠĠĠĠĠĠĠĠĠĠĠĠĠĠĠĠĠĠĠĠĠĠĠĠĠ": 13386,
    "crooked": 25746,
    "Ġint": 411,
    "Ġdaily": 5986,
    "torn": 17682,
    "Ġcocoa": 25482,
    "Ġpos": 1008,
    "more": 1031,
    "sander": 11526,
    "achus": 18273,
    "solution": 14686,
    "loun": 17588,
    "Ġwhelmed": 25999,
    "dam": 7797,
    "Ġpossess": 3203,
    "Ġty": 6657,
    "Ġearning": 23938,
    "spade": 10339,
    "Ġdiscussion": 17194,
    "arle": 21438,
    "Ġhaze": 18196,
    "lo": 680,
    "Ġsympath": 4861,
    "fering": 17542,
    "derness": 11736,
    "Ġrivers": 9442,
    "whispering": 26103,
    "serve": 13043,
    "Ġstool": 14460,
    "Ġpreparation": 13527,
    "Ġyard": 5920,
    "Ġintegr": 7968,
    "Ġstrands": 25574,
    "significant": 25082,
    "verse": 9687,
    "Ġexplanation": 6692,
    "Ġgo": 614,
    "Ġacc": 574,
    "Ġwaggish": 25434,
    "beh": 5472,
    "ptember": 10894,
    "illustration": 2282,
    "connections": 14427,
    "Ġdefe": 21832,
    "Ġcommonest": 23087,
    "planted": 11694,
    "inously": 21185,
    "Ġapparatus": 24908,
    "Ġquarto": 17295,
    "Ġdine": 7366,
    "Ġpemberley": 4588,
    "Ġinseparable": 20687,
    "Ġfinite": 2323,
    "Ġinsular": 19267,
    "Ġunperceived": 22034,
    "ague": 3907,
    "Ġgazing": 5875,
    "Ġking": 2303,
    "Ġwhisky": 23931,
    "Ġrepay": 19081,
    "Ġparagraph": 17453,
    "Ġscrolled": 22267,
    "Ġcorrob": 16265,
    "Ġfondness": 16780,
    "kl": 4865,
    "Ġcreaking": 14328,
    "arse": 7160,
    "intments": 18821,
    "Ġresounds": 22539,
    "Ġhipp": 21489,
    "Ġunerring": 15846,
    "Ġascertained": 25296,
    "Ġlament": 7856,
    "Ġplead": 14454,
    "duct": 3505,
    "avern": 24792,
    "been": 3342,
    "Ġcurves": 18854,
    "Ġcho": 4547,
    "ezes": 9990,
    "terrors": 25041,
    "Ġdelicately": 24126,
    "Ġmulti": 1040,
    "Ġanew": 11430,
    "voices": 21116,
    "Ġwoes": 23983,
    "Ġproble": 1109,
    "pall": 17628,
    "Ġsports": 18310,
    "Ġtuileries": 24826,
    "Ġcontinues": 18809,
    "honor": 19899,
    "Ġlin": 10833,
    "Ġamidst": 9493,
    "Ġtested": 23221,
    "Ġadopt": 10631,
    "Ġtitle": 11408,
    "Ġboister": 12918,
    "Ġcoleman": 22584,
    "Ġclose": 3034,
    "Ġcircumstance": 4987,
    "Ġmistifying": 23717,
    "Ġsevere": 6031,
    "Ġnotes": 7189,
    "ease": 12455,
    "Ġparcels": 25465,
    "Ġwebster": 20160,
    "Ġblood": 3168,
    "Ġmost": 1020,
    "Ġentertaining": 16926,
    "devouring": 24950,
    "Ġupper": 5090,
    "Ġhaught": 10252,
    "Ġann": 4490,
    "dil": 11478,
    "9": 29,
    "pense": 10368,
    "Ġbewit": 15726,
    "Ġboot": 11838,
    "Ġinstructive": 19285,
    "Ġdenial": 13212,
    "Ġsequence": 1976,
    "Ġtwitched": 20442,
    "cream": 15330,
    "sters": 6391,
    "adventure": 17233,
    "uous": 4145,
    "Ġbest": 1974,
    "Ġvanity": 7045,
    "directed": 20403,
    "Ġdavy": 25951,
    "Ġseas": 3079,
    "Ġcrests": 25685,
    "Ġincredible": 9514,
    "Ġharpo": 1942,
    "Ġautumn": 14510,
    "Ġallows": 3231,
    "Ġphil": 3386,
    "Ġcarted": 21347,
    "Ġrelied": 16194,
    "Ġ45": 14769,
    "jabez": 20932,
    "Ġporch": 19679,
    "months": 9071,
    "emic": 18179,
    "Ġcoin": 9770,
    "mber": 7803,
    "acknowledging": 25476,
    "Ġfingers": 5672,
    "due": 22407,
    "amouch": 21848,
    "Ġproudly": 19741,
    "Ġsubstituting": 26326,
    "Ġstray": 18069,
    "Ġreverend": 15258,
    "Ġspecial": 2102,
    "staring": 18020,
    "Ġcomical": 11676,
    "shavings": 22455,
    "bastian": 10673,
    "Ġindividuals": 24546,
    "Ġoppressed": 11189,
    "mpt": 6653,
    "Ġtrem": 6659,
    "Ġmake": 1286,
    "Ġunseason": 22049,
    "Ġpine": 8796,
    "Ġvideos": 13604,
    "Ġdisregard": 22525,
    "box": 5749,
    "Ġsorry": 4209,
    "Ġcrippled": 25278,
    "regulated": 23466,
    "Ġarriving": 19216,
    "leep": 4635,
    "Ġasked": 2276,
    "Ġsoundings": 13131,
    "isc": 6239,
    "Ġwhelm": 25998,
    "Ġmiscellaneous": 17462,
    "Ġpreference": 9732,
    "Ġbench": 7238,
    "Ġblacksmith": 6595,
    "Ġanalysis": 1947,
    "oles": 21004,
    "Ġhighway": 14345,
    "Ġconfed": 13095,
    "Ġhereditary": 10664,
    "irements": 22210,
    "Ġputting": 5326,
    "magnifying": 25392,
    "Ġindependent": 9015,
    "Ġdescribed": 6606,
    "Ġcompens": 14263,
    "Ġstrict": 7222,
    "Ġneared": 14074,
    "Ġloop": 14146,
    "Ġwaits": 23276,
    "Ġdisturb": 7107,
    "Ġdocile": 19957,
    "onsible": 22558,
    "·": 120,
    "istry": 22106,
    "rels": 6664,
    "Ġtypewriting": 16420,
    "Ġworsh": 12996,
    "Ġdelay": 5748,
    "Ġsee": 802,
    "Ġsaws": 23044,
    "Ġcheerful": 6621,
    "Ġcontained": 7678,
    "Ġlip": 6532,
    "Ġgrimes": 11034,
    "hoping": 17566,
    "Ġneither": 3686,
    "Ġlonging": 14299,
    "Ġsnail": 19299,
    "Ġembodied": 25848,
    "Ġdeposition": 18601,
    "Ġwaving": 8575,
    "blister": 24128,
    "Ġsaith": 14155,
    "Ġrosings": 4607,
    "puzzling": 26143,
    "Ġhorizon": 6632,
    "orters": 21399,
    "Ġagitation": 6865,
    "Ġalarming": 14779,
    "guinea": 16672,
    "Ġknock": 9972,
    "shone": 22445,
    "Ġpictures": 5503,
    "truck": 15441,
    "Ġbuttoning": 17235,
    "sheet": 16284,
    "ained": 3063,
    "Ġclap": 10956,
    "Ġah": 5075,
    "pitching": 24075,
    "Ġbasis": 16961,
    "Ġinterfere": 11815,
    "Ġcompares": 20165,
    "prepare": 20211,
    "qu": 369,
    "Ġhapp": 1091,
    "Ġcelebrate": 26357,
    "Ġregardless": 19323,
    "adm": 7608,
    "thoroughly": 26508,
    "crimes": 16697,
    "fourths": 25509,
    "Ġemployments": 12100,
    "thest": 11653,
    "Ġjingling": 26017,
    "accustomed": 13155,
    "Ġje": 4124,
    "err": 1140,
    "ol": 362,
    "south": 8758,
    "Ġgidd": 25783,
    "Ġnailed": 10189,
    "throughout": 24087,
    "Ġrounds": 18883,
    "Ġponder": 6819,
    "conquerable": 17398,
    "Ġchronic": 9928,
    "Ġhabit": 6771,
    "aky": 18412,
    "Ġcompatibility": 2957,
    "Ġembarked": 17134,
    "Ġmuhammad": 26169,
    "Ġservant": 5764,
    "Ġpuzzled": 7317,
    "Ġhunt": 6183,
    "using": 5468,
    "Ġinitialization": 1250,
    "accidents": 19211,
    "Ġribbons": 24329,
    "Ġpencil": 11941,
    "lights": 13203,
    "projecting": 26073,
    "Ġexperiences": 13026,
    "Ġauthor": 4376,
    "Ġgeorge": 3748,
    "Ġcleaned": 23179,
    "Ġerected": 12231,
    "unte": 21870,
    "Ġden": 3108,
    "shell": 16285,
    "Ġirrevoc": 15038,
    "Ġhuggins": 24828,
    "Ġsharkish": 24506,
    "Ġmovable": 22430,
    "ceed": 1078,
    "Ġdet": 508,
    "Ġheavily": 6740,
    "Ġbulwarks": 5592,
    "repid": 11564,
    "irst": 878,
    "electricity": 26385,
    "plish": 18200,
    "rope": 3184,
    "Ġpunct": 8660,
    "based": 2958,
    "rubber": 12807,
    "hear": 10146,
    "Ġen": 392,
    "Ġburned": 8630,
    "enges": 13050,
    "imp": 3031,
    "tempted": 26403,
    "Ġcomple": 2839,
    "pires": 13774,
    "Ġanswered": 2850,
    "Ġsails": 5256,
    "Ġembedding": 2104,
    "Ġbremen": 23341,
    "Ĩ": 233,
    "Ġdru": 8421,
    "oundering": 11744,
    "car": 4211,
    "inkled": 5477,
    "Ġnlp": 3060,
    "igin": 3655,
    "Ġtoiled": 12640,
    "ac": 742,
    "elevating": 20404,
    "Đ": 209,
    "Ġsister": 1477,
    "Ġphant": 7055,
    "ooped": 17623,
    "alog": 8804,
    "chet": 13215,
    "Ġvanish": 8926,
    "estation": 15920,
    "Ġra": 824,
    "Ġlect": 9222,
    "Ġattempting": 14696,
    "pagans": 25525,
    "Ġtestimony": 14477,
    "Ġgreatly": 5849,
    "Ġwrecked": 9965,
    "Ġsweetest": 13245,
    "shunned": 22457,
    "ğ": 224,
    "Ġru": 949,
    "Ġtalent": 12295,
    "Ġflour": 8944,
    "Ġpersuade": 5872,
    "quee": 4131,
    "while": 2933,
    "recl": 15510,
    "Ġdestructive": 23485,
    "Ġmightiest": 12958,
    "angered": 16177,
    "dinah": 20079,
    "Ġliveliest": 24775,
    "Ġmajor": 13289,
    "Ġpupils": 20419,
    "Ġhealthcare": 8015,
    "Ġinjustice": 9190,
    "meas": 7434,
    "Ġraven": 16114,
    "Ġdeserve": 8308,
    "indifference": 15981,
    "nails": 17614,
    "Ġskirts": 14351,
    "Ġ(`": 12850,
    "Ġcompacted": 23506,
    "Ġappar": 7411,
    "Ġcondem": 6338,
    "Ġget": 1627,
    "Ġgn": 8817,
    "acing": 2717,
    "Ġschooner": 16747,
    "tim": 13790,
    "Ġaxe": 15061,
    "Ġlac": 17964,
    "attempted": 20173,
    "Ġaccomplished": 7104,
    "itates": 13868,
    "Ġexc": 1831,
    "eastward": 15128,
    "plied": 10254,
    "clinging": 20821,
    "examine": 25477,
    "Ġinvented": 17037,
    "transferred": 24514,
    "Ġbagging": 24539,
    "Ġgrope": 17994,
    "Ġregimentals": 19857,
    "Ġcorresponding": 13436,
    "bles": 7017,
    "Ġdoubted": 7965,
    "Ġbeating": 8144,
    "itation": 1780,
    "ades": 5631,
    "Ġspan": 11726,
    "Ġpreparing": 8647,
    "aited": 12433,
    "Ġawaited": 17074,
    "Ġmerits": 13194,
    "Ġinc": 703,
    "Ġoffensive": 18694,
    "Ġhearties": 18966,
    "Ġscatter": 18391,
    "Ġtrinity": 22364,
    "doc": 23374,
    "Ġfe": 491,
    "Ġdrooping": 9419,
    "uneasiness": 23685,
    "uncommonly": 25549,
    "Ġobeyed": 12214,
    "ulated": 6029,
    "Ġfleet": 9431,
    "Ġram": 11014,
    "amuse": 14052,
    "Ġchairs": 12824,
    "Ġgardeners": 12118,
    "Ġpreacher": 18369,
    "Ġsickbed": 24246,
    "Ġparalle": 1409,
    "Ġgenerative": 5644,
    "Ġassistants": 9451,
    "rit": 21034,
    "Ġhonoured": 9880,
    "Ġpurse": 12009,
    "fearing": 18526,
    "Ġpads": 21472,
    "Ġprofits": 16489,
    "Ġblackness": 9392,
    "Ġdismissed": 12890,
    "proof": 16423,
    "Ġenriched": 26499,
    "perplex": 18340,
    "etieth": 21581,
    "Ġtipt": 21172,
    "mn": 3576,
    "az": 2182,
    "Ġsphy": 18311,
    "opence": 18507,
    "material": 13128,
    "quet": 6835,
    "creat": 20799,
    "Ġothers": 2579,
    "trowsers": 17691,
    "Ġperplexity": 2754,
    "Ġensue": 18190,
    "Ġtoken": 2040,
    "Ġpermanently": 25473,
    "society": 9971,
    "decan": 22139,
    "Ġcleaving": 23178,
    "satisfactory": 16893,
    "Ġseasonable": 24406,
    "Ġobliter": 14321,
    "Ġapparition": 8066,
    "property": 19998,
    "Ġchemical": 10410,
    "Ġescaping": 13133,
    "held": 3841,
    "Ġadmeasure": 18293,
    "Ġfundamentals": 14635,
    "bow": 5424,
    "Ġyourself": 2590,
    "Ġrepresent": 1212,
    "Ġestates": 16459,
    "Ġsplice": 19308,
    "descend": 23083,
    "Ġinvention": 19951,
    "Ġpond": 13915,
    "smitten": 23906,
    "Ġebony": 18008,
    "Ġinhabit": 5782,
    "included": 19207,
    "sledge": 21056,
    "Ġtong": 4870,
    "Ġwhir": 6393,
    "Ġfil": 3472,
    "star": 12670,
    "Ġrecord": 5316,
    "atiate": 12545,
    "Ġdigging": 14937,
    "Ġfolly": 7940,
    "Ġsupposition": 9816,
    "mushroom": 26395,
    "Ġrambling": 18644,
    "Ġtravell": 5576,
    "achable": 14128,
    "Ġteneriffe": 26414,
    "iven": 1235,
    "Ġspeakest": 23484,
    "A": 37,
    "Ġice": 3604,
    "Ġfold": 5531,
    "Ġexceedingly": 4614,
    "Ġlives": 4826,
    "clouds": 25496,
    "Ġuntimely": 16467,
    "Ġlistless": 16476,
    "Ġwit": 3842,
    "Ġbefore": 810,
    "adventurous": 25361,
    "Ġmuff": 8113,
    "Ġsplin": 8618,
    "abeth": 906,
    "Ġexord": 21824,
    "put": 414,
    "ering": 1264,
    "Ġdummy": 25449,
    "Ġpanting": 11602,
    "Ġscrutiny": 26015,
    "Ġ15": 9323,
    "Ġbenignity": 18783,
    "Ġfellows": 8256,
    "Ġinsp": 2100,
    "Ġflo": 2584,
    "Ġtu": 6968,
    "Ġmabel": 17323,
    "Ġane": 9181,
    "es": 288,
    "glings": 23849,
    "Ġj": 534,
    "Ġindef": 9189,
    "Ġantilles": 24179,
    "Ġof": 298,
    "Ġtempest": 8212,
    "fierce": 25255,
    "Ġmind": 1624,
    "Ġindestructible": 26572,
    "rift": 11519,
    "direful": 25896,
    "ings": 636,
    "Ġhandsomest": 20333,
    "Ġlayer": 1010,
    "Ġexist": 9231,
    "mel": 9127,
    "iving": 1724,
    "injured": 15131,
    "Ġconception": 10319,
    "Ġjewell": 19519,
    "Ġtone": 4041,
    "dripping": 16905,
    "Ġpang": 15603,
    "Ġcounteracted": 19861,
    "Ġforlorn": 14014,
    "Ġendeavours": 8617,
    "nut": 12492,
    "deepest": 22849,
    "explaining": 23138,
    "talked": 14984,
    "Ġprodu": 1206,
    "_)âĢĶ": 20143,
    "building": 17308,
    "Ġstepfather": 7221,
    "lord": 3865,
    "Ġarmada": 23579,
    "Ġfireboard": 23531,
    "Ġsailed": 4889,
    "inn": 5363,
    "kindred": 24048,
    "Ġconnexion": 11454,
    "Ġmaj": 3928,
    "Ġautomation": 13264,
    "--âĢľ": 12969,
    "Ġroughs": 19955,
    "macy": 18803,
    "experienced": 15120,
    "Ġtorrid": 25032,
    "Ġtiller": 8965,
    "Ġrepute": 18034,
    "Ġbrightened": 23826,
    "describe": 1516,
    "Ġlistener": 16475,
    "Ġweeps": 24947,
    "Ġcomputer": 1187,
    "Ġpreceding": 7528,
    "bethinking": 25745,
    "fired": 20859,
    "mess": 13752,
    "wag": 21122,
    "Ġsuspended": 5665,
    "sebastian": 21817,
    "Ġrenewing": 19809,
    "Ġanticip": 7507,
    "oy": 1016,
    "poky": 17644,
    "Ġtale": 5142,
    "fri": 20853,
    "rom": 420,
    "iar": 2375,
    "bedstead": 23847,
    "putable": 10901,
    "Ġsolemnisation": 24114,
    "Ġleaping": 8340,
    "Ġpuff": 6526,
    "Ġconviction": 6326,
    "acknowledge": 18471,
    "testing": 12514,
    "Ġimposed": 14216,
    "Ġyaw": 18094,
    "simply": 20669,
    "Ġrail": 7225,
    "Ġmonuments": 22974,
    "jolly": 20930,
    "Ġarmitage": 23580,
    "Ġfurrow": 22810,
    "Ġacutely": 14313,
    "otions": 7180,
    "Ġquar": 3114,
    "Ġfulf": 6772,
    "Ġfolk": 10375,
    "ouses": 5163,
    "Ġtroubled": 6615,
    "cannibals": 25584,
    "Ġfift": 6382,
    "Ġmultiplied": 23688,
    "Ġcow": 13875,
    "Ġmak": 10778,
    "Ġmonsie": 11447,
    "Ġreserves": 19669,
    "Ġfedallah": 6108,
    "hoisting": 23714,
    "Ġwhereof": 16101,
    "Ġbut": 424,
    "riumph": 4919,
    "iate": 6505,
    "Ġnuptial": 25782,
    "ĠĠĠĠĠĠĠĠĠĠĠĠĠĠĠĠĠĠĠĠĠĠĠĠĠĠĠĠĠĠ": 24443,
    "propriety": 14371,
    "clearer": 24067,
    "Ġ124": 24469,
    "progression": 20380,
    "Ġoutdone": 22316,
    "Ġlarge": 1067,
    "Ġinheritance": 25355,
    "Ġwhaleman": 4655,
    "Ġimpl": 7195,
    "harpo": 4805,
    "otence": 14022,
    "Ġdeeply": 4717,
    "secret": 12234,
    "sheep": 23084,
    "rust": 2577,
    "Ġdazzling": 15210,
    "Ġtint": 13816,
    "Ġmy": 412,
    "Ġfair": 2836,
    "itig": 1332,
    "Ġinconven": 7586,
    "Ġwhe": 438,
    "Ġdivine": 6921,
    "Ġspecimen": 13015,
    "needle": 20309,
    "Ġrepugn": 23361,
    "Ġdepl": 14043,
    "Ġdrew": 3536,
    "Ġshave": 21993,
    "vil": 2732,
    "rew": 3648,
    "pron": 9005,
    "Ġleaf": 15721,
    "Ġomit": 17815,
    "rule": 15893,
    "Ġsal": 3939,
    "Ġshares": 23243,
    "Ġsuspic": 4471,
    "toed": 18578,
    "Ġnerve": 16339,
    "Ġgoblets": 20517,
    "Ġwearily": 18177,
    "Ġrobert": 10970,
    "sorrow": 12506,
    "respectively": 24700,
    "endured": 22218,
    "acc": 2532,
    "bidden": 19736,
    "Ġinvoluntarily": 8548,
    "Ġcru": 2823,
    "atively": 2695,
    "angels": 22102,
    "Ġcommunicates": 24547,
    "illar": 5101,
    "Ġcasked": 24497,
    "Ġsymmetrical": 20365,
    "introdu": 8937,
    "difficult": 10057,
    "Ġstreamed": 14546,
    "Ġlocks": 11722,
    "Ġhid": 1319,
    "Ġsurmis": 23462,
    "Ġworlds": 11945,
    "--": 1038,
    "occasional": 19575,
    "Ġdignity": 5704,
    "Ġwillingly": 8884,
    "Ġprevious": 2089,
    "set": 3866,
    "Ġaddressed": 5262,
    "Ġspectator": 19404,
    "arn": 357,
    "Ġinterview": 9769,
    "Ġpersecutor": 26096,
    "Ġfrosts": 19801,
    "Ġsuffoc": 18870,
    "semic": 21818,
    "ics": 3255,
    "Ġhonestly": 19970,
    "Ġmortals": 9915,
    "Ġinquiry": 6484,
    "neck": 14233,
    "irresist": 21909,
    "Ġpill": 7845,
    "acceler": 23597,
    "baked": 20778,
    "neat": 22440,
    "Ġcompos": 22566,
    "shook": 19855,
    "fro": 8732,
    "Ġinsert": 19904,
    "Ġcheerfulness": 10516,
    "extremely": 26264,
    "Ġcandid": 4100,
    "Ġfortifications": 23619,
    "Ġshiver": 12765,
    "Ġdespite": 19351,
    "magnetic": 20551,
    "Ġfigures": 8629,
    "exasper": 22424,
    "chiefly": 14845,
    "moil": 22702,
    "Ġwiser": 14729,
    "Ġcritical": 7475,
    "Ġcondu": 18109,
    ",--âĢľ": 19195,
    "Ġalive": 4399,
    "acute": 22595,
    "speeches": 25239,
    "Ġjoists": 19232,
    "housekeeper": 24102,
    "superiority": 20184,
    "Ġ121": 24466,
    "weaving": 18666,
    "Ġundiscernible": 22065,
    "Ġjoll": 11763,
    "Ġglades": 19370,
    "Ġliberally": 16830,
    "Ġdepression": 21837,
    "Ġreddening": 25970,
    "our": 535,
    "Ġfowler": 16937,
    "Ġscrupled": 25049,
    "exclaimed": 11788,
    "Ġpoured": 8800,
    "eat": 11482,
    "hurrying": 14982,
    "Ġmagnetic": 17240,
    "Ġmarvell": 7248,
    "infant": 19826,
    "Ġhidden": 1375,
    "Ġsalisbury": 24062,
    "Ġbeaten": 10528,
    "Ġstoke": 10395,
    "Ġpersistence": 3232,
    "Ġexpanse": 14292,
    "Ġrejected": 12292,
    "arch": 1103,
    "came": 4570,
    "Ġbeliever": 25845,
    "Ġgleam": 12306,
    "successful": 11358,
    "Ġadmiration": 5328,
    "Ġstalk": 12695,
    "Ġbachelor": 7786,
    "Ġelev": 5536,
    "sax": 21055,
    "oop": 10715,
    "expectations": 24276,
    "Ġbarn": 11586,
    "Ġhospitality": 13511,
    "Ġvarious": 3508,
    "Ġbarber": 23788,
    "forecastle": 10990,
    "Ġreg": 726,
    "Ġinstead": 2788,
    "love": 9293,
    "Ġcath": 17826,
    "solid": 16377,
    "Ġbrag": 23831,
    "Ġpeter": 10535,
    "des": 1572,
    "screen": 22986,
    "thumb": 18216,
    "Ġswallows": 18881,
    "10": 17472,
    "Ġintention": 5638,
    "Ġesq": 15107,
    "avier": 2830,
    "Ġinfallible": 15069,
    "Ġspeaker": 19148,
    "rob": 5534,
    "blasted": 20188,
    "might": 4080,
    "Ġderivatives": 2368,
    "stick": 15683,
    "Ġstru": 2170,
    "Ġconsort": 18723,
    "Ġmorphology": 3008,
    "ram": 13971,
    "Ġwidth": 16772,
    "haul": 14764,
    "angs": 5833,
    "Ġpapered": 20129,
    "Ġcomprehended": 11294,
    "Ġ20": 8613,
    "aments": 12723,
    "dashing": 20835,
    "Ġcurly": 18853,
    "did": 3194,
    "mis": 4521,
    "Ġnobody": 6158,
    "Ġrespects": 7269,
    "bro": 4036,
    "Ġannotations": 25954,
    "drawn": 9912,
    "Ġcharmingly": 24221,
    "Ġc": 277,
    "Ġinputs": 844,
    "Ġconver": 805,
    "Ġbrilliancy": 20105,
    "Ġshud": 5461,
    "Ġsincerity": 13677,
    "ellow": 3877,
    "concerned": 24638,
    "Ġgans": 5821,
    "resses": 16152,
    "Ġquadruped": 17458,
    "eur": 7545,
    "Ġreproachfully": 25251,
    "Ġexotic": 21828,
    "Ġchristmas": 6924,
    "Ġsnows": 14725,
    "achalot": 15857,
    "Ġexamination": 8004,
    "Ġscolded": 25472,
    "ething": 1607,
    "harpoon": 9490,
    "Ġdisembow": 22534,
    "ondescript": 22914,
    "Ġselling": 21223,
    "encouragement": 17422,
    "Ġgamb": 17997,
    "uberance": 25916,
    "princ": 8620,
    "olence": 10230,
    "Ġspiteful": 19521,
    "Ġhushed": 13924,
    "Ġtou": 15466,
    "Ġpleasantness": 24139,
    "peter": 24298,
    "Ġabundant": 17154,
    "swam": 24254,
    "icable": 6388,
    "Ġembra": 6579,
    "ser": 1427,
    "Ġhuddled": 20298,
    "Ġphrensy": 25124,
    "Ġelementary": 24814,
    "sch": 21049,
    "postp": 24634,
    "until": 6596,
    "drunk": 24659,
    "Ġformer": 3321,
    "Ġspeedy": 11172,
    "Ġdyspeps": 16510,
    "q": 85,
    "Ġolfactories": 26171,
    "finer": 17546,
    "Ġhighly": 4844,
    "himself": 3973,
    "apology": 22331,
    "Ġparallel": 1415,
    "Ġmakest": 25435,
    "rent": 1172,
    "Ġpassions": 7929,
    "ological": 1882,
    "igner": 21699,
    "arks": 2843,
    "Ġsatur": 1929,
    "attacked": 23120,
    "Ġlandlessness": 23378,
    "Ġassist": 3563,
    "vedale": 22707,
    "Ġpalsy": 25778,
    "act": 787,
    "Ġbrush": 17864,
    "Ġserpentine": 11360,
    "Ġuncontrollable": 25814,
    "Ġassured": 4373,
    "last": 3803,
    "Ġovers": 14204,
    "Ġflag": 7242,
    "Ġallude": 12769,
    "stars": 18019,
    "Ġfurnishes": 19439,
    "whole": 6085,
    "Ġhourly": 23298,
    "scattered": 22985,
    "}": 97,
    "Ġtorrent": 17092,
    "lay": 5890,
    "ļ": 253,
    "Ġkelson": 18350,
    "tland": 21072,
    "Ġmight": 963,
    "Ġdol": 9664,
    "Ġconsecutive": 20701,
    "youth": 11873,
    "Ġfrogs": 23920,
    "ron": 5216,
    "Ġfrightful": 7735,
    "seven": 8463,
    "pardon": 10064,
    "Ġpiny": 21468,
    "Ġlavenza": 17970,
    "Ġsteward": 6584,
    "Ġforts": 21769,
    "Ġfrequ": 3326,
    "Ġdoubting": 13097,
    "Ġsnugly": 17111,
    "Ġeigenvalues": 4998,
    "Ġimplicate": 24876,
    "inian": 21181,
    "Ġlists": 11166,
    "mology": 12489,
    "generally": 9434,
    "consist": 14815,
    "Ġvisible": 4777,
    "Ġreappearance": 21664,
    "Ġrephr": 21676,
    "Ġsly": 9632,
    "Ġcorpulence": 24509,
    "Ġbri": 21376,
    "ye": 1405,
    "Ġdiffidence": 14659,
    "Ġjig": 15950,
    "avo": 8517,
    "Ġguards": 16268,
    "Ġweighted": 2090,
    "much": 3706,
    "ĠĠĠĠĠĠĠĠĠĠĠĠĠĠĠĠĠĠĠĠĠĠĠĠĠĠĠĠĠĠĠĠĠĠĠĠĠĠĠĠĠĠ": 24209,
    "Ġincrease": 9368,
    "neither": 9756,
    "Ġsupplement": 22992,
    "Ġdreaming": 11223,
    "bation": 9102,
    "quickly": 14961,
    "Ġdisposing": 19373,
    "Ġboon": 22636,
    "Ġengage": 9334,
    "aye": 3659,
    "cheerful": 13573,
    "Ġseventeen": 26210,
    "Ġjones": 7204,
    "Ġnatures": 16505,
    "Ġintimate": 6549,
    "Ġsisterly": 16301,
    "Ġdeputation": 21836,
    "Ġfile": 13902,
    "murmured": 24455,
    "Ġontario": 26204,
    "Ġlower": 2663,
    "Ġtattooed": 11378,
    "marvell": 24172,
    "Ġkeenly": 9484,
    "Ġbred": 9169,
    "Ġceiling": 7996,
    "Ġinterruptions": 24186,
    "scotland": 20526,
    "Ġtunnels": 24620,
    "isive": 10793,
    "omitted": 18016,
    "cook": 8269,
    "Ġwithdrawn": 10606,
    "Ġser": 1674,
    "Ġergo": 25029,
    "erland": 9640,
    "Ġdiscount": 22777,
    "Ġequinoctial": 20531,
    "ivided": 22082,
    "purpose": 10043,
    "summoned": 26591,
    "Ġvaults": 17153,
    "quin": 21850,
    "Ġrestored": 7066,
    "Ġadmitted": 8986,
    "has": 4016,
    "ven": 780,
    "straw": 24095,
    "Ġdoor": 1740,
    "Ġeight": 3902,
    "respond": 12541,
    "Ġvit": 10245,
    "Ġconstruct": 23338,
    "<PAD>": 0,
    "Ġdying": 2136,
    "Ġseek": 4509,
    "Ġwre": 5077,
    "Ġchopping": 24219,
    "Ġrecede": 25968,
    "rebell": 17763,
    "roy": 7853,
    "pitchpoling": 25725,
    "lovely": 16045,
    "ustom": 3790,
    "Ġusefulness": 19406,
    "Ġcomposure": 7217,
    "savor": 25024,
    "Ġshilling": 18228,
    "Ġunobserved": 18249,
    "thrill": 25656,
    "Ġanxiously": 8289,
    "Ġfloats": 9412,
    "Ġdug": 21428,
    "Ġattention": 1170,
    "Ġpassing": 4316,
    "cess": 539,
    "whisper": 17083,
    "gence": 876,
    "Ġoutrageous": 20609,
    "Ġbridge": 8348,
    "robustness": 26338,
    "Ġfergus": 16867,
    "cannon": 22959,
    "Ġentry": 11026,
    "level": 2654,
    "Ġshape": 5639,
    "russian": 22176,
    "ald": 15623,
    "boat": 3361,
    "Ġlazy": 17050,
    "Ġconsequent": 18110,
    "Ġprep": 4191,
    "Ġdealing": 14044,
    "Ġmaz": 15540,
    "comprehensive": 20625,
    "Ġdiligence": 17114,
    "Ġmitig": 1336,
    "Ġdolphin": 17311,
    "Ġarrang": 2468,
    "Ġunclad": 22051,
    "stocks": 23818,
    "Ġapproximates": 2416,
    "fields": 14653,
    "Ġpenet": 6888,
    "Ġhates": 21483,
    "Ġunaccountably": 26515,
    "Ġreplying": 19580,
    "Ġheighten": 19528,
    "Ġenduring": 16302,
    "rd": 17649,
    "gree": 10701,
    "Ġrebell": 21666,
    "Ġindiam": 22950,
    "Ġcreep": 22722,
    "Ġcurrents": 13020,
    "**:": 4737,
    "Ġorph": 9716,
    "Ġsord": 21218,
    "Ġbrooks": 25700,
    "Ġful": 4298,
    "lab": 3457,
    "time": 3147,
    "Ġartificial": 798,
    "inf": 6232,
    "Ġhimmalehs": 26230,
    "Ġmorning": 1748,
    "Ġpulled": 5660,
    "unching": 18158,
    "Ġbrutality": 26276,
    "Ġfulfilled": 11362,
    "Ġwallow": 19464,
    "Ġwis": 3728,
    "emporary": 15794,
    "Ġhorrible": 4905,
    "Ġtusked": 25426,
    "hospit": 25903,
    "Ġconsequence": 5542,
    "pipe": 8696,
    "captains": 12125,
    "Ġsaturday": 6452,
    "Ġschools": 9476,
    "accounted": 16501,
    "Ġcontro": 1687,
    "Ġdoze": 14176,
    "meant": 7920,
    "pitch": 13296,
    "rut": 8091,
    "Ġsemicircle": 26067,
    "Ġberyls": 25775,
    "Ġdisputes": 25825,
    "Ġcauldron": 25441,
    "Ġboldly": 9500,
    "Ġfate": 4754,
    "Ġbitterly": 8314,
    "Ġpoltro": 23618,
    "Ġmonsieur": 12419,
    "sleepy": 24729,
    "opposing": 24825,
    "Ġsandwiched": 26610,
    "Ġmurky": 19200,
    "Ġsecluded": 11991,
    "Ġreduces": 2341,
    "quest": 4538,
    "aunt": 8369,
    "Ġtophet": 23572,
    "achine": 596,
    "Ġpreside": 18365,
    "Ġwoll": 21292,
    "Ġsimilitude": 19209,
    "evidently": 20344,
    "thither": 21980,
    "mediate": 16513,
    "Ġtiles": 17726,
    "Ġscraping": 13414,
    "call": 8722,
    "Ġmoluccas": 25629,
    "bucket": 17493,
    "egypt": 15348,
    "shri": 14234,
    "Ġunwarranted": 25171,
    "proachable": 23396,
    "Ġeyelashes": 26106,
    "unavoidable": 17389,
    "removed": 15516,
    "Ġinsc": 7585,
    "Ġassizes": 11108,
    "chari": 21686,
    "Ġheadlands": 22895,
    "Ġchewed": 16369,
    "Ġproving": 15750,
    "Ġthousand": 2780,
    "ord": 666,
    "Ġprofoundest": 16860,
    "Ġhark": 8427,
    "Ġresides": 22537,
    "onic": 7827,
    "sciss": 18850,
    "dead": 8179,
    "rador": 19158,
    "marriage": 7744,
    "Ġoutlandish": 12836,
    "ached": 2320,
    "Ġentitled": 8538,
    "Ġfinishing": 23123,
    "Ġhovering": 10178,
    "Ġcorp": 5574,
    "disc": 4729,
    "Ġcapital": 7979,
    "âĢĶ_": 3200,
    "Ġgradually": 3402,
    "Ġinsepar": 17933,
    "woods": 13417,
    "Ġpaunch": 23747,
    "Ġphyset": 23197,
    "Ġtints": 17727,
    "Ġbillow": 14778,
    "Ġindestruct": 22955,
    "hog": 8379,
    "Ġgaped": 13966,
    "anning": 10164,
    "Ġoften": 1955,
    "Ġgout": 21593,
    "Ġlurking": 11289,
    "Ġtyrant": 24767,
    "pursuit": 20339,
    "Ġtechniques": 2866,
    "Ġinfamous": 16364,
    "Ġahead": 6662,
    "visit": 7754,
    "Ġprayed": 16667,
    "mmar": 953,
    "Ġabst": 9265,
    "estate": 12819,
    "Ġdisinterested": 16056,
    "orers": 14102,
    "Ġdebated": 9040,
    "probably": 10019,
    "required": 17030,
    "itatingly": 25277,
    "ileries": 18058,
    "expl": 9282,
    "Ġdoubtless": 6195,
    "bearers": 18521,
    "Ġcloset": 19590,
    "instance": 24168,
    "Ġhanded": 8216,
    "Ġinternal": 2242,
    "Ġunattended": 15842,
    "ards": 2503,
    "din": 8373,
    "Ġreligious": 25121,
    "Ġinte": 2066,
    "Ġpolynes": 16079,
    "men": 1488,
    "Ġspouter": 12796,
    "Ġelopement": 10329,
    "Ġhandling": 8912,
    "Ġcountenances": 11962,
    "tis": 4106,
    "foolish": 12345,
    "Ġthrust": 5084,
    "Ġattach": 14289,
    "Ġdeficiency": 14403,
    "Ġprincely": 24148,
    "Ġhear": 1964,
    "Ġspars": 3810,
    "apply": 18758,
    "!": 5,
    "Ġhung": 4560,
    "Ġdeduced": 12205,
    "Ġstrangest": 14795,
    "matical": 13127,
    "Ġwearer": 21919,
    "opard": 9290,
    "Ġdisrespect": 18553,
    "Ġapproached": 5843,
    "Ġdistances": 22500,
    "Ġtherein": 11774,
    "recognised": 15261,
    "Ġstrides": 22613,
    "creation": 14805,
    "mariners": 19547,
    "Ġtropic": 17064,
    "Ġmoreover": 6163,
    "regularization": 3514,
    "%": 9,
    "Ġlifted": 6985,
    "Ġcosine": 2370,
    "Ġascending": 14853,
    "square": 15059,
    "Ġmusty": 22677,
    "beginning": 13559,
    "recursion": 13326,
    "Ġdwelling": 7322,
    "commanders": 16989,
    "Ġsporting": 16999,
    "Ġdemig": 20355,
    "Ġhan": 15616,
    "welt": 12518,
    "Ġdiscussing": 5202,
    "Ġtents": 13817,
    "Ġrespectability": 14484,
    "interrupt": 8615,
    "tastes": 21095,
    "Ġthere": 565,
    "Ġflorida": 20658,
    "trip": 21090,
    "Ġbegin": 3099,
    "Ġhes": 6250,
    "standard": 22433,
    "Ġwounded": 8657,
    "Ġvagu": 13587,
    "Ġporthole": 24399,
    "Ġabusing": 18398,
    "Ġhawsers": 26502,
    "hatches": 19927,
    "displeasure": 23493,
    "raint": 18314,
    "Ġclaps": 22343,
    "Ġcuba": 25095,
    "Ġlays": 15984,
    "gracechurch": 24581,
    "Ġencircling": 26271,
    "Ġmisunderstood": 18703,
    "expense": 22426,
    "oboam": 9357,
    "Ġeaglet": 19304,
    "Ġblan": 18817,
    "Ġscott": 22264,
    "Ġmassa": 19452,
    "Ġsuperstitions": 17072,
    "geons": 15975,
    "Ġbo": 797,
    "Ġhempen": 13548,
    "Ġshrine": 19530,
    "readily": 19360,
    "drew": 7334,
    "omnipotent": 25964,
    "grateful": 10428,
    "slight": 10727,
    "ation": 320,
    "Ġborder": 10169,
    "carte": 25400,
    "weight": 2938,
    "Ġgoring": 21601,
    "angible": 22101,
    "Ġshocks": 16457,
    "Ġhoped": 5488,
    "concluding": 19479,
    "Ġevident": 6611,
    "Ġunrecorded": 17467,
    "need": 10979,
    "Ġcaravan": 26290,
    "Ġrepeated": 3831,
    "Ġpanther": 16819,
    "Ġ56": 24324,
    "isen": 10792,
    "Ġpartners": 11851,
    "plex": 709,
    "Ġaskance": 23147,
    "Ġveneration": 25044,
    "Ġshroud": 6483,
    "Ġdrag": 6184,
    "helpless": 16790,
    "Ġsteeple": 19287,
    "Ġwee": 21915,
    "uries": 6147,
    "aught": 2680,
    "persu": 8027,
    "Ġdeacon": 18140,
    "Ġchili": 25561,
    "Ġheave": 7599,
    "Ġshrubbery": 18232,
    "Ġassembl": 20059,
    "Ġguard": 6178,
    "Ġmowers": 17812,
    "meaning": 2907,
    "gon": 17552,
    "brad": 20780,
    "Ġrecursive": 4782,
    "ishmael": 18420,
    "Ġdams": 16456,
    "Ġhealthful": 24057,
    "admitted": 18091,
    "Ġvictor": 5125,
    "Ġsteadily": 8051,
    "Ġtis": 15465,
    "Ġtantamount": 25625,
    "Ġrector": 21673,
    "Ġfiled": 15578,
    "Ġlaying": 7907,
    "Ġunder": 1639,
    "idered": 4553,
    "Ġwishes": 4795,
    "Ġmarlings": 23033,
    "stone": 5089,
    "Ġarranging": 11174,
    "J": 46,
    "Ý": 158,
    "Ġlying": 4825,
    "Ġservices": 11217,
    "Ġinevitable": 15166,
    "freely": 16854,
    "Ġadapt": 1013,
    "Ġinch": 7849,
    "Ġschool": 5512,
    "pursu": 11392,
    "<MASK>": 4,
    ";âĢĶ": 3749,
    "Ġdeactivates": 20702,
    "Ġwindward": 6885,
    "Ġhandy": 12934,
    "Ġconjure": 17123,
    "ah": 1832,
    "Ġmarked": 4619,
    "osed": 1960,
    "Ġwrap": 24594,
    "Ġinanimate": 13932,
    "Ġhesitating": 16947,
    "whosoever": 22237,
    "grampus": 18618,
    "Ġborrowed": 17229,
    "Ġ/*": 10139,
    "Ġrelate": 6875,
    "attain": 21260,
    "epilogue": 22103,
    "Ġtypes": 8936,
    "Ġdispirited": 23880,
    "help": 1480,
    "Ġreally": 2159,
    "Ġlimits": 3454,
    "Ġexcell": 10415,
    "pigs": 17140,
    "Ġrefined": 18710,
    "Ġgrenadier": 21613,
    "astern": 8581,
    "bone": 5612,
    "Ġmathemat": 3202,
    "ĠâĢľâĢĻ": 22251,
    "Ġphrases": 2797,
    "bethink": 25744,
    "ction": 501,
    "Ġapo": 9630,
    "Ġours": 4612,
    "er": 269,
    "Ġindicate": 23720,
    "ñ": 178,
    "flaming": 23967,
    "Ġcomputation": 965,
    "secut": 7866,
    "Ġphysiognomy": 25610,
    "ineff": 21963,
    "atherley": 7220,
    "Ġhisself": 21911,
    "Ġyoke": 18095,
    "Ġclasped": 17206,
    "Ġofficially": 24838,
    "Ġduke": 7755,
    "Ġconsumm": 15153,
    "Ġridge": 14818,
    "Ġstraits": 7993,
    "Ġrevol": 5537,
    "âĢĶ(": 15937,
    ".âĢĻâĢĿ": 6739,
    "Ġundeceive": 25552,
    "prepar": 22458,
    "hint": 12473,
    "Ġmysteries": 11322,
    "Ġcanals": 22162,
    "Ġinducement": 16843,
    "clifford": 23154,
    "aract": 17894,
    "pistol": 17642,
    "yield": 13808,
    "Ġevermore": 18811,
    "Ġwhitney": 11373,
    "icher": 9202,
    "Ġ74": 24261,
    "distinction": 19570,
    "Ġcopse": 17067,
    "ity": 417,
    "Ġshield": 21996,
    "Ġmovement": 9967,
    "irth": 5634,
    "Ġreproached": 24891,
    "dough": 15334,
    "Ġarmed": 9259,
    "Ġperiodical": 14771,
    "Ġlatitudes": 9495,
    "Ġtelling": 5747,
    "gar": 5615,
    "errand": 22907,
    "Ġsarat": 21226,
    "Ġdivert": 23592,
    "don": 3543,
    "Ġban": 7156,
    "Ġroy": 4229,
    "Ġren": 3846,
    "Ġslips": 23163,
    "uttering": 12660,
    "Ġextend": 18691,
    "Ġpeaceable": 14722,
    "omas": 12669,
    "Ġobliged": 4286,
    "sleeve": 26108,
    "Ġpir": 6818,
    "levelled": 23642,
    "Ġwords": 1326,
    "arrangement": 17414,
    "Ġrear": 6535,
    "idable": 8145,
    "Ġmedic": 11246,
    "largely": 19573,
    "dun": 17516,
    "isting": 5551,
    "ated": 718,
    "Ġassuming": 16693,
    "iah": 14413,
    "hitherto": 17283,
    "Ġbye": 12736,
    "Ġmet": 1913,
    "Ġrefused": 6715,
    "Ġ133": 24783,
    "lished": 8382,
    "Ġfought": 12591,
    "resentment": 15184,
    "Ġwarmer": 19184,
    "Ġchamounix": 14863,
    "smith": 5669,
    "Ġwhalebone": 10977,
    "Ġstands": 5258,
    "drifting": 19823,
    "Ġsnap": 11201,
    "Ġcoinc": 11001,
    "Ġrewarded": 14939,
    "Ġelegant": 7532,
    "Ġlungs": 8361,
    "Ġcoasts": 12161,
    "Ġhairs": 13229,
    "Ġold": 1060,
    "Ġtouched": 6000,
    "Ġintrusted": 21989,
    "Ġinexpressible": 17332,
    "Ġfatt": 15577,
    "Ġreconciliation": 25292,
    "Ġarcher": 22187,
    "Ġlights": 8960,
    "hereafter": 19215,
    "Ġrefusing": 11029,
    "aired": 8368,
    "inal": 15480,
    "Ġnocturn": 18375,
    "Ġscratch": 25564,
    "yl": 7818,
    "Ġuseful": 3557,
    "outer": 9668,
    "Ġattic": 16094,
    "Ġemergencies": 17361,
    "Ġobed": 8535,
    "Ġshows": 8482,
    "Ġattentive": 9033,
    "harm": 13734,
    "Ġisol": 8833,
    "verb": 10216,
    "Ġappetite": 12382,
    "carpenter": 11427,
    "Ġ78": 19612,
    "Ġgenerous": 6271,
    "Ġdrawer": 13263,
    "Ġdecreed": 18484,
    "steam": 23957,
    "trained": 4239,
    "Ġcouldn": 7648,
    "Ġcombines": 1146,
    "ese": 4445,
    "Ġgrip": 11626,
    "Ġpanel": 13370,
    "Ġjohnson": 18410,
    "Ġfasting": 16355,
    "Ġwake": 4749,
    "shudder": 26245,
    "Ġworked": 6583,
    "Ġhateful": 19712,
    "sixty": 24852,
    "Ġseemed": 1278,
    "Ġscanning": 18393,
    "Ġseams": 12122,
    "Ġsquall": 7043,
    "Ġtowers": 16738,
    "Ġwrought": 11942,
    "hoped": 20909,
    "Ġdrive": 5055,
    "Ġcopies": 24935,
    "won": 7144,
    "snow": 10724,
    "Ġwarned": 16880,
    "Ġfields": 2142,
    "Ġdispelling": 23878,
    "dataset": 23233,
    "Ġteaches": 18808,
    ";âĢĿâĢĶ": 20759,
    "warrant": 21136,
    "greenland": 10020,
    "Ġpack": 5444,
    "Ġmoulton": 17434,
    "Ġdevoutly": 25832,
    "Ġgaol": 19566,
    "Ġstung": 21735,
    "haired": 14765,
    "Ġgroaned": 11266,
    "oices": 7348,
    "arness": 11670,
    "Ġreplacing": 3450,
    "orified": 21400,
    "Ġimpo": 3443,
    "Ġparr": 22116,
    "Ġcrozetts": 19628,
    "_.âĢĻâĢĿ": 17479,
    "Ġgentleness": 8709,
    "Ġinsensibility": 17110,
    "Ġrash": 10898,
    "Ġrighteous": 18946,
    "chel": 11207,
    "Ġreaped": 18029,
    "Ġdaint": 15591,
    "ugl": 23287,
    "iquette": 26132,
    "lone": 11499,
    "Ġwilson": 6629,
    "subjects": 19875,
    "ourers": 21447,
    "omen": 4088,
    "imate": 4221,
    "missionary": 24615,
    "Ġenjoys": 19448,
    "Ġtom": 15631,
    "?": 35,
    "Ġcult": 8781,
    "Ġlucky": 7758,
    "englishman": 23672,
    "motives": 26137,
    "Ġreinforcement": 3379,
    "bern": 20774,
    "bl": 4142,
    "Ġsingle": 1692,
    "Ġobeying": 13412,
    "Ġjer": 6266,
    "Ġindication": 22949,
    "remember": 7262,
    "Ġmature": 17799,
    "character": 6331,
    "ostentatious": 20651,
    "Ġpatient": 6895,
    "Ġbuilding": 8062,
    "Ġlids": 12273,
    "Ġex": 361,
    "bears": 22487,
    "Ġlacepede": 20493,
    "contemplated": 20457,
    "tackles": 25624,
    "oyed": 14363,
    "Ġrighted": 23175,
    "capting": 24038,
    "Ġgeorgiana": 8625,
    "Ġwilfully": 16766,
    "==": 945,
    "Ġmakes": 3651,
    "kings": 17583,
    "zas": 17712,
    "birth": 15321,
    "sunlight": 24851,
    "room": 2179,
    "ree": 874,
    "Ġembod": 14419,
    "affold": 16561,
    "Ġindefinite": 17176,
    "Ġverify": 12085,
    "Ġswain": 18879,
    "Ġenlivened": 26207,
    "Ġmotionless": 8323,
    "sho": 6425,
    "Ġdardanelles": 26443,
    "Ġwheeled": 14138,
    "_.,": 14561,
    "Ġlate": 3377,
    "Ġbristles": 25843,
    "Ġtedious": 15266,
    "izings": 14050,
    "ensils": 22545,
    "Ġirreducible": 5519,
    "Ġprayer": 16666,
    "~": 98,
    "Ġskiff": 16162,
    "all": 485,
    "Ġstraggling": 23749,
    "ē": 212,
    "Ġaband": 6561,
    "Ġwild": 2600,
    "Ġperfidious": 25666,
    "Ġtempt": 5565,
    "Ġhilarity": 20296,
    "cursed": 23841,
    "vously": 23502,
    "acies": 14277,
    "deemed": 18316,
    "Ġformidable": 8219,
    "Ġtweed": 22674,
    "loom": 18538,
    "Ġstrikes": 13179,
    "approaching": 15011,
    "jep": 20925,
    "Ġaf": 783,
    "Ġgreas": 17991,
    "Ġsermons": 20193,
    "Ġlubber": 17443,
    "Ġneighbouring": 12116,
    "Ġmasking": 2418,
    "itancy": 21331,
    "naturalist": 23511,
    "Ġundeserving": 18268,
    "Ġlogger": 11952,
    "Ġsemblance": 20733,
    "Ġintimidated": 24805,
    "Ġsect": 17751,
    "Ġoriginate": 24122,
    "Ġinvol": 1057,
    "icacy": 15656,
    "ineas": 15820,
    "aff": 3103,
    "Ġcontinent": 14887,
    "Ġconsole": 8150,
    "Ġostent": 13582,
    "Ġincomplete": 17208,
    "division": 20047,
    "Ġunderground": 18984,
    "answered": 10273,
    "toes": 22561,
    "fainting": 20471,
    "Ġdestro": 3722,
    "Ġobtain": 8914,
    "Ġswitching": 23052,
    "comput": 2001,
    "Ġset": 1178,
    "earthly": 24724,
    "rebellum": 26165,
    "Ġdamn": 11158,
    "Ġclutching": 24951,
    "Ġlevels": 12696,
    "Ġexclamations": 11361,
    "Ġchival": 14182,
    "Ġpursued": 6328,
    "Ġwharf": 9559,
    "eded": 9673,
    "Ġlinear": 3433,
    "Ġturnkeys": 23027,
    "unerative": 21893,
    "suitableness": 26260,
    "civilized": 17075,
    "searching": 25103,
    "Ġwaterloo": 11979,
    "Ġinclusive": 24163,
    "Ġgets": 10839,
    "Ġejaculated": 15168,
    "rium": 3133,
    "anke": 15559,
    "Ġhaggard": 17329,
    "Ġscraped": 16903,
    "Ġarom": 15492,
    "akened": 7415,
    "Ġfit": 3684,
    "Ġverdict": 13473,
    "prevailed": 17344,
    "Ġclattering": 22348,
    "ologically": 22854,
    "Ġquicker": 16507,
    "Ġdimly": 9487,
    "tender": 14472,
    "romised": 14111,
    "Ġpawn": 12061,
    "Ġtop": 2470,
    "Ġreasoned": 23055,
    "Ġpious": 11598,
    "Ġholiday": 12994,
    "Ġwhirling": 12246,
    "reject": 21235,
    "Ġspace": 1574,
    "Ġoffered": 5816,
    "dozen": 23376,
    "ithing": 11648,
    "Ġconscious": 7743,
    "Ġabund": 8865,
    "Ġadmires": 19684,
    "magistrate": 19862,
    "Ġantagonist": 26328,
    "Ġantique": 19550,
    "Ġhighland": 18712,
    "Ġfuneral": 10282,
    "Ġpikes": 21476,
    "board": 3564,
    "fab": 13715,
    "those": 4496,
    "Ġmajority": 13290,
    "discovered": 8324,
    "Ġmarbles": 18872,
    "Ġchristians": 13306,
    "isome": 17848,
    "Ġdue": 3845,
    "Ġbumps": 21390,
    "Ġfault": 5702,
    "Ġsubord": 22785,
    "soo": 18685,
    "Ġwedding": 4858,
    "'": 11,
    "ods": 8835,
    "Ġshe": 466,
    "Ġrep": 1936,
    "Ġspies": 22125,
    "Ġbrougham": 17870,
    "Ġbarrels": 9435,
    "vial": 17697,
    "Ġapothe": 12373,
    "kes": 3678,
    "Ġwantonly": 22892,
    "Ġulster": 14997,
    "Ġlens": 8437,
    "expression": 10547,
    "Ġriv": 10746,
    "baggage": 24926,
    "specific": 10497,
    "Ġdecay": 1011,
    "fairly": 17219,
    "Ġmounts": 17806,
    "os": 525,
    "Ġdons": 17888,
    "Ġbaptized": 25774,
    "Ġsocket": 12782,
    "Ġamiss": 18512,
    "Ġsombre": 18858,
    "Ġtreatment": 12069,
    "mic": 12486,
    "Ġcluster": 13569,
    "Ġvilest": 20099,
    "Ġpaper": 4283,
    "Ġpeople": 2542,
    "Ġbub": 8117,
    "Ġtrustworthy": 24107,
    "Ġumbrella": 15264,
    "supper": 12917,
    "Ġcet": 6669,
    "lasting": 8010,
    "Ġball": 3623,
    "Ġdrunkard": 20176,
    "night": 2168,
    "scissors": 20726,
    "passenger": 24166,
    "Ġcharacteristically": 23689,
    "Ġwakeful": 24266,
    "Ġche": 1762,
    "sought": 15427,
    "Ġconstruction": 9384,
    "contr": 12055,
    "unforeseen": 21885,
    "Ġfinny": 23125,
    "Ġwert": 12553,
    "corners": 17367,
    "Ġspasmod": 12412,
    "urs": 6989,
    "tedious": 22630,
    "apside": 22957,
    "Ġmisgiv": 14342,
    "Ġissue": 2309,
    "Ġeste": 6084,
    "Ġannoy": 17198,
    "Ġreminisc": 18725,
    "Ġmannish": 26237,
    "Ġfuss": 13904,
    "Ġact": 691,
    "Ġdescends": 14284,
    "Ġbrace": 11211,
    "Ġtim": 4578,
    "salesman": 20670,
    "Ġtart": 12525,
    "Ġstage": 7389,
    "Ġbows": 4085,
    "parable": 16390,
    "Ġcreated": 2707,
    "ĠarchÃ¦": 22782,
    "Ġpittance": 15615,
    "Ġmodes": 22220,
    "Ġlands": 6594,
    "Ġchap": 5933,
    "Ġfiner": 13049,
    "ikes": 8086,
    "robe": 15640,
    "shish": 11791,
    "fetch": 12462,
    "ivance": 22079,
    "meryton": 10111,
    "yesterday": 10352,
    "Ġbuoyancy": 20040,
    "icorn": 15655,
    "isf": 2434,
    "Ġnaked": 8126,
    "wheeling": 22870,
    "osition": 1374,
    "Ġswearing": 16465,
    "iony": 9191,
    "Ġpatent": 11963,
    "Ġguide": 3214,
    "Ġseized": 4833,
    "Ġinstructions": 11196,
    "Ġdiscomposed": 25580,
    "obedience": 17409,
    "Ġblind": 3716,
    "Ġnewfound": 22929,
    "Ġevaporate": 26332,
    "devoted": 20015,
    "Ġbapt": 13895,
    "frightened": 17195,
    "articulate": 17394,
    "Ġflounders": 23010,
    "Ġrout": 7402,
    "decided": 13213,
    "icity": 2538,
    "Ġitaly": 10867,
    "Ġafterwards": 3530,
    "Ġbreezes": 14868,
    "yt": 17711,
    "Ġgenius": 8045,
    "Ġtransmit": 10309,
    "Ġentrance": 7233,
    "Ġincludes": 2012,
    "Ġinvulnerable": 19146,
    "shiver": 16024,
    "ditch": 17528,
    "Ġinland": 11607,
    "Ġoppose": 16519,
    "Ġsl": 1498,
    "Ġvulture": 17338,
    "hol": 3839,
    "cru": 7126,
    "Ġ106": 24414,
    "university": 25983,
    "Ġrushing": 7403,
    "Ġluxurious": 17310,
    "lob": 22504,
    "Ġhack": 12754,
    "entered": 8814,
    "Ġstraining": 11327,
    "Ġtransported": 11279,
    "ĠĠĠĠĠĠĠĠĠĠĠĠĠĠĠĠĠĠĠĠĠĠĠĠĠĠĠĠĠĠĠĠĠĠĠĠĠĠĠĠĠĠĠĠĠ": 9951,
    "Ġ46": 19489,
    "Ġemblazonings": 26047,
    "Ġreflect": 6575,
    "Ġdrily": 23538,
    "sub": 4660,
    "Ġbrink": 18772,
    "Ġlurch": 21552,
    "liking": 22921,
    "uten": 11621,
    "Ġintroduces": 3267,
    "abb": 15737,
    "lower": 8880,
    "Ġem": 1923,
    "ispens": 8335,
    "abhorred": 17335,
    "Ġaval": 15493,
    "Ġperpendicularly": 11374,
    "Ġhearsed": 25039,
    "humoredly": 26324,
    "Ġale": 9154,
    "veral": 2352,
    "Ġmeet": 2804,
    "\",": 10678,
    "congenial": 25399,
    "Ġsins": 13836,
    "Ġbackbones": 22658,
    "Ġfrantic": 7956,
    "Ġfinery": 23124,
    "Ġcompetition": 14266,
    "sip": 10725,
    "nings": 9131,
    "mud": 20971,
    "_:": 17478,
    "gl": 3289,
    "Ġaper": 17743,
    "Ġcircumnav": 12424,
    "Ġdat": 494,
    "Ġwhitish": 24866,
    "oun": 483,
    "Ġstroke": 6936,
    "âĢľâĢĺ": 1486,
    "ouch": 2778,
    "charitable": 23930,
    "ively": 1320,
    "Ġobliging": 13241,
    "Ġdownstream": 3776,
    "ifice": 7198,
    "Ġknighthood": 25297,
    "Ġdoom": 6417,
    "Ġinterven": 10997,
    "ai": 2525,
    "ĠĠĠĠĠĠĠĠĠĠĠĠĠĠĠĠĠĠĠĠĠĠĠĠĠĠĠĠĠĠĠĠĠĠĠĠĠĠĠĠ": 4517,
    "Ġskull": 6288,
    "Ġemblaz": 16246,
    "uteronomy": 15662,
    "eze": 20846,
    "oused": 6556,
    "Ġtongues": 14862,
    "Ġharpoon": 3616,
    "awed": 10391,
    "explained": 23139,
    "Ġinhabited": 12183,
    "Ġprogress": 5023,
    "osop": 4405,
    "squ": 7809,
    "earthquakes": 24725,
    "Ġdint": 15589,
    "easily": 17534,
    "process": 11148,
    "Ġclues": 18421,
    "roots": 15641,
    "dark": 5614,
    "honorable": 19900,
    "Ġcomparison": 7099,
    "Ġracket": 22651,
    "h": 76,
    "Ġvitality": 15171,
    "Ġweap": 6155,
    "Ġhieroglyphic": 25587,
    "Ġthrees": 23399,
    "Ġconcrete": 20635,
    "Ġgleams": 17309,
    "Ġbare": 6132,
    "Ġenh": 2952,
    "Ġchim": 5932,
    "Ġhospitals": 24923,
    "Ġtattooings": 24900,
    "Ġwaking": 11569,
    "moid": 2448,
    "Ġliterature": 17148,
    "al": 292,
    "Ġgard": 2189,
    "Ġnantucketers": 9893,
    "Ġdexter": 9700,
    "condite": 23245,
    "rugg": 15895,
    "Ġexpost": 18625,
    "fron": 24281,
    "Ġentity": 10342,
    "Ġstealing": 18892,
    "Ġpled": 17907,
    "Ġplying": 17913,
    "onies": 6806,
    "Ġappre": 5165,
    "spears": 23939,
    "Ġchiselled": 25559,
    "glasses": 11215,
    "pening": 2831,
    "Ġsounds": 5190,
    "bran": 23573,
    "Ġbounds": 9917,
    "Ġenthus": 7232,
    "Ġ54": 24322,
    "dimens": 2316,
    "do": 1994,
    "pleased": 8853,
    "modesty": 22851,
    "Ġhead": 1123,
    "brushing": 20787,
    "Ġxiv": 23406,
    "Ġdynamic": 5124,
    "splice": 17170,
    "ginger": 13161,
    "Ġmurmured": 7480,
    "unt": 2045,
    "Ġunprecedented": 15853,
    "stumps": 21656,
    "Ġmarbank": 23034,
    "ads": 5718,
    "Ġmarks": 6746,
    "Ġlightning": 5750,
    "Ġwaylaid": 22872,
    "Ġseventh": 18206,
    "rubbery": 17341,
    "Ġblindly": 12107,
    "Ġprejud": 6851,
    "Ġlevelled": 11284,
    "Ġunf": 4091,
    "ullied": 23102,
    "Ġeyebrows": 23515,
    "Ġpuffed": 14976,
    "awe": 20764,
    "Ġbottled": 23794,
    "Ġvapor": 8699,
    "ighter": 7967,
    "Ġrim": 21965,
    "Ġlikewise": 5386,
    "Ġmoustache": 20482,
    "orter": 4255,
    "Ġcorner": 4370,
    "beer": 22485,
    "Ġmaxim": 3086,
    "of": 769,
    "Ġfestoon": 20293,
    "screwed": 17187,
    "Ġunconcerned": 20508,
    "nel": 11504,
    "Ġconvulsive": 19306,
    "Ġintelligences": 12829,
    "Ġraiment": 22649,
    "Ġurgent": 16869,
    "ex": 623,
    "Ġpasture": 14543,
    "otograph": 5826,
    "Ġdu": 4584,
    "Ġimprec": 14219,
    "Ġappointment": 10646,
    "Ġst": 332,
    "tem": 6369,
    "Ġ57": 24325,
    "Ġblasphemy": 26115,
    "Ġadvertise": 25388,
    "aps": 1228,
    "Ġspeedily": 7711,
    "Ġall": 422,
    "Ġspotted": 12136,
    "Ġalluded": 7884,
    "gaze": 17557,
    "Ġskip": 1844,
    "ingale": 21298,
    "Ġidleness": 11143,
    "verty": 8452,
    "Ġoverseeing": 22357,
    "Ġmedium": 16681,
    "Ġswimmer": 19457,
    "Ġpsychology": 11448,
    "Ġrelief": 6059,
    "Ġoccurrence": 14381,
    "oct": 7554,
    "gorge": 22310,
    "cont": 2919,
    "Ġdestination": 19149,
    "Ġsucking": 12785,
    "Ġbanquet": 15239,
    "Ġflog": 23621,
    "Ġunremitting": 26217,
    "ina": 21178,
    "Ġfunction": 587,
    "Ġunfaltering": 24113,
    "uttered": 8440,
    "Ġprovoke": 14825,
    "Ġarrog": 18345,
    "desolate": 25703,
    "Ġpag": 6010,
    "ethics": 8877,
    "pits": 15412,
    "Ġserene": 8166,
    "impression": 15709,
    "ibank": 6880,
    "Ġsmile": 4271,
    ")âĢĶâĢľ": 20742,
    "paradise": 20636,
    "trem": 17681,
    "Ġtask": 1311,
    "uel": 6966,
    "Ġcaution": 11346,
    "Ġwraps": 19775,
    "Ġlawyers": 25248,
    "ok": 572,
    "Ġbrushed": 15569,
    "Ġannoyance": 20661,
    "Ġpositional": 2595,
    "Ġthree": 1370,
    "phia": 22753,
    "Ġboisterous": 20441,
    "family": 7324,
    "Ġlivid": 14988,
    "permitted": 18342,
    "aan": 20763,
    "twelvemonth": 25862,
[...]
