{
  "metadata": {
    "vocab_size": 26616,
    "algorithm": "BPE",
    "created_at": "2026-09-08 06:53:55",
    "special_tokens": [
      "<PAD>",
      "<SOS>",
      "<EOS>",
      "<UNK>",
      "<MASK>"
    ]
  },
  "vocab": {
    "Ġgorgeous": 20470,
    "Ġanatomical": 15080,
    "straight": 9943,
    "Ġpuppy": 12409,
    "Ġi": 312,
    "Ġashore": 5352,
    "Ġrainy": 24341,
    "Ġspread": 5161,
    "Ġdistinguished": 8273,
    "Ġquicker": 16510,
    "Ġscr": 11765,
    "ulpt": 10887,
    "Ġappre": 5165,
    "ired": 1443,
    "Ġarthur": 7196,
    "Ġalong": 1978,
    "Ġmann": 18417,
    "hangs": 15372,
    "Ġmaimed": 21319,
    "Ġsubsided": 14551,
    "scheme": 15258,
    "Ġapples": 22222,
    "69": 17477,
    "measure": 10034,
    "Ġwhereas": 3857,
    "clean": 14763,
    "rayed": 23565,
    "ful": 663,
    "Ġcommanded": 6332,
    "Ġglove": 14493,
    "Ġinvolved": 8928,
    "Ġaffected": 5577,
    "Ġaberdeen": 26543,
    "Ġrecre": 22737,
    "ancy": 4396,
    "Ġquaff": 22418,
    "Ġregent": 18596,
    "ĵ": 246,
    "immediately": 10052,
    "Ġpatchwork": 24143,
    "overing": 6308,
    "independent": 26022,
    "pursued": 17284,
    "otic": 15749,
    "Ġlima": 10444,
    "onds": 13001,
    "dor": 12456,
    "Ġpitched": 9447,
    "footman": 17165,
    "Ġreports": 19086,
    "Ġunclasp": 26513,
    "Ġbackgammon": 22667,
    "dun": 17518,
    "walk": 5523,
    "Ġgrappling": 25813,
    "bation": 9106,
    "Ġmouldings": 24736,
    "Ġcognitive": 13638,
    "Ġaustralia": 15236,
    "load": 12886,
    "sively": 13789,
    "Ġ47": 14774,
    "nament": 11509,
    "utions": 1890,
    "Ġtou": 15469,
    "Ġlondon": 2841,
    "Ġcontrad": 9758,
    "Ġadmitted": 8989,
    "Ġrowing": 10303,
    "Ġconfluent": 19039,
    "supper": 12925,
    "Ġmeal": 9700,
    "gging": 7697,
    "Ġgifted": 17999,
    "Ġcountless": 16386,
    "hus": 5072,
    "inking": 6711,
    "ogrand": 26263,
    "epilogue": 22104,
    "Ġcommissioned": 19897,
    "Ġplaning": 22604,
    ">": 34,
    "oder": 2456,
    "Ġfoundations": 11075,
    "Ġtitle": 11410,
    "Ġtickled": 20060,
    "Ġpuzzled": 7317,
    "utter": 7594,
    "hence": 16627,
    "Ġpleadings": 25854,
    "despair": 8344,
    "Ġstyle": 6946,
    "uity": 12522,
    "Ġveins": 8935,
    "dreadful": 11423,
    "Ġmitigating": 1617,
    "Ġperplex": 2715,
    "days": 7688,
    "dat": 1636,
    "Ġtrembled": 8705,
    "Ġselfish": 7272,
    "Ġmonsters": 11076,
    "Ġess": 5691,
    "Ġfaintest": 24570,
    "gu": 3958,
    "Ġshipwrecked": 25688,
    "Ġsaint": 15510,
    "Ġuproar": 22159,
    "het": 5435,
    "higher": 20410,
    "ither": 1547,
    "ĠĠĠĠĠĠĠĠĠĠĠĠĠĠĠĠĠĠĠĠĠĠĠĠĠĠĠĠĠĠĠĠĠĠĠĠĠĠĠĠĠĠ": 24212,
    "Ġtru": 4106,
    "Ġloses": 15877,
    "Ġinconsiderable": 21498,
    "Ġatonement": 21946,
    "lengths": 24847,
    "Ġroundabout": 23065,
    "qu": 369,
    "Ġoun": 13866,
    "Ġexig": 21830,
    "Ġcarcase": 14447,
    "Ġsitu": 3496,
    "Ġsolitude": 6876,
    "adieu": 26202,
    "Ġradiating": 24331,
    "impregnable": 26483,
    "Ġrussia": 26269,
    "spond": 5567,
    "still": 4220,
    "urried": 21707,
    "im": 327,
    "Ġwinking": 17795,
    "izon": 18136,
    "Ġclosest": 16765,
    "vedale": 22713,
    "Ġinscrutable": 10675,
    "ceased": 21629,
    "Ġcounsel": 13619,
    "Ġremaining": 6190,
    "Ġchart": 10947,
    "Ġcetace": 14991,
    "pad": 13771,
    "ouri": 21450,
    "eternal": 17985,
    "Ġalleys": 25979,
    "Ġnegative": 1462,
    "like": 1886,
    "Ġtermination": 16463,
    "metallic": 19882,
    "Ġcontroverted": 23254,
    "Ġindirectly": 8942,
    "places": 7879,
    "Ġmerryweather": 9525,
    "entropy": 1437,
    "Ġgrego": 18962,
    "iv": 430,
    "Ġcomputes": 4768,
    "Ġblaze": 16223,
    "Ġfedallah": 6110,
    "south": 8762,
    "persecutor": 26532,
    "Ġappropriate": 2247,
    "olently": 15761,
    "Ġbent": 5149,
    "squ": 7809,
    "peter": 24300,
    "Ġpalm": 10516,
    "really": 6972,
    "Ġbody": 2432,
    "Ġwarmth": 6905,
    "Ġwindward": 6885,
    "atters": 18506,
    "ptember": 10895,
    "imet": 21709,
    "lips": 13753,
    "Ġcha": 6853,
    "Ġpredecess": 18518,
    "Ġglobal": 2368,
    "Ġbelief": 5857,
    "inian": 21185,
    "Ġbumpkin": 20203,
    "Ġengravings": 15069,
    "Ġcomprises": 22576,
    "Ġrecovering": 11866,
    "Ġderiv": 1736,
    "Ġodds": 13334,
    "Ġstrive": 23697,
    "uble": 21105,
    "hav": 20899,
    "fanning": 20868,
    "Ġwallowed": 24046,
    "ever": 1077,
    "Ġencoder": 3636,
    "Ġcased": 21349,
    "Ġsummarization": 3647,
    "Ġval": 961,
    "Ġstraps": 19312,
    "Ġinclination": 6626,
    "Ġoppressive": 20458,
    "Ġmothers": 14542,
    "blot": 20785,
    "Ġperfection": 19220,
    "Ġbeating": 8145,
    "Ġjew": 9470,
    "Ġdismal": 11814,
    "Ġleave": 2454,
    "thern": 4953,
    "ug": 1766,
    "augmented": 26288,
    "touch": 8392,
    "Ġexpiration": 22626,
    "Ġworks": 5860,
    "Ġmeditations": 25016,
    "limbs": 20194,
    "Ġexecuted": 9475,
    "Ġexpl": 488,
    "sitting": 8387,
    "capitals": 25083,
    "Ġhollows": 19744,
    "Ġpained": 19169,
    "Ġweep": 7620,
    "quely": 10234,
    "frequented": 25901,
    "Ġtrousers": 12419,
    "Ġcher": 6131,
    "Ġneeds": 6607,
    "Ġsilken": 16385,
    "Ġfringe": 17274,
    "barrels": 15044,
    "again": 3399,
    "Ġgest": 8134,
    "Ġvisage": 18769,
    "Ġsunrise": 9376,
    "Ġreciprocating": 26371,
    "Ġcuff": 17831,
    "reinforcement": 7826,
    "rippling": 24713,
    "Ġsettling": 11064,
    "Ġperforming": 7928,
    "Ġlids": 12280,
    "Ġvillages": 14751,
    "Ġsad": 3870,
    "Ġpract": 1827,
    "Ġrepairing": 25590,
    "Ġendure": 5957,
    "icted": 5938,
    "Ġfris": 23258,
    "Ġordin": 16653,
    "Ġunsocial": 18257,
    "ructure": 758,
    "Ġwash": 9706,
    "coward": 13704,
    "Ġmatches": 14398,
    "Ġvirtuous": 14758,
    "ips": 2592,
    "Ġlamb": 8817,
    "thrusting": 20262,
    "Ġpencil": 11947,
    "Ġseventy": 7878,
    "Ġhear": 1965,
    "Ġfearing": 12823,
    "Ġlords": 14643,
    "Ġoct": 10161,
    "bted": 7794,
    "Ġaided": 17747,
    "stating": 21650,
    "rant": 11519,
    "Ġomit": 17817,
    "Ġgraves": 11712,
    "entary": 21570,
    "ĠĠĠĠĠĠĠĠĠĠĠĠĠĠĠĠĠĠĠĠĠĠĠĠĠĠĠĠĠĠĠĠĠĠĠĠĠĠĠĠĠĠĠĠĠ": 9955,
    "ounce": 6559,
    "Ġimpenitent": 26550,
    "Ġgeneration": 2274,
    "Ġpromises": 10403,
    "Ġpierce": 17037,
    "torm": 11533,
    "Ġsalesman": 13672,
    "retreat": 23140,
    "Ġrepetition": 8975,
    "Ġability": 2765,
    "seaman": 25458,
    "Ġherein": 16194,
    "broke": 14781,
    "Ġwretch": 6379,
    "ples": 6845,
    "Ġcannibal": 7774,
    "Ġlogger": 11958,
    "Ġwhites": 21720,
    "Ġinfancy": 10411,
    "ipelag": 12847,
    "snapping": 24850,
    "fs": 17537,
    "Ġcontinuously": 23208,
    "Ġunhappily": 18263,
    "amed": 4450,
    "Ġmenacing": 23111,
    "Ġconcerns": 11972,
    "Ġblackstone": 23392,
    "Ġasks": 5115,
    "Ġconfided": 19036,
    "secut": 7867,
    "Ġeither": 2604,
    "Ġprotection": 9465,
    "Ġmagnanim": 14475,
    "levi": 7049,
    "Ġimagine": 3926,
    "Ġsoar": 18283,
    "Ġdaughters": 4424,
    "Ġsuff": 1304,
    "inaw": 21186,
    "mass": 12494,
    "quarried": 24948,
    "Ġdebated": 9043,
    "Ġhired": 10180,
    "eyeing": 14949,
    "Ġexplaining": 15964,
    "Ġgodfrey": 15297,
    "Ġpepper": 9784,
    "Ġserved": 8246,
    "Ġpermitted": 9281,
    "Ġmoreover": 6165,
    "Ġseeking": 7037,
    "Ġcracks": 12024,
    "Ġsavannah": 17419,
    "doms": 20837,
    "Ġlucy": 17972,
    "Ġr": 405,
    "Ġespe": 21158,
    "Ġhugh": 15006,
    "Ġgrudge": 20696,
    "Ġapprehensions": 13408,
    "thine": 15828,
    "ifts": 12740,
    "Ġbravery": 23840,
    "Ġsoldiers": 8690,
    "soever": 11863,
    "Ġcatholic": 20684,
    "Ġsensitiveness": 23738,
    "always": 5708,
    "resolution": 17768,
    "Ġundesired": 12784,
    "Ġblan": 18818,
    "police": 10586,
    "ressed": 3024,
    ".,": 5989,
    "shazzar": 15293,
    "partly": 14604,
    "console": 22475,
    "believe": 8304,
    "eteenth": 20160,
    "Ġpublicly": 13327,
    "Ġtolerably": 8068,
    "rusted": 16509,
    "lutions": 20952,
    "Ġcurse": 7668,
    "Ġaspect": 3096,
    "aux": 14291,
    "Ġchili": 25562,
    "dressing": 11484,
    "Ġunguarded": 15854,
    "Ġconfed": 13101,
    "Ġdistinguishing": 16499,
    "Ġdeterminate": 23007,
    "property": 20003,
    "Ġhist": 2440,
    "Ġsweetness": 9449,
    "Ġgouge": 26190,
    "syntax": 5868,
    "Ġcourting": 23294,
    "Ġrugged": 18721,
    "Ġcontributed": 16013,
    "Ġsentin": 16378,
    "carry": 19529,
    "Ġslender": 11944,
    "Ġchoosing": 19593,
    "osely": 9268,
    "ceiling": 21630,
    "Ġmislead": 22760,
    "Ġhate": 5445,
    "oundered": 14165,
    "Ġjoined": 4565,
    "irations": 18173,
    "'(": 2979,
    "Ġtech": 1695,
    "regularization": 3515,
    "Ġnumerical": 4246,
    "Ġcongrat": 5828,
    "sent": 760,
    "Ġgre": 1580,
    "Ġvener": 8164,
    "mason": 17604,
    "Ġmushroom": 13240,
    "afternoon": 13191,
    "Ġflorida": 20661,
    "ladies": 9532,
    "Ġalco": 21786,
    "shipped": 18491,
    "necessary": 5883,
    "Ġ35": 24080,
    "batross": 9096,
    "icherry": 15139,
    "Ġeastward": 13394,
    "Ġshy": 10905,
    "Ġblotting": 25314,
    "barbs": 20240,
    "Ġsupp": 1265,
    "Ġburgl": 13177,
    "Ġrattle": 10901,
    "©": 107,
    "vul": 15451,
    "bery": 9796,
    "Ġsufferable": 16263,
    "Ġbase": 5013,
    "Ġtechnical": 17194,
    "doubtful": 24790,
    "Ġdais": 24372,
    "electricity": 26387,
    "Ġparties": 7040,
    "itaries": 21339,
    "drown": 13708,
    "teak": 22819,
    "Ġelsewhere": 7713,
    "Ġlabelled": 23333,
    "Ġlast": 1120,
    "um": 454,
    "Ġgreen": 3053,
    "bantering": 25254,
    "Ġfly": 3872,
    "Ġprofound": 5497,
    "Ġadvocate": 13680,
    "Ġcreative": 9833,
    "emin": 8473,
    "Ġter": 2050,
    "Ġdissatisfied": 14259,
    "inst": 4297,
    "Ġcraft": 4379,
    "Ġpremeditated": 22238,
    "Ġdisconsol": 18558,
    "strongly": 24685,
    "oce": 10716,
    "valu": 1714,
    "Ġacquaint": 13050,
    "europe": 20668,
    "Ġtipt": 21176,
    "Ġknelt": 12163,
    "commander": 16989,
    "dar": 20826,
    "Ġlullaby": 20591,
    "Ġskil": 14355,
    "Ġconstru": 19069,
    "Ġallowed": 4059,
    "Ġdwelling": 7322,
    "kne": 20937,
    "disapprobation": 19159,
    "Ġseasoned": 24405,
    "Ġunwillingly": 15852,
    "Ġinnermost": 12165,
    "waves": 10744,
    "Ġhowever": 1305,
    "Ġflag": 7242,
    "captain": 3955,
    "circum": 16739,
    "Ġbeautiful": 3672,
    "locks": 14459,
    "Ġindication": 22955,
    "Ġsqualidness": 25844,
    "Ġrevolt": 24504,
    "Ġdivin": 13277,
    "Ġreduces": 2343,
    "finger": 10096,
    "Ġgrown": 5628,
    "Ġpreparation": 13532,
    "Ġshapeless": 24524,
    "occasionally": 13524,
    "continue": 16863,
    "Ġeveryday": 22772,
    "interruption": 20115,
    "Ġindefinitely": 25222,
    "Ġmisunderstand": 18705,
    "talking": 10010,
    "desponding": 26343,
    "icles": 17975,
    "Ġbringing": 5871,
    "testing": 12521,
    "Ġwedge": 24935,
    "Ġany": 688,
    "Ġreproached": 24892,
    "Ġvice": 6550,
    "Ġrobberies": 23032,
    "Ġvenetian": 14850,
    "Ġinvolves": 1117,
    "Ġbird": 3755,
    "slipping": 25529,
    "Ġagency": 11809,
    "nobody": 16151,
    "Ġsynthe": 26008,
    "Ġbreeds": 23351,
    "ordered": 8794,
    "idelburgh": 10564,
    "pistol": 17644,
    "plentiful": 21966,
    "Ġforthwith": 16620,
    "shoes": 14242,
    "Ġstage": 7389,
    "irection": 2385,
    "Ġenveloping": 19737,
    "Ġintrepidity": 25551,
    "Ġurging": 24505,
    "ip": 553,
    "residual": 19264,
    "Ġcolourless": 19572,
    "Ġdit": 21428,
    "Ġarguing": 25471,
    "lamp": 9611,
    "rosings": 15648,
    "Ġadm": 2400,
    "Ġfaces": 6010,
    "rebellum": 26166,
    "hate": 20894,
    "urre": 10858,
    "Ġmillar": 13864,
    "lig": 3175,
    "Ġrises": 9716,
    "sect": 8153,
    "itime": 15552,
    "Ġappalled": 22225,
    "Ġcheerless": 16695,
    "Ġtoday": 12648,
    "Ġsinful": 18951,
    "measured": 19993,
    "concluding": 19484,
    "Ġbraw": 23838,
    "Ġwearisome": 19798,
    "Ġicebergs": 23978,
    "ident": 3379,
    "Ġ114": 24438,
    "Ġkeener": 22917,
    "Ġelevating": 19732,
    "abases": 3006,
    "Ġthickly": 12120,
    "Ġcho": 4548,
    "highly": 24763,
    "Ġcaused": 5048,
    "Ġbristling": 20530,
    "Ġprovocation": 24194,
    "Ġliveliness": 13647,
    "whisper": 17084,
    "constantinople": 25508,
    "mature": 20969,
    "mounting": 25208,
    "Ġ71": 24262,
    "Ġmacy": 19358,
    "Ġexquis": 9702,
    "Ġhovel": 8254,
    "Ġeluded": 12927,
    "Ġapparel": 20439,
    "share": 14238,
    "scor": 13025,
    "heredit": 21212,
    "Ġshelves": 15000,
    "Ġdeal": 3609,
    "dispositions": 25014,
    "Ġwhale": 627,
    "ingly": 2135,
    "Ġlatest": 16824,
    "depart": 12270,
    "hamlet": 23265,
    "Ġreposing": 23364,
    "edded": 8558,
    "enance": 3371,
    "somerset": 26324,
    "Ġobstinate": 11338,
    "Ġexpected": 3696,
    "Ġconvention": 25547,
    "Ġimmortal": 8018,
    "Ġcane": 10928,
    "unknown": 10892,
    "Ġlazily": 11382,
    "mysteries": 26052,
    "Ġweakness": 9970,
    "deduction": 23670,
    "derest": 18304,
    "ancient": 9658,
    "Ġagonies": 14254,
    "Ġelasticity": 19561,
    "Ġcanaan": 22163,
    "Ġnam": 17951,
    "Ġejaculation": 20257,
    "_)âĢĶ": 20147,
    "Ġscaling": 3633,
    "Ġarri": 2552,
    "terday": 4705,
    "Ġcomputer": 1183,
    "Ġgrasping": 12170,
    "Ġmeddle": 20580,
    "Ġdivinely": 25723,
    "Ġplays": 12041,
    "Ġgenealogies": 25962,
    "Ġmanly": 22328,
    "careful": 14869,
    "Ġoften": 1954,
    "Ġupheld": 22156,
    "safe": 10057,
    "Ġbarricade": 14662,
    "Ġfanny": 23394,
    "aples": 20770,
    "Ġsilly": 7686,
    "Ġ49": 24085,
    "Ġobtaining": 16136,
    "Ġvengeance": 5886,
    "Ġane": 9184,
    "Ġchaplain": 19914,
    "Ġ79": 24267,
    "Ġstudy": 1783,
    "Ġkid": 9728,
    "Ġunexpl": 22043,
    "different": 6502,
    "Ġdemig": 20359,
    "murmured": 24455,
    "Ġsimplicity": 2925,
    "iance": 5280,
    "Ġmust": 844,
    "Ġexcitement": 9384,
    "gir": 8083,
    "Ġentailed": 11029,
    "Ġhissed": 15793,
    "iamond": 14592,
    "Ġbou": 17854,
    "bitterly": 20340,
    "Ġforged": 12709,
    "separated": 20162,
    "doubted": 17528,
    "Ġfatigued": 13469,
    "Ġimperfectly": 25727,
    "particular": 5757,
    "Ġindulge": 10585,
    "Ġescape": 2646,
    "Ġweight": 657,
    "Ġcategorization": 12141,
    "Ġfreedom": 9085,
    "Ġpatch": 4181,
    "Ġinjection": 3468,
    "Ġxv": 23409,
    "Ġtease": 18807,
    "Ġmerest": 14033,
    "looked": 6084,
    "learn": 2389,
    "Ġsibbald": 21233,
    "Ġdistinctly": 7311,
    "Ġletter": 2196,
    "presented": 12997,
    "atum": 21262,
    "Ġblazing": 11900,
    "Ġpolitical": 19225,
    "Ġaccident": 5380,
    "Ġundo": 15844,
    "Ġcondem": 6340,
    "Ġmaxim": 3085,
    "Ġaver": 1286,
    "Ġprovince": 24192,
    "ignor": 8964,
    "Ġautonomous": 10678,
    "Ġhurricane": 16434,
    "Ġaxe": 15064,
    "Ġpage": 6979,
    "afric": 19181,
    "arians": 18527,
    "Ġpublished": 11244,
    "bond": 17492,
    "conscientious": 19629,
    "visits": 24226,
    "Ġwow": 15532,
    "Ġswart": 14437,
    "Ġbadly": 12136,
    "robe": 15646,
    "Ġflint": 23012,
    "Ġimpending": 22388,
    "igned": 5656,
    "Ġvon": 14084,
    "Ġunwarrant": 19936,
    "Ġdimens": 3152,
    "Ġvehicle": 20141,
    "accompan": 11454,
    "Ġreaches": 18034,
    "Ġanew": 11432,
    "Ġsteersman": 13047,
    "Ġexpectantly": 23528,
    "anyth": 5438,
    "Ġabominable": 12326,
    "Ġengra": 7874,
    "Ġstump": 7606,
    "hours": 9127,
    "Ġloss": 822,
    "Ġtend": 6122,
    "Ġulster": 14999,
    "propriety": 14374,
    "Ġredeemed": 25790,
    "Ġtap": 12531,
    "daring": 20831,
    "Ġcompasses": 11269,
    "attend": 11103,
    "Ġeloped": 22648,
    "Ġparacels": 13671,
    "Ġwickham": 2204,
    "eye": 6226,
    "Ġassid": 18947,
    "Ġprior": 11320,
    "Ġfinancier": 26585,
    "on": 267,
    "Ġimpressed": 8199,
    "Ġaccommod": 14213,
    "introdu": 8940,
    "Ġimpressive": 15001,
    "neglected": 25670,
    "Ġcripp": 9656,
    "making": 2571,
    "Ġsulky": 13518,
    "Ġjacob": 1898,
    "fil": 12467,
    "Ġadvancing": 6878,
    "Ġprocedure": 2812,
    "Ġcontentment": 14873,
    "ruding": 9727,
    "Ġdesertion": 24786,
    "Ġmadam": 5663,
    "Ġderbyshire": 6588,
    "insula": 23070,
    "Ġseating": 18200,
    "discrimin": 19611,
    "cre": 4251,
    "Ġholds": 7976,
    "Ġchatbots": 11351,
    "Ġcod": 8413,
    "greatest": 10496,
    "Ġunceasing": 20361,
    "Ġfitting": 21411,
    "Ġtreasures": 17048,
    "Ġanvil": 11600,
    "paddington": 20481,
    "Ġsalad": 19482,
    "Ġflurry": 18862,
    "Ġdistantly": 18532,
    "Ġincorporated": 25710,
    "Ġpoky": 21481,
    "heum": 17749,
    "produce": 20285,
    "Ġlivery": 16004,
    "Ġoccupation": 9934,
    "kinson": 10029,
    "restoration": 23239,
    "alike": 17945,
    "Ġhandspike": 22699,
    "errand": 22912,
    "Ġadvances": 12992,
    "nowled": 5470,
    "Ġcigar": 9548,
    "Ġsequence": 1975,
    "Ġled": 3522,
    "rrh": 26145,
    "tempest": 16961,
    "un": 373,
    "Ġboscombe": 8326,
    "attle": 4468,
    "Ġrevel": 9217,
    "Ġfur": 993,
    "Ġmutable": 23958,
    "animals": 24737,
    "Ġvaguely": 17369,
    "Ġloop": 14149,
    "Ġbrink": 18772,
    "Ġrelieve": 8224,
    "Ġexpressive": 8985,
    "Ġamusement": 8056,
    "od": 350,
    "Ġequals": 4727,
    "Ġwhenever": 5166,
    "Ġshar": 9253,
    "Ġgans": 5822,
    "Ġprehensile": 26536,
    "Ġdeliberate": 15025,
    "Ġrope": 4341,
    "Ġhyperborean": 26341,
    "tar": 8098,
    "Ġsecretly": 13275,
    "elag": 12663,
    "Ġrefreshment": 17242,
    "Ġinclude": 1875,
    "Ġpursuits": 12081,
    "mariners": 19551,
    "Ġretrogression": 26583,
    "Ġvirgin": 7328,
    "Ġregain": 22589,
    "Ġyouthful": 16725,
    "Ġstories": 10867,
    "Ġfert": 15586,
    "Ġbehooves": 20735,
    "Ġpausing": 8656,
    "Ġdecanting": 22447,
    "Ġstumped": 24945,
    "Ġpirate": 14998,
    "Ġagony": 5388,
    "Ġresent": 6050,
    "Ġglimpse": 6944,
    "Ġhateful": 19716,
    "ensical": 18568,
    "Ġemperors": 15163,
    "Ġfair": 2839,
    "uments": 5552,
    "Ġhook": 6454,
    "Ġimped": 18444,
    "proof": 16427,
    "enty": 2917,
    "Ġuplifted": 11650,
    "Ġfaltering": 17886,
    "Ġgeor": 3388,
    "Ġfavoured": 16367,
    "younger": 11314,
    "base": 20779,
    "itarian": 21340,
    "Ġinherited": 25354,
    "Ġbi": 919,
    "allows": 15911,
    "Ġnone": 3225,
    ",âĢĶâĢľ": 10073,
    "Ġner": 1645,
    "Ġboy": 3023,
    "Ġgrasped": 8034,
    "retch": 4374,
    "Ġcontinu": 1165,
    "strip": 19833,
    "north": 14617,
    "Ġcongregation": 12333,
    "emic": 18187,
    "Ġspake": 18311,
    "Ġevenness": 22837,
    "Ġtoss": 10187,
    "Ġbenevolence": 9530,
    "isol": 17848,
    "Ġthrust": 5084,
    "Ġmariner": 7247,
    "jah": 17583,
    "Ġappellation": 22226,
    "Ġexponentially": 1442,
    "Ġconver": 804,
    "Ġceti": 24772,
    "ssian": 3400,
    "Ġhonest": 7287,
    "Ġwaylaid": 22876,
    "Ġadequately": 15202,
    "Ġyou": 366,
    "cap": 8373,
    "Ġreason": 1356,
    "caused": 25520,
    "Ġfra": 1826,
    "Ġmixing": 24937,
    "Ġhumane": 11888,
    "Ġlesson": 7276,
    "Ġbased": 3338,
    "wh": 509,
    "Ġpouch": 21471,
    "Ġdefici": 22946,
    "Ġdeepest": 8215,
    "spot": 9791,
    "vings": 9754,
    "Ġaccelerating": 1618,
    "mysterious": 26053,
    ",âĢĻ": 2328,
    "Ġraging": 14310,
    "content": 11199,
    "ters": 1570,
    "staring": 18023,
    "loo": 10322,
    "Ġplaster": 16087,
    "Ġcrack": 7710,
    "aside": 10194,
    "Ġrepast": 16415,
    "don": 3545,
    "Ġair": 1838,
    "Ġcommunic": 5751,
    "Ġimpenetrable": 17400,
    "bott": 9109,
    "Ġbursting": 8659,
    "Ġexercised": 24800,
    "weeks": 14319,
    "Ġsubt": 11872,
    "Ġdep": 752,
    "Ġbour": 4877,
    "Ġhumorously": 18781,
    "Ġvariations": 22669,
    "cott": 8074,
    "Ġjig": 15955,
    "determined": 9082,
    "Ġjohnson": 18410,
    "Ġshel": 6847,
    "Ġinvention": 19956,
    "Ġpedest": 15067,
    "iform": 2199,
    "Ġusher": 22221,
    "deliver": 19507,
    "ol": 363,
    "Ġterm": 2264,
    "Ġadmeasure": 18294,
    "Ġattachment": 6051,
    "Ġbloody": 9891,
    "Ġsatisfaction": 5667,
    "suitableness": 26262,
    "th": 407,
    "Ġunfor": 15843,
    "Ġpriority": 19765,
    "Ġalas": 5923,
    "Ġdispersed": 16599,
    "Ġenc": 967,
    "Ġrecommended": 8671,
    "Ġreaching": 7303,
    "Ġreb": 15695,
    "Ġdispleasure": 16056,
    "Ġparaphrasing": 26528,
    "Ġpleasantly": 14522,
    "Ġmantelpiece": 15211,
    "gives": 15361,
    "Ġissuing": 16950,
    "serve": 13052,
    "pag": 11513,
    "uttered": 8442,
    "ethics": 8881,
    "Ġproves": 14041,
    "Ġdegener": 14053,
    "Ġkiss": 8183,
    "prop": 1048,
    "covery": 11173,
    "from": 1989,
    "Ġmutiny": 13263,
    "Ġheadlong": 11892,
    "Ġguards": 16272,
    "Ġbegone": 11920,
    "Ġvapors": 19910,
    "becoming": 18520,
    "Ġev": 4830,
    "Ġart": 753,
    "Ġdirected": 5579,
    "Ġconfess": 3765,
    "alo": 7588,
    "aways": 15314,
    "Ġplutarch": 22606,
    "Ġthickening": 24027,
    "udg": 22757,
    "tashtego": 9625,
    "deli": 15348,
    "longing": 23729,
    "Ġphara": 23202,
    "Ġconqueror": 25797,
    "Ġtheory": 5799,
    "Ġwriters": 13546,
    "thar": 18218,
    "precisely": 6917,
    "Ġbacks": 8531,
    "Ġgesture": 11401,
    "Ġunfolded": 10641,
    "hurried": 11355,
    "superstitious": 17283,
    "merged": 11195,
    "below": 12126,
    "Ġparlor": 13543,
    "Ġimpenit": 22392,
    "Ġrick": 21977,
    "Ġwhaling": 2785,
    "Ġsimple": 1620,
    "increase": 20271,
    "Ġstraightened": 12113,
    "fluke": 25205,
    "Ġflirt": 14426,
    "Ġperfections": 23610,
    "Ġbre": 1913,
    "direction": 17526,
    "Ġrounded": 14442,
    "aswag": 21549,
    "Ġpious": 11601,
    "Ġslaughter": 20732,
    "Ġname": 2082,
    "Ġcontinue": 5398,
    "Ġalbertus": 25649,
    "sworn": 24259,
    "persu": 8028,
    "destroy": 19513,
    "Ġspermaceti": 8970,
    "crowd": 25255,
    "Ġlance": 4880,
    "tossing": 18581,
    "done": 6501,
    "Ġgrasshopper": 24380,
    "Ġswell": 8952,
    "exciting": 19671,
    "Ġscreamed": 9527,
    "Ġinsufficient": 9675,
    "Ġtot": 4186,
    "Ġmistifying": 23723,
    "Ġsought": 5010,
    "Ġremain": 1874,
    "Ġdrawled": 23992,
    "whom": 8185,
    "Ġimage": 3404,
    "Ġendurance": 23139,
    "Ġbelrive": 18832,
    "Ġdiabolical": 20345,
    "Ġilliter": 23470,
    "Ġintu": 12768,
    "toed": 18579,
    "Ġnarr": 5085,
    "Ġkills": 15910,
    "icts": 22404,
    "Ġvastly": 23863,
    "Ġcrouching": 23443,
    "Ġfangs": 12602,
    "Ġinstant": 2703,
    "Ġlost": 2634,
    "Ġmaps": 2964,
    "painted": 17641,
    "Ġweal": 21924,
    "Ġcommend": 10337,
    "shells": 26057,
    "Ġgold": 3279,
    "Ġguess": 4904,
    "mel": 9130,
    "evenings": 19466,
    "super": 5945,
    "response": 25763,
    "cheerful": 13579,
    "species": 13260,
    "Ġacknowledge": 13406,
    "luxur": 25823,
    "Ġfreed": 7267,
    "Ġtrip": 16790,
    "Ġrece": 11641,
    "idirection": 2409,
    "iters": 21332,
    "heaven": 8053,
    "Ġacc": 562,
    "affection": 7487,
    "persuaded": 15077,
    "notice": 16150,
    "Ġric": 18210,
    "Ġwedded": 15539,
    "Ġprovid": 1009,
    "Ġli": 602,
    "Ġagile": 22516,
    "Ġembal": 11906,
    "shell": 16290,
    "Ġardour": 8043,
    "Ġgathered": 8444,
    "Ġhaze": 18197,
    "Ġromantic": 8031,
    "all": 485,
    "cabin": 8363,
    "drawers": 19389,
    "Ġtranslations": 12056,
    "Ġproceeds": 12082,
    "Ġsimpler": 2047,
    "hoist": 23717,
    "childhood": 16870,
    "built": 16827,
    "Ġcomprised": 14270,
    "Ġsidelong": 11440,
    "school": 10058,
    "Ġpals": 13921,
    "Ġsensitive": 13203,
    "Ġchal": 18379,
    "Ġcoburg": 18594,
    "Ġbranch": 8332,
    "coo": 11172,
    "Ġbiographical": 22766,
    "Ġwaters": 3596,
    "present": 1136,
    "Ġmantel": 11441,
    "belated": 24041,
    "Ġsuppose": 2868,
    "Ġearthly": 7990,
    "Ġshivered": 14111,
    "Ġchange": 1992,
    "isturbed": 18298,
    "ak": 537,
    "Ġbriony": 9332,
    "bedroom": 14701,
    "odecim": 9835,
    "Ġchamber": 6215,
    "Ġomniscient": 20089,
    "Ġspence": 22140,
    "Ġgrammars": 11404,
    "Ġkept": 3345,
    "beside": 19879,
    "Ġevangel": 11282,
    "Ġprairies": 20024,
    "itically": 21333,
    "Ġbruited": 25774,
    "Ġdazed": 15602,
    "Ġtinker": 15135,
    "ese": 4446,
    "Ġcircles": 7967,
    "Ġmutually": 23960,
    "val": 1168,
    "Ġsenses": 8252,
    "Ġcate": 4109,
    "Ġlucky": 7759,
    "Ġimpossible": 3544,
    "vine": 10736,
    "greeting": 24554,
    "Ġturtles": 19222,
    "amb": 5723,
    "Ġseverest": 14093,
    "Ġsurprised": 3833,
    "Ġbashaw": 25634,
    "Ġhouses": 6140,
    "valuable": 8248,
    "velling": 14765,
    "Ġwalks": 8969,
    "Ġdistorted": 14252,
    "Ġheightens": 24156,
    "Ġbetrayed": 9564,
    "Ġdone": 1816,
    "interested": 9509,
    "Ġgros": 14826,
    "oard": 4810,
    "gover": 10704,
    "echo": 15352,
    "Ġnotwithstanding": 9717,
    "Ġjuicy": 25371,
    "Ġforgery": 25978,
    "Ġpianoforte": 15277,
    "Ġbrahma": 26321,
    "âĢĻâĢĶ": 12741,
    "connected": 1309,
    "Ġsurgeons": 23466,
    "Ġcheetah": 14505,
    "spark": 18689,
    "adders": 24400,
    "Ġjaw": 3318,
    "Ģ": 227,
    "itance": 13871,
    "Ġpestilent": 25778,
    "Ġelephants": 9867,
    "Ġaround": 3612,
    "Ġshattered": 7884,
    "ugues": 19023,
    "playing": 19660,
    "Ġleakage": 23460,
    "custom": 15336,
    "peculiarities": 13475,
    "geneva": 13733,
    "Ġunconsc": 6554,
    "Ġexpatiate": 18625,
    "social": 11025,
    "Ġoccasions": 7988,
    "Ġcontemplative": 19895,
    "Ġsaying": 3245,
    "ignantly": 23268,
    "Ġxxi": 24476,
    "Ġmiddle": 4138,
    "ict": 590,
    "Ġdaniel": 15115,
    "ct": 309,
    "Ġtapped": 11556,
    "Ġconfirmation": 17213,
    "Ġslippery": 12171,
    "Ġseal": 10257,
    "gloom": 17142,
    "univers": 15776,
    "Ġunra": 18238,
    "tes": 11531,
    "Ġshoving": 23491,
    "Ġwin": 9644,
    "neat": 22466,
    "Ġamiable": 4270,
    "rowsers": 8698,
    "complacency": 19916,
    "Ġmechan": 1179,
    "sign": 8388,
    "Ġconflag": 20338,
    "perth": 22189,
    "unwillingly": 21888,
    "Ġlowered": 6737,
    "elop": 1490,
    "Ġexcessive": 3894,
    "Ġmeasureless": 14713,
    "Ġhooked": 19081,
    "Ġhearth": 11986,
    "Ġmacey": 12568,
    "Ġexhale": 24402,
    "Ġprob": 971,
    "ables": 7890,
    "Ġdeaden": 23462,
    "Ġdistrusting": 25056,
    "Ġminim": 1323,
    "Ġchancing": 22252,
    "Ġl": 303,
    "utting": 17987,
    "ouncing": 8497,
    "ext": 924,
    "ach": 435,
    "Ġpreservation": 24631,
    "Ġ75": 19615,
    "ge": 559,
    "Ġvancouver": 26567,
    "Ġtropics": 17067,
    "Ġspatial": 2729,
    "Ġreiterating": 26476,
    "popular": 26141,
    "Ġmoses": 21318,
    "resembling": 25933,
    "Ġfiendish": 13332,
    "Ġseaward": 22950,
    "Ġnuptial": 25783,
    "Ġpenetrate": 12274,
    "across": 10327,
    "Ġimport": 1039,
    "03": 20750,
    "Ġsum": 2699,
    "rece": 21237,
    "Ġinadequate": 17939,
    "quickly": 14965,
    "straw": 24099,
    "Ġsorting": 3236,
    "Ġhumour": 7932,
    "hr": 20890,
    "recurring": 24197,
    "Ġproduce": 4369,
    "Ġdebar": 24274,
    "Ġchestnut": 19675,
    "Ġindelible": 25695,
    "creator": 26383,
    "dinner": 11408,
    "Ġfervent": 14899,
    "Ġgaiters": 20464,
    "Ġnervous": 2402,
    "along": 6014,
    "Ġape": 21199,
    "private": 13586,
    "cottagers": 20051,
    "onness": 21257,
    "Ġnursing": 12219,
    "Ġeloquent": 16114,
    "Ġrefusing": 11030,
    "Ġmoody": 8201,
    "heartedness": 24825,
    "Ġannounced": 9037,
    "Ġrespect": 1668,
    "Ġboon": 22640,
    "Ġvaults": 17156,
    "Ġhomeward": 9395,
    "questions": 16762,
    "13": 20752,
    "Ġarchitect": 984,
    "abilities": 3238,
    "ricted": 15423,
    "stir": 12678,
    "Ġsolicited": 20040,
    "Ġmercifully": 20181,
    "Ġconn": 9232,
    "Ġcautiously": 16979,
    "Ġadapts": 3820,
    "Ġflor": 8565,
    "Ġperplexed": 23660,
    "Ġeag": 2968,
    ".}": 20747,
    "Ġprobable": 5570,
    "Ġsyrian": 18354,
    "thrill": 25657,
    "Ġspectators": 19410,
    "iation": 7343,
    "influence": 13582,
    "dashed": 12460,
    "Ġhis": 380,
    "į": 240,
    "Ġgore": 17991,
    "Ġfaculties": 14961,
    "Ġanat": 8124,
    "Ġproud": 5654,
    "business": 5610,
    "Ġmasks": 23331,
    "lay": 5892,
    "ahead": 12438,
    "both": 5785,
    "eaten": 20347,
    "Ġintroduced": 7691,
    "pitching": 24079,
    "eh": 13713,
    "Ġtold": 2184,
    "riors": 18186,
    "Ġclaim": 5106,
    "Ġoutlandish": 12843,
    "Ġfaint": 5812,
    "Ġravings": 18647,
    "removing": 17766,
    "Ġstomach": 11656,
    "Ġexpanding": 25239,
    "Ġmurderers": 16813,
    "appearing": 14639,
    "sufficiently": 14984,
    "Ġstair": 8457,
    "mountain": 10715,
    "Ġquieted": 23846,
    "Ġamidst": 9497,
    "ggling": 19098,
    "rity": 13779,
    "hos": 15367,
    "Ġlaughed": 5059,
    "Ġbenefactor": 14700,
    "driven": 19774,
    "erland": 9643,
    "Ġdipped": 15601,
    "Ġquarrelling": 13502,
    "Ġ270": 25133,
    "Ġphiladel": 23888,
    "bub": 15320,
    "Ġrods": 9757,
    "opolising": 25677,
    "Ġpost": 4274,
    "number": 10117,
    "classes": 12140,
    "Ġdoubtless": 6197,
    "www": 17254,
    "Ġpip": 1596,
    "Ġadjusting": 3413,
    "Ġattics": 22631,
    "Ġqualities": 7533,
    "Ġstability": 1359,
    ",âĢĿ": 581,
    "deceiving": 22130,
    "Ġsoliloquized": 17305,
    "Ġprofessed": 14727,
    "Ġsubtile": 20383,
    "Ġyet": 1029,
    "stains": 11640,
    "Ġfreshly": 23990,
    "Ġisn": 7866,
    "Ġalone": 2565,
    "mention": 7214,
    "Ġ95": 19776,
    "Ġarbit": 4651,
    "Ġsquires": 16184,
    "Ġbounded": 16629,
    "conditionally": 24835,
    "Ġeast": 5370,
    "igin": 3656,
    "Ġbuoyant": 13535,
    "Ġcrocodile": 20742,
    "Ġcomputers": 2643,
    "Ġlurch": 21558,
    "Ġemac": 16410,
    "20": 20755,
    "drew": 7334,
    "come": 2375,
    "Ġenlarged": 25986,
    "_.âĢĿ": 5887,
    "punishment": 15149,
    "ipper": 13743,
    "Ġscruples": 15082,
    "closing": 23160,
    "punctual": 26357,
    "trivial": 21095,
    "proceed": 8979,
    "Ġundoing": 22039,
    "Ġdistributed": 18662,
    "Ġminers": 22835,
    "Ġcapsizing": 20092,
    "Ġflounders": 23016,
    "Ġarrest": 7409,
    "istic": 991,
    "Ġincident": 6282,
    "Ġboughs": 20492,
    "Ġnobleman": 19395,
    "Ġnaked": 8127,
    ",--": 2476,
    "regarding": 15075,
    "ub": 1227,
    "Ġendeavors": 16548,
    "Ġsurvey": 13597,
    "Ġscraps": 16904,
    "Ġexactness": 23606,
    "roads": 17960,
    "changed": 7176,
    "Ġsubaltern": 22795,
    "Ġcracked": 8597,
    "Ġfortnight": 6202,
    "jump": 10106,
    "Ġdiscomp": 11870,
    "quite": 4647,
    "Ġclamorous": 24910,
    "Ġclings": 15970,
    "ē": 212,
    "Ġwhether": 1999,
    "remark": 7261,
    "famous": 16918,
    "Ġgag": 21596,
    "Ġmel": 4818,
    "Ġmystical": 12137,
    "accidents": 19214,
    "Ġvarying": 15814,
    "Ġnav": 5819,
    "Ġpersevering": 20236,
    "Ġscrolled": 22293,
    "belonged": 25598,
    "imag": 6991,
    "Ġpar": 456,
    "rad": 2152,
    "Ġoffices": 14339,
    "ainty": 21791,
    "eous": 13715,
    "Ġmultiplicity": 19277,
    "Ġoil": 3373,
    "Ġwhel": 15870,
    "Ġunwaning": 24830,
    "Ġbear": 3658,
    "Ġtechn": 9374,
    "Ġvess": 3295,
    "sneezes": 11448,
    "Ġtrain": 515,
    "att": 1455,
    "Ġloathing": 15071,
    "decided": 13219,
    "antarctic": 22103,
    "Ġsensit": 2948,
    "practical": 17224,
    "int": 1198,
    "Ġphysiogn": 12392,
    "Ġforts": 21776,
    "castles": 14638,
    "Ġbarnacled": 25537,
    "Ġfools": 14484,
    ").âĢĿ": 20743,
    "blooded": 20026,
    "Ġwherever": 8526,
    "Ġsmiles": 6708,
    "erpillar": 5798,
    "Ġarrayed": 25665,
    "Ġchemistry": 11462,
    "stamp": 21657,
    "iverer": 11720,
    "Ġxliv": 23411,
    "Ġgenerally": 4158,
    "Ġcovariate": 2350,
    "thest": 11657,
    "Ġcleaning": 23184,
    "Ġinconveniences": 24942,
    "Ġcensus": 15100,
    "Ġsimply": 7218,
    "Ġmaterial": 5178,
    "sixteen": 24854,
    "Ġdoubloon": 6945,
    "Ġres": 696,
    "ċ": 204,
    "cannib": 11907,
    "Ġcleaned": 23186,
    "Ġclustered": 25234,
    "Ġbeards": 21755,
    "ilingly": 21727,
    "became": 10517,
    "Ġinteraction": 7424,
    "nour": 20990,
    "dled": 9114,
    "Ġtout": 17721,
    "Ġrefine": 2923,
    "Ġpromoting": 3163,
    "Ġtistig": 26415,
    "Ġcreaking": 14333,
    "Ġchild": 2258,
    "Ġmaritime": 23040,
    "seventy": 10878,
    "pots": 11516,
    "jo": 3750,
    "carries": 19530,
    "Ġcalmed": 16271,
    "Ġschemes": 11133,
    "Ġsubur": 12961,
    "alive": 10829,
    "rop": 540,
    "uously": 7353,
    "university": 25984,
    "Ġheav": 1853,
    "they": 1880,
    "itude": 1419,
    "Ą": 197,
    "Ġactual": 3737,
    "Ġpartiality": 9401,
    "knowledge": 7478,
    "Ġdummy": 25450,
    "bots": 10085,
    "Ġmeet": 2807,
    "Ġoperations": 2298,
    "Ġmemorable": 16448,
    "enjoy": 10776,
    "Ġnook": 15932,
    "Ġsweep": 8266,
    "Ġhospital": 15042,
    "tra": 5002,
    "Ġfar": 1449,
    "Ġidler": 16407,
    "attempt": 9363,
    "Ġreap": 18029,
    "{": 95,
    "comfort": 5647,
    "Ġround": 1365,
    "ĠĠĠĠĠĠĠĠĠĠĠĠĠĠĠĠĠĠĠĠĠĠĠĠĠĠĠĠĠĠĠĠĠ": 12046,
    "ostentatious": 20654,
    "Ġstoper": 14466,
    "Ġunnearable": 26518,
    "smiles": 14695,
    "act": 785,
    "Ġauto": 23304,
    "Ġunprovided": 18261,
    "Ġfeet": 2256,
    "unbe": 21876,
    "Ġattach": 14295,
    "Ġthrobbing": 16900,
    "Ġconsidering": 4616,
    "month": 6464,
    "ores": 2411,
    "happ": 3105,
    "Ġcivility": 4789,
    "Ġfaithfulness": 24446,
    "Ġrepro": 7275,
    "Ġcircumstance": 4987,
    "Ġcumul": 4179,
    "Ġsplend": 9901,
    "histicated": 20903,
    "Ġdepending": 14303,
    "Ġdisguise": 10049,
    "Ġliberties": 19670,
    "Ġexpeditions": 24957,
    "Ġlengths": 19207,
    "Ġwhy": 1759,
    "Ġflattering": 13034,
    "Ġtalks": 23373,
    "Ġfragments": 19042,
    "wich": 11546,
    "Ġexpans": 18622,
    "Ġincensed": 18572,
    "Ġsizes": 1522,
    "Ġinduce": 7763,
    "Ġbewildered": 15217,
    "mael": 6724,
    "Ġexclaiming": 13645,
    "Ġreve": 2935,
    "Ġrainbows": 19651,
    "shattered": 22458,
    "Ġtong": 4871,
    "pal": 9619,
    "Ġfirmly": 8014,
    "Ġill": 2192,
    "hers": 7636,
    "genteel": 19952,
    "Ġoperation": 12003,
    "Ġdisgusted": 14993,
    "Ġ5": 4935,
    "Ġaccounted": 10297,
    "sudden": 5316,
    "darcy": 5208,
    "Ġspace": 1521,
    "Ġwhose": 2009,
    "buck": 17493,
    "Ġinhabitants": 7524,
    "liv": 9610,
    "Ġclenched": 14207,
    "Ġseethings": 26505,
    "skill": 24487,
    "asingly": 17963,
    "Ġlumps": 21559,
    "ggy": 13118,
    "unhes": 21879,
    "actually": 14298,
    "Ġcounties": 23305,
    "anced": 1279,
    "Ġlighting": 13087,
    "Ġburly": 19252,
    "Ġpur": 2214,
    "grow": 10101,
    "fri": 20856,
    "Ġwithin": 2161,
    "yt": 17713,
    "Ġemper": 9864,
    "Ġdistance": 3484,
    "Ġviolence": 5964,
    "asht": 4085,
    "tish": 17679,
    "Ġunequal": 14845,
    "Ġmadness": 6603,
    "Ġprobabilities": 4966,
    "pick": 17636,
    "Ġcronies": 23442,
    "Ġdeep": 818,
    "Ġsinusoidal": 4802,
    "Ġdetails": 6567,
    "ed": 293,
    "Ġerr": 1321,
    "stately": 18024,
    "impatience": 25501,
    "ä": 165,
    "utch": 21589,
    "Ġlegit": 16475,
    "Ġatrocious": 21947,
    "maltese": 24794,
    "Ġconfusion": 7273,
    "Ġlit": 6248,
    "poison": 14395,
    "umer": 9261,
    "mense": 4781,
    "escape": 16011,
    "hammer": 14491,
    "Ġsequences": 1751,
    "Ġtamer": 24979,
    "Ġarea": 14189,
    "Ġfalling": 6915,
    "Ġnumer": 3639,
    "Ġdetain": 14176,
    "thick": 10263,
    "Ġundertaking": 8577,
    "odecimoes": 25319,
    "Ġfading": 15588,
    "Ġfumes": 21421,
    "Ġdared": 5440,
    "č": 206,
    "Ġharness": 17930,
    "Ġtelegra": 11896,
    "upt": 13801,
    "remembrance": 25703,
    "Ġdandy": 17897,
    "queg": 1769,
    "Ġinnocence": 6478,
    "Ġcommunication": 1871,
    "generally": 9438,
    "Ġwilful": 10537,
    "Ġinterview": 9773,
    "Ġrum": 5925,
    "ortations": 22262,
    "Ġchildren": 3766,
    "Ġspurned": 12805,
    "Ġfeat": 10940,
    "Ġsurv": 6082,
    "Ġthreats": 13381,
    "nant": 17611,
    "utility": 21590,
    "Ġaffectionate": 5585,
    "Ġseriously": 7063,
    "Ġwithout": 1119,
    "Ġcucumber": 21359,
    "vineyard": 25422,
    "sequence": 2858,
    "erce": 6128,
    "relatively": 24017,
    "Ġgarnery": 17390,
    "Ġirreducible": 5519,
    "spite": 16141,
    "aments": 12730,
    "Ġthankful": 14741,
    "Ġknights": 15153,
    "inserted": 18887,
    "strang": 11185,
    "Ġnorthern": 7265,
    "historian": 25735,
    "Ĭ": 237,
    "Ġwrithing": 11950,
    "regulated": 23469,
    "unworthy": 18164,
    "Ġgleaming": 24996,
    "Ġoptimizer": 5035,
    "Ġslid": 7952,
    "Ġwoods": 5406,
    "return": 5489,
    "Ġpoker": 13925,
    "Ġuniversity": 13126,
    "Ġreflection": 6441,
    "Ġhunting": 7259,
    "Ġtruck": 19514,
    "Ġmam": 8406,
    "Ġfallen": 5969,
    "Ġrepresentations": 1876,
    "oding": 1460,
    "Ġvoyages": 6908,
    "ivered": 7007,
    ".]": 15302,
    "utes": 5915,
    "Ġtide": 6661,
    "Ġunimpeachable": 26524,
    "Ġdisposition": 5409,
    "Ġexceed": 1343,
    "Ġrelics": 16199,
    "Ġsway": 7571,
    "read": 3276,
    "terms": 15755,
    "Ġhysterics": 26094,
    "Ġaltering": 18105,
    "Ġunmanner": 22033,
    "Ġhandkerchief": 8917,
    "Ġshriek": 6640,
    "Ġclimb": 15083,
    "had": 1949,
    "Ġpsychology": 11450,
    "appropri": 22844,
    "Ġwindings": 18911,
    "Ġcat": 2121,
    "Ġpro": 360,
    "Ġrambled": 20171,
    "Ġharp": 17926,
    "Ġcrony": 23440,
    "Ġmany": 1103,
    "Ġcreativity": 3011,
    "Ġafterwards": 3531,
    "Ġdestabilizing": 5053,
    "beheld": 11805,
    "Ġgard": 2189,
    "Ġsimultaneous": 22591,
    "say": 3985,
    "icking": 8914,
    "Ġhurry": 4914,
    "Ġpowdered": 24240,
    "Ġmonkey": 8226,
    "Ġkindred": 16381,
    "Ġshave": 22000,
    "Ġante": 17898,
    "obtained": 23099,
    "Ġlady": 1584,
    "Ġpeas": 8536,
    "Ġmanaged": 7906,
    "ceptibly": 22364,
    "Ġpromontory": 11945,
    "tw": 2814,
    "Ġmuscles": 12093,
    "Ġsuddenness": 23385,
    "jack": 7344,
    "Ġmerc": 9429,
    "Ġdisembow": 22541,
    "lighter": 20961,
    "Ġting": 8399,
    "Ġcontinual": 6778,
    "omed": 13978,
    "deception": 22131,
    "cham": 10855,
    "uneasiness": 23691,
    "sim": 6511,
    "Ġrendered": 5773,
    "Ġregions": 10326,
    "Ġpaddling": 25286,
    "Ġpikes": 21480,
    "Ġacknowledged": 7534,
    "Ġdissolved": 18555,
    "Ġwrite": 3824,
    "Ġcalhoun": 23046,
    "Ġdivision": 19447,
    "watery": 19829,
    "revolver": 25628,
    "Ġdestroyer": 13417,
    "Ġfun": 526,
    "iteness": 4395,
    "henry": 16628,
    "Ġdeposited": 25485,
    "Ġnapkins": 25165,
    "laying": 19775,
    "clusion": 16309,
    "believing": 19465,
    "looks": 12022,
    "ames": 2955,
    "Ġprevented": 5943,
    "bru": 12443,
    "Ġsallied": 12542,
    "laws": 19810,
    "Ġhoped": 5488,
    "Ġtake": 1575,
    "ĠĠĠĠĠĠĠĠ": 711,
    "Ġcarelessly": 11122,
    "tomahawk": 25916,
    "Ġreferences": 21677,
    "anks": 3919,
    "Ġviol": 2071,
    "Ġmicha": 17813,
    "Ġcling": 11775,
    "holland": 24045,
    "pret": 7212,
    "Ġminimizing": 3466,
    "officer": 17055,
    "Ġbarriers": 23797,
    "Ġrelig": 8553,
    "Ġunderwent": 23241,
    "Ġnoiseless": 10360,
    "clothed": 19741,
    "Ġbrook": 13053,
    "Ġawaited": 17075,
    "Ġdependent": 14304,
    "Ġorder": 1683,
    "tru": 10731,
    "Ġkey": 2101,
    "profound": 16429,
    "¹": 122,
    "ban": 9587,
    "Ġcetology": 10012,
    "Ġcarving": 14446,
    "Ġcanvas": 7784,
    "Ġwheeled": 14141,
    "Ġpockets": 8899,
    "Ġvacancies": 24345,
    "stood": 4116,
    "Ġsupers": 18280,
    "espe": 3500,
    "Ġequinoctial": 20535,
    "Ġfourth": 7707,
    "acency": 12913,
    "Ğ": 223,
    "Ġguilt": 6181,
    "¦": 104,
    "Ġpince": 21473,
    "Ġoptimization": 1385,
    "blister": 24129,
    "Ġfuss": 13908,
    "said": 4104,
    "muring": 17603,
    "etics": 21584,
    "Ġsingled": 23775,
    "Ġnominal": 15172,
    "uttering": 12667,
    "Ġwhitewashed": 14472,
    "Ġug": 8141,
    "Ġfrequencies": 4790,
    "usable": 22283,
    "Ġaltitude": 26204,
    "Ġimpulsive": 19966,
    "Ġlurid": 19684,
    "Ġsty": 6253,
    "Ġreptile": 15281,
    "stirred": 20428,
    "Ġforg": 3786,
    "Ġprofund": 13157,
    "oga": 22711,
    "Ġsuspicious": 9483,
    "curiosity": 8627,
    "Ġcellar": 8059,
    "Ġdestruction": 6602,
    "Ġhome": 2028,
    "Ġfragrant": 13103,
    "Ġdispelling": 23883,
    "Ġtennes": 23551,
    "Ġimplicate": 24877,
    "chari": 21692,
    "becomes": 22500,
    "Ġlust": 9200,
    "Ġshine": 12771,
    "uger": 21106,
    "vast": 10738,
    "ille": 9222,
    "Ġopportunity": 4787,
    "Ġgroan": 13329,
    "Ġinte": 2065,
    "Ġhesitate": 16948,
    "Ġfrighted": 24032,
    "ti": 8390,
    "cence": 9591,
    "Ġerudite": 26353,
    "Ġoverladen": 22370,
    "Ġrising": 4358,
    "achus": 18284,
    "Ġoptimal": 1858,
    "Ġunnaturally": 24871,
    "Ġquies": 18465,
    "Ġdebt": 12172,
    "Ġemphasis": 20539,
    "Ġattain": 12752,
    "Ġtour": 9150,
    "le": 279,
    "Ġspeaks": 11161,
    "Ġwigwam": 11430,
    "Ġmedic": 11258,
    "foremost": 14255,
    "Ġmental": 21322,
    "uzza": 11272,
    "gloves": 25146,
    "Ġlobsters": 13520,
    "Ġheeded": 13407,
    "Ġkl": 2735,
    "blow": 9107,
    "Ġappar": 7411,
    "Ġdisturbed": 8675,
    "Ġstudded": 18973,
    "Ġobtain": 8918,
    "Ġdizzy": 21440,
    "inders": 15984,
    "Ġhaggard": 17333,
    "thorough": 21989,
    "fever": 22505,
    "Ġdishonor": 25602,
    "Ġcovered": 5171,
    "Ġag": 683,
    "olerably": 11676,
    "handled": 19263,
    "Ġcomplied": 14737,
    "Ġstoner": 7179,
    "Ġengraved": 17082,
    "Ġworth": 4419,
    "Ġreassure": 21675,
    "Ġhummed": 18780,
    "Ġdaboll": 25951,
    "Ġoblig": 3446,
    "Ġlvi": 21556,
    "Ġsunda": 13547,
    "Ġquadruped": 20618,
    "Ġconfide": 13102,
    "Ġmankind": 6700,
    "Ġslackened": 15130,
    "ĭ": 238,
    "¬": 110,
    "Ġdiscovers": 4430,
    "fortune": 4975,
    "Ġbred": 9172,
    "Ġnois": 4268,
    "Ġregulations": 18598,
    "Ġpoised": 22593,
    "Ġunidirectional": 3425,
    "ild": 1153,
    "Ġunintellig": 22030,
    "Ġcoldness": 23762,
    "Ġelegant": 7532,
    "Ġhoisted": 5961,
    "queens": 22913,
    "Ġdinner": 4245,
    "Ġvortex": 26210,
    "Ġdevelopments": 23237,
    "smooth": 20251,
    "Ġmainz": 22651,
    "Ġtranque": 14203,
    "Ġhumorous": 10363,
    "Ġstamp": 7864,
    "Ġgretna": 26470,
    "Ġrouted": 24908,
    "prehend": 14245,
    "ye": 1405,
    "Ġwarnings": 16883,
    "Ġla": 5914,
    "tell": 1376,
    "spirited": 19756,
    "Ġregularity": 22785,
    "Ġmenaced": 16296,
    "wn": 720,
    "Ġsan": 7824,
    "Ġtables": 9881,
    "Ġupper": 5090,
    "there": 1424,
    "intervals": 10640,
    "Ġheedfulness": 24522,
    "Ġcrescent": 16140,
    "Ġfo": 1650,
    "Ġtant": 12530,
    "Åĵuv": 15186,
    "Ġrecess": 10849,
    "Ġgaunt": 11270,
    "Ġsuspect": 5758,
    "Ġshe": 467,
    "estic": 4956,
    "inative": 15487,
    "Ġcondemned": 7779,
    "ign": 1702,
    "Ġyielding": 12191,
    "Ġrecede": 25969,
    "Ġjest": 18404,
    "du": 604,
    "Ġsimpl": 1576,
    "culiarity": 11143,
    "Ġunconnected": 18243,
    "Ġdiana": 21444,
    "Ġbequest": 21757,
    "idents": 6152,
    "Ġoverpower": 12848,
    "shabbily": 26248,
    "iner": 2669,
    "ulged": 12735,
    "float": 19808,
    "Ġincarnation": 25574,
    "grieved": 17320,
    "utherland": 9581,
    "Ġsax": 10931,
    "Ġmonica": 22983,
    "plainly": 11091,
    "Ġunderneath": 16342,
    "adequately": 20322,
    "Ġmess": 7831,
    "figured": 20126,
    "Ġsights": 7472,
    "mp": 3726,
    "Ġobserving": 6081,
    "Ġceremonious": 24838,
    "Ġdividing": 12116,
    "rival": 12748,
    "commanded": 16990,
    "bodily": 17318,
    "Ġarchangel": 8545,
    "uine": 13802,
    "Ġrecompense": 14841,
    "Ġdoing": 3661,
    "tling": 9145,
    "directed": 20408,
    "ott": 1873,
    "master": 5687,
    "ivery": 17574,
    "Ġgathers": 24742,
    "Ġconvulsive": 19309,
    "Ġmeasure": 3594,
    "Ġopenness": 18958,
    "Ġstrengthen": 20703,
    "Ġrolls": 8334,
    "ze": 1284,
    "retrospect": 23142,
    "Ġ*": 1273,
    "Ġstifle": 18079,
    "illed": 2623,
    "flesh": 13494,
    "Ġfather": 1450,
    "omn": 15686,
    "Ġhopelessly": 16382,
    "Ġproceeding": 9909,
    "Ġsix": 3044,
    "Ġthreatening": 16830,
    "Ġjo": 2609,
    "allow": 5104,
    "tolerably": 21098,
    "Ġjoists": 19235,
    "Ġcosine": 2371,
    "Ġthrusting": 10555,
    "Ġunw": 7005,
    "Ġclear": 1948,
    "admire": 24946,
    "bus": 5355,
    "prejudiced": 17300,
    "Ġdisdained": 15012,
    "twas": 15440,
    "Ġbasin": 19850,
    "side": 2300,
    "Ġpaddles": 15151,
    "construction": 19781,
    "brave": 19826,
    "Ġsatin": 12995,
    "Ġtoken": 2038,
    "perhaps": 4122,
    "Ġhonorable": 16878,
    "Ġwith": 348,
    "Ġdetestation": 17130,
    "stun": 18021,
    "Ġcaptioning": 23023,
    "Ġpie": 13918,
    "Ġbrave": 6331,
    "Ġenlar": 15804,
    "Ġjac": 1897,
    "eryton": 4094,
    "Ġsat": 1129,
    "Ġselects": 4388,
    "Ġmimic": 3146,
    "Ġ----": 7146,
    "Ġoutlaws": 22327,
    "Ġillustrations": 17109,
    "Ġunless": 4091,
    "Ġaboard": 6699,
    "ampl": 21846,
    "weight": 2942,
    "Ġadmiring": 16482,
    "cream": 15334,
    "elab": 21573,
    "Ġexhibition": 14960,
    "iably": 13741,
    "fort": 1749,
    "Ġreplaced": 13076,
    "oth": 1186,
    "Ġinexpress": 12640,
    "âĢĶâĢĺ": 7015,
    "Ġregal": 16080,
    "Ġfounder": 17885,
    "Ġcongratulations": 10583,
    "Ġunearthly": 9039,
    "Ġexclusiveness": 23931,
    "Ġimpropriety": 17398,
    "ni": 1663,
    "Ġblackest": 19100,
    "interrupted": 11419,
    "ded": 2757,
    "figures": 20125,
    "liber": 18815,
    "equal": 14996,
    "oons": 12503,
    "dial": 20827,
    "Ġsomehow": 4843,
    "Ġtasselled": 25922,
    "Ġworsh": 13005,
    ",âĢĶâĢĺ": 23805,
    "Ġswore": 10381,
    "Ġnotice": 4544,
    "Ġmultiplied": 23694,
    "Ġori": 8410,
    "hunters": 16835,
    "Ġimpulses": 19965,
    "Ġgasped": 11374,
    "Ġlard": 13950,
    "Ġfleshy": 24615,
    "Ġtimely": 19597,
    "watches": 14950,
    "Ġlethar": 21735,
    "Ġprobably": 4316,
    "orne": 17874,
    "Ġasse": 8160,
    "Ġtrait": 23078,
    "Ġsickening": 19607,
    "Ġblasted": 7938,
    "Ġdrunken": 12054,
    "Ġmistake": 6205,
    "behaviour": 11303,
    "Ġballarat": 14722,
    "olent": 8155,
    "considering": 12179,
    "ulations": 6030,
    "Ġmeditate": 16709,
    "whether": 5320,
    "treas": 17681,
    "Ġaromatic": 25926,
    "ais": 8071,
    "Ġcordially": 16838,
    "Ġtesting": 23225,
    "Ġcryst": 9920,
    "Ġsouthwards": 19636,
    "Ġunfitted": 24110,
    "Ġren": 3848,
    "Ġfrankly": 16747,
    "Ġdumb": 7843,
    "Ġnever": 1020,
    "Ġrolling": 5976,
    "ws": 7355,
    "anyone": 16595,
    "Ġspinal": 12306,
    "Ġmizzen": 20292,
    "preser": 9763,
    "sor": 7352,
    "Ġdirt": 15600,
    "Ġasp": 15785,
    "affold": 16564,
    "Ġsevered": 18204,
    "Ġsamples": 2963,
    "touching": 15095,
    "Ġquart": 11791,
    "Ġnoticing": 18225,
    "bruary": 15239,
    "oun": 482,
    "Ġhavoc": 15817,
    "ultural": 22572,
    "bucket": 17496,
    "Ġsacrifice": 9558,
    "Ġtwig": 11854,
    "Ġinspect": 5965,
    "Ġwisely": 13276,
    "rations": 10725,
    "Ġlichen": 20095,
    "assuming": 22314,
    "Ġpersuading": 19413,
    "Ġafforded": 8029,
    "Ġpurchase": 12264,
    "Ġwharves": 13509,
    "Ġchristianity": 19863,
    "Ġbeaufort": 13572,
    "Ġchivalry": 25820,
    "Ġconcerning": 4069,
    "Ġbled": 17858,
    "log": 18535,
    "Ġcuvier": 9168,
    "grim": 19108,
    "Ġadmits": 23557,
    "shoulders": 16587,
    "Ġthackeray": 26457,
    "adv": 4538,
    "Ġfamine": 16331,
    "included": 19209,
    "Ġcharacteristically": 23695,
    "confined": 24328,
    "apt": 729,
    "Ġdiscu": 4366,
    "Ġdoleful": 18378,
    "Ġloc": 10916,
    "Ġwoes": 23989,
    "Ġanywhere": 8519,
    "Ġhinge": 25542,
    "magnet": 14973,
    "icil": 17974,
    "Ġprompted": 23820,
    "Į": 239,
    "already": 6981,
    "ative": 747,
    "Ġsurve": 9877,
    "Ġcornelius": 13577,
    "asses": 7018,
    "Ġnomine": 26458,
    "Ġoh": 2175,
    "Ġfishy": 16525,
    "abomin": 15746,
    "Ġprovincial": 20652,
    "Ġincreases": 3795,
    "Ġassaulted": 25321,
    "Ġwages": 13857,
    "Ġpictured": 16625,
    "ect": 381,
    "Ġphilist": 16603,
    "Ġmonster": 3793,
    "Ġdiver": 2529,
    "Ġrafters": 22659,
    "Ġmouldy": 14977,
    "proachable": 23401,
    "orrowed": 19292,
    "Ġwhitt": 18057,
    "Ġmccarthy": 5145,
    "blo": 6355,
    "Ġunusual": 6555,
    "Ġowen": 15098,
    "biting": 20783,
    "Ġmournful": 12340,
    "Ġdilatory": 24704,
    "Ġapothecary": 13663,
    "arling": 10812,
    "Ġbelted": 22951,
    "ishness": 22346,
    "Ġquietly": 4568,
    "Ġresp": 2492,
    "dripping": 16907,
    "Ġreward": 6146,
    "Ġpicked": 6343,
    "Ġmurky": 19203,
    "lier": 20951,
    "Ġpattering": 18661,
    "imely": 14001,
    "Ġcaptains": 7457,
    "one": 615,
    "rushed": 10587,
    "Ġwarn": 5695,
    "definition": 23121,
    "dost": 14537,
    "comrade": 18744,
    "Ġspires": 11737,
    "Ġtemporary": 7981,
    "Ġpallet": 21483,
    "overcome": 19054,
    "Ġpipeline": 2306,
    "soldiers": 25912,
    "Ġsprung": 11250,
    "Ġpatent": 11964,
    "Ġmap": 2388,
    "ordinary": 4410,
    "witted": 17709,
    "oters": 21803,
    "#": 7,
    "Ġsomnambul": 26578,
    "feed": 9296,
    "Ġconfound": 23306,
    "Ġai": 3130,
    "tipt": 25086,
    "Ġboasting": 19939,
    "eld": 966,
    "Ġcivilised": 24247,
    "Ġdan": 8797,
    "Ġmixed": 6975,
    "Ġinterpreted": 1710,
    "perform": 15905,
    "very": 499,
    "Ġnetherfield": 3933,
    "Ġhorribly": 16346,
    "Ġfarther": 5956,
    "Ġfaire": 13369,
    "Ġintuitions": 17344,
    "unned": 21882,
    "bearer": 18522,
    "Ġplaced": 3445,
    "Ġparticulars": 5754,
    "maid": 8555,
    "Ġde": 365,
    "ivided": 22082,
    "Ġhandsomest": 20337,
    "Ġeigen": 4882,
    "Ġbless": 4345,
    "Ġappeal": 16319,
    "Ġgravely": 7883,
    "Ġord": 3734,
    "Ġevince": 24295,
    "Ġvictoria": 14876,
    "Ġgood": 1003,
    "Ġprofession": 6209,
    "ogue": 9788,
    "Ġstockings": 20000,
    "romang": 22009,
    "Ġsepulchre": 20562,
    "okes": 9280,
    "Ġunembarrassed": 22075,
    "Ġyour": 635,
    "ption": 7398,
    "Ġfru": 8421,
    "Ġclimate": 9278,
    "rudence": 7094,
    "affrail": 11207,
    "Ġdip": 13911,
    "ce": 313,
    "odes": 18119,
    "Ġimbecile": 17395,
    "Ġarticulate": 24432,
    "Ġarchly": 22783,
    "inks": 6869,
    "Ġembodied": 25848,
    "Ġmil": 4255,
    "Ġmocking": 24006,
    "dimensional": 2348,
    "kles": 17586,
    "kitty": 10108,
    "thread": 15830,
    "Ġswells": 9830,
    "Ġare": 527,
    "Ġtrans": 638,
    "orand": 21400,
    "Ġmoods": 14954,
    "isher": 2879,
    "Ġrender": 8305,
    "Ġcommand": 3321,
    "Ġontario": 26207,
    "Ġthreshold": 2811,
    "Ġplausible": 26555,
    "inspect": 11561,
    "Ġsadly": 7302,
    "Ġsavory": 23879,
    "Ġheredit": 9219,
    "es": 289,
    "pict": 8386,
    "Ġsalvation": 14760,
    "/*": 10074,
    "reeable": 3613,
    "Ġnorth": 4321,
    "Ġimpartial": 15223,
    "Ġfullest": 14817,
    "end": 506,
    "Ġdeeds": 15763,
    "Ġconcentrated": 15087,
    "gratitude": 16818,
    "Ġforebodings": 17307,
    "horr": 14601,
    "ugl": 23292,
    "stepfather": 19192,
    "Ġbelongs": 8015,
    "night": 2167,
    "ius": 5789,
    "jac": 8382,
    "agon": 7871,
    "Ġgrave": 5100,
    "Ġnew": 1196,
    "Ġstar": 6024,
    "Ġpope": 11604,
    "Ġcream": 22724,
    "Ġcorner": 4373,
    "etition": 7382,
    "Ġpot": 2991,
    "urable": 8925,
    "olerable": 7183,
    "Ġtransl": 2832,
    "Ġstripped": 10467,
    "gate": 12471,
    "Ġforenoon": 19127,
    "Ġmail": 17802,
    "lee": 11588,
    "suited": 22643,
    "savor": 25027,
    "Ġaslant": 21905,
    "arding": 22166,
    "lat": 9607,
    "Ġirksome": 13116,
    "expectation": 14859,
    "circumst": 5349,
    "desp": 6094,
    "evidence": 25522,
    "Ġsecluded": 11997,
    "dataset": 23243,
    "Ġaugmentation": 20119,
    "shooting": 16967,
    "asons": 6016,
    "Ġhessian": 3549,
    "Ġfrancis": 26064,
    "yden": 21146,
    "Ġrural": 21974,
    "keel": 14131,
    "Ġadding": 2401,
    "Ġeastern": 11632,
    "Ġgame": 3629,
    "clear": 9027,
    "Ġbloodthirsty": 26603,
    "oso": 12835,
    "Ġimpious": 15990,
    "isis": 12584,
    "Ġsqueaking": 26276,
    "mered": 8218,
    "Ġramsgate": 18649,
    "fish": 3516,
    "ases": 1524,
    "sleeping": 13458,
    "Ġdissembling": 26256,
    "discredit": 24253,
    "disappo": 8987,
    "emptied": 23637,
    "Ġoutward": 7904,
    "Ġunrestrained": 25555,
    "Ġfurious": 10357,
    "may": 3679,
    "Ġvilest": 20104,
    "ĠĠĠĠĠĠĠĠĠĠĠĠĠĠĠĠĠĠĠĠĠĠĠĠĠĠĠĠĠĠĠĠĠĠĠĠĠĠĠĠĠĠĠĠĠĠĠĠĠĠĠĠĠ": 20043,
    "ounded": 9751,
    "numer": 15402,
    "frank": 7758,
    "insufferable": 21195,
    "directly": 13712,
    "Ġdefence": 11069,
    "Ġtelescopes": 25691,
    "Ġfrigid": 17355,
    "Ġorgans": 15869,
    "Ġpersistence": 3099,
    "Ġdespondency": 16580,
    "supp": 4162,
    "Ġskewer": 19623,
    "Ġruff": 14352,
    "Ġberyl": 20493,
    "Ġextracted": 16308,
    "ual": 946,
    "Ġbitterness": 8024,
    "Ġcarries": 7674,
    "Ġprayer": 16669,
    "Ġslight": 3121,
    "official": 24915,
    "Ġappearances": 10453,
    "Ġxxxii": 24973,
    "Ġdisinclined": 22533,
    "Ġacquaintances": 17353,
    "quee": 4130,
    "Ġindustry": 18839,
    "thro": 12766,
    "Ġpy": 21453,
    "Ġpair": 5706,
    "Ġdepartment": 24244,
    "Ġregret": 5561,
    "Ġcrippled": 25279,
    "Ġmonoton": 3637,
    "Ġpurely": 12236,
    "Ġmerely": 3769,
    "action": 3725,
    "Ġmalady": 24392,
    "Ġamply": 22486,
    "Ġreprehensible": 15703,
    "Ġstarbuck": 2193,
    "Ġinfluence": 5515,
    "Ġedition": 16457,
    "arbuck": 2025,
    "Ġslumbering": 25702,
    "Ġmarch": 4083,
    "hitherto": 17286,
    "er": 269,
    "yrin": 12527,
    "Ġborder": 10172,
    "Ġannum": 24206,
    "Ġdevice": 1928,
    "ifies": 6688,
    "Ġcomplexion": 8210,
    "Ġalarm": 4048,
    "Ġevolved": 9895,
    "Ġmeanwhile": 5736,
    "Ġdestitute": 14567,
    "Ġferry": 24498,
    "Ġjur": 12839,
    "comm": 7440,
    "Ġintermission": 18588,
    "Ġmistaking": 23722,
    "Ġimpatient": 5603,
    "Ġagrees": 22519,
    "Ġagon": 10323,
    "Ġunperceived": 22041,
    "Ġowned": 11880,
    "Ġholiday": 13003,
    "Ġbreaches": 14523,
    "Ġrequire": 903,
    "Ġken": 22195,
    "ieged": 22581,
    "rowed": 22863,
    "meaning": 2908,
    "Ġyards": 5371,
    "Ġlovely": 4710,
    "caus": 11478,
    "Ġsilk": 11967,
    "Ġsurrounded": 5880,
    "Ġbasic": 24700,
    "thole": 21990,
    "inity": 5693,
    "Ġtheories": 13852,
    "little": 3350,
    "Ġspermacetti": 19053,
    "laughing": 15183,
    "etus": 21581,
    "x": 92,
    "Ġxxxiv": 24970,
    "ion": 296,
    "Ġnameless": 7700,
    "leg": 2816,
    "Ġbelieving": 8225,
    "Ġmodern": 3230,
    "ivable": 10912,
    "Ġirr": 10423,
    "ap": 546,
    "Ġambiguous": 20167,
    "astic": 1869,
    "Ġdiff": 3117,
    "Ġcaterpillar": 5866,
    "Ġdesp": 3217,
    "Ġwindow": 2998,
    "inferences": 17741,
    "Ġrewarded": 14943,
    "Ġinstincts": 16988,
    "serious": 14451,
    "Ġindefatigable": 17180,
    "aker": 3663,
    "swim": 16781,
    "Ġsoaring": 22090,
    "ruin": 22180,
    "Ġfaintly": 14918,
    "Ġcollapsed": 15085,
    "Ġconceals": 23907,
    "Ġunchanged": 22035,
    "abulary": 4801,
    "anite": 17839,
    "Ġswerve": 14440,
    "Ġinaccessible": 13937,
    "Ġperched": 10302,
    "Ġhesitating": 16949,
    "Ġheight": 4221,
    "Ġspam": 7632,
    "Ġdeparted": 5564,
    "Ġhare": 5157,
    "springs": 24912,
    "Ġdecks": 6900,
    "Ġansw": 2203,
    "Ġprovision": 14828,
    "Ġvigilance": 12375,
    "Ġversion": 10632,
    "scoured": 22996,
    "scores": 22995,
    "Ġnods": 19064,
    "Ġdispute": 16060,
    "Ġdefect": 8557,
    "Ġlofty": 6219,
    "umbrance": 22122,
    "cked": 2764,
    "Ġparticle": 18672,
    "lion": 20946,
    "Ġobjective": 3764,
    "Ġfret": 10808,
    "Ġswan": 23054,
    "flex": 24844,
    "hard": 4690,
    "Ġanim": 2113,
    "gment": 4393,
    "anted": 5027,
    "Ġtenderly": 11316,
    "aste": 4602,
    "Ġadored": 18292,
    "Ġintimately": 24801,
    "ity": 417,
    "Ġbackwater": 18651,
    "Ġpipes": 9850,
    "lucases": 20213,
    "injured": 15136,
    "cavity": 26127,
    "Ġrecurring": 23234,
    "Ġramble": 9316,
    "Ġrelev": 1713,
    "reen": 21234,
    "intelligent": 16846,
    "token": 21085,
    "Ġmouth": 3182,
    "Ġjavelin": 26105,
    "Ġcorners": 18876,
    "Ġabased": 22272,
    "Ġbush": 23340,
    "Ġdavy": 25952,
    "desc": 1394,
    "Ġposs": 1616,
    "gay": 11491,
    "newsp": 23136,
    "Ġbeaut": 2391,
    "Ġbub": 8118,
    "Ġoccupied": 5273,
    "duing": 22415,
    ").": 1272,
    "Ġpropensity": 18997,
    "Ġminus": 18751,
    "supposing": 24136,
    "decan": 22127,
    "garious": 17560,
    "urg": 8142,
    "itor": 12571,
    "offer": 19062,
    "eel": 11486,
    "Ġworsted": 19998,
    "Ġfevers": 22215,
    "Ġblo": 2733,
    "rison": 13782,
    "Ġtranquillize": 24756,
    "Ġinjure": 16783,
    "Ġsignific": 3831,
    "ensions": 14261,
    "Ġreceptive": 1561,
    "queness": 18150,
    "Ġhindoo": 17178,
    "Ġringbolts": 24199,
    "Ġnerves": 2626,
    "Ġeditions": 19154,
    "Ġseparated": 9467,
    "chron": 21697,
    "Ġelev": 5536,
    "Ġmildness": 9947,
    "Ġacutely": 14317,
    "ite": 712,
    "Ġmatrimony": 13639,
    "Ġadventure": 5982,
    "Ġchanged": 5243,
    "ently": 1615,
    "says": 13304,
    "Ġthese": 819,
    "amouch": 21849,
    "mil": 13755,
    "Ġvertical": 16606,
    "clergyman": 20731,
    "Ġsolution": 9808,
    "Ġmartial": 20294,
    "asc": 6387,
    "Ġbracelets": 25503,
    "seas": 14036,
    "oded": 11672,
    "Ġindisposed": 26289,
    "Ġjoist": 19234,
    "Ġdreams": 7496,
    "ura": 985,
    "Ġbreath": 4792,
    "Ġunfrequent": 24111,
    "itten": 3442,
    "permitted": 18347,
    "Ġscrutin": 26015,
    "Ġofficer": 6755,
    "Ġvow": 10249,
    "Ġoutrageous": 20613,
    "ake": 748,
    "uth": 3019,
    "Ġswelled": 11089,
    "lingly": 9776,
    "Ġprogress": 5023,
    "dear": 6557,
    "Ġtestimony": 14480,
    "Ġsemantic": 1958,
    "engine": 18929,
    "Ġcompares": 20169,
    "anxiety": 25159,
    "Ġbapt": 13899,
    "when": 1588,
    "goes": 10428,
    "romeda": 17265,
    "oment": 920,
    "asible": 21545,
    "Ġheartfelt": 18967,
    "houses": 9602,
    "Ġdreadfully": 7726,
    "Ġchair": 3662,
    "monster": 8595,
    "Ġdistrusted": 13545,
    "Ġpitiful": 13243,
    "Ġenraptured": 26502,
    "Ġaccumulation": 2691,
    "Ġdisgra": 18550,
    "ade": 881,
    "attain": 21264,
    "nal": 1901,
    "Ġwhittling": 20702,
    "Ġdismissed": 12897,
    "Ġantics": 24181,
    "Ġincognit": 22558,
    "Ġencaps": 12967,
    "Ġconvul": 13207,
    "Ġtoilet": 13940,
    "rap": 21631,
    "rested": 13079,
    "Ġveil": 7934,
    "Ġelusive": 22649,
    "thus": 5158,
    "velled": 9879,
    "Ġknock": 9976,
    "Ġmockery": 12112,
    "Ġsymph": 22214,
    "affectionate": 24922,
    "discernible": 20553,
    "Ġgerm": 13967,
    "iquet": 17577,
    "Ġbengal": 18785,
    "Ġpled": 17907,
    "ĠâĢĶ_": 3459,
    "Ġvindictiveness": 25739,
    "Ġcountries": 13100,
    "lives": 12490,
    "approached": 13489,
    "uncont": 15778,
    "Ġneighbourhood": 5126,
    "Ġcoloured": 11046,
    "Ġjutting": 22305,
    "Ġfeelings": 2449,
    "curious": 10485,
    "Ġexperiment": 11925,
    "Ġdisagreeable": 9301,
    "Ġlingu": 11617,
    "Ġsuspend": 14610,
    "Ġdespise": 14668,
    "sou": 12510,
    "Ġcomely": 21852,
    "Ġgossiping": 26245,
    "Ġcomprehending": 24445,
    "uncle": 8159,
    "Ġtaken": 2527,
    "insanity": 23072,
    "iting": 2156,
    "Ġaval": 15496,
    "Ġproblem": 1271,
    "Ġtrying": 4840,
    "ĠĠĠĠĠĠĠĠĠĠ": 18578,
    "Ġstraits": 7994,
    "term": 3757,
    "Ġpetrified": 19599,
    "live": 7550,
    "Ġinsurgents": 26602,
    "Ġcommod": 10336,
    "Ġor": 437,
    "Ġjewelled": 20186,
    "Ġflame": 7448,
    "Åĵ": 10746,
    "tier": 12519,
    "Ġspark": 6691,
    "Ġorgies": 18286,
    "Ġviciss": 11294,
    "acted": 11012,
    "Ġskin": 5039,
    "redible": 15808,
    "ernal": 4314,
    "rate": 2419,
    "Ġhemp": 9218,
    "Ġcontrol": 13084,
    "position": 15416,
    "Ġbureau": 11593,
    "Ġtens": 17725,
    "Ġvernal": 23891,
    "½": 126,
    "Ġcrawling": 17046,
    "Ġwished": 3728,
    "Ġexertions": 13414,
    "Ġarguments": 8037,
    "akness": 14197,
    "extra": 8219,
    "Ġcelebrate": 26359,
    "Ġ1778": 25730,
    "lands": 8241,
    "Ġens": 2790,
    "Ġlounging": 10025,
    "Ġsnapped": 9900,
    "dient": 441,
    "resp": 13842,
    "amid": 12729,
    "Ġaverage": 3141,
    "Ġadult": 18290,
    "dued": 7909,
    "rann": 21047,
    "fedallah": 25523,
    "Ġboneless": 19608,
    "Ġcrazy": 8596,
    "Ġobligation": 13248,
    "perquis": 22194,
    "Ġimpenet": 14222,
    "Ġsimon": 5172,
    "omuch": 21643,
    "Ġraved": 22654,
    "Ġfleet": 9435,
    "Ġdictator": 20156,
    "transp": 24512,
    "Ġcorroborated": 26055,
    "Ġmother": 2067,
    "urning": 12921,
    "Ġattended": 5391,
    "Ġwhereof": 16106,
    "Ġcurve": 22984,
    "Ġvane": 22877,
    "phys": 18713,
    "whims": 22243,
    "Ġvenom": 24241,
    "respectable": 19849,
    "Ġpave": 8804,
    "Ġtoo": 1164,
    "Ġdisent": 22527,
    "sicilian": 21066,
    "Ġassurances": 10003,
    "Ġstung": 21745,
    "Ġrecourse": 22739,
    "Ġshrink": 14806,
    "Ġwreath": 25937,
    "[": 63,
    "Ġrapidity": 11102,
    "Ġstove": 6735,
    "Ġflourishing": 25188,
    "Ġspoiled": 11365,
    "Ġfulf": 6773,
    "ighter": 7968,
    "Ġundue": 25994,
    "Ġshouldn": 14328,
    "unteered": 26497,
    "Ġdenominated": 15232,
    "Ġenvironmental": 24052,
    "Ġunassuming": 20512,
    "bitt": 17488,
    "humored": 19456,
    "Ġouter": 6859,
    "Ġperdition": 15996,
    "Ġtoil": 6533,
    "Ġfacing": 10174,
    "tinted": 17685,
    "hopper": 23718,
    "related": 24015,
    "conqu": 14247,
    "ledyard": 22395,
    "Ġpunctures": 25136,
    "Ġfamed": 16330,
    "Ġwrest": 11574,
    "contrary": 23732,
    "Ġseized": 4835,
    "Ġreference": 2564,
    "details": 19678,
    "ference": 1883,
    "Ġsacri": 18329,
    "Ġanalyze": 1542,
    "Ġriddle": 14823,
    "harpooneer": 8692,
    "arising": 17890,
    "removed": 15519,
    "tackle": 17324,
    "Ġsublimity": 26348,
    "Ġcomposition": 1685,
    "Ġessentially": 24925,
    "Ġilluminate": 17195,
    "Ġstealing": 18895,
    "Ġquestionable": 19268,
    "sloop": 26146,
    "opposite": 19931,
    "Ġjoyfully": 19349,
    "Ġwalker": 23312,
    "âĢĶ(": 15942,
    "Ġleaf": 15721,
    "pagans": 25526,
    "Ġprofounder": 23571,
    "Ġxxxix": 24971,
    "Ġrally": 21975,
    "spr": 7435,
    "Ġattached": 5392,
    "iled": 1764,
    "Ġbuff": 9175,
    "Ġrot": 10969,
    "shot": 2128,
    "Ġacquitted": 18900,
    "Ġtroubling": 26548,
    "Ġstraightway": 9020,
    "abound": 15744,
    "blades": 24132,
    "Ġsufferer": 16264,
    "Ġstreets": 5865,
    "ici": 8441,
    "Ġmilky": 9950,
    "onsensical": 18577,
    "Ġwave": 7576,
    "Ġfrederick": 15591,
    "Ġdiscreet": 16484,
    "strange": 6087,
    "Ġclos": 4550,
    "Ġsurvived": 14937,
    "Ġmoodily": 19837,
    "Ġcorpora": 26582,
    "Ġrepulses": 26071,
    "Ġlessened": 19089,
    "Ġchannel": 26013,
    "Ġfield": 1242,
    "Ġhappens": 2187,
    "Ġof": 298,
    "Ġwide": 4108,
    "Ġprogra": 1145,
    "Ġrepositories": 23367,
    "Ġsafer": 22174,
    "apping": 5853,
    "Ġtarpaul": 17732,
    "Ġapolog": 9046,
    "Ġju": 10289,
    "morning": 4860,
    "ucumber": 19060,
    "sheep": 23090,
    "problems": 11436,
    "Ġgree": 7595,
    "Ġoverlooking": 22365,
    "Ġfathom": 17049,
    "tub": 9146,
    "Ġpiteous": 17918,
    "Ġheaped": 18040,
    "Ġstrung": 22621,
    "infant": 19830,
    "Ġphantoms": 13490,
    "pulling": 25149,
    "Ġpos": 1011,
    "turner": 19544,
    "ward": 705,
    "Ġcontinually": 5042,
    "dire": 15339,
    ",âĢĶ": 3172,
    "Ġdams": 16456,
    "Ġdisputing": 25825,
    "Ġcorrect": 2428,
    "Ġsunset": 8965,
    "Ġrewarding": 13441,
    "Ġfab": 15580,
    "milk": 20480,
    "Ġemir": 23353,
    "Ġcaprice": 14579,
    "Ġfeeding": 7972,
    "Ġmysterious": 7527,
    "Ġturbulence": 26599,
    "Ġgallows": 12150,
    "dening": 22782,
    "Ġwaterloo": 11985,
    "lim": 9609,
    "fleece": 19951,
    "Ġsyllable": 9732,
    "urmount": 13999,
    "Ġwicked": 5962,
    "mons": 17602,
    "Ġplayed": 9419,
    "Ġguest": 7249,
    "ernity": 18616,
    "&": 10,
    "ĠĠĠĠĠĠĠĠĠĠĠĠĠĠĠĠĠĠĠĠĠĠĠĠĠĠĠĠĠĠĠĠĠĠĠ": 19260,
    "Ġmarine": 23035,
    "affording": 23780,
    "50": 6785,
    "pronounced": 12350,
    "conspicuous": 26249,
    "Ġbroods": 23106,
    "osal": 11763,
    "sixty": 24853,
    "Ġeddystone": 25736,
    "Ġbrains": 2629,
    "acey": 7650,
    "Ġshame": 6411,
    "Ġmantle": 25275,
    "now": 548,
    "Ġatone": 15806,
    "Ġearnestness": 12130,
    "ascertain": 21546,
    "iard": 9604,
    "Ġgradients": 611,
    "Ġmenaces": 23110,
    "®": 111,
    "covenant": 23564,
    "than": 4089,
    "Ġtruly": 4797,
    "Ġplaything": 19240,
    "ceptible": 10962,
    "volut": 1559,
    "Ġfolds": 12211,
    "Ġoutcast": 18415,
    "Ġsocks": 14136,
    "gener": 3128,
    "Ġthoroughly": 8348,
    "akers": 9742,
    "Ġlikely": 3599,
    "beam": 16043,
    "Ġpapa": 10659,
    "gers": 8376,
    "oak": 21005,
    "jackets": 24896,
    "Ġbetokened": 18798,
    "oon": 6366,
    "Ġairy": 23322,
    "Ġross": 2766,
    "belongs": 25597,
    "including": 23592,
    "iciously": 17976,
    "Ġsun": 1718,
    "Ġpresentiment": 18989,
    "<UNK>": 3,
    "-": 17,
    "ask": 855,
    "ications": 4447,
    "Ġnug": 21528,
    "deser": 10481,
    "Ġscatter": 18399,
    "venison": 22629,
    "rodu": 1817,
    "Ġfeasts": 25370,
    "soo": 18686,
    "semic": 21825,
    "Ġunreasonable": 12782,
    "ave": 979,
    "Ġfunction": 594,
    "Ġconge": 15750,
    "Ġadmitting": 19185,
    "Ġhighland": 18711,
    "Ġequality": 16362,
    "noise": 14346,
    "baned": 17498,
    "Ġphrases": 2799,
    "Ġsuppressed": 11915,
    "car": 4213,
    "Ġrespite": 13158,
    "Ġgrecian": 26297,
    "abst": 21792,
    "cupboards": 25402,
    "fights": 20867,
    "pin": 13770,
    "Ġaggregate": 25678,
    "Ġcredulous": 17147,
    "Ġfreckled": 18960,
    "compass": 9463,
    "Ġbrittle": 22866,
    "Ġfelicity": 7260,
    "Ġsensations": 5260,
    "Ġdevilish": 11230,
    "Ġcorroboration": 26054,
    "brother": 7093,
    "Ġrhone": 25231,
    "Ġcoil": 11822,
    "Ġresurrection": 12899,
    "ustomed": 6100,
    "accept": 8901,
    "onic": 7827,
    "Ġrooted": 13173,
    "Ġminiatures": 20324,
    "Ġmallet": 17812,
    "lever": 2934,
    "Ġrheum": 18215,
    "Ġconfeder": 25708,
    "akes": 2216,
    "powerful": 24848,
    "Ġuse": 830,
    "rior": 12747,
    "causes": 20346,
    "chance": 6827,
    "Ġproclaim": 18133,
    "Ġweather": 3997,
    "short": 6568,
    "Ġrelated": 3714,
    "Ġbabes": 24425,
    "generations": 23788,
    "Ġbedside": 19125,
    "Ġobed": 8538,
    "Ġledgers": 23941,
    "xic": 9148,
    "Ġdwell": 5813,
    "D": 40,
    "Ġclouds": 5775,
    "Ġdisdain": 8360,
    "Ġpreposter": 12827,
    "Ġspaulding": 11738,
    "falling": 24361,
    "ouring": 6421,
    "separately": 25228,
    "Ġmartin": 25437,
    "Ġvicious": 24403,
    "Ġopinions": 9418,
    "Ġjackets": 19605,
    "Ġalbatross": 10873,
    "ik": 17573,
    "Ġcome": 1241,
    "<SOS>": 1,
    "iest": 4037,
    "Ġlikelihood": 16503,
    "Ġderick": 9368,
    "conclusions": 25673,
    "Ġcorp": 5574,
    "buff": 15322,
    "aw": 1446,
    "yield": 13812,
    "Ġlik": 2522,
    "Ġpalms": 8647,
    "lott": 6653,
    "Ġendless": 7055,
    "Ġquivers": 22417,
    "Ġinferiority": 17116,
    "advent": 10223,
    "Ġworry": 18817,
    "proceeding": 20144,
    "Ġcatching": 9481,
    "intercourse": 14640,
    "Ġcontract": 18476,
    "Ġribbons": 24325,
    "Ġsteam": 9356,
    "ateful": 5928,
    "Ġplayfully": 19241,
    "Ġrans": 21973,
    "Ġsal": 3940,
    "Ġearned": 19408,
    "Ġpaddle": 20062,
    "Ġtomb": 8812,
    "Ġnotes": 7189,
    "Ġexpect": 2304,
    "fresh": 13396,
    "fifth": 20149,
    "Ġwallet": 21301,
    "Ġbeliever": 25847,
    "fthand": 26388,
    "inting": 9817,
    "Ġspies": 22142,
    "Ġenl": 18190,
    "Ġjustified": 11909,
    "Ġburnished": 24001,
    "anything": 5518,
    "Ġharpooneer": 3770,
    "Ġfishers": 19357,
    "Ġcontinues": 18811,
    "Ġwanderings": 20146,
    "Ġgpus": 3731,
    "Ĝ": 221,
    "Ġsultan": 15188,
    "Ġwoof": 14724,
    "Ġexistence": 4707,
    "Ġinvoked": 19146,
    "F": 42,
    "Ġspoil": 17009,
    "dually": 3284,
    "cracy": 24691,
    "Ġelucidated": 26030,
    "Ġhandle": 3139,
    "Ġsangu": 15507,
    "Ġuncompromised": 20606,
    "Ġbales": 21392,
    "Ġemployments": 12107,
    "Ġphantom": 8710,
    "speptic": 23949,
    "sleeve": 26109,
    "leagued": 26437,
    "Ġchink": 15936,
    "bewil": 22502,
    "Ġunabated": 15856,
    "Ġgilt": 21609,
    "Ġjustification": 22971,
    "Ġslighter": 18942,
    "Ġluck": 4881,
    "sacrifice": 13496,
    "Ġexcuse": 5863,
    "Ġcircumnav": 12430,
    "Ġvarieties": 14313,
    "endeavoured": 12285,
    "hecy": 21209,
    "ision": 1856,
    "Ġsympathy": 6348,
    "Ġsurmises": 17056,
    "leag": 21369,
    "crimson": 24090,
    "Ġtemporarily": 11169,
    "Ġcritics": 23444,
    "Ġlastly": 16209,
    "happiest": 19334,
    "Ġpigeon": 9519,
    "sided": 17666,
    "Ġdoctor": 5067,
    "machines": 8385,
    "Ġdegradation": 2630,
    "Ġunexampled": 20363,
    "Ġrudder": 25110,
    "Ġceler": 15555,
    "ort": 521,
    "pat": 10119,
    "intern": 23739,
    "Ġexamine": 7735,
    "Ġnum": 1346,
    "Ġincul": 22553,
    "Ġexasperated": 11414,
    "Ġdemoniacal": 20559,
    "Ø": 153,
    "Ġstormy": 16730,
    "question": 5418,
    "Ġcrushed": 9426,
    "Ġratio": 5066,
    "Ġcurb": 16242,
    "ep": 439,
    "depths": 25664,
    "hend": 13256,
    "Ġrmsprop": 3353,
    "apologizing": 26546,
    "Ġfainted": 8796,
    "fear": 8516,
    "obscure": 23101,
    "Ġsimilar": 4918,
    "Ġhisself": 21918,
    "Ġow": 8409,
    "Ġmur": 2487,
    "Ġtraces": 7946,
    "Ġfits": 8795,
    "Ġshares": 23248,
    "Ġguests": 12291,
    "Ġfathoms": 9086,
    "Ġshin": 18228,
    "Ġtrag": 13045,
    "agos": 21908,
    "Ġbackward": 7655,
    "Ġclapped": 9748,
    "Ġlip": 6534,
    "Ġcapt": 1292,
    "Ġcharnel": 22256,
    "olidity": 18135,
    "ira": 3959,
    "southern": 20412,
    "Ġtrial": 6637,
    "Ġhar": 5815,
    "Ġbough": 13897,
    "ć": 200,
    "turning": 8317,
    "Ġyale": 21783,
    "sne": 10127,
    "Ġvort": 18194,
    "Ġgripping": 26188,
    "Ġmoored": 11796,
    "Ġglobu": 23274,
    "pressed": 6589,
    "Ġworse": 4719,
    "Ġvexations": 24610,
    "niest": 18994,
    "Ġadd": 631,
    "Ġpostpone": 17310,
    "Ġhumiliating": 22887,
    "ica": 10201,
    "ble": 541,
    "ter": 359,
    "bag": 7542,
    "Ġcollection": 8222,
    "Ġweaken": 21926,
    "Ġlightness": 23263,
    "Ġlongitudes": 22637,
    "Ġgordon": 26469,
    "Ġsucked": 14133,
    "guilt": 24074,
    "Ġboarding": 12091,
    "mill": 13757,
    "masculine": 24387,
    "Ġunicorn": 22061,
    "Ġpail": 15611,
    "hetically": 21211,
    "Ġobserver": 11993,
    "stock": 13227,
    "Ġprojected": 16873,
    "Ġglaciers": 20176,
    "Ġstepfather": 7221,
    "Ġfearless": 9878,
    "Ġbroker": 23105,
    "Ġpaw": 12625,
    "crazy": 24692,
    "tube": 20414,
    "Ġstigma": 25792,
    "entiating": 3438,
    "happening": 16566,
    "mortals": 25410,
    "Ġbatt": 13902,
    "hundred": 8331,
    "itatingly": 25278,
    "Ġinnovative": 1700,
    "Ġensuring": 11193,
    "Ġassurance": 7775,
    "Ġsupreme": 13611,
    "Ġimmort": 19487,
    "extent": 22767,
    "promised": 12256,
    "Ġepit": 18009,
    "Ġsmallest": 6431,
    "purse": 20028,
    "required": 17031,
    "Ġwatson": 3597,
    "ien": 10104,
    "Ġpractices": 19043,
    "fr": 4805,
    "unity": 4152,
    "Ġwhatsoever": 18456,
    "Ġfow": 6135,
    "Ġdivided": 8635,
    "Ġinexorable": 12260,
    "Ġpsalmody": 20588,
    "Ġvale": 14085,
    "Ġum": 10214,
    "ately": 1719,
    "rative": 17654,
    "Ġhydraulic": 10067,
    "upp": 10133,
    "Ġshadow": 5596,
    "Ġprovinces": 24193,
    "Ġeach": 891,
    "Ġdifferently": 10391,
    "unsupervised": 10891,
    "Ġsocial": 7009,
    "Ġgener": 591,
    "Ġbordeaux": 24565,
    "aff": 3103,
    "Ġteneriffe": 26416,
    "Ġet": 3581,
    "allah": 5839,
    "Ġxxxvi": 24972,
    "inioned": 19289,
    "Ġsideboard": 10388,
    "Ġenormity": 19698,
    "Ġpriest": 7526,
    "Ġarticles": 7110,
    "Ġpond": 13919,
    "reputation": 15518,
    "itchen": 7788,
    "Ġfor": 340,
    "profitable": 17072,
    "Ġslabs": 13066,
    "ò": 179,
    "hol": 3841,
    "disguise": 26307,
    "Ġsized": 11565,
    "Ġcrucifix": 26080,
    "Ġyell": 21781,
    "Ġupright": 8496,
    "Ġaunts": 21203,
    "Ġirresistible": 13117,
    "Ġcontest": 18474,
    "peculiarity": 23113,
    "Ġbilliard": 16690,
    "pious": 17635,
    "Ġopposing": 12044,
    "ellative": 21949,
    "print": 23815,
    "physiogn": 26266,
    "desk": 23812,
    "deal": 12801,
    "arded": 5029,
    "harpooned": 24288,
    "Ġanimal": 2497,
    "Ġstrictly": 12289,
    "Ġmethodically": 23148,
    "roots": 15647,
    "dered": 2471,
    "Ġdisregarded": 22534,
    "Ġsnake": 12065,
    "drawing": 10489,
    "thodox": 21992,
    "Ġsophisticated": 1612,
    "Ġconception": 10318,
    "Ġaw": 2509,
    "unhesitatingly": 26498,
    "Ġheat": 5453,
    "cy": 630,
    "!âĢĻâĢĿ": 16594,
    "inent": 9631,
    "Ġridiculous": 10631,
    "por": 2148,
    "based": 2961,
    "Ġstrained": 10221,
    "prosper": 19102,
    "addressed": 13389,
    "Ġwish": 2096,
    "Ġmanual": 14200,
    "Ġpaddled": 20204,
    "Ġdevious": 22719,
    "gro": 10097,
    "Ġlarge": 1065,
    "Ġcamp": 9167,
    "chastic": 2334,
    "Ġpeculiar": 3155,
    "Ġmichigan": 26429,
    "ravelled": 18017,
    "perai": 10279,
    "Ġentreaties": 9038,
    "Ġinsatiable": 19274,
    "likes": 18816,
    "principal": 20662,
    "rannical": 26403,
    "Ġhappening": 14386,
    "chester": 23809,
    "oting": 2744,
    "Ġvillas": 24058,
    "ron": 5216,
    "alously": 15633,
    "Ġinterference": 8897,
    "Ġowing": 6006,
    "Ġstarboard": 7608,
    "Ġheavily": 6742,
    "Ġinspecting": 24614,
    "Ġcum": 21345,
    "Ġneglected": 10380,
    "avers": 17483,
    "Ġlonger": 3358,
    "Ġinvolving": 18767,
    "Ġformality": 22832,
    "achusetts": 20712,
    "Ġneighbours": 8303,
    "Ġrides": 21978,
    "Ġnapoleon": 20560,
    "Ġunob": 22019,
    "Ġhourly": 23303,
    "carried": 16713,
    "then": 2052,
    "ling": 735,
    "garn": 20872,
    "Ġliberty": 7762,
    "Ġcoming": 2617,
    "Ġpatterns": 1215,
    "Ġheavy": 3743,
    "countenance": 6925,
    "Ġfetched": 24568,
    "arab": 21424,
    "Ġbumpkins": 25282,
    "Ġhistories": 14689,
    "cil": 8724,
    "faint": 17547,
    "Ġdespairing": 14776,
    "Ġabraham": 18396,
    "manifested": 20529,
    "Ġadver": 5641,
    "Ġherds": 9719,
    "clearly": 25196,
    "Ġathirst": 20601,
    "truth": 9922,
    "Ġtrophy": 20010,
    "standard": 22440,
    "itting": 1151,
    "stache": 15694,
    "des": 3174,
    "Ġceremony": 8361,
    "Ġ31": 12135,
    "ì": 173,
    "savage": 15079,
    "Ġmartha": 16266,
    "sham": 9760,
    "fishermen": 17062,
    "Ġpore": 21460,
    "Ġoutput": 928,
    "rev": 17758,
    "ason": 1255,
    "Ġimmutable": 17361,
    "itates": 13872,
    "Ġsublim": 19970,
    "Ġconcentric": 20078,
    "osy": 11762,
    "fering": 17544,
    "Ġdistribut": 842,
    "arpo": 1755,
    "Ġapplicable": 19013,
    "character": 6333,
    "Ġmatlock": 18802,
    "cry": 12450,
    "worthy": 7733,
    "confusion": 13374,
    "hind": 20896,
    "within": 6732,
    "Ġcorps": 13038,
    "Ġperils": 6274,
    "Ġloosed": 22116,
    "Ġgaz": 4044,
    "neath": 12871,
    "provid": 11151,
    "porary": 14552,
    "sinking": 17670,
    "Ġfigures": 8633,
    "Ġamiss": 18512,
    "\\": 64,
    "ativeness": 15524,
    "temper": 10007,
    "prince": 23818,
    "Ġlist": 2364,
    "Ġcand": 3277,
    "igner": 21704,
    "tr": 3580,
    "Ġtribute": 15478,
    "writhed": 26081,
    "Ġrelevant": 1865,
    "entiful": 10838,
    "aurus": 20563,
    "Ġowners": 7663,
    "\",": 10681,
    "Ġreminds": 13435,
    "glorious": 19370,
    "palms": 25263,
    "Ġclients": 19735,
    "Ġfaithful": 9506,
    "Ġcontriv": 9285,
    "cons": 4311,
    "Ġcommonly": 3265,
    "Ġbunch": 11328,
    "using": 5468,
    "Ġenvelope": 7319,
    "professor": 17252,
    "Ġlingering": 11381,
    "Ġcop": 7580,
    "hertfordshire": 10939,
    "Ġdeceive": 12727,
    "Ġsk": 962,
    "Ġcomfortably": 16617,
    "yset": 21148,
    "post": 6063,
    "enormous": 26167,
    "Ġwhalebone": 10979,
    "Ġstark": 7390,
    "Ġcreat": 1416,
    "emason": 18189,
    "Ġstanzas": 21751,
    "ripp": 6406,
    "Ġtomorrow": 21516,
    "fatigue": 20660,
    "Ġforswe": 21778,
    "appetite": 22848,
    "Ġdreamed": 16632,
    "unexpected": 15782,
    "Ġafraid": 3530,
    "humor": 19455,
    "Ġrue": 11871,
    "Ġalongside": 6313,
    "intended": 11068,
    "moor": 22705,
    "suspect": 9543,
    "Ġtransformations": 3485,
    "rene": 5379,
    "firmly": 20283,
    "Ġtranquillity": 7536,
    "Ġdescending": 8906,
    "ĠĠĠĠĠĠĠĠĠĠĠĠ": 12905,
    "Ġspending": 10925,
    "Ġoutlined": 22324,
    "umbers": 10920,
    "Ġtumult": 7116,
    "Ġintrepid": 11709,
    "Ġdomain": 3542,
    "Ġbreckinridge": 14525,
    "instead": 14816,
    "Ġest": 2263,
    "erably": 7573,
    "Ġsheets": 9726,
    "Ġvowed": 14087,
    "Ġremembrance": 8318,
    "Ġheiress": 20700,
    "iously": 2675,
    "Ġangles": 23590,
    "Ġbefore": 808,
    "ergy": 2360,
    "Ġmari": 6814,
    "Ġdimmed": 24270,
    "Ġtransaction": 22443,
    "eling": 6683,
    "Ġbeseeching": 26312,
    "Ġwool": 19436,
    "ois": 9137,
    "Ä": 133,
    "Ġsoftened": 11104,
    "osite": 4894,
    "Ġcorpse": 6641,
    "grass": 23415,
    "frock": 20124,
    "Ġsleeping": 6321,
    "Ġoverjoyed": 17461,
    "Ġendangered": 16306,
    "Ġreneg": 21678,
    "exception": 9979,
    "Ġstatistical": 11107,
    "Ġhish": 21917,
    "Ġcompletion": 12152,
    "Ġrol": 3556,
    "Ġunexpected": 6841,
    "Ġarcher": 22188,
    "Ġrefined": 18699,
    "sheet": 16289,
    "Ġcottages": 14730,
    "Ġcrunched": 19122,
    "Ġslaugh": 18940,
    "Ġbanking": 19633,
    "Ġdestined": 7975,
    "Ġtemperate": 16168,
    "ĠvertebrÃ¦": 11437,
    "Ġqu": 605,
    "Ġadded": 2716,
    "Ġgrapnels": 25552,
    "Ġpoising": 22594,
    "Ġdived": 9181,
    "led": 582,
    "Ġtrouble": 3690,
    "ulnerable": 18153,
    "Ġfang": 21406,
    "icit": 3378,
    "algorithm": 3800,
    "Ġreproofs": 24893,
    "Ġprice": 10405,
    "Ġgestures": 13539,
    "Ġroaring": 10970,
    "Ġgrunt": 18736,
    "Ġtrifling": 10605,
    "covered": 11479,
    "Ġmaintenance": 17464,
    "Ġreality": 7060,
    "Ġrelates": 12986,
    "quimaux": 21863,
    "Ġmakes": 3652,
    "arm": 1353,
    "cork": 20798,
    "trucks": 25420,
    "rob": 5534,
    "inlaid": 21193,
    "study": 15121,
    "Ġvect": 1226,
    "Ġoppress": 13176,
    "aming": 5829,
    "I": 45,
    "together": 3557,
    "Ġbountiful": 25945,
    "precaution": 23826,
    "repaid": 24491,
    "Ġdumbly": 24988,
    "alions": 21504,
    "Ġvolume": 6770,
    "Ġindestruct": 22961,
    "recl": 15513,
    "Ġmighty": 4231,
    "marvell": 24175,
    "Ġexpressing": 12013,
    "Ġmaj": 3929,
    "chard": 21690,
    "handle": 11192,
    "contact": 23731,
    "Ġapp": 498,
    "hval": 20900,
    "quired": 21859,
    "Ġgem": 21597,
    "Ġdiscussing": 5202,
    "hands": 5968,
    "Ġactions": 6280,
    "articulate": 17401,
    "Ġbravely": 23842,
    "Ġheel": 9687,
    "Ô": 149,
    "emporary": 15802,
    "bre": 3980,
    "Ġwhile": 606,
    "angle": 22108,
    "wherefore": 19110,
    "Ġinclement": 22557,
    "instances": 13324,
    "ĝ": 222,
    "Ġheedful": 19743,
    "breakfast": 8691,
    "Ġsafie": 6620,
    "silenced": 24423,
    "Ġaffinity": 18790,
    "Ġlargely": 14288,
    "ver": 331,
    "Ġundisturbed": 19522,
    "Ġproofs": 19817,
    "Ġcretan": 22727,
    "aphs": 22339,
    "Ġretention": 23075,
    "Ġnaturalist": 22911,
    "Ġsundial": 15086,
    "cats": 17514,
    "Ġinviting": 19145,
    "mechanically": 17303,
    "rug": 18337,
    "watching": 16932,
    "Ġstirring": 10582,
    "Ġcologne": 12980,
    "Ġfossil": 12391,
    "Ġslip": 8957,
    "stem": 570,
    "typewritten": 26039,
    "Ġexcess": 3341,
    "ii": 4015,
    "Ġamuse": 5941,
    "Ġinterests": 14570,
    "Ġentic": 16149,
    "postp": 24635,
    "cook": 8270,
    "_,âĢĻ": 12437,
    "Ġcircumn": 11988,
    "Ġdismast": 12893,
    "sery": 17663,
    "Ġpulpit": 7470,
    "Ġawkwardness": 13491,
    "Ġinsurmountable": 16534,
    "loat": 8890,
    "helped": 18927,
    "enborough": 21288,
    "Ġphilosoph": 19654,
    "windows": 19537,
    "==": 945,
    "Ġpiled": 8426,
    "Ġdrawback": 23993,
    "tis": 4105,
    "Ġadvantage": 4318,
    "Ġhorrible": 4906,
    "dom": 6224,
    "Ġsens": 1855,
    "tt": 13793,
    "Ġguarded": 9829,
    "evident": 25521,
    "bank": 10082,
    "Ġnin": 10190,
    "urements": 18127,
    "Ġvia": 2380,
    "Ġpalp": 11252,
    "Ġfifth": 11259,
    "between": 5071,
    "Ġjamming": 17267,
    "birth": 15325,
    "Ġvishnoo": 12758,
    "(-": 2980,
    "inite": 6003,
    "Ġ182": 13241,
    "Ġprivileges": 25135,
    "Ġslain": 8956,
    "Ġringing": 13336,
    "resh": 8405,
    "Ġprosecuted": 25294,
    "Ġwiser": 14733,
    "Ġgratification": 24100,
    "Ġperiodical": 14775,
    "nurtured": 25525,
    "ront": 15421,
    "Ġrequesting": 24633,
    "tattoo": 21090,
    "Ġcreamy": 14334,
    "Ġparallelization": 3430,
    "'re": 12432,
    "anybody": 12087,
    "Ġplun": 6283,
    "crowning": 25749,
    "jur": 17580,
    "income": 15489,
    "Ġjoke": 8872,
    "Ġvision": 1582,
    "Ġsuite": 18279,
    "fortun": 3539,
    "Ġloaf": 15876,
    "Ġextant": 18682,
    "Ġgrizzled": 11452,
    "friendship": 24053,
    "iffs": 9025,
    "Ġthroes": 24575,
    "Ġannot": 15606,
    "heading": 5487,
    "Ġimplicated": 24876,
    "Ġpertaining": 18451,
    "cutting": 23787,
    "Ġtragedy": 10670,
    "allies": 14168,
    "hollow": 24044,
    "Ġcyl": 15561,
    "je": 11498,
    "Ġideal": 13125,
    "Ġfurn": 3709,
    "Ġinh": 10826,
    "Ġdaugh": 2291,
    "seated": 11675,
    "ets": 1159,
    "Ġstat": 1491,
    "Ġgurg": 15677,
    "unwilling": 14064,
    "iture": 5696,
    "trained": 4240,
    "ifferent": 4263,
    "pil": 15411,
    "Ġharmless": 9968,
    "Ġponder": 6819,
    "af": 2374,
    "clair": 18935,
    "Ġerection": 24004,
    "imodal": 17450,
    "Ġsolitudes": 22889,
    "embraces": 25806,
    "Ġalthough": 4151,
    "Ġgreece": 17070,
    "Ġattribute": 16104,
    "Ġinaudible": 21502,
    "Ġlodges": 19503,
    "mped": 16650,
    "Ġointment": 21329,
    "Ġfonder": 17882,
    "satisfaction": 9995,
    "ilder": 15717,
    "Ġmediterranean": 12319,
    "Ġmarked": 4620,
    "Ġrattler": 24998,
    "Ġscal": 1535,
    "Ġtreacherous": 13558,
    "Ġfeast": 10280,
    "Ġbows": 4084,
    "Ġwander": 9034,
    "cating": 20804,
    "Ġmissionary": 25697,
    "Ġprepar": 7897,
    ".)": 6784,
    "Ġeyelashes": 26107,
    "Ġcoarsely": 25830,
    "blunder": 24131,
    "Ġconvict": 23748,
    "Ġattention": 1185,
    "rel": 3753,
    "Ġbishop": 13905,
    "use": 2535,
    "Ġsoda": 25535,
    "medium": 23640,
    "Ġceasing": 23760,
    "Ġlanguid": 14216,
    "Ġcongratulatory": 19770,
    "Ġgross": 11628,
    "Ġslew": 23386,
    "Ġunche": 23431,
    "ording": 9767,
    "Ġhansom": 13668,
    "Ġjuggl": 20441,
    "back": 2017,
    "steering": 16638,
    "Ġnocturn": 18376,
    "Ġacross": 1329,
    "putation": 7625,
    "Ġhaunted": 10256,
    "ises": 3654,
    "Ġtarn": 21161,
    "Ġanomalously": 25639,
    "Ġplayful": 19239,
    "often": 6167,
    "Ġinserting": 19908,
    "Ġpositively": 13035,
    "emph": 21932,
    "omet": 3075,
    "Ġashamed": 6404,
    "Ġhor": 1659,
    "in": 262,
    "Ġsurpasses": 25269,
    "Ġschoolboys": 24481,
    "Ġmeeting": 5193,
    "smitten": 23912,
    "Ġhungry": 10535,
    "resnet": 4070,
    "byter": 16216,
    "Ġcold": 3033,
    "iom": 20917,
    "Ġmax": 2007,
    "Ġexpensive": 12922,
    "achines": 1722,
    "Ġruled": 22790,
    "iet": 1773,
    "Ġdat": 502,
    "Ġdomin": 10465,
    "Ġaffl": 14389,
    "Ġincorporate": 20457,
    "Ġadventurous": 16735,
    "Ġhay": 11608,
    "Ġdisplay": 6429,
    "Ġbounce": 21396,
    "Ġwhereupon": 14297,
    "Ġbrew": 23347,
    "Ġfing": 3756,
    "nourished": 26400,
    "Ġquarrels": 16569,
    "ureau": 10229,
    "Ġbowlines": 19324,
    "Ġvows": 15812,
    "Ġpreparing": 8651,
    "alescence": 15926,
    "C": 39,
    "Ġgirdled": 19161,
    "Ġobviously": 16812,
    "atered": 22013,
    "ques": 2843,
    "Ġtimidity": 24688,
    "Ġtire": 17722,
    "Ġsuggests": 12205,
    "rary": 4576,
    "venge": 4659,
    "hedge": 22503,
    "bestowed": 12230,
    "Ġsadness": 13291,
    "Ġsqualls": 17022,
    "feren": 767,
    "Ġstrangely": 5677,
    "Ġgreeks": 20016,
    "uguese": 20734,
    "Ġintroduction": 8973,
    "Ġostens": 25276,
    "Ġcentre": 5123,
    "Ġextremities": 19197,
    "Ġwarehouses": 20421,
    "Ġscruple": 25051,
    "Ġhalts": 3161,
    "Ġinquirer": 24964,
    "Ġshortly": 6198,
    "Ġignorant": 5344,
    "Ġconvivial": 16550,
    "Ġencoun": 4513,
    "Ġrecovered": 5481,
    "wreck": 21139,
    "Ġmug": 21315,
    "Ġinjured": 9042,
    "Ġlogits": 3451,
    "ilt": 2969,
    "Ġwakes": 11575,
    "Ġnormal": 1203,
    "Ġorganically": 3012,
    "violently": 23545,
    "omy": 6250,
    "Ġgate": 6825,
    "Ġpocket": 4899,
    "warks": 5004,
    "Ġlurk": 13387,
    "Ġequ": 1734,
    "ogne": 12945,
    "Ġseren": 7401,
    "Ġgabriel": 7596,
    "forget": 11034,
    "tawn": 21083,
    "Ġthought": 1094,
    "wid": 10137,
    "ing": 273,
    "Ġfaulty": 14910,
    "Ġlater": 6018,
    "Ġmishap": 20579,
    "baby": 25516,
    "Ġensures": 3056,
    "shazz": 14243,
    "Ġnow": 693,
    "persecut": 22193,
    "Ġdusty": 14928,
    "Ġsermons": 20197,
    "Ĥ": 229,
    "Ġunsettled": 14126,
    "Ġriotous": 20547,
    "Ġprocuring": 16872,
    "acetty": 24464,
    "last": 3805,
    "violence": 16480,
    "Ġorph": 9720,
    "Ġduodecimo": 16769,
    "Ġ78": 19616,
    "Ġmassac": 14739,
    "Ġintelligences": 12836,
    "sme": 17660,
    "Ġspurred": 22152,
    "resc": 21241,
    "Ġnecks": 18182,
    "Ġceased": 6469,
    "onent": 21251,
    "Ġgums": 21614,
    "Ġflights": 24752,
    "bweb": 20793,
    "Ġgates": 10203,
    "Ĩ": 233,
    "Ġneatly": 17018,
    "mmed": 7914,
    "precious": 12077,
    "Ġpert": 22399,
    "Ġnotable": 18223,
    "ĠmanÅĵuv": 18418,
    "blubber": 15240,
    "Ġklan": 23661,
    "metal": 24764,
    "Ġblow": 3374,
    "?--": 15307,
    "anity": 9657,
    "Ġhaz": 12760,
    "âĢĿ]": 21819,
    "Ġbills": 17862,
    "Ġshrouds": 11346,
    "moral": 14804,
    "umb": 3403,
    "ath": 861,
    "Ġretrogress": 23077,
    "Ġanoint": 25538,
    "Ġexcite": 11970,
    "Ġdischarge": 18557,
    "Ġplatonian": 25121,
    "Ġexper": 1319,
    "rifled": 21050,
    "Ġauxiliary": 26420,
    "Ġavoided": 13262,
    "mar": 4338,
    "creature": 5347,
    "Ġkirwin": 8499,
    "brance": 7284,
    "dreaded": 25141,
    "Ġeye": 2279,
    "cruet": 17028,
    "Ġrigged": 16719,
    "stave": 21652,
    "per": 483,
    "Ġmiser": 18704,
    "crowded": 20193,
    "Ġforbear": 17124,
    "Ġthrusts": 24350,
    "Ġdrawing": 3920,
    "adequate": 15207,
    "gled": 10701,
    "leeward": 15214,
    "cstasy": 11447,
    "are": 639,
    "Ġsprawling": 22153,
    "hyp": 15370,
    "Ġwilderness": 14843,
    "remaining": 20223,
    "pipe": 8700,
    "Ġstamped": 13530,
    "ositories": 22267,
    "Ġpunishment": 9959,
    "Ġboyhood": 23758,
    "Ġcopies": 24938,
    "zen": 5140,
    "Ġresol": 2664,
    "borough": 20787,
    "Ġlod": 4043,
    "Ġspiteful": 19525,
    "Ġeasy": 3453,
    "Ġcelebrated": 13598,
    "tic": 8391,
    "Ġpleasing": 6192,
    "odhead": 18120,
    "Ġold": 1057,
    "Ġhabits": 6926,
    "Ġel": 800,
    "Ġmoisture": 12363,
    "Ġinconsist": 17938,
    "ginger": 13167,
    "Ġtones": 8401,
    "erest": 10699,
    "osures": 22264,
    "Ġseventeen": 26212,
    "Ġdevils": 7230,
    "longbourn": 9899,
    "atter": 655,
    "weep": 22687,
    "Ġda": 5150,
    "Ġcompanies": 14559,
    "Ġtexas": 25923,
    "Ġsneezes": 24697,
    "Ġrug": 16162,
    "Ġearn": 3548,
    "Ġaught": 8777,
    "utral": 12668,
    "Ġanguish": 5583,
    "Ġmonday": 6129,
    "ai": 2525,
    "shriek": 20523,
    "Ġwondered": 11127,
    "Ġtheology": 21279,
    "incom": 21184,
    "Ġerror": 1765,
    "H": 44,
    "Ġbutcher": 18272,
    "period": 15906,
    "Ġdevices": 2943,
    "Ġinvestigated": 25387,
    "Ġyonder": 7392,
    "examination": 25479,
    "Ġcatch": 4443,
    "Ġpersist": 16283,
    "nowadays": 22342,
    "Ġconcentration": 25065,
    "subsided": 25832,
    "illating": 22111,
    "Ġmultiplication": 2873,
    "Ġrisk": 8039,
    "thes": 7391,
    "remember": 7262,
    "Ġdignity": 5704,
    "owing": 7602,
    "Ġcubs": 20090,
    "Ġexpired": 18623,
    "Ġphrensy": 25127,
    "ĕ": 214,
    "kins": 7345,
    "Ġdoll": 10818,
    "Ġprediction": 2225,
    "Ġwinding": 8236,
    "Ġvitality": 15176,
    "ju": 13744,
    "Ġegg": 8823,
    "whispered": 20037,
    "Ġpersuasion": 10501,
    "Ġnarrowed": 24355,
    "Ġginger": 9213,
    "Ġreef": 10851,
    "adventure": 17236,
    "Ġundulates": 24120,
    "ief": 2045,
    "Ġflour": 8947,
    "benevol": 12231,
    "Ġlances": 6985,
    "Ġphilipses": 24452,
    "refuge": 24733,
    "Ġtucked": 12396,
    "Ġjav": 7902,
    "pardonable": 17220,
    "worn": 13809,
    "Ġtendons": 19811,
    "Ġcapsized": 20093,
    "Ġcake": 12575,
    "wickham": 5885,
    "Ġchival": 14185,
    "mospheric": 17092,
    "Ġconductor": 24010,
    "Ġdefiance": 11070,
    "apparatus": 26565,
    "Ġ81": 24457,
    "cont": 2921,
    "Ġfasc": 12603,
    "mmar": 953,
    "Ġemm": 18005,
    "Ġcrystall": 20229,
    "Ġmonogram": 26576,
    "Ġexisted": 15757,
    "omas": 12676,
    "ured": 1652,
    "mant": 20967,
    "Ġagain": 812,
    "woods": 13423,
    "Ġcomprising": 16072,
    "Ġfruitless": 25606,
    "Ġboundless": 10498,
    "Ġsul": 7570,
    "Ġenormous": 5609,
    "É": 138,
    "au": 778,
    "Ġspeakest": 23487,
    "Ġsuddenly": 2645,
    "unning": 4495,
    "ial": 410,
    "Ġreputation": 11643,
    "Ġowe": 8115,
    "around": 12606,
    "arled": 21425,
    "Ġremonstr": 16166,
    "distraction": 24203,
    "Ġsilence": 3269,
    "comfortable": 7320,
    "conduct": 11801,
    "Ġoverwrites": 5033,
    "ancho": 4938,
    "Ġlim": 2378,
    "Ġ15": 9327,
    "neys": 23584,
    "philosophy": 13584,
    "Ġfath": 7364,
    "ĠâĢľâĢĺ_": 25114,
    "icable": 6389,
    "Ġcalculated": 4477,
    "usions": 6161,
    "architect": 22895,
    "inction": 6663,
    "Ġmien": 17810,
    "Ġeagerly": 4990,
    "ops": 5248,
    "division": 20052,
    "isition": 11589,
    "Ġprofit": 14587,
    "Ġislets": 21805,
    "Ġcakes": 13887,
    "snow": 10726,
    "Ġ**": 4721,
    "inition": 11559,
    "pans": 13773,
    "Ġinmost": 17933,
    "coff": 9112,
    "Ġspar": 10923,
    "illings": 14145,
    "ley": 1815,
    "Ġtep": 21164,
    "riving": 21930,
    "Ġjacobians": 2894,
    "wood": 5899,
    "Ġcirculation": 16420,
    "Ġmak": 10780,
    "Ġapparelled": 20440,
    "rents": 5310,
    "Ġlaunched": 14929,
    "Ġwindibank": 7257,
    "Ġretrieval": 10677,
    "hereditary": 26421,
    "Ġdeg": 3282,
    "mount": 9132,
    "Ġhorse": 4725,
    "opposition": 24820,
    "Ġstirs": 14920,
    "Ġecl": 18008,
    "Ġshroud": 6484,
    "Ġtravel": 5954,
    "blasted": 20192,
    "Ġprocedural": 12035,
    "ineas": 15825,
    "agings": 18168,
    "Ġawe": 7148,
    "Ġprom": 1528,
    "ials": 11710,
    "Ġpacifics": 24373,
    "Ġfejee": 18355,
    "Ġrespectively": 23251,
    "hyme": 19612,
    "atlantic": 15527,
    "Ġworaciousness": 22932,
    "Ġgranite": 22812,
    "Ġscuff": 15947,
    "Ġthrees": 23404,
    "omach": 11637,
    "miles": 10714,
    "Ġhanover": 20589,
    "Ġthus": 2036,
    "nantucketer": 24975,
    "Ġrebounds": 25968,
    "Ġbreat": 3461,
    "Ġthinking": 4031,
    "Ġtravels": 11931,
    "Ġages": 7029,
    "Ġstating": 15729,
    "Ġportentous": 15233,
    "Ġsuccess": 3611,
    "fairly": 17222,
    "Ġbrist": 14381,
    "Ġnavies": 16902,
    "anean": 7443,
    "Ġnat": 12650,
    "Ġloitered": 26527,
    "hated": 17563,
    "26": 10076,
    "Ġexcepting": 14682,
    "Ġneutral": 12746,
    "Ġwo": 3651,
    "oil": 7805,
    "Ġdeft": 21841,
    "Ġchaos": 17011,
    "Ġundaunted": 24121,
    "Ġlustrous": 20159,
    "Ġparliament": 18303,
    "Ġspat": 2663,
    "empty": 23636,
    "Ġbrine": 18771,
    "Ġhappened": 3712,
    "Ġinvis": 6902,
    "unnatural": 15777,
    "lipped": 16220,
    "Ġday": 958,
    "Ġfoundling": 22973,
    "Ġlam": 21552,
    "Ġruggedness": 26270,
    "irmed": 9242,
    "correspond": 13402,
    "Ġcongreg": 8464,
    "Ġfreshness": 23991,
    "Ġunch": 18240,
    "²": 115,
    "prevent": 11799,
    "Ġuniform": 2223,
    "alot": 15630,
    "Ġdependen": 1829,
    "Ġundertone": 23242,
    "omp": 2470,
    "glit": 23853,
    "Ġsimplest": 16337,
    "Ġcoverage": 4289,
    "bud": 10686,
    "ĠĠĠĠĠĠĠĠĠĠĠĠĠĠĠĠĠĠĠĠĠĠĠĠĠĠĠĠĠ": 19702,
    "Ġincognita": 26553,
    "Ġrates": 1404,
    "Ġign": 8295,
    "possess": 5985,
    "nervous": 16280,
    "Ġcherished": 10593,
    "Ġadorn": 12797,
    "Ġglimmered": 20174,
    "Ġdisappearing": 22537,
    "latitudes": 17199,
    "Ġelderly": 13498,
    ")": 13,
    "visual": 24225,
    "Ġdesist": 16240,
    "Ġgaol": 19570,
    "Ġonce": 1492,
    "Ġalike": 8147,
    "Ġmanhood": 22330,
    "arest": 4005,
    "Ġunwell": 22021,
    "Ġinco": 14262,
    "Ġsell": 7825,
    "thinks": 16644,
    "Ġperpet": 7645,
    "Ġheave": 7600,
    "honour": 13471,
    "distinction": 19574,
    "Ġdozen": 8186,
    "Ġspasmod": 12418,
    "most": 1257,
    "Ġhideous": 5984,
    "Ġplanisp": 24062,
    "Ġrespons": 2682,
    "sex": 12718,
    "touched": 15442,
    "sincere": 16909,
    "Ġstow": 21737,
    "anim": 6523,
    "Ġsurmount": 20004,
    "ourable": 4967,
    "Ġflowers": 8943,
    "atived": 21265,
    "Ġdownstream": 3773,
    "Ġfloats": 9416,
    "Ġretreat": 6071,
    "Ġblacksmiths": 19875,
    "fer": 1931,
    "Ġpropont": 16353,
    "liked": 10511,
    "Ġcompass": 4411,
    "Ġvibrated": 25048,
    "Ġshone": 7404,
    "Ġoversampling": 20519,
    "Ġevangelical": 25507,
    "star": 12677,
    "Ġfurrow": 22817,
    "vial": 17699,
    "Ġfiends": 14831,
    "Ġspades": 12804,
    "Ġfists": 15587,
    "Ġinsect": 12641,
    "Ġlent": 21550,
    "Ġdivergence": 2727,
    "irra": 15789,
    "Ġnearest": 8472,
    "Ġsummits": 14685,
    "Ġpott": 21470,
    "Ġhandwriting": 14322,
    "Ġpronouncing": 16971,
    "regard": 7974,
    "Ġprodigy": 19795,
    "ctors": 21593,
    "Ġbattering": 13904,
    "Ġprofited": 19193,
    "Ġconsistence": 23359,
    "plumed": 21965,
    "fiery": 13585,
    "derstand": 649,
    "Ġirene": 8445,
    "nihil": 9854,
    "Ġlunacy": 20031,
    "âĢĶâĢĻâĢĿ": 20067,
    "Ġyelling": 18099,
    "attering": 7419,
    "Ġwaterproof": 19090,
    "Ġent": 902,
    "Ġgreatly": 5851,
    "Ġblotted": 20220,
    "preserve": 25304,
    "joint": 24012,
    "luc": 9755,
    "Ġclifford": 22360,
    "Ġ199": 3009,
    "Ġinfirmity": 26299,
    "7": 27,
    "Ġinvoluntary": 18768,
    "erated": 21273,
    "Ġindividually": 22960,
    "Ġcommunion": 19009,
    "Ġwounded": 8661,
    "ma": 1150,
    "acon": 10684,
    "ribute": 7225,
    "Ġwarm": 2422,
    "Ġperches": 18449,
    "Ġsocket": 12794,
    "Ġproved": 4885,
    "Ġjail": 22298,
    "Ġshunned": 17296,
    "Ġscant": 22289,
    "Ġbreathlessly": 24283,
    "Ġtelegram": 15227,
    "Ġfade": 21410,
    "Ġcompression": 18148,
    "Ġgone": 2107,
    "Ġinsens": 8277,
    "Ġparting": 9786,
    "Ġwalking": 4326,
    "Ġvales": 21950,
    "elder": 21575,
    "tend": 17676,
    "Ġmant": 9650,
    "condite": 23249,
    "Ġpredict": 670,
    "Ġswitching": 23060,
    "Ġlivid": 14992,
    "Ġpresumed": 10547,
    "Ġcomparable": 24281,
    "Ġaglow": 22517,
    "tained": 4408,
    "hid": 13737,
    "inously": 21189,
    "oldened": 22642,
    "âĢĶâĢĺ_": 24832,
    "Ġfanciful": 24787,
    "Ġglaring": 11912,
    "ignant": 11131,
    "icy": 6142,
    "Ġtraced": 10386,
    "could": 2874,
    "Ġfabric": 25948,
    "Ġimperson": 14221,
    "Ġburke": 19253,
    "Ġaverred": 18866,
    "Ġmortal": 4682,
    "Ġdromed": 15603,
    "Ġpains": 5966,
    "Ġalterations": 19873,
    "Ġthrob": 21521,
    "ermaid": 14299,
    "nesday": 8706,
    "diligence": 26111,
    "Ġadaptation": 3158,
    "Ġ1": 1017,
    "plings": 11701,
    "guessed": 25873,
    "driver": 14924,
    "acknowledging": 25477,
    "Ġunsupp": 22025,
    "Ġ1894": 5196,
    "cannibal": 15228,
    "Ġpharaoh": 26587,
    "Ġpenny": 16317,
    "isc": 6241,
    "Ġwatch": 2743,
    "bers": 2569,
    "Ġfurnished": 6476,
    "pretending": 17042,
    "Ġlakes": 8131,
    "Ġoutstretched": 14198,
    "aunted": 20772,
    "Ġlouisiana": 25079,
    "biscuit": 17503,
    "Ġindiscriminately": 20630,
    "Ġtragedies": 25242,
    "movable": 14327,
    "Ġwitt": 17785,
    "Ġ2": 2931,
    "Ġprojecting": 9988,
    "Ġpatience": 2644,
    "Ġobedient": 20108,
    "dismay": 19156,
    "Ġhatchet": 16532,
    "Ġinsignific": 13184,
    "dried": 20829,
    "Ġbiscuit": 12594,
    "ari": 673,
    "Ġdistances": 22507,
    "Ġirrevoc": 15041,
    "spir": 5738,
    "Ġbravest": 23844,
    "Ġcontempl": 6703,
    "Ġrose": 3444,
    "Ġlabeled": 3717,
    "Ġcounterpane": 11345,
    "pump": 21019,
    "died": 11482,
    "Ġdecent": 10980,
    "agony": 14072,
    "Ġadversity": 24305,
    "Ġfarmhouse": 24987,
    "buoy": 7761,
    "Ġintrig": 21994,
    "Ġpioneer": 17919,
    "Ġlegitimate": 20644,
    "meeting": 11021,
    "oub": 1632,
    "Ġdisappeared": 5645,
    "Ġrig": 4226,
    "Ġtremendous": 8353,
    "Ġgouldings": 26189,
    "Ġrecollected": 8311,
    "society": 9975,
    "wonders": 17146,
    "Ġwonders": 7500,
    "Ġtask": 1310,
    "being": 3916,
    "finding": 17015,
    "Ġlanterns": 24578,
    "health": 13836,
    "Ġcumberland": 21358,
    "subst": 12169,
    "Ġescaping": 13139,
    "simultaneously": 19866,
    "Ġcount": 1814,
    "Ġmis": 917,
    "ifiable": 18166,
    "wish": 8100,
    "Ġglo": 1712,
    "acled": 16085,
    "Ġvest": 8163,
    "ham": 1701,
    "ause": 1313,
    "alarmed": 21506,
    "uring": 817,
    "Ġparlour": 12325,
    "Ġshivering": 10268,
    "Ġoaks": 16935,
    "Ġhall": 4184,
    "occasion": 7754,
    "ipher": 18428,
    "rog": 15644,
    "Ġimplements": 2484,
    "Ġstrikes": 13185,
    "everybody": 8614,
    "Ġflowery": 16236,
    "love": 9297,
    "Ġsmelt": 16069,
    "Ġexperienced": 6584,
    "incible": 16500,
    "Ġoutermost": 22323,
    "azore": 23464,
    "Ġinvaluable": 10185,
    "why": 2831,
    "ĠĠĠĠĠĠĠĠĠĠĠĠĠĠ": 22567,
    "Ġlandsc": 11148,
    "trees": 10733,
    "Ġstrongly": 5657,
    "Ġ127": 24472,
    "Ġconcerned": 5332,
    "Ġpleasanter": 19067,
    "Ġelaborate": 18637,
    "attending": 18918,
    "probability": 17024,
    "Ġascendency": 20235,
    "Ġdistressing": 12223,
    "americans": 25045,
    "pumps": 21029,
    "Ġacts": 2294,
    "Ġscolding": 15204,
    "good": 2900,
    "Ġeh": 6988,
    "ĠâĢĶâĢľ_": 17720,
    "nut": 12499,
    "Ġsouthampton": 24309,
    "Ġkno": 5242,
    "Ġawaken": 23588,
    "Ġcommonest": 23093,
    "Ġpint": 17909,
    "Ġhidden": 1370,
    "Ġspleen": 26423,
    "Ġdiversity": 25285,
    "apering": 8041,
    "addition": 13388,
    "Ġundertaken": 18987,
    "Ġpeculiarity": 12938,
    "explaining": 23145,
    "Ġfollow": 1396,
    "frame": 17117,
    "Ġepic": 15032,
    "likeness": 19481,
    "Ġleeward": 6212,
    "gul": 12470,
    "enes": 5218,
    "Ġcasual": 11411,
    "board": 3566,
    "Ġforlorn": 14018,
    "Ġwhilst": 9221,
    "Ġrobins": 16262,
    "Ġpersonified": 19180,
    "throw": 14101,
    "Ġboldness": 24428,
    "Ġsperm": 1845,
    "Ġply": 21455,
    "Ġextinguish": 14332,
    "Ġdup": 21435,
    "glow": 20876,
    "Ġsnatch": 14641,
    "spect": 3234,
    "Ġencourag": 1393,
    "Ġcau": 13884,
    "Ġauthorized": 16737,
    "Ġsurp": 9637,
    "Ġspan": 11735,
    "Ġattraction": 18627,
    "ental": 7169,
    "Ġblue": 3455,
    "splinter": 25211,
    "Ġdeclaring": 19423,
    "Ġhumility": 12990,
    "Ġappearance": 3699,
    "doub": 6225,
    "Ġglim": 9347,
    "Ġrobbery": 11923,
    "put": 414,
    "Ġimpelled": 11786,
    "Ġenigmatical": 20600,
    "paused": 17377,
    "Ġperson": 2367,
    "atics": 15526,
    "han": 12477,
    "Ġrights": 10399,
    "mai": 22916,
    "Ġthoughtlessness": 16197,
    "Ġdiffered": 22714,
    "Ġrefers": 1564,
    "Ġcompare": 9305,
    "approb": 11044,
    "Ġlizzy": 3547,
    "ization": 487,
    "green": 7117,
    "Ġparcel": 15203,
    "Ġtransformed": 22609,
    "Ġiceland": 15150,
    "Ġrebell": 21672,
    "Ġbanks": 6815,
    "W": 59,
    "ream": 2708,
    "Ġdetached": 10282,
    "Ġwithered": 19468,
    "Ġsuppress": 13029,
    "Ġslavish": 23177,
    "Ġdivulged": 16651,
    "insufficient": 15492,
    "Ġunforeseen": 22057,
    "Ġscheming": 23273,
    "acked": 10976,
    "putable": 10903,
    "simply": 20673,
    "labour": 23918,
    "verted": 10220,
    "Ġdistressed": 8517,
    "returning": 12210,
    "luding": 6702,
    "brace": 16944,
    "Ġspool": 24803,
    "parsee": 14513,
    "ļ": 253,
    "Ġpyth": 21463,
    "tumultuous": 20402,
    "Ġunfortunately": 10911,
    "Ġassistant": 7298,
    "pt": 387,
    "Ġunreasonably": 17454,
    "cially": 3490,
    "iqu": 7803,
    "Ġflickering": 23017,
    "protected": 19923,
    "Ġhug": 6980,
    "Ġloadstone": 25817,
    "Ġblubber": 5666,
    "itories": 15553,
    "Ġverdict": 13479,
    "pendicular": 6500,
    "Ġphilips": 5410,
    "Ġsacrificial": 24872,
    "Ġgrief": 4621,
    "Ġbland": 11066,
    "stra": 4046,
    "darkened": 24517,
    "Ġapproving": 18515,
    "inois": 17740,
    "Ġconsisted": 10421,
    "Ġpon": 10178,
    "bowsprit": 16855,
    "Ġpup": 12624,
    "Ġcaps": 8416,
    "Ġcompiled": 22574,
    "train": 2034,
    "Ġdesign": 4132,
    "Ġoverpowering": 15253,
    "Ġant": 4348,
    "ilet": 12834,
    "Ġpuzz": 5533,
    "Ġangle": 8606,
    "Ġalpha": 13592,
    "Ġbundles": 26176,
    "Ġaccused": 8510,
    "son": 2329,
    "Ġpermanent": 13635,
    "Ġprompt": 3191,
    "smoke": 17225,
    "Ġbetray": 7442,
    "Ù": 154,
    "christmas": 20258,
    "gments": 12474,
    "Ġlittle": 865,
    "Ġmodular": 12819,
    "Ġpensive": 21477,
    "reward": 15512,
    "Ġanimals": 8981,
    "fainting": 20476,
    "roqu": 21537,
    "Ġpreservative": 24630,
    "culous": 11142,
    "Ġidolator": 20001,
    "Ġshape": 5639,
    "Ġenhance": 2770,
    "Ġlanding": 11989,
    "Ă": 195,
    "decease": 25557,
    "Ġjones": 7204,
    "Ġspasmodic": 20401,
    "training": 2516,
    "mare": 17601,
    "Ġcollateral": 20075,
    "Ġmutter": 23957,
    "Ġunsav": 18252,
    "Ġimpetuously": 20375,
    "Ġhelmeted": 19691,
    "Ġfriday": 14490,
    "Ġtex": 15475,
    "Ġsignals": 10588,
    "Ġ156": 20173,
    "Ġsatire": 22903,
    "Ġhearts": 4972,
    "Ġstudying": 9851,
    "Ġuninjured": 22060,
    "Ġdimin": 3874,
    "Ġfreshets": 25705,
    "icism": 13959,
    "Ġphotography": 24684,
    "har": 20892,
    "remained": 8573,
    "Ġscuttle": 7414,
    "alty": 17941,
    "deed": 1520,
    "Ġproportionate": 17044,
    "Ġtur": 2563,
    "settled": 10509,
    "Ġvoracity": 25987,
    "forster": 16167,
    "Ġivory": 4478,
    "Ġfireside": 23534,
    "Ġthrone": 12218,
    "Ġbustle": 17230,
    "Ġorbs": 22096,
    "Ġvulgarity": 25364,
    "Ġdig": 6137,
    "Ġtalents": 15047,
    "Ġdescrib": 2718,
    "follow": 5680,
    "gings": 7549,
    "Ġnecessitated": 23932,
    "mess": 13756,
    "Ġproviding": 1357,
    "herent": 2528,
    "antee": 22101,
    "Ġenhancement": 23675,
    "Ġnevertheless": 5040,
    "Ġsepar": 4000,
    "meal": 22716,
    "Ġthack": 21520,
    "sen": 21052,
    "Ġ117": 19700,
    "itzerland": 9998,
    "pard": 9621,
    "Ġstretch": 6994,
    "eg": 17531,
    "Ġelbow": 12926,
    "forward": 2186,
    "Ġrattled": 15070,
    "illuminated": 17456,
    "Ġeffectual": 18734,
    "Ġmod": 486,
    "Ġlocker": 16913,
    "Ġdifferent": 1428,
    "Ġblinds": 8007,
    "Ġconstrued": 26302,
    "Ġoxen": 19954,
    "willing": 6594,
    "Ġwhat": 599,
    "Ġrescue": 13347,
    "wearing": 22690,
    "Ġknighthood": 25298,
    "iracle": 11246,
    "Ġantagon": 19553,
    "Ġclassifies": 11842,
    "Ġbacked": 12931,
    "Ġadmirable": 8269,
    "Ġlaughing": 5339,
    "Ġspirits": 3697,
    "Ġgips": 10843,
    "Ġthirst": 7590,
    "disposed": 25013,
    "amaz": 21848,
    "Ġpiercing": 13497,
    "ie": 728,
    "dance": 17521,
    "Ġtrust": 4080,
    "Ġsand": 6237,
    "Ġsinews": 20290,
    "Ġcorpor": 23042,
    "Ġpertin": 18450,
    "expression": 10550,
    "alt": 12643,
    "ous": 477,
    "Ġarchbishop": 18718,
    "Ġsincerity": 13682,
    "penny": 22948,
    "Ġtyph": 10011,
    "Ġbeau": 9227,
    "Ġpattern": 1379,
    "Ġswarm": 23057,
    "oblivious": 26584,
    "Ġhull": 5446,
    "Ġnaught": 8128,
    "Ġinsincere": 26601,
    "uated": 10134,
    "surrounded": 26089,
    "his": 1413,
    "Ġconfession": 11237,
    "Ġoutright": 18414,
    "Ġfren": 10807,
    "Ġoffended": 7042,
    "Ġpeople": 2543,
    "Ġbottomless": 12111,
    "Ġgreedily": 18965,
    "Ġbounds": 9921,
    "dropout": 3199,
    "Ġseize": 8166,
    "Ġhempen": 13554,
    "Å": 134,
    "buckets": 26124,
    "Ġapprehended": 26091,
    "Ġserviceable": 24717,
    "Ġsubterr": 10351,
    "Ġbrightened": 23832,
    "Ġmass": 3779,
    "oky": 8198,
    "Ġunspeak": 8854,
    "Ġhorsey": 24252,
    "scand": 18857,
    "Ġtastes": 15480,
    "approbation": 11460,
    "Ġmanifold": 13564,
    "Ġestim": 3347,
    "isms": 12585,
    "inex": 14095,
    "waving": 21134,
    "Ġhid": 1318,
    "gates": 20874,
    "Ġpack": 5444,
    "Ġliterature": 17151,
    "Ġegot": 18010,
    "Ġslouched": 13064,
    "midnight": 14905,
    "Ġenemy": 5605,
    "Ġsmiled": 5942,
    "Ġmassacre": 20550,
    "Ġconfidential": 9091,
    "Ġremarks": 7473,
    "history": 15017,
    "igators": 18047,
    "Ġtiles": 17728,
    "Ġslit": 13062,
    "Ġnovelist": 24776,
    "visible": 10536,
    "Ġmounted": 7832,
    "invincible": 25092,
    "Ġraise": 6168,
    "combination": 25487,
    "rock": 15645,
    "Ġlitter": 19832,
    "cour": 4481,
    "Ġsenor": 20153,
    "Ġconcealment": 16916,
    "Ġshud": 5461,
    "Ġmost": 1021,
    "vellers": 16676,
    "Ġrecollecting": 17114,
    "ress": 929,
    "Ġrepentance": 15164,
    "Ġsunshine": 14496,
    "exc": 5169,
    "Ġhussey": 7725,
    "lestrade": 9659,
    "Ġsailed": 4890,
    "breath": 15166,
    "Ġminimizes": 2046,
    "Ġrealities": 18982,
    "?_âĢĿ": 12320,
    "mangled": 20983,
    "snatched": 24851,
    "Ġamusing": 11804,
    "borean": 25744,
    "Ġuncivil": 11157,
    "Ġgratified": 8021,
    "uvian": 12247,
    "Ġsticks": 14934,
    "Ġcleaving": 23185,
    "ored": 3898,
    "Ġnieces": 8434,
    "Ġrevers": 21667,
    "consolatory": 25307,
    "Ġtraverse": 18893,
    "whalemen": 10433,
    "Ġdictating": 20155,
    "Ġfishe": 15590,
    "Ġleviathanic": 12085,
    "ulties": 12906,
    "Ġcasement": 25095,
    "uer": 21103,
    "Ġpitch": 5767,
    "Ġprevailed": 7778,
    "Ġearl": 7676,
    "elson": 16377,
    "Ġhovered": 12636,
    "Ġpiping": 23223,
    "Ġuncommonly": 7760,
    "Ġpupp": 10822,
    "_.âĢĻâĢĿ": 17482,
    "Ġendeavouring": 8035,
    "deserted": 19344,
    "Ġsavage": 4011,
    "Ġupbra": 22158,
    "Ġyore": 21782,
    "Ġhappier": 10362,
    "Ġpenalty": 1843,
    "Ġhenceforth": 19645,
    "Ġtropical": 17066,
    "Ġacquit": 18899,
    "Ġillum": 9403,
    "omely": 21642,
    "est": 500,
    "Ġincl": 4272,
    "penetrating": 25491,
    "Ġbrows": 13305,
    "ushed": 2972,
    "Ġstammered": 26201,
    "Ġcomparing": 14267,
    "Ġjelly": 22304,
    "Ġbutt": 14128,
    "warrior": 24797,
    "your": 1983,
    "Ġexceptionable": 25504,
    "Ġalche": 21787,
    "ivened": 22970,
    "impul": 16558,
    "iple": 4807,
    "elve": 4642,
    "gerine": 22891,
    "Ġhipp": 21495,
    "erect": 20850,
    "Ġprey": 6416,
    "difference": 13711,
    "promontory": 24727,
    "Ġamateur": 22489,
    "Ġsmooth": 2781,
    "tons": 7559,
    "Ġpursuing": 9441,
    "Ġgour": 21601,
    "Ġinflexibly": 26372,
    "Ġcheap": 13093,
    "54": 15303,
    "Ġshri": 5375,
    "Ġreserves": 19673,
    "humiliation": 24024,
    "Ġaffect": 1386,
    "Ġundulations": 19518,
    "fourth": 11330,
    "Ġdawned": 14997,
    "erve": 12554,
    "Ġdisputes": 25826,
    "Ġgirl": 3086,
    "0": 20,
    "Ġmuttering": 10502,
    "Ġdistrustful": 25057,
    "Ġlook": 880,
    "Ġextracting": 11106,
    "Ġcorroded": 18877,
    "Ġcandelab": 23852,
    "Ġcents": 17830,
    "liter": 11504,
    "evil": 11488,
    "Ġtenants": 23549,
    "Ġ25": 13198,
    "Ġalexander": 17427,
    "Ġdanger": 3520,
    "Ġfoul": 7160,
    "embers": 21933,
    "Ġtyphoon": 12393,
    "Ġprodu": 1205,
    "rimin": 2420,
    "Ġkeep": 2355,
    "Ġindifferent": 6176,
    "://": 11467,
    "dischar": 19155,
    "alcul": 15632,
    "aper": 4999,
    "Ġfanning": 23393,
    "Ġ64": 24367,
    "Ġhark": 8429,
    "pole": 9336,
    "Ġspiritual": 9933,
    "iful": 2883,
    "Ġenlivened": 26209,
    "Ġslice": 23164,
    "agged": 9240,
    "Ġsupplied": 8946,
    "Ġshown": 5159,
    "Ġungod": 22028,
    "Ġfalsely": 20585,
    "Ġaspects": 4174,
    "Ġcandour": 14675,
    "Ġacres": 14316,
    "Ġabstraction": 26541,
    "Ġsigh": 10339,
    "Ġfuriously": 9805,
    "laden": 14932,
    "game": 11493,
    "shortly": 12263,
    "Ġdetestable": 15102,
    "Ġscientific": 6857,
    "gabriel": 15364,
    "Ġnodding": 23339,
    "Ġgown": 10204,
    "Ġpeered": 18669,
    "commer": 22821,
    "Ġmo": 628,
    "Ġinboard": 17935,
    "insurance": 18888,
    "Ġernest": 8720,
    "Ġtherefore": 2236,
    "Ġburtons": 19255,
    "esc": 618,
    "completely": 12424,
    "Ġmaria": 7126,
    "Ġdevotees": 25377,
    "ders": 8075,
    "Ġlowering": 7987,
    "Ġcoron": 4466,
    "dri": 5889,
    "iving": 1725,
    "Ġmeantime": 6208,
    "Ġsnail": 19302,
    "Ġdiscerned": 25006,
    "ollen": 11300,
    "inities": 21188,
    "Ġpirates": 9076,
    "Ġcompar": 4771,
    "Ġgay": 5535,
    "Ġgraphs": 25464,
    "Ġdef": 1201,
    "revealed": 20419,
    "lover": 18537,
    "Ġplanks": 5563,
    "aught": 2678,
    "Ġghast": 9212,
    "Ġpred": 664,
    "Ġflourish": 17163,
    "Ġreserved": 7515,
    "ĠĠĠĠĠĠĠĠĠĠĠĠĠĠĠĠĠĠĠĠĠĠĠĠĠĠĠĠĠĠĠĠ": 2737,
    "ote": 4597,
    "sword": 10728,
    "emorial": 10246,
    "Ġresounded": 22548,
    "Ġaffronted": 22897,
    "Ġfeatures": 1432,
    "solved": 7685,
    "Ġtrunk": 7205,
    "Ġshaggy": 13574,
    "Ġsatisfy": 6912,
    "Ġinclined": 6625,
    "Ġloft": 5642,
    "wind": 4253,
    "Ġdecayed": 22829,
    "icide": 11621,
    "Ġbonds": 17871,
    "Ġwishes": 4796,
    "bastian": 10676,
    "know": 2318,
    "Ġperil": 5557,
    "Ġmoonshine": 19600,
    "Ġsurprise": 3832,
    "Ġoutlast": 22317,
    "Ġeverlasting": 9340,
    "edd": 1211,
    "aciously": 12912,
    "Ġisinglass": 21806,
    "Ġhapless": 15816,
    "Ġsleepless": 14584,
    "Ġphil": 3385,
    "Ġconveys": 16857,
    "Ġscound": 12838,
    "Ġknocked": 9503,
    "onian": 17769,
    "batt": 20780,
    "Ġarmed": 9263,
    "Ġfull": 2177,
    "opÃ¦": 12877,
    "Ġupward": 9724,
    "arying": 9804,
    "Ġdemonstrate": 24997,
    "chants": 21695,
    "utted": 15665,
    "Ġdegree": 3703,
    "Ġborn": 5224,
    "venant": 22628,
    "hauteur": 26393,
    "Ġthird": 4187,
    "many": 5251,
    "Ġadjust": 2154,
    "Ġresolutely": 14611,
    "Ġconsternation": 9862,
    "Ġsecurity": 8980,
    "Ġgain": 4829,
    "Ġembarks": 22962,
    "Ġburned": 8634,
    "Ġsticking": 13431,
    "note": 14344,
    "sympathy": 20545,
    "ppers": 7618,
    "Ġafter": 870,
    "Ġoverpow": 14210,
    "Ġderive": 10397,
    "romising": 18234,
    "/(": 2982,
    "Ġebb": 21625,
    "consciousness": 13370,
    "Ġunimaginable": 15250,
    "Ġtablets": 13159,
    "Ġcoolness": 16888,
    "ģ": 228,
    "Ġstructure": 831,
    "Ġpainful": 6463,
    "Ġfoster": 18991,
    "approach": 24834,
    "Ġvapor": 8703,
    "Ġunsounded": 15853,
    "Ġacid": 22685,
    "rador": 19129,
    "Ġlongest": 18629,
    "sounded": 12271,
    "ospit": 22266,
    "orus": 10803,
    "Ġexotic": 21835,
    "commission": 22822,
    "Ġofficially": 24839,
    "Ġfluid": 11214,
    "Ġuniverse": 14127,
    "Ġhatred": 8612,
    "Ġchances": 9266,
    "consider": 6350,
    "cary": 10693,
    "intolerable": 22941,
    "ahawk": 23321,
    "izens": 18138,
    "Ġexpon": 968,
    "Ġmanhandle": 22333,
    "Ġinquiring": 9002,
    "aet": 15311,
    "stige": 21664,
    "Ġnantucketer": 6914,
    "Ġthigh": 10189,
    "rod": 10833,
    "Ġfellows": 8257,
    "lingering": 18602,
    "Ġinsanity": 12051,
    "Ġ103": 24411,
    "ulgent": 18152,
    "Ġliver": 14230,
    "sartain": 25623,
    "bound": 6222,
    "Ġequilib": 4136,
    "Ġfervour": 19729,
    "Ġcallest": 17834,
    "bourne": 19104,
    "Ġglimmering": 25241,
    "Ġtrailing": 23083,
    "Ġstr": 761,
    "Ġinheritance": 25356,
    "âĢĶ.âĢĿ": 22259,
    "Ġsoothe": 7405,
    "Ġvacancy": 9047,
    "ounder": 11748,
    "fav": 6649,
    "claims": 25320,
    "Ġapology": 8328,
    "ift": 1603,
    "ede": 21509,
    "Ġbleak": 10561,
    "Ġstaving": 21744,
    "Ġmiscellaneous": 17465,
    "Ġuncertain": 4068,
    "Ġperu": 14225,
    "enances": 10156,
    "Ġminuteness": 19140,
    "Ġwelded": 9574,
    "slee": 17171,
    "Ġbud": 10171,
    "Ġlengthwise": 10454,
    "Ġladen": 19179,
    "ro": 301,
    "Ġbusy": 6191,
    "ember": 1955,
    "Ġoutputs": 2887,
    "bows": 10084,
    "Ġamaz": 5385,
    "Ġaristotle": 25818,
    "Ġspring": 4121,
    "amplified": 26496,
    "irons": 10241,
    "Ġorders": 5341,
    "Ġdivers": 9668,
    "Ġfem": 6136,
    "igan": 21701,
    "marriage": 7745,
    "Ġmidst": 7986,
    "Ġ]": 15462,
    "Ġsubmerged": 11876,
    "pardon": 10068,
    "Ġblaming": 22933,
    "chest": 11210,
    "unbidden": 21898,
    "Ġdrinks": 24282,
    "everything": 6326,
    "Ġcorn": 9353,
    "grace": 5847,
    "Ġslides": 18941,
    "uding": 16152,
    "Ġgould": 17992,
    "Ġrely": 8825,
    "Ġpencils": 23198,
    "Ġaffright": 9335,
    "Ġbut": 424,
    "Ġimpass": 15989,
    "Ġdarker": 13124,
    "Ġsteamer": 17191,
    "Ġenjoined": 18192,
    "Ġfro": 3473,
    "Ġmildly": 9032,
    "Ġheart": 1591,
    "Ġpotent": 12068,
    "?âĢĻ": 2639,
    "Ġblend": 14402,
    "Ġwrists": 11115,
    "Ġindel": 13009,
    "Ġtrack": 7450,
    "Ġchoicest": 24223,
    "raged": 9214,
    "Ġstates": 1854,
    "Ġseat": 4949,
    "Ġme": 351,
    "sockets": 22730,
    "sculptured": 26047,
    "ratches": 20128,
    "Ġpleasantest": 24139,
    "Ġledge": 19404,
    "Ġproprietors": 20189,
    "extreme": 11031,
    "uce": 11538,
    "Ġcondemn": 13448,
    "Ġpumping": 25644,
    "Ġyawned": 15054,
    "boiling": 19001,
    "jer": 12485,
    "Ġoppose": 16521,
    "Ġtook": 1857,
    "Ġchallenge": 25472,
    "Ġeats": 15681,
    "Ġloomed": 12305,
    "Ġexceeding": 1578,
    "Ġsleeps": 10448,
    "aring": 1475,
    "arms": 10175,
    "Ġoctober": 17229,
    "hopeless": 16919,
    "Ġtag": 15471,
    "Ġjust": 1240,
    "Ġcloudy": 19480,
    "Ġfog": 9664,
    "hur": 6651,
    "Ġboone": 11844,
    "ition": 653,
    "ladder": 19787,
    "peleg": 16297,
    "unimportant": 18162,
    "fatality": 25022,
    "itics": 13875,
    "invest": 11562,
    "Ġlizzie": 26464,
    "Ġadmiration": 5329,
    "Ġomn": 8411,
    "wore": 21127,
    "crews": 15045,
    "Ġspit": 22138,
    "Ġded": 2588,
    "thoughts": 9938,
    "Ġdesigned": 7741,
    "Ġhelping": 3268,
    "Ġlarboard": 11011,
    "Ġfollows": 7673,
    "Ġchildhood": 13142,
    "Ġcruisers": 25864,
    "Ġbeyond": 2455,
    "column": 19331,
    "iration": 4541,
    "Ġhovers": 19080,
    "Ġimprisonment": 22391,
    "Ġsister": 1473,
    "atmosphere": 21267,
    "Ġengineer": 11979,
    "Ġmeant": 3551,
    "Ġrevolved": 9987,
    "Ġflash": 8230,
    "ify": 1512,
    "public": 17648,
    "mell": 20966,
    "Ġcanted": 17833,
    "Ġgroaned": 11268,
    "Ġo": 275,
    "descending": 16288,
    "Ġintensified": 17020,
    "Ġattract": 11838,
    "Ġmile": 7152,
    "Ġfailed": 6674,
    "Ġpreliminary": 10060,
    "Ġmention": 2987,
    "Ġcalves": 13040,
    "Ġgrooves": 16743,
    "slackened": 26095,
    "N": 50,
    "injustice": 17739,
    "ober": 15409,
    "gences": 20879,
    "Ġvehic": 8936,
    "Ġmagg": 18907,
    "Ġtempest": 8213,
    "swear": 16920,
    "awing": 18917,
    "Ġaccepted": 7751,
    "Ġpea": 14320,
    "Ġfragment": 14512,
    "woe": 21138,
    ":âĢĶâĢĺ": 24196,
    "hau": 17564,
    "Ġtopic": 9409,
    "Ġbluff": 16519,
    "connections": 14431,
    "Ġempires": 19077,
    "umbling": 6613,
    "scruple": 26046,
    "Ġwidest": 24237,
    "Ġoverflowing": 17240,
    "ĠĠĠĠ": 460,
    "franch": 24286,
    "Ġcumbrous": 26434,
    "barb": 10083,
    "astonishment": 10033,
    "vice": 15452,
    "Ġthump": 11614,
    "Ġincessant": 15101,
    "Ġcreditor": 24292,
    "Ġproport": 2297,
    "Ġbaptized": 25775,
    "leaped": 17845,
    "Ġlaug": 3628,
    "Ġhaunt": 18198,
    "igning": 12685,
    "Ġearnest": 3932,
    "Ġgur": 21595,
    "mm": 675,
    "ad": 337,
    "Ġmelancholy": 5606,
    "Ġfusion": 21417,
    "Ġbreak": 2870,
    "threatened": 25463,
    "landed": 18957,
    "lies": 15385,
    "condition": 7061,
    "Ġreliability": 22884,
    "Ġrubbed": 12960,
    "Ġmicrosc": 20679,
    "Ġunass": 14117,
    "Ġconcil": 23326,
    "doing": 8588,
    "Ġcity": 4531,
    "fif": 9119,
    "Ġshr": 4227,
    "ibule": 13012,
    "Ġattic": 16102,
    "Ġmartyr": 26362,
    "Ġdistributions": 1052,
    "Ġsurmisings": 26595,
    "Ġlizz": 21560,
    "horner": 23616,
    "Ġcobbling": 20526,
    "Ġw": 272,
    "Ġmes": 17798,
    "atches": 13849,
    "Ġcubic": 20091,
    "Ġmic": 17799,
    "upper": 11541,
    "Ġskirting": 22802,
    "Ġfrantic": 7957,
    "Ġcursed": 6729,
    "Ġpledged": 20690,
    "Ġnotions": 14102,
    "Ġlunging": 24992,
    "Ġprivately": 19526,
    "beyond": 8886,
    "Ġhellaswag": 24343,
    "Ġprotruding": 16661,
    "hack": 20898,
    "Ġmechanism": 2305,
    "Ġtremble": 6906,
    "Ġcoherent": 3264,
    "Ġfoiled": 23247,
    "Ġgrandeur": 8631,
    "Ġslates": 11109,
    "Ġchron": 19441,
    "aggra": 21910,
    "Ġwithdra": 6399,
    "Ġfilial": 16622,
    "Ġgladly": 14683,
    "Ġbohemian": 17136,
    "drab": 23902,
    "ther": 480,
    "Ġrustic": 14968,
    "Ġexceptions": 13234,
    "merit": 19284,
    "Ġhan": 15622,
    "returns": 23141,
    "Ġfright": 3796,
    "Ġless": 1938,
    "Ġbohemia": 10652,
    "kshire": 13749,
    "Ġwarmest": 16486,
    "reng": 4003,
    "ville": 6088,
    "romised": 14115,
    "Ġdodge": 19888,
    "bies": 15316,
    "Ġdesire": 3716,
    "Ġwaldman": 11347,
    "Ġabsor": 8507,
    "Ġegotistical": 26193,
    "Ġbuck": 7158,
    "Ġsuccour": 20438,
    "Ġsentence": 6189,
    "holder": 13287,
    "malicious": 19904,
    "eminence": 20102,
    "Ġdoomed": 11344,
    "Ġmead": 8840,
    "lantic": 6365,
    "mantel": 26396,
    "Ġframed": 19041,
    "Ġrail": 7226,
    "peare": 18913,
    "Ġ94": 17719,
    "Ġlogical": 14489,
    "entrance": 12662,
    "devoted": 20020,
    "neighbours": 24882,
    "Ġforwards": 12708,
    "Ġsoothed": 10032,
    "Ġchemist": 11136,
    "Ġcobbler": 25831,
    "Ġthoughtless": 16196,
    "Ġturner": 7051,
    "travellers": 24339,
    "Ġpleased": 4064,
    "equally": 19901,
    "cater": 20817,
    "Ġsires": 21229,
    "Ġtrade": 2546,
    "asper": 7855,
    "Ġdescend": 7427,
    "Ġrickety": 26508,
    "Ġjulia": 22306,
    "Ġattained": 14081,
    "peculiar": 6886,
    "folding": 24928,
    "Ġazores": 20196,
    "oner": 6126,
    "athy": 14326,
    "beware": 16044,
    "Ġthousand": 2784,
    "Ġanytime": 12890,
    "Ġextended": 7922,
    "Ġinitialization": 1253,
    "Ġvindictive": 20473,
    "Ġmoluccas": 25630,
    "weekly": 25685,
    "Ġramad": 8530,
    "Ġsupre": 10272,
    "Ġhates": 21489,
    "Ġannoyed": 17202,
    "herself": 4891,
    "Ú": 155,
    "enthusiastic": 20695,
    "Ġoverbearing": 12849,
    "Ġsingers": 23774,
    "Ġbrought": 2515,
    "hunted": 16834,
    "Ġforb": 11666,
    "Ġgoing": 2066,
    "bethink": 25745,
    "triumph": 15443,
    "Ġco": 730,
    "Ġadvice": 4902,
    "ela": 21572,
    "Ġricher": 12764,
    "Ġcocoanuts": 26364,
    "Ġcarpenter": 4685,
    "Ġlungless": 24864,
    "Ġlikeness": 11181,
    "Ġsuffice": 18870,
    "reposed": 24492,
    "osis": 18390,
    "Ġtreasure": 9561,
    "Ġdiscoveries": 13363,
    "ivorous": 22083,
    "ordinate": 12880,
    "Ġadditional": 7936,
    "Ġfelt": 1746,
    "Ġcircum": 8258,
    "Ġcrockery": 24303,
    "overlooked": 23328,
    "dis": 2248,
    "rocket": 13947,
    "Ġaries": 21200,
    "Ġforce": 5092,
    "Ġessentials": 20006,
    "talk": 6659,
    "í": 174,
    "mort": 10712,
    "Ġmapple": 11152,
    "alf": 4639,
    "middle": 11312,
    "Ġsafe": 5103,
    "movement": 25578,
    "Ġbegins": 7244,
    "Ġcrawled": 17045,
    "Ġdens": 21432,
    "ernation": 8212,
    "Ġpanegyric": 26451,
    "Ġmist": 2878,
    "ob": 1421,
    "Ġpres": 9735,
    "Ġpand": 21457,
    "Ġsequential": 2132,
    "hy": 4740,
    "revival": 26163,
    "pair": 21014,
    "Ġcompl": 3758,
    "Ġcynicism": 25772,
    "wondrous": 12342,
    "Ġcontents": 7210,
    "objects": 13474,
    "Ġastonishment": 4795,
    "iction": 4269,
    "ations": 710,
    "sam": 21054,
    "Ġconfidently": 24958,
    "Ġformation": 2945,
    "Ġscorching": 20071,
    "Ġphyset": 23203,
    "Ġenforced": 21942,
    "lemency": 21377,
    "iferous": 17294,
    "Ġobliter": 14325,
    "Ġhypothesis": 14786,
    "ours": 3427,
    "Ġrascal": 11705,
    "Ġgid": 13965,
    "skelter": 24490,
    "exceeded": 25002,
    "Ġfearfully": 23513,
    "Ġnonsense": 6983,
    "Ġrefreshing": 20267,
    "Ġcaptiv": 16260,
    "Ġrecol": 4029,
    "Ġgrow": 2862,
    "mend": 20968,
    "gee": 15981,
    "Ġunanswerable": 26523,
    "Ġbeginning": 4244,
    "aits": 20768,
    "Ġintact": 21993,
    "med": 1911,
    "Ġcoarse": 14277,
    "breast": 11248,
    "Ġimproved": 7657,
    "Ġheels": 10852,
    "Ġbildad": 3780,
    "Ġhandling": 8916,
    "Ġkettle": 26234,
    "Ġenlarge": 21939,
    "deploy": 22128,
    "awk": 23117,
    "iloqu": 11651,
    "Ġtrees": 4202,
    "ractions": 11636,
    "t": 88,
    "uation": 17696,
    "Ġsupper": 4666,
    "Ġdishon": 12235,
    "charles": 14702,
    "hardly": 6492,
    "Ġreligions": 20111,
    "Ġconcoct": 19049,
    "ĠâĢĺ": 1630,
    "ectual": 21919,
    "Ġcurses": 13020,
    "Ġgiven": 1625,
    "Ġsucking": 12791,
    "Ġcraggy": 23532,
    "Ġsold": 6004,
    "turn": 4294,
    "track": 24335,
    "voyages": 24856,
    "intention": 10370,
    "Ġtossing": 8126,
    "Ġbrightly": 13229,
    "Ġreverence": 12063,
    "lying": 7175,
    "emy": 14078,
    "fact": 6360,
    "Ġenric": 21938,
    "seam": 10876,
    "Ġreplen": 11116,
    "Ġugliness": 20430,
    "Ġdodging": 19889,
    "sentiment": 12919,
    "kye": 20940,
    "Ġprayers": 12128,
    "Ġfalse": 4346,
    "Ġpresently": 5116,
    "Ġringle": 18211,
    "Ġvehem": 22892,
    "hush": 20908,
    "Ġtigers": 25759,
    "Ġpropontis": 17468,
    "Ġretrie": 10385,
    "Ġser": 1671,
    "Ġere": 3685,
    "Ġmisled": 22759,
    "Ġrotterdam": 25476,
    "Ġunhing": 18242,
    "Ġarrangements": 16517,
    "etting": 21583,
    "Ġpoltroon": 26600,
    "creatures": 7517,
    "Ġlulled": 17971,
    "00": 1609,
    "icilian": 20694,
    "Ġfold": 5531,
    "Ġwight": 12558,
    "ourney": 3554,
    "conclude": 24071,
    "Ġlanguor": 12852,
    "Ġdecomp": 3814,
    "falsehood": 25902,
    "thou": 4709,
    "Ġrumors": 11323,
    "Ġcrest": 12947,
    "Ġwaifing": 25244,
    "Ġinhab": 5083,
    "suggest": 20379,
    "Ġisol": 8838,
    "Ġlash": 8440,
    "Ġpantry": 20298,
    "Ġimprudent": 12853,
    "Ġperceived": 4714,
    "bitious": 16672,
    "conv": 7213,
    "protested": 13478,
    "gi": 17553,
    "Ġdrank": 16538,
    "Ġatom": 18193,
    "Ġchim": 5934,
    "Ġtails": 9905,
    "loss": 22511,
    "Ġreiter": 21669,
    "Ġmodest": 15912,
    "Ġcamel": 25350,
    "hab": 1078,
    "Ġfinish": 7949,
    "gainst": 25144,
    "Ġnailed": 10192,
    "pacific": 17643,
    "Ġwasting": 12733,
    "Ġacute": 16127,
    "Ġfootpath": 19340,
    "Ġcor": 1322,
    "pitchpoling": 25725,
    "aud": 8524,
    "Ġweighed": 8714,
    "Ġdilig": 8350,
    "Ġcurtains": 22988,
    "hap": 17561,
    "eties": 10839,
    "Ġiroquois": 26474,
    "Ġdeified": 18143,
    "itself": 7834,
    "Ġoftentimes": 20158,
    "Ġindign": 6175,
    "athies": 22703,
    "Ġoppression": 23652,
    "Ġinvests": 14871,
    "Ġbery": 13901,
    "Ġnumbers": 2889,
    "Ġwhichever": 14003,
    "msman": 9273,
    "uc": 1877,
    "Ġdates": 6695,
    "ez": 5683,
    "Ġspeed": 2444,
    "cking": 4266,
    "achment": 5464,
    "Ġunrem": 18245,
    "Ġslippers": 19618,
    "Ġholmes": 1308,
    "sory": 17661,
    "Ġcal": 1325,
    "Ġaloof": 21789,
    "et": 307,
    "Ġwildness": 14605,
    "club": 26382,
    "Ġgib": 13968,
    "Ġoaths": 13527,
    "Ġrevol": 5537,
    "Ġscowl": 22294,
    "Ġsquad": 22838,
    "Ġlonged": 6437,
    "Ġwill": 678,
    "Ġphilipp": 23887,
    "Ġquadrille": 13544,
    "conside": 9293,
    "Ġspoke": 2747,
    "Ġtarquin": 23612,
    "Ġtradeoff": 2657,
    "lish": 1950,
    "archangel": 18788,
    "soc": 5175,
    "Ġcollect": 7237,
    "remarked": 12292,
    "Ġhawk": 15177,
    "Ġanxiety": 5408,
    "comed": 8547,
    "shadows": 25480,
    "Ġno": 511,
    "grasping": 20642,
    "Ġpopulation": 16829,
    "Ġoverhanging": 22369,
    "Ġgobern": 22427,
    "Ġowner": 8926,
    "Ġsimulates": 2738,
    "Ġrocky": 13391,
    "Ġheavier": 13107,
    "Ġtechnique": 2450,
    "ouses": 5163,
    "ds": 4688,
    "Ġafrica": 12349,
    "Ġcocain": 18593,
    "Ġcam": 10164,
    "Ġtrance": 12844,
    "Ġmirror": 12382,
    "clock": 3935,
    "etent": 10202,
    "Ġsemantics": 2895,
    "Ġgn": 8822,
    "Ġconcern": 2655,
    "Ġcausal": 3411,
    "Ġresult": 4462,
    "Ġbarrowful": 25596,
    "Ġminimax": 5859,
    "Ġrendering": 16660,
    "audible": 17135,
    "ulance": 15771,
    "impl": 21710,
    "Ġga": 4448,
    "tottenham": 25419,
    "Ġmarriage": 3190,
    "Ġghostly": 24651,
    "Ġdear": 1539,
    "strangers": 20339,
    "Ġeurope": 8062,
    "Ġsket": 18729,
    "Ġevil": 3808,
    "Ġgreater": 3038,
    "Ġmajority": 13297,
    "Ġtweezers": 26558,
    "standers": 18480,
    "Ġlocal": 1199,
    "Ġdart": 4586,
    "Ġ72": 19614,
    "Ġstud": 1610,
    "phil": 7925,
    "interchange": 23742,
    "suspicious": 25391,
    "Ġshades": 9466,
    "aving": 2404,
    "Ġcabinet": 23864,
    "Ġcrater": 16438,
    "iating": 3209,
    "Ġzone": 14365,
    "Ġproduct": 3534,
    "vert": 15719,
    "iantly": 13742,
    "Ġmorning": 1748,
    "Ġsnuffing": 25015,
    "Ġenlist": 21940,
    "able": 451,
    "Ġtil": 12529,
    "itively": 21334,
    "Ġslugg": 15272,
    "Č": 205,
    "arched": 10813,
    "Ġwrath": 16321,
    "Ġshelf": 12272,
    "uted": 7593,
    "achalot": 15867,
    "Ġgall": 4354,
    "web": 18665,
    "Ġallude": 12776,
    "Ġrenowned": 26195,
    "Ġskiff": 16169,
    "Ġcomparative": 10545,
    "rum": 3471,
    "Ġ13": 6720,
    "Ġmargin": 11924,
    "nine": 13764,
    "fanc": 20866,
    "Ġcaul": 10789,
    "Ġfind": 1456,
    "Ġattent": 4363,
    "Ġsolve": 4196,
    "filled": 9597,
    "Ġturnkeys": 23030,
    "Ġlashes": 17969,
    "borrowed": 20794,
    "Ġchance": 3317,
    "etency": 21585,
    "Ġheld": 3586,
    "Ġglowing": 12287,
    "Ġlapse": 17123,
    "erately": 21276,
    "Ġlect": 9223,
    "Ġcord": 5222,
    "Ġspices": 22144,
    "Ġwhich": 501,
    "Ġtunes": 24620,
    "sho": 6426,
    "Ġdare": 3546,
    "Ġconfined": 7465,
    "Ġwidely": 8033,
    "Ġunhe": 22014,
    "Ġpace": 9185,
    "tor": 15435,
    "Ġpainted": 7979,
    "morn": 20978,
    "Ġtooks": 23330,
    "Ġtarshish": 12033,
    "Ġmagazine": 23103,
    "grie": 12475,
    "Ġingenuity": 17166,
    "sequ": 2399,
    "Ġezekiel": 26194,
    "Ġdevoured": 16139,
    "nial": 20986,
    "Ġnatural": 1139,
    "speaks": 19722,
    "Ġsandwich": 19831,
    "Ġresemblance": 7973,
    "Ġburg": 23653,
    "begins": 18526,
    "Ġafore": 10760,
    "stop": 11638,
    "Ġpupella": 20425,
    "Ġbingley": 1674,
    "Ġadmeasurements": 26227,
    "Ġsteelkilt": 5675,
    "ton": 1727,
    "Ġmethodic": 23147,
    "Ġvesuvius": 26503,
    "attacked": 23124,
    "Ġhair": 3313,
    "understood": 13220,
    "Ġfaced": 10810,
    "Ġknave": 11274,
    "Ġdespatched": 23833,
    "burning": 25081,
    "Ġthief": 11613,
    "bearers": 18525,
    "coal": 12029,
    "suspicions": 25392,
    "fow": 20855,
    "proportion": 16186,
    "Ġretiring": 16284,
    "Ġard": 5164,
    "Ġcathedral": 17416,
    "nuee": 17433,
    "regiment": 16452,
    "Ġharpo": 1942,
    "Ġx": 2073,
    "Ġcaucus": 17383,
    "º": 123,
    "Ġnet": 3627,
    "Ġmagistrate": 8234,
    "hand": 2758,
    "Ġrhine": 12360,
    "Ġstup": 14009,
    "Ġodious": 12155,
    "accepting": 20138,
    "Ġrucastles": 18722,
    "perquisites": 26533,
    "anel": 21360,
    "Ġstudied": 11117,
    "adjust": 21763,
    "Ġcorrid": 9827,
    "Ġfurlong": 18740,
    "acrity": 14282,
    "Ġ101": 24409,
    "ceptive": 15975,
    "Ġbambooz": 26120,
    "comprehens": 16178,
    "nered": 18495,
    "Ġhanding": 16134,
    "Ġapothe": 12379,
    "Ġwarp": 8113,
    "sprit": 11384,
    "confess": 12180,
    "muttered": 13762,
    "rom": 420,
    "Ġtelling": 5747,
    "Ġenvironment": 3864,
    "Ġpan": 5082,
    "gunpowder": 25340,
    "awned": 19463,
    "ible": 1112,
    "Ġdirect": 1470,
    "retrie": 18926,
    "Ġforefinger": 16443,
    "kered": 18275,
    "Ġjenkinson": 11433,
    "~": 98,
    "Ġmine": 3181,
    "ousness": 10277,
    "Ġsugg": 4501,
    "Ġcru": 2825,
    "Ġhunks": 18938,
    "Ġparted": 5930,
    "Ġscenarios": 26544,
    "Ġjames": 6420,
    "gracious": 11835,
    "Ġelements": 2665,
    "Ġsufficient": 2002,
    "Ġcircumstances": 3928,
    "Ġintroduce": 3207,
    "Ġassiduous": 26294,
    "Ġseverely": 14936,
    "Ġcontinent": 14891,
    "Ġmuhammad": 26170,
    "remind": 23191,
    "Ġawkward": 7075,
    "Ġescaped": 6460,
    "Ġobject": 1395,
    "po": 1137,
    "Ġsigned": 11179,
    "Ġannotations": 25955,
    "Ġconjure": 17126,
    "Ġsuitable": 18281,
    "itan": 10162,
    "suffered": 24330,
    "thinness": 25811,
    "Ġbillows": 7502,
    "stall": 21649,
    "lifted": 15390,
    "Ġtahiti": 13623,
    "Ġspouter": 12806,
    "Ġrichness": 19313,
    "usations": 15946,
    "cruise": 24842,
    "perpet": 14166,
    "racting": 10354,
    "Ġcomputing": 2217,
    "moid": 2446,
    "mish": 17600,
    "Ġ60": 14878,
    "tee": 16175,
    "fered": 5560,
    "backed": 9869,
    "Ġembedding": 2103,
    "Ġrefinement": 18700,
    "Ġdeeps": 16120,
    "Ġcommencement": 12243,
    "inguish": 9400,
    "cceed": 4142,
    "exagger": 22432,
    "ann": 5803,
    "Ġfunctional": 3049,
    "Ġrelaxed": 12989,
    "Ġgas": 8133,
    "Ġath": 15805,
    "into": 3680,
    "Ġmultipl": 2793,
    "Ġrevealing": 3927,
    ";": 31,
    "Ġuncork": 23432,
    "Ġreeds": 15700,
    "scotch": 25852,
    "Ġtwin": 12933,
    "operations": 19978,
    "Ġpawnbroker": 13662,
    "....": 11318,
    "Ġbattalions": 25777,
    "Ġjub": 22299,
    "Ġcorpusants": 13681,
    "god": 4864,
    "existence": 16018,
    "._": 3222,
    "myster": 16267,
    "Ġgoble": 14232,
    "pleasing": 14745,
    "ech": 4392,
    "Ġref": 905,
    "Ġbec": 1347,
    "Ġenlightened": 12751,
    "Ġarsacides": 17297,
    "Ġintense": 6159,
    "teen": 6371,
    "Ġdeclined": 9924,
    "aned": 5147,
    "Ġholidays": 22925,
    "Ġpurposely": 10446,
    "atural": 948,
    "up": 1283,
    "Ę": 217,
    "Ġreckless": 13462,
    "Ġacknowledgment": 16959,
    "Ġscand": 7203,
    "Ġkate": 15909,
    "dw": 3332,
    "Ġgable": 15671,
    "fortnight": 13091,
    "Ġmalay": 24391,
    "Ġventing": 19496,
    "Ġyesterday": 5333,
    "Ġlacepede": 20498,
    "pinn": 21028,
    "Ġdrawings": 14725,
    "<PAD>": 0,
    "Ġwhittingham": 26199,
    "chel": 11209,
    "bold": 17490,
    "idation": 5022,
    "Ġrambling": 18645,
    "actory": 8911,
    "Ġcongenial": 12415,
    "acks": 11792,
    "Ġsuperiority": 14619,
    "Ġdiverged": 23596,
    "Ġsharply": 9406,
    "Ġimmovable": 15896,
    "Ġkind": 1785,
    "ps": 4575,
    "xi": 17712,
    "Ġcabman": 14607,
    "mccarthy": 15398,
    "batch": 1981,
    "ortunities": 15944,
    "introduce": 25187,
    "exper": 8882,
    "Ġcrushing": 20179,
    "iel": 11496,
    "Ġpalace": 16691,
    "Ġtended": 21169,
    "Ġdecrease": 4200,
    "Ġunallied": 22036,
    "swam": 24257,
    "rendering": 22344,
    "Ġquebec": 24134,
    "nin": 17610,
    "immortal": 21713,
    "stay": 9684,
    "^{": 15308,
    "Ġcharles": 11960,
    "Ġshaped": 15838,
    "Ġolder": 9330,
    "Ġproxim": 3202,
    "Ġcurved": 18851,
    "thee": 9693,
    "Ġlament": 7857,
    "solute": 16600,
    "orously": 8420,
    "Ġqueen": 3215,
    "Ġdining": 6978,
    "Ġserpents": 13081,
    "feeling": 6619,
    "collinses": 19925,
    "Ġbill": 4041,
    "worth": 8630,
    "roses": 17959,
    "Ġquaint": 18466,
    "seeking": 17155,
    "leton": 5148,
    "what": 643,
    "used": 3261,
    "Ġsplendid": 17216,
    "wont": 21135,
    "Ġbottom": 3674,
    "Ġjudiciously": 23881,
    "Ġske": 4816,
    "Ġbride": 6293,
    "Ġwrinkles": 8574,
    "Ġimitated": 18330,
    "answers": 22154,
    "Ġstature": 10865,
    "isbury": 21380,
    "Ġpag": 6012,
    "Ġintervals": 5598,
    "Ġspaces": 3114,
    "Ġfogs": 25283,
    "Ġfight": 5366,
    "Ġsolved": 8934,
    "conceive": 16033,
    "Ġsoothingly": 25050,
    "ww": 10739,
    "Ġhimself": 1349,
    "Ġobjects": 5578,
    "Ġrecurrent": 1802,
    "pounds": 21027,
    "Ġdespised": 14669,
    "retion": 9365,
    "Ġchry": 22250,
    "Ġmask": 1867,
    "Ġremarking": 13128,
    "rub": 15897,
    "possessed": 9531,
    "Ġliberality": 24377,
    "Ġfeature": 749,
    "oper": 7347,
    "oubted": 5861,
    "Ġperceiving": 8879,
    "Ġcomfits": 21856,
    "whar": 15931,
    "visit": 7755,
    "Ġslime": 23165,
    "Ġepaulets": 24906,
    "them": 3020,
    "Ġsurvivor": 17366,
    "sentence": 2941,
    "Ġpity": 4941,
    "err": 1141,
    "Ġplaned": 24060,
    "Ġedward": 19153,
    "xim": 1093,
    "mn": 3577,
    "Ġthroat": 7771,
    "hampshire": 23267,
    "Ġforgive": 8010,
    "horses": 17569,
    "Ġannoyance": 20664,
    "Ġretired": 6072,
    "chased": 18044,
    "albatross": 15634,
    "Ġtheatre": 21281,
    "Ġcit": 10785,
    "Ġappropriated": 23486,
    "venty": 6428,
    "Ġincrease": 9372,
    "Ġinjurious": 24273,
    "Ġconclusion": 5987,
    "Ġdigress": 24649,
    "Ġridge": 14822,
    "Ġdiversion": 17200,
    "doubt": 6783,
    "Ġbraided": 16584,
    "Ġports": 10820,
    "Ġtwisting": 18658,
    "Ġapartment": 6636,
    "Ġcoco": 11002,
    "page": 13775,
    "plifted": 9714,
    "killer": 20479,
    "Ġohio": 19130,
    "Ġcolds": 23761,
    "Ġtalking": 3860,
    "squall": 13525,
    "Ġjeopardy": 13600,
    "Ġinvariably": 8064,
    "oton": 3608,
    "bu": 5132,
    "enterprise": 24995,
    "Ġwrapped": 8342,
    "Ġhereditary": 10667,
    "Ġleaped": 8829,
    "Ġ1950": 11361,
    "Ġclassical": 22635,
    "Ġdoze": 14179,
    "uous": 4145,
    "Ġguardian": 14945,
    "fancy": 7337,
    "Ġidly": 16406,
    "wife": 8101,
    "Ġadvertise": 25389,
    "Ġdependency": 3488,
    "Ġrashness": 25461,
    "Ġscenery": 11458,
    "Ġdecomposition": 5343,
    "deceptive": 22135,
    "Ġsulkily": 25882,
    "extric": 22768,
    "yours": 7695,
    "Ġclasp": 9747,
    "Ġmottled": 20681,
    "shapes": 22461,
    "Ġmortified": 14697,
    "Ġsquat": 14370,
    "Ġblameless": 19861,
    "oat": 13767,
    "Ġabreast": 18395,
    "rous": 3751,
    "comfortably": 16877,
    "fted": 9121,
    "Ġrepaid": 19084,
    "riumph": 4920,
    "orative": 21401,
    "Ġche": 1762,
    "Ġsa": 474,
    "glo": 8741,
    "tack": 12517,
    "tree": 11536,
    "boscombe": 26122,
    "power": 7138,
    "village": 25423,
    "Ġfain": 5809,
    "clever": 20815,
    "next": 5893,
    "regret": 16451,
    "Ġdere": 21839,
    "Ġbacking": 16121,
    "Ġcastle": 14720,
    "Ġmachinery": 20488,
    "unct": 18157,
    "hering": 12822,
    "Ġsnarl": 25714,
    "thomas": 18220,
    "Ġholes": 16412,
    "Ġimmut": 13302,
    "though": 2116,
    "arranged": 19321,
    "lers": 10109,
    "relative": 24016,
    "Ġmoccas": 22438,
    "Ġ40": 14771,
    "Ġreefed": 20305,
    "somehow": 12016,
    "app": 1043,
    "Ġplied": 22600,
    "Ġbaggy": 24538,
    "Ġvomit": 21952,
    "Ġside": 1387,
    "Ġwhipping": 21719,
    "nder": 20989,
    "Ġheaviest": 23329,
    "Ġglut": 18855,
    "am": 367,
    "cloud": 11108,
    "w": 91,
    "dislike": 23496,
    "Ġadvantageously": 19548,
    "Ġdifference": 1489,
    "Ġsprained": 15887,
    "owal": 13996,
    "ather": 739,
    "coast": 10451,
    "Ġstake": 14007,
    "Ġrelinqu": 12988,
    "gird": 20881,
    "Ġoverdone": 22367,
    "Ġmappings": 2146,
    "isle": 13895,
    "Ġripp": 11221,
    "Ġpoisonous": 24888,
    "thouse": 21986,
    "Ġsubterranean": 13615,
    "Ġwondrously": 24069,
    "Ġanalogical": 25641,
    "Ġprov": 4403,
    "Ġresources": 2939,
    "Ġuncomfortable": 8488,
    "Ġmeasuring": 22885,
    "ompl": 4537,
    "Ġmedium": 16708,
    "bast": 10080,
    "Ġtreas": 7358,
    "amused": 21850,
    "Ġassumed": 9468,
    "Ġpugnacious": 26453,
    "youn": 5690,
    "Ġmermaid": 17815,
    "Ġthose": 1172,
    "guest": 19485,
    "Ġadvance": 5484,
    "independ": 15985,
    "Ġshoved": 23492,
    "ĠĠĠĠĠĠĠĠĠĠĠĠĠĠĠĠĠĠĠĠĠĠĠĠĠĠĠĠĠĠĠĠĠĠĠĠĠĠĠĠĠĠĠĠĠĠ": 9956,
    "Ġleadenhall": 16631,
    "usation": 18397,
    "enough": 6810,
    "bour": 2072,
    "Ġdromedary": 17442,
    "Ġbarrels": 9439,
    "Ġenergetic": 15201,
    "Ġgoethe": 22426,
    "Ġtorrent": 17093,
    "lowering": 16036,
    "either": 6792,
    "Ġlimited": 23547,
    "Ġjunk": 15957,
    "stript": 21660,
    "Ġendeavours": 8621,
    "Ġhereby": 10361,
    "Ġunfeeling": 14122,
    "Ġjealous": 9471,
    "L": 48,
    "ronted": 14880,
    "Ġfumbled": 17883,
    "Ġdischarged": 15224,
    "Ġstretched": 5921,
    "Ġaddu": 22106,
    "Ġduplicates": 17219,
    "Ġpeering": 8537,
    "Ġarranging": 11176,
    "Ġabstracted": 17185,
    "inf": 6234,
    "Ġcommons": 22675,
    "Ġarose": 7360,
    "enthus": 17980,
    "Ġprevail": 13446,
    "nowhere": 18419,
    "Ġbitterly": 8315,
    "Ġsermon": 12380,
    "Ġneither": 3686,
    "goodness": 19291,
    "Ġobligations": 12097,
    "Ġreplacing": 3450,
    "Ġclink": 22352,
    "successfully": 14994,
    "embraced": 25807,
    "inconsiderable": 21194,
    "Ġcredit": 4820,
    "_âĢĿ": 20763,
    "ety": 3521,
    "felt": 5890,
    "Ġbelonging": 8308,
    "preference": 22471,
    "guard": 12133,
    "Ġnovelty": 13467,
    "Ġseems": 2480,
    "Ġdictionaries": 12344,
    "attachment": 13057,
    "Ġlaughter": 9030,
    "missed": 11211,
    "Ġspas": 10924,
    "ars": 907,
    "//": 11465,
    "Ġaccomplished": 7106,
    "alogies": 25162,
    "Ġterrier": 23402,
    "Ġlaborers": 19059,
    "Ġfashionable": 19547,
    "Ġpane": 21465,
    "Ġspe": 820,
    "Ġolfactories": 26172,
    "Ġdisapprobation": 16062,
    "Ġornaments": 17455,
    "twinkle": 23707,
    "orum": 12595,
    "buttons": 22406,
    "Ġladies": 3195,
    "wis": 12523,
    "Ġundecided": 22052,
    "connect": 1293,
    "flies": 19427,
    "magnifying": 25393,
    "Ġstrugg": 3219,
    "Ġunaccountably": 26517,
    "Ġkne": 4267,
    "Ġgermany": 25786,
    "Ġeasier": 11167,
    "news": 23135,
    "Ġcontrols": 1732,
    "spermaceti": 12198,
    "Ġindelicacy": 25696,
    "pits": 15415,
    "Ġbanish": 15574,
    "Ġshirt": 8853,
    "Ġhumped": 19772,
    "Ġvilla": 14750,
    "sence": 3306,
    "Ġado": 7627,
    "ide": 721,
    "determine": 19947,
    "lasting": 8011,
    "Ġdearly": 10404,
    "considerably": 13449,
    "liament": 16221,
    "Ġburglar": 17357,
    "Ġdoes": 943,
    "strugg": 21665,
    "Ġheadache": 22902,
    "Ġfive": 2838,
    "Ġpurses": 23478,
    "sk": 5521,
    "cake": 20806,
    "Ġcontraction": 16012,
    "Ġendeavoured": 4919,
    "Ġbloodthirst": 23804,
    "were": 2557,
    "Ġclimax": 25054,
    "Ġsolomon": 11054,
    "Ġimprecate": 20521,
    "uy": 21102,
    "bos": 17486,
    "simp": 17667,
    "Ġgratify": 19506,
    "Ġlunatic": 24993,
    "cat": 15327,
    "Ġwaved": 9647,
    "sure": 5522,
    "Ġtechniques": 2869,
    "Ġthimble": 15641,
    "Ġinterpret": 5490,
    "Ġadmiral": 17308,
    "Ġpeaking": 22693,
    "calmly": 20142,
    "Ġincessantly": 11413,
    "Ġcruc": 16537,
    "Ġcontribute": 12866,
    "ifling": 15787,
    "Ġheated": 21685,
    "scenes": 16247,
    "threw": 21988,
    "ada": 14014,
    "Ġtum": 5692,
    "cal": 1118,
    "Ġtransport": 11280,
    "Ġapproxim": 1220,
    "Ġshiny": 14109,
    "Ġmonument": 16241,
    "occasional": 19579,
    "Ġbingleys": 18996,
    "grief": 13734,
    "Ġconsidered": 4612,
    "Ġcan": 464,
    "Ġber": 5698,
    "Ġbumping": 25281,
    "previously": 17210,
    "Ġrept": 13986,
    "battle": 12446,
    "conditional": 9081,
    "Ġformless": 22831,
    "Ġcham": 4893,
    "Ġsheaves": 22167,
    "Ġdeserted": 8640,
    "appl": 9329,
    "Ġlighten": 23262,
    "Ġwooded": 23523,
    "swallowed": 14856,
    "Ġimagination": 5759,
    "twenty": 6609,
    "Ġoutweigh": 22326,
    "erted": 7361,
    "Ġaccompanied": 6781,
    "Ġcapacity": 10442,
    "Ġhailed": 6408,
    "delights": 19704,
    "counters": 25398,
    "Ġswaths": 23061,
    "Ġunmannerly": 26519,
    "Ġcontr": 1914,
    "Ġprisoner": 8676,
    "Ġwheel": 9721,
    "Ġstepping": 9357,
    "Ġsweet": 3467,
    "Ġhab": 4219,
    "!)": 10072,
    "hatchet": 24819,
    "Ġimputable": 22177,
    "nav": 17613,
    "Ġenjoyed": 8008,
    "Ġadvers": 4888,
    "Ġfirmament": 19474,
    "Ġmasked": 3694,
    "Ġhandspikes": 12943,
    "ability": 716,
    "Ġprecip": 7076,
    "Ġsilver": 7464,
    "imagine": 19934,
    "Ġunbelief": 22053,
    "Ġreaction": 15699,
    "tol": 17674,
    "idav": 18095,
    "problem": 25245,
    "Ġassigned": 16315,
    "Ġapprove": 12878,
    "Ġstabbing": 20306,
    "Ġserv": 3328,
    "Ġblanche": 18821,
    "Ġcannibals": 10590,
    "result": 12048,
    "Ġroutine": 13511,
    "Ġtidy": 17094,
    "Ġconfines": 23307,
    "Ġtread": 9412,
    "endeavouring": 15018,
    "Ġbelonged": 6922,
    "Ġshoe": 14568,
    "ellations": 21948,
    "consuming": 25675,
    "otherwise": 7671,
    "Ġnorthward": 13326,
    "drop": 15340,
    "Ġ86": 24461,
    "meryton": 10114,
    "jerked": 25619,
    "presum": 12873,
    "Ġze": 8548,
    "Ġoblique": 20172,
    "Ġended": 7950,
    "iations": 11497,
    "Ġthither": 6821,
    "ents": 1896,
    "Ġclass": 787,
    "Ġrespecting": 14486,
    "Ġn": 300,
    "Ġwealthy": 18181,
    "Ġexactly": 2769,
    "Ġri": 3395,
    "pre": 648,
    "Ġfrosted": 19806,
    "allet": 11084,
    "idy": 21768,
    "Û": 156,
    "Ġvariation": 22668,
    "Ġhappy": 2462,
    "Ġtumbled": 13410,
    "Ġhusband": 3621,
    "Ġanomalous": 25638,
    "Ġlamented": 24994,
    "Ġdestroyed": 5272,
    "gement": 13731,
    "display": 19158,
    "seventh": 12719,
    "Ġcoiling": 12910,
    "Ġannouncing": 16756,
    "Ġquartered": 20376,
    "needles": 20317,
    "Ġbigger": 19764,
    "Ġhow": 598,
    "swe": 5997,
    "izing": 1067,
    "Ġwidespread": 20678,
    "ential": 824,
    "Ġfocus": 4237,
    "ines": 676,
    "opp": 6963,
    "âĢĿâĢĶ": 5721,
    "gone": 6505,
    "Ġindepend": 3668,
    "just": 1698,
    "Ġrocking": 10971,
    "Ġalgorithms": 866,
    "Ġunfrequently": 20741,
    "ĠĠĠĠĠĠĠĠĠĠĠĠĠĠĠĠĠĠĠĠĠĠĠĠĠĠĠĠĠĠĠĠĠĠĠĠĠĠĠĠĠĠĠĠĠĠĠĠĠĠĠĠĠĠĠĠĠĠĠĠ": 19262,
    "Ġjackal": 24242,
    "pemberley": 9623,
    "eringly": 23006,
    "Ġangelic": 19630,
    "Ġpeasants": 12336,
    "Ġbeliefs": 24583,
    "Ġpigs": 19750,
    "umber": 5241,
    "Ġprovided": 6579,
    "burn": 8371,
    "eastward": 15133,
    "building": 17312,
    "everywhere": 23702,
    "Ġmuchness": 18707,
    "prove": 11149,
    "ul": 371,
    "Ġoccurring": 2794,
    "Ġrivers": 9445,
    "ineer": 11703,
    "ouch": 2782,
    "ufact": 10735,
    "Ġtrappers": 23085,
    "Ġstudent": 14481,
    "religion": 20578,
    "Ġcommunicative": 24548,
    "better": 7121,
    "Ġpretence": 13211,
    "Ġliberally": 16832,
    "aky": 18412,
    "Ġmutilated": 23962,
    "Ġwords": 1324,
    "Ġfrosts": 19805,
    "boone": 23256,
    "Ġsharpen": 13573,
    "Ġrampart": 20321,
    "Ġsecret": 3719,
    "Ġbearded": 15731,
    "Ġdiscre": 2414,
    "Ġberths": 20118,
    "Ġottoman": 17381,
    "orified": 21405,
    "iron": 3464,
    "rudential": 16711,
    "Ġblanc": 11067,
    "ellow": 3879,
    "Ġpromote": 23196,
    "Ġnecessarily": 13253,
    "forgetting": 25486,
    "Ġmund": 21321,
    "Ġscratch": 25565,
    "convul": 24884,
    "Ġacquirement": 19257,
    "Ġpeculiarities": 12075,
    "Ġflock": 21414,
    "Ġcheerfulness": 10519,
    "Ġneatness": 19935,
    "Ġhing": 11607,
    "grown": 10102,
    "uncommonly": 25550,
    "Ġunlike": 7006,
    "Ġfors": 21775,
    "Ġcolonel": 3408,
    "stranded": 19227,
    "Ġcast": 3607,
    "ers": 406,
    "rences": 9275,
    "Ġwert": 12561,
    "Ġacceler": 1608,
    "Ġsherlock": 3895,
    "securer": 25603,
    "pute": 8849,
    "mist": 5686,
    "Ġrobust": 1375,
    "ilst": 8144,
    "hum": 3777,
    "Ġbasis": 16963,
    "chers": 11319,
    "Ġreturned": 2892,
    "causing": 25519,
    "attributed": 23123,
    "count": 4214,
    "Ġcalls": 6746,
    "Ġunprotected": 22071,
    "Ġoffing": 16146,
    "Ġidle": 8253,
    "Ġbask": 8117,
    "Ġpeeled": 14321,
    "Ġhalyards": 21497,
    "Ġslashing": 23174,
    "Ġgenerates": 3664,
    "address": 14884,
    "waistcoat": 17364,
    "Ġkeenly": 9488,
    "Ġleviathans": 8282,
    "burg": 16775,
    "Ġmoney": 3418,
    "Ġezek": 18012,
    "Ġrevolution": 3304,
    "Ġ84": 19712,
    "Ġvoice": 2190,
    "res": 2761,
    "tiness": 21074,
    "yth": 981,
    "gr": 2085,
    "Ġcoinc": 11003,
    "Ġidleness": 11145,
    "tain": 558,
    "give": 4689,
    "Ġspray": 7895,
    "Ġdamned": 13136,
    "Ġdisconsolate": 20721,
    "Ġroving": 22407,
    "Ġloath": 7891,
    "rupt": 3213,
    "Ġreg": 731,
    "peasant": 23114,
    "Ġscotch": 12214,
    "barrow": 15324,
    "Ġconnections": 972,
    "offended": 16400,
    "Ġunt": 2293,
    "Ġrenegades": 26478,
    "S": 55,
    "ction": 503,
    "Ġnewton": 3533,
    "ishop": 9745,
    "Ġnour": 10832,
    "io": 3804,
    "Ġdesired": 4665,
    "secur": 18129,
    "Ġimmedi": 2905,
    "Ġcurbstone": 26044,
    "Ġscent": 10288,
    "Ġclasping": 20212,
    "reader": 23850,
    "Ġentrances": 25836,
    "happen": 19333,
    "edmund": 17948,
    "Ġshaking": 6553,
    "Ġstoried": 18078,
    "Ġenclosure": 20627,
    "toes": 22568,
    "Ġsqueeze": 10042,
    "scrape": 25699,
    "oration": 2207,
    "Ġmonsie": 11449,
    "Ġwherefore": 8527,
    "ies": 584,
    "Ġbubblingly": 25633,
    "Ġunreserved": 19400,
    "Ġladder": 8601,
    "Ġmetropolitan": 17278,
    "Ġeyeing": 6461,
    "Ġactor": 16053,
    "Ġmornings": 16239,
    "Ġincapable": 7423,
    "Ġlinguistic": 12429,
    "Ġnash": 5820,
    "Ġinsupportable": 13935,
    "Ġunable": 4951,
    "Ġchain": 1846,
    "Ġsands": 14951,
    "Ġcent": 3254,
    "Ġinputs": 843,
    "Ġcastles": 16642,
    "coiled": 16488,
    "Ġgamb": 18000,
    "anous": 21362,
    "Ġkill": 4456,
    "Ġentity": 10345,
    "ong": 536,
    "Ġbermud": 26441,
    "Ġ24": 13197,
    "Æ": 135,
    "Ġdeem": 18139,
    "Ġapart": 4746,
    "irement": 18356,
    "Ġgranting": 18737,
    "bench": 16805,
    "Ġnegro": 6448,
    "Ġwhitney": 11375,
    "ref": 6516,
    "outside": 12810,
    "Ġdismasted": 15255,
    "Ġoriginally": 7304,
    "prick": 19346,
    "Ġsomebody": 7912,
    "Ġsarat": 21230,
    "Ġhospit": 7514,
    "Ġdrawn": 4277,
    "Ġuncont": 14119,
    "Ġexperiments": 23041,
    "ð": 177,
    "Ġheard": 1399,
    "Ġaright": 11744,
    "Ġlic": 8437,
    "sat": 4811,
    "Ġfascinating": 17331,
    "iah": 14420,
    "inglass": 21305,
    "âĢĻ,": 14073,
    "inous": 8776,
    "ickory": 22672,
    "Ġtaller": 16689,
    "Ġinseparable": 20691,
    "verbally": 25361,
    "anged": 3588,
    "rocious": 21542,
    "Ġwisdom": 11235,
    "ught": 2751,
    "silence": 8045,
    "Ġproprietor": 12377,
    "ocratic": 17247,
    "us": 531,
    "Ġsubsequently": 16165,
    "Ġcalms": 23044,
    "Ġmerit": 9430,
    "Ġsoil": 9258,
    "Ġcous": 3436,
    "heidelburgh": 21214,
    "purposes": 25024,
    "Ġproudly": 19745,
    "functions": 11240,
    "Ġcul": 17824,
    "Ġgardens": 16453,
    "pens": 17634,
    "Ġrevolutionized": 3367,
    "Ġkeeping": 7283,
    "successively": 24778,
    "wooden": 24588,
    "less": 927,
    "mortar": 25409,
    "Ġacquisition": 18901,
    "Ġbetake": 22908,
    "Ġimportance": 4901,
    "task": 13796,
    "av": 738,
    "Ġopulent": 23630,
    "Ġbuoyed": 20044,
    "Ġintellig": 525,
    "cription": 20820,
    "Ġ135": 24784,
    "Ġafford": 4368,
    "charge": 9451,
    "Ġfashion": 4300,
    "alleging": 23025,
    "Ġpromptly": 23821,
    "angered": 16182,
    "Ġemble": 13974,
    "Ġmight": 964,
    "Ġhieroglyph": 11975,
    "bolt": 25138,
    "Ġwards": 17791,
    "Ġhudson": 15195,
    "vicinity": 20483,
    "Ġsub": 951,
    "Ġrelish": 14387,
    "Ġspite": 4156,
    "vens": 21115,
    "Ġring": 4454,
    "Ġchip": 12830,
    "Ġsending": 8779,
    "Ġunce": 11715,
    "bones": 8372,
    "varieties": 23190,
    "ordingly": 18519,
    "ĠĠĠĠĠĠĠĠĠĠĠĠĠĠĠĠĠĠĠ": 22953,
    "Ġknowledge": 1444,
    "Ġfiftieth": 24702,
    "Ġshipmate": 8932,
    "Ġsentiments": 7961,
    "O": 51,
    "ommod": 13980,
    "Ġentertaining": 16928,
    "pres": 16032,
    "Ġextremity": 8991,
    "whaling": 7899,
    "breaths": 25337,
    "Ġshould": 863,
    "terrors": 25044,
    "Ġcherry": 16937,
    "Ġgod": 1936,
    "Ġfurnish": 9022,
    "Ġcloud": 3914,
    "Ġinvest": 4978,
    "Ġundet": 16703,
    "ithing": 11652,
    "matlock": 23471,
    "Ġplain": 2819,
    "Ġfinancial": 23131,
    "Ġmumbling": 11577,
    "Ġmeasurement": 19426,
    "trap": 24334,
    "mur": 5428,
    "Ġguinea": 8950,
    "Ġtobacc": 7853,
    "irts": 9241,
    "Ġmists": 14632,
    "Ġdoubtfully": 23479,
    "Ġjove": 9271,
    "Ġprocessions": 18435,
    "Ġconfessed": 8009,
    "Ġdaint": 15599,
    "Ġnarwhales": 24903,
    "Ġpavement": 9580,
    "Ġdisastrous": 16064,
    "wheels": 14384,
    "Ġsaleve": 17394,
    "azed": 9402,
    "Ġfishing": 9665,
    "Ġspitz": 14151,
    "Ġlowest": 11124,
    "itiously": 13874,
    "Ġcertainly": 2496,
    "ignific": 11959,
    "supplementary": 20552,
    "Ġdiscovered": 4415,
    "Ġserenity": 10031,
    "phew": 6369,
    "Ġcontinuing": 14400,
    "Ġstrat": 16096,
    "waiter": 24587,
    "Ġquar": 3115,
    "asing": 5913,
    "remental": 21250,
    "data": 2188,
    "Ġtok": 1245,
    "gin": 4931,
    "Ġdevelopment": 7059,
    "Ġunknown": 4455,
    "Ġdetermines": 2366,
    "Ġcur": 1251,
    "Ġdreamy": 14706,
    "Ġunjust": 8486,
    "Ġhistorical": 3646,
    "Ġpatron": 7462,
    "Ġopen": 1550,
    "Ġfellow": 2779,
    "Ġvenge": 5420,
    "Ġvehemently": 26040,
    "Ġimpress": 6862,
    "Ġboats": 2636,
    "lot": 3210,
    "Ġsordid": 26424,
    "Ġtobacco": 8367,
    "Ġtaste": 5524,
    "Ġparched": 11731,
    "loom": 18536,
    "slouched": 24557,
    "erable": 1916,
    "bing": 7792,
    "Ġconcept": 671,
    "Ġmadden": 10449,
    "Ġwolfish": 25936,
    "Ġdeemed": 7615,
    "Ġmotives": 7486,
    "with": 1297,
    "Ġlany": 21557,
    "Ġunhinged": 26218,
    "Ġwhirled": 14963,
    "hall": 8085,
    "Ġraised": 4661,
    "Ġsod": 11564,
    "Ë": 140,
    "Ġobser": 2069,
    "Ġerrone": 14433,
    "Ġlick": 21553,
    "Ġunmingled": 18264,
    "Ġreminiscences": 26271,
    "Ġanimation": 11154,
    "Ġapprehending": 26092,
    "Ġraft": 16119,
    "ynolds": 10039,
    "gunw": 17223,
    "Ġcommission": 6714,
    "osed": 1960,
    "Ġhereafter": 9333,
    "Ġwr": 1544,
    "Ġbald": 16210,
    "uled": 11539,
    "Ġ221": 25071,
    "urches": 12690,
    "udding": 11869,
    "Ġuntouched": 16468,
    "Ġvirt": 3910,
    "Ġdramat": 23216,
    "Ġuntrodden": 23525,
    "Ġvictims": 19807,
    "collar": 19330,
    "Ġpays": 13301,
    "appo": 3917,
    "minds": 24235,
    "Ġ1671": 25008,
    "Ġblankets": 24612,
    "Ġallows": 3235,
    "Ġunmanufactured": 20437,
    "Ġtoller": 9094,
    "Ġnothing": 1355,
    "Ġah": 5075,
    "Ġcoals": 16077,
    "Ġelias": 18635,
    "vain": 15450,
    "partiality": 13164,
    "Ġfurnishes": 19444,
    "Ġdem": 11677,
    "Ġtell": 1467,
    "confidential": 25877,
    "desperate": 17360,
    "Ġdisp": 3357,
    "Ġdevout": 14329,
    "Ġpain": 2302,
    "nowledge": 10292,
    "jewel": 20349,
    "Ġhouse": 1503,
    "Ġassist": 3565,
    "Ġpots": 9431,
    "Ġall": 421,
    "Ġclean": 5652,
    "Ġenglishmen": 19433,
    "stripped": 16947,
    "Ġsupports": 3051,
    "Ġdisordered": 16059,
    "Ġresiding": 16065,
    "Ġanother": 1737,
    "professional": 20278,
    "ivility": 12788,
    "Ġstaves": 21747,
    "Ġplot": 14283,
    "Ġsecondly": 14520,
    "unicorn": 21893,
    "Ġproduced": 2448,
    "Ġvesu": 21953,
    "Ġtears": 4232,
    "Ġcaves": 15558,
    "Ġjudge": 5502,
    "Ġpanthe": 19656,
    "desire": 14664,
    "Ġquality": 3528,
    "Ġpang": 15609,
    "meadow": 18680,
    "should": 3263,
    "centred": 25020,
    "Ġtime": 690,
    "Ġ88": 19714,
    "vell": 3960,
    "uses": 11764,
    "distinctive": 25726,
    "Ġluckless": 16799,
    "Ġillustrious": 17110,
    "Ġ179": 19757,
    "umn": 5836,
    "Ġoverl": 18429,
    "Ġkneeling": 12147,
    "Ġlurking": 11291,
    "drowned": 17372,
    "Ġpoetic": 17104,
    "Ġpour": 13917,
    "apsed": 6297,
    "walked": 10573,
    "Ġniag": 21533,
    "Ġseldom": 4630,
    "Ġflit": 23009,
    "uling": 2255,
    "Ġcensure": 15099,
    "prof": 7699,
    "Ġbedfellows": 23447,
    "Ġconveniently": 20082,
    "lass": 5994,
    "Ġexception": 11218,
    "Ġseeth": 21957,
    "Ġinsolence": 20256,
    "Ġhistory": 4008,
    "Ġconstrained": 19242,
    "Ġtambourine": 9567,
    "Ġnegatived": 23049,
    "Ġawed": 23587,
    "rily": 7622,
    "som": 3291,
    "Ġcrav": 19175,
    "cav": 17510,
    "Ġquantization": 19856,
    "onents": 8781,
    "Ġint": 409,
    "Ġrestored": 7068,
    "Ġunalterable": 15855,
    "Ġbackbones": 22664,
    "itying": 21998,
    "Ġcentaurs": 23836,
    "Ġramadans": 25122,
    "Ġoccupies": 24011,
    "Ġfreely": 7058,
    "Ġtroop": 24898,
    "ugnance": 12371,
    "Ġunduly": 25995,
    "neural": 3066,
    "Ġensigns": 23693,
    "Ġforeign": 9875,
    "wled": 15457,
    "doc": 23379,
    "Ġconcre": 16393,
    "Ġsolic": 7933,
    "Ġinve": 17931,
    "Ġenduring": 16305,
    "ihood": 20924,
    "Ġaudacity": 19884,
    "compar": 14362,
    "Ġconstrain": 2627,
    "horror": 13163,
    "boots": 11128,
    "Ġascertained": 25297,
    "Ġlogic": 13082,
    "yesterday": 10356,
    "Ġident": 2237,
    "cheeked": 19342,
    "Ġdisclosed": 15157,
    "Ġdiscoverers": 26037,
    "shoals": 24716,
    "prises": 23817,
    "proud": 9907,
    "Ġband": 5292,
    "tolerable": 17690,
    "Ġfastidious": 14494,
    "Ġmincing": 18752,
    "Ġsplashing": 16552,
    "Ġwavering": 23283,
    "Ġpositions": 2056,
    "mark": 5282,
    "Ġobscure": 9557,
    "hearty": 14837,
    "Ġultimately": 17167,
    "Ġhumans": 8933,
    "cig": 17506,
    "dee": 11732,
    "ople": 2319,
    "reserved": 13846,
    "Ġecho": 12671,
    "Ġexcited": 5580,
    "Ġproced": 2579,
    "Ġdecaying": 2245,
    "Ġge": 1977,
    "illa": 12798,
    "loved": 14253,
    "eked": 16405,
    "Ġavailed": 23955,
    "Ġwar": 5526,
    "Ġand": 295,
    "Ġoffending": 22741,
    "Ġarriving": 19219,
    "Ã¦": 4340,
    "agonies": 21913,
    "Ġmadly": 16487,
    "counterpart": 26361,
    "Ġreven": 18031,
    "Ġbag": 5699,
    "Ġidentical": 10436,
    "Ġvenerable": 9097,
    "Ġleghorn": 13150,
    "Ġdepart": 4657,
    "Ġbun": 6008,
    "Ġagreement": 18540,
    "Ġcountry": 2532,
    "Ġprogram": 12998,
    "Ġyours": 4124,
    "Ġappear": 2483,
    "Ġropes": 10750,
    "Ġwrapt": 24596,
    "Ġtainted": 21173,
    "stout": 21648,
    "Ġwooing": 19437,
    "Ġobsolete": 26560,
    "Ġquiver": 16007,
    "Ġdesolated": 24809,
    "reasonable": 7752,
    "ouble": 2660,
    "Ġorganization": 7984,
    "foot": 9049,
    "Ġcre": 888,
    "ologist": 22881,
    "Ġadmirals": 20388,
    "Ġcistern": 17384,
    "M": 49,
    "Ġfitted": 6245,
    "Ġflying": 5413,
    "effort": 19216,
    "Ġdrows": 21443,
    "Ġdirty": 9182,
    "umberland": 16839,
    "Ġhairs": 13235,
    "j": 78,
    "Ġperem": 12937,
    "Ġgoodge": 22827,
    "Ġparameter": 875,
    "Ġnumerous": 6920,
    "Ġpreced": 6041,
    "Ġsaws": 23052,
    "Ġcaresses": 26060,
    "Ġem": 1924,
    "Ġjourney": 3882,
    "erxes": 21278,
    "trampled": 26335,
    "Ġdiscipl": 22789,
    "flatter": 23970,
    "Ġsurrounding": 12167,
    "branch": 23580,
    "ounding": 22397,
    "Ġvote": 21951,
    "Ġjokes": 18409,
    "la": 10707,
    "Ġpeels": 22694,
    "omon": 10209,
    "shortened": 24747,
    "Ġaffectionately": 13172,
    "Ġsucceeding": 16763,
    "Ġwaxed": 21300,
    "Ġfundamental": 3014,
    "Ġadduced": 26526,
    "Ġsubdued": 11032,
    "spirits": 8055,
    "prot": 6899,
    "Ġleader": 14705,
    "trem": 17683,
    "Ġcompleted": 9000,
    "Ġ45": 14773,
    "Ġpastures": 23422,
    "andes": 18154,
    "Ġawake": 8272,
    "Ġsnap": 11202,
    "carpenter": 11429,
    "unbounded": 21889,
    "Ġvaried": 11852,
    "oping": 5559,
    "Ġsymbolize": 24963,
    "arrangement": 17418,
    "Ġostentatiously": 20472,
    "everlasting": 18774,
    "ske": 13785,
    "Ġpound": 12621,
    "Ġforeheads": 23449,
    "Ġprimary": 25063,
    "Ġincreasing": 8247,
    "affair": 14657,
    "itu": 1228,
    "unerative": 21900,
    "rendered": 22343,
    "lightning": 16554,
    "Ġcommotion": 9783,
    "Ġunsatisfied": 22048,
    "narrated": 25622,
    "Ġfriesland": 26444,
    "ame": 645,
    "Ġdisgraceful": 15022,
    "Ġcasc": 15560,
    "Ġcombat": 16188,
    "success": 6712,
    "empl": 5724,
    "breaking": 14767,
    "armed": 7251,
    "Ġslide": 10396,
    "innocent": 20289,
    "Ġdesol": 6881,
    "Ġfoundation": 4233,
    "enge": 21283,
    "rmsprop": 4523,
    "cu": 10086,
    "Ġcategor": 4139,
    "Ġcaliforn": 14434,
    "Ġslopes": 18943,
    "plenty": 14094,
    "ethe": 9679,
    "Ġgriev": 16637,
    "Ġshutters": 9940,
    "Ġdexter": 9704,
    "Ġhans": 12631,
    "iners": 4937,
    "Ġchristendom": 16696,
    "Ġuses": 1209,
    "anywhere": 14684,
    "ales": 3316,
    "Ġexquisitely": 20205,
    "Ġengine": 1919,
    "ose": 717,
    "Ġmould": 6520,
    "Ġpilgrim": 25600,
    "Ġtand": 21163,
    "emberley": 4171,
    "Ġextract": 1488,
    "omitted": 18019,
    "pointed": 9813,
    "Ġturn": 1298,
    "serpent": 16295,
    "Ġprecipitous": 24836,
    "brous": 19200,
    "establish": 17396,
    "Ġhumaneval": 25583,
    "description": 11096,
    "Ġbrandy": 11051,
    "Ġisolated": 13563,
    "backward": 2681,
    "ologies": 18775,
    "animal": 16980,
    "Ġsimul": 1806,
    "Ġobliv": 16137,
    "Ġattacks": 12209,
    "Ġnich": 21523,
    "enit": 17781,
    "Ġbrawny": 13617,
    "fishery": 10035,
    "Ġbats": 13903,
    "pro": 2049,
    "assure": 9272,
    "Ġwoven": 9929,
    "Ġwinchester": 10069,
    "Ġtasted": 12534,
    "deceit": 25556,
    "eted": 7592,
    "Ġattack": 5478,
    "Ġimpediments": 26242,
    "aft": 9586,
    "Ġmahogany": 20581,
    "ishes": 6524,
    "Ġtoilings": 24741,
    "mens": 20971,
    "Ġshaster": 22002,
    "Ġyon": 9696,
    "Ġnightmare": 18921,
    "Ġwears": 10243,
    "Ġfortun": 4982,
    "Ġmacro": 25940,
    "Ġwilliam": 3483,
    "rigged": 17063,
    "Ġaqu": 17744,
    "iards": 17576,
    "Ġrails": 22656,
    "Ġinherent": 4592,
    "Ġbro": 1430,
    "Ġenchanted": 9083,
    "Ġdrifting": 19281,
    "Ġunworth": 22040,
    "Ġdefendants": 15144,
    "Ġalleghan": 25796,
    "Ġstaggers": 24654,
    "turkish": 24533,
    "anch": 15564,
    "terrific": 25043,
    "conceivable": 17133,
    "handedness": 24921,
    "Ġtransported": 11281,
    "Ġgardiner": 3240,
    "Ġpresum": 4839,
    "organ": 15578,
    "ection": 4948,
    "spouting": 25003,
    "Ġ107": 24415,
    "chosen": 21698,
    "mastod": 23977,
    "Ġnostrils": 10945,
    "fugitive": 26132,
    "Ġbloss": 19258,
    "rugged": 6849,
    "Ġneared": 14076,
    "Ġopine": 19230,
    "ale": 505,
    "Ġpleasantness": 24140,
    "Ġfleecy": 17025,
    "Ġshamefully": 24715,
    "Ġleather": 7604,
    "Ġredness": 19314,
    "Ġsuperiors": 23456,
    "scent": 13026,
    "op": 656,
    "Ġmend": 8407,
    "Ġeclipsed": 26378,
    "iries": 18172,
    "inations": 7567,
    "semicirc": 26493,
    "Ġpips": 9849,
    "Ġpassenger": 14372,
    "Ġinstability": 3816,
    "indian": 11782,
    "Ġjoll": 11769,
    "entle": 1738,
    "nez": 22465,
    "Ġstays": 16563,
    "Ġprincely": 24150,
    "Ġfaded": 10811,
    "Ġtravelling": 11309,
    "Ġeyelids": 26108,
    "Ġpalpable": 15209,
    "ord": 667,
    "Ġmab": 12565,
    "Ġrecollections": 10515,
    "Ġmeditating": 20046,
    "gaffman": 26392,
    "Ġantarctic": 19555,
    "Ġdeceiving": 21842,
    "patter": 4143,
    "Ġexamined": 6336,
    "ailed": 3248,
    "Ġcapture": 3384,
    "Ġlap": 8438,
    "Ġon": 353,
    "adler": 21766,
    "Ġpantaloons": 20299,
    "Ġforbearing": 25101,
    "Ġcounterbalance": 24721,
    "Ġbouton": 17870,
    "Ġshudder": 9053,
    "apes": 9744,
    "Ġcompunction": 18586,
    "Ġsaintly": 25932,
    "elfth": 22376,
    "cousin": 10655,
    "Ġbeen": 626,
    "Ġreliable": 18779,
    "Ġkeen": 4614,
    "Ġabst": 9269,
    "ĠĠĠĠĠĠĠĠĠĠĠĠĠĠĠĠĠĠĠĠĠĠĠĠĠĠĠĠĠĠĠĠĠĠ": 14615,
    "Ġsinew": 25432,
    "Ġ98": 24594,
    "Ġbeard": 11658,
    "Ġreproof": 24891,
    "Ġreceive": 4704,
    "Ġinstructing": 3125,
    "uttermost": 24943,
    "Ġfri": 17880,
    "o": 83,
    "Ġenchantment": 24870,
    "orns": 12597,
    "Ġfolding": 19730,
    "Ġtangles": 25762,
    "Ġjeopardized": 20233,
    "ivering": 7698,
    "Ġliter": 8816,
    "_.âĢĶ": 23474,
    "Ġenergies": 25460,
    "sharks": 14241,
    "hon": 6794,
    "Ġledger": 19405,
    "Ġtoe": 13939,
    "Ġresembling": 4098,
    "wards": 1276,
    "whale": 2140,
    "verse": 9691,
    "report": 13403,
    "Ġcommence": 6169,
    "poling": 12224,
    "ree": 873,
    "antingly": 22102,
    "thrown": 8483,
    "Ġstruck": 3390,
    "dy": 4076,
    "Ġcompre": 4451,
    "Ġmanner": 2195,
    "Ġsafety": 6341,
    "cell": 10689,
    "Ġmich": 21309,
    "maritime": 24176,
    "Ġsuperl": 16445,
    "Ġgolden": 5337,
    "Ġbloom": 9890,
    "ches": 2147,
    "otograph": 5827,
    "whosoever": 22244,
    "Ġdragon": 14947,
    "ulent": 21866,
    "Ġopposite": 5120,
    "Ġexpand": 9310,
    "Ġreproach": 9559,
    "Ġtul": 21162,
    "Ġgri": 17990,
    "feelings": 5674,
    "Ġblocks": 6323,
    "Ġstanders": 19016,
    "ductive": 23939,
    "idly": 12705,
    "Ġstun": 11653,
    "Ġresnet": 5473,
    "pleasanter": 24051,
    "Ġrigid": 16718,
    "Ġcaroline": 7255,
    "Ġperished": 11788,
    "justice": 7958,
    "89": 20761,
    "Ġcruis": 14626,
    "Ġsmith": 16068,
    "hullo": 17572,
    "Ġpeaceful": 9458,
    "Ġpersecutor": 26097,
    "Ġempty": 5354,
    "tha": 15827,
    "iosity": 2327,
    "Ġcollected": 2611,
    "Ġoutset": 15959,
    "detached": 19677,
    "âĢ": 294,
    "Ġtaking": 3250,
    "Ġbison": 21391,
    "Ġlawy": 9457,
    "sticking": 21663,
    "aston": 7408,
    "ropes": 7903,
    "Ġfamous": 5256,
    "past": 8090,
    "frisco": 16789,
    "Ġtrifle": 10604,
    "befall": 22499,
    "Ġamend": 16038,
    "Ġensemble": 1604,
    "Ġpractically": 13104,
    "Ġgenteel": 19984,
    "Ġransacked": 26507,
    "Ġstim": 18069,
    "Ġspreading": 13382,
    "Ġscuffle": 20611,
    "Ġregularizer": 2339,
    "Ġavail": 11228,
    "riot": 18184,
    "Ġharbors": 24902,
    "Ġeffectually": 16172,
    "abby": 14024,
    "Ġwalton": 14975,
    "Ġemotions": 8972,
    "prints": 23816,
    "whose": 6852,
    "Ġadjusts": 8983,
    "Ġsurging": 19135,
    "Ġanswering": 7477,
    "Ġcontain": 1552,
    "Ġcolumn": 9331,
    "Ġperpetual": 12307,
    "niece": 20997,
    "Ġgazette": 19504,
    "prepared": 13594,
    "Ġintend": 12769,
    "pening": 2834,
    "Ġpartially": 13127,
    "incidentally": 20542,
    "Ġstruggled": 9908,
    "Ġearthquake": 14630,
    "forehead": 8518,
    "Ġemerged": 8688,
    "cruising": 12284,
    "Ġahoy": 12189,
    "Ġweighty": 16035,
    "Ġpeace": 3692,
    "neurons": 3137,
    "astern": 8585,
    "Ġcolleague": 17162,
    "Ġadmires": 19688,
    "Ġscrut": 15950,
    "sheets": 14445,
    "Ġindulging": 16906,
    "Ġmuff": 8114,
    "Ġblandly": 20326,
    "mixed": 17607,
    "bes": 6644,
    "Ġelix": 22647,
    "unnecessary": 21884,
    "circumstance": 7764,
    "situation": 11439,
    "feit": 16046,
    "Ġbeneath": 3239,
    "Ġspeedily": 7712,
    "Ġankles": 17901,
    "Ġthat": 334,
    "itement": 7835,
    "hole": 5587,
    "Ġlivel": 11357,
    "lighted": 23757,
    "Ġspear": 9317,
    "ĠĠĠĠĠĠĠĠĠĠĠĠĠĠĠĠĠĠĠĠĠĠĠĠĠĠĠ": 14889,
    "Ġtechni": 1745,
    "elopement": 23152,
    "detained": 24382,
    "shook": 19858,
    "Ġlanguage": 651,
    "Ġbidirectional": 3754,
    "Ġtowers": 16740,
    "Ġharry": 24572,
    "Ġlabors": 23332,
    "ersburgh": 18216,
    "belief": 13286,
    "Ġsuspects": 16892,
    "Ġadoration": 18291,
    "Ġmarble": 7669,
    "Ġpreferment": 19855,
    "goldsmith": 20150,
    "T": 56,
    "Ġkn": 4547,
    "Ġpitching": 16613,
    "Ġhither": 4759,
    "over": 1848,
    "Ġjoes": 19233,
    "Ġswimmer": 19462,
    "Ġaffirm": 11891,
    "Ġdeact": 18141,
    "Ġguns": 16778,
    "Ġapproached": 5844,
    "spanish": 14336,
    "Ġtotal": 4993,
    "starbuck": 6020,
    "Ġjanuary": 13657,
    "Ġplate": 8902,
    "vess": 7354,
    "qualified": 17099,
    "Ġsepulch": 15288,
    "Ġgarments": 15197,
    "habit": 16192,
    "stick": 15689,
    "Ġthreat": 5154,
    "zing": 7820,
    "Ġache": 18664,
    "Ġdisappears": 18561,
    "third": 8168,
    "jabez": 20935,
    "Ġspecially": 12002,
    "Ġpassionate": 11275,
    "Ġfeared": 5932,
    "three": 5239,
    "Ġplains": 14625,
    "Ġ4": 3987,
    "Ġdegrees": 7294,
    "Ġinfinitely": 8966,
    "ified": 3228,
    "ula": 2827,
    "Ġendeavor": 16547,
    "Ġacknowledges": 24689,
    "piling": 15418,
    "Ġtro": 7356,
    "hatchway": 25905,
    "pacing": 21023,
    "Ġlay": 585,
    "Ġsteed": 13046,
    "Ġfanatic": 23395,
    "words": 7983,
    "Ġsuperglue": 23458,
    "ged": 1514,
    "bony": 15323,
    "Ġeldest": 6573,
    "Ġslink": 23167,
    "fiercely": 25257,
    "Ġrap": 14308,
    "Ġchronicled": 25329,
    "Ġsubsequent": 7659,
    "table": 5795,
    "Ġglare": 13022,
    "complaisance": 24808,
    "Ġintersect": 22579,
    "Ġlucerne": 23867,
    "nelson": 25621,
    "Ġcapric": 14578,
    "Ġhelps": 9370,
    "Ġresults": 7308,
    "Ġshoot": 11163,
    "Ġhundred": 2692,
    "Ġgases": 21605,
    "Ġemblematical": 25789,
    "vision": 5620,
    "Ġnights": 7258,
    "Ġbodies": 8032,
    "Ġseams": 12129,
    "Ġlasted": 11055,
    "Ġgrows": 4985,
    "swed": 24256,
    "archical": 1926,
    "Ġforgot": 4684,
    "_": 67,
    "reat": 617,
    "purp": 8091,
    "Ġfavoring": 2344,
    "cheap": 23807,
    "Ġstrait": 23753,
    "yards": 9626,
    "lightened": 12069,
    "Ġremark": 2144,
    "Ġfatal": 5873,
    "Ġcomputation": 965,
    "Ġlightly": 13088,
    "Ġindisp": 18836,
    "Ġball": 3624,
    "Ġgallant": 8658,
    "Ġfatally": 19397,
    "Ġmarket": 7709,
    "Ġvelvet": 12402,
    "Ġretreated": 13437,
    "Ġhelm": 5276,
    "Ġcalmness": 12098,
    "onist": 21253,
    "Ġspouted": 14677,
    "Ġlordly": 23747,
    "tical": 10131,
    "faces": 13723,
    "Ġdubious": 17386,
    "Ġcosy": 13135,
    "gods": 13371,
    "Ġhydraul": 9517,
    "Ġapply": 1776,
    "Ġturned": 2133,
    "Ġremarkably": 7703,
    "Ġgidd": 25784,
    "Ġvoc": 4453,
    "multiple": 15111,
    "awe": 20767,
    "Ġoccurrences": 11052,
    "Ġdebts": 8036,
    "moving": 11018,
    "Ġabuse": 18393,
    "blame": 14796,
    "Ġhearty": 9848,
    "Ġdwelt": 12615,
    "Ġben": 1106,
    "networks": 2403,
    "Ġunbounded": 18260,
    "Ġwalled": 15538,
    "significant": 25085,
    "Ġphysical": 7522,
    "Ġexceeded": 14436,
    "Ġdiscourse": 9801,
    "Ġlar": 766,
    "Ġpathetic": 19019,
    "conc": 3949,
    "otent": 8836,
    "infor": 2983,
    "Ġbo": 794,
    "Ġalbert": 12711,
    "tim": 13794,
    "calmed": 16208,
    "ffic": 22155,
    "Ġwriting": 4668,
    "smoking": 23914,
    "Ġrecognition": 3102,
    "antucket": 2642,
    "heav": 5694,
    "Ġhoof": 23356,
    "Ġjustify": 11074,
    "Ġcoun": 4178,
    "sin": 21051,
    "stri": 6251,
    "Ġoriginated": 24124,
    "pling": 8477,
    "Ġinfluenced": 19635,
    "mency": 18928,
    "Ġprayed": 16670,
    "Ġ131": 24781,
    "Ġreciproc": 20625,
    "Ġdrifted": 14627,
    "rated": 6229,
    "certainly": 5340,
    "Ġgodly": 19082,
    "Ġeel": 18004,
    "Ġdivide": 12115,
    "offered": 14521,
    "Ġcorrection": 5062,
    "Ġbare": 6134,
    "Ġgems": 9211,
    "Ġdanced": 7842,
    "st": 316,
    "Ġyourselves": 9031,
    "Ġmisfortune": 5569,
    "ilted": 21726,
    "flame": 16640,
    "Ġslipper": 24268,
    "wet": 15455,
    "Ġpoured": 8805,
    "Ġdeuteronomy": 15764,
    "Ġexec": 19495,
    "Ġwhole": 1660,
    "]]": 5205,
    "Ġcomstock": 21855,
    "Ġperf": 12854,
    "fight": 17540,
    "Ġconcealing": 23906,
    "Ġtakings": 20575,
    "Ġmultitud": 18748,
    "Ġfashioned": 13325,
    "Ġvaliant": 9803,
    "Ġswear": 6462,
    "Ġshocks": 16459,
    "atha": 6574,
    "Ġpit": 3420,
    "ateur": 22012,
    "Ġencompassed": 15257,
    "Ġplaying": 6909,
    "Ġcrossed": 6070,
    "Ġdelicately": 24127,
    "Ġgrin": 5482,
    "?_": 8070,
    "Ġquick": 2581,
    "Ġabsurdly": 19963,
    "Ġblade": 11897,
    "Ġdegrad": 2589,
    "Ġrepresentation": 14408,
    "limping": 26395,
    "Ġobsequ": 14323,
    "Ġalbino": 20506,
    "Ġweary": 5635,
    "Ġlinks": 13958,
    "Ġwallowing": 24047,
    "tasted": 17689,
    "Ġsc": 532,
    "rely": 6125,
    "ientiously": 21945,
    "Ġassertion": 13493,
    "rabbit": 20594,
    "Ġwounding": 19589,
    "Ġimplicit": 19961,
    "Ġscore": 9741,
    "neighbourhood": 10028,
    "Ġvalidate": 2926,
    "Ġgive": 1711,
    "sisters": 13380,
    "summer": 11998,
    "Ġsatisfactory": 11194,
    "Ġintegr": 7969,
    "Ġbehaves": 23302,
    "Ġreadiness": 13055,
    "Ġsegmentation": 17343,
    "liking": 22927,
    "Ġfills": 12599,
    "Ġshaping": 22007,
    "Ġstare": 10866,
    "Ġtangle": 25761,
    "Ġroad": 3883,
    "ink": 756,
    "Ġblasphemy": 26116,
    "Ġplan": 3884,
    "educated": 17262,
    "rodden": 21538,
    "sofa": 26147,
    "cloudless": 20335,
    "uttural": 21592,
    "eminent": 25107,
    "Ġcomplained": 17000,
    "Ġtired": 9152,
    "calabash": 22899,
    "Ġassumptions": 5517,
    "bedstead": 23935,
    "elf": 564,
    "Ġpaintings": 15058,
    "Ġplants": 22601,
    "grad": 2566,
    "adie": 18091,
    "ameter": 2846,
    "degrad": 22129,
    "Ġfacil": 16964,
    "Ġdub": 13913,
    "Ġthyself": 6604,
    "Ġquickly": 4242,
    "Ġuppermost": 15282,
    "Ġopinion": 3145,
    "begged": 18521,
    "Ġdiscern": 7926,
    "Ġwaste": 9237,
    "Ġrascally": 26509,
    "Ġartistic": 18613,
    "ady": 997,
    "Ġunmindful": 22070,
    "ome": 535,
    "l": 80,
    "Ġaux": 21202,
    "Ġvinegar": 20103,
    "Ġperform": 1038,
    "Ġunite": 9257,
    "Ġlydia": 2372,
    "ediction": 17947,
    "strained": 21661,
    "Ġschedules": 3386,
    "intellect": 18823,
    "Ġexpanded": 14292,
    "Ġsubtle": 6718,
    "Ġrenounce": 19471,
    "unavoidable": 17393,
    "Ġprograms": 7239,
    "isation": 13896,
    "Ġunlabeled": 3802,
    "Ġorb": 22095,
    "Ġsympathised": 14865,
    "Ġtrumpet": 9576,
    "terbury": 21828,
    "redit": 3878,
    "ained": 3065,
    "Ġbounty": 26439,
    "knowing": 10439,
    "ifle": 10893,
    "quished": 21858,
    "Ġshad": 3852,
    "fam": 5990,
    "Ġlodger": 24096,
    "handsome": 13180,
    "gre": 5788,
    "Ġdespite": 19356,
    "Ġ132": 19898,
    "Ġcompos": 22573,
    "Ġprecipices": 12282,
    "Ġutter": 3976,
    "æ": 167,
    "shutters": 20314,
    "Ġcarbuncle": 14448,
    "balance": 12011,
    "ething": 1598,
    "Ġleathern": 15052,
    "oof": 15408,
    "breckinridge": 24078,
    "Ġyork": 11668,
    "retirement": 23143,
    "aract": 17889,
    "journey": 8748,
    "Õ": 150,
    "Ġgrandfather": 19425,
    "nants": 17615,
    "office": 16399,
    "waist": 13422,
    "--------": 14785,
    "bbed": 6911,
    "Ġinsinuating": 19273,
    "Ġintercourse": 11000,
    "Ġignoble": 19402,
    "greenland": 10024,
    "acity": 5735,
    "Ġautoregressive": 3431,
    "det": 5207,
    "Ġdiscussion": 17197,
    "Ġvesture": 20065,
    "Ġdrives": 14580,
    "Ġinstructions": 11197,
    "Ġcanopy": 18320,
    "Ġcot": 13880,
    "leap": 21370,
    "Ġvestibule": 13540,
    "Ġgunwales": 12245,
    "Ġfarewell": 9523,
    "Ġmilitia": 13322,
    "Ġlysander": 13143,
    "Ġwides": 17790,
    "Ġhymn": 24518,
    "barrel": 17061,
    "Ġcooped": 22584,
    "sustained": 20571,
    "tie": 21071,
    "represent": 9640,
    "Ġjon": 15952,
    "Ġapprobation": 10987,
    "rer": 3623,
    "robber": 21540,
    "children": 9058,
    "apolog": 22336,
    "Ġintrude": 25991,
    "ship": 1391,
    "Ġalpine": 18108,
    "Ġpages": 15612,
    "Ġsalutation": 12401,
    "disgraceful": 26077,
    "Ġrelease": 19293,
    "Ġcatastrop": 3346,
    "Ġ>": 21154,
    "Ġprying": 15613,
    "Ġincredible": 9518,
    "cing": 1015,
    "Ġ1890": 23900,
    "hoped": 20912,
    "Ġdeferred": 18827,
    "instinct": 19546,
    "hun": 5210,
    "Ġsuffocated": 20730,
    "Ġcorpus": 13037,
    "Ġtransition": 14236,
    "Ġlose": 5028,
    "Ġancient": 5443,
    "Ġmeridians": 17358,
    "Ġ36": 14770,
    "Ġgover": 2458,
    "Ġeasiness": 23539,
    "Ġstranger": 3486,
    "Ġcustoms": 19655,
    "Ġmon": 1250,
    "Ġravine": 18648,
    "Ġfam": 1583,
    "Ġdisgust": 6707,
    "Ġthundering": 24293,
    "scuttle": 11914,
    "county": 25397,
    "Ġhundredth": 16520,
    "Ġcoff": 3508,
    "Ġfruits": 17121,
    "Ġwatches": 11083,
    "Ġglittering": 10056,
    "Ġconsiderations": 9413,
    "exact": 7910,
    "Ġoft": 9197,
    "Ġpondering": 17007,
    "Ġexpansion": 22627,
    "Ġblundering": 26285,
    "cast": 2930,
    "heed": 15501,
    "Ġtrusted": 10520,
    "uss": 8767,
    "Ġsends": 14792,
    "Ġreel": 9216,
    "hies": 17562,
    "Ġjustinian": 22972,
    "confirm": 16809,
    "Ġdav": 15596,
    "ald": 15629,
    "Ġmiraculous": 13551,
    "ising": 2253,
    "Ġflaming": 8567,
    "ony": 3030,
    "Ġstrangled": 24135,
    "Ġunion": 6839,
    "athans": 7433,
    "Ġjupiter": 17459,
    "orrah": 17877,
    "Ġrun": 2354,
    "Ġinflicted": 11367,
    "Ġpresided": 20210,
    "Ġloungers": 24863,
    "mpus": 13760,
    "Ġfondness": 16782,
    "lived": 12491,
    "ascar": 8436,
    "lad": 5993,
    "wers": 12524,
    "escaped": 14233,
    "Ġincreased": 2209,
    "Ġsphy": 18314,
    "onden": 13847,
    "grained": 20885,
    "silent": 9977,
    "li": 1189,
    "Ġanyhow": 14257,
    "inuating": 16206,
    "Ġade": 22105,
    "Ġwinds": 5746,
    "Ġdisorder": 16055,
    "Ġnoisier": 4625,
    "Ġwho": 612,
    "throne": 25658,
    "Ġflea": 23776,
    "kindled": 16663,
    "Ġhereabouts": 12983,
    "Ġflank": 8229,
    "Ġhaughty": 11451,
    "kicked": 20945,
    "Ġsnaky": 23745,
    "Ã¦mon": 7096,
    "cannot": 5745,
    "fro": 8736,
    "Ġsaluted": 14761,
    "Ġghosts": 12237,
    "Ġundeceive": 25553,
    "soup": 21061,
    "da": 17516,
    "Ġmid": 2615,
    "Ġwhip": 8453,
    "Ġfries": 21418,
    "hinting": 17571,
    "phr": 18712,
    "Ġenabling": 1080,
    "Ġaut": 1813,
    "Ġlaudanum": 20693,
    "leader": 25352,
    "greg": 6650,
    "hunt": 20905,
    "Ġspotted": 12143,
    "Ġcultivated": 17367,
    "Ġsidel": 9638,
    "damn": 20027,
    "queer": 10366,
    "thoughtfully": 24048,
    "Ġlead": 3523,
    "Ġticking": 25036,
    "thought": 3851,
    "uish": 5431,
    "onious": 15521,
    "Ġdick": 3498,
    "ber": 904,
    "Ġreign": 13988,
    "Ġsinks": 19552,
    "Ġnon": 1623,
    "extensive": 18710,
    "Ġinconceivable": 17940,
    "fere": 10991,
    "Ġsalisbury": 24068,
    "Ġpricking": 23220,
    "information": 12397,
    "stones": 11639,
    "Ġdeaths": 14539,
    "Ġdamning": 19141,
    "az": 2181,
    "mb": 882,
    "Ġlonely": 6823,
    "pequod": 7054,
    "embra": 14079,
    "Ġmidships": 23635,
    "Ġhelplessness": 25074,
    "Ġsurvivors": 25732,
    "Ġdeplored": 20508,
    "olstadt": 7789,
    "Ġtoy": 15638,
    "hogs": 20085,
    "onted": 11570,
    "Ġmagnifying": 16324,
    "Ġobjectionable": 16993,
    "you": 1007,
    "ispens": 8336,
    "tese": 21086,
    "reference": 13843,
    "events": 12321,
    "Ġassured": 4375,
    "oblig": 16294,
    "Ġinform": 999,
    "Ġvolcanoes": 24148,
    "erate": 7150,
    "Ġscre": 9740,
    "brow": 15319,
    "isf": 2431,
    "Ġagonized": 25373,
    "asable": 21544,
    "describe": 1516,
    "concerted": 16674,
    "isive": 10795,
    "Ġvirtues": 9939,
    "tumult": 12427,
    "Ġgrowth": 14631,
    "Ġlob": 7628,
    "icirc": 15660,
    "Ġlamp": 4114,
    "Ġeighty": 19479,
    "ontory": 10461,
    "Ġthanking": 18603,
    "Ġweave": 21925,
    "Ġattempt": 3487,
    "draught": 12095,
    "Ġqual": 6276,
    "Ġheap": 12683,
    "Ġpicking": 11261,
    "Ġandrew": 21510,
    "Ġslate": 11942,
    "Ġinstrum": 6056,
    "Ġalgorithm": 772,
    "sters": 6392,
    "u": 89,
    "Ġrind": 21976,
    "Ġaccomplishment": 19668,
    "arent": 4250,
    "dread": 8732,
    "five": 6358,
    "Ġdaunt": 19667,
    "cent": 8073,
    "Ġcove": 22583,
    "Ġaffirmative": 15226,
    "Ġapprehension": 7115,
    "Ġcadiz": 17328,
    "Ġbanqu": 12593,
    "Ġprepared": 5878,
    "Ġindulgence": 11321,
    "autumn": 23345,
    "Ġwhisker": 23938,
    "urons": 3133,
    "red": 396,
    "Ġdrove": 4984,
    "Ġredoubled": 23756,
    "Ġquito": 24408,
    "ription": 5676,
    "chan": 1162,
    "eag": 20844,
    "Ġtargets": 4205,
    "Ġstone": 4646,
    "rugg": 15900,
    "Ġwidows": 24239,
    "our": 534,
    "Ö": 151,
    "Ġarter": 22186,
    "walking": 9985,
    "object": 6884,
    "Ġ38": 24082,
    "Ġproductions": 22949,
    "Ġtremulous": 14989,
    "Ġbarrens": 25502,
    "G": 43,
    "Ġbugs": 13652,
    "ĠĠĠĠĠĠĠĠĠĠĠĠĠĠĠĠĠĠĠĠĠĠĠĠĠĠĠĠĠĠĠĠĠĠĠĠĠĠĠĠĠĠĠĠ": 12158,
    "Ġlain": 17964,
    "Ġprop": 1679,
    "Ġslammed": 20451,
    "Ġeternity": 12283,
    "Ġbecoming": 4400,
    "Ġreached": 4023,
    "tail": 8765,
    "Ġresponses": 23650,
    "horrors": 20544,
    "Ġbashful": 20423,
    "Ġbulldog": 23862,
    "Ġtimid": 6347,
    "Ġdetermined": 2219,
    "Ġcomplacency": 19451,
    "Ġkicked": 10584,
    "ources": 2791,
    "network": 1922,
    "Ġbusks": 23342,
    "Ġhypotheses": 4389,
    "Ġfowls": 8694,
    "Ġniece": 5712,
    "impatient": 13644,
    "Ġwis": 3727,
    "Ġha": 400,
    "chant": 4259,
    "Ġtwit": 12934,
    "Ġleaves": 5021,
    "ud": 916,
    "Ġsponge": 26004,
    "Ġwedding": 4817,
    "Ġdouble": 4940,
    "imitably": 21714,
    "Ġcondition": 6765,
    "Ġrushed": 4088,
    "Ġuneasy": 8665,
    "onah": 3336,
    "onsible": 22565,
    "Ġproposals": 10616,
    "motion": 17608,
    "Ġembeddings": 2070,
    "Ġsmaller": 1884,
    "Ġleaps": 14005,
    "Ġgeomet": 3193,
    "Ġwithdraw": 16966,
    "ensibility": 22551,
    "copyright": 5278,
    "Ġbitter": 4173,
    "upset": 23020,
    "Ġtacit": 21177,
    "impressed": 12696,
    "shown": 22453,
    "Ġconfusing": 23309,
    "Ġbas": 6381,
    "ohnson": 16329,
    "Ġdisappearance": 9300,
    "Ġencoding": 4774,
    "bless": 22316,
    "Ġsir": 1567,
    "Ġpreserve": 7529,
    "Ġul": 6828,
    "Ġalcoves": 26488,
    "sails": 7497,
    "fee": 12885,
    "found": 4215,
    "brary": 5755,
    "Ġvaluable": 5608,
    "Ġbeautifully": 13271,
    "useness": 22286,
    "ench": 21282,
    "Ġsuperb": 16444,
    "Ġunthinkingly": 26222,
    "Ġmarines": 16265,
    "Ġdoubling": 23324,
    "Ġparchment": 13656,
    "Ġeverybody": 4512,
    "Ġpillar": 21475,
    "======================================================================": 10071,
    "Ġeffect": 973,
    "itary": 4751,
    "Ġcruelly": 13379,
    "unquiet": 21885,
    "Ġfulfilled": 11364,
    "Ġaust": 4872,
    "Ġsil": 1796,
    "vous": 2250,
    "consequence": 9766,
    "Ġcr": 2149,
    "Ġstride": 22619,
    "Ġcoquet": 22585,
    "bald": 16446,
    "Ġhatty": 19267,
    "Ġimpose": 22386,
    "Ġpolice": 4675,
    "Ġfrosty": 14938,
    "Ġmouse": 4694,
    "fair": 10095,
    "Ġbasement": 24701,
    "work": 1777,
    "ioning": 21512,
    "Ġpiling": 17911,
    "Ġconstruct": 23344,
    "somewhere": 12017,
    "ccarthy": 4889,
    "Ġslumber": 13065,
    "knew": 9129,
    "Ġdeserving": 14756,
    "Ġunbecoming": 22068,
    "pl": 402,
    "Ġlizard": 12659,
    "hastened": 16847,
    "Ġret": 1381,
    "Ġterritories": 23849,
    "moon": 10338,
    "alous": 7372,
    "Ġemph": 14527,
    ";--": 8069,
    "Ġgreat": 894,
    "Ġarticle": 9505,
    "Ġheinous": 18041,
    "Ġbark": 10800,
    "Ġtow": 4398,
    "Ġrevive": 13483,
    "Ġclutching": 24954,
    "ohn": 4562,
    "Ġislands": 6767,
    "Ġdisreputable": 22538,
    "Ġimbued": 17458,
    "Ġabating": 22271,
    "stalk": 21653,
    "Ġpolite": 9885,
    "Ġunsub": 22027,
    "Ġabandoned": 8352,
    "Ã¦us": 14820,
    "Ġpa": 2990,
    "Ġcasked": 24497,
    "needle": 20316,
    "ruit": 22181,
    "itage": 17818,
    "afterwards": 7484,
    "arrested": 15593,
    "bring": 9108,
    "Ġprogramming": 1184,
    "Ġtatters": 21180,
    "neighbour": 7211,
    "Ġbaronial": 23796,
    "oid": 3129,
    "Ġdirectly": 2104,
    "Ġsoon": 1229,
    "Ġjungfrau": 15252,
    "elizabeth": 1985,
    "Ġrivals": 20274,
    "Ġindependence": 12109,
    "Ġpile": 8425,
    "compliments": 24807,
    "Ġtwinkling": 12328,
    "augh": 1782,
    "Ġdishes": 16054,
    "atherine": 2595,
    "heard": 5009,
    "Ġcapacious": 19178,
    "sleepers": 24729,
    "Ġcommands": 16591,
    "Ġwhispered": 5338,
    "Ġrighteous": 18948,
    "gradient": 2271,
    "Ġskylarking": 19490,
    "ĠĠĠĠĠĠĠĠĠĠĠĠĠĠĠĠĠĠĠĠĠĠĠĠĠĠĠĠĠĠĠĠĠĠĠĠĠĠĠĠ": 4518,
    "Ġrecent": 7436,
    "Ġwild": 2602,
    "coburg": 13602,
    "define": 1527,
    "Ġelastic": 4364,
    "Ġalphabetical": 17204,
    "Ġsoapstone": 20514,
    "event": 8077,
    "Ġunhappiness": 14121,
    "bloom": 24690,
    "leaned": 21372,
    "Ġlanguages": 1566,
    "agreeable": 5830,
    "Ġfordham": 21780,
    "Ġcuriously": 13019,
    "Ġdisturbance": 15015,
    "Ġzer": 1095,
    "evening": 7091,
    "ensive": 6281,
    "Ġforbe": 8459,
    "Ġspin": 7631,
    "seeing": 7080,
    "Ġflood": 7716,
    "Ġglu": 15672,
    "island": 10796,
    "Ġadrift": 11726,
    "too": 4509,
    "Ġbury": 12045,
    "õ": 182,
    "Ġwinged": 16997,
    "Ġextent": 7656,
    "Ġunbending": 25465,
    "Ġredress": 23755,
    "ner": 1367,
    "Ġweek": 2828,
    "hued": 20913,
    "Ġhealthcare": 8016,
    "Ġmagical": 23102,
    "Ġedd": 8398,
    "operation": 13504,
    "?âĢĶ": 3469,
    "wanderer": 25424,
    "Ġmastiff": 23728,
    "Ġfrankenstein": 7097,
    "Ġphys": 5653,
    "countless": 24152,
    "Ġportents": 14681,
    "embarr": 17295,
    "Ġpiratical": 24798,
    "Ġcetus": 19887,
    "fell": 6953,
    "Ġsquee": 7929,
    "mindful": 19602,
    "Ġlandsmen": 11353,
    "Ġborne": 6353,
    "Ġthey": 574,
    "robust": 19731,
    "nurs": 21001,
    "Ġlimits": 3454,
    "Ġproblems": 2850,
    "Ġcongregational": 25105,
    "Ġmainly": 22652,
    "Ġfewer": 16228,
    "overs": 17623,
    "inquiry": 15146,
    "settle": 16664,
    "Ġlovel": 10274,
    "Ġberries": 13411,
    "Ġmode": 8500,
    "Ġlive": 2734,
    "pse": 21011,
    "weaknesses": 26031,
    "Ġranks": 21979,
    "alas": 8808,
    "crown": 13702,
    "Ġempire": 11147,
    "Ġejac": 10206,
    "progression": 20385,
    "z": 94,
    "Ġfest": 10806,
    "Ġdisplaying": 16968,
    "Ġswashing": 23059,
    "gged": 3776,
    "ingham": 21303,
    "sick": 13787,
    "Ġbridges": 24683,
    "Ġheartily": 6890,
    "Ġberm": 21386,
    "Ġastronomy": 25927,
    "Ġcrept": 11024,
    "Ġconvinced": 4206,
    "Ġbab": 5291,
    "metic": 14987,
    "Ġsuffers": 2974,
    "Ġlowers": 23244,
    "Ġsem": 1878,
    "Ġimpulsively": 24881,
    "quakes": 21860,
    "Ġwearied": 15798,
    "Ġhenry": 5197,
    "Ġradiance": 13375,
    "Ġhighlands": 22775,
    "Ġpoul": 15617,
    "afford": 14656,
    "Ġabandonment": 25604,
    "Ġberyls": 25776,
    "Ġexceedingly": 4615,
    "unvarying": 21891,
    ":âĢĶ": 4434,
    "ige": 12684,
    "relu": 17761,
    "Ġtents": 13821,
    "Ġjudgment": 5765,
    "Ġproposition": 23252,
    "isome": 17850,
    "sleep": 6512,
    "Ġrepenting": 25323,
    "orers": 14106,
    "Ġunspeakable": 10059,
    "Ġready": 3398,
    "Ġaback": 22270,
    "Ġfiddle": 25445,
    "Ġinj": 4760,
    "Ġinflex": 20637,
    "Ġservices": 11219,
    "fulfil": 16040,
    "tackles": 25625,
    "Ġingen": 9052,
    "Ġentropy": 2031,
    "ornament": 23490,
    "gen": 6504,
    "Ġqueequeg": 2013,
    "Ġexpenses": 11837,
    "raised": 15683,
    "Ġcountenance": 3972,
    "Ġlambton": 10660,
    "Ġloggerhead": 13661,
    "Ġowes": 20088,
    "Ġantiquity": 15234,
    "Ġpearl": 20380,
    "Ġmutters": 23959,
    "Ġreflections": 5948,
    "Ġmodels": 740,
    "Ġapparatus": 24909,
    "Ġexaggerated": 25651,
    "symp": 14618,
    "prophecy": 22851,
    "Ġrevolver": 14903,
    "twain": 23704,
    "Ġpretend": 7722,
    "Ġaudible": 19883,
    "ring": 1752,
    "distressed": 24202,
    "Ġphysiognomical": 25612,
    "ishing": 1144,
    "saved": 15434,
    "Ġcrevice": 22728,
    "lop": 20950,
    "Ġbottle": 7490,
    "Ġscreening": 25301,
    "chor": 6148,
    "Ġinterpretation": 19719,
    "prophet": 16185,
    "cheerfulness": 20183,
    "una": 21873,
    "Ġbubbles": 11400,
    "enari": 21284,
    "Ġdiffidence": 14661,
    "Ġstreams": 12197,
    "igations": 18045,
    "Ġcurling": 9346,
    "con": 652,
    "halfway": 24313,
    "arted": 2200,
    "d": 72,
    "Ġunderstanding": 1834,
    "Ġtempestuous": 20074,
    "Ġaccurate": 13278,
    "Ġunwilling": 7886,
    "Ġdirecting": 16303,
    "glad": 9011,
    "think": 3610,
    "Ġdece": 6997,
    "iot": 9603,
    "Ġmand": 21307,
    "Ġattentively": 9953,
    "ambition": 13415,
    "Ġfainter": 14917,
    "Ġdepends": 1133,
    "Ġrouse": 15826,
    "Ġjewel": 9945,
    "quod": 2164,
    "Ġconquered": 14029,
    "Ġprogeny": 17391,
    "pray": 5429,
    "ĠĊ": 12528,
    "afer": 17484,
    "wretched": 10743,
    "sper": 4437,
    "Ġbulky": 13233,
    "\"": 6,
    "Ġfer": 5529,
    "exertion": 16020,
    "aced": 2405,
    "Ġperennial": 22697,
    "Ġtortoise": 16910,
    "Ġdomestic": 6910,
    "Ġwes": 8783,
    "Ġcabal": 23643,
    "throughout": 24091,
    "Ġgardiners": 11159,
    "arming": 8954,
    "inate": 6235,
    "Ġvisibly": 22864,
    "Ġicicles": 25265,
    "Ġproof": 6155,
    "mag": 6509,
    "Ġblush": 14405,
    "pride": 11212,
    "Ġvivid": 8058,
    "riage": 2123,
    "Ġwester": 25156,
    "Ġunflinching": 26514,
    "icing": 9203,
    "Ġsupercil": 23455,
    "Ġesteemed": 10591,
    "Ġadmission": 23558,
    "bowing": 24454,
    "Ġpuff": 6527,
    "Ġgrasp": 4664,
    "Ġconspicuous": 13607,
    "Ġoppressively": 25711,
    "pus": 3415,
    "Ġtip": 15474,
    "iffe": 21906,
    "Ġcarav": 18903,
    "Ġabsorbed": 12335,
    "clam": 13060,
    "Ġexagger": 12724,
    "pires": 13778,
    "Ġoutdone": 22322,
    "Ġstrives": 23699,
    "Ġdry": 5624,
    "Ġimmersed": 19488,
    "vig": 15449,
    "Ġpistols": 17332,
    "Ġmeasures": 1206,
    "Ġankers": 21448,
    "Ġloitering": 22120,
    "lord": 3867,
    "Ġplague": 11828,
    "Ġviewing": 19266,
    "wand": 10740,
    "Ġrealising": 18983,
    "Ġresounds": 22546,
    "2": 22,
    "Ġnoteworthy": 24164,
    "Ġunprepared": 22054,
    "Ġneedle": 8275,
    "Ġhaste": 9006,
    "accordingly": 19215,
    "ª": 108,
    "Ġsoap": 14135,
    "Ġcustom": 5078,
    "rarely": 21637,
    "ts": 960,
    "icular": 2023,
    "served": 5043,
    "Ġadoption": 24951,
    "Ġ1836": 25721,
    "place": 4154,
    "85": 13685,
    "Ġmajest": 24065,
    "mrs": 3744,
    "aculate": 16086,
    "Ġguineas": 16274,
    "fes": 20853,
    "Ġciv": 3308,
    "world": 5058,
    "Ġabstra": 22275,
    "Ġforgiven": 24030,
    "Ġcred": 8785,
    "Ġmodeling": 2094,
    "Ġassign": 11112,
    "ropy": 1100,
    "Ġcraven": 16472,
    "Ġasi": 12737,
    "Ġfavourably": 16368,
    "Ġmeta": 3387,
    "Ġbachelors": 24861,
    "illation": 14144,
    "Ġtouched": 6002,
    "Ġugl": 12687,
    "Ġdecide": 9289,
    "actorily": 25577,
    "Ġfool": 4236,
    "Ġgenerating": 12857,
    "kilt": 4867,
    "brothers": 17026,
    "Ġglimpses": 13436,
    "Ġpatagonia": 25857,
    "È": 137,
    "Ġfrowning": 13627,
    "light": 3018,
    "Ġshare": 1656,
    "Ġattending": 3285,
    "moved": 9787,
    "Ġperception": 9753,
    "Ġhypothe": 4075,
    "Ġdisgracing": 26257,
    "constellation": 24608,
    "exp": 2736,
    "Ġpantheistic": 26337,
    "viating": 14581,
    "Ġconsol": 3818,
    "Ġaccuse": 14212,
    "Ġlavenza": 17973,
    "Ġpreaching": 15930,
    "atives": 2233,
    "Ġrevered": 23737,
    "Ġnapole": 15119,
    "followed": 8339,
    "tempestuous": 26098,
    "Ġcounsell": 25385,
    "iour": 4038,
    "fo": 5279,
    "discovering": 24254,
    "Ġcatastrophe": 10486,
    "Ġsped": 22139,
    "Ġgaped": 13970,
    "appin": 18759,
    "Ġconsult": 6058,
    "Ġimplac": 24875,
    "Ġbosoms": 16797,
    "arson": 22752,
    "necessities": 24308,
    "Ġquestions": 3974,
    "out": 468,
    "urns": 10216,
    "merry": 16539,
    "Ġinequal": 21500,
    "Ġhistorically": 19381,
    "Ġlike": 668,
    "gust": 6362,
    "pate": 21012,
    "Ġpretension": 23767,
    "Ġwhatever": 3475,
    "Ġturnpike": 23029,
    "Ġcompat": 2940,
    "Ġmisty": 16542,
    "intend": 16227,
    "Ġale": 9157,
    "ht": 375,
    "Ġholder": 6726,
    "Ġcourtiers": 24138,
    "Ġbesee": 19245,
    "Ġgibraltar": 25788,
    "Ġtort": 5903,
    "Ġloosened": 26003,
    "Ġim": 475,
    "record": 16923,
    "before": 3116,
    "Ġap": 5008,
    "======": 9836,
    "Ġcrush": 9425,
    "Ġtal": 7564,
    "aren": 10077,
    "iger": 8448,
    "Ġdatasets": 2386,
    "Ġassembled": 9239,
    "ina": 21182,
    "Ġgasfitters": 25041,
    "larking": 17596,
    "Ġparch": 11730,
    "Ġfriendship": 7246,
    "Ġindividuals": 24546,
    "Ġblight": 18819,
    "Ġbarbed": 14838,
    "library": 13004,
    "Ġinfernal": 11966,
    "Ġfrivolous": 26177,
    "Ġdazz": 11598,
    "Ġtrading": 23082,
    "Ġcreates": 2010,
    "Ġalternative": 19990,
    "usages": 22284,
    "depend": 9115,
    "Ġdevoutly": 25834,
    "Ġbuilding": 8063,
    "ĠâĢĻ": 3043,
    "Ġship": 1092,
    "bid": 5611,
    "itia": 11582,
    "Ġpersecut": 16954,
    "few": 8203,
    "embedding": 20360,
    "Ġsettles": 22923,
    "ougher": 18277,
    "water": 4869,
    "Ġadmin": 23556,
    "Ġjavel": 17085,
    "daylight": 19057,
    "abriel": 6950,
    "naturalists": 23516,
    "bable": 8722,
    "Ġengland": 3859,
    "uesday": 8590,
    "Ġdecomposes": 5506,
    "Ġgriff": 22810,
    "ribs": 23368,
    "Ġcommonplaces": 16292,
    "revenge": 13845,
    "reduced": 15809,
    "Ġperplexity": 2755,
    "Ġselves": 21225,
    "Ġnineveh": 13393,
    "Ġungenerous": 18267,
    "ricane": 16281,
    "Ġstrange": 2270,
    "é": 170,
    "Ġbowsprit": 16562,
    "Ġconducted": 10505,
    "solitude": 23299,
    "fly": 13717,
    "pursue": 24976,
    "Ġpractised": 23314,
    "Ġlandowner": 23384,
    "Ġchord": 22249,
    "asmuch": 10197,
    "frankly": 20025,
    "Ġchaldee": 26236,
    "Ġdistress": 5845,
    "finish": 24384,
    "pire": 9138,
    "appointment": 24064,
    "Ġenvy": 13187,
    "Ġdiligence": 17115,
    "Ġcombine": 4418,
    "Ġhoe": 23354,
    "mbles": 23092,
    "Ġshetland": 22168,
    "pronouncing": 25194,
    "myst": 9825,
    "Ġteaches": 18809,
    "joy": 3334,
    "Ġglad": 3325,
    "Ġfetching": 16898,
    "Ġsperma": 19052,
    "Ġhimmalehs": 26232,
    "ğ": 224,
    "ssing": 3811,
    "Ġcontradicted": 20214,
    "Ġpenn": 11114,
    "Ġexplanatory": 22208,
    "Ġcapering": 21357,
    "divers": 15346,
    "Ġselfishness": 12293,
    "olstad": 7613,
    "ouraged": 22858,
    "rolling": 9063,
    "Ġreconsidered": 21676,
    "atisf": 21266,
    "stairs": 5155,
    "Ġconference": 15751,
    "Ġbrand": 16189,
    "Ġgeorge": 3748,
    "emper": 18188,
    "Ġ1883": 23901,
    "tent": 21067,
    "Ġhears": 8139,
    "Ġ16": 7927,
    "Ġpemberley": 4589,
    "Ġcastaway": 16643,
    "carbuncle": 26384,
    "iscre": 17852,
    "strong": 6324,
    "wag": 21126,
    "Ġvigilant": 20187,
    "inea": 7623,
    "Ġwearily": 18180,
    "Ġstrata": 26028,
    "ifference": 5632,
    "spoken": 11864,
    "ems": 5236,
    "Ġjoppa": 12040,
    "Ġeuroclydon": 15300,
    "Ġliberal": 12195,
    "Ġwillingness": 24911,
    "Ġnewly": 9341,
    "slo": 17658,
    "nest": 10116,
    "laughed": 20284,
    "Ġcombing": 22859,
    "Ġbrother": 2749,
    "Ġincidents": 9302,
    "Ġstro": 4596,
    "Ġassuming": 16694,
    "worked": 19027,
    "cooper": 19191,
    "Ġcolumns": 14379,
    "iated": 5891,
    "engines": 18930,
    "Ġsoaked": 15866,
    "Ġstreet": 2959,
    "Ġplight": 14284,
    "Ġcost": 2505,
    "tro": 15436,
    "Ġczar": 12579,
    "Ġintens": 7004,
    "Ġpresented": 5183,
    "Ġjournal": 15222,
    "Ġitaly": 10869,
    "judging": 24204,
    "Ġobli": 9319,
    "oice": 1383,
    "Ġcushion": 17835,
    "reds": 12753,
    "Ġspikes": 22150,
    "Ġjollies": 20373,
    "hoping": 17568,
    "Ġspitzbergen": 15291,
    "arle": 21423,
    "anx": 8788,
    "Ġfaith": 5351,
    "Ġoverhead": 11777,
    "Ġphilosophical": 26336,
    "subs": 14302,
    "Ġpurch": 6601,
    "formation": 22219,
    "lyph": 10854,
    "Ġkitchen": 8498,
    "provoke": 26072,
    "Ġdripping": 13151,
    "Ġbrazier": 26322,
    "Ġseparately": 13307,
    "Ġfrank": 4422,
    "gratulation": 24349,
    "ming": 3602,
    "Ġexempl": 21834,
    "?âĢĿâĢĶ": 12900,
    "Ġcalling": 5662,
    "Ġprovoking": 16745,
    "Ġthickets": 24026,
    "wished": 13808,
    "Ġobtained": 7432,
    "Ġrumbling": 18212,
    "window": 7743,
    "Ġthistle": 21920,
    "Ġcav": 13883,
    "witness": 10038,
    "Ġsauc": 15892,
    "Ġable": 3080,
    "felicity": 25143,
    "python": 4692,
    "Ġheadsmen": 14735,
    "smile": 23909,
    "Ġalabama": 14022,
    "cousins": 20121,
    "Ġanimated": 7702,
    "vap": 13806,
    "Ġsleeve": 20143,
    "Ġtrod": 15029,
    "ital": 4819,
    "adow": 18090,
    "Ġdisclose": 16161,
    "Ġofficial": 7083,
    "bra": 6221,
    "ground": 4672,
    "Ġpra": 4349,
    "bular": 15317,
    "lodged": 25908,
    "Ġbeadle": 26486,
    "jee": 17581,
    "Ġindicated": 10471,
    "Ġoccupations": 9461,
    "Ġfever": 6560,
    "alled": 5912,
    "floating": 12232,
    "Ġbox": 5109,
    "recollected": 25348,
    "evidently": 20348,
    "Ġthirty": 4944,
    "Ġmind": 1619,
    "Ġnovember": 11753,
    "Ġsiber": 17757,
    "enses": 10996,
    "resent": 10771,
    "Ġfortunately": 12184,
    "Ġclearer": 16316,
    "walton": 20252,
    "ants": 1390,
    "Ġsymmet": 11751,
    "Ġflies": 13030,
    "Ġfad": 17878,
    "Ġeuroc": 14962,
    "Ġinflu": 4910,
    "ientious": 11695,
    "above": 8148,
    "expound": 23662,
    "Ġcastaways": 19431,
    "sullenly": 26150,
    "Ġdiscontented": 16063,
    "Ġprefer": 6417,
    "confid": 14870,
    "glanced": 19369,
    "Ġstrategy": 2474,
    "Ġawait": 17074,
    "viv": 17700,
    "Ġremonstrate": 22798,
    "Ġdecidedly": 9512,
    "Ġweeks": 4566,
    "Ġinside": 5448,
    "Ġgentleman": 3041,
    "fifty": 12356,
    "Ġinvaders": 23482,
    "Ġgift": 10842,
    "itals": 17822,
    "goose": 19103,
    "arth": 4444,
    "Ġfin": 1458,
    "Ġgent": 7383,
    "Ġlieu": 19567,
    "Ġalternately": 15034,
    "footed": 19692,
    "ox": 9136,
    "Ġlou": 6822,
    "Ġcanallers": 13631,
    "ith": 330,
    "Ġneg": 1331,
    "escript": 18472,
    "Ġsimultaneously": 4313,
    "Ġherb": 15860,
    "Ġspoken": 4838,
    "Ġideas": 5494,
    "brought": 7285,
    "Ġhooped": 23358,
    "...": 24549,
    "Ġpout": 17906,
    "Ġmischie": 22763,
    "poky": 17646,
    "ioneer": 15636,
    "rably": 21636,
    "complexion": 14364,
    "Ġtheoretically": 3567,
    "Ġpickle": 16724,
    "Ġ23": 13196,
    "Ġreco": 9792,
    "itical": 5802,
    "Ġt": 261,
    "Ġaccord": 4026,
    "Ġentering": 6287,
    "Ġtrample": 20330,
    "Ġcloser": 8663,
    "Ġtearless": 24785,
    "streets": 13399,
    "Ġentreat": 4511,
    "gale": 13726,
    "Ġensu": 7875,
    "Ġsecuring": 11996,
    "oko": 18441,
    "Ġroar": 9756,
    "Ġalfred": 21790,
    "woman": 5900,
    "Ġgrinning": 9056,
    "Ġpallid": 12303,
    "marry": 13328,
    "Ġshrouded": 14972,
    "eenth": 12465,
    "Ġtigris": 25760,
    "Ġconjoined": 21810,
    "excepting": 19709,
    "Ġthickness": 13282,
    "uming": 8494,
    "alone": 10186,
    "Ġcommenting": 25229,
    "itiousness": 21337,
    "yea": 23091,
    "involuntarily": 20418,
    "Ġhandled": 12942,
    "reeling": 21247,
    "Ġalien": 14021,
    "Ġinv": 2221,
    "aim": 2756,
    "Ġcarved": 7947,
    "Ġsoles": 22089,
    "Ġforest": 9874,
    "Ġcollar": 11883,
    "garnished": 26390,
    "Ġuprising": 12807,
    "Ġcorporeal": 17363,
    "Ġsallow": 12541,
    "oped": 6048,
    "Ġalps": 10872,
    "culine": 19065,
    "Ġpush": 9186,
    "Ġsphynx": 20714,
    "Ġunwe": 15842,
    "joice": 9605,
    "ceed": 1076,
    "traversed": 19650,
    "ounds": 4157,
    "Ġrecorded": 11295,
    "justine": 7683,
    "Ġdelirium": 10407,
    "ov": 15403,
    "Ġrecognise": 12047,
    "Ġstoutest": 24629,
    "cul": 1899,
    "Ġtax": 13819,
    "bran": 23576,
    "Ġkindled": 19030,
    "Ġendued": 14080,
    "ö": 183,
    "Ġintellectual": 11403,
    "opic": 22480,
    "shuff": 18489,
    "uits": 21107,
    "Ġpositional": 2597,
    "Ġinfluences": 14868,
    ";âĢĻ": 15306,
    "Ġrh": 9247,
    "Ġincumbent": 16066,
    "ckets": 6843,
    "Ġidentity": 2523,
    "Ġgathering": 14981,
    "brimmed": 14590,
    "Ġbrix": 12588,
    "Ġjustly": 11908,
    "ued": 7561,
    "Ġca": 21342,
    "Ġwarmer": 19187,
    "persuade": 13536,
    "ston": 15687,
    "Ġamsterdam": 22488,
    "Ġcandle": 8292,
    "Ġsetting": 7048,
    "Ġtranscend": 25668,
    "Ġpreprocessing": 26538,
    "Ġluxurious": 17314,
    "Ġrather": 1495,
    "Ġgoest": 22425,
    "girl": 12322,
    "Ġdoings": 18377,
    "Ġwinc": 9645,
    "Ġdevoid": 18681,
    "Ġgaiety": 16751,
    "Ġserving": 14488,
    "Ġscholar": 26112,
    "ical": 754,
    "Ġchaff": 18384,
    "Ġrelevance": 5184,
    "sea": 4763,
    "Ġhig": 755,
    "Ġ21": 11200,
    "Ġsteel": 3891,
    "craft": 12251,
    "Ġstain": 18070,
    "Ġcasks": 7521,
    "egyptians": 25899,
    "Ġwal": 6518,
    "Ġdiscl": 9800,
    "Ġpian": 13920,
    "Ġlord": 2967,
    "consult": 24172,
    "Ġrefill": 18698,
    "Ġinsane": 19271,
    "Ġchowders": 18387,
    "Ġsagaciously": 24730,
    "Ġbitt": 10798,
    "Ġwould": 650,
    "run": 10723,
    "Ġdisliked": 12896,
    "`": 68,
    "Ġnarrow": 5086,
    "Ġsternly": 16717,
    "Ġbarren": 11208,
    "avail": 18605,
    "Ġbarrel": 23794,
    "Ġinforming": 18742,
    "coat": 5407,
    "Ġoutwardly": 25001,
    "Ġestate": 6318,
    "Ġdocile": 19962,
    "Ġshabby": 14114,
    "shaven": 18492,
    "Ġdoesn": 7438,
    "Ġpoetry": 15084,
    "Ġbarber": 23792,
    "eze": 20849,
    "zar": 11550,
    "begone": 12883,
    "soon": 4028,
    "desolate": 25717,
    "ayed": 12717,
    "zy": 2668,
    "Ġanalytical": 22894,
    "condesc": 18504,
    "perch": 18343,
    "Ġgarb": 21606,
    "Ġmiracle": 15097,
    "designated": 26320,
    "Ġpower": 1234,
    "Ġwhisper": 6207,
    "unwho": 21881,
    "Ġmaintains": 2143,
    "relations": 14736,
    "Ġresid": 22542,
    "Ġreferred": 8920,
    "usive": 8190,
    "Ĳ": 243,
    "Ġlawyer": 10671,
    "Ġaisle": 21204,
    "sir": 5001,
    "riety": 12749,
    "Ġarmchair": 8271,
    "child": 5538,
    "carpet": 25203,
    "Ġmonomania": 17086,
    "Ġeuropean": 20049,
    "Ġinsects": 25647,
    "Ġproject": 5546,
    "risonment": 17378,
    "gument": 20887,
    "french": 9122,
    "Ġrav": 14309,
    "nd": 11506,
    "Ġsignature": 16495,
    "shold": 2776,
    "oriented": 2949,
    "Ġcass": 13882,
    "ipped": 5790,
    "Ġanecd": 20157,
    "Ġporthole": 24399,
    "hor": 2570,
    "Ġwarned": 16882,
    "Ġharpooning": 23982,
    "increased": 20273,
    "Ġcircumspection": 25885,
    "Ġallusions": 10908,
    "fold": 7546,
    "phology": 3008,
    "Ġlaws": 8003,
    "Ġestates": 16462,
    "Ġlinked": 15081,
    "Ġdrugg": 17122,
    "Ġryder": 10261,
    "Ġhosea": 17334,
    "Ġloun": 7167,
    "Ġstrictest": 17043,
    "Ġ183": 13242,
    "Ġintellect": 8170,
    "Ġdisappoint": 24208,
    "Ġpoliteness": 8274,
    "Ġcaut": 6522,
    "Ġoverwhel": 8197,
    "Ġbrah": 19360,
    "Ġinvent": 7165,
    "Ġvind": 10252,
    "pain": 7350,
    "Ġbeer": 10222,
    "full": 7420,
    "esy": 9188,
    "distinct": 13340,
    "Ġpalaces": 24095,
    "Ġtheirs": 7026,
    "Ġmountainous": 16601,
    "agitation": 14071,
    "beth": 13692,
    "Ġswift": 3669,
    "ones": 2742,
    "smart": 23910,
    "indirect": 22379,
    "kers": 7134,
    "decl": 8859,
    "Ġremember": 2676,
    "Ġbrisk": 9806,
    "em": 391,
    "itional": 22478,
    "maul": 11894,
    "Ġappals": 22224,
    "Ġcured": 21350,
    "Ġcondescending": 24869,
    "Ġspaniard": 20366,
    "Ġapril": 13666,
    "Ġendeav": 2956,
    "Ġvocation": 10528,
    "Ġmonth": 2851,
    "imaux": 21715,
    "Ġsmilingly": 22564,
    "seized": 14038,
    "aloes": 21505,
    "Ġpiny": 21472,
    "Ġhung": 4561,
    "Ġspout": 3283,
    "Ġconfounded": 16387,
    "Ġunostentatious": 22073,
    "pay": 10720,
    "chariot": 26481,
    ")(": 2981,
    "Ġhealed": 21686,
    "broad": 8646,
    "Ġannals": 17900,
    "Ġ61": 24364,
    "Ġconsulting": 13433,
    "main": 8088,
    "Ġpreside": 18366,
    "icting": 12856,
    "Ġelud": 22646,
    "Ġalow": 18102,
    "heads": 4095,
    "Ġdetained": 18373,
    "youth": 11879,
    "banish": 20784,
    "land": 1531,
    "hotel": 20053,
    "Ġadorned": 15251,
    "Ġascertaining": 17206,
    "vious": 1784,
    "Ġpolitely": 8996,
    "accomplishments": 25327,
    "probable": 17023,
    "raising": 21635,
    "Ġrambles": 17187,
    "Ġmetaphysical": 26070,
    "Ġfobbing": 26443,
    "glory": 23855,
    "Ġglit": 8563,
    "leviathan": 7785,
[...]
