{
  "metadata": {
    "vocab_size": 26614,
    "algorithm": "BPE",
    "created_at": "2026-09-05 06:39:54",
    "special_tokens": [
      "<PAD>",
      "<SOS>",
      "<EOS>",
      "<UNK>",
      "<MASK>"
    ]
  },
  "vocab": {
    "ridge": 9496,
    "Ġancles": 21444,
    "Ġalman": 21778,
    "Ġrevolve": 19729,
    "Ġrudeness": 17124,
    "Ġexcurs": 23309,
    "pond": 21012,
    "itive": 6668,
    "attachment": 13049,
    "Ġunclasp": 26511,
    "complaisance": 24811,
    "eling": 6681,
    "Ġexamination": 8004,
    "Ġglossy": 15226,
    "Ġmaelstrom": 19354,
    "Ġhappiness": 2946,
    "Ġdemeanour": 17336,
    "unsupervised": 10889,
    "senses": 25024,
    "Ġhurtling": 24957,
    "startled": 24941,
    "awful": 23114,
    "Ġgazed": 6478,
    "ĠĠĠĠĠĠĠ": 7632,
    "Ġdies": 11592,
    "k": 79,
    "brave": 19822,
    "irious": 15783,
    "Ġsecondly": 14516,
    "ius": 5789,
    "lord": 3863,
    "ues": 2080,
    "Ġshown": 5159,
    "stirred": 20423,
    "Ġmatrimony": 13634,
    "Ġmeditate": 16682,
    "heredit": 21208,
    "Ġconvolutional": 2165,
    "ucket": 2486,
    "Ġcoming": 2621,
    "photograph": 16164,
    "Ġcobbling": 20521,
    "ety": 3522,
    "ĠĠĠĠĠĠĠĠĠĠĠĠĠĠĠĠĠĠĠĠĠĠĠĠĠĠĠĠĠĠĠĠĠĠĠĠĠĠĠĠĠĠ": 24209,
    "Ġcalendar": 18877,
    "ses": 3028,
    "Ġimposing": 11779,
    "Ġposs": 1610,
    "o": 83,
    "Ġindign": 6173,
    "iquette": 26132,
    "Ġgaze": 6932,
    "Ġages": 7027,
    "Ġshrivelled": 19702,
    "Ġdoc": 7200,
    "Ġneighbor": 25803,
    "Ġyon": 9692,
    "lesc": 11039,
    "Ġpalpable": 15205,
    "Ġsatisfactory": 11192,
    "Ġland": 1996,
    "Ġembedding": 2104,
    "Ġproblem": 1273,
    "bell": 7332,
    "Ġinclosed": 19537,
    "wound": 21125,
    "Ġnewton": 3534,
    "westward": 25424,
    "Ġused": 2059,
    "Ġhierarchical": 1925,
    "beholding": 16038,
    "Ġuncont": 14115,
    "Ġcurled": 8225,
    "Ġcathed": 14549,
    "Ġwill": 675,
    "Ġsemicircle": 26067,
    "lect": 1221,
    "swinging": 25912,
    "Ġaccelerating": 1612,
    "sell": 13780,
    "au": 777,
    "bond": 17489,
    "Ġcircumvent": 25064,
    "Ġschoolboys": 24481,
    "untering": 15773,
    "Ġexponentiating": 3448,
    "ĠĠĠĠĠĠĠĠĠĠĠĠĠĠĠĠĠĠĠĠĠĠĠĠĠĠĠĠĠĠĠĠĠĠĠĠ": 23666,
    "Ġtruce": 24115,
    "Ġgills": 17992,
    "armon": 23056,
    "Ġnat": 12642,
    "Ġcollected": 2614,
    "Ġadvise": 7934,
    "Ġvill": 3875,
    "Ġmetallic": 19086,
    "Ġsli": 4746,
    "Ġsaintsbury": 26372,
    "Ġpuzzling": 14897,
    "Ġsurve": 9873,
    "Ġconjectures": 16925,
    "Ġcautious": 12251,
    "Ġchildish": 13136,
    "week": 12928,
    "Ġsensit": 2947,
    "Ġjoosy": 23630,
    "Ġfeet": 2260,
    "Ġweak": 5098,
    "Ġvoid": 14084,
    "Ġterrific": 6754,
    "ounder": 11742,
    "hend": 13252,
    "Ġdiscrimination": 23604,
    "Ġadaptive": 1337,
    "Ġhundreds": 4329,
    "Ġstruck": 3392,
    "moor": 22701,
    "eries": 6808,
    "Ġbelieved": 4368,
    "Ġchambers": 16799,
    "Ġimpotently": 22392,
    "Ġpotential": 3619,
    "Ġdescried": 7918,
    "Ġfinally": 4665,
    "Ġoverwhel": 8195,
    "Ġdevilish": 11228,
    "Ġghost": 6142,
    "sherlock": 5422,
    "affairs": 14656,
    "Ġsash": 17754,
    "Ġay": 15490,
    "Ġpersecut": 16952,
    "strongly": 24684,
    "Ġfan": 2034,
    "Ġwant": 1121,
    "Ġretiring": 16278,
    "Ġfretfully": 25447,
    "eur": 7545,
    "Ġprinciple": 6770,
    "Ġchat": 6560,
    "congratulations": 20278,
    "Ġ38": 24076,
    "Ġfooted": 23795,
    "Ġsyntax": 958,
    "berg": 11856,
    "affrail": 11205,
    "ricade": 13035,
    "br": 2479,
    "pardonable": 17217,
    "Ġnautical": 17385,
    "lers": 10106,
    "Ġstrasburgh": 18613,
    "Ġtransparen": 10541,
    "Ġinsisted": 12044,
    "ethics": 8877,
    "ohnson": 16324,
    "table": 5795,
    "property": 19998,
    "Ġscolding": 15199,
    "plenty": 14090,
    "Ġposition": 1954,
    "sudden": 5315,
    "Ġcont": 621,
    "Ġfairer": 20460,
    "shroud": 20311,
    "Ġdropping": 7483,
    "valley": 16213,
    "flames": 14711,
    "Ġbuttoned": 25368,
    "Ġeffectually": 16165,
    "Ġarrives": 23606,
    "Ġberries": 13406,
    "thrusting": 20258,
    "Ġbrute": 8925,
    "Ġreverie": 13456,
    "accept": 8897,
    "Ġplant": 8899,
    "splice": 17170,
    "vand": 21107,
    "perceive": 12806,
    "Ġeyford": 10641,
    "iew": 2448,
    "Ġhabit": 6771,
    "Ġhumor": 11051,
    "Ġgrinning": 9053,
    "hard": 4688,
    "Ġcollections": 22850,
    "Ġmonuments": 22984,
    "Ġsaxon": 25468,
    "ighbour": 3391,
    "Ġstyled": 24671,
    "udg": 22760,
    "Ġowing": 6004,
    "offer": 19058,
    "Ġdarts": 16768,
    "so": 891,
    "any": 3339,
    "Ġlithe": 24668,
    "less": 927,
    "gird": 20878,
    "Ġguiding": 19240,
    "knell": 24555,
    "Ġtrappers": 23079,
    "Ġadmirable": 8268,
    "possesses": 24616,
    "red": 399,
    "Ġcourting": 23287,
    "think": 3609,
    "living": 7133,
    "Ġprognostics": 20557,
    "Ġsavann": 14684,
    "an": 278,
    "Ġbloss": 19255,
    "european": 26371,
    "Ġtatters": 21176,
    "Ġante": 17896,
    "Ġuncl": 22013,
    "Ġincompatible": 25680,
    "Ġconstraints": 2743,
    "Ġcreator": 7257,
    "nal": 1900,
    "Ġheh": 21677,
    "Ġtrading": 23074,
    "Ġvapory": 17006,
    "Ġpropont": 16348,
    "Ġshield": 21996,
    "Ġinterruption": 9472,
    "affold": 16562,
    "Ġtrem": 6659,
    "request": 21240,
    "Ġexhib": 6349,
    "rily": 7621,
    "amouch": 21842,
    "trifling": 19412,
    "Ġsunshine": 14495,
    "chambers": 25454,
    "Ġtransferred": 16454,
    "âĢĶ.": 11753,
    "Ġpersons": 6182,
    "Ġjuicy": 25370,
    "attendants": 25495,
    "inforcement": 3044,
    "Ġsil": 1796,
    "claim": 9834,
    "Ġinconvenient": 20008,
    "Ġheaped": 18037,
    "erval": 4018,
    "Ġbough": 13893,
    "cred": 9107,
    "vessels": 10625,
    "solution": 14686,
    "Ġwre": 5077,
    "Ġsheltered": 19910,
    "Ġexhibited": 9543,
    "Ġconquer": 14026,
    "dom": 6222,
    "Ġabsent": 7014,
    "Ġcaution": 11346,
    "Ġwinter": 5220,
    "Ġlaug": 3627,
    "Ġrejo": 5915,
    "Ġauthentic": 20534,
    "rises": 17655,
    "Ġvigil": 9506,
    "Ġexplore": 15906,
    "Ġsank": 5076,
    "Ġrefrained": 14342,
    "Ġrecourse": 22720,
    "Ġcoinc": 11002,
    "Ġfragrant": 13097,
    "private": 13581,
    "Ġsurprising": 14597,
    "hamed": 6305,
    "deprived": 19897,
    "Ġenjoyments": 24015,
    "Ġdescribing": 19253,
    "Ġcontaining": 2235,
    "Ġlately": 6387,
    "caroline": 24149,
    "Ġshaped": 15832,
    "arrested": 15598,
    "mare": 17599,
    "Ġstrive": 23692,
    "grand": 7969,
    "Ġcruel": 5121,
    "extric": 22762,
    "Ġsuperfluous": 17413,
    "Ġtorture": 9064,
    "Ġsurrounding": 12160,
    "Ġsax": 10929,
    "Ġcontour": 18474,
    "shine": 9288,
    "Ġbrilliantly": 25120,
    "security": 26206,
    "aceti": 7111,
    "Ġsymmetrical": 20365,
    "reel": 21232,
    "Ġcylinders": 25943,
    "cutting": 23783,
    "ousings": 18335,
    "suff": 4961,
    "Ġmortally": 23914,
    "ferred": 16403,
    "gale": 13722,
    "Ġintentions": 10607,
    "naturalist": 23525,
    "paralleled": 14519,
    "Ġbowing": 10475,
    "Ġmarried": 3410,
    "Ġfrowning": 13622,
    "Ġxviii": 23408,
    "Ġjoining": 13163,
    "Ġreception": 9838,
    "Ġlectures": 17178,
    "Ġambiguous": 20163,
    "ason": 1268,
    "Ġhighway": 14345,
    "Ġcoward": 7155,
    "Ġhay": 11604,
    "vig": 15445,
    "Ġgloried": 22987,
    "Ġdevouring": 11860,
    "Ġemergencies": 17361,
    "Ġsatisfy": 6912,
    "Ġdared": 5440,
    "cil": 8720,
    "ar": 285,
    "Ġever": 1180,
    "Ġfinishing": 23123,
    "Ġneskye": 21528,
    "Ġglow": 7170,
    "Ġjog": 18404,
    "Ġtingling": 15091,
    "Ġdeem": 18136,
    "elson": 16371,
    "Ġearls": 18903,
    "abond": 15738,
    "aking": 976,
    "Ġcleaning": 23177,
    "Ġexcel": 3568,
    "rew": 3648,
    "Ġmansfield": 25938,
    "Ġlifetime": 13601,
    "tender": 14472,
    "Ġembraces": 19871,
    "ologies": 18766,
    "Ġthumb": 6981,
    "Ġliberally": 16830,
    "Ġharbors": 24901,
    "Ġtrusting": 24105,
    "Ġpraying": 19553,
    "Ġnumer": 3638,
    "Ġacceler": 1605,
    "Ġprotruded": 19468,
    "olerable": 7182,
    "Ġhotels": 19535,
    "Ġveneration": 25044,
    "Ġdegrees": 7294,
    "Ġentrapped": 26262,
    "finish": 24384,
    "Ġannounce": 13337,
    "Ġmag": 1429,
    "unmistakable": 21892,
    "int": 1198,
    "settle": 16661,
    "Ġcompacted": 23506,
    "Ġoperation": 11997,
    "Ġ92": 24590,
    "ny": 4014,
    "blot": 20782,
    "rop": 539,
    "ë": 172,
    "Ġmississ": 18844,
    "Ġenchanting": 17039,
    "Ġnavy": 14915,
    "everybody": 8610,
    "Ġshades": 9462,
    "harpooned": 24286,
    "Ġdef": 1201,
    "Ġdro": 2772,
    "pips": 21019,
    "close": 9985,
    "Ġvibration": 17099,
    "Ġblushed": 12999,
    "Ġknob": 24407,
    "soundest": 24797,
    "Ġdoubted": 7965,
    "Ġcattle": 12569,
    "ice": 590,
    "Ġroylott": 7305,
    "Ġblack": 2032,
    "ellent": 3762,
    "vine": 10734,
    "responsible": 25763,
    "Ġrabb": 4166,
    "Ġpuffing": 12252,
    "ributed": 8214,
    "ulties": 12898,
    "Ġpines": 12614,
    "_).âĢĶ": 8681,
    "bohemia": 20730,
    "ignorant": 13562,
    "antically": 22093,
    "Ġunlim": 18253,
    "Ġeigen": 4880,
    "Ġheave": 7599,
    "Ġfidget": 15188,
    "Ġplainer": 23703,
    "Ġpreluding": 18368,
    "superstitiousness": 25508,
    "Ġlogical": 14486,
    "race": 11630,
    "ales": 3318,
    "considering": 12172,
    "Ġjourney": 3878,
    "Ġrebellion": 26475,
    "Ġfool": 4236,
    "Ġsqualls": 17020,
    "Ġtep": 21160,
    "rock": 15638,
    "Ġstrikes": 13180,
    "Ġbanking": 19629,
    "Ġignited": 25069,
    "Ġalongside": 6311,
    "Ġshavings": 14109,
    "sleepers": 24730,
    "Ġmogul": 12859,
    "Ġbase": 5013,
    "Ġparcel": 15198,
    "Ġquestion": 2778,
    "gpt": 5355,
    "Ġsoles": 22082,
    "sax": 21055,
    "gment": 4390,
    "add": 5229,
    "Ġstrainings": 24627,
    "acknowledge": 18468,
    "project": 16422,
    "Ġredness": 19311,
    "resolutions": 26164,
    "Ġhempen": 13549,
    "Ġdefection": 22939,
    "bourne": 19102,
    "algorithm": 3725,
    "Ġoffered": 5816,
    "Ġmonomania": 17085,
    "Ġmortification": 12091,
    "msman": 9268,
    "them": 3021,
    "perch": 18336,
    "Ġprophes": 16347,
    "ĠĠĠĠĠĠĠĠĠĠĠĠĠĠĠĠĠĠĠĠĠĠĠĠĠĠĠĠĠĠĠĠĠĠĠĠĠ": 14614,
    "attering": 7419,
    "Ġducking": 17146,
    "wrapped": 15208,
    "Ġlanc": 19763,
    "Ġescorted": 23504,
    "water": 4867,
    "Ġpressed": 6041,
    "Ġabominably": 20064,
    "Ġreser": 5170,
    "welcomed": 24644,
    "Ġrest": 1780,
    "Ġtunnel": 14929,
    "Ġexchange": 15750,
    "Ġ44": 16679,
    "world": 5058,
    "1": 21,
    "attent": 9358,
    "Ġglades": 19370,
    "plifted": 9710,
    "Ġprovision": 14824,
    "Ġmouldings": 24737,
    "lever": 2933,
    "Ġexplo": 2287,
    "Ġboundary": 11222,
    "orus": 10801,
    "Ġloite": 22108,
    "Ġclever": 7054,
    "parted": 21015,
    "erve": 12546,
    "Ġdoors": 6418,
    "Ġstubbornness": 25380,
    "Ġbubble": 13534,
    "Ġmarshal": 20218,
    "Ġlabels": 3289,
    "relative": 24009,
    "Ġexcepting": 14680,
    "peace": 13046,
    "tstone": 21083,
    "Ġdiddled": 22664,
    "Ġhoist": 11975,
    "Ġphr": 2683,
    "urried": 21701,
    "ontory": 10459,
    "Ġeastward": 13389,
    "Ġnorris": 23198,
    "Ġmagnificence": 20631,
    "Ġinexhaustible": 16981,
    "Ġvillains": 14748,
    "Ġties": 12525,
    "Ġmuchness": 18706,
    "ellations": 21941,
    "Ġsee": 803,
    "Ġalighted": 18103,
    "Ġ65": 24368,
    "Ġnarrating": 24351,
    "Ġpleasantly": 14517,
    "Ġbumps": 21390,
    "isa": 17845,
    "Ġped": 6817,
    "Ġted": 13811,
    "Ġtwisted": 7228,
    "iciency": 9574,
    "Ġincompetent": 25679,
    "10": 17472,
    "aet": 15306,
    "departure": 15233,
    "Ġbus": 1902,
    "Ġvulture": 17338,
    "Ġexcl": 3476,
    "Ġinnocence": 6477,
    "Ġadmin": 23551,
    "persuaded": 15072,
    "Ġcastor": 19425,
    "Ġmira": 8406,
    "Ġunconcern": 14116,
    "Ġdaughter": 2871,
    "wild": 8766,
    "whips": 22235,
    "creator": 26381,
    "spike": 16140,
    "Ġinherit": 25352,
    "inst": 4296,
    "oundered": 14164,
    "Ġwheeling": 18286,
    "elope": 14467,
    "Ġwrapt": 24595,
    "itiousness": 21332,
    "Ġsubmission": 22784,
    "Ġblubber": 5666,
    "bru": 12437,
    "Ġfitzwilliam": 5771,
    "Ġunden": 22010,
    "nostril": 26559,
    "Ġpoints": 5248,
    "rise": 6226,
    "Ġserm": 9633,
    ",âĢĿ": 580,
    "Ġbuilded": 24719,
    "Ġdiab": 10611,
    "igations": 18043,
    "Ġspiteful": 19521,
    "gration": 9121,
    "luc": 9753,
    "Ġsecuring": 11990,
    "Ġstack": 21730,
    "response": 25762,
    "Ġobstetrics": 24678,
    "Ġchurning": 15935,
    "Ġanalyze": 1548,
    "Ġtowns": 11173,
    "ulity": 10886,
    "Ġregion": 2274,
    "smeer": 26147,
    "Ġtiara": 26415,
    "Ġamaze": 22480,
    "Ġbrigs": 20321,
    "Ġexpedition": 10633,
    "Ġchagrin": 20606,
    "Ġcruc": 16534,
    "winter": 10741,
    "resides": 23671,
    "tically": 3395,
    "Ġeffectively": 2723,
    "Ġsoothed": 10028,
    "Ġfrightens": 24027,
    "Ġzigzag": 26272,
    "Ġerskine": 17431,
    "Ġimprec": 14219,
    "Ġforgot": 4682,
    "condesc": 18505,
    "Ġgiver": 21602,
    "Ġhorses": 6385,
    "Ġsigning": 22705,
    "Ġlie": 4406,
    "frost": 15105,
    "Ġinvesting": 19645,
    "Ġpluck": 15611,
    "Ġcareer": 11118,
    "Ġwalk": 1825,
    "Ġaudience": 24769,
    "Ġlazarus": 15028,
    "whom": 8184,
    "Ġprojecting": 9984,
    "Ġanger": 5442,
    "idual": 1557,
    "Ġtotally": 9470,
    "money": 8749,
    "Ġmout": 17798,
    "rab": 7596,
    "Ġfish": 2712,
    "Ġapparelled": 20435,
    "Ġfurnishes": 19439,
    "cod": 12441,
    "irted": 14071,
    "omically": 13975,
    "Ã¦mon": 7094,
    "Ġchanc": 18384,
    "run": 10721,
    "Ġrueful": 25581,
    "Ġfurthest": 22814,
    "Ġriverside": 25247,
    "ensical": 18570,
    "indirect": 22369,
    "L": 48,
    "Ġgenerating": 12845,
    "Ġgetting": 4066,
    "pequod": 7052,
    "coronet": 16863,
    "Ġunimaginable": 15245,
    "Ġdissu": 18550,
    "Ġsuggestions": 24453,
    "Ġbanker": 8666,
    "Ġcirc": 1984,
    "state": 13978,
    "thrill": 25656,
    "thinness": 25810,
    "Ġeber": 18003,
    "Ġtent": 15466,
    "Ġ22": 8278,
    "deser": 10402,
    "Ġfounder": 17883,
    "orphans": 26440,
    "sulphur": 25909,
    "Ġchuckled": 10647,
    "Ġrattle": 10899,
    "ascertaining": 26460,
    "she": 1398,
    "Ġfast": 1716,
    "hammad": 23262,
    "Ġparlour": 12319,
    "Ġexpanding": 25238,
    "blood": 7779,
    "ryder": 18637,
    ".;": 20743,
    "faces": 13719,
    "airs": 2223,
    "Ġmethodic": 23110,
    "Ġsquire": 16178,
    "Ġbade": 9171,
    "mass": 12487,
    "Ġrights": 10396,
    "Ġmoulded": 16975,
    "carrying": 16712,
    "po": 1140,
    "skin": 10568,
    "Ġrippling": 17277,
    "Ġcatastrop": 3349,
    "tedious": 22630,
    "restraint": 18979,
    "ity": 417,
    "Ġdeacon": 18143,
    "Ġassociations": 14962,
    "Ġspectre": 16630,
    "pl": 402,
    "Ġquarrelling": 13498,
    "Ġutterance": 14762,
    "plex": 696,
    "frankenstein": 11391,
    "Ġcomparing": 14265,
    "Ġdest": 2240,
    "Ġjulia": 22299,
    "Ġpharaoh": 26585,
    "Ġjinglers": 26018,
    "onstrate": 17768,
    "Ġtuples": 13476,
    "Ġbestir": 13108,
    "Ġthrob": 21515,
    "drunk": 24659,
    "Ġes": 8768,
    "Ġfrig": 13079,
    "Ġinanimate": 13932,
    "objection": 19914,
    "strils": 10458,
    "Ġowest": 25091,
    "Ġshade": 6550,
    "hedge": 22496,
    "Ġpop": 5151,
    "irection": 2390,
    "Ġisol": 8833,
    "Ġlazy": 17050,
    "Ġcrotch": 9962,
    "Ġcapsized": 20088,
    "Ġconsolation": 6208,
    "Ġillustrations": 17108,
    "sies": 21053,
    "Ġexecutioner": 12269,
    "Ġtacit": 21173,
    "oked": 4309,
    "Ġstolen": 14006,
    "Ġstir": 5823,
    "felt": 5888,
    "marest": 20979,
    "Ġagitated": 7647,
    "Ġoverflowed": 20261,
    "Ġsalutation": 12395,
    "Ġallusion": 7625,
    "might": 4080,
    "rent": 1171,
    "Ġrem": 955,
    "conven": 6162,
    "Ġbridges": 24682,
    "Ġfurnishing": 16645,
    "inting": 9813,
    "Ġcocked": 12901,
    "Ġhellish": 10550,
    "Ġlikes": 9407,
    "justified": 19005,
    "Ġ107": 24415,
    "sheet": 16283,
    "Ġdiscours": 18716,
    "recl": 15509,
    "Ġimperial": 9480,
    "shaken": 16025,
    "Ġbenches": 18783,
    "precipitance": 25867,
    "Ġdew": 14044,
    "represent": 9637,
    "Ġeddying": 16434,
    "ow": 325,
    "ese": 4443,
    "Ġunsafe": 22038,
    "mouse": 15391,
    "Ġmasts": 6465,
    "verse": 9687,
    "icant": 21559,
    "ception": 6562,
    "Ġunwarrant": 20132,
    "Ġprinciples": 10010,
    "Ġdeclining": 23961,
    "Ġalmanac": 26485,
    "Ġaggregated": 25678,
    "Ġmasonry": 13598,
    "resembled": 21245,
    "Ġwrit": 8241,
    "Ġstandards": 19017,
    "itely": 5365,
    "Ġfarthest": 23115,
    "Ġzero": 1202,
    "connections": 14427,
    "Ġtracing": 18888,
    "Ġnin": 10187,
    "Ġprey": 6415,
    "Ġsultanism": 25888,
    "Ġowes": 20083,
    "Ġglowed": 24864,
    "oud": 1941,
    "Ġunseasonable": 26520,
    "Ġservox": 23868,
    "ipp": 10102,
    "remote": 23186,
    "Ġder": 1497,
    "uture": 1100,
    "Ġtechnique": 2401,
    "Ġfinger": 5273,
    "Ġunmingled": 18263,
    "brÃ¦": 11175,
    "ashes": 6015,
    ").": 1274,
    "Ġmariners": 6067,
    "Ġbe": 336,
    "resistible": 10643,
    "Ġtainted": 21169,
    "Ġpetulance": 24227,
    "vered": 4827,
    "Ġcommun": 1705,
    "impetuous": 23762,
    "ade": 880,
    "apsed": 6295,
    "bouton": 17501,
    "ulent": 21859,
    "Ġtying": 15472,
    "Ġcheshire": 13088,
    "lines": 6959,
    "Ġtennessee": 26596,
    "Ġunhappy": 5640,
    "Ġbrixton": 13662,
    "Ġsensible": 4976,
    "impatiently": 20469,
    "courageous": 26127,
    "Ġslack": 8955,
    "Ġeyel": 17096,
    "Ġauto": 23294,
    "Ġgenteel": 19979,
    "Ġfatally": 19392,
    "umberland": 16837,
    "spl": 9139,
    "vent": 679,
    "Ġslight": 3122,
    "suit": 18639,
    "resol": 17760,
    "Ġselecting": 16684,
    "Ġarranging": 11174,
    "Ġpronouncing": 16969,
    "Ġcamp": 9164,
    "Ġswiftness": 9926,
    "ü": 189,
    "Ġladies": 3195,
    "Ġrese": 2116,
    "helm": 12169,
    "urpr": 2289,
    "enged": 23144,
    "Ġkindled": 19027,
    "duct": 3508,
    "Ġfrankly": 16745,
    "deli": 15343,
    "Ġsettee": 22918,
    "honorable": 19900,
    "Ġflattened": 26047,
    "design": 18957,
    "Ġincrease": 9369,
    "Ġrefreshment": 17239,
    "fted": 9118,
    "practised": 20246,
    "Ġare": 527,
    "iments": 4945,
    "Ġ118": 19697,
    "presently": 9808,
    "patched": 17643,
    "Ġmoral": 6579,
    "Ġvacant": 9494,
    "Ġineffable": 17331,
    "Ġratt": 7880,
    "rebell": 17763,
    "Ġseemingly": 9317,
    "expressive": 24305,
    "Ġskeletons": 16791,
    "Ġbubb": 12581,
    "Ġilliterate": 26594,
    "astic": 1866,
    "Ġoughts": 23898,
    "Ġposit": 1308,
    "gi": 17551,
    "Ġparamet": 608,
    "å": 166,
    "Ġhearken": 21682,
    "Ġnewfound": 22929,
    "Ġdwell": 5812,
    "bies": 15311,
    "als": 2040,
    "Ġsuddenly": 2648,
    "castles": 14635,
    "Ġreigning": 15698,
    "Ġaccost": 12842,
    "intelligence": 5882,
    "Ġbleak": 10558,
    "instrument": 15237,
    "safety": 20348,
    "tut": 15433,
    "ilst": 8143,
    "Ġsubdivisions": 26037,
    "Ġdeferred": 18826,
    "Ġcooped": 22579,
    "Ġdisconcerted": 18562,
    "xim": 1091,
    "Ġforty": 5719,
    "Ġoppressive": 20454,
    "better": 7119,
    "Ġlun": 7855,
    "itar": 15544,
    "Ġmakest": 25435,
    "sea": 4761,
    "//": 11463,
    "Ġkindest": 23289,
    "Ġjenkinson": 11431,
    "Ġvexed": 9993,
    "Ġspear": 9313,
    "Ġjustified": 11902,
    "Ġdiscre": 2419,
    "Ġinclement": 22551,
    "Ġfasc": 12595,
    "Ġeels": 21617,
    "Ġunsupp": 22018,
    "Ġly": 2270,
    "Ġincorpor": 13164,
    "Ġslackened": 15125,
    "Ġrolling": 5974,
    "Ġchapel": 9522,
    "Ġanticipated": 13510,
    "Ġcrowded": 8011,
    "Ġvengeful": 14889,
    "Ġspeaking": 4026,
    "Ġequals": 4725,
    "Ġphaet": 16315,
    "Ġcage": 17825,
    "hemat": 3131,
    "anyth": 5438,
    "Ġdiminish": 14744,
    "Ġbargain": 23791,
    "incl": 8109,
    "Ġconstable": 19068,
    "Ġfinanc": 23126,
    "umbling": 6758,
    "inquir": 9535,
    "woe": 21134,
    "enty": 2917,
    "ambition": 13410,
    "moid": 2451,
    "Ġsam": 7569,
    "neglected": 25669,
    "Ġhebrew": 13987,
    "Ġrequiring": 2922,
    "charitable": 23930,
    "Ġchance": 3319,
    "Ġsplashing": 16549,
    "weary": 22683,
    "none": 6962,
    "offended": 16390,
    "Ġsatir": 18794,
    "Ġpropriet": 9549,
    "Ġ31": 12128,
    "chet": 13216,
    "Ġridic": 7508,
    "Ġraises": 11843,
    "goldsmith": 20146,
    "Ġfearless": 9874,
    "Ġremarkably": 7702,
    "Ġacceded": 22373,
    "aggo": 5097,
    "Ġprodigy": 19791,
    "Ġpredecess": 18537,
    "Ġchaos": 17009,
    "ralian": 19599,
    "Ġabominable": 12320,
    "covered": 11477,
    "ster": 1952,
    "95": 17477,
    "enthus": 17977,
    "bulwarks": 12270,
    "drink": 10595,
    "zen": 5140,
    "dared": 13701,
    "Ġflourish": 17160,
    "Ġstaying": 8283,
    "Ġgall": 4352,
    "semicirc": 26491,
    "Ġapr": 12529,
    "interesting": 12199,
    "Ġsubur": 12953,
    "ably": 1847,
    "Ġsteeple": 19286,
    "obey": 11509,
    "Ġrelating": 2707,
    "requirements": 24857,
    "Ġdisgraceful": 15019,
    "Ġchaldee": 26234,
    "Ġmultipl": 2791,
    "Ġafter": 870,
    "vocabulary": 25085,
    "@": 36,
    "Ġblackest": 19098,
    "87": 20756,
    "bedded": 13226,
    "Ġbewil": 11656,
    "moment": 3580,
    "Ġward": 10155,
    "vap": 13802,
    "Ġsluggish": 25890,
    "ibly": 2995,
    "rum": 3417,
    "oney": 3051,
    "Ġbible": 9318,
    "Ġourselves": 5127,
    "stranger": 9882,
    "Ġslender": 11938,
    "post": 6061,
    "Ġplayers": 12037,
    "Ġprevention": 16091,
    "Ġcheering": 11133,
    "Ġantagon": 19549,
    "Ġdigest": 24647,
    "Ġscreening": 25300,
    "Ġbecalmed": 18086,
    "furnish": 25338,
    "ardy": 22152,
    "front": 12168,
    "Ġnearing": 15792,
    "Ġthyself": 6602,
    "Ġscriptures": 26235,
    "Ġancestors": 25642,
    "Ġhealed": 21680,
    "Ġpollard": 20384,
    "died": 10693,
    "levelled": 23642,
    "captains": 12125,
    "Ġagreeing": 20017,
    "prejud": 11792,
    "Ġarbitrary": 4734,
    "resh": 8403,
    "Ĥ": 229,
    "Ġeast": 5370,
    "studies": 25166,
    "Ġsimil": 2534,
    "Ġabhor": 5467,
    "Ġgalvan": 21614,
    "afterwards": 7484,
    "Ġexpon": 968,
    "Ġdandy": 17892,
    "Ġworsh": 12997,
    "Ġsecrecy": 7316,
    "irited": 15784,
    "Ġencoding": 4772,
    "Ġcouns": 10520,
    "\":": 9581,
    "Ġequival": 4782,
    "Ġscene": 3100,
    "Ġaverages": 2400,
    "seven": 8463,
    "fleet": 15013,
    "kov": 17586,
    "Ġpeculiarity": 12930,
    "crimin": 17508,
    "bb": 2800,
    "Ġexclam": 6757,
    "Ġutility": 23511,
    "Ġadvent": 4357,
    "Ġbel": 1216,
    "Ġkick": 5837,
    "ateur": 22001,
    "gr": 2087,
    "Ġcanvas": 7783,
    "companions": 15023,
    "accident": 11181,
    "Ġsubsequent": 7658,
    "Ġwedded": 16674,
    "Ġadvoc": 12988,
    "holmes": 4430,
    "stre": 5451,
    "topp": 22563,
    "uncontrollable": 20594,
    "rippling": 24714,
    "Ġlanguage": 654,
    "Ġmurderer": 4980,
    "Ġsolemnity": 9940,
    "Ġjustinian": 22969,
    "Ġfrosts": 19801,
    "Ġtexture": 19159,
    "Ġstructural": 2798,
    "Ġattempting": 14696,
    "Ġquar": 3116,
    "ban": 9584,
    "lingering": 18601,
    "adr": 6994,
    "meantime": 9091,
    "etical": 13957,
    "mers": 9610,
    "Ġnoiseless": 10357,
    "Ġspend": 5304,
    "Ġyellow": 5300,
    "Ġpremises": 10487,
    "fortune": 4975,
    "Ġest": 2267,
    "Ġoccur": 1083,
    "three": 5239,
    "print": 23809,
    "Ġnowadays": 18546,
    "istrate": 7406,
    "second": 6543,
    "Ġgroans": 14823,
    "paradise": 20636,
    "Ġmisfortune": 5569,
    "Ġunfold": 8022,
    "Ġdecaying": 2249,
    "Ġasks": 5115,
    "Ġdem": 11673,
    "Ġcalling": 5662,
    "sailed": 17666,
    "ortion": 11757,
    "Ġbasement": 24702,
    "Ġvideos": 13605,
    "Ġsaving": 15885,
    "Ġwallowed": 24039,
    "gust": 6360,
    "Ġsult": 10767,
    "Ġwilful": 10534,
    "Ġsolid": 6443,
    "Ġthoughtfulness": 18774,
    "inching": 21188,
    "Ġartfully": 22612,
    "letters": 13173,
    "Ġdepl": 14045,
    "icking": 8910,
    "declaration": 25175,
    "Ġequator": 7462,
    "Ġrelaxed": 12981,
    "Ġcarav": 18901,
    "orrowed": 19288,
    "wake": 11545,
    "Ġtea": 5041,
    "Ġgritted": 22802,
    "Ġsubmit": 11868,
    "uncomfortable": 18160,
    "Ġjabbering": 22300,
    "hoped": 20909,
    "Ġpreside": 18365,
    "captain": 3950,
    "Ġforeign": 9871,
    "Ġsneer": 13446,
    "Ġscruples": 15077,
    "handled": 19260,
    "impregn": 21711,
    "Ġmiscell": 16146,
    "Ġdaybreak": 18724,
    "ĠcÃ¦sar": 20578,
    "fifth": 20145,
    "Ġdiscerned": 25003,
    "Ġacquainted": 5179,
    "atic": 4016,
    "carp": 9109,
    "Ġoverwhelming": 17102,
    "Ġfluctuating": 24417,
    "Ġtinker": 15130,
    "Ġshabby": 14110,
    "Ġladen": 19177,
    "caterpillar": 26383,
    "Ġgipsies": 12406,
    "accessible": 13638,
    "Ġlegs": 4916,
    "Ġconfess": 3767,
    "stop": 11634,
    "atigable": 15269,
    "converse": 22472,
    "Ġrailway": 15020,
    "Ġpiece": 5367,
    "Ġindomit": 22952,
    "amidst": 25652,
    "Ġcrop": 10162,
    "Ġsketches": 26269,
    "Ġharpooneers": 4730,
    "Ġapproving": 18514,
    "Ġhands": 1658,
    "alvan": 21501,
    "Ġblessed": 6931,
    "Ġholidays": 22919,
    "Ġopposing": 12039,
    "pop": 17631,
    "Ġabsorbing": 17128,
    "Ġhandsome": 4906,
    "Ġthoughtless": 16190,
    "Ġmaddened": 17244,
    "Ġconstruction": 9383,
    "Ġslay": 16304,
    "Ġacting": 10991,
    "inspect": 11558,
    "Ġthr": 5709,
    "Ġlay": 584,
    "Ġsubaltern": 22785,
    "Ġdragging": 14475,
    "Ġfour": 2217,
    "stove": 21649,
    "allow": 5104,
    "disappo": 8984,
    "acked": 10974,
    "Ġstand": 1734,
    "bug": 17492,
    "Ġbackstays": 22659,
    "Ġladder": 8597,
    "Ġpattering": 18651,
    "earnestly": 17312,
    "Ġstrongest": 11135,
    "flame": 16637,
    "Ġeyeing": 6460,
    "accompanied": 12420,
    "son": 2332,
    "cheap": 23803,
    "Ġtransform": 741,
    "Ġwealth": 7620,
    "Ġplank": 7033,
    "Ġcynical": 25770,
    "Ġpatentee": 25586,
    "become": 14246,
    "Ġpile": 8423,
    "Ġbesee": 19242,
    "grin": 19105,
    "Ġfolds": 12204,
    "Ġoutward": 7903,
    "Ġcomrades": 9554,
    "Ġdiscontented": 16057,
    "Ġwarm": 2428,
    "yden": 21142,
    "ê": 171,
    "Ġhospitality": 13512,
    "Ġencircling": 26270,
    "Ġlethar": 21743,
    "Ġvolume": 6769,
    "Ġbakers": 17866,
    "Ġarmies": 16492,
    "Ġintruding": 21988,
    "Ġwrithed": 17106,
    "Ġsow": 17749,
    "str": 2580,
    "Ġcelebrated": 13593,
    "Ġmotion": 4564,
    "Ġrelative": 11881,
    "latitude": 25259,
    "virtue": 20568,
    "Ġreplace": 14476,
    "Ġsanta": 26420,
    "Ġactor": 16046,
    "Ġimparts": 18447,
    "infl": 15486,
    "tremble": 17141,
    "Ġram": 11013,
    "Ġcandelab": 23846,
    "quitted": 21854,
    "movement": 25577,
    "pets": 17636,
    "Ġspecks": 14307,
    "Ġpracticable": 19061,
    "tomb": 21092,
    "Ġclad": 12840,
    "occur": 19574,
    "Ġsuspense": 9417,
    "Ġlikely": 3599,
    "limping": 26393,
    "office": 16389,
    "aurus": 20559,
    "Ġfraud": 19040,
    "belong": 12120,
    "================================================================": 9989,
    "Ġappare": 12816,
    "Ġindefatigable": 17177,
    "Ġbachel": 7158,
    "Ġdestroyed": 5271,
    "Ġemergency": 25731,
    "Ġdisenc": 22523,
    "drove": 16993,
    "Ġsequel": 14359,
    "free": 8735,
    "Ġswaying": 15046,
    "Ġperceptibly": 25821,
    "desire": 14473,
    "ighted": 8476,
    "Ġuseful": 3559,
    "Ġlouis": 8356,
    "disp": 7976,
    "Ġclaim": 5106,
    "Ġshocks": 16457,
    "Ġtwin": 12925,
    "Ġfresher": 23209,
    "Ġpo": 736,
    "Ġdepartment": 24241,
    "Ġunbelief": 22046,
    "Ġuplifted": 11646,
    "deliberated": 26118,
    "Ġsand": 6235,
    "longer": 8612,
    "Ġsen": 9156,
    "Ġcoron": 4463,
    "adventures": 20255,
    "Ġits": 707,
    "Ġgenus": 24429,
    "Ġverdict": 13474,
    "Ġ{": 21151,
    "Ġflashes": 11915,
    "Ġevidence": 5269,
    "Ġboomer": 20166,
    "Ġwitnessed": 14843,
    "comrade": 20623,
    "Ġdreaded": 8288,
    "Ġtrustworthy": 24106,
    "hastening": 24448,
    "Ġtaught": 6803,
    "Ġallev": 18100,
    "Ġrevenue": 26194,
    "ong": 536,
    "believe": 8303,
    "Ġposter": 14275,
    "Ġabomination": 22275,
    "oration": 2212,
    "Ġdairy": 20685,
    "despairing": 25074,
    "Ń": 260,
    "Ġcosmetic": 23470,
    "tort": 17675,
    "Ġchr": 3689,
    "Ġslice": 23157,
    "bon": 13683,
    "plac": 15818,
    "Ġmisled": 22752,
    "ately": 1692,
    "Ġfa": 4817,
    "Ġranks": 21969,
    "Ġpunch": 9954,
    "Ġfalsehood": 10523,
    "splinter": 25210,
    "Ġburden": 8607,
    "Ġvisitors": 7984,
    "Ø": 153,
    "ificant": 22203,
    "Ġvine": 8471,
    "||": 4868,
    "Ġrouse": 15819,
    "corner": 13396,
    "mael": 6722,
    "Ġcalculate": 13263,
    "Ġuppermost": 15277,
    "Ġvibrating": 13537,
    "Ġswears": 16463,
    "Ġser": 1666,
    "infall": 21187,
    "mme": 22497,
    "Ġit": 339,
    "Ġentit": 22741,
    "Ġwherever": 8523,
    "ders": 8074,
    "Ġarchitecture": 1117,
    "Ġforwards": 12700,
    "Ġmates": 4871,
    "Ġenveloping": 19733,
    "Ġconveniences": 19811,
    "Ġpractised": 23329,
    "Ġintrude": 25990,
    "Ġtanning": 17729,
    "Ġembattled": 26289,
    "Ġbeget": 9225,
    "rad": 2258,
    "Ġstigma": 25791,
    "untary": 9866,
    "Ġslapped": 23168,
    "Ġroughs": 19955,
    "Ġconsecutive": 20701,
    "lied": 6507,
    "Ġcured": 21345,
    "colnett": 19329,
    "Ġhinting": 19648,
    "Ġagent": 6277,
    "Ġfollows": 7672,
    "paused": 17373,
    "Ġirreduc": 5491,
    "Ġbarnacled": 25536,
    "Ġvacuous": 24344,
    "Ġmeanings": 18607,
    "Ġobsequious": 17403,
    "curiosity": 8623,
    "perform": 15892,
    "Ġwhirl": 13448,
    "itation": 1779,
    "woman": 5898,
    "Ġsincer": 13063,
    "usage": 12829,
    "Ġfarther": 5954,
    "pleasanter": 24044,
    "Ġdry": 5624,
    "Ġbachelors": 24860,
    "susceptible": 24661,
    "Ġmanifested": 17157,
    "Ġask": 1491,
    "inch": 10755,
    "scorched": 25697,
    "Ġfar": 1452,
    "Ġasserted": 16949,
    "adler": 21759,
    "christmas": 20254,
    "super": 5943,
    "Ġapprehending": 26090,
    "stretch": 13980,
    "persecutor": 26529,
    "unicorn": 21886,
    "Ġsuffice": 18870,
    "thur": 7188,
    "Ġconfine": 14509,
    "Ġapothe": 12373,
    "Ġhit": 7163,
    "Ġhogshead": 26367,
    "Ġsay": 931,
    "Ġissued": 10599,
    "Ġfishes": 11590,
    "Ġapprehensiveness": 16877,
    "Ġcham": 4891,
    "Ġlate": 3380,
    "Ġnorth": 4320,
    "Ġagreeably": 24952,
    "Ġgasfitters": 25038,
    "Ġdecide": 9285,
    "#": 7,
    "xible": 13807,
    "Ġpeasants": 12330,
    "Ġburying": 19251,
    "undant": 14791,
    "vill": 10735,
    "gunwale": 20662,
    "adventure": 17233,
    "ateness": 15518,
    "touching": 15090,
    "Ġgasp": 7172,
    "Ġones": 3022,
    "plun": 15817,
    "ral": 4626,
    "Ġreposing": 23357,
    "Ġparadise": 11194,
    "Ġsimple": 1614,
    "Ġrelevance": 5184,
    "Ġcowards": 12570,
    "highly": 24764,
    "Ġsensibly": 14513,
    "Ý": 158,
    "Ġslanting": 23169,
    "Ġsublim": 19965,
    "Ġevident": 6612,
    "Ġdetermined": 2224,
    "Ġcustoms": 19651,
    "Ġdiamond": 15596,
    "rical": 11518,
    "sl": 5794,
    "horrible": 14600,
    "Ġobliquely": 12360,
    "oda": 15746,
    "removed": 15515,
    "Ġhovers": 19076,
    "Ġtechniques": 2868,
    "Ġdiffusion": 23781,
    "Ġobed": 8535,
    "omin": 4701,
    "Ġhush": 13210,
    "Ġwithheld": 18110,
    "Ġbump": 9659,
    "Ġarmada": 23579,
    "itig": 1335,
    "nar": 12491,
    "Ġ183": 13236,
    "Ġunsupplied": 22040,
    "Ġexquis": 9697,
    "springing": 24889,
    "feel": 3811,
    "Ġcleared": 6074,
    "acup": 14277,
    "Ġgraze": 18226,
    "listened": 15043,
    "Ġlat": 5087,
    "Ġadversary": 12171,
    "Ġpredicts": 2598,
    "below": 12119,
    "Ġwherein": 14292,
    "Ġcontemplation": 11357,
    "Ġglist": 9344,
    "Ġbelshazzar": 16223,
    "rity": 13775,
    "Ġcrown": 5287,
    "Ġaccompanied": 6780,
    "Ġgasped": 11372,
    "neighbouring": 19962,
    "pick": 17634,
    "Ġblanket": 8342,
    "rooms": 10432,
    "Ġdrama": 16327,
    "itchen": 7787,
    "suppose": 8644,
    "intense": 22933,
    "elf": 564,
    "orton": 11756,
    "clever": 20813,
    "Ġdistribut": 842,
    "Ġbuttoning": 17235,
    "Ġgre": 1582,
    "rents": 5308,
    "Ġunsatisfied": 22041,
    "cons": 4310,
    "Ġhumorously": 18779,
    "Ġrhyme": 21975,
    "germans": 20564,
    "Ġsuperlatively": 26075,
    "Ġinvariable": 13455,
    "Ġnobler": 14175,
    "Ġhumans": 8929,
    "Ġorbs": 22089,
    "Ġstern": 4223,
    "oper": 7347,
    "lances": 15382,
    "Ġshadow": 5596,
    "Ġgould": 17989,
    "Ġflann": 23012,
    "Ġriding": 14093,
    "compl": 6873,
    "Ġquivers": 22410,
    "liness": 8746,
    "harpoon": 9490,
    "Ġhasten": 10478,
    "Ġ----": 7145,
    "Ġled": 3523,
    "crimes": 16697,
    "ittleness": 22376,
    "ĠĠĠĠĠĠĠĠĠĠĠĠĠĠĠĠĠĠĠĠĠĠ": 16224,
    "Ġfrightened": 5341,
    "Ġpersuasions": 16631,
    "eye": 6224,
    "nonsense": 17615,
    "Ġportents": 14679,
    "oniously": 21256,
    "Ġmisfortunes": 7041,
    "Ġshowers": 16605,
    "Ġchances": 9262,
    "Ġdreaming": 11223,
    "Ġminister": 18751,
    "ificent": 8183,
    "haired": 14765,
    "Ġstained": 11651,
    "determ": 7105,
    "fishermen": 17061,
    "Ġbegat": 18863,
    "Ġrepel": 23355,
    "```": 25893,
    "reng": 4000,
    "Ġgle": 7858,
    "Ġperilous": 7768,
    "Ġbern": 17858,
    "Ġlogic": 13076,
    "boscombe": 26121,
    "Ġecon": 9677,
    "started": 10845,
    "Ġperpendicular": 7209,
    "asions": 12648,
    "Ġunconsc": 6552,
    "jeroboam": 25619,
    "Ġpel": 17904,
    "Ġcomplement": 23708,
    "io": 3801,
    "Ġapothecary": 13658,
    "impenet": 18053,
    "oak": 21002,
    "Ġmccauley": 26426,
    "lipped": 16215,
    "Ġhangs": 11605,
    "alt": 12635,
    "Ġtranquo": 14842,
    "being": 3912,
    "englishman": 23676,
    "etrics": 21582,
    "Ġmultiplication": 2873,
    "Ġorchard": 22091,
    "rapidly": 15242,
    "Ġgirl": 3089,
    "ool": 17618,
    "Ġwrithing": 11944,
    "Ġmoth": 17802,
    "Ġmute": 19414,
    "anelles": 26434,
    "receive": 12539,
    "sustained": 20567,
    "alluring": 18352,
    "mering": 12488,
    "outs": 7009,
    "Ġsimulation": 2754,
    "Ġserved": 8245,
    "co": 2436,
    "occup": 7752,
    "Ġrekindled": 21674,
    "Ġcomplexion": 8208,
    "Ġperchance": 15989,
    "Ġhaggard": 17329,
    "Ġfidelity": 15240,
    "Ġtemporarily": 11167,
    "Ġsnatches": 16543,
    "Ġgiants": 25960,
    "circumstance": 7763,
    "Ġlives": 4824,
    "Ģ": 227,
    "inter": 2950,
    "Ġquebec": 24133,
    "âĢľ_": 5720,
    "rocket": 13943,
    "Ġseamen": 5063,
    "Ġbelie": 14406,
    "dum": 17518,
    "Ġbusier": 23334,
    "Ġsentiments": 7961,
    "spiracle": 22737,
    "falsehood": 25901,
    "Ġpeculiar": 3155,
    "Ġwhosoever": 21716,
    "ro": 301,
    "Ġrelev": 1714,
    "oes": 4433,
    "Ġcultivated": 17363,
    "linearity": 1643,
    "Ġtiller": 8965,
    "Ġoverfitting": 1540,
    "Ġwhile": 607,
    "âĢĶ_": 3202,
    "Ġinteresting": 4326,
    "antarctic": 22096,
    "Ġcomforter": 20505,
    "Ġunjust": 8483,
    "Ġemerged": 8684,
    "Ġbasket": 9572,
    "!_": 7329,
    "Ġshowing": 7731,
    "Ġdelirium": 10405,
    "Ġawakened": 10453,
    "complain": 14355,
    "Ġ29": 23729,
    "portuguese": 25413,
    "flinging": 20867,
    "borean": 25743,
    "stern": 8444,
    "best": 6111,
    "Ġxli": 14542,
    "Ġsplash": 16548,
    "Ġwrote": 5011,
    "Ġ72": 19610,
    "Ġdiabolical": 20341,
    "Ġjo": 2612,
    "Ġsimulates": 2742,
    "fitzwilliam": 11352,
    "garn": 20869,
    "ist": 450,
    "dick": 11479,
    "Ġfiftieth": 24703,
    "Ġpersonal": 7479,
    "Ġunscrew": 22037,
    "Ġcoffin": 4428,
    "tha": 15821,
    "Ġthrusting": 10552,
    "Ġunrel": 14695,
    "Ġterror": 5124,
    "Ġtake": 1577,
    "autumn": 23339,
    "Ġmurmured": 7480,
    "Ġdivined": 19441,
    "Ġplentiful": 12908,
    "rel": 3755,
    "human": 7088,
    "hist": 7130,
    "iors": 9125,
    "Ġcrad": 21348,
    "Ġviolates": 3168,
    "Ġfile": 13902,
    "Ġgeese": 7693,
    "lorn": 12485,
    "Ġresidual": 1674,
    "Ġbabel": 24426,
    "Ġpatriot": 23249,
    "Ġknitting": 24218,
    "akeman": 6267,
    "ication": 951,
    "whether": 5319,
    "Ġprofoundly": 16859,
    "Ġforesight": 13127,
    "Ġspecialized": 3918,
    "Ġgames": 11625,
    "Ġcongratulate": 9063,
    "Ġpresented": 5183,
    "Ġallow": 1127,
    "Ġfluid": 11212,
    "Ġhenceforth": 19646,
    "masterly": 24530,
    "Ġlabor": 10418,
    "Ġdishonor": 25601,
    "Ġamiss": 18511,
    "Ġobjections": 8564,
    "Ġlocker": 16911,
    "Ġaright": 11738,
    "Ġnatives": 17950,
    "Ġenrapt": 21936,
    "Ġpun": 4585,
    "Ġdegenerated": 20504,
    "musket": 25341,
    "Ġdictated": 25218,
    "Ġberry": 19745,
    "Ġdedicated": 19180,
    "ude": 7562,
    "accordingly": 19213,
    "bearings": 25371,
    "Ġdissuade": 26256,
    "nearest": 16020,
    "Ġpatched": 16350,
    "Ġcoff": 3509,
    "adel": 15726,
    "musical": 25340,
    "Ġindu": 5293,
    "asked": 8911,
    "Ġearlier": 9086,
    "Ġmarbank": 23036,
    "Ġbreathless": 12167,
    "Ġoutrages": 18415,
    "Ġsolely": 9909,
    "cular": 15327,
    "70": 17475,
    "Ġfabulous": 25948,
    "Ġbrisk": 9802,
    "Ġtour": 9147,
    "Ġcharacteristic": 12046,
    "Ġdiscourage": 3119,
    "Ġeaster": 15672,
    "Ġ32": 19487,
    "older": 15753,
    "ibule": 13008,
    "Ġcaulk": 25440,
    "Ġdisputes": 25825,
    "frequently": 9978,
    "permission": 15894,
    "screw": 9346,
    "vigorous": 25917,
    "Ġeternal": 5975,
    "Ġunpitying": 25660,
    "too": 4506,
    "Ġtriumphal": 24371,
    "Ē": 211,
    "Ġforbidden": 17078,
    "Ġimpressed": 8198,
    "extra": 8218,
    "Ġmam": 8404,
    "Ġsuperl": 16445,
    "Ġobligations": 12089,
    "Ġnecess": 3477,
    "Ġviolently": 6456,
    "Ġproudly": 19741,
    "neighbours": 24881,
    "vely": 3865,
    "orm": 425,
    "Ġapproximation": 2344,
    "expanded": 23665,
    "Ġundulating": 19516,
    "Ġsensitiveness": 23734,
    "ild": 1155,
    "Ġelbows": 18634,
    "iz": 364,
    "_,âĢĻâĢĿ": 20399,
    "succeeded": 15174,
    "asp": 3341,
    "green": 7115,
    "Ġconcoct": 19045,
    "Ġphrase": 11187,
    "have": 2057,
    "missed": 11209,
    "Ġwisdom": 11233,
    "entrance": 12654,
    "Ġalliance": 18235,
    "Ġplaning": 22599,
    "Ġfathom": 17048,
    "ents": 1895,
    "Ġeas": 2355,
    "Ġarchipelagoes": 14347,
    "last": 3802,
    "pretty": 10621,
    "Ġmiss": 1229,
    "Ġaspects": 4176,
    "orters": 21399,
    "Ġfatality": 12092,
    "sweet": 8685,
    "Ġeasily": 3889,
    "stout": 21642,
    "Ġaccelerate": 23223,
    "belonged": 25597,
    "iot": 9600,
    "cher": 5786,
    "Ġnightfall": 23129,
    "Ġwrinkles": 8570,
    "Ġguns": 16776,
    "wit": 7817,
    "published": 26142,
    "Ġbroadway": 23981,
    "volume": 18605,
    "inarticulate": 21194,
    "Ġumbrella": 15264,
    "Ġtradeoff": 2660,
    "unfearing": 21889,
    "Ġwane": 21287,
    "Ġkeel": 6444,
    "tered": 2232,
    "Ġinvention": 19951,
    "Ġcommunicate": 10577,
    "Ġlads": 8596,
    "Ġbethink": 12377,
    "Ġlingering": 11379,
    "chest": 11208,
    "itia": 11578,
    "Ġnose": 4402,
    "voyage": 7785,
    "Ġgiddy": 20495,
    "Ġleaned": 7607,
    "Ġrecommending": 24337,
    "Ġromans": 16759,
    "Ġpondering": 17005,
    "considerably": 13444,
    "Ġentry": 11025,
    "Ġdish": 6136,
    "abilities": 3238,
    "cripp": 20818,
    "Ġfogs": 25282,
    "Ġneared": 14072,
    "Ġporthole": 24399,
    "blister": 24128,
    "Ġstaggering": 20272,
    "enough": 6809,
    "pistol": 17642,
    "ange": 1017,
    "Ġlucky": 7758,
    "idious": 11661,
    "wont": 21131,
    "itz": 6005,
    "ĠĠĠĠĠĠĠĠĠĠĠĠĠĠĠĠĠĠĠĠĠĠĠĠĠĠĠĠĠĠĠĠĠĠĠĠĠĠĠĠĠ": 19581,
    "Ġstarts": 16582,
    "gracechurch": 24581,
    "Ġassisted": 11110,
    "Ġbreakfast": 3972,
    "ixed": 4849,
    "Ġreproofs": 24892,
    "Ġinevitable": 15166,
    "Ġconn": 9229,
    "ke": 429,
    "Ġshorter": 4497,
    "Ġvehic": 8933,
    "dilig": 17282,
    "ľ": 255,
    "Ġbarrels": 9435,
    "Ġset": 1176,
    "do": 1994,
    "poled": 22905,
    "flag": 14710,
    "Ġsmiles": 6706,
    "rigging": 20004,
    "Ġrequested": 14295,
    "ivates": 18280,
    "vital": 17700,
    "{": 95,
    "Ġunbending": 25464,
    "Ġyou": 366,
    "Ġsang": 12532,
    "Ġafternoon": 6052,
    "Ġproclaim": 18131,
    "Ġpolluted": 25593,
    "Ġdisdained": 15009,
    "slave": 16895,
    "igms": 3048,
    "oton": 3607,
    "Ġrev": 6988,
    "stra": 4046,
    "Ġtertiary": 15293,
    "Ġwatches": 11082,
    "Ġlaborious": 13101,
    "bidden": 19736,
    "Ġc": 277,
    "housekeeper": 24101,
    "Ġexploit": 19161,
    "oarsman": 25261,
    "Ġbitten": 21388,
    "Ġburton": 23654,
    "Ġindividually": 22954,
    "departed": 24794,
    "Ġlatter": 3987,
    "Ġport": 3311,
    "Ġcheerfulness": 10516,
    "Ġfemin": 13435,
    "ĠĠĠĠĠĠĠĠĠĠĠĠĠĠĠĠĠĠĠĠĠĠĠĠĠĠĠĠĠĠ": 24443,
    "eminently": 25105,
    "Ġimpet": 11777,
    "rabbit": 20589,
    "Ġtyrant": 24767,
    "Ġjingling": 26017,
    "gallant": 7780,
    "impression": 15708,
    "agonies": 21906,
    "consider": 6348,
    "Ġesteem": 7531,
    "Ġlawy": 9454,
    "urged": 18048,
    "atre": 17770,
    "Ġlucas": 3831,
    "grie": 12468,
    "endar": 18364,
    "Ġashes": 7616,
    "Ġhour": 1811,
    "Ġlegisl": 23533,
    "Ġjac": 1896,
    "Ġplata": 25117,
    "Ġdeficiency": 14403,
    "Ġ70": 11276,
    "Ġmagnificent": 9841,
    "Ġoffend": 16142,
    "Ġevid": 3501,
    "Ġlifeless": 8948,
    "Ġarticulate": 24432,
    "ĠĠĠĠĠĠĠĠ": 711,
    "tray": 21076,
    "marks": 7346,
    "seals": 21815,
    "unned": 21875,
    "singular": 12186,
    "Ġmultitud": 18746,
    "Ġfaithfully": 14886,
    "Ġfood": 5080,
    "Ġshrink": 14803,
    "Ġreplied": 2266,
    "Ġdisput": 14255,
    "Ġstraight": 3703,
    "confirmed": 19644,
    "Ġrusty": 14963,
    "Ġunsur": 22019,
    "Ġsimilitude": 19210,
    "name": 6795,
    "Ġconjugal": 25101,
    "Ġfathers": 16294,
    "Ġbleeds": 24397,
    "clerval": 7950,
    "Ġjune": 10288,
    "ampl": 21839,
    "Ġmoose": 22430,
    "hot": 8083,
    "shop": 14238,
    "iated": 5889,
    "Ġwrench": 12554,
    "ashions": 16415,
    "Ġsystem": 574,
    "Ġintervals": 5598,
    "Ġgoodly": 22820,
    "Ġunflinching": 26512,
    "Ġsuperior": 2755,
    "Ġjiff": 22293,
    "Ġsmile": 4272,
    "Ġsignific": 3827,
    "ours": 3429,
    "Ġsurging": 19133,
    "elihood": 4620,
    "Ġtinkling": 25212,
    "Ġcommonly": 3265,
    "islands": 21374,
    "puzz": 17640,
    "Ġinjunction": 19616,
    "Ġdismay": 11807,
    "abern": 21787,
    "glad": 9007,
    "system": 4854,
    "particularly": 8339,
    "Ġstatement": 5254,
    "Ġsoliloquized": 17301,
    "Ġostentatiously": 20467,
    "during": 6787,
    "Ġhackluyt": 25655,
    "swim": 16779,
    "Ġse": 401,
    "hogs": 20080,
    "Ġburnt": 9927,
    "Ġbalm": 22900,
    "Ġstop": 2505,
    "tisement": 6767,
    "Ġresolves": 23649,
    "Ġapiece": 16813,
    "Ġpleaded": 16297,
    "Ġalpha": 13587,
    "Ġpallet": 21479,
    "killed": 15375,
    "asmuch": 10194,
    "immortal": 21707,
    "grate": 23410,
    "Ġsweet": 3468,
    "Ġmodest": 15913,
    "Ġforger": 15730,
    "Ġrevelations": 25223,
    "encountered": 20391,
    "bweb": 20790,
    "purp": 8090,
    "quid": 18146,
    "Ġsunday": 7270,
    "ishments": 9272,
    "Ġexposes": 22619,
    "Ġsingle": 1691,
    "Ġominous": 12422,
    "Ġrole": 15993,
    "arying": 9800,
    "Ğ": 223,
    "Ġmorsel": 20676,
    "squ": 7809,
    "lonely": 20956,
    "coo": 11170,
    "Ġwheeled": 14138,
    "iffs": 9021,
    "Ġdilig": 8349,
    "Ġtowed": 11265,
    "draw": 23896,
    "abb": 15736,
    "command": 6576,
    "Ġhoofs": 14526,
    "Ġgrunt": 18736,
    "nantucketer": 24972,
    "enjoyments": 25433,
    "Ġoaks": 16933,
    "Ġcountless": 16380,
    "coward": 13699,
    "Ġprestige": 22233,
    "Ġexplaining": 15958,
    "Ġfad": 17876,
    "Ġprofess": 3699,
    "Ġgreen": 3054,
    "Ġgain": 4825,
    "Ġdived": 9177,
    "mush": 20976,
    "Ġeu": 6390,
    "Ġhypothesis": 14781,
    "leading": 15559,
    "Ġisn": 7865,
    "raid": 3281,
    "Ġtoss": 10184,
    "blades": 24131,
    "Ġworship": 10366,
    "Ġcauldron": 25441,
    "london": 9609,
    "abri": 6682,
    "rep": 5525,
    "spite": 16139,
    "mies": 20967,
    "oe": 7552,
    "Ġtransitory": 16016,
    "en": 271,
    "Ġungover": 18255,
    "Ġconvul": 13200,
    "ue": 1178,
    "Ġautoregressive": 3433,
    "indisc": 22370,
    "Ġmanipulated": 25178,
    "ser": 1425,
    "precision": 4332,
    "etimes": 1986,
    "breeding": 16675,
    "Ġendurance": 23142,
    "Ġreview": 18030,
    "Ġsearched": 15814,
    "ail": 565,
    "Ġnum": 1352,
    "Ġdy": 2481,
    "mbles": 23086,
    "Ġrelation": 2143,
    "Ġgour": 21595,
    "accepted": 20135,
    "opic": 22473,
    "Ġcousin": 3705,
    "Ġloving": 8175,
    "Ġtornado": 24621,
    "cries": 17510,
    "Ġendless": 7053,
    "Ġintimidated": 24805,
    "wick": 5362,
    "compose": 24029,
    "ird": 2430,
    "Ġasylum": 13665,
    "Ġcoiled": 11818,
    "Ġtiny": 11552,
    "eties": 10837,
    "Ġast": 2962,
    "Ġapex": 24342,
    "Ġclatter": 22353,
    "Ġfumbling": 21415,
    "bulk": 19923,
    "Ġrustling": 24715,
    "Ġexamine": 7734,
    "Ġdamning": 19139,
    "angling": 14140,
    "Ġartic": 5314,
    "Ġavoid": 5199,
    "Ġcursed": 6726,
    "overing": 6306,
    "Ġsuperseded": 26223,
    "eding": 7165,
    "Ġbehaves": 23296,
    "Ġconsoled": 18115,
    "Ġbrig": 11046,
    "Ġloses": 15871,
    "Ġroot": 2652,
    "pudding": 17647,
    "Ġprediction": 2279,
    "rim": 7137,
    "Ġworker": 23018,
    "Ġsearch": 2593,
    "Ġang": 2514,
    "ullied": 23102,
    "itarian": 21335,
    "Ġlordly": 23743,
    "ued": 7561,
    "full": 7420,
    "Ġlighter": 12650,
    "Ġenvironmental": 24127,
    "Ġbring": 3325,
    "Ġmant": 9647,
    "Ġinmost": 17930,
    "ple": 453,
    "Ġwreak": 16817,
    "recol": 10150,
    "Ġdetain": 14173,
    "Ġ47": 14770,
    "itting": 1153,
    "Ġshop": 9251,
    "Ġurged": 6781,
    "Ġplatform": 17131,
    "disguise": 26306,
    "Ġmilitary": 11258,
    "orous": 5292,
    "Ġopportunities": 19248,
    "uity": 12515,
    "fates": 20857,
    "Ġsill": 10765,
    "Ġpersonages": 23539,
    "Ġastonished": 7087,
    "ildad": 3533,
    "ĠĠĠĠĠĠĠĠĠĠĠĠĠĠĠĠĠĠĠĠĠĠĠĠĠĠĠ": 14885,
    "unk": 4537,
    "Ġhills": 6527,
    "Ġgrappling": 25812,
    "Ġaverage": 3141,
    "Ġunmanufactured": 20432,
    "Ġsquaw": 22834,
    "hunter": 10555,
    "Ġhumorousness": 25377,
    "Ġded": 2382,
    "destroyed": 15259,
    "rennial": 22338,
    "Ġengagement": 5397,
    "Ġconsummate": 25310,
    "Ġaccumulates": 2892,
    "Ġwan": 15526,
    "ructive": 18541,
    "Ġstudents": 23230,
    "Ġaddressed": 5262,
    "Ġhipp": 21489,
    "Ġpriority": 19761,
    "Ġorganisation": 23582,
    "Ġwhereby": 11834,
    "Ġassistants": 9451,
    "Ġproceeded": 5335,
    "iant": 5427,
    "Ġdup": 21425,
    "Ġsubsc": 22783,
    "dear": 6555,
    "Ġirritated": 17242,
    "Ġdrop": 4345,
    "Ġstray": 18069,
    "Ġexploded": 15907,
    "Ġspaniards": 25555,
    "trained": 4240,
    "Ġunf": 4091,
    "puzzling": 26143,
    "Ġtroop": 24897,
    "Ġwor": 1188,
    "Ġintolerably": 15827,
    "maged": 15392,
    "lead": 10165,
    "Ġsideways": 6181,
    "Ġcomprehending": 24445,
    "Ġ42": 16678,
    "figure": 13554,
    "pattern": 4290,
    "Ġsupplying": 19797,
    "Ġth": 299,
    "amuse": 14051,
    "painter": 24896,
    "awned": 19458,
    "Ġgrampus": 21990,
    "thirty": 12759,
    "Ġonly": 788,
    "sided": 17664,
    "Ġconfirmed": 11139,
    "?": 35,
    "does": 6194,
    "Ġhelmsman": 10504,
    "Ġstrife": 18612,
    "Ġexcell": 10417,
    "Ġhandkerchief": 8913,
    "ife": 1024,
    "cott": 8073,
    "Ġcareless": 11119,
    "Ġrails": 22650,
    "racing": 21628,
    "Ġbrain": 2089,
    "rels": 6664,
    "pict": 8385,
    "treated": 21093,
    "east": 9115,
    "Ġcigaret": 16976,
    "Ġconceivable": 16613,
    "Ġglowing": 12280,
    "Ġtravellers": 11308,
    "Ġhermits": 22071,
    "Ġbrothers": 13174,
    "Ġdons": 17888,
    "Ġprogra": 1146,
    "favourite": 15142,
    "abbering": 21793,
    "Ġ125": 24470,
    "board": 3566,
    "Ġrending": 19465,
    "Ġpieces": 7369,
    "prom": 6509,
    "Ġpioneer": 17918,
    "Ġassuring": 13061,
    "Ġadmire": 5263,
    "ance": 478,
    "Ġrandom": 1587,
    "Ġforecastle": 5495,
    "Ġrescued": 24206,
    "pump": 21016,
    "Ġuniformly": 19147,
    "Ġrichest": 26211,
    "Ġslave": 7454,
    "ilent": 21717,
    "Ġton": 15463,
    "Ġslacked": 25188,
    "Ġdaugh": 2294,
    "Ġeliza": 6437,
    "Ġbasics": 13447,
    "street": 6495,
    "sprinkling": 24912,
    "kitchen": 17585,
    "Ġloath": 7889,
    "Ġtheory": 5798,
    "Ġmoul": 15541,
    "Ġaloft": 4304,
    "Ġsuppress": 13022,
    "Ġdusky": 13548,
    "Ġthreat": 5154,
    "¶": 119,
    "×": 152,
    "Ġwatson": 3598,
    "ode": 1455,
    "Ġparac": 12792,
    "prises": 23811,
    "this": 1439,
    "augment": 18829,
    "od": 350,
    "drew": 7334,
    "Ġgreatness": 12940,
    "misery": 13342,
    "vessel": 11377,
    "Ġpremium": 23902,
    "then": 2052,
    "learnt": 23577,
    "Ġunparalleled": 15851,
    "Ġshifting": 12765,
    "Ġharpooned": 13261,
    "Ġbud": 10168,
    "Ġ275": 20109,
    "Ġrelatives": 12979,
    "Ġtrial": 6634,
    "Ġthough": 994,
    "Ġnotable": 18222,
    "rugg": 15898,
    "ase": 1159,
    "Ġunho": 18245,
    "disappointment": 11425,
    "Ġforfeit": 21772,
    "declare": 25173,
    "Ġpictures": 5503,
    "Ġweighted": 2091,
    "Ġmediocr": 24081,
    "Ġreinforcement": 3296,
    "tables": 19756,
    "Ġpacific": 5153,
    "Ġcolder": 22847,
    "Ġcourse": 2132,
    "Ġharpoons": 5659,
    "his": 1412,
    "Ġgrowl": 16537,
    "wishing": 21127,
    "Ġwriting": 4666,
    "Ġ199": 3010,
    "Ġtemples": 18636,
    "Ġconvivial": 16547,
    "Ġcopse": 17067,
    "Ġmoves": 14231,
    "Ġrepute": 18034,
    "Ġsaid": 577,
    "ordingly": 18515,
    "^": 66,
    "Ġsympathised": 14861,
    "Ġnut": 12643,
    "steering": 16635,
    "Ġpenetrating": 17011,
    "Ġboston": 22635,
    "flies": 19422,
    "Ġhaunted": 10253,
    "Ġselection": 18202,
    "Ġnonsensical": 21526,
    "nor": 2744,
    "Ġkeepers": 23537,
    "Ġdisaster": 12884,
    "infidel": 24663,
    "oce": 10714,
    "Ġcarpets": 18902,
    "Ġimpropriety": 17395,
    "Ġmouth": 3182,
    "daring": 20828,
    "Ġnarration": 13503,
    "saddest": 25527,
    "gish": 20872,
    "erest": 10697,
    "Ġher": 427,
    "Ġink": 8802,
    "Ġcontained": 7678,
    "Ġpeninsula": 23193,
    "Ġunsolved": 22030,
    "anguish": 15981,
    "Ġcheapside": 23284,
    "smile": 23903,
    "Ġcripple": 11440,
    "Ġplanisphere": 26607,
    "Ġdiscipl": 22779,
    "Ġtravelled": 7771,
    "ggling": 19096,
    "Ġvisual": 5741,
    "pity": 17627,
    "ation": 320,
    "Ġpolicy": 10457,
    "Ġwooden": 4728,
    "Ġsnapped": 9896,
    "liv": 9607,
    "Ġhelping": 3269,
    "Ġrepressed": 21665,
    "Ġhanded": 8216,
    "ret": 1475,
    "Ġwashing": 9704,
    "Ġconstructed": 9384,
    "Ġgrapnels": 25551,
    "rived": 5373,
    "Ġdistrusting": 25053,
    "cloud": 11105,
    "Ġpaces": 13918,
    "Ġwallowing": 24040,
    "Ġmanxman": 9565,
    "prejudice": 25571,
    "Ġcolonies": 14374,
    "Ġstrengthen": 20699,
    "Ġtil": 12521,
    "spin": 22732,
    "Ġwasn": 6997,
    "Ġexpensive": 12914,
    "agues": 8160,
    "ignor": 8961,
    "Ġregularity": 22773,
    "agre": 18164,
    "Ġvi": 1953,
    "Ġanswered": 2853,
    "Ġpresto": 22227,
    "Ġassaults": 15155,
    "Ġbarricade": 14660,
    "Ġcrest": 12938,
    "Ġpoising": 22589,
    "Ġcent": 3255,
    "foundered": 20866,
    "Ġsensitive": 13196,
    "yours": 7694,
    "Ġcoco": 11001,
    "beth": 13687,
    "Ġbas": 6380,
    "Ġninety": 13600,
    "Ġelbow": 12917,
    "Ġwarb": 17787,
    "ca": 20792,
    "forgot": 11033,
    "Ġvapor": 8699,
    "Ġprobed": 18732,
    "hurrying": 14982,
    "Ġprophesied": 26062,
    "story": 9212,
    "Ġcommodore": 12393,
    "Ġconge": 15743,
    "Ġbrightly": 13222,
    "apple": 22837,
    "Ġconnivance": 25225,
    "Ġlain": 17961,
    "scuttle": 11910,
    "Ġunattended": 15841,
    "Ġpuffs": 14975,
    "hun": 5210,
    "ouses": 5163,
    "Ġintent": 6409,
    "Ġgravely": 7882,
    "Ġsur": 2184,
    "Ġtip": 15470,
    "Ġvul": 10247,
    "Ġmediterranean": 12313,
    "Ġgracechurch": 12196,
    "relate": 24008,
    "Ġgirdle": 19156,
    "theless": 4261,
    "Ġlengthen": 15651,
    "aur": 15307,
    "sales": 17667,
    "Ġinsatiable": 19271,
    "employed": 17261,
    "derer": 4598,
    "rol": 5713,
    "Ġplaced": 3446,
    "Ġhypocritical": 20737,
    "taller": 26150,
    "yset": 21144,
    "Ġapologies": 25196,
    "Ġsalary": 13292,
    "Ġpleasantest": 24138,
    "Ġcats": 8979,
    "itch": 10160,
    "Ġey": 8134,
    "cigar": 26124,
    "Ġo": 275,
    "Ġcontemporary": 16010,
    "ete": 9203,
    "Ġcasual": 11409,
    "adays": 14012,
    "Ġexpiration": 22620,
    "Ġgathered": 8442,
    "Ġimplies": 24873,
    "spout": 7922,
    "shrugged": 22461,
    "ojo": 7349,
    "Ġstig": 14001,
    "caus": 11476,
    "ezing": 10573,
    "Ġimpulse": 10023,
    "prec": 3203,
    "Ġquitting": 7645,
    "Ġcreatures": 4139,
    "tranqu": 14705,
    "Ġshipwreck": 20444,
    "Ġgovernesses": 25127,
    "Ġregiment": 6432,
    "guessed": 25872,
    "ensity": 11811,
    "answ": 15878,
    "Ġmaintaining": 1506,
    "Ġindependence": 12102,
    "Ġhumble": 8550,
    "lyph": 10852,
    "istered": 14144,
    "Ġexerting": 21829,
    "finds": 19926,
    "Ġdeliberate": 15022,
    "Ġattended": 5391,
    "Ġepistle": 24904,
    "Ġwra": 5905,
    "Ġnathan": 21523,
    "bergen": 14325,
    "Ġinteraction": 7424,
    "Ġexotic": 21828,
    "Ġkingdom": 12017,
    "Ġfalsely": 20580,
    "ornament": 23486,
    "Ġdon": 1607,
    "Ġdetest": 8500,
    "Ġstuff": 5717,
    "Ġwails": 21295,
    "Åĵ": 10744,
    "Ġutmost": 5496,
    "Ġconduct": 3734,
    "Ġwaxed": 21296,
    "Ġuncounted": 19116,
    "Ġfreshet": 25704,
    "Ġhundredth": 16518,
    "Ġexploring": 4306,
    "Ġexactness": 23603,
    "Ġclassifies": 11838,
    "Ġdeformity": 11675,
    "Ġadditional": 7935,
    "Ġacknowledge": 13401,
    "Ġoverladen": 22348,
    "cstasy": 11445,
    "Ġaft": 5737,
    "nants": 17613,
    "oft": 3592,
    "Ġunexpectedly": 19908,
    "Ġsubl": 7235,
    "Ġoper": 2122,
    "native": 17612,
    "Ġabusing": 18393,
    "Ġbankrupt": 16796,
    "Ġpeak": 16124,
    "Ġour": 1009,
    "remind": 23184,
    "Ġtaken": 2531,
    "Ġcabaco": 13166,
    "dread": 8728,
    "unw": 14056,
    "î": 175,
    "animal": 16978,
    "ylon": 24975,
    "ptic": 21921,
    "Ġeve": 13969,
    "Ġspoilt": 24807,
    "Ġanchors": 12610,
    "Ġmeadows": 11422,
    "Ġflickering": 23014,
    "orified": 21400,
    "Ġbegg": 16252,
    "forbearance": 22789,
    "Ġbarb": 4529,
    "Ġtears": 4232,
    "Ġla": 5912,
    "Ġsixth": 16559,
    "sacred": 17028,
    "orable": 8119,
    "ativeness": 15519,
    "slow": 7810,
    "Ġwardrobe": 17225,
    "Ġprofit": 14585,
    "mph": 20971,
    "Ġlocks": 11722,
    "Ġlists": 11166,
    "atlantic": 15522,
    "Ġelixir": 26555,
    "Ġdeceitful": 25733,
    "Ġow": 8407,
    "Ġxxii": 24478,
    "ges": 2876,
    "Ġxxxvi": 24969,
    "Ġhover": 15617,
    "Ġmodel": 508,
    "ourable": 4967,
    "Ġshave": 21993,
    "constantinople": 25507,
    "Ġpam": 21452,
    "understand": 1081,
    "cery": 20807,
    "Ġended": 7949,
    "Ġislands": 6766,
    "Ġbridal": 14953,
    "suspicions": 25391,
    "Ġexalted": 12410,
    "Ġloss": 823,
    "outside": 12802,
    "Ġfebruary": 15911,
    "Ġwharf": 9559,
    "Ġstalked": 20427,
    "befriend": 22489,
    "Ġgangway": 20157,
    "imson": 12686,
    "varying": 13803,
    "Ġul": 6828,
    "Ġfamilies": 8026,
    "six": 7141,
    "Ġgloom": 4202,
    "Ġgrimes": 11034,
    "Ġpeevish": 26557,
    "Ġcloud": 3910,
    "Ġcaucus": 17379,
    "Ġ113": 19695,
    "worth": 8626,
    "Ġsensations": 5259,
    "ella": 12745,
    "Ġcucumber": 21354,
    "Ġbrazen": 23837,
    "Ġhooks": 14967,
    "nson": 16086,
    "Ġvanquished": 22871,
    "Ġmechanisms": 1575,
    "Ġveter": 15807,
    "arpening": 21441,
    "those": 4494,
    "Ġwiser": 14729,
    "Ġrecover": 9790,
    "powerful": 24847,
    "idy": 21761,
    "Ġwhiteness": 5918,
    "inquiry": 15141,
    "Ġexasperate": 20096,
    "roofed": 26183,
    "Ġscoresby": 10462,
    "Ġclimbing": 20068,
    "Ġimplicit": 19956,
    "Ġelasticity": 19557,
    "Ġpathetic": 18999,
    "Ġecstasy": 11629,
    "stories": 18023,
    "Ġmaxim": 3088,
    "jewel": 20345,
    "Ġprofessional": 7299,
    "Ġcum": 21340,
    "âĢĻ-": 18166,
    "Ġcontent": 5034,
    "Ġsulkily": 25882,
    "Ġchildhood": 13137,
    "Ġrode": 15994,
    "pretending": 17041,
    "Ġbeale": 12696,
    "Ġhonourable": 10456,
    "wh": 509,
    "thodox": 21985,
    "goin": 23399,
    "Ġgolden": 5336,
    "Ġsunny": 13084,
    "Ġfought": 12590,
    "Ġeffectual": 18733,
    "eu": 17530,
    "culiarity": 11141,
    "Ġcommitting": 22670,
    "Ġrogue": 22401,
    "Ġsteak": 9828,
    "Ġdoesn": 7438,
    "Ġassert": 7120,
    "owing": 7601,
    "Ġbehalf": 14508,
    "Ġpattered": 18998,
    "Ġoffing": 16141,
    "Ġcrane": 23438,
    "Ġstudent": 14478,
    "Ġinput": 609,
    "considered": 9580,
    "ref": 6515,
    "Ġrings": 11697,
    "Ġreader": 11932,
    "Ġgeneration": 2157,
    "Ġexcused": 23308,
    "Ġoblong": 14320,
    "Ġleagues": 9223,
    "gain": 8736,
    "Ġavenues": 25429,
    "Ġparis": 8178,
    "Ġvillanous": 24051,
    "Ġfoundling": 22972,
    "Ġadorn": 12789,
    "Ġindians": 14409,
    "Ġanxiously": 8289,
    "difficulty": 12388,
    "flaming": 23967,
    "Ġcheered": 16369,
    "Ġmarked": 4617,
    "Ġblanched": 26282,
    "Ġportion": 7492,
    "rubbed": 22183,
    "Ġdomestic": 6910,
    "confid": 14866,
    "Ġwednesday": 9024,
    "Ġdrove": 4984,
    "Ġbelow": 4062,
    "Ġlarge": 1062,
    "Ġteaches": 18806,
    "astron": 22166,
    "Ġty": 6657,
    "Ġstepping": 9353,
    "Ġdoth": 13907,
    "bad": 12434,
    "Ġprofile": 16487,
    "Ġling": 7377,
    "Ġirene": 8443,
    "Ġconvert": 11840,
    "Ġdeportment": 22607,
    "eness": 2292,
    "Ġinspired": 2521,
    "Ġlagged": 21555,
    "carries": 19526,
    "total": 17250,
    "Ġpomp": 12619,
    "Ġcarries": 7673,
    "ck": 436,
    "elopement": 23191,
    "Ġsizes": 1516,
    "erness": 6434,
    "presume": 25670,
    "Ġopt": 776,
    "anted": 5027,
    "Ġdaft": 19662,
    "Ġfragmentary": 25858,
    "Ġthoughtlessness": 16191,
    "daughter": 8353,
    "Ġleatherhead": 20012,
    "Ġmathematics": 12071,
    "popular": 26140,
    "Ġfools": 14481,
    "Ġflash": 8229,
    "etus": 21575,
    "Ġcompromised": 22569,
    "Ġluxuriant": 20393,
    "Ġmental": 21318,
    "ys": 3956,
    "principle": 10650,
    "iger": 8446,
    "Ġpyth": 21459,
    "peril": 18337,
    "ubbub": 23239,
    "avering": 24793,
    "Ġtwinkling": 12322,
    "stun": 18018,
    "murmured": 24455,
    "Ġtyphoon": 12387,
    "Ġwilt": 9643,
    "extreme": 11029,
    "instant": 8651,
    "Ġinscrut": 10033,
    "binary": 20783,
    "Ġdiv": 3732,
    "visible": 10533,
    "vocation": 25084,
    "Ġboot": 11836,
    "ulum": 21860,
    "inence": 15480,
    "itory": 12564,
    "Ġnearly": 3364,
    "Ġincurable": 22550,
    "Ġblinding": 14727,
    "pyramid": 21029,
    "Ġinspect": 5963,
    "ds": 4686,
    "Ġderick": 9363,
    "Ġsides": 4577,
    "ials": 11702,
    "Ġtimorous": 24225,
    "ĠâĢĻ": 3045,
    "Ġexcluded": 16382,
    "aset": 10832,
    "_âĢĶâĢĻâĢĿ": 25741,
    "Ġstick": 6025,
    "Ġinfluenced": 19631,
    "mis": 4519,
    "Ġbeauties": 10445,
    "Ġnewspaper": 12362,
    "Ġportrait": 10661,
    "Ġpenet": 6888,
    "necessity": 13366,
    "clock": 3930,
    "breeze": 20561,
    "Ġcruisings": 25864,
    "Ġscruple": 25048,
    "li": 1187,
    "iters": 21327,
    "Ġanalysis": 1891,
    "Ġwait": 4910,
    "Ġcheeks": 5957,
    "Ġsincere": 11136,
    "Ġaustral": 12170,
    "Ġalso": 1348,
    "impenetrable": 26196,
    "oology": 21005,
    "Ġmichael": 20678,
    "emotions": 15794,
    "Ġoutermost": 22316,
    "interrupt": 8615,
    "haps": 1665,
    "again": 3401,
    "measure": 10030,
    "Ġserpent": 6737,
    "base": 20776,
    "conscientious": 19625,
    "mist": 5686,
    "gered": 9275,
    "precedented": 15173,
    "Ġgorgeous": 20465,
    "dispositions": 25011,
    "Ġsworn": 14434,
    "Ġbu": 3682,
    "wandered": 20284,
    "Ġfarewell": 9519,
    "ouement": 21446,
    "oors": 17620,
    "Ġmessages": 24981,
    "imod": 15707,
    "Ġexpeditions": 24954,
    "barrels": 15041,
    "Ġwhat": 599,
    "Ġstayed": 7997,
    "Ġnets": 21521,
    "moran": 24152,
    "Ġconse": 21801,
    "Ġcomprehend": 6494,
    "Ġlamb": 8812,
    "Ġbuffalo": 11429,
    "_.": 2215,
    "warmest": 25027,
    "mo": 864,
    "ration": 2003,
    "Ġallowed": 4059,
    "Ġliterature": 17148,
    "Ġneighbours": 8302,
    "nostr": 22717,
    "terogene": 21822,
    "histor": 13490,
    "Ġstony": 21737,
    "talking": 10006,
    "Ġawhile": 13829,
    "inferiors": 25346,
    "unavoidable": 17389,
    "Ġtemperate": 16158,
    "acled": 16079,
    "Ġannoy": 17198,
    "oubtedly": 6943,
    "Ġremotest": 10051,
    "tackles": 25624,
    "Ġointment": 21324,
    "Ġmut": 3584,
    "Ġbash": 12583,
    "Ġvaliantly": 22790,
    "Ġdecision": 2678,
    "á": 162,
    "ination": 2914,
    "acc": 2537,
    "clair": 18932,
    "herent": 2532,
    "special": 14704,
    "icirc": 15653,
    "somehow": 12010,
    "vict": 11540,
    "ternatural": 12712,
    "timidity": 25753,
    "Ġprodig": 6027,
    "high": 6649,
    "Ġpovelson": 26552,
    "Ġpunctil": 20112,
    "una": 21866,
    "Ġburns": 16522,
    "Ġsnake": 12059,
    "writ": 16553,
    "immed": 9217,
    "spirits": 8054,
    "<": 32,
    "raising": 21629,
    "Ġbodies": 8031,
    "Ġparchment": 13651,
    "clings": 23149,
    "Ġlieutenant": 15260,
    "Ġpaying": 9937,
    "Ġprelimin": 8860,
    "Ġfeared": 5930,
    "exc": 5169,
    "Ġlookest": 22712,
    "sed": 4178,
    "ive": 426,
    "Ġeastern": 11628,
    "corrid": 24484,
    "generous": 16568,
    "Ġconnect": 795,
    "Ġacknowledges": 24688,
    "Ġexcitement": 9379,
    "Ġnote": 4264,
    "Ġtamely": 24977,
    "Ġfancies": 10424,
    "melancholy": 12351,
    "Ġbehav": 3541,
    "Ġcourt": 4171,
    "slight": 10727,
    "Ġmince": 22828,
    "Ġgrotesque": 26329,
    "aire": 10680,
    "âĢĿ)": 21811,
    "Ġinstance": 2549,
    "Ġthro": 5817,
    "Ġpouring": 12621,
    "Ġkeeping": 7283,
    "Ġthom": 21513,
    "tt": 13789,
    "Ġphysiognomical": 25611,
    "inian": 21181,
    "ortment": 22259,
    "Ġ112": 24437,
    "Ġhappened": 3713,
    "Ġob": 862,
    "hall": 8084,
    "recklessly": 25269,
    "eastern": 17533,
    "Ġzones": 22817,
    "persu": 8027,
    "Ġspinal": 12300,
    "Ġinvests": 14867,
    "esting": 7412,
    "Ġvivid": 8057,
    "Ġafraid": 3531,
    "Ġstuffed": 13408,
    "usion": 3303,
    "Ġremarking": 13124,
    "iveness": 2468,
    "Ġsloping": 11937,
    "Ġplays": 12036,
    "Ġthenceforth": 25182,
    "Ġamuse": 5939,
    "Ġtallow": 14777,
    "Ġbales": 21387,
    "Ġmanif": 8870,
    "ouching": 13176,
    "Ġleathern": 15050,
    "Ġbilliard": 16689,
    "Ġnumberless": 16413,
    "Ġpattern": 1345,
    "tied": 21069,
    "Ġcornelius": 13572,
    "Ġknowing": 4456,
    "Ġhol": 1181,
    "Ġskill": 6872,
    "Ġreducing": 1957,
    "lessly": 4554,
    "encouragement": 17422,
    "Ġtypically": 1534,
    "µ": 118,
    "stumps": 21656,
    "labours": 16617,
    "Ġsermon": 12374,
    "Ġache": 18663,
    "Ġbuff": 9172,
    "Ġretain": 7862,
    "tain": 559,
    "ution": 4350,
    "ells": 5303,
    "repressed": 21242,
    "Ġeffect": 973,
    "Ġmacey": 12560,
    "ustry": 18356,
    "rimshander": 20656,
    "Ġrespectfully": 18994,
    "Ġsphy": 18311,
    "Ġinsufferable": 13930,
    "Ġhue": 8428,
    "Ġvanity": 7045,
    "bly": 6110,
    "Ġoun": 13862,
    "Ġruminated": 24599,
    "Ġgenerous": 6271,
    "superst": 11325,
    "rs": 7807,
    "maul": 11888,
    "ying": 1368,
    "Ġcruis": 14623,
    "Ġhatter": 4113,
    "Ġclanging": 18429,
    "gam": 10095,
    "Ġproof": 6153,
    "excellent": 8043,
    "Ġlatitude": 8328,
    "Ġdeck": 2140,
    "happening": 16564,
    "onings": 21251,
    "Ġoperations": 2302,
    "Ġpermitted": 9277,
    "Ġcanoes": 12800,
    "projecting": 26073,
    "Ġgamesome": 17289,
    "Ġheaven": 3366,
    "occ": 4483,
    "reporting": 24494,
    "Ġrelieve": 8223,
    "Ġmo": 629,
    "Ġaught": 8772,
    "Ġassemblage": 26351,
    "food": 12461,
    "ah": 1832,
    "iod": 3838,
    "Ġherbage": 25996,
    "fect": 2303,
    "Ġsits": 10768,
    "tick": 17678,
    "grateful": 10428,
    "deserving": 17241,
    "Ġnantucketer": 6914,
    "hurt": 19877,
    "bewil": 22495,
    "Ġaud": 6661,
    "Ġgravesend": 15215,
    "_)": 9101,
    "sides": 12505,
    "Ġmainten": 16110,
    "lections": 4750,
    "Ġexcellent": 4239,
    "Ġcabs": 23639,
    "okes": 9276,
    "quimaux": 21856,
    "Ġconquered": 14025,
    "mistak": 16878,
    "Ġforbear": 17121,
    "Ġlodges": 19498,
    "cannon": 22964,
    "Ġunimportant": 22027,
    "hounds": 20906,
    "hic": 3250,
    "Ġevangel": 11280,
    "Ġinsens": 8276,
    "asily": 13945,
    "Ġcommendation": 13609,
    "Ġinjunctions": 24269,
    "bermaid": 20789,
    "Ġrecovering": 11858,
    "securer": 25602,
    "Ġbank": 4876,
    "keepers": 16659,
    "tranquillity": 20545,
    "fate": 17539,
    "Ġbuffaloes": 25217,
    "receiving": 12540,
    "vib": 21114,
    "erc": 5904,
    "Ġvelocity": 10620,
    "Ġpresume": 8037,
    "analy": 17838,
    "Ġvess": 3298,
    "Ġexchanging": 18130,
    "Ġthrone": 12211,
    "andes": 18151,
    "angu": 572,
    "Ġac": 846,
    "crowning": 25748,
    "quohog": 21855,
    "thee": 9689,
    "Ġniagara": 26458,
    "Ġmayhap": 18709,
    "resc": 21237,
    "arboard": 7266,
    "Ġdeceit": 13480,
    "ums": 10272,
    "athies": 22699,
    "Ġskirting": 22792,
    "jet": 13741,
    "]": 65,
    "nades": 20996,
    "Ġsubjected": 23570,
    "Ġinjured": 9039,
    "Ġrender": 8304,
    "Ġsteps": 2864,
    "Ġcalhoun": 23042,
    "Ġdeliriously": 23225,
    "Ġeleventh": 23365,
    "Ġreced": 15689,
    "Ġperceived": 4712,
    "Ġthunder": 4821,
    "Ġremote": 8919,
    "Ġthousands": 6748,
    "Ġtendinous": 16931,
    "Ġremarks": 7474,
    "Ġvineyards": 25106,
    "agers": 5633,
    "Ġult": 9074,
    "Ġlevelled": 11284,
    "saving": 21058,
    "Ġcottagers": 6761,
    "========": 2315,
    "par": 1907,
    "Ġsuccor": 25662,
    "doub": 6223,
    "numer": 15398,
    "Ġglad": 3327,
    "Ġpallid": 12297,
    "Ġboarded": 13232,
    "Ġbigger": 19760,
    "Ġmarling": 23033,
    "inn": 5363,
    "mmet": 10988,
    "feren": 768,
    "dangerous": 20239,
    "Ġepic": 15029,
    "Ġcorrespond": 6209,
    "Ġcensured": 25094,
    "Ġexpansion": 22621,
    "Ġgallied": 19555,
    "Ġsure": 1863,
    "Ġrmsprop": 3356,
    "Ġloo": 22107,
    "ectual": 21912,
    "Ġol": 17814,
    "repairing": 24495,
    "Ġpitchpoling": 14910,
    "Ġthrobbing": 16898,
    "Ġgriev": 16634,
    "Ġacquiring": 2768,
    "Ġcharming": 6628,
    "Ġemployments": 12100,
    "Ġamounted": 18512,
    "Ġcomstock": 21848,
    "Ġwash": 9702,
    "sor": 7352,
    "painful": 13501,
    "became": 10514,
    "belt": 24032,
    "Ġpoor": 1708,
    "Ġunansw": 22055,
    "sincere": 16907,
    "...": 24549,
    "Ġnone": 3223,
    "Ġinferences": 17934,
    "bre": 3976,
    "Ġah": 5075,
    "Ġmaled": 21313,
    "Ġgrego": 18961,
    "Ġire": 12666,
    "Ġcannib": 6035,
    "Ġrichness": 19310,
    "Ġsentences": 2684,
    "Ġinnermost": 12158,
    "Ġmartyr": 26360,
    "prob": 7069,
    "Ġheire": 18036,
    "sutherland": 21061,
    "bar": 7541,
    "Ġinferred": 14500,
    "alongside": 19788,
    "threaten": 25461,
    "inity": 5693,
    "Ġparadigms": 3059,
    "thirds": 25046,
    "destro": 13308,
    "poison": 14391,
    "Ġknee": 7093,
    "Ġmaterials": 11288,
    "Ġindividuals": 24546,
    "advise": 24217,
    "Ġcredulous": 17144,
    "cousins": 20116,
    "Ġ77": 24263,
    "tese": 21082,
    "intended": 11066,
    "Ġxxv": 19716,
    "Ġtolerably": 8067,
    "Ġsouls": 6308,
    "garnished": 26388,
    "Ġnails": 12645,
    "³": 116,
    "dat": 1676,
    "Ġtashtego": 4485,
    "Ġanecd": 20153,
    "Ġdense": 8122,
    "Ġiceland": 15145,
    "Ġvapors": 19907,
    "Ġdecreasing": 2445,
    "Ġlaw": 3654,
    "supportable": 12368,
    "member": 20974,
    "altering": 12637,
    "Ġseems": 2484,
    "Ġappearances": 10451,
    "Ġdec": 642,
    "Ġnervousness": 23554,
    "Ġengaging": 9335,
    "Ġsouthwards": 19632,
    "ĠĠĠĠĠĠĠĠĠĠĠĠĠĠĠĠĠĠĠĠĠĠĠĠĠĠĠĠĠĠĠĠĠ": 12041,
    "Ġearnest": 3927,
    "ilies": 18056,
    "representing": 25271,
    "gall": 6359,
    "Ġreck": 6537,
    "lights": 13204,
    "Ġdependencies": 2317,
    "Ġwaist": 6899,
    "Ġcautiously": 16977,
    "Ġbarbed": 14834,
    "aways": 15309,
    "Ġordained": 19443,
    "oky": 8197,
    "Ġuses": 1210,
    "Ġapproaching": 6283,
    "send": 15422,
    "distance": 12150,
    "Ġdeclared": 5595,
    "Ġexpense": 7651,
    "soon": 4028,
    "Ġmonsieur": 12419,
    "Ġbells": 19600,
    "Ġcorpus": 13029,
    "iability": 20919,
    "Ġtrials": 16789,
    "Ġeurope": 8061,
    "fl": 3600,
    "Ġlion": 9675,
    "halfway": 24311,
    "Ġespe": 21154,
    "Ġsgd": 3132,
    "Ġcomputing": 2222,
    "rebellum": 26165,
    "Ġruss": 18717,
    "Ġsailed": 4888,
    "Ġalley": 15733,
    "H": 44,
    "Ġdiscernible": 15068,
    "Ġbias": 1191,
    "Ġexcept": 3314,
    "despair": 8343,
    "Ġfashions": 17885,
    "usable": 22276,
    "Ġcream": 22722,
    "Ġcontextual": 3743,
    "harm": 13734,
    "Ġrags": 18645,
    "sought": 15426,
    "Ġebb": 21619,
    "Ġwakeful": 24266,
    "shipmates": 11926,
    "trad": 21075,
    "ape": 1903,
    "rove": 21530,
    "Ġbrave": 6329,
    "onely": 6516,
    "owards": 4592,
    "Ġhaw": 10251,
    "enit": 17779,
    "scru": 16243,
    "ĠĊ": 12520,
    "difficult": 10057,
    "igger": 21698,
    "Ġaverted": 16254,
    "glory": 23850,
    "Ġlif": 10195,
    "att": 1458,
    "Ġmour": 6973,
    "Ġpity": 4941,
    "Ġprocedures": 9411,
    "Ġnorton": 12646,
    "Ġstooped": 14462,
    "Ġviewed": 10463,
    "Ġhilarious": 20297,
    "Ġtable": 2503,
    "arbuck": 2024,
    "linen": 25257,
    "brilliancy": 26077,
    "humor": 19450,
    "Ġsires": 21225,
    "Ġexpands": 25237,
    "Ġsilly": 7685,
    "towns": 24854,
    "cri": 17505,
    "Ġunhappily": 18262,
    "cro": 13695,
    "utility": 21584,
    "im": 327,
    "Ġpeterson": 9482,
    "Ġbagging": 24539,
    "Ġlace": 13949,
    "rugged": 6849,
    "Ġsumatra": 15285,
    "Ġchis": 11748,
    "Ġbacks": 8528,
    "Ġpallidness": 25604,
    "Ġchast": 18380,
    "Ġbride": 6291,
    "Ġjaw": 3320,
    "Ġcombined": 8551,
    "ides": 2163,
    "Ġpinioned": 21480,
    "Ġshrieks": 12197,
    "Ġdumbly": 24985,
    "torn": 17682,
    "Ġlikelihood": 16500,
    "Ġgamming": 25542,
    "spending": 18690,
    "Ġeffemin": 18544,
    "icuous": 10835,
    "Ġwhittling": 20698,
    "Ġrely": 8820,
    "Ġgest": 8133,
    "Ġabaft": 22271,
    "icken": 6711,
    "Ġanat": 8123,
    "iah": 14416,
    "Ġlantern": 7116,
    "Ġgib": 13964,
    "Ġ133": 24783,
    "Ġfootfall": 14661,
    "Ġcuba": 25095,
    "Ġsu": 431,
    "Ġrespectability": 14484,
    "Ġgossip": 18470,
    "Ġsimply": 7218,
    "Ġmahogany": 20576,
    "dripping": 16905,
    "boats": 6204,
    "tie": 21067,
    "ickory": 22666,
    "Ġhospitable": 17059,
    "Ġdisgra": 18549,
    "gressive": 2756,
    "scand": 18856,
    "atived": 21261,
    "oa": 9612,
    "Ġgust": 21594,
    "Ġphase": 14470,
    "Ġskirt": 18727,
    "Ġdocumentation": 20553,
    "sigma": 3002,
    "Ġnarrative": 6215,
    "itals": 17820,
    "bery": 9787,
    "befall": 22492,
    "Ġprying": 15606,
    "Ġgarments": 15192,
    "89": 20758,
    "ancing": 1757,
    "Ġmisanthrop": 22755,
    "Ġcentaurs": 23830,
    "Ġfires": 16471,
    "ful": 666,
    "Ġcompressed": 21847,
    "Ġlayers": 817,
    "Ġfolio": 11917,
    "Ġtolerable": 6949,
    "Ġsuavely": 26523,
    "Ġreusable": 13556,
    "Ġlvi": 21550,
    "V": 58,
    "Ġrotterdam": 25475,
    "Ġupset": 22149,
    "Ġquiver": 16001,
    "Ġapart": 4744,
    "Ġjur": 12831,
    "u": 89,
    "Ġgases": 21599,
    "overcoat": 19051,
    "Ġfashioned": 13319,
    "Ġsuckling": 25997,
    "Ġwraps": 19775,
    "Ġroyals": 19531,
    "Ġdrink": 4785,
    "gle": 20868,
    "Ġfavourable": 7958,
    "Ġimposs": 16616,
    "Ġfragments": 19042,
    "Ġpraises": 16730,
    "Ġunctuousness": 17234,
    "Ġezekiel": 26192,
    "Ġbower": 15564,
    "related": 24010,
    "toed": 18580,
    "Ġcister": 13881,
    "act": 784,
    "por": 2152,
    "Ġscratches": 22288,
    "incredible": 16498,
    "Ġnumbers": 2890,
    "jer": 12478,
    "Ġswish": 23050,
    "ustration": 2261,
    "Ġchief": 3384,
    "Ġexaggerate": 25649,
    "emotion": 21927,
    "cream": 15330,
    "Ġspire": 18306,
    "Ġdampening": 2897,
    "Ġmelt": 21316,
    "eg": 17529,
    "Ġvindictive": 20468,
    "hands": 5966,
    "oars": 9614,
    "orily": 15570,
    "Ġpermanent": 13630,
    "Ġeasterly": 25962,
    "Ġcrate": 19122,
    "Ġdespised": 14666,
    "suspicious": 25390,
    "Ġply": 21451,
    "Ġapartment": 6633,
    "Ġflowed": 10371,
    "Ġtragedy": 10667,
    "islanders": 25442,
    "hest": 3371,
    "Ġblame": 6446,
    "Ġphant": 7055,
    "pure": 17626,
    "Ġoccurrences": 11050,
    "ection": 4948,
    "progra": 9393,
    "slackened": 26094,
    "Ġbronze": 22863,
    "posted": 24635,
    "oot": 13764,
    "bo": 1689,
    "alescing": 23864,
    "Ġsupplies": 20325,
    "returning": 12203,
    "Ġstaves": 21735,
    "Ġsavesoul": 26227,
    "Ġappe": 1538,
    "Ġinsulated": 23679,
    "Ġreceives": 20353,
    "Ġproving": 15752,
    "Ġsqualidness": 25842,
    "Ġreadiness": 13047,
    "Ġreaped": 18029,
    "Ġlothario": 26184,
    "Ġstove": 6733,
    "sledge": 21056,
    "chase": 11644,
    "Ġperturbation": 20439,
    "Ġattaining": 15801,
    "umbers": 10919,
    "jub": 20928,
    "Ġribbons": 24329,
    "Ġelegance": 11332,
    "Ġplanned": 14751,
    "Ġtidy": 17093,
    "Ġrascally": 26506,
    "Ġhob": 12626,
    "Ġdrooping": 9419,
    "lording": 24047,
    "ĠĠĠĠ": 460,
    "toes": 22562,
    "hee": 10760,
    "mbl": 5946,
    "Ġgnarled": 25165,
    "anite": 17837,
    "devouring": 24950,
    "Ġrounding": 16273,
    "airing": 16176,
    "Ġlandlessness": 23376,
    "Ġdefer": 18823,
    "Ġobscurely": 20187,
    "Ġmorning": 1747,
    "beryls": 25309,
    "confidence": 16808,
    "Ġrome": 12153,
    "danish": 20832,
    "Ġhelmet": 19686,
    "Ġpairs": 4183,
    "sy": 2949,
    "Ġmutual": 8296,
    "dle": 3249,
    "Ġcontextually": 11957,
    "Ġdistinct": 4607,
    "echo": 15347,
    "Ġbiological": 1931,
    "queens": 22904,
    "unction": 10234,
    "rasing": 21044,
    "Ġdrunk": 9423,
    "Ġunfortunately": 10909,
    "inese": 12881,
    "Ġrefresh": 10345,
    "rupt": 3211,
    "Ġpossessions": 23822,
    "Ġdolph": 12378,
    "Ġremoving": 12114,
    "strangely": 17276,
    "physiogn": 26271,
    "anatory": 21361,
    "Ġde": 365,
    "lengthwise": 19948,
    "Ġiroquois": 26472,
    "Ġexpose": 10327,
    "Ġsensitivity": 3072,
    "ĠĠĠĠĠĠĠĠĠĠĠĠĠĠĠĠĠĠĠĠĠĠĠĠĠĠĠĠĠĠĠĠĠĠĠĠĠĠĠĠĠĠĠ": 12152,
    "iqu": 7802,
    "Ġmus": 3399,
    "strate": 12671,
    "Ġmadam": 5663,
    "seventh": 12711,
    "isk": 9167,
    "Ġperformer": 18754,
    "Ġnailing": 21524,
    "Ġstable": 2701,
    "Ġpalp": 11250,
    "warrant": 21136,
    "organic": 25946,
    "aneous": 7240,
    "Ġtarred": 23608,
    "Ġdisapprobation": 16056,
    "umnal": 18300,
    "Ġthroat": 7770,
    "Ġsums": 2904,
    "Ġpenetrate": 12267,
    "continu": 5501,
    "Ġmentioning": 9898,
    "Ġimplicate": 24876,
    "merged": 11193,
    "Ġstim": 18063,
    "room": 2180,
    "Ġfetching": 16896,
    "ilations": 21719,
    "quod": 2166,
    "Ġbordered": 24563,
    "Ġvest": 8162,
    "Ġunwound": 25169,
    "Ġscal": 1624,
    "Ġlavater": 20493,
    "Ġcontradictory": 20395,
    "Ġpipes": 9850,
    "sails": 7497,
    "ricted": 15419,
    "Ġwalker": 23305,
    "Ġrobust": 1304,
    "adam": 15727,
    "Ġfluctuations": 5516,
    "Ġquoted": 22412,
    "nose": 17611,
    "Ġcrunched": 19123,
    "Ġsnug": 8279,
    "helped": 18923,
    "Ġsoc": 3527,
    "Ġcircumn": 11982,
    "Ġrelinqu": 12980,
    "aster": 1865,
    "Ġfleece": 10614,
    "Ġhatchway": 13524,
    "Ġunfit": 14786,
    "abs": 11666,
    "Ġwhatsoever": 18460,
    "Ġreckon": 19869,
    "arted": 2204,
    "embers": 21926,
    "Ġwonder": 2119,
    "gloom": 17139,
    "disposed": 25010,
    "Ġlight": 1700,
    "breadth": 20275,
    "Ġsuspected": 9062,
    "Ġmin": 1025,
    "conqu": 14244,
    "Ġhairy": 23863,
    "ggy": 13112,
    "view": 5895,
    "Ġincom": 9768,
    "justine": 7682,
    "Ġvig": 5459,
    "chronicle": 26480,
    "Ġwaterproof": 19088,
    "Ġsevere": 6031,
    "icest": 21561,
    "leton": 5148,
    "unusually": 15777,
    "ve": 322,
    "Ġpirates": 9073,
    "Ġturtles": 19220,
    "Ġdegra": 2592,
    "iro": 20913,
    "Ġheel": 9683,
    "elzebub": 26464,
    "supplemental": 25874,
    "Ġbusiness": 2236,
    "silenced": 24423,
    "Ġcomplicated": 14734,
    "Ġmasked": 3695,
    "Ġsystematically": 4001,
    "Ġenvelope": 7319,
    "Ġplaguy": 22602,
    "Ġnotwithstanding": 9713,
    "Ġsafely": 9025,
    "cater": 20815,
    "Ġhandy": 12934,
    "Ġmeddle": 19490,
    "Ġadvert": 10571,
    "03": 20747,
    "fear": 8513,
    "fulfilment": 26025,
    "ifted": 4493,
    "Ġsurvivor": 17362,
    "Ġdiligently": 11405,
    "ones": 2745,
    "Ġconnecting": 18631,
    "insensibility": 23066,
    "Ġembal": 11904,
    "Ġaccuracy": 1055,
    "Ġscenery": 11456,
    "ezes": 9990,
    "Ġmounting": 19975,
    "Ġcocksure": 26258,
    "Ġdisown": 22521,
    "Ġmend": 8405,
    "Ġpowder": 11275,
    "reward": 15508,
    "bench": 16803,
    "Ġflirting": 16249,
    "Ġsheets": 9722,
    "Ġfurlong": 18740,
    "Ġgestures": 13535,
    "Ġmanaged": 7905,
    "Ġsupport": 6728,
    "embed": 18187,
    "Ġraised": 4659,
    "Ġrecollection": 6620,
    "Ġgratification": 24094,
    "Ġwriter": 11943,
    "Ġcourage": 4632,
    "Ġkl": 2739,
    "Ġemploy": 3615,
    "Ġstile": 21729,
    "securing": 19812,
    "Ġunspeakably": 25172,
    "Ġmasses": 10503,
    "paws": 21028,
    "Ġcommander": 8624,
    "83": 13679,
    "Ġtist": 21161,
    "ten": 1554,
    "pense": 10368,
    "Ġchatting": 24747,
    "Ġdelightful": 6320,
    "getting": 12964,
    "Ġsheaves": 22160,
    "Ġpublic": 4333,
    "Ġtrough": 15961,
    "Ġrebell": 21666,
    "clean": 14759,
    "Ġflow": 1238,
    "perplex": 18338,
    "belled": 24033,
    "cr": 4076,
    "Ġbor": 5804,
    "Ġdownward": 10331,
    "rows": 6442,
    "tical": 10128,
    "between": 5071,
    "vers": 1331,
    "hyena": 24252,
    "Ġyears": 1890,
    "embedding": 20703,
    "Ġdoleful": 18377,
    "awed": 10391,
    "Ġaddison": 14232,
    "Ġbreath": 4789,
    "Ġcoast": 4654,
    "rer": 3622,
    "ers": 405,
    "Ġhearty": 9844,
    "support": 9469,
    "Ġclearly": 6896,
    "confirmation": 26089,
    "elling": 5830,
    "Ġsilently": 6894,
    "avor": 14259,
    "Ġinjurious": 24270,
    "Ġturk": 6603,
    "niece": 20994,
    "intentions": 22936,
    "clut": 23148,
    "Ġloathsome": 13527,
    "Ġgeometric": 3218,
    "Ġlighting": 13081,
    "Ġquantity": 6948,
    "Ġscuffle": 20607,
    "Ġgermans": 25784,
    "uv": 6229,
    "alid": 13934,
    "ena": 11567,
    "Ġdisregarded": 22527,
    "mixed": 15393,
    "Ġproperty": 6450,
    "Ġdella": 21437,
    "Ġdismissed": 12889,
    "Ġbaby": 6636,
    "achines": 1722,
    "ogra": 4571,
    "Ġalleghan": 25795,
    "precisely": 6917,
    "avo": 8517,
    "Ġallusions": 10906,
    "](": 11466,
    "furthermore": 20002,
    "plish": 18208,
    "Ġparliament": 18302,
    "Ġdoing": 3660,
    "Ġprone": 18967,
    "yder": 10138,
    "term": 3759,
    "carefully": 13367,
    "Ġstrangeness": 16707,
    "igen": 4828,
    "approaching": 15011,
    "notches": 22749,
    "Ġaunt": 3179,
    "Ġgladly": 14681,
    "Ġtongue": 6347,
    "listen": 13513,
    "roylott": 20025,
    "reputable": 15516,
    "inkled": 5477,
    "Ġbottled": 23794,
    "lacing": 17590,
    "Ġarab": 7823,
    "Ġopine": 19227,
    "Ġsombre": 18860,
    "ureau": 10226,
    "Ġvalue": 2085,
    "utional": 17983,
    "avers": 17480,
    "ĠĠĠĠĠĠĠĠĠĠĠĠĠĠĠĠĠĠĠĠĠĠĠĠĠ": 24442,
    "Ġrepresent": 1212,
    "Ġwon": 1659,
    "Ġcomprises": 22570,
    "pictures": 15089,
    "Ġnaked": 8126,
    "different": 6501,
    "approbation": 11458,
    "Ġnasty": 17442,
    "asol": 21537,
    "Ġimpartial": 15218,
    "carpet": 25202,
    "revival": 26162,
    "ivered": 7005,
    "ition": 649,
    "Ġrattler": 24995,
    "Ġlory": 12649,
    "ker": 5792,
    "xi": 17710,
    "olic": 14041,
    "Ġbrow": 3986,
    "Ġsect": 17751,
    "Ġroundabout": 23058,
    "Ġstaving": 21734,
    "Ġcavity": 20486,
    "Ġconcern": 2658,
    "Ġamph": 18510,
    "Ġrelease": 19289,
    "Ġ21": 11198,
    "clouded": 20330,
    "Ġlands": 6594,
    "Ġtraits": 23073,
    "Ġabutted": 22272,
    "ians": 2362,
    "Ġdisgu": 8205,
    "atement": 17773,
    "ctors": 21587,
    "Ġendeavor": 16544,
    "Ġbrilliant": 11414,
    "Ġdreadful": 4920,
    "Ġvoices": 7875,
    "hither": 11492,
    "chanced": 18800,
    "dissatisfied": 26612,
    "blocks": 25517,
    "Ġparamount": 15876,
    "ordinate": 12872,
    "Ġprovinc": 16742,
    "Ġrushes": 20506,
    "Ġcandour": 14672,
    "Ġhanging": 5447,
    "Ġfid": 10803,
    "Ġlimp": 19181,
    "laid": 10109,
    "Ġsluggishly": 25891,
    "Ġrelentless": 26277,
    "society": 9971,
    "Ġverdant": 15002,
    "Ġdisco": 3430,
    "conv": 7213,
    "Ġhorse": 4723,
    "Ġindef": 9189,
    "Ġimplement": 3056,
    "Ġhag": 12622,
    "stript": 21654,
    "Ġpoint": 2055,
    "Ġarray": 12808,
    "Ġlandless": 23375,
    "Ġroman": 8322,
    "billows": 20235,
    "inaw": 21182,
    "bers": 2573,
    "Ġwarming": 23556,
    "Ġtransport": 11278,
    "hate": 20891,
    "Ġaccompany": 9486,
    "Ġspir": 2431,
    "sometimes": 5971,
    "Ġgallons": 14817,
    "Ġrace": 5847,
    "Ġinformation": 1047,
    "_.âĢĻâĢĿ": 17479,
    "pping": 1424,
    "Ġcontemptible": 16953,
    "Ġorb": 22088,
    "Ġpeep": 6870,
    "happiest": 19331,
    "Ġviolent": 5117,
    "sheltered": 25585,
    "Ġalbino": 20501,
    "duty": 20238,
    "Ġsalut": 10509,
    "Ġsolemnly": 8023,
    "Ġkilling": 13331,
    "Ġdiscover": 4716,
    "Ġlou": 6822,
    "ll": 1141,
    "Ġapproved": 16033,
    "Ġcollectively": 19966,
    "took": 6164,
    "Ġreconciliation": 25292,
    "Ġgateway": 24802,
    "anum": 17835,
    "Ġworshipped": 25691,
    "Ġdiffers": 23780,
    "Ġfol": 1289,
    "Ġview": 2763,
    "Ġobeisance": 19757,
    "Ġaberdeen": 26541,
    "Ġwhittingham": 26197,
    "Ġangles": 23587,
    "Ġdictate": 20150,
    "Ġtantalizing": 20412,
    "Ġminded": 23226,
    "Ġcivility": 4786,
    "Ġdevotees": 25376,
    "handkerchief": 14617,
    "Ġsandwiched": 26610,
    "Ġgasping": 17038,
    "Ġnoble": 3442,
    "oric": 21394,
    "ĠĠĠĠĠĠĠĠĠĠĠĠĠĠĠĠĠĠĠĠĠĠĠĠĠĠĠĠĠĠĠĠĠĠĠĠĠĠ": 16526,
    "Ġvital": 9242,
    "Ġjig": 15949,
    "acit": 16078,
    "fierce": 25255,
    "Ġexhibiting": 19837,
    "Ġhoard": 23348,
    "Ġrue": 11865,
    "Ġsabbath": 17254,
    "Ġlucifers": 16588,
    "Ġperception": 9749,
    "unted": 6998,
    "Ġcontracting": 16009,
    "Ġcathedral": 17412,
    "colonel": 8284,
    "wonderful": 16960,
    "Ġberg": 24536,
    "consuming": 25674,
    "Ġfiles": 21411,
    "weight": 2941,
    "Ġ61": 24364,
    "Ġcapture": 3387,
    "Ġunrival": 22044,
    "accountable": 7109,
    "max": 1682,
    "ayed": 12709,
    "ss": 397,
    "Ġinvestigations": 17246,
    "Ġimpressive": 14999,
    "Ġopium": 8995,
    "Ġnarwhale": 12291,
    "Ġmasks": 23322,
    "Ġting": 8397,
    "eldom": 4413,
    "Ġmeets": 7396,
    "Ġtestified": 16320,
    "possession": 12219,
    "iancy": 13010,
    "avish": 22542,
    "chairs": 21690,
    "Ġpropos": 7062,
    "tuning": 1581,
    "representation": 20195,
    "Ġstruggling": 12072,
    "Ġexperienced": 6580,
    "Ġblend": 14398,
    "Ġtap": 12523,
    "Ġ1671": 25005,
    "creatures": 7517,
    "Ġuneasily": 24230,
    "Ġgoest": 22420,
    "Ġcarr": 23088,
    "Ġbru": 13894,
    "Ġmultitude": 9324,
    "Ġqueen": 3213,
    "Ġcoll": 8220,
    "alike": 17942,
    "mouth": 9130,
    "Ġsubsiding": 23432,
    "Ġcaught": 3731,
    "Ġcolouring": 16751,
    "attentive": 17189,
    "ountain": 2919,
    "tem": 6369,
    "Ġmildness": 9943,
    "Ġcrushing": 20175,
    "rive": 9706,
    ":--": 5784,
    "Ġdir": 21419,
    "Ġfrancisco": 26064,
    "Ġdams": 16456,
    "chor": 6146,
    "Ġfortun": 4982,
    "Ġfasting": 16357,
    "worm": 15452,
    "Ġdemanded": 8326,
    "Ġrifle": 18212,
    "Ġsab": 10762,
    "izing": 1066,
    "cask": 12444,
    "Ġbonds": 17869,
    "puted": 8845,
    "Ġarticles": 7108,
    "Ġverily": 16603,
    "Ġloveliest": 20260,
    "plan": 15816,
    "Ġpenalty": 1840,
    "Ġdeclines": 23960,
    "Ġcelerity": 17435,
    "Ġcakes": 13883,
    "prepar": 22450,
    "Ġadvantage": 4317,
    "itic": 11577,
    "Ġ1778": 25730,
    "dish": 12450,
    "Ġresp": 2498,
    "Ġembrace": 16990,
    "jure": 20923,
    "Ġarrive": 6907,
    "Ġpumps": 8426,
    "Ġunmannerly": 26517,
    "Ġcondemn": 13443,
    "Ġclosed": 4603,
    "Ġpsal": 15613,
    "Ġlunacy": 20026,
    "Ġunicorn": 22054,
    "pulous": 15415,
    "Ġperadventure": 22396,
    "leep": 4633,
    "Ġkiss": 8182,
    "Ġsparsity": 4208,
    "duodecimo": 16000,
    "Ġcurrent": 13003,
    "Ġsteamer": 17188,
    "Ġdi": 6525,
    "Ġhappier": 10359,
    "asse": 15642,
    "rimin": 2426,
    "guarded": 13293,
    "urements": 18123,
    "Ġobe": 5800,
    "Ġbounty": 26437,
    "Ġcaptivating": 26050,
    "pleasant": 5874,
    "Ġslept": 8258,
    "Ġreach": 4047,
    "Ġunrestingly": 20359,
    "Ġstriving": 8996,
    "Ġperemptorily": 17366,
    "er": 269,
    "oy": 1029,
    "Ġhopeless": 7463,
    "Ġdrive": 5055,
    "Ġhindrance": 25220,
    "tenham": 16318,
    "04": 10679,
    "Ġworshippers": 25693,
    "Ġdel": 1608,
    "Ġhalf": 1664,
    "nuee": 17429,
    "M": 49,
    "Ġtrifled": 24674,
    "Ġobtru": 18675,
    "Ġcovers": 18592,
    "range": 3495,
    "some": 2238,
    "recollection": 25348,
    "riminately": 16482,
    "Ġrevealing": 3922,
    "Ġsimpl": 1578,
    "Ġwearer": 21919,
    "rian": 10241,
    "Ġsleet": 8975,
    "Ġexciting": 23307,
    "tri": 11529,
    "Ġlined": 15647,
    "cuniary": 26379,
    "Ġugly": 8715,
    "Ġsurvived": 14933,
    "fold": 7546,
    "Ġvag": 9707,
    "Ġpreliminary": 10056,
    "empt": 2622,
    "Ġreceived": 2953,
    "frau": 15088,
    "Ġjung": 12833,
    "Ġpr": 1596,
    "convenient": 12235,
    "Ġviewing": 19263,
    "?âĢĶ": 3470,
    "Ġgrowing": 6750,
    "Ġadversity": 24303,
    "Ġwearied": 15790,
    "chastic": 2337,
    "enance": 3373,
    "ical": 755,
    "solitary": 14505,
    "Ġsuite": 18277,
    "Ġcirculating": 23369,
    "Ġshipmates": 6720,
    "penet": 11070,
    "Ġjoky": 18406,
    "Ġbuoy": 8003,
    "ĠĠĠĠĠĠĠĠĠĠ": 18579,
    "rod": 10831,
    "ire": 492,
    "erman": 5108,
    "Ġconsist": 1932,
    "kill": 13743,
    "neglect": 25668,
    "Ġcrash": 12000,
    "hair": 9122,
    "Ġjustification": 22968,
    "mill": 13753,
    "amusement": 15281,
    "Ġamerican": 5061,
    "wor": 3418,
    "Ġtomorrow": 21510,
    "Ġreusability": 13557,
    "heartedness": 24827,
    "Ġvind": 10249,
    "Ġimpunity": 14218,
    "Ġskil": 14351,
    "Ġstaggered": 9538,
    "Ġken": 22188,
    "ips": 2596,
    "Ġpolar": 9410,
    "morn": 20975,
    "tern": 4225,
    "Ġperf": 12847,
    "future": 13716,
    "granting": 23412,
    "dening": 22774,
    "Ġenchanted": 9080,
    "Ġbrix": 12580,
    "Ġresort": 18564,
    "vint": 21113,
    "Ġgrey": 4511,
    "Ġproud": 5654,
    ".}": 20744,
    "shaven": 18497,
    "commer": 22806,
    "Ġpractices": 19060,
    "Ġlandscape": 12415,
    "Ġtreatise": 19343,
    "Ġconjured": 25099,
    "Ġforeseen": 16442,
    "¤": 102,
    "Ġaside": 5234,
    "Ġdexter": 9700,
    "step": 2457,
    "berwell": 22715,
    "confused": 19643,
    "inconsiderable": 21190,
    "Ġfossil": 12385,
    "itled": 7577,
    "Ġinno": 1395,
    "Ġworkflow": 2233,
    "reproof": 25432,
    "Ġtrag": 13036,
    "indul": 22367,
    "Ġcorpulence": 24509,
    ",âĢĶâĢĺ": 23801,
    "Ġcath": 17826,
    "Ġtunes": 24619,
    "plied": 10255,
    "ppery": 10892,
    "rannical": 26401,
    "forbidding": 25836,
    "mannered": 22846,
    "ifications": 9727,
    "Ġstones": 9221,
    "Ġblan": 18816,
    "Ġgrassy": 24379,
    "Ġfrank": 4419,
    "Ġwounded": 8657,
    "Ġhear": 1964,
    "Ġconceit": 7295,
    "Ġscatter": 18398,
    "Ġevents": 4471,
    "wanted": 10743,
    "Ġuncommon": 5026,
    "character": 6331,
    "same": 5361,
    "ases": 1518,
    "Ġstingy": 25455,
    "Ġmany": 1104,
    "Ġimprove": 1764,
    "Ġsucceeded": 6105,
    "Ġlod": 4043,
    "devils": 20031,
    "feeders": 25235,
    "Ġguidance": 9416,
    "Ġlongitude": 11011,
    "Ġ]": 15458,
    "mortals": 25409,
    "Ġchace": 14178,
    "Ġinjuries": 11277,
    "Ġfru": 8419,
    "onze": 21254,
    "mosp": 8088,
    "freely": 16854,
    "Ġbutter": 6842,
    "Ġcapering": 21352,
    "Ġdotted": 16792,
    "Ġexploration": 2339,
    "love": 9293,
    "Ġconfused": 7964,
    "Ġrepining": 23356,
    "leave": 7837,
    "Ġstrides": 22609,
    "hib": 15366,
    "Ġexclusiveness": 23924,
    "Ġdagger": 21435,
    "Ġsympathise": 16794,
    "built": 16825,
    "Ġnich": 21517,
    "Ġitem": 12698,
    "suited": 22643,
    "Ġ128": 24473,
    "Ġcircumference": 13544,
    "umbrance": 22115,
    "orney": 17873,
    "Ġlovely": 4708,
    "Ġdemig": 20355,
    "Ġdistances": 22500,
    "crews": 15042,
    "Ġdearest": 5457,
    "Ġpest": 13912,
    "Ġsympathising": 24297,
    "loud": 11500,
    "Ġmusical": 23891,
    "Ġgenerally": 4159,
    "Ġveget": 11884,
    "likeness": 19476,
    "precious": 12070,
    "Ġtissu": 25920,
    "inished": 17734,
    "agitation": 14067,
    "Ġgave": 2220,
    "Ġsuspects": 16890,
    "Ġprecipices": 12275,
    "Ġvarieties": 14309,
    "capt": 3835,
    "Ġhot": 4258,
    "Ġod": 4438,
    "Ġnetworks": 596,
    "gg": 1995,
    "arab": 21439,
    "nest": 10113,
    "Ď": 207,
    "yth": 982,
    "Ġcensure": 15094,
    "Ġgraceful": 11296,
    "loaded": 22508,
    "ile": 521,
    "Ġgranted": 22804,
    "kicked": 20942,
    "Ġdank": 21426,
    "Ġscandinav": 19959,
    "Ġflanks": 11914,
    "Ġignorance": 6618,
    "ement": 1500,
    "sword": 10726,
    "idelburgh": 10560,
    "Ġunlocked": 14119,
    "Ġanew": 11430,
    "Ġantilles": 24179,
    "Ġharem": 9708,
    "Ġmodern": 3228,
    "scale": 3536,
    "Ġobtain": 8914,
    "Ġshaggy": 13569,
    "peculiarities": 13470,
    "wherein": 19107,
    "akin": 11765,
    "Ġmales": 17805,
    "success": 6710,
    "Ġspy": 22121,
    "iop": 20918,
    "skull": 24488,
    "Ġchallenge": 25471,
    "Ġstationary": 19693,
    "ome": 535,
    "Ġcit": 10783,
    "acquired": 24296,
    "Ġmisery": 3813,
    "ediction": 17944,
    "deav": 2676,
    "Ġouter": 6859,
    "Ġfeedback": 23431,
    "Ġlobsters": 13516,
    "astonishment": 10029,
    "Ġprows": 19888,
    "consent": 18503,
    "Ġtransplanted": 22438,
    "nel": 11504,
    "Ġscreams": 24603,
    "Ġtend": 6120,
    "Ġchoking": 15932,
    "Ġheal": 21678,
    "Ġjokes": 18408,
    "Ġsain": 17750,
    "gaff": 20881,
    "apes": 9740,
    "Ġshrieking": 24758,
    "Ġbony": 12584,
    "weep": 22681,
    "eyeing": 14945,
    "Ġrans": 21963,
    "fearing": 18526,
    "Ġshuddering": 9051,
    "part": 2576,
    "Ġmuttering": 10499,
    "era": 13846,
    "Ġforbearing": 25098,
    "whence": 23213,
    "Ġup": 462,
    "lock": 1471,
    "Ġhoarse": 14525,
    "Ġunrecorded": 17467,
    "Ġendured": 6072,
    "inates": 21179,
    "Ġstupidity": 15049,
    "Ġramble": 9312,
    "Ġfashion": 4299,
    "riving": 21923,
    "definition": 23117,
    "Ġimplements": 2490,
    "Ġdefault": 3040,
    "Ġprophets": 20449,
    "Ġtame": 17722,
    "Ġpopular": 6216,
    "liked": 10508,
    "Ġalleviated": 26203,
    "talk": 6656,
    "eded": 9673,
    "Ġoctober": 17226,
    "Ġkiller": 19567,
    "Ġmaterial": 5178,
    "achable": 14137,
    "pents": 11512,
    "pemberley": 9620,
    "Ġaperture": 26160,
    "variance": 2657,
    "[_": 5131,
    "cring": 20810,
    "onies": 6806,
    "Ġafore": 10758,
    "cont": 2921,
    "£": 101,
    "ispens": 8335,
    "Ġbrahma": 26319,
    "Ġcoal": 18591,
    "Ġcompleted": 8997,
    "Ġbeck": 14008,
    "Ġparade": 18301,
    "Ġproportions": 16467,
    "mole": 22700,
    "Ġsandwich": 19827,
    "Ġcold": 3033,
    "Ġtugged": 17288,
    "Ġpeeping": 16125,
    "Ġjoke": 8868,
    "Ġuntutored": 19165,
    "Ġconsistence": 23352,
    "pagan": 17285,
    "Ġhollowly": 24526,
    "Ġconfessed": 8008,
    "Ġproverb": 12716,
    "Ġsubterr": 10348,
    "phenomenon": 17648,
    "Ġstepdaughter": 22613,
    "eskye": 21448,
    "Ġstar": 6022,
    "rapt": 13972,
    "Ġsighed": 10337,
    "Ġreeds": 15693,
    "Ġunsav": 18251,
    "Ġnumber": 1980,
    "schoolmaster": 15160,
    "ratulations": 20124,
    "Ġ86": 24461,
    "Ġic": 9625,
    "Ġincorruption": 26309,
    "Ġsamuel": 10032,
    "Ġamours": 22478,
    "Ġdelivered": 11115,
    "Ġdecoding": 3085,
    "Ġshrunk": 16718,
    "Ġseveral": 2675,
    "ourse": 8869,
    "mistress": 14904,
    "Ġobtained": 7432,
    "Ġsmoke": 4713,
    "acey": 7649,
    "Ġmisanthropic": 26560,
    "Ġmun": 12559,
    "Ġshel": 6847,
    "Ġyelling": 18096,
    "Ġsqueezed": 20034,
    "Ġstains": 21738,
    "Ġkicked": 10581,
    "pate": 21009,
    "sue": 2077,
    "Ġwhitting": 18055,
    "Ġhunter": 5401,
    "Ġhappily": 9330,
    "Ġlegitimate": 20641,
    "Ġcorrectly": 9403,
    "liber": 18813,
    "combe": 7660,
    "Ġconst": 1909,
    "Ġdone": 1816,
    "imodal": 17446,
    "Ġoverhung": 15966,
    "Ġexpectantly": 23522,
    "Ġstoried": 18072,
    "planted": 11696,
    "Ġmanned": 9270,
    "clopÃ¦dia": 15255,
    "icult": 3342,
    "Ġmaker": 15540,
    "Ġpremeditated": 22231,
    "Ġswitching": 23054,
    "Ġcreeping": 18684,
    "Ġdecidedly": 9508,
    "glanced": 19364,
    "Ġpaling": 21460,
    "Ġwarsaw": 26167,
    "fifty": 12350,
    "Ġsprained": 15882,
    "alter": 10826,
    "Ġregular": 935,
    "Ġenormous": 5609,
    "Ġfeminine": 15262,
    "iltrated": 19304,
    "Ġimpelling": 22387,
    "urance": 10857,
    "E": 41,
    "archbishop": 22879,
    "crippled": 26384,
    "forgive": 18725,
    "pacific": 17641,
    "Ġimpediments": 26240,
    "sum": 2088,
    "wife": 8100,
    "ourage": 2452,
    "Ġanalog": 12609,
    "Ġtheir": 644,
    "Ġpittance": 15614,
    "Ġpeculiarly": 8286,
    "Ġlunatic": 24990,
    "Ġstrangled": 24134,
    "tfordshire": 4809,
    "Ġfocus": 4237,
    "Ġlo": 451,
    "Ġshoving": 23487,
    "placed": 7879,
    "ourers": 21447,
    "Ġsuccessful": 9922,
    "Ġsubdued": 11030,
    "agement": 4189,
    "direct": 12454,
    "hy": 4738,
    "Ġneur": 814,
    "Ġsilent": 3413,
    "rese": 15507,
    "Ġhovered": 12628,
    "Ġsoldiers": 8686,
    "Ġdetailed": 12821,
    "Ġengine": 1918,
    "Ġvector": 1970,
    "anged": 3589,
    "Ġabundance": 17155,
    "Ġdegree": 3704,
    "Ġbrutality": 26276,
    "modesty": 22854,
    "Ġchronicler": 20228,
    "painting": 17046,
    "angs": 5834,
    "Ġdecomp": 3810,
    "pile": 17629,
    "Ġprevents": 2561,
    "ulgences": 21862,
    "Ġfamil": 4321,
    "Ġprized": 23218,
    "fulness": 4311,
    "Ġadmirably": 16480,
    "Ġruth": 14092,
    "scho": 8759,
    "thoroughly": 26508,
    "bourn": 3304,
    "Ġtown": 2456,
    "eyes": 5684,
    "Ġleech": 24155,
    "admire": 24943,
    "arat": 9180,
    "owe": 15705,
    "Ġbeware": 8827,
    "Ġemb": 1246,
    "Ġmari": 6813,
    "ights": 8475,
    "enge": 21279,
    "Ġmurderers": 16811,
    "omen": 4088,
    "Ġnotorious": 18223,
    "Ġspar": 10922,
    "rief": 6202,
    "Ġfort": 2581,
    "Ġdireful": 11018,
    "Ġadmitting": 19184,
    "icts": 22404,
    "Ġdismantled": 20215,
    "Ġpanting": 11602,
    "every": 2812,
    "Ġsteed": 13037,
    "dem": 10691,
    "Ġunwearied": 20601,
    "Ġjunk": 15951,
    "text": 1973,
    "Ġintegrity": 12311,
    "Ġwheel": 9717,
    "summer": 11992,
    "ceiving": 3901,
    "Ġcandelabra": 26602,
    "Ġrequires": 986,
    "Ġgilder": 21610,
    "Ġstretch": 6993,
    "wam": 10135,
    "Ġlifting": 10196,
    "Ġexceeding": 1579,
    "ov": 15399,
    "Ġheight": 4221,
    "Ġextreme": 2518,
    "Ġstunsail": 25543,
    "Ġerecting": 24652,
    "hosmer": 25902,
    "seriously": 18904,
    "composed": 14739,
    "holloa": 19462,
    "Ġdece": 6996,
    "Ġaglow": 22510,
    "Ġoutriders": 26543,
    "Ġcaut": 6521,
    "suffer": 24333,
    "faint": 17545,
    "Ġcad": 12565,
    "ô": 181,
    "safe": 10053,
    "Ġcre": 889,
    "Ġbriony": 9328,
    "Ŀ": 256,
    "Ġdiversion": 17197,
    "etween": 774,
    "Ġstrateg": 1327,
    "pain": 7350,
    "Ġmug": 21311,
    "Ġhymn": 24518,
    "atters": 18500,
    "Ġcompan": 2174,
    "Ġsculpt": 15945,
    "omnipotent": 25964,
    "Ġbarbaric": 10013,
    "Ġsailing": 5323,
    "holland": 24038,
    "Ġmechanical": 7936,
    "Ġyork": 11664,
    "85": 13680,
    "rations": 10723,
    "Ġadvanced": 1494,
    "concent": 19478,
    "Ġbeggar": 9348,
    "scorn": 22991,
    "Ġpruning": 18969,
    ":": 30,
    "helpless": 16790,
    "alone": 10183,
    "industrious": 26239,
    "Ġpay": 3960,
    "Ġlikened": 16499,
    "Ġdetestable": 15097,
    "etent": 10199,
    "Ġtrespass": 23599,
    "Ġmu": 17795,
    "marked": 9048,
    "mits": 13755,
    "Ġgigantic": 5914,
    "Ġmaria": 7124,
    "Ġmort": 3461,
    "Ġkitty": 3908,
    "rest": 1627,
    "!âĢĿ": 847,
    "pool": 16207,
    "Ġimages": 1597,
    "raction": 8137,
    "albatross": 15627,
    "Ġunclad": 22051,
    "ryphon": 4164,
    "Ġthinkings": 22810,
    "later": 20952,
    "igner": 21699,
    "¢": 100,
    "Ġnursed": 16885,
    "Ġchancing": 22245,
    "gay": 11488,
    "verdict": 21726,
    "Ġswallows": 18882,
    "Ġlearn": 363,
    "young": 7321,
    "77": 15299,
    "Ġsing": 3077,
    "oves": 15403,
    "ldog": 21914,
    "Ġbroad": 3639,
    "height": 21204,
    "Ġrepul": 16406,
    "fatigue": 20657,
    "zy": 2672,
    "yt": 17711,
    "Ġhistorical": 3645,
    "Ġcem": 17823,
    "estate": 12818,
    "Ġranged": 10257,
    "Ġlooked": 1803,
    "iony": 9191,
    "Ġsmooth": 2779,
    "volous": 18604,
    "Ġbitt": 10796,
    "Ġending": 18189,
    "Ġpout": 17906,
    "Ġneg": 1336,
    "rocious": 21536,
    "Ġasked": 2280,
    "ladies": 9528,
    "Ġvirtue": 4922,
    "Ġindisposed": 26287,
    "Ġcustom": 5078,
    "Ġhump": 5853,
    "Ġstro": 4593,
    "Ġanticipating": 17058,
    "Ġdetermine": 3246,
    "ominy": 13977,
    "Ġcables": 15555,
    "Ġprotruding": 16658,
    "Ġxxi": 24476,
    "peddling": 24696,
    "Ġdecrease": 4201,
    "Ġorder": 1684,
    "steep": 19417,
    "Ġnerve": 16338,
    "Ġsponge": 26004,
    "Ġfantastic": 10058,
    "Ġvoids": 25807,
    "Ġra": 813,
    "imly": 12684,
    "ignity": 4374,
    "Ġunlucky": 10049,
    "deck": 4499,
    "Ġundivided": 24120,
    "bbed": 6911,
    "Ġmass": 3780,
    "Ġgaiters": 20459,
    "darkened": 24517,
    "returned": 7765,
    "ows": 1916,
    "Ġlodging": 24091,
    "onah": 3338,
    "Ġsple": 21214,
    "Ġindistinct": 17407,
    "crazy": 24691,
    "Ġconsecut": 18114,
    "Ġperish": 8874,
    "solic": 16377,
    "Ġswung": 6449,
    "Ġconvict": 23744,
    "Ġhawk": 15172,
    "edily": 17943,
    "Ġbraided": 16581,
    "Ġchina": 8039,
    "stall": 21643,
    "Ġpom": 21450,
    "rians": 21922,
    "Ġdictionary": 15111,
    "Ġhearth": 11980,
    "Ġho": 1930,
    "Ġreconcile": 25291,
    "Ġqu": 606,
    "Ġhumane": 11882,
    "Ġsnugly": 17111,
    "Ġmaimed": 21315,
    "establish": 17392,
    "calmed": 16202,
    "apothecary": 26545,
    "sprang": 19989,
    "Ġlances": 6984,
    "Ġmeridians": 17355,
    "chance": 6827,
    "Ġform": 1023,
    "sharp": 10307,
    "Ġrocked": 12849,
    "rever": 21234,
    "Ġpassing": 4316,
    "Ġmasking": 2422,
    "Ġpraised": 19552,
    "heavy": 10574,
    "relig": 15511,
    "Ġfulfil": 9550,
    "Ġlambton": 10657,
    "Ġenable": 682,
    "iftings": 23222,
    "Ġhitherto": 5879,
    "ruff": 15897,
    "except": 5383,
    "charles": 14698,
    "Ġpotency": 14645,
    "hed": 669,
    "Ġtranquillize": 24757,
    "Ġentire": 2563,
    "Ġvideo": 25365,
    "Ġtreasure": 9558,
    "Ġunembarrassed": 22066,
    "Ġanswer": 2602,
    "each": 7335,
    "ĠĠĠĠĠĠĠĠĠĠĠĠĠĠĠĠ": 1219,
    "Ġthrust": 5084,
    "slipping": 25528,
    "ility": 625,
    "Ġimple": 1798,
    "Ġtransl": 2832,
    "Ġmode": 8497,
    "Ġcupboard": 16883,
    "extending": 22763,
    "Ġfluctu": 5267,
    "Ġhuman": 1320,
    "Ġidiot": 11970,
    "Ġreason": 1380,
    "Ġdarkly": 19114,
    "however": 4373,
    "clearer": 24065,
    "honour": 13466,
    "Ġb": 281,
    "Ġilluminate": 17192,
    "glings": 23849,
    "Ġpursuits": 12074,
    "Ġresign": 18565,
    "sense": 11523,
    "ils": 3184,
    "Ġbetrayed": 9561,
    "Ġescape": 2649,
    "innocence": 15182,
    "otam": 21795,
    "Ġproc": 5545,
    "Ġspurn": 18309,
    "Ġrespective": 16342,
    "undertaking": 23786,
    "Ġe": 311,
    "av": 701,
    "Ġvoluntary": 14798,
    "Ġlandlady": 10422,
    "urday": 13994,
    "Ġaway": 1243,
    "commotion": 24913,
    "Ġyoung": 1504,
    "hes": 1399,
    "Ġcrimes": 8588,
    "dependence": 17167,
    "Ġundulated": 19515,
    "Ġrespectable": 6736,
    "Ġcheap": 13087,
    "Ġbloodshed": 23799,
    "Ġstrength": 4260,
    "Ġyoungster": 23176,
    "Ġarrested": 9560,
    "serious": 14447,
    "round": 3370,
    "nour": 20987,
    "Ġelement": 6897,
    "mounting": 25207,
    "owl": 12680,
    "ently": 1609,
    "Ġspans": 18304,
    "Ġsolitudes": 22881,
    "Ġpiny": 21468,
    "Ġcorrected": 10448,
    "Ġdescribes": 3124,
    "Ġerr": 1325,
    "previously": 17207,
    "Ġfairy": 14626,
    "Ġtransformed": 22592,
    "Ġanybody": 5313,
    "Ġto": 297,
    "Ġpalmed": 24088,
    "l": 80,
    "quest": 4536,
    "Ġfelony": 18951,
    "Ġrevolt": 24504,
    "abound": 15737,
    "quer": 11678,
    "ilities": 6991,
    "divided": 25018,
    "prick": 19341,
    "Ġfanatic": 23388,
    "Ġarched": 10932,
    "requent": 3649,
    "lo": 677,
    "lantern": 17427,
    "Ġproper": 1378,
    "purse": 20023,
    "merc": 19279,
    "Ġgout": 21593,
    "age": 506,
    "nervous": 16275,
    "spark": 18689,
    "Ġswandam": 11088,
    "uncle": 8158,
    "judging": 24201,
    "Ġmount": 7362,
    "Ġbass": 17855,
    "Ġfreezing": 23881,
    "dischar": 19151,
    "buck": 17490,
    "addressing": 24401,
    "Ġbowed": 6242,
    "!âĢĶ": 2455,
    "Ġintend": 12761,
    "Ġcontrived": 10303,
    "intosh": 22937,
    "Ġassailed": 23174,
    "Ġillness": 8589,
    "Ġsullen": 9157,
    "anges": 1669,
    "Ġinfl": 6893,
    "Ġinequalities": 26453,
    "Ġpennies": 17270,
    "Ġpursuit": 4731,
    "leag": 21364,
    "sockets": 22728,
    "Ġbehold": 5049,
    "ole": 9613,
    "Ġmorris": 18850,
    "Ġguilty": 7250,
    "Ġcritic": 19124,
    "Ġprosper": 10229,
    "Ġ1890": 23893,
    "Ġprair": 7746,
    "possible": 5743,
    "Ġblow": 3376,
    "Ġwallow": 19464,
    "lost": 8887,
    "oused": 6556,
    "plainly": 11089,
    "Ġfootfalls": 25866,
    "engineer": 23145,
    "Ġfastened": 7065,
    "Ġsevent": 18200,
    "Ġglided": 7447,
    "Ġusefulness": 19406,
    "Ġchilian": 25563,
    "aton": 21257,
    "Ġno": 511,
    "Ġsurp": 9634,
    "foreign": 18540,
    "Ġpresent": 1635,
    "Ġpossessor": 23821,
    "Ġhell": 5019,
    "Ġphyset": 23197,
    "Ġburke": 19250,
    "haw": 6361,
    "Ġrambles": 17184,
    "examined": 17266,
    "Ġpeddler": 24800,
    "Ġscre": 9736,
    "Ġofficio": 23813,
    "Ġapply": 1776,
    "pans": 13769,
    "Ġcontribute": 12858,
    "ething": 1598,
    "Ġstrand": 11826,
    "path": 10118,
    "Ġmantle": 25274,
    "Ġer": 8104,
    "Ġshivering": 10265,
    "enges": 13051,
    "Ġskull": 6287,
    "unworthy": 18161,
    "Ġscotch": 12207,
    "Ġsacrilege": 26228,
    "keenest": 25661,
    "arranging": 19317,
    "court": 7511,
    "Ġwilled": 21290,
    "Ġdirt": 15591,
    "descend": 23083,
    "Ġuncomfortable": 8485,
    "ember": 1956,
    "versed": 9824,
    "Ġwindibank": 7256,
    "Ġagricultural": 26550,
    "Ġbumping": 25280,
    "Ġallegor": 25545,
    "Ġfrost": 6095,
    "*": 14,
    "Ġnineveh": 13388,
    "attain": 21260,
    "Ġundersampling": 19517,
    "protruding": 24816,
    "thence": 23396,
    "Ġseverity": 15815,
    "Ġaccording": 5508,
    "Ġthee": 2626,
    "Ġvarying": 15806,
    "gh": 3800,
    "verb": 10216,
    "Ġsparks": 22130,
    "Ġencl": 16162,
    "anxiety": 25155,
    "ishness": 22342,
    "Ġguessed": 11282,
    "ushed": 2972,
    "Ġcompatibility": 2960,
    "inte": 5144,
    "Ġflurry": 18861,
    "Ġsuffered": 5649,
    "agery": 21904,
    "masters": 16834,
    "title": 17287,
    "familiar": 19782,
    "kick": 20935,
    "Ġgradu": 15830,
    "Ġpince": 21469,
    "anxious": 15108,
    "Ġsupposing": 6729,
    "sun": 7139,
    "Ġdepart": 4655,
    "Ġestimate": 19371,
    "Ġsubsets": 2348,
    "kshire": 13745,
    "Ġsavages": 9911,
    "harpo": 4803,
    "Ġtrain": 515,
    "impul": 16556,
    "personal": 24963,
    "Ġordering": 19000,
    "Ġcontention": 22423,
    "Ġconcre": 16384,
    "Ġthickening": 24021,
    "Ġsh": 419,
    "sper": 4434,
    "Ġscarlet": 13221,
    "Ġpronounced": 8350,
    "Ġcastors": 23973,
    "Ġboisterously": 25682,
    "Ġmonstr": 7667,
    "Ġthose": 1173,
    "Ġandes": 12638,
    "rawling": 21633,
    "un": 373,
    "Ġgovernments": 20266,
    "terns": 21819,
    "Ġdeified": 18140,
    "Ġchains": 8250,
    "Ġperformed": 8546,
    "Ġbun": 6006,
    "Ġauthent": 14507,
    "Ġchinese": 14183,
    "Ġorlop": 22090,
    "closed": 23151,
    "Ġork": 18284,
    "iscreet": 20681,
    "Ġalco": 21779,
    "broad": 8642,
    "Ġunceasing": 20356,
    "Ġwholly": 4446,
    "Ġpushing": 10819,
    "lessness": 5317,
    "Ġcharmed": 16762,
    "Ġsound": 2244,
    "Ġmarred": 23031,
    "Ġdepending": 14297,
    "disreputable": 23501,
    "melted": 25206,
    "Ġpri": 5813,
    "Ġbosoms": 16795,
    "ronted": 14876,
    "france": 24282,
    "Ġshelter": 17008,
    "Ġpitied": 14691,
    "accurately": 25861,
    "gus": 13724,
    "Ġnecessitates": 23926,
    "Ġbrim": 12974,
    "Ġevalu": 3005,
    "Ġelect": 10842,
    "eh": 13709,
    "Ġaudacious": 13459,
    "distinction": 19570,
    "Ġdreading": 23797,
    "charmed": 21693,
    "Ġglobe": 6076,
    "Ġaccumul": 1411,
    "Ġrecognised": 8992,
    "Ġ67": 19659,
    "urean": 18122,
    "Ġhumbly": 16195,
    "Ġmappings": 2150,
    "Ġarmchair": 8270,
    "Ġgrow": 2861,
    "Ġencounter": 6627,
    "aves": 2547,
    "Ġapprehens": 5682,
    "pag": 11510,
    "Ġdust": 5908,
    "Ġsocially": 22084,
    "dles": 11480,
    "Ġscho": 4435,
    "sence": 3308,
    "Ġeuroc": 14958,
    "Ġlabyrin": 13102,
    "splash": 25209,
    "Ġaction": 5796,
    "respectable": 19846,
    "Ġdeity": 18137,
    "remember": 7262,
    "cules": 12389,
    "hoisting": 23715,
    "aration": 12604,
    "Ġundo": 15838,
    "Ġargemone": 24274,
    "terr": 8153,
    "dun": 17516,
    "Ġtraced": 10383,
    "Ġdispel": 16596,
    "Ġheathenish": 13615,
    "ancies": 11583,
    "Ġsaddest": 16662,
    "Ġparents": 6752,
    "Ġcronies": 23441,
    "Ġconfessor": 24016,
    "Ġcop": 7579,
    "retch": 4371,
    "Ę": 217,
    "Ġappo": 8498,
    "Ġsoo": 15859,
    "Ġresembled": 18033,
    "Ġconsole": 8150,
    "brown": 15316,
    "matical": 13128,
    "Ġsalt": 8016,
    "Ġharshly": 25249,
    "absolut": 8458,
    "raised": 15676,
    "Ġfoaming": 18992,
    "Ġspit": 22122,
    "inement": 11557,
    "Ġturning": 3328,
    "Ġsophisticated": 1748,
    "Ġhaz": 12752,
    "aggra": 21903,
    "sneezes": 11446,
    "Ġimbu": 15889,
    "Ġmysteriously": 24601,
    "Ġgrove": 12144,
    "variety": 23182,
    "police": 10583,
    "Ġtor": 8105,
    "Ġmantel": 11439,
    "Ġconsequent": 18113,
    "Ġcerem": 7077,
    "skinned": 25387,
    "resum": 17761,
    "mews": 22711,
    "Ġreign": 13984,
    "Ġado": 7626,
    "Ġbegrimed": 26578,
    "Ġvisited": 5947,
    "bright": 8989,
    "Ġcommencement": 12236,
    "floor": 14935,
    "Ġbrief": 6976,
    "Ġstr": 752,
    "drab": 23895,
    "Ġalps": 10870,
    "usation": 18396,
    "Ġbland": 11064,
    "www": 17251,
    "Ġpractically": 13104,
    "Ġhorns": 11123,
    "Ġberm": 21381,
    "Ġvast": 3299,
    "Ġinstantaneous": 14611,
    "Ġaffair": 4462,
    "oat": 13763,
    "isticated": 1743,
    "disappeared": 14570,
    "Ġunexpl": 22036,
    "entering": 17976,
    "Ġzeros": 3326,
    "Ġhish": 21910,
    "Ġbag": 5699,
    "Ġwidely": 8032,
    "Ġringbolts": 24196,
    "Ġslink": 23160,
    "likewise": 13103,
    "volutional": 1934,
    "Ġgaunt": 11268,
    "Ġasp": 15778,
    "seldom": 13786,
    "Ġentreaty": 10529,
    "Ġlane": 5627,
    "Ġreappearance": 21664,
    "Ġrobes": 16233,
    "waiting": 12218,
    "iless": 10281,
    "hem": 6663,
    "Ġlife": 1356,
    "Ġformal": 2943,
    "Ġtierce": 15477,
    "Ġgreatly": 5849,
    "speech": 10666,
    "eration": 10772,
    "Ġatom": 18192,
    "palms": 25262,
    "Ġdisliked": 12888,
    "Ġdespondency": 16577,
    "Ġoccasions": 7987,
    "Ġtwist": 11849,
    "Ġfriends": 2656,
    "Ġdisgusted": 14989,
    "Ġedition": 16433,
    "Ġstump": 7602,
    "boy": 4736,
    "determined": 9079,
    "threadbare": 25989,
    "Ġworth": 4416,
    "Ġexile": 12713,
    "Ġmalignity": 10556,
    "incident": 14591,
    "Ġsubterranean": 13610,
    "Ġstealing": 18892,
    "Ġrally": 21965,
    "ribes": 23362,
    "ud": 919,
    "Ġsweetness": 9445,
    "distrust": 19569,
    "tack": 12510,
    "Ġcontinuation": 22915,
    "Ġwaldman": 11345,
    "icherry": 15134,
    "Ġassociates": 24712,
    "Ġkidn": 20204,
    "gaz": 20877,
    "Ġemails": 13105,
    "Ġmarsh": 9820,
    "Ġcrescentic": 20620,
    "pious": 17633,
    "shook": 19855,
    "Ġclung": 10960,
    "risonment": 17374,
    "ĠĠĠĠĠĠĠĠĠĠĠĠĠĠĠĠĠĠĠĠĠĠĠĠĠĠĠĠĠĠĠĠĠĠĠĠĠĠĠĠĠĠĠĠĠĠĠ": 16755,
    "Ġderive": 10394,
    "Ġringleader": 26212,
    "beside": 19876,
    "greeting": 24554,
    "Ġcraggy": 23528,
    "Ġapril": 13661,
    "Ġretreats": 16928,
    "Ġclergyman": 8711,
    "Ġbeheading": 21751,
    "gence": 875,
    "dramatic": 19383,
    "telling": 14438,
    "Ġprogeny": 17387,
    "Ġattained": 14077,
    "Ġcomm": 838,
    "Ġfourteen": 12008,
    "Ġdraw": 3670,
    "Ġsuns": 23272,
    "Ġfolded": 7767,
    "Ġfant": 9173,
    "straw": 24093,
    "Ġabundantly": 17156,
    "Ġwidespread": 20674,
    "Ġpoetic": 17104,
    "Ġcyp": 21343,
    "Ġstables": 23656,
    "Ġperfectly": 3701,
    "Ġtried": 3647,
    "Ġpicturesqueness": 24480,
    "iloqu": 11647,
    "Ġvernal": 23886,
    "Ġambergris": 8705,
    "conversation": 7122,
    "feels": 22499,
    "Ġmatch": 4527,
    "Ġcachalot": 17834,
    "Ġerud": 20053,
    "nment": 20989,
    "Ġgrud": 17995,
    "wood": 5897,
    "Ġtumult": 7114,
    "oug": 430,
    "master": 5687,
    "Ġperdition": 15990,
    "Ġcounterbalance": 24722,
    "prep": 9757,
    "Ġfath": 7364,
    "rying": 3188,
    "included": 19208,
    "Ġdirections": 1969,
    "Ġsurest": 19054,
    "Ġjabez": 11764,
    "Ġkrusenstern": 26377,
    "Ġsl": 1496,
    "eer": 15346,
    "Ġstate": 1810,
    "\\": 64,
    "Ġsmaller": 1880,
    "Ġcommerce": 11015,
    "bpp": 20771,
    "Ġsingular": 4423,
    "Ġwrenching": 17322,
    "suddenly": 6493,
    "Ġdull": 6384,
    "Ġconsort": 18721,
    "Ġwont": 9851,
    "avail": 18568,
    "Ġpinch": 15016,
    "Ġsuperstitious": 13519,
    "Ġenjoys": 19448,
    "Ġliberality": 24377,
    "Č": 205,
    "uring": 819,
    "ineas": 15820,
    "Ġhunks": 18935,
    "Ë": 140,
    "Ġlucerne": 23862,
    "ports": 13773,
    "Ġtherein": 11773,
    "Ġmisconduct": 22754,
    "Ġdanish": 21429,
    "ored": 3893,
    "things": 6032,
    "stains": 11636,
    "Ġcharity": 8862,
    "Ġexpectation": 6904,
    "Ġpump": 12618,
    "stamp": 21651,
    "Ġmoody": 8200,
    "acher": 6868,
    ":âĢĶâĢĺ": 24193,
    "emone": 21924,
    "stache": 15687,
    "uts": 8815,
    "Ġgibraltar": 25787,
    "Ġfishery": 4177,
    "aggoo": 5130,
    "necessary": 5881,
    "Ġcowardice": 17032,
    "conditional": 9078,
    "Ġshun": 11707,
    "Ġearning": 23938,
    "lee": 11584,
    "Ġextended": 7923,
    "Ġcandles": 9907,
    "Ġoccurrence": 14381,
    "ĠâĢľ_": 6696,
    "erting": 17777,
    "Ġyoun": 1408,
    "Ġcomposed": 8892,
    "Ġcling": 11771,
    "Ġdirect": 1472,
    "Ġreconc": 9682,
    "respond": 12541,
    "Ġhab": 4219,
    "antucket": 2646,
    "Ġquart": 11785,
    "ableness": 8148,
    "ols": 2415,
    "Ġdais": 24372,
    "quet": 6835,
    "Ġbang": 17854,
    "Ġoffic": 3189,
    "Ġdoubtful": 19141,
    "Ġtorrent": 17092,
    "Ġgreedily": 18964,
    "Ġcreated": 2709,
    "Ġconcealing": 23900,
    "including": 23589,
    "Ġrides": 21968,
    "Ġpersuading": 19408,
    "Ġscru": 8191,
    "pres": 16022,
    "particip": 23615,
    "Ġascribe": 16782,
    "streets": 13394,
    "Ġbulk": 5591,
    "Ġaccordance": 19496,
    "Ġawed": 23584,
    "noise": 14326,
    "herfield": 3630,
    "Ġmarbles": 18873,
    "Ġpreserving": 19795,
    "learn": 2480,
    "Ġjealous": 9468,
    "================": 3723,
    "Ġgurgling": 17445,
    "Ġlighted": 7063,
    "Ġunforgiving": 25995,
    "Ġbiographical": 22759,
    "Ġsmallest": 6430,
    "Ġid": 1908,
    "Ġrough": 7187,
    "Ġconsuming": 22786,
    "shipped": 18496,
    "Ġunbroken": 18250,
    "Ġinboard": 17932,
    "thyself": 19296,
    "romised": 14111,
    "regards": 23465,
    "Ġcreation": 6439,
    "eagerly": 17315,
    "showing": 22462,
    "Ġdat": 498,
    "Ġbenefited": 19396,
    "Ġbreezes": 14868,
    "Ġcrackling": 24958,
    "withstand": 23026,
    "Ġdiscreet": 16481,
    "Ġfro": 3473,
    "Ġfaced": 10808,
    "iday": 8829,
    "beat": 10986,
    "Ġconnectivity": 3666,
    "Ġincreases": 3795,
    "province": 26072,
    "Ġbundles": 26175,
    "pid": 1389,
    "Ġslate": 11936,
    "Ġabhorrent": 16856,
    "humoured": 11236,
    "Ġcascade": 20579,
    "Ġhav": 12751,
    "angry": 18294,
    "Ġpresently": 5116,
    "====": 1481,
    "alously": 15626,
    "Ġwarrior": 24496,
    "expense": 22426,
    "inexplicable": 25809,
    "lays": 14921,
    "Ġpro": 361,
    "stiff": 12672,
    "Ġgoodness": 6058,
    "Ġnourishment": 15191,
    "Ġprotectors": 9070,
    "Ġprofuse": 23564,
    "Ġdistinction": 8885,
    "ne": 646,
    "exp": 2740,
    "Ġmadman": 13150,
    "hound": 20894,
    "ien": 10101,
    "sufferable": 12174,
    "Ġrepresented": 8938,
    "baked": 20778,
    "ù": 186,
    "Ġreigns": 21668,
    "Ġadequate": 20307,
    ".âĢĻ": 1718,
    "Ġjewell": 19519,
    "ony": 3030,
    "Ġbrother": 2751,
    "Ġfate": 4752,
    "readiness": 19361,
    "Ġexertions": 13409,
    "Ġwheelbarrow": 17204,
    "Ġconf": 1818,
    "zz": 4294,
    "inhab": 10757,
    "factories": 19842,
    "Ġcomplete": 4382,
    "Ġhut": 15616,
    "nes": 6961,
    "Ġarea": 14186,
    "Ġwhal": 5454,
    "Ġplumber": 16082,
    "Ġsinking": 7307,
    "Ġoccupant": 16651,
    "Ġfamous": 5255,
    "Ġcroquet": 9961,
    "flu": 9117,
    "onsible": 22559,
    "men": 1485,
    "osop": 4403,
    "Ġagainst": 1698,
    "Ġcreative": 9830,
    "Ġchooses": 13345,
    "Ġprov": 4400,
    "rmsprop": 4520,
    "warp": 17706,
    "Ġwond": 3936,
    "married": 9948,
    "Ġfall": 2987,
    "Ġhurried": 4033,
    "ckled": 9256,
    "lucky": 24545,
    "Ġswash": 23052,
    "bring": 9104,
    "grief": 13730,
    "Ġnostrils": 10943,
    "Ġjesty": 18405,
    "Ġharpoon": 3616,
    "Ġfatigue": 8697,
    "Ġshares": 23243,
    "Ġcanterbury": 22159,
    "rals": 21041,
    "Ġarrangements": 16514,
    "Ġfelix": 4846,
    "Ġengaged": 3431,
    "69": 17474,
    "Ġbeg": 1283,
    "bled": 5469,
    "Ġcorporeal": 17359,
    "odecim": 9831,
    "Ġseals": 11693,
    "Ġsighing": 18676,
    "Ç": 136,
    "[": 63,
    "Ġsinful": 18948,
    "Ġstrained": 10218,
    "_,âĢĿ": 6218,
    "Ġfoolish": 5979,
    "Ġdipped": 15592,
    "Ġtrotting": 19974,
    "Ġfobbing": 26441,
    "Ġcot": 13876,
    "Ġstocks": 23173,
    "doesn": 19819,
    "sideways": 14571,
    "Ġtar": 2567,
    "prior": 21031,
    "Ġtechnical": 17191,
    "Ġtimor": 24224,
    "Ġslope": 14459,
    "Ġshillings": 15833,
    "Ġprepare": 8646,
    "Ġchron": 19436,
    "lev": 1235,
    "Ġgratifying": 13304,
    "pent": 3494,
    "8": 28,
    "Ġvictims": 19803,
    "ties": 2760,
    "Ġcharacter": 2794,
    "ript": 4155,
    "discover": 10539,
    "Ġrattling": 11395,
    "comparatively": 25839,
    "Ġdefine": 9814,
    "Ġnuptials": 20492,
    "Ġswore": 10378,
    "Ġconquest": 15745,
    "Ġstall": 12693,
    "Ġhuge": 4698,
    "oh": 1576,
    "Ġpartner": 6714,
    "Ġepidemic": 20694,
    "coast": 10449,
    "Ġcorpusants": 13676,
    "ular": 713,
    "Ġeloquent": 16108,
    "ages": 828,
    "Ġaskance": 23147,
    "Ġsubstituting": 26326,
    "Ġprime": 10404,
    "Ġpe": 851,
    "Ġentreating": 24207,
    "Ġblasp": 14400,
    "hunsford": 24386,
    "inguish": 9396,
    "Ġthickets": 24020,
    "paus": 13772,
    "Ġembatt": 18848,
    "hearty": 14833,
    "Ġnegro": 6447,
    "Ġverify": 12085,
    "ches": 2151,
    "calmly": 20138,
    "Ġstrang": 4163,
    "Ġfonder": 17880,
    "Ġunfulfilled": 26509,
    "Ġrespectful": 16343,
    "Ġmagical": 23096,
    "dwelling": 20563,
    "Ġdisappoint": 24205,
    "Ġapparition": 8066,
    "Ġapplied": 6186,
    "Ġowe": 8114,
    "Ġregulations": 18599,
    "odhead": 18117,
    "Ġshrinking": 14804,
    "Ġvineyarder": 25606,
    "gener": 3128,
    "monograph": 23523,
    "hand": 2759,
    "Ġkept": 3347,
    "Ġbadge": 16683,
    "Ġincorrect": 2731,
    "turner": 19540,
    "dis": 2252,
    "Ġcolonel": 3409,
    "due": 22407,
    "Ġdrought": 19277,
    "Ġscrutiny": 26015,
    "imper": 13996,
    "light": 3018,
    "Ġforeseeing": 23449,
    "Ġhas": 825,
    "Ġcryst": 9916,
    "Ġclang": 15968,
    "Ġdrily": 23538,
    "Ġbradstreet": 9576,
    "Ġdawned": 14993,
    "20": 20752,
    "Y": 61,
    "shoulder": 16583,
    "Ġphotography": 24683,
    "Ġasiatic": 20428,
    "Ġruled": 22780,
    "Ġbrowne": 13300,
    "ighb": 10423,
    "neurons": 3137,
    "Ġwonderland": 23423,
    "Ġsallies": 21228,
    "coffin": 10662,
    "Ġjourneys": 19473,
    "Ġequinoctial": 20532,
    "Ġel": 802,
    "Ġmelancholy": 5606,
    "bler": 11472,
    "Ġcuriosities": 26288,
    "ray": 2439,
    "res": 2761,
    "Ġcatherine": 2814,
    "Ġcalifornian": 25851,
    "solely": 19815,
    "Ġpecks": 18669,
    "Ġverge": 23885,
    "uzzle": 19582,
    "71": 20755,
    "Ġstrenuously": 17447,
    "envelope": 17782,
    "rail": 10204,
    "indifferent": 14208,
    "Ġtambourine": 9564,
    "osition": 1374,
    "Ġlowermost": 23238,
    "Ġearthy": 23711,
    "Ġeffected": 14353,
    "Ġdisease": 14257,
    "salis": 25147,
    "nowhere": 18418,
    "Ġneighb": 14073,
    "indeed": 4486,
    "alarm": 15624,
    "Ġvivacious": 19814,
    "behind": 6779,
    "self": 616,
    "lude": 6161,
    "ssian": 3402,
    "Ġfring": 11127,
    "Ġshame": 6410,
    "Ġmanhandle": 22326,
    "ized": 1524,
    "Ġcrowds": 14738,
    "fork": 20856,
    "Ġdecanter": 22441,
    "Ġliveliness": 13642,
    "imprisonment": 23761,
    "Ġimmemorial": 10510,
    "Ġinclude": 1872,
    "Ġjudge": 5502,
    "Ġvines": 12747,
    "Ġnick": 21520,
    "Ġisles": 8459,
    "Ġhighest": 3530,
    "Ġought": 3421,
    "unless": 9234,
    "milk": 20475,
    "Ġexec": 19491,
    "avings": 12021,
    "unwillingly": 21881,
    "Ġpush": 9184,
    "Ġdining": 6977,
    "Ġtwelvemonth": 12175,
    "Ġtrying": 4836,
    "cannot": 5745,
    "Ġ76": 24262,
    "Ġsprout": 24085,
    "Ġlaughter": 9027,
    "Ġwaned": 17791,
    "farm": 15350,
    "okers": 18441,
    "Ġpreserve": 7529,
    "augh": 1781,
    "Ġdebt": 12165,
    "Ġunwe": 15836,
    "Ġgangs": 21606,
    "Ġhaws": 21948,
    "Ġlee": 4224,
    "Ġdownright": 16116,
    "compar": 14356,
    "aiian": 23591,
    "Ġidle": 8252,
    "ahab": 4291,
    "idled": 21765,
    "poles": 16208,
    "consult": 24169,
    "deduction": 23555,
    "greatest": 10493,
    "arrived": 12606,
    "Ġreconsidered": 21670,
    "d": 72,
    "Ġmamm": 25090,
    "Ġsupposition": 9816,
    "asburgh": 15644,
    "Ġhurt": 7700,
    "Ġenables": 725,
    "Ġunctuous": 10266,
    "utes": 5913,
    "Ġhooped": 23351,
    "Ġfeat": 10937,
    "Ġinexper": 16980,
    "Ġ96": 24592,
    "Ġprudent": 9185,
    "tomahawk": 25915,
    "Ġearthly": 7989,
    "Ġstiffest": 24829,
    "Ġearl": 7675,
    "Ġproprietor": 12371,
    "Ġbead": 21747,
    "Ġdepicted": 14283,
    "Ġvariations": 22663,
    "slept": 17169,
    "Ġmoustache": 20482,
    "gang": 17553,
    "uther": 8816,
    "overs": 17621,
    "Ġgleam": 12306,
    "Ġcapst": 8595,
    "Ġwidest": 24234,
    "reluct": 26163,
    "Ġseemed": 1280,
    "sleepy": 24729,
    "ignomin": 23265,
    "Ġneat": 6999,
    "Ġsealed": 15813,
    "achment": 5464,
    "Ġdeductions": 19732,
    "Ġdance": 4441,
    "Ġstarboard": 7604,
    "Ġstranger": 3487,
    "ling": 734,
    "Þ": 159,
    "Ġdozing": 22240,
    "Ġpleasantness": 24139,
    "Ġphrenologists": 25608,
    "Ġrod": 9279,
    "Ġlabour": 7274,
    "Ġsuddenness": 23378,
    "Ġdismasted": 15250,
    "Ġallowance": 14388,
    "Ġnorthwards": 19545,
    "fur": 6355,
    "Ġmap": 2393,
    "Ġcadiz": 17324,
    "Ġbaling": 17859,
    "Ġbarbs": 10531,
    "Ġtransactions": 18481,
    "Ġcards": 7580,
    "Ġreference": 2569,
    "spring": 7231,
    "Ġprudence": 13919,
    "allest": 5485,
    "ifying": 5235,
    "Ġsignification": 19203,
    "Ġbount": 15565,
    "och": 21000,
    "Ġsweep": 8265,
    "ece": 17531,
    "Ġbolt": 11334,
    "Ġsail": 1667,
    "Ġstrategies": 1839,
    "Ġbrazier": 26320,
    "Ġsilver": 7464,
    "Ġknight": 9726,
    "Ġdejection": 15195,
    "Ġconcluding": 9856,
    "Ġ200": 19294,
    "comb": 11035,
    "Ġrazor": 22652,
    "anger": 2173,
    "Ġdesire": 3717,
    "Ġbending": 12582,
    "desirable": 23204,
    "Ġprosperity": 20257,
    "Ġcomplied": 14733,
    "Ġgrin": 5482,
    "tro": 15432,
    "Ġinsince": 23678,
    "ists": 3998,
    "Ġbear": 3657,
    "Ġwonderfully": 10430,
    "orts": 2559,
    "Ġsalvation": 14756,
    "wouldn": 23534,
    "Ġstirs": 14916,
    "sweetly": 25134,
    "Ġapplicable": 18995,
    "Ġredu": 1357,
    "tles": 10730,
    "Ġdevoting": 22730,
    "Ġpushed": 5909,
    "chief": 4643,
    "Ġunsc": 22011,
    "Ġhull": 5446,
    "Ġinstantly": 3593,
    "acceptance": 25185,
    "ign": 1702,
    "national": 20997,
    "Ġaristotle": 25817,
    "Ġperpet": 7644,
    "Ġum": 10211,
    "Ġdried": 7367,
    "Ġdiligent": 25075,
    "Ġdrops": 9032,
    "Ġmarshy": 20217,
    "Ġmightiest": 12958,
    "gy": 2097,
    "Ġapparatus": 24908,
    "Ġsummit": 7730,
    "Ġdegraded": 19226,
    "ially": 9245,
    "don": 3545,
    "Ġestablished": 9069,
    "Ġsembl": 19057,
    "Ġheath": 15699,
    "create": 24159,
    "mblance": 7323,
    "speeches": 25239,
    "middle": 11310,
    "mur": 5428,
    "Ġdum": 10811,
    "igated": 15704,
    "Ġswart": 14433,
    "Ġtalker": 23367,
    "lucases": 20209,
    "Ġopenly": 8572,
    "cruise": 24841,
    "repeat": 25151,
    "oo": 7553,
    "Ġworst": 7444,
    "Ġnegatived": 23045,
    "body": 2310,
    "yet": 3754,
    "Ġquiet": 3262,
    "Ġdate": 7841,
    "Ġhunger": 8566,
    "Ġfac": 6381,
    "vanity": 24974,
    "Ġstraining": 11327,
    "Ġmeeting": 5193,
    "Ġconfide": 13096,
    "Ġleader": 14701,
    "Ġenergy": 2556,
    "conside": 9289,
    "Ġstaggers": 24653,
    "Ġparts": 4167,
    "Ġinventing": 24861,
    "Ġjacobian": 2894,
    "Ġphil": 3388,
    "Ġcondition": 6764,
    "asting": 12803,
    "another": 5439,
    "Ġmazes": 25940,
    "introdu": 8937,
    "Ġscramble": 24578,
    "urs": 6989,
    "generative": 4331,
    "Ġtreated": 7080,
    "Ġheighten": 19528,
    "Ġwhisker": 23932,
    "Ġwaylaid": 22868,
    "moby": 8536,
    "discovering": 24251,
    "Ġhope": 1787,
    "discredit": 24250,
    "Ġbra": 3256,
    "insulting": 26055,
    "Ġtilted": 20411,
    "urpation": 16299,
    "endous": 6850,
    "Ġtermination": 16460,
    "Ġgulf": 10635,
    "Ġpermitting": 22397,
    "murderers": 25728,
    "ĵ": 246,
    "Ġaltar": 9228,
    "Ġjub": 22292,
    "Ġfranc": 16353,
    "Ġdisregard": 22525,
    "franch": 24284,
    "bits": 17488,
    "Ġprospect": 4705,
    "whatever": 6694,
    "slo": 17656,
    "Ġfeast": 10277,
    "Ġlucases": 9009,
    "Ġcalculus": 23980,
    "Ġlowers": 23237,
    "Ġwillingly": 8884,
    "derstand": 639,
    "ĠĠĠĠĠĠĠĠĠĠĠĠĠĠĠĠĠĠĠĠĠĠĠĠĠĠĠĠĠĠĠĠĠĠĠĠĠĠĠĠĠĠĠĠĠĠĠĠĠĠĠĠĠĠĠĠĠĠĠĠ": 19259,
    "uding": 16147,
    "Ġalgorithm": 767,
    "Ġshipped": 9714,
    "Ġserpents": 13075,
    "Ġimmemorially": 25383,
    "mentioning": 24885,
    "Ġimpertinence": 11366,
    "fashion": 8080,
    "getic": 12963,
    "Ġadmon": 15866,
    "lion": 20943,
    "Ġensemble": 1604,
    "Ġghostly": 24650,
    "phr": 18730,
    "Ġfoss": 9848,
    "Ġaided": 17745,
    "Ġregularization": 1179,
    "Ġwaved": 9644,
    "eastward": 15128,
    "Ġdrowning": 19903,
    "Ġzone": 14360,
    "Ġwestern": 10654,
    "Ġrudder": 25107,
    "Ġdictionaries": 12338,
    "dart": 20825,
    "Ġoutlaws": 22320,
    "concl": 12866,
    "),": 1351,
    "Ġintroduces": 3271,
    "Ġflounders": 23013,
    "cceed": 4145,
    "Ġinvisibly": 24817,
    "acquaintance": 6938,
    "Ġve": 1109,
    "Ġvultures": 25653,
    "preced": 10305,
    "rence": 5555,
    "Ġremot": 8543,
    "Ġministers": 22830,
    "over": 1846,
    "ivation": 3113,
    "Ġshirr": 18231,
    "Ġunex": 11711,
    "Ġsque": 18755,
    "Ġdeliciousness": 24126,
    "endeavour": 17031,
    "Ġsneering": 24697,
    "insisted": 23064,
    "Ġobeyed": 12214,
    "Ġaffidav": 18790,
    "Ġdialogue": 12402,
    "deceiving": 22141,
    "librarian": 26568,
    "absurd": 21792,
    "Ġchivalry": 25819,
    "Ġwood": 2293,
    "batch": 1981,
    "Ġmark": 2334,
    "Ġacquiesced": 25493,
    "Ġvent": 3995,
    "regulated": 23466,
    "Ġloved": 4597,
    "supernatural": 19778,
    "._": 3220,
    "Ġruff": 14348,
    "Ġaffirm": 11885,
    "Ġnug": 21522,
    "Ġshri": 5375,
    "order": 1959,
    "Ġsnowy": 9017,
    "Ġbrougham": 17870,
    "uments": 5552,
    "Ġbehaved": 13253,
    "Ġmarking": 16468,
    "surpr": 5996,
    "Ġincomp": 12894,
    "Ġdiscipline": 26561,
    "_.,": 14562,
    "Ġrallied": 14094,
    "runs": 25415,
    "Ġheightened": 8648,
    "æ": 167,
    "Ġenviron": 4072,
    "ature": 517,
    "Ġteeth": 4169,
    "union": 15767,
    "Ġminor": 12965,
    "Ġmomentary": 11036,
    "Ġconsequ": 6254,
    "Ġnocturnal": 20714,
    "Ġstands": 5258,
    "Ġsculpture": 26016,
    "confidential": 25876,
    "useful": 16502,
    "Ġretains": 20028,
    "Ġlangu": 578,
    "Ġuproar": 22151,
    "doubtful": 24791,
    "Ġsmokes": 22557,
    "imaux": 21709,
    "Ġmeetings": 16532,
    "Ġson": 2983,
    "Ġshrill": 12139,
    "Ġgordon": 26467,
    "apable": 6422,
    "Ġbottle": 7490,
    "Ġref": 911,
    "sh": 651,
    "ullo": 12726,
    "Ġslaves": 23163,
    "dogs": 25402,
    "Ġobstructed": 24677,
    "Ġenc": 966,
    "Ġboldly": 9500,
    "ben": 4926,
    "Ġep": 7384,
    "training": 2520,
    "Ġste": 1388,
    "Ġsubstantiated": 25875,
    "Ġmightier": 18728,
    "begin": 8883,
    "fashioned": 9570,
    "Ġdetained": 18372,
    "Ġ5": 4935,
    "Ġgrew": 5182,
    "scratch": 26044,
    "cloudless": 20331,
    "ather": 740,
    "Ġrepaired": 13106,
    "Ġbravest": 23838,
    "rich": 11517,
    "Ġdrifting": 19278,
    "Ġphilipp": 23882,
    "Ġlingered": 13504,
    "Ġunprecedented": 15852,
    "itu": 1226,
    "Ġfronts": 20531,
    "Ġinstigated": 18702,
    "Ġhyena": 24519,
    "Ġmagnetic": 17240,
    "requ": 7148,
    "rah": 8136,
    "ghost": 20886,
    "Ġsailors": 4277,
    "Ġdusk": 12325,
    "Ġfrench": 4939,
    "ulance": 15764,
    "Ġigniting": 25070,
    "Ġtask": 1312,
    "Ġweeping": 11685,
    "Ġgrandfather": 19420,
    "Ġblanc": 11065,
    "Ġ13": 6718,
    "Ġzodiac": 16174,
    "Ġdeserts": 10507,
    "Ġgoverness": 8600,
    "attered": 4017,
    "Ġstudded": 18976,
    "pped": 1997,
    "Ġinher": 10179,
    "Ġprosperous": 15170,
    "Ġ2": 2930,
    "Ġconstitutes": 13551,
    "Ġtens": 17723,
    "Ġascendency": 20231,
    "Ġchisel": 20366,
    "redible": 15808,
    "Ġhitting": 21484,
    "ip": 555,
    "Ġarsac": 11740,
    "\",": 10678,
    "Ġendeav": 2956,
    "instinct": 19542,
    "Ġvague": 6406,
    "header": 11931,
    "impossible": 8823,
    "Ġhalts": 3161,
    "by": 1158,
    "Ġlabrador": 23325,
    "Ġleviathans": 8281,
    "ĠâĢľ": 516,
    "club": 26380,
    "grampus": 18617,
    "get": 1020,
    "originally": 24937,
    "understanding": 1108,
    "ments": 1402,
    "computer": 1938,
    "Ġrepent": 9862,
    "Ġconveying": 19713,
    "Ġcloak": 9533,
    "Ġthis": 382,
    "inisc": 15487,
    "Ġparaphrasing": 26526,
    "Ġborrowed": 17229,
    "Ġbrewed": 23342,
    "_": 67,
    "Ġunalterable": 15849,
    "Ġfeathers": 15118,
    "tu": 12509,
    "ma": 1151,
    "igating": 21697,
    "Ġsecurity": 8977,
    "wheeler": 16186,
    "ð": 177,
    "omics": 21640,
    "lake": 13748,
    "Ġstabbing": 20302,
    "Ġdropped": 4470,
    "Ġskilfully": 20522,
    "Ġbermud": 26439,
    "Ġpreservative": 24629,
    "Ġregained": 18598,
    "des": 1563,
    "tribute": 21087,
    "eman": 5636,
    "Ġdiffused": 12066,
    "Ġbolted": 12242,
    "Ġencode": 4365,
    "Ġacted": 7422,
    "Ġeternally": 11369,
    "Ġdaring": 8120,
    "forgotten": 12414,
    "Ġeffeminacy": 20717,
    "itself": 7834,
    "Ġappals": 22217,
    "Ġ123": 24468,
    "Ġstagnant": 24654,
    "shavings": 22464,
    "Ġmoonshine": 19596,
    "sp": 895,
    "Ġmountain": 3374,
    "Ġadvertising": 25389,
    "Ġpip": 1647,
    "Ġimm": 3962,
    "Ġdiagon": 24740,
    "Ġroofs": 16985,
    "Ġfrosted": 19802,
    "Ġsch": 13834,
    "Ġincludes": 2010,
    "prisoner": 20542,
    "Ġaffecting": 2326,
    "Ġprince": 18970,
    "Ġfortune": 4241,
    "Ġadm": 2404,
    "Ġworshipper": 25692,
    "Ġgaff": 17993,
    "inger": 6812,
    "Ġnoisy": 13317,
    "Ġpurposely": 10444,
    "Ġlooking": 2475,
    "Ġlonely": 6823,
    "Ġreluctant": 20523,
    "Ġknowingly": 18482,
    "Ġwinking": 17793,
    "rucastle": 22181,
    "Ġcampaign": 20660,
    "conceive": 16028,
    "ply": 6366,
    "Ġfrederick": 15584,
    "Ġmurmuring": 23578,
    "Ġpossess": 3205,
    "Ġpassengers": 13674,
    "Ġsubtle": 6716,
    "ep": 440,
    "foot": 9046,
    "Ġhideous": 5982,
    "Ġleaning": 5228,
    "cheer": 9436,
    "Ġpark": 5465,
    "beauty": 20102,
    "Ġmounttop": 19976,
    "ĠĠĠĠĠĠĠĠĠĠĠĠĠĠĠĠĠĠĠĠĠĠĠĠĠĠĠĠĠĠĠĠĠĠĠĠĠĠĠĠĠĠĠĠĠĠĠĠĠĠĠ": 20037,
    "unhesitatingly": 26496,
    "Ġcat": 2123,
    "ĠĠĠĠĠĠĠĠĠĠĠĠĠĠĠĠĠĠĠĠĠĠĠĠ": 5321,
    "lived": 12484,
    "ching": 5156,
    "caught": 8726,
    "Ġevery": 926,
    "Ġcatastrophic": 3543,
    "Ġchewing": 23281,
    "Ġviii": 16411,
    "Ġaffability": 14386,
    "conf": 4957,
    "disapprobation": 19155,
    "Ġknowledge": 1448,
    "abhor": 12704,
    "Ġunfortunate": 5376,
    "ophisticated": 22475,
    "Ġprincipally": 11309,
    "ellig": 522,
    "antique": 18288,
    "mitting": 17602,
    "Ġcensus": 15095,
    "perhaps": 4123,
    "worthy": 7732,
    "Ġexplain": 545,
    "burst": 10537,
    "alive": 10827,
    "Ġproves": 14038,
    "service": 15036,
    "uish": 5431,
    "Ġrecovery": 11441,
    "Ġcons": 954,
    "lying": 7174,
    "Ġtattooings": 24900,
    "promise": 12248,
    "kington": 11202,
    "night": 2169,
    "away": 4624,
    "Ā": 193,
    "ault": 2309,
    "Ġreplaced": 13070,
    "Ġspeak": 2231,
    "Ġlevels": 12695,
    "Ġunivers": 2127,
    "Ġwag": 10775,
    "Ġimpose": 22384,
    "ipping": 2210,
    "Ġirregular": 9864,
    "ox": 9133,
    "Ġmirth": 15542,
    "Ġcrisp": 12001,
    "ival": 4228,
    "Ġascended": 8665,
    "Ġsighs": 22706,
    "Ġflowery": 16232,
    "Ġexpecting": 10436,
    "Ġmeryton": 4437,
    "Ġbulky": 13227,
    "estations": 22221,
    "Ġcelest": 9900,
    "Ġrang": 9244,
    "Ġjup": 15950,
    "Ġproximity": 3219,
    "irons": 10238,
    "Ġrapture": 13495,
    "ls": 1291,
    "Ġuneasiness": 9483,
    "Ġworn": 6445,
    "Ġdangers": 12352,
    "Ġinnumerable": 13350,
    "Ġregain": 22584,
    "Ġplanisp": 24054,
    "Ġsounded": 8590,
    "Ġtemper": 956,
    "Ġspr": 4023,
    "Ġsolve": 4197,
    "ingle": 1037,
    "cially": 3491,
    "Ġspacious": 18312,
    "Ġrests": 13091,
    "Ġrage": 5110,
    "Ġcemeteries": 26375,
    "Ġgreeting": 18962,
    "Ġresounds": 22539,
    "¡": 99,
    "Ġparcels": 25465,
    "progression": 20380,
    "Ġalpine": 18105,
    "Ġsanct": 15062,
    "Ġcogent": 14273,
    "ernity": 18615,
    "Ġmerry": 5867,
    "Ġempt": 5051,
    "Ġdeposed": 16085,
    "Ġ130": 24781,
    "zening": 21147,
    "Ġentrances": 25834,
    "Ġexploding": 2110,
    "Ġpoorly": 9854,
    "Ġchiswick": 25560,
    "Ġfrighten": 13277,
    "'m": 9582,
    "ferent": 4195,
    "boiling": 19003,
    "irectly": 6940,
    "whales": 5187,
    "Ġegypt": 9678,
    "Ġscener": 10949,
    "Ġcake": 12567,
    "Ġattempts": 10490,
    "Ġpolitical": 19223,
    "Ġwhispers": 14699,
    "acetti": 13395,
    "Ġdivine": 6921,
    "iour": 4038,
    "Ġextinguish": 14338,
    "Ġinvader": 23477,
    "Ġunworth": 22033,
    "Ġinquir": 4243,
    "conduct": 11795,
    "Ġsultan": 15183,
    "hatch": 15363,
    "through": 4022,
    "omitted": 18016,
    "Ġexpiring": 16093,
    "Ġflush": 14423,
    "Ġloun": 7166,
    "Ġripe": 13233,
    "Ġbuilt": 8300,
    "shock": 19854,
    "'s": 2470,
    "ung": 2748,
    "Ġdazz": 11593,
    "vings": 9752,
    "gement": 13727,
    "Ġcompassionate": 24723,
    "Ġswamp": 14435,
    "rences": 9271,
    "Ġautonomous": 10675,
    "Ġpair": 5706,
    "eting": 7169,
    "Ġtossings": 25356,
    "unc": 15766,
    "idays": 21767,
    "Ġbarbarously": 24819,
    "Ġcontinents": 16849,
    "Ġverses": 17063,
    "Ġsufferer": 16260,
    "Ġost": 9649,
    "Ġslewed": 23381,
    "Ġhard": 1443,
    "tide": 11532,
    "Ġwhiff": 21715,
    "Ġtortures": 14922,
    "Ġrack": 9311,
    "Ġdisreputable": 22531,
    "trees": 10731,
    "travellers": 24318,
    "Ġmoreover": 6163,
    "Â·": 21148,
    "Ġshelf": 12265,
    "Ġoakum": 16934,
    "Ġvii": 13107,
    "cocks": 23559,
    "Ġtimid": 6345,
    "Ġplowdon": 26447,
    "ribs": 23361,
    "Ġstopped": 5956,
    "Ġfates": 15575,
    "Ġactive": 7914,
    "Ġface": 1721,
    "Ġsold": 6002,
    "Ġesq": 15107,
    "Ġrent": 11638,
    "Ġpoliteness": 8273,
    "hurry": 24763,
    "akened": 7415,
    "Ġdong": 17887,
    "Ġtheorem": 2328,
    "Ġdances": 10812,
    "Ġnoon": 6559,
    "Ġpeaked": 2297,
    "Ġpowdered": 24237,
    "Ġmunro": 25630,
    "Ġdistributes": 4196,
    "Ġsickness": 10538,
    "arius": 14248,
    "------": 12131,
    "Ġconditions": 8306,
    "count": 4213,
    "Ġcastaway": 16640,
    "Ġpiazza": 26450,
    "Ġsecondary": 23332,
    "Ġinestim": 15621,
    "dar": 20823,
    "baned": 17495,
    "uted": 7592,
    "Ġphiladel": 23883,
    "Ġguests": 12285,
    "Ġassume": 10515,
    "Ġarose": 7360,
    "luent": 15996,
    "tacit": 21097,
    "Ġabed": 22262,
    "Ġinstead": 2790,
    "Ġfreely": 7056,
    "alling": 6036,
    "know": 2321,
    "Ġother": 759,
    "Ġshells": 20362,
    "Ġopulent": 23627,
    "ga": 17550,
    "Ġflaw": 23010,
    "Ġcleanse": 24527,
    "isc": 6239,
    "Ġmechanis": 1192,
    "Ġchill": 11750,
    "assed": 6421,
    "Ġmontan": 22983,
    "Ġmuhammad": 26169,
    "upright": 23016,
    "quick": 6400,
    "Ġdenied": 9000,
    "rollable": 13944,
    "Ġschedu": 1822,
    "slide": 24556,
    "pooh": 18799,
    "structure": 2413,
    "Ġeach": 892,
    "themselves": 6540,
    "Ġeventually": 8616,
    "Ġwits": 15530,
    "Ġpilgrimage": 17307,
    "Ġmyself": 1456,
    "phia": 22799,
    "Ġmeanest": 12907,
    "Ġcontemptuous": 24676,
    "Ġassisting": 13257,
    "Ġbowl": 11203,
    "Ġ43": 14768,
    "Ġgap": 21596,
    "Ġgermany": 25785,
    "rious": 11687,
    "Ġstone": 4644,
    "Ġmanagement": 8192,
    "Ġconve": 5455,
    "Ġthread": 14538,
    "Ġpall": 7582,
    "Ġpartially": 13122,
    "Ġobstinate": 11336,
    "Ġmed": 3984,
    "towards": 5002,
    "saying": 8640,
    "Ġtumultuous": 10615,
    "Ġwoll": 21292,
    "Ġamusement": 8055,
    "inery": 17733,
    "Ġagreed": 7028,
    "commendation": 26348,
    "Ġnothing": 1361,
    "Ġenorm": 5302,
    "Ġharriet": 24572,
    "bear": 10314,
    "omeness": 18015,
    "Ġdiffered": 22708,
    "rods": 21535,
    "Ġrepine": 16407,
    "vishnoo": 21118,
    "man": 1052,
    "Ġexerc": 6832,
    "..": 5783,
    "Ġcontracted": 12857,
    "Ġiterate": 13198,
    "Ġlest": 6395,
    "Ġdignified": 15595,
    "Ġfive": 2838,
    "Ġruddy": 17125,
    "Ġornament": 11718,
    "even": 3836,
    "Ġsaves": 18324,
    "haz": 17564,
    "Ġgot": 2282,
    "Ġtrees": 4203,
    "Ġput": 1797,
    "ai": 2529,
    "Ġadvisable": 11442,
    "oul": 4697,
    "Ġfam": 1584,
    "Ġsheep": 10928,
    "Ġcynicism": 25771,
    "Ġdestiny": 8983,
    "Ġstage": 7389,
    "Ġinfatuated": 20533,
    "Ġbottles": 16570,
    "Ġvestibule": 13536,
    "Ġtun": 5998,
    "iple": 4804,
    "Ġche": 1761,
    "claims": 25319,
    "sold": 15425,
    "ieves": 4004,
    "respect": 6374,
    "Ġfry": 17879,
    "Ġimpregn": 26022,
    "glasses": 11215,
    "Ġpoetical": 25057,
    "Ġrather": 1493,
    "Ġfailing": 12135,
    "Ġ91": 24589,
    "Ġwides": 17788,
    "itching": 21333,
    "mises": 20977,
    "Ġdestro": 3722,
    "Ġdissolved": 18554,
    "ith": 330,
    "Ġsaturday": 6452,
    "outward": 22162,
    "Ġceiling": 7996,
    "Ġthoughtful": 16189,
    "Ġcumulative": 4211,
    "pan": 10716,
    "abomin": 15739,
    "Ġcreates": 2008,
    "Ġchapter": 2957,
    "Ġcorrespondence": 10594,
    "prim": 23808,
    "Ġdispersed": 16597,
    "oglyph": 11016,
    "first": 3931,
    "B": 38,
    "rowing": 7930,
    "Ġroast": 18455,
    "Ġimpass": 15984,
    "Ġbust": 10167,
    "tackle": 17320,
    "Ġdrinks": 24279,
    "Ġhearsed": 25039,
    "ore": 418,
    "bering": 18680,
    "eel": 11483,
    "protection": 19919,
    "Ġglued": 20587,
    "Ġacquitted": 18898,
    "Ġreject": 7386,
    "Ġnice": 6676,
    "Ġoceans": 7995,
    "Ġassu": 21894,
    "magistrate": 19862,
    "Ġprejudices": 13468,
    "fes": 20850,
    "Ġresentment": 7530,
    "Ġmouths": 7491,
    "Ġroving": 22399,
    "Ġhoops": 9386,
    "merit": 19280,
    "Ġdeclaring": 19418,
    "Ġrewarding": 13436,
    "tained": 4405,
    "Ġabsurdly": 19958,
    "Ġlancaster": 26340,
    "Ġmarlingspike": 26579,
    "Ġconsumm": 15153,
    "Ġdevious": 22729,
    "))": 1512,
    "ression": 3407,
    "Ġslashing": 23167,
    "ckles": 22086,
    "Ġacc": 567,
    "Ġunion": 6839,
    "general": 7489,
    "Ġlandau": 16417,
    "years": 6883,
    "ipelagoes": 13670,
    "Ġshapes": 14108,
    "Ġcame": 1301,
    "century": 20045,
    "ific": 489,
    "Ġincarn": 11812,
    "Ġ221": 25068,
    "Ġindies": 22948,
    "Ġprincess": 23221,
    "dearest": 11733,
    "would": 2354,
    "Ġexecution": 6927,
    "government": 25406,
    "Ġwarbling": 26168,
    "Ġdiscriminative": 4328,
    "Ġenglishmen": 19428,
    "ief": 2044,
    "Ġdoxology": 22241,
    "Ġbeh": 1802,
    "ogany": 18672,
    "Ġpleadings": 25852,
    "Ġdisquiet": 18552,
    "Ġunsavory": 20706,
    "Ġdown": 831,
    "fair": 10092,
    "odes": 18116,
    "Ġdraws": 19434,
    "Ġglistening": 12363,
    "Ġsympathetic": 17358,
    "Ġkelson": 18350,
    "ipotence": 22350,
    "Ġreproof": 24890,
    "Ġledge": 19399,
    "Ġprejudiced": 24809,
    "Ġpainter": 19167,
    "Ġdistressing": 12216,
    "ċ": 204,
    "Ġcontemplated": 13463,
    "lucas": 15150,
    "Ġnameless": 7699,
    "neural": 3069,
    "pendicular": 6499,
    "Ġpersu": 3564,
    "iscuits": 24666,
    "Ġhabitations": 24789,
    "Ġassum": 4065,
    "Ġhorizon": 6632,
    "Ġupbraided": 26528,
    "Ġchinks": 22248,
    "Ġvac": 5025,
    "itute": 9651,
    "Ġmusk": 7494,
    "Ġnarrow": 5086,
    "Ġdiscretion": 10347,
    "Ġindisc": 16225,
    "Ġlick": 21547,
    "atural": 947,
    "methodically": 20663,
    "Ġresembles": 25969,
    "Ġdif": 871,
    "Ġwhaling": 2783,
    "ected": 7872,
    "Ġtangled": 13826,
    "Ġgiven": 1621,
    "Ġrespects": 7269,
    "uend": 21100,
    "Ġuseless": 7037,
    "Ġshy": 10903,
    "Ġrains": 24340,
    "Ġcircumnavigation": 20398,
    "frightened": 17195,
    "Ġklan": 23662,
    "Ġstrat": 16087,
    "Ġbelieves": 14407,
    "signs": 16538,
    "Ġdiscovery": 5412,
    "Ġattention": 1183,
    "whaler": 20308,
    "Ġnavigators": 19762,
    "Ġhumanity": 6731,
    "Ġresentful": 24631,
    "Ġlets": 18076,
    "ready": 2363,
    "Ġdarker": 13118,
    "expectation": 14855,
    "Ġruskin": 25808,
    "Ġtorrents": 20054,
    "ibbald": 18847,
    "Ġsays": 3562,
    "Ġkrus": 18349,
    "sey": 5543,
    "drawn": 9912,
    "Ġcharlotte": 3888,
    "excited": 13379,
    "further": 7535,
    "fatal": 17088,
    "eluded": 21572,
    "Ġgamb": 17997,
    "canallers": 22966,
    "Ġaffidavit": 20723,
    "Ġelizabeth": 1129,
    "Ġcoiling": 12902,
    "Ġdecline": 9286,
    "Ġrefers": 1562,
    "ark": 849,
    "aug": 1213,
    "ographical": 16786,
    "mic": 12486,
    "nesday": 8702,
    "obst": 11930,
    "Ġmedicine": 15204,
    "Ġsprang": 5064,
    "fre": 5425,
    "Ġdam": 2218,
    "Ġdeject": 10881,
    "illa": 12790,
    "Ġdarling": 12601,
    "Ġgeneric": 18443,
    "Ġdey": 11674,
    "Ġdiligence": 17114,
    "Ġeul": 21615,
    "Ġworaciousness": 22926,
    "elijah": 19471,
    "Ġabased": 22265,
    "Ġheed": 5630,
    "Ġmal": 5221,
    "months": 9071,
    "Ġpantaloons": 20295,
    "ine": 406,
    "Ġexcessively": 9439,
    "immediately": 10048,
    "Ġmississippi": 20724,
    "Ġpray": 3898,
    "bal": 2158,
    "izens": 18135,
    "Ġpropag": 16346,
    "onsensical": 18578,
    "Ġseating": 18199,
    "Ġincensed": 18574,
    "aus": 1499,
    "Ġdisastrous": 16058,
    "cull": 20808,
    "iverer": 11714,
    "Ġcrouching": 23442,
    "past": 8089,
    "sworn": 24256,
    "Ġspotted": 12136,
    "Ġveritable": 19379,
    "D": 40,
    "Ġdecoyed": 18486,
    "stopping": 19348,
    "tube": 20409,
    "duck": 22409,
    "jam": 15370,
    "Ġincarnate": 20373,
    "Ġmanoir": 22328,
    "ids": 21760,
    "stretched": 10207,
    "==": 943,
    "impropriety": 21710,
    "Ġpoverty": 9304,
    "Ġtube": 15003,
    "mir": 20962,
    "Ġassembly": 10642,
    "companies": 24894,
    "killer": 20474,
    "sens": 8096,
    "Ġinsurmountable": 16531,
    "Ġcrocodile": 20739,
    "prehensible": 12358,
    "Ġpatroness": 13508,
    "death": 6261,
    "Ġwildly": 9413,
    "Ġhereditarily": 25224,
    "Ġaccurate": 13249,
    "knowing": 10437,
    "cook": 8269,
    "Ġw": 272,
    "Ġattacks": 12202,
    "Ġassurance": 7774,
    "subtle": 24243,
    "Ġlights": 8960,
    "pivot": 21030,
    "aring": 1476,
    "Ġlug": 15649,
    "course": 6104,
    "ivened": 22967,
    "uned": 21868,
    "Ġdouble": 4940,
    "Ġancient": 5443,
    "Ġaux": 21198,
    "Ġassertion": 13488,
    "passed": 8025,
    "_?âĢĿ": 15304,
    "Ġseeing": 2887,
    "hog": 8379,
    "thinks": 16641,
    "forks": 26387,
    "ileries": 18058,
    "Ġheedless": 14902,
    "Ġ95": 19772,
    "Ġleave": 2458,
    "atha": 6572,
    "akes": 2221,
    "Ġcalculates": 13264,
    "Ġmotives": 7486,
    "Ġguards": 16268,
    "anct": 21356,
    "Ġoversight": 22344,
    "Ġspeech": 4608,
    "Ġprecious": 5760,
    "icide": 11617,
    "Ġdinn": 23978,
    "Ġharsh": 9520,
    "orn": 2245,
    "us": 531,
    "arness": 11670,
    "Ġdoom": 6417,
    "abriel": 6950,
    "itud": 2932,
    "aswag": 21543,
    "slightest": 25416,
    "someone": 14564,
    "Ġpensive": 21473,
    "Ġencoder": 3635,
    "awake": 14451,
    "feeder": 12359,
    "Ġsplin": 8618,
    "Ġchry": 22243,
    "Ġisa": 14024,
    "Ġconceived": 8149,
    "Ġpersonally": 8598,
    "ineffectual": 26507,
    "under": 3134,
    "Ġmistaking": 23718,
    "oyed": 14364,
    "Ġtroubled": 6615,
    "Ġtransom": 22435,
    "Ġdistress": 5844,
    "Ġlamentations": 17076,
    "Ġventilator": 8713,
    "page": 13771,
    "ersed": 10259,
    "Ġelopement": 10328,
    "Ġencamp": 22795,
    "Ġsunset": 8962,
    "âĢĿâĢĶ": 5721,
    "otent": 8831,
    "Ġmarvell": 7248,
    "ctuous": 9205,
    "Ġbizarre": 17871,
    "prosper": 19100,
    "Ġnash": 5819,
    "Ġknows": 4162,
    "Ġillinois": 19136,
    "Ġdined": 9176,
    "aborate": 14021,
    "pet": 4866,
    "heaving": 21206,
    "tossing": 18582,
    "privilege": 25263,
    "Ġrich": 2993,
    "Ġours": 4610,
    "Ġnarrower": 24354,
    "hated": 17561,
    "Ġresented": 22540,
    "ordered": 8789,
    "Ġvib": 8164,
    "Ġthem": 641,
    "Ġhonestly": 19970,
    "Ġdrowsy": 26444,
    "spade": 10339,
    "Ġcertainly": 2501,
    "draul": 9442,
    "Ġrobins": 16234,
    "Ġderiv": 1735,
    "way": 765,
    "Ġbond": 21382,
    "whalers": 17263,
    "Ġcrowd": 6336,
    "Ġtenth": 13824,
    "tumbled": 21089,
    "Ġconvalescence": 23745,
    "Ġcollar": 11877,
    "Ġdelic": 4136,
    "Ġtide": 6658,
    "Ġremoved": 5274,
    "longing": 23725,
    "Ġslumbering": 25701,
    "unciation": 25982,
    "fingers": 17369,
    "Ġshoulders": 5566,
    "shall": 4548,
    "xology": 21140,
    "Ġh": 290,
    "Ġjapan": 7639,
    "Ġgrizz": 10351,
    "Ġmemorand": 23403,
    "opolising": 25676,
    "Ġanchor": 7368,
    "Ġdri": 2366,
    "Ġrush": 5924,
    "Ġbroken": 3450,
    "supposed": 13314,
    "Ġthick": 3782,
    "urns": 10213,
    "Ġdepended": 9776,
    "Ġswearing": 16464,
    "Ġinsertion": 26343,
    "Ġgloss": 11958,
    "Ġgive": 1711,
    "~": 98,
    "searching": 25103,
    "Ġatrocious": 21940,
    "Ġhorn": 6185,
    "fug": 17543,
    "urable": 8922,
    "Ġclosing": 11772,
    "Ġunsub": 22020,
    "dataset": 23247,
    "Ġresc": 4505,
    "(-": 2980,
    "Ġlaid": 3938,
    "Ġspots": 11728,
    "Ġxxiv": 24477,
    "Ġpurely": 12229,
    "Ġextravagance": 17279,
    "southern": 20407,
    "ture": 7558,
    "Ġcelebrate": 26357,
    "um": 454,
    "Ġready": 3400,
    "pret": 7212,
    "retion": 9361,
    "Ġfriendship": 7246,
    "Ġwhelmed": 25999,
    "Ġexhausted": 8693,
    "prot": 6898,
    "servant": 15035,
    "Ġserves": 4667,
    "theories": 18078,
    "Ġtranquill": 6630,
    "ourably": 14376,
    "Ġdrug": 11410,
    "underneath": 23787,
    "infallibly": 26417,
    "ww": 10737,
    "news": 23131,
    "Ġspermaceti": 8967,
    "Ġduly": 13349,
    "Ġincoherent": 17399,
    "Ġbegins": 7244,
    "Ġfact": 1727,
    "Ġsulk": 15045,
    "Ġlaure": 16909,
    "scenes": 16244,
    "Ġlull": 15648,
    "Ġenraged": 10244,
    "fishers": 24928,
    "Ġproperly": 7944,
    "Ġshaster": 21995,
    "etw": 408,
    "Ġcorrupt": 11921,
    "Ġpaltry": 16692,
    "fare": 7798,
    "black": 6768,
    "Ġrise": 5637,
    "Ġbrag": 23831,
    "Ġweb": 9239,
    "Ġfancy": 3746,
    "Ġrestlessness": 23288,
    "Ġterr": 3275,
    "Ġendangered": 16302,
    "Ġkindling": 19028,
    "Ġgnawed": 25164,
    "fal": 17536,
    "Ġpea": 14316,
    "Ġtub": 7146,
    "Ġgenial": 12192,
    "Ġformality": 22826,
    "Ġmodified": 14166,
    "Ġsubt": 11866,
    "Ġlaugh": 4114,
    "completely": 12418,
    "ceptible": 10962,
    "Ġbelf": 21379,
    "Ġinsignificance": 20456,
    "pencil": 18828,
    "iag": 20915,
    "found": 4214,
    "Ġcedars": 20291,
    "Ġsnapping": 19299,
    "Ġnobleman": 19390,
    "partiality": 13159,
    "pro": 2049,
    "Ġbenjamin": 26567,
    "Ġcontentment": 14869,
    "Ġcork": 12566,
    "Ġcott": 3709,
    "Ġstung": 21736,
    "ollen": 11298,
    "Ġcommotion": 9779,
    "Ġeduc": 4783,
    "sho": 6425,
    "Ġtastes": 15476,
    "Ġmeth": 1420,
    "Ġadvised": 16206,
    "cheerfulness": 20179,
    "Ġfifth": 11257,
    "Ġerection": 23998,
    "supp": 4165,
    "asper": 7854,
    "Ġlany": 21551,
    "assuming": 22307,
    "Ġocc": 888,
    "Ġlulled": 17968,
    "allows": 15905,
    "Ġbutton": 10267,
    "orers": 14102,
    "Ġconscious": 7743,
    "Ġindulging": 16904,
    "Ġtables": 9877,
    "raltar": 24233,
    "thes": 7391,
    "Ġtest": 1567,
    "Ġdocile": 19957,
    "Ġwomen": 4748,
    "burnt": 20078,
    "iliating": 12692,
    "Ġfaith": 5350,
    "down": 3471,
    "Ġwar": 5526,
    "Ġheaving": 7600,
    "ensions": 14260,
    "Ġconversed": 13185,
    "elop": 1526,
    "Ġpar": 456,
    "Ġnormal": 1203,
    "ove": 1741,
    "ons": 709,
    "Ġfortnight": 6200,
    "arr": 3047,
    "Ġdeserved": 7736,
    "Ġain": 6969,
    "Ġstairs": 5541,
    "example": 16011,
    "Ġdist": 676,
    "Ġharvest": 13414,
    "Ġborn": 5224,
    "Ġ98": 24593,
    "omely": 21636,
    "Ġpyramids": 15113,
    "linging": 16076,
    "Ġincalcul": 16061,
    "Ġbarrier": 16569,
    "Ġhoe": 23347,
    "Ġwed": 3957,
    "Ġalph": 9694,
    "bow": 5424,
    "omorrah": 18017,
    "Ġbeaten": 10528,
    "dimly": 15345,
    "Ġcorre": 3886,
    "half": 4931,
    "ushing": 5730,
    "Ġavalanche": 17432,
    "Ġleghorn": 13145,
    "procure": 23393,
    "Ġconfidence": 6590,
    "Ġporter": 15608,
    "Ġswimmer": 19457,
    "deeply": 16170,
    "driven": 19770,
    "div": 8075,
    "whispering": 26103,
    "ier": 1137,
    "mission": 5969,
    "Ġembeddings": 2190,
    "Ġcoloured": 11044,
    "Ġthreats": 13376,
    "arches": 10816,
    "arcy": 1276,
    "ites": 3897,
    "Ġshovel": 23489,
    "Ġwhether": 1999,
    "Ĵ": 245,
    "Ġunra": 18237,
    "mastod": 23971,
    "Ġinhabited": 12183,
    "Ġstead": 5650,
    "Ġexord": 21824,
    "Ġequal": 4137,
    "knight": 20939,
    "Ġscotland": 6639,
    "Ġtwopence": 18660,
    "Ġindignity": 18833,
    "Ġvessel": 3798,
    "Ġremembrance": 8317,
    "Ġgrand": 3594,
    "âĢĺ": 939,
    "Ġstepped": 7051,
    "Ġowned": 11874,
    "meant": 7920,
    "featured": 24087,
    "Ġscents": 22284,
    "Ġpitched": 9443,
    "Ġdenying": 14658,
    "Ġtasted": 12526,
    "Ġwrong": 4722,
    "Ġtubs": 11370,
    "izarre": 17388,
    "Ġinvolving": 18771,
    "Ġlearning": 388,
    "Ġpoetry": 15079,
    "social": 11022,
    "Ġblock": 2578,
    "arrival": 15597,
    "Ġyaw": 18094,
    "far": 5787,
    "Ġrelate": 6875,
    "Ġbeef": 6830,
    "Ġwakes": 11571,
    "Ġswift": 3668,
    "Ġmagnified": 23200,
    "afford": 14654,
    "Ġvolcanoes": 24146,
    "Ġbestow": 6455,
    "(": 12,
    "Ġsubdiv": 16155,
    "Ġbuckler": 24859,
    "Ġgaining": 9491,
    "ifers": 15779,
    "wer": 8394,
    "iard": 9601,
    "shortly": 12256,
    "aret": 7417,
    "Ġvia": 2385,
    "Ġrepeat": 7999,
    "Ġbenevolent": 7772,
    "Ġhonoured": 9880,
    "Ġlogger": 11952,
    "Ġlawless": 19433,
    "Ġdisclose": 16152,
    "Ġpoland": 23616,
    "shrouded": 26361,
    "Ġsoutherly": 23328,
    "charlotte": 6473,
    "explain": 1480,
    "Ġkirwin": 8496,
    "Ġunmo": 12770,
    "into": 3680,
    "Ġcharley": 19008,
    "flow": 2086,
    "Ġadequately": 15197,
    "draught": 12087,
    "queg": 1769,
    "burn": 8370,
    "Ġwindigate": 18910,
    "Ġmeasured": 9803,
    "fainting": 20471,
    "Ġintercourse": 10999,
    "Ġperplex": 2717,
    "Ġem": 1922,
    "Ġsuggested": 8320,
    "Ġrenewal": 12232,
    "cool": 19188,
    "Ġtwitch": 22673,
    "minute": 11274,
    "Ġwhitened": 24867,
    "Ġthrice": 10575,
    "omon": 10206,
    "Ġstumble": 26482,
    "fellow": 6792,
    "Ġbrit": 6289,
    "Ġcourtesy": 9944,
    "Ġpyramid": 8801,
    "Ġsuccessive": 10500,
    "charming": 15703,
    "Ġinvade": 19142,
    "finding": 17013,
    "Ġoffspring": 16143,
    "commod": 16168,
    "Ġassures": 14464,
    "active": 16101,
    "Ġ184": 16607,
    "ached": 2324,
    "Ġcrew": 2500,
    "Ġrobberies": 22971,
    "braces": 24658,
    "Ġspoil": 17007,
    "method": 17284,
    "cham": 10853,
    "rength": 4102,
    "moments": 19410,
    "accustomed": 13156,
    "priv": 9619,
    "Ġinsect": 12633,
    "modern": 1164,
    "giving": 8738,
    "Ġubiquitous": 26195,
    "Ġaccomplishment": 19664,
    "Ġmeant": 3551,
    "Ġapprove": 12870,
    "oned": 4629,
    "Ġstructures": 2722,
    "Ġdemon": 7868,
    "asant": 17958,
    "Ġceaseless": 13487,
    "Ġhunts": 23155,
    "coat": 5407,
    "easily": 17534,
    "import": 5668,
    "skeleton": 17375,
    "shortened": 24748,
    "ctor": 13959,
    "âĢĿ;": 11669,
    "Ġdevoured": 16138,
    "Ġarrow": 10931,
    "Ġawaited": 17074,
    "hills": 13735,
    "gument": 20884,
    "brevi": 24071,
    "Ġplaything": 19237,
    "hullo": 17570,
    "appl": 9325,
    "Ġhemis": 21681,
    "itates": 13868,
    "Ġjost": 23629,
    "riv": 3112,
    "other": 1317,
    "Ġentreaties": 9035,
    "Ġemphasis": 20535,
    "Ġdistraction": 22502,
    "Ġserenely": 13506,
    "Ġleads": 12094,
    "Ġcash": 9652,
    "Ġincomplete": 17208,
    "Ġlub": 15646,
    "Ġcommissionaire": 17000,
    "rudence": 7092,
    "Ġangular": 19207,
    "Ġenormousness": 24515,
    "Ġfalls": 14644,
    "Ġlearnable": 3993,
    "Ġprematurely": 24003,
    "ĠĠĠĠĠĠĠĠĠĠĠĠĠĠĠĠĠĠĠĠĠĠĠĠĠĠĠĠĠĠĠĠĠĠĠĠĠĠĠĠĠĠĠĠĠĠ": 9952,
    "Ġlayer": 1011,
    "Ġaccount": 2323,
    "Ġmankind": 6698,
    "Ġplausible": 26553,
    "hanging": 10100,
    "ficial": 17548,
    "especially": 3574,
    "Ġchurned": 18385,
    "Ġdistributed": 18661,
    "nur": 11505,
    "Ġmerit": 9426,
    "Ġreciproc": 20619,
    "Ġvic": 5237,
    "Ġvacantly": 16815,
    "ufact": 10733,
    "heaven": 8052,
    "ization": 486,
    "Ġincarnation": 25573,
    "bbing": 6323,
    "nearly": 8680,
    "objects": 13469,
    "Ġhunch": 18934,
    "Ġunexampled": 20358,
    "Ġlasted": 11053,
    "acy": 3951,
    "weaknesses": 26030,
    "Ġnewfoundland": 26569,
    "Ġbaron": 19333,
    "andering": 21864,
    "Ġsurgeon": 8981,
    "te": 996,
    "one": 615,
    "Ġredeemed": 25789,
    "Ġethere": 23948,
    "Ġtempt": 5565,
    "Ġdiscoverers": 26036,
    "Ġmotionless": 8323,
    "Ġcongratulations": 10580,
    "Ġrearing": 12674,
    "Ġsphere": 15881,
    "permitted": 18340,
    "Ġglobal": 2372,
    "Ġdropout": 1556,
    "Ġfireside": 23530,
    "Ġnation": 12644,
    "december": 25558,
    "50": 6784,
    "ateral": 19375,
    "Ġspecial": 2103,
    "Ġanalogical": 25640,
    "Ġasia": 11681,
    "Ġgazes": 24092,
    "designated": 26295,
    "born": 7543,
    "Ġfamed": 16325,
    "rogress": 21533,
    "owner": 18610,
    "Ġprotracted": 19467,
    "Ġpur": 2219,
    "Ġwhere": 783,
    "Ġhasty": 10477,
    "erred": 6376,
    "Ġpatiently": 19917,
    "friendly": 13283,
    "message": 17371,
    "Ġsteer": 10386,
    "unct": 18154,
    "solved": 7684,
    "orange": 21398,
    "Ġsecured": 6745,
    "disaster": 23491,
    "Ġblessings": 24176,
    "move": 11852,
    "Ġagency": 11803,
    "Ġextend": 18695,
    "brad": 20780,
    "Ġdefiance": 11068,
    "contempl": 13188,
    "Ġdisgrace": 7215,
    "Ġcomputes": 4766,
    "Ġawa": 7713,
    "Ù": 154,
    "Ġaw": 2513,
    "ineering": 21978,
    "Ġsuperb": 16444,
    "damp": 15342,
    "Ġrevolut": 3259,
    "Ġarter": 22185,
    "Ġtak": 15468,
    "Ġwhich": 502,
    "very": 499,
    "Ġcomprehensive": 15086,
    "Ġtener": 21162,
    "Ġinherited": 25353,
    "onsense": 6431,
    "Ġensure": 23687,
    "Ġpipeline": 2488,
    "Ġsupplement": 23002,
    "Ġcand": 3278,
    "Ġvictim": 6097,
    "Ġseaman": 8638,
    "orious": 6007,
    "Ġimpassable": 20611,
    "Ġrare": 7036,
    "somebody": 14565,
    "Ġundulates": 24118,
    "stood": 4117,
    "Ġsoliloqu": 11883,
    "Ġdiving": 12598,
    "bodily": 17314,
    "Ġwife": 2590,
    "Ġindications": 14631,
    "Ġgoug": 17990,
    "gigantic": 15358,
    "Ġalike": 8146,
    "ced": 695,
    "Ġpredecessor": 26253,
    "accepting": 20134,
    "bastian": 10673,
    "Ġtemporary": 7980,
    "cop": 20800,
    "Ġembalmed": 13655,
    "Ġhospit": 7514,
    "excitement": 19668,
    "Ġspam": 7630,
    "ction": 501,
    "Ġunfav": 14787,
    "Ġbooks": 4674,
    "worse": 14690,
    "Ġsimilarity": 3170,
    "abounding": 25979,
    "Ġsleepers": 13148,
    "Ġminus": 18749,
    "Ġbliss": 12998,
    "namely": 23661,
    "Ġrested": 9377,
    "Ġpromethe": 14466,
    "himself": 3968,
    "ython": 1028,
    "Ġlightly": 13082,
    "Ġsplendidly": 25327,
    "daugh": 6788,
    "Ġpuzzled": 7317,
    "Ġpeering": 8534,
    "shore": 10306,
    "trick": 19411,
    "uttle": 6247,
    "Ġpassages": 12967,
    "Ġspite": 4158,
    "Ġsumat": 14129,
    "Ġcour": 1767,
    "Ġaffinity": 18788,
    "Ġepoch": 26471,
    "sorrow": 12506,
    "dler": 13705,
    "Ġsharpen": 13568,
    "Ġargosy": 24273,
    "Ġruinous": 24633,
    "Ġprophecy": 25706,
    "Ġcharacteristically": 23690,
    "Ġkicks": 19767,
    "Ġstraggling": 23749,
    "forced": 11031,
    "masts": 19423,
    "adow": 18087,
    "Ġpunctually": 17138,
    "Ġdescription": 7429,
    "irect": 5553,
    "ī": 236,
    "Ġazores": 20192,
    "Ġpotent": 12060,
    "Ġblush": 14401,
    "vial": 17697,
    "Ġeclipsed": 26376,
    "trivial": 21091,
    "Ġstroll": 13351,
    "Ġ1950": 11359,
    "Ġcracked": 8593,
    "transformer": 25015,
    "rimsh": 17027,
    "Ġlist": 2368,
    "yrin": 12519,
    "Ġraptures": 13496,
    "which": 1707,
    "Ġdesolation": 12266,
    "Ġunlike": 7004,
    "Ġst": 332,
    "vius": 23540,
    "unpardonable": 21887,
    "mortal": 10112,
    "Ġexists": 14037,
    "Ġconfident": 11138,
    "Ġquadr": 8199,
    "etics": 21578,
    "up": 1284,
    "Ġspeechless": 13352,
    "Ġalbert": 12703,
    "Ġreiterating": 26474,
    "adieu": 26200,
    "confl": 22468,
    "solitude": 23292,
    "Ġinquest": 16546,
    "Ġknew": 2054,
    "inion": 2878,
    "shown": 22455,
    "Ġhoary": 23350,
    "Ġconversation": 3331,
    "Ġfugitives": 25634,
    "Ġsmothered": 20719,
    "aution": 9385,
    "iate": 6505,
    "nne": 20988,
    "Ġkrusen": 20713,
    "Ġdecisions": 6702,
    "Ġpersistence": 3234,
    "copyright": 5277,
    "Ġsouth": 4909,
    "Ġdrab": 13069,
    "aped": 3765,
    "fill": 15349,
    "Ġgarn": 13962,
    "Ġchoice": 2167,
    "thar": 18217,
    "score": 18857,
    "vii": 13147,
    "thoughts": 9934,
    "Ġcuff": 17829,
    "Ġovertook": 18423,
    "Ġdispleasure": 16050,
    "Ġmizzen": 20288,
    "blown": 25201,
    "why": 2831,
    "Ġfle": 3094,
    "erie": 21269,
    "Ġbrushed": 15568,
    "engagements": 25853,
    "Ġdevelop": 1675,
    "Ġauxiliary": 26418,
    "Ġleviathan": 3290,
    "Ġslim": 18936,
    "arms": 10173,
    "Ġvigorous": 10566,
    "hatchet": 24822,
    "cures": 20804,
    "oses": 3943,
    "Ġchurches": 12825,
    "insufferable": 21191,
    "Ġhelper": 24023,
    "kempt": 20940,
    "yarn": 15456,
    "chants": 21689,
    "movable": 14323,
    "gradu": 18616,
    "Ġdisappeared": 5645,
    "Ġbruised": 25772,
    "ivance": 22075,
    "tent": 21063,
    "Ġhe": 318,
    "Ġ[": 6967,
    "izer": 2029,
    "Ġobjectionable": 16991,
    "Ġre": 317,
    "Ġlost": 2638,
    "Ġjack": 4651,
    "Ġspies": 22126,
    "simultaneously": 19863,
    "locked": 7677,
    "merchant": 10467,
    "Ġstared": 8454,
    "urrection": 12407,
    "Ġfibres": 12948,
    "Ġimputation": 22169,
    "Ġluck": 4879,
    "ach": 435,
    "Ġconference": 15744,
    "Ġtrample": 20326,
    "Ġcounterpane": 11343,
    "Ġpillar": 21471,
    "Ġciv": 3310,
    "Ġcosmopol": 16455,
    "Ġpaused": 5416,
    "rates": 21037,
    "Ġjan": 11760,
    "lodged": 25907,
    "iliary": 21723,
    "Ġfully": 6342,
    "visits": 24223,
    "Ġlargest": 6282,
    "canoes": 16230,
    "Ġassociated": 12247,
    "Ġsphynx": 20711,
    "Ġjavelin": 26104,
    "?--": 15302,
    "ubines": 22961,
    "quee": 4132,
    "dropout": 3198,
    "?âĢĻ": 2643,
    "Ġhiss": 15785,
    "Ġactually": 5389,
    "labour": 23912,
    "bath": 13688,
    "Ġgifts": 21609,
    "Ġreprehensible": 15696,
    "Ġminers": 22829,
    "Ġpleasing": 6190,
    "Ġrenders": 13282,
    "cake": 20803,
    "ichever": 13956,
    "needle": 20309,
    "rints": 12500,
    "Ġimmediately": 3368,
    "Ġminuteness": 19138,
    "Ġweig": 7618,
    "inople": 13828,
    "Ġscared": 14189,
    "Ġpolic": 13160,
    "ÿ": 192,
    "Ġarve": 15900,
    "Ġstupendous": 20499,
    "otion": 4946,
    "happen": 19330,
    "Ġrespecting": 14483,
    "anque": 13887,
    "S": 55,
    "Ġshaded": 14104,
    "Ġcheerily": 13306,
    "Ġheedfully": 24521,
    "female": 20665,
    "Ġpra": 4347,
    "Ġcut": 2644,
    "Ġcreations": 18683,
    "Ġdaboll": 25950,
    "cooper": 19190,
    "Ġpeev": 22690,
    "Ġunanswerable": 26521,
    "Ġabst": 9265,
    "Ġxv": 23405,
    "Ġdescent": 990,
    "Ġlivelihood": 24774,
    "orial": 8416,
    "26": 10072,
    "pract": 10119,
    "Ġextensive": 12943,
    "zors": 21146,
    "Ġexped": 7650,
    "Ġinsc": 7585,
    "Ġ15": 9323,
    "Ġhartshorn": 26180,
    "fool": 9047,
    "lux": 14225,
    "true": 2588,
    "Ġcommonest": 23087,
    "abama": 12706,
    "time": 3149,
    "Ġblasphemy": 26115,
    "Ġoxford": 11371,
    "smith": 5669,
    "Ġunw": 8849,
    "Ġsm": 705,
    "Ġsequentially": 4914,
    "bod": 12435,
    "destroy": 19509,
    "Ġsummits": 14683,
    "alot": 15623,
    "itioned": 22452,
    "uger": 21102,
    "Ġnecks": 18179,
    "Ġabound": 8863,
    "Ġraise": 6166,
    "influ": 9540,
    "tried": 13793,
    "resist": 8275,
    "Ġcherry": 16935,
    "Ġran": 3344,
    "pol": 5892,
    "Ġfewer": 16229,
    "Ġdoctor": 5067,
    "roqu": 21531,
    "Ġarise": 7895,
    "Ġ&": 6513,
    "Ġscaling": 3632,
    "congreg": 25398,
    "Ġbreathe": 9011,
    "Ġjurors": 17343,
    "Ġenem": 4706,
    "Ġofficially": 24838,
    "roots": 15640,
    "Ġinterior": 8895,
    "Ġaffectionate": 5585,
    "ield": 2410,
    "script": 11078,
    "mselves": 2863,
    "dissatisf": 26129,
    "Ġengrossed": 12994,
    "penetrate": 20323,
    "Ġexceedingly": 4612,
    "Ġprevail": 13441,
    "Ġcrowned": 16841,
    "Ġwhatever": 3475,
    "Ġdivin": 13272,
    "crat": 24097,
    "trying": 15437,
    "opy": 4457,
    "brimmed": 14588,
    "nered": 18488,
    "leaning": 10790,
    "Ġmonths": 3457,
    "Ġsmack": 9300,
    "rossed": 11012,
    "Ġnapole": 15114,
    "dreaded": 25138,
    "Ġnur": 5710,
    "Ġregarded": 5762,
    "Ġneeded": 7717,
    "inable": 11555,
    "branch": 23576,
    "Ġforeb": 12002,
    "Ġstepmother": 16089,
    "orrah": 17875,
    "Ġjuncture": 17129,
    "Ġstepfather": 7222,
    "Ġman": 544,
    "ph": 967,
    "reed": 6373,
    "removing": 17764,
    "Ġtrooped": 24899,
    "Ġdeftly": 26493,
    "widely": 25343,
    "lement": 10166,
    "Ġindulged": 13416,
    "means": 9785,
    "Ġunhing": 18241,
    "Ġinsupportable": 13931,
    "Ġnaturalists": 10362,
    "Ġarrest": 7409,
    "Ġwoke": 21288,
    "Ġseparate": 5778,
    "harbors": 20147,
    "Ġexcessive": 3890,
    "geese": 22363,
    "Ġtrowsers": 9627,
    "depend": 9112,
    "Ġknown": 1636,
    "cele": 21622,
    "Ġcapacity": 10440,
    "Ġaddressing": 11164,
    "Ġguardianship": 17419,
    "imprudent": 14651,
    "hearing": 8402,
    "meet": 11854,
    "Ġcontrol": 13078,
    "solut": 3365,
    "cou": 13694,
    "dued": 7908,
    "Ġamidst": 9493,
    "veh": 12676,
    "Ġgardiners": 11157,
    "science": 11909,
    "Ġpoisoned": 24886,
    "oss": 10115,
    "ipper": 13739,
    "Ġdimin": 3870,
    "lads": 20954,
    "quality": 10232,
    "stay": 9680,
    "esty": 4307,
    "Ġdumplings": 15189,
    "Ġremarked": 3696,
    "Ġfinancial": 23127,
    "Ġ48": 24078,
    "confess": 12173,
    "rowsers": 8694,
    "ort": 525,
    "Ġtyp": 1130,
    "reflect": 19864,
    "Ġmortified": 14694,
    "Ġalternative": 19985,
    "offered": 14515,
    "Ġarguing": 25470,
    "Ġdevil": 3613,
    "Ġknot": 7011,
    "_âĢĶâĢĻ": 13681,
    "Ġfriday": 14489,
    "mical": 9128,
    "Ġcode": 1720,
    "Ġkins": 22191,
    "Ġmethodically": 23111,
    "Ġgobern": 22422,
    "Ġoppressed": 11189,
    "Ġderives": 16306,
    "Ġforster": 5230,
    "thumb": 18218,
    "atics": 15521,
    "Ġdistur": 5312,
    "dense": 18713,
    "flutterings": 26606,
    "wise": 2577,
    "formal": 14167,
    "Ġterribly": 10425,
    "semic": 21818,
    "Ġca": 21337,
    "dashing": 20835,
    "Ġscorch": 20065,
    "Ġconstit": 8582,
    "Ġuncontrollable": 25814,
    "dling": 9111,
    "cape": 13696,
    "binnacle": 20786,
    "7": 27,
    "Ġfeasts": 25369,
    "Ġpresided": 20206,
    "Ġimpertinent": 9077,
    "Ġalien": 14017,
    "Ġmaximizing": 3172,
    "Ġoffering": 3008,
    "Ġwavering": 23402,
    "Ġassid": 18944,
    "Ġmermaid": 17813,
    "Ġsnugness": 20075,
    "ondescript": 22914,
    "zar": 11547,
    "access": 11180,
    "Ġjura": 14192,
    "Ġimpenet": 14221,
    "Ġfoam": 6891,
    "Ġagonising": 25373,
    "Ġunfrequent": 24109,
    "ressing": 8918,
    "arding": 22153,
    "Ġshepherd": 14153,
    "chosen": 21692,
    "Ġlicence": 25096,
    "Ġfaithful": 9502,
    "classification": 4387,
    "chel": 11207,
    "Ġlaws": 8002,
    "Ġdisagreeable": 9297,
    "cils": 20814,
    "Ġpointed": 4771,
    "yra": 8102,
    "Ġarmed": 9259,
    "ravity": 21632,
    "Ġindoors": 18836,
    "Ġwaifing": 25244,
    "Ġinstrum": 6054,
    "Ġhusbands": 16642,
    "garet": 9597,
    "Ġremoter": 20104,
    "footed": 19688,
    "cor": 5520,
    "Ġneedles": 11184,
    "forecastle": 10990,
    "Ġdisobedience": 22532,
    "though": 2118,
    "Ġpasseng": 12968,
    "ously": 2495,
    "Ġappalling": 8499,
    "Ġselect": 3996,
    "Ġresting": 7962,
    "impatient": 13639,
    "Ġtropic": 17064,
    "ogr": 18670,
    "Ġmuffled": 10640,
    "Ġsolar": 22880,
    "daw": 17522,
    "Ġcyn": 13885,
    "iss": 2178,
    "Ġrivals": 20270,
    "Ġwhistle": 9065,
    "Ġobsequ": 14319,
    "Ġwhites": 21714,
    "Ġconsumed": 10349,
    "Ġoutline": 15952,
    "Ġwrecked": 9965,
    "Ġ$": 21149,
    "Ġprevailing": 24673,
    "Ġfaulty": 14906,
    "itt": 571,
    "ana": 15556,
    "Ġawe": 7147,
    "Ġcopied": 20006,
    "Ġsom": 1277,
    "Ġgretna": 26468,
    "Ġjudges": 14685,
    "Ġactionable": 24559,
    "datasets": 11953,
    "Ġcrib": 21346,
    "Ġperplexed": 23660,
    "Ġregrets": 18600,
    "Ġdeclaration": 16636,
    "Ġgoble": 14229,
    "Ġdoubt": 2225,
    "throughout": 24084,
    "Ġbeard": 11654,
    "aging": 2241,
    "Ġgar": 10838,
    "odox": 21808,
    "Ġdrawback": 23987,
    "Ġbuy": 8299,
    "Ġadaptation": 3158,
    "Ġmuch": 922,
    "Ġsuperlative": 26074,
    "play": 5099,
    "Ġjoking": 12834,
    "elly": 17979,
    "Ġbitterest": 12400,
    "Ġloafer": 18299,
    "operations": 19973,
    "required": 17030,
    "least": 8784,
    "ogrand": 26261,
    "crooked": 25746,
    "Ġcomp": 724,
    "istics": 1625,
    "Ġcanal": 8180,
    "Ġeleven": 9388,
    "Ġminutes": 3000,
    "Ġwhiting": 10859,
    "Ġmelbourne": 24289,
    "Ġpreternatural": 12820,
    "Ġinducement": 16843,
    "truth": 9918,
    "ential": 826,
    "mud": 20970,
    "isbury": 21375,
    "iven": 1236,
    "pronounce": 25192,
    "Ġdomineering": 23646,
    "Ġanother": 1736,
    "¨": 106,
    "Ġprefer": 6416,
    "Ġangelic": 19626,
    "Ġguide": 3216,
    "Ġquit": 5246,
    "mad": 5280,
    "indifference": 15980,
    "Ġimpenetrable": 17397,
    "Ġhan": 15615,
    "insurance": 18887,
    "tured": 13794,
    "couldn": 23717,
    "Ġstomach": 11652,
    "inously": 21185,
    "Ġware": 12551,
    "Ġfurnished": 6475,
    "Ġfrankenstein": 7095,
    "levi": 7047,
    "Ġgrenadier": 21613,
    "Ġbathing": 20198,
    "!--": 10677,
    "Ġimmutable": 17357,
    "umbent": 12093,
    "Ġscalding": 16333,
    "rug": 18341,
    "Ġexception": 11216,
    "Ġimpaling": 22385,
    "Ġmol": 12558,
    "four": 6113,
    "Ġbegone": 11916,
    "Ġpassion": 4555,
    "Ġincline": 18572,
    "Ġastronomy": 25926,
    "aks": 8506,
    "Ġdesires": 9456,
    "Ġworkman": 16253,
    "foam": 24418,
    "Ġomitted": 12561,
    "Ġnarrations": 24352,
    "Ġarrival": 4729,
    "acknowledging": 25476,
    "conversations": 24749,
    "Ġlaying": 7907,
    "Ġoffended": 7040,
    "Ġcrazy": 8592,
    "Ġsuperiority": 14616,
    "Ġmeddling": 24080,
    "mutually": 26136,
    "Ġaid": 6122,
    "Ġbeggars": 20628,
    "ishment": 3506,
    ";âĢĿ": 7790,
    "Ġreflecting": 24751,
    "Ġyoked": 15732,
    "Ġ181": 23892,
    "Ġsleeping": 6319,
    "Ġcoffee": 6760,
    "Ġmoccas": 22433,
    "osite": 4892,
    "Ġon": 352,
    "Ġhowled": 12852,
    "Ġfuneral": 10283,
    "Ġrushed": 4089,
    "ckinridge": 11717,
    "Ġwilson": 6629,
    "lp": 900,
    "Ġrocky": 13386,
    "Ġankers": 21443,
    "ĠĠĠĠĠĠĠĠĠĠĠĠĠĠĠĠĠĠĠĠĠĠĠĠĠĠĠĠĠ": 19698,
    "becoming": 18516,
    "disgust": 23494,
    "restored": 18978,
    "Ġinsects": 25646,
    "Ġsnatching": 10472,
    "Ġbellies": 13354,
    "ositions": 10282,
    "Ġsucking": 12782,
    "Ġhollow": 5648,
    "Ġfinal": 5400,
    "aly": 1069,
    "Ġsto": 1498,
    "pect": 1257,
    "Ġspitz": 14148,
    "lesome": 12962,
    "Ġbask": 8116,
    "Ġmisgivings": 15290,
    "Ġextracts": 9364,
    "Ġadhes": 22100,
    "eping": 5833,
    "Ġvegetables": 15220,
    "Ġcigarette": 20655,
    "Ġflogged": 23623,
    "Ġbre": 1913,
    "Ġplaying": 6909,
    "Ġdollars": 11455,
    "Ġdishonoured": 20389,
    "Ġsemicirc": 16387,
    "illed": 2627,
    "Ġfr": 1696,
    "Ġjohn": 5032,
    "Ġtig": 13812,
    "Ġconspicuous": 13602,
    "Ġtow": 4395,
    "Ġslugg": 15267,
    "truck": 15440,
    "Ġremainder": 9857,
    "consequential": 26249,
    "imming": 9686,
    "Ġcultured": 25154,
    "uarded": 21104,
    "Ġforg": 3787,
    "Ġsucceeding": 16761,
    "convolutional": 4958,
    "reen": 21230,
    "Ġamput": 16031,
    "Ġbare": 6132,
    "Ġturned": 2135,
    "whose": 6852,
    "Ġhousekeeper": 7456,
    "deceit": 25556,
    "Ġsoftly": 7947,
    "isted": 3301,
    "Ġniag": 21527,
    "ishop": 9741,
    "Ġfullest": 14813,
    "Ġhateful": 19712,
    "Ġconsented": 11295,
    "flutter": 23968,
    "Ġafford": 4366,
    "Ġanticipatingly": 26102,
    "Ġnarr": 5085,
    "Ġexhibit": 14955,
    "aying": 15747,
    "begged": 18517,
    "iarity": 8743,
    "Ġriddle": 14819,
    "Ġhours": 2821,
    "utherland": 9578,
    "Ġsea": 1209,
    "Ġevanesc": 24294,
    "historical": 20464,
    "ody": 1478,
    "Ġshalt": 18230,
    "Ġmeditations": 25013,
    "Ġblasphe": 17406,
    "Ġdemoniac": 15063,
    "unnecessary": 21877,
    "Ġplug": 17147,
    "Ġgrosvenor": 17417,
    "Ġforbade": 15213,
    "Ġsummoned": 9910,
    "tr": 3581,
    "Ġdepressed": 10883,
    "Ġportent": 12079,
    "activation": 3231,
    "Ġremember": 2680,
    "Ġlubber": 17443,
    "hen": 3519,
    "Ġabund": 8864,
    "expose": 23664,
    "Ġrelapses": 26278,
    "ships": 5486,
    "Ġprim": 8243,
    "blows": 17165,
    "inserted": 18886,
    "Ġcalam": 13031,
    "Ġabsolut": 3909,
    "ertips": 23638,
    "Ġallegro": 25794,
    "Ġweighed": 8710,
    "engthen": 14456,
    "cent": 8072,
    "Ġack": 5622,
    "ē": 212,
    "Ġglasses": 9474,
    "Ġgloomy": 7504,
    "Ġcigar": 9544,
    "ality": 2515,
    "erranean": 9333,
    "Ġreality": 7057,
    "Ġsplinters": 15101,
    "astern": 8580,
    "Ġhealthcare": 8015,
    "ham": 1701,
    "Ġmadness": 6601,
    "hurriedly": 25510,
    "icit": 3381,
    "ultaneous": 18584,
    "Ġshreds": 12767,
    "load": 12877,
    "Ġunconquerable": 22060,
    "hypothe": 25905,
    "riages": 10242,
    "commission": 22807,
    "bots": 10082,
    "Ġdrenched": 12600,
    "neying": 22446,
    "Ġrepentance": 15159,
    "cu": 10083,
    "Ġamusements": 16913,
    "Ġgossiping": 26243,
    "Ġdifferences": 18712,
    "merely": 16132,
    "Ġbrimstone": 25686,
    "ethe": 9676,
    "Ġreduces": 2346,
    "Ġoxen": 19949,
    "Ġagain": 815,
    "Ġcubic": 20086,
    "Ġmagnific": 16316,
    "loving": 18534,
    "Ġimpatient": 5603,
    "Ġreappeared": 21662,
    "baron": 24925,
    "Ġmurder": 4281,
    "Ġexclamation": 8698,
    "Ġgrip": 11626,
    "Ġsoph": 1744,
    "thank": 4950,
    "Ġpredicting": 2418,
    "Ġboundless": 10495,
    "Ġassented": 17337,
    "Ġwho": 611,
    "ugl": 23285,
    "utmost": 21585,
    "Ġfunny": 7637,
    "Ġexhale": 24402,
    "Ġfootmen": 23796,
    "bet": 6109,
    "Ġapprehen": 16829,
    "'d": 12425,
    "lacings": 26134,
    "Ġdistributing": 22676,
    "hopeless": 16917,
    "Ġhessian": 3549,
    "operation": 13500,
    "Ċ": 203,
    "Ġmorocc": 22978,
    "ingale": 21298,
    "Ġfertile": 20581,
    "benefit": 24642,
    "Ġcomplained": 16998,
    "lust": 15378,
    "their": 2544,
    "entropy": 1438,
    "Ġbarmaid": 19334,
    "animals": 24738,
    "jewell": 25523,
    "Ġlength": 2504,
    "Ġfigure": 4207,
    "Ġdrugg": 17119,
    "Ġparted": 5928,
    "Ġextremest": 19195,
    "Ġapartments": 19613,
    "icilian": 20690,
    "star": 12669,
    "obedience": 17409,
    "situ": 9621,
    "benevolent": 15232,
    "Ġbarbara": 24818,
    "İ": 241,
    "Ġprofessor": 11230,
    "Ġbugs": 13647,
    "Ġhers": 7888,
    "cooks": 25067,
    "month": 6463,
    "Ġ83": 24459,
    "Ġcolleg": 22848,
    "punctual": 26355,
    "Ġcondescended": 19954,
    "Ġdisagree": 22529,
    "Ġriot": 14688,
    "Ġsplintered": 11418,
    "moving": 11017,
    "constable": 24605,
    "electricity": 26385,
    "Ġben": 1110,
    "ket": 17582,
    "believing": 19460,
    "urmount": 13995,
    "Ġvertebra": 20180,
    "Ġvanishing": 1350,
    "Ġunaccountable": 7886,
    "Ġundertake": 14479,
    "Ġinsatiate": 19269,
    "Ġmethods": 3162,
    "iocr": 20922,
    "Ġstandard": 14497,
    "dozen": 23374,
    "Ġdid": 834,
    "rably": 21630,
    "Ġprint": 18968,
    "Ġirr": 10421,
    "Ġfairly": 6325,
    "Ġmayhew": 12947,
    "intim": 22931,
    "unfort": 21873,
    "ancho": 4938,
    "Ġpuff": 6526,
    "Ġcobbler": 25829,
    "Ġbosom": 6939,
    "hester": 9631,
    "Ġreceptive": 1560,
    "Ġtickled": 20055,
    "vol": 737,
    "Ġheels": 10850,
    "Ġvertu": 23888,
    "Ġsloop": 25930,
    "Ġrecommended": 8667,
    "laughing": 15178,
    "comfortable": 7320,
    "express": 4894,
    "Ġstanders": 19016,
    "Ġconsummation": 17424,
    "balls": 12303,
    "Ġsinned": 18950,
    "extraordinary": 9094,
    "our": 534,
    "Ġpoliceman": 15257,
    "Ġout": 542,
    "Ġrecommend": 7102,
    "Ġreclining": 26033,
    "Ġincidents": 9299,
    "Ġ30": 10511,
    "simp": 17665,
    "flo": 6114,
    "ets": 1160,
    "Ġdru": 8421,
    "Ġopens": 23625,
    "Ġinsensible": 12323,
    "Ġpor": 5225,
    "Ġelijah": 9099,
    "Ġpubl": 3937,
    "nant": 17609,
    "upid": 6582,
    "Ġglitter": 25123,
    "Ġoutskirts": 17456,
    "Ġemperors": 15158,
    "atra": 17771,
    "Ġintegrated": 13530,
    "Ġsincerity": 13677,
    "Ġcomputational": 1620,
    "Ġdedication": 2809,
    "Ġunwell": 22014,
    "sne": 10124,
    "Ġrises": 9712,
    "¥": 103,
    "Ġindignantly": 16939,
    "Ġmathemat": 3204,
    "fts": 18696,
    "Ġgestic": 21605,
    "Ġunnecessary": 8851,
    "acknowled": 10975,
    "uer": 21099,
    "Ġtag": 15467,
    "avoid": 9298,
    "moved": 9784,
    "Ġsepulchral": 25892,
    "Ġbodiless": 24226,
    "Ġexceptional": 19369,
    "Ġbelonged": 6922,
    "restoration": 23233,
    "Ġdrank": 16535,
    "acies": 14276,
    "mentioned": 10623,
    "confirm": 16807,
    "meas": 7434,
    "Ġlance": 4878,
    "Ġtrack": 7450,
    "Ġvisit": 2586,
    "Ġscepticism": 25927,
    "anch": 15557,
    "Ġnods": 19062,
    "Ġcommunicated": 9061,
    "Ġi": 312,
    "Ġspeeches": 22655,
    "Ġhauling": 14086,
    "Ġpin": 7161,
    "Ġsuit": 5725,
    "dragging": 16609,
    "Ġassertions": 19945,
    "Ġrelish": 14383,
    "Ġbush": 23333,
    "Ġcomforters": 25800,
    "!_âĢĿ": 11376,
    "elve": 4640,
    "Ġfat": 3463,
    "Ġhandsom": 11124,
    "ropy": 1101,
    "Ġcountryside": 23595,
    "Ġmerely": 3771,
    "Ġhopes": 4235,
    "encing": 21281,
    "Ġregions": 10323,
    "Ġsnaky": 23741,
    "Ġcombinations": 22886,
    "knot": 13744,
    "break": 6101,
    "sol": 1788,
    "icting": 12853,
    "Ġtoiling": 15632,
    "greenland": 10020,
    "Ġ116": 24440,
    "burned": 25079,
    "Ġdamps": 23473,
    "speaking": 12096,
    "how": 1637,
    "ą": 198,
    "Ġperse": 6272,
    "ank": 1366,
    "Ġlux": 8813,
    "Ġapprovingly": 26252,
    "Ġgenerative": 5644,
    "Ġplaus": 22597,
    "Ġpaunch": 23750,
    "Ġpagans": 16922,
    "imagine": 19930,
    "Ġvalleys": 14918,
    "Ġtitle": 11408,
    "landed": 18954,
    "dorff": 15236,
    "Ġelephant": 8255,
    "hundreds": 25073,
    "Ġcased": 21344,
    "/`": 12427,
    "agreeable": 5829,
    "respective": 19845,
    "Ġdepth": 2440,
    "ived": 1531,
    "Ġye": 901,
    "Ġflies": 13023,
    "Ġstoutest": 24628,
    "Ġjackal": 24239,
    "laugh": 10108,
    "hurried": 11353,
    "itying": 21991,
    "Ġis": 347,
    "Ġscenarios": 26542,
    "ele": 9114,
    "Ġadult": 18289,
    "making": 2575,
    "Ġmiriam": 25273,
    "Ġscraping": 13415,
    "Ġconflagration": 26364,
    "Ġcommence": 6167,
    "vain": 15446,
    "Ġassured": 4372,
    "pedest": 24695,
    "Ġboscombe": 8325,
    "rusion": 11323,
    "Ġtremendous": 8352,
    "Ġgods": 6454,
    "gallantry": 15058,
    "Ġcloudless": 16668,
    "Ġcrumb": 16439,
    "Ġbeneficial": 23929,
    "fact": 6358,
    "Ġqueens": 16706,
    "Ġwade": 17784,
    "Ġfear": 2278,
    "Ġfancying": 12110,
    "Ġcoroner": 7510,
    "after": 2898,
    "domestic": 19824,
    "humored": 19451,
    "unlike": 18156,
    "Ġguid": 2641,
    "Ġminds": 6303,
    "Ġequin": 14496,
    "Ġfishy": 16523,
    "Ġtren": 17721,
    "Ġmelting": 24288,
    "Ġpurchase": 12257,
    "Ġkills": 15904,
    "Ġcommercial": 22671,
    "Ġreservoir": 20650,
    "Ġconfed": 13095,
    "arter": 17893,
    "Ġlowered": 6735,
    "Ġmoney": 3420,
    "apply": 18758,
    "Ġaboriginal": 14188,
    "Ġcounsell": 25384,
    "fere": 10989,
    "Ġaffl": 14385,
    "acious": 5562,
    "Ġpivot": 13922,
    "itional": 22451,
    "trimmed": 23946,
    "Ġmans": 15534,
    "Ġapo": 9630,
    "uses": 11758,
    "Ġgrounded": 23710,
    "Ġostens": 25275,
    "Ġprivate": 5345,
    "Ġdwelling": 7322,
    "Ġglide": 22986,
    "tains": 10961,
    "inite": 6001,
    "Ġchristendom": 16695,
    "Ġmonsie": 11447,
    "apt": 723,
    "Ġimprinted": 22391,
    "Ġgag": 21590,
    "Ġpleasurable": 23336,
    "Ġantarctic": 19551,
    "Ġprincely": 24148,
    "Ġjava": 12310,
    "Ġsucc": 12780,
    "Ġwhis": 3505,
    "bro": 4035,
    "Ġphysiognomy": 25610,
    "Ġreferred": 8916,
    "Ġterritories": 23843,
    "sixty": 24852,
    "rane": 17653,
    "Ġoppressively": 25712,
    "Ġlurking": 11289,
    "Ġhowever": 1307,
    "arpo": 1754,
    "Ġdefects": 12331,
    "Ġrepulses": 26069,
    "Ġcomprehended": 11294,
    "brated": 12025,
    "Ġtant": 12522,
    "Ġrattled": 15065,
    "naturalists": 23526,
    "fairly": 17219,
    "Ġamel": 18509,
    "Ġlament": 7856,
    "Ġpressure": 13421,
    "hil": 8378,
    "Ġinser": 6820,
    "olen": 9699,
    "Ġfable": 15574,
    "ained": 3067,
    "ender": 9160,
    "Ġif": 698,
    "Ġ\"": 6119,
    "Ġignor": 4011,
    "Ġturnpike": 23028,
    "Ġnoises": 18374,
    "Ġinhuman": 13928,
    "pon": 17625,
    "Ġimpul": 7208,
    "ilight": 12690,
    "Ġhen": 3503,
    "ext": 923,
    "Ġund": 4120,
    "Ġcalm": 3449,
    "swell": 17663,
    "data": 2300,
    "acter": 2510,
    "Ġtrout": 22339,
    "Ġgrease": 26189,
    "Ġpelt": 15607,
    "Ġinterlude": 16068,
    "bib": 17491,
    "Ġmaintained": 12932,
    "Ġmajesty": 5201,
    "Ġfurthermore": 1170,
    "Ġdews": 21836,
    "Ġavocation": 23950,
    "Ġway": 1086,
    "iber": 6506,
    "Ġpromotion": 23190,
    "Ġvesuvius": 26501,
    "Ġtides": 13820,
    "uttered": 8440,
    "derment": 22163,
    "Ġdeer": 12717,
    "utterly": 20010,
    "Ġcolumbus": 26564,
    "conveyed": 20519,
    "Ġroom": 1464,
    "mured": 6960,
    "ede": 21503,
    "vic": 13801,
    "uttermost": 24940,
    "Ġsentinel": 26065,
    "ittance": 12843,
    "Ġvainly": 9923,
    "Ġmes": 17796,
    "Ġaccomplice": 24376,
    "initions": 21186,
    "resemblance": 25933,
    "Ġwent": 1535,
    "Ġrepublic": 14530,
    "vere": 4882,
    "bildad": 9586,
    "pertaining": 22176,
    "Ġcruisers": 25863,
    "vinegar": 25420,
    "Ġannihil": 10174,
    "Ġdisposing": 19373,
    "Ġcelestial": 10066,
    "Ġas": 374,
    "talked": 14984,
    "Ġradiating": 24335,
    "ancial": 21360,
    "Ġseer": 21949,
    "umbled": 8492,
    "12": 20748,
    "marry": 13322,
    "nam": 2733,
    "Ġjunks": 25113,
    "Ġchimneys": 16972,
    "Ġprincip": 5600,
    "terror": 18128,
    "Ġdesc": 773,
    "Ġhearse": 10420,
    "Ġsweating": 16462,
    "neighboring": 20615,
    "Ġcow": 13875,
    "Ġdom": 2663,
    "Ġconcisely": 19044,
    "desp": 6075,
    "Ġmarty": 20289,
    "Ġfarmhouse": 24984,
    "Ġsway": 7571,
    "Ġstill": 1157,
    "Ġwes": 8778,
    "Ġknots": 15008,
    "dies": 15337,
    "Ġgash": 15668,
    "ined": 1262,
    "Ġsnow": 3707,
    "rr": 17650,
    "Ġstash": 18067,
    "consideration": 14954,
    "Ġtough": 13814,
    "condem": 16341,
    "Ġattitudes": 16097,
    "Ġdelivery": 18973,
    "Ġpace": 9183,
    "Ġdoub": 1836,
    "Ġtransported": 11279,
    "Ġimprudently": 22388,
    "Ġupp": 13991,
    "Ġrendering": 16657,
    "Ġmanaging": 22322,
    "Ġballarat": 14718,
    "Ġburial": 16521,
    "Ġgouldings": 26187,
    "Ġtries": 9150,
    "Ġpurest": 14938,
    "Ġsuccess": 3610,
    "Ġaffected": 5577,
    "Ġexpert": 18851,
    "beh": 5472,
    "building": 17308,
    "child": 5538,
    "Ġrealities": 18981,
    "Ġperempt": 13672,
    "Ġcried": 1486,
    "Ġtepid": 26412,
    "Ġbrook": 13045,
    ">": 34,
    "Ġfowl": 11330,
    "perse": 15891,
    "Ġdepths": 4327,
    "importance": 9988,
    "Ġ28": 19293,
    "Ġbird": 3757,
    "Ġevaluation": 16550,
    "Ġbalmoral": 16205,
    "Ġshudderings": 25200,
    "ery": 1271,
    "bourgh": 19103,
    "Ġsnuffed": 15071,
    "Ġ40": 14767,
    "Ġknocking": 10559,
    "Ġtoward": 17946,
    "Ġhos": 4942,
    "Ġdependen": 1828,
    "akers": 9738,
    "obli": 23092,
    "Ġnarwhales": 24902,
    "Ġpanted": 21470,
    "actory": 8907,
    "Ġsights": 7472,
    "vember": 10855,
    "thorough": 21982,
    "Ġburied": 7718,
    "Ġhack": 12753,
    "Ġreptile": 15276,
    "source": 11525,
    "Ġsitt": 21216,
    "Ġjacob": 1897,
    "Ġwound": 4526,
    "Ġdisgust": 6705,
    "Ġproceed": 3244,
    "open": 7025,
    "Ġwear": 6030,
    "ount": 1115,
    "Ġab": 528,
    "Ġspade": 9258,
    "Ġnodded": 11968,
    "Ġind": 1220,
    "aged": 2610,
    "tinted": 17683,
    "ollion": 19714,
    "comput": 1933,
    "âĢĿ--": 21813,
    "Ġhardware": 4904,
    "Ġfrightful": 7735,
    "Ġphaeton": 17464,
    "Ġfortresses": 23620,
    "ns": 751,
    "irc": 1729,
    "Ġcoil": 11816,
    "Ġevils": 9019,
    "Ġsanguinary": 25929,
    "Ġcirclings": 26431,
    "Ġcompre": 4448,
    "Ġstrictest": 17042,
    "jaw": 13742,
    "din": 8373,
    "local": 22506,
    "Ġannouncing": 16754,
    "train": 2033,
    "Ġarguments": 8036,
    "Ġcrucifix": 26079,
    "swear": 16918,
    "Ġpebbles": 16127,
    "ingolstadt": 21302,
    "Ġcontinued": 2923,
    "Ġcivilly": 19602,
    "Ġyawned": 15051,
    "Ġphilosop": 5057,
    "terday": 4703,
    "Ġminiature": 11040,
    "Ġwantonly": 22892,
    "Ġcivilities": 14847,
    "Ġaccounts": 7207,
    "uncont": 15771,
    "oken": 4308,
    "Ġoutwardly": 24998,
    "accur": 14593,
    "Ġtelegram": 15222,
    "bearance": 22491,
    "bout": 20772,
    "Ġabstraction": 26539,
    "Ġtravel": 5952,
    "inced": 3337,
    "Ġmerchantmen": 19859,
    "Ġobvious": 4964,
    "Ġturbid": 23610,
    "âĢĶâĢĺ": 7013,
    "Ġbidirectional": 3756,
    "?_âĢĿ": 12314,
    "Ġfriend": 1297,
    "Ġfearfully": 23509,
    "Ġnonsense": 6982,
    "eleg": 20848,
    "Ġdames": 23472,
    ",)": 9100,
    "Ġque": 4161,
    "Ġisland": 4049,
    "Ġapparently": 6778,
    "Ġsatisfied": 4174,
    "Ġnap": 8808,
    "Ġhurts": 19111,
    "helping": 23137,
    "separately": 25227,
    "Ġvoy": 2623,
    "interference": 23737,
    "Ġathirst": 20597,
    "fif": 9116,
    "insupportable": 21192,
    "virt": 15450,
    "Ġluckily": 16798,
    "ĠĠĠĠĠĠĠĠĠĠĠĠĠĠ": 22561,
    "Ġcalmer": 23041,
    "battle": 12440,
    "Ġ*/": 10373,
    "phil": 7925,
    "Ġpositional": 2601,
    "Ġmace": 21308,
    "Ġastir": 14640,
    "planks": 21957,
    "dam": 7797,
    "chat": 21683,
    "fugitive": 26131,
    "Ġshift": 2284,
    "elius": 13286,
    "Ġme": 351,
    "Ġvulgarity": 25363,
    "Ġcomplimented": 14903,
    "Ġreaders": 18914,
    "Ġsupernatural": 9872,
    "attempted": 20173,
    "Ġsets": 8773,
    "atherley": 7220,
    "sander": 11526,
    "Ġappar": 7411,
    "Ġmult": 1021,
    "Ġlye": 21548,
    "Ġcom": 368,
    "shold": 2774,
    "Ġthird": 4188,
    "Ġpreviously": 3917,
    "screwed": 17187,
    "Ġsoften": 23122,
    "isite": 15560,
    "Ġpricking": 23219,
    "pse": 21008,
    "bra": 6219,
    "joint": 24006,
    "taught": 17684,
    "Ġalacrity": 15734,
    "Ġrascal": 11698,
    "reast": 17758,
    "Ġunjustifiable": 25109,
    "mou": 10708,
    "Ġanytime": 12882,
    "Ġsat": 1131,
    "offic": 7466,
    "Ġoptimizers": 18620,
    "Ġsharply": 9402,
    "ifference": 5632,
    "iers": 5990,
    "Ġcredit": 4816,
    "Ġterrors": 6918,
    "Ġaccommodate": 20515,
    "Ġimagine": 3921,
    "Ġsurgeons": 23463,
    "near": 5842,
    "Ġwire": 13851,
    "Ġleaping": 8340,
    "cannib": 11900,
    "shaped": 10309,
    "Ġardour": 8042,
    "Ġgrapple": 25811,
    "Ġpliny": 11823,
    "Ġanimals": 8978,
    "Ġpolitely": 8994,
    "Ġheeds": 24520,
    "Ġcolumns": 14375,
    "âĢ": 294,
    "<UNK>": 3,
    "mechanically": 17299,
    "Ġtwine": 14310,
    "Ġdeg": 3283,
    "Ġern": 8396,
    "Ġflood": 7715,
    "Ġgrieved": 8297,
    "Ġjerked": 19831,
    "Ġextremities": 19196,
    "Ġadvancement": 24475,
    "Ġleague": 6538,
    "mariners": 19547,
    "Ġtemperature": 1004,
    "Ġdepartments": 24242,
    "narrative": 17318,
    "Ġbeds": 14552,
    "Ġap": 5008,
    "argue": 21442,
    "Ġhysterical": 26092,
    "Ġguineas": 16270,
    "Ġexpression": 4514,
    "hawk": 7121,
    "word": 2492,
    "Ġexcellence": 11451,
    "amb": 5723,
    "Ġburned": 8630,
    "ot": 346,
    "Ġslo": 15505,
    "Ġproductions": 22943,
    "bony": 15318,
    "Ġincalculable": 17460,
    "fireside": 24692,
    "orted": 4601,
    "iceland": 21563,
    "Ġilluminated": 20174,
    "Ġreasoner": 14439,
    "ermaid": 14296,
    "Ġvolition": 14797,
    "Ġdip": 13906,
    "Ġevil": 3805,
    "Ġhath": 12625,
    "marvell": 24172,
    "Ġlazily": 11380,
    "Ġmagnitudes": 3821,
    "itably": 10782,
    "Ġweaver": 11686,
    "re": 266,
    "Ġconcernment": 23643,
    "Ġhandspike": 22695,
    "specim": 23941,
    "Ġ115": 24439,
    "ondon": 2708,
    "Ġunwonted": 14124,
    "Ġdelicious": 14792,
    "Ġwork": 1285,
    "Ġdizzy": 21430,
    "Ġbands": 14883,
    "output": 4401,
    "Ġblankness": 24610,
    "nav": 17610,
    "Ġpractises": 23330,
    "ologist": 22856,
    "brought": 7285,
    "Ġerroneous": 17408,
    "clothes": 9057,
    "ellest": 21571,
    "dor": 12449,
    "cing": 1013,
    "cup": 10690,
    "Ġmeasuring": 22875,
    "Ġsunrise": 9372,
    "norm": 20984,
    "Ġobsc": 7039,
    "Ġdisobey": 18559,
    "Ġwhite": 1536,
    "unwillingness": 25802,
    "dered": 2474,
    "Ġclustered": 25233,
    "Ġedge": 5188,
    "assin": 22302,
    "rary": 4573,
    "Ġchall": 10944,
    "Ġfeels": 6882,
    "Ġwedding": 4857,
    "Ġskul": 22791,
    "adamite": 20591,
    "concerned": 24638,
    "Ġmajor": 13290,
    "Ġsolicitude": 10039,
    "Ġensued": 11394,
    "Ġpawn": 12062,
    "Ġexpressed": 4466,
    "Ġunderneath": 16336,
    "Ġcontrary": 5260,
    "Ġcopestone": 24936,
    "Ġpublisher": 24062,
    "Ġmonotonous": 13262,
    "deep": 984,
    "Ġburnished": 23995,
    "extremely": 26263,
    "idually": 21766,
    "Ġcoils": 9303,
    "Ġepid": 18004,
    "iverse": 13114,
    "Ġinit": 818,
    "benevolently": 25600,
    "Ġassistance": 6333,
    "Ġspl": 2984,
    "imony": 12687,
    "Ġescort": 23503,
    "Ġreynolds": 10209,
    "Ġcistern": 17380,
    "Ġshirt": 8848,
    "Ġruefully": 17300,
    "xes": 21139,
    "Ġreporting": 24657,
    "Ġcomplet": 4422,
    "ckets": 6843,
    "icient": 799,
    "Ġrevolver": 14899,
    "brace": 16942,
    "Ġsubstitute": 16726,
    "Ġinputs": 843,
    "Ġverbal": 19377,
    "disgraceful": 26076,
    "Ġheartily": 6890,
    "Ġfet": 5807,
    "ilar": 10215,
    "Ġ99": 10745,
    "Ġcounsel": 13614,
    "Ġclos": 4547,
    "wantonly": 25149,
    "iel": 11493,
    "ignific": 11955,
    "Ġplainpalais": 20736,
    "ifies": 6686,
    "ascar": 8434,
    "congenial": 25399,
    "Ġcharacters": 9371,
    "Ġparametric": 2397,
    "Ġrecklessly": 16983,
    "onic": 7827,
    "somerset": 26322,
    "poise": 6171,
    "no": 886,
    "Ġwearisome": 19794,
    "rom": 421,
    "Ġchamber": 6213,
    "Ġarms": 3963,
    "Ġprisoner": 8672,
    "wond": 8767,
    "Ġpostscript": 14807,
    "Ġbashaw": 25633,
    "thouse": 21979,
    "Ġdismast": 12885,
    "anse": 12572,
    "Ġaccur": 3507,
    "Ġzer": 1093,
    "scot": 14417,
    "Ġ63": 24366,
    "delight": 5344,
    "Ġanything": 2187,
    "fel": 8733,
    "Ġtraversed": 18891,
    "muttered": 13758,
    "Ġexperiment": 11907,
    "Ġuniversity": 13121,
    "Ġtorment": 8673,
    "Ġirre": 7468,
    "fain": 13714,
    "Ġeddystone": 25709,
    "Ġmemb": 14028,
    "Ġproduces": 2094,
    "Ġorganically": 3013,
    "history": 15014,
    "Ġfanny": 23387,
    "!âĢĶâĢĻ": 23563,
    "contrast": 25594,
    "Ġmilitia": 13316,
    "Ġ(`": 12850,
    "Ġunmolested": 15244,
    "Ġch": 513,
    "Ġchil": 11749,
    "Ġincommod": 25307,
    "weave": 22682,
    "yourselves": 24956,
    "Ġundeviating": 15216,
    "Ġencamped": 22796,
    "Ġprotect": 6337,
    "umerable": 11723,
    "âĢľ": 344,
    "Ġinquiries": 5678,
    "Ġframed": 19041,
    "Ġdromed": 15594,
    "acrity": 14278,
    "Ġpret": 3036,
    "Ġprovinces": 24190,
    "sar": 12502,
    "aintance": 3571,
    "bes": 6641,
    "Ġenter": 4029,
    "Ġinquiry": 6484,
    "agree": 14066,
    "Ġnupt": 13942,
    "Ġriotous": 20543,
    "Ġdistinctions": 18529,
    "Ġinvari": 6529,
    "Ġcrippled": 25278,
    "guinea": 16672,
    "depths": 25663,
    "Ġreserves": 19669,
    "Ġtelegraph": 25583,
    "iture": 5696,
    "--------": 14780,
    "Ġtransp": 4768,
    "Ġsta": 18062,
    "Ġhastened": 9004,
    "verity": 14000,
    "Ġsweatings": 25710,
    "dock": 16416,
    "Ġalone": 2570,
    "claps": 23150,
    "increased": 20269,
    "plunging": 25987,
    "Ġcomputation": 965,
    "flight": 15351,
    "Ġdeclined": 9920,
    "======================================================================": 10067,
    "Ġamount": 8511,
    "Ġcontented": 9755,
    "Ġebony": 18008,
    "Ġseizing": 7876,
    "Ġunmanner": 22026,
    "Ġinward": 11606,
    "Ġsomewhere": 5384,
    "cooee": 12416,
    "itance": 13867,
    "Ġvint": 18194,
    "Ġseldom": 4628,
    "determine": 19942,
    "gold": 9120,
    "Ġconvulsive": 19305,
    "twinkle": 23702,
    "Ġsnatched": 10471,
    "oise": 15402,
    "Ġdrives": 14578,
    "pun": 9617,
    "ł": 259,
    "Ġ129": 24474,
    "ross": 807,
    "erity": 21266,
    "Ã¦us": 14816,
    "torm": 11530,
    "è": 169,
    "Ġcircling": 19092,
    "Ġself": 1777,
    "cnns": 3621,
    "mean": 6438,
    "Ġauthorized": 16735,
    "Ġsk": 962,
    "Ġliquid": 22406,
    "Ġdang": 9174,
    "berries": 22716,
    "Ġendeared": 26498,
    "steak": 14707,
    "Ġforests": 13591,
    "miles": 10712,
    "Ġexamples": 2608,
    "Ġwickedness": 9525,
    "Ġsecretary": 19440,
    "cordiality": 25137,
    "Ġprop": 1678,
    "Ġdynamically": 4007,
    "quickness": 19850,
    "hig": 12472,
    "Ġspool": 24806,
    "hus": 5072,
    "chester": 23805,
    "Ġdeeps": 16111,
    "Ġalgorith": 562,
    "alization": 732,
    "soul": 9140,
    "transformers": 8714,
    "Ġsocietal": 11436,
    "aces": 2068,
    "comp": 3815,
    "cturn": 17986,
    "Ġislanders": 19500,
    "Ġspars": 3809,
    "Ġceremonies": 24836,
    "Ġslighter": 18939,
    "Ġdreamed": 16629,
    "ntax": 932,
    "Ġsatan": 14389,
    "uing": 17693,
    "ust": 494,
    "Ġjuggler": 26366,
    "Ġ87": 19709,
    "!": 5,
    "ure": 356,
    "Ġinfirm": 19018,
    "Ġchain": 1843,
    "Ġconvince": 14642,
    "Ġav": 3583,
    "oing": 15400,
    "Ġbloodthirst": 23800,
    "residual": 19261,
    "Ġtruest": 16703,
    "explained": 23139,
    "Ġstrewed": 23420,
    "Ġsequ": 983,
    "disciple": 16778,
    "Ġstriding": 16088,
    "Ġwronged": 24247,
    "Ġjot": 11761,
    "prepared": 13589,
    "furniture": 20241,
    "Ġsunken": 14494,
    "voc": 8393,
    "Ġret": 1381,
    "independ": 15979,
    "Ġchorus": 10946,
    "voy": 7143,
    "Ġinterrupted": 6343,
    "Ġrear": 6535,
    "Ġdodging": 19886,
    "limp": 20951,
    "Ġbandaged": 16842,
    "Ġglance": 4234,
    "Ġcleans": 18947,
    "Ġcurving": 16228,
    "seek": 8836,
    "Ġglimpse": 6944,
    "Ġbeautiful": 3671,
    "attacks": 23121,
    "Ġabrupt": 9735,
    "Ġcurt": 18838,
    "Ġdoomed": 11342,
    "Ġerrone": 14429,
    "kinson": 10025,
    "Ġrudimental": 25108,
    "Ġfallen": 5967,
    "irms": 18168,
    "pieces": 8754,
    "Ġvolat": 24144,
    "exactly": 10636,
    "ieth": 10704,
    "sive": 4146,
    "wherefore": 19108,
    "Ġduty": 4071,
    "Ġamelia": 26250,
    "dancing": 12452,
    "contrad": 19290,
    "Ġpreventing": 883,
    "intercourse": 14638,
    "Ġnast": 15636,
    "Ġjeroboam": 10600,
    "Ġcomposure": 7217,
    "appre": 14369,
    "Ġago": 3138,
    "Ġmexic": 14030,
    "Ġsodden": 25535,
    "occupations": 24964,
    "Ġdefines": 1740,
    "Ġinflict": 15001,
    "Ġbenefactor": 14697,
    "Ġhandfuls": 17209,
    "Ġkind": 1783,
    "Ġjerking": 12243,
    "rador": 19158,
    "practical": 17221,
    "Ġmisty": 16539,
    "Ġcovari": 2341,
    "Ġmish": 15535,
    "ivory": 10269,
    "Ġunfathomable": 20547,
    "abominable": 20592,
    "Ġperceiving": 8875,
    "Ġcompose": 12899,
    "desol": 13066,
    "mingled": 14712,
    "Ġsystematic": 5245,
    "Ġphilistines": 26082,
    "Ľ": 254,
    "Ġindec": 13927,
    "Ġembra": 6578,
    "Ġwebster": 20160,
    "Ġforgiveness": 16656,
    "Ġaspire": 21897,
    "Ġtahit": 10754,
    "Ġbinding": 20417,
    "ensive": 6279,
    "Ġgladness": 16591,
    "broker": 13303,
    "developed": 15263,
    "Ġunfathomably": 25873,
    "erns": 8777,
    "mock": 5174,
    "Ġrafters": 22653,
    "giana": 7800,
    "Ġinconceivable": 17937,
    "establishment": 26113,
    "Ġobey": 9518,
    "hast": 5357,
    "ĠâĢĶ": 13810,
    "metic": 14983,
    "remonstr": 23187,
    "Ġbanquet": 15239,
    "Ġessentially": 24924,
    "approve": 19935,
    "Ġmarriage": 3190,
    "Ġrefusal": 10344,
    "Ġimpertin": 6933,
    "Ġcuts": 14607,
    "Ġet": 3582,
    "Ġcases": 3958,
    "Ġpaddle": 20057,
    "Ġactions": 6278,
    "Ġstock": 7455,
    "geon": 6270,
    "Ġcomposition": 1686,
    "Ġintact": 21986,
    "Ġgrammars": 11402,
    "lay": 5890,
    "impat": 11201,
    "Ġforgiven": 24024,
    "accounted": 16501,
    "Ġimputable": 22170,
    "Ġcounterpart": 24721,
    "Ġadv": 1133,
    "Ķ": 247,
    "Ġpreprocess": 22230,
    "Ġarchitects": 18734,
    "egyptians": 25898,
    "Ġenabling": 1079,
    "Ġtruthful": 23865,
    "kye": 20937,
    "powder": 17645,
    "volutions": 16319,
    "Ġparticle": 18674,
    "Ġincredulity": 11311,
    "Ġpian": 13916,
    "Ġwig": 9161,
    "ampton": 18144,
    "Ġincumbent": 16060,
    "Ġthy": 2516,
    "Ġtill": 1824,
    "oftentimes": 19419,
    "ann": 5802,
    "Ġsmut": 22554,
    "abroad": 18108,
    "illes": 12691,
    "pip": 6654,
    "interruption": 20110,
    "Ġscript": 18399,
    "Ġhides": 16264,
    "cab": 7333,
    "Ġcells": 13884,
    "Ġnewly": 9337,
    "Ġextinguished": 10343,
    "Ġjumped": 7096,
    "Ġwoody": 23516,
    "Ġburn": 3683,
    "Ġentirely": 3435,
    "dining": 13704,
    "oke": 1858,
    "Ġdoct": 4454,
    "Ġirretrie": 23370,
    "eneva": 5118,
    "Ġcompanion": 3643,
    "ì": 173,
    "borough": 20784,
    "Ġjoppa": 12035,
    "Ġbuckets": 17034,
    "omited": 21638,
    "artificial": 948,
    "Ġmustering": 18662,
    "Ġsnar": 13197,
    "Ġempires": 19073,
    "Ġdisplayed": 10608,
    "Ġromish": 19583,
    "Ġwhe": 438,
    "insufficient": 15488,
    "Ġindian": 4133,
    "Ġprivile": 8645,
    "Ġwasting": 12725,
    "Ġrelates": 12978,
    "Ġrenounce": 19466,
    "delirious": 19504,
    "Ġgeological": 14532,
    "eches": 8077,
    "Ġvane": 22869,
    "Ġcaus": 1724,
    "hello": 13362,
    "Ġmisunderstood": 18705,
    "Ġlimit": 10443,
    "Ġidolator": 19996,
    "ishing": 1145,
    "devilish": 17082,
    "summon": 23414,
    "Ġpleas": 1904,
    "Ġperilously": 24507,
    "ract": 1022,
    "bec": 4053,
    "wish": 8099,
    "<SOS>": 1,
    "Ġmile": 7151,
    "bedroom": 14676,
    "mess": 13752,
    "Ġvanished": 6874,
    "Ġcrony": 23439,
    "Ġosc": 2837,
    "animation": 16979,
    "Ġthrilling": 19747,
    "Ġwishing": 7830,
    "Ġempire": 11144,
    "Ġretrogression": 26581,
    "globe": 25142,
    "Ġinstructions": 11195,
    "Ġtreatment": 12069,
    "Ġmanx": 7904,
    "Ġbreadth": 10563,
    "Ġsnows": 14725,
    "aded": 3550,
    "zza": 24167,
    "Ġequality": 16360,
    "Ġscholars": 26112,
    "remorse": 14465,
    "ased": 1270,
    "jerked": 25618,
    "Ġquies": 18464,
    "Ġoccasioned": 13225,
    "Ġawake": 8271,
    "Ġfleeting": 19326,
    "Ġepo": 21616,
    "arrow": 4181,
    "Ġsem": 1875,
    "anybody": 12080,
    "ash": 1991,
    "Ġineffectual": 17383,
    "inferior": 12392,
    "vellers": 16673,
    "Ġmouthful": 16574,
    "Ġundec": 22016,
    "Ġimpressions": 9552,
    "Ġincluding": 2849,
    "dislike": 23492,
    "Ġaccordingly": 6619,
    "Ġfull": 2179,
    "Ġinner": 9670,
    "Ġtennes": 23547,
    "Ġtakings": 20571,
    "itating": 9650,
    "Ġtweed": 22674,
    "against": 5870,
    "angels": 22103,
    "Ġbutt": 14125,
    "Ġeloped": 22641,
    "Ġgeneralization": 985,
    "Ġtack": 5621,
    "Ġsmothe": 18576,
    "pread": 7418,
    "utely": 8131,
    "Ġclap": 10959,
    "Ġanalytical": 22888,
    "Ġproduced": 2453,
    "Ġderision": 16307,
    "rippa": 11341,
    "Ġopinions": 9414,
    "Ġdur": 11591,
    "Ġindicates": 3196,
    "Ġsituations": 10491,
    "neat": 22445,
    "Ġdivulged": 16648,
    "Ġsunk": 5752,
    "lad": 5991,
    "Ġshoes": 7071,
    "Ġbeseeching": 26311,
    "Ġ39": 19488,
    "Ġconstrued": 26301,
    "Ġbloom": 9887,
    "Ġrounds": 18884,
    "Ġbeards": 21748,
    "iscre": 17850,
    "unities": 15768,
    "Ġangels": 11178,
    "smallest": 23909,
    "opposite": 19928,
    "Ġsherry": 19449,
    "vit": 13800,
    "Ġhears": 8138,
    "Ġoriginally": 7304,
    "convers": 6567,
    "Ġdisquis": 22524,
    "Ġharbor": 10026,
    "Ġinfant": 11959,
    "Ġroarings": 25301,
    "arrangement": 17414,
    "Ġcombination": 22884,
    "Ġcruising": 6913,
    "ieged": 22576,
    "Ġconvention": 25546,
    "piling": 15414,
    "Ġuncle": 3194,
    "Ġsmite": 22555,
    "Ġdecomposes": 5506,
    "lively": 12482,
    "Ġchannel": 26012,
    "Ġrandomly": 1919,
    "Ġansw": 2208,
    "Ġrapidly": 3266,
    "seventy": 10876,
    "Ġwheels": 10912,
    "berish": 22713,
    "ifully": 13183,
    "Ġbenediction": 18786,
    "Ġbes": 2662,
    "Ġmeek": 21809,
    "Ġmitigates": 3053,
    "Ġtenement": 23546,
    "storied": 18024,
    "Ġbased": 3340,
    "scap": 22990,
    "lit": 9605,
    "fury": 17547,
    "Ġerected": 12231,
    "deed": 1515,
    "Ġvariety": 8530,
    "relapse": 24013,
    "heads": 4096,
    "ithmetic": 18061,
    "Ġthorough": 6245,
    "Ġunbecoming": 22061,
    "cheered": 23804,
    "Ġevinced": 7100,
    "lemagne": 26436,
    "Ġrespect": 1663,
    "Ġpink": 12615,
    "liable": 3817,
    "racting": 10355,
    "makers": 20981,
    "estation": 15918,
    "brim": 23573,
    "overspreading": 26139,
    "Ġsinners": 18949,
    "Ġsuburban": 17345,
    "Ġwithdrawn": 10606,
    "Ġlin": 10833,
    "Ġugl": 12679,
    "obvious": 9356,
    "Ġquadru": 16002,
    "ding": 1230,
    "Ġbier": 22757,
    "box": 5749,
    "Ġwal": 6517,
    "Ġalice": 1482,
    "Ġwooded": 23517,
    "hospit": 25903,
    "Ġyounger": 5252,
    "remarkable": 13497,
    "Ġperiodically": 19493,
    "Ġhelm": 5275,
    "ruct": 687,
    "quakes": 21853,
    "conscience": 14859,
    "Ġberyls": 25775,
    "ocean": 12399,
    "significant": 25082,
    "Ġthrows": 14736,
    "Ġwondrously": 24061,
    "orum": 12587,
    "j": 78,
    "Ġeavesdroppers": 25963,
    "Ġroaring": 10968,
    ".)": 6783,
    "ceptive": 15977,
    "Ġhereafter": 9329,
    "Ġarmy": 11739,
    "Ġgreater": 3038,
    "^{": 15303,
    "Ġ110": 24435,
    "Ġsupp": 1267,
    "Ġpale": 4530,
    "Ġbathed": 17865,
    "Ġleap": 5824,
    "Ġuniversal": 2237,
    "Ġtot": 4187,
    "Ġdancing": 5703,
    "Ġpiqu": 21475,
    "Ġbarbarians": 19586,
    "market": 16839,
    "Ġdow": 17886,
    "Ġrecip": 16135,
    "Ġsunda": 13543,
    "Ġsubsequently": 16156,
    "Ġwilds": 16508,
    "Ġapolog": 9043,
    "Ġnind": 17949,
    "Ġacquaintance": 4135,
    "arm": 1359,
    "Ġsallied": 12534,
    "remarked": 12286,
    "Ġusing": 715,
    "sized": 15427,
    "deaux": 22145,
    "ois": 9134,
    "Ġinjustice": 9190,
    "Ġportcull": 23861,
    "Ġapproach": 858,
    "Ġimbued": 17454,
    "address": 14880,
    "Ġmeadow": 17151,
    "Ġredress": 23751,
    "ad": 337,
    "Ġauthors": 10416,
    "cherries": 19755,
    "enary": 12548,
    "Ġherring": 14126,
    "Ġparticular": 2450,
    "Ġconsecrated": 26488,
    "usoid": 4765,
    "Ġaudits": 24770,
    "proper": 7471,
    "Ġpettic": 14840,
    "est": 500,
    "Ġhave": 444,
    "Ġmoluccas": 25629,
    "lat": 9604,
    "Ġpythag": 26448,
    "ood": 963,
    "idly": 12697,
    "Ġtash": 13819,
    "rougham": 15991,
    "Ġhidden": 1375,
    "ostentatious": 20651,
    "solving": 3103,
    "Ġbounding": 19398,
    "Ġexc": 1831,
    "guard": 12126,
    "Ġromantic": 8030,
    "Ġshoreless": 24295,
    "Ġperils": 6273,
    "ipotent": 10958,
    "calcul": 12984,
    "tormented": 13644,
    "entiating": 3439,
    "Ġplucked": 15112,
    "Ġrhine": 12354,
    "Ġrubbed": 12952,
    "Ġhated": 7584,
    "Ġrecording": 24434,
    "itaries": 21334,
    "leaves": 12575,
    "atisf": 21262,
    "iar": 2380,
    "held": 3839,
    "Ġbunch": 11326,
    "Ġsnodhead": 19300,
    "laws": 19806,
    "gard": 7339,
    "fol": 4861,
    "shel": 11928,
    "Ġexercised": 24803,
    "Ġuprising": 12799,
    "hitherto": 17283,
    "Ġheartless": 13071,
    "assure": 9269,
    "Ġthrown": 4638,
    "Ġflor": 8561,
    "Ġ2026": 12333,
    "vis": 4575,
    "unsuitable": 21890,
    "utted": 15658,
    "sur": 4521,
    "Ġreflections": 5945,
    "Ġkitchen": 8495,
    "rush": 7010,
    "Ġdexterity": 25294,
    "Ġpots": 9427,
    "Ġgrimly": 17052,
    "Ġdood": 22239,
    "Ġprognost": 15280,
    "Ġcurds": 22959,
    "acity": 5735,
    "Ġtrucks": 19511,
    "trip": 21090,
    "Ġextraordinary": 5414,
    "Ġequ": 1733,
    "Ġschedule": 2374,
    "Ġjackson": 24240,
    "Ġindefinitely": 25221,
    "resnet": 4070,
    "Ġmines": 21307,
    "Ġexertion": 8053,
    "Ġdestroyer": 13412,
    "Ġlash": 8438,
    "opard": 9290,
    "nue": 15396,
    "Ġportly": 14678,
    "trem": 17681,
    "profitable": 17071,
    "Ġbreed": 19071,
[...]
