{
  "metadata": {
    "vocab_size": 26616,
    "algorithm": "BPE",
    "created_at": "2026-04-28 05:30:18",
    "special_tokens": [
      "<PAD>",
      "<SOS>",
      "<EOS>",
      "<UNK>",
      "<MASK>"
    ]
  },
  "vocab": {
    "incredible": 16501,
    "ilight": 12698,
    "gies": 13729,
    "Ġtear": 6724,
    "Ġpopularly": 12246,
    "Ġslowly": 3619,
    "Ġconsiderations": 9413,
    "Ġstretch": 6994,
    "band": 3062,
    "Ġransacked": 26507,
    "coil": 23561,
    "shelf": 20384,
    "Ġmustard": 12935,
    "tempestuous": 26098,
    "Ġnar": 7375,
    "Ġdiscussed": 19562,
    "Ġdoctors": 12156,
    "warm": 8102,
    "Ġcamp": 9167,
    "Ġtreas": 7358,
    "Ġdisappo": 4506,
    "strip": 19833,
    "Ġtree": 5285,
    "Ġwerter": 15243,
    "Ġvisits": 8223,
    "Ġcasement": 25095,
    "Ġprogressive": 5024,
    "Ġprotection": 9465,
    "Ġlapse": 17123,
    "ú": 187,
    "Ġharpoone": 2910,
    "Ġfebruary": 15916,
    "Ġfemales": 14940,
    "Ġflies": 13030,
    "Ġinvoking": 19147,
    "ugues": 19027,
    "Ġparamount": 15882,
    "Ġflip": 11916,
    "lished": 8383,
    "sal": 8761,
    "Ġbob": 22639,
    "sleeves": 26110,
    "Ġtoe": 13939,
    "Ġmarry": 4418,
    "ulled": 14059,
    "Ġhighway": 14349,
    "Ġretained": 7174,
    "Ġrequisite": 18630,
    "Ġexisting": 12723,
    "opinion": 10986,
    "Ġaddu": 22106,
    "Ġdisplayed": 10611,
    "awing": 18917,
    "Ġmeasures": 1206,
    "sugg": 11850,
    "Ġbudge": 15168,
    "Ġdefiance": 11070,
    "Ġfurnishing": 16648,
    "condite": 23249,
    "breast": 11247,
    "ancies": 11587,
    "Ġrejoinder": 24598,
    "Ġlbs": 11618,
    "beef": 18524,
    "Ġendeared": 26500,
    "Ġedward": 19153,
    "Ġbelfry": 26440,
    "Ġeludes": 26556,
    "Ġhalting": 16278,
    "despond": 19803,
    "Ġstep": 751,
    "Ġimprudence": 10300,
    "flutterings": 26608,
    "Ġcharcoal": 19012,
    "Ġwhis": 3503,
    "Ġstrokes": 16771,
    "pid": 1394,
    "cription": 20820,
    "Ġhyster": 16875,
    "Ġfought": 12598,
    "mental": 16052,
    "Ġimparts": 18446,
    "author": 9863,
    "sme": 17660,
    "after": 2895,
    "Ġcuvier": 9168,
    "Ġdecently": 22460,
    "Ġpumps": 8428,
    "Ġunequal": 14845,
    "Ġapprove": 12878,
    "Ġglaring": 11912,
    "Ġreflected": 2907,
    "Ġliked": 5265,
    "irectly": 6940,
    "Ġherds": 9719,
    "Ġoverflowing": 17240,
    "interchange": 23742,
    "Ġreadiness": 13055,
    "victim": 25531,
    "infliction": 25925,
    "Ġclink": 22363,
    "Ġsacrific": 15020,
    "fully": 2201,
    "Ġunbounded": 18260,
    "chron": 21697,
    "Ġpictures": 5503,
    "Ġhip": 17923,
    "ject": 875,
    "insufferable": 21195,
    "itably": 10784,
    "Ġreceipt": 20358,
    "Ġdiffident": 23786,
    "Ġslanting": 23175,
    "4": 24,
    "cherish": 24552,
    "tfordshire": 4812,
    "Ġcarries": 7675,
    "Ġlords": 14643,
    "Ġwallowed": 24045,
    "Ġparr": 22123,
    "ather": 739,
    "Ġtend": 6122,
    "Ġoptimize": 1574,
    "orn": 2240,
    "Ġmartyr": 26362,
    "uccas": 21109,
    "Ġascertain": 9709,
    "Ġsaw": 1352,
    "Ġamaz": 5385,
    "eridge": 15529,
    "roots": 15647,
    "Ġcherished": 10593,
    "closing": 23159,
    "Ġgirdled": 19161,
    "Ġpropag": 16351,
    "Ġneedles": 11186,
    "yours": 7696,
    "lower": 8884,
    "Ġwhither": 10217,
    "Ġhistorically": 19381,
    "abroad": 18111,
    "Ġforces": 12707,
    "elfth": 22373,
    "Ġbeckoned": 25794,
    "Ġhumorously": 18780,
    "warmth": 20056,
    "hall": 8085,
    "hon": 6794,
    "Ġpatched": 16364,
    "jud": 4482,
    "eding": 7166,
    "coach": 23562,
    "Ġgifts": 21615,
    "Ġbecher": 18880,
    "Ġcan": 469,
    "Ġepidemic": 20698,
    "haired": 14769,
    "Ġwards": 17791,
    "Ġdragging": 14477,
    "Ġkneel": 14810,
    "Ġkeeps": 8267,
    "Ġstoutest": 24629,
    "provoke": 26072,
    "Ġmanxman": 9568,
    "Ġarising": 10935,
    "Ġtrusted": 10520,
    "steering": 16638,
    "Ġ7": 4746,
    "Ġsatirical": 26281,
    "mel": 9130,
    "pistol": 17644,
    "altern": 17944,
    "knowing": 10439,
    "Ġuntoward": 19167,
    "remarkable": 13501,
    "Ġtahiti": 13623,
    "imes": 1300,
    "Ġappearing": 9844,
    "chat": 21689,
    "Ġvolumes": 14803,
    "regularly": 13212,
    "Ġign": 8295,
    "Ġvoyages": 6908,
    "merc": 19282,
    "tea": 18743,
    "Ġdowncast": 18653,
    "bonnet": 25743,
    "glimmer": 26323,
    "des": 3172,
    "Ġsuggestion": 19710,
    "befriend": 22496,
    "Ġfinny": 23129,
    "Ġvaried": 11852,
    "umul": 1287,
    "Ġgreek": 10634,
    "sig": 2873,
    "Ġstarvation": 19794,
    "ges": 2872,
    "infallibly": 26419,
    "Ġheiress": 20700,
    "eager": 12464,
    "Ġdug": 21433,
    "Ġcake": 12575,
    "Ġantelope": 24183,
    "Ġmemorable": 16448,
    "Ġcornelius": 13577,
    "Ġnightgown": 23134,
    "Ġobstin": 14956,
    "conceive": 16033,
    "ĺ": 251,
    "Ġexperiments": 23032,
    "Ġgeneric": 18448,
    "reds": 12752,
    "Ġafternoon": 6054,
    "Ġmastiff": 23727,
    "Ġchief": 3382,
    "lot": 3207,
    "Ġingratitude": 17471,
    "allies": 14168,
    "Ġhig": 755,
    "banked": 25338,
    "Ġthereof": 22372,
    "Ġvenge": 5420,
    "Ġhum": 1097,
    "Ġparmacetti": 20607,
    "Ġengagements": 9981,
    "Ġconversations": 9428,
    "Ġrefres": 14343,
    "Ġpatagonia": 25858,
    "Ġneville": 7399,
    "astron": 22173,
    "Ġsuffice": 18870,
    "Ġrage": 5110,
    "Ġclutches": 20021,
    "ington": 21304,
    "Ġnavies": 16902,
    "Ġmagnified": 23206,
    "Ġcaut": 6522,
    "Ġspeeding": 23566,
    "heartily": 24218,
    "atisf": 21266,
    "Ġsurface": 5119,
    "its": 1150,
    "Ġquebec": 24135,
    "ated": 717,
    "Ġrespectively": 23250,
    "theless": 4262,
    "Ġtyphoons": 20237,
    "Ġundecided": 22052,
    "iard": 9604,
    "elopement": 23195,
    "Ġthw": 21518,
    "Ġstepping": 9357,
    "Ġunconsc": 6554,
    "ixed": 4853,
    "Ġcarbuncle": 14448,
    "Ġdundee": 16999,
    "ws": 7355,
    "uture": 1078,
    "_.âĢĿ": 5887,
    "Ġflying": 5413,
    "Ġcatastrophe": 10486,
    "Ġjing": 15953,
    "Ġpreluding": 18369,
    "surprised": 9534,
    "horses": 17569,
    "hroom": 12481,
    "Ġlistened": 4470,
    "ortal": 6267,
    "Ġcontrivances": 12361,
    "Ġsow": 17751,
    "Ġsting": 10863,
    "Ġsixpence": 19319,
    "Ġlurks": 11292,
    "ink": 756,
    "profound": 16429,
    "Ġtoilings": 24741,
    "Ġven": 4648,
    "atre": 17772,
    "Ġmurderer": 4980,
    "Ġheinous": 18041,
    "cous": 8725,
    "Ġxxx": 7767,
    "punctual": 26357,
    "bird": 9588,
    "gradu": 18617,
    "Ġsunny": 13091,
    "meas": 7432,
    "Ġcompar": 4772,
    "break": 6103,
    "cords": 25139,
    "Ġfleeting": 19329,
    "Ġnarwhale": 12297,
    "polar": 24584,
    "ccas": 15889,
    "Ġpacket": 14896,
    "Ġloses": 15877,
    "Ġyielded": 14875,
    "acked": 10976,
    "Ġmarbank": 23038,
    "unk": 4539,
    "urg": 8142,
    "Ġconfirming": 25322,
    "marry": 13328,
    "Ġtreasures": 17048,
    "Ġ117": 19700,
    "ike": 5000,
    "Ġnonsense": 6983,
    "Ġacknowledged": 7535,
    "Ġnavigation": 9996,
    "Ġtwopence": 18661,
    "circumstantial": 24444,
    "Ġkinds": 14507,
    "returns": 23143,
    "Ġalco": 21786,
    "Ġadvised": 16215,
    "itancy": 21336,
    "Ġinterlude": 16074,
    "Ġaversion": 18867,
    "ieces": 4773,
    "Ġtrotting": 19979,
    "Ġtoilette": 20496,
    "Ġeth": 17718,
    "Ġdod": 6675,
    "Ġtoil": 6533,
    "neurons": 3136,
    "Ġbenevol": 5963,
    "Ġregret": 5561,
    "Ġcinque": 20489,
    "Ġseemed": 1277,
    "Ġembarrassed": 11386,
    "Ġsuggestive": 11299,
    "Ġprocedures": 9415,
    "Ġhouse": 1503,
    "Ġgangs": 21612,
    "Ġencircling": 26273,
    "stad": 7599,
    "Ġcable": 11583,
    "Ġstr": 753,
    "Ġequal": 4138,
    "Ġomen": 11579,
    "Ġwoven": 9929,
    "Ġforbearing": 25101,
    "Ġagony": 5388,
    "Ġpince": 21473,
    "Ġsufficient": 2003,
    "Ġdissatisfied": 14259,
    "Ġoptimizers": 18629,
    "Ġintroduced": 7692,
    "vers": 1326,
    "Ġconnecting": 18632,
    "Ġvancouver": 26567,
    "Ġdriver": 16476,
    "ladder": 19787,
    "Ġthoughtful": 16193,
    "Ġsnuffing": 25015,
    "Ġcopper": 7425,
    "fes": 20853,
    "incl": 8110,
    "proportions": 22837,
    "Ġgather": 6536,
    "ferences": 10329,
    "Ġextracting": 11115,
    "ale": 504,
    "Ġcircum": 8258,
    "ly": 319,
    "pacific": 17643,
    "Ġhooped": 23358,
    "Ġsystems": 827,
    "Ġgesture": 11401,
    "Ġseap": 15821,
    "Ġforeseeing": 23451,
    "Ġconvolutional": 2163,
    "Ġneighb": 14077,
    "Ġdisconcerted": 18563,
    "libr": 22926,
    "Ġbuck": 7158,
    "Ġsanely": 24983,
    "Ġuninhabited": 22055,
    "falling": 24361,
    "Ġeffective": 1247,
    "Ġhatred": 8612,
    "Ġcontrad": 9758,
    "uzzle": 19586,
    "readily": 19365,
    "Ġoftener": 13569,
    "Ġpratt": 23218,
    "Ġenvy": 13206,
    "Ġunhing": 18242,
    "outer": 9671,
    "wra": 11544,
    "uding": 16156,
    "evil": 11488,
    "Ġmill": 6669,
    "Ġverify": 12092,
    "Ġanticipatingly": 26103,
    "Ġslipping": 13365,
    "Ġmagnanim": 14475,
    "sing": 5138,
    "Ġpledged": 20690,
    "Ġwaistcoat": 12275,
    "Ġdawned": 14997,
    "shaven": 18490,
    "Ġdeny": 7489,
    "ousings": 18336,
    "Ġcogent": 14276,
    "ever": 1072,
    "Ġpaul": 12066,
    "redit": 3876,
    "Ġrenow": 18030,
    "Ġbass": 17857,
    "Ġgangway": 20161,
    "distinguished": 10529,
    "Ġbask": 8117,
    "Ġexerting": 21837,
    "Ġmethodology": 2399,
    "Ġhag": 12630,
    "Ġcetus": 19887,
    "Ġclad": 12848,
    "Ġfurthermore": 1167,
    "taffrail": 15445,
    "eh": 13713,
    "Ġsuccor": 25663,
    "Ġinterrupt": 4360,
    "Ġcuriosity": 2523,
    "Ġguilty": 7250,
    "Ġswiss": 18883,
    "Ġthick": 3783,
    "Ġkick": 5838,
    "Ġstile": 21736,
    "Ġloom": 7630,
    "Ġchapel": 9526,
    "Ġgoat": 16011,
    "tled": 3456,
    "Ġobtaining": 16137,
    "muring": 17603,
    "Ġpositives": 4318,
    "Ġjenny": 20165,
    "Ġdeified": 18140,
    "Ġadvantage": 4317,
    "contrad": 19293,
    "ĠâĢĺ": 1628,
    "Ġberyl": 20493,
    "Ġhonestly": 19975,
    "active": 16107,
    "conjecturing": 20137,
    "Ġslide": 10396,
    "Ġfriendly": 9823,
    "mic": 12493,
    "Ġtorrid": 25035,
    "Ġcharm": 4548,
    "Ġsatisfaction": 5667,
    "Ġbrittle": 22861,
    "Ġexalted": 12416,
    "worth": 8630,
    "ittered": 18440,
    "lude": 6163,
    "groom": 8743,
    "Ġjudge": 5502,
    "Ġtong": 4871,
    "hs": 8378,
    "impossible": 8828,
    "Ġaside": 5234,
    "Ġpatients": 24810,
    "Ġrelapses": 26280,
    "Ġswaths": 23061,
    "Ġinflict": 15003,
    "Ġprometheus": 15296,
    "braces": 24659,
    "staring": 18023,
    "Ġhanging": 5447,
    "Ġlordly": 23747,
    "Ġdaint": 15597,
    "Ġhardly": 2431,
    "remembered": 17354,
    "tomahawk": 25916,
    "Ġtransom": 22442,
    "gradient": 2270,
    "police": 10586,
    "Ġtwinkling": 12328,
    "Ġstrictly": 12289,
    "listen": 13517,
    "Ġmultiple": 1184,
    "77": 15304,
    "brave": 19826,
    "Ġchaff": 18383,
    "Ġfloundered": 18863,
    "Ġignorantly": 19498,
    "Ġobligations": 12097,
    "Ġwitnesses": 9489,
    "Ġkith": 22196,
    "Ġincomp": 12902,
    "beer": 22492,
    "Ġhow": 597,
    "phys": 18702,
    "Ġreservo": 16833,
    "spite": 16141,
    "Ġfounder": 17885,
    "Ġ103": 24411,
    "Ġhardships": 14454,
    "rimsh": 17029,
    "Ġmaty": 22914,
    "Ġbeeches": 9229,
    "Ġfinal": 5400,
    "resolved": 9642,
    "Ġplanets": 24059,
    "Ġ1991": 3020,
    "ollen": 11300,
    "Ġpervading": 20616,
    "books": 8667,
    "Ġpassage": 3885,
    "Ġeats": 15681,
    "fortune": 4975,
    "iot": 9603,
    "Ġsuperseded": 26226,
    "Ġh": 290,
    "cd": 15326,
    "pronouncing": 25194,
    "Ġeyeing": 6461,
    "conquerable": 17402,
    "Ġextrem": 2474,
    "Ġpitied": 14694,
    "perceive": 12817,
    "lorious": 17594,
    "otherwise": 7672,
    "retched": 3071,
    "aws": 8237,
    "Ġrecommend": 7104,
    "harm": 13738,
    "iag": 20918,
    "Ġpatience": 2646,
    "outward": 22164,
    "Ġfortunes": 12183,
    "Ġdoctor": 5067,
    "writhed": 26081,
    "Ġmob": 16021,
    "Ġagile": 22517,
    "breathing": 25336,
    "weave": 22688,
    "Ġtradeoff": 2659,
    "Ġconstraint": 16516,
    "Ġplat": 8523,
    "idable": 8146,
    "Ġspecific": 2002,
    "Ġans": 1643,
    "Ġbelrive": 18832,
    "your": 1985,
    "wrote": 11549,
    "utored": 15667,
    "somehow": 12016,
    "Ġrapidly": 3302,
    "Ġstructured": 2975,
    "rated": 6229,
    "Ġjup": 15956,
    "Ġhisself": 21918,
    "Ġnumberless": 16419,
    "Ġfavourably": 16368,
    "Ġshrieking": 24757,
    "Ġintellectual": 11403,
    "Ġsentin": 16378,
    "ular": 715,
    "Ġassure": 4419,
    "important": 7114,
    "Ġsunwards": 19017,
    "teeth": 10357,
    "car": 4214,
    "Ġmagnet": 10392,
    "Ġaims": 15499,
    "Ġhing": 11607,
    "Ġsolved": 8934,
    "Ġrapt": 7226,
    "Ġwhistled": 24624,
    "Ġgovernments": 20270,
    "Ŀ": 256,
    "====": 1482,
    "uend": 21104,
    "Ġalex": 15137,
    "lect": 1222,
    "Ġdeftly": 26495,
    "Ġoffers": 12950,
    "variety": 23188,
    "Ġapproach": 860,
    "unworthy": 18164,
    "Ġlikeness": 11181,
    "irmed": 9242,
    "rudently": 16712,
    "ray": 2435,
    "reported": 24493,
    "agonies": 21913,
    "uting": 15664,
    "Z": 62,
    "Ġcannib": 6037,
    "Ġimpending": 22390,
    "atching": 8202,
    "Ġenergetic": 15201,
    "Ġcreases": 22721,
    "gast": 20873,
    "Ġindiam": 22958,
    "esley": 17922,
    "disappo": 8987,
    "fears": 18529,
    "washed": 13051,
    "Ġbowl": 11206,
    "humanity": 24840,
    "Ġsurmise": 12299,
    "Ġgalvan": 21620,
    "Ġhints": 8431,
    "Ġnurse": 9520,
    "kl": 4866,
    "Ġstain": 18067,
    "Ġdig": 6137,
    "regarding": 15075,
    "Ġintelligences": 12835,
    "Ġproject": 5546,
    "bery": 9797,
    "Ġexped": 7652,
    "vil": 2732,
    "Ġregiment": 6433,
    "Ġnormal": 1202,
    "housekeeping": 24103,
    "slide": 24556,
    "shoulder": 16586,
    "Ġdeployment": 11202,
    "Ġpaddled": 20204,
    "presently": 9810,
    "Ġgreedy": 3057,
    "Ġflee": 7081,
    "ruff": 15899,
    "Ġting": 8399,
    "Ġcommentators": 25230,
    "Ġgrief": 4621,
    "ume": 4837,
    "Ġintimate": 6551,
    "Ġde": 363,
    "reflected": 24732,
    "Ġfur": 993,
    "Ġtwice": 4662,
    "Ġemblem": 20501,
    ");": 7330,
    "Ġcommod": 10336,
    "Ġfleece": 10617,
    "fool": 9050,
    "yonder": 21147,
    "Ġsafe": 5103,
    "Ġhalf": 1671,
    "Ġbarque": 23793,
    "Ġbrut": 18769,
    "Ġsandwich": 19831,
    "Ġwretch": 6379,
    "Ġacquaintance": 4136,
    "Ġaffection": 2638,
    "scy": 21058,
    "drove": 16995,
    "Ġapologizing": 25198,
    "Ġoutrages": 18416,
    "Ġcommunity": 19014,
    "axen": 22525,
    "Ġshorter": 4499,
    "Ġ14": 9326,
    "aging": 2235,
    "interrupted": 11419,
    "Ġpleasant": 4172,
    "jammed": 25907,
    "Ġwholesome": 16009,
    "Ġexponential": 1056,
    "impenet": 18056,
    "Ġtuesday": 9629,
    "Ġdeficiency": 14406,
    "steelkilt": 10050,
    "Ġvis": 1068,
    "Ġformed": 3884,
    "Ġlip": 6534,
    "Ġradiance": 13375,
    "Ġecl": 18008,
    "Ġsymb": 2590,
    "flinging": 20870,
    "smooth": 20251,
    "Ġcompassionate": 24722,
    "stars": 18022,
    "Ġgraph": 10904,
    "Ġblotting": 25314,
    "beards": 22495,
    "uge": 4017,
    "first": 3933,
    "Ġpearl": 20380,
    "Ġselecting": 16683,
    "ourse": 8873,
    "illed": 2623,
    "opard": 9294,
    "Ġquaker": 10973,
    "clump": 23158,
    "colonel": 8285,
    "Ġventing": 19496,
    "Ġoldest": 12978,
    "yarn": 15460,
    "sequence": 2854,
    "Ġrece": 11641,
    "Ġboat": 1276,
    "Ġhandsomer": 20336,
    "om": 315,
    "Ġbonds": 17871,
    "Ġtag": 15471,
    "Ġspecks": 14311,
    "Ġunderwent": 23240,
    "cking": 4267,
    "atter": 641,
    "Ġsounds": 5190,
    "placed": 7878,
    "Ġages": 7029,
    "omitted": 18019,
    "pine": 13772,
    "vapor": 25756,
    "white": 4602,
    "ower": 1040,
    "Ġtunnels": 24621,
    "Ġbarren": 11208,
    "Ġdissect": 16057,
    "ographical": 16788,
    "married": 9952,
    "Ġinches": 5846,
    "Ġwhitish": 24867,
    "Ġfatigue": 8701,
    "allions": 22202,
    "Ġpractical": 3164,
    "Ġ550": 19639,
    "eastward": 15133,
    "cks": 3083,
    "okingly": 22385,
    "illar": 5101,
    "herself": 4891,
    "year": 11097,
    "unwilling": 14064,
    "oam": 8755,
    "Ġban": 7157,
    "Ġsubstantiated": 25876,
    "Ġclearer": 16316,
    "Ġdisplaying": 16968,
    "console": 22477,
    "ignominious": 26589,
    "Ġpatterns": 1214,
    "ep": 442,
    "Ġturk": 6605,
    "Ġprestige": 22240,
    "Ġgerman": 6143,
    "entrance": 12662,
    "leep": 4635,
    "ĠâĢľâĢĺ": 8506,
    "Ġexposed": 8525,
    "utility": 21590,
    "Ġwarn": 5695,
    "Ġfavourable": 7959,
    "Ġallows": 3232,
    "rees": 5436,
    "Ġsix": 3047,
    "Ġmale": 9651,
    "Ġult": 9077,
    "rise": 6228,
    "Ġconsent": 5372,
    "ulating": 10889,
    "okened": 15988,
    "Ġworaciousness": 22932,
    "fing": 13716,
    "pent": 3492,
    "Ġthump": 11614,
    "baggage": 24927,
    "Ġencouraging": 2260,
    "itely": 5365,
    "Ġtren": 17723,
    "tart": 21070,
    "Ġtid": 8107,
    "Ġcongeal": 25981,
    "ength": 2311,
    "astrop": 3318,
    "Ġprodigy": 19795,
    "Ġbridle": 24682,
    "Ġfactor": 19018,
    "Ġjourney": 3880,
    "Ġtheology": 21279,
    "Ġskulls": 12964,
    "Ġangular": 19209,
    "Ě": 219,
    "Ġrig": 4227,
    "utch": 21589,
    "conceivable": 17133,
    "completely": 12424,
    "Ġjones": 7204,
    "yra": 8103,
    "Ġgilt": 21609,
    "Ġsubsequently": 16164,
    "turbable": 24531,
    "Ġlower": 2663,
    "Ġreplete": 15702,
    "behaved": 24463,
    "Ġcrosswise": 18887,
    "Ġineffect": 13933,
    "Ġpedestrian": 25884,
    "err": 1142,
    "Ġsickening": 19607,
    "orious": 6009,
    "Ġmournful": 12340,
    "Ġmason": 10160,
    "itheat": 21341,
    "Ġbuilded": 24718,
    "Ġxavier": 2853,
    "carte": 25401,
    "Ġbankrupt": 16798,
    "Ġalterations": 19873,
    "Ġbowls": 23773,
    "Ġjetted": 24431,
    "Ġabsolut": 3910,
    "Ġhatchet": 16531,
    "superstitious": 17283,
    "Ġpie": 13918,
    "persons": 24177,
    "Ġgulp": 20032,
    "Ġceti": 24772,
    "Ġflint": 23012,
    "Ġdetermination": 9822,
    "Ġfren": 10807,
    "accordingly": 19215,
    "Ġshe": 466,
    "Ġsuffocated": 20730,
    "Ġfirm": 3871,
    "Ġportion": 7493,
    "ence": 393,
    "Ġfossiliferous": 25610,
    "Ġleisure": 6541,
    "Ġwitt": 17785,
    "Ġscuttle": 7414,
    "ands": 21870,
    "Ġnevertheless": 5040,
    "-": 17,
    "Ġcounters": 24143,
    "!_": 7329,
    "delay": 16697,
    "value": 18809,
    "aug": 1213,
    "Ġwoes": 23989,
    "Ġascent": 19621,
    "puzz": 17642,
    "ributed": 8215,
    "aculate": 16086,
    "Ġpyth": 21463,
    "Ġserenity": 10031,
    "Ġpole": 6434,
    "Ġsoft": 1458,
    "Ġunderground": 18984,
    "Ġlist": 2362,
    "Ġstaves": 21744,
    "Ġyear": 3287,
    "Ġrun": 2351,
    "Ġjoes": 19233,
    "spirit": 11315,
    "Ġsolemnity": 9944,
    "iably": 13741,
    "stream": 15691,
    "Ġdramatic": 4852,
    "Ġgryphon": 4301,
    "ere": 6790,
    "Ġalbatross": 10873,
    "Ġfear": 2272,
    "longing": 23728,
    "Ġvain": 3630,
    "shipped": 18489,
    "vint": 21117,
    "Ġreeled": 13989,
    "Ġflock": 21414,
    "Ġbiography": 22773,
    "Ġpugn": 21482,
    "Ġshocking": 10437,
    "other": 1314,
    "Ġclos": 4549,
    "Ġlearnedly": 23389,
    "consequence": 9766,
    "Ġperceiving": 8879,
    "rarely": 21637,
    "Ġpurposed": 23555,
    "hetically": 21211,
    "Ġbattered": 17864,
    "historian": 25735,
    "Ġtell": 1469,
    "Ġcoach": 6867,
    "Ġoperated": 14548,
    "Ġperf": 12856,
    "Ġringle": 18211,
    "mp": 3728,
    "Ġsense": 3252,
    "Ġmenaces": 23110,
    "beginning": 13565,
    "Ġconvent": 11671,
    "blood": 7780,
    "poverty": 22912,
    "then": 2052,
    "abb": 15743,
    "ird": 2426,
    "ainted": 3659,
    "Ġinhale": 20303,
    "kers": 7134,
    "russian": 22183,
    "comparatively": 25841,
    "determine": 19947,
    "nib": 5214,
    "Ġarts": 11010,
    "Ġgamy": 18001,
    "Ġloads": 22118,
    "explain": 1481,
    "Ġespecial": 26412,
    "onel": 3093,
    "Ġthews": 21280,
    "Ġsouthern": 7690,
    "Ġunique": 12783,
    "dream": 8731,
    "create": 24162,
    "pleasantness": 19773,
    "porary": 14552,
    "discover": 10542,
    "clerval": 7951,
    "Ġrambled": 20171,
    "list": 7552,
    "hills": 13739,
    "Ġexecutors": 19536,
    "Ġreceptacle": 23194,
    "fee": 12884,
    "ms": 539,
    "Ġplate": 8902,
    "Ġpeev": 22696,
    "silver": 19693,
    "mortal": 10115,
    "imitably": 21714,
    "scence": 14420,
    "Ġclout": 22361,
    "Ġunspeakably": 25173,
    "Ġarthur": 7196,
    "pping": 1424,
    "attent": 9362,
    "presented": 12995,
    "Ġiceberg": 14719,
    "Ġtoday": 12648,
    "entreat": 17978,
    "Ġbaby": 6639,
    "Ġmyst": 4051,
    "onist": 21253,
    "enormous": 26167,
    "Ġjoker": 22302,
    "Ġattends": 19653,
    "ulations": 6030,
    "Ġcracks": 12024,
    "Ġmoving": 1681,
    "Ġpatient": 6892,
    "Ġconfed": 13102,
    "Ġhookah": 16972,
    "heedful": 20576,
    "lun": 20948,
    "Ġrow": 5246,
    "Ġexecuted": 9475,
    "plings": 11699,
    "Ġconcocted": 26300,
    "consolatory": 25307,
    "Ġflourished": 15129,
    "twilight": 23702,
    "mosphere": 10046,
    "Ġmonoton": 3637,
    "lilies": 20963,
    "Ġse": 402,
    "delight": 5345,
    "Ġcollected": 2609,
    "Ġplane": 11827,
    "Ġparty": 3509,
    "Ġvineyards": 25109,
    "lengthwise": 19953,
    "Ġdepended": 9780,
    "miserably": 24213,
    "speaks": 19722,
    "Ġinclined": 6625,
    "ores": 2413,
    "Ġstructures": 2721,
    "barbs": 20240,
    "immense": 18055,
    "Ġsuperiority": 14618,
    "cur": 3272,
    "globe": 25145,
    "Ġsubstantial": 14813,
    "Ġlighter": 12658,
    "Ġseen": 1368,
    "Ġsingularly": 12153,
    "doesn": 19823,
    "Ġsnail": 19301,
    "Ġoverheard": 11775,
    "Ġhoney": 12637,
    "task": 13796,
    "Ġbelie": 14409,
    "tack": 12517,
    "conclusive": 25674,
    "Ġnation": 12652,
    "Ġfearing": 12820,
    "sorts": 21063,
    "Ġmultitud": 18748,
    "isa": 17847,
    "bies": 15316,
    "ĠĠĠĠĠĠĠĠĠĠĠĠĠĠĠĠĠĠĠĠĠĠĠĠĠĠĠĠĠĠĠ": 19703,
    "Ġfiver": 22777,
    "boy": 4739,
    "cooee": 12422,
    "Ġalpha": 13592,
    "Ġwaterloo": 11985,
    "Ġcould": 703,
    "Ġwitnessing": 19601,
    "Ġfowler": 16939,
    "Ġappro": 662,
    "ullied": 23108,
    "Ġnames": 4533,
    "Ġrolled": 4431,
    "Ġlashed": 9201,
    "coll": 23782,
    "phenomenon": 17650,
    "ĠâĢĺ_": 11119,
    "Ġgratefully": 20448,
    "Ġgallery": 10527,
    "Ġfemale": 8345,
    "vent": 682,
    "è": 169,
    "ital": 4819,
    "Ġthrown": 4640,
    "Ġsuppose": 2865,
    "mentioning": 24886,
    "Ġbritain": 16958,
    "sequent": 6831,
    "Ġsong": 5904,
    "indirect": 22376,
    "hval": 20900,
    "Ġintrusion": 12770,
    "charming": 15710,
    "Ġdu": 4584,
    "Ġbeak": 18082,
    "Ġneat": 7000,
    "tedious": 22635,
    "ugn": 9381,
    "Ġstripped": 10466,
    "Ġamateur": 22489,
    "g": 75,
    "Ġtranced": 18422,
    "Ġdined": 9179,
    "ve": 323,
    "shone": 22447,
    "Ġbr": 1067,
    "Ġfaltering": 17886,
    "Ġwrap": 24595,
    "folding": 24928,
    "Ġplants": 22601,
    "Ġarriving": 19220,
    "Ġabsor": 8507,
    "Ġlamp": 4115,
    "Ġreputation": 11643,
    "Ġaccusation": 22384,
    "twelvemonth": 25863,
    "Ġcalculate": 13269,
    "Ġchuckled": 10650,
    "planks": 21958,
    "speak": 5504,
    "Ġsplendour": 20227,
    "Ġowest": 25094,
    "churning": 21700,
    "Ġtamer": 24979,
    "prophecy": 22838,
    "Ġinseparable": 20691,
    "shabbily": 26248,
    "Ġlanded": 7469,
    "numerous": 17434,
    "duck": 22416,
    "Ġuniversal": 2231,
    "Ġcompetition": 14269,
    "Ġchicha": 15940,
    "Ġnaturalist": 22910,
    "accepted": 20139,
    "adagrad": 9694,
    "tribute": 21091,
    "Ġsupplying": 19801,
    "Ġlurid": 19684,
    "Ġabound": 8867,
    "Ġunostentatious": 22073,
    "Ġmod": 499,
    "Ġreluctant": 20528,
    "Ġliking": 23593,
    "Ġthirty": 4944,
    "calculation": 25689,
    "vishnoo": 21122,
    "Ġthat": 335,
    "Ġbefitting": 15730,
    "Ġinsanity": 12051,
    "Ġconcentrate": 25066,
    "Ġspend": 5306,
    "Ġswears": 16465,
    "Ġsleet": 8978,
    "Ġhighlands": 22779,
    "Ġcondesc": 7182,
    "Ġintact": 21993,
    "Ġacquiesced": 25494,
    "Ġgarden": 3825,
    "Ġmuffled": 10643,
    "embra": 14079,
    "committed": 18739,
    "amplified": 26496,
    "ental": 7169,
    "Ġveritable": 19384,
    "Ġworkflow": 2453,
    "dering": 5307,
    "Ġvastly": 23863,
    "paying": 25412,
    "Ġegg": 8823,
    "lane": 10708,
    "revealed": 20419,
    "Ġearnest": 3929,
    "inion": 2874,
    "Ġpemberley": 4588,
    "cooper": 19191,
    "Ġb": 281,
    "odious": 21819,
    "Ġimpudence": 26243,
    "Ġlabels": 3289,
    "Ġsolicitude": 10043,
    "Ġwaiter": 16366,
    "Ġal": 342,
    "Ġsmoothed": 23659,
    "Ġphenomena": 21486,
    "church": 8140,
    "Ġsuperglue": 23458,
    "nantucketer": 24975,
    "grasping": 20642,
    "Ġvengeance": 5886,
    "black": 6769,
    "o": 83,
    "Ġunimpe": 22076,
    "Ġtinge": 25090,
    "Ġpleasantly": 14520,
    "ê": 171,
    "weigh": 18666,
    "Ġgrego": 18962,
    "Ġmish": 15541,
    "antly": 1989,
    "Ġburst": 4381,
    "mopol": 15399,
    "Ġinvoluntarily": 8550,
    "Ġpet": 4586,
    "leo": 21367,
    "Ġwhatever": 3472,
    "popular": 26141,
    "Ġpostpone": 17310,
    "Ġparl": 8178,
    "Ġlonged": 6437,
    "Ġ119": 24441,
    "Ġtrag": 13045,
    "marriage": 7745,
    "Ġlodgings": 8312,
    "Ġmercenary": 17196,
    "Ġfol": 1286,
    "Ġempty": 5354,
    "Ġadvent": 4357,
    "Ġunctuous": 10269,
    "Ġcoburg": 18596,
    "bat": 8072,
    "Ġhooded": 12410,
    "Ġabundant": 17157,
    "odhead": 18123,
    "cr": 4013,
    "Ġpressure": 13426,
    "Ġforeseen": 16442,
    "F": 42,
    "Ġcommenting": 25229,
    "likelihood": 4992,
    "Ġdepths": 4327,
    "heavenly": 20048,
    "Ġtattooing": 15030,
    "ascribed": 24707,
    "Ġcircumference": 13548,
    "Ġtiara": 26417,
    "Ġslice": 23163,
    "iliating": 12700,
    "wont": 21135,
    "reluct": 26164,
    "Ġcomfits": 21863,
    "Ġexpatiate": 18624,
    "Ġmich": 21308,
    "alterable": 13628,
    "Ġwhereof": 16106,
    "Ġcaptiv": 16258,
    "ĠĠĠĠĠĠĠĠĠĠĠĠĠĠĠĠĠĠĠĠĠĠĠĠĠĠĠĠĠĠĠĠĠĠĠĠĠ": 14616,
    "Ġrephrased": 26479,
    "Ġunwarrant": 19936,
    "Ġcalamities": 25700,
    "Ġstil": 15722,
    "Ġcontinual": 6778,
    "Ġreptile": 15281,
    "Ġreturned": 2890,
    "spass": 18686,
    "coast": 10451,
    "Ġdrinking": 12173,
    "olent": 8155,
    "fourth": 11330,
    "uous": 4147,
    "Ġfin": 1459,
    "Ġsupremacy": 20263,
    "Ġtap": 12531,
    "Ġhemisphere": 26480,
    "Ġstreets": 5865,
    "Ġextensive": 12951,
    "promise": 12255,
    "Ġdusk": 12331,
    "Ġshining": 8172,
    "ampled": 18885,
    "Ġanyways": 22524,
    "skylight": 25624,
    "Ġfright": 3797,
    "counterpart": 26361,
    "nant": 17611,
    "Ġpipe": 4322,
    "Ġpump": 12626,
    "Ġmonitors": 3157,
    "Ġtangled": 13830,
    "Ġdesigns": 13017,
    "Ġgregarious": 18964,
    "tles": 10732,
    "Ġpierce": 17037,
    "Ġfar": 1450,
    "Ġpresto": 22234,
    "hopeless": 16919,
    "threaten": 25462,
    "Ġeveryone": 8921,
    "advantage": 8662,
    "Ġexperience": 1397,
    "Ġpatter": 824,
    "Ġmuff": 8114,
    "Ġhand": 857,
    "re": 266,
    "Ġeastern": 11632,
    "everlasting": 18773,
    "Ġunseason": 22056,
    "Ġmine": 3179,
    "Ġomitted": 12569,
    "Ġdodo": 9075,
    "andam": 10890,
    "Ġrepented": 23365,
    "stranger": 9886,
    "Ġfuriously": 9805,
    "Ġprivacy": 19527,
    "Ġquiet": 3262,
    "Ġbast": 21382,
    "Ġbehaves": 23303,
    "blending": 24131,
    "uits": 21107,
    "Ġfiltering": 23930,
    "Ġaffected": 5577,
    "Ġlot": 6680,
    "Ġhieroglyphics": 17306,
    "Ġawoke": 7286,
    "verty": 8454,
    "]": 65,
    "Ġforgo": 21777,
    "Ġwhaling": 2782,
    "rocket": 13947,
    "Ġarrival": 4731,
    "Ġusher": 22217,
    "ivers": 1984,
    "Ġstill": 1157,
    "onah": 3339,
    "eng": 1487,
    "urch": 3993,
    "apable": 6423,
    "Ġinjury": 10543,
    "Ġpowder": 11277,
    "Ġchink": 15936,
    "Ġbrag": 23837,
    "anks": 3916,
    "Ġlanding": 11989,
    "Ġflowers": 8943,
    "formation": 22218,
    "Ġparagraph": 17457,
    "Ġwhe": 439,
    "rior": 12746,
    "Ġrecip": 16144,
    "Ġconfide": 13103,
    "Ġhomage": 12359,
    "Ġhed": 7387,
    "Ġbosoms": 16797,
    "Ġcolonies": 14378,
    "Ġpassionate": 11275,
    "succeeded": 15179,
    "Ġactivity": 7920,
    "Ġhyper": 19742,
    "inent": 9631,
    "Ġbecalmed": 18089,
    "ognit": 19192,
    "train": 2033,
    "Ġsit": 4218,
    "Ġdamps": 23476,
    "unaccountable": 15783,
    "hair": 9125,
    "verdict": 21733,
    "isite": 15567,
    "Ġknocked": 9503,
    "Ġmonomania": 17086,
    "dropout": 3197,
    "Ġinequal": 21500,
    "occ": 4485,
    "anity": 9657,
    "Ġstrict": 7222,
    "Ġprodigies": 19796,
    "Ġperished": 11788,
    "Ġplug": 17150,
    "fit": 6648,
    "Ġtable": 2497,
    "gy": 2097,
    "Ġsaxon": 25469,
    "converse": 22479,
    "Ġfurs": 18741,
    "eli": 3874,
    "turkish": 24533,
    "ertion": 12043,
    "ravity": 21638,
    "Åĵ": 10746,
    "Ġprettier": 23768,
    "resemblance": 25934,
    "Ġtur": 2564,
    "Ġach": 2620,
    "squall": 13525,
    "commodore": 20628,
    "kne": 20937,
    "accurately": 25862,
    "lock": 1471,
    "Ġamb": 9295,
    "handedness": 24921,
    "Ġroses": 11790,
    "dden": 1806,
    "ferent": 4197,
    "ced": 697,
    "Ġrepulsive": 14532,
    "Ġemblazonings": 26043,
    "enjoyments": 25434,
    "unlike": 18159,
    "althily": 19362,
    "Ġstingy": 25456,
    "Ġabruptly": 15154,
    "Ġremembrance": 8318,
    "poled": 22911,
    "Ġinexpressible": 17336,
    "Ġtobacc": 7853,
    "Ġsteelkilt": 5675,
    "Ġfood": 5080,
    "Ġdenny": 9004,
    "Ġbright": 3213,
    "take": 4576,
    "Ġfiftieth": 24702,
    "Ġtracks": 18891,
    "Ġuncertain": 4068,
    "plete": 10921,
    "Ġthrust": 5084,
    "size": 15427,
    "arying": 9804,
    "features": 14795,
    "Ġstrangled": 24136,
    "Ġyounger": 5253,
    "Ġdegrees": 7294,
    "Ġclassifies": 11851,
    "Ġfoolishly": 19785,
    "foot": 9049,
    "Ġintending": 11708,
    "thirst": 15829,
    "Ġadvertise": 25389,
    "such": 3086,
    "awe": 20767,
    "Ġobed": 8538,
    "intending": 22938,
    "Ġyonder": 7392,
    "outside": 12809,
    "Ġgrated": 22807,
    "Ġalthough": 4153,
    "contin": 16545,
    "Ġmornings": 16239,
    "Ġtumultuous": 10618,
    "Ġwhisper": 6207,
    "measure": 10034,
    "Ġpaus": 4300,
    "tray": 21080,
    "Ġfurniture": 6477,
    "Ġorthodox": 22099,
    "Ġjo": 2607,
    "urday": 13998,
    "eps": 12795,
    "Ġinterpre": 1587,
    "Ġporthole": 24399,
    "Ġhackney": 20436,
    "Ġdexterously": 25296,
    "Ġmidway": 14606,
    "tum": 11534,
    "icult": 3343,
    "Ġsheepfold": 25467,
    "Ġignited": 25072,
    "Ġcoarsely": 25830,
    "consid": 4925,
    "proceed": 8979,
    "Ġvind": 10252,
    "painter": 24897,
    "quished": 21852,
    "Ġdevoted": 6575,
    "Ġxxxii": 24973,
    "moreover": 12974,
    "Ġincites": 22555,
    "Ġandromeda": 21511,
    "canallers": 22969,
    "Ġweep": 7621,
    "Ġnormalizing": 1823,
    "got": 6955,
    "Ġvaluable": 5608,
    "Ġirr": 10423,
    "izing": 1064,
    "Ġlizz": 21560,
    "Ġslang": 23162,
    "Ġglobal": 2367,
    "Ġsubdivisions": 26038,
    "Ġfortune": 4242,
    "xi": 17712,
    "Ġtravelling": 11309,
    "ope": 4125,
    "Ġdrunkard": 20180,
    "volut": 1561,
    "discoloured": 23500,
    "Ġlabours": 8586,
    "Ġhav": 12759,
    "Ġerred": 21159,
    "key": 5462,
    "Ġimpulsive": 19966,
    "Ġattained": 14082,
    "ses": 3031,
    "Ġmel": 4818,
    "Ġdescent": 975,
    "arled": 21445,
    "Ġqueens": 16705,
    "overs": 17623,
    "Ġrecommence": 16814,
    "ius": 5789,
    "Ġemphasis": 20539,
    "Ġbeseeching": 26312,
    "Ġpeaceful": 9459,
    "Ġbill": 4041,
    "Ġinstructed": 19286,
    "Ġconcrete": 20639,
    "Ġunhallowed": 17183,
    "Ġsliding": 9366,
    "ighter": 7968,
    "txt": 12520,
    "Ġdisguise": 10049,
    "think": 3609,
    "idav": 18095,
    "goodness": 19290,
    "Ġdissol": 18552,
    "Ġjen": 9270,
    "angular": 11727,
    "Ġlullaby": 20591,
    "process": 11150,
    "ship": 1389,
    "Ġgnawed": 25168,
    "Ġobe": 5801,
    "Ġadrift": 11726,
    "impart": 21712,
    "Ġshark": 5550,
    "Ġcouch": 12576,
    "evidently": 20348,
    "Ġprognost": 15285,
    "lady": 4434,
    "Ġboys": 5194,
    "ra": 314,
    "dressing": 11484,
    "kick": 20938,
    "build": 12192,
    "mean": 6439,
    "Ġrescue": 13347,
    "congratulations": 20282,
    "Ġsho": 2242,
    "haust": 5777,
    "gle": 20871,
    "Ġcommitted": 7431,
    "Ġinvariable": 13460,
    "Ġgrammar": 1059,
    "Ġdesirous": 8945,
    "traversed": 19650,
    "partly": 14604,
    "Ġxv": 23409,
    "Ġjapan": 7641,
    "Ġproverb": 12721,
    "Ġfamilies": 8027,
    "inity": 5693,
    "Ġphysi": 9991,
    "Ġboards": 14304,
    "Ġsauntering": 18328,
    "Ġcrucifix": 26080,
    "single": 10129,
    "Ġblazing": 11900,
    "uss": 8767,
    "fact": 6360,
    "age": 506,
    "Ġsanguine": 25929,
    "Ġcommencement": 12243,
    "orand": 21400,
    "https": 11687,
    "ishop": 9745,
    "Ġleader": 14705,
    "rippling": 24712,
    "sherlock": 5422,
    "ception": 6564,
    "Ġunfulfilled": 26511,
    "Ġcontrary": 5261,
    "moon": 10338,
    "waited": 24586,
    "bourine": 9399,
    "Ġcherish": 10592,
    "algorithm": 3541,
    "Ġtuning": 3076,
    "Ġmag": 1428,
    "Ġcomplying": 18585,
    "Ġimmedi": 2903,
    "dangerous": 20243,
    "Ġordinarily": 20651,
    "Ġfull": 2178,
    "abhorred": 17339,
    "Ġpermitted": 9281,
    "Ġassail": 13068,
    "ries": 3355,
    "garden": 15028,
    "'s": 2469,
    "Ġreturning": 5326,
    "Ġundergone": 18985,
    "Ġsiberia": 26162,
    "Ġpaltry": 16693,
    "Ġdealing": 14048,
    "Ġinterpreter": 23213,
    "Ġtragic": 15259,
    "begone": 12883,
    "activation": 3230,
    "Ġspeedy": 11174,
    "ught": 2750,
    "Ġpublic": 4333,
    "Ġdestabilizing": 5053,
    "}": 97,
    "Ġspeak": 2227,
    "application": 12367,
    "Ġseaward": 22950,
    "ivates": 18278,
    "Ġtons": 11552,
    "prim": 23814,
    "welcome": 10004,
    "german": 11494,
    "Ġwrecked": 9969,
    "Ġadvance": 5484,
    "Ġmotionless": 8324,
    "Ġcousins": 9918,
    "ignorantly": 25190,
    "Ġcumulative": 4213,
    "Ġpovelson": 26554,
    "Ġcocoanuts": 26364,
    "pth": 2378,
    "Ġrick": 21977,
    "Ġagon": 10323,
    "Ġtreachery": 15105,
    "straw": 24098,
    "spring": 7231,
    "Ġdesist": 16240,
    "particip": 23618,
    "Ġinv": 2222,
    "Ġdiffered": 22716,
    "Ġrect": 18028,
    "Ġinterposed": 20622,
    "Ġcommis": 22674,
    "Ġreader": 11938,
    "cul": 1902,
    "supposed": 13320,
    "Ġseptember": 18208,
    "forced": 11033,
    "Ġpants": 21467,
    "Ġclouded": 13295,
    "Ġopenness": 18958,
    "Ġshot": 4544,
    "vex": 21705,
    "Ġstandpoint": 23281,
    "Ġsystematic": 5245,
    "Ġdispelling": 23883,
    "com": 983,
    "Ġbreakers": 12059,
    "Ġmarch": 4082,
    "Ġcuriously": 13026,
    "considered": 9583,
    "journey": 8748,
    "Ġsymmetrical": 20370,
    "Ġadequ": 10915,
    "Ġadv": 1147,
    "Ġwrest": 11574,
    "itating": 9653,
    "Ġunfavourable": 17420,
    "vol": 730,
    "Ġutterly": 6102,
    "Ġdisquiet": 18553,
    "grandfather": 25012,
    "Ġspoiled": 11365,
    "Ġlinear": 3432,
    "Ġunlimited": 26224,
    "Ġdiff": 3117,
    "Ġseat": 4949,
    "Ġduck": 8798,
    "Ġstir": 5824,
    "Ġscenes": 5730,
    "pton": 15798,
    "Ġinstantly": 3592,
    "supplied": 10522,
    "Ġinaudible": 21502,
    "Ġatonement": 21946,
    "Ġcolour": 4462,
    "ore": 418,
    "Ġyankees": 26203,
    "Ġergo": 25032,
    "spirits": 8055,
    "Ġ39": 19493,
    "ger": 1107,
    "Ġsanta": 26422,
    "Ġhangs": 11609,
    "Ġmum": 13861,
    "Ġlarboard": 11011,
    "Ġresult": 4461,
    "Ġfinishing": 23127,
    "ornament": 23490,
    "Ġsinned": 18953,
    "Ġmales": 17807,
    "Ġcrimson": 16439,
    "pumps": 21029,
    "Ġtreating": 4285,
    "Ġvillages": 14751,
    "wol": 21125,
    "dough": 15338,
    "forgetting": 25486,
    "Ġbroods": 23106,
    "Ġshadows": 8013,
    "Ġdiffused": 12073,
    "nical": 20993,
    "Ġtwinkle": 12327,
    "expense": 22433,
    "asters": 8435,
    "Ġthousands": 6750,
    "Ġchains": 8251,
    "Ġunacquainted": 12781,
    "imod": 15714,
    "alk": 1153,
    "urable": 8928,
    "chairs": 21696,
    "ants": 1388,
    "Ġcouples": 16854,
    "Ġcitadel": 25439,
    "Ġterminated": 23511,
    "Ġlovel": 10274,
    "Ġple": 1470,
    "ermaid": 14301,
    "aternity": 21268,
    "illuminated": 17456,
    "Ġtallow": 14782,
    "Ġvictory": 16656,
    "Ġsell": 7825,
    "gracious": 11835,
    "Ġthrusts": 24350,
    "Ġunforeseen": 22057,
    "uated": 10134,
    "Ġend": 1474,
    "Ġwonders": 7501,
    "Ġob": 863,
    "Ġlively": 5449,
    "hedge": 22503,
    "Ġbier": 22772,
    "Ġhe": 318,
    "Ġreflection": 6441,
    "Ġoverpowering": 15253,
    "Ġnervous": 2404,
    "izz": 7616,
    "Ġwages": 13857,
    "devoted": 20020,
    "Ġtatters": 21180,
    "ounced": 4954,
    "Ġbristol": 14383,
    "Ġargument": 7100,
    "Ġletting": 10364,
    "Ġrespectfully": 18996,
    "Ġreach": 4047,
    "camp": 15333,
    "onement": 21259,
    "Ġbouquet": 20686,
    "occasion": 7754,
    "Ġtiller": 8968,
    "Ġsalted": 14759,
    "Ġhapless": 15816,
    "wretchedness": 17255,
    "ous": 477,
    "Ġcrunched": 19122,
    "chapter": 1404,
    "itar": 15551,
    "Ġstrata": 26028,
    "Ġamongst": 8962,
    "Ġunspeakable": 10059,
    "love": 9297,
    "Ġforbearance": 12332,
    "Ġprovided": 6579,
    "Ġconsecrated": 26490,
    "concealed": 25118,
    "wore": 21127,
    "Ġcontinued": 2923,
    "Ġnewton": 3531,
    "Ġidler": 16405,
    "Ġwaving": 8579,
    "Ġcontained": 7680,
    "Ġsewing": 21965,
    "turns": 14909,
    "sleep": 6512,
    "Ġhob": 12634,
    ":âĢĶ": 4433,
    "Ġdifference": 1488,
    "Ġkeep": 2353,
    "civil": 7797,
    "Ġinformed": 6719,
    "blooded": 20026,
    "Ġshocked": 9404,
    "Ġnature": 2539,
    "Ġsurrey": 14560,
    "tese": 21086,
    "contempl": 13193,
    "mate": 5359,
    "ad": 337,
    "Ê": 139,
    "case": 5206,
    "ohn": 4561,
    "Ġlunch": 13529,
    "necessary": 5883,
    "Ġeulogy": 26472,
    "_).": 5888,
    "tis": 4106,
    "Ġstun": 11653,
    "Ġaccurate": 13254,
    "Ġtakes": 5007,
    "Ġgiants": 25961,
    "pagans": 25526,
    "Ġsquares": 11171,
    "ged": 1513,
    "Ġsignify": 16497,
    "Ġeducation": 5128,
    "fatig": 17090,
    "dreaded": 25141,
    "Ġinscrut": 10037,
    "Ġdusting": 24597,
    "Ġinterchange": 16075,
    "imson": 12694,
    "eskye": 21487,
    "Ġeffects": 7236,
    "inuating": 16206,
    "Ġwindows": 4971,
    "Ġtransf": 22441,
    "Ġidentify": 12018,
    "Ġwearisome": 19798,
    "ition": 652,
    "Ġintegrity": 12317,
    "Ġdin": 3626,
    "Ġeigen": 4882,
    "ridge": 9500,
    "Ġpalmed": 24093,
    "iffs": 9025,
    "jo": 3752,
    "Ġvoracity": 25987,
    "elect": 20848,
    "Ġfresher": 23210,
    "Ġperem": 12937,
    "mystic": 25317,
    "data": 2144,
    "Ġcompatibility": 2961,
    "pertaining": 22192,
    "Ġtimber": 13354,
    "Ġreconc": 9686,
    "Ġwreaths": 25938,
    "Ġordin": 16653,
    "Ġwanderings": 20146,
    "Ġenc": 966,
    "bec": 4053,
    "Ġpleased": 4064,
    "Ġsplice": 19311,
    "ness": 853,
    "Ġdesolation": 12273,
    "allied": 7410,
    "Ġfurnishes": 19444,
    "Ġparameters": 995,
    "furniture": 20245,
    "involved": 25627,
    ").": 1270,
    "blown": 25202,
    "Ġlaudanum": 20693,
    "Ġtrembled": 8705,
    "Ġexplain": 545,
    "whale": 2141,
    "Ġnational": 13945,
    "tinted": 17685,
    "Ġjewelled": 20186,
    "Ġlinked": 15081,
    "ĠĠĠĠĠĠĠĠĠĠĠĠĠĠ": 22567,
    "Ġchrysalis": 26540,
    "rever": 21238,
    "Ġmapp": 2083,
    "Ġdistressed": 8517,
    "Ġunderstood": 5655,
    "Ġ177": 13416,
    "Ġ1828": 25720,
    "heidelburgh": 21214,
    "gunwale": 20665,
    "Ġfulfilment": 20190,
    "Ġply": 21455,
    "Ġtest": 1609,
    "Ġwor": 1186,
    "Ġcoll": 8221,
    "Ġilluminating": 25246,
    "Ġzeros": 3327,
    "Ġmomentary": 11038,
    "Ġpistols": 17332,
    "hello": 13368,
    "Ġbristling": 20530,
    "Ġjesty": 18406,
    "taining": 7206,
    "Ġsafie": 6620,
    "Ġknown": 1640,
    "embarrassed": 20667,
    "Ġdilig": 8350,
    "bolt": 25138,
    "Ġperform": 1033,
    "Ġdrunken": 12054,
    "lacings": 26135,
    "Ġstar": 6024,
    "Ġoughts": 23904,
    "kinson": 10029,
    "iments": 4945,
    "Ġgar": 10840,
    "ctors": 21593,
    "Ġrevolve": 19733,
    "Ġclearing": 8240,
    "whalebone": 19120,
    "Ġdistorted": 14252,
    "akeman": 6269,
    "Ġsubst": 4275,
    "Ġ1836": 25721,
    "aim": 2755,
    "100": 11466,
    "Ġalps": 10872,
    "nel": 11507,
    "Ġandrew": 21510,
    "Ġreap": 18029,
    "Ġdespite": 19356,
    "ivered": 7007,
    "beside": 19879,
    "Ġspeech": 4610,
    "Ġbaling": 17861,
    "Ġcompressed": 21861,
    "sides": 12512,
    "Ġkeener": 22918,
    "trying": 15441,
    "Ġroylott": 7305,
    "ilies": 18059,
    ")(": 2984,
    "jer": 12485,
    "Ġrealised": 18980,
    "Ġcounsel": 13619,
    "wester": 21141,
    "existence": 16018,
    "Ġpresumed": 10547,
    "anite": 17839,
    "Ġdecoyed": 18495,
    "Ġber": 5698,
    "Ġhud": 10824,
    "Ġburial": 16524,
    "Ġgravesend": 15220,
    "itigated": 23050,
    "Ġskeletons": 16793,
    "Ġhospitals": 24924,
    "Ġtragedies": 25242,
    "ained": 3068,
    "otence": 14026,
    "Ġscuff": 15946,
    "vial": 17699,
    "Ġblankets": 24612,
    "Ġvowed": 14087,
    "Ġcut": 2641,
    "Ġadmeasure": 18294,
    "Ġeste": 6085,
    "dissemble": 23494,
    "Ġhove": 17925,
    "wicked": 24449,
    "Ġerrand": 11087,
    "him": 1942,
    "br": 2477,
    "oyed": 14367,
    "Ġelement": 6898,
    "Ġneighbors": 25805,
    "inating": 9156,
    "Ġcircumstances": 3925,
    "naturalists": 23554,
    "Ġhawaiian": 25367,
    "Ġcrags": 23530,
    "Ġjav": 7902,
    "resum": 17763,
    "Ġjapanese": 10636,
    "Ġdais": 24372,
    "Ġrequ": 794,
    "Ġheaps": 11645,
    "Ġplates": 11008,
    "Ġfeebly": 24878,
    "Ġchaps": 14180,
    "obey": 11512,
    "Ġmule": 13865,
    "comrade": 18740,
    "Ġpreparation": 13532,
    "Ġbridegroom": 10607,
    "Ġbackbone": 22660,
    "Ġfacing": 10174,
    "Ġceased": 6469,
    "Ġelbowed": 16114,
    "achable": 14140,
    "oded": 11673,
    "Ġsultanism": 25889,
    "Ġdistressing": 12223,
    "Ġunqualified": 22065,
    "Ġcrusad": 23706,
    "render": 10293,
    "Ġanatomical": 15080,
    "Ġembarks": 22952,
    "adieu": 26202,
    "sk": 5521,
    "flour": 23969,
    "Ġhypocr": 19475,
    "Ġpull": 5152,
    "properly": 24919,
    "necess": 4897,
    "Ġpained": 19169,
    "Ġn": 300,
    "âĢľâĢĻ": 10224,
    "reasoning": 9479,
    "Ġcompassion": 6488,
    "Ġconduct": 3734,
    "ĠĠĠĠĠĠĠĠĠĠĠĠĠĠĠĠĠĠĠ": 22955,
    "horner": 23616,
    "employ": 10897,
    "gravel": 22622,
    "Ġchil": 11755,
    "Ġpolitic": 23620,
    "odings": 4400,
    "Ġappet": 9734,
    "Ġwitty": 21295,
    "rus": 5931,
    "Ġmed": 4180,
    "Ġscores": 2715,
    "¢": 100,
    "Ġhuddled": 20302,
    "Ġsolar": 22890,
    "Ġfolios": 23021,
    "posterity": 25489,
    "Ġexcepting": 14682,
    "Ġmechan": 1192,
    "Ġhelter": 24028,
    "icit": 3379,
    "Ġunimpeachable": 26524,
    "Ġcocoa": 25483,
    "itations": 17819,
    "green": 7117,
    "azed": 9402,
    "prob": 7071,
    "possible": 5743,
    "semicirc": 26493,
    "puted": 8850,
    "Ġthoughtfulness": 18775,
    "tide": 11535,
    "Ġgrown": 5628,
    "goes": 10428,
    "Ġapr": 12537,
    "placidity": 25989,
    "ugl": 23293,
    "eur": 7546,
    "ce": 313,
    "uneasy": 23686,
    "Ġbubbling": 17329,
    "Ġinoffensive": 21501,
    "use": 2535,
    "Ġexciting": 23315,
    "Ġremove": 7500,
    "orrowed": 19291,
    "content": 11199,
    "covery": 11173,
    "Ġmistake": 6205,
    "roads": 17960,
    "Ġguns": 16778,
    "Ġendured": 6074,
    "Ġmeans": 699,
    "Ġtone": 4040,
    "tram": 19646,
    "Ġinexplicable": 12261,
    "gathered": 13735,
    "ologist": 22869,
    "wheels": 14384,
    "Ġunra": 18238,
    "Ġaffair": 4464,
    "Ġpredecess": 18517,
    "zing": 7820,
    "how": 1641,
    "Ġimpertinent": 9080,
    "immediate": 20097,
    "Ġsells": 21226,
    "Ġdomes": 23709,
    "Ġcetacea": 20556,
    "Ġan": 286,
    "Ġlanguage": 654,
    "Ġsinister": 8572,
    "Ġsnoo": 21231,
    "Ġdrugg": 17122,
    "ouncing": 8497,
    "Ġoptim": 787,
    "responsible": 25764,
    "Ġnetwork": 451,
    "commendation": 26351,
    "Ġhurts": 19113,
    "archangel": 18782,
    "look": 2258,
    "inces": 13831,
    "ĠĠĠĠĠĠĠĠĠĠĠĠĠĠĠĠĠĠĠĠĠĠĠĠĠĠĠĠĠĠĠĠĠĠĠĠĠĠĠĠĠĠĠĠĠĠĠ": 16757,
    "Ġprayed": 16670,
    "Ġdouble": 4940,
    "Ġflo": 2587,
    "mar": 4336,
    "lop": 20950,
    "desolate": 25717,
    "Ġgives": 5018,
    "atious": 10154,
    "Ġimminent": 11246,
    "Ġcivilised": 24247,
    "Ġsoldier": 16922,
    "Ġcuff": 17831,
    "Ġmagic": 8233,
    "rimshander": 20659,
    "Ġhappened": 3714,
    "Ġconveniently": 20082,
    "untering": 15780,
    "Ġoverflowed": 20265,
    "Ġtaller": 16689,
    "69": 17477,
    "Ġprosecution": 12385,
    "Ġsail": 1674,
    "Ġsteepest": 3091,
    "atum": 21262,
    "garn": 20872,
    "Ġhorrible": 4906,
    "compan": 7301,
    "Ġplacing": 8904,
    "Ġendowed": 18925,
    "Ġspiral": 14586,
    "Ġcheshire": 13095,
    "Ġisinglass": 21806,
    "pag": 11513,
    "consternation": 16914,
    "icacy": 15662,
    "Ġdiscernible": 15073,
    "fulness": 4311,
    "waves": 10744,
    "Ġsubset": 9873,
    "Ġreiter": 21669,
    "Ġpercept": 14227,
    "unhappy": 10240,
    "helping": 23146,
    "Ġprovides": 1931,
    "az": 2182,
    "Ġfusion": 21417,
    "Ġmalice": 7153,
    "tri": 11532,
    "Ġtotal": 4993,
    "Ġbreaking": 6312,
    "gment": 4391,
    "Ġcaus": 1728,
    "Ġspilling": 22141,
    "Ġmissing": 6177,
    "Ġsaluted": 14761,
    "cain": 15329,
    "Ġpaint": 7708,
    "Ġfocused": 16344,
    "og": 861,
    "Ġcom": 369,
    "Ġmorsel": 20680,
    "Ġprocured": 8680,
    "Ġcenturies": 8626,
    "Ġheated": 21685,
    "Ġexponentially": 1444,
    "Ġinter": 728,
    "iature": 8745,
    "Ġwhit": 7178,
    "ineer": 11703,
    "Ġ69": 19664,
    "Ġcondemned": 7779,
    "Ġpew": 9318,
    "made": 4809,
    "Ġsecondly": 14517,
    "Ġhogarth": 25781,
    "mast": 3602,
    "Ġsentiments": 7961,
    "Ġmasks": 23331,
    "attentive": 17192,
    "1": 21,
    "world": 5058,
    "Ġcrack": 7710,
    "Ġpriest": 7527,
    "Ġgramm": 8171,
    "suffered": 24331,
    "inno": 10758,
    "Ġsudden": 1999,
    "Ġperman": 10967,
    "Ġfog": 9664,
    "Ġvanished": 6874,
    "Ġidleness": 11146,
    "Ġgratifying": 13310,
    "Ġexh": 5232,
    "ĠlinnÃ¦us": 15279,
    "Ġbit": 2966,
    "Ġunrival": 22051,
    "brimming": 23579,
    "Ġtypewriting": 16424,
    "Ġaffectionate": 5585,
    "ure": 356,
    "Ġchord": 22249,
    "expl": 9286,
    "Ġtam": 7821,
    "Ġantilles": 24182,
    "cular": 15331,
    "Ġhulls": 13929,
    "Ġnorthwards": 19549,
    "Ġyellowish": 24430,
    "Ġord": 3736,
    "Ġital": 10868,
    "Ġunprejudiced": 18270,
    "soup": 21061,
    "Ġintroduce": 3205,
    "increasing": 20272,
    "Ġbrain": 2089,
    "za": 13813,
    "stones": 11639,
    "Ġgathers": 24742,
    "unwittingly": 25802,
    "Ġgilder": 21616,
    "Ġleech": 24158,
    "Ġmagnetic": 17243,
    "Ġbelshazzar": 16229,
    "utter": 7595,
    "Ġcalculates": 13270,
    "Ġcant": 17826,
    "Ġallude": 12776,
    "ars": 908,
    "risonment": 17378,
    "Ġamply": 22486,
    "orton": 11760,
    "Ġshifted": 14110,
    "right": 2769,
    "Ġpenetrate": 12274,
    "Ġbestowing": 16973,
    "Ġseams": 12129,
    "Ġoff": 901,
    "Ġhorner": 8961,
    "Ġcomplained": 17000,
    "pay": 10720,
    "Ġhil": 10823,
    "Ġreproachfully": 25252,
    "Ġstrongest": 11137,
    "Ġwarehouses": 20421,
    "wants": 21133,
    "Ġcorroborated": 26054,
    "Ġdiscount": 22785,
    "Ġoath": 7833,
    "Ġhealthy": 10853,
    "Ġmile": 7152,
    "Ġevalu": 2916,
    "Ġmagnificent": 9845,
    "unhesitatingly": 26498,
    "iest": 4037,
    "Ġguardian": 14945,
    "Ġanalysis": 1887,
    "Ġthread": 14541,
    "fun": 4178,
    "Ġnovember": 11753,
    "Ġstrong": 1789,
    "Ġcem": 17825,
    "Ġknotted": 17021,
    "Ġconfidence": 6592,
    "Ġ127": 24472,
    "uttermost": 24943,
    "cherries": 19759,
    "Ġobedience": 11415,
    "Ġbriefly": 11369,
    "thest": 11657,
    "Ġcontribut": 12864,
    "Ġhers": 7889,
    "Ġmagazine": 23103,
    "Ġrecklessly": 16985,
    "vap": 13806,
    "Ġrephr": 21682,
    "cked": 2762,
    "peare": 18913,
    "Ġepisode": 26349,
    "Ġrain": 5005,
    "reve": 12544,
    "puzzling": 26144,
    "Ġoutputs": 2884,
    "Ġunaccountable": 7887,
    "Ġlumber": 13955,
    "gling": 10100,
    "Ġspeed": 2446,
    "izarre": 17392,
    "inese": 12889,
    "apsed": 6297,
    "Ġhazarded": 25655,
    "vable": 10135,
    ".}": 20747,
    "Ġlaborers": 19061,
    "Ġvelvet": 12402,
    "acies": 14280,
    "Ġvindication": 25365,
    "Ġappare": 12822,
    "Ġoh": 2176,
    "Ġeber": 18006,
    "Ġwhereas": 3855,
    "particulars": 11317,
    "Ġplay": 2625,
    "Ġbitter": 4175,
    "Ġremnants": 22796,
    "ü": 189,
    "Ġpirates": 9076,
    "20": 20755,
    "Ġplaything": 19240,
    "Ġinexpress": 12640,
    "Ġobservant": 20113,
    "..": 5783,
    "en": 271,
    "Ġmeekly": 26492,
    "eronomy": 15528,
    "Ġatt": 780,
    "yet": 3754,
    "ide": 722,
    "curiosity": 8627,
    "Ġincorruption": 26310,
    "ivened": 22970,
    "meant": 7921,
    "prehend": 14245,
    "party": 8995,
    "Ġoysters": 20582,
    "inence": 15484,
    "hess": 4748,
    "Ġnoble": 3439,
    "sius": 13791,
    "nor": 2741,
    "Ġcompanionship": 14923,
    "vy": 21110,
    "action": 3727,
    "Ġprow": 6686,
    "Ġpom": 21454,
    "Ġjoyous": 14666,
    "clinging": 20824,
    "Ġtheatre": 21281,
    "shell": 16290,
    "ounce": 6559,
    "Ġtremor": 24767,
    "Ġbewitching": 25977,
    "Ġcorpora": 26582,
    "pain": 7350,
    "protection": 19922,
    "Ġcons": 952,
    "Ġingenious": 12352,
    "ined": 1258,
    "motives": 26138,
    "Ġdisrespect": 18554,
    "Ġexagger": 12724,
    "?_âĢĿ": 12320,
    "Ġprecise": 7077,
    "akness": 14197,
    "âĢľ_": 5720,
    "Ġresolved": 3798,
    "Ġkingdom": 12023,
    "fic": 20854,
    "umnal": 18301,
    "disinterested": 23503,
    "enial": 17782,
    "Ġfruit": 12330,
    "Ġmanhood": 22330,
    "Ġdreary": 10410,
    "standers": 18479,
    "Ġsnar": 13202,
    "Ġwon": 1666,
    "introduction": 15127,
    "ial": 410,
    "Ġimprecations": 25821,
    "oning": 7573,
    "treated": 21097,
    "endurable": 22230,
    "Ġphilosopher": 12188,
    "Ġcharlotte": 3890,
    "umb": 3403,
    "Ġslaugh": 18940,
    "Ġlikely": 3598,
    "Ġcheese": 9380,
    "Ġprobabilities": 4966,
    "Ġinstructions": 11197,
    "poises": 11893,
    "Ġred": 3009,
    "Ġtor": 8106,
    "rubbery": 17345,
    "ingle": 1036,
    "ĠcÃ¦sar": 20583,
    "Ġunaware": 22063,
    "Ġmoulded": 16977,
    "rents": 5310,
    "inaw": 21186,
    "harrow": 20910,
    "Ġwarbling": 26169,
    "Ġhousekeeping": 18946,
    "Ġdisc": 943,
    "mira": 20981,
    "/": 19,
    "Ġsuppl": 11080,
    "Ġca": 21342,
    "Ġvibrating": 13541,
    "bled": 5469,
    "question": 5418,
    "conditionally": 24835,
    "Ġentreaties": 9038,
    "Ġplaster": 16087,
    "evinced": 19928,
    "Ġsatire": 22902,
    "Ġunh": 9256,
    "Ġbuttons": 12786,
    "table": 5795,
    "Ġrepetition": 8975,
    "abash": 18110,
    "ization": 487,
    "appin": 18760,
    "verd": 21731,
    "Ġprov": 4401,
    "Ġofficio": 23819,
    "(": 12,
    "Ġdirectly": 2106,
    "Ġsent": 1778,
    "Ġeveryday": 22775,
    "Ġholidays": 22925,
    "Ġcalifornian": 25853,
    "anter": 9169,
    "Ġincidentally": 16956,
    "Ġmoderation": 12825,
    "Ġdifficulty": 5770,
    "Ġtablets": 13159,
    "rigible": 24932,
    "quake": 11682,
    "iscuit": 10601,
    "Ġmisgiv": 14348,
    "sort": 6799,
    "Ġdespair": 4009,
    "Ġwet": 6519,
    "afterwards": 7485,
    "Ġdirect": 1472,
    "beds": 16624,
    "Ġsangu": 15507,
    "Ġdisappearance": 9300,
    "Ġneedn": 19231,
    "Ġpods": 17915,
    "Ġkind": 1787,
    "Ġproprietor": 12377,
    "Ġrelentless": 26279,
    "Ġimbib": 22179,
    "Ġsuavely": 26525,
    "Ġunluck": 8487,
    "Ġblocked": 19225,
    "icular": 2022,
    "permitted": 18347,
    "Ġbrid": 6292,
    "Ġpur": 2215,
    "Ġmediocr": 24142,
    "Ġelapsed": 7654,
    "Ġparacels": 13671,
    "nour": 20990,
    "Ġhedges": 19988,
    "ides": 2162,
    "Ġdesigned": 7741,
    "Ġmitigates": 3055,
    "Ġdivert": 23595,
    "Ġtough": 13818,
    "kins": 7345,
    "Ġconfirms": 23311,
    "Ġportent": 12086,
    "Ġgospel": 18003,
    "Ġbruised": 25773,
    "nable": 13765,
    "Ġgallows": 12150,
    "Ġrestore": 9383,
    "Ġrans": 21973,
    "Ġpitiful": 13243,
    "pendicular": 6500,
    "Ġhalyards": 21497,
    "jets": 20930,
    "Ġdark": 2113,
    "Ġpermitting": 22405,
    "uzz": 4524,
    "Ġvoids": 25808,
    "um": 454,
    "Ġpagoda": 19791,
    "Ġelimin": 16112,
    "recklessly": 25270,
    "Ġstur": 15721,
    "ldog": 21921,
    "Ę": 217,
    "transition": 24513,
    "itation": 1783,
    "Ġbiological": 1934,
    "Ġdisreputable": 22538,
    "chamber": 13629,
    "Ġdispositions": 13237,
    "arches": 10818,
    "Ġcolonel": 3408,
    "Ġhealthcare": 8016,
    "bid": 5611,
    "Ġobst": 6286,
    "Ġrafters": 22656,
    "Ġadapt": 1018,
    "inery": 17735,
    "indian": 11782,
    "Ġlashings": 25100,
    "ustom": 3790,
    "Ġbubblingly": 25633,
    "Ġcreative": 9833,
    "adventures": 20259,
    "Ġsnatching": 10474,
    "istence": 2308,
    "Ġunconcern": 14120,
    "Ġdesirable": 8944,
    "Ġproves": 14041,
    "plicable": 10258,
    "irresist": 21916,
    "Ġwol": 15533,
    "ignomin": 23270,
    "Ġdiscoverer": 26036,
    "capt": 3837,
    "beryls": 25310,
    "Ġthunder": 4825,
    "antled": 18287,
    "Ġintroducing": 11980,
    "stranded": 19228,
    "Ġinconven": 7588,
    "dreadful": 11423,
    "Ġnative": 4641,
    "Ġgaiety": 16751,
    "dred": 2527,
    "gg": 1996,
    "Ġnodded": 11974,
    "Ġgaz": 4044,
    "sounding": 24795,
    "course": 6106,
    "Ġunsc": 22018,
    "Ġcou": 5288,
    "Ġblock": 2575,
    "Ġreciproc": 20625,
    "ri": 389,
    "Ġhaz": 12760,
    "Ġabominably": 20069,
    "Ġshutting": 14762,
    "independ": 15985,
    "Ġevian": 24294,
    "van": 7814,
    "reinforcement": 7826,
    "Ġvengeful": 14893,
    "arb": 1565,
    "conscientious": 19629,
    "ara": 12611,
    "dashed": 12460,
    "injury": 25214,
    "Ġperpetually": 17072,
    "Ġtexel": 25924,
    "Ġcautious": 12258,
    "ivia": 22085,
    "Ġtistig": 26415,
    "Ġhoneymoon": 25646,
    "movement": 25579,
    "weaving": 18667,
    "Ġcruelly": 13379,
    "Ġ98": 24594,
    "Ġtechnique": 2388,
    "Ġpouring": 12629,
    "quiet": 6156,
    "Ġfil": 3471,
    "Ġhusband": 3621,
    "Ġstaving": 21741,
    "Ġther": 17780,
    "Ġwithstand": 10228,
    "Ġundiscovered": 18253,
    "proachable": 23401,
    "Ġsimpler": 2047,
    "Ġmessage": 13526,
    "Ġcubic": 20091,
    "Ġtwitch": 22679,
    "Ġweave": 21924,
    "tered": 2228,
    "attracted": 13056,
    "Ġrelating": 2706,
    "Ġgermans": 25785,
    "Ġascribed": 14858,
    "Ġchace": 14179,
    "Ġsubproblems": 12962,
    "Ġreckoning": 14982,
    "assment": 9743,
    "send": 15426,
    "Ġuncork": 23432,
    "sound": 6800,
    "Ġcontroverted": 23254,
    "presbyter": 20621,
    "Ġvocation": 10528,
    "oregressive": 3424,
    "Ġcreditors": 20133,
    "Ġobsole": 22705,
    "bs": 3776,
    "unknown": 10892,
    "Ġguards": 16270,
    "amped": 12037,
    "representativeness": 25273,
    "Ġappears": 5402,
    "pointed": 9811,
    "Ġpressed": 6043,
    "Ġinterview": 9773,
    "rison": 13782,
    "Ġlifted": 6986,
    "articulate": 17398,
    "Ġstudent": 14481,
    "Ġscorn": 7901,
    "Ġstratag": 26029,
    "Ġvestibule": 13540,
    "Ġrails": 22653,
    "raved": 18015,
    "Ġu": 324,
    "Ġregained": 18599,
    "suit": 18648,
    "Ġungracious": 18259,
    "ante": 11725,
    "Ġeffectively": 2618,
    "Ġapologies": 25197,
    "ped": 6964,
    "finish": 24384,
    "Ġhaunt": 18198,
    "load": 12885,
    "Ġcross": 1372,
    "Ġenjoyments": 24021,
    "Ġcrab": 13148,
    "Ġspl": 2987,
    "Ġdisturb": 7109,
    "Ġunwinding": 22064,
    "caus": 11478,
    "Ĳ": 243,
    "Ġwanting": 6723,
    "Ġfolly": 7941,
    "Ġentries": 22744,
    "Ġfortresses": 23623,
    "Ġx": 2075,
    "naught": 20996,
    "inct": 3293,
    "cock": 12030,
    "Ġhappen": 5571,
    "Ġindu": 5295,
    "pans": 13773,
    "Ġinterp": 16073,
    "kered": 18275,
    "entric": 11622,
    "cated": 20805,
    "teen": 6371,
    "[_": 5131,
    "amusement": 15286,
    "Ġdecided": 5471,
    "Ġcity": 4530,
    "avast": 8900,
    "interesting": 12206,
    "Ġlatitudes": 9499,
    "Ġservice": 6472,
    "Ġincompatible": 25681,
    "Ń": 260,
    "food": 12468,
    "Ġwondrous": 4735,
    "ables": 7890,
    "Ġcards": 7582,
    "Ġstirs": 14920,
    "fab": 13719,
    "Ġcomplicated": 14738,
    "ative": 744,
    "Ġenigmatical": 20600,
    "scent": 13022,
    "display": 19158,
    "Ġtrans": 639,
    "Ġdozen": 8186,
    "Ġhovering": 10181,
    "Ġdistrustful": 25057,
    ",--âĢľ": 19199,
    "Ġdimly": 9491,
    "tps": 11537,
    "Ġcranial": 25593,
    "Ġgenerate": 1462,
    "Ġastonished": 7089,
    "Ġcrowds": 14742,
    "Ġgirls": 4281,
    "Ġwriting": 4668,
    "Ġattitude": 8908,
    "deliber": 17429,
    "flood": 19809,
    "ictions": 14225,
    "event": 8077,
    "opening": 10315,
    "ĕ": 214,
    "Ġtottenham": 24145,
    "Ġknow": 632,
    "Ġpuffing": 12259,
    "Ġtribute": 15478,
    "adamite": 20596,
    "Ġtass": 15473,
    "apothe": 22339,
    "Ġhyena": 24519,
    "recogn": 13429,
    "Ġverse": 16604,
    "Ġoutbreak": 22314,
    "Ġbroad": 3640,
    "Ġpollard": 20389,
    "Ġguard": 6180,
    "Ġtrib": 13822,
    "Ġcorpus": 13037,
    "Ġalph": 9698,
    "title": 17290,
    "ise": 707,
    "grained": 20885,
    "Ġfashionable": 19547,
    "Ġheroic": 14911,
    "lux": 14229,
    "Ġclustered": 25234,
    "centred": 25020,
    "Ġstorms": 11264,
    "Ġendeavoured": 4919,
    "prophet": 16182,
    "Ġerecting": 24653,
    "elter": 21574,
    "Ġelix": 22645,
    "fug": 17545,
    "acetty": 24464,
    "Ġoverwrites": 5033,
    "Ġexclam": 6759,
    "ek": 1909,
    "Ġqueen": 3212,
    "Ġdistracted": 11807,
    "Ġassociations": 14966,
    "balls": 12309,
    "Ġwrit": 8242,
    "Ġpenetrating": 17013,
    "Ġlamentations": 17077,
    "hever": 13834,
    "Ġdistributing": 22682,
    "Ġglimmered": 20174,
    "Ġjib": 14196,
    "Ġseedy": 21966,
    "Ġwhen": 512,
    "Ġreasonable": 7253,
    "Ġcharge": 5325,
    "Ġrusty": 14967,
    "Ġimpunity": 14221,
    "Ġstiffness": 24828,
    "ostentatious": 20654,
    "Ġinstability": 3813,
    "Ġaspects": 4176,
    "Ġconn": 9232,
    "itiously": 13874,
    "Ġvane": 22873,
    "breakfast": 8691,
    "ism": 4875,
    "Ġtart": 12532,
    "Ġopal": 23627,
    "division": 20052,
    "Ġcauses": 2561,
    "Ġsledge": 8111,
    "Ġchanged": 5243,
    "Ġbooks": 4676,
    "cold": 9592,
    "awake": 14455,
    "Ġfierc": 18713,
    "Ġspectre": 16633,
    "Ġgor": 9209,
    "Ġwhar": 7388,
    "ques": 2839,
    "Ġgowns": 25360,
    "Ġdrugged": 12607,
    "duct": 3505,
    "noted": 22755,
    "begged": 18521,
    "fin": 5209,
    "vul": 15451,
    "monsters": 19173,
    "darted": 20834,
    "sciss": 18852,
    "Ġattachment": 6051,
    "ernal": 4313,
    "Ġfossils": 20225,
    "Ġottoman": 17381,
    "Ġexaggerated": 25651,
    "Ġguiding": 19243,
    "nearly": 8684,
    "Ġlurch": 21558,
    "indirectly": 18438,
    "Ġmen": 1433,
    "Ġplanted": 9777,
    "Ġcollect": 7237,
    "iters": 21332,
    "ceptibly": 22350,
    "Ġcourses": 10413,
    "Ġstruggle": 3677,
    "Ġdepicting": 22610,
    "Ġspake": 18309,
    "Ġbeauty": 3770,
    "Ġnay": 5711,
    "Ġpreyed": 18367,
    "Ġsensibility": 14514,
    "aurs": 20771,
    "Ġpuzz": 5533,
    "Ġbeautifully": 13272,
    "Ġhumped": 19772,
    "Ġsubsc": 22792,
    "deadly": 17101,
    "Ġfainter": 14917,
    "ected": 7873,
    "Ġab": 528,
    "ias": 6364,
    "Ġyounge": 16291,
    "Ġplayed": 9419,
    "alle": 1291,
    "Ġover": 554,
    "Ġincognita": 26553,
    "waters": 11335,
    "apt": 727,
    "speaking": 12103,
    "Ġsupercil": 23455,
    "Ġspot": 4157,
    "Ġbam": 15570,
    "support": 9472,
    "Ġelasticity": 19561,
    "Ġapt": 9158,
    "Ġfrigid": 17355,
    "Ġoriginated": 24124,
    "Ġcy": 13877,
    "Ġexcuses": 19044,
    "serious": 14451,
    "Ġbade": 9174,
    "eminence": 20102,
    "?--": 15307,
    "young": 7321,
    "Ġliberality": 24377,
    "Ġwooing": 19437,
    "anth": 13890,
    "Ġtested": 23226,
    "Ġdaylight": 10353,
    "clifford": 23160,
    "unted": 6999,
    "elsewhere": 19870,
    "Ġroofs": 16987,
    "Ġbackward": 7656,
    "Ġbelonging": 8308,
    "consciously": 19628,
    "Ġsprain": 18306,
    "Ġvalued": 12187,
    "Ġsignificant": 8637,
    "nature": 5360,
    "happened": 9436,
    "showed": 16027,
    "Ġcrown": 5289,
    "Ġimpelled": 11786,
    "royal": 11395,
    "Ġunclasp": 26513,
    "ý": 190,
    "Ġlane": 5627,
    "oar": 12502,
    "Ġthan": 736,
    "Ġreliance": 14388,
    "generosity": 23789,
    "Ġclubbed": 26549,
    "Ġstatement": 5255,
    "Ġwoke": 21292,
    "7": 27,
    "Ġmaternal": 11061,
    "Ġlocations": 12417,
    "true": 2585,
    "Ġcripple": 11442,
    "Ġoverl": 18423,
    "Ġdistillation": 16049,
    "Ġflung": 8566,
    "Ġtrop": 7566,
    "Ġpecks": 18670,
    "Ġswart": 14437,
    "atig": 13848,
    "elephant": 12355,
    "hotel": 20053,
    "sol": 1793,
    "awn": 3835,
    "ividually": 22089,
    "fiend": 13665,
    "¯": 112,
    "Ġmowers": 17814,
    "Ġyawned": 15054,
    "Ġwhistling": 19793,
    "come": 2374,
    "ass": 543,
    "Ġfiddle": 25445,
    "Ġbuckets": 17035,
    "Ġslip": 8957,
    "pardon": 10068,
    "sterns": 23371,
    "Ġbale": 7838,
    "Ġirrespective": 23378,
    "crowded": 20193,
    "ater": 3371,
    "perv": 1634,
    "Ġcapst": 8600,
    "Ġexpeditions": 24957,
    "ĠĠĠĠĠĠĠĠĠĠĠĠĠĠĠĠĠĠĠĠĠĠĠĠĠĠĠĠĠĠĠĠĠĠĠĠĠĠĠĠĠĠĠĠĠ": 9955,
    "Ġprocession": 11779,
    "sailing": 14717,
    "Ġdiminished": 16668,
    "Ġwaterproof": 19090,
    "blasted": 20192,
    "Ġconclusion": 5987,
    "Ġreveal": 11201,
    "Ġsulk": 15048,
    "Ġrainbows": 19651,
    "Ġshudder": 9053,
    "unity": 4154,
    "bowl": 14894,
    "iform": 2199,
    "Ġkindred": 16381,
    "order": 1961,
    "Ġinconvenient": 20013,
    "Ġbust": 10170,
    "suggested": 17302,
    "Ġvolition": 14801,
    "haz": 17566,
    "Ġpear": 11856,
    "Ġhypocritical": 20740,
    "adders": 24400,
    "Ġunthinkingly": 26222,
    "Ġminimum": 23043,
    "Ġembraces": 19874,
    "cad": 17507,
    "Ġslaughter": 20732,
    "Ġsuspending": 19246,
    "billiard": 25335,
    "Ġrepe": 3282,
    "tic": 8391,
    "limping": 26395,
    "ayed": 12717,
    "Ġfailure": 13319,
    "rusion": 11325,
    "Ġpleasing": 6192,
    "burg": 16775,
    "imagination": 13484,
    "Ġmists": 14632,
    "Ġaverse": 11082,
    "Ġnapoleon": 20560,
    "Ġsupposition": 9820,
    "Ġundisturbed": 19522,
    "gaining": 20127,
    "highly": 24763,
    "pure": 17628,
    "Ġdevelop": 1675,
    "Ġbo": 797,
    "fishermen": 17063,
    ".;": 20746,
    "Ġstrand": 11832,
    "extra": 8219,
    "Ġflavor": 16254,
    "acknowledging": 25477,
    "laughed": 20284,
    "hearing": 8404,
    "Ġ": 225,
    "jur": 17580,
    "Ġinsufficient": 9675,
    "ibilities": 13013,
    "Ġcottages": 14730,
    "Ġpolitical": 19226,
    "Ġalarming": 14784,
    "Ġbrief": 6977,
    "Ġdecomposes": 5506,
    "displeasure": 23497,
    "Ġremember": 2678,
    "Ġresnet": 5473,
    "Ġsnoring": 23743,
    "Ġ1825": 25719,
    "slept": 17172,
    "supervised": 2045,
    "Ġ87": 19713,
    "answers": 22144,
    "Ġtapers": 11554,
    "Ġfitzwilliam": 5771,
    "fi": 12466,
    "Ġequilib": 4139,
    "Ġvehicle": 20141,
    "bbles": 13695,
    "Ġridic": 7509,
    "otics": 10226,
    "Ġmerits": 13198,
    "###": 3827,
    "toed": 18579,
    "Ġacceptable": 16746,
    "Ġstark": 7390,
    "Ġbronze": 22864,
    "Ġmah": 15545,
    "Ġbore": 5079,
    "erde": 21271,
    "hee": 10762,
    "Ġwheeled": 14141,
    "Ġem": 1925,
    "Ġghostly": 24651,
    "othic": 16219,
    "Ġnamely": 20692,
    "av": 738,
    "Ġuninterrupted": 22050,
    "Ġgrizzled": 11452,
    "truck": 15444,
    "naturedly": 24841,
    "Ġdomains": 6617,
    "Ġalt": 18101,
    "sery": 17663,
    "bb": 2799,
    "Ġankles": 17901,
    "Ġrush": 5926,
    "subst": 12169,
    "sprit": 11384,
    "Ġsufferings": 7514,
    "Ġrestoration": 19031,
    "Ġproduced": 2451,
    "ravelled": 18017,
    "Ġarmed": 9263,
    "Ġblackness": 9396,
    "clay": 18933,
    "africa": 26309,
    "ĩ": 234,
    "^{": 15308,
    "Ġpersian": 11088,
    "ailed": 3249,
    "Ġeluded": 12926,
    "Ġequinox": 25857,
    "Ġquadruped": 20618,
    "Ġbankers": 24304,
    "Ġcoefficient": 2882,
    "uring": 817,
    "Ġstranger": 3484,
    "langu": 4808,
    "Ġpsalmody": 20588,
    "expose": 23664,
    "Ġtimbers": 14842,
    "iary": 15374,
    "Ġtremendous": 8353,
    "Ġlove": 2053,
    "secut": 7867,
    "blunder": 24132,
    "sheets": 14445,
    "inates": 21183,
    "Ġvers": 7564,
    "Ġsailor": 3535,
    "Ġlikes": 9411,
    "gammon": 20246,
    "Ġowed": 10782,
    "Ġ22": 8279,
    "î": 175,
    "quod": 2166,
    "othe": 2612,
    "Ġsupp": 1264,
    "Ġlead": 3521,
    "Ġunavailing": 26217,
    "Ġstre": 2109,
    "plain": 1359,
    "Ġunnearable": 26518,
    "baned": 17498,
    "ilar": 10218,
    "comple": 7441,
    "kovoko": 20672,
    "Ġbenefit": 8294,
    "Ġspeakest": 23487,
    "ashing": 4826,
    "quakes": 21854,
    "shaw": 6864,
    "Ġretire": 10384,
    "Ġold": 1054,
    "Ġmort": 3458,
    "Ġsummits": 14685,
    "Ġjavan": 25000,
    "Ġunintermitted": 26221,
    "Ġwis": 3729,
    "cent": 8073,
    "fo": 5279,
    "Ġmiles": 3804,
    "drop": 15340,
    "Ġundertone": 23241,
    "Ġgenerations": 10966,
    "Ġwo": 3651,
    "ze": 1342,
    "oment": 922,
    "Ġuniformity": 23485,
    "alleging": 23025,
    "Ġxii": 11995,
    "Ġvest": 8163,
    "corrupt": 14898,
    "Ġnumber": 1982,
    "toes": 22568,
    "Ġcontemplated": 13468,
    "flakes": 23971,
    "iguous": 18046,
    "Ġex": 362,
    "club": 26382,
    "harpooneer": 8692,
    "Ġbracelets": 25503,
    "swelled": 19613,
    "common": 4129,
    "¦": 104,
    "mile": 17599,
    "à": 161,
    "Ġdescended": 7428,
    "Ġdish": 6138,
    "Ġern": 8397,
    "doubtless": 17004,
    "tallow": 21088,
    "kinder": 24846,
    "va": 4744,
    "Ġjeopardized": 20233,
    "Ġgrec": 18961,
    "Ġprevented": 5943,
    "flitted": 23972,
    "Ġheaped": 18040,
    "Ġhowl": 12859,
    "Ġfireside": 23533,
    "Ġphilosophers": 10554,
    "Ġpass": 1037,
    "Ġactive": 7915,
    "Ġdesign": 4134,
    "Ġglances": 10375,
    "Ġapplication": 2072,
    "Ġscruples": 15082,
    "Ġgpt": 4351,
    "gences": 20879,
    "Ġ131": 24781,
    "Ġoften": 1957,
    "Ġsignificance": 13285,
    "Ġbreaches": 14521,
    "Ġauthent": 14512,
    "despair": 8344,
    "Ġdie": 3962,
    "idel": 5301,
    "germ": 15360,
    "Ġbanking": 19633,
    "Ġmisanthropic": 26562,
    "Ġdepresses": 25798,
    "Ġshabby": 14114,
    "Ġappar": 7411,
    "Ġruefully": 17304,
    "Ġglancing": 5399,
    "injured": 15136,
    "Ġherbage": 25997,
    "boiling": 19002,
    "Ġstri": 2802,
    "bable": 8722,
    "Ġkeepers": 23540,
    "Ġpillow": 10041,
    "arch": 1101,
    "Ġflannel": 26579,
    "Ġboisterously": 25683,
    "ca": 20795,
    "Ġnorris": 23204,
    "windward": 24163,
    "Ġbrand": 16188,
    "Ġskilful": 25838,
    "rary": 4575,
    "Ġbrighter": 16189,
    "Ġnantucket": 2837,
    "civility": 17515,
    "Ġindirectly": 8942,
    "Ġdownright": 16122,
    "Ġsuckling": 25998,
    "Ġsubsided": 14551,
    "perquis": 22194,
    "Ġquivers": 22417,
    "lovel": 22514,
    "almost": 4943,
    "Ġaddressing": 11166,
    "Ġfift": 6383,
    "Ġappertain": 22221,
    "health": 13836,
    "Ġtyros": 26102,
    "dishon": 20407,
    "with": 1294,
    "Ġmedicine": 15210,
    "Ġfeared": 5932,
    "Ġdisposal": 19379,
    "ellation": 12755,
    "Ġelevation": 14902,
    "Ġbetake": 22907,
    "separ": 9233,
    "Ġasyl": 12739,
    "Ġdrowned": 9555,
    "gence": 877,
    "Ġdragg": 23215,
    "recollection": 25349,
    "Ġperpendicularly": 11376,
    "Ġmoles": 22438,
    "Ġlashes": 17969,
    "Ġemph": 14527,
    "Ġscratch": 25565,
    "Ġwherefore": 8527,
    "safe": 10057,
    "Ġsockets": 22083,
    "Ġfemin": 13440,
    "Ġpeculiarities": 12075,
    "Ġfiled": 15584,
    "Ġenrolled": 21941,
    "ulance": 15771,
    "Ġwoeful": 19622,
    "Ġris": 4887,
    "Ġrespond": 11178,
    "ryder": 18638,
    "Ġemig": 14526,
    "Ġcandelab": 23852,
    "Ġnaut": 13944,
    "justified": 19005,
    "lection": 3653,
    "Ġstrange": 2269,
    "Ġwra": 5907,
    "Ġpartiality": 9401,
    "icest": 21567,
    "shel": 11934,
    "Ġthickening": 24027,
    "Ġswim": 3820,
    "Ġcanaan": 22170,
    "Ġhugest": 17017,
    "Ġswing": 13042,
    "ager": 6548,
    "punct": 20195,
    "Ġvenom": 24241,
    "skeleton": 17379,
    "structure": 2363,
    "Ġarrangements": 16518,
    "Ġgrass": 5177,
    "ized": 1531,
    "Ġlies": 5297,
    "charge": 9452,
    "Ġdeclining": 23967,
    "wanted": 10745,
    "Ġaccept": 4411,
    "Ġquitted": 5312,
    "Ġusurpation": 18358,
    "Ġscholar": 26112,
    "Ġhairs": 13235,
    "Ġwildness": 14605,
    "around": 12613,
    "Ġmillion": 14990,
    "grad": 2567,
    "Ġensue": 18191,
    "ters": 1572,
    "presents": 18799,
    "Ġrambling": 18643,
    "stretch": 13984,
    "ulate": 5233,
    "Ġbay": 9171,
    "Ġwoe": 4794,
    "ingolstadt": 21306,
    "akers": 9742,
    "mountains": 15184,
    "Ġ$": 21153,
    "ĠĠĠĠĠĠĠĠĠĠĠĠĠĠĠĠĠĠĠĠĠĠĠĠĠĠĠĠĠĠĠĠĠĠĠĠĠĠĠ": 19261,
    "Ġfreed": 7267,
    "Ġkne": 4268,
    "Ġglist": 9347,
    "Ġskewer": 19623,
    "Ġswiftness": 9930,
    "Ġguinea": 8950,
    "conclusion": 25672,
    "figured": 20126,
    "many": 5251,
    "thirty": 12767,
    "sullen": 17671,
    "abling": 1074,
    "lat": 9607,
    "Ġdisenc": 22530,
    "america": 17098,
    "infl": 15490,
    "Ġsenseless": 12083,
    "bul": 6951,
    "Ġconcentration": 25065,
    "obstructed": 15230,
    "ston": 15687,
    "Ġunsocial": 18257,
    "ĠĠĠĠĠĠĠĠĠĠĠĠ": 12905,
    "Ġtowards": 1732,
    "sick": 13787,
    "Ġloops": 8856,
    "Ġwithdrawn": 10609,
    "Ġarrange": 3122,
    "Ġhasten": 10480,
    "Ġyore": 21782,
    "Ġswallows": 18884,
    "Ġsinusoidal": 4802,
    "Ġsire": 15504,
    "Ġdo": 510,
    "Ġnin": 10190,
    "Ġegyptians": 25290,
    "ī": 236,
    "Ġricher": 12764,
    "Ġdarted": 4759,
    "Ġdrawings": 14725,
    "Ġinterior": 8898,
    "Ġdeserved": 7737,
    "cry": 12450,
    "Ġhos": 4942,
    "Ġinhabit": 5782,
    "iment": 2815,
    "Ġjustified": 11909,
    "uarded": 21108,
    "Ġcommander": 8628,
    "Ġflattened": 26048,
    "pin": 13770,
    "oused": 6558,
    "Ġalgorithm": 773,
    "Ġgained": 4535,
    "Ġshivering": 10268,
    "Ġboom": 9313,
    "kind": 3864,
    "Ġviv": 6158,
    "Ġexcursion": 26591,
    "Ġmartin": 25437,
    "Ġgr": 981,
    "liked": 10511,
    "Ġapplications": 4784,
    "Ġscholars": 26113,
    "eked": 16403,
    "Ġheadlong": 11892,
    "tom": 15438,
    "Ġoakshott": 12234,
    "Ġaz": 9632,
    "tears": 11039,
    "Ġreverence": 12063,
    "Ġquietly": 4567,
    "Ġcordial": 16837,
    "Ġsalutations": 25383,
    "Ġruskin": 25810,
    "Ġsteam": 9356,
    "levelled": 23646,
    "Ġdebated": 9043,
    "Ġmolasses": 25629,
    "Ġdeclares": 16994,
    "barrels": 15044,
    "Ġcaptains": 7457,
    "Ġmarshal": 20222,
    "Ġdangerous": 6615,
    "Ġdromed": 15601,
    "Ġassociation": 24710,
    "kine": 15379,
    "Ġdiana": 21439,
    "Ġobsequious": 17407,
    "Ġfabulous": 25949,
    "Ġbaleen": 10040,
    "inois": 17740,
    "ĠĠĠĠĠĠĠĠĠĠĠĠĠĠĠĠĠĠĠĠĠĠĠĠĠĠĠĠĠĠĠĠĠĠĠĠĠĠĠĠĠĠĠĠĠĠĠĠĠĠĠ": 20042,
    "disgraceful": 26077,
    "ulous": 4451,
    "Ġentr": 14341,
    "Ġtied": 7357,
    "etent": 10202,
    "Ġsnake": 12065,
    "Ġabsorbing": 17131,
    "Ġhellish": 10553,
    "Ġintrospect": 15832,
    "Ġver": 3394,
    "Ġtip": 15474,
    "Ġscant": 22284,
    "Ġstrasburgh": 18615,
    "Ġcloud": 3911,
    "Ġdeceased": 15008,
    "compar": 14360,
    "ifers": 15786,
    "Ġrobert": 10972,
    "Ġsitt": 21220,
    "osely": 9268,
    "attempts": 17193,
    "Ġmasonry": 13603,
    "Ġmerely": 3771,
    "riminately": 16486,
    "Ġissued": 10602,
    "Ġpatron": 7462,
    "ression": 3406,
    "Ġtransported": 11281,
    "vain": 15450,
    "Ġjustify": 11074,
    "glim": 19368,
    "may": 3681,
    "Ġwhirled": 14963,
    "analysis": 26174,
    "Ġsickened": 16777,
    "Ġbidden": 24647,
    "inexplicable": 25809,
    "legs": 13186,
    "usal": 7640,
    "Ġswimming": 5507,
    "Ġunheeded": 18262,
    "Ġdisregarded": 22534,
    "ĠâĢľâĢĻ": 22258,
    "construction": 19781,
    "Ġoakum": 16936,
    "broken": 8020,
    "nered": 18497,
    "Ġsigned": 11179,
    "Ġpriv": 4186,
    "penet": 11072,
    "Ġcasked": 24497,
    "Ġcheerless": 16695,
    "Ġirritation": 20269,
    "ched": 1547,
    "Ġsteal": 16287,
    "occupied": 12308,
    "weather": 7229,
    "Ġinjuring": 24271,
    "Ġdependen": 1831,
    "Ġimagenet": 19248,
    "Ġact": 691,
    "Ġlye": 21554,
    "opement": 10314,
    "Ġperfections": 23610,
    "shire": 3025,
    "Ġimpulse": 10027,
    "Ġcheering": 11135,
    "Ġiron": 3236,
    "ppered": 15795,
    "fates": 20860,
    "Ġclimates": 25054,
    ",âĢĻ": 2325,
    "lotts": 23829,
    "ria": 15799,
    "Ġ44": 16681,
    "Ġonset": 12715,
    "Ġgeometric": 3217,
    "Ġsearch": 2589,
    "Ġforbidden": 17079,
    "tormented": 13649,
    "Ġpetticoat": 15299,
    "Ġmout": 17800,
    "Ġblameless": 19861,
    "rified": 15422,
    "ff": 462,
    "Ġmainz": 22648,
    "Ġdire": 867,
    "Ġrises": 9716,
    "free": 8739,
    "Ġwept": 7184,
    "Ġpirate": 14998,
    "serpent": 16295,
    "metals": 24765,
    "Ġtwisting": 18659,
    "Ġunwarranted": 24831,
    "Ġderived": 8239,
    "acity": 5735,
    "handle": 11192,
    "Ġconnect": 798,
    "Ġavail": 11228,
    "Ġunsupplied": 22047,
    "line": 1439,
    "Ġtester": 21175,
    "orus": 10803,
    "este": 15925,
    "Ġembark": 8559,
    "fingers": 17373,
    "olidity": 18134,
    "Ġdrinks": 24282,
    "turtle": 12216,
    "driven": 19774,
    "Ġobtruded": 20724,
    "Ġexpect": 2300,
    "Ġaft": 5737,
    "Ġabstained": 25232,
    "Ġinfinite": 8580,
    "specific": 10500,
    "Ġunjustifiable": 25112,
    "Ġshut": 3941,
    "Ġpoltroon": 26600,
    "Ġbones": 4583,
    "Ġbohemian": 17136,
    "Ġextraction": 11253,
    "larking": 17596,
    "delighted": 10565,
    "Ġstationary": 19697,
    "Ġlikewise": 5386,
    "dance": 17521,
    "Ġresented": 22547,
    "char": 3502,
    "ier": 1136,
    "Ġtwelfth": 22681,
    "Ġoutrageous": 20613,
    "constit": 24605,
    "choose": 23673,
    "tumultuous": 20402,
    "l": 80,
    "Ġ]": 15462,
    "vation": 4745,
    ")âĢĶâĢľ": 20745,
    "Ġemploy": 3616,
    "insensibility": 23072,
    "mediate": 16517,
    "Ġmodern": 3227,
    "Ġnice": 6678,
    "chery": 24551,
    "door": 6195,
    "Ġshame": 6411,
    "Ġclaimed": 14208,
    "imens": 1749,
    "Ġstone": 4646,
    "Ġox": 7154,
    "Ġtrumpet": 9576,
    "Ġtravels": 11931,
    "Ġclo": 6046,
    "Ġmantel": 11441,
    "ceptible": 10959,
    "Ġadmin": 23556,
    "dy": 4075,
    "Ġspur": 18304,
    "Ġhindoo": 17178,
    "orous": 5294,
    "Ġriddles": 16734,
    "Ġtoss": 10187,
    "ĠĠĠĠĠĠĠĠĠĠĠĠĠĠĠĠĠĠĠĠĠĠĠĠĠĠĠĠĠĠĠĠĠĠĠĠĠĠĠĠĠĠĠĠ": 12158,
    "laden": 14932,
    "quitted": 21855,
    "umphed": 23518,
    "anche": 10790,
    "Ġslung": 23171,
    "Ġmarbles": 18874,
    "Ġjohnson": 18410,
    "Ġoccurrences": 11052,
    "perpetually": 20516,
    "Ġphyset": 23203,
    "Ġjoints": 12039,
    "myst": 9825,
    "orders": 12879,
    "Ġturner": 7051,
    "fold": 7547,
    "whispered": 20037,
    "nobody": 16146,
    "arth": 4444,
    "Ġpassions": 7930,
    "Ġpervers": 11787,
    "Ġunprecedented": 15858,
    "spe": 3560,
    "Ġ184": 16609,
    "Ġentire": 2559,
    "Ġemm": 18005,
    "attempted": 20177,
    "Ġbritannica": 24681,
    "Ġpat": 1747,
    "Ġvicious": 24403,
    "Ġlovers": 9723,
    "Ġscenarios": 26544,
    "Ġkentuckian": 26344,
    "Ġchili": 25562,
    "Ġbeale": 12704,
    "Ġtahitian": 25428,
    "Ġadvancement": 24475,
    "Ġstooping": 13067,
    "Ġprograms": 7239,
    "bones": 8372,
    "Ġyield": 5093,
    "Ġwallet": 21301,
    "Ġfantastic": 10062,
    "Ġoper": 2122,
    "Ġblowing": 10487,
    "dare": 12458,
    "Ġ12": 5483,
    "Ġano": 11599,
    "Ġoxen": 19954,
    "solving": 3102,
    "##": 2314,
    "Ġoutwardly": 25001,
    "Ġfowl": 11332,
    "poster": 11058,
    "Ġpulpit": 7470,
    "woods": 13423,
    "Ġzones": 22822,
    "Ġsqu": 1035,
    "Ġcomposedly": 25184,
    "Ġmichigan": 26428,
    "Ġrapid": 1443,
    "Ġtit": 8400,
    "ē": 212,
    "Ġsuccessful": 9926,
    "topp": 22569,
    "Ġtongue": 6349,
    "owe": 15712,
    "excellent": 8044,
    "Ġripple": 25505,
    "Ġchestnut": 19675,
    "Ġceremony": 8361,
    "pe": 1435,
    "Ġwaning": 15537,
    "Ġengagement": 5397,
    "Ġadviser": 25313,
    "Ġoblige": 10491,
    "uttle": 6249,
    "Ġconstruct": 23344,
    "Ġnaught": 8128,
    "Ġomit": 17817,
    "iage": 17575,
    "departed": 24793,
    "itzerland": 9998,
    "dressed": 10697,
    "quid": 18148,
    "Ġissue": 2307,
    "dis": 2247,
    "Ġbluish": 23652,
    "Ġimprovements": 14518,
    "st": 316,
    "Ġnerve": 16343,
    "Ġgoose": 5939,
    "Ġjourneying": 25566,
    "Ġfordham": 21780,
    "Ġobtain": 8918,
    "lest": 5290,
    "noticed": 14346,
    "Ġoblivion": 26032,
    "Ġpainting": 13145,
    "Ġcurios": 18858,
    "icles": 17975,
    "Ġunder": 1632,
    "rics": 13043,
    "Ġmischie": 22770,
    "Ġwar": 5526,
    "Ġhasty": 10479,
    "Ġke": 1156,
    "Ġquestion": 2777,
    "Ġsentry": 19030,
    "carrying": 16714,
    "willingly": 11987,
    "ft": 912,
    "ģ": 228,
    "Ġfunny": 7639,
    "Ġsob": 12788,
    "custom": 15336,
    "aught": 2680,
    "Ġaye": 3354,
    "Ġdestroyed": 5272,
    "Ġluck": 4881,
    "iety": 2817,
    "Ġfriends": 2655,
    "Ġgovernesses": 25130,
    "officer": 17055,
    "anations": 12581,
    "Ġmassachusetts": 24025,
    "Ġcuba": 25098,
    "Ġtormenting": 15108,
    "Ġbulk": 5591,
    "chronicle": 26482,
    "interruption": 20115,
    "Ġevangel": 11282,
    "Ġimpressions": 9556,
    "Ġleaf": 15727,
    "Ġbilliard": 16690,
    "Ġwhip": 8453,
    "Ġpreacher": 18370,
    "Ġthinking": 4031,
    "Ġmariner": 7247,
    "Ġconcluded": 5658,
    "Ġselected": 9714,
    "Ġpicking": 11261,
    "Ġjar": 15954,
    "Ġwarehouse": 20420,
    "Ġpondered": 15170,
    "Ġbased": 3341,
    "achus": 18284,
    "Ġfaintest": 24570,
    "phil": 7925,
    "Ġwatery": 6298,
    "conf": 4957,
    "Ġtist": 21165,
    "Ġmotion": 4566,
    "Ġamends": 14248,
    "weakness": 16128,
    "Ġmrs": 1467,
    "Ġper": 589,
    "Ġsolitudes": 22891,
    "Ġprecipitous": 24836,
    "net": 1194,
    "pigs": 17143,
    "Ġexec": 19495,
    "Ġsped": 22129,
    "deli": 15348,
    "Ġawaken": 23588,
    "Ġchin": 4892,
    "Ġwhaleman": 4655,
    "Ġsuffering": 8949,
    "Ġstup": 14008,
    "Ġherring": 14129,
    "Ġtossing": 8126,
    "Ġantichronical": 26611,
    "Ġhalls": 19528,
    "Ġdanced": 7842,
    "jerked": 25619,
    "introduced": 15128,
    "Ġfundament": 2928,
    "Ġdelineations": 26059,
    "false": 15358,
    "Ġroughs": 19960,
    "sax": 21059,
    "Ġannot": 15606,
    "eth": 620,
    "Ġdetest": 8504,
    "condesc": 18506,
    "Ġkilburn": 18352,
    "Ġpages": 15612,
    "aned": 5147,
    "Ġways": 5396,
    "Ġgrieve": 14710,
    "leaves": 12583,
    "Ġthine": 7374,
    "Ġembodied": 25848,
    "Ġwould": 651,
    "Ġreminds": 13435,
    "Ġhipp": 21495,
    "Ġparalle": 1411,
    "Ġrestrained": 16379,
    "Ġdisinclination": 22540,
    "face": 3679,
    "Ġconcepts": 4551,
    "Ġjoin": 4855,
    "Ġhats": 14620,
    "Ġmor": 1248,
    "Ġmaritime": 23039,
    "Ġbathing": 20202,
    "ography": 13367,
    "Ġnecessary": 4474,
    "material": 13134,
    "uit": 8393,
    "$": 8,
    "oboam": 9361,
    "ozy": 17624,
    "aming": 5829,
    "Ġfishy": 16526,
    "Ġlimit": 10445,
    "cies": 1815,
    "Ġborne": 6353,
    "Ġhousekeeper": 7456,
    "Ġdictated": 25219,
    "unwholesome": 26499,
    "Ġgaze": 6932,
    "sounded": 12271,
    "Ġpomp": 12627,
    "Ġcommonest": 23093,
    "Ġtranquil": 7310,
    "uncle": 8159,
    "Ġmonoman": 7939,
    "opol": 12876,
    "adier": 18092,
    "berries": 22750,
    "Ġmatrix": 1604,
    "Ġhappy": 2465,
    "Ġreward": 6146,
    "Ġperu": 14226,
    "Ġankers": 21448,
    "Ġsmaller": 1884,
    "himself": 3972,
    "Ġglo": 1718,
    "Ġscolding": 15204,
    "orted": 4603,
    "Ġhonoured": 9884,
    "Ġunconquerable": 22067,
    "Ġheartfelt": 18967,
    "Ġdews": 21842,
    "rum": 3468,
    "Ġstooped": 14466,
    "interval": 7991,
    "greatest": 10496,
    "gang": 17555,
    "Ġrough": 7187,
    "limp": 20954,
    "handkerchief": 14619,
    "arat": 9183,
    "Ġbeats": 21756,
    "Ġprank": 23217,
    "Ġack": 5622,
    "distinctive": 25726,
    "Ġyojo": 7612,
    "Ġshrill": 12146,
    "anch": 15564,
    "Ġdisliked": 12896,
    "unsupervised": 10891,
    "Ġutility": 23515,
    "Ġspatial": 2730,
    "Ġmil": 4256,
    "Ġestimated": 16596,
    "Ġpropriety": 10013,
    "vigorous": 25918,
    "Ġharbors": 24902,
    "posted": 24636,
    "Ġexcitement": 9384,
    "Ġsternly": 16717,
    "Ġundaunted": 24121,
    "mark": 5282,
    "assertion": 22327,
    "cure": 11476,
    "sailed": 17668,
    "Ġsnuff": 7992,
    "Ġthames": 13941,
    "Ġga": 4447,
    "Ġchecked": 9379,
    "Ġten": 2382,
    "varied": 23187,
    "atural": 953,
    "Ġexpectantly": 23526,
    "Ġlain": 17964,
    "ingham": 21303,
    "Ġstab": 10864,
    "Ġswash": 23058,
    "Ġresemblance": 7971,
    "chester": 23809,
    "Ġrese": 2116,
    "quar": 7617,
    "Ġcrush": 9425,
    "Ġprovince": 24192,
    "Ġimage": 3404,
    "Ġbulb": 23858,
    "Ġreplacing": 3448,
    "possibility": 13366,
    "far": 5787,
    "Ġunsuccessful": 18258,
    "Ġbrother": 2748,
    "Ġignorance": 6621,
    "ultural": 22572,
    "Ġbreak": 2867,
    "Ġthoroughfares": 26096,
    "R": 54,
    "Ġbald": 16209,
    "Ġgardener": 19136,
    "ĠĠĠĠĠĠĠĠĠĠĠĠĠĠĠĠĠĠĠĠĠĠĠĠĠĠĠĠĠĠĠĠĠĠĠĠĠĠĠĠĠĠ": 24212,
    "Ġshifting": 12773,
    "Ġcabinets": 23865,
    "direct": 12461,
    "luent": 16000,
    "Ġparameter": 876,
    "overcoat": 19053,
    "ades": 5631,
    "vels": 5432,
    "Ġobservable": 25129,
    "Ġsaints": 20677,
    "j": 78,
    "Ġslim": 18939,
    "Ġvex": 5950,
    "¼": 125,
    "Ġaffl": 14389,
    "Ġrescued": 24209,
    "Ġascending": 14857,
    "Ġcostume": 16498,
    "Ġjuncture": 17132,
    "Ġhack": 12761,
    "flowing": 14572,
    "Ġpoky": 21481,
    "Ġmetaphysical": 26068,
    "bank": 10082,
    "Ġperilously": 24507,
    "Ġstabbing": 20306,
    "Ġappearance": 3701,
    "Ġhorses": 6386,
    "Ġpoint": 2055,
    "Ġacknowledge": 13406,
    "urous": 10215,
    "ention": 859,
    "adem": 21761,
    "Ġlose": 5028,
    "Ġtimidity": 24688,
    "Ġabominable": 12326,
    "Ġprofessors": 14728,
    "arer": 3969,
    "sicilian": 21066,
    "adequate": 15207,
    "troubled": 17113,
    "Ġcass": 13882,
    "others": 7671,
    "Ġun": 423,
    "downward": 16621,
    "Ġbenevolent": 7773,
    "Ġbrigandish": 25488,
    "reliable": 21243,
    "Ġrevolut": 3259,
    "Ġbaron": 19336,
    "Ġdreadful": 4921,
    "Ġunpleasant": 7191,
    "deception": 22149,
    "Ġunhappily": 18263,
    "Ġvintage": 26211,
    "ain": 343,
    "wondered": 17118,
    "Ġcoasts": 12168,
    "Ġpace": 9185,
    "whatever": 6696,
    "Ġantagonist": 26330,
    "Ġmistaken": 4986,
    "rit": 21038,
    "slack": 16896,
    "queequeg": 4335,
    "oquent": 12504,
    "Ġtailed": 21171,
    "nikin": 23242,
    "Ġmaggie": 26293,
    "Ġcommercial": 22677,
    "Ġcasket": 19727,
    "Ġodd": 6627,
    "Ġinflamed": 13477,
    "caut": 20814,
    "deck": 4501,
    "Ġdexter": 9704,
    "pacing": 21023,
    "iminished": 19028,
    "gree": 10703,
    "Ġinstigated": 18705,
    "Ġindependence": 12109,
    "Ġparent": 14647,
    "Ġpallid": 12303,
    "entered": 8819,
    "embraces": 25806,
    "Ġfurnished": 6476,
    "Ġforcing": 3223,
    "Ġsnowy": 9021,
    "Ġmeddling": 21323,
    "Ġbloodshed": 23803,
    "Ġstammered": 26201,
    "Ġheading": 8938,
    "sters": 6392,
    "cab": 7333,
    "cannib": 11907,
    "Ġtattooings": 24901,
    "anxiety": 25159,
    "forgot": 11035,
    "Ġwarp": 8113,
    "rev": 17758,
    "bod": 12441,
    "Ġterribly": 10427,
    "quohog": 21856,
    "ounts": 4652,
    "Ġburg": 23654,
    "Ġwhiteness": 5920,
    "Ġsuitable": 18283,
    "Ġapologized": 25199,
    "wich": 11546,
    "fatality": 25022,
    "Ġintercept": 14272,
    "Ġsucceed": 4545,
    "Ġconnivance": 25226,
    "Ġdem": 11677,
    "ford": 2821,
    "irection": 2385,
    "Ġsideways": 6184,
    "Ġtot": 4189,
    "Ġunex": 11717,
    "Ġcompromised": 22575,
    "Ġassumed": 9468,
    "Ġcarpenter": 4685,
    "corrid": 24484,
    "Ġstrugg": 3216,
    "Ġblown": 12090,
    "Ġenvironments": 24092,
    "Ġsnodhead": 19303,
    "have": 2057,
    "play": 5099,
    "Ġwaters": 3596,
    "cely": 3574,
    "Ġfrankly": 16747,
    "model": 4613,
    "G": 43,
    "pp": 384,
    "ificial": 609,
    "Ġointment": 21329,
    "capting": 24042,
    "Ġmelancholy": 5606,
    "Ġserve": 9371,
    "Ġjacket": 6490,
    "hither": 11495,
    "Ġsum": 2701,
    "Ġsilken": 16385,
    "Ġbumpkins": 25282,
    "Ġvoluntarily": 12145,
    "countenance": 6925,
    "regarded": 12012,
    "Ġchoke": 22253,
    "Ġhauled": 11698,
    "ancho": 4938,
    "umerable": 11729,
    "conside": 9293,
    "Ġhaw": 10254,
    "Ġconsulting": 13433,
    "life": 4933,
    "Ġravings": 18645,
    "shr": 10980,
    "Ġmodest": 15922,
    "pow": 10719,
    "Ġvisitors": 7985,
    "aired": 8369,
    "Ġunchanging": 22049,
    "mayhew": 23995,
    "Ġcircumspection": 25885,
    "Ġ60": 14878,
    "pen": 1203,
    "Ġbadge": 16682,
    "Ġannounced": 9037,
    "Ġ95": 19776,
    "relieved": 13281,
    "heeded": 13837,
    "rather": 5430,
    "social": 11024,
    "Ġgag": 21596,
    "Ġ32": 19492,
    "Ġlounged": 19957,
    "difference": 13711,
    "istered": 14147,
    "Ġlowest": 11124,
    "Ġuntamed": 19166,
    "Ġshad": 3850,
    "Ġimplac": 24875,
    "Ġgold": 3280,
    "awned": 19463,
    "Ġmur": 2487,
    "enges": 13059,
    "Ġamidst": 9497,
    "erring": 11059,
    "contrary": 23731,
    "Ġrepay": 19083,
    "Ġfive": 2834,
    "presbyterian": 26370,
    "Ġstra": 2994,
    "Ġgem": 21597,
    "reputable": 15520,
    "garnished": 26390,
    "Ġrides": 21978,
    "Ġrosy": 18460,
    "Ġcorpusants": 13681,
    "Ġprosecuted": 25294,
    "r": 86,
    "Ġprobable": 5570,
    "bloom": 24690,
    "Ġdough": 8422,
    "Ġprovoke": 14829,
    "Ġstim": 18066,
    "Ġinstruments": 12228,
    "Ü": 157,
    "Ġarsacides": 17297,
    "rogress": 21539,
    "Ġbreathlessly": 24283,
    "Ġpromises": 10403,
    "Ġweak": 5098,
    "Ġvilest": 20104,
    "Ġosc": 2833,
    "andish": 18156,
    "Ġimpass": 15990,
    "agreeable": 5830,
    "exe": 11793,
    ".âĢĶâĢľ": 20749,
    "want": 8770,
    "Ġexceptionable": 25504,
    "Ġouter": 6859,
    "Ġra": 812,
    "freely": 16856,
    "Ġnavy": 14919,
    "Ġpurch": 6601,
    "Ġpleasurable": 23343,
    "Ġeurope": 8062,
    "Ġsimplest": 16337,
    "Ġillustrate": 25068,
    "Ġjavelin": 26105,
    "quently": 9705,
    "Ġcompacted": 23510,
    "Ġsallied": 12542,
    "Ġfrancis": 26064,
    "swimming": 24261,
    "Ġthreatened": 8330,
    "Ġturbul": 23614,
    "Ġbenefactor": 14700,
    "kicked": 20945,
    "bedstead": 23935,
    "seaman": 25458,
    "Ġlandsmen": 11353,
    "18": 20753,
    "Ġtransparent": 9492,
    "Ġmulti": 1042,
    "Ġglories": 16242,
    "Ġwrinkled": 7264,
    "div": 8076,
    "arius": 14251,
    "ter": 359,
    "Ġglistening": 12369,
    "ounix": 14164,
    "distant": 13339,
    "ar": 285,
    "Ġthoroughly": 8348,
    "pict": 8386,
    "Ġeating": 8136,
    "mag": 6509,
    "Ġtransports": 24280,
    "Ġliber": 5168,
    "education": 20304,
    "glances": 23856,
    "Ġfrench": 4939,
    "into": 3682,
    "Ġluckless": 16799,
    "reading": 12084,
    "contrast": 25595,
    "Ġtracing": 18890,
    "Ġconducted": 10505,
    "Ġoccurred": 4463,
    "ª": 108,
    "Ġmult": 1022,
    "ust": 496,
    "Ġbrix": 12588,
    "Ġdom": 2836,
    "Ġtuileries": 24824,
    "Ġval": 960,
    "Ġop": 2601,
    "Ġgriefs": 16773,
    "Ġskrimshander": 22803,
    "Ġunidirectional": 3425,
    "occurred": 13342,
    "Ġthese": 818,
    "aky": 18412,
    "Ġberg": 24536,
    "Ġgodly": 19082,
    "Ġsnuffed": 15076,
    "b": 70,
    "inea": 7624,
    "acid": 11007,
    "Ġemboldened": 22953,
    "Ġsus": 18280,
    "Ġunderneath": 16341,
    "marching": 25753,
    "favour": 9552,
    "Ġrecesses": 17263,
    "Ġtrod": 15029,
    "Ġdungeon": 16998,
    "gained": 20883,
    "thesize": 24907,
    "etts": 12665,
    "Ġwrapt": 24596,
    "Ġwent": 1538,
    "Ġtruth": 3322,
    "onged": 18411,
    "Ġtenderest": 23551,
    "ñ": 178,
    "Ġseal": 10259,
    "Ġheathen": 10568,
    "na": 13763,
    "Ġimmutable": 17361,
    "procure": 23400,
    "Ġvivacious": 19818,
    "relatively": 24017,
    "Ġphrenologically": 20397,
    "ì": 173,
    "pless": 6262,
    "abular": 4763,
    "Ġfacet": 15589,
    "ifting": 6547,
    "Ġscraped": 16905,
    "Ġpeasants": 12336,
    "momentum": 4991,
    "Ġshift": 2278,
    "Ġinterfere": 11821,
    "Ġrouse": 15826,
    "Ġinevitable": 15171,
    "exceed": 7911,
    "turner": 19544,
    "Ġbiting": 17863,
    "Ġdesp": 3214,
    "Ġbulldog": 23862,
    "Ġice": 3604,
    "Ġprophe": 13083,
    "Ġabroad": 8869,
    "Ġvexatious": 19784,
    "Ġhydraulic": 10067,
    "september": 14039,
    "Ġchambers": 16801,
    "eer": 15351,
    "Ġalgorithms": 850,
    "shipmates": 11932,
    "ios": 2303,
    "Ġerudite": 26353,
    "Ġfierce": 7437,
    "Ġhurling": 19112,
    "Ġegotistical": 26193,
    "Ġcap": 2359,
    "pped": 1998,
    "Ġsighing": 18679,
    "Ġvideos": 13610,
    "Ġextremities": 19198,
    "Ġardent": 9973,
    "Ġvertically": 19383,
    "Ġtables": 9881,
    "doublo": 24661,
    "Ġportly": 14680,
    "barb": 10083,
    "Ġdeclaration": 16639,
    "Ġmitt": 21310,
    "Ġimpetuously": 20375,
    "unnecessary": 21884,
    "plague": 21957,
    "Ġdisputes": 25826,
    "ease": 12462,
    "Ġincident": 6282,
    "Ġfanning": 23393,
    "sat": 4811,
    "seamen": 13630,
    "Ġvul": 10250,
    "along": 6014,
    "obed": 14449,
    "Ġprompt": 3190,
    "amiable": 14056,
    "icuous": 10837,
    "Ġmusical": 23896,
    "Ġfever": 6560,
    "Ġbridges": 24683,
    "Ġgrave": 5100,
    "prevailed": 17348,
    "Ġginger": 9213,
    "Ġsunda": 13547,
    "Ġstaid": 21739,
    "Ġclothing": 18431,
    "Ġshook": 4469,
    "ortion": 11761,
    "Ġinterests": 14570,
    "Ġrewarded": 14943,
    "fierce": 25256,
    "Ġconvince": 14644,
    "Ġverdict": 13479,
    "Ġaccompanied": 6781,
    "ouncement": 11749,
    "Ġgust": 21600,
    "Ġmalacca": 24393,
    "itchen": 7788,
    "Ġtrappers": 23084,
    "Ġabout": 633,
    "browed": 25895,
    "Ġbrandy": 11051,
    "Ġseasonable": 24406,
    "ran": 11518,
    "Ġblanche": 18821,
    "nineteenth": 26139,
    "tim": 13794,
    "threadbare": 25990,
    "oura": 1058,
    "Ġpartly": 6715,
    "fall": 5135,
    "til": 17673,
    "Ġwrench": 12562,
    "Ġalongside": 6313,
    "barbar": 20241,
    "arched": 10817,
    "Ġgrazed": 15837,
    "Ġpersuade": 5874,
    "Ġperhaps": 1912,
    "atical": 10773,
    "Ġmajestic": 8643,
    "variance": 2656,
    "Ġpupp": 10822,
    "Ġoccupies": 24011,
    "Ġunfathom": 14792,
    "phur": 16151,
    "resides": 23672,
    "Ġrheumatic": 20707,
    "Ġrendered": 5773,
    "Ġstriving": 8999,
    "nevertheless": 8286,
    "Ġmurmuring": 23581,
    "gaze": 17559,
    "wit": 7817,
    "charmed": 21699,
    "Ġknave": 11274,
    "Ġinmost": 17933,
    "Ġgin": 13964,
    "Ġobstetrics": 24679,
    "Ġbreach": 11978,
    "Ġhelmeted": 19691,
    "Ġtwin": 12933,
    "Ġcurse": 7669,
    "Ġbumps": 21395,
    "Ġconsequence": 5542,
    "last": 3803,
    "\\": 64,
    "gest": 5426,
    "Ġadmirals": 20388,
    "Ġadvantages": 9814,
    "atha": 6574,
    "Ġpassenger": 14373,
    "lanterns": 17432,
    "strangely": 17279,
    "Ġgreatly": 5851,
    "Ġbites": 23746,
    "wedged": 24559,
    ".âĢĶ": 4250,
    "Ġvisitor": 5331,
    "Ġconsummation": 17428,
    "honour": 13471,
    "Ġtiresome": 26157,
    "lant": 20949,
    "Ġduring": 873,
    "ak": 538,
    "egyptians": 25899,
    "Ġadm": 2402,
    "Ġha": 400,
    "Ġwelded": 9574,
    "Ġgarb": 21606,
    "Ġroving": 22407,
    "Ġindulge": 10585,
    "hy": 4741,
    "Ġperiodical": 14775,
    "hopper": 23717,
    "Ġsymp": 4503,
    "]]": 5205,
    "pre": 650,
    "Ġrocks": 6863,
    "giana": 7801,
    "Ġforeb": 12008,
    "algorith": 3243,
    "lee": 11588,
    "Ġdip": 13910,
    "Ġdominant": 12400,
    "Ġarrowy": 25470,
    "Ġmount": 7362,
    "uv": 6231,
    "sies": 21057,
    "Ġpettic": 14844,
    "Ġle": 333,
    "Ġuninter": 18247,
    "ama": 11680,
    "Ġdamp": 8264,
    "ĠcÃ¦": 15559,
    "screen": 22994,
    "Ġstacks": 18077,
    "Ġdrunk": 9427,
    "Ġwho": 612,
    "spouter": 22732,
    "Ġticklish": 25037,
    "Ġfavoured": 16367,
    "Ġchip": 12829,
    "declaration": 25176,
    "Ġfeigned": 22212,
    "Ġhushed": 13928,
    "reject": 21239,
    "Ġcolt": 11046,
    "Ġtraveller": 8049,
    "Ġgrievances": 20650,
    "Ġeasiness": 23538,
    "Ġpassages": 12975,
    "intention": 10370,
    "pered": 4200,
    "uel": 6967,
    "Ġruss": 18720,
    "follows": 24528,
    "rudence": 7094,
    "shriek": 20523,
    "Ġumbrell": 13654,
    "feeder": 12365,
    "kindly": 14747,
    "Ġwreat": 15534,
    "Ġsatisfied": 4174,
    "poured": 17639,
    "irregular": 21915,
    "forecastle": 10992,
    "starbuck": 6020,
    "Ġcowards": 12578,
    "Ġscrew": 8871,
    "Ġcompletely": 4861,
    "Ġtrade": 2547,
    "Ġconsoled": 18115,
    "Ġbreadth": 10566,
    "Ġacid": 22685,
    "unconquerable": 21895,
    "aces": 2069,
    "Ġgone": 2108,
    "21": 10075,
    "Ġbanks": 6815,
    "Ġthy": 2512,
    "request": 21244,
    "ds": 4688,
    "Ġparson": 6689,
    "added": 11662,
    "Ġdetails": 6567,
    "Ġjane": 1761,
    "baboon": 25517,
    "Ġdestiny": 8986,
    "Ġstiffly": 15007,
    "bourn": 3303,
    "er": 269,
    "Ġshrugged": 12774,
    "Ġdecks": 6900,
    "ï": 176,
    "Ġhood": 10825,
    "settled": 10509,
    "quaker": 15767,
    "Ġsam": 7570,
    "believe": 8304,
    "Ġgest": 8134,
    "glue": 17558,
    "maj": 18806,
    "Ġdevoured": 16140,
    "Ġfins": 9666,
    "Ġsatisfy": 6911,
    "Ġeddying": 17119,
    "Ġfeast": 10280,
    "Ġindisc": 16232,
    "Ġduplicate": 17218,
    "eag": 20844,
    "Ġbeamed": 23724,
    "Ġcoupled": 16853,
    "Ġancho": 15607,
    "Ġupwards": 7635,
    "Ġrevisit": 21673,
    "Ġsisterly": 16307,
    "Ġsignificantly": 4519,
    "Ġtroubles": 19442,
    "Ġrushed": 4088,
    "Ġhospit": 7515,
    "origin": 7583,
    "keepers": 16662,
    "rote": 4592,
    "Ġkeel": 6445,
    "islanders": 25443,
    "Ġwits": 15535,
    "Ġpermit": 9752,
    "ature": 521,
    "Ġcogn": 11004,
    "Ġalleviated": 26205,
    "Ġlodges": 19503,
    "oked": 4309,
    "perceived": 8862,
    "Ġsurviv": 13439,
    "Ġopinion": 3143,
    "ris": 9140,
    "Ġgeneral": 1862,
    "Ġsketch": 16168,
    "Ġpinioned": 21485,
    "Ġfighting": 12202,
    "Ġadmitting": 19185,
    "ge": 558,
    "form": 495,
    "Ġtoiled": 12647,
    "Ġassent": 12738,
    "Ġexert": 5722,
    "ute": 4643,
    "Ġwhiting": 10861,
    "Ġmansfield": 25939,
    "Ġmeadows": 11424,
    "Ġtwisted": 7228,
    "Ġimpelling": 22391,
    "Ġoperate": 19117,
    "Ë": 140,
    "Ġas": 374,
    "frank": 7758,
    "Ġireland": 17338,
    "Ġaim": 10148,
    "Ġ80": 24456,
    "found": 4216,
    "Ġbarbs": 10534,
    "Ġinfluence": 5515,
    "_.âĢĶ": 23474,
    "aths": 22706,
    "rints": 12507,
    "Ġrede": 13987,
    "Ġcases": 3961,
    "Ġwants": 5742,
    "Ġep": 7384,
    "struck": 7862,
    "reeling": 21247,
    "Ġearnestness": 12130,
    "iple": 4807,
    "Ġwelfare": 12564,
    "Ġtestified": 16335,
    "Ġhonor": 5664,
    "Ġsemblance": 20736,
    "Ġaustral": 12177,
    "hush": 20908,
    "Ġbecoming": 4398,
    "Ġsurf": 19133,
    "Ġhopeful": 19035,
    "vour": 17701,
    "here": 2549,
    "Ġsworn": 14438,
    "Ġimperilled": 19581,
    "Ġrings": 11704,
    "Ġdimension": 3241,
    "thine": 15828,
    "Ġallusion": 7627,
    "Ġacutely": 14317,
    "fever": 22505,
    "Ġexceeding": 1580,
    "Ġlady": 1585,
    "Ġaristotle": 25818,
    "libra": 22928,
    "Ġcombinations": 22880,
    "windlass": 16723,
    "Ġsophisticated": 1507,
    "Ġtails": 9905,
    "mistress": 14908,
    "Ġwarnings": 16883,
    "Ġwhitened": 24868,
    "lounged": 26134,
    "chastic": 2331,
    "approve": 19940,
    "Ġpriests": 15043,
    "Ġgidd": 25784,
    "Ġimagine": 3923,
    "Ġpooh": 18604,
    "Ġdawn": 6817,
    "dataset": 23232,
    "erc": 5906,
    "Ø": 153,
    "Ġniagara": 26460,
    "raid": 3281,
    "Ġresort": 18564,
    "Ġghosts": 12237,
    "Ġapprehending": 26092,
    "eneva": 5118,
    "Ġmachinery": 20488,
    "baked": 20781,
    "Ġconvul": 13205,
    "gentle": 5357,
    "Ġdesperado": 19822,
    "direful": 25897,
    "Ġrabbit": 4290,
    "Ġenhance": 2929,
    "Ġagency": 11810,
    "anelles": 26436,
    "Ġcorrespondence": 10597,
    "Ġwager": 17794,
    "Ġate": 8844,
    "Ġtreacle": 14597,
    "rals": 21045,
    "Ġwarmth": 6905,
    "Ġimplore": 24873,
    "persuade": 13536,
    "Ġreadily": 5254,
    "Ġadding": 2403,
    "gate": 12471,
    "Ġcompares": 20169,
    "Ġheron": 22077,
    "Ġembellished": 25850,
    "ard": 465,
    "cup": 10694,
    "Ġbowels": 9433,
    "broke": 14781,
    "Ġfind": 1457,
    "pregn": 18501,
    "Ġbu": 3684,
    "disappeared": 14571,
    "Ġpenalizing": 13096,
    "Ġherself": 1567,
    "Ġbounding": 19403,
    "renadier": 18420,
    "Ġdetestation": 17130,
    "sembled": 7263,
    "udg": 22771,
    "Ġegot": 18010,
    "Ġarchipelagoes": 14351,
    "Ġwhalemen": 3912,
    "enger": 10775,
    "me": 862,
    "zy": 2670,
    "Ġnarratives": 24353,
    "Ġsyntax": 958,
    "Ġexordium": 26494,
    "loud": 11503,
    "Ġtep": 21164,
    "Ġpea": 14320,
    "inkles": 7426,
    "Ġconstrued": 26302,
    "Ġinformation": 1046,
    "Ġsoot": 14132,
    "Ġventured": 7502,
    "calcul": 12992,
    "al": 292,
    "avating": 18606,
    "Ġceremonious": 24838,
    "Ġtowers": 16740,
    "opatra": 22481,
    "Ġerected": 12238,
    "atch": 673,
    "Ġtheir": 645,
    "balance": 12011,
    "Ġprofess": 3700,
    "large": 6628,
    "Ġswings": 11089,
    "Ġvicinity": 7315,
    "ney": 2491,
    "Ġsight": 2112,
    "da": 17516,
    "presum": 12873,
    "Ġmanx": 7905,
    "Ġolfactories": 26172,
    "Ġcelerity": 17439,
    "ply": 6367,
    "Ġconstantly": 11977,
    "Ġsaloon": 24065,
    "Ġmonument": 16241,
    "ounder": 11748,
    "Ġscrupulous": 20072,
    "Ġimpaling": 22389,
    "seeking": 17155,
    "Ġfronts": 19004,
    "Ġadler": 8174,
    "acknowledged": 15206,
    "Ġposture": 24167,
    "Ġbud": 10171,
    "Ġunseasonable": 26522,
    "training": 2517,
    "Ġisrael": 21807,
    "mical": 9131,
    "Ġaven": 10761,
    "igns": 8449,
    "Ġcleaning": 23183,
    "Ġindisposed": 26290,
    "velling": 14765,
    "isk": 9170,
    "Ġmyster": 5927,
    "pulled": 25148,
    "itting": 1152,
    "Ġcheating": 16373,
    "Ġvaults": 17156,
    "Ġcent": 3255,
    "cream": 15334,
    "Ġfounded": 8561,
    "Ġhumbly": 16200,
    "Ġdiscuss": 9477,
    "?_": 8070,
    "soever": 11863,
    "Ġhams": 16614,
    "Ġloves": 10917,
    "largely": 19577,
    "Ġscreaming": 13427,
    "ě": 220,
    "Ġpromptly": 23821,
    "shining": 18488,
    "Ġperfection": 19221,
    "Ġinventing": 24862,
    "ooped": 17625,
    "Ġill": 2192,
    "ellent": 3762,
    "Ġwelcome": 5604,
    "Ġnaturally": 2466,
    "Ġafresh": 18625,
    "Ġassisted": 11112,
    "Ġmutter": 23957,
    "impress": 18054,
    "poles": 16212,
    "Ġtalent": 12301,
    "appo": 3914,
    "Ġungover": 18256,
    "ickory": 22672,
    "Ġphrenologist": 25608,
    "Ġleeward": 6212,
    "pect": 1252,
    "ceremony": 20593,
    "Ġsilly": 7687,
    "Ġcrammed": 16473,
    "Ġexpose": 10330,
    "Ġcatholic": 20684,
    "soul": 9143,
    "american": 11402,
    "Ġbetrayed": 9564,
    "pets": 17638,
    "Ġ37": 24079,
    "Ġreproach": 9559,
    "Ġsepulch": 15288,
    "Ġhandful": 9785,
    "Ġriotous": 20547,
    "Ġslumbers": 18944,
    "Ġearls": 18905,
    "Ġdedu": 5584,
    "window": 7743,
    "ļ": 253,
    "Ġunpitying": 25661,
    "Ġpenetration": 19919,
    "Ġcontracting": 16015,
    "Ġdash": 8122,
    "Ġfer": 5529,
    "Ġrepresentations": 1876,
    "Ġresources": 2940,
    "persu": 8028,
    "Ġ75": 19615,
    "Ġembal": 11905,
    "Ġjung": 12841,
    "Ġskil": 14354,
    "step": 2456,
    "ocations": 23707,
    "ufact": 10735,
    "women": 15459,
    "Ġvelocity": 10623,
    "Ġeclipsed": 26378,
    "fed": 11490,
    "saved": 15434,
    "Ġspectacles": 12102,
    "Ġwhisky": 23937,
    "Ġharmless": 9968,
    "Ġdesertion": 24786,
    "Ġjabbering": 22307,
    "Ġventilator": 8717,
    "Ġhorse": 4725,
    "Ġostlers": 25277,
    "floated": 24644,
    "shore": 10308,
    "Ġwoodcock": 19165,
    "Ġprying": 15613,
    "ached": 2319,
    "ospel": 17012,
    "Ġundulated": 19519,
    "Ġag": 683,
    "Ġemotion": 7691,
    "consider": 6350,
    "Ġclapham": 17268,
    "Ġsleeper": 8604,
    "results": 20390,
    "Ġwearily": 18180,
    "Ġphilosophy": 7105,
    "aze": 10078,
    "Ġunmanufactured": 20437,
    "Ġrec": 895,
    "Ġawed": 23587,
    "Ġpuff": 6527,
    "Ġindefinite": 17179,
    "Ġforts": 21776,
    "thought": 3849,
    "arcy": 1272,
    "Ġunrivalled": 26521,
    "accomplished": 17214,
    "ez": 5683,
    "thanked": 24327,
    "Ġunreasonably": 17454,
    "Ġterritories": 23849,
    "Ġeverything": 3155,
    "ssing": 3809,
    "Ġunjustly": 17129,
    "Ġirresolute": 24917,
    "Ġmarks": 6748,
    "arabian": 26448,
    "gems": 20886,
    "paid": 15417,
    "Ġfundamentals": 14637,
    "Ġshy": 10905,
    "Ġmind": 1618,
    "Ġreserve": 9974,
    "mad": 5281,
    "Ġlav": 13953,
    "Ġdecanting": 22461,
    "Ġunbroken": 18251,
    "Ġtries": 9153,
    "fav": 6649,
    "Ġassailants": 20452,
    "tra": 5002,
    "rough": 591,
    "Ġsuspicion": 6213,
    "masterly": 24530,
    "smote": 23913,
    "Ġacquiring": 2766,
    "quickness": 19853,
    "Ġglimp": 6067,
    "Ġoutlast": 22310,
    "izers": 18145,
    "Ġwatched": 6299,
    "Ġbrooding": 18909,
    "Ġmonogram": 26576,
    "property": 20003,
    "Ġsurround": 4618,
    "Ġincreasing": 8248,
    "several": 5544,
    "Ġrobe": 18459,
    "Ġlightning": 5750,
    "Ġreside": 22543,
    "breadth": 20279,
    "Ġfarthest": 23119,
    "Ġphantom": 8710,
    "Ġzodiac": 16178,
    "acks": 11792,
    "Ġclasses": 4055,
    "as": 302,
    "Ġinvesting": 19644,
    "accidents": 19214,
    "Ġtrouble": 3692,
    "Ġscream": 5936,
    "Ġuntidy": 23524,
    "indust": 18436,
    "kindred": 24052,
    "Ġest": 2262,
    "mbling": 3347,
    "Ġforged": 12709,
    "Ġirrad": 19095,
    "Ġnarr": 5085,
    "Ġtried": 3648,
    "produce": 20285,
    "Ġconfinement": 19040,
    "semble": 1525,
    "backward": 2683,
    "Ġdocile": 19962,
    "Ġendeavours": 8621,
    "bation": 9106,
    "Ġmould": 6520,
    "Ġdon": 1610,
    "Ġneighbor": 25804,
    "Ġmaster": 3683,
    "Ġarve": 15902,
    "put": 414,
    "signs": 16541,
    "Ġve": 1110,
    "zes": 11551,
    "umer": 9261,
    "octial": 20008,
    "Ġaccord": 4026,
    "Ġcharacteristic": 12052,
    "scho": 8763,
    "embow": 21935,
    "fect": 2295,
    "continuing": 24479,
    "avor": 14279,
    "Ġfortitude": 9888,
    "Ġflooded": 24962,
    "Ġdividing": 12116,
    "Ġslips": 23169,
    "Ġidly": 16404,
    "Ġcandidate": 16700,
    "friends": 8306,
    "semic": 21825,
    "Ġethiop": 26156,
    "Ġheredit": 9219,
    "Ġnails": 12653,
    "Ġjonas": 20612,
    "touch": 8392,
    "54": 15303,
    "Ġindepend": 3669,
    "Ġimplies": 24874,
    "Ġremarks": 7474,
    "eric": 3469,
    "Ġwarden": 17227,
    "Ġalien": 14021,
    "Ġpaces": 13922,
    "Ġquery": 2478,
    "Ġfra": 1703,
    "Ġgems": 9211,
    "Ġpert": 22401,
    "Ġdesmarest": 22979,
    "Ġconvincing": 19309,
    "Ġhard": 1441,
    "Ġweakened": 16825,
    "Ġpian": 13920,
    "Ġtex": 15475,
    "cabin": 8363,
    "Ġsche": 1708,
    "Ġanno": 9670,
    "Ġacknowledgment": 16959,
    "Ġvictoria": 14876,
    "Ġmetallic": 19059,
    "Ġcens": 8414,
    "osure": 5308,
    "Ġhamper": 19392,
    "Ġpartner": 6716,
    "Ġtransformed": 22612,
    "Ġproprietors": 20189,
    "ignorant": 13567,
    "Ġbrown": 6300,
    "Ġused": 2059,
    "Ġsperm": 1844,
    "Ġ1894": 5196,
    "Ġirene": 8445,
    "asc": 6387,
    "wing": 2519,
    "Ġunkindness": 22046,
    "Ġ106": 24414,
    "Ġtypes": 8939,
    "loat": 8890,
    "Ġcompasses": 11269,
    "Ġdra": 1589,
    "Ġher": 426,
    "Ġmacey": 12568,
    "based": 2962,
    "Ġlic": 8437,
    "girl": 12322,
    "enthusiastic": 20695,
    "Ġno": 509,
    "xible": 13811,
    "Ġbrimstone": 25687,
    "precision": 4332,
    "Ġwhirlpool": 20657,
    "âĢĶâĢľ": 2973,
    "slight": 10729,
    "Ġvent": 3997,
    "Ġfriesland": 26444,
    "Ġ76": 24265,
    "unfortunate": 15781,
    "const": 5940,
    "Ġpia": 21466,
    "Ġconvict": 23748,
    "miles": 10714,
    "lotte": 3333,
    "Ġmenaced": 16296,
    "Ġodor": 12154,
    "aving": 2406,
    "summon": 23418,
    "Ġformation": 2946,
    "diligence": 26111,
    "Ġpan": 5082,
    "Ġmoods": 14954,
    "enari": 21284,
    "rid": 5137,
    "Ġstanders": 19020,
    "Ġbarrels": 9439,
    "Ġfacetious": 20587,
    "antage": 3879,
    "Ġsaleve": 17394,
    "bishop": 13698,
    "swell": 17665,
    "Ġsurgeon": 8984,
    "recked": 17764,
    "Ġstraw": 9432,
    "itors": 2913,
    "Ġbreeze": 5681,
    "Ġprivately": 19526,
    "Ġcaught": 3731,
    "ertips": 23642,
    "par": 1923,
    "onent": 21251,
    "Ġdread": 3163,
    "zors": 21150,
    "abetical": 15747,
    "cruet": 17028,
    "Ġunscrew": 22044,
    "oric": 21399,
    "itty": 3554,
    "inex": 14095,
    "odiac": 14035,
    "¨": 106,
    "ctuous": 9208,
    "Ġpred": 661,
    "00": 1608,
    "Ġovercome": 6044,
    "Ġmacy": 19358,
    "pencil": 18829,
    "Ġirritated": 17244,
    "Ġmaids": 19694,
    "accept": 8901,
    "affa": 23779,
    "neath": 12871,
    "glad": 9011,
    "Ġsculpt": 15950,
    "Ġtarget": 2820,
    "exclaimed": 11794,
    "appropri": 22845,
    "26": 10076,
    "concerning": 9070,
    "Ġ&": 6514,
    "spiracle": 22734,
    "Ġslashing": 23173,
    "Ġforbade": 15218,
    "eter": 11624,
    "Ġpainted": 7979,
    "Ġ115": 24439,
    "Ġreceiving": 4883,
    "Ġhistorical": 3646,
    "Ġgoug": 17993,
    "exasper": 22431,
    "commun": 15036,
    "Ġindolence": 16233,
    "setting": 13290,
    "ć": 200,
    "Ġnewfoundland": 26571,
    "Ġshoved": 23492,
    "Ġgreece": 17071,
    "Ġaccidental": 16850,
    "ret": 1476,
    "roqu": 21537,
    "onsensical": 18577,
    "ucket": 2482,
    "Ġpequod": 2320,
    "Ġslightest": 6093,
    "Ġspeckled": 14312,
    "Ġmanoir": 22335,
    "Ġcobbler": 25831,
    "æ": 167,
    "Ġdidst": 11853,
    "Ġcontact": 9284,
    "Ġleaped": 8830,
    "Ġamounts": 6706,
    "Ġpractice": 2767,
    "Ġdedicated": 19218,
    "Ġchas": 18379,
    "certain": 3678,
    "Ġtherein": 11780,
    "Ġrallied": 14099,
    "inople": 13832,
    "Ġrobust": 1390,
    "Ġstepped": 7053,
    "alas": 8808,
    "Ġbressed": 21390,
    "Ġscra": 5841,
    "Ġhummed": 18779,
    "lad": 5993,
    "wled": 15457,
    "Ġmines": 21311,
    "Ġcaptain": 1600,
    "Ġgladness": 16593,
    "Ġapprehensions": 13408,
    "shadow": 20315,
    "deliberated": 26119,
    "fain": 13718,
    "Ġgripping": 26188,
    "Ġwhichever": 14003,
    "Ġpell": 21458,
    "misrepresented": 24214,
    "Ġislets": 21805,
    "_:": 17481,
    "Ġassault": 9840,
    "Ġspoken": 4838,
    "each": 7335,
    "Ġprematurely": 24009,
    "ispensable": 9099,
    "consequential": 26251,
    "joint": 24012,
    "instantly": 7507,
    "abated": 14023,
    "Ġirresolution": 24916,
    "Ġforbe": 8459,
    "Ġdominic": 25381,
    "remains": 10401,
    "seas": 14036,
    "Ġchronicler": 20232,
    "battle": 12446,
    "vard": 21113,
    "honor": 19902,
    "Ġstride": 22617,
    "ott": 1873,
    "Ġgrimly": 17053,
    "Ġnightmare": 18921,
    "varieties": 23189,
    "Ġstumbling": 21746,
    "raised": 15683,
    "Ġsporty": 19892,
    "precaution": 23826,
    "Ġprudence": 13923,
    "alter": 10828,
    "Ġsubtlety": 24779,
    "Ġhogshe": 20495,
    "Ġwealth": 7622,
    "Ġplausible": 26555,
    "Ġspecially": 12002,
    "Ġgover": 2461,
    "heaving": 21210,
    "Ġpaling": 21464,
    "Ġgeological": 14535,
    "Ġconceals": 23907,
    "Ġsociety": 3978,
    "nameless": 19905,
    "Ġnewcom": 16226,
    "opic": 22480,
    "Ġmistaking": 23721,
    "Ġbestowed": 6595,
    "Ġpattern": 1297,
    "Ġ221": 25071,
    "...": 24549,
    "Ġbow": 3064,
    "Ġpicturesque": 14897,
    "Ġbreed": 19075,
    "Ġrele": 2917,
    "somebody": 14566,
    "Ġthroes": 24575,
    "Ġbundle": 13430,
    "jewel": 20349,
    "Ġwilds": 16511,
    "Ġenlar": 15804,
    "Ġrevolutions": 23845,
    "Ġbarbary": 24219,
    "failed": 20865,
    "ture": 7559,
    "Ġinclinations": 19542,
    "Ġsons": 10768,
    "Ġinner": 9673,
    "Ġbearing": 5300,
    "Ġnimble": 21531,
    "Ġstrolled": 16772,
    "Ġrepresent": 1211,
    "xology": 21144,
    "Ġimpenit": 22394,
    "Ġchamp": 18381,
    "gr": 2087,
    "ither": 1548,
    "Ġmarling": 23035,
    "Ġclient": 5556,
    "ina": 21182,
    "enterprise": 24995,
    "Ġrover": 18457,
    "Ġedges": 3826,
    "Ġhorror": 3773,
    "Ġsour": 21219,
    "Ġpursuits": 12081,
    "sentimental": 25682,
    "Ġvenetian": 14850,
    "simple": 13456,
    "Ġturbid": 23613,
    "neighbour": 7211,
    "wreat": 21130,
    "Ġfris": 23258,
    "Ġrelieve": 8224,
    "visible": 10536,
    "Ġplaymate": 23640,
    "Ġgable": 15671,
    "Ġcommands": 16591,
    "readers": 23851,
    "Ġhonors": 23603,
    "Ġset": 1173,
    ":": 30,
    "Ġvehem": 22894,
    "Ġresting": 7962,
    "Ġvide": 10253,
    "Ġattempting": 14699,
    "too": 4508,
    "sign": 8388,
    "asions": 12656,
    "Ġmasking": 2419,
    "aching": 5832,
    "ountain": 2918,
    "Ġtransl": 2828,
    "Ġcaulking": 20296,
    "commer": 22812,
    "Ġyours": 4124,
    "Ġvisions": 12982,
    "Ġcough": 11584,
    "fate": 17541,
    "howling": 18990,
    "Ġwinking": 17795,
    "Ġindiscreet": 22961,
    "Ġcarpets": 18904,
    "Ġfelt": 1748,
    "Ġunrecord": 16623,
    "ĠĠĠĠĠĠĠĠĠĠĠĠĠĠĠĠĠĠĠĠĠĠĠĠĠĠĠĠĠĠĠĠĠĠĠĠĠĠĠĠ": 4517,
    "Ġessex": 20130,
    "Ġpleasantest": 24140,
    "Ġinert": 15626,
    "prosperity": 20737,
    "lynes": 15708,
    "Ġtropic": 17066,
    "Ġsize": 1217,
    "albatross": 15634,
    "ezing": 10576,
    "Ġannouncement": 14836,
    "Ġunt": 2289,
    "otograph": 5827,
    "Ġadmission": 23558,
    "Ġclipping": 2438,
    "crow": 9593,
    "brÃ¦": 11177,
    "cheerfulness": 20183,
    "tahit": 17694,
    "Ġsod": 11564,
    "Ġlifts": 25359,
    "eration": 10774,
    "Ġsensitive": 13201,
    "Ġsombre": 18860,
    "uck": 1233,
    "itate": 6670,
    "inordinate": 21197,
    "Ġrad": 4961,
    "Ġethics": 15465,
    "Ġrecurrent": 1805,
    "Ġaimed": 20253,
    "reflection": 13459,
    "irect": 5553,
    "politeness": 16908,
    "Ġeloped": 22646,
    "ksome": 10107,
    "Ġbourgh": 5069,
    "savor": 25027,
    "Ġdesert": 6728,
    "listened": 15046,
    "terogene": 21829,
    "Ġinitialization": 1251,
    "Ġhairy": 23868,
    "Ġstrangely": 5677,
    "cho": 2760,
    "projecting": 26074,
    "Ġempt": 5051,
    "Ġcombined": 8552,
    "aulding": 11341,
    "neville": 22469,
    "Ġbrings": 11884,
    "iferous": 17294,
    "Ġdistrusting": 25056,
    "Ġkrusenstern": 26379,
    "Ġdownstairs": 11226,
    "Ġprincely": 24151,
    "man": 1052,
    "Ġdictate": 20154,
    "Ġneighbours": 8303,
    "Ġanatomy": 12324,
    "ution": 4350,
    "discredit": 24253,
    "steaks": 23964,
    "described": 18896,
    "Ġcanst": 8861,
    "Ġindulging": 16906,
    "Ġtying": 15476,
    "Ġindomit": 22960,
    "Ġquite": 1743,
    "Ġwrongfully": 24251,
    "Ġbehaved": 13258,
    "Ġdissuade": 26258,
    "Ġlonely": 6823,
    "consol": 9765,
    "tisement": 6768,
    "Ġimpersonal": 17400,
    "Ġshunned": 17296,
    "cun": 20797,
    "Ġfootpath": 19340,
    "Ġsuspicions": 9482,
    "consent": 18504,
    "Ġunprovided": 18261,
    "gs": 7338,
    "likes": 18816,
    "Ġorganizations": 12318,
    "Ġrevolved": 9987,
    "Ġfirmness": 11239,
    "sweep": 24618,
    "ur": 326,
    "Ġslept": 8259,
    "occupation": 15059,
    "Ġcheery": 16374,
    "Ġdanes": 25160,
    "Ġambergris": 8709,
    "Ġchurchyard": 16779,
    "Ġdefendants": 15144,
    "jane": 4483,
    "_.)": 7278,
    "Ġgale": 5823,
    "Ġattaining": 15809,
    "kish": 20936,
    "Ġfoolish": 5981,
    "Ġincarn": 11818,
    "Ġeligible": 10673,
    "Ġnumer": 3639,
    "Ġbold": 5293,
    "Ġgiver": 21608,
    "Ġstarve": 24626,
    "Ġdisappeared": 5645,
    "wandering": 20287,
    "Ġplunged": 8696,
    "Ġgree": 7596,
    "Ġpersuaded": 5769,
    "nostril": 26561,
    "Ġarmies": 16495,
    "Ġbless": 4343,
    "happen": 19333,
    "pleased": 8857,
    "fortunately": 9454,
    "Ġigniting": 25073,
    "Ġimmense": 4952,
    "Ġbaleful": 24985,
    "Ġstrikes": 13185,
    "Ġflaming": 8567,
    "ordinate": 12880,
    "Ġtumb": 21172,
    "ssip": 14083,
    "ĠarchÃ¦": 22782,
    "Ġinward": 11610,
    "cop": 20803,
    "Ġpulled": 5660,
    "Ġvect": 1224,
    "nial": 20986,
    "waistcoat": 17364,
    "Ġinstructive": 19287,
    "Ġribbons": 24325,
    "Ġcher": 6131,
    "Ġmichael": 20682,
    "se": 358,
    "Ġbacks": 8531,
    "Ġeat": 4644,
    "Ġadmitted": 8989,
    "tried": 13797,
    "Ġamid": 4959,
    "prodig": 16430,
    "creation": 14809,
    "Ġseated": 4541,
    "Ġenvironmental": 24115,
    "caroline": 24152,
    "Ġoffer": 4845,
    "ious": 770,
    "Ġagonising": 25374,
    "Ġbrawny": 13617,
    "Ġcovered": 5171,
    "Ġske": 4816,
    "Ġconstruction": 9389,
    "Ġmethodic": 23137,
    "quee": 4132,
    "Ġ59": 24323,
    "Ġsystem": 592,
    "Ġindividuals": 24546,
    "Ġdivide": 12115,
    "Ġcanes": 22167,
    "Ġpersuasions": 16634,
    "Ġoak": 6130,
    "Ġindex": 17050,
    "Ġdisappears": 18561,
    "Ġrecollection": 6623,
    "pick": 17636,
    "Ġbewitched": 25976,
    "agation": 1244,
    "Ġkey": 2103,
    "Ġcomparative": 10545,
    "Ġnecessitated": 23932,
    "Ġ135": 24784,
    "Ġclin": 14207,
    "Ġverbal": 19382,
    "volous": 18590,
    "sin": 21051,
    "Ġharvest": 13419,
    "Ġdivinest": 25722,
    "Ġlumps": 21559,
    "Ġeel": 18004,
    "Ġhailed": 6408,
    "Ġgrosvenor": 17421,
    "agues": 8161,
    "Ġmounting": 19980,
    "soc": 5175,
    "Ġbullion": 24986,
    "appalled": 18762,
    "Ġpedd": 17910,
    "rent": 1168,
    "Ġeighteenth": 14757,
    "Ġverses": 17065,
    "Ġins": 2780,
    "Ġlingu": 11617,
    "Ġmultimodal": 18749,
    "Ġtubs": 11372,
    "Ġspoutings": 14678,
    "Ġreproof": 24891,
    "establish": 17396,
    "ibule": 13012,
    "Ġcomplexion": 8211,
    "admire": 24946,
    "heaved": 21213,
    "Ġjabez": 11770,
    "Ġincisive": 18571,
    "Ġink": 8807,
    "wives": 15458,
    "Ġpul": 2039,
    "Ġcry": 3495,
    "cats": 17514,
    "Ġinfallibly": 10044,
    "Ġsimpl": 1579,
    "Ġkeeled": 18810,
    "weekly": 25685,
    "although": 8810,
    "Ġvineyarder": 25607,
    "Ġcrawford": 24894,
    "Ġundertaken": 18986,
    "Ġpushed": 5911,
    "persuasion": 20047,
    "oon": 6366,
    "engagement": 14461,
    "pane": 10123,
    "Ġepo": 21622,
    "Ġdoings": 18376,
    "Ġapplicable": 19015,
    "never": 3152,
    "83": 13684,
    "unctuous": 21886,
    "trans": 5594,
    "Ġsl": 1495,
    "asant": 17961,
    "Ġswam": 6449,
    "lovely": 16050,
    "urry": 13997,
    "Ġgarnery": 17390,
    "iving": 1729,
    "gor": 546,
    "alongside": 19792,
    "Ġweight": 657,
    "Ġghast": 9212,
    "Ġevaluate": 3007,
    "base": 20779,
    "Ġevanesc": 24296,
    "glasses": 11217,
    "Ġarticles": 7110,
    "Ġtool": 21514,
    "Ġnoted": 15834,
    "sp": 893,
    "Ġappropriated": 23486,
    "tent": 21067,
    "Ġjewell": 19523,
    "dense": 18717,
    "Ġqu": 604,
    "Ġportcullis": 26605,
    "Ġaccuse": 14214,
    "Ġshadowed": 24048,
    "squee": 15433,
    "olic": 14044,
    "lydia": 6826,
    "ishnoo": 10957,
    "keen": 12787,
    "nihil": 9851,
    "whose": 6852,
    "Ġmeditations": 25016,
    "swing": 15432,
    "Ġmerrily": 23735,
    "Ġtearing": 14399,
    "Ġunusual": 6555,
    "Ġisn": 7866,
    "Ġpaved": 17913,
    "Ġexcellence": 11453,
    "Ġunivers": 2127,
    "Ġburtons": 19255,
    "Ġbillows": 7503,
    "ison": 3078,
    "moor": 22709,
    "Ġdare": 3545,
    "id": 338,
    "ratches": 20128,
    "Ġroused": 7625,
    "Ġchill": 11756,
    "strom": 15688,
    "pity": 17629,
    "Ġgratification": 24099,
    "Ġcottagers": 6762,
    "het": 5435,
    "Ġsne": 6373,
    "fier": 9596,
    "Ġpal": 4042,
    "Ġtrooped": 24900,
    "Ġly": 2265,
    "Ġaccused": 8510,
    "imly": 12692,
    "conception": 22478,
    "Ġgpus": 3733,
    "Ġrequested": 14302,
    "Ġsanction": 20029,
    "Ġabraham": 18396,
    "Ġrepairing": 25590,
    "thoughts": 9938,
    "Ġmainten": 16117,
    "Ġroyals": 19535,
    "Ġmidships": 23635,
    "solved": 7686,
    "follow": 5680,
    "brow": 15319,
    "Ġunbelief": 22053,
    "Ġpetty": 19598,
    "Ġreports": 19086,
    "Ġadie": 8491,
    "bol": 8721,
    "osity": 14188,
    "Ġheaths": 25973,
    "Ġmock": 3693,
    "Ġtresses": 21178,
    "Ġindecision": 25782,
    "Ġwest": 5219,
    "Ġcomprises": 22576,
    "Ġrighted": 23181,
    "ul": 371,
    "Ġlack": 17966,
    "Ġcraft": 4377,
    "Ġclimax": 25055,
    "Ġdegree": 3705,
    "Ġsweeping": 8988,
    "Ġwarrior": 24496,
    "andromeda": 21872,
    "Ġwalled": 15538,
    "Ġdamning": 19141,
    "Ġunwaning": 24830,
    "Ġendurance": 23141,
    "Ġentertained": 10001,
    "Ġresponses": 23651,
    "Ġgips": 10843,
    "Ġbows": 4083,
    "Ġdenied": 9003,
    "Ġsuggested": 8321,
    "Ġacquies": 11099,
    "remarks": 23191,
    "decl": 8860,
    "scores": 22990,
    "Ġscramble": 24579,
    "Ġstove": 6735,
    "Ġrecurred": 18977,
    "ities": 1829,
    "respectable": 19849,
    "Ġunflinching": 26514,
    "Ġaccustomed": 6861,
    "Ġfinest": 10395,
    "Ġsublimity": 26348,
    "Ġexploitation": 2344,
    "Ġinher": 10182,
    "oided": 11511,
    "Ġoat": 21326,
    "Ġhose": 12632,
    "Ġarrant": 23301,
    "Ġcholera": 22257,
    "Ġmistakes": 16543,
    "gather": 20877,
    "Ġploughed": 22608,
    "Ġgrain": 15835,
    "Ġdiscern": 7926,
    "Ġwait": 4908,
    "Ġsquires": 16185,
    "ember": 1958,
    "Ġfaultless": 24540,
    "Ġclients": 19735,
    "eck": 20846,
    "Ġbred": 9172,
    "rib": 1948,
    "Ġserv": 3331,
    "Ġgrew": 5182,
    "zek": 16274,
    "Ġwouldst": 18502,
    "Ġvary": 15811,
    "Ġimpassable": 20615,
    "came": 4570,
    "twas": 15440,
    "suppose": 8648,
    "preced": 10312,
    "Ġrotation": 25475,
    "Ġ114": 24438,
    "Ġhumbug": 18781,
    "Ġbordered": 24564,
    "Ġworkmen": 23049,
    "Ġrecover": 9794,
    "Ġplanisphere": 26609,
    "assistance": 20374,
    "subtle": 24246,
    "hours": 9127,
    "iration": 4540,
    "Ġdejected": 20307,
    "Ġcongregation": 12333,
    "nearer": 22468,
    "tastes": 21099,
    "street": 6496,
    "idered": 4553,
    "Ġum": 10214,
    "Ġturning": 3329,
    "Ġdaybreak": 18727,
    "Ġrug": 16161,
    "contriv": 19294,
    "gods": 13371,
    "Ġvaliant": 9803,
    "aviour": 11006,
    "Ġperpetual": 12307,
    "Ġcontented": 9759,
    "Ġtriangular": 14862,
    "Ġcleanse": 24527,
    "Ġbreaths": 14860,
    "Ġpresenting": 18988,
    "ribly": 8255,
    "Ġnlp": 3065,
    "Ġassist": 3564,
    "Ġcognitive": 13638,
    "Ġdagger": 21440,
    "eliest": 14749,
    "Ġsuddenly": 2647,
    "ĠĠĠĠĠĠĠĠĠĠĠĠĠĠĠĠĠĠĠĠĠĠĠĠĠĠĠĠĠĠĠĠĠ": 12047,
    "Ġdestroyer": 13417,
    "amid": 12729,
    "assisted": 22323,
    "Ġconveys": 16857,
    "Ġspong": 15885,
    "warmly": 25029,
    "ineas": 15825,
    "Ġstole": 7953,
    "farmer": 25900,
    "Ġbottom": 3676,
    "Ġrattled": 15070,
    "round": 3369,
    "Ġopinions": 9418,
    "instead": 14816,
    "baden": 25616,
    "Ġbroken": 3447,
    "Ġconsists": 11982,
    "Ġmiscellaneous": 17465,
    "roylott": 20030,
    "Ġanat": 8124,
    "mael": 6725,
    "Ġwashes": 21865,
    "Ġmug": 21315,
    "ameter": 3186,
    "abled": 12799,
    "Ġ16": 7927,
    "bourgh": 19105,
    "Ġcoco": 11002,
    "est": 502,
    "startled": 24944,
    "gl": 3291,
    "_âĢĶâĢĿ": 20765,
    "chiefly": 14849,
    "Ġcircumstantial": 14645,
    "Ġviciously": 24404,
    "Ġscriptures": 26237,
    "develop": 13521,
    "Ġlifetime": 13606,
    "strained": 21661,
    "Ġblaming": 22933,
    "Ġviolin": 16431,
    "Ġmaid": 5287,
    "Ġdiscomposed": 25581,
    "Ġobscured": 15013,
    "Ġsixth": 16562,
    "Ġplanisp": 24060,
    "Ġexplained": 5937,
    "Ġteach": 8555,
    "Ġmanual": 14200,
    "Ġtax": 13819,
    "Ġsmothered": 20722,
    "Ġsumatra": 15290,
    "thin": 14100,
    "Ġhelplessly": 20081,
    "rically": 15420,
    "Ġhuggins": 24826,
    "living": 7135,
    "Ġgasps": 24866,
    "behold": 12882,
    "Ġprobably": 4315,
    "Ġpiazza": 26452,
    "Ġdist": 679,
    "condescended": 26250,
    "chief": 4645,
    "bringing": 17169,
    "E": 41,
    "pond": 21015,
    "Ġvanishing": 1347,
    "ascal": 10195,
    "Ġmaintainable": 12940,
    "ensation": 22549,
    "evidence": 25522,
    "Ġline": 1851,
    "Ġ54": 24318,
    "study": 15121,
    "asserted": 22325,
    "Ġfalse": 4344,
    "idy": 21768,
    "alled": 5912,
    "arter": 17895,
    "Ġunfrequ": 19511,
    "dri": 5889,
    "Ġtoy": 15638,
    "Ġcongregated": 20100,
    "impul": 16559,
    "princ": 8624,
    "onents": 8781,
    "Ġtasks": 1790,
    "icirc": 15660,
    "Ġanswering": 7478,
    "especially": 3572,
    "Ġrepresenting": 4061,
    "since": 5896,
    "Ġghost": 6144,
    "Ġstolen": 14010,
    "quis": 7870,
    "Ġinsertion": 26345,
    "Ġhalloa": 13321,
    "urer": 18124,
    "ationally": 15709,
    "Ġflail": 23010,
    "đ": 210,
    "Ġfob": 21412,
    "Ġanyone": 4460,
    "Ġinfatuated": 20537,
    "Ġcurbstone": 26047,
    "ble": 541,
    "Ġgrating": 14358,
    "Ġapples": 22220,
    "Ġharris": 13930,
    "echo": 15352,
    "Ġbrilliancy": 20110,
    "Ġfasc": 12603,
    "Ġmister": 22765,
    "Ġpiqu": 21479,
    "hangs": 15372,
    "cheeks": 23810,
    "trucks": 25420,
    "hur": 6651,
    "Ġreality": 7059,
    "Ġwears": 10243,
    "ifice": 7198,
    "Ġmexico": 15284,
    "iver": 2048,
    "itia": 11582,
    "glings": 23854,
    "Ġjuicy": 25371,
    "Ġarrived": 3747,
    "Ġmeal": 9700,
    "oriented": 2950,
    "Ġlantern": 7118,
    "ensions": 14261,
    "Ġnominally": 17234,
    "Ġfries": 21418,
    "Ġinnocence": 6478,
    "duty": 20242,
    "Ġpict": 3497,
    "Ġdisciple": 22787,
    "armon": 23062,
    "Ġwrite": 3821,
    ").âĢĿ": 20743,
    "Ġrepugn": 23366,
    "aples": 20770,
    "Ġfairer": 20465,
    "terbury": 21828,
    "Ġpills": 21468,
    "Ġperfectly": 3702,
    "Ġlac": 17967,
    "afraid": 10443,
    "Ġunintelligible": 26516,
    "Ġvalues": 2652,
    "Ġpertin": 18450,
    "Ġconnectivity": 3668,
    "Ġsar": 21216,
    "Ġprone": 18968,
    "vener": 21114,
    "Ġtumult": 7116,
    "Ġinput": 610,
    "Ġdifferent": 1427,
    "Ġjoists": 19235,
    "Ġbomb": 17869,
    "Ġsepul": 14093,
    "Ġheadland": 22899,
    "Ġunexpected": 6841,
    "delirious": 19508,
    "Ġinc": 702,
    "ó": 180,
    "Ġpalaces": 24094,
    "smug": 23911,
    "Ġentering": 6287,
    "Ġpacing": 8427,
    "Ġbefall": 8833,
    "Ġreached": 4023,
    "Ġfeatureless": 22616,
    "Ġvagu": 13593,
    "igators": 18047,
    "guilty": 19486,
    "Ġshrine": 19534,
    "bert": 4663,
    "Ġbelted": 22951,
    "Ġwherever": 8526,
    "Ġhead": 1124,
    "Ġput": 1800,
    "Ġformal": 2945,
    "izer": 2029,
    "Ġcabs": 23643,
    "Ġjura": 14195,
    "Ġbengal": 18786,
    "Ġbales": 21392,
    "swept": 19789,
    "Ġdut": 2991,
    "Ġmabel": 17327,
    "Ġ26": 10472,
    "Ġsplashed": 23751,
    "Ġlowly": 11123,
    "wall": 10139,
    "Ġloss": 822,
    "meantime": 9095,
    "izzy": 3098,
    "corpse": 24486,
    "Ġexpans": 18621,
    "Ġovertaken": 18425,
    "flask": 12104,
    "Ġexcl": 3473,
    "anges": 1678,
    "aps": 1228,
    "Ġdeceived": 6546,
    "Ġhumane": 11888,
    "ival": 4229,
    "ograph": 4798,
    "hack": 20898,
    "publ": 17640,
    "Ġdamned": 13136,
    "arts": 6565,
    "Ġbroker": 23105,
    "Ġbuilt": 8301,
    "union": 15774,
    "Ġgenerator": 3383,
    "Ġsexes": 25172,
    "lamp": 9611,
    "Ġprovision": 14828,
    "Ġpreposterous": 13673,
    "ampl": 21846,
    "Ċ": 203,
    "coff": 9112,
    "Ġholmes": 1307,
    "Ġoccupant": 16654,
    "Ġpoured": 8805,
    "Ġquantization": 19856,
    "inger": 6813,
    "Ġthou": 1811,
    "Ġstairs": 5541,
    "Ġscre": 9740,
    "Ġstaggered": 9542,
    "reas": 991,
    "collins": 6916,
    "Ġbench": 7238,
    "Ġaerial": 21201,
    "Ġspade": 9262,
    "unders": 13314,
    "Ġwednesday": 9087,
    "Ġhan": 15622,
    "Ġdivulged": 16651,
    "Ġpatiently": 19920,
    "specim": 23947,
    "Ġinsensibility": 17111,
    "fts": 18703,
    "ispens": 8336,
    "Ġsuperstitious": 13523,
    "Ġsomehow": 4843,
    "Ġfield": 1230,
    "Ġintervening": 17270,
    "towards": 5003,
    "Ġdropped": 4472,
    "circumst": 5349,
    "Ġbenediction": 18787,
    "ted": 790,
    "fresh": 13396,
    "Ġgoring": 21607,
    "off": 1889,
    "Ġattentively": 9953,
    "Ġprepare": 8650,
    "Ġcad": 12573,
    "Ġretirement": 25379,
    "Ġtrem": 6662,
    "pron": 9009,
    "companies": 24895,
    "Ġdeduced": 12212,
    "Ġextended": 7924,
    "Ġdri": 2360,
    "bidden": 19740,
    "anatory": 21366,
    "depart": 12270,
    "Ġpreser": 6042,
    "Ġesquimaux": 25154,
    "Ġadjusting": 3413,
    "ishmael": 18421,
    "Ġstreamed": 14547,
    "Ġmountains": 4428,
    "wishes": 13810,
    "uesday": 8590,
    "tails": 21089,
    "lp": 897,
    "Ġendangered": 16306,
    "Ġwarned": 16882,
    "Ġobserving": 6081,
    "Ġslumbering": 25702,
    "Ġpudding": 17916,
    "alarmed": 21506,
    "Ġoar": 6238,
    "Ġsundial": 15086,
    "Ġprofound": 5497,
    "Ġpleaded": 16302,
    "Ġcomplement": 23712,
    "Ġthroat": 7771,
    "surprise": 9533,
    "Ġinterest": 2245,
    "Ġchewing": 23289,
    "Ġsin": 1514,
    "scru": 16244,
    "Ġunable": 4951,
    "insufficient": 15492,
    "aster": 1868,
    "Ġdeuteronomy": 15764,
    "Ġexploit": 19164,
    "Ġinevitably": 17233,
    "oke": 1860,
    "Ġamusement": 8056,
    "Ġoutstanding": 22313,
    "Ġworlds": 11951,
    "Ġproceeding": 9909,
    "Ġbraz": 19361,
    "join": 12118,
    "Ġfiss": 21415,
    "Ġpoetic": 17104,
    "Ġclutched": 13522,
    "atever": 3082,
    "Ġlangs": 13957,
    "Ġeffectually": 16170,
    "Ġelixir": 26557,
    "Ġorganization": 7984,
    "appe": 2947,
    "voyage": 7786,
    "Ġencirc": 18731,
    "Ġremembered": 5277,
    "Ġbreathing": 9448,
    "Ġfaintness": 24571,
    "aboard": 21798,
    "cy": 648,
    "now": 548,
    "Ġstricken": 9779,
    "airing": 16180,
    "Ġmarlings": 23037,
    "Ġprices": 15616,
    "Ġenhancement": 23732,
    "Ġjoosy": 23633,
    "Ġlevi": 3038,
    "Ġsolicit": 22892,
    "ientiously": 21945,
    "Ġwel": 4527,
    "Ġmis": 918,
    "Ġavailed": 23955,
    "Ġcatastrop": 3349,
    "Ġspears": 12931,
    "summoned": 26593,
    "Ġphilipses": 24452,
    "Ġdepending": 14296,
    "scar": 9819,
    "Ġcolleg": 22854,
    "displayed": 20738,
    "Ġnightfall": 23133,
    "Ġplaint": 10328,
    "absolute": 17125,
    "painted": 17641,
    "pie": 21013,
    "Ġreve": 2935,
    "Ġdecipher": 22464,
    "Ġdreaming": 11225,
    "simply": 20673,
    "Ġramsgate": 18647,
    "Ġflat": 8228,
    "Ġgovernor": 16493,
    "Ġdoubly": 16389,
    "disp": 7977,
    "Ġtemptations": 24508,
    "overfitting": 13105,
    "Ġfrightens": 24033,
    "lar": 4484,
    "Ġdarkness": 4279,
    "lung": 17593,
    "Ġleviathans": 8282,
    "steel": 8299,
    "deep": 1049,
    "Ġlur": 5226,
    "bouton": 17504,
    "Ġpall": 7584,
    "Ġbusy": 6191,
    "Ġearthly": 7990,
    "combination": 25487,
    "Ġincline": 18570,
    "Ġneighbouring": 12123,
    "immediately": 10052,
    "v": 90,
    "Ġentail": 9796,
    "Ġelephants": 9867,
    "Ġexpired": 18622,
    "omnipotent": 25965,
    "Ġsick": 4693,
    "cher": 5786,
    "Ġbible": 9323,
    "Ġadjusted": 23459,
    "Ġstaff": 14009,
    "Ġbru": 13898,
    "Ġconversation": 3332,
    "Ġunsophisticated": 25993,
    "vac": 15453,
    "Ġ121": 24466,
    "thoroughly": 26510,
    "Ġorganize": 8994,
    "discrimin": 19611,
    "Ġwander": 9034,
    "ensils": 22552,
    "confidential": 25877,
    "):": 11463,
    "Ġlowered": 6737,
    "Ġnecessarily": 13253,
    "Ġextravagance": 17282,
    "Ġfry": 17881,
    "cceed": 4145,
    "ist": 448,
    "Ġrestless": 10415,
    "Ġsort": 1508,
    "studies": 25170,
    "Ġpouch": 21471,
    "Ġpanted": 21474,
    "Ġbank": 4878,
    "Ġaccommod": 14215,
    "apers": 3479,
    "ego": 4036,
    "Ġspasmod": 12418,
    "idity": 8835,
    "abama": 12714,
    "Ġbree": 5012,
    "Ġmatlock": 18802,
    "exagger": 22432,
    "Ġnecess": 3474,
    "Ġmills": 21314,
    "ho": 2856,
    "respect": 6375,
    "Ġpark": 5465,
    "Ġinfall": 7960,
    "proceeded": 25191,
    "Ġparlor": 13543,
    "conversations": 24748,
    "spir": 5738,
    "led": 578,
    "hold": 3982,
    "Ġgroaned": 11268,
    "Ġsucceeding": 16763,
    "Ġmoses": 21318,
    "Ġworked": 6585,
    "Ġadmires": 19688,
    "Ġpitches": 23905,
    "helmsman": 24289,
    "Ġpierced": 12286,
    "Ġsil": 1799,
    "consuming": 25675,
    "rief": 6204,
    "ivering": 7699,
    "Ġforesee": 19126,
    "Ġjiff": 22300,
    "impregnable": 26483,
    "lab": 3455,
    "occasionally": 13524,
    "Ġmeditative": 25017,
    "seat": 18128,
    "wheeler": 16190,
    "Ġrode": 16002,
    "Ġbull": 7839,
    "jet": 13745,
    "Ġjoining": 13168,
    "Ġabundantly": 17159,
    "ustration": 2256,
    "Ġsecluded": 11997,
    "Ġtusked": 25427,
    "Ġnourishment": 15196,
    "Ġdemo": 10881,
    "Ġ275": 20114,
    "formality": 22219,
    "Ġpleadings": 25854,
    "continually": 11304,
    "Ġallies": 18235,
    "Ġmistress": 8615,
    "Ġfools": 14484,
    "Ġgeorgia": 23889,
    "Ġaffords": 16736,
    "Ġseem": 916,
    "Ġprofessed": 14727,
    "als": 2040,
    "Ġphysiognomical": 25612,
    "fere": 10991,
    "Ġdespise": 14668,
    "Ġsettle": 6295,
    "inities": 21188,
    "Ġalmanac": 26487,
    "Ġency": 21937,
    "Ġelbow": 12925,
    "sprinkling": 24913,
    "J": 46,
    "Ġacceded": 22382,
    "ulty": 22571,
    "Ġbraces": 14672,
    "Ġdraughts": 20224,
    "sw": 4742,
    "Ġswerve": 14440,
    "Ġdecidedly": 9512,
    "Ġcow": 13879,
    "oy": 1021,
    "Ġslighted": 16570,
    "mies": 20970,
    "rant": 11519,
    "barbaric": 26360,
    "Ġsuite": 18281,
    "Ġsust": 7009,
    "Ġequatorial": 13512,
    "Ġ=": 1070,
    "germans": 20568,
    "Ġpurporting": 19184,
    "Ġhumble": 8554,
    "÷": 184,
    "Ġepit": 18009,
    "Ġco": 731,
    "Ġmovements": 24359,
    "welt": 12525,
    "Ġdaw": 21432,
    "Ġstandard": 14499,
    "market": 16841,
    "Ġwisest": 11234,
    "Ġquickly": 4243,
    "clad": 14462,
    "Ġclimbing": 20073,
    "Ġvexation": 10589,
    "Ġtuples": 13481,
    "prot": 6899,
    "ote": 4596,
    "Ġyet": 1028,
    "Ġsuspects": 16892,
    "oology": 21008,
    "Ġcrow": 3805,
    "Ġtransient": 18482,
    "ifiable": 18166,
    "Ġalteration": 9549,
    "apothecary": 26547,
    "Ġscold": 10952,
    "Ġclumsy": 9582,
    "Ġhappily": 9334,
    "englishman": 23677,
    "Ġstud": 1613,
    "epilogue": 22104,
    "O": 51,
    "Ġfront": 3450,
    "hom": 12478,
    "wretch": 17710,
    "Ġbeque": 18083,
    "pede": 19932,
    "Ġfleshy": 24615,
    "Ġliv": 6681,
    "Ġtranspointed": 22444,
    "Ġluxury": 20135,
    "ropol": 10954,
    "oth": 1182,
    "writ": 16556,
    "resist": 8276,
    "Ġlaboratory": 13616,
    "bons": 17489,
    "Ġthereupon": 18435,
    "Ġoccup": 3740,
    "imperturbable": 25791,
    "Ġlooked": 1804,
    "hester": 9634,
    "Ġramble": 9316,
    "Ġharpooneer": 3772,
    "Ġspin": 7631,
    "Ġcheek": 8581,
    ".âĢĿ": 464,
    "isl": 21378,
    "Ġslime": 23164,
    "Ġassiduous": 26294,
    "Ġsaddest": 16665,
    "Ġspark": 6691,
    "bab": 11470,
    "indignation": 18439,
    "repugnance": 16866,
    "ie": 729,
    "Ġpeep": 6870,
    "Ġlanyard": 26463,
    "Ġauger": 21206,
    "_âĢĶâĢĻâĢĿ": 25742,
    "Ġadmiring": 16483,
    "nui": 21002,
    "ves": 695,
    "sneezes": 11448,
    "Ġlydia": 2371,
    "Ġrattle": 10901,
    "holder": 13287,
    "Ġbats": 13903,
    "furthest": 19844,
    "Ġjinglers": 26019,
    "Ġdetective": 14424,
    "Ġloathsome": 13531,
    "Ġrelig": 8553,
    "Ġboister": 12924,
    "Ġplantation": 11425,
    "accessory": 25500,
    "Ġundersampling": 19521,
    "killer": 20479,
    "Ġexclaimed": 4683,
    "Ġadam": 2128,
    "ruin": 22180,
    "Ġdus": 8424,
    "Ġdeath": 2041,
    "Ġdeline": 16336,
    "Ġintroduction": 8973,
    "mathemat": 19139,
    "Ġstrain": 6025,
    "Ġdoubled": 19640,
    "Ġearning": 23944,
    "prep": 9762,
    "Ġcondescended": 19959,
    "Ġfig": 3625,
    "hounds": 20909,
    "Ġpoet": 8208,
    "Ġimmensely": 13599,
    "Ġsins": 13840,
    "Ġexcell": 10419,
    "slee": 17171,
    "Ġrespected": 11958,
    "volutions": 16326,
    "Ġcourse": 2132,
    "Ġgame": 3629,
    "Ġconfound": 23306,
    "Ġprep": 4194,
    "Ġsepulchral": 25893,
    "upper": 11541,
    "cond": 1664,
    "Ġtube": 15005,
    "centre": 17088,
    "cordiality": 25140,
    "presence": 18499,
    "marks": 7346,
    "Ġinconstant": 21499,
    "Ġrigging": 5601,
    "Ġdiv": 3732,
    "Ġcaution": 11348,
    "Ġnur": 5710,
    "irst": 879,
    "Ġvehement": 16205,
    "Ġlessons": 7693,
    "Ġdynamic": 5122,
    "Ġimprudent": 12853,
    "Ġamours": 22485,
    "reader": 23850,
    "treasures": 26153,
    "Ġphyseter": 26588,
    "ivory": 10272,
    "Ġmealy": 18121,
    "dancing": 12459,
    "Ġprefer": 6417,
    "Ġitself": 2521,
    "gu": 3956,
    "Ġscor": 8190,
    "Ġstacked": 21747,
    "Ġunsav": 18252,
    "Ġhighness": 22778,
    "Ġjig": 15955,
    "Ġother": 759,
    "«": 109,
    "deserving": 17248,
    "even": 3838,
    "Ġencode": 4365,
    "Ġdies": 11596,
    "Ġrounding": 16279,
    "Ġfreshness": 23991,
    "Ġeddy": 13550,
    "Ġgills": 17995,
    "Ġcompens": 14266,
    "weed": 14318,
    "Ġscarcity": 23830,
    "goldsmith": 20150,
    "Ġseeing": 2883,
    "Ġcoachman": 15002,
    "Ġrefreshment": 17242,
    "Ġprudential": 17920,
    "Ġamel": 18510,
    "Ġcorpse": 6641,
    "plexion": 14263,
    "Ġutilize": 4799,
    "âĢĿ": 353,
    "Ġcalamity": 17352,
    "strugg": 21665,
    "making": 2572,
    "Ġpost": 4274,
    "Ġmaybe": 12954,
    "instr": 12536,
    "Ġblank": 5952,
    "admon": 21764,
    "Ġcasually": 25096,
    "Ġdoleful": 18377,
    "Ġembedd": 1384,
    "Ġvideo": 25366,
    "Ġpadd": 9672,
    "Ġimmeasurable": 26231,
    "ellest": 21577,
    "impl": 21710,
    "empl": 5724,
    "ces": 576,
    "Ġdoub": 1838,
    "Ġembattled": 26289,
    "Ġchristians": 13313,
    "height": 21208,
    "Ġunfor": 15843,
    "Ġhercules": 14130,
    "Ġgloss": 11963,
    "Ġinferiority": 17116,
    "Ã¦": 4338,
    "Ġbrazier": 26322,
    "Ġempire": 11147,
    "Ġunimag": 12780,
    "Ġidiotic": 25589,
    "Ġcobweb": 22587,
    "solution": 14688,
    "impressed": 12696,
    "mmet": 10990,
    "cring": 20813,
    "vision": 5620,
    "tains": 10962,
    "Ġrelics": 16198,
    "ihood": 20924,
    "Ġape": 21199,
    "grim": 19108,
    "Ġoblig": 3444,
    "Ġaval": 15496,
    "Ġpagan": 7119,
    "ven": 778,
    "Ġsouth": 4912,
    "Ġloose": 4649,
    "Ġfisherman": 12080,
    "forming": 15921,
    "Ġrecovering": 11866,
    "upset": 23020,
    "rifle": 21049,
    "Ġconspicuous": 13607,
    "Ġmaiden": 13390,
    "Ġcustomary": 8673,
    "knife": 6942,
    "alty": 17941,
    "aet": 15311,
    "Ġwaif": 9378,
    "Ġpresent": 1639,
    "medical": 23346,
    "Ġbravest": 23844,
    "Ġcylinders": 25944,
    "Ġcave": 10787,
    "bet": 6111,
    "Ġskirt": 18729,
    "Ġceaseless": 13492,
    "Ġswallow": 8953,
    "relate": 24014,
    "Ġbuying": 23999,
    "neck": 14244,
    "Ġrunning": 3950,
    "hands": 5968,
    "ourable": 4967,
    "Ġsentimental": 24753,
    "Ġmadam": 5663,
    "dripping": 16907,
    "Ġtypically": 1537,
    "Ġannual": 14835,
    "enged": 23150,
    "Ġrending": 19470,
    "bell": 7332,
    "ato": 17771,
    "Ġdemonstrate": 24997,
    "Ġstarlight": 24627,
    "melted": 25207,
    "Ġscho": 4437,
    "Ġmantelpiece": 15211,
    "while": 2938,
    "Ġelemental": 19921,
    "liament": 16221,
    "elson": 16377,
    "Ġatrocious": 21947,
    "Ġsouls": 6310,
    "Ġconjunction": 25103,
    "ory": 1077,
    "Ġpagans": 16924,
    "iece": 3228,
    "teringly": 21827,
    "Ġturnkeys": 23030,
    "deployment": 26529,
    "droppers": 24758,
    "Ġbehold": 5049,
    "Ġgrip": 11630,
    "Ġbreathless": 12174,
    "bub": 15320,
    "Ġcritic": 19123,
    "nne": 20991,
    "ivial": 15865,
    "Ġconsidering": 4616,
    "Ġbravery": 23840,
    "Ġmemb": 14032,
    "Ġpolynes": 16083,
    "Ġhush": 13215,
    "dragging": 16611,
    "Ġhorizontally": 17014,
    "veil": 18048,
    "Ġcitations": 25438,
    "seeing": 7080,
    "Ġaudibly": 24770,
    "Ġrascally": 26509,
    "glass": 9912,
    "Ġcoding": 8116,
    "tarpaul": 21100,
    "upid": 6583,
    "Ġfir": 17879,
    "Ġvia": 2379,
    "frame": 17117,
    "ade": 881,
    "intment": 4720,
    "Ġveteran": 17453,
    "Ġappeared": 2775,
    "Ġunbecoming": 22068,
    "Ġphrenolog": 12338,
    "Ġprincess": 23222,
    "mown": 20972,
    "Ġsubterraneous": 20268,
    "Ġbarrowful": 25596,
    "Ġdisturbing": 19949,
    "ricted": 15423,
    "umblings": 23897,
    "gn": 8082,
    "alot": 15630,
    "Ġsituated": 9451,
    "mble": 1408,
    "knives": 14916,
    "previous": 9764,
    "Ġdives": 17892,
    "figures": 20125,
    "Ġexposes": 22625,
    "Ġforebodings": 17307,
    "shunned": 22459,
    "Ġmou": 13858,
    "Ġbigger": 19764,
    "Ġplains": 14625,
    "Ġnick": 21526,
    "Ġdate": 7841,
    "Ġendeavouring": 8035,
    "Ġlig": 21551,
    "Ġstrives": 23695,
    "Ġwritten": 4170,
    "Ġspine": 7407,
    "Ġfatal": 5873,
    "furnished": 20244,
    "sl": 5794,
    "acca": 23599,
    "Ġpreferred": 14969,
    "snowy": 20286,
    "Ġinsular": 19270,
    "Ġunfortunately": 10911,
    "Ġwert": 12561,
    "Ġchapters": 10475,
    "Ġlawy": 9458,
    "frankly": 20025,
    "Ġfeed": 2129,
    "Ġriverside": 25248,
    "contained": 22476,
    "Ġforget": 2633,
    "Ġraised": 4660,
    "Ġresp": 2492,
    "endeavoured": 12285,
    "Ġhy": 5625,
    "despairing": 25077,
    "Ġceiling": 7997,
    "Ġmended": 21316,
    "Ġafraid": 3528,
    "Ġadversarial": 5607,
    "Ġannoyance": 20664,
    "iers": 5992,
    "skirted": 24489,
    "ple": 455,
    "outs": 7010,
    "brilliancy": 26078,
    "account": 5330,
    "Ġgestures": 13539,
    "Ġtunes": 24620,
    "Ġseveral": 2673,
    "Ġgave": 2216,
    "lestrade": 9659,
    "Ġwarm": 2424,
    "cutting": 23787,
    "nants": 17615,
    "Ġcryst": 9920,
    "Ġthrobbing": 16900,
    "Ġutter": 3975,
    "icant": 21565,
    "Ġdol": 9667,
    "Ġinquest": 16550,
    "Ġhump": 5855,
    "Ġscalding": 16314,
    "Ġhuff": 21493,
    "ouse": 1189,
    "Ġinev": 10184,
    "worthy": 7733,
    "Ġintolerable": 8484,
    "resentment": 15189,
    "Ġbeard": 11658,
    "Ġadmeasurements": 26227,
    "amaz": 21848,
    "Ġturing": 7567,
    "Ġapolog": 9046,
    "Ġcarriages": 11100,
    "Ġunfathomably": 25874,
    "Ġcompliment": 5673,
    "Ġmurderers": 16813,
    "corn": 13703,
    "Ġdescribing": 19256,
    "Ġstarted": 4152,
    "bodily": 17318,
    "adie": 18091,
    "Ġclump": 15981,
    "Ġelderly": 13498,
    "Ġmotive": 6092,
    "century": 20050,
    "gainst": 25144,
    "Ġresiding": 16065,
    "Ġspies": 22132,
    "Ġupper": 5090,
    "iven": 1236,
    "Ġtack": 5621,
    "Ġphilips": 5410,
    "ation": 320,
    "Ġfettered": 24569,
    "Ġdance": 4443,
    "ty": 1001,
    "ineff": 21970,
    "haut": 20904,
    "Ġpool": 5173,
    "Ġsuccessfully": 19432,
    "pul": 8757,
    "occur": 19578,
    "Ġmors": 17803,
    "Ġacross": 1329,
    "Ġmamma": 10051,
    "hammock": 16357,
    "(_": 7541,
    "hyena": 24255,
    "Ġvaguely": 17369,
    "ob": 1420,
    "Ġsp": 457,
    "Ġheeded": 13407,
    "Ġune": 4598,
    "advancing": 14839,
    "Ġirreduc": 5491,
    "Ġheath": 15706,
    "Ġjub": 22299,
    "Ġarguing": 25471,
    "Ġnocturnal": 20717,
    "bedded": 12447,
    "reserved": 13846,
    "Ġpleated": 16300,
    "tar": 8098,
    "Ġsoothe": 7405,
    "talk": 6659,
    "vest": 6232,
    "Û": 156,
    "Ġchimneys": 16974,
    "bowing": 24454,
    "Ġterror": 5124,
    "otions": 7181,
    "omas": 12676,
    "Ġreaped": 18032,
    "Ġwasting": 12733,
    "Ġawaited": 17075,
    "Ġapproximates": 2417,
    "Ġpretext": 22233,
    "Ġinvective": 26183,
    "Ġlicense": 20094,
    "2": 22,
    "Ġdrawing": 3917,
    "Ġcentury": 8292,
    "boots": 11128,
    "Ġsneering": 24696,
    "Ġgleam": 12312,
    "becomes": 22500,
    "announce": 24561,
    "invariably": 26418,
    "shoals": 24716,
    "Ġmol": 12566,
    "Ġerad": 25031,
    "hears": 12538,
    "tiness": 21074,
    "Ġvint": 18195,
    "Ġzeal": 9101,
    "urities": 18052,
    "Ġirrevoc": 15041,
    "thur": 7188,
    "mistak": 16880,
    "Ġaustrian": 24302,
    "Ġwhom": 1833,
    "Ġcommunic": 5751,
    "mun": 20964,
    "Ġtarn": 21161,
    "Ġfee": 7199,
    "opposition": 24820,
    "Ġlangsdorff": 15280,
    "Ġselling": 21227,
    "Ġfetching": 16898,
    "Ġnewsp": 9342,
    "oubled": 23648,
    "Ġwired": 17788,
    "Ġfrank": 4420,
    "Ġsighs": 22714,
    "approbation": 11460,
    "Ġanteced": 26178,
    "Ġtwine": 14314,
    "Ġcolle": 8927,
    "Ġeas": 2349,
    "restoration": 23238,
    "uncontrollable": 20599,
    "Ġcurved": 18857,
    "Ġcharged": 9857,
    "Ġtale": 5142,
    "Ġtempt": 5565,
    "Ġcharity": 8866,
    "Ġpir": 6818,
    "Ġtrees": 4205,
    "gangway": 20670,
    "ig": 322,
    "ounds": 4159,
    "sudden": 5316,
    "Ġhospitable": 17061,
    "Ġthose": 1170,
    "Ġballs": 9018,
    "Ġeverybody": 4511,
    "Ġtheoretic": 23314,
    "Ġforemost": 12009,
    "Ġsometimes": 2168,
    "Ġdaughter": 2868,
    "Ġstung": 21742,
    "kin": 7133,
    "fishers": 24929,
    "_âĢĿ": 20763,
    "Ġthreaten": 24374,
    "Ġcauldron": 25442,
    "considering": 12179,
    "Ġgordon": 26469,
    "gallantry": 15061,
    "accents": 19213,
    "oub": 1630,
    "Ġaston": 3703,
    "Ġprinciple": 6771,
    "Ġmart": 10781,
    "laws": 19810,
    "walton": 20252,
    "Ġstoutly": 16926,
    "âĢĶâĢĿ": 3300,
    "Ġexcite": 11970,
    "Ġsperma": 19050,
    "Ġextort": 22741,
    "orting": 9738,
    "crimson": 24088,
    "fred": 20857,
    "Ġreasoned": 23088,
    "Ġfixedly": 19250,
    "aspect": 10196,
    "Ġpoison": 7219,
    "lin": 9606,
    "Ġblow": 3375,
    "Ġchina": 8040,
    "Ġdolph": 12384,
    "Ġplum": 11826,
    "Ġlooking": 2473,
    "Ġgentlemen": 3643,
    "Ġaccost": 12851,
    "Ġcorridor": 10674,
    "Ġbreathed": 11222,
    "bale": 20776,
    "arse": 7161,
    "Ġdiscoloured": 15256,
    "informed": 17738,
    "short": 6568,
    "Ġinfinitely": 8966,
    "Ġbag": 5699,
    "Ġsolely": 9913,
    "Ġhurtling": 24960,
    "Ġfist": 21407,
    "Ġsermon": 12380,
    "Ġtant": 12530,
    "Ġcontains": 2792,
    "Ġrazor": 22655,
    "computer": 1941,
    "ren": 549,
    "Ġblasts": 19999,
    "Ġreplenished": 13640,
    "dishonourable": 26367,
    "Ġdropping": 7484,
    "Ġelder": 7224,
    "Ġcandidates": 4334,
    "Ā": 193,
    "spell": 22730,
    "Ġimputed": 12813,
    "Ġservox": 23873,
    "Ġterra": 13121,
    "Ġexult": 10233,
    "max": 1687,
    "Ġcrouched": 23441,
    "Ġflood": 7716,
    "Ġseam": 3908,
    "Ġlinn": 13956,
    "mock": 5174,
    "luckily": 19755,
    "Ġbewil": 11660,
    "Ġbreast": 8971,
    "Ġrav": 14307,
    "Ġrelaps": 18777,
    "Ġpredestinated": 18516,
    "Ġobservation": 6599,
    "lorn": 12492,
    "Ġfejee": 18354,
    "Ġezekiel": 26194,
    "Ġcontinuing": 14400,
    "rann": 21047,
    "scythes": 26404,
    "Ġanalytical": 22909,
    "Ġpestilent": 25778,
    "Ġfagged": 17884,
    "Ġmodified": 14171,
    "beheld": 11805,
    "oline": 6833,
    "Ĭ": 237,
    "Ġmagnificence": 20635,
    "Ġcrescent": 16139,
    "Ġconcuss": 19048,
    "foam": 24418,
    "consciousness": 13370,
    "Ġfortifications": 23622,
    "counter": 20281,
    "Ġrat": 4354,
    "Ġwal": 6518,
    "Ġgradual": 20604,
    "Ġscotland": 6642,
    "dead": 8180,
    "mber": 5850,
    "Ġunfrequent": 24110,
    "Ġprophesied": 26063,
    "Ġ85": 24460,
    "Ġslu": 13839,
    "Ġglue": 15678,
    "Ġbroadened": 23988,
    "Ġfrantically": 23261,
    "ences": 1263,
    "pread": 7419,
    "humor": 19455,
    "Ġboston": 22641,
    "Ġeyelashes": 26107,
    "dom": 6224,
    "Ġdepartments": 24245,
    "Ġtickets": 17095,
    "omet": 3079,
    "Ġwithout": 1122,
    "Ġnuptials": 20497,
    "Ġungod": 22028,
    "Ġguar": 23047,
    "Ġcommotion": 9783,
    "crowd": 25255,
    "Ġxxxvi": 24972,
    "Ġjumping": 13346,
    "Ġoutdone": 22315,
    "Ġshore": 4836,
    "track": 24335,
    "Ġdischarge": 18557,
    "Ġburke": 19253,
    "Ġflounders": 23016,
    "Ġuniversity": 13127,
    "Ġnook": 15932,
    "Ġsame": 1343,
    "retired": 11940,
    "deserted": 19344,
    "Ġeve": 13973,
    "spikes": 10343,
    "Ġbildad": 3782,
    "Ġattack": 5478,
    "Ġhartshorn": 26182,
    "initely": 7569,
    "hurt": 19880,
    "Ġstood": 2551,
    "Ġsmoothe": 23658,
    "Ġhunks": 18938,
    "Ġsuperlatively": 26076,
    "Ġdivinely": 25723,
    "Ġapparition": 8067,
    "Ġillust": 8263,
    "encoun": 12302,
    "bots": 10085,
    "Ġdevotedly": 24749,
    "Ġabaft": 22278,
    "Ġsignifies": 19206,
    "Ġharpoons": 5659,
    "Ġtroops": 24899,
    "Ġfurnish": 9022,
    "Ġscrupled": 25052,
    "Ġunabated": 15856,
    "Ġbranches": 6777,
    "Ġwhistles": 24625,
    "Ġdab": 15592,
    "Ġinstrum": 6056,
    "Ġblackest": 19100,
    "Ġsultry": 20291,
    "Ġnew": 1196,
    "cest": 12449,
    "Ġlimb": 9405,
    "invest": 11562,
    "Ġthirdly": 24146,
    "Ġgayer": 24501,
    "Ġaccompaniments": 24482,
    "omorrah": 18020,
    "reigned": 21245,
    "Ġcontour": 18475,
    "_.": 2211,
    "ivation": 3112,
    "Ġrippling": 17280,
    "ode": 1453,
    "Ġmargaret": 10379,
    "horn": 8086,
    "upt": 13801,
    "liter": 11504,
    "Ġreceives": 20357,
    "heavily": 24534,
    "Ġdauntless": 26338,
    "Ġraiment": 22652,
    "ugal": 19026,
    "Ġindifference": 6727,
    "Ġholder": 6726,
    "Ġbruited": 25774,
    "shake": 22449,
    "brew": 11475,
    "Ġintroduces": 3270,
    "ĠĠĠĠĠĠĠĠĠĠĠĠĠĠĠĠĠĠĠĠĠĠĠĠĠĠĠĠĠĠĠĠĠĠĠĠ": 23666,
    "Ġfat": 3460,
    "Ġbarrier": 16572,
    "Ġprocopius": 19734,
    "Ġtaken": 2528,
    "indebted": 26159,
    "Ġinfatuation": 25859,
    "Ġdecapitated": 20619,
    "ace": 716,
    "Ġgrievous": 13265,
    "asingly": 17963,
    "ach": 435,
    "ildad": 3530,
    "embarr": 17295,
    "Ġminimizing": 3463,
    "Ġninety": 13605,
    "Ġtoma": 7373,
    "Ġmeridians": 17358,
    "mor": 4217,
    "protruding": 24813,
    "Ġwhispering": 14948,
    "hamed": 6307,
    "beth": 13692,
    "Ġprinc": 4202,
    "horizon": 23617,
    "Ġguess": 4904,
    "Ġenchantment": 24870,
    "S": 55,
    "apprehension": 26115,
    "Ġpainter": 19170,
    "Ġrevol": 5537,
    "Ġfetch": 7770,
    "Ġcarpet": 9359,
    "tub": 9146,
    "thrasher": 25659,
    "liv": 9610,
    "Ġrustic": 14968,
    "ditch": 17530,
    "Ġragged": 11848,
    "mot": 17598,
    "Ġhuman": 1317,
    "Ġdispel": 16598,
    "daggoo": 13710,
    "Ġpuffed": 14980,
    "Ġadroit": 26001,
    "Ġinitials": 11016,
    "Ġfaster": 3198,
    "Ġcandle": 8293,
    "Ġtides": 13824,
    "Ġhole": 6080,
    "Ġpl": 742,
    "bureau": 20791,
    "Ġbigness": 19763,
    "Ġblossom": 26313,
    "characteristic": 24686,
    "certainly": 5340,
    "Ġsuppressing": 23004,
    "gee": 15975,
    "Ġwrenched": 12563,
    "Ġinnermost": 12165,
    "oul": 4699,
    "remed": 18955,
    "Ġcollateral": 20075,
    "Ġemails": 13111,
    "Ġsemi": 11973,
    "clo": 5613,
    "reated": 10305,
    "Ġcampaign": 20663,
    "les": 1015,
    "Ġmot": 2988,
    "Ġimmersed": 19488,
    "_,âĢĿ": 6220,
    "who": 2444,
    "another": 5439,
    "ivorous": 22088,
    "Ġm": 274,
    "ahit": 9385,
    "agers": 5633,
    "soon": 4028,
    "Ġbordering": 17231,
    "Ġborrowed": 17232,
    "ousness": 10277,
    "Ġpictured": 16625,
    "Ġextinct": 14338,
    "thomas": 18220,
    "Ġpipes": 9854,
    "Ġslo": 15509,
    "consp": 18505,
    "Ġfool": 4237,
    "Ġcarter": 18902,
    "Ġrecl": 16143,
    "Ġknew": 2054,
    "Ġvine": 8474,
    "ased": 1266,
    "hement": 13835,
    "Ġpeaking": 22693,
    "Ġcobb": 14275,
    "Ġcheever": 23288,
    "Ġicelandic": 25887,
    "Ġfished": 21413,
    "Ġwides": 17790,
    "Ġcult": 8786,
    "urring": 21708,
    "quent": 2095,
    "Ġboundless": 10498,
    "tick": 17680,
    "mansion": 20985,
    "Ġtalks": 23373,
    "Ġseats": 14092,
    "Ġhenceforth": 19645,
    "rip": 9244,
    "eleg": 20851,
    "Ġavalanche": 17436,
    "Ġvort": 18194,
    "----âĢĻ": 24100,
    "jour": 20929,
    "Ġpigs": 19750,
    "Ġstreet": 2960,
    "Ġmurdered": 6465,
    "home": 7341,
    "batross": 9096,
    "constellation": 24608,
    "Ġcrash": 12006,
    "Ġram": 11015,
    "fanning": 20868,
    "transferred": 24514,
    "tales": 17688,
    "acters": 9312,
    "Ġdone": 1819,
    "Ġoppressive": 20458,
    "Ġthunders": 15642,
    "gam": 10098,
    "Ġheidelburgh": 11646,
    "Ġfolds": 12211,
    "nigh": 13766,
    "Ġdiamond": 15603,
    "rannical": 26403,
    "Ġmingled": 12381,
    "intosh": 22943,
    "reen": 21234,
    "Ġbar": 3148,
    "irc": 1733,
    "Ġunreserved": 19400,
    "Ġintervened": 25482,
    "oled": 17621,
    "Ġsk": 962,
    "Ġtent": 15470,
    "rossed": 11014,
    "Ġsmilingly": 22564,
    "pump": 21019,
    "define": 1527,
    "Ġgrove": 12151,
    "Ġprairies": 20024,
    "iday": 8834,
    "Ġtesting": 23225,
    "Ġsqualidness": 25844,
    "foremost": 14255,
    "Ġrestrain": 8967,
    "Ġjealously": 24126,
    "Ġassu": 21901,
    "explained": 23148,
    "Ġgossiping": 26245,
    "sharpening": 22458,
    "Ġcredulous": 17147,
    "ondescript": 22919,
    "Ġepsom": 19986,
    "Ġheadstrong": 14391,
    "light": 3021,
    "univers": 15776,
    "thousands": 16874,
    "Ġenig": 15803,
    "Ġadded": 2717,
    "Ġalternately": 15034,
    "Ġdeposit": 17271,
    "Ġflag": 7242,
    "sto": 3199,
    "Ġsubject": 2464,
    "Ġrepressed": 21671,
    "Ġwe": 386,
    "Ġpoetical": 25059,
    "fashion": 8081,
    "Ġpangs": 15619,
    "Ġoffered": 5817,
    "ł": 259,
    "Ġrecogn": 2645,
    "Ġcrumpled": 16440,
    "Ġtightly": 13537,
    "fleece": 19951,
    "Ġwast": 21864,
    "Ġtook": 1856,
    "ay": 354,
    "itted": 2439,
    "cart": 10692,
    "angels": 22110,
    "Ġcontinents": 16851,
    "Ġbetween": 792,
    "orter": 4257,
    "icken": 6713,
    "Ġjunior": 15103,
    "Ġdrifted": 14627,
    "hemat": 3130,
    "Ġmermaid": 17815,
    "Ġlowering": 7987,
    "Ġopp": 2698,
    "Ġsticking": 13431,
    "Ġincommod": 25308,
    "Ġpitch": 5767,
    "narr": 12501,
    "sence": 3308,
    "stamp": 21657,
    "Ġreally": 2160,
    "mccarthy": 15398,
    "Ġenjoy": 3761,
    "eler": 1571,
    "Ġ\"": 6121,
    "hideous": 25408,
    "ites": 3898,
    "Ġunmolested": 15249,
    "Ġtacit": 21177,
    "apes": 9744,
    "dreams": 12341,
    "usive": 8192,
    "Ġexperiment": 11923,
    "Ġlaughing": 5339,
    "Ġsteadfast": 8682,
    "parable": 16408,
    "Ġpermanently": 25474,
    "Ġmungo": 25632,
    "Ġdistinct": 4609,
    "Ġnegro": 6448,
    "Ġalgorith": 563,
    "Ġshrivelled": 19706,
    "althy": 8433,
    "arding": 22161,
    "Ġlakeman": 6987,
    "Ġinvariably": 8064,
    "hammad": 23267,
    "quest": 4538,
    "Ġauto": 23312,
    "loving": 18538,
    "Ġconfining": 23308,
    "Ġaudio": 24771,
    "*": 14,
    "dÃ¦mon": 17529,
    "riage": 2125,
    "Ġobtru": 18678,
    "recollected": 25348,
    "understanding": 1126,
    "binnacle": 20789,
    "thunder": 10265,
    "Ġchanging": 11757,
    "Ġmississippi": 20727,
    "umber": 5241,
    "sively": 13789,
    "Ġwilt": 9646,
    "Ġhot": 4259,
    "ife": 1025,
    "raltar": 24236,
    "Ġlegs": 4917,
    "followed": 8339,
    "paralleled": 14525,
    "required": 17031,
    "tube": 20414,
    "jacket": 12296,
    "llable": 6878,
    "might": 4078,
    "rights": 23675,
    "seriously": 18906,
    "Ġthinnest": 24186,
    "endom": 15924,
    "unched": 10238,
    "Ġjove": 9271,
    "Ġthrusting": 10555,
    "Ġaccomplish": 14879,
    "Ġdropout": 1559,
    "satisf": 5781,
    "Ġloaf": 15876,
    "athy": 14326,
    "Ġdevils": 7230,
    "asing": 5913,
    "ouses": 5163,
    "ener": 562,
    "Ġtermination": 16462,
    "Ġprison": 5403,
    "Ġoun": 13866,
    "sleepers": 24729,
    "Ġdiabolically": 25514,
    "Ġself": 1781,
    "Ġubiqu": 18049,
    "icide": 11621,
    "Ġtumble": 16881,
    "roses": 17959,
    "Ġdestined": 7975,
    "talked": 14988,
    "Ġtrivial": 10145,
    "Ġfour": 2213,
    "Ġhope": 1791,
    "Ġshun": 11713,
    "poss": 4779,
    "plish": 18201,
    "Ġpaced": 7585,
    "Ġspat": 2665,
    "Ġscope": 15947,
    "renew": 24450,
    "Ġexplicit": 3589,
    "Ġhumorousness": 25378,
    "Ġsilver": 7464,
    "Ġimaginative": 19249,
    "Ġsnatches": 16547,
    "sought": 15430,
    "94": 4804,
    "Ġrobots": 11086,
    "che": 3171,
    "Ġmoby": 3666,
    "Ġnewcomer": 26041,
    "Ġmantle": 25275,
    "Ġancles": 21449,
    "Ġgeorgiana": 8629,
    "Ġfisheries": 17441,
    "Ġhurrying": 11999,
    "Ġstature": 10865,
    "mates": 5073,
    "Ġardu": 22187,
    "told": 7811,
    "younger": 11314,
    "couldn": 23720,
    "inked": 12918,
    "Ġprofoundly": 16861,
    "Ġrecklessness": 24744,
    "Ġirrevocably": 15301,
    "mits": 13759,
    "Ġnervously": 19186,
    "goodbye": 12060,
    "Ġunlim": 18254,
    "Ġ1000": 3119,
    "Ġmostly": 7665,
    "ason": 1274,
    "Ġemerge": 14931,
    "Ġhog": 13927,
    "Ġincantation": 26259,
    "Ġestimate": 19376,
    "Ġwhether": 2000,
    "Ġsymmet": 11751,
    "towns": 24855,
    "Ġdesolate": 10016,
    "Ġmisery": 3814,
    "Ġimplicated": 24876,
    "Ġfrederick": 15591,
    "ĠâĢĻ": 3046,
    "Ġlobster": 11391,
    "Ġuntil": 2668,
    "Ġlanc": 19767,
    "pest": 6965,
    "willing": 6594,
    "Ġgro": 4397,
    "Ġcoron": 4465,
    "Ġstick": 6027,
    "Ġhint": 5016,
    "Ġsinging": 7724,
    "Ġflights": 24752,
    "Ġtorm": 5434,
    "Ġfelony": 18954,
    "Ġunjust": 8486,
    "Ġventure": 7740,
    "Ġcele": 9903,
    "Ġunmo": 12778,
    "finding": 17015,
    "angs": 5835,
    "ids": 21767,
    "Ġathe": 17743,
    "Ġstart": 3260,
    "Ġties": 12533,
    "Ġnewcastle": 16227,
    "Ġcouple": 5423,
    "Ġtrowsers": 9630,
    "Ġfrigate": 13086,
    "Ġsuspic": 4471,
    "Ġsm": 704,
    "sac": 7142,
    "Ġarcher": 22188,
    "Ġstilly": 25974,
    "yden": 21146,
    "Ġpitiless": 19391,
    "aunt": 8370,
    "k": 79,
    "Ġcontradictory": 20400,
    "Ġpitching": 16613,
    "Ġselfish": 7272,
    "hunting": 24385,
    "Ġvertebra": 20184,
    "Ġfame": 21409,
    "Ġprizes": 13078,
    "Ġth": 299,
    "ps": 4574,
    "things": 6034,
    "Ġribs": 7103,
    "ĠĠĠĠĠĠĠĠĠĠ": 18578,
    "Ġpoverty": 9307,
    "spr": 7435,
    "Ġ17": 5740,
    "Ġislands": 6767,
    "Ġcoral": 11926,
    "Ġdescried": 7919,
    "Ġatmosphere": 10899,
    "Ġfate": 4755,
    "Ġne": 390,
    "Ġlights": 8963,
    "abases": 3010,
    "Ġpatronage": 17054,
    "Ġer": 8105,
    "cst": 10087,
    "Ġsauce": 15894,
    "fortun": 3538,
    "isure": 6242,
    "osures": 22265,
    "Ġunprinciple": 18255,
    "Ġforgotten": 5679,
    "âĢĶâĢĻ": 8188,
    "Ġdistended": 16048,
    "Ġdiver": 2530,
    "Ġjoll": 11769,
    "Ġtempest": 8214,
    "Ġmarines": 16261,
    "kes": 3680,
    "Ġpotency": 14648,
    "Ġdeception": 18142,
    "Ġazure": 12378,
    "rons": 21042,
    "Ġpondering": 17007,
    "Ġcamberwell": 25351,
    "Ġlandowner": 23384,
    "Ġul": 6828,
    "knows": 19174,
    "iloquent": 21729,
    "Ġwow": 15532,
    "Ġjacobians": 2892,
    "Ġforests": 13596,
    "Ġunrolled": 22042,
    "Ġpickle": 16724,
    "Ġgaol": 19570,
    "ince": 4340,
    "no": 899,
    "Ġsurrounds": 24234,
    "Ġjeopard": 9946,
    "Ġapplies": 11962,
    "Ġcasualties": 25513,
    "âĢĶ": 518,
    "enemy": 15530,
    "Ġmaelstrom": 19359,
    "confined": 24328,
    "Ġepic": 15032,
    "seam": 10876,
    "ĠĠĠĠĠ": 3525,
    "Ġretiring": 16284,
    "Ġ10": 5250,
    "Ġextant": 18692,
    "must": 3577,
    "anced": 1319,
    "Ġpry": 11602,
    "Ġpalmy": 19502,
    "Ġrecognise": 12044,
    "aning": 2251,
    "expression": 10550,
    "Ġsailing": 5324,
    "Ġcrackling": 24961,
    "Ġvacuous": 24344,
    "tempest": 16961,
    "Ġunlabeled": 3800,
    "Ġappearances": 10453,
    "Ġglittering": 10056,
    "Ġdry": 5624,
    "Ġtickled": 20060,
    "Ġgenus": 24429,
    "Ġequally": 5258,
    "tery": 14040,
    "Ġspecimen": 13024,
    "Ġmerest": 14033,
    "person": 7746,
    "itage": 17818,
    "Ġrespect": 1670,
    "Ġprogen": 14042,
    "Ġanchor": 7368,
    "Ġfle": 3094,
    "Ġarri": 2553,
    "Ġbishop": 13905,
    "Ġsanguinary": 25930,
    "uming": 8494,
    "impatience": 25501,
    "Ġspile": 22131,
    "Ġalter": 6544,
    "Ġtongs": 9964,
    "Ġyielding": 12191,
    "eteenth": 20160,
    "era": 13850,
    "ulity": 10888,
    "Ġdrooping": 9423,
    "Ġmaintenance": 17464,
    "ittance": 12850,
    "Ġchilian": 25564,
    "accident": 11183,
    "Ġmixture": 9565,
    "commanding": 24751,
    "comb": 11037,
    "scuttle": 11914,
    "beautiful": 10651,
    "Ġsigning": 22713,
    "venty": 6428,
    "Ġornamented": 20365,
    "Ġpol": 2576,
    "Ġtang": 13817,
    "rese": 15511,
    "ilet": 12834,
    "Ġprotracted": 19472,
    "Ġfeedforward": 2324,
    "Ġ99": 10747,
    "Ġincurable": 22556,
    "Ġcolon": 18766,
    "Ġrelations": 5854,
    "nder": 20989,
    "Ġtashtego": 4487,
    "wrinkled": 16557,
    "ulgences": 21869,
    "Ġoil": 3374,
    "Ġexasperate": 20101,
    "Ġbrotherly": 16530,
    "Ġspoon": 22138,
    "tru": 10731,
    "sense": 11526,
    "shed": 8095,
    "Ġconjectures": 16927,
    "Ġmoved": 4841,
    "canst": 22966,
    "Ġtroubling": 26548,
    "Ġmysteries": 11324,
    "magnetic": 20555,
    "Ġkindliness": 23298,
    "prince": 23818,
    "awful": 23118,
    "games": 20882,
    "ements": 11109,
    "tempt": 21082,
    "Ġlens": 8439,
    "noble": 7923,
    "Ġconquer": 14030,
    "Ġplayful": 19239,
    "contents": 12062,
    "Ġavowal": 19418,
    "ribes": 23369,
    "Ġrecurring": 23234,
    "levi": 7049,
    "adays": 14016,
    "introduce": 25187,
    "Ġnovels": 15933,
    "Ġ1807": 26084,
    "Ġheathenish": 13620,
    "dismal": 23499,
    "becoming": 18520,
    "Ġprecaution": 11198,
    "Ġforms": 6398,
    "ignor": 8964,
    "Ġcolonial": 22857,
    "Ġspending": 10925,
    "izens": 18146,
    "names": 16515,
    "Ġnominal": 15172,
    "icious": 7380,
    "strate": 12679,
    "Ġfinancier": 26585,
    "Ġsentinel": 26066,
    "Ġshoreless": 24297,
    "Ġtransfer": 2309,
    "Ġcage": 17827,
    "Ġdemanded": 8327,
    "merged": 11195,
    "Ġcranes": 20386,
    "iar": 2375,
    "Ġpubl": 3939,
    "afforded": 25866,
    "atigable": 15274,
    "ility": 625,
    "res": 2759,
    "Ġcelest": 9904,
    "ġ": 226,
    "Ġcrocod": 19631,
    "Ġabsorb": 25115,
    "Ġheavens": 5050,
    "Ġsoftness": 18919,
    "Ġcongen": 10875,
    "whisper": 17084,
    "nings": 9134,
    "Ġworshipped": 25692,
    "Ġupdates": 1298,
    "Ġscreen": 17208,
    "flying": 13724,
    "Ġslain": 8956,
    "dee": 11737,
    "Ġclothe": 4712,
    "Ġpals": 13921,
    "pass": 4292,
    "Ġturned": 2134,
    "Ġreckon": 19872,
    "hammer": 14492,
    ",--": 2476,
    "ĠĠĠĠĠĠĠĠĠĠĠĠĠĠĠĠ": 1220,
    "heading": 5487,
    "Ġstave": 11654,
    "complacency": 19916,
    "ierce": 14394,
    "opence": 18508,
    "iate": 6506,
    "Ġinaccessible": 13937,
    "ribs": 23368,
    "erpillar": 5798,
    "Ġensigns": 23689,
    "Ġethiopian": 26615,
    "Ġheaded": 11056,
    "Ġgl": 1253,
    "Ġwhereupon": 14299,
    "Ġentered": 2844,
    "th": 408,
    "ally": 530,
    "Ġshooting": 11164,
    "alid": 13938,
    "Ġcripp": 9656,
    "Ġdisdain": 8360,
    "fri": 20856,
    "honey": 20907,
    "Ġeng": 1162,
    "Ġones": 3024,
    "Ġopenshaw": 7955,
    "Ġtreatise": 19348,
    "Ġhatty": 19267,
    "Ġrake": 18642,
    "Ġsuperfluous": 17417,
    "alog": 8809,
    "cushion": 20823,
    "Ġoffice": 4965,
    "anchor": 13892,
    "Ġprocessing": 906,
    "ighb": 10425,
    "Ġtriumphant": 12194,
    "at": 268,
    "turn": 4293,
    "Ġeither": 2602,
    "loo": 10322,
    "Ġ1671": 25008,
    "Ġevenings": 18755,
    "Ġconfederate": 17356,
    "Ġdropt": 23676,
    "Ġrepugnant": 26592,
    "Ġinserted": 8356,
    "Ġsunshine": 14497,
    "Ġdesired": 4665,
    "emic": 18187,
    "Ġapple": 14170,
    "Ġflitting": 13031,
    "Ġhearers": 15707,
    "Ġdotted": 16794,
    "Ġreconsidered": 21676,
    "Ġthreshold": 2807,
    "Ġhunter": 5401,
    "ĠdÃ¦mon": 7844,
    "torm": 11533,
    "orrow": 2914,
    "Ġfa": 4821,
    "dining": 13709,
    "standing": 5558,
    "Ġjunks": 25116,
    "Ġpaw": 12625,
    "Ġdefile": 18825,
    "calmed": 16207,
    "bott": 9109,
    "Ġcountryside": 23598,
    "longbourn": 9899,
    "Ã¦mon": 7096,
    "stretched": 10210,
    "Ġork": 18285,
    "north": 14617,
    "Ġexpressing": 12013,
    "Ġelucidated": 26030,
    "published": 26143,
    "Ġwaist": 6893,
    "obli": 23098,
    "Ġcomputer": 1212,
    "Ġsingled": 23775,
    "Ġdav": 15594,
    "Ġpride": 3823,
    "Ġhook": 6454,
    "ensity": 11817,
    "Ġhostile": 19943,
    "punishment": 15149,
    "irra": 15789,
    "Ġtangles": 25762,
    "dra": 3414,
    "Ġidentifies": 12019,
    "Ġxxi": 24476,
    "rises": 17657,
    "granting": 23416,
    "Ġfatt": 15583,
    "Ġwit": 3842,
    "Ġloud": 4701,
    "Ġwrath": 16320,
    "Ġallev": 18103,
    "rom": 420,
    "._)": 10483,
    "violets": 23545,
    "itary": 4752,
    "aration": 12612,
    "shold": 2773,
    "period": 15906,
    "lowering": 16035,
    "willingness": 24754,
    "Ġmorris": 18845,
    "astrous": 15890,
    "Ġquadru": 16007,
    "sn": 7140,
    "Ġbowing": 10477,
    "acute": 22598,
    "ource": 5244,
    "Ġfare": 5810,
    "Ġeffort": 8205,
    "consequ": 18507,
    "Ġrods": 9757,
    "pits": 15415,
    "Ġashore": 5352,
    "animate": 12582,
    "Ġdr": 2823,
    "surround": 16760,
    "Ġshocks": 16459,
    "ondon": 2707,
    "tattoo": 21090,
    "Ġ53": 19638,
    "Ġcomforted": 19394,
    "Ġfaithfully": 14890,
    "arranging": 19320,
    "Ġthomas": 17950,
    "Ġsustained": 13486,
    "Ġresides": 22544,
    "overlooked": 23326,
    "stains": 11640,
    "Ġblew": 9048,
    "Ġimpatience": 7510,
    "poor": 6062,
    "Ġpetulance": 24230,
    "Ġparamore": 22126,
    "Ġirregularly": 25324,
    "fishery": 10035,
    "worse": 14693,
    "Ġflour": 8947,
    "Ġsumm": 3357,
    "Ġsurtout": 23467,
    "Ġfury": 7663,
    "Ġath": 15807,
    "Ġmainmast": 9782,
    "ringle": 21043,
    "umbled": 8495,
    "Ġcelebrated": 13598,
    "eting": 7170,
    "Ġintolerably": 15833,
    "pat": 10119,
    "Ġfairly": 6327,
    "Ġpast": 2099,
    "Ġmomentum": 1599,
    "Ġdreamed": 16632,
    "eted": 7593,
    "ocratic": 17247,
    "Ġlivelihood": 24773,
    "vis": 4577,
    "Ġwindings": 18911,
    "Ġscolded": 25473,
    "Ġeight": 3901,
    "Ġfall": 2990,
    "Ġcomfor": 14057,
    "Ġleisurely": 24745,
    "Ġblades": 11899,
    "Ġxviii": 23412,
    "Ġfairest": 20466,
    "stand": 624,
    "Ġcharging": 23271,
    "manner": 6172,
    "Ġintelligently": 4135,
    "Ġquies": 18465,
    "Ġpronouncing": 16971,
    "Ġminers": 22834,
    "overspreading": 26140,
    "Ġreporting": 24658,
    "Ġspite": 4158,
    "cerem": 15682,
    "Ġworshipper": 25693,
    "Ġtemperate": 16166,
    "oted": 4597,
    "gled": 10701,
    "passed": 8026,
    "ahead": 12438,
    "deemed": 18316,
    "Ġbillow": 14783,
    "bitious": 16672,
    "Ġsled": 21221,
    "oug": 432,
    "bath": 13693,
    "Ġdeclared": 5595,
    "Ġdishonoured": 20394,
    "Ġdevelopments": 23251,
    "Ġsympathetic": 17362,
    "savagery": 25028,
    "Ġmutineer": 19421,
    "Ġpythag": 26450,
    "inations": 7568,
    "painting": 17047,
    "apering": 8041,
    "Ġtablet": 19207,
    "Ġfilthy": 13252,
    "fourths": 25510,
    "Ġoverhead": 11774,
    "Ġshan": 9252,
    "Ġsure": 1865,
    "Ġcanted": 17833,
    "dwelt": 23874,
    "Ġcounties": 23305,
    "Ġproved": 4885,
    "unwillingness": 25803,
    "banish": 20784,
    "Ġtrous": 10958,
    "Ġdocks": 14178,
    "Ġfiends": 14831,
    "Ġlaying": 7908,
    "Ġlanguid": 14217,
    "midnight": 14905,
    "Ġstreng": 18073,
    "ary": 990,
    "Ġgenerates": 3665,
    "disapprobation": 19159,
    "achment": 5464,
    "assuming": 22326,
    "concluding": 19484,
    "Ġgreeted": 23212,
    "length": 7136,
    "tier": 12519,
    "Ġyields": 19659,
    "Ġpreserving": 19799,
    "ĭ": 238,
    "Ġinitialized": 3947,
    "Ġunexplored": 26520,
    "Ġwholly": 4448,
    "Ġbehave": 23302,
    "Ġbrit": 6291,
    "Ġadvisable": 11444,
    "whip": 22241,
    "Ġautoregressive": 3431,
    "Ġarranged": 9880,
    "Ġvigorous": 10569,
    "Ġinduced": 8674,
    "Ġniag": 21533,
    "Ġvariance": 1166,
    "arms": 10176,
    "Ġhopes": 4236,
    "Ġjoking": 12842,
    "grew": 17557,
    "Ġbabes": 24425,
    "Ġidentified": 19152,
    "Ġsleepy": 8268,
    "eches": 8078,
    "Ì": 141,
    "Ġflame": 7448,
    "Ġalighted": 18106,
    "Ġhastened": 9007,
    "inian": 21185,
    "Ġaries": 21200,
    "Ġgur": 21595,
    "Ġmann": 18417,
    "expedition": 26079,
    "Ġculprit": 26173,
    "Ġhereford": 22876,
    "Ġweapons": 10596,
    "Ġrevenge": 5452,
    "rival": 12747,
    "Ġsport": 6690,
    "Ġcounterpane": 11345,
    "knot": 13748,
    "Ġshoal": 12020,
    "Ġuneasy": 8665,
    "ancient": 9658,
    "sham": 9760,
    "Ġabandoned": 8352,
    "fr": 4805,
    "Ġhut": 15623,
    "Ġharrow": 17928,
    "att": 1456,
    "alt": 12643,
    "Ġstrings": 11833,
    "Ġshapeless": 24524,
    "needle": 20316,
    "fowl": 17551,
    "Ġunion": 6839,
    "bey": 10316,
    "Ġlob": 7629,
    "Ġobservations": 13557,
    "ampton": 18147,
    "Ġswinging": 7449,
    "Ġunmanner": 22033,
    "Ġendeav": 2957,
    "Ġdemocracy": 25459,
    "Ġdocumentation": 20557,
    "Ġinit": 816,
    "orers": 14106,
    "Ġrequisition": 22636,
    "Ġcatherine": 2812,
    "Ġadhering": 14142,
    "Ġpers": 1353,
    "ideas": 18582,
    "Ġappetite": 12388,
    "Ġabhor": 5467,
    "ructive": 18544,
    "Ġtoward": 17949,
    "Ġsecretary": 19445,
    "Ġrounds": 18886,
    "Ġdomineering": 23711,
    "Ġ1869": 19387,
    "patient": 25343,
    "Ġsaws": 23052,
    "Ġpublisher": 24068,
    "Ġtyrant": 24766,
    "Ġrequiring": 2921,
    "lays": 14925,
    "Ġseven": 4542,
    "Ġneglecting": 25010,
    "americ": 8156,
    "probably": 10023,
    "Ġconstraints": 2740,
    "Ġagatha": 6866,
    "Ġasiatic": 20433,
    "ledge": 1328,
    "mind": 4627,
    "Ġradiating": 24329,
    "Ġwaned": 17793,
    "Ġtapping": 10754,
    "winds": 10524,
    "Ġtrepidation": 19217,
    "Ġinvolved": 8926,
    "Ġinclud": 1512,
    "Ġglared": 13019,
    "swe": 5997,
    "Ġale": 9157,
    "Ġparc": 10922,
    "Ġroundabout": 23064,
    "gentleness": 24845,
    "Ġrepel": 23362,
    "when": 1588,
    "irms": 18171,
    "Ġcoroner": 7511,
    "Ġgodfre": 14531,
    "Ġcontemptuous": 24677,
    "Ġdeer": 12725,
    "classes": 12140,
    "Ġbelf": 21384,
    "Ġselection": 18205,
    "Ġcop": 7581,
    "Ġknives": 14840,
    "alescing": 23869,
    "Ġsung": 23276,
    "arance": 4698,
    "enth": 6682,
    "an": 278,
    "Ġloun": 7167,
    "witness": 10038,
    "Ġmahogany": 20581,
    "Ġbeer": 10222,
    "dut": 10090,
    "Ġbethink": 12383,
    "Ġminuteness": 19140,
    "gardiner": 12295,
    "withdrawn": 23028,
    "Ġunited": 6840,
    "uctive": 17698,
    "Ġthemselves": 3253,
    "gin": 4931,
    "ny": 4016,
    "hot": 8084,
    "Ġpolluted": 25594,
    "Ġbeasts": 10620,
    "Ġstress": 18069,
    "Ġcooking": 16649,
    "Ġopening": 5045,
    "Ġdynamically": 3748,
    "minded": 9040,
    "Ġpon": 10178,
    "Ġunimaginable": 15250,
    "Ġnine": 5369,
    "Ġhelpless": 8302,
    "can": 1232,
    "Ġcurves": 18856,
    "Â£": 4813,
    "Ġimitate": 14160,
    "Ġworthless": 19568,
    "lipped": 16220,
    "Ġlabour": 7274,
    "dece": 11738,
    "Ġgirth": 13140,
    "rity": 13779,
    "Ġsymbolize": 24963,
    "Ġevenly": 4131,
    "Ġ90": 24589,
    "Ġtoilet": 13940,
    "Ġcents": 17830,
    "mixed": 17607,
    "Ġjavelins": 26106,
    "keep": 3851,
    "Ġhollowly": 24526,
    "Ġstops": 3166,
    "Ġdrew": 3536,
    "hated": 17563,
    "Ġassemblage": 26354,
    "Ġsupport": 6730,
    "Ġdiscourse": 9801,
    "urmountable": 15283,
    "Ġpersuasion": 10501,
    "Ġultimate": 12353,
    "Ġbeef": 6830,
    "Ġchasing": 11758,
    "scale": 3533,
    "hard": 4690,
    "Ġdece": 6997,
    "Ġcannon": 14156,
    "etwork": 441,
    "Ġindestruct": 22963,
    "Ġpapa": 10659,
    "Ġconstables": 19072,
    "itche": 7580,
    "Ġjem": 18403,
    "Ġtech": 1676,
    "progression": 20385,
    "chose": 18043,
    "pires": 13778,
    "Ġrekindled": 21680,
    "Ġredress": 23755,
    "Ġundergo": 23239,
    "Ġpots": 9431,
    "ille": 9222,
    "akin": 11771,
    "Ġsweep": 8266,
    "Ġfrogs": 23927,
    "Ġkeenest": 12166,
    "Ġwhales": 1830,
    "rable": 11635,
    "carried": 16713,
    "Ġobeisance": 19761,
    "utted": 15665,
    "Ġaffrighted": 13576,
    "Ġchemical": 10412,
    "palms": 25263,
    "Ġlace": 13952,
    "uling": 2254,
    "westward": 25425,
    "jump": 10106,
    "Ġgreas": 17994,
    "Ġgi": 15670,
    "Ġglacier": 11435,
    "judges": 19576,
    "Ġreceived": 2954,
    "dw": 3335,
    "Ġsatisf": 2805,
    "dozen": 23381,
    "Ġbreath": 4792,
    "Ġhearken": 21688,
    "Ġscenari": 22291,
    "Ġpropri": 6740,
    "ying": 1367,
    "Ġconvey": 9984,
    "etition": 7382,
    "india": 22375,
    "Ġclim": 8197,
    "Ġhighly": 4846,
    "Ġcalhoun": 23046,
    "Ġforgiven": 24030,
    "Ġdenying": 14660,
    "ersman": 11706,
    "calm": 8937,
    "Ġinstead": 2789,
    "Ġboun": 21383,
    "Ġscru": 8191,
    "iciously": 17976,
    "vand": 21111,
    "dress": 17522,
    "Ġbehavioral": 11398,
    "battering": 20788,
    "Ġcareful": 2610,
    "outre": 18321,
    "oso": 12836,
    "dimly": 15350,
    "Ġshillings": 15839,
    "explanations": 25235,
    "erringly": 16214,
    "Ġlimp": 19182,
    "Ġgorgeous": 20470,
    "inkling": 16096,
    "repeating": 20132,
    "emotion": 21934,
    "tle": 2409,
    "Ġrhone": 25231,
    "endous": 6850,
    "Ġdefinition": 14407,
    "Ġguiltless": 16942,
    "Ġaccosted": 13676,
    "grown": 10102,
    "physiogn": 26265,
    "Ġpursued": 6330,
    "ording": 9767,
    "rob": 5534,
    "Ġlust": 9200,
    "concent": 19483,
    "Ġsparkling": 11358,
    "kitchen": 17587,
    "walked": 10573,
    "Ġdistinguished": 8273,
    "crucible": 24843,
    "merit": 19283,
    "Ġhey": 11644,
    "omics": 21646,
    "Ġfertile": 20586,
    "Ġadorned": 15251,
    "gings": 7550,
    "Ġbend": 9173,
    "bear": 10317,
    "Ġoperations": 2294,
    "Ġnoteworthy": 24165,
    "Ġcomprising": 16072,
    "uger": 21106,
    "Ġdec": 643,
    "adr": 6995,
    "Ġmeryton": 4439,
    "Ġpeter": 10538,
    "image": 9689,
    "Ġworms": 25217,
    "Ġsuperlative": 26075,
    "gover": 10704,
    "Ġspe": 820,
    "silence": 8045,
    "uniform": 18160,
    "iber": 6507,
    "Ġunfeeling": 14122,
    "pit": 3983,
    "Ġcomely": 21859,
    "Ġexpecting": 10438,
    "Ġcandles": 9911,
    "Ġopposed": 11190,
    "Ġroots": 11187,
    "Ġmutiny": 13264,
    "Ġpreach": 14175,
    "Ġengage": 9338,
    "sharp": 10309,
    "beloved": 19464,
    "Ġhabitu": 19531,
    "run": 10723,
    "Ġaccomplice": 24376,
    "Ġqual": 6276,
    "descending": 16288,
    "Ġdishonor": 25602,
    "dramatic": 19388,
    "hist": 7132,
    "iana": 7050,
    "Ġdit": 21423,
    "Ġimposing": 11785,
    "convers": 6569,
    "Ġgnarled": 25169,
    "Ġdynam": 3004,
    "Ġtransformer": 2635,
    "patter": 3958,
    "Ġpauses": 14818,
    "Ġuncomp": 15845,
    "Ġdeliciousness": 24129,
    "mund": 13761,
    "ĠĠĠĠĠĠĠĠ": 711,
    "depth": 12805,
    "lessly": 4556,
    "Ġinser": 6820,
    "Ġbrooks": 25701,
    "ĠĠĠĠĠĠĠĠĠĠĠĠĠĠĠĠĠĠĠĠĠĠĠĠĠĠĠĠĠĠĠĠĠĠĠĠĠĠĠĠĠĠĠĠĠĠĠĠĠĠĠĠĠĠĠĠĠĠĠĠ": 19262,
    "Ġapparel": 20439,
    "min": 4571,
    "Ġhart": 17924,
    "Ġdragon": 14947,
    "brown": 15321,
    "Ġbackwoods": 22662,
    "Ġnailing": 21530,
    "either": 6792,
    "receiving": 12548,
    "mutually": 26137,
    "Ġnobler": 14176,
    "Ġprotruding": 16661,
    "Ġcompre": 4450,
    "strils": 10460,
    "Ġwhalebone": 10979,
    "Ġchewed": 16376,
    "Ġthr": 5709,
    "Ġcarried": 3695,
    "Ġsucking": 12793,
    "Ġexisted": 15759,
    "Ġdaughters": 4422,
    "Ġbasement": 24701,
    "dogs": 25403,
    "datasets": 11955,
    "Ġhop": 1460,
    "france": 24284,
    "Ġhence": 4989,
    "Ġimpenet": 14224,
    "ilations": 21725,
    "Ġguineas": 16272,
    "iply": 22357,
    "Ġshipping": 14107,
    "Ġenlarged": 25986,
    "fell": 6953,
    "Ġparamet": 608,
    "Ġheartily": 6890,
    "Ġcaresses": 26060,
    "Ġglove": 14494,
    "Ġcosmopolitan": 20643,
    "Ġclair": 6272,
    "Ġneedless": 19232,
    "Ġbattle": 5909,
    "Ġcongratulatory": 19770,
    "Ġcousin": 3706,
    "Ġejaculated": 15173,
    "supplementary": 20552,
    "Ġpainfully": 13146,
    "Ġbully": 23859,
    "imet": 21709,
    "Į": 239,
    "Ġinside": 5448,
    "Ġac": 846,
    "Ġexponentiating": 3445,
    "ouring": 6421,
    "Ġcust": 11585,
    "Ġmarshy": 20221,
    "Ġtidy": 17094,
    "Ġdurst": 20355,
    "Ġeternal": 5977,
    "letons": 14614,
    "nest": 10116,
    "Ġvines": 12756,
    "invested": 17120,
    "Ġcet": 6672,
    "Ġvital": 9246,
    "ights": 8478,
    "bennet": 5353,
    "lers": 10109,
    "Ġrang": 9248,
    "Ġdisengaged": 12894,
    "Ġearthy": 23715,
    "Ġaccumul": 1412,
    "Ġimp": 583,
    "icing": 9203,
    "Ġolder": 9330,
    "Ġwave": 7577,
    "everywhere": 23698,
    "acceler": 23600,
    "Ġ13": 6720,
    "Ġspires": 11734,
    "garious": 17560,
    "Ġced": 10786,
    "irr": 12742,
    "Ġinsignificant": 20459,
    "Ġclearness": 23186,
    "Ġabused": 22273,
    "Ġsupers": 18282,
    "shrouded": 26363,
    "Ġcheerfulness": 10519,
    "Ġsul": 7571,
    "Ġ125": 24470,
    "Ġsagacious": 14974,
    "clusion": 16308,
    "uc": 1877,
    "oftener": 23968,
    "Ġeleg": 6194,
    "Ġinvestigation": 9045,
    "Ġsed": 10763,
    "ignorance": 17164,
    "rah": 8137,
    "except": 5383,
    "hig": 12479,
    "lic": 17589,
    "Ġfeeds": 16436,
    "Ġhinted": 6013,
    "inarticulate": 21198,
    "rem": 1522,
    "Ġpresumably": 19627,
    "athered": 6973,
    "Ġdoubtless": 6197,
    "Ġrushing": 7403,
    "Ġsta": 18065,
    "Ġtallest": 15477,
    "Ġpaddling": 25286,
    "Ġsubstit": 19543,
    "Ġunconditional": 15848,
    "Ġadventures": 7748,
    "Q": 53,
    "sust": 15425,
    "Ġblankness": 24611,
    "aside": 10194,
    "Ġfail": 4151,
    "Ġconstable": 19070,
    "Ġwhat": 599,
    "Ġtwit": 12934,
    ";âĢĿ": 7791,
    "kill": 13747,
    "Ġabstract": 17184,
    "Ġzig": 18745,
    "Ġmerc": 9429,
    "Ġblend": 14401,
    "hauled": 20671,
    "Ġinterference": 8897,
    "asburgh": 15651,
    "elve": 4642,
    "Ġfathers": 16299,
    "Ġphrase": 11189,
    "Ġbedfellows": 23447,
    "Ġcourtship": 24138,
    "Ġchoked": 9267,
    "coffin": 10665,
    "deserts": 25382,
    "Ġbal": 1133,
    "Ġsphere": 15886,
    "of": 767,
    "aker": 3664,
    "Ġtremble": 6906,
    "edd": 1204,
    "Ġobliging": 13247,
    "masculine": 24387,
    "Ġchildren": 3768,
    "venison": 22629,
    "Ġcurses": 13027,
    "whilst": 18372,
    "veh": 12686,
    "expressing": 16803,
    "Ġtener": 21166,
    "Ġtruck": 19514,
    "john": 11500,
    "lected": 1633,
    "whal": 10942,
    "Ġgloried": 22985,
    "Ġaffect": 1383,
    "rey": 12543,
    "Ġerect": 6145,
    "eldom": 4414,
    "umbling": 6613,
    "Ġutmost": 5496,
    "Ġtyp": 1131,
    "Ġvalleys": 14922,
    "fiercely": 25257,
    "Ġwoof": 14724,
    "ienced": 5685,
    "Ġpensive": 21477,
    "lid": 20947,
    "Ġrivals": 20274,
    "bildad": 9589,
    "Ġdeliberately": 10627,
    "empt": 2616,
    "drunk": 24660,
    "alice": 3208,
    "Ġhammer": 6095,
    "istol": 6261,
    "Ġcouldn": 7650,
    "Ġshown": 5159,
    "Ġreserves": 19673,
    "Ġsw": 1357,
    "Ġroy": 4231,
    "Ġvehemence": 26568,
    "peculiar": 6886,
    "Ġvague": 6407,
    "feature": 4127,
    "ollion": 19718,
    "Ġhues": 21492,
    "Ġsherlock": 3893,
    "Ġdelicate": 6481,
    "harpooneers": 8693,
    "Ġconventional": 25548,
    "Ġinsolent": 13604,
    "Ġcomposition": 1691,
    "Ġdiscreet": 16485,
    "Ġsublim": 19970,
    "Ġpillar": 21475,
    "Ġrussian": 14353,
    "Ġitem": 12706,
    "Ġacknowled": 6352,
    "Ġdistantly": 18532,
    "Ġsource": 6806,
    "Ġdeceive": 12727,
    "ratulations": 20129,
    "across": 10327,
    "gale": 13726,
    "ordingly": 18519,
    "Ġdecide": 9290,
    "orable": 8120,
    "ical": 754,
    "nets": 9135,
    "Ġsepar": 3999,
    "ishness": 22346,
    "Ġgenerating": 12855,
    "tail": 8765,
    "name": 6796,
    "ication": 979,
    "Ġcheat": 19025,
    "Ġcollecting": 12290,
    "Ġsquad": 22839,
    "Ġoverfitting": 1543,
    "âĢĻâĢĶ": 12741,
    "Ġcrying": 10788,
    "Ġprofane": 13156,
    "bes": 6644,
    "Ġhumph": 22884,
    "Ġpreside": 18366,
    "Ġrevolutionized": 3368,
    "postp": 24635,
    "Ġperturbed": 20443,
    "lion": 20946,
    "Ġtalker": 23374,
    "tem": 6370,
    "Ġdeparted": 5564,
    "Ġanxiety": 5408,
    "Ġauthority": 7749,
    "close": 9989,
    "Ġconsiderable": 4006,
    "\"]": 17473,
    "authority": 13595,
    "Ġampl": 22484,
    "Ġlunging": 24992,
    "ises": 3654,
    "landed": 18957,
    "Ġurgent": 16871,
    "ensibility": 22551,
    "Ġburn": 3685,
    "Ġsisters": 3641,
    "teous": 16177,
    "Ġw": 272,
    "itime": 15552,
    "Ġstagger": 10594,
    "Ġoccurs": 1858,
    "deav": 2674,
    "watching": 16932,
    "Ġsens": 1854,
    "Ġlustre": 15138,
    "Ġon": 350,
    "utely": 8132,
    "Ġunlock": 18244,
    "Ġaw": 2509,
    "Ġunfelt": 24111,
    "Ġspr": 4025,
    "Ġjumped": 7098,
    "damp": 15347,
    "Ġvictims": 19807,
    "similar": 13457,
    "Ġluff": 15657,
    "Ġconge": 15750,
    "Ġcheerfully": 12139,
    "acquaintance": 6938,
    "Ġgossip": 18472,
    "Ġsentence": 6189,
    "Ġreveren": 13199,
    "Ġexcused": 23316,
    "Ġdrove": 4984,
    "dispute": 23501,
    "intments": 18822,
    "rushed": 10587,
    "magnifying": 25393,
    "Ġcause": 2410,
    "lu": 596,
    "tooth": 18580,
    "Ġsooner": 5573,
    "Î": 143,
    "doubted": 17528,
    "Ġdism": 9770,
    "irresistible": 18176,
    "allowance": 16826,
    "Ġwoollen": 12108,
    "Ġbeen": 627,
    "heed": 15501,
    "castles": 14638,
    "cery": 20810,
    "Ġhoping": 11105,
    "Ġinquirer": 24964,
    "Ġlawyer": 10671,
    "Ġorigin": 4120,
    "Ġinsensible": 12329,
    "ors": 854,
    "Ġvulgar": 13608,
    "screw": 9349,
    "incess": 15485,
    "onds": 13001,
    "describe": 1515,
    "beholding": 16045,
    "Ġstanding": 3001,
    "asse": 15649,
    "shroud": 20313,
    "Ġdiscrimin": 2546,
    "intense": 22939,
    "Ġobligation": 13248,
    "Ġfort": 2578,
    "seen": 2879,
    "yard": 5901,
    "cially": 3488,
    "inqu": 6123,
    "Ġcreaking": 14329,
    "Ġcigarette": 20658,
    "Ġdipping": 15596,
    "Ġisolation": 17153,
    "objection": 19917,
    "ò": 179,
    "Ġcivil": 4679,
    "Ġtattoo": 7359,
    "morland": 24156,
    "Ġexertions": 13414,
    "Ġlionel": 25287,
    "Ġsquee": 7929,
    "Ġoutline": 15958,
    "Ġpassive": 22843,
    "Ġliberty": 7762,
    "Ġwane": 21291,
    "Ġcursed": 6729,
    "sa": 8760,
    "our": 534,
    "Ġyouthful": 16725,
    "deal": 12804,
    "Ġstraps": 19312,
    "brace": 16944,
    "resistible": 10646,
    "Ġintensely": 17019,
    "part": 2573,
    "Ġlethargy": 26485,
    "affections": 17359,
    "Ġwashing": 9708,
    "Ġglades": 19375,
    "Ġgri": 17990,
    "Ġneuron": 1810,
    "Ġpurely": 12236,
    "Ġwig": 9164,
    "Ġ78": 19616,
    "Ġhypothesis": 14786,
    "Ġevidence": 5270,
    "Ġsimilarly": 24310,
    "meet": 11859,
    "pol": 5894,
    "Ġanon": 9669,
    "Ġdistances": 22507,
    "Ġprediction": 2208,
    "ancing": 1762,
    "Ġgardiner": 3239,
    "Ġunfolding": 17087,
    "Ġgoodness": 6060,
    "Ġbarrow": 12074,
    "Ñ": 146,
    "ĠâĢľâĢĺ_": 25114,
    "Ġmutilated": 23962,
    "Ġsettled": 3742,
    "Ġdecreed": 18493,
    "Ġross": 2764,
    "fitters": 24760,
    "Ġnursery": 19753,
    "Ġropes": 10750,
    "Ġcapital": 7980,
    "twist": 23701,
    "Ġimprecate": 20521,
    "Ġcane": 10929,
    "hatred": 24818,
    "maritime": 24176,
    "Ġcontrivance": 17186,
    "Ġmarking": 16471,
    "blo": 6355,
    "Ġpossibly": 4514,
    "Ġowned": 11880,
    "surface": 10533,
    "Ġrevel": 9217,
    "Ġtrustworthy": 24107,
    "sent": 760,
    "iv": 431,
    "Ġcapt": 1289,
    "per": 483,
    "Ġcontrols": 1735,
    "Ġpart": 858,
    "benefit": 24643,
    "Ġantics": 24181,
    "magnificent": 20277,
    "Ġgrows": 4985,
    "Ġbreathes": 13250,
    "Ġmachines": 1779,
    "emed": 3381,
    "Ġitems": 9695,
    "Ġencoun": 4512,
    "regularization": 3513,
    "Ġangles": 23590,
    "Ġrefine": 2922,
    "mir": 20965,
    "Ġrealistic": 5862,
    "Ġangels": 11180,
    "pression": 10409,
    "french": 9122,
    "whence": 23214,
    "scotland": 20532,
    "alike": 17945,
    "Ġfuss": 13908,
    "Ġrobustness": 18895,
    "Ġdamn": 11160,
    "leeward": 15214,
    "restored": 18978,
    "Ġvit": 10248,
    "Ġeaten": 14848,
    "like": 1888,
    "eds": 6531,
    "pronounce": 25193,
    "Ġtwig": 11854,
    "open": 7027,
    "henry": 16628,
    "Ġrecollect": 8310,
    "Ġmerciless": 25247,
    "pair": 21014,
    "Ġpy": 21453,
    "Ġexertion": 8054,
    "Ġoppressed": 11191,
    "Ġstat": 1489,
    "Ġsorry": 4212,
    "a": 69,
    "Ġproduces": 2094,
    "Ġconverts": 2804,
    "Ġaxe": 15064,
    "ram": 13975,
    "Ġexecut": 4249,
    "Ġderivatives": 2368,
    "ras": 21039,
    "Ġeyelids": 26108,
    "Ġmeasuring": 22883,
    "Ġslackened": 15130,
    "âĢĶâĢĺ_": 24832,
    "Ġwear": 6032,
    "daylight": 19057,
    "therefore": 5955,
    "cess": 536,
    "Ġmoot": 22436,
    "Ġuniformly": 19149,
    "Ġenchanted": 9083,
    "enched": 10157,
    "Ġestimation": 11220,
    "Ġadvertising": 25390,
    "B": 38,
    "Ġveiled": 16204,
    "measureless": 20238,
    "Ġissues": 9545,
    "disappointed": 25192,
    "Ġwharf": 9562,
    "expected": 5780,
    "rocious": 21542,
    "Ġmassa": 19457,
    "Ġfreer": 23209,
    "inter": 2951,
    "ariously": 18528,
    "extinguish": 22763,
    "Ġblinded": 13275,
    "Ġimpat": 4457,
    "Ġsalut": 10512,
    "Ġamuse": 5941,
    "Ġdraws": 19439,
    "Ġay": 15494,
    "pooh": 18801,
    "Ġevid": 3499,
    "Ġsaxe": 13632,
    "Ġseizure": 21968,
    "Ġseventy": 7880,
    "Ġtorpor": 25034,
    "Ġpiratical": 24798,
    "Ġhousehold": 8571,
    "Ġintuitions": 17344,
    "Ġintimidated": 24802,
    "walking": 9985,
    "culous": 11143,
    "Ġvelvets": 25394,
    "Ġsubmit": 11874,
    "Ġbrightest": 13230,
    "wart": 17707,
    "Ġparac": 12800,
    "Ġparlour": 12325,
    "Ġundulates": 24120,
    "Ġmonosyllable": 20728,
    "greater": 13256,
    "Ġair": 1837,
    "Ġagainst": 1701,
    "ruding": 9727,
    "Ġspectator": 19409,
    "lesson": 22776,
    "dually": 3285,
    "Ġindelicacy": 25696,
    "companions": 15026,
    "Ġscud": 14193,
    "Ġevil": 3806,
    "Ġnotwithstanding": 9717,
    "Ġlowerings": 23649,
    "Ġoffended": 7042,
    "icle": 10836,
    "puff": 21024,
    "Ġconsolidation": 5060,
    "ium": 4865,
    "Ġcathedral": 17416,
    "Ġflattening": 26049,
    "Ġcoff": 3506,
    "Ġexhibition": 14960,
    "Ġshouted": 5348,
    "Ġsteps": 2862,
    "anean": 7443,
    "mend": 20968,
    "Ġstuffed": 13413,
    "turning": 8317,
    "Ġbeaks": 21759,
    "Ġilliter": 23470,
    "pitchpoling": 25725,
    "Ġundet": 16703,
    "record": 16923,
    "Ġfewer": 16225,
    "bted": 7794,
    "Ġautomatically": 3833,
    "pervading": 18987,
    "Ġrelated": 3716,
    "orial": 8418,
    "Ġbod": 4581,
    "beings": 12881,
    "Ġsold": 6004,
    "loath": 22512,
    "beware": 16044,
    "goose": 19103,
    "gust": 6362,
    "Ġwip": 13856,
    "def": 1452,
    "Ġstepdaughter": 22615,
    "vered": 4832,
    "air": 1003,
    "Ġmyself": 1454,
    "Ġunsatisfied": 22048,
    "Ġso": 430,
    "Ġinviting": 19145,
    "Ġyoungster": 23182,
    "isome": 17850,
    "Ġrecommended": 8671,
    "information": 12397,
    "aint": 2542,
    "ulties": 12906,
    "Ġmuslin": 19386,
    "paused": 17377,
    "epend": 3317,
    "Ġexcessively": 9443,
    "Ġoverhanging": 22355,
    "Ġendless": 7055,
    "yield": 13812,
    "devils": 20036,
    "Ġwindibank": 7257,
    "pursuit": 20343,
    "Ġmodeling": 2096,
    "Ġconjure": 17126,
    "Ġwaiting": 4324,
    "Ġforgery": 25978,
    "Ġbalmoral": 16210,
    "bold": 17490,
    "Ġunintellig": 22030,
    "Ġimprobable": 9798,
    "Ġgravel": 14105,
    "Ġbrook": 13053,
    "Ġsigh": 10339,
    "Ġhave": 445,
    "Ġexp": 777,
    "Ġdestructive": 23488,
    "Ġprosperity": 20260,
    "Ġendure": 5957,
    "onts": 15522,
    "evident": 25521,
    "Ġwrecks": 16820,
    "Ġhamp": 12635,
    "lives": 12490,
    "sens": 8096,
    "Ġdesper": 6178,
    "ĝ": 222,
    "time": 3147,
    "utes": 5915,
    "nar": 12498,
    "Ġamput": 16037,
    "Ġsubsiding": 23436,
    "Ġgift": 10842,
    "networks": 2405,
    "Ġletter": 2196,
    "Ġfrost": 6097,
    "Ġrecognised": 8998,
    "Ġleast": 2063,
    "itten": 3440,
    "Ġanx": 3181,
    "Ġoy": 15550,
    "Ġmanner": 2195,
    "Ġheroines": 19754,
    "Ġmaddening": 17245,
    "yourselves": 24959,
    "Ġindeed": 1683,
    "anxiously": 15114,
    "ales": 3319,
    "Ġcumberland": 21358,
    "Ġgoethe": 22428,
    "Ġobserved": 3540,
    "Ġsummer": 4791,
    "_.,": 14563,
    "iz": 365,
    "iance": 5280,
    "haven": 20914,
    "Ġunfathomable": 20551,
    "Ġmodes": 22225,
    "Ġcreations": 18681,
    "erred": 6377,
    "Ġretrieval": 10677,
    "Ġcontextually": 11957,
    "Ġorbs": 22096,
    "Ġsave": 4052,
    "Ġsucked": 14139,
    "Ġfestoon": 20297,
    "Ġfe": 490,
    "Ġhel": 3787,
    "Ġimpul": 7208,
    "minutes": 7513,
    "umns": 14150,
    "garity": 17556,
    "Ġunsafe": 22045,
    "blister": 24130,
    "Ġconce": 3422,
    "Ġconsisting": 8974,
    "Ġrats": 21980,
    "mary": 8752,
    "convul": 24884,
    "rebell": 17765,
    "Ġgamesome": 17292,
    "Ġsusp": 2664,
    "Ġprecautions": 23729,
    "Ġseparating": 16684,
    "law": 6117,
    "character": 6333,
    "grounds": 11153,
    "Ġunanswerable": 26523,
    ";": 31,
    "horr": 14601,
    "Ġpurchased": 12265,
    "Ġchildish": 13141,
    "cture": 15669,
    "fishing": 20861,
    "Ġanaly": 1137,
    "hmael": 7342,
    "Ġapartment": 6636,
    "Ġdejection": 15200,
    "Ġcarriage": 3949,
    "Ġcorpor": 23042,
    "Ġquicker": 16510,
    "shazz": 14243,
    "Ġadapted": 11041,
    "Ġtink": 9151,
    "Ġheedfulness": 24522,
    "lean": 21368,
    "Ġchanced": 8187,
    "Ġslapped": 23174,
    "etw": 407,
    "Ġharp": 17926,
    "pequod": 7054,
    "Ġchowder": 10282,
    "Ġfrancisco": 26065,
    "Ġrealising": 18982,
    "moved": 9789,
    "shown": 22448,
    "Ġdizzy": 21435,
    "uine": 13802,
    "bered": 4505,
    "Ġfarthing": 14457,
    "Ġbut": 424,
    "voices": 21120,
    "intelligent": 16846,
    "overing": 6308,
    "Ġduty": 4071,
    "Ġoverladen": 22356,
    "Ġintruding": 21995,
    "indeed": 4488,
    "Ġstrategy": 2273,
    "ief": 2044,
    "Ġwreck": 7314,
    "ways": 1440,
    "Ġninetieth": 25358,
    "ed": 293,
    "abulary": 4801,
    "surv": 24216,
    "ĠmanÅĵuv": 18418,
    "Ġtarshish": 12033,
    "Ġprodigious": 8057,
    "Ġendeavour": 4678,
    "Ġton": 15467,
    "thousand": 5547,
    "necessity": 13372,
    "Ġcretan": 22722,
    "Ġcruising": 6912,
    "sar": 12509,
    "ben": 4927,
    "Ġemaciated": 20641,
    "contrasted": 17309,
    "Ġbos": 4876,
    "Ġexplored": 23519,
    "Ġenabled": 9299,
    "Ġpleasures": 11145,
    "Ġalarmed": 6923,
    "Ġ42": 16680,
    "Ġexpression": 4516,
    "barrel": 17062,
    "bred": 11471,
    "Ġminima": 3462,
    "Ġshiny": 14109,
    "cares": 24311,
    "ignific": 11960,
    "yth": 985,
    "Ġdeceitful": 25733,
    "possesses": 24617,
    "Ġflirt": 14426,
    "Ġabsurdities": 24879,
    "ting": 1333,
    "Ġunrecorded": 17470,
    "Ġbaker": 4696,
    "Ġbenches": 18784,
    "elizabeth": 1987,
    "valu": 1677,
    "stock": 13227,
    "Ġsnatch": 14641,
    "read": 3277,
    "Ġcontempl": 6703,
    "bbings": 19278,
    "Ġtelescopes": 25691,
    "uity": 12522,
    "ail": 566,
    "Ġrugged": 18721,
    "Ġliterally": 15120,
    "Ġilluminate": 17195,
    "wn": 721,
    "Ġreception": 9842,
    "Ġdoubted": 7965,
    "isco": 12586,
    "Ġje": 4123,
    "elf": 565,
    "Ġsales": 12812,
    "Ġmicha": 17813,
    "Ġpence": 17905,
    "hoist": 23716,
    "taste": 10132,
    "Ġstables": 23657,
    "ought": 830,
    "something": 4286,
    "mitted": 5213,
    "Ġcuriosities": 26291,
    "Ġdiscl": 9800,
    "Ġunderstand": 829,
    "Ġkidn": 20208,
    "Ġreluct": 14375,
    "town": 7144,
    "Ġwretchedly": 19509,
    "Ġadmired": 7982,
    "Ġconquest": 15752,
    "Ġactual": 3738,
    "stating": 21650,
    "Ġstalls": 25648,
    "Ġminim": 1323,
    "Ġattacking": 24465,
    "000": 2560,
    "Ġbells": 19604,
    "useless": 14596,
    "Ġjug": 12840,
    "Ġgrate": 12969,
    "Ġsigns": 2440,
    "Ġacquainted": 5179,
    "Ġnight": 1465,
    "Ġrear": 6537,
    "blue": 13697,
    "Ġfoiled": 23246,
    "Ġgladly": 14683,
    "ĠĠĠĠĠĠĠĠĠĠĠĠĠĠĠĠĠĠĠĠĠĠĠĠĠĠĠĠĠĠĠĠĠĠĠĠĠĠ": 16528,
    "Ġnile": 21524,
    "level": 2654,
    "Ġsoutherly": 23338,
    "Ġmedical": 9473,
    "Ġdons": 17890,
    "scap": 22988,
    "Ġsummoned": 9914,
    "Ġmustering": 18663,
    "Ġintim": 6838,
    "Ġbashful": 20423,
    "Ġbrink": 18771,
    "Ġnoah": 10944,
    "loom": 18536,
    "gay": 11491,
    "Ġhooks": 14971,
    "Ġkill": 4455,
    "lasting": 8011,
    "Ġstair": 8457,
    "Ġscience": 1603,
    "Ġtort": 5903,
    "Ġbellies": 13360,
    "Ġwint": 15536,
    "undertaking": 23790,
    "etics": 21584,
    "Ġclergy": 7644,
    "constant": 11326,
    "inc": 2520,
    "Ġsord": 21222,
    "Ġwashington": 17205,
    "ro": 301,
    "Ġseeking": 7037,
    "riety": 12748,
    "Ġchurches": 12832,
    "veral": 2350,
    "news": 23135,
    "Ġskylight": 24074,
    "Ġdestruction": 6602,
    "terms": 15755,
    "every": 2809,
    "Ġyouth": 4263,
    "Ġglued": 20592,
    "mercenary": 26316,
    "Ġanomalous": 25638,
    "Ġdivineness": 25724,
    "Ġdistraction": 22509,
    "Ġplaus": 22602,
    "ends": 6040,
    "Ġscratches": 22290,
    "Ġstrength": 4261,
    "ells": 5305,
    "ork": 415,
    "Ġpreservative": 24630,
    "Ġgraze": 18227,
    "romeda": 17265,
    "Ġcataract": 23430,
    "Ġnarwhales": 24903,
    "beating": 22493,
    "independent": 26022,
    "ę": 218,
    "Ù": 154,
    "Ġcoils": 9306,
    "resol": 17762,
    "prev": 12872,
    "various": 10400,
    "A": 37,
    "Ġsiber": 17757,
    "Ġfloor": 4379,
    "iful": 2880,
    "coming": 3562,
    "loa": 18534,
    "alizing": 17942,
    "Ġobstructed": 24678,
    "tomorrow": 25915,
    "Ġfates": 15582,
    "Ġeff": 681,
    "Ġcommonplace": 11098,
    "Ġtranscend": 25668,
    "Ġshone": 7404,
    "Ġfainted": 8796,
    "Ġleviathan": 3290,
    "leness": 4691,
    "the": 334,
    "ton": 1730,
    "Ġcav": 13883,
    "Ġvalley": 5852,
    "Ġprynne": 25541,
    "rods": 21541,
    "ided": 2784,
    "Ġorgies": 18286,
    "Ġstrands": 25575,
    "utions": 1892,
    "coburg": 13602,
    "Ġforwards": 12708,
    "Ġtie": 10752,
    "miserable": 8660,
    "ceptive": 15969,
    "Ġweb": 9243,
    "ports": 13777,
    "Ġteeth": 4169,
    "Ġpropensity": 18998,
    "arily": 4126,
    "Ġsending": 8779,
    "Ġbestir": 13114,
    "Ġoaks": 16935,
    "dan": 17517,
    "Ġlaud": 17970,
    "Ġoverflow": 10294,
    "Ġheavily": 6742,
    "inate": 6235,
    "Ġreusable": 13561,
    "inable": 11558,
    "Ġhoard": 23355,
    "later": 20955,
    "apter": 1193,
    "adow": 18090,
    "Ġbegins": 7244,
    "Ġproducing": 11904,
    "ipp": 10105,
    "Ġbeams": 14633,
    "utral": 12668,
    "coo": 11172,
    "tan": 4743,
    "Ġphilosoph": 19654,
    "Ġpurest": 14942,
    "Ġrid": 4355,
    "ĠĠĠĠĠĠĠĠĠĠĠĠĠĠĠĠĠĠĠĠĠĠĠĠ": 5322,
    "Ġsch": 13838,
    "Ġhug": 6980,
    "Ġdaunt": 19667,
    "ww": 10739,
    "foundation": 16716,
    "Ġprotesting": 14744,
    "asses": 7019,
    "Ġsoapstone": 20514,
    "repent": 15516,
    "Ġunstructured": 3008,
    "Ġfellow": 2776,
    "Ġattitudes": 16103,
    "Ġphilosophical": 26336,
    "oe": 7553,
    "Ġexpl": 486,
    "Ġsamples": 2964,
    "itled": 7579,
    "Ġallen": 5160,
    "prepared": 13594,
    "Ġconsistence": 23359,
    "Ġlongitude": 11013,
    "houses": 9602,
    "atiously": 15525,
    "Ġabsolute": 6766,
    "Ġupbraiding": 26228,
    "surely": 10572,
    "Ġinvestment": 24332,
    "Ġdro": 2771,
    "Ġselfishness": 12293,
    "Ġpregn": 22236,
    "canonical": 22968,
    "Ġnavigators": 19766,
    "Ġsullen": 9160,
    "arpo": 1759,
    "penetrating": 25491,
    "Ġunbending": 25465,
    "Ġadopt": 10635,
    "ķ": 248,
    "Ġ93": 24592,
    "Ġinexper": 16982,
    "Ġcir": 21344,
    "Ġcope": 17832,
    "Ġmeditation": 16707,
    "Ġtime": 690,
    "uced": 13803,
    "Ġrefresh": 10348,
    "Ġ107": 24415,
    "Ġwithdra": 6399,
    "cious": 6646,
    "zeal": 16275,
    "Ġplough": 18609,
    "Ġaway": 1242,
    "Ġwhaleboats": 18480,
    "Ġter": 2050,
    "east": 9118,
    "Ġperch": 10301,
    "wheeling": 22868,
    "Ġexamination": 8005,
    "Ġpropose": 9856,
    "Â": 131,
    "ciousness": 20819,
    "resent": 10771,
    "continue": 16863,
    "Ġpavement": 9580,
    "appointment": 24062,
    "Ġaccess": 9750,
    "xes": 21143,
    "Ġdollar": 25284,
    "slow": 7810,
    "Ġemac": 16410,
    "straight": 9943,
    "fast": 3074,
    "Ġcup": 5697,
    "Ġjollies": 20373,
    "fisher": 7548,
    "Ġminutely": 14562,
    "Ġphilistines": 26083,
    "Ġbuoyancy": 20045,
    "Ġmeat": 8152,
    "Ġchamois": 16802,
    "sails": 7498,
    "overed": 2852,
    "Ġtopic": 9409,
    "Ġcommunicates": 24547,
    "Ġaffecting": 2321,
    "Ġdisastrous": 16064,
    "Ġtranquillize": 24756,
    "Ġproximity": 3218,
    "Ġcubs": 20090,
    "Ġeffusions": 18540,
    "Ġadmiral": 17308,
    "Ġkeels": 11063,
    "Ġmislead": 22767,
    "Ġweariness": 19797,
    "Ġfritters": 23259,
    "angling": 14143,
    "fitted": 17546,
    "Ġmuster": 16126,
    "lled": 10110,
    "ipl": 20920,
    "inserted": 18888,
    "Ġleads": 12101,
    "attering": 7418,
    "Ġenergies": 25460,
    "Ġdeterm": 1268,
    "crop": 20800,
    "suspect": 9543,
    "?âĢĻâĢĿ": 23645,
    "emason": 18189,
    "safety": 20352,
    "ď": 208,
    "_,": 2798,
    "lier": 20951,
    "Ġsn": 2952,
    "attached": 11939,
    "Ġlan": 5821,
    "Ġcrossing": 7252,
    "biscuit": 17503,
    "ulum": 21867,
    "Ġcrate": 19121,
    "atiable": 17776,
    "Ġreminded": 10002,
    "Ġrefinement": 18700,
    "ateness": 15523,
    "left": 6976,
    "Ġweights": 896,
    "Ġsuspicious": 9483,
    "ior": 2038,
    "Ġtechnically": 12370,
    "ssian": 3400,
    "final": 19679,
    "Ġbet": 1134,
    "score": 18851,
    "Ġpenetrated": 13476,
    "Ġfavoring": 2341,
    "Ġmoccas": 22440,
    "Ġpretend": 7722,
    "calmly": 20142,
    "Ġejac": 10206,
    "Ġtomahawk": 7540,
    "Ġlizzy": 3546,
    "Ġhumorous": 10363,
    "Ġyoun": 1409,
    "Ġe": 311,
    "Ġfriday": 14490,
    "Ġcooper": 16079,
    "Ġconnexion": 11456,
    "Ġrelief": 6061,
    "Ġgrinned": 16859,
    "Ġcommanding": 16592,
    "Ġcommit": 18656,
    "mess": 13756,
    "Ġrel": 1094,
    "Ġdecember": 15009,
    "Ġnations": 8814,
    "jure": 20926,
    "old": 799,
    "Ġinherited": 25354,
    "control": 16546,
    "Ġmining": 22832,
    "haul": 14768,
    "Ġemotions": 8972,
    "Ġancest": 12619,
    "ell": 397,
    "usion": 3301,
    "ogra": 4573,
    "Ġoccupation": 9934,
    "Ġrepresentation": 14408,
    "Ġorphan": 12387,
    "Ġenforced": 21942,
    "Ġuttermost": 19491,
    "Ġsympathy": 6348,
    "whips": 22242,
    "Ġchancing": 22252,
    "original": 9088,
    "sleeping": 13458,
    "removed": 15519,
    "Ġgrud": 17998,
    "Ġmissed": 8560,
    "Ġrepublican": 17415,
    "Ġunwearied": 20605,
    "Ġaudible": 19883,
    "Ġpeculiarly": 8287,
    "hood": 2660,
    "creator": 26383,
    "Ġdrowsiness": 26447,
    "getic": 12971,
    "Ġpetersburgh": 24231,
    "Ġpeculiarity": 12938,
    "ourers": 21452,
    "Ġstrife": 18614,
    "Ġwaterward": 23370,
    "ificant": 22210,
    "female": 20669,
    "Ġsubtile": 20383,
    "Ġperceive": 6701,
    "athom": 12945,
    "shott": 11798,
    "omuch": 21643,
    "Ġtortoise": 16910,
    "assistant": 25568,
    "Ġdesk": 11911,
    "quarried": 24948,
    "Ġpork": 21459,
    "Ġcrept": 11023,
    "equal": 14996,
    "Ġbrist": 14381,
    "etieth": 21587,
    "Ġpier": 7163,
    "Ġengra": 7874,
    "acting": 22633,
    "ĠĠĠĠĠĠĠĠĠĠĠĠĠĠĠĠĠ": 22954,
    "erxes": 21278,
    "Ġgene": 15676,
    "Ġdrives": 14579,
    "envelope": 17784,
    "Ġtrials": 16791,
    "Ġtug": 11553,
    "âĢĿâĢĶ": 5721,
    "derer": 4600,
    "Ġusages": 15920,
    "Ġsquall": 7045,
    "Ġprimal": 17108,
    "Ġprecision": 13191,
    "itan": 10162,
    "Ġfund": 2842,
    "âĢ": 294,
    "Ġpuzzling": 14901,
    "Ġcavity": 20491,
    "Ġwrists": 11114,
    "dec": 3114,
    "Ġhistor": 3391,
    "ß": 160,
    "showing": 22455,
    "olog": 1075,
    "english": 2774,
    "Ġgracechurch": 12203,
    "igin": 3656,
    "Ġundoing": 22039,
    "Ġadjust": 2156,
    "Ġguidance": 9420,
    "allows": 15911,
    "Ġbuy": 8300,
    "pshire": 21026,
    "Ġtrump": 8195,
    "Ġtand": 21163,
    "Ġlocker": 16913,
    "Ġappal": 18360,
    "iously": 2677,
    "ess": 411,
    "Ġimpartial": 15223,
    "Ġcongealed": 25982,
    "Ġbeheading": 21758,
    "quietly": 10595,
    "Ġoxford": 11373,
    "Ġbrimming": 22863,
    "Ġincess": 8432,
    "Ġenh": 2859,
    "ribbed": 16415,
    "minds": 24235,
    "treas": 17681,
    "Ġclass": 823,
    "Ġbare": 6134,
    "Ġlazy": 17051,
    "Ġanimal": 2496,
    "Ġtombed": 25164,
    "Ġsharper": 17182,
    "Ġwinc": 9645,
    "Ġwidow": 8666,
    "Ġswish": 23056,
    "Ġuser": 15919,
    "whales": 5187,
    "Ġfootmarks": 19339,
    "Ġtranquilly": 12294,
    "Ġhogshead": 26369,
    "Ġadvers": 4888,
    "Ġcondensed": 24055,
    "Ġcrawl": 11377,
    "joice": 9605,
    "Ġcoaxing": 18597,
    "sander": 11529,
    "word": 2486,
    "Ġmanager": 11773,
    "Ġrenew": 6147,
    "brill": 16494,
    "brit": 19200,
    "Ġfeedback": 23435,
    "shud": 18486,
    "itic": 11581,
    "sweet": 8689,
    "Ġcontinue": 5398,
    "Ġshepherd": 14155,
    "ophisticated": 22482,
    "sixty": 24853,
    "Ġasser": 6259,
    "ury": 3313,
    "Ġemerg": 13428,
    "gazing": 12476,
    "Ġsacrilege": 26230,
    "Ġscar": 3211,
    "oken": 4308,
    "hurst": 19881,
    "heredit": 21212,
    "Ġpanegyric": 26451,
    "Ġcontext": 1668,
    "Ġspread": 5161,
    "Ġpref": 14174,
    "wa": 5898,
    "bug": 17495,
    "177": 20754,
    "Ġprelimin": 8864,
    "buttoned": 13636,
    "Ġclutch": 15056,
    "Ġcleansed": 26295,
    "Ġblasp": 14403,
    "usations": 15951,
    "danced": 20830,
    "Ġridges": 16733,
    "Ġ108": 19687,
    "Ġabhorrence": 9055,
    "Ġcrad": 21352,
    "Ġsaviour": 20715,
    "bill": 10079,
    "Ġsyllables": 25299,
    "Ġabreast": 18395,
    "amidst": 25653,
    "nonsense": 17617,
    "Ġdefence": 11069,
    "Ġpreface": 18368,
    "Ġess": 5691,
    "Ġdiscrimination": 23607,
    "Ġsupported": 9821,
    "these": 3244,
    "ha": 3981,
    "Ġremarking": 13129,
    "ghost": 20889,
    "lested": 14886,
    "Ġcetology": 10012,
    "agne": 21909,
    "Ġprincip": 5600,
    "ery": 1267,
    "tackles": 25625,
    "Ġawhile": 13833,
    "new": 1466,
    "Ġgaped": 13970,
    "Ġshoulder": 5849,
    "Ġdevious": 22724,
    "fare": 7799,
    "Ġplunge": 13447,
    "disappointment": 11427,
    "enet": 10155,
    "Ġenderby": 13655,
    "Ġendeavor": 16548,
    "Ġroad": 3881,
    "Ġdrank": 16537,
    "grief": 13734,
    "vious": 1786,
    "Ġcomparing": 14267,
    "hurrying": 14986,
    "osing": 3691,
    "Ġshirr": 18232,
    "Ġwedded": 15539,
    "burned": 25082,
    "someone": 14565,
    "ful": 669,
    "Ġpossessed": 5195,
    "erick": 13851,
    "conc": 3946,
    "Ġsugg": 4500,
    "Ġherein": 16192,
    "Ġguise": 14435,
    "Ġtin": 15466,
    "Ġfound": 1245,
    "Ġreiterating": 26476,
    "deformity": 22150,
    "Ġdis": 694,
    "Ġdiet": 13913,
    "atiate": 12553,
    "Ġdeclines": 23966,
    "insanity": 23071,
    "Ġsoup": 7069,
    "stalk": 21653,
    "Ġcease": 7078,
    "Ġmetaphys": 16393,
    "Ġdesires": 9460,
    "Ġomens": 21331,
    "Ġlass": 15652,
    "Ġdiligent": 25078,
    "Ġsheet": 6264,
    "Ġproportionate": 17044,
    "Ġspeaks": 11161,
    "Ġloc": 10916,
    "Ġshells": 20367,
    "emone": 21931,
    "Ġfish": 2711,
    "Ġdeemed": 7614,
    "Ġeverlasting": 9340,
    "Ġcopying": 17070,
    "Ġlapl": 19780,
    "Ġsnaky": 23745,
    "waist": 13422,
    "Ġ21": 11200,
    "atters": 18484,
    "wet": 15455,
    "Ġai": 3129,
    "bran": 23576,
    "Ġbeggars": 20632,
    "Ġwalker": 23313,
    "Ġplight": 14284,
    "ahab": 4291,
    "islands": 21379,
    "itance": 13871,
    "posture": 16929,
    "scornful": 26577,
    "Ġtantamount": 25626,
    "relations": 14736,
    "scr": 16243,
    "papers": 12506,
    "Ġen": 392,
    "Ġswarm": 23057,
    "ateur": 22010,
    "uce": 11538,
    "inted": 2650,
    "slo": 17658,
    "Ġconqueror": 25797,
    "onted": 11570,
    "Ġposition": 1956,
    "easily": 17536,
    "Ġletters": 3793,
    "eat": 11485,
    "Ġparacelsus": 15270,
    "Ġtennessee": 26598,
    "assure": 9273,
    "Ġeffemin": 18541,
    "Ġsolemn": 4100,
    "darkness": 9515,
    "was": 1421,
    "Ġarchitect": 974,
    "ersburgh": 18216,
    "trial": 20353,
    "Ġclanging": 18430,
    "eg": 17531,
    "gypt": 8261,
    "Ġfishing": 9665,
    "feeders": 25236,
    "enge": 21283,
    "Ġgroping": 13669,
    "Ġdest": 2234,
    "accountable": 7111,
    "Ġsamuel": 10036,
    "united": 14063,
    "osis": 18390,
    "Ġleaned": 7609,
    "else": 6535,
    "Ġte": 1149,
    "watery": 19829,
    "dire": 15339,
    "sets": 17662,
    "tend": 17676,
    "missionary": 24616,
    "iza": 6257,
    "Ġsadly": 7302,
    "visited": 13352,
    "inburgh": 15493,
    "yingly": 23063,
    "search": 8467,
    "Ġhosmer": 6775,
    "Ġdistrict": 10321,
    "Ġdead": 2172,
    "Ġjolly": 6858,
    "Ġacquire": 2724,
    "boilers": 26298,
[...]
