{
  "metadata": {
    "vocab_size": 26615,
    "algorithm": "BPE",
    "created_at": "2026-06-27 05:52:58",
    "special_tokens": [
      "<PAD>",
      "<SOS>",
      "<EOS>",
      "<UNK>",
      "<MASK>"
    ]
  },
  "vocab": {
    "ander": 6402,
    "Ġinfl": 6893,
    "Ġmitig": 1335,
    "Ġamerica": 6764,
    "gy": 2097,
    "Ġempires": 19075,
    "igner": 21706,
    "Ġspeaking": 4029,
    "Ġscrape": 14920,
    "Ġlighting": 13086,
    "sand": 21055,
    "Ġjudged": 12087,
    "ik": 17572,
    "Ġsick": 4693,
    "Ġexact": 2541,
    "Ġgames": 11628,
    "Ġoil": 3373,
    "cruising": 12283,
    "Ġbegged": 8232,
    "Ġcharger": 19006,
    "Ġnaked": 8128,
    "Ġweigh": 10895,
    "ripp": 6406,
    "abling": 1078,
    "windward": 24162,
    "Ġapply": 1776,
    "Ġreaders": 18916,
    "Ġspool": 24803,
    "Ġjub": 22300,
    "highest": 20411,
    "_âĢĶâĢĻ": 13685,
    "adier": 18092,
    "breaths": 25337,
    "orand": 21400,
    "preserving": 25305,
    "Ġfurther": 1056,
    "Ġgirth": 13139,
    "Ġprovincial": 20652,
    "omp": 2470,
    "Ġcoat": 4553,
    "Ġwasn": 6998,
    "Ġpagans": 16923,
    "Ġcontrol": 13083,
    "fulness": 4311,
    "ique": 8746,
    "setting": 13289,
    "rapidly": 15246,
    "Ġwedge": 24935,
    "Ġblows": 5975,
    "Ġdevoting": 22720,
    "Ġunnearable": 26517,
    "Ġpul": 2042,
    "merc": 19283,
    "varieties": 23191,
    "Ġstoried": 18075,
    "Ġmast": 2898,
    "required": 17030,
    "Ġfevers": 22214,
    "Ġcaroline": 7254,
    "Ġaway": 1243,
    "Ġcobbler": 25831,
    "awakened": 14455,
    "Ġinherited": 25354,
    "ict": 594,
    "Ġbend": 9172,
    "Ġshreds": 12774,
    "Ġlovely": 4710,
    "Ġrubbed": 12959,
    "reception": 15516,
    "Ġbound": 3520,
    "Ġsluggish": 25891,
    "Ġlengthen": 15657,
    "Ġparents": 6754,
    "mot": 17597,
    "arent": 4251,
    "Ġgenealogies": 25962,
    "ute": 4641,
    "Ġunremitting": 26219,
    "Ġsatisfying": 23700,
    "Ġreigns": 21675,
    "stem": 566,
    "enjoyment": 17259,
    "Ġparchment": 13655,
    "Ġmagazine": 23103,
    "Ġabsent": 7016,
    "Ġcos": 2209,
    "Ġcalam": 13038,
    "acrity": 14262,
    "tru": 10730,
    "Ġbill": 4042,
    "Ġ113": 19699,
    "Ġcucumber": 21359,
    "Ġjackets": 19605,
    "Ġfav": 1754,
    "oil": 7806,
    "Ġcalifornia": 20533,
    "_,âĢĻ": 12436,
    "Ġkn": 4545,
    "rods": 21542,
    "Ġeaster": 15678,
    "ry": 809,
    "Ġhesitating": 16948,
    "incl": 8111,
    "Ġrestless": 10414,
    "Ġdispatched": 23884,
    "Ġrephr": 21683,
    "Ġoh": 2177,
    "complained": 25840,
    "Ġbrooding": 18909,
    "Ġcour": 1767,
    "Ġknowledge": 1449,
    "Ġflogged": 23627,
    "Ġnovelist": 24776,
    "Ġcircumstantial": 14644,
    "Ġmach": 13859,
    "Ġexagger": 12723,
    "Ġchallenges": 13633,
    "Ġloitering": 22121,
    "Ġdiscern": 7660,
    "Ġdoubtful": 19143,
    "ance": 480,
    "Ġfrayed": 23296,
    "Ġspir": 2429,
    "message": 17374,
    "Ġblanche": 18821,
    "acy": 3956,
    "Ġestablish": 9545,
    "Ġauthorities": 11265,
    "Ġfulf": 6773,
    "capt": 3835,
    "Ġimpenit": 22395,
    "mitting": 20975,
    "ity": 417,
    "particular": 5757,
    "Ġnast": 15642,
    "âĢĿ]": 21820,
    "Ġsofas": 26226,
    "angered": 16180,
    "besides": 8699,
    "Ġengagement": 5397,
    "iscuit": 10600,
    "Ġseven": 4541,
    "quar": 7617,
    "Ġpatagonian": 20537,
    "Ġtunnel": 14932,
    "during": 6788,
    "Ġmud": 11575,
    "Ġwives": 12559,
    "aky": 18412,
    "Ġberm": 21386,
    "le": 279,
    "Ġoblique": 20172,
    "Ġsnarled": 25715,
    "Ġsolutions": 1945,
    "Ġphyseter": 26587,
    "Ġdisappearance": 9299,
    "Ġsubdivisions": 26038,
    "ament": 2439,
    "Ġsweetness": 9449,
    "Ġkin": 15907,
    "Ġbraces": 14671,
    "pointing": 12228,
    "usation": 18402,
    "except": 5383,
    "Ġadmeasure": 18294,
    "Ġarchitect": 963,
    "Ġmoss": 9286,
    "Ġascend": 9962,
    "Ġent": 903,
    "Ġfortitude": 9887,
    "Ġmainz": 22658,
    "Ġstruggled": 9907,
    "Ġprivate": 5346,
    "rible": 3230,
    "mmar": 952,
    "Ġground": 2843,
    "hus": 5072,
    "Ġcondesc": 7182,
    "ges": 2869,
    "Ġintegrated": 13533,
    "allowing": 24357,
    "creat": 20802,
    "Ġforwards": 12707,
    "Ġmagnet": 10391,
    "Ġdetected": 18861,
    "Ġshelf": 12271,
    "luent": 15999,
    "swam": 24256,
    "voc": 8395,
    "Ġadie": 8491,
    "Ġavenue": 13624,
    "versed": 9827,
    "Ġinsane": 19271,
    "Ġemb": 1228,
    "Ġdeprec": 15761,
    "discovery": 12019,
    "Ġspecimen": 13027,
    "Ġproficiency": 19195,
    "asily": 13948,
    "circum": 16738,
    "pequod": 7054,
    "poor": 6063,
    "Ġanalyzing": 18812,
    "Ġvivacious": 19818,
    "Ġambitious": 18515,
    "beheaded": 22498,
    "Ġsofa": 10272,
    "Ġkrus": 18350,
    "mered": 8219,
    "asht": 4085,
    "Ġdial": 10811,
    "Ġgum": 21599,
    "Ġbackstays": 22665,
    "aternity": 21268,
    "Ġsane": 21224,
    "Ġconfed": 13101,
    "Ġmarks": 6748,
    "inhab": 10758,
    "Ġalan": 10870,
    "activity": 22636,
    "affection": 7488,
    "Ġmanners": 3789,
    "sway": 15426,
    "comed": 8548,
    "Ġdiscoverers": 26037,
    "uncont": 15777,
    "arned": 21826,
    "Ġcourtesy": 9947,
    "Ġreliable": 18777,
    "Ġmemoirs": 26207,
    "crossing": 19414,
    "wrote": 11548,
    "Ġlig": 21552,
    "Ġfaithfully": 14889,
    "broker": 13308,
    "Ġpillar": 21477,
    "Ġliberty": 7763,
    "astonishment": 10032,
    "Ġslipper": 24267,
    "\":": 9583,
    "atic": 4020,
    "Ġanne": 1531,
    "dreams": 12340,
    "ateful": 5929,
    "Ġfallen": 5970,
    "Ġdetails": 6567,
    "Ġexhibition": 14959,
    "Ġstroll": 13356,
    "Ġvehemently": 26040,
    "Ġsocial": 7009,
    "Ġfergus": 16873,
    "Ġapparatus": 24909,
    "Ġ112": 24436,
    "ened": 1390,
    "à": 161,
    "Ġ77": 24265,
    "Ġterr": 3275,
    "Ġoutside": 5553,
    "Ġvindict": 13608,
    "rable": 11634,
    "iv": 431,
    "Ġclimes": 12844,
    "Ġdiscompose": 25580,
    "Ġjetted": 24430,
    "Ġbaron": 19336,
    "Ġbred": 9171,
    "Ġmonarch": 14416,
    "clay": 18933,
    "Ġtiar": 21170,
    "irr": 12741,
    "urg": 8143,
    "ular": 714,
    "key": 5462,
    "buttoned": 13635,
    "Ġhidden": 1376,
    "Ġscal": 1569,
    "leisure": 21374,
    "governed": 25406,
    "Ġslips": 23171,
    "Ġcompar": 4771,
    "Ġperceptible": 18453,
    "diff": 9115,
    "Ġedition": 16456,
    "Ġstir": 5824,
    "fact": 6360,
    "|": 96,
    "±": 114,
    "Ġrealising": 18984,
    "Ġloite": 22116,
    "Ġnicely": 8712,
    "ç": 168,
    "Ġdedication": 2976,
    "Ġdiabolically": 25514,
    "cious": 6646,
    "Ġsaid": 577,
    "struck": 7864,
    "Ġattacking": 24464,
    "Ġlooked": 1801,
    "Ġunfl": 22023,
    "aps": 1230,
    "Ġaloud": 6254,
    "Ġteaching": 10365,
    "Ġsolving": 2481,
    "terr": 8155,
    "Ġcrept": 11023,
    "aping": 8195,
    "Ġapo": 9632,
    "revolver": 25628,
    "igating": 21704,
    "Ġelse": 2479,
    "Ġmusket": 12299,
    "apse": 14200,
    "england": 18931,
    "Ġelud": 22647,
    "Ġthrill": 24540,
    "Ġmansfield": 25939,
    "vib": 21118,
    "ors": 855,
    "terrors": 25044,
    "Ġsings": 15507,
    "Ġcheered": 16371,
    "adem": 21762,
    "unch": 14060,
    "Ġcrumpled": 16439,
    "coil": 23561,
    "Ġheavier": 13105,
    "Ġresembles": 25970,
    "sies": 21057,
    "africa": 26309,
    "Ġbearing": 5300,
    "boys": 13363,
    "Ġhumming": 12989,
    "aned": 5147,
    "vius": 23544,
    "tackle": 17323,
    "Ġbuck": 7158,
    "Ġlid": 6984,
    "Ġbasics": 13451,
    "cod": 12447,
    "sentiment": 12918,
    "Ġins": 2778,
    "Ġgrowing": 6752,
    "Ġmatrimonial": 25490,
    "Ġdormouse": 4925,
    "false": 15357,
    "Ġtrout": 22366,
    "sign": 8389,
    "Ġwhistling": 19793,
    "irm": 3108,
    "Ġballs": 9017,
    "Ġhemp": 9217,
    "Ġplaid": 22607,
    "Ġfid": 10804,
    "Ġcheetah": 14503,
    "prince": 23818,
    "Ġmouth": 3183,
    "Ġsystems": 786,
    "Ġsimple": 1622,
    "Ġbest": 1973,
    "Ġhang": 9189,
    "aloud": 17943,
    "dying": 15343,
    "Ġblu": 2684,
    "relapse": 24019,
    "py": 17625,
    "ching": 5156,
    "Ġtambourine": 9566,
    "Ġcentury": 8292,
    "Ġsentiment": 6591,
    "Ġpred": 668,
    "ellent": 3760,
    "ilated": 18060,
    "os": 525,
    "Ġostrich": 26431,
    "uated": 10133,
    "Ġsubt": 11871,
    "Ġrespect": 1670,
    "Ġalive": 4399,
    "Ġtort": 5904,
    "Ġchamounix": 14866,
    "Ġthrobbing": 16899,
    "above": 8149,
    "Ġchange": 1994,
    "Ġinsupportable": 13934,
    "shut": 10980,
    "Ġhoneymoon": 25646,
    "Ġscraggy": 24579,
    "Ġefficiently": 3951,
    "ancies": 11586,
    "Ġshrill": 12145,
    "Ġclerical": 25569,
    "thirst": 15827,
    "Ġcorp": 5573,
    "Ġtime": 689,
    "Ġpathways": 11154,
    "Ġcompetent": 11819,
    "Ġbuoyed": 20044,
    "Ġpursuers": 13230,
    "Ġobstetrics": 24679,
    "Ġsnar": 13203,
    "Ġworks": 5860,
    "Ġsleek": 23387,
    "Ġacknowled": 6352,
    "Ġemails": 13109,
    "situation": 11438,
    "warp": 17707,
    "confidential": 25877,
    "bruary": 15238,
    "quite": 4645,
    "oon": 6366,
    "Ġisinglass": 21807,
    "Ġside": 1389,
    "part": 2572,
    "Ġforster": 5230,
    "ĠĠĠĠĠĠĠĠĠĠĠĠ": 12907,
    "Ġprince": 18974,
    "Ġdiscipl": 22789,
    "Ġabstraction": 26540,
    "america": 17097,
    "Ġpeak": 16129,
    "otion": 4945,
    "Ġplaymate": 23643,
    "through": 4026,
    "Ġends": 8239,
    "Ġschooner": 16748,
    "pence": 15411,
    "viv": 17699,
    "Ġiceland": 15149,
    "great": 3518,
    "furthest": 19844,
    "confl": 22476,
    "oregressive": 3425,
    "Ġrecklessly": 16984,
    "conceivable": 17132,
    "Ġverte": 9443,
    "fever": 22507,
    "clopÃ¦": 13060,
    "ross": 810,
    "kitchen": 17586,
    "Ġbreak": 2864,
    "cri": 17507,
    "sculptured": 26047,
    "Ġcrust": 21354,
    "soundest": 24796,
    "Ġencoura": 1368,
    "Ġarri": 2552,
    "Ġdated": 10940,
    "cible": 20808,
    "ascal": 10194,
    "Ġaccumul": 1411,
    "grie": 12474,
    "vel": 2384,
    "Ġideas": 5494,
    "terrific": 25043,
    "Ġjoy": 3187,
    "Ġgreeted": 23219,
    "ulled": 14058,
    "wrapped": 15212,
    "Ġbrook": 13052,
    "Ġscre": 9739,
    "arling": 10815,
    "Ġdisquiet": 18553,
    "Ġwatery": 6298,
    "weaving": 18667,
    "Ġhereditarily": 25225,
    "rious": 11692,
    "Ġinanimate": 13935,
    "ceased": 21630,
    "Ġfar": 1453,
    "coff": 9111,
    "Ġbelike": 18831,
    "Ġbreathe": 9014,
    "Ġointment": 21329,
    "Ġpotential": 3619,
    "Ġextra": 4057,
    "Ġsecret": 3720,
    "inqu": 6123,
    "Ġceiling": 7998,
    "Ġsomewhat": 4897,
    "washed": 13050,
    "Ġprimal": 17107,
    "ationally": 15708,
    "Ġtierce": 15480,
    "Ġwhile": 606,
    "disappearing": 23506,
    "Ġrecall": 3854,
    "Ġgrimesby": 11458,
    "athered": 6973,
    "anelles": 26435,
    "ileries": 18061,
    "ultaneously": 4197,
    "removed": 15518,
    "Ġsober": 10912,
    "<PAD>": 0,
    "conclusive": 25674,
    "arthly": 8031,
    "Ġroaring": 10969,
    "securing": 19816,
    "ientious": 11694,
    "Ġdiscomp": 11869,
    "Ġscho": 4436,
    "Ġnind": 17952,
    "explaining": 23149,
    "Ġzig": 18743,
    "Ġplacid": 11829,
    "Ġezek": 18012,
    "Ġargu": 10935,
    "Ġkeener": 22918,
    "porary": 14551,
    "attendants": 25496,
    "Ġl": 303,
    "Ġalleviated": 26205,
    "function": 4684,
    "tan": 4742,
    "Ġcommonplace": 11097,
    "Ġpass": 1040,
    "fears": 18532,
    "\\": 64,
    "less": 928,
    "splice": 17172,
    "fere": 10990,
    "Ġshaped": 15837,
    "Ġmitigates": 3049,
    "apothecary": 26546,
    "calm": 8936,
    "ns": 757,
    "Ġdisputing": 25825,
    "Ġwhirlwinds": 20468,
    "Ġclanking": 20614,
    "Ġunsettled": 14124,
    "oes": 4434,
    "Ġbernard": 20687,
    "knife": 6942,
    "Ġsixteen": 8284,
    "Ġreproof": 24891,
    "Ġhotel": 8654,
    "Ġbrightly": 13228,
    "suff": 4960,
    "Ġmaintains": 2142,
    "Ġbumpkin": 20203,
    "work": 1734,
    "Ġ1950": 11360,
    "Ġga": 4446,
    "sound": 6800,
    "impud": 23762,
    "Ġgryphon": 4301,
    "Ġlust": 9199,
    "arks": 2841,
    "ĠÂ£": 5006,
    "cnns": 3621,
    "ness": 852,
    "Ġflitting": 13030,
    "Ġsignals": 10587,
    "ourers": 21453,
    "Ġundeceive": 25553,
    "Ġneskye": 21535,
    "uries": 6149,
    "iz": 364,
    "Ġbottomless": 12110,
    "sometimes": 5974,
    "Ġvigorously": 11300,
    "iber": 6507,
    "haul": 14767,
    "Ġpaunch": 23751,
    "ravity": 21639,
    "Ġcondemned": 7780,
    "Ġ18": 3407,
    "Ġfireplace": 13148,
    "faith": 15026,
    "Ġchry": 22251,
    "suffer": 24328,
    "Ġfootsteps": 16574,
    "Ġhappen": 5570,
    "ana": 15562,
    "Ġbehaved": 13257,
    "Ġrind": 21974,
    "Ġoust": 21327,
    "aders": 21763,
    "Ġbled": 17858,
    "Ġbetrayed": 9563,
    "Ġfond": 4755,
    "spoken": 11865,
    "Ġsparing": 22134,
    "Ġfever": 6560,
    "Ġskrimshander": 22802,
    "Ġfrig": 13084,
    "comprehensive": 20629,
    "Ġdeterminate": 23008,
    "Ġxli": 14542,
    "Ġdens": 21428,
    "Ġmanual": 14199,
    "Ġfurnishes": 19444,
    "people": 7679,
    "heartily": 24217,
    "opius": 18509,
    "Ġthroat": 7772,
    "charm": 13992,
    "consist": 14818,
    "seven": 8466,
    "Ġthoroughfares": 26096,
    "Ġbelow": 4063,
    "stra": 4047,
    "mare": 17600,
    "y": 93,
    "Ġext": 886,
    "thed": 8830,
    "Ġgallantry": 15106,
    "Ġaberdeen": 26542,
    "Ġsolic": 7934,
    "Ġdaresay": 14706,
    "sleet": 20152,
    "entials": 22668,
    "Ġtreat": 3179,
    "spect": 3234,
    "Ġmodels": 771,
    "Ġadler": 8175,
    "Ġascending": 14856,
    "Ġfluctuations": 5516,
    ")": 13,
    "Ġfell": 1977,
    "Ġsimpleton": 16338,
    "Ġfatally": 19397,
    "Ġprocopius": 19733,
    "Ġgases": 21606,
    "Ġlux": 8817,
    "Ġsomebody": 7915,
    "examination": 25479,
    "Ġpreviously": 3918,
    "Ġcum": 21345,
    "netherfield": 9815,
    "Ġpurchas": 19876,
    "desponding": 26343,
    "Ġcounters": 24142,
    "resist": 8277,
    "Ġaz": 9631,
    "tanh": 5204,
    "artificial": 1014,
    "istol": 6261,
    "isome": 17850,
    "magnitude": 17250,
    "Ġplutarch": 22610,
    "ud": 905,
    "Ġverdict": 13478,
    "derest": 18315,
    "stumps": 21663,
    "branch": 23580,
    "saying": 8644,
    "poss": 4778,
    "Ġtex": 15474,
    "Ġleaking": 21750,
    "Ġmemories": 14556,
    "neglect": 25668,
    "icions": 21567,
    "cond": 1664,
    "recognised": 15265,
    "contains": 16033,
    "Ġdiffered": 22715,
    "seventy": 10877,
    "Ġvalidate": 2972,
    "perpetually": 20516,
    "Ġglide": 22985,
    "Ġstalked": 20432,
    "parted": 21018,
    "pervading": 18956,
    "Ġlibraries": 20617,
    "Ġenem": 4708,
    "ric": 1377,
    "creator": 26382,
    "Ġjail": 22299,
    "performed": 18345,
    "cle": 3957,
    "ache": 8520,
    "Ġcomstock": 21856,
    "dataset": 23238,
    "Ġbatch": 890,
    "sent": 760,
    "Ġvertical": 16605,
    "Ġinherent": 4590,
    "Ġprodigy": 19795,
    "Ġdaylight": 10352,
    "Ġcaravan": 26292,
    "uncommonly": 25550,
    "Ġengra": 7876,
    "Ġrivals": 20274,
    "Ġpronouncing": 16970,
    "Ġstre": 2108,
    "Ġsymbols": 2793,
    "Ġmiserable": 3634,
    "Ġcop": 7581,
    "Ġconsternation": 9861,
    "Ġwestern": 10656,
    "Ġstren": 15723,
    "ructive": 18537,
    "shot": 2057,
    "otics": 10225,
    "related": 24015,
    "Ġembodiment": 20531,
    "Ġabhorrence": 9054,
    "ay": 355,
    "Ġstate": 1810,
    "iteous": 14266,
    "irms": 18171,
    "relieved": 13280,
    "ineering": 21993,
    "Ġchapel": 9525,
    "Ġlocal": 1200,
    "Ġtranslation": 3084,
    "Ġinjurious": 24272,
    "lob": 22512,
    "ron": 5216,
    "abound": 15743,
    "counterpart": 26361,
    "Ġser": 1673,
    "Ġsensitiveness": 23737,
    "Ġguardsmen": 20633,
    "Ġcondition": 6765,
    "minutely": 19596,
    "Ġclothing": 18423,
    "Ġyounger": 5253,
    "Ġflu": 3279,
    "Ġindef": 9191,
    "Ġpatch": 4184,
    "morland": 24155,
    "thern": 4952,
    "Ġornam": 15867,
    "vers": 1326,
    "Ġlived": 3991,
    "Ġconsideration": 5191,
    "Ġfireboard": 23535,
    "extrem": 18700,
    "ocris": 23711,
    "lux": 14228,
    "Ġblessed": 6931,
    "Ġcyn": 13888,
    "Ġgovernesses": 25130,
    "its": 1149,
    "Ġpaternal": 16386,
    "Ġtongs": 9963,
    "Ġfooted": 23799,
    "Ġshipwrecked": 25688,
    "Ġunsc": 22017,
    "cen": 17504,
    "Ġdishon": 12234,
    "cav": 17509,
    "Ġen": 392,
    "yes": 983,
    "Ġbarrowful": 25596,
    "Ġray": 18640,
    "Ġearnestness": 12129,
    "Ġecstasy": 11632,
    "ittleness": 22381,
    "Ġparagraph": 17456,
    "frequent": 15356,
    "Ġoverpower": 12845,
    "frankly": 20025,
    "Ġsquare": 2396,
    "Ġtens": 17724,
    "Ġfaithful": 9505,
    "Ġpanegyric": 26450,
    "Ġch": 512,
    "Ġflukes": 5267,
    "Ġtricks": 13487,
    "Ġadmirers": 19689,
    "Ġwhipping": 21720,
    "thrasher": 25659,
    "bushes": 24446,
    "Ġtravelled": 7773,
    "lie": 12486,
    "standing": 5557,
    "Ġcity": 4529,
    "Ģ": 227,
    "Ġfixedly": 19250,
    "mouthed": 12403,
    "Ġnewsp": 9341,
    "castle": 3350,
    "attered": 4021,
    "roylott": 20030,
    "Ġstupidity": 15051,
    "Ġloosened": 26003,
    "streets": 13398,
    "Ġcave": 10786,
    "listen": 13516,
    "using": 5468,
    "Ġbacking": 16120,
    "birth": 15324,
    "Ġinvective": 26183,
    "Ġreturned": 2887,
    "Ġlit": 6248,
    "Ġexpectation": 6904,
    "Ġsinusoidal": 4801,
    "Ġlexic": 15727,
    "Ġb": 281,
    "girls": 12322,
    "Ġstains": 21746,
    "oat": 13766,
    "result": 12047,
    "69": 17476,
    "Ġnavel": 24576,
    "inquiries": 13580,
    "Ġrepresents": 4902,
    "Ġgreater": 3036,
    "osy": 11761,
    "Ġdependent": 14295,
    "ceptible": 10959,
    "Ġstash": 18070,
    "Ġremote": 8922,
    "uled": 11538,
    "Ġweep": 7621,
    "prob": 7071,
    "Ġgodson": 23360,
    "Ġpure": 6139,
    "Ġstim": 18066,
    "shel": 11933,
    "Ġrun": 2354,
    "Ġconvention": 25547,
    "lutions": 20952,
    "Ġpoor": 1711,
    "example": 16016,
    "attached": 11938,
    "somerset": 26324,
    "Ġspies": 22133,
    "Ġscreamed": 9526,
    "Ġexploration": 2336,
    "Ġwine": 6811,
    "Ġsaving": 15889,
    "Ġsplice": 19311,
    "Ġharpoon": 3616,
    "Ġpedestrian": 25884,
    "positive": 20570,
    "gris": 8261,
    "nephew": 26398,
    "difficulty": 12393,
    "ized": 1530,
    "Ġdisgu": 8207,
    "Ġleave": 2456,
    "Ġregions": 10326,
    "Ġpertin": 18451,
    "Ġcorrespondent": 19825,
    "uten": 11624,
    "fifth": 20149,
    "Ġexhibited": 9546,
    "Ġslugg": 15271,
    "rie": 2784,
    "ius": 5789,
    "crime": 14777,
    "ļ": 253,
    "think": 3609,
    "Ġreconciled": 13590,
    "Ġroyalty": 19738,
    "Ġabuse": 18393,
    "Ġshaft": 18230,
    "Ġquery": 2478,
    "Ġoverflow": 10294,
    "afer": 17483,
    "iates": 13739,
    "retaining": 21248,
    "Ġmonstr": 7669,
    "inn": 5364,
    "Ġinfants": 16366,
    "Ġcollinses": 19131,
    "Ġclinch": 18424,
    "breakfast": 8691,
    "answer": 11735,
    "elephant": 12354,
    "Ġseasons": 9433,
    "Ġbreathes": 13249,
    "newsp": 23138,
    "hind": 20896,
    "Ġcheerfully": 12138,
    "Ġconf": 1819,
    "Ġcistern": 17383,
    "separated": 20162,
    "iasm": 8062,
    "Ġclients": 19734,
    "Ġbracelets": 25503,
    "Ġdesc": 772,
    "lift": 15387,
    "Ġpills": 21470,
    "mel": 9129,
    "suit": 18630,
    "Ġgull": 15673,
    "Ġerred": 21159,
    "manifested": 20529,
    "Ġstrong": 1786,
    "specim": 23947,
    "Ġhail": 7400,
    "Ġlifting": 10198,
    "Ġunrecord": 16622,
    "Ġendowed": 18925,
    "Ġtowed": 11266,
    "Ġprognost": 15284,
    "Ġended": 7951,
    "deli": 15347,
    "Ġwant": 1118,
    "Ġroving": 22408,
    "eler": 1575,
    "Ġcoloss": 11047,
    "Ġcrisis": 13129,
    "language": 5129,
    "nlp": 8754,
    "Ġventil": 8020,
    "eness": 2289,
    "Ġundeniable": 26511,
    "Ġstory": 2900,
    "ificial": 607,
    "Ġglit": 8563,
    "Ġbegging": 11080,
    "Ġdampening": 2891,
    "Ġeldest": 6573,
    "Ġconcert": 11970,
    "Ġconstraints": 2738,
    "bold": 17489,
    "Ġtwice": 4660,
    "rior": 12746,
    "Ġfinery": 23129,
    "Ġperformed": 8549,
    ":âĢĶâĢĺ": 24195,
    "Ġsoc": 3527,
    "Ġbenediction": 18785,
    "Ġchisel": 20371,
    "bub": 15319,
    "eagerly": 17318,
    "Ġdarling": 12608,
    "Ġevap": 19626,
    "Ġhonourable": 10457,
    "free": 8739,
    "misrepresented": 24213,
    "Ġallowance": 14392,
    "leading": 15565,
    "21": 10074,
    "Ġelucidated": 26030,
    "Ġasia": 11685,
    "ality": 2511,
    "Ġnib": 13942,
    "pans": 13772,
    "Ġtribute": 15477,
    "Ġstern": 4191,
    "pur": 7807,
    "regular": 3040,
    "including": 23592,
    "Ġdrug": 11411,
    "Ġimmeas": 18332,
    "owder": 8450,
    "uiperai": 10665,
    "Ġfullest": 14816,
    "Ġhauled": 11697,
    "ositories": 22269,
    "Ġconsulted": 13433,
    "Ġchrist": 4074,
    "Ġdivinest": 25722,
    "Ġenveloping": 19736,
    "taking": 5689,
    "sneezes": 11447,
    "counters": 25398,
    "Ġespe": 21158,
    "oniously": 21260,
    "around": 12612,
    "Ġclenched": 14204,
    "Ġstil": 15721,
    "Ġexultation": 15174,
    "Ġheroines": 19754,
    "Ġassistant": 7298,
    "Ġhan": 15621,
    "Ġnations": 8813,
    "Ġsoftly": 7949,
    "Ġreproofs": 24893,
    "Ġunanswerable": 26522,
    "Ġbowlines": 19324,
    "list": 7552,
    "Ġparted": 5931,
    "landed": 18958,
    "Ġnormal": 1203,
    "asing": 5914,
    "Ġcrows": 24035,
    "uce": 11537,
    "Ġmuch": 922,
    "Ġbody": 2436,
    "Ġscriptures": 26237,
    "Ġcommunicating": 16890,
    "Ġformality": 22832,
    "Ġcom": 368,
    "Ġfed": 5529,
    "Ġsubur": 12960,
    "Ġknights": 15152,
    "Ġjulia": 22307,
    "Ġsuggested": 8322,
    "Ġparticip": 16134,
    "control": 16545,
    "annica": 24561,
    "K": 47,
    "Ġrev": 6989,
    "classes": 12139,
    "apprehens": 17408,
    "Ġdefe": 21840,
    "Ġpurpose": 2707,
    "Ġheadstrong": 14391,
    "Ġfo": 1654,
    "Ġbarber": 23792,
    "Ġwarn": 5695,
    "Ġbeneath": 3239,
    "Ġadmin": 23556,
    "inisc": 15490,
    "puzzling": 26144,
    "Ġtechni": 1628,
    "yl": 7819,
    "Ġdiscoverer": 26036,
    "Ġanointing": 25540,
    ".âĢĻâĢĿ": 6741,
    "extra": 8220,
    "R": 54,
    "Ġsmitten": 12906,
    "Ġbor": 5805,
    "tail": 8765,
    "directly": 13711,
    "Ġniagara": 26459,
    "Ġeyeing": 6461,
    "Ġbiographical": 22772,
    "halloa": 17090,
    "convolutional": 4957,
    "Ġemerg": 13427,
    "Ġlain": 17964,
    "Ġfra": 1783,
    "Ġconvulsive": 19309,
    "Ġindiscriminately": 20630,
    "Ġwhirl": 13452,
    "Ġalb": 14018,
    "Ġsearching": 13165,
    "missing": 13223,
    "Ġrede": 13986,
    "ee": 1661,
    "Ġwager": 17794,
    "Ġrevisit": 21674,
    "Ġlurking": 11290,
    "Ġprestige": 22241,
    "Ġswish": 23058,
    "bulkington": 19927,
    "Ġneedles": 11185,
    "Ġpompous": 20426,
    "Ġbustle": 17229,
    "Ġexpatiate": 18626,
    "Ġwheel": 9720,
    "uneven": 23688,
    "Ġexhausted": 8697,
    "Ġuncompromised": 20606,
    "trad": 21078,
    "Ġcharge": 5325,
    "ic": 304,
    "rance": 5996,
    "returns": 23145,
    "ounix": 14165,
    "Ġimmortality": 26327,
    "Ġconquest": 15751,
    "Ġatonement": 21947,
    "Ġadduced": 26525,
    "Ġmoney": 3419,
    "Ġlick": 21554,
    "Ġkindliness": 23298,
    "Ġcommunion": 19009,
    "Ġgowns": 25360,
    "Ġanyhow": 14256,
    "Ġcrystall": 20229,
    "shabbily": 26248,
    "Ġuppermost": 15281,
    "Ġendurance": 23143,
    "swelled": 19613,
    "ilet": 12833,
    "exam": 10977,
    "Ġwre": 5077,
    "Ġtouch": 3396,
    "constellation": 24609,
    "variety": 23190,
    "luding": 6702,
    "Ġencountering": 11270,
    "Ġdiligence": 17114,
    "Ġsequentially": 4914,
    "Ġbelshazzar": 16228,
    "dict": 15340,
    "Ġresuming": 12897,
    "Ġdates": 6695,
    "Ġfondly": 19619,
    "mun": 20964,
    "ientific": 6549,
    "ugn": 9380,
    "significant": 25085,
    "icha": 11741,
    "contempl": 13194,
    "Ġboth": 1657,
    "pendicular": 6500,
    "Ġnods": 19062,
    "cutting": 23787,
    "Ġharb": 7370,
    "Ġconfess": 3765,
    "Ġsoot": 14133,
    "Ġdimens": 3151,
    "rannical": 26402,
    "wa": 5899,
    "dred": 2525,
    "Ġ74": 24263,
    "supers": 22638,
    "Ġskylarking": 19490,
    "resolutions": 26165,
    "driver": 14923,
    "Ġsurround": 4616,
    "Ġlucerne": 23867,
    "stricken": 9886,
    "Ġcrests": 25686,
    "Ġholland": 10367,
    "Ġcalculate": 13267,
    "animated": 14977,
    "piece": 6658,
    "Ġs": 265,
    "Ġbinnacle": 8120,
    "Ġ183": 13241,
    "Ġcolumns": 14378,
    "Ġreeling": 18035,
    "Ġexperiments": 23029,
    "gener": 3127,
    "Ġveget": 11889,
    "Ġimpatient": 5602,
    "necessary": 5884,
    "ctions": 951,
    "pton": 15795,
    "Ġdoctor": 5067,
    "queness": 18150,
    "Ġstretch": 6994,
    "Ċ": 203,
    "grounds": 11152,
    "ureau": 10228,
    "Ġaltern": 7394,
    "Ġspinal": 12305,
    "Ġissu": 6255,
    "brink": 23578,
    "spir": 5738,
    "Ġaided": 17746,
    "hot": 8085,
    "proposal": 18757,
    "Ġsame": 1340,
    "umps": 6319,
    "ogr": 18671,
    "distrustful": 26332,
    "Ġperpet": 7646,
    "Ġtantamount": 25626,
    "Ġsplin": 8622,
    "delirious": 19508,
    "Ġmrs": 1470,
    "Ġintolerable": 8484,
    "inks": 6869,
    "stat": 21648,
    "Ġconvenient": 8347,
    "Ġsallied": 12541,
    "Ġaustrian": 24301,
    "Ġblessing": 11264,
    "Ġpeev": 22697,
    "B": 38,
    "Ġlighted": 7065,
    "vour": 17700,
    "lilies": 20963,
    "Ġmeadows": 11423,
    "Ġscolded": 25473,
    "Ġwilds": 16510,
    "Ġmathemat": 3205,
    "Ġinitialized": 3949,
    "illa": 12797,
    "bask": 20778,
    "shr": 10979,
    "etence": 21581,
    "abil": 2007,
    "Ġconfronted": 23310,
    "Ġdeceived": 6546,
    "cottage": 9571,
    "ring": 1752,
    "Ġjunk": 15956,
    "Ġsemantic": 1957,
    "declaration": 25176,
    "Ġlaying": 7910,
    "Ġunsur": 22025,
    "fug": 17544,
    "Ġpreceding": 7529,
    "Ġcompelled": 14270,
    "flung": 16640,
    "Ġthrew": 3974,
    "Ġbounds": 9920,
    "Ġharpooned": 13265,
    "Ġexplored": 23521,
    "Ġoccupation": 9933,
    "Ġforegoing": 23450,
    "Ġcharity": 8865,
    "Ġwork": 1350,
    "Ġmothers": 14541,
    "Ġunprofitable": 18265,
    "Ġcrash": 12004,
    "Ġblack": 2035,
    "izar": 14052,
    "Ġdrawled": 23992,
    "tical": 10130,
    "Ġabhor": 5467,
    "ieves": 4008,
    "Ġimposed": 14217,
    "Ġrunning": 3953,
    "Ġprograms": 7239,
    "omist": 21642,
    "Ġdeemed": 7614,
    "indul": 22375,
    "Ġcanst": 8860,
    "orrow": 2914,
    "Ġanew": 11431,
    "Ġ127": 24471,
    "_": 67,
    "Ġretiring": 16281,
    "aving": 2407,
    "idated": 11663,
    "Ġmechanisms": 1579,
    "those": 4495,
    "brÃ¦": 11176,
    "Ġexternal": 8366,
    "Ġpot": 2990,
    "Ġpond": 13918,
    "Ġscenarios": 26543,
    "Ġpondicherry": 20494,
    "Ġpoultry": 17443,
    "Ġthreshold": 2805,
    "Ġfrosted": 19806,
    "ilight": 12697,
    "official": 24915,
    "receiving": 12547,
    "ouri": 21451,
    "Ġturning": 3328,
    "ional": 1084,
    "pth": 2381,
    "abular": 4762,
    "enstein": 5800,
    "Ġforenoon": 19127,
    "amongst": 24673,
    "istan": 22113,
    "Ġgrasped": 8035,
    "Ġcomo": 21852,
    "Ġentic": 16149,
    "Ġstagnant": 24655,
    "Ġslashing": 23175,
    "Ġextracted": 16307,
    "projecting": 26074,
    "Ġjoyous": 14665,
    "Ġtranspointed": 22473,
    "Ġclub": 8876,
    "Ġslacked": 25189,
    "Ġdisd": 7032,
    "Ġbathed": 17867,
    "Ġeffaced": 18529,
    "riors": 18189,
    "Ġwarnings": 16882,
    "avier": 2828,
    "pole": 9335,
    "cabinet": 25080,
    "Ġwaterward": 23369,
    "Ġimpatiently": 8339,
    "enterprise": 24997,
    "Ġpunish": 12163,
    "Ġmanipulated": 25179,
    "gment": 4391,
    "Ġattraction": 18620,
    "ggy": 13117,
    "ader": 14014,
    "Ġsauc": 15890,
    "Ġune": 4597,
    "Ġportent": 12085,
    "Ġfeathers": 15122,
    "Ġholding": 4979,
    "Ġyer": 15737,
    "stone": 5089,
    "Ġlighter": 12657,
    "Ġjib": 14195,
    "fered": 5559,
    "ture": 7559,
    "headed": 4319,
    "stationed": 25454,
    "friendly": 13288,
    "Ġtimidly": 11339,
    "earthquakes": 24724,
    "ger": 1107,
    "lace": 13750,
    "Ġhoars": 19077,
    "scream": 11077,
    "gor": 551,
    "Ġfare": 5810,
    "Ġsettle": 6295,
    "term": 3757,
    "nailed": 20998,
    "Ġsemblance": 20736,
    "Ġsunrise": 9375,
    "Ġquiescent": 26244,
    "Ġvariation": 22669,
    "Ġlegible": 23536,
    "loss": 22513,
    "rations": 10724,
    "este": 15919,
    "Ġgest": 8135,
    "allen": 22201,
    "Ġexempl": 21835,
    "bos": 17485,
    "Ġfluctuating": 24416,
    "Ġrecord": 5317,
    "Ġdoth": 13910,
    "idered": 4552,
    "Ġinfinite": 8580,
    "column": 19331,
    "eer": 15350,
    "ordinary": 4408,
    "Ġblaming": 22934,
    "Ġwithdra": 6399,
    "Ġfrogs": 23927,
    "Ġrheumatic": 20707,
    "Ġprows": 19891,
    "Ġcounty": 9032,
    "Ġdoran": 9181,
    "Ġchewed": 16372,
    "weekly": 25685,
    "Ġhull": 5446,
    "Ġtransp": 4770,
    "orated": 12595,
    "ĠarchÃ¦": 22774,
    "Ġbridegroom": 10606,
    "Ġcreat": 1440,
    "deserted": 19344,
    "metallic": 19882,
    "Ġwickham": 2207,
    "liked": 10510,
    "Ġbronze": 22871,
    "concluded": 11243,
    "Ġhatchways": 24992,
    "ots": 3295,
    "Ġrepeatedly": 9023,
    "Ġreproachfully": 25252,
    "Ġpistols": 17331,
    "needle": 20316,
    "entary": 21571,
    "Ġperu": 14223,
    "Ġfors": 21776,
    "Ġreluctant": 20528,
    "Ġtag": 15470,
    "ental": 7169,
    "daylight": 19055,
    "irts": 9240,
    "measure": 10033,
    "Ġdictionary": 15115,
    "Ġunwinding": 22063,
    "Ġdeepest": 8214,
    "Ġsmoke": 4716,
    "train": 2036,
    "oology": 21008,
    "dragged": 16609,
    "ek": 1905,
    "Ġbeard": 11657,
    "ignorant": 13566,
    "Ġbump": 9661,
    "nurtured": 25525,
    "first": 3934,
    "Ġsailed": 4888,
    "Ġaught": 8777,
    "heim": 17747,
    "ondescript": 22919,
    "Ġattempted": 8002,
    "Ġstochastic": 3267,
    "Ġcor": 1322,
    "Ġsnorting": 23743,
    "Ġcharles": 11960,
    "Ġmu": 17797,
    "Ġlament": 7858,
    "Ġ1890": 23900,
    "patient": 25343,
    "Ġgrinned": 16858,
    "envelope": 17784,
    "Ġsurve": 9876,
    "Ġass": 1507,
    "Ġknew": 2056,
    "Ġchristian": 6480,
    "Ġ30": 10513,
    "))": 1518,
    "Ġmelancholy": 5605,
    "Ġdirection": 1791,
    "iate": 6506,
    "Ġnorms": 3665,
    "Ġmetallic": 19072,
    "Ġbid": 6133,
    "Ġprogramming": 1186,
    "rail": 10206,
    "idelburgh": 10563,
    "Ġheavily": 6742,
    "Ġdestroy": 5772,
    "anxiety": 25159,
    "Ġplainly": 4382,
    "Ġcupidity": 24534,
    "Ġprophecy": 25706,
    "passion": 11261,
    "Ġinns": 17932,
    "Ġclosest": 16764,
    "Ġsyntax": 957,
    "Ġweary": 5635,
    "cannibals": 25585,
    "sink": 11523,
    "Ġexceed": 1344,
    "pleasing": 14744,
    "ials": 11709,
    "Ġexpanding": 25239,
    "Ġsymmet": 11750,
    "Ġoverjoyed": 17460,
    "Ġsandwich": 19831,
    "!âĢĶ": 2453,
    "Ġpermission": 9281,
    "income": 15488,
    "Ġlime": 13950,
    "Ġfern": 21410,
    "published": 26143,
    "Ġobscurely": 20191,
    "aceti": 7113,
    "Ġsad": 3866,
    "Ġoccupations": 9460,
    "Ġoblivion": 26032,
    "Ġsubl": 7235,
    "Ġfired": 16155,
    "Ġregal": 16082,
    "placed": 7880,
    "Ġinsurmountable": 16533,
    "Ġhunter": 5401,
    "pered": 4201,
    "Ġyonder": 7392,
    "Ġpeevish": 26558,
    "onial": 11568,
    "Ġappalled": 22223,
    "Ġmarshalled": 25316,
    "Ġtunes": 24621,
    "Ġunwilling": 7887,
    "Ġunharmed": 15142,
    "blood": 7781,
    "infl": 15489,
    "Ġlavater": 20499,
    "Ġsignature": 16494,
    "Ġrandomly": 1921,
    "Ġstirs": 14919,
    "Ġjames": 6420,
    "Ġhoe": 23353,
    "Ġinclude": 1873,
    "Ġhosts": 19942,
    "Ġaccordance": 19501,
    "powers": 25411,
    "Ġsacred": 10929,
    "Ġmurmur": 14590,
    "bare": 12444,
    "Ġnecessarily": 13253,
    "Ġacquire": 2722,
    "bol": 8721,
    "chain": 18042,
    "Ġclearness": 23188,
    "particip": 23618,
    "Ġjoking": 12841,
    "Ġcreate": 2091,
    "Ġdealing": 14047,
    "Ġharrow": 17928,
    "brated": 12029,
    "Ġshrine": 19534,
    "rell": 11565,
    "Ġconception": 10315,
    "irwin": 8471,
    "sheltered": 25586,
    "sub": 4658,
    "these": 3243,
    "publ": 17639,
    "nowledge": 10291,
    "Ġstratag": 26029,
    "Ġarranging": 11175,
    "ublic": 11228,
    "friendship": 24053,
    "Ġceremonious": 24838,
    "calculation": 25690,
    "boilers": 26298,
    "Ġbarrier": 16571,
    "Ġspind": 18308,
    "future": 13719,
    "Ġbooks": 4674,
    "Ġthieves": 15639,
    "Ġphotograph": 6304,
    "Ġenriched": 26500,
    "Ġremedy": 18725,
    "Ġordering": 18998,
    "amid": 12728,
    "Ġmissing": 6177,
    "Ġcrossing": 7253,
    "evinced": 19928,
    "Ġtwitch": 22680,
    "Ġboard": 3384,
    "Ġcliffs": 15970,
    "Ġexclaim": 11222,
    "Ġcin": 13877,
    "glanced": 19369,
    "olent": 8156,
    "Ġpanting": 11605,
    "crawling": 16959,
    "Ġcrop": 10164,
    "Ġcoasts": 12167,
    "cun": 20797,
    "Ġwoeful": 19622,
    "Ġreddening": 25971,
    "successfully": 14993,
    "Ġglut": 18848,
    "Ġsporting": 17000,
    "Ġwat": 1286,
    "erranean": 9336,
    "Ġvibrated": 25048,
    "ħ": 232,
    "Ġardour": 8044,
    "Ġwits": 15534,
    "Ġedinburgh": 16457,
    "Ġfagged": 17884,
    "dra": 3415,
    "Ġstirring": 10581,
    "Ġdiscl": 9799,
    "Ġducks": 25161,
    "him": 1938,
    "Ġter": 2052,
    "Ġabutted": 22280,
    "ull": 1434,
    "Ġpulley": 2975,
    "uck": 1233,
    "phil": 7927,
    "Ġintrig": 21995,
    "Ġdep": 741,
    "lemagne": 26437,
    "volous": 18591,
    "antly": 1988,
    "Ġiroqu": 21628,
    "innacle": 7520,
    "che": 3174,
    "eld": 965,
    "gage": 13725,
    "twice": 14621,
    "accursed": 20543,
    "Ġprint": 18972,
    "tically": 3393,
    "zeal": 16285,
    "abby": 14023,
    "Ġwafted": 14499,
    "charmed": 21700,
    "astern": 8585,
    "Ġdeser": 3885,
    "Ġexamining": 8007,
    "anders": 18155,
    "mem": 10710,
    "!)": 10071,
    "ipping": 2208,
    "Ġlob": 7629,
    "Ġassembly": 10644,
    "Ġmir": 9648,
    "Ġsewing": 21966,
    "eled": 2358,
    "Ġentreaty": 10531,
    "Ġther": 17779,
    "Ġsway": 7572,
    "ribly": 8256,
    "Ġfaintness": 24570,
    "Ġwindsor": 16888,
    "Ġsuddenly": 2645,
    "Ġtreading": 16506,
    "turbaned": 24531,
    "brimming": 23579,
    "Ġconsciousness": 9950,
    "Ġinevitable": 15170,
    "Ġcomprehens": 8321,
    "Ġexpensive": 12922,
    "sper": 4435,
    "Ġdoom": 6418,
    "uther": 8820,
    "Ġboston": 22644,
    "Ġforward": 1838,
    "gallant": 7782,
    "jackets": 24896,
    "Ġcoupled": 16852,
    "monograph": 23529,
    "boards": 23257,
    "Ġstanding": 2998,
    "Ġrevolutions": 23845,
    "childhood": 16867,
    "Ġinst": 911,
    "Ġsprung": 11248,
    "Ġboneless": 19608,
    "bring": 9107,
    "Ġguest": 7249,
    "Ġregulations": 18601,
    "Ġgould": 17992,
    "dat": 1625,
    "persecutor": 26531,
    "Ġwelfare": 12563,
    "eluded": 21579,
    "Ġrace": 5848,
    "Ġpitch": 5767,
    "Ė": 215,
    "Ġhailed": 6408,
    "Ġindestruct": 22962,
    "ĠĠĠĠĠĠĠĠĠĠĠĠĠĠĠĠĠĠĠĠĠĠĠĠĠĠĠĠĠĠĠĠĠĠĠĠĠĠĠĠĠĠĠ": 12158,
    "mbling": 3346,
    "fering": 17543,
    "block": 11471,
    "extinguished": 16152,
    "higher": 20410,
    "uced": 13802,
    "shelf": 20384,
    "elihood": 4621,
    "formity": 10280,
    "Ġrenowned": 26195,
    "itement": 7836,
    "Ġindispens": 22958,
    "retion": 9364,
    "Ġdeliberation": 19972,
    "sum": 2087,
    "Ġpostpone": 17309,
    "Ġobed": 8538,
    "inuating": 16206,
    "Ġfastening": 16359,
    "Ġattends": 19653,
    "C": 39,
    "Ġplausible": 26554,
    "lucas": 15154,
    "Ġma": 3253,
    "Ġwool": 19436,
    "Ġspont": 22136,
    "ices": 2136,
    "Ġgovern": 10451,
    "Ġwal": 6518,
    "whence": 23221,
    "Ġgentle": 1889,
    "Ġknots": 15010,
    "unned": 21883,
    "ivery": 17573,
    "tier": 12518,
    "arial": 5531,
    "bel": 3834,
    "Ġsafety": 6341,
    "Ġdistant": 5387,
    "Ġdictated": 25219,
    "Ġsentinel": 26066,
    "Ġinserted": 8357,
    "Ġgor": 9208,
    "Ġforesight": 13130,
    "Ġinscrutable": 10674,
    "limbs": 20194,
    "Ġpersuaded": 5769,
    "ado": 11660,
    "Ġoffers": 12950,
    "levelled": 23649,
    "Ġtight": 8109,
    "Ġcompre": 4449,
    "ifice": 7198,
    "tottenham": 25419,
    "fatal": 17088,
    "anct": 21361,
    "Ġmoonlight": 9960,
    "dried": 20829,
    "Ġclamorous": 24910,
    "Ġmasters": 11577,
    "ree": 874,
    "umbent": 12093,
    "Ġhappier": 10360,
    "neighbourhood": 10027,
    "why": 2826,
    "Ġsinews": 20290,
    "Ġeveryday": 22775,
    "ssian": 3400,
    "aph": 10955,
    "Ġattentive": 9035,
    "arius": 14250,
    "Ġappro": 660,
    "Ġremorse": 6442,
    "iless": 10283,
    "Ġwishing": 7831,
    "Ġchips": 14181,
    "Ġfaces": 6011,
    "Ġrambling": 18642,
    "joy": 3336,
    "Ġaffrighted": 13575,
    "shad": 10981,
    "biqu": 17499,
    "Ġscolding": 15203,
    "Ġhonor": 5664,
    "pret": 7212,
    "Ġforeheads": 23449,
    "Ġimmensely": 13598,
    "Ġtow": 4396,
    "Ġretirement": 25379,
    "deser": 10480,
    "Ġseasonable": 24405,
    "hetically": 21211,
    "Ġquartered": 20376,
    "Ġfetch": 7771,
    "Ġcaring": 23095,
    "Ġclearing": 8241,
    "bear": 10317,
    "Ġappropriated": 23488,
    "Ġvindictive": 20473,
    "felix": 10655,
    "wherein": 19109,
    "gn": 8083,
    "Ġlectures": 17180,
    "Ě": 219,
    "cess": 539,
    "Ġsensibly": 14514,
    "Ġprocession": 11778,
    "Ġsumatra": 15289,
    "Ġgard": 2191,
    "ricade": 13043,
    "Ġcoars": 14276,
    "Ġoutrage": 15961,
    "ision": 1853,
    "Ġmisconduct": 22765,
    "Ġth": 299,
    "chan": 1162,
    "Ġvestibule": 13539,
    "Ġflag": 7242,
    "Ġrefined": 18710,
    "clu": 20801,
    "reated": 10305,
    "Ġstyled": 24672,
    "Ġrepugnant": 26591,
    "Ġrudeness": 17126,
    "Ġpuffed": 14979,
    "Ġtheoretically": 3567,
    "inarticulate": 21198,
    "Ġcircling": 19094,
    "Ġcandidate": 16699,
    "Ġcarrying": 6074,
    "Ġallowed": 4060,
    "syntax": 5869,
    "Ġrecommendation": 17026,
    "Ġheaded": 11056,
    "Ġmasking": 2421,
    "Ġsword": 6734,
    "Ġhedgehogs": 25395,
    "Ġhighland": 18713,
    "nament": 11508,
    "Ġappertain": 22221,
    "Ġproceeded": 5336,
    "Ġplainpalais": 20739,
    "berg": 11867,
    "Ġperplexed": 23663,
    "Ġgroans": 14826,
    "much": 3705,
    "Ġappeared": 2773,
    "give": 4689,
    "downward": 16620,
    "Ġwet": 6519,
    "Ġgleaming": 24998,
    "6": 26,
    "guarded": 13298,
    "satisf": 5781,
    "Ġverse": 16603,
    "Ġgracefully": 13394,
    "afterwards": 7485,
    "examined": 17268,
    "Ġassurance": 7776,
    "semicirc": 26492,
    "Ġguinea": 8949,
    "superstitiousness": 25509,
    "Ġmarvellous": 7539,
    "inquire": 16933,
    "bies": 15315,
    "Ġhellish": 10552,
    "Ġenchant": 7185,
    "osure": 5308,
    "Ġbottles": 16572,
    "Ġpacked": 9982,
    "cuniary": 26380,
    "Ġclosed": 4603,
    "Ġvictoria": 14875,
    "Ġamelia": 26253,
    "boscombe": 26122,
    "Ġwaste": 9236,
    "Ġcage": 17827,
    "Ġromans": 16760,
    "Ġjud": 3358,
    "Ġencode": 4365,
    "Ġdecaying": 2246,
    "tarpaulins": 26406,
    "loving": 18542,
    "Ġarmed": 9262,
    "Ġangle": 8606,
    "Ġdiggings": 24650,
    "Ġdegenerated": 20509,
    "Ġicelandic": 25887,
    "Ġsociety": 3978,
    "Ġalong": 1979,
    "dington": 12069,
    "Ġplunge": 13446,
    "Ġphysiogn": 12391,
    "Ġvengeance": 5887,
    "Ġaid": 6124,
    "Ġannouncing": 16755,
    "Ġdairy": 20689,
    "congenial": 25400,
    "Ġconsequences": 11336,
    "Ġriddles": 16733,
    "tailed": 17686,
    "Ġstra": 2991,
    "Ġconge": 15749,
    "Ġkills": 15909,
    "included": 19211,
    "Ġtransformers": 1141,
    "visit": 7756,
    "Ġtheatre": 21281,
    "Ġmistifying": 23722,
    "Ġbriskly": 25312,
    "Ã¦": 4338,
    "cour": 4479,
    "Ġdented": 17893,
    "Ġnoon": 6561,
    "Ġyork": 11667,
    "deeply": 16187,
    "Ġlucy": 17972,
    "impatiently": 20474,
    "Ġadvert": 10573,
    "Ġstripping": 23699,
    "happ": 3104,
    "my": 1316,
    "Ġcharmingly": 24223,
    "Ġinspirited": 23423,
    "Ġsaint": 15509,
    "Ġgazette": 19504,
    "niest": 18960,
    "Ġbehavioral": 11397,
    "Ġsupremacy": 20263,
    "Ġwest": 5219,
    "Ġaccordingly": 6622,
    "Ġ1836": 25721,
    "ingolstadt": 21306,
    "Ġbunch": 11327,
    "lucases": 20213,
    "Ġpossession": 5588,
    "Ġdelirium": 10406,
    "Ġwife": 2586,
    "charlotte": 6474,
    "Ġmonotonous": 13266,
    "Ġgloves": 8578,
    "clergy": 18936,
    "Ġpausing": 8656,
    "Ġaccelerating": 1620,
    "Ġretention": 23075,
    "Ġdiscovered": 4413,
    ",âĢĶâĢľ": 10072,
    "inople": 13831,
    "uth": 3016,
    "Ġpresum": 4838,
    "alions": 21505,
    "Ġvoyager": 16514,
    "Ġgre": 1585,
    "otes": 15747,
    "Ġyielded": 14874,
    "Ġspeaker": 19150,
    "Ġillustrious": 17109,
    "Ġbushes": 16399,
    "abriel": 6950,
    "ē": 212,
    "Ġmaelstrom": 19359,
    "named": 9891,
    "Ġshell": 11739,
    "Ġale": 9156,
    "Ġbalance": 2021,
    "Ġarcher": 22184,
    "dered": 2471,
    "covered": 11478,
    "arded": 5029,
    "iners": 4936,
    "Ġbounded": 16628,
    "Ġaccepted": 7752,
    "presents": 18800,
    "Ġlaure": 16910,
    "this": 1442,
    "Ġmayhap": 18707,
    "Ġfiled": 15583,
    "Ġoverflowing": 17239,
    "meditation": 19069,
    "Ġburns": 16524,
    "Ġequality": 16361,
    "oarsman": 25262,
    "Ġsailors": 4278,
    "composure": 24038,
    "Ġmoses": 21318,
    "Ġmorphology": 3009,
    "belled": 24040,
    "bering": 18695,
    "hopeless": 16918,
    "har": 20892,
    "anum": 17837,
    "gaffman": 26391,
    "Ġlizz": 21561,
    "Ġpickle": 16723,
    "Ġrespond": 11177,
    "happy": 4425,
    "Ġapril": 13665,
    "rosings": 15647,
    "purposes": 25024,
    "Ġlie": 4407,
    "Ġsoil": 9257,
    "Ġplanet": 14752,
    "Ġvirgin": 7328,
    "vanished": 15064,
    "Ġhell": 5019,
    "Ġdevil": 3613,
    "amore": 21848,
    "Ġinserting": 19908,
    "wondrous": 12341,
    "eng": 1490,
    "writing": 7722,
    "kovoko": 20672,
    "rossed": 11014,
    "Ġgeorge": 3748,
    "circumspect": 26087,
    "Ġhurling": 19112,
    "isive": 10794,
    "Ġinhale": 20303,
    "critters": 14778,
    "Ġmal": 5221,
    "Ġdefile": 18825,
    "Ġvirtual": 11240,
    "contrary": 23731,
    "iny": 4295,
    "Ġexhilar": 19686,
    "touch": 8393,
    "Ġshortness": 23485,
    "christian": 17234,
    "giana": 7802,
    "Ġsanity": 24984,
    "Ġstrangely": 5677,
    "ization": 486,
    "Ġarriving": 19220,
    "Ġwoke": 21292,
    "À": 129,
    "contrasted": 17308,
    "Ġprocesses": 3633,
    "atmospheric": 17777,
    "Ġfollies": 16256,
    "Ġsimulation": 2749,
    "pher": 11513,
    "ittle": 813,
    "Ġcontriv": 9284,
    "atory": 6127,
    "caterpillar": 26384,
    "absence": 12712,
    "account": 5330,
    "Ġscience": 1570,
    "Ġsecondly": 14516,
    "Ġtax": 13818,
    "Ġwiping": 25766,
    "ouble": 2659,
    "Ġlethar": 21751,
    "Ġpositional": 2597,
    "alas": 8807,
    "ü": 189,
    "Ġborder": 10171,
    "Ġbegan": 2022,
    "allied": 7410,
    "glings": 23854,
    "atter": 635,
    "Ġwearied": 15797,
    "broke": 14781,
    "twig": 23702,
    "Ġconstruct": 23343,
    "Ġkneeling": 12146,
    "Ġtrap": 7674,
    "securer": 25603,
    "ac": 698,
    "54": 15302,
    "Ġmainland": 22660,
    "ferent": 4198,
    "fatigue": 20660,
    "raised": 15682,
    "uation": 17695,
    "Ġvan": 1087,
    "Ġmorris": 18845,
    "Ġformer": 3324,
    "Ġstarry": 16924,
    "Ġlavenza": 17973,
    "Ġseventeen": 26212,
    "Ġunrem": 18242,
    "Ġfool": 4237,
    "rian": 10244,
    "involuntarily": 20418,
    "Ġparac": 12799,
    "Ġtoe": 13938,
    "desirable": 23813,
    "Ġautomation": 13272,
    "omn": 15685,
    "Ġjam": 10952,
    "Ġcoin": 9773,
    "Ġflesh": 5971,
    "Ġvulgar": 13607,
    "Ġdiverted": 14593,
    "Ġinterpre": 1591,
    "ubbub": 23247,
    "Ġmuchness": 18705,
    "sufferable": 12180,
    "observation": 17271,
    "Ġcommissioned": 19897,
    "science": 11912,
    "Ġinsular": 19270,
    "Ġmimic": 3145,
    "Ġhalting": 16275,
    "swiftly": 20554,
    "Ġwithdrew": 9698,
    "Ġenric": 21939,
    "Ġoriginal": 6104,
    "severe": 21823,
    "Ġpeople": 2542,
    "Ġmonogram": 26575,
    "advanced": 19591,
    "Ġtrod": 15028,
    "Ġschools": 9479,
    "ette": 15662,
    "Ġtwee": 22679,
    "Ġglue": 15677,
    "disaster": 23497,
    "ities": 1826,
    "ounder": 11747,
    "Ġknow": 632,
    "pitchpoling": 25725,
    "imming": 9689,
    "rigible": 24932,
    "ĠĠĠĠĠĠĠĠĠĠĠĠĠĠĠĠĠĠĠĠĠĠĠĠĠĠĠĠĠĠĠĠĠĠĠĠĠ": 14615,
    "ĝ": 222,
    "Ġtells": 9363,
    "Ġslept": 8260,
    "Ġcondemn": 13447,
    "Ġtasks": 1787,
    "inkers": 22618,
    "Ġlikes": 9410,
    "Ġattained": 14080,
    "stupid": 12680,
    "Ġchart": 10946,
    "swe": 5998,
    "eyed": 11488,
    "ipped": 5790,
    "Ġdaugh": 2291,
    "Ġfurlong": 18740,
    "musical": 25341,
    "Ġimpul": 7208,
    "iop": 20921,
    "den": 939,
    "garious": 17559,
    "sweeping": 24620,
    "Ġprolong": 6832,
    "Ġeditions": 19154,
    "ograph": 4797,
    "ien": 10103,
    "sy": 2897,
    "india": 22376,
    "mush": 20979,
    "Ġbur": 2696,
    "Ġselfish": 7272,
    "ascertain": 21547,
    "provoke": 26072,
    "Ġmounttop": 19981,
    "Ġswandam": 11091,
    "č": 206,
    "Ġdefines": 1743,
    "Ġkuiperai": 10936,
    "Ġgrap": 11710,
    "Ġpractically": 13112,
    "hug": 17564,
    "´": 117,
    "Ġsound": 2241,
    "ĠĠĠĠĠĠĠĠĠĠĠĠĠĠĠĠĠĠĠĠĠĠĠĠĠĠĠĠĠĠĠĠĠĠĠĠĠĠĠ": 19261,
    "Ġhereditary": 10666,
    "Ġanxiety": 5408,
    "lat": 9606,
    "cial": 2647,
    "ieged": 22583,
    "seals": 21822,
    "Ġchace": 14178,
    "Ġcomprised": 14272,
    "Ġsteel": 3887,
    "Ġstand": 1737,
    "Ġantelope": 24182,
    "Ġamaz": 5385,
    "amusement": 15285,
    "Ġtempted": 9058,
    "Ġwa": 1753,
    "Ġabominable": 12325,
    "une": 2783,
    "Ġcivility": 4788,
    "try": 7813,
    "Ġsensationalism": 26067,
    "Ġthreat": 5154,
    "own": 746,
    "Ġfactory": 23280,
    "Ġgidd": 25784,
    "asant": 17961,
    "Ġadvancing": 6879,
    "Ġslew": 23386,
    "vices": 21119,
    "Ġalbatross": 10872,
    "copy": 5133,
    "Ġox": 7154,
    "ld": 385,
    "log": 18539,
    "Ġplayers": 12042,
    "condemned": 26061,
    "Ġhorrors": 10481,
    "idea": 9303,
    "Ġblame": 6447,
    "Ġaltered": 7393,
    "Ġattempt": 3488,
    "fairly": 17221,
    "ckled": 9259,
    "abiding": 21798,
    "tis": 4107,
    "hamed": 6307,
    "Ġstores": 18071,
    "Ġtorrents": 20059,
    "Ġunwarrantable": 26346,
    "Ġtortures": 14925,
    "expound": 23665,
    "morn": 20978,
    "Ġdiffident": 23786,
    "Ġmortifying": 13248,
    "Ġimpregn": 26023,
    "Ġmerciless": 25247,
    "Ġassoc": 6403,
    "interrupted": 11418,
    "Ġhaunted": 10255,
    "Ġoccupied": 5273,
    "Ġmen": 1437,
    "Ġflowed": 10373,
    "Ġloved": 4598,
    "Ġequivalent": 4802,
    "henomena": 20275,
    "Ġhotels": 19539,
    "Ġabsolut": 3908,
    "Ġslyness": 25267,
    "etrics": 21589,
    "indispensable": 14211,
    "historical": 20469,
    "Ġchancery": 20718,
    "Ġsquared": 1383,
    "Ġfortunately": 12183,
    "Ġtoad": 21514,
    "Ġorganizations": 12317,
    "tempt": 21082,
    "Ġindication": 22956,
    "travel": 24336,
    "smote": 23913,
    "Ġkentuckian": 26344,
    "Ġcensured": 25097,
    "Ġfrozen": 9015,
    "Ġshorter": 4498,
    "Ġsubdued": 11031,
    "Ġtaller": 16688,
    "ousness": 10276,
    "Ġelementary": 24811,
    "Ġhundredth": 16520,
    "Ġno": 510,
    "attempts": 17192,
    "Ġadvent": 4357,
    "Ġurgent": 16868,
    "carte": 25401,
    "Ġimplicated": 24876,
    "Ġowned": 11879,
    "Ġsoft": 1461,
    "Ġencoding": 4774,
    "hertfordshire": 10937,
    "Ġebb": 21626,
    "Ġcompromised": 22577,
    "Ġbarrels": 9438,
    "asted": 4648,
    "ios": 2277,
    "Ġhackney": 20436,
    "happiest": 19334,
    "lane": 10707,
    "pick": 17635,
    "Ġlessened": 19087,
    "Ġoversampling": 20519,
    "Ġcombat": 16186,
    "Ġrefused": 6717,
    "Ġtenderest": 23552,
    "Ġthickness": 13281,
    "punct": 20195,
    "Ġcorre": 3886,
    "Ġwounding": 19589,
    "inquir": 9538,
    "Ġcontrivance": 17185,
    "ume": 4836,
    "Ġhaughty": 11450,
    "Ġconsecrated": 26489,
    "Ġrounds": 18888,
    "appearing": 14638,
    "neighbour": 7211,
    "Ġscream": 5937,
    "delights": 19704,
    "tornadoes": 26154,
    "Ġblocks": 6323,
    "idav": 18095,
    "Ġindulged": 13420,
    "turn": 4293,
    "venant": 22632,
    "ount": 1113,
    "Ġrosy": 18460,
    "Ġrandom": 1590,
    "Ġadditional": 7936,
    "Ġheeds": 24519,
    "Ġexc": 1832,
    "Ġremotest": 10054,
    "Ġshipmates": 6722,
    "collected": 13216,
    "belated": 24041,
    "acceptance": 25185,
    "Ġpresence": 5031,
    "Ġsecurity": 8979,
    "card": 11476,
    "ruit": 22186,
    "Ġsecured": 6747,
    "Ġlabeled": 3718,
    "Ġargue": 16784,
    "albatross": 15633,
    "Ġspouting": 9441,
    "arranging": 19320,
    "Ġnotions": 14101,
    "inferior": 12397,
    "tiest": 21084,
    "rose": 6016,
    "Ġvibrating": 13540,
    "Ġelectric": 15197,
    "jug": 17581,
    "Ġjac": 1896,
    "arts": 6565,
    "Ħ": 231,
    "mured": 6960,
    "Ġjer": 6268,
    "Ġevalu": 2875,
    "uttered": 8443,
    "Ġguns": 16777,
    "Ġrewards": 10849,
    "Ġprints": 16335,
    "Ġearth": 2846,
    "Ġdi": 6526,
    "Ġimplements": 2484,
    "bunger": 20405,
    "scr": 16244,
    "Ġspirits": 3697,
    "Ġeternities": 19946,
    "urons": 3132,
    "sort": 6799,
    "manners": 16188,
    "greeting": 24553,
    "Ġintense": 6159,
    "Ġthoughtfulness": 18774,
    "though": 2116,
    "Ġoppress": 13175,
    "teringly": 21828,
    "Ġgoin": 18470,
    "Ġcloak": 9536,
    "pursued": 17283,
    "Ġhugest": 17016,
    "arrange": 23768,
    "Ġgate": 6825,
    "Ġhistorical": 3645,
    "Ġclin": 14201,
    "Ġfiends": 14830,
    "Ġcreamy": 14333,
    "Ġinference": 9673,
    "Ġbul": 3294,
    "Ġutilize": 4798,
    "Ġsteals": 23088,
    "parm": 21016,
    "Ġfled": 6673,
    "Ġentertaining": 16927,
    "ignity": 4375,
    "Ġshoots": 14569,
    "ilib": 4119,
    "indisc": 22378,
    "Ġspine": 7407,
    "Ġhorns": 11124,
    "jephro": 26393,
    "Ġwaits": 23282,
    "Ġalley": 15739,
    "Ġusing": 723,
    "Ġextremely": 2666,
    "Ġconsoled": 18115,
    "Ġembellish": 25849,
    "Ġstable": 2697,
    "onents": 8781,
    "Ġshout": 4266,
    "ama": 11679,
    "edged": 15634,
    "Ġapprehen": 16830,
    "Ġrus": 14094,
    "Ġjokes": 18409,
    "Ġunconsciously": 10007,
    "conviction": 19968,
    "miserable": 8660,
    "arranted": 19322,
    "Ġglances": 10374,
    "Ġbillow": 14783,
    "Ġslumbering": 25702,
    "degree": 12805,
    "):": 11462,
    "Ġsitt": 21220,
    "Ġsandwiched": 26611,
    "Ġmock": 3690,
    "Ġtribes": 20484,
    "Ġtimes": 2301,
    "Ġcommun": 1708,
    "Ġglacier": 11434,
    "Ġpau": 17910,
    "Ġenveloped": 12212,
    "Ġboomer": 20170,
    "Ġflour": 8946,
    "Ġadmirals": 20388,
    "jet": 13744,
    "pardon": 10067,
    "owner": 18613,
    "Ġunimag": 12778,
    "Ġfanc": 6745,
    "Ġmeditation": 16706,
    "_âĢĶâĢĿ": 20765,
    "Ġpool": 5173,
    "conceive": 16032,
    "pagans": 25526,
    "wrinkled": 16556,
    "Ġfeeling": 3081,
    "Ġmidday": 23635,
    "pump": 21019,
    "Ġafraid": 3531,
    "bour": 2073,
    "Ġgrimly": 17052,
    "whew": 22872,
    "Ġoverhanging": 22364,
    "Ġbetake": 22911,
    "Ġbrill": 8552,
    "Ġshield": 22004,
    "stri": 6251,
    "Ġdestroyer": 13416,
    "Ġpods": 17917,
    "Ġprecipice": 19944,
    "alongside": 19792,
    "Ġenter": 4032,
    "Ġhatherley": 7850,
    "urry": 13996,
    "Ġuser": 15922,
    "propriety": 14369,
    "study": 15120,
    "Ġdistance": 3485,
    "Ġsyllable": 9730,
    "Ġxxv": 19720,
    "impregnable": 26482,
    "Ġraises": 11846,
    "familiar": 19786,
    "Ġthrust": 5084,
    "Ġshook": 4468,
    "warmly": 25029,
    "tolerable": 17689,
    "Ġauthor": 4376,
    "Ġhydraulic": 10066,
    "Ġpack": 5444,
    "Ġponder": 6819,
    "Ġboot": 11843,
    "Ġmoral": 6581,
    "Ġdivineness": 25724,
    "causing": 25519,
    "mor": 4218,
    "Ġaccorded": 24093,
    "Ġdance": 4442,
    "prodig": 16429,
    "achable": 14139,
    "Ġthrown": 4638,
    "Ġbackwoods": 22664,
    "arthur": 14832,
    "Ġindebted": 8711,
    "ording": 9766,
    "Ġunctuous": 10268,
    "Ġthumb": 6982,
    "Ġcausal": 3411,
    "homage": 25617,
    "thing": 1483,
    "Ġhealthful": 24063,
    "Ġhabitual": 24789,
    "Ġlodging": 24097,
    "Ġmuhammad": 26170,
    "overcome": 19052,
    "imaux": 21716,
    "tale": 10129,
    "Ġgasps": 24866,
    "Ġafrica": 12348,
    "Ġalien": 14020,
    "Ġoutlined": 22325,
    "atural": 935,
    "Ġottoman": 17380,
    "Ġsiber": 17756,
    "Ġallusion": 7627,
    "Ġfervent": 14903,
    "Ã": 132,
    "Ġwhine": 21719,
    "Ġimp": 582,
    "Ġbind": 12586,
    "Ġadds": 1804,
    "ish": 550,
    "Ġpear": 11855,
    "Ġcleaving": 23186,
    "Ġbegg": 16254,
    "pregn": 18499,
    "class": 4097,
    "erting": 17778,
    "Ġcertainly": 2496,
    "specul": 23946,
    "Ġapproached": 5844,
    "Ġgleam": 12311,
    "Ġanimals": 8980,
    "Ġquality": 3529,
    "clean": 14762,
    "Ġoppressively": 25711,
    "anatory": 21366,
    "later": 20955,
    "Ġneuron": 1806,
    "emason": 18184,
    "Ġ1828": 25720,
    "mystic": 25317,
    "Ġboasting": 19939,
    "aged": 2606,
    "Ġpangs": 15618,
    "Ġconsequence": 5541,
    "Ġstealing": 18896,
    "Ġarticles": 7110,
    "Ġpants": 21469,
    "Ġtherefore": 2238,
    "Ġmarvels": 11085,
    "Ġgreenwich": 19323,
    "Ġspectator": 19409,
    "recursion": 13332,
    "Ġbulwarks": 5591,
    "Ġashore": 5352,
    "Ġwarm": 2426,
    "clearer": 24072,
    "burned": 25082,
    "Ġkith": 22197,
    "Ġslavery": 16310,
    "Ġinj": 4760,
    "befriend": 22497,
    "intment": 4720,
    "Ġinv": 2224,
    "apering": 8042,
    "landsmen": 25062,
    "hawk": 7123,
    "Ġsuggest": 5417,
    "oors": 17621,
    "Ġdate": 7842,
    "lamp": 9610,
    "han": 12476,
    "Ġir": 1993,
    "Ġlimited": 23547,
    "scattered": 22999,
    "Ġsavannah": 17418,
    "Ġencirc": 18734,
    "Ġcome": 1241,
    "arp": 2029,
    "laborers": 23919,
    "Ġsummit": 7732,
    "Ġyears": 1890,
    "Ġobstinacy": 17423,
    "Ġsinks": 19552,
    "Ġstiffest": 24827,
    "Ġglistening": 12368,
    "tri": 11531,
    "Ġgloomy": 7505,
    "abs": 11669,
    "Ġahab": 1216,
    "Ġlung": 7168,
    "Ġplaced": 3445,
    ",âĢĿâĢĶ": 14216,
    "Ġtoss": 10186,
    "Ġadored": 18292,
    "Ġweeping": 11689,
    "insufferable": 21195,
    "ubl": 3595,
    "Ġleather": 7608,
    "scythes": 26403,
    "Ġczar": 12578,
    "iling": 3091,
    "Ġenigmatical": 20600,
    "Ġbulge": 23860,
    "Ġthrows": 14739,
    "Ġaugmented": 15108,
    "remarked": 12291,
    "Ġwharf": 9561,
    "interval": 7992,
    "ation": 320,
    "received": 9640,
    "Ġtallest": 15476,
    "Ġcompiled": 22576,
    "Ġsombre": 18860,
    "ower": 980,
    "taught": 17685,
    "Ġallowing": 2176,
    "Ġdeigned": 18141,
    "Ġshar": 9252,
    "achel": 7033,
    "Ġinfer": 7686,
    "accident": 11182,
    "Ġframework": 1990,
    "someone": 14565,
    "Ġledger": 19405,
    "oms": 4592,
    "rain": 462,
    "you": 1005,
    "Ġjet": 5309,
    "Ġblankets": 24613,
    "speps": 14338,
    "Ġstudy": 1725,
    "ury": 3312,
    "are": 638,
    "Ġround": 1371,
    "fr": 4804,
    "itud": 2929,
    "scans": 22993,
    "Ġpenetrate": 12273,
    "Ġdissu": 18551,
    "Ġyarns": 15198,
    "Ġlaugh": 4115,
    "Ġexcused": 23316,
    "Ġinc": 702,
    "gledy": 25404,
    "renched": 7909,
    "Ġharbour": 19983,
    "Ġskeletons": 16792,
    "Ġderivative": 2999,
    "Ġimpersonal": 17398,
    "Ġmorality": 22977,
    "sleeve": 26109,
    "Ġcowardice": 17032,
    "Ġshark": 5549,
    "folio": 10548,
    "establish": 17395,
    "Ġfisheries": 17440,
    "Ġlinks": 13957,
    "Ġhurtling": 24962,
    "Ġsuppress": 13028,
    "Ġclubb": 22351,
    "Ġimm": 3966,
    "Ġfert": 15585,
    "Ġdrawer": 13269,
    "Ġparis": 8180,
    "crooked": 25747,
    "uting": 15663,
    "dawson": 26129,
    "Ġpricking": 23228,
    "Ġhitherto": 5882,
    "iah": 14418,
    "Ġrecede": 25969,
    "Ġdireful": 11019,
    "Ġfreedom": 9084,
    "ampton": 18147,
    "Ġriddle": 14822,
    "Ġegot": 18010,
    "Ġlanc": 19767,
    "Ġsteering": 10389,
    "Ġmemory": 2274,
    "Ġsag": 6515,
    "Ġinferior": 8367,
    "Ġconc": 1842,
    "lovely": 16049,
    "itely": 5365,
    "Ġdishonor": 25602,
    "Ġ*/": 10375,
    "mur": 5428,
    "osition": 1375,
    "uding": 16150,
    "Ġwhoa": 22425,
    "Ġeucl": 24708,
    "oam": 8755,
    "Ġremind": 6060,
    "recollect": 17225,
    "alice": 3211,
    "Ġlouder": 13471,
    "Ġintroduction": 8972,
    "pronounced": 12349,
    "Ġhig": 753,
    "Ġsatisfaction": 5667,
    "Ġmistress": 8615,
    "Ġaper": 17744,
    "Ġfloats": 9415,
    "Ġnation": 12651,
    "lightning": 16554,
    "tedious": 22639,
    "expose": 23666,
    "mpus": 13759,
    "Ġyouthful": 16724,
    "Ġrescue": 13346,
    "Ġfinish": 7950,
    "Ġsqu": 1038,
    "throw": 14099,
    "devoted": 20020,
    "Ġmartha": 16263,
    "Ġemployments": 12106,
    "ĠĠĠĠĠĠĠĠĠĠĠĠĠĠĠĠĠĠĠĠĠĠ": 16229,
    "Ġhardships": 14453,
    "rogress": 21540,
    "Ġever": 1181,
    "meaning": 2906,
    "Ġtrustees": 24109,
    "Ġsecure": 4912,
    "ung": 2743,
    "ĠĠĠĠĠĠĠĠ": 711,
    "mixed": 17606,
    "Ġjup": 15955,
    "cring": 20813,
    "Ġlike": 670,
    "tolerably": 21098,
    "Ġtestimony": 14472,
    "rets": 12545,
    "Ġnoah": 10943,
    "Ġtokens": 1771,
    "ifiable": 18166,
    "Ġinspecting": 24615,
    "otent": 8835,
    "Ġsobbing": 14137,
    "Ġanvil": 11599,
    "Ġresponses": 23653,
    "mut": 17596,
    "Ġmethod": 1476,
    "ques": 2838,
    "Ġintrepid": 11708,
    "Ġcarving": 14445,
    "tout": 21068,
    "conv": 7213,
    "Ġtraditions": 11444,
    "Ġxviii": 23412,
    "Ġornament": 11723,
    "Ġgrove": 12150,
    "Ġ156": 20173,
    "Ġexpost": 18625,
    "Ġgenerations": 10965,
    "addressing": 24400,
    "Ġclank": 15967,
    "Ġindelible": 25695,
    "unnatural": 15776,
    "Ġwhy": 1759,
    "aware": 16297,
    "Ġquant": 6425,
    "Ġjust": 1240,
    "Ġrally": 21973,
    "Ġeasy": 3453,
    "Ġscotch": 12213,
    "ck": 436,
    "Ġowing": 6007,
    "Ġconverts": 2802,
    "rably": 21637,
    "Ġtu": 6969,
    "method": 17286,
    "repe": 8780,
    "Ġsurmised": 24920,
    "make": 5793,
    "Ġadmired": 7983,
    "irregular": 21916,
    "Ġelement": 6898,
    "Ġmourning": 13481,
    "Ġthreatens": 24374,
    "Ġfoundling": 22974,
    "Ġdespaired": 14670,
    "Ġcanallers": 13631,
    "Ġcapabilities": 4378,
    "Ġflapp": 23012,
    "kington": 11204,
    "rical": 11520,
    "Ġrestlessness": 23295,
    "rum": 3472,
    "Ġbart": 17859,
    "Ġenchanting": 17039,
    "Ġpredef": 18517,
    "Ġsummits": 14684,
    "Ġprow": 6686,
    "Ġgeomet": 3194,
    "cription": 20820,
    "Ġviolates": 3168,
    "Ġrick": 21975,
    "visual": 24224,
    "Ġenvelope": 7319,
    "Ġgradually": 3401,
    "Ġunabated": 15855,
    "Ġcontr": 1914,
    "Ġrig": 4227,
    "ho": 2854,
    "Ġcommodores": 25375,
    "Ġantichronical": 26610,
    "Ġsaratoga": 26424,
    "Ġcommunicated": 9063,
    "Ġmeasured": 9806,
    "Ġheight": 4223,
    "failed": 20865,
    "rmsprop": 4521,
    "Ġmolasses": 25629,
    "ifications": 9731,
    "Ġoxford": 11372,
    "Ġislands": 6767,
    "Ġringing": 13335,
    "skelter": 24489,
    "Ġresembled": 18036,
    "thank": 4949,
    "Ġintrodu": 1925,
    "Ġimpressions": 9555,
    "Ġflog": 23625,
    "Ġtacit": 21177,
    "pense": 10370,
    "ocation": 14626,
    "Ġask": 1495,
    "Ġconcentrate": 25066,
    "Ġspot": 4157,
    "behind": 6780,
    "promising": 24725,
    "Ġidea": 2485,
    "Ġgrapp": 14103,
    "Ġdreamed": 16631,
    "Ġedd": 8399,
    "Ġshivered": 14110,
    "Ġshavings": 14112,
    "Ġhissing": 15793,
    "Ġrolled": 4430,
    "Ġwillow": 18534,
    "gration": 9123,
    "Ġsystemat": 18443,
    "Ġsaturation": 2064,
    "Ġnotes": 7189,
    "poured": 17638,
    "Ġinclemency": 22561,
    "announcement": 24562,
    "Ġspared": 7895,
    "Ġcou": 5288,
    "augment": 18830,
    "resembled": 21249,
    "Ġsmart": 11818,
    "Ġesq": 15111,
    "lyph": 10853,
    "cient": 4568,
    "Ġfries": 21419,
    "Ġnatives": 17953,
    "Ġfates": 15581,
    "Ġsaloon": 24067,
    "Ġsubfield": 11872,
    "consternation": 16913,
    "Ġdeadliest": 14557,
    "Ġontario": 26206,
    "Ġgreek": 10633,
    "Ġdropping": 7484,
    "Ġrepulsive": 14531,
    "opard": 9293,
    "Ġpendulous": 25956,
    "Ġmay": 924,
    "Ġostentatious": 25737,
    "Ġspring": 4122,
    "ython": 1029,
    "feren": 765,
    "Ġstage": 7389,
    "ters": 1576,
    "start": 7600,
    "Ġboat": 1277,
    "talked": 14987,
    "Ġbruised": 25773,
    "ĠĊ": 12527,
    "Ġmagnitude": 1942,
    "cept": 552,
    "Ġdetained": 18387,
    "Ġletters": 3791,
    "Ġdescent": 987,
    "Ġbigger": 19764,
    "Ġfathoms": 9085,
    "hopper": 23717,
    "Ġcordially": 16837,
    "Ġaffected": 5576,
    "Ġsir": 1573,
    "Ġmanoir": 22336,
    "residence": 19265,
    "ladder": 19787,
    "unimportant": 18162,
    "~": 98,
    "Ġbenjamin": 26568,
    "Ġarrested": 9562,
    "Ġdecision": 2673,
    "Ġimple": 1812,
    "Ġhinting": 19652,
    "arr": 3043,
    "danger": 10091,
    "tastes": 21099,
    "Ġpulling": 5864,
    "Ġbeards": 21756,
    "Ġendless": 7055,
    "Ġfanning": 23393,
    "Ġthin": 4348,
    "xim": 1091,
    "oura": 1060,
    "Ġcosy": 13134,
    "Ġbleached": 24395,
    "Ġmel": 4817,
    "Ġundulated": 19519,
    "Ġcurving": 16243,
    "Ġfeelingly": 23001,
    "tasted": 17688,
    "itaries": 21339,
    "Ġnewcastle": 16226,
    "remembered": 17353,
    "Ġabhorred": 9510,
    "Ġmultipl": 2788,
    "estinated": 15921,
    "Ġponies": 21480,
    "clut": 23156,
    "Ġcocoanuts": 26364,
    "Ġsnatch": 14640,
    "Ġbreach": 11976,
    "Ġmac": 15541,
    "Ġaccused": 8510,
    "killer": 20479,
    "Ġperils": 6275,
    "ways": 1444,
    "Ġtester": 21175,
    "Ġdejected": 20307,
    "00": 1613,
    "Ġundecided": 22051,
    "Ġdire": 865,
    "dem": 10694,
    "Ġcrowder": 19459,
    "famous": 16917,
    "Ġwalk": 1825,
    "Ġhunting": 7259,
    "Ġenormousness": 24511,
    "cery": 20810,
    "Ġfamilies": 8028,
    "Ġwatch": 2741,
    "Ġqueer": 4478,
    "Ġassailed": 23182,
    "Ġbites": 23745,
    "remained": 8573,
    "Ġfavourable": 7960,
    "ernally": 22615,
    "Ġpropont": 16352,
    "Ġcompensated": 17403,
    "Ġgramm": 8172,
    "Ġextending": 11022,
    "ret": 1479,
    "barrels": 15043,
    "Ġconcerns": 12034,
    "lingering": 18603,
    "Ġdynamic": 5122,
    "Ġinquirers": 24967,
    "perquisites": 26532,
    "Ġalex": 15136,
    "Ġmiscellaneous": 17464,
    "banked": 25338,
    "Ġstigma": 25792,
    "Ġchronicler": 20232,
    "gainst": 25144,
    "professional": 20278,
    "Ġlandlord": 5580,
    "Ġsingularly": 12152,
    "Ġannihilation": 15168,
    "Ġbarbara": 24815,
    "Ġbaffled": 12406,
    "Ġcrowding": 13283,
    "Ġtestament": 23204,
    "gorge": 22358,
    "Ġcreated": 2705,
    "Ġnlp": 3059,
    "Ġimpediments": 26242,
    "beam": 16042,
    "Ġbony": 12591,
    "mar": 4336,
    "Ġcontest": 18474,
    "ium": 4864,
    "sch": 21053,
    "Ġvertebra": 20184,
    "Ġhemisphere": 26479,
    "screwed": 17189,
    "vi": 2375,
    "alot": 15629,
    "Ġquakers": 22421,
    "Ġreckon": 19872,
    "Ġprovoke": 14828,
    "Ġinsects": 25647,
    "ip": 559,
    "Ġenumer": 12749,
    "Ġsaddest": 16664,
    "queequeg": 4335,
    "Ġrnns": 2393,
    "Ġgreeting": 18966,
    "Ġslide": 10395,
    "sideways": 14572,
    "Ġarrives": 23609,
    "Ġroanoke": 22412,
    "Ġseizure": 21969,
    "Ġmetrics": 19073,
    "Ġquick": 2580,
    "Ġbalm": 22908,
    "ues": 2080,
    "society": 9974,
    "Ġenjoyment": 7300,
    "rim": 7139,
    "weed": 14317,
    "ivation": 3110,
    "Ġenterprise": 8645,
    "Ġcopestone": 24939,
    "Ġflaw": 23014,
    "Ġdeem": 18136,
    "Ġinstructing": 3124,
    "Ġcountryside": 23598,
    "Ġindividuality": 14911,
    "Ġfellows": 8258,
    "Ġsinking": 7307,
    "Ġcharlotte": 3888,
    "Ġbeget": 9227,
    "ingham": 21303,
    "Ġreckoning": 14981,
    "Ġspeaks": 11160,
    "Ġreplaced": 13075,
    "Ġshol": 22000,
    "Ġemergency": 25731,
    "throwing": 11705,
    "Ġguilty": 7250,
    "Ġmarine": 23037,
    "Ġsunshine": 14495,
    "Ġshouting": 10524,
    "Ġcapstan": 9101,
    "aire": 10682,
    "Ġwantonly": 22900,
    "Ġwandered": 6930,
    "riv": 3109,
    "Ġscrupled": 25052,
    "Ġnieces": 8435,
    "Ġcharts": 12830,
    "Ġumbrella": 15268,
    "Ġcalmed": 16268,
    "Ġbroadened": 23988,
    "Ġslippery": 12170,
    "Ġquar": 3113,
    "Ġdetective": 14423,
    "ions": 448,
    "means": 9788,
    "Ġexploring": 4306,
    "faint": 17546,
    "adjust": 21764,
    "Ġtrowsers": 9629,
    "Ġencourag": 1394,
    "Ġmiguel": 25767,
    "Ġconfirming": 25322,
    "charge": 9451,
    "Ġwedded": 15538,
    "Ġconfining": 23308,
    "Ġpouch": 21473,
    "Ġoverpowered": 15291,
    "interesting": 12205,
    "Ġrecip": 16142,
    "Ġ182": 13240,
    "Ġlubber": 17446,
    "Ġactor": 16051,
    "Ġimitation": 22176,
    "Ġtune": 17726,
    "Ġancestry": 25642,
    "othic": 16219,
    "Ġrejecting": 17051,
    "destruction": 11255,
    "Ġadvertising": 25390,
    "Ġveritable": 19384,
    "Ġhover": 15623,
    "Ġbubbling": 17328,
    "brothers": 17025,
    "ratulations": 20129,
    "Ġstraw": 9431,
    "clever": 20815,
    "atical": 10772,
    "Ġchip": 12828,
    "stopping": 19353,
    "Ġaffecting": 2323,
    "indust": 18436,
    "Ġarve": 15896,
    "Ġreported": 11982,
    "Ġcontention": 22431,
    "Ġinduced": 8674,
    "Ġbier": 22770,
    "uncommon": 11684,
    "Ġconfirmation": 17212,
    "better": 7121,
    "arms": 10175,
    "Ġware": 12558,
    "Ġmutual": 8297,
    "Ġsubmerged": 11875,
    "onness": 21257,
    "ates": 518,
    "Ġunfavourable": 17419,
    "Ġcontrived": 10304,
    "Ġpermanently": 25474,
    "Ġrelations": 5854,
    "Ġstandpoint": 23281,
    "Ġplays": 12041,
    "Ġimmensities": 25331,
    "Ġnav": 5819,
    "Ġfebruary": 15916,
    "cracy": 24691,
    "Ġlitter": 19832,
    "Ġjava": 12315,
    "Ġimmense": 4951,
    "Ġmice": 13861,
    "sweet": 8689,
    "ises": 3653,
    "Ġhimmale": 18330,
    "Ġbarrel": 23794,
    "Ġdesk": 11910,
    "É": 138,
    "Ġourselves": 5127,
    "footed": 19692,
    "Ġtowards": 1730,
    "Ġbrows": 13304,
    "Ġcarpent": 4465,
    "Ġgrat": 4058,
    "Ġviciously": 24403,
    "Ġsequences": 1751,
    "Ġopenshaw": 7956,
    "Ġacknowledgment": 16958,
    "Ġpretending": 19317,
    "humored": 19456,
    "Ġany": 688,
    "honey": 20907,
    "Ġmichael": 20682,
    "Ġdripping": 13150,
    "lies": 15384,
    "Ġhist": 2444,
    "ficial": 17549,
    "Ġcannot": 1668,
    "ighbour": 3389,
    "Ġobedient": 20108,
    "Ġreaction": 15698,
    "Ġfall": 2987,
    "Ġrequest": 6053,
    "ustry": 18357,
    "Ġstoper": 14465,
    "box": 5749,
    "satisfaction": 9994,
    "Ġsitu": 3497,
    "Ġshocks": 16458,
    "henomen": 10496,
    "Ġmild": 4149,
    "Ġsomeone": 6705,
    "Ġcontinent": 14890,
    "Ġbud": 10170,
    "Ġtangles": 25762,
    "Ġslender": 11943,
    "Ġgossip": 18471,
    "zas": 17713,
    "Ġarmies": 16493,
    "earn": 10697,
    "Ġsearch": 2589,
    "Ġclouded": 13294,
    "Ġcompanion": 3643,
    "Ġnorton": 12653,
    "Ġexponential": 1058,
    "venty": 6428,
    "world": 5058,
    "rendered": 22343,
    "Ġkindred": 16377,
    "Ġdefendants": 15143,
    "Ġfuller": 11157,
    "Ġfirm": 3869,
    "Ġhug": 6980,
    "apidated": 22341,
    "Ġelizabeth": 1128,
    "swed": 24255,
    "Ġdisput": 14257,
    "Ġtumbled": 13409,
    "bucket": 17495,
    "frost": 15109,
    "Ġincomp": 12904,
    "Ġextracting": 11105,
    "Ġacquit": 18899,
    "Ġende": 21937,
    "Ġboats": 2637,
    "bearings": 25372,
    "thus": 5158,
    "Ġall": 423,
    "Ġimpetus": 25570,
    "Ġcouch": 12575,
    "Ġaversion": 18867,
    "Ġguarded": 9828,
    "Ġasser": 6259,
    "akes": 2219,
    "arctic": 12614,
    "Ġclothe": 4712,
    "Ġgord": 21604,
    "repressed": 21246,
    "Ġpain": 2302,
    "culiarity": 11142,
    "Ġfaire": 13368,
    "Ġbust": 10169,
    "Ġunce": 11714,
    "Ġoutlandish": 12842,
    "Ġfobbing": 26442,
    "Ġbusy": 6191,
    "Ġstray": 18072,
    "Ġlady": 1588,
    "arbuck": 2027,
    "Ġwarrant": 17796,
    "Ġrecognised": 8996,
    "eth": 621,
    "marry": 13327,
    "beaut": 8515,
    "Ġcocoa": 25483,
    "Ġbridal": 14956,
    "asable": 21545,
    "Ġbroods": 23106,
    "valuable": 8247,
    "Ġconsiderable": 4009,
    "Ġgemin": 21614,
    "play": 5099,
    "requent": 3649,
    "mosp": 8090,
    "Ġessential": 7524,
    "mming": 1172,
    "sor": 7352,
    "blot": 20785,
    "Ġpoll": 12032,
    "ining": 3224,
    "Ġstrides": 22621,
    "/": 19,
    "Ġdies": 11595,
    "Ġcrosswise": 18889,
    "sudden": 5316,
    "Ġsuperseded": 26225,
    "making": 2571,
    "need": 10984,
    "Ġstructured": 2970,
    "prot": 6899,
    "Ġembarrassed": 11385,
    "Ġlives": 4826,
    "Ġwicked": 5963,
    "Ġdeft": 21841,
    "chorus": 19814,
    "Ġunbending": 25465,
    "Ġascertained": 25297,
    "aways": 15313,
    "Ġauger": 21206,
    "Ġshore": 4835,
    "Ġshameful": 19854,
    "knives": 14915,
    "icious": 7380,
    "Ġpiece": 5367,
    "Ġballasted": 23983,
    "Ġevils": 9022,
    "Ġundet": 16702,
    "Ġparaphrasing": 26527,
    "solute": 16599,
    "Ġwidespread": 20678,
    "mbl": 5948,
    "convinced": 10624,
    "Ġsalted": 14758,
    "somewhat": 11161,
    "Ġfuss": 13907,
    "isf": 2435,
    "imper": 13999,
    "Ġquantization": 19856,
    "whisper": 17083,
    "Ġmythologies": 26215,
    "Ġeel": 18004,
    "Ġhumbled": 16199,
    "paid": 15416,
    "hark": 15368,
    "Ġcronies": 23442,
    "ercely": 12554,
    "street": 6496,
    "Ġencourages": 2063,
    "Ġcuff": 17831,
    "Ġgrace": 5374,
    "Ġmat": 1147,
    "imp": 3031,
    "Ġarguments": 8038,
    "Ġpoles": 11005,
    "Ġawa": 7715,
    "Ġblazing": 11899,
    "Ġtit": 8401,
    "Ġstaving": 21742,
    "Ġcongratulate": 9065,
    "§": 105,
    "aur": 15311,
    "Ġflew": 5587,
    "Ġprogen": 14041,
    "Ġweapon": 7777,
    "rodu": 1818,
    "Ġjoints": 12039,
    "Ġfoul": 7160,
    "Ġdil": 6384,
    "Ġpovels": 22597,
    "Ġhoped": 5488,
    "Ġdescribing": 19256,
    "Ġpraised": 19556,
    "Ġcocaine": 20723,
    "sequence": 2852,
    "Ġmoist": 9287,
    "Ġunluckily": 20105,
    "Ġisa": 14027,
    "ual": 946,
    "Ġdecember": 15008,
    "Ġintolerably": 15832,
    "Ġwhales": 1827,
    "arian": 10318,
    "Ġwhereas": 3853,
    "delight": 5345,
    "Ġhoary": 23356,
    "Ġoct": 10160,
    "pat": 10118,
    "Ġburgled": 23658,
    "Ġpermit": 9751,
    "Ġsales": 12810,
    "walls": 25346,
    "sorting": 17005,
    "alescing": 23869,
    "black": 6769,
    "Ġunfaltering": 24114,
    "Ġdivided": 8635,
    "Ġsatirical": 26281,
    "Ġaccord": 4028,
    "Ġtheorem": 2325,
    "terns": 21827,
    "wandered": 20288,
    "Ġwhistles": 24626,
    "thee": 9692,
    "clear": 9026,
    "Ġweights": 898,
    "Ġanswered": 2848,
    "Ġincapable": 7423,
    "Ġslighted": 16569,
    "thickness": 25368,
    "Ġtransform": 756,
    "Ġsunwards": 19012,
    "Ġsash": 17755,
    "Ġclatter": 22347,
    "host": 5868,
    "walk": 5523,
    "Ġbetokened": 18799,
    "tu": 12515,
    "semic": 21825,
    "Ġcanvassed": 19938,
    "Ġlow": 1650,
    "abled": 12798,
    "Ġlonging": 14302,
    "jolly": 20933,
    "Ġworth": 4417,
    "Ġinterlude": 16076,
    "Ġwater": 1947,
    "Ġoutrages": 18415,
    "Ġconclude": 8584,
    "Ġmalignity": 10558,
    "Ġconsist": 1933,
    "Ġcontact": 9283,
    "Ġpretensions": 16560,
    "Ġcetace": 14990,
    "Ġdeliberate": 15024,
    "aintance": 3570,
    "relative": 24016,
    "Ġunobstructed": 18262,
    "Ġstrenuously": 17450,
    "Ġsolely": 9912,
    "ilst": 8145,
    "holding": 7740,
    "Ġwithheld": 18117,
    "benefit": 24643,
    "Ġaltar": 9230,
    "Ġforbidden": 17078,
    "Ġpattered": 19040,
    "render": 10292,
    "Ġungracious": 18256,
    "sect": 8154,
    "Ġthoroughly": 8349,
    "dogs": 25403,
    "inde": 17732,
    "ifts": 12739,
    "Ġaccompan": 5513,
    "knight": 20942,
    "Ġconjunction": 25103,
    "orously": 8421,
    "Ġham": 3422,
    "Ġdawn": 6817,
    "¿": 128,
    "barbar": 20241,
    "Ġtrifled": 24675,
    "onom": 9160,
    "Ġboyhood": 23757,
    "Ġar": 478,
    "Ġpowdered": 24239,
    "ipotent": 10963,
    "Ġdistinctions": 18536,
    "83": 13683,
    "Ġfreshet": 25704,
    "tons": 7560,
    "Ġsnugly": 17111,
    "illity": 18297,
    "Ġdoubted": 7966,
    "Ġsuccessfully": 19432,
    "reposed": 24491,
    "Ġgri": 17990,
    "spouter": 22740,
    "Ġtied": 7357,
    "itan": 10161,
    "idays": 21775,
    "Ġvon": 14083,
    "Ġentire": 2558,
    "Ġprogress": 5023,
    "Ġnaturally": 2465,
    "blister": 24129,
    "Ġrucastle": 5176,
    "Ġdepressions": 25799,
    "Ġleaps": 14010,
    "Ġopium": 8997,
    "fil": 12466,
    "angels": 22110,
    "Ġpublic": 4333,
    "Ġbestirred": 20454,
    "Ġ1778": 25730,
    "ression": 3406,
    "Ġannoy": 17200,
    "Ġming": 9647,
    "Ġtiger": 11556,
    "Ġthinking": 4033,
    "unts": 12735,
    "cous": 8725,
    "Ġgranted": 22811,
    "itals": 17822,
    "haven": 20914,
    "countless": 24152,
    "Ġinadequate": 17939,
    "Ġparading": 23713,
    "Ġbeer": 10221,
    "Ġisle": 8836,
    "Ġill": 2194,
    "compose": 24036,
    "Ġalso": 1343,
    "Ġhoisting": 9864,
    "Ġboy": 3020,
    "Ġgrain": 15834,
    "Ġfruits": 17120,
    "sax": 21059,
    "wretch": 17709,
    "cab": 7333,
    "chooses": 23676,
    "elves": 2158,
    "aphs": 22340,
    "und": 4088,
    "disposition": 10044,
    "Ġtemptations": 24504,
    "pr": 3178,
    "attending": 18918,
    "Ġperil": 5556,
    "Ġgrammatical": 13541,
    "gossip": 23407,
    "Ġpauper": 26180,
    "Ġsat": 1130,
    "approbation": 11459,
    "Ġconfinement": 19038,
    "Ġsuperglue": 23458,
    "ipper": 13742,
    "never": 3153,
    "loaded": 22517,
    "portent": 25413,
    "appalling": 22850,
    "clothes": 9059,
    "Ġsex": 8845,
    "fred": 20857,
    "Ġ69": 19664,
    "orney": 17875,
    "Ġmember": 8465,
    "Ġscoresby": 10463,
    "regarding": 15074,
    "antage": 3877,
    "Ġferocity": 16872,
    "Ġmis": 916,
    "Ġromantic": 8032,
    "stump": 21657,
    "Ġrevealing": 3923,
    "Ī": 235,
    "Ġprojects": 9513,
    "Ġalluding": 18270,
    "nowadays": 22342,
    "stript": 21661,
    "'": 11,
    "enses": 10996,
    "Ġstep": 751,
    "ĠâĢľ_": 6698,
    "commander": 16988,
    "Ġlover": 7193,
    "conclusions": 25673,
    "Ġyankees": 26203,
    "ippi": 20247,
    "Ġgardeners": 12124,
    "erc": 5907,
    "Ġcaught": 3730,
    "clopÃ¦dia": 15259,
    "Ġtwelvemonth": 12181,
    "Ġ181": 23899,
    "Ġdisorder": 16054,
    "Ġsultanism": 25889,
    "Ġdock": 15933,
    "tha": 15825,
    "Ġcomfortably": 16616,
    "sembled": 7263,
    "dum": 17519,
    "everybody": 8614,
    "fted": 9120,
    "Ġbir": 17855,
    "ned": 3494,
    "Ġreferences": 21678,
    "Ġwhaleman": 4653,
    "hundreds": 25076,
    "lement": 10168,
    "want": 8770,
    "Ġfathers": 16298,
    "Ġdilig": 8351,
    "pul": 8757,
    "Ġfilters": 3927,
    "Ġlieutenant": 15264,
    "Ġ1839": 20463,
    "Ġprofane": 13155,
    "urned": 9308,
    "Ġenvied": 19282,
    "Ġintrepidity": 25551,
    "iamond": 14591,
    "pleas": 3850,
    "Ġeigenvalues": 4998,
    "rously": 17655,
    "Ġrake": 18641,
    "Ġbead": 21755,
    "Ġalready": 2711,
    "ojo": 7349,
    "Ġrestrained": 16375,
    "figure": 13558,
    "Ġembark": 8559,
    "Ġsnail": 19302,
    "Ġthom": 21520,
    "ould": 428,
    "Ġsenior": 17173,
    "Ġfilial": 16621,
    "Ġmaiden": 13389,
    "Ġstrands": 25575,
    "size": 15427,
    "Ġsab": 10763,
    "Ġphilosophers": 10553,
    "iers": 5993,
    "Ġpines": 12621,
    "attacked": 23125,
    "Ġclings": 15966,
    "Ġnearly": 3363,
    "Ġrevelation": 25223,
    "orte": 14186,
    "Ġcorrected": 10449,
    "gown": 9598,
    "hurt": 19880,
    "Ġinsurgents": 26601,
    "Ġsed": 10762,
    "anged": 3588,
    "report": 13402,
    "ok": 572,
    "scotch": 25852,
    "letons": 14613,
    "clair": 18935,
    "Ġleap": 5825,
    "raham": 18016,
    "mblies": 24610,
    "Ġkins": 22199,
    "Ġtreatment": 12075,
    "rue": 1127,
    "Ġlouis": 8358,
    "Ġshared": 10265,
    "Ġassented": 17340,
    "Į": 239,
    "Ġrespons": 2681,
    "Ġlucases": 9012,
    "Ġcomfits": 21857,
    "hauteur": 26392,
    "Ġopt": 782,
    ".âĢĻ": 1719,
    "Ġtakings": 20575,
    "everything": 6326,
    "onings": 21255,
    "Ġmish": 15540,
    "division": 20052,
    "!âĢĶâĢĻ": 23567,
    "empl": 5724,
    "iple": 4806,
    "Ġmonsieur": 12424,
    "impatience": 25501,
    "Ġvices": 14085,
    "pet": 4867,
    "Ġphrenologically": 20397,
    "Ġmccarthy": 5145,
    "Ġdines": 21427,
    "othe": 2614,
    "Ġway": 1086,
    "balanced": 14555,
    "market": 16840,
    "chastic": 2334,
    "bpp": 20774,
    "Ġoffing": 16146,
    "Ġapologized": 25199,
    "Ġsorrowful": 10538,
    "Ġelaborate": 18638,
    "Ġmemorand": 23461,
    "Ġninety": 13604,
    "+": 15,
    "illation": 14143,
    "Ġcordial": 16836,
    "Ġconcentrated": 15086,
    "Ġshocked": 9403,
    "moil": 22709,
    "Ġhid": 1319,
    "Ġ1991": 3014,
    "Ġcontinually": 5042,
    "Ġemaciated": 20641,
    "Ġhearse": 10421,
    "Ġyesterday": 5333,
    "Ġnoblest": 13245,
    "bble": 17486,
    "Ġbelrive": 18832,
    "Ġweapons": 10595,
    "Ġbrag": 23837,
    "flask": 12103,
    "draughts": 20391,
    "Ġprouder": 18975,
    "Ġstaggered": 9541,
    "rudently": 16712,
    "Ġthickest": 16656,
    "Ġfore": 2151,
    "Ġwight": 12557,
    "acey": 7651,
    "Ġswings": 11089,
    "Ġcontained": 7681,
    "darcy": 5208,
    "Ġawfulness": 23589,
    "opened": 7914,
    "Ġwit": 3840,
    "Ġominous": 12427,
    "unched": 10237,
    "Ġstill": 1156,
    "allet": 11084,
    "Ġsignificantly": 4518,
    "Ġrad": 4961,
    "Ġledge": 19404,
    "Ġpatterns": 1215,
    "rises": 17656,
    "lotte": 3332,
    "Ġgrowled": 19286,
    "Ġunusual": 6555,
    "water": 4868,
    "maj": 18805,
    "unken": 10238,
    "Ġextensive": 12945,
    "partly": 14603,
    "Ġinflu": 4909,
    "illuminated": 17455,
    "Ġeste": 6086,
    "irc": 1731,
    "cases": 12451,
    "urpr": 2286,
    "yield": 13811,
    "Ġvoluntary": 14801,
    "Ġtou": 15468,
    "abri": 6684,
    "Ġtrained": 8506,
    "Ġallude": 12784,
    "Ġsprained": 15886,
    "Ġpreserved": 9264,
    "makes": 10712,
    "apt": 724,
    "Ġdigesting": 19812,
    "clings": 23157,
    "Ġsires": 21229,
    "Ġ6": 5141,
    "Ġhung": 4559,
    "Ġcant": 17826,
    "Ġquitting": 7647,
    "Ġlend": 17965,
    "Ġincline": 18571,
    "Ġsome": 656,
    "Ġsympathetic": 17361,
    "Ġunwaning": 24830,
    "Ġinspire": 11998,
    "Ġagain": 815,
    "quality": 10234,
    "Ġexhausting": 24709,
    "Ġjavelins": 26106,
    "Ġfold": 5530,
    "vedale": 22714,
    "Ġisn": 7868,
    "Ġnear": 1718,
    "Ġparalle": 1410,
    "alter": 10827,
    "Ġ95": 19776,
    "anqu": 4112,
    "Ġreg": 732,
    "Ġwol": 15532,
    "Ġunable": 4950,
    "Ġvale": 14084,
    "Ġsuggestions": 24452,
    "test": 13794,
    "Ġdecency": 18490,
    "Ġmonoton": 3636,
    "frequently": 9981,
    "Ġresnet": 5473,
    "est": 496,
    "Ġgriefs": 16772,
    "Ġsmoothe": 23660,
    "..": 5783,
    "bted": 7795,
    "Ġado": 7628,
    "Ġrepute": 18037,
    "Ġcumberland": 21358,
    "Ġoverbearing": 12846,
    "Ġdetest": 8504,
    "Ġhimself": 1352,
    "Ġshop": 9254,
    "Ġgirls": 4281,
    "Ġcreating": 2997,
    "Ġlengths": 19209,
    "Ġrepenting": 25323,
    "Ġmappings": 2146,
    "Ġcrad": 21352,
    "Ġconceited": 12095,
    "Ġshrink": 14806,
    "lessness": 5318,
    "Ġlawyer": 10670,
    "Ġsulky": 13517,
    "anch": 15563,
    "Ġfurs": 18739,
    "¬": 110,
    "Ġweap": 6157,
    "Ġunwarrant": 19936,
    "Ġadaptively": 4169,
    "asmuch": 10196,
    "Ġinquisitive": 26318,
    "Ġfleet": 9434,
    "Ġold": 1057,
    "Ġsuperlative": 26075,
    "ust": 494,
    "ist": 449,
    "Ġgangway": 20161,
    "bert": 4661,
    "doing": 8588,
    "Ġsteepest": 3085,
    "socket": 22731,
    "Ġrelics": 16198,
    "Ġselves": 21225,
    "Ġschol": 17379,
    "oried": 10803,
    "Ġcaptain": 1605,
    "avor": 14281,
    "Ġstreamed": 14546,
    "Ġobstacle": 16956,
    "Ġemotions": 8971,
    "itional": 22468,
    "mockery": 24377,
    "Ġsatisf": 2803,
    "Ġimmovable": 15895,
    "Ġpea": 14319,
    "gments": 12473,
    "Ġbad": 3988,
    "arches": 10817,
    "oles": 21007,
    "Ġseedy": 21967,
    "Ġberths": 20118,
    "Ġmental": 21322,
    "oh": 1580,
    "favourite": 15146,
    "Ġmaintained": 12938,
    "Ġdivine": 6921,
    "Ġkick": 5838,
    "ol": 362,
    "Ġpoetic": 17103,
    "Ġcentrally": 23835,
    "Ġegyptians": 25290,
    "Ġcarpet": 9358,
    "Ă": 195,
    "Ġspermaceti": 8969,
    "aloes": 21506,
    "Ġearls": 18905,
    "eches": 8079,
    "Ġplant": 8902,
    "Ġvanishing": 1345,
    "Ġunintelligible": 26515,
    "ods": 8838,
    "mortar": 25409,
    "immense": 18055,
    "Ġhypocr": 19475,
    "Ġbethink": 12382,
    "Ġdepart": 4655,
    "cross": 3576,
    "Ġlosing": 10917,
    "Ġtents": 13820,
    "nder": 20989,
    "Ġindisp": 18835,
    "Ġhanding": 16133,
    "¢": 100,
    "Ġsoph": 1638,
    "bourne": 19104,
    "Ġlanterns": 24577,
    "Ġfanciful": 24787,
    "Ġbreathlessly": 24282,
    "movable": 14326,
    "Ġarist": 14161,
    "Ġcongregated": 20100,
    "Ġproduces": 2093,
    "Ġcivilized": 8668,
    "consum": 12874,
    "unnecessary": 21885,
    "Ġpresto": 22235,
    "Ġlanguage": 646,
    "evenings": 19466,
    "Ġconsistent": 14529,
    "Ġtarts": 10754,
    "Ġthigh": 10188,
    "irements": 22217,
    "Ġbrack": 23839,
    "Ġfest": 10805,
    "Ġunrestrained": 25555,
    "dut": 10089,
    "Ġdetermined": 2222,
    "saf": 11526,
    "Ġu": 324,
    "ira": 3959,
    "Ġmournful": 12339,
    "Ġnurtured": 19752,
    "waiting": 12224,
    "Ġinexper": 16981,
    "Ġrefusing": 11030,
    "entirely": 7783,
    "distressed": 24201,
    "Ġunspeak": 8853,
    "br": 2476,
    "Ġthereby": 7645,
    "Ġpredefined": 20719,
    "say": 3985,
    "Ġtinted": 13824,
    "Ġsoul": 2724,
    "endom": 15926,
    "resentment": 15188,
    "Ġwarmed": 12026,
    "Ġinfle": 16365,
    "Ġhorror": 3771,
    "Ġfinite": 2324,
    "Ġcurls": 22988,
    "portuguese": 25414,
    "philosophers": 25253,
    "call": 8726,
    "ship": 1393,
    "@": 36,
    "Ġdummy": 25450,
    "Ġow": 8410,
    "breckinridge": 24077,
    "Ġelapsed": 7654,
    "_;": 6643,
    "Ġdepend": 780,
    "Ġ1869": 19387,
    "Ġascertaining": 17205,
    "enge": 21283,
    "bast": 10079,
    "dec": 3112,
    "Ġtemple": 7655,
    "ref": 6516,
    "Ġrelationship": 2314,
    "Ġrefresh": 10348,
    "station": 10845,
    "Ġremarkably": 7704,
    "ercial": 21277,
    "press": 1732,
    "Ġconvenience": 11332,
    "trivial": 21095,
    "etus": 21582,
    "87": 20759,
    "Ġhalf": 1671,
    "that": 850,
    "fierce": 25256,
    "Ġlivers": 18462,
    "Ġgpus": 3732,
    "umberland": 16838,
    "sensible": 20055,
    "Ġmutiny": 13263,
    "Ġfaintest": 24569,
    "Ġtophet": 23575,
    "scy": 21058,
    "Ġlaughing": 5339,
    "Ġencounters": 19583,
    "Ġelsewhere": 7714,
    "exp": 2735,
    "beef": 18524,
    "Ġsand": 6237,
    "accurately": 25862,
    "Ġpaltry": 16692,
    "constable": 24607,
    "Ġhams": 16613,
    "Ġbeque": 18083,
    "vent": 684,
    "obtain": 23097,
    "oved": 5215,
    "Ġtapping": 10753,
    "Ġunsav": 18249,
    "ib": 1235,
    "ily": 1031,
    "inished": 17735,
    "Ġpassers": 18759,
    "Ġfeature": 761,
    "Ġpoised": 22595,
    "consult": 24171,
    "Ġsmote": 18576,
    "wall": 10138,
    "Ġridiculous": 10631,
    "Ġtissu": 25921,
    "actor": 11841,
    "Ġdeception": 18142,
    "Ġbaked": 21389,
    "sombre": 23857,
    "Ġtand": 21163,
    "Ġpasture": 14543,
    "daughters": 13469,
    "thr": 12764,
    "ories": 4753,
    "formal": 14172,
    "âĢĶ(": 15941,
    "Ġabundance": 17157,
    "Ġrage": 5110,
    "pall": 17629,
    "Ġbanners": 24859,
    "hy": 4740,
    "Ġcommentaries": 20163,
    "archical": 1926,
    "Ġtelescopes": 25689,
    "yra": 8104,
    "pardonable": 17219,
    "Ġfootman": 8289,
    "Ġloathsome": 13530,
    "Ġdiscrimination": 23607,
    "Ġimprisonment": 22394,
    "?âĢĻ": 2640,
    "Ġrecre": 22733,
    "Ġremorselessly": 16968,
    "rever": 21238,
    "Ġjar": 15953,
    "Ġcling": 11774,
    "Ġblasted": 7939,
    "Ġcommissionaire": 17001,
    "quimaux": 21864,
    "ouement": 21452,
    "Ġvagu": 13592,
    "Ġunfathom": 14792,
    "peculiar": 6886,
    "Ġlatter": 3990,
    "onomy": 12551,
    "caps": 20809,
    "ect": 381,
    "comparatively": 25841,
    "Ġgateway": 24799,
    "Ġmultitudinous": 26275,
    "sailing": 14716,
    "Ġpointing": 5661,
    "Ġmasses": 10505,
    "chron": 21698,
    "names": 16530,
    "hab": 1077,
    "ract": 1004,
    "description": 11095,
    "Ġhousemaid": 14467,
    "Ġposterity": 17404,
    "Ġwind": 1436,
    "Ġshriek": 6640,
    "inexplicable": 25811,
    "algorithms": 8302,
    "Ġimmut": 13301,
    "iciously": 17976,
    "Ġwrists": 11114,
    "Ġeverlasting": 9339,
    "Ġbrief": 6977,
    "Ġfounded": 8561,
    "mason": 17603,
    "Ġsundial": 15085,
    "Ġgills": 17995,
    "Ġleadenhall": 16630,
    "Ġgracious": 8850,
    "Ġnursing": 12218,
    "Ġsugg": 4499,
    "Ġabruptness": 25300,
    "games": 20882,
    "acher": 6867,
    "bergen": 14341,
    "Ġneglected": 10379,
    "Ġpaws": 13923,
    "!âĢĻ": 3333,
    "Ġbeamed": 23724,
    "Ġploughing": 26261,
    "Ġmortal": 4681,
    "fl": 3600,
    "utely": 8133,
    "13": 20752,
    "Ġfree": 3375,
    "Ġpoets": 11824,
    "Ġworried": 22930,
    "Ġdedicated": 19204,
    "Ġouthouse": 22319,
    "Ġapartments": 19617,
    "Ġhumility": 12988,
    "imately": 12692,
    "Ġundo": 15843,
    "Ġuninjured": 22059,
    "nearest": 16028,
    "wer": 8397,
    "Ġprodig": 6030,
    "Ġcomprehended": 11295,
    "Ġhenceforth": 19645,
    "Ġpossesses": 19355,
    "Ġreliance": 14387,
    "Ġhes": 6252,
    "_)": 9104,
    "Ġunparalleled": 15856,
    "Ġrecovery": 11442,
    "Ġlo": 453,
    "Ġmoodily": 19837,
    "Ġcharacteristically": 23694,
    "often": 6167,
    "Ġviolet": 19089,
    "oftentimes": 19424,
    "usoid": 4767,
    "Ġones": 3018,
    "augh": 1781,
    "Ġincognit": 22560,
    "ind": 567,
    "Ġdinn": 23984,
    "Ġgrie": 3584,
    "unavoid": 14064,
    "Ġfrantically": 23261,
    "Ġspouter": 12802,
    "usage": 12837,
    "Ġbohem": 8529,
    "el": 306,
    "Ġcarve": 23096,
    "Ġlingo": 24904,
    "Ġcoal": 18593,
    "vings": 9753,
    "Ġvital": 9245,
    "loops": 12887,
    "Ġorders": 5341,
    "Ġdeserved": 7738,
    "Ġstrateg": 1366,
    "sheets": 14444,
    "Ġequ": 1736,
    "Ġhun": 1499,
    "Ġtahitian": 25428,
    "erson": 7003,
    "beth": 13691,
    "Ġempt": 5051,
    "ows": 1918,
    "Ġinsatiate": 19272,
    "fugitive": 26132,
    "Ġgaz": 4045,
    "Ġfaults": 12216,
    "gee": 15980,
    "Ġbos": 4875,
    "gaz": 20880,
    "Ġestimation": 11219,
    "cement": 2899,
    "lever": 2930,
    "Ġonset": 12714,
    "Ġnigh": 4878,
    "arboard": 7266,
    "canoes": 16233,
    "reckoning": 25271,
    "kicked": 20945,
    "Ġmelting": 24289,
    "Ġnoticing": 18225,
    "Ġmystic": 7504,
    "twelvemonth": 25863,
    "secure": 12239,
    "Ġacre": 22685,
    "hither": 11494,
    "Ġsuperhuman": 23454,
    "Ġtigers": 25759,
    "Ġsurvivor": 17365,
    "descend": 23089,
    "Â·": 21152,
    "Ġharpooneers": 4732,
    "Ġvessel": 3798,
    "cock": 12028,
    "Ġmail": 17802,
    "then": 2054,
    "vely": 3865,
    "Ġdistingu": 2513,
    "Ġtuples": 13480,
    "Ġfirmament": 19474,
    "lock": 1473,
    "Ġrear": 6537,
    "ange": 1019,
    "Ġransacked": 26505,
    "ike": 5000,
    "Ġavowed": 16635,
    "Ġmedical": 9472,
    "Ġprobable": 5569,
    "Ġproximity": 3222,
    "Ġtolerable": 6949,
    "Ġgod": 1935,
    "Ġlace": 13951,
    "Ġfamil": 4321,
    "wretched": 10742,
    "kitty": 10107,
    "jerked": 25619,
    "Ġpunishment": 9958,
    "Ġribbons": 24324,
    "acknowledge": 18469,
    "Ġplace": 1655,
    "Ġundeviating": 15220,
    "Ġagrippa": 11810,
    "Ġdanger": 3521,
    "osc": 18388,
    "blunder": 24131,
    "Ġfelix": 4849,
    "sold": 15428,
    "Ġgar": 10839,
    "houn": 20895,
    "Ġincreased": 2212,
    "Ġhide": 4588,
    "inkling": 16092,
    "land": 1532,
    "Ġminers": 22835,
    "Ġpleasure": 2693,
    "osa": 22265,
    "Ġsuff": 1304,
    "Ġpoignant": 22598,
    "Ġshares": 23249,
    "Ġerud": 20058,
    "steak": 14710,
    "Ġtablet": 19208,
    "load": 12885,
    "bit": 3932,
    "context": 3405,
    "rossing": 18649,
    "Ġperplexity": 2752,
    "Ġtube": 15004,
    "madly": 24419,
    "Ġpolicy": 10458,
    "Ġscaffold": 18401,
    "spades": 14337,
    "ode": 1456,
    "Ġprovides": 1929,
    "bar": 7542,
    "taffrail": 15444,
    "Ġmonarchs": 25851,
    "Ġshan": 9251,
    "Ġremnants": 22797,
    "Ġuncontrollable": 25815,
    "girdling": 26390,
    "Ġdisabled": 18562,
    "Ġunallied": 22035,
    "ivable": 10911,
    "Ġdiabolical": 20345,
    "Ġcond": 3873,
    "Ġnorth": 4320,
    "Ġnodded": 11972,
    "Ġsimplicity": 2922,
    "Ġextent": 7657,
    "way": 763,
    "Ġboasted": 16109,
    "Ġfalsehood": 10525,
    "Ġadjusting": 3414,
    "Ġpant": 10818,
    "onet": 12549,
    "Ġfanny": 23394,
    "solving": 3098,
    "Ġquench": 22424,
    "prow": 15413,
    "Ġdays": 2078,
    "Ġadd": 630,
    "Ġcirculation": 16419,
    "ological": 1883,
    "Ġomn": 8412,
    "Ġcont": 618,
    "Ġnaturalists": 10366,
    "Ġingratitude": 17470,
    "Ġstayed": 7999,
    "--------": 14785,
    "Ġwilfully": 16767,
    "Ġtyros": 26102,
    "Ġhammer": 6096,
    "Ġdimmed": 24269,
    "Ġcrushing": 20179,
    "Ġhears": 8140,
    "spade": 10342,
    "Ġluck": 4880,
    "insist": 23068,
    "Ġinexperience": 26100,
    "Ġfurious": 10355,
    "Ġprodu": 1205,
    "umpled": 15879,
    "warn": 11544,
    "Ġoutrid": 22320,
    "Ġfront": 3452,
    "Ġdangling": 17176,
    "Ġly": 2267,
    "Ġbills": 17862,
    "notice": 16151,
    "goes": 10427,
    "ospit": 22268,
    "ief": 2047,
    "Ġothers": 2581,
    "Ġincompetent": 25680,
    "fer": 1974,
    "Ġskirts": 14354,
    "asked": 8914,
    "Ġmain": 811,
    "Ġsingle": 1693,
    "Ġdisgusting": 19896,
    "Ġtapers": 11553,
    "ignorantly": 25190,
    "Ġblacksmith": 6597,
    "weeks": 14318,
    "Ġcombine": 4416,
    "Ġvows": 15811,
    "convalescence": 24885,
    "Ġdevout": 14328,
    "Ġsavory": 23879,
    "ank": 1367,
    "rob": 5533,
    "Ġexperiences": 13034,
    "icide": 11620,
    "Ġfastened": 7067,
    "elve": 4640,
    "guard": 12132,
    "Ġdanes": 25160,
    "Ġcoppers": 22588,
    "Ġgasp": 7173,
    "Ġconfid": 7689,
    "odious": 21815,
    "Ġtitle": 11409,
    "useless": 14595,
    "Ġtrough": 15978,
    "esting": 7412,
    "ingle": 1039,
    "Ġrelevant": 1863,
    "heading": 5487,
    "Ġhagger": 21495,
    "Ġwards": 17791,
    "Ġconsol": 3814,
    "Ġsurmount": 20004,
    "Ġoutset": 15958,
    "Ġnut": 12650,
    "Ġcruisings": 25865,
    "dock": 16421,
    "Ġinferences": 17937,
    "Ġscot": 5643,
    "Ġlimped": 19183,
    "arming": 8953,
    "Ġsus": 18278,
    "Ġsped": 22130,
    "Ġformidable": 8221,
    "turkish": 24532,
    "Ġrobe": 18459,
    "tacit": 21101,
    "Ġoblig": 3446,
    "Ġstarve": 24627,
    "Ġscuff": 15945,
    "web": 18665,
    "Ġbrightened": 23832,
    "Ġmurdered": 6465,
    "rally": 17652,
    "Ġdivide": 12114,
    "Ġmarry": 4418,
    "Ġrepul": 16411,
    "Ġsalmon": 24066,
    "Ġjudgment": 5765,
    "clump": 23160,
    "Ġded": 2477,
    "Ġtroops": 24899,
    "Ġmight": 967,
    "Ġawed": 23587,
    "Ġleech": 24157,
    "Ġencapsulate": 13677,
    "lodged": 25908,
    "prev": 12870,
    "andy": 8159,
    "Ġoutfits": 22326,
    "resting": 23240,
    "Ġburglar": 17356,
    "prosperity": 20737,
    "Ġson": 2983,
    "Ġmeridians": 17357,
    "globe": 25145,
    "Ġobser": 2071,
    "rew": 3648,
    "Ġdefiance": 11069,
    "Ġcanoes": 12811,
    "counter": 20281,
    "Ġchased": 8864,
    "Ġtack": 5620,
    "Ġneighbour": 3807,
    "Ġquestioned": 14620,
    "Ġwishes": 4795,
    "Ġpra": 4347,
    "Ġunaccountable": 7888,
    "Ġinquis": 19306,
    "Ġfurrow": 22817,
    "Ġconductor": 24010,
    "Ę": 217,
    "Ġirregularly": 25324,
    "Ġredeemed": 25790,
    "Ġvectors": 1770,
    "Ġdeduction": 14901,
    "Ġendure": 5958,
    "þ": 191,
    "elastic": 17983,
    "Ġsilent": 3412,
    "Ġmistaken": 4986,
    "Ġknob": 24406,
    "Ġstumbling": 21747,
    "Ġwon": 1667,
    "Ġescapes": 23511,
    "Ġgigantic": 5917,
    "Ġpierced": 12285,
    "Ġeveryone": 8920,
    "brary": 5755,
    "Ġempty": 5354,
    "religion": 20578,
    "Ġwomanly": 23553,
    "untary": 9869,
    "Ġcovered": 5171,
    "Ġcatching": 9480,
    "imson": 12693,
    "Ġglen": 18847,
    "mighty": 9468,
    "Ġjustly": 11907,
    "Ġbracing": 16582,
    "Ġcubic": 20091,
    "justified": 19004,
    "Ġrecogn": 2595,
    "Ġdisgracing": 26257,
    "Ġrece": 11640,
    "ā": 194,
    "aggo": 5097,
    "prevent": 11798,
    "Ġcrescent": 16139,
    "lean": 21368,
    "face": 3676,
    "Ġcorrection": 5062,
    "Ġsculpture": 26017,
    "actions": 8909,
    "Ġamid": 4958,
    "Ġcrimes": 8591,
    "Ġknives": 14839,
    "Ġmiser": 18702,
    "Ġhandles": 22701,
    "returning": 12209,
    "Ġapparent": 5466,
    "Ġsuperb": 16443,
    "ably": 1847,
    "Ġtepid": 26413,
    "drugg": 20840,
    "Ġpirates": 9075,
    "Ġrattling": 11396,
    "fright": 9597,
    "Ġunguarded": 15853,
    "Ġaudacious": 13463,
    "can": 1232,
    "uend": 21104,
    "Ġpettiness": 24231,
    "quickness": 19853,
    "onden": 13846,
    "Ġced": 10785,
    "Ġparacelsus": 15269,
    "Ġhealthcare": 8017,
    "gives": 15360,
    "Ġsix": 3042,
    "prep": 9761,
    "Ġsupplying": 19801,
    "Ġpitching": 16612,
    "Ġjudges": 14686,
    "read": 3277,
    "Ġexig": 21831,
    "Ġgrazed": 15836,
    "ich": 469,
    "ogue": 9784,
    "Ġrob": 1290,
    "Ġstraightened": 12112,
    "Ġrot": 10968,
    "Ġ130": 24780,
    "Ġmale": 9650,
    "preading": 18498,
    "drunk": 24660,
    "Ġsurely": 6309,
    "Ġseer": 21964,
    "sue": 2077,
    "extending": 22759,
    "bedded": 12446,
    "Ġgaily": 16749,
    "Ġcosmopol": 16454,
    "ocity": 8279,
    "Ġflashing": 13032,
    "Ġmonosyllable": 20728,
    "pivot": 21033,
    "sat": 4810,
    "resolution": 17767,
    "ailed": 3248,
    "Ġjack": 4651,
    "icest": 21568,
    "yder": 10140,
    "Ġq": 1085,
    "mmet": 10989,
    "wouldn": 23538,
    "Ġexhib": 6351,
    "Ġreports": 19084,
    "Ġextreme": 2514,
    "Ġfidelity": 15244,
    "stee": 21655,
    "none": 6962,
    "Ġunfitted": 24110,
    "Ġtick": 8110,
    "dist": 4480,
    "Ġankles": 17901,
    "swift": 14854,
    "seam": 10875,
    "Ġmould": 6520,
    "Ġpope": 11604,
    "Ġunscrew": 22043,
    "surely": 10571,
    "reputation": 15517,
    "opposition": 24820,
    "Ġleaf": 15726,
    "03": 20750,
    "Ġcoquet": 22587,
    "Ġtraged": 9354,
    "Ġconse": 21809,
    "Ġsounds": 5190,
    "forest": 22523,
    "Ġbulkhead": 24507,
    "Ġensu": 7877,
    "Ġrobert": 10971,
    "luyt": 18455,
    "does": 6196,
    "bedroom": 14700,
    "Ġjacobians": 2889,
    "Ġparadise": 11196,
    "Ġ92": 24592,
    "Ġaffect": 1387,
    "Ġunhappily": 18260,
    "Ġcarried": 3692,
    "yourselves": 24961,
    "permission": 15906,
    "dden": 1803,
    "flo": 6116,
    "Ġbennets": 9808,
    "Ġscalable": 1599,
    "Ġhorn": 6187,
    "Ġprecautions": 23729,
    "Ġleading": 7297,
    "Ġtows": 19565,
    "Ġigniting": 25073,
    "Ġperilously": 24503,
    "ky": 4519,
    "hunting": 24384,
    "Ġearning": 23944,
    "Ġimpartial": 15222,
    "Ġrevolving": 9985,
    "sav": 8098,
    "pyramid": 21032,
    "Ġendued": 14079,
    "Ġcontented": 9758,
    "latin": 25259,
    "Ġdoctors": 12155,
    "irresist": 21917,
    "Ġcavity": 20491,
    "Ġwitnessed": 14846,
    "fra": 8376,
    "lives": 12489,
    "Ġ36": 14769,
    "animal": 16979,
    "hist": 7132,
    "Ġ98": 24595,
    "explained": 23150,
    "Ġinterpretation": 19719,
    "Ġlagged": 21562,
    "Ġstro": 4594,
    "Ġmottled": 20681,
    "toss": 22572,
    "Ġdarkened": 16434,
    "master": 5687,
    "Ġthroats": 24575,
    "Ġeffected": 14355,
    "Ġdivin": 13277,
    "Ġfury": 7663,
    "by": 1158,
    "Ġtemptation": 8681,
    "meet": 11859,
    "aust": 15312,
    "Ġclerval": 4652,
    "Ġpe": 851,
    "izzy": 3093,
    "Ġinvol": 1049,
    "pressing": 19014,
    "Ġunconquerable": 22066,
    "Ġtinged": 20086,
    "Ġconsecrate": 26490,
    "eur": 7546,
    "Ġmist": 2872,
    "peaceful": 20450,
    "glancing": 11215,
    "Ġwinter": 5220,
    "instruct": 19545,
    "Ġsits": 10769,
    "Ġsurging": 19135,
    "damp": 15346,
    "Ġdais": 24371,
    "denial": 18718,
    "Ġvolume": 6770,
    "Ġlamps": 14794,
    "Ġmathematical": 3351,
    "Ġcruis": 14624,
    "Ġeigen": 4881,
    "Ġyielding": 12190,
    "clad": 14462,
    "spass": 18689,
    "idean": 14267,
    "Ġcheerily": 13311,
    "Ġpossess": 3206,
    "ocratic": 17246,
    "Ġstript": 23697,
    "ford": 2818,
    "Ġconcre": 16389,
    "startled": 24944,
    "jep": 20928,
    "blooded": 20026,
    "stall": 21650,
    "Ġlaughed": 5059,
    "Ġtufted": 17015,
    "Ġloops": 8855,
    "entieth": 17981,
    "Ġsends": 14793,
    "Ġloudly": 7312,
    "Ġnarrowly": 16821,
    "Ġmaj": 3925,
    "pain": 7350,
    "Ġjago": 22304,
    "Ġdismast": 12892,
    "pse": 21011,
    "dest": 4105,
    "Ġvishnoo": 12757,
    "Ġbirds": 5875,
    "covering": 15336,
    "Ġrattled": 15071,
    "Ġtimely": 19597,
    "Ġsubmit": 11873,
    "Ġembedding": 2104,
    "Ġparallelization": 3432,
    "tempestuous": 26098,
    "complied": 19915,
    "Ġdeer": 12724,
    "Ġbelieved": 4368,
    "Ġscar": 3215,
    "shall": 4549,
    "Đ": 209,
    "Ġgouldings": 26189,
    "clock": 3933,
    "earth": 6503,
    "Ġcomparatively": 9492,
    "composed": 14742,
    "uine": 13801,
    "«": 109,
    "omical": 9682,
    "painting": 17046,
    "Ġcautious": 12257,
    "elements": 25204,
    "Ġassigned": 16314,
    "Ġappeal": 16317,
    "distinct": 13339,
    "impetuous": 23765,
    "Ġthan": 736,
    "Ġspoon": 22139,
    "||": 4869,
    "Ġpyramids": 15117,
    "Ġ26": 10471,
    "Ġswe": 2288,
    "monkey": 19172,
    "trick": 19416,
    "filled": 9596,
    "oir": 21004,
    "Ġpilgrimage": 17310,
    "Ġeu": 6391,
    "christ": 10212,
    "Ġappears": 5402,
    "ourage": 2450,
    "Ġsort": 1510,
    "Ġdoze": 14176,
    "Ġleaders": 16629,
    "Ġloungers": 24863,
    "Ġpleasurable": 23342,
    ",": 16,
    "idol": 21771,
    "Ġunfulfilled": 26510,
    "Ġwidely": 8034,
    "brevi": 24076,
    "Ġmulti": 1044,
    "Ġserm": 9635,
    "Ġearnestly": 5981,
    "Ġinstructed": 19287,
    "Ġhazarded": 25655,
    "âĢĶâĢĶâĢĿ": 15942,
    "hing": 978,
    "Ġdescrib": 2717,
    "happen": 19333,
    "Ġpressed": 6044,
    "Ġbildad": 3780,
    "Ġshuddered": 11301,
    "Ġscrews": 25178,
    "Ġtenderness": 12219,
    "Ġtowns": 11174,
    "inese": 12880,
    "Ġanyone": 4459,
    "Ġapolog": 9045,
    "Ġspeedily": 7713,
    "uling": 2256,
    "french": 9121,
    "Ġseasoned": 24404,
    "Ġappre": 5165,
    "changed": 7176,
    "Ġnormalizes": 1862,
    "Ġleague": 6540,
    "Ġindulge": 10584,
    "Ġinboard": 17935,
    "Ġmomentarily": 22815,
    "ports": 13776,
    "Ġyarman": 12709,
    "Ġxxiv": 24476,
    "Ġgret": 21605,
    "Ġprecision": 13192,
    "improve": 15715,
    "Ġschoolmasters": 19723,
    "Ġprejudices": 13472,
    "Ġcivil": 4678,
    "accompanied": 12425,
    "Ġadrift": 11725,
    "Ġshrouds": 11345,
    "plac": 15819,
    "Ġhideous": 5985,
    "Ġgilder": 21617,
    "Ġbapt": 13898,
    "Ġmuff": 8115,
    "A": 37,
    "Ġenvironment": 3860,
    "Ġviolence": 5965,
    "Ġfootfalls": 25867,
    "Ġrelish": 14386,
    "Ġrounded": 14441,
    "Ġhil": 10822,
    "Ġerect": 6145,
    "Ġedward": 19153,
    "Ġidentifies": 12017,
    "usually": 10287,
    "Ġcovers": 18594,
    "Ġproduced": 2451,
    "decoder": 3644,
    "runs": 25416,
    "?âĢĶ": 3470,
    "Ġdisown": 22529,
    "Ġmouldy": 14976,
    "Ġaffords": 16735,
    "Ġproduce": 4367,
    "Ġtemperature": 1003,
    "orters": 21404,
    "Ġexult": 10231,
    "Ġsubsequent": 7661,
    "Ġtawn": 13825,
    "Ġcharitable": 23272,
    "Ġtended": 21169,
    "ented": 4349,
    "theories": 18081,
    "Ġguise": 14434,
    "Ġstrives": 23698,
    "harm": 13737,
    "Ġdissip": 10993,
    "wat": 6233,
    "Ġheadland": 22902,
    "Ġfry": 17881,
    "Ġploughed": 22612,
    "waters": 11334,
    "Ġcheating": 16369,
    "Ġbland": 11065,
    "taining": 7205,
    "sharks": 14239,
    "Ġmagnificence": 20635,
    "Ġlanding": 11987,
    "Ġdevoid": 18681,
    "Ġintervals": 5597,
    "fes": 20853,
    "Ġtorrid": 25035,
    "avern": 24791,
    "Ġobstin": 14955,
    "fingers": 17372,
    "assin": 22309,
    "Ġbr": 1071,
    "Ġrespects": 7269,
    "ulgent": 18152,
    "Ġheroic": 14910,
    "aired": 8370,
    "Ġ[": 6968,
    "delay": 16696,
    "hotel": 20053,
    "Ġ>": 21154,
    "Ġeels": 21624,
    "Ġbible": 9321,
    "Ġphilist": 16602,
    "strikes": 24671,
    "wheel": 22873,
    "Ġunconscious": 9549,
    "Ġchapters": 10474,
    "eldom": 4414,
    "Ġresumed": 11815,
    "Ġtakes": 5007,
    "analysis": 26174,
    "awned": 19463,
    "Ġpertaining": 18452,
    "Ġuniversity": 13125,
    "promontory": 24727,
    "Ġaccount": 2320,
    "occasion": 7755,
    "Ġ200": 19298,
    "Ġeasterly": 25963,
    "Ġunder": 1637,
    "mbly": 9789,
    "Ġcontemplate": 19894,
    "Ġcate": 4111,
    "Ġmystery": 5509,
    "Ġsembl": 19059,
    "Ġguilt": 6181,
    "fisher": 7548,
    "Ġperuvian": 18454,
    "frau": 15092,
    "share": 14236,
    "greenland": 10023,
    "bouton": 17503,
    "Ġstiggs": 25793,
    "Ġmoot": 22435,
    "Ġjudiciously": 23881,
    "Ġmilan": 19538,
    "į": 240,
    "ctors": 21594,
    "oran": 8792,
    "Ġembarr": 7446,
    "between": 5071,
    "rin": 10123,
    "Ġgerman": 6143,
    "lect": 1223,
    "Ġexpressive": 8984,
    "Ġhusbands": 16644,
    "Ġrhone": 25231,
    "stayed": 25291,
    "Ġimaginative": 19249,
    "Ġalone": 2565,
    "Ġv": 399,
    "Ġunfinished": 19512,
    "tot": 10729,
    "unhes": 21880,
    "commission": 22827,
    "Ġoffspring": 16148,
    "Ġslaughter": 20732,
    "Ġanat": 8125,
    "Ġperchance": 15994,
    "intelligent": 16845,
    "Ġleft": 1760,
    "Ġcrawl": 11376,
    "Ġruled": 22790,
    "Ġmusk": 7495,
    "Ġmorrow": 9344,
    "prepare": 20215,
    "Ġslates": 11108,
    "Ġnobleman": 19395,
    "distinguished": 10528,
    "Ġsupple": 23003,
    "Ġ150": 22830,
    "Ġdistrustful": 25057,
    "Ġsl": 1500,
    "Ġjapanese": 10635,
    "Ġchag": 15934,
    "Ġmot": 2985,
    "Ġxliv": 23411,
    "Ġcarbuncle": 14447,
    "Ġget": 1624,
    "Ġblending": 14402,
    "Ġanomalously": 25639,
    "Ġvicinity": 7315,
    "Ġrepeat": 8001,
    "Ġhilariously": 25451,
    "Ġglided": 7447,
    "Ġwatches": 11082,
    "je": 11497,
    "Ġengravings": 15070,
    "divers": 15345,
    "wreat": 21130,
    "Ġsymb": 2590,
    "Ġjudge": 5502,
    "Ġuniverse": 14125,
    "Ġsolicited": 20040,
    "told": 7812,
    "occupation": 15060,
    "Ġmoisture": 12362,
    "windibank": 24163,
    "supervised": 1861,
    "ruin": 22185,
    "oused": 6558,
    "rised": 10125,
    "Ġintelligences": 12835,
    "Ġcedars": 20295,
    "Ġomit": 17817,
    "undant": 14789,
    "Ġtart": 12532,
    "Ġsomnambul": 26577,
    "gloom": 17141,
    "itions": 4150,
    "treacle": 25151,
    "Ġcurved": 18853,
    "Ġwaiting": 4324,
    "wantonly": 25153,
    "Ġblow": 3374,
    "Ġsallies": 21232,
    "Ġpubl": 3941,
    "Ġreplied": 2263,
    "iqu": 7804,
    "Ġyield": 5093,
    "Ġmeaning": 1416,
    "Ġpunctilious": 26355,
    "Ġsurest": 19056,
    "Ġman": 544,
    "Ġlearnable": 3996,
    "Ġenlar": 15803,
    "til": 17672,
    "Ġflung": 8566,
    "manif": 14375,
    "rubbed": 22189,
    "natural": 2201,
    "Ġpeg": 22693,
    "ignation": 11129,
    "Ġforswe": 21779,
    "pig": 8756,
    "Ġdevoted": 6575,
    "Ġskil": 14353,
    "Ġuncle": 3195,
    "mountain": 10714,
    "full": 7420,
    "Ġtemporal": 2612,
    "Ġqueen": 3216,
    "ide": 720,
    "Ġinsists": 23681,
    "Ġyoun": 1408,
    "Ġmagnetic": 17242,
    "concl": 12873,
    "Ġspace": 1505,
    "Ġmole": 11794,
    "attering": 7417,
    "Ġwounded": 8661,
    "octial": 20008,
    "cost": 19189,
    "Ġoverheard": 11777,
    "Ġgave": 2218,
    "Ġtrunk": 7206,
    "ap": 546,
    "afford": 14655,
    "Ġsufficiently": 8975,
    "Ġcabin": 3303,
    "Ġconversed": 13191,
    "Ġlest": 6396,
    "Ġsuited": 12789,
    "Ġindia": 10372,
    "Ġfarewell": 9522,
    "Ġthis": 382,
    "iosity": 2374,
    "Ġpatentee": 25587,
    "Ġa": 263,
    "Ġhumaneval": 25583,
    "Ġfatality": 12099,
    "Ġscramble": 24578,
    "Ġmurderous": 8317,
    "nothing": 3155,
    "Ġinsolence": 20256,
    "accountable": 7111,
    "Ġ23": 13195,
    "Ġhunts": 23163,
    "ature": 522,
    "Ġlandsman": 11351,
    "Ġdit": 21424,
    "Ġvib": 8166,
    "Ġofficious": 19351,
    "quently": 9704,
    "squall": 13524,
    "Ġ\"": 6121,
    "hester": 9633,
    "hunt": 20905,
    "Ġfunction": 590,
    "americans": 25045,
    "love": 9296,
    "Ġbru": 13897,
    "Ġinstruct": 2860,
    "hunters": 16834,
    "Ġtending": 17725,
    "Ġitem": 12705,
    "range": 3496,
    "Ġvain": 3629,
    "uff": 2729,
    "ively": 1288,
    "Ġblanched": 26284,
    "remember": 7262,
    "lac": 17590,
    "Ġlong": 797,
    "Ġcoach": 6868,
    "Ġdon": 1615,
    "Ġdum": 10812,
    "kine": 15378,
    "Ġmockery": 12111,
    "Ġpend": 15609,
    "racted": 4776,
    "Ġwords": 1324,
    "Ġseptember": 18208,
    "Ġhorrible": 4905,
    "iver": 2050,
    "shipmates": 11931,
    "ource": 5243,
    "Ġexamples": 2604,
    "Ġcomputes": 4768,
    "Ġabused": 22274,
    "anyone": 16594,
    "described": 18897,
    "Ġsomewhere": 5384,
    "lesson": 22776,
    "Ġmorocco": 26574,
    "wander": 17710,
    "Ġreligions": 20111,
    "Ġplayfulness": 23642,
    "Ġrecords": 12199,
    "Ġstrolled": 16771,
    "Ġmoonshine": 19600,
    "elaborate": 21580,
    "book": 4668,
    "Ġverdure": 10614,
    "Ġsuccor": 25663,
    "Ġpatched": 16385,
    "eyes": 5684,
    "Ķ": 247,
    "Ġchooses": 13350,
    "Ġthenceforth": 25183,
    "Ġsorry": 4213,
    "wife": 8102,
    "hammer": 14490,
    "dramatic": 19388,
    "Ġniece": 5712,
    "ov": 15402,
    "Ġwhip": 8453,
    "elled": 3993,
    "Ġra": 805,
    "ready": 2360,
    "Ġthrow": 3782,
    "Ġendeavoured": 4918,
    "Ġcreative": 9833,
    "ose": 717,
    "leaning": 10791,
    "Ġdeposed": 16086,
    "Ġstrand": 11831,
    "Ġrussian": 14352,
    "Ġsponge": 26004,
    "Ġgrateful": 7662,
    "%": 9,
    "Ġ106": 24413,
    "Ġshattered": 7886,
    "Ġpia": 21468,
    "ardy": 22161,
    "Ġmeta": 3413,
    "Ġhood": 10824,
    "Ġprying": 15612,
    "Ġinsight": 16532,
    "er": 269,
    "Ġdenominated": 15231,
    "embers": 21932,
    "Ġstrangeness": 16705,
    "Ġmichaelmas": 26376,
    "Ġforgiven": 24030,
    "lascar": 20962,
    "Ġhermits": 22079,
    "Ġanchored": 17442,
    "ocean": 12404,
    "Ġarchitects": 18731,
    "sigma": 3002,
    "iluvian": 18063,
    "orns": 12596,
    "Ğ": 223,
    "Ġtilted": 20416,
    "Ġpy": 21455,
    "Ġforged": 12708,
    "Ġdiving": 12605,
    "solic": 16379,
    "plete": 10920,
    "Ġindistinct": 17410,
    "troubled": 17112,
    "histor": 13494,
    "Ġmalacca": 24392,
    "Ġspark": 6691,
    "Ġtelling": 5747,
    "ī": 236,
    "Ġwast": 21865,
    "oqu": 7556,
    "natured": 7112,
    "Ġcrawled": 17044,
    "ugal": 19020,
    "Ġselects": 4386,
    "Ġrests": 13096,
    "Ġmanilla": 15962,
    "Ġcompares": 20169,
    "ruded": 15902,
    "gammon": 20246,
    "Ġsegment": 12761,
    "contempt": 13193,
    "licted": 20958,
    "entreat": 17978,
    "Ġsen": 9158,
    "Ġcomplimented": 14906,
    "Ġregression": 4410,
    "support": 9471,
    "Ġremonstr": 16164,
    "Ġsche": 1707,
    "dz": 4739,
    "eprints": 12796,
    "unks": 15778,
    "wig": 17705,
    "Ġoblivious": 26033,
    "Ġdepl": 14046,
    "Ġflann": 23016,
    "twist": 23704,
    "Ġrewarding": 13440,
    "bore": 13689,
    "Ġsap": 18323,
    "Ġarchly": 22773,
    "untarily": 6314,
    "Ġstrength": 4261,
    "parsee": 14519,
    "Ġcompute": 2904,
    "Ġjewels": 12372,
    "noticed": 14343,
    "Ġwillingly": 8887,
    "oman": 2018,
    "confusion": 13373,
    "Ġmoderately": 22219,
    "Ġkeenly": 9487,
    "ure": 356,
    "Ġembodied": 25848,
    "voy": 7145,
    "kish": 20936,
    "Ġdeaf": 12725,
    "Ġpropose": 9853,
    "precision": 4332,
    "Ġpall": 7584,
    "Ġtouches": 20573,
    "jar": 17578,
    "Ġgreatly": 5851,
    "Ġbare": 6134,
    "Ġstreams": 12196,
    "Ġtempest": 8215,
    "obstructed": 15229,
    "Ġshouted": 5348,
    "onted": 11569,
    "happening": 16566,
    "words": 7984,
    "Ġcongen": 10874,
    "Ġbeak": 18082,
    "Ġremarked": 3695,
    "Ġred": 3004,
    "Ġhopkins": 23133,
    "inf": 6234,
    "voices": 21120,
    "Ġwears": 10242,
    "Ġsciences": 15947,
    "Ġabandon": 12261,
    "Ġladies": 3196,
    "Ġelbows": 18637,
    "Ġcry": 3498,
    "Ġscore": 9740,
    "Ġcourse": 2130,
    "Ġharmless": 9967,
    "Ġslid": 7953,
    "Ġrural": 21972,
    "Ġdarting": 7758,
    "neighb": 16029,
    "happiness": 6470,
    "Ġtwentieth": 18660,
    "Ġdeclares": 16993,
    "Ġpast": 2099,
    "Ġannihilated": 20255,
    "Ġinvariable": 13459,
    "Ġweld": 8113,
    "reigned": 21245,
    "Ġdemoniacal": 20559,
    "jacket": 12295,
    "20": 20755,
    "Ġwound": 4527,
    "Ġunion": 6839,
    "Ġinstead": 2787,
    "Ġtake": 1581,
    "Ġkilled": 4954,
    "moby": 8539,
    "remind": 23192,
    "vit": 13803,
    "Ġfanned": 19101,
    "oro": 21398,
    "Ġbowditch": 19325,
    "Ġcalculus": 23986,
    "Ġconquered": 14028,
    "Ġminutes": 3000,
    "bad": 12439,
    "shortly": 12262,
    "Ġdirected": 5578,
    "Ġcoverage": 4289,
    "Ġpuzzling": 14898,
    "Ġacknowledge": 13405,
    "Ġcomposition": 1689,
    "Ġrash": 10899,
    "Ġlanguages": 1571,
    "Ġprotruding": 16660,
    "Ġresult": 4460,
    "started": 10846,
    "Ġobserved": 3542,
    "Ġdinnertime": 16720,
    "nesday": 8706,
    "equally": 19901,
    "Ġregimentals": 19860,
    "tete": 10733,
    "fins": 13721,
    "backed": 9868,
    "hypothe": 25906,
    "Ġconst": 1908,
    "okened": 15987,
    "ends": 6041,
    "parts": 14602,
    "Ġcruisers": 25864,
    "dispute": 23503,
    "Ġbeside": 5192,
    "Ġexplicit": 3589,
    "Ġwithin": 2164,
    "Ġfarm": 7841,
    "ateral": 19380,
    "chancing": 22920,
    "Ġner": 1649,
    "Ġuniversally": 12002,
    "Ġdoubloons": 13437,
    "Ġmainten": 16119,
    "inav": 15485,
    "white": 4601,
    "Ġenvelopes": 24506,
    "Ġimitated": 18331,
    "Ġcastle": 14719,
    "Ġwrist": 8244,
    "Ġbasic": 24700,
    "imens": 1747,
    "Ġgift": 10841,
    "stubb": 6020,
    "Ġgoethe": 22429,
    "Ġplumber": 16088,
    "Ġconcil": 23325,
    "Ġfairly": 6327,
    "Ġpains": 5967,
    "Ġreasons": 6022,
    "Ġmerited": 23733,
    "Ġcott": 3708,
    "Ġpays": 13300,
    "Ġnarration": 13506,
    "Ġdz": 4756,
    "Ġemployed": 5200,
    "Ġarchbishop": 18706,
    "Ġdiscovers": 4428,
    "Ġiv": 4046,
    "Ġwarned": 16881,
    "Ġbutton": 10269,
    "sander": 11528,
    "we": 847,
    "genteel": 19952,
    "examine": 25478,
    "Ġfollowed": 1792,
    "Ġcontortions": 18477,
    "Ġbeadle": 26485,
    "ordinate": 12879,
    "din": 8375,
    "Ġprofessors": 14727,
    "Ġunshored": 25814,
    "Ġ103": 24410,
    "ts": 958,
    "icial": 12659,
    "Ġinsignificant": 20459,
    "Ġhilarity": 20300,
    "azing": 7706,
    "unities": 15774,
    "Ġmorals": 22976,
    "Ġstruggles": 16580,
    "Ġbarbarous": 13479,
    "Ġadequately": 15201,
    "Ġlizzie": 26463,
    "umerable": 11728,
    "Ġslappin": 18945,
    "Ĝ": 221,
    "Ġseats": 14091,
    "Ġinitials": 11015,
    "Ġprofessions": 11232,
    "Ġghast": 9211,
    "Ġtill": 1824,
    "ctic": 8444,
    "esc": 617,
    "disguise": 26307,
    "Ġdiddled": 22671,
    "ĠĠĠĠĠĠĠĠĠĠĠĠĠĠĠĠĠĠĠĠĠĠĠĠĠĠĠĠĠĠĠĠĠĠĠĠĠĠĠĠĠĠĠĠĠĠĠĠĠĠĠĠĠĠĠĠĠĠĠĠ": 19262,
    "Ġdisgra": 18550,
    "Ġdeftly": 26494,
    "ã": 164,
    "Ġsteal": 16286,
    "ire": 492,
    "aces": 2070,
    "Ġbattered": 17864,
    "Ġconveyed": 8336,
    "Ġunerring": 15850,
    "Ġhearty": 9849,
    "Ġrobes": 16257,
    "Ġinnovative": 1612,
    "Ġvoyagings": 19238,
    "Ġsolicitude": 10042,
    "Ġdissipate": 13636,
    "Ġnomine": 26457,
    "Ġthreading": 23405,
    "Ġjanuary": 13656,
    "Ġreposing": 23363,
    "Ġcham": 4892,
    "Ġloads": 22119,
    "Ġcriminals": 19924,
    "Ġvertu": 23893,
    "Ġinexpressible": 17335,
    "gentleman": 7519,
    "Ġproperties": 3118,
    "Ġtoken": 2040,
    "amples": 1822,
    "Ġnobody": 6160,
    "Ġwitness": 4620,
    "generally": 9437,
    "arrested": 15604,
    "Ġdisturbance": 15014,
    "Ġket": 18348,
    "Ġplatonian": 25121,
    "Ġderived": 8240,
    "Ġjewell": 19523,
    "Ġvarying": 15813,
    "noise": 14334,
    "pursu": 11393,
    "Ġaffronted": 22899,
    "previous": 9763,
    "Ġsister": 1478,
    "Ġdynam": 3208,
    "Ġmomentous": 16172,
    "Ġubiquitous": 26197,
    "sides": 12511,
    "Ġsplendid": 17215,
    "Ġworthy": 7241,
    "Ġtrous": 10962,
    "Ġupbra": 22159,
    "Ġprophesied": 26063,
    "Ġslightest": 6094,
    "Ġ500": 24323,
    "Ġavailed": 23955,
    "Ġmechan": 1179,
    "gent": 7131,
    "rates": 21041,
    "extric": 22758,
    "Ġseverest": 14093,
    "Ġdism": 9769,
    "urity": 8144,
    "Ġturns": 4981,
    "leagues": 21376,
    "Ġrequirements": 9796,
    "Ġscratch": 25565,
    "Ġinevitably": 17232,
    "Ġintruder": 25992,
    "Ġscarce": 8625,
    "perils": 22192,
    "Ġexplanations": 15913,
    "Ġestate": 6318,
    "Ġcleat": 18949,
    "Ġpraises": 16731,
    "Ġrasc": 21979,
    "Ġdrunkard": 20180,
    "onde": 21254,
    "Ġhier": 1893,
    "char": 3505,
    "bott": 9108,
    "Ġhaste": 9005,
    "measureless": 20238,
    "Ġhope": 1788,
    "body": 2306,
    "sole": 6170,
    "beds": 16623,
    "wet": 15454,
    "Ġaccumulating": 2721,
    "Ġtorments": 13397,
    "Ġdisposition": 5409,
    "Ġwip": 13855,
    "name": 6796,
    "Ġmanhandle": 22334,
    "Ġul": 6828,
    "Ġobjection": 6587,
    "hau": 17563,
    "Ġcass": 13881,
    "fork": 20859,
    "Ġam": 661,
    "Ġloves": 10916,
    "gates": 20874,
    "Ġmartin": 25437,
    "Ġsettling": 11063,
    "rift": 11521,
    "Ġunintellig": 22029,
    "Ġnewcomer": 26041,
    "stoke": 18025,
    "cturn": 17989,
    "Ġboxed": 24359,
    "inioned": 19289,
    "W": 59,
    "Ġrogue": 22410,
    "stove": 21656,
    "Ġsatisfactory": 11193,
    "fore": 687,
    "Ē": 211,
    "Ġemigrant": 25860,
    "Ġperilous": 7770,
    "difficult": 10060,
    "cheeks": 23810,
    "transition": 24509,
    "aring": 1480,
    "Ġpallor": 13518,
    "Ġdin": 3625,
    "unting": 21879,
    "expedition": 26079,
    "Ġtrunks": 15979,
    "ipt": 12482,
    "Ġbachelor": 7788,
    "breeding": 16676,
    "Ġcanada": 22173,
    "Ġblinds": 8008,
    "Ġsilk": 11964,
    "Ġearned": 19408,
    "Ġultimate": 12352,
    "Ĳ": 243,
    "Ġvesture": 20065,
    "retched": 3065,
    "belonged": 25598,
    "Ġripples": 25506,
    "ckles": 22094,
    "Ġsadness": 13290,
    "Ġazores": 20196,
    "prison": 14664,
    "thoughts": 9937,
    "Ġemblazonings": 26043,
    "Ġintervened": 25482,
    "Ġresc": 4506,
    "Ġalbert": 12710,
    "Ġresol": 2663,
    "Ġ132": 19898,
    "Ġscratches": 22291,
    "reshold": 21242,
    "cries": 17512,
    "Ġrecurred": 18979,
    "Ġhor": 1662,
    "anging": 3552,
    "desolate": 25717,
    "ĠĠĠĠĠĠĠĠĠĠĠĠĠĠĠĠĠĠĠĠĠĠĠĠĠĠĠĠ": 9977,
    "Ġheel": 9686,
    "ductive": 23939,
    "Ġarranged": 9879,
    "Ġcharacter": 2791,
    "erer": 8735,
    "Ġlaz": 7378,
    "Ġliveliness": 13646,
    "Ġsailor": 3537,
    "oquent": 12503,
    "Ġanalytical": 22925,
    "Ġapplication": 2247,
    "xible": 13810,
    "expression": 10549,
    "Ġindefinite": 17178,
    "Ġprodigies": 19796,
    "whel": 7667,
    "Ġunsh": 14116,
    "likelihood": 4992,
    "Ġseverity": 15823,
    "concerning": 9066,
    "Ġxxxiv": 24972,
    "crane": 24089,
    "Ġcalmly": 7735,
    "Ġmab": 12564,
    "task": 13795,
    "alf": 4637,
    "Ġintrospective": 20603,
    "whalebone": 19120,
    "Ġgraces": 18226,
    "arers": 12133,
    "Ġstood": 2550,
    "Ġcaprice": 14578,
    "iforn": 14066,
    "Ġhearken": 21689,
    "Ġsnapping": 19303,
    "Ġas": 374,
    "Ġlobsters": 13519,
    "Ġoriginate": 24123,
    "Ġerected": 12237,
    "izes": 885,
    "despond": 19803,
    "pede": 19932,
    "Ġklux": 22200,
    "Ġingenuity": 17165,
    "Ġinf": 1756,
    "jol": 20927,
    "Ġperiods": 13307,
    "Ġarr": 1797,
    "Ġanywhere": 8519,
    "Ġcheer": 4068,
    "Ġmarried": 3409,
    "Ġglobular": 19011,
    "sailor": 14717,
    "Ġkilburn": 18352,
    "Ġpowerful": 1422,
    "Ġmeals": 12715,
    "Ġship": 1090,
    "Ġshutters": 9939,
    "paralleled": 14520,
    "ele": 9116,
    "Ġnursed": 16886,
    "ines": 667,
    "Ġgrasping": 12169,
    "cl": 1496,
    "_).": 5889,
    "derer": 4599,
    "amused": 21851,
    "Ġbelong": 3884,
    "Ġbloodless": 19341,
    "Ġpromptly": 23821,
    "increase": 20271,
    "education": 20304,
    "Ġunprepared": 22053,
    "Ġinfatuated": 20536,
    "vocation": 25087,
    "Ġband": 5292,
    "insanity": 23072,
    "anges": 1675,
    "could": 2868,
    "Ġdiabolism": 25515,
    "accompl": 9882,
    "Ġdwell": 5813,
    "idy": 21769,
    "Ġdeep": 806,
    "bald": 16445,
    "Ġbelt": 13007,
    "Ġringleader": 26214,
    "Ġshad": 3848,
    "Ġpretence": 13210,
    "Ġknowingly": 18481,
    "friend": 3861,
    "ceptive": 15971,
    "Ġobjecting": 18898,
    "Ġcaptioning": 23026,
    "peace": 13053,
    "ously": 2489,
    "ational": 5716,
    "Ġmining": 22833,
    "outon": 12807,
    "Ġangular": 19210,
    "rugg": 15901,
    "Ġvestige": 20066,
    "Ġworship": 10368,
    "binnacle": 20789,
    "Ġlin": 10834,
    "Ġendured": 6075,
    "Ġpl": 744,
    "Ġgovernments": 20270,
    "Ġladyship": 5046,
    "Ġanimating": 23426,
    "pleasure": 5980,
    "Ġnetwork": 451,
    "nal": 1900,
    "Ġsurtout": 23467,
    "ć": 200,
    "Ġapologizing": 25198,
    "Ġpresentiment": 18990,
    "iance": 5280,
    "Ġimpetuously": 20375,
    "atered": 22012,
    "infant": 19830,
    "Ġzeros": 3326,
    "Ġparsonage": 7125,
    "Ġheave": 7601,
    "flowing": 14574,
    "Ġnominal": 15171,
    "Ġmatlock": 18803,
    "Ġserviceable": 24717,
    "mering": 12494,
    "Ġexclusiveness": 23931,
    "ceiving": 3900,
    "libr": 22927,
    "precise": 19354,
    "uss": 8767,
    "Ġcountrymen": 23597,
    "Ġimproved": 7658,
    "Ġgrandeur": 8631,
    "Ġpruning": 18973,
    "scorched": 25698,
    "Ġpouring": 12628,
    "Ġparty": 3512,
    "Ġanalogical": 25641,
    "Ġdriven": 6200,
    "Ġravines": 25833,
    "Ġampl": 22486,
    "Ġlower": 2660,
    "Ġcholera": 22258,
    "Ġprivileged": 20116,
    "Ġvi": 1951,
    "Ġcolle": 8926,
    "avast": 8900,
    "Ġshallow": 14397,
    "dimly": 15349,
    "ctu": 5088,
    "Ġcollect": 7237,
    "Ġfalls": 14645,
    "lances": 15386,
    "Ġfoaming": 18993,
    "olog": 1082,
    "Ġrejo": 5918,
    "ante": 11724,
    "Ġreproach": 9558,
    "cherries": 19759,
    "Ġmemorable": 16447,
    "expectant": 24277,
    "Ġcomplying": 18586,
    "ission": 6458,
    "heavily": 24533,
    "anx": 8787,
    "Ġstanders": 19016,
    "sure": 5522,
    "Ġexec": 19495,
    "uctive": 17697,
    "mond": 20976,
    "hideous": 25408,
    "Ġattentions": 5880,
    "anim": 6523,
    "Ġparl": 8179,
    "Ġtombed": 25164,
    "Ġcharms": 11131,
    "Ġcategor": 4141,
    "idable": 8147,
    "angles": 18296,
    "luckily": 19755,
    "Ġcollateral": 20075,
    "iancy": 13013,
    "agger": 7874,
    "leton": 5148,
    "erringly": 16214,
    "Ġreminiscences": 26271,
    "Ġmake": 1284,
    "Ġmoles": 22437,
    "Ġfearless": 9877,
    "leness": 4691,
    "Ġridges": 16732,
    "Ġrustic": 14967,
    "Ġpictures": 5503,
    "rary": 4574,
    "Ġeclipsed": 26378,
    "ui": 9146,
    "Ġfire": 2333,
    "Ġimages": 1602,
    "Ġresembling": 4099,
    "ĠĠĠĠĠĠĠĠĠĠĠĠĠĠĠĠĠĠĠĠĠĠĠĠĠĠĠĠĠĠĠĠĠĠĠĠ": 23668,
    "Ġappeals": 16318,
    "Ġunprejudiced": 18267,
    "oke": 1858,
    "na": 13762,
    "ĉ": 202,
    "Ġmaintain": 856,
    "Ġinstant": 2702,
    "Ġcoinc": 11003,
    "Ġflirt": 14425,
    "Ġaccent": 10295,
    "ifference": 5632,
    "Ġlurid": 19684,
    "antucket": 2643,
    "mend": 20968,
    "Ġpossible": 2583,
    "Ġfundamental": 3012,
    "Ġformerly": 7494,
    "Ġstrictest": 17042,
    "Ġvexations": 24611,
    "braces": 24659,
    "Ġwhirlp": 16964,
    "duodecimo": 16004,
    "Ġscener": 10950,
    "urbed": 15712,
    "Ġseason": 5237,
    "brilliancy": 26078,
    "thoroughly": 26508,
    "Ġcorroboration": 26053,
    "Ġtru": 4108,
    "Ġbusily": 9386,
    "Ġspeeding": 23566,
    "Ġchilly": 25563,
    "Ġrude": 7234,
    "Ġunappalled": 22068,
    "Ġmeanly": 12913,
    "Ġsells": 21226,
    "Ġsphy": 18312,
    "Ġtease": 18788,
    "house": 4078,
    "compass": 9462,
    "Ġconjugal": 25104,
    "Ġhoard": 23354,
    "elfth": 22374,
    "Ġswore": 10380,
    "orable": 8121,
    "ghost": 20889,
    "Ġspiritual": 9932,
    "Ġpetty": 19598,
    "age": 505,
    "ificent": 8185,
    "highly": 24763,
    "asses": 7018,
    "ids": 21768,
    "Ġexpecting": 10437,
    "Ġkeeps": 8268,
    "Ġsailing": 5324,
    "humoredly": 26326,
    "Ġleisurely": 24745,
    "mistaken": 12214,
    "Ġwrapt": 24597,
    "shud": 18484,
    "Ġinquirer": 24966,
    "Ġlids": 12279,
    "aston": 7408,
    "Ġattitude": 8906,
    "Ġcrow": 3804,
    "Ġscrewing": 20211,
    "Ġforc": 9229,
    "aciously": 12900,
    "Ġbefriend": 18084,
    "front": 12174,
    "jour": 20929,
    "Ġundaunted": 24121,
    "Ġvineyard": 12333,
    "ob": 1420,
    "fro": 8736,
    "itable": 5437,
    "Ġconvey": 9983,
    "Ġtimid": 6347,
    "Ġcrystals": 20230,
    "Ġshall": 1143,
    "Ġentreaties": 9037,
    "oided": 11510,
    "medi": 2629,
    "oury": 22316,
    "Ġspilled": 10925,
    "Ġopposite": 5120,
    "Ġphaet": 16321,
    "Ġheadache": 22904,
    "Ġunst": 18236,
    "town": 7144,
    "alvan": 21508,
    "alley": 23027,
    "Ġsnatches": 16546,
    "Ġscarlet": 13227,
    "Ġoutcast": 18414,
    "clam": 13059,
    "ĠdÃ¦mon": 7845,
    "unexpected": 15781,
    "Ġexclaiming": 13644,
    "Ġopulent": 23631,
    "animate": 12581,
    "Ġkidn": 20208,
    "Ġhoops": 9391,
    "Ġvisiting": 10362,
    "smallest": 23915,
    "Ġexclam": 6759,
    "Ġsteps": 2859,
    "Ġbumps": 21395,
    "Ġmutually": 23960,
    "pair": 21014,
    "Ġpovelson": 26553,
    "Ġespecial": 26411,
    "Ġdenny": 9003,
    "Ġbordeaux": 24564,
    "calculating": 25691,
    "glow": 20876,
    "astes": 11742,
    "tured": 13797,
    "Ġest": 2264,
    "chains": 9687,
    "dreadful": 11422,
    "Ġdiabol": 11454,
    "Ġcounting": 13099,
    "Ġsing": 3071,
    "commanders": 16990,
    "Ġcus": 21346,
    "concerted": 16673,
    "uttle": 6249,
    "Ġrevenue": 26196,
    "Ġtechnically": 12369,
    "Ġunconcerned": 20513,
    "evil": 11487,
    "ampling": 12730,
    "Ġtremor": 24767,
    "Ġlake": 5227,
    "Ġunceasingly": 20362,
    "Ġhorse": 4725,
    "10": 17474,
    "Ġminim": 1323,
    "Ġdefinition": 14406,
    "uger": 21106,
    "Ġ28": 19297,
    "Ġhatred": 8612,
    "alizing": 17942,
    "Ġbye": 12742,
    "wish": 8101,
    "mock": 5174,
    "nne": 20991,
    "Ġcontext": 1683,
    "Ġcent": 3254,
    "pleasanter": 24051,
    "Ġkicked": 10583,
    "Ġsubtlety": 24779,
    "manned": 18765,
    "grief": 13733,
    "Ġexercising": 19909,
    "Ġor": 437,
    "Ġrejoicing": 13424,
    "ird": 2428,
    "Ġcork": 12573,
    "hastening": 24447,
    "Ġwithdrawing": 11341,
    "Ġlub": 15652,
    "estion": 18361,
    "Ġstretched": 5922,
    "rayed": 23565,
    "hereabouts": 23608,
    "Ġthorough": 6247,
    "Ġsubstituting": 26328,
    "Ġsteadily": 8053,
    "Ġsuch": 796,
    "Ġcondescending": 24869,
    "swiss": 24257,
    "ing": 273,
    "Ġconfession": 11236,
    "Ġcontroverted": 23254,
    "Ġhelpless": 8303,
    "Ġfugitives": 25635,
    "Ġmischie": 22767,
    "Ġus": 498,
    "Ġsurgeon": 8983,
    "Ġrequisite": 18650,
    "Ġvancou": 22880,
    "Ġglaciers": 20176,
    "Ġexh": 5232,
    "Ġle": 333,
    "Ġbloom": 9889,
    "Ġconcussion": 26301,
    "men": 1488,
    "Ġbags": 24536,
    "Ġidentified": 19152,
    "Ġrocks": 6863,
    "ada": 14013,
    "Ġpenal": 1772,
    "canallers": 22970,
    "Ġhierarchical": 1927,
    "Ġpink": 12622,
    "suspicious": 25391,
    "Ġworldly": 16333,
    "ostentatious": 20654,
    "Ġafford": 4366,
    "thur": 7188,
    "í": 174,
    "Ġsul": 7571,
    "romang": 22010,
    "def": 1455,
    "kill": 13746,
    "Ġcompletely": 4860,
    "Ġinglorious": 24423,
    "Ġhempen": 13553,
    "events": 12320,
    "Ġgale": 5823,
    "Ġcuvier": 9167,
    "Ġflexible": 23778,
    "thodox": 21990,
    "Ġfinally": 4665,
    "Ġdis": 694,
    "Ġgangs": 21613,
    "Ġsubtile": 20383,
    "urged": 18051,
    "Ġheaviest": 23328,
    "ĠĠĠĠĠĠĠĠĠĠĠĠĠ": 22568,
    "Ġdisposed": 7085,
    "Ġarom": 15494,
    "impressions": 20701,
    "tting": 17681,
    "Ġadmir": 12024,
    "Ġbeef": 6830,
    "susp": 10598,
    "Ġcalculates": 13268,
    "Ġshould": 864,
    "Ġoccasion": 3247,
    "sticking": 21664,
    "Ġfoam": 6891,
    "beards": 22496,
    "Ġdeeps": 16117,
    "Ġunpardonable": 22065,
    "sed": 4179,
    "roar": 17955,
    "Ġaccompl": 5167,
    "Ġdiscoursing": 26268,
    "Ġuprising": 12806,
    "Ġsensitive": 13202,
    "Ġmuse": 13862,
    "asible": 21546,
    "Ġliquid": 22414,
    "==": 945,
    "Ġbowing": 10476,
    "Ġboast": 7036,
    "Ġcompare": 9304,
    "Ġshakes": 10905,
    "Ġohio": 19130,
    "retrospect": 23146,
    "Ġelemental": 19921,
    "Ġtrooped": 24900,
    "Ġmarshal": 20222,
    "Ġstraps": 19312,
    "Ġreturn": 1712,
    "Ġfatt": 15582,
    "Ġhour": 1811,
    "Ġjaw": 3320,
    "generosity": 23789,
    "Ġdetestable": 15101,
    "Ġmouths": 7492,
    "Ġdelay": 5748,
    "Ġprev": 6266,
    "chess": 16575,
    "Ġconspicuous": 13606,
    "Ġclergy": 7644,
    "Ġrecover": 9792,
    "Ġantichron": 24183,
    "very": 499,
    "Ġtortoise": 16909,
    "<": 32,
    "subtle": 24245,
    "Ġsple": 21218,
    "enjoyments": 25434,
    "Ġpostponed": 20393,
    "Ġglobu": 23274,
    "oding": 1465,
    "Ġspoiled": 11364,
    "Ġthinnest": 24185,
    "heavens": 19748,
    "Ġserving": 14487,
    "Ġdragging": 14478,
    "Ġconver": 808,
    "Ġerskine": 17434,
    "Ġaccommodate": 20520,
    "Ġpleadings": 25854,
    "bbed": 6911,
    "Ġdeath": 2044,
    "Ġcheese": 9379,
    "Ġoccurs": 1856,
    "ĠĠĠĠ": 458,
    "lightened": 12068,
    "Ġdreaming": 11224,
    "Ġmultiple": 1189,
    "Ġnatures": 16507,
    "marvell": 24174,
    "Ġcorruption": 15228,
    "gigantic": 15362,
    "Ġridicule": 13514,
    "robust": 19730,
    "ications": 4445,
    "ilogue": 21729,
    "Ġunav": 18238,
    "M": 49,
    "Ġstrewed": 23424,
    "Ġnever": 1020,
    "Ġdistressed": 8517,
    "p": 84,
    "Ġrent": 11641,
    "persu": 8029,
    "Ġmakest": 25436,
    "ster": 1959,
    "Ġpreyed": 18367,
    "olen": 9702,
    "pers": 4337,
    "ured": 1656,
    "Ġcrosses": 23066,
    "Ġsmo": 2699,
    "impossible": 8827,
    "Ġproflig": 23569,
    "Ġportrait": 10663,
    "shooting": 16966,
    "lizzy": 6654,
    "spanish": 14336,
    "Ġlearnedly": 23389,
    "Ġarrived": 3746,
    "thar": 18218,
    "unity": 4154,
    "Ġwholly": 4447,
    "frozen": 25142,
    "nor": 2739,
    "Ġmincing": 18752,
    "bed": 3492,
    "Ġmyster": 5928,
    "gloves": 25146,
    "Ġbecome": 3159,
    "Ġshaded": 14107,
    "sher": 5217,
    "Ġdecided": 5471,
    "Ġforetold": 23452,
    "confirmation": 26090,
    "Ġcar": 1419,
    "Ġsmacking": 20168,
    "Ġescape": 2646,
    "Ġsheltered": 19913,
    "Ġconsp": 10226,
    "dor": 12455,
    "Ġliable": 14230,
    "Ġxxi": 24475,
    "arrang": 14653,
    "Ġarc": 14160,
    "burnt": 20083,
    "beer": 22493,
    "Ġinclusive": 24165,
    "Ġed": 2240,
    "Ġleakage": 23460,
    "Ġspare": 5102,
    "Ġrid": 4355,
    "Ġspices": 22135,
    "Ġheed": 5630,
    "Ġboundless": 10497,
    "Ġseeth": 21965,
    "Ġresources": 2935,
    "Ġtennessee": 26597,
    "gunw": 17222,
    "Ġmisunderstood": 18704,
    "Ġgeneral": 1860,
    "cob": 10088,
    "Ġmor": 1250,
    "ive": 426,
    "Ġseeking": 7038,
    "Ġunaccountably": 26516,
    "Ġreferred": 8919,
    "joined": 13279,
    "Ġtroubling": 26548,
    "Ġprized": 23227,
    "Ġcontemplation": 11358,
    "bitts": 26123,
    "ents": 1895,
    "whispering": 26104,
    "Ġ1": 1017,
    "vative": 1606,
    "scar": 9818,
    "Ġwaistcoat": 12274,
    "Ġcrowd": 6338,
    "despicable": 24639,
    "cellar": 20280,
    "Ġregularity": 22785,
    "Ġranks": 21977,
    "Ġseized": 4834,
    "Ġvex": 5951,
    "yourself": 6744,
    "Ġoakum": 16935,
    "handedness": 24921,
    "Ġrelieved": 7668,
    "Ġmet": 1916,
    "given": 8378,
    "Ġtoilings": 24741,
    "sych": 9897,
    "Ġdiminishing": 4212,
    "Ġdreary": 10409,
    "Ġtrifling": 10604,
    "hooked": 23718,
    "Ġroused": 7624,
    "Ġagreed": 7031,
    "const": 5941,
    "Ġtruck": 19514,
    "Ġcinque": 20489,
    "Ġunwound": 24829,
    "Ġrecklessness": 24744,
    "Ġfrankness": 16747,
    "Ġsalary": 13297,
    "folding": 24928,
    "Ġtransportation": 13645,
    "Ġrank": 6260,
    "Ġsafie": 6620,
    "Ġbacked": 12928,
    "miniature": 16766,
    "Ġpassengers": 13678,
    "lying": 7175,
    "Ġretired": 6073,
    "Ġbawling": 25946,
    "afraid": 10442,
    "merchant": 10468,
    "pacific": 17642,
    "Ġmorocc": 22978,
    "uction": 15445,
    "owal": 13995,
    "Ġmisunderstand": 18703,
    "Ġclap": 10956,
    "Ġarithmetic": 18339,
    "Ġx": 2074,
    "Ġinside": 5448,
    "pie": 21013,
    "aste": 4600,
    "Ġsuccession": 12105,
    "Ġsoldier": 16921,
    "jer": 12484,
    "Ġpens": 21464,
    "door": 6195,
    "Ġpeep": 6870,
    "resum": 17762,
    "Ġpump": 12625,
    "Ġinsights": 13182,
    "poverty": 22913,
    "surprising": 16920,
    "Ġintricate": 15140,
    "Ġappropriate": 2249,
    "fters": 20863,
    "set": 3864,
    "guilty": 19486,
    "âĢ": 294,
    "Ġstatue": 23154,
    "preserve": 25304,
    "quick": 6401,
    "Ġsow": 17750,
    "Ġlets": 18079,
    "Ġaffability": 14390,
    "foreseen": 14255,
    "ensation": 22551,
    "Ġinfluences": 14867,
    "Ġspecific": 2002,
    "decor": 23783,
    "remarkable": 13500,
    "Ġredness": 19314,
    "Ġparasol": 22126,
    "Ġsingers": 23773,
    "urous": 10214,
    "strike": 14951,
    "Ġmorning": 1748,
    "Ġparc": 10921,
    "ology": 1572,
    "fate": 17540,
    "Ġdesertion": 24786,
    "hearty": 14836,
    "Ġfierceness": 26266,
    "hurst": 19881,
    "Ġprodigious": 8058,
    "Ġentrance": 7233,
    "Ġclothed": 19609,
    "Ġstuff": 5717,
    "thomas": 18220,
    "separately": 25228,
    "ons": 709,
    "within": 6732,
    "softened": 20413,
    "Ġinexplicable": 12260,
    "professor": 17251,
    "fortune": 4975,
    "amy": 8470,
    "sou": 12509,
    "Ġcovariate": 2350,
    "Ġsweetest": 13251,
    "amuse": 14054,
    "Ġwhal": 5454,
    "Ġembra": 6580,
    "Ġcanal": 8183,
    "Ġroast": 18458,
    "Ġissued": 10601,
    "Ġtumb": 21172,
    "gish": 20875,
    "Ġcolumn": 9330,
    "Ġmanager": 11772,
    "occasionally": 13523,
    "elizabeth": 1986,
    "Ġfiner": 13057,
    "Ġcocked": 12911,
    "Ġincreas": 1694,
    "Ġburton": 23657,
    "Ġindec": 13930,
    "Ġbingleys": 18996,
    "Ġtruly": 4796,
    "Ġpatagonia": 25859,
    "Ġreject": 7386,
    "he": 264,
    "Ġmatrix": 1608,
    "Ġpeeped": 10014,
    "Ġvalley": 5852,
    "Ġriveted": 13621,
    "Ġsurrey": 14559,
    "Ġbas": 6381,
    "Ġsocially": 22092,
    "Ġinvoluntary": 18764,
    "weigh": 18666,
    "sullenly": 26150,
    "acting": 22635,
    "necess": 4896,
    "Ġgardener": 19136,
    "islanders": 25443,
    "Ġacceptable": 16745,
    "Ġaccurate": 13250,
    "Ġextravagant": 17280,
    "harpoone": 6109,
    "Ġhardihood": 23115,
    "Ġleader": 14704,
    "Ġpunctures": 25136,
    "Ġliterally": 15119,
    "Ġsanctified": 25883,
    "arcy": 1274,
    "Ġinterfere": 11820,
    "Ġlion": 9677,
    "Ġsmaller": 1882,
    "Ġabomin": 8190,
    "Ġtrucks": 19515,
    "Ġmended": 21316,
    "older": 15759,
    "Ġcrippled": 25279,
    "Ġheidelburgh": 11645,
    "Ġchas": 18379,
    "boy": 4738,
    "Ġcomprehen": 5350,
    "recol": 10152,
    "Ġdestabilizing": 5053,
    "inated": 6805,
    "Ġlowest": 11123,
    "Ġcloudless": 16670,
    "Ġshipped": 9717,
    "Ġflurry": 18862,
    "perishing": 22191,
    "hastily": 19705,
    "Ġsteamer": 17190,
    "tired": 21075,
    "also": 7852,
    "vain": 15449,
    "Ġswelling": 11928,
    "intolerable": 22942,
    "igations": 18046,
    ".)": 6784,
    "verb": 10218,
    "Ġdeity": 18137,
    "spond": 5566,
    "ished": 1429,
    "pal": 9618,
    "Ġburied": 7720,
    "Ġtoo": 1166,
    "Ġloathing": 15072,
    "Ġsched": 2337,
    "oysius": 14366,
    "Ġsleepy": 8269,
    "Ġillustrate": 25068,
    "Ġilleg": 21627,
    "Ġpuppy": 12408,
    "Ġcourage": 4632,
    "overfitting": 13104,
    "ext": 915,
    ")âĢĶâĢľ": 20745,
    "confess": 12179,
    "Ġnum": 1347,
    "Ġidle": 8254,
    "Ġpurchased": 12264,
    "Ġincreases": 3794,
    "safety": 20352,
    "Ġirresolute": 24917,
    "gracious": 11834,
    "Ġphil": 3386,
    "Ġdear": 1539,
    "Ġundertaken": 18988,
    "Ġperfection": 19221,
    "Ġcomputational": 1627,
    "Ġdy": 2509,
    "Ġsqueaking": 26276,
    "Ġdoct": 4455,
    "Ġbottled": 23798,
    "Ġcrusad": 23709,
    "tooth": 18581,
    "Ġagonized": 25373,
    "fall": 5135,
    "Ġeavesdroppers": 25964,
    "Ġsundering": 23277,
    "Ġcattle": 12576,
    "ividually": 22086,
    "left": 6976,
    "Ġgrant": 11876,
    "behaved": 24462,
    "Ġinflicted": 11366,
    "Ġstowed": 21741,
    "uniform": 18160,
    "determ": 7107,
    "acters": 9311,
    "Ġpastures": 23422,
    "Ġdragon": 14946,
    "Ġcrushed": 9425,
    "Ġsmite": 22563,
    "aft": 9585,
    "Ġparad": 2839,
    "Ġrole": 16000,
    "Ġordinary": 6099,
    "Ġlightened": 23264,
    "iro": 20916,
    "Ġvane": 22879,
    "ifling": 15786,
    "Ġbund": 17865,
    "Ġchiselled": 25560,
    "Ġobsc": 7041,
    "prints": 23816,
    "abulary": 4800,
    "fiercely": 25257,
    "Ġclamped": 18425,
    "infall": 21191,
    "Ġless": 1937,
    "Ġreservo": 16832,
    "bolts": 11421,
    "quely": 10233,
    "Ġmortified": 14696,
    "Ġtranscend": 25671,
    "Ġserved": 8248,
    "oment": 920,
    "Ġdelicate": 6481,
    "ij": 7803,
    "Ġblurred": 22935,
    "Ġtra": 1386,
    "Ġconsummation": 17427,
    "inj": 9153,
    "Ġhandspikes": 12943,
    "Ġhol": 1183,
    "Ġenrolled": 21942,
    "Ġstead": 5650,
    "Ġparr": 22124,
    "Ġpatience": 2973,
    "tell": 1380,
    "Ġpaintings": 15059,
    "previously": 17209,
    "sorrow": 12512,
    "addition": 13387,
    "bale": 20776,
    "Ġcategorization": 12140,
    "orne": 17874,
    "Ġjoist": 19234,
    "Ġodor": 12153,
    "Ġterrify": 19364,
    "Ġplentiful": 12915,
    "Ġfootmarks": 19339,
    "swimming": 24260,
    "Ġrim": 21970,
    "Ġhues": 21493,
    "Ġfrighten": 13282,
    "Ġsees": 8846,
    "hurrying": 14985,
    "Ġlazily": 11381,
    "igators": 18048,
    "Ġsending": 8779,
    "Ġcontrast": 2118,
    "Ġsociet": 9452,
    "Ġener": 10897,
    "renew": 24449,
    "Ġfeeble": 12287,
    "Ġbermud": 26440,
    "trucks": 25420,
    "Ġvineyarder": 25607,
    "Ġble": 5223,
    "Ġhence": 4989,
    "kept": 11720,
    "Ġchains": 8252,
    "Ġprevent": 755,
    "Ġloom": 7630,
    "Ġtoday": 12647,
    "Ġsouthwards": 19636,
    "Ġgall": 4352,
    "feeders": 25236,
    "Ġshears": 18320,
    "Ġheightened": 8652,
    "Ġbrig": 11048,
    "Ġhorseman": 19610,
    "Ġcaved": 21356,
    "kin": 7133,
    "Ġmotionless": 8325,
    "Ġbeen": 626,
    "output": 4402,
    "iscre": 17852,
    "Ġlangsdorff": 15279,
    "Ġstars": 6151,
    "hood": 2657,
    "_.âĢĶ": 23476,
    "Ġdefine": 9817,
    "Ġtables": 9880,
    "Ġstriking": 6090,
    "Ġlard": 13949,
    "oin": 17618,
    "leo": 21367,
    "Ġexactness": 23606,
    "Ġmansion": 17811,
    "scand": 18856,
    "rees": 5436,
    "Ġtr": 558,
    "fow": 20855,
    "constantly": 24608,
    "Ġwho": 612,
    "----âĢĻ": 24101,
    "Ġret": 1381,
    "shold": 2771,
    "Ġomin": 11579,
    "Ġrestrict": 16376,
    "agement": 4192,
    "Ġsnatched": 10472,
    "71": 20758,
    "sorts": 21063,
    "Ġeventually": 8620,
    "Ġguards": 16269,
    "varied": 23189,
    "partner": 19224,
    "violence": 16479,
    "hook": 12056,
    "Ġunwell": 22020,
    "Ġnormalization": 1242,
    "arking": 16128,
    "Ġsepulch": 15287,
    "Ġshelves": 14999,
    "Ġgrated": 22808,
    "Ġbuckle": 17033,
    "Ġdissolved": 18555,
    "doctor": 19097,
    "Ġmills": 21314,
    "arman": 11597,
    "sig": 2870,
    "Ġoutlast": 22318,
    "isted": 3299,
    "Ġleyden": 21752,
    "Ġess": 5691,
    "cherish": 24551,
    "Ġ118": 19701,
    "stir": 12677,
    "mpt": 6656,
    "stretch": 13983,
    "Ġdoubt": 2223,
    "Ġfurlongs": 20725,
    "sherlock": 5422,
    "Ġloun": 7167,
    "ber": 904,
    "Ġoutsk": 15959,
    "arson": 22753,
    "Ġob": 861,
    "communication": 25881,
    "Ġsouthern": 7691,
    "Ġposted": 16725,
    "liv": 9609,
    "Ġsliding": 9366,
    "ning": 949,
    "Ġfading": 15587,
    "Ġanimation": 11153,
    "wh": 508,
    "piling": 15417,
    "Ġformation": 2941,
    "plied": 10256,
    "possessed": 9530,
    "Ġrevealed": 6753,
    "strom": 15687,
    "Ġgiants": 25961,
    "Ġmarrying": 6179,
    "prehensible": 12363,
    "Ġbars": 13899,
    "finger": 10095,
    "Ġhighness": 22778,
    "ugging": 23293,
    "lined": 12487,
    "opic": 22481,
    "Ġarmchair": 8272,
    "road": 6679,
    "imodal": 17449,
    "inced": 3337,
    "large": 6628,
    "asper": 7856,
    "Ġgur": 21596,
    "ractions": 11635,
    "Ġunprotected": 22070,
    "Ġconcept": 669,
    "let": 2731,
    "Ġpol": 2575,
    "pike": 11516,
    "end": 501,
    "Ġnoise": 1069,
    "Ġincurable": 22558,
    "Ġbelfry": 26439,
    "Ġborrowed": 17231,
    "withstand": 23031,
    "Ġremarks": 7474,
    "aced": 2416,
    "scho": 8763,
    "Ġsuitable": 18281,
    "esty": 4307,
    "Ġprofound": 5497,
    "Ġperplex": 2714,
    "Ġclinging": 10293,
    "Ġbehaves": 23303,
    "Ġstation": 5299,
    "Ġpewter": 17187,
    "Ġsensational": 16391,
    "Ġpron": 6452,
    "Ġmean": 743,
    "Ġpursuits": 12080,
    "Ġenumerating": 15247,
    "Ġfurled": 22816,
    "Ġdisposal": 19379,
    "Ġintuitions": 17343,
    "Ġbel": 1217,
    "Ġgreedily": 18968,
    "Ġintermix": 25827,
    "ĠĠĠĠĠĠĠĠĠĠĠĠĠĠĠĠĠĠĠĠĠĠĠĠĠĠĠĠĠĠĠĠ": 2736,
    "Ġagree": 7648,
    "Ġhushed": 13927,
    "hecy": 21209,
    "Ġaint": 17745,
    "ryder": 18648,
    "Ġhawsers": 26503,
    "gh": 3800,
    "Ġcatches": 23429,
    "Ġtrain": 516,
    "objects": 13473,
    "avo": 8522,
    "Ġexplore": 15911,
    "Ġmerc": 9428,
    "antediluvian": 24345,
    "Ġplank": 7035,
    "elope": 14457,
    "operations": 19978,
    "photograph": 16157,
    "Ġmagnitudes": 3821,
    "Ġspurn": 18310,
    "tar": 8099,
    "Ġinspiring": 19114,
    "Ġphysi": 9990,
    "Ġdungeon": 16997,
    "Ġesc": 2252,
    "Ġdebt": 12171,
    "reme": 2425,
    "Ġcasualty": 20344,
    "unhesitatingly": 26497,
    "Ġanticipatingly": 26103,
    "isco": 12585,
    "Ġgovernment": 15179,
    "Ġ22": 8280,
    "adventures": 20259,
    "Ġbench": 7238,
    "Ġtemper": 955,
    "Ġcountless": 16382,
    "Ġeluded": 12926,
    "Ġbou": 17854,
    "Ġrascally": 26507,
    "Ġinflict": 15002,
    "Ġtam": 7822,
    "acled": 16066,
    "Ġtraces": 7947,
    "Ġmaintenance": 17463,
    "Ġcurve": 22987,
    "Ġdiscussion": 17196,
    "Ġjan": 11765,
    "Ġfacts": 2287,
    "ceremony": 20593,
    "Ġneighbourhood": 5126,
    "Ġstrange": 2272,
    "ompl": 4535,
    "Ġdank": 21432,
    "Ġmessages": 24986,
    "Ġpressing": 9263,
    "Ġvivid": 8059,
    "Ġfaultless": 24539,
    "Ġdilatory": 24704,
    "ĠĠĠ": 2115,
    "Ġcries": 7155,
    "Ġdaring": 8122,
    "onged": 18411,
    "ched": 1547,
    "Ġapprised": 18360,
    "Ġpsal": 15619,
    "commencement": 26350,
    "ected": 7875,
    "Ġconfeder": 25708,
    "Ġgas": 8134,
    "perv": 1527,
    "Ġsuns": 23276,
    "Ġdifferen": 936,
    "âĢĶ": 517,
    "Ġmother": 2069,
    "hall": 8086,
    "Ġmetropolis": 17276,
    "Ġforgo": 21778,
    "Ġenabled": 9298,
    "gale": 13726,
    "shott": 11797,
    "Ġbrine": 18770,
    "actually": 14299,
    "Ġimbib": 22180,
    "Ġaccept": 4411,
    "Ġpossessions": 23828,
    "Ġshetland": 22164,
    "Ġdisplay": 6429,
    "Ġpersistence": 2909,
    "bled": 5469,
    "Ġinterp": 16075,
    "Ġtheir": 643,
    "Ġchancing": 22253,
    "Ġdint": 15594,
    "took": 6166,
    "Ġmachines": 1775,
    "Ġpal": 4043,
    "Ġpalms": 8647,
    "Ġfrontispiece": 23917,
    "Ġbewitching": 25977,
    "Ġimperfect": 13343,
    "arted": 2203,
    "ulls": 8841,
    "Ġdragged": 6889,
    "mod": 1033,
    "Ġthoughtfully": 12983,
    "Ġdeparted": 5562,
    "buoy": 7762,
    "Ġsuspicions": 9481,
    "ldog": 21922,
    "tent": 21067,
    "sto": 3201,
    "Ġcredulous": 17146,
    "Ġmourn": 8707,
    "Ġglimp": 6068,
    "Ġstubb": 1785,
    "Ġinvari": 6530,
    "Ġsaves": 18324,
    "Ġhelmsman": 10506,
    "Ġundue": 25994,
    "Ġsyllables": 25299,
    "oration": 2210,
    "ually": 2768,
    "into": 3679,
    "Ġundertaking": 8577,
    "Ġsamples": 2960,
    "Ġextras": 22724,
    "Ġresounded": 22549,
    "Ġscreams": 24605,
    "Ġshifted": 14109,
    "reat": 620,
    "ipagos": 22371,
    "Ġguess": 4903,
    "Ġimpotently": 22397,
    "seized": 14037,
    "Ġdraw": 3670,
    "wick": 5363,
    "Ġundisturbed": 19522,
    "ther": 482,
    "Ġgently": 7172,
    "touching": 15094,
    "Ġprudential": 17922,
    "intense": 22940,
    "wid": 10136,
    "Ġenquired": 21945,
    "Ġmajesty": 5201,
    "Ġbread": 5404,
    "Ġphilistines": 26083,
    "scarcely": 12389,
    "Ġthr": 5709,
    "Ġdelivered": 11117,
    "Ġwedged": 24936,
    "Ġeighteen": 11239,
    "erman": 5108,
    "Ġbiting": 17863,
    "Ġdrought": 19280,
    "mouthful": 25209,
    "yt": 17712,
    "Ġthink": 984,
    "flaming": 23973,
    "Ġresolutely": 14610,
    "finding": 17014,
    "Ġagitation": 6865,
    "about": 3587,
    "Ġuncles": 23433,
    "were": 2557,
    "Ġintelligible": 15944,
    "oward": 6023,
    "Ġnoting": 18222,
    "Ġreced": 15695,
    "overcoat": 19053,
    "sufficiently": 14983,
    "intervals": 10639,
    "Ġrelating": 2703,
    "cigar": 26125,
    "uity": 12521,
    "culous": 11141,
    "ale": 506,
    "Ġrealistic": 5862,
    "Ġresid": 22543,
    "Ġhabitu": 19531,
    "Ġjeer": 24125,
    "Ġhysterical": 26093,
    "Ġtass": 15471,
    "Ġdeclaring": 19423,
    "Ġscent": 10286,
    "Ġ134": 24783,
    "Ġtamely": 24982,
    "arched": 10816,
    "Ġpagan": 7119,
    "Ġdisagree": 22537,
    "Ġopposed": 11189,
    "Ġdarker": 13123,
    "Ġjealousy": 13579,
    "venerable": 26409,
    "cooper": 19192,
    "Ġmaids": 19694,
    "Ġfails": 13317,
    "announce": 24560,
    "utions": 1888,
    "Ġcommotion": 9782,
    "displayed": 20738,
    "aling": 1034,
    "Ġsignifies": 19207,
    "Ġdoors": 6419,
    "Ġdumb": 7844,
    "Ġfocused": 16344,
    "entric": 11621,
    "umblings": 23897,
    "aloft": 8810,
    "icles": 17975,
    "Ġterminating": 23514,
    "hoped": 20912,
    "tch": 9143,
    "kward": 6958,
    "Ġtattooing": 15029,
    "grasp": 16432,
    "Ġocc": 888,
    "Ġfarthest": 23120,
    "Ġbow": 3058,
    "Ġsmoked": 10325,
    "Ġenjoy": 3759,
    "Ġascended": 8669,
    "Ġconsolation": 6210,
    ",âĢĿ": 580,
    "ó": 180,
    "nut": 12498,
    "retrie": 18926,
    "Ġbery": 13900,
    "Ġsalisbury": 24068,
    "Ġtipt": 21176,
    "unning": 4493,
    "miles": 10713,
    "Ġavalanche": 17435,
    "plumed": 21960,
    "Ġmumbled": 17809,
    "Ġpoisoned": 24887,
    "ulated": 6032,
    "mounting": 25208,
    "ĠâĢĶâĢľ_": 17719,
    "Ġdu": 4583,
    "Ġhunks": 18938,
    "pause": 12504,
    "Ġcentral": 7729,
    "Ġexperienced": 6584,
    "Ġtooth": 9194,
    "Ġnomin": 10192,
    "ĠâĢĺ_": 11118,
    "approach": 24834,
    "presbyter": 20621,
    "glasses": 11216,
    "liest": 6296,
    "etuous": 21587,
    "Ġapparel": 20439,
    "Ġmodel": 509,
    "Ġcontracted": 12864,
    "ubb": 1652,
    "irmed": 9241,
    "scap": 22994,
    "Ġclumsy": 9581,
    "Ġye": 900,
    "Ġfurnaces": 24008,
    "Ġassociation": 24710,
    "Ġexercise": 8360,
    "mild": 15394,
    "gang": 17554,
    "Ġissues": 9544,
    "flour": 23969,
    "Ġabsorbed": 12334,
    "Ġcorporeal": 17362,
    "Ġglossy": 15230,
    "Ġundertone": 23244,
    "Ġshining": 8173,
    "Ġprehensile": 26535,
    "umst": 2502,
    "Ġmistakes": 16542,
    "ifford": 15787,
    "Ġbeckoned": 25794,
    "iriously": 18174,
    "Ġburg": 23656,
    "hum": 3777,
    "Ġcoachman": 15001,
    "Ġbut": 424,
    "Ġmeeting": 5193,
    "clo": 5612,
    "Ġlining": 13953,
    "Ġjobs": 24833,
    "Ġinches": 5846,
    "Ġgid": 13964,
    "Ġhamp": 12634,
    "Ġdownwards": 8532,
    "gentleness": 24845,
    "Ġroyals": 19535,
    "Ġparch": 11729,
    "ĠĠĠĠĠĠĠĠĠĠĠĠĠĠĠĠĠĠĠĠĠĠĠĠĠĠĠ": 14888,
    "intentions": 22943,
    "Ġbrew": 23346,
    "Ġcounsel": 13618,
    "Ġunfrequently": 20741,
    "finally": 9501,
    "Ġdeduce": 8338,
    "Ġpreaching": 15929,
    "Ġbetter": 1174,
    "monster": 8595,
    "Ġprecipitous": 24836,
    "eldest": 22805,
    "icant": 21566,
    "brows": 17498,
    "kinder": 24846,
    "point": 6065,
    "absolut": 8460,
    "Ġenglishmen": 19433,
    "Ġprettier": 23767,
    "f": 74,
    "persuade": 13535,
    "grat": 5052,
    "acetti": 13399,
    "Ġoverl": 18427,
    "Ġsave": 4053,
    "Ġpsych": 10178,
    "Ġdrawling": 19440,
    "Ġpersecutor": 26097,
    "ounts": 4650,
    "?--": 15306,
    "finer": 17547,
    "Ġelevate": 24498,
    "story": 9214,
    "Ġfancying": 12116,
    "speckled": 23948,
    "Ġdru": 8424,
    "unching": 18161,
    "Ġfeedback": 23435,
    "Ġanswerable": 23474,
    "Ġatt": 777,
    "cho": 2758,
    "Ġdevelop": 1598,
    "Ġbreckinridge": 14523,
    "Ġrepositories": 23366,
    "instantly": 7507,
    "Ġworn": 6446,
    "Ġsimon": 5172,
    "Ġgiver": 21609,
    "Ġlinked": 15080,
    "makers": 20984,
    "Ġhart": 17924,
    "Ġending": 18924,
    "Ġword": 1054,
    "Ġcharmed": 16763,
    "fly": 13716,
    "glorious": 19370,
    "Ġsilently": 6894,
    "Ġ8": 5433,
    "Ġpeered": 18669,
    "Ġstagger": 10593,
    "Ġspitz": 14150,
    "whiskers": 12314,
    "5": 25,
    "Ġrecurrent": 1802,
    "Ġspanish": 2825,
    "abbering": 21801,
    "Ġ166": 25007,
    "Ġrenow": 18030,
    "Ġintent": 6410,
    "Ġruins": 16161,
    "Ġduplicates": 17218,
    "Ġhostile": 19943,
    "Ġrepeating": 11214,
    "riminately": 16484,
    "Ġgemini": 26470,
    "Ġhellaswag": 24342,
    "bbles": 13694,
    "Ġimputed": 12812,
    "Ġ129": 24473,
    "Ġdesire": 3717,
    "quarrel": 20018,
    "Ġfriesland": 26443,
    "sex": 12717,
    "itters": 10782,
    "Ġabundant": 17156,
    "lay": 5893,
    "Ġgods": 6455,
    "Ġdab": 15591,
    "recurrent": 4994,
    "Ġconstitution": 20112,
    "Ġfortresses": 23623,
    "Ġchief": 3382,
    "ures": 838,
    "Ġgracechurch": 12202,
    "Ġcomputers": 2644,
    "momentum": 4991,
    "Ġroods": 22409,
    "Ġlumps": 21560,
    "Ġstraightway": 9019,
    "Ġpreceded": 13431,
    "tempted": 26404,
    "Ġprofessed": 14726,
    "Ġneighbours": 8304,
    "Ġexchange": 15757,
    "asy": 5296,
    "Ġthinner": 24184,
    "Ġlatitudes": 9498,
    "Ġsuspected": 9064,
    "Ġdesolation": 12272,
    "Ġcapst": 8599,
    "olly": 3228,
    "Ġdepths": 4327,
    "Ġ53": 19638,
    "Ġspain": 15883,
    "rospect": 11614,
    "hear": 10148,
    "Ġincorporate": 20457,
    "Ġhaz": 12759,
    "Ġchilian": 25564,
    "Ġsilken": 16381,
    "southern": 20412,
    "Ġadvocate": 13679,
    "reast": 17759,
    "Ġdemo": 10880,
    "eties": 10838,
    "Ġholiest": 18814,
    "ĠĠĠĠĠĠĠĠĠĠĠĠĠĠĠĠĠĠĠĠĠĠĠĠ": 5322,
    "touched": 15441,
    "Ġnecessary": 4473,
    "arranged": 19321,
    "Ġoccup": 3739,
    "Ġtumbling": 13827,
    "nerable": 16277,
    "ornamented": 26596,
    "Ġfriends": 2653,
    "Ġblacksmiths": 19875,
    "ended": 1834,
    "Ġdoomed": 11343,
    "umer": 9260,
    "Ġtanning": 17730,
    "ear": 8734,
    "mariners": 19551,
    "presence": 18497,
    "Ġsoldiers": 8690,
    "raction": 8139,
    "Ġblandly": 20326,
    "compliment": 11365,
    "Ġincident": 6282,
    "disposed": 25013,
    "Ġgenerative": 5644,
    "Ġpioneer": 17921,
    "Ġcanopy": 18329,
    "snowy": 20286,
    "Ġabstract": 17183,
    "whip": 22242,
    "Ġarbitrary": 4736,
    "worship": 19390,
    "Ġdisconnected": 22530,
    "Ġrugged": 18721,
    "Ġfretfully": 25448,
    "Ġflushed": 13031,
    "Ġuneasy": 8665,
    "execut": 13658,
    "Ġpooh": 18605,
    "apologizing": 26545,
    "Ġshillings": 15838,
    "Ġfrank": 4420,
    "Ġtapering": 8775,
    "ellect": 7381,
    "Ġchina": 8041,
    "Ġtoiling": 15638,
    "Ġsecre": 5493,
    "Ġinestimable": 17444,
    "elter": 21575,
    "title": 17289,
    "omb": 10207,
    "Ġscandalous": 24880,
    "ä": 165,
    "akers": 9742,
    "Ġhorseback": 14852,
    "oblig": 16293,
    "Ġisolation": 17152,
    "Ġrailway": 15022,
    "oriental": 23723,
    "itia": 11581,
    "Ġcasual": 11410,
    "Ġledgers": 23941,
    "Ġflorid": 17137,
    "Ġproprietors": 20189,
    "Ġjacket": 6490,
    "Ġusages": 15923,
    "Ġbreathed": 11221,
    "worm": 15455,
    "Ġtweed": 22681,
    "des": 3175,
    "Ġcandelab": 23852,
    "Ġparcels": 25466,
    "piled": 21017,
    "welt": 12524,
    "Ġtwig": 11853,
    "Ġdetaining": 25820,
    "ellig": 523,
    "escaped": 14232,
    "Ġinterruption": 9475,
    "Ġ52": 24316,
    "Ġantiqu": 12148,
    "Ġslay": 16309,
    "assault": 22310,
    "spee": 9319,
    "Ġaccuse": 14213,
    "Ġsocieties": 20185,
    "ved": 868,
    "Ġpict": 3501,
    "scuttle": 11913,
    "7": 27,
    "vishnoo": 21122,
    "Ġbeliever": 25847,
    "cket": 3686,
    "Ġwalrus": 14975,
    "Ġforehead": 5262,
    "elect": 20848,
    "rebell": 17764,
    "Ġsuppression": 23004,
    "Ġaerial": 21201,
    "Ġframe": 1910,
    "allic": 12817,
    "ascending": 24706,
    "zetts": 17715,
    "inked": 12917,
    "Ġskipper": 22801,
    "profess": 10630,
    "Ġpand": 21459,
    "baggage": 24927,
    "ientiously": 21946,
    "maged": 15396,
    "Ġfaintly": 14917,
    "rd": 17650,
    "Ġdiligent": 25078,
    "Ġsickle": 24247,
    "Ġimmort": 19487,
    "estic": 4955,
    "twas": 15439,
    "Ġmanx": 7907,
    "pos": 15412,
    "Ġpours": 17914,
    "writer": 14649,
    "Ġproced": 2578,
    "Ġbra": 3255,
    "Ġtal": 7565,
    "Ġnew": 1197,
    "Ġsideboard": 10387,
    "ration": 2004,
    "Ġcomfortable": 6097,
    "Ġdirt": 15597,
    "rons": 21042,
    "fleece": 19951,
    "Ġduplicity": 25332,
    "Ġgolden": 5337,
    "uments": 5551,
    "burning": 25081,
    "Ġirish": 14535,
    "Ġconsequently": 8061,
    "telesc": 22820,
    "Ġladder": 8601,
    "Ġcountry": 2531,
    "Ġlanguid": 14215,
    "fen": 20852,
    "Ġpursue": 6316,
    "iet": 1773,
    "Ġunwe": 15841,
    "usiveness": 22298,
    "owing": 7603,
    "torm": 11532,
    "Ġgrop": 12668,
    "Ġbeat": 4491,
    "Ġtidings": 11398,
    "Ġnick": 21527,
    "Ġexceeded": 14435,
    "originally": 24940,
    "Ġsgd": 3131,
    "Ġpret": 3034,
    "Ġdinner": 4246,
    "Ġcensure": 15098,
    "likewise": 13108,
    "q": 85,
    "jac": 8383,
    "Ġtruth": 3321,
    "Ġdesiring": 14415,
    "Ġrepentance": 15163,
    "Ġlegal": 10440,
    "sought": 15429,
    "thirty": 12766,
    "rise": 6228,
    "Ġvanquished": 22881,
    "Ġlany": 21558,
    "ateg": 1360,
    "Ġappointed": 20106,
    "Ġtreatise": 19348,
    "twelve": 14622,
    "Ġrazor": 22655,
    "Ġgroup": 2039,
    "muring": 17602,
    "wrath": 23758,
    "invested": 17119,
    "Ġglimpse": 6944,
    "Ġanimate": 23425,
    "pan": 10717,
    "Ġpretty": 3859,
    "kov": 17587,
    "Ġtragedies": 25242,
    "Ġsuccess": 3610,
    "gings": 7550,
    "Ġgaieties": 24197,
    "sworn": 24258,
    "Ġresidual": 1679,
    "Ġgrec": 18964,
    "properly": 24919,
    "Ġclearly": 6897,
    "opotam": 22484,
    "Ġmacro": 25940,
    "urmount": 13998,
    "Ġhovered": 12635,
    "Ġfresher": 23217,
    "upon": 2720,
    "Ġchild": 2259,
    "Ġdistribut": 842,
    "Ġundressed": 19516,
    "deep": 1052,
    "Ġ21": 11200,
    "sensibility": 25026,
    "uned": 21876,
    "Ġindolent": 13009,
    "Ġmumbling": 11576,
    "ws": 7355,
    "plun": 15818,
    "Ġglance": 4235,
    "fort": 1749,
    "bes": 6644,
    "Ġportion": 7493,
    "Ġtablets": 13158,
    "Ġstreng": 18073,
    "Ġbond": 21387,
    "itig": 1331,
    "miraculous": 26397,
    "Ġbasket": 9574,
    "grant": 10428,
    "Ġwhistled": 24625,
    "Ġhorrify": 23822,
    "nered": 18495,
    "suspended": 15180,
    "Ġbishop": 13904,
    "Ġ61": 24363,
    "palms": 25263,
    "Ġberyl": 20493,
    "Ġpa": 2989,
    "nui": 21002,
    "reasoning": 9478,
    "Ġbeaches": 18087,
    "fem": 17538,
    "Ġhel": 3785,
    "bond": 17491,
    "Ñ": 146,
    "Ġ67": 19663,
    "Ġ179": 19757,
    "Ġsincer": 13070,
    "Ġacquies": 11098,
    "idel": 5301,
    "Ġcontradicted": 20214,
    "dragging": 16610,
    "Ġalongside": 6313,
    "Ġslip": 8956,
    "friends": 8307,
    "Ġarts": 11009,
    "Ġchinese": 14183,
    "Ġendeavored": 19305,
    "Ġseam": 3906,
    "Ġannesley": 19580,
    "Ġunforgiving": 25996,
    "Ġform": 1024,
    "Ġhumour": 7933,
    "oing": 15403,
    "centred": 25020,
    "gen": 6504,
    "screen": 23000,
    "Ġdestination": 19151,
    "ghan": 19458,
    "ula": 2822,
    "Ġcobb": 14277,
    "Ġdecayed": 22829,
    "cing": 1013,
    "rely": 6125,
    "Ġ550": 19639,
    "Ġsevered": 18206,
    "Ġpicked": 6343,
    "oso": 12834,
    "waiter": 24588,
    "Ġwrenching": 17325,
    "yesterday": 10354,
    "Ġstum": 21736,
    "Ġcame": 1301,
    "Ġhot": 4259,
    "nical": 20993,
    "blue": 13696,
    "Ġdemoniac": 15069,
    "Ġsoften": 23127,
    "charles": 14701,
    "Ġbrass": 11049,
    "Ġbre": 1913,
    "Ġwester": 25156,
    "Ġgoal": 10303,
    "Ġper": 587,
    "Ġcommanding": 16591,
    "erred": 6377,
    "Ġspeculations": 23002,
    "shrouded": 26363,
    "Ġvillagers": 19477,
    "Ġordained": 19448,
    "thrust": 10263,
    "extracts": 22761,
    "Ġraving": 16114,
    "wood": 5900,
    "Ġwade": 17786,
    "Ġvincent": 15286,
    "note": 14342,
    "Ġwarrior": 24495,
    "Ġbabes": 24424,
    "Ġstaggers": 24654,
    "Ġindist": 14410,
    "umphed": 23520,
    "Ġprescribed": 26011,
    "Ġspires": 11733,
    "Ġloath": 7893,
    "obser": 11100,
    "Ġarea": 14188,
    "Ġpanel": 13375,
    "ß": 160,
    "Ġoctavo": 15166,
    "concerns": 24583,
    "shame": 16021,
    "assure": 9271,
    "ptember": 10894,
    "thrill": 25657,
    "presume": 25670,
    "ashion": 3857,
    "Ġhardy": 8569,
    "embarr": 17294,
    "bottom": 11427,
    "binary": 20786,
    "ruct": 682,
    "Ġslaves": 23174,
    "Ġcommitted": 7431,
    "count": 4216,
    "Ġiter": 2950,
    "Ġimpro": 917,
    "ed": 293,
    "Ġrefreshment": 17241,
    "Ġnumerous": 6920,
    "Ġpreserve": 7530,
    "apprehension": 26115,
    "Ġprobed": 18735,
    "rese": 15510,
    "act": 789,
    "anche": 10789,
    "Ġpilot": 5987,
    "Ġmyself": 1457,
    "follows": 24527,
    "oters": 21804,
    "Ġdistricts": 20266,
    "princip": 17138,
    "Ġenclosure": 20627,
    "Ġseizing": 7881,
    "Ġapprehending": 26092,
    "Ġcounteracted": 19864,
    "Ġstamping": 20034,
    "mir": 20965,
    "enthusiastic": 20695,
    "oop": 10716,
    "driven": 19774,
    "ullied": 23108,
    "Ġspasmod": 12417,
    "Ġtransactions": 18502,
    "Ġunhappiness": 14119,
    "naught": 20996,
    "Ġfishes": 11593,
    "protection": 19922,
    "Ġhurt": 7702,
    "Ġinvincible": 23483,
    "Ġengine": 1920,
    "Ġinfluenced": 19635,
    "Ġcontinues": 18811,
    "Ġprompt": 3192,
    "asis": 12654,
    "Ġwithdraw": 16965,
    "Ġbig": 5806,
    "1775": 26379,
    "Ġmuteness": 19420,
    "credit": 12452,
    "Ġ12": 5483,
    "relatively": 24017,
    "contrivance": 26317,
    "Ġhat": 2770,
    "Ġprim": 8245,
    "mankind": 14376,
    "ators": 7830,
    "greatly": 16625,
    "Ġrowing": 10302,
    "Ġexotic": 21836,
    "Ġdeportment": 22602,
    "Ġcomforts": 14695,
    "mushroom": 26396,
    "Ġwer": 12556,
    "Ġtenderly": 11315,
    "lig": 3176,
    "Ġgregarious": 18967,
    "Ġgrew": 5182,
    "batch": 1982,
    "done": 6501,
    "Ġnamed": 6141,
    "Ġcabman": 14606,
    "Ġsimilarly": 24309,
    "itiously": 13873,
    "union": 15773,
    "idirection": 2411,
    "owners": 16090,
    "Ġmand": 21307,
    "ifferent": 4264,
    "due": 22415,
    "Ġruff": 14351,
    "puzz": 17641,
    "Ġwhalers": 8049,
    "Ġirreparable": 20002,
    "iterranean": 15553,
    "Ġeccentric": 13652,
    "Ġcarpenter": 4685,
    "barbaric": 26360,
    "Ġmerest": 14033,
    "Ġorchard": 22099,
    "fast": 3067,
    "atra": 17772,
    "Ġmeanwhile": 5736,
    "Ġnovelty": 13466,
    "william": 4561,
    "Ġsuggestive": 11298,
    "ulance": 15770,
    "ith": 330,
    "Ġlav": 13952,
    "ceptibly": 22359,
    "Ġprovision": 14827,
    "Ġunheeded": 18259,
    "Ġendeavours": 8621,
    "Ġthinks": 6171,
    "fatig": 17089,
    "Ġbearded": 15730,
    "Ġdef": 1201,
    "Ġintricacies": 15141,
    "Ġderives": 16311,
    "omorrah": 18020,
    "Ġunlim": 18251,
    "Ġcapting": 23025,
    "Ġsuffice": 18871,
    "Ġdisastrous": 16063,
    "Ġcalcul": 3637,
    "forster": 16169,
    "Ġber": 5698,
    "Ġpeninsula": 23200,
    "destiny": 16700,
    "Ġstowing": 18074,
    "Ġunalterable": 15854,
    "Ġrecollections": 10514,
    "Ġbestir": 13113,
    "Ġnecks": 18185,
    "Ġbrahma": 26321,
    "onement": 21259,
    "vanity": 24979,
    "ro": 301,
    "Ġhaggerston": 26453,
    "Ġastonishment": 4794,
    "Ġrustling": 24714,
    "Ġfalling": 6915,
    "Ġsituations": 10493,
    "ses": 3025,
    "rich": 11519,
    "moonlight": 25376,
    "chair": 5919,
    "activation": 3233,
    "Ġnearer": 5303,
    "onies": 6807,
    "mistak": 16879,
    "grew": 17556,
    "Ġineffectual": 17386,
    "attle": 4466,
    "Ġroof": 6566,
    "erative": 21275,
    "Ġcombinations": 22857,
    "Ġexception": 11217,
    "Ġfarmhouse": 24989,
    "Ġreadability": 2723,
    "irous": 8842,
    "Ġhastily": 5763,
    "Ġparm": 15880,
    "Ġrigid": 16717,
    "Ġblinded": 13274,
    "borean": 25744,
    "iant": 5427,
    "inities": 21188,
    "circumamb": 26088,
    "Ġdevoutly": 25834,
    "Ġbreast": 8970,
    "encounter": 20395,
    "Ġoutrageous": 20613,
    "Ġmysteries": 11323,
    "eping": 5835,
    "tol": 17673,
    "Ġlowerings": 23651,
    "fitting": 1512,
    "Ġmeanings": 18609,
    "Ġstepping": 9356,
    "Ġdistraction": 22511,
    "Ġbenef": 3490,
    "Ġskewer": 19623,
    "Ġhesitated": 10004,
    "Ġcam": 10163,
    "Ġgloom": 4205,
    "menced": 23151,
    "ting": 1333,
    "eling": 6683,
    "Ġuncomfortable": 8488,
    "Ġpupils": 20424,
    "alous": 7372,
    "umbling": 6614,
    "fect": 2299,
    "Ġinquest": 16549,
    "Ġvarieties": 14312,
    "Ġbour": 4876,
    "certainly": 5340,
    "Ġslouched": 13063,
    "itering": 17820,
    "Ġgir": 2255,
    "oce": 10715,
    "Ġbambooz": 26120,
    "Ġsprain": 18306,
    "Ġhunters": 6302,
    "Ġcreation": 6440,
    "further": 7536,
    "affairs": 14657,
    "gement": 13730,
    "Ġrepining": 23362,
    "Ġranged": 10259,
    "learnt": 23555,
    "determination": 19948,
    "Ġrejected": 12297,
    "gay": 11490,
    "cowardly": 25750,
    "og": 858,
    "Ġbodily": 6108,
    "Ġscript": 18399,
    "Ġobligation": 13247,
    "Ġdistances": 22509,
    "Ġdrowning": 19906,
    "Ġdesist": 16239,
    "Ġcre": 889,
    "Ġexplained": 5938,
    "Ġassembl": 20064,
    "enet": 10154,
    "aking": 974,
    "Ġrecollect": 8311,
    "Ġjavan": 25002,
    "Ġ107": 24414,
    "Ġautumn": 14510,
    "Ġouter": 6859,
    "yp": 1045,
    "Ġmaketh": 15190,
    "Ġcontents": 7210,
    "Ġadequ": 10914,
    "Ġapologize": 15131,
    "Ġprejudiced": 24806,
    "Ġsurgeons": 23466,
    "Ġgore": 17991,
    "Ġattention": 1169,
    "Ġappellation": 22224,
    "precedented": 15177,
    "Ġnowadays": 18547,
    "Ġcoil": 11821,
    "Ġinto": 647,
    "Ġpike": 12627,
    "Ġcolds": 23760,
    "explanations": 25235,
    "vessel": 11378,
    "matic": 4617,
    "eryton": 4095,
    "Ġindeed": 1681,
    "Ġineffable": 17334,
    "Ġcircumnavigation": 20403,
    "shabb": 18489,
    "decan": 22146,
    "Ġcompan": 2175,
    "quohog": 21863,
    "Ġdiffusion": 23785,
    "camp": 15332,
    "rene": 5379,
    "overs": 17622,
    "×": 152,
    "?_": 8071,
    "Ġlandsc": 11147,
    "longing": 23728,
    "Ġpequod": 2322,
    "agre": 18167,
    "Ġinexhaustible": 16982,
    "couldn": 23720,
    "Ġprivately": 19526,
    "inconsiderable": 21194,
    "Ġtottenham": 24144,
    "Ġbroad": 3639,
    "Ġelegant": 7533,
    "curious": 10484,
    "Ġindisposed": 26289,
    "Ġqueequeg": 2012,
    "sac": 7142,
    "Ġimprecate": 20521,
    "Ġabraham": 18396,
    "benevolently": 25601,
    "Ġdeductions": 19735,
    "Ġfloor": 4379,
    "Ġcocksure": 26260,
    "Ġsolitude": 6876,
    "Ġstruck": 3390,
    "Ġestablished": 9071,
    "_âĢĶâĢĻâĢĿ": 25742,
    "brain": 13690,
    "spin": 22737,
    "different": 6502,
    "Ġso": 433,
    "Ġthrusting": 10554,
    "Ġunimaginable": 15249,
    "Ġringle": 18211,
    "Ġsufferings": 7514,
    "Ġsources": 10149,
    "Ġcentaurs": 23836,
    "Ġgain": 4828,
    "Ġstalk": 12701,
    "Ġarticle": 9504,
    "Ġalfred": 21791,
    "Ġjog": 18405,
    "Ġfounder": 17885,
    "complete": 15036,
    "Ġstruct": 2781,
    "nd": 11505,
    "Ġviews": 7290,
    "Ġsteadfastly": 10653,
    "Ġdrows": 21439,
    "emed": 3381,
    "Ġdraughts": 20224,
    "Ġsigma": 1541,
    "Ġdefer": 18824,
    "designated": 26320,
    "az": 2183,
    "Ġapple": 14169,
    "Ġsprawling": 22144,
    "Ġseated": 4540,
    "Ġstories": 10866,
    "Ġcompress": 21854,
    "Ġroasted": 18461,
    "Ġorganize": 8993,
    "Ġrisks": 9966,
    "Ġgirdled": 19161,
    "Ġventilator": 8717,
    "was": 1423,
    "Ġmixing": 24937,
    "Ġbloodshed": 23803,
    "Ġrevers": 21668,
    "hew": 5286,
    "vex": 21702,
    "Ġaudacity": 19884,
    "Ġbalances": 2340,
    "linked": 17594,
    "ital": 4818,
    "Ġcasually": 25096,
    "factories": 19846,
    "pennies": 26287,
    "Ġwail": 21289,
    "Ġcust": 11584,
    "represent": 9639,
    "Ġthw": 21519,
    "Ġfeet": 2257,
    "Ġface": 1722,
    "Ġinsomuch": 23686,
    "lounged": 26134,
    "scores": 22996,
    "Ġobtain": 8917,
    "Ġclasp": 9745,
    "Ġcontin": 5382,
    "Ġblemish": 19682,
    "arrival": 15603,
    "il": 329,
    "philosop": 9569,
    "precaution": 23826,
    "Ġunhe": 22013,
    "Ġfast": 1717,
    "at": 268,
    "Ġchained": 16390,
    "Ġnonsense": 6983,
    "Ġregion": 2271,
    "arrow": 4183,
    "Ġelix": 22648,
    "Ġpurposes": 11169,
    "problems": 11435,
    "Ġbackbones": 22663,
    "Ġheiress": 20700,
    "string": 15689,
    "ugues": 19021,
    "oul": 4699,
    "Ġpunctually": 17140,
    "Ġstrang": 4163,
    "Ġinvader": 23482,
    "Ġchimneys": 16973,
    "Ġhorizont": 6937,
    "Ġtopmost": 14588,
    "Ġthimble": 15640,
    "ivering": 7700,
    "wandering": 20287,
    "Ġmamm": 25093,
    "zy": 2667,
    "Ġhunch": 18937,
    "ansion": 10926,
    "possibly": 10545,
    "tempered": 13449,
    "easy": 9594,
    "Ġstudent": 14477,
    "Ġcannibals": 10589,
    "attempted": 20177,
    "bal": 2156,
    "Ġrecept": 1525,
    "ologically": 22876,
    "Ġconsc": 4276,
    "bearer": 18522,
    "content": 11199,
    "Ġscenari": 22292,
    "Ġhistories": 14688,
    "Ġproperty": 6451,
    "bs": 3774,
    "Ġregularizer": 2339,
    "whar": 15930,
    "ifying": 5252,
    "painful": 13504,
    "feeling": 6619,
    "hens": 3938,
    "rench": 3968,
    "Ġdecent": 10983,
    "ached": 2321,
    "Ġsaw": 1349,
    "Ġghostliness": 24652,
    "ails": 6162,
    "Ġsands": 14950,
    "tese": 21086,
    "Ġfitting": 21412,
    "Ġmabel": 17326,
    "lee": 11587,
    "Ġweaken": 21927,
    "alization": 733,
    "Ġconverted": 16118,
    "Ġposition": 1952,
    "Ġseveral": 2670,
    "Ġconcluded": 5658,
    "Ġfrance": 7684,
    "forbid": 14356,
    "reward": 15511,
    "access": 11181,
    "mas": 5212,
    "Ġentrapped": 26264,
    "torture": 26152,
    "vocabulary": 25088,
    "Ġbab": 5291,
    "Ġmaddening": 17244,
    "Ġdriver": 16475,
    "Ġthrice": 10577,
    "Ġrisk": 8040,
    "Ġkeepers": 23541,
    "Ġtheme": 16025,
    "Ġservices": 11218,
    "Ġcocain": 18596,
    "Ġexpedition": 10636,
    "ructed": 7029,
    "shop": 14237,
    "Ġunw": 7005,
    "Ġvapory": 17007,
    "Ġfundamentals": 14636,
    "Ġspinning": 15054,
    "Ġrose": 3444,
    "Ġcreativity": 3161,
    "pillar": 5618,
    "ivity": 1703,
    "swim": 16780,
    "Ġmethods": 3162,
    "Ġlaborious": 13106,
    "animation": 16980,
    "Ġdisp": 3359,
    "Ġdiffer": 18678,
    "Ġgasping": 17038,
    "Ġsmothered": 20722,
    "Ġmidships": 23636,
    "hound": 20897,
    "Ġpregn": 22237,
    "Ġlowered": 6737,
    "!": 5,
    "Ġrespectfully": 18995,
    "Ġpositively": 13035,
    "blasted": 20192,
    "Ġacquaint": 13049,
    "Ġclergyman": 8715,
    "Ġoffer": 4844,
    "Ġequin": 14496,
    "dispositions": 25014,
    "women": 15458,
    "Ġcausing": 16360,
    "delightful": 12200,
    "Ġsurvive": 9069,
    "b": 70,
    "Ġprevents": 2556,
    "Ġfatal": 5873,
    "Ġdrew": 3538,
    "Ġsenate": 25215,
    "riptions": 14797,
    "Ġhandsom": 11125,
    "crowded": 20193,
    "pressed": 6589,
    "Ġquote": 18467,
    "Ġforging": 18096,
    "rane": 17654,
    "Ġswarming": 16274,
    "ancy": 4394,
    "Ġcreaking": 14332,
    "Ġamends": 14247,
    "Ġexploded": 15912,
    "Ġsigns": 2442,
    "Ġspeedy": 11173,
    "Ġaqu": 17743,
    "Ġprobability": 1125,
    "Ġmarched": 18873,
    "pop": 17632,
    "obedience": 17412,
    "even": 3836,
    "winter": 10741,
    "signs": 16540,
    "Ġtranquillity": 7537,
    "Ġnatur": 17336,
    "Ġtearless": 24785,
    "Ġintrospect": 15831,
    "Ġfing": 3756,
    "Ġhats": 14619,
    "Ġimbu": 15894,
    "Ġbeheld": 4492,
    "Ġinducements": 24970,
    "ography": 13366,
    "e": 73,
    "Ġdownstream": 3773,
    "Ġshower": 11713,
    "Ġcontrary": 5261,
    "muttered": 13761,
    "phants": 9322,
    "Ġinconsiderable": 21499,
    "Ġreverber": 19871,
    "Ġcooped": 22586,
    "Ġexcluded": 16387,
    "embraced": 25805,
    "aud": 8524,
    "Ġwrites": 23205,
    "Ġ11": 5319,
    "Ġwhere": 788,
    "Ġinstinct": 6576,
    "running": 6798,
    "Ġhails": 21955,
    "ets": 1160,
    "Ġpractises": 23371,
    "Ġtorn": 6002,
    "Ġnarrations": 24351,
    "Ġhigher": 1820,
    "Ġwrench": 12561,
    "Ġgarments": 15196,
    "repaid": 24490,
    "Ġsneeze": 24698,
    "Ġconceived": 8151,
    "Ġtide": 6661,
    "appeared": 4283,
    "Ġdrowsy": 26445,
    "Ġscorched": 17101,
    "nameless": 19905,
    "inferences": 17740,
    "Ġcommended": 18657,
    "frame": 17116,
    "Ġactuated": 18546,
    "Ġunquestionable": 26223,
    "Ġreser": 5170,
    "hearse": 17749,
    "Ġinjuring": 24270,
    "Ġclustered": 25234,
    "itary": 4751,
    "arding": 22162,
    "Ġdenoted": 16567,
    "Ġsanct": 15066,
    "Ġadvers": 4887,
    "Ġspermacetti": 19051,
    "arthy": 4823,
    "Ġmeetings": 16534,
    "pict": 8387,
    "fur": 6357,
    "Ġcane": 10930,
    "Ġgifts": 21616,
    "Ġdropout": 1560,
    "Ġunre": 3480,
    "bid": 5610,
    "Ġby": 383,
    "Ġtomb": 8811,
    "zwilliam": 5074,
    "Ġwherein": 14297,
    "Ġwidows": 24238,
    "Ġconcise": 23326,
    "allest": 5485,
    "Ġattic": 16098,
    "regarded": 12010,
    "Ġconsider": 2567,
    "Ġgl": 1255,
    "Ġshipping": 14106,
    "avery": 13686,
    "Ġswing": 13041,
    "Ġought": 3420,
    "Ġacts": 2293,
    "Ġtwos": 18658,
    "Ġjuggling": 20442,
    "Ġaltering": 18105,
    "Ġengineer": 11977,
    "intended": 11067,
    "Ġdistributed": 18662,
    "Ġslaughtered": 26585,
    "ulates": 14057,
    "Ġcats": 8981,
    "Ġvarious": 3511,
    "Ġpole": 6434,
    "Ġspectacle": 10498,
    "Ġearnest": 3929,
    "Ġcream": 22725,
    "Ġexecute": 7506,
    "Ġbroker": 23105,
    "ctuous": 9207,
    "Ġsloop": 25931,
    "Ġimmediate": 6091,
    "Ġunpitying": 25661,
    "Ġtheology": 21279,
    "ioning": 21513,
    "ulations": 6031,
    "umn": 5836,
    "Ġmounts": 17808,
    "Ġbegin": 3097,
    "Ġ17": 5740,
    "right": 2767,
    "Ġteach": 8555,
    "Ġsharpen": 13572,
    "Ġher": 427,
    "Ġhartshorn": 26182,
    "$": 8,
    "public": 17647,
    "hroom": 12480,
    "Ġshudder": 9052,
    "Ġmalice": 7153,
    "Ġlongitudes": 22640,
    "Ġsickness": 10540,
    "Ġassuming": 16693,
    "acquainted": 7313,
    "Ġhearers": 15706,
    "Ġimposs": 16617,
    "Ġextinguished": 10341,
    "Ġhiding": 9825,
    "Ġimprudently": 22393,
    "ival": 4229,
    "Ġtones": 8402,
    "Ġbran": 5251,
    "Ġspears": 12930,
    "Ġconvinced": 4209,
    "Ġrecognise": 12036,
    "Ġquenched": 22422,
    "Ġencouragement": 13047,
    "fell": 6953,
    "Ġinsinuating": 19273,
    "Ġreciprocating": 26371,
    "ootiful": 17375,
    "Ġimbalanced": 18335,
    "fee": 12884,
    "Ġfasting": 16358,
    "Ġamours": 22487,
    "alid": 13937,
    "proceeded": 25191,
    "thither": 21985,
    "Ġqueerest": 16417,
    "angle": 22108,
    "Ġawake": 8273,
    "Ġbeing": 1165,
    "Ġnasty": 17445,
    "Ġrealise": 16340,
    "Ġunfold": 8023,
    "Ġlawless": 19438,
    "Ġremove": 7500,
    "stochastic": 3772,
    "Ġare": 527,
    "ural": 504,
    "Ġvindictiveness": 25739,
    "ľ": 255,
    "Ġoutermost": 22324,
    "Ġarrange": 3121,
    "ineas": 15829,
    "Ġclang": 15965,
    "Ġvenge": 5420,
    "ess": 411,
    "Ġturtle": 4207,
    "roof": 17956,
    "Ġfle": 3089,
    "Ġcompatibility": 2957,
    "magnetic": 20555,
    "Ġsummer": 4790,
    "Ġzoology": 22823,
    "Ġwes": 8782,
    "adders": 24399,
    "Ġunlocking": 20708,
    "Ġvoyages": 6909,
    "weary": 22690,
    "Ġcollege": 11425,
    "Ġled": 3523,
    "considerable": 10550,
    "Ġprom": 1529,
    "Ġblasp": 14403,
    "Ġrivers": 9444,
    "rence": 5554,
    "squ": 7810,
    "Ġkeel": 6445,
    "Ġexe": 3995,
    "Ġrepublic": 14532,
    "eu": 17531,
    "nar": 12497,
    "Ġinvests": 14870,
    "Ġalexander": 17426,
    "diss": 17524,
    "Ġcrumbs": 19124,
    "Ġdangerous": 6616,
    "Ġcover": 3558,
    "Ġadieus": 25113,
    "ffic": 22156,
    "Ġresolves": 23652,
    "Ġsund": 8250,
    "Ġcatastrophic": 3543,
    "Ġhers": 7891,
    "Ġpane": 21467,
    "atch": 674,
    "Ġchaise": 9078,
    "dashing": 20838,
    "8": 28,
    "Ġunra": 18235,
    "Ġpledge": 11603,
    "Ġ19": 6721,
    "timidity": 25754,
    "Ġporch": 19683,
    "Ġclifford": 22356,
    "iod": 3838,
    "Ġexciting": 23315,
    "destroyed": 15263,
    "Ġlounging": 10024,
    "Ġpermitting": 22404,
    "-------": 20392,
    "Ġskies": 8923,
    "perform": 15904,
    "Ġswallow": 8952,
    "Ġminuteness": 19140,
    "Ġphilipses": 24451,
    "hatchway": 25905,
    "Ġsnodhead": 19304,
    "arrived": 12613,
    "Ġsheeted": 19834,
    "Ġeurope": 8063,
    "Ġsundry": 20077,
    "Ġruth": 14095,
    "âĢľ": 344,
    "courage": 17511,
    "Ġtaste": 5524,
    "architect": 22896,
    "Ġdocks": 14177,
    "Ġjew": 9469,
    "ray": 2437,
    "Ġstock": 7455,
    "Ġretreated": 13436,
    "utterly": 20015,
    "Ġtransparency": 10678,
    "ouses": 5163,
    "Ġprejudice": 9077,
    "¯": 112,
    "Ġpivot": 13925,
    "stout": 21649,
    "Ġvigorous": 10568,
    "Ġsang": 12539,
    "peare": 18913,
    "Ġbowls": 23772,
    "fing": 13715,
    "asc": 6387,
    "son": 2329,
    "bury": 9109,
    "Ġpresent": 1645,
    "Ġdiscerned": 24959,
    "Ġretrie": 10384,
    "Ġbethinking": 25280,
    "Ġmediocrity": 26609,
    "inable": 11557,
    "granting": 23416,
    "hidden": 17373,
    "top": 4485,
    "Ġinterrupt": 4360,
    "occasional": 19579,
    "Ġadaptive": 1327,
    "Ġdyspeps": 16497,
    "Ġanchors": 12617,
    "surv": 24215,
    "Ġhunger": 8570,
    "Ġriotous": 20547,
    "Ġacquiring": 2764,
    "aug": 1214,
    "Ġacquaintance": 4134,
    "Ġpr": 1601,
    "drovand": 24759,
    "etite": 21583,
    "Ġdenied": 9002,
    "inition": 11558,
    ",)": 9103,
    "Ġvehicle": 20141,
    "Ġsurprised": 3829,
    "Ġlaws": 8004,
    "Ġlapl": 19780,
    "abez": 10224,
    "Ġheathen": 10567,
    "Ġripp": 11220,
    "traced": 19648,
    "Ġcalves": 13039,
    "Ġmediterranean": 12318,
    "Ġremark": 2143,
    "otograph": 5827,
    "obtained": 23099,
    "Ġcounterpart": 24720,
    "Ġtend": 6122,
    "your": 1984,
    "Ġours": 4611,
    "Ġestablishment": 13582,
    "vine": 10735,
    "bearance": 22499,
    "belong": 12126,
    "woe": 21138,
    "plexion": 14265,
    "Ġradiating": 24330,
    "hued": 20913,
    "Ġvillages": 14750,
    "Ġhindoo": 17177,
    "Ġfitted": 6245,
    "oup": 2014,
    "important": 7114,
    "discover": 10541,
    "Ġmeridian": 25713,
    "gover": 10703,
    "Ġearlier": 9089,
    "Ġyojo": 7612,
    "Ġreveries": 11348,
    "Ġstructures": 2718,
    "Ġrachel": 11848,
    "Ġsandwic": 24665,
    "Ġconfines": 23307,
    "Ġrepublican": 17414,
    "Ġphysiognomical": 25612,
    "Ġmournfully": 20120,
    "Ġheartfelt": 18970,
    "Ġprincipally": 11310,
    "Ġovercome": 6046,
    "Ġconvince": 14643,
    "Ġwires": 21298,
    "Ġninetieth": 25358,
    "icirc": 15659,
    "screaming": 20328,
    "scorn": 22995,
    "sive": 4146,
    "Ġcarpets": 18904,
    "Ġtraitors": 23081,
    "Ġwearily": 18180,
    "satisfy": 16893,
    "quaker": 15766,
    "aloons": 20014,
    "Ġcongregation": 12332,
    "Ġapprehended": 26091,
    "shadow": 20315,
    "Ġrates": 1405,
    "Ġpreservative": 24631,
    "Ġstretching": 10017,
    "Ġdiminish": 14747,
    "Ġmilitia": 13321,
    "Ġ109": 24415,
    "Ġdeliverer": 11953,
    "Ġwont": 9852,
    "Ġthoughtful": 16194,
    "Ġmoritz": 11909,
    "Ġpartly": 6715,
    "Ġcapture": 3385,
    "Ġflowery": 16236,
    "Ġdecide": 9289,
    "oak": 21005,
    "Ġliberties": 19670,
    "hogs": 20085,
    "Ġtin": 15465,
    "altering": 12644,
    "Ġwashing": 9707,
    "Ġchanc": 18384,
    "Ġsooty": 25816,
    "attent": 9361,
    "Ġimpertinence": 11367,
    "Ġrome": 12159,
    "put": 414,
    "Ġdauntless": 26338,
    "Ġfedallah": 6110,
    "wherever": 13122,
    "Ġdeclared": 5594,
    "ateness": 15522,
    "virtue": 20572,
    "Ġthy": 2512,
    "Ġmisled": 22763,
    "Ġoccurred": 4462,
    "Ġretreats": 16929,
    "app": 1041,
    "Ġhistorically": 19381,
    "Ġpaul": 12065,
    "Ġschedule": 2371,
    "ssible": 2992,
    "gged": 3776,
    "heed": 15500,
    "slide": 24555,
    "Ġfearfulness": 23516,
    "Ġepo": 21623,
    "rest": 1634,
    "Ġstraighten": 24007,
    "Ġfreshe": 13073,
    "coun": 10689,
    "Ġcorpusants": 13680,
    "othed": 16512,
    "/(": 2982,
    "walked": 10572,
    "Ġreceives": 20357,
    "Ġpursued": 6330,
    "bearers": 18525,
    "Ġoverwhelming": 17102,
    "Ġprairies": 20024,
    "Ġclaw": 22350,
    "Ġgourmand": 26467,
    "oar": 12501,
    "Ġbreat": 3461,
    "reas": 986,
    "uarded": 21108,
    "prove": 11148,
    "Ġconn": 9231,
    "Ġheaps": 11644,
    "ote": 4595,
    "Ġkilling": 13336,
    "contrast": 25595,
    "Ġginger": 9212,
    "country": 6105,
    "Ġ56": 24319,
    "Ġprophe": 13082,
    "----âĢĿ": 13310,
    "Ġcomponents": 8896,
    "Ġflaming": 8567,
    "etime": 12663,
    "thesize": 24907,
    "Ġcertain": 1559,
    "disgrace": 16459,
    "Ġinve": 17931,
    "Ġpod": 15607,
    "Ġsord": 21222,
    "Ġbeaver": 18088,
    "sentence": 2937,
    "Ġclout": 22346,
    "Ġcelebrated": 13597,
    "Ġdiscover": 4718,
    "ding": 3024,
    "Ġilluminate": 17194,
    "Ġpedest": 15068,
    "Ġpemberley": 4587,
    "Ġtower": 8320,
    "Ġshilling": 18229,
    "probable": 17022,
    "absent": 21795,
    "admire": 24946,
    "Ġangelic": 19630,
    "Ġhollowly": 24525,
    "yset": 21148,
    "Ġaccusation": 22386,
    "Ġnois": 4269,
    "results": 20390,
    "Ġsubtle": 6718,
    "Ġblindly": 12113,
    "Ġcakes": 13886,
    "Ġunqualified": 22064,
    "Ġtemperate": 16165,
    "conjectures": 25181,
    "Ġearn": 3548,
    "Ġcautiousness": 19868,
    "Ġoy": 15549,
    "sustained": 20571,
    "egyptians": 25899,
    "Ġcooper": 16081,
    "Ġrav": 14306,
    "Ġcountess": 11966,
    "Ġepic": 15031,
    "tattoo": 21090,
    "Ġgreenness": 23769,
    "pets": 17637,
    "Ġthistle": 21921,
    "Ġdelights": 14597,
    "Ġmodesty": 12821,
    "penet": 11071,
    "Ġforesee": 19126,
    "Ġsounding": 8266,
    "Ġimposing": 11784,
    "closed": 23159,
    "Ġoccupy": 14733,
    "Ġwise": 6812,
    "Ġmiracle": 15096,
    "Ġaccuracy": 1132,
    "Ġschedules": 3387,
    "Ġcommission": 6714,
    "Ġspeakest": 23489,
    "Ġpurest": 14941,
    "Ġhistor": 3391,
    "Ġthe": 270,
    "Ġthackeray": 26456,
    "kingly": 20941,
    "articulate": 17400,
    "Ġbursting": 8659,
    "Ġcoloured": 11046,
    "vacancies": 25920,
    "itute": 9653,
    "Ġ50": 24314,
    "Ġaccomplished": 7106,
    "Ġanalysis": 1946,
    "independ": 15984,
    "Ġlocks": 11727,
    "net": 1196,
    "welcome": 10003,
    "Ġclosely": 6489,
    "Ġhansom": 13667,
    "Ġgn": 8821,
    "gypt": 8262,
    "an": 278,
    "Ġjamming": 17266,
    "Ġsplendidly": 25328,
    "Ġdirectly": 2105,
    "Ġtravelling": 11308,
    "Ġruined": 12958,
    "uming": 8494,
    "Ġprocedural": 12033,
    "Ġstru": 2172,
    "renewed": 19707,
    "itarian": 21340,
    "Ġdespise": 14667,
    "again": 3399,
    "Ġwoodlands": 23524,
    "recklessly": 25270,
    "Ġmagistrate": 8235,
    "Ġyour": 634,
    "Ġsometimes": 2169,
    "plans": 21957,
    "awake": 14454,
    "Ġmachinery": 20488,
    "Ġwilling": 7421,
    "Ġinvestigations": 17248,
    "stalk": 21654,
    "Ġfreshness": 23991,
    "verbally": 25361,
    "ampled": 18886,
    "fal": 17537,
    "tossed": 10998,
    "Ġhardened": 14452,
    "Ġbankers": 24303,
    "Ġroared": 7025,
    "Ġbern": 17860,
    "acquaintance": 6938,
    "lifeless": 24313,
    "Ġsurrounds": 24233,
    "ian": 1238,
    "elstrom": 17984,
    "Ġep": 7384,
    "Ġyourselves": 9030,
    "Ġrare": 7039,
    "Ġimaginary": 11187,
    "istle": 15873,
    "Ġdispose": 23882,
    "Ġfright": 3795,
    ";âĢĿâĢĶ": 20762,
    "requiem": 24857,
    "vice": 15451,
    "Ġchamber": 6215,
    "Ġengrossed": 13001,
    "Ġcomfort": 3440,
    "Ġcrest": 12946,
    "forks": 26388,
    "she": 1398,
    "Ġcomrades": 9235,
    "ase": 1159,
    "Ġliterary": 25166,
    "Ġcolder": 22860,
    "Ġeyelids": 26108,
    "Ġshoulders": 5565,
    "Ġwhisky": 23937,
    "Ġev": 4829,
    "osen": 6855,
    "Ġremot": 8546,
    "Ġengineering": 3023,
    "Ġwarming": 23560,
    "Ġhudson": 15194,
    "preser": 9762,
    "Ġpag": 6013,
    "Ġleaky": 2346,
    "Ġwaterproof": 19088,
    "Ġglaring": 11911,
    "cape": 13700,
    "Ġobvious": 4963,
    "Ġfolds": 12210,
    "Ġsquall": 7045,
    "prick": 19346,
    "Ġlays": 15992,
    "Ġchuck": 8503,
    "commanding": 24751,
    "Ġwouldn": 6048,
    "Ġindustry": 18838,
    "Ġstacked": 21748,
    "ledyard": 22388,
    "Ġhistory": 4010,
    "Ġstubbornness": 25380,
    "Ġcompat": 2936,
    ".,": 5990,
    "Ġunfolded": 10640,
    "Ġchocks": 13349,
    "Ġtask": 1311,
    "_--": 20764,
    "Ġindirectly": 8941,
    "itation": 1779,
    "comfortably": 16876,
    "Ġuniformly": 19149,
    "Ġcape": 5146,
    "Ġforgetfulness": 14607,
    "iards": 17575,
    "que": 1103,
    "Ġmeditations": 25016,
    "Ġheard": 1401,
    "Ġintelligently": 3915,
    "watery": 19829,
    "Ġunaffected": 14123,
    "company": 9463,
    "Ġdews": 21843,
    "ccess": 3186,
    "anations": 12580,
    "ermaid": 14300,
    "Ġstandard": 14497,
    "Ġindu": 5295,
    "Ġdaybreak": 18727,
    "erval": 4022,
    "Ġsettee": 22924,
    "ator": 1923,
    "Ġcash": 9654,
    "Ġwaned": 17793,
    "Ġri": 3395,
    "anguish": 15986,
    "profound": 16428,
    "-": 17,
    "Ġsuspense": 9420,
    "Ġorgies": 18286,
    "Ġpriest": 7527,
    "atically": 2683,
    "iogn": 20923,
    "Ġrattle": 10900,
    "Ġinhabitants": 7525,
    "Ġegg": 8822,
    "herself": 4890,
    "glances": 23856,
    "Ġconclusion": 5988,
    "service": 15038,
    "Ġfreed": 7267,
    "Ġcurses": 13021,
    "Ġefficient": 1050,
    "restrained": 16339,
    "Ġindign": 6175,
    "ego": 4037,
    "Ġwhichever": 14002,
    "Ġsolemnity": 9943,
    "chapter": 1404,
    "Ġclever": 7056,
    "Ġbenefit": 8294,
    "Ġcourt": 4172,
    "Ġrewarded": 14942,
    "Ġinfidel": 13091,
    "persuasion": 20047,
    "Ġmosses": 20166,
    "Ġsplendour": 20227,
    "swallowed": 14855,
    "Ġdoleful": 18377,
    "evid": 11486,
    "record": 16922,
    "iply": 22369,
    "Ġrecourse": 22735,
    "Ġunimpeachable": 26523,
    "Ġembeddings": 2094,
    "aim": 2753,
    "Ġremaining": 6190,
    "cooks": 25070,
    "Ġboon": 22643,
    "Ġdrove": 4984,
    "minute": 11275,
    "circumstances": 8048,
    "Ġretribution": 16282,
    "Ġpinioned": 21487,
    "Ġspire": 18307,
    "verty": 8454,
    "Ġscorch": 20070,
    "Ġeager": 3571,
    "ondon": 2704,
    "ints": 3418,
    "Ġmerits": 13199,
    "Ġunch": 18237,
    "Ġbehave": 23302,
    "Ġticking": 25036,
    "Ġquit": 5246,
    "Ġturnkeys": 23034,
    "Ġancho": 15606,
    "Ġcontains": 2790,
    "ii": 4017,
    "Ġdismissed": 12896,
    "Ġexile": 12721,
    "singular": 12192,
    "Ġcanaller": 25469,
    "Ġsermon": 12379,
    "longbourn": 9898,
    "doesn": 19823,
    "custom": 15335,
    "mies": 20970,
    "ishing": 1144,
    "Ġwhittling": 20702,
    "Ġdemocracy": 25459,
    "mysteries": 26051,
    "Ġfortnight": 6202,
    "Ġlevels": 12702,
    "Ġpapered": 20134,
    "Ġaloof": 21790,
    "traversed": 19650,
    "Ġperse": 6274,
    "Ġmonica": 22984,
    "Ġinsipid": 26314,
    "Ġintens": 7004,
    "owards": 4593,
    "watches": 14949,
    "overhearing": 19054,
    "Ġbrid": 6292,
    "Ġcarted": 21353,
    "Ġbored": 16108,
    "mopol": 15398,
    "silver": 19693,
    "Ġpantaloons": 20299,
    "ances": 1336,
    "handed": 7483,
    "Ġwield": 21293,
    "iting": 2157,
    "reach": 17758,
    "Ġdevice": 1928,
    "Ġthack": 21521,
    "Ġchili": 25562,
    "Ġgree": 7596,
    "Ġnich": 21524,
    "appo": 3912,
    "Ġfirmness": 11238,
    "Ġstile": 21737,
    "Ġcardboard": 19982,
    "Ġmustering": 18663,
    "Ġ=": 1074,
    "Ġflashes": 11918,
    "neat": 22462,
    "sockets": 22732,
    "nearly": 8684,
    "Ġlethargy": 26484,
    "consuming": 25675,
    "Ġmusic": 5269,
    "reproach": 15189,
    "iquet": 17576,
    "Ġwearing": 12743,
    "sul": 15423,
    "Ġdemand": 4946,
    "teeth": 10356,
    "Ġchamp": 18381,
    "aborate": 14024,
    "Ġnumbers": 2884,
    "Ġassumptions": 5517,
    "Ġtalks": 23373,
    "mong": 15392,
    "george": 26020,
    "Ġtrib": 13821,
    "ċ": 204,
    "Ġpresuming": 16794,
    "Ġoutstanding": 22321,
    "her": 488,
    "Ġstoutest": 24630,
    "arus": 13914,
    "Ġdispute": 16059,
    "Ġforcing": 3227,
    "Ġosc": 2832,
    "collar": 19330,
    "every": 2807,
    "asets": 2308,
    "Ġengage": 9337,
    "hullo": 17571,
    "ne": 645,
    "passenger": 24168,
    "ming": 3601,
    "Ġpardon": 5727,
    "moments": 19415,
    "leman": 21371,
    "Ġlogic": 13081,
    "Ġtickled": 20060,
    "Ġwipe": 25765,
    "Ġflap": 14424,
    "Ġschedu": 1823,
    "clergyman": 20731,
    "Ġfootpath": 19340,
    "Ġsublimity": 26348,
    "ested": 3481,
    "plunging": 25988,
    "reck": 9638,
    "arat": 9182,
    "Ġclair": 6270,
    "Ġrequiring": 2920,
    "sledge": 21060,
    "Ġpitches": 23905,
    "invariably": 26417,
    "Ġinvariably": 8065,
    "Ġinhab": 5083,
    "Ġsays": 3562,
    "Ġputting": 5327,
    "Ġunlab": 3787,
    "Ġseaport": 20602,
    "sa": 8760,
    "Ġfiend": 4412,
    "Ġcoron": 4464,
    "Ġinterference": 8897,
    "Ġsuffocated": 20730,
    "Ġhand": 859,
    "Ġ31": 12134,
    "travelling": 24337,
    "Ġceases": 19315,
    "vo": 11541,
    "Ġexasper": 8469,
    "Ġdictating": 20155,
    "relate": 24014,
    "Ġsutherland": 10150,
    "Ġnarrative": 6217,
    "Ġcured": 21350,
    "Ġanxiously": 8291,
    "oning": 7573,
    "chery": 24550,
    "Ġrather": 1497,
    "Ġcit": 10784,
    "Ġfrom": 434,
    "Ġrifts": 21980,
    "Ġvinc": 14087,
    "obvious": 9359,
    "position": 15415,
    "Ġhighest": 3530,
    "Ġapprobation": 10986,
    "Ġmurderer": 4980,
    "Ġprofounder": 23571,
    "Ġtendons": 19811,
    "Ġfunny": 7639,
    "Ġcracks": 12022,
    "Ġtrif": 6271,
    "Ġcrevice": 22729,
    "Ġowen": 15097,
    "aning": 2253,
    "Ġpointed": 4773,
    "riumph": 4919,
    "Ġsuppose": 2862,
    "vac": 15452,
    "Ġerrors": 2596,
    "Ġfoolish": 5982,
    "Ġmouldings": 24736,
    "ĠĠĠĠĠĠĠĠĠĠĠĠĠĠĠĠĠĠĠĠĠĠĠĠĠĠĠĠĠĠĠĠĠĠĠĠĠĠĠĠĠĠĠĠĠĠĠĠĠĠĠĠĠ": 20043,
    "Ġlik": 2521,
    "Ġ1883": 23901,
    "Ġ94": 17718,
    "Ġreligion": 11416,
    "disputed": 23504,
    "Ġbravely": 23842,
    "Ġundeserving": 18266,
    "bitter": 11241,
    "Ġappointment": 10648,
    "allow": 5104,
    "necessities": 24307,
    "Ġallegor": 25546,
    "possibility": 13365,
    "Ġproportional": 2523,
    "hunsford": 24385,
    "Ġappropri": 2227,
    "ix": 1798,
    "dwelling": 20567,
    "Ġrises": 9715,
    "ĠcÃ¦sar": 20583,
    "Ġjun": 8508,
    "Ġjourneys": 19478,
    "Ġpremeditated": 22239,
    "alyards": 18804,
    "crow": 9592,
    "amous": 15764,
    "mag": 6509,
    "Ġclaims": 13376,
    "Ġcities": 17829,
    "birds": 15147,
    "fixedly": 24930,
    "Ġexpressing": 12011,
    "Ġmidway": 14605,
    "Ġembarked": 17136,
    "Ġsatin": 12993,
    "Ġscatter": 18397,
    "Ġpartake": 18674,
    "Ġoaks": 16934,
    "sacrifice": 13495,
    "Ġcontingency": 26246,
    "Ì": 141,
    "Ġcurtain": 14417,
    "emone": 21930,
    "Ġhow": 598,
    "Ġboys": 5194,
    "cask": 12450,
    "Ġpharaoh": 26586,
    "sion": 8095,
    "Ġpout": 17908,
    "Ġsite": 17754,
    "aggoo": 5130,
    "Ġfestival": 25446,
    "Ġsealed": 15821,
    "Ġmaty": 22915,
    "Ġexcuse": 5863,
    "Ġhaving": 1879,
    "hinting": 17570,
    "Ġtheory": 5799,
    "Ġclimate": 9276,
    "Ġdisregarded": 22535,
    "Ġachieves": 4380,
    "Ġinvestigation": 9044,
    "Ġgoose": 5940,
    "command": 6578,
    "Ġmechanically": 14400,
    "Ġintegral": 25011,
    "doubted": 17527,
    "Ġcharcoal": 19008,
    "while": 2933,
    "total": 17252,
    "Ġannotations": 25955,
    "rud": 4194,
    "keenest": 25662,
    "Ġbarren": 11207,
    "Ġpoltro": 23621,
    "arm": 1357,
    "Ġpropag": 16350,
    "iest": 4038,
    "majesty": 26282,
    "adoes": 11662,
    "igger": 21705,
    "Ġcrowned": 16842,
    "abhor": 12711,
    "appin": 18760,
    "melted": 25207,
    "Ġcondescend": 19958,
    "Ġvalue": 2085,
    "Ġstolen": 14009,
    "tashtego": 9624,
    "Ġgibraltar": 25788,
    "Ġpatriot": 23314,
    "Ġwolfish": 25936,
    "Ġhush": 13214,
    "Ġenables": 725,
    "Ġhumped": 19772,
    "Ġah": 5075,
    "Ġsch": 13837,
    "Ġhurrying": 11997,
    "vation": 4744,
    "had": 1949,
    "Ġdevoured": 16138,
    "develop": 13520,
    "Ġreefed": 20305,
    "Ġtarpaul": 17731,
    "Ġexclaimed": 4682,
    "ustration": 2258,
    "Ġoverlapping": 26240,
    "fs": 17536,
    "Ġdrily": 23542,
    "orient": 2874,
    "Ġgrizzled": 11451,
    "icle": 10835,
    "Ġdescried": 7921,
    "Ġhither": 4759,
    "Ġappal": 18358,
    "structure": 2268,
    "september": 14038,
    "Ġ79": 24266,
    "Ġbuilding": 8064,
    "Ġcharm": 4547,
    "tide": 11534,
    "Ġattachment": 6052,
    "Ġunjustifiable": 25112,
    "bag": 7543,
    "Ġ&": 6514,
    "Ġsauce": 15892,
    "Ġbestowing": 16972,
    "exceedingly": 9568,
    "adr": 6995,
    "keeper": 5596,
    "mr": 1899,
    "sense": 11525,
    "advice": 12161,
    "lemag": 21375,
    "fourths": 25510,
    "asleep": 21548,
    "orting": 9737,
    "Ġterm": 2265,
    "Ġreason": 1355,
    "ichron": 22168,
    "Ġtang": 13816,
    "ieces": 4772,
    "ists": 4001,
    "Ġsurmisings": 26594,
    "Ġlocker": 16912,
    "Ġleviathan": 3290,
    "Ġgodfre": 14530,
    "Ġcoopers": 20525,
    "engthen": 14460,
    "ps": 4573,
    "Ġopportunities": 19251,
    "uel": 6967,
    "Ġproc": 5544,
    "Ġwisdom": 11234,
    "suspect": 9542,
    "Ġfloating": 6606,
    "oton": 3607,
    "canonical": 22969,
    "Ġutter": 3975,
    "length": 7136,
    "Ġdemig": 20359,
    "merry": 16538,
    "Ġjoys": 13224,
    "Ġimplicate": 24877,
    "feared": 11806,
    "Ġstockings": 20000,
    "ituted": 13875,
    "concerned": 24584,
    "Ġexpenses": 11839,
    "icult": 3342,
    "Ġminds": 6305,
    "proceed": 8978,
    "Ġhumorous": 10361,
    "knowing": 10438,
    "Ġbended": 21388,
    "Ġcircles": 7968,
    "pinn": 21028,
    "Ġdiscriminative": 4328,
    "hills": 13738,
    "intim": 22938,
    "Ġans": 1648,
    "tic": 8392,
    "Ġroar": 9755,
    "Ġreply": 4514,
    "Ġsheepfold": 25467,
    "Ġpained": 19169,
    "silent": 9976,
    "imod": 15713,
    "unlike": 18159,
    "began": 6427,
    "trial": 20353,
    "Ġnarwhales": 24903,
    "inordinate": 21197,
    "ston": 15686,
    "many": 5250,
    "dr": 6223,
    "Ġtimber": 13353,
    "planks": 21959,
    "ighter": 7969,
    "Ġindignity": 18834,
    "Ġhammered": 13243,
    "Ġmarshy": 20221,
    "Ĥ": 229,
    "neck": 14242,
    "Ġcogent": 14278,
    "Ġblacks": 23391,
    "Ġgenuine": 14887,
    "Ġgrotesque": 26331,
    "mo": 863,
    "Ġpop": 5151,
    "Ġstuffed": 13412,
    "Ġbloss": 19258,
    "Ġtraits": 23079,
    "ia": 1259,
    "Ġclasping": 20212,
    "Ġdefici": 22947,
    "Ġmanipulation": 10660,
    "Ġinmates": 15626,
    "Ġtries": 9152,
    "Ġtalents": 15046,
    "small": 6473,
    "Ġbec": 1348,
    "Ġchalk": 15936,
    "Ġrecently": 11863,
    "Ġawhile": 13832,
    "aux": 14291,
    "surpr": 5999,
    "Ġdespairing": 14776,
    "Ġdwelt": 12609,
    "Ġnugent": 26458,
    "spirits": 8056,
    "Ġhypocritical": 20740,
    "sensations": 20054,
    "chard": 21691,
    "Ġslumber": 13064,
    "Ġinterpret": 5490,
    "Ġpious": 11601,
    "Ġgrind": 18736,
    "mosphere": 10045,
    "foundation": 16716,
    "Ġcro": 4873,
    "ispens": 8337,
    "ascribed": 24707,
    "coming": 3563,
    "dwell": 15344,
    "icted": 5939,
    "cet": 15327,
    "Ġgrandfather": 19425,
    "devouring": 24953,
    "Ġprofit": 14586,
    "Ġpeddler": 26181,
    "entreaties": 26187,
    "Ġcalamities": 25700,
    "Ġswept": 7979,
    "malicious": 19904,
    "Ġmim": 3106,
    "Ġtruce": 24117,
    "Ġripple": 25505,
    "Ġmurky": 19205,
    "Ġwhom": 1831,
    "acies": 14260,
    "Ġcomposure": 7217,
    "cast": 2926,
    "Ġunlo": 22015,
    "hies": 17561,
    "Ġfinest": 10394,
    "Ġlondon": 2836,
    "rix": 1577,
    "superiority": 20188,
    "Ġsmiling": 5475,
    "Ġocean": 3304,
    "Ġminister": 18753,
    "Ġunfair": 19510,
    "ul": 371,
    "Ġruminated": 24601,
    "rank": 21044,
    "i": 77,
    ")âĢĶ": 20744,
    "Ġmines": 21311,
    "Ġsarat": 21230,
    "Ġqualities": 7534,
    "Ġswaths": 23063,
    "Ġrec": 893,
    "Ġfil": 3475,
    "Ġsnuffing": 25015,
    "Ġartistic": 18612,
    "Ġgour": 21602,
    "Ġinhabitant": 19758,
    "igan": 21703,
    "Ġmeth": 1445,
    "odd": 21814,
    "urities": 18052,
    "field": 3068,
    "oldened": 22645,
    "Ġstables": 23659,
    "Ġutility": 23517,
    "Ġinfant": 11962,
    "Ġemer": 5961,
    "business": 5609,
    "Ġenemies": 9040,
    "Ġtist": 21165,
    "Ġmasked": 3694,
    "information": 12396,
    "Ġfavourites": 16646,
    "trust": 21081,
    "Ġroll": 5381,
    "pistol": 17643,
    "ĵ": 246,
    "Ġconsiderably": 7716,
    "Ġfleshy": 24616,
    "Ġdistracted": 11807,
    "supplemental": 25875,
    "Ġjane": 1757,
    "Ġpronounce": 16969,
    "restoration": 23241,
    "Ġkitchen": 8498,
    "liber": 18815,
    "Ġscoundrel": 13673,
    "monsters": 19173,
    "saw": 5896,
    "Ġbizarre": 17873,
    "Ġurging": 24501,
    "ark": 848,
    "agues": 8162,
    "Ġpresenting": 18989,
    "Ġknown": 1646,
    "beat": 10987,
    "Ġcod": 8414,
    "injury": 25214,
    "complacency": 19916,
    "swear": 16919,
    "Ġey": 8136,
    "Ġassisted": 11112,
    "Ġamateur": 22491,
    "Ġnetworks": 596,
    "younger": 11313,
    "Ġsinister": 8572,
    "Ġbay": 9170,
    "onder": 3778,
    "Ġbarriers": 23797,
    "Ġtapped": 11555,
    "beryls": 25310,
    "Ġmortar": 19396,
    "Ġhooded": 12409,
    "Ġnarrowed": 24354,
    "learn": 2400,
    "Ġeyed": 12671,
    "Ġtars": 21167,
    "ogy": 22700,
    "ackled": 22426,
    "Ġstarted": 4152,
    "Ġsuspecting": 14912,
    "Ġplague": 11827,
    "mental": 16052,
    "everlasting": 18772,
    "Ġensued": 11395,
    "Ġhall": 4187,
    "recollected": 25348,
    "Ġinher": 10181,
    "Ġentering": 6287,
    "Ġact": 690,
    "Ġaged": 10323,
    "dismay": 19156,
    "humour": 7499,
    "Ġbarnacled": 25537,
    "Ġuntidy": 23526,
    "informed": 17737,
    "Ġdrowsiness": 26446,
    "Ġrang": 9247,
    "isely": 4488,
    "Ġtesting": 23202,
    "eag": 20844,
    "Ġmans": 15539,
    "Ġgreeks": 20016,
    "pit": 3984,
    "cain": 15328,
    "Ġwhirled": 14962,
    "Ġmcc": 21309,
    "Ġthese": 821,
    "yea": 23091,
    "Ġpitied": 14693,
    "Ġquaker": 10972,
    "Ġstrangers": 8315,
    "Ġquebec": 24134,
    "tiger": 13799,
    "Ġcomputing": 2220,
    "Ġmanly": 22329,
    "down": 3471,
    "uning": 1313,
    "Ġmes": 17798,
    "Ġsighs": 22713,
    "Ġperceive": 6701,
    "Ġkindled": 19030,
    "Ġensures": 3053,
    "Ġrhine": 12359,
    "attended": 8954,
    "ch": 321,
    "Ġsickening": 19607,
    "Ġperishing": 22402,
    "Ġgrey": 4512,
    "initions": 21190,
    "spr": 7436,
    "Ġcontinual": 6778,
    "oughed": 22080,
    "Ġannum": 24205,
    "ago": 14067,
    "Ġparent": 14646,
    "Ġben": 1109,
    "ositions": 10285,
    "Ġeffemin": 18531,
    "Ġworthless": 19568,
    "Ġconduct": 3733,
    "Ġchatting": 24746,
    "prof": 7471,
    "Ġmountainous": 16600,
    "Ġburying": 19254,
    "Ġunfrequent": 24111,
    "Ġmaybe": 12952,
    "Ġpaces": 13921,
    "Ġproofs": 19817,
    "anter": 9168,
    "season": 14036,
    "Ġvalu": 5039,
    "Ġthomas": 17950,
    "osely": 9267,
    "prim": 23814,
    "relation": 19450,
    "Ġlobster": 11390,
    "angu": 570,
    "Ġordinarily": 20651,
    "itude": 1418,
    "Ġidiot": 11974,
    "experienced": 15124,
    "Ġrebounds": 25968,
    "elt": 4117,
    "Ġbe": 336,
    "Ġpelt": 15613,
    "Ġmercenary": 17195,
    "spread": 8390,
    "Ġseemingly": 9320,
    "close": 9988,
    "rigged": 17063,
    "danced": 20830,
    "Ġdemeanour": 17339,
    "Ġincalcul": 16069,
    "rog": 15643,
    "Ġdelightfully": 13161,
    "murdered": 12206,
    "Ġevangelists": 20342,
    "Ġwanderings": 20146,
    "Ġcrying": 10787,
    "departed": 24793,
    "Ġkey": 2102,
    "Ġclues": 18421,
    "Ġstopped": 5959,
    "fam": 5991,
    "incing": 15487,
    "bent": 15314,
    "Ġobservant": 20113,
    "meeting": 11020,
    "consciously": 19628,
    "eringly": 23007,
    "Ġunrestingly": 20364,
    "Ġswallowed": 7945,
    "Ġaccompany": 9489,
    "ille": 9221,
    "perfectly": 9088,
    "ared": 769,
    "Ġrelates": 12984,
    "Ġtis": 15467,
    "Ġnative": 4639,
    "Ġconsisted": 10420,
    "lads": 20957,
    "ep": 446,
    "ample": 1365,
    "Ġlabyrinth": 13682,
    "shoals": 24716,
    "Ġspiteful": 19525,
    "Ġbriefly": 11368,
    "Ġinsisted": 12049,
    "Ġsquee": 7930,
    "gro": 10096,
    "Ġfidgeted": 25890,
    "Ġcav": 13882,
    "Ġdespair": 4012,
    "Ġjot": 11766,
    "Ġexhaustion": 14963,
    "shazz": 14241,
    "heav": 5694,
    "Ġsweeping": 8987,
    "Ġsaf": 4002,
    "Ġbandages": 24426,
    "perseus": 26006,
    "nostr": 22730,
    "Ġplaster": 16087,
    "Ġnurse": 9519,
    "staking": 21652,
    "Ġdetain": 14184,
    "Ġlonged": 6437,
    "Ġaccounted": 10296,
    "Ġvultures": 25654,
    "fixed": 7549,
    "Ġad": 443,
    "Ġwhispering": 14947,
    "verest": 13993,
    "ampl": 21847,
    "Ġcitations": 25438,
    "Ġshipmate": 8930,
    "Ġbade": 9173,
    "Ġcapacious": 19178,
    "Ġbeggar": 9351,
    "Ġengraving": 17080,
    "answers": 22145,
    "Ġimped": 18445,
    "tranquil": 25871,
    "Ġconstraint": 16515,
    "Ġsickly": 16775,
    "lished": 8384,
    "Ġobli": 9318,
    "Ġdisguises": 25058,
    "enc": 7575,
    "Ġnotice": 4542,
    "Ġpatagon": 14509,
    "braid": 17496,
    "oftener": 23968,
    "Ġscimet": 22293,
    "linearity": 1653,
    "Ġlearning": 388,
    "Ġexquisitely": 20205,
    "Ġtwisted": 7228,
    "unwho": 21882,
    "irium": 8163,
    "Ġwides": 17790,
    "Ġcorners": 18876,
    "Ġjoyful": 13225,
    "Ġhairy": 23868,
    "Ġanything": 2188,
    "Ġglim": 9345,
    "bows": 10083,
    "Ġsor": 4148,
    "Ġreaped": 18032,
    "Ġoccurrence": 14384,
    "Ġtaking": 3250,
    "icked": 10334,
    "Ġpurp": 2391,
    "ķ": 248,
    "Ġverd": 6919,
    "Ġru": 948,
    "Ġvol": 4193,
    "Ġamaze": 22489,
    "Ġat": 395,
    "asting": 12809,
    "Ġolder": 9329,
    "Ġquantity": 6948,
    "turns": 14908,
    "Ġindifference": 6727,
    "enges": 13058,
    "Ġopposition": 16522,
    "rabb": 15683,
    "Ġemployment": 8632,
    "Ġhoarsely": 26303,
    "cry": 12449,
    "paused": 17376,
    "thorough": 21987,
    "Ġpinched": 17035,
    "bounded": 13442,
    "repeating": 20132,
    "razor": 21641,
    "Ġsabbath": 17256,
    "itives": 17821,
    "onse": 21252,
    "Ġrevelations": 25224,
    "Ġsurrounding": 12166,
    "ables": 7892,
    "Ġmystical": 12136,
    "Ġimmemorial": 10512,
    "sunlight": 24852,
    "Ć": 199,
    "isis": 12583,
    "Ġresearches": 13131,
    "Ġscor": 8191,
    "bird": 9587,
    "Ġsplintered": 11419,
    "Ġsights": 7473,
    "Ġvinegar": 20103,
    "arth": 4443,
    "Ġens": 2785,
    "Ġcows": 15556,
    "Ġpitiless": 19391,
    "Ġplun": 6283,
    "Ġbalanced": 12994,
    "sadly": 25527,
    "Ġcontrive": 16013,
    "Ġconcl": 5095,
    "Ġsouth": 4911,
    "Ġgrammars": 11403,
    "Ġlaurel": 20656,
    "Ġvouch": 15812,
    "ĠĠĠĠĠĠĠĠĠĠĠĠĠĠĠĠĠĠĠĠĠĠĠĠĠĠĠĠĠĠĠĠĠĠĠĠĠĠ": 16527,
    "Ġnail": 9197,
    "cool": 19190,
    "suggest": 20379,
    "respectively": 24699,
    "teak": 22819,
    "Ġmemo": 18122,
    "unwilling": 14063,
    "luc": 9754,
    "pious": 17634,
    "Ġconstruction": 9387,
    "Ġwhen": 513,
    "Ġrenounce": 19471,
    "Ġ121": 24465,
    "Ġawaiting": 11391,
    "Ġvac": 5025,
    "Ġrelentless": 26279,
    "doors": 19096,
    "Ġindependence": 12108,
    "catch": 17508,
    "Ġshaggy": 13573,
    "Ġobsolete": 26559,
    "Ġexpect": 2304,
    "oud": 1940,
    "Ġeye": 2280,
    "Ġcoats": 16080,
    "painted": 17640,
    "Ġcounties": 23305,
    "Ġwestward": 24388,
    "itect": 959,
    "Ġuncertain": 4069,
    "threshold": 21989,
    "Ġpromise": 4202,
    "kn": 5791,
    "Ł": 258,
    "Ġsmallest": 6431,
    "splash": 25210,
    "Ġblinding": 14730,
    "elling": 5831,
    "µ": 118,
    "Ġattitudes": 16099,
    "lected": 1639,
    "Ġsho": 2244,
    "nib": 5214,
    "prec": 3204,
    "ice": 593,
    "tremendous": 20676,
    "consent": 18504,
    "Ġgeorgia": 23889,
    "wers": 12523,
    "Ġmidst": 7987,
    "Ġberries": 13410,
    "Ġnantucketer": 6914,
    "Ġcherry": 16936,
    "Ġbubbles": 11399,
    "Ġplumage": 17300,
    "Ġexactly": 2765,
    "affording": 23780,
    "Ġvoc": 4451,
    "urring": 21709,
    "aton": 21261,
    "Ġperemptory": 25741,
    "Ġconstant": 6311,
    "appears": 12063,
    "Ġhumans": 8932,
    "Ġmultitud": 18748,
    "Ġcommence": 6169,
    "Ġreveren": 13200,
    "Ġgoney": 14545,
    "practical": 17223,
    "orers": 14105,
    "Ġdisplayed": 10610,
    "Ġjenny": 20165,
    "Ġlod": 4044,
    "Ġcriminal": 7538,
    "Ġtimidity": 24688,
    "Ġbravery": 23840,
    "Ġfaster": 3200,
    "parable": 16403,
    "Ġinvolved": 8925,
    "Ġsketch": 16167,
    "patched": 17644,
    "ilder": 15716,
    "Ġ1671": 25008,
    "Ġaccumulates": 2886,
    "Ġjeopard": 9945,
    "Ġsultry": 20291,
    "Ġensuing": 12312,
    "Ġobliv": 16136,
    "Ġrival": 10487,
    "Ġvacancies": 24344,
    "Ġplead": 14458,
    "Ġconvul": 13206,
    "Ġfugitive": 17329,
    "Ġbedrooms": 19973,
    "Ġwaning": 15536,
    "entimes": 12660,
    "abilizing": 2923,
    "Ġplanning": 14753,
    "Ġharem": 9711,
    "Ġpro": 360,
    "omitted": 18019,
    "Ġprecipices": 12281,
    "Ġsubmission": 22794,
    "Ġflooded": 24964,
    "sk": 5521,
    "explain": 1484,
    "Ġsoles": 22090,
    "Ġlivery": 16002,
    "Ġtoll": 7853,
    "usions": 6161,
    "crippled": 26385,
    "Ġages": 7030,
    "Ġsod": 11563,
    "Ġoverwhelm": 25055,
    "Ġcompetition": 14271,
    "than": 4090,
    "Ġtouching": 4680,
    "Ġintact": 21994,
    "strange": 6088,
    "hauled": 20671,
    "Ġfile": 13905,
    "Ġtrop": 7566,
    "Ġevaporate": 26334,
    "vicinity": 20483,
    "Ġringed": 16751,
    "mccarthy": 15397,
    "pane": 10122,
    "Ġcurbstone": 26044,
    "Ġmonogra": 22981,
    "isation": 13895,
    "Ġmethodically": 23140,
    "Ġmaterially": 12195,
    "wol": 21125,
    "Ġtiresome": 26157,
    "antial": 8490,
    "gging": 7699,
    "other": 1315,
    "orum": 12594,
    "Ġwriter": 11948,
    "Ġscanning": 18400,
    "Ġdrop": 4345,
    "Ġpythag": 26449,
    "Ġindepend": 3667,
    "Ġassist": 3565,
    "Ġrattler": 25000,
    "Ġrefer": 18708,
    "Ġdeserts": 10509,
    "Ġavail": 11227,
    "ogra": 4572,
    "Ġboldly": 9503,
    "Ġscene": 3095,
    "pents": 11514,
    "fab": 13718,
    "Ġderive": 10396,
    "Ġstar": 6025,
    "Ġpreprocessing": 26537,
    "Ġmisgivings": 15293,
    "Ġinitial": 824,
    "Ġpreferred": 14968,
    "Ġarsacides": 17296,
    "Ġribbed": 16805,
    "Ġaspired": 25985,
    "Ġimport": 1030,
    "Ġselected": 9713,
    "ancing": 1758,
    "Ġalthough": 4153,
    "Ġdeformed": 14049,
    "Ġsoda": 25535,
    "Ġimperilled": 19581,
    "mbles": 23092,
    "Ġrelig": 8553,
    "Ġacquirement": 19257,
    "inspect": 11560,
    "Ġindications": 14632,
    "Ġsacrifice": 9557,
    "Ġrenders": 13287,
    "Ġinteraction": 7424,
    "Ġsleeves": 10662,
    "Ġodd": 6627,
    "Ġescaping": 13138,
    "ifix": 21908,
    "varying": 13806,
    "Ġreiter": 21670,
    "Ġstump": 7604,
    "Ġconvincing": 19310,
    "Ġability": 2761,
    "Ġsurmises": 17056,
    "Ġprotruded": 19473,
    "Ġwrit": 8243,
    "until": 6598,
    "Ġhelped": 7459,
    "Ġdishonoured": 20394,
    "cott": 8075,
    "antingly": 22103,
    "ribed": 7695,
    "Ġhalls": 19528,
    "Ġsoaked": 15865,
    "Ġdrives": 14579,
    "experience": 17160,
    "Ġeffeminacy": 20720,
    "success": 6712,
    "Ġautumnal": 19044,
    "Ġown": 1006,
    "sofa": 26147,
    "Ġunjust": 8486,
    "superstitious": 17282,
    "Ġflattering": 13033,
    "'d": 12430,
    "Ġdur": 11594,
    "Ġpoliceman": 15261,
    "betrayed": 24641,
    "Ġgene": 15675,
    "Ġfurniture": 6477,
    "therly": 18347,
    "Ġtuileries": 24824,
    "enit": 17780,
    "iony": 9193,
    "Ġwarb": 17789,
    "Ġprepar": 7899,
    "Ġeclips": 20699,
    "Ġjewel": 9944,
    "Ġresolution": 5500,
    "doubtless": 17003,
    "Ġgrievous": 13264,
    "Ġworlds": 11950,
    "Ġremembr": 24172,
    "Ġdod": 6675,
    "Ġdisposing": 19378,
    "Ġluxuries": 25167,
    "Ġchasing": 11757,
    "mistakable": 20655,
    "gold": 9122,
    "Ġblade": 11896,
    "Ġcocks": 18595,
    "Ġcovent": 16078,
    "Ġroads": 13292,
    "Ġfeel": 1262,
    "Ġheedfulness": 24521,
    "Ġdiver": 2528,
    "Ġdecrease": 4204,
    "Ġpeaceful": 9458,
    "Ġtem": 807,
    "wooden": 24589,
    "myst": 9824,
    "Ġoccur": 1083,
    "baked": 20781,
    "Ġsmoothed": 23661,
    "Ġdumplings": 15193,
    "Ġcoral": 11925,
    "igns": 8449,
    "Ġsubord": 22792,
    "rooms": 10433,
    "Ġmerely": 3769,
    "Ġhelps": 9370,
    "Ġhanging": 5447,
    "Ġboscombe": 8327,
    "adv": 4536,
    "Ġvoluntarily": 12144,
    "Ġsacrific": 15019,
    "Ġanimal": 2497,
    "tick": 17679,
[...]
