{
  "metadata": {
    "vocab_size": 26616,
    "algorithm": "BPE",
    "created_at": "2026-05-16 05:26:10",
    "special_tokens": [
      "<PAD>",
      "<SOS>",
      "<EOS>",
      "<UNK>",
      "<MASK>"
    ]
  },
  "vocab": {
    "alling": 6037,
    "bber": 4566,
    "fortunate": 4791,
    "ishnoo": 10957,
    "Ġfri": 17880,
    "rief": 6203,
    "Ġcuff": 17831,
    "hello": 13367,
    "prof": 7470,
    "gno": 13729,
    "Ġcetace": 14991,
    "lace": 13750,
    "Ġtheoretically": 3564,
    "F": 42,
    "prit": 19345,
    "print": 23815,
    "Ġcontrivances": 12362,
    "Ġplanning": 14754,
    "Ġlikelihood": 16503,
    "Ġscrutiny": 26016,
    "Ġblown": 12090,
    "Ġblessing": 11265,
    "Ġconsequence": 5542,
    "Ġdormouse": 4925,
    "Ġexposed": 8524,
    "Ġlightness": 23263,
    "dinah": 20084,
    "Ġenrolled": 21942,
    "hunt": 20905,
    "ivility": 12792,
    "Ġgroom": 13968,
    "waist": 13421,
    "Ġappeals": 16319,
    "Ġdetective": 14406,
    "unerative": 21900,
    "cork": 20798,
    "viii": 12025,
    "Ġken": 22195,
    "allied": 7409,
    "Ġellenborough": 26155,
    "cure": 11476,
    "Ġdoors": 6418,
    "Ġindefinitely": 25222,
    "guess": 14764,
    "Ġgroups": 3721,
    "Ġconsecut": 18114,
    "ad": 337,
    "Ġapproving": 18515,
    "exagger": 22432,
    "Ġprosperity": 20260,
    "Ġstood": 2550,
    "osque": 22266,
    "Ġpossession": 5589,
    "Ġmah": 15546,
    "Ġbathing": 20202,
    "Ġfurnaces": 24011,
    "Ġinterruption": 9476,
    "Ġastr": 15498,
    "eting": 7169,
    "Ġfamiliarity": 16731,
    "Ġwharves": 13508,
    "Ġdip": 13909,
    "cake": 20806,
    "Ġisles": 8461,
    "slept": 17172,
    "usage": 12838,
    "Ġsires": 21229,
    "days": 7688,
    "Ġbohem": 8528,
    "scotch": 25852,
    "Ġ127": 24472,
    "finished": 10557,
    "Ġjoining": 13167,
    "Ġtumult": 7115,
    "answered": 10276,
    "loveliness": 26551,
    "Ġyoke": 18098,
    "Ġsymbolize": 24963,
    "Ġwriters": 13545,
    "iling": 3090,
    "Ġgilder": 21616,
    "Ġstrive": 23692,
    "Ġthanked": 9464,
    "Ġroy": 4227,
    "Ġslice": 23164,
    "showing": 22465,
    "Ġjacob": 1901,
    "Ġghosts": 12237,
    "jumping": 20248,
    "bread": 10688,
    "outer": 9671,
    "Ġcum": 21345,
    "cour": 4478,
    "Ġarise": 7896,
    "Ġriver": 5411,
    "hurry": 24762,
    "oop": 10717,
    "gone": 6504,
    "Ġprofit": 14587,
    "Ġfoiled": 23248,
    "Ġwardrobe": 17228,
    "Ġimbu": 15896,
    ":": 30,
    "completely": 12424,
    "Ġrounds": 18886,
    "begged": 18518,
    "arpening": 21446,
    "Ġsight": 2112,
    "Ġdecline": 9291,
    "ie": 727,
    "onents": 8781,
    "okers": 18442,
    "Ġclimbing": 20073,
    "flying": 13723,
    "fect": 2301,
    "Ġfrosts": 19805,
    "ract": 1016,
    "beneath": 9538,
    "holmes": 4430,
    "Ġpetersburgh": 24231,
    "Ġcaptured": 7244,
    "tures": 21072,
    "Ġintervene": 25481,
    "afraid": 10443,
    "Ġkeels": 11063,
    "Ġlabelled": 23333,
    "Ġknives": 14840,
    "look": 2263,
    "Ġprovinc": 16744,
    "Ġincalculable": 17463,
    "Ġwindows": 4970,
    "execut": 13658,
    "Ġpile": 8425,
    "python": 4691,
    "Ġdz": 4755,
    "ricane": 16282,
    "heavens": 19748,
    "erson": 7002,
    "lacing": 17592,
    "Ġdriver": 16477,
    "Ġshutters": 9940,
    "Ġselfish": 7271,
    "dick": 11481,
    "Ġinser": 6819,
    "estion": 18363,
    "eded": 9676,
    "Ġinclude": 1875,
    "Ġmaritime": 23043,
    "accountable": 7110,
    "anges": 1678,
    "Ġfires": 16475,
    "true": 2584,
    "gover": 10704,
    "uend": 21104,
    "birds": 15148,
    "Ġhelmeted": 19691,
    "Ġsworn": 14438,
    "narrow": 11510,
    "Ġcounting": 13099,
    "Ġdisk": 22526,
    "13": 20752,
    "engthen": 14460,
    "ctu": 5088,
    "spot": 9791,
    "Ġtreachery": 15105,
    "illar": 5101,
    "Ġrow": 5246,
    "://": 11467,
    "killing": 20944,
    "Ġsafely": 9029,
    "otes": 15749,
    "Ġhearsed": 25042,
    "ena": 11571,
    "Ġartfully": 22614,
    "from": 1990,
    "Ġsurf": 19133,
    "vol": 729,
    "physiogn": 26266,
    "vishnoo": 21122,
    "ioning": 21512,
    "Ġparasol": 22125,
    "Ġderanged": 23178,
    "voices": 21120,
    "deemed": 18316,
    "rosings": 15649,
    "Ġreneg": 21678,
    "Ġvisitor": 5331,
    "Ġvest": 8163,
    "Ġstudies": 7956,
    "Ġbowing": 10477,
    "monograph": 23529,
    "fill": 15354,
    "Ġeconomy": 17203,
    "Ġintensified": 17020,
    "Ġnoiselessly": 22867,
    "Ġexchanged": 10880,
    "Ġundertone": 23241,
    "dut": 10090,
    "Ġquart": 11791,
    "Ġcoincidences": 26365,
    "Ġegg": 8823,
    "seriously": 18906,
    "Ġstrainings": 24628,
    "Ġmagnus": 18960,
    "rather": 5430,
    "Ġstoner": 7178,
    "Ġgloomy": 7504,
    "ishes": 6523,
    "Ġinheriting": 25355,
    "Ġcommis": 22674,
    "Ġleisurely": 24745,
    "Ġcentre": 5122,
    "Ġblocked": 19224,
    "Ġdank": 21431,
    "Ġturbulence": 26599,
    "Ġsimple": 1621,
    "ified": 3224,
    "Ġimpenetrable": 17400,
    "putable": 10903,
    "Ġdeclaring": 19423,
    "Ġweapon": 7775,
    "Ġarea": 14189,
    "sky": 12515,
    "combined": 20323,
    "Ġjuggl": 20441,
    "endeavouring": 15018,
    "Ġmetrics": 19060,
    "henry": 16628,
    "coast": 10451,
    "Ġlent": 21550,
    "Ġprevent": 757,
    "Ġhearth": 11986,
    "Ġhell": 5018,
    "Ġratio": 5066,
    "Ġcautiousness": 19868,
    "Ġsights": 7472,
    "Ġdeject": 10882,
    "Ġflat": 8228,
    "riumph": 4919,
    "scotland": 20532,
    "liking": 22927,
    "ication": 969,
    "Ġpoison": 7218,
    "Ġfurn": 3712,
    "Ġrewarded": 14943,
    "Ġpistols": 17332,
    "na": 13762,
    "Ġitalian": 12414,
    "Ġenchanting": 17040,
    "obli": 23098,
    "Ġoverladen": 22367,
    "dering": 5307,
    "Ġcheapside": 23291,
    "properly": 24919,
    "Ġlustre": 15138,
    "darkened": 24517,
    "final": 19679,
    "leep": 4632,
    "Ġupdating": 2689,
    "Ġcrockery": 24303,
    "swiftly": 20554,
    "Ġforemost": 12009,
    "religion": 20578,
    "Ġbreadth": 10566,
    "Ġout": 543,
    "Ġcondescended": 19959,
    "scarcely": 12390,
    "Ġrestore": 9384,
    "ĠĠĠĠĠĠĠĠĠĠĠĠĠĠĠĠĠĠĠĠĠĠĠĠĠĠĠĠĠĠĠĠĠĠĠĠĠĠĠĠĠĠĠĠĠ": 9955,
    "itan": 10162,
    "Ġlabels": 3287,
    "Ġatrocious": 21947,
    "entered": 8819,
    "Ġjuly": 17239,
    "Ġconsid": 1814,
    "Ġmissing": 6176,
    "acqu": 4843,
    "aut": 1913,
    "ordered": 8794,
    "Ġamidst": 9497,
    "moil": 22706,
    "eminence": 20102,
    "Ġbas": 6380,
    "Ġforc": 9231,
    "Ġprivile": 8649,
    "Ġcarn": 17823,
    "sych": 9889,
    "Ġdetest": 8502,
    "Ġdeduced": 12212,
    "Ġdeclines": 23966,
    "Ġpersecut": 16954,
    "vint": 21117,
    "supposed": 13319,
    "Ġinhabitant": 19758,
    "orph": 21402,
    "sit": 13782,
    "inferior": 12398,
    "read": 3275,
    "stupid": 12681,
    "enter": 7858,
    "Ġsailed": 4889,
    "Ġauthentic": 20538,
    "spouting": 25003,
    "/`": 12433,
    "degrad": 22147,
    "Ġimpact": 10299,
    "Ġmail": 17802,
    "engineer": 23151,
    "Ġfire": 2333,
    "skeleton": 17379,
    "Ġtargets": 4204,
    "Ġglobal": 2370,
    "Ġunwarrant": 19936,
    "Ġwickham": 2207,
    "inform": 10146,
    "Ġprim": 8244,
    "glings": 23854,
    "Ġshrieking": 24757,
    "patter": 4690,
    "Ġtang": 13816,
    "precedented": 15178,
    "Ġunion": 6838,
    "Ġbites": 23744,
    "berwell": 22724,
    "Ġenjoyment": 7300,
    "aried": 10989,
    "Ġepo": 21622,
    "Ġstride": 22619,
    "Ġhardest": 18914,
    "Ġformality": 22834,
    "Ġhill": 5626,
    "Ġlicence": 25099,
    "oughed": 22081,
    "Ġclicked": 22356,
    "watson": 12248,
    "ivia": 22083,
    "Ġyale": 21783,
    "accur": 14595,
    "Ġafloat": 9312,
    "Ġfaded": 10811,
    "glancing": 11216,
    "Ġspoiled": 11365,
    "Ġincumbent": 16067,
    "Ġwaning": 15538,
    "Ġfilling": 13411,
    "Ġofficial": 7082,
    "rible": 3225,
    "Ġfear": 2278,
    "Ġproposal": 10022,
    "elfare": 11781,
    "Ġbethinking": 25280,
    "Ġwes": 8783,
    "consuming": 25675,
    "artic": 14224,
    "û": 188,
    "Ġsemantics": 2893,
    "Ġdiscoverers": 26037,
    "Ġantics": 24180,
    "Ġdoom": 6417,
    "ibule": 13011,
    "quitted": 21855,
    "voyage": 7785,
    "Ġappear": 2483,
    "Ġmoment": 990,
    "ooped": 17625,
    "enet": 10155,
    "ott": 1872,
    "Ġabound": 8867,
    "allen": 22200,
    "Ġselected": 9713,
    "Ġrattled": 15070,
    "all": 485,
    "inguished": 6599,
    "Ġoccupied": 5273,
    "Ġdrowsy": 26446,
    "esy": 9186,
    "Ġfortitude": 9888,
    "Ġleaned": 7608,
    "Ġdownstairs": 11226,
    "Ġunconnected": 18243,
    "Ġretrogress": 23077,
    "Ġbumping": 25281,
    "kings": 17585,
    "Ġstops": 3164,
    "umes": 10919,
    "vid": 914,
    "Ġunthink": 18248,
    "Ġchoicest": 24223,
    "sofa": 26147,
    "Ġcaptioning": 23025,
    "Ġoptimize": 1544,
    "ulated": 6030,
    "Ġgoug": 17993,
    "rack": 18013,
    "original": 9089,
    "Ġradney": 6775,
    "haw": 6362,
    "dared": 13705,
    "Ġdimension": 3240,
    "plac": 15825,
    "bitterly": 20340,
    "Ġincorrupt": 19236,
    "gument": 20887,
    "athered": 6972,
    "marvell": 24174,
    "Ġmushroom": 13239,
    "Ġriddles": 16734,
    "Ġcivilly": 19606,
    "Ġcontrari": 23352,
    "Ġconstraints": 2738,
    "pr": 3173,
    "Ġgreedily": 18967,
    "ocr": 10469,
    "Ġresponses": 23650,
    "Ġbubblingly": 25633,
    "Ġseethings": 26505,
    "Ġpiqu": 21480,
    "Ġoaths": 13526,
    "Ġseem": 913,
    "Ġnarwhale": 12297,
    "mortar": 25409,
    "ĠĠĠ": 2116,
    "Ġdraught": 9848,
    "strange": 6086,
    "sigma": 3000,
    "Ġambiguous": 20167,
    "Ġchivalry": 25820,
    "Ġindelicacy": 25696,
    "Ġflight": 6581,
    "Ġdistrust": 8203,
    "Ġthomas": 17950,
    "Ġopium": 8997,
    "Ġcarried": 3696,
    "Ġhydraulic": 10067,
    "past": 8090,
    "Ġfrog": 23925,
    "Ġreceived": 2950,
    "Ġabundance": 17158,
    "mist": 5686,
    "impossible": 8828,
    "Ġ27": 8618,
    "Ġhertfordshire": 5377,
    "Ġcompression": 18150,
    "Ġnosegay": 24194,
    "Ġhimmale": 18335,
    "Ġbuoyed": 20044,
    "maid": 8555,
    "ifts": 12740,
    "bott": 9110,
    "remed": 18955,
    "Ġspecimen": 13027,
    "Ï": 144,
    "colonel": 8285,
    "%": 9,
    "Ġdeeds": 15764,
    "Ġrepugnant": 26592,
    "deduction": 23670,
    "Ġacceler": 1608,
    "Ġcolourless": 19572,
    "gments": 12474,
    "Ġdirections": 1970,
    "Ġbloodthirst": 23804,
    "Ġdrawling": 19441,
    "Ġsil": 1797,
    "such": 3080,
    "Ġrebellion": 26477,
    "Ġsmith": 16069,
    "twig": 23698,
    "Ġautumn": 14508,
    "Ġfry": 17881,
    "Ġfrantically": 23261,
    "Ġfelix": 4849,
    "Ġpeculiarities": 12075,
    "Ġstowed": 21740,
    "Ġflip": 11917,
    "Ġbloodthirsty": 26603,
    "Ġremember": 2676,
    "Ġgrammars": 11404,
    "Ġloses": 15878,
    "Ġenthr": 22744,
    "list": 7551,
    "Ġpredef": 18526,
    "Ġfolio": 11922,
    "usages": 22294,
    "comprehend": 14358,
    "Ġgod": 1936,
    "Ġslaughtered": 26586,
    "Ġinsert": 19907,
    "Ġinfer": 7684,
    "Ġtwos": 18658,
    "Ġhurling": 19112,
    "Ġprem": 3424,
    "incible": 16500,
    "ureau": 10229,
    "Ġjoys": 13224,
    "Ġox": 7153,
    "forgotten": 12420,
    "Ġsche": 1709,
    "Ġdreaded": 8289,
    "place": 4154,
    "sweep": 24618,
    "enary": 12556,
    "rained": 5162,
    "Ġsorrows": 13358,
    "Ġsold": 6003,
    "Ġrelating": 2703,
    "Ġ1950": 11361,
    "class": 4095,
    "Ġtoe": 13938,
    "Ġcoming": 2616,
    "Ġcruising": 6911,
    "Ġvineyard": 12334,
    "traced": 19648,
    "Ġextremely": 2667,
    "Ġresponded": 13641,
    "Ġtraps": 23084,
    "Ġfairy": 14629,
    "mankind": 14377,
    "ersampling": 18217,
    "berish": 22722,
    "Ġgiddy": 20500,
    "Ġple": 1469,
    "illating": 22111,
    "Ġbeing": 1164,
    "education": 20304,
    "Ġfettered": 24569,
    "Ġhindrance": 25221,
    "ackled": 22424,
    "Ġdaugh": 2294,
    "Ġemper": 9864,
    "Ġcanada": 22169,
    "Ġmaternal": 11061,
    "invite": 25091,
    "Ġdest": 2239,
    "scratch": 26045,
    "Ġpurposes": 11170,
    "Ġpacific": 5153,
    "Ġfee": 7198,
    "Ġstrongest": 11137,
    "Ġjava": 12316,
    "Ġunhinged": 26218,
    "Ġbadge": 16682,
    "Ġsultanism": 25889,
    "Ġwalking": 4322,
    "extraordinary": 9099,
    "Ġprodu": 1206,
    "Ġsavag": 19377,
    "oftener": 23968,
    "Ġbridges": 24683,
    "Ġaccomplishments": 13382,
    "german": 11494,
    "fri": 20856,
    "Ġpermitting": 22404,
    "Ġseen": 1368,
    "erick": 13850,
    "leviathans": 19941,
    "Ġevidence": 5270,
    "Ġdomains": 6616,
    "Ġembarks": 22976,
    "Ġelbow": 12926,
    "vanity": 24977,
    "seals": 21822,
    "Ġyon": 9696,
    "Ġparliament": 18303,
    "Ġflew": 5588,
    "Ġwails": 21299,
    "Ġpupils": 20424,
    "esting": 7411,
    "Ġolive": 12570,
    "sensible": 20055,
    "Ġmother": 2067,
    "box": 5749,
    "oars": 9617,
    "Ġerror": 1766,
    "Ġ]": 15463,
    "confusion": 13373,
    "Ġresc": 4505,
    "user": 5105,
    "Ġcrater": 16440,
    "mbl": 5946,
    "cely": 3572,
    "Ġdissimilar": 22535,
    "ne": 645,
    "wil": 8769,
    "onom": 9162,
    "Ġmarvelled": 18875,
    "Ġforgetting": 3432,
    "told": 7811,
    "Ġegyptian": 13589,
    "Ġinvari": 6529,
    "yards": 9626,
    "Ġduchess": 4799,
    "Ġ-": 1946,
    "att": 1456,
    "Ġdeadly": 5405,
    "Ġexpenses": 11837,
    "Ġsinned": 18953,
    "ute": 4640,
    "Ġagonized": 25373,
    "Ġlibr": 16005,
    "Ġwrench": 12562,
    "scans": 22992,
    "kitchen": 17587,
    "zed": 8104,
    "neat": 22452,
    "Ġperilously": 24507,
    "Ġsacrific": 15020,
    "Ġtrustees": 24109,
    "Ġfavourably": 16369,
    "Ġagent": 6278,
    "Ġknob": 24407,
    "attoo": 6807,
    "Ġfinny": 23131,
    "Ġindia": 10373,
    "jointed": 24016,
    "Ġinquis": 19306,
    "lin": 9606,
    "Ġgrazed": 15838,
    "Ġkrem": 9729,
    "securer": 25603,
    "Ġcomput": 603,
    "Ġbalance": 2020,
    "vious": 1784,
    "Ġbier": 22769,
    "Ġteaches": 18798,
    "bee": 16042,
    "cupboards": 25402,
    "ency": 3867,
    "lit": 9608,
    "Ġtrappers": 23085,
    "nowled": 5470,
    "Ġpapa": 10659,
    "ego": 4034,
    "Ġprovoked": 13329,
    "acted": 11012,
    "follows": 24528,
    "uss": 8767,
    "modern": 1174,
    "Ġmbpp": 21325,
    "lested": 14886,
    "teous": 16178,
    "Ġtapped": 11556,
    "Ġputs": 19033,
    "Ġattaining": 15808,
    "Ġmagnific": 16323,
    "grin": 19107,
    "cott": 8074,
    "Ġsettling": 11064,
    "ways": 1442,
    "Ġinvader": 23480,
    "ĠâĢľ": 516,
    "Ġadding": 2403,
    "¯": 112,
    "Ġloftiest": 16876,
    "Ġunlikely": 10910,
    "Ġrational": 8481,
    "Ġforbidden": 17079,
    "Ġeffected": 14361,
    "turbaned": 24532,
    "vain": 15451,
    "Ġ99": 10747,
    "Ġsubur": 12961,
    "Ġsofa": 10273,
    "Ġexcursion": 26591,
    "shall": 4548,
    "Ġunbending": 25465,
    "Ġdum": 10813,
    "impart": 21712,
    "Ġunceasingly": 20362,
    "hurt": 19880,
    "wall": 10139,
    "Ġjunk": 15958,
    "Ġlambton": 10660,
    "draw": 23903,
    "Ġlevi": 3032,
    "Ġem": 1924,
    "Ġply": 21456,
    "Ġstealing": 18895,
    "alice": 3206,
    "Ġteased": 18797,
    "Ġundertake": 14482,
    "Ġlap": 8438,
    "Ġhenry": 5197,
    "Ġdreamy": 14706,
    "Ġunwelcome": 12785,
    "Ġstretch": 6993,
    "injured": 15136,
    "Ġsphy": 18312,
    "Ġraven": 16121,
    "ĕ": 214,
    "Ġpeculiar": 3151,
    "omely": 21642,
    "Ġanimal": 2496,
    "mies": 20970,
    "istically": 14146,
    "acid": 11008,
    "Ġqual": 6275,
    "Ġfarmhouse": 24987,
    "Ē": 211,
    "intelligent": 16846,
    "Ġpicking": 11261,
    "Ġamateur": 22489,
    "pate": 21012,
    "Ġdismantled": 20219,
    "Ġangry": 5498,
    "independent": 26022,
    "ate": 421,
    "Ġtradeoff": 2657,
    "ambition": 13414,
    "Ġpraying": 19557,
    "Ġalleys": 25979,
    "likelihood": 4991,
    "continuance": 19721,
    "agony": 14071,
    "ish": 550,
    "Ġchurned": 18386,
    "Ġdrawings": 14726,
    "Ġfigure": 4206,
    "orrowed": 19292,
    "Ġmiz": 10779,
    "erately": 21276,
    "thousand": 5547,
    "Ġconversations": 9429,
    "Ġheav": 1850,
    "Ġperemptorily": 17370,
    "blo": 6354,
    "Ġdivision": 19448,
    "ensical": 18568,
    "Ġmolasses": 25629,
    "Ġribbed": 16806,
    "Ġbinding": 20422,
    "mp": 3729,
    "Ġdates": 6694,
    "Ġflavor": 16257,
    "Ġdexterous": 15152,
    "happened": 9437,
    "Ġreposing": 23364,
    "ulsive": 10236,
    "âĢĶâĢĺ": 7014,
    "Ġirrespective": 23378,
    "Ġcherry": 16937,
    "Ġfrolic": 23928,
    "blazing": 24133,
    "when": 1590,
    "roads": 17960,
    "driven": 19774,
    "able": 452,
    "Ġhier": 1894,
    "can": 1235,
    "Ġeuropean": 20049,
    "Ġpuffs": 14979,
    "Ġplaguy": 22610,
    "bs": 3776,
    "ven": 779,
    "Ġoptimal": 1856,
    "Ġmob": 16022,
    "Ġcab": 2632,
    "Ġsuck": 15864,
    "Ġshaster": 22002,
    "â": 163,
    "hole": 5586,
    "mish": 17600,
    "Ġbegin": 3095,
    "morning": 4859,
    "ause": 1314,
    "angered": 16182,
    "Ġfogs": 25283,
    "Ġpeeling": 22695,
    "ter": 359,
    "vess": 7353,
    "Ġhour": 1812,
    "Ġfervent": 14899,
    "ĠĠĠĠĠĠĠĠĠĠĠĠĠĠĠĠĠĠĠĠĠĠĠĠĠĠĠĠĠĠĠĠĠĠĠĠĠĠĠĠ": 4515,
    "Ġgreenness": 23768,
    "Ġ}": 21156,
    "Ġcontains": 2790,
    "Ġclimax": 25054,
    "Ġlantern": 7117,
    "Ġhit": 7163,
    "Ġgeneration": 2180,
    "Ġhumped": 19772,
    "char": 3500,
    "Ġcylinders": 25944,
    "Ġagainst": 1701,
    "Ġshr": 4225,
    "Ġans": 1648,
    "Ġglist": 9349,
    "amid": 12729,
    "metals": 24765,
    "Ġconfining": 23310,
    "alo": 7588,
    "Ġblo": 2731,
    "Ġcool": 5734,
    "bres": 11473,
    "Ġwarrior": 24496,
    "jur": 17580,
    "tle": 2409,
    "Ġcontribute": 12866,
    "Ġpince": 21474,
    "Ġincrease": 9374,
    "shabbily": 26248,
    "Ġvaried": 11852,
    "Ġpurse": 12015,
    "quakes": 21854,
    "Ġquarters": 8623,
    "prodig": 16431,
    "Ġquestioning": 10465,
    "Ġsafety": 6340,
    "fits": 13720,
    "irty": 4048,
    "Ġsatir": 18794,
    "Ġlullaby": 20591,
    "Ġrequisition": 22645,
    "Ġsend": 4107,
    "ignation": 11130,
    "Ġsnugly": 17112,
    "sn": 7139,
    "Ġdaily": 5987,
    "Ġpistol": 7847,
    "Ġstruggled": 9908,
    "iliating": 12700,
    "ationally": 15710,
    "det": 5207,
    "Ġdespondency": 16580,
    "Ġpolynes": 16084,
    "Ġdiscern": 7926,
    "Ġimages": 1600,
    "Ġflounders": 23018,
    "having": 5211,
    "bale": 20776,
    "iations": 11497,
    "Ġborder": 10172,
    "Ġbeef": 6829,
    "Ġoverwhelm": 25055,
    "Ġ15": 9328,
    "professor": 17252,
    "limbs": 20194,
    "rat": 8759,
    "begin": 8887,
    "Ġintense": 6158,
    "Ġmunro": 25631,
    "et": 307,
    "exactly": 10639,
    "falsehood": 25902,
    "Ġade": 22105,
    "ca": 20795,
    "Ġferoc": 14900,
    "Ġregard": 3064,
    "Ġprimal": 17108,
    "obedience": 17413,
    "balance": 12011,
    "Ġhatch": 7848,
    "Ġineff": 12639,
    "Ġconsternation": 9862,
    "Ġdrawback": 23996,
    "Ġconsequent": 18113,
    "Ġresolves": 23649,
    "Ġsharing": 3474,
    "Ġregarded": 5762,
    "Ġsty": 6252,
    "terogene": 21829,
    "Ġhumorously": 18780,
    "Ġservant": 5764,
    "Ġriveted": 13621,
    "Ġburying": 19254,
    "bennet": 5353,
    "Ġsplashing": 16553,
    "neighboring": 20620,
    "Ġacid": 22685,
    "Ġtrump": 8196,
    "dozen": 23381,
    "Ġartistic": 18613,
    "Ġjollity": 25567,
    "Ġdr": 2821,
    "col": 3099,
    "Ġsangu": 15508,
    "Ġclouds": 5775,
    "Ġantichronical": 26611,
    "Ġwidely": 8033,
    "Ġflann": 23017,
    "Ġhanged": 17927,
    "Ġacquiring": 2765,
    "ses": 3025,
    "Ġrever": 6537,
    "Ġauthent": 14509,
    "peril": 18343,
    "coil": 23561,
    "raint": 18317,
    "Ġovercome": 6044,
    "Ġoccurrence": 14385,
    "Ġvib": 8165,
    "visitor": 15060,
    "ropri": 2179,
    "Ġaccurate": 13265,
    "Ġsummer": 4789,
    "ee": 1663,
    "Ġmost": 1021,
    "tis": 4105,
    "Ġvast": 3295,
    "Ġtash": 13822,
    "Ġcobweb": 22587,
    "Ġpia": 21467,
    "Ġvis": 1059,
    "appointment": 24063,
    "asses": 7017,
    "Ġinevitable": 15171,
    "promote": 24726,
    "Ġfrankness": 16748,
    "Ġuneasy": 8665,
    "Ġtreacherous": 13557,
    "Ġbears": 6828,
    "erringly": 16217,
    "Ġwarn": 5695,
    "shortly": 12263,
    "imens": 1747,
    "Ġdesisted": 22983,
    "Ġhoe": 23354,
    "Ġdrowned": 9555,
    "Ġexasperated": 11414,
    "Ġyounger": 5253,
    "ascended": 24705,
    "Ġattic": 16106,
    "Ġfanning": 23393,
    "Ġuntamed": 19166,
    "Ġpreventing": 882,
    "Ġpredestinated": 18527,
    "Ġcontent": 5033,
    "Ġsaf": 4001,
    "Ġeternities": 19946,
    "Ġpleasures": 11145,
    "Ġenlarged": 25986,
    "Ġdusk": 12331,
    "ti": 8390,
    "Ġjoists": 19234,
    "Ġlovely": 4709,
    "Ġindec": 13930,
    "Ġvirt": 3905,
    "dream": 8731,
    "Ġdenny": 9004,
    "moran": 24154,
    "Ġboxed": 24360,
    "singular": 12193,
    "Ġwallet": 21301,
    "anything": 5518,
    "Ġunrecord": 16623,
    "Ġropes": 10750,
    "Ġcologne": 12980,
    "promising": 24725,
    "Ġebb": 21625,
    "Ġplacing": 8904,
    "Ġsoothed": 10032,
    "Ġmcc": 21309,
    "electricity": 26387,
    "Ġdep": 740,
    "Ġrest": 1782,
    "ech": 4387,
    "prevented": 20377,
    "Ġdiffident": 23784,
    "Ġfury": 7662,
    "went": 6512,
    "Ġchanged": 5243,
    "Ġtest": 1551,
    "Ġimpl": 7194,
    "Ġfishe": 15591,
    "handkerchief": 14620,
    "Ġsells": 21226,
    "Ġabraham": 18396,
    "Ġrevive": 13482,
    "gems": 20886,
    "Ġsuited": 12789,
    "loops": 12888,
    "Ġhummed": 18779,
    "finish": 24384,
    "attering": 7418,
    "ension": 6570,
    "Ġsimultaneously": 4309,
    "Ġsentences": 2681,
    "Ġseap": 15819,
    "relative": 24019,
    "ootiful": 17376,
    "Ġoscill": 2854,
    "llable": 6878,
    "Ġwhimsical": 20431,
    "Ġdirecting": 16304,
    "dropout": 3194,
    "Ġexhale": 24402,
    "Ġengraving": 17081,
    "Ġcontrols": 1733,
    "Ġswerve": 14440,
    "Ġpuppy": 12409,
    "Ġholes": 16413,
    "Ġmund": 21320,
    "Ġgrimesby": 11459,
    "Ġavail": 11228,
    "illed": 2622,
    "Ġindu": 5295,
    "Ġaveraging": 2418,
    "Ġdecisions": 6703,
    "Ġdidn": 4360,
    "Ġanno": 9670,
    "civilized": 17076,
    "months": 9075,
    "Ġsketch": 16169,
    "untering": 15781,
    "successfully": 14994,
    "Ġpainful": 6462,
    "Ġrecollect": 8310,
    "everywhere": 23697,
    "Ġshare": 1661,
    "presented": 12997,
    "Ġdra": 1591,
    "Ġbreathlessly": 24283,
    "pile": 17631,
    "itaries": 21339,
    "Ġsixteen": 8283,
    "convalescence": 24885,
    "Ġcapabilities": 4375,
    "Ġbeds": 14554,
    "Ġoutlined": 22324,
    "shel": 11934,
    "Ġunhappy": 5640,
    "Ġpossesses": 19355,
    "five": 6357,
    "Ġstories": 10867,
    "nav": 17613,
    "Ġsyntax": 957,
    "coloured": 7290,
    "Ġparcels": 25466,
    "jammed": 25907,
    "Ġmaintain": 854,
    "Ġhearses": 20063,
    "ruff": 15900,
    "jerked": 25619,
    "remarkable": 13500,
    "Ġserious": 4320,
    "Ġproofs": 19817,
    "mathemat": 19139,
    "Ġexperienced": 6583,
    "Ġinvincible": 23481,
    "Ġreturns": 11930,
    "Ġpieces": 7368,
    "Ġcrush": 9426,
    "Ġdeficiency": 14407,
    "Ġapprove": 12878,
    "Ġtexture": 19162,
    "lers": 10109,
    "Ġsighing": 18677,
    "irts": 9242,
    "ui": 9148,
    "Ġsupple": 23002,
    "Ġshar": 9254,
    "hereditary": 26421,
    "Ġpronounce": 16970,
    "Ġreceptacle": 23195,
    "disagreeable": 11165,
    "Ġsitting": 3603,
    "Ġcathedral": 17416,
    "Ġdedu": 5583,
    "concluded": 11244,
    "Ġabomin": 8189,
    "Ġdilig": 8350,
    "irement": 18356,
    "nur": 11508,
    "Ġprecious": 5760,
    "monster": 8595,
    "form": 496,
    "Ġgallop": 19558,
    "poke": 18802,
    "tempestuous": 26098,
    "Ġscr": 11764,
    "sicilian": 21066,
    "Ġever": 1181,
    "Ġtested": 23205,
    "Ġtrim": 15973,
    "Ġincognit": 22558,
    "stout": 21648,
    "Ġinfluenced": 19635,
    "knowing": 10439,
    "Ġthickest": 16657,
    "Ġfluttered": 16254,
    "plan": 15823,
    "Ġmat": 1150,
    "wonderful": 16962,
    "Ġwinchester": 10069,
    "Ġabatement": 22280,
    "Ġplanisp": 24061,
    "Ġher": 426,
    "ation": 320,
    "Ġbachelor": 7786,
    ";âĢĿ": 7790,
    "Ġmaz": 15547,
    "Ġexpressing": 12013,
    "Ġclusters": 25233,
    "deadly": 17101,
    "Ġfacing": 10174,
    "entary": 21570,
    "Ġdespite": 19356,
    "acrity": 14283,
    "rann": 21047,
    "Ġplans": 7918,
    "endurable": 22232,
    "Ġprodig": 6028,
    "Ġdefinitions": 22947,
    "Ġsalvation": 14760,
    "straight": 9943,
    "Ġhandfuls": 17212,
    "osen": 6854,
    "Ġostens": 25276,
    "Ġeyelids": 26108,
    "Ġheal": 21684,
    "Ġplying": 17916,
    "Ġdreamed": 16632,
    "Ġserved": 8247,
    "ultaneous": 18583,
    "Ġadversarial": 5607,
    "Ġslit": 13061,
    "Ġresides": 22544,
    "Ġtribes": 20484,
    "Đ": 209,
    "Ġbell": 4633,
    "Ġaccording": 5508,
    "once": 5904,
    "aloud": 17943,
    "Ġinsurance": 23681,
    "Ġfrank": 4419,
    "merit": 19283,
    "magnificent": 20277,
    "ure": 356,
    "Ġdesert": 6728,
    "Ġduring": 872,
    "ounders": 22398,
    "Ġfun": 523,
    "Ġcruis": 14626,
    "bbed": 6909,
    "Ġaccur": 3610,
    "Ġwindward": 6884,
    "cases": 12452,
    "figure": 13558,
    "furthermore": 20007,
    "Ġshrink": 14806,
    "Ġcosy": 13133,
    "Ġpage": 6978,
    "tout": 21068,
    "Ġholmes": 1308,
    "Ġhasty": 10479,
    "Ġnarr": 5085,
    "plate": 18208,
    "Ġsire": 15505,
    "Ġalso": 1343,
    "Ġtrous": 10960,
    "octial": 20008,
    "Ġsoothe": 7404,
    "Ġmortifying": 13249,
    "Ġfrequ": 3327,
    "ds": 4686,
    "Ġbackpropagation": 1234,
    "âĢĶ.âĢĿ": 22259,
    "Ġawakened": 10455,
    "overlooked": 23327,
    "Ġirreproachable": 24918,
    "Ġinterfere": 11821,
    "older": 15758,
    "Ġhugh": 15006,
    "Ġbuttons": 12786,
    "Ġaccompl": 5167,
    "ost": 5361,
    "Ġbaff": 10801,
    "fastened": 19327,
    "Ġfluffy": 19367,
    "per": 481,
    "Ġsequentially": 4914,
    "Ġjumped": 7097,
    "Ġriv": 10748,
    "Ġmorocc": 22982,
    "Ġled": 3520,
    "round": 3367,
    "ounce": 6558,
    "Ġbeaks": 21759,
    "Ġspreading": 13381,
    "probably": 10023,
    "Ġhumbly": 16202,
    "Ġcraven": 16473,
    "aft": 9586,
    "thrust": 10264,
    "Ġpublisher": 24070,
    "makes": 10713,
    "Ġopenness": 18959,
    "lod": 15382,
    "Ġstatistical": 11106,
    "Ġceremonious": 24838,
    "thrasher": 25659,
    "Ġprofessions": 11233,
    "Ġconvey": 9984,
    "Ġadversity": 24305,
    "Ġheart": 1593,
    "Ġphysi": 9991,
    "Ġabhorrent": 16858,
    "hours": 9128,
    "Ġimmens": 9942,
    "ć": 200,
    "Ġstrike": 4856,
    "Ġiroqu": 21627,
    "Ġeul": 21621,
    "Ġtantalizing": 20417,
    "Ġpaws": 13923,
    "Ġtipped": 17730,
    "Ġwhittling": 20702,
    "Ġmercenary": 17196,
    "ĠĊ": 12528,
    "Ġcoefficient": 2883,
    "Ġmarbles": 18874,
    "Ġheaped": 18040,
    "Ġvult": 12757,
    "Ġprocess": 563,
    "Ġdrew": 3535,
    "Ġrele": 2915,
    "Ġinjury": 10543,
    "Ġrussia": 26269,
    "wr": 3026,
    "Ġdegradation": 2629,
    "Ġseal": 10257,
    "Ġbumpkins": 25282,
    "landsmen": 25062,
    "Ġoriginally": 7303,
    "reen": 21234,
    "ceiling": 21630,
    "Ġnatives": 17953,
    "fr": 4804,
    "Ġhus": 3089,
    "Ġdoth": 13910,
    "deeply": 16183,
    "becomes": 22500,
    "Ġtartar": 17325,
    "Ġday": 956,
    "nothing": 3152,
    "Ġreciprocating": 26371,
    "Ġissued": 10602,
    "smote": 23913,
    "ilities": 6991,
    "Ġjustine": 4969,
    "qualified": 17099,
    "Ġminute": 4277,
    "alter": 10828,
    "Ġgush": 10205,
    "Ġtoils": 10188,
    "longbourn": 9898,
    "Ġimplies": 24874,
    "fingers": 17373,
    "Ġinvariable": 13459,
    "Ġrefer": 18700,
    "thur": 7187,
    "Ġparticular": 2448,
    "etts": 12665,
    "Ġam": 659,
    "Ġbrighter": 16192,
    "Ġglare": 13021,
    "Ġcrosswise": 18887,
    "missionary": 24616,
    "stand": 628,
    "Ġburden": 8611,
    "noo": 9792,
    "slightest": 25417,
    "Ġwilling": 7420,
    "Ġphysiology": 25333,
    "Ġwork": 1311,
    "thodox": 21992,
    "Ġpredictions": 1454,
    "Ġatmosphere": 10899,
    "Ġanaly": 1170,
    "Ġdanced": 7842,
    "Ġbulldog": 23862,
    "pse": 21011,
    "abiding": 21797,
    "Ġhyperborean": 26341,
    "Ġsimul": 1808,
    "Ġwisely": 13276,
    "Ġtremor": 24767,
    "Ġfifteen": 6946,
    "Ġrickety": 26507,
    "Ġsallied": 12542,
    "wail": 21128,
    "Ġfoss": 9854,
    "Ġtreble": 16506,
    "ieve": 1662,
    "Ġadie": 8490,
    "Ġsnorting": 23742,
    "Ġsatisf": 2804,
    "imson": 12694,
    "Ġheh": 21683,
    "committed": 18731,
    "Ġbohemia": 10652,
    "abases": 3003,
    "gardiner": 12295,
    "Ġdepression": 21844,
    "Ġachieves": 4377,
    "Ġlearnable": 3995,
    "Ġforced": 4350,
    "Ġunfelt": 24112,
    "nants": 17615,
    "lever": 2930,
    "icions": 21566,
    "empty": 23636,
    "Ġarchitect": 993,
    "Ġstruggles": 16581,
    "urous": 10215,
    "Ġbone": 4694,
    "Ġdiscovering": 13361,
    "Ġsits": 10770,
    "Ġpaunch": 23750,
    "throughout": 24091,
    "pleased": 8857,
    "Ġlick": 21553,
    "aster": 1867,
    "Ġgilded": 17448,
    "Ġpaw": 12625,
    "Ġobjection": 6586,
    "Ġstoutly": 16926,
    "Ġentrapped": 26264,
    "Ġemploys": 19434,
    "Ġgrand": 3590,
    "despatched": 19804,
    "Ġpitchpoling": 14914,
    "Ġtold": 2186,
    "Ġpenetrating": 17013,
    "Ġcister": 13884,
    "oney": 3047,
    "Ġannouncing": 16756,
    "behind": 6779,
    "Ġvalue": 2084,
    "speeches": 25240,
    "inal": 15484,
    "Ġ125": 24470,
    "Ġstory": 2900,
    "Ġsanctioned": 26352,
    "Ġgamb": 18000,
    "Ġbedside": 19125,
    "Ġsymbols": 2793,
    "urry": 13996,
    "truth": 9922,
    "Ġletting": 10364,
    "Ġforeb": 12008,
    "Ġjealousy": 13579,
    "Ġbranches": 6776,
    "Ġstand": 1736,
    "Ġwhalers": 8048,
    "Ġdivergence": 2725,
    "Ġviolet": 19092,
    "walk": 5523,
    "Ġgiant": 13970,
    "cry": 12450,
    "Ġpersonified": 19180,
    "Ġassuring": 13068,
    "°": 113,
    "verb": 10219,
    "unhappy": 10240,
    "Ġespecial": 26412,
    "Ġsquares": 11171,
    "Ġpervers": 11787,
    "Ġnoticed": 5549,
    "Ġowed": 10782,
    "Ġmischief": 8543,
    "Ġbelshazzar": 16230,
    "phew": 6368,
    "Ġham": 3419,
    "Ġinstruction": 14342,
    "oes": 4433,
    "Ġarchbishop": 18719,
    "inde": 17733,
    "Ġstarted": 4150,
    "remarked": 12292,
    "Ġglimmered": 20174,
    "Ġflying": 5413,
    "Ġmaker": 15548,
    "wealth": 22691,
    "Ġshallow": 14398,
    "Ġexcessive": 3890,
    "obviously": 25243,
    "enchanted": 26426,
    "Ġvind": 10252,
    "Ġdecayed": 22828,
    "Ġsilent": 3410,
    "cried": 8728,
    "Ġenglish": 3613,
    "vedale": 22713,
    "Ġcharged": 9857,
    "Ġthird": 4187,
    "Ġprocured": 8680,
    "_).âĢĶ": 8685,
    "Ġpreviously": 3918,
    "Ġjur": 12839,
    "Ġcontributes": 15254,
    "shuff": 18492,
    "Ġresume": 18566,
    "Ġravings": 18649,
    "Ġtransitory": 16023,
    "fishers": 24929,
    "Ġpartner": 6715,
    "Ġwid": 4630,
    "Ġmedical": 9473,
    "Ġnewfound": 22935,
    "Ġpolitics": 19226,
    "Ġlionel": 25287,
    "Ġgrandfather": 19425,
    "Ġmerged": 19299,
    "Ġcashier": 20201,
    "Ġexhibited": 9547,
    "Ġobscurely": 20191,
    "Ġaddison": 14235,
    "variance": 2654,
    "with": 1296,
    "\"": 6,
    "Ġhen": 3499,
    ",": 16,
    "latter": 15386,
    "pped": 1997,
    "Ġflattening": 26049,
    "Ġmythologies": 26215,
    "Ġdeveloped": 16343,
    "soc": 5175,
    "Ġarchly": 22786,
    "intelligence": 5883,
    "usation": 18402,
    "hib": 15371,
    "close": 9989,
    "bohemia": 20733,
    "Ġwaist": 6892,
    "Ġstave": 11654,
    "grie": 12475,
    "Ġfurthermore": 1169,
    "Ġproducing": 11903,
    "Ġvesu": 21953,
    "Ġfrenzy": 13625,
    "Ġcitizens": 25440,
    "Ġbewitching": 25977,
    "Ġpurposely": 10446,
    "Ġcanal": 8182,
    "Ġferocious": 17422,
    "hardly": 6491,
    "Ġwhist": 6022,
    "Ġcoasts": 12168,
    "Ġfishy": 16525,
    "Ġsupplies": 20329,
    "imental": 16536,
    "ked": 5616,
    "imet": 21709,
    "Ġtroub": 22359,
    "Ġaboriginal": 14191,
    "Ġmiscell": 16154,
    "Ġsymbol": 7716,
    "Ġposterity": 17405,
    "parlour": 16395,
    "Ġpredomin": 16046,
    "Ġig": 3498,
    "Ġpours": 17914,
    "Ġskil": 14354,
    "unusually": 15785,
    "Ġexpecting": 10438,
    "Ġloss": 824,
    "Ġpiratical": 24798,
    "ities": 1827,
    "blue": 13696,
    "Ġmodeling": 2096,
    "Ġreserves": 19673,
    "Ġsuburban": 17349,
    "duchess": 18464,
    "Ġquestion": 2775,
    "degrees": 22154,
    "Ġsuspended": 5665,
    "subjects": 19878,
    "annica": 24562,
    "Ġadoption": 24951,
    "ivided": 22085,
    "Ġadjacent": 20713,
    "ured": 1658,
    "bout": 20775,
    "Ġprolong": 6831,
    "Ġlit": 6247,
    "depth": 12805,
    "heavenly": 20048,
    "va": 4742,
    "Ġnot": 413,
    "Ġfixed": 2684,
    "Ġunconsc": 6553,
    "Ġeggs": 12346,
    "Ġbead": 21754,
    "rubber": 12814,
    "otently": 21804,
    "Ġwindigate": 18912,
    "Ġswallow": 8953,
    "illings": 14145,
    "placed": 7880,
    "Ġtowering": 16741,
    "sullenly": 26150,
    "Ġintruder": 25992,
    "Ġsoldier": 16922,
    "Ġmanage": 7641,
    "Ġramble": 9317,
    "devil": 7895,
    "Ġhar": 5815,
    "chers": 11319,
    "goin": 23406,
    "plague": 21963,
    "Ġpurposed": 23555,
    "izings": 14053,
    "arat": 9184,
    "Ġtrespass": 23602,
    "ar": 285,
    "Ġwondrously": 24069,
    "Ġpsychology": 11450,
    "fitted": 17546,
    "Ġmelted": 19624,
    "web": 18665,
    "suspicious": 25391,
    "inioned": 19289,
    "Ġlandsc": 11148,
    "Ġrefuge": 8542,
    "Ġawhile": 13832,
    "Ġevents": 4471,
    "Ġdistur": 5313,
    "Ġflowery": 16236,
    "Ġredundant": 16554,
    "miles": 10714,
    "abs": 11670,
    "Ġreefed": 20305,
    "Ġfreshet": 25704,
    "Ġplata": 25120,
    "meant": 7921,
    "Ġfoster": 18992,
    "Ġadagrad": 2902,
    "car": 4211,
    "snatched": 24851,
    "Ġdash": 8122,
    "Ġhousehold": 8570,
    "Ġprefer": 6416,
    "Ġdiscoverer": 26036,
    "Ġcitadel": 25439,
    "Ġsublime": 8066,
    "repid": 11567,
    "Ġspades": 12801,
    "Ġfootfalls": 25867,
    "Ġpam": 21457,
    "Ġruggedness": 26270,
    "Ġproper": 1377,
    "batim": 25019,
    "icken": 6712,
    "Ġclink": 22349,
    "leap": 21370,
    "Ġoverpower": 12847,
    "Ġbade": 9175,
    "Ġlock": 5928,
    "Ġcaps": 8416,
    "impenetrable": 26198,
    "awned": 19463,
    "gigantic": 15363,
    "Ġspectrum": 4473,
    "Ġcomprehended": 11296,
    "worm": 15457,
    "istic": 994,
    "Ġtot": 4186,
    "work": 1801,
    "pivot": 21033,
    "Ġcalifornia": 20533,
    "Ġslaugh": 18940,
    "Ġstingy": 25456,
    "Ġcharcoal": 19009,
    "Ġpronounced": 8351,
    "sum": 2086,
    "species": 13260,
    "ude": 7562,
    "Ġdiscomposed": 25581,
    "whales": 5187,
    "iences": 6956,
    "Ġadmission": 23558,
    "ler": 3488,
    "maltese": 24794,
    "Ġtepid": 26414,
    "Ġrebell": 21672,
    "int": 1198,
    "Ġventure": 7739,
    "pent": 3490,
    "simultaneously": 19866,
    "Ġlungless": 24864,
    "ĠĠĠĠĠĠĠĠĠĠĠĠĠĠĠĠĠĠĠĠĠĠĠĠĠĠĠĠĠĠĠĠ": 2736,
    "Ġitself": 2520,
    "Ġrushing": 7402,
    "Ġfrigate": 13085,
    "Ġsingled": 23773,
    "_?âĢĿ": 15309,
    "Ġinve": 17931,
    "Ġinvolved": 8926,
    "este": 15924,
    "admiration": 11389,
    "idual": 1562,
    "Ġseventh": 18205,
    "Ġcaval": 25770,
    "Ġbusier": 23341,
    "pot": 10120,
    "Ġann": 4488,
    "Ġadopt": 10635,
    "ulls": 8842,
    "Ġknocking": 10562,
    "Ġadvertise": 25389,
    "atlantic": 15528,
    ".;": 20746,
    "ab": 345,
    "flutter": 23974,
    "sitting": 8387,
    "bag": 7542,
    "ist": 450,
    "Ġclinging": 10294,
    "elope": 14463,
    "thee": 9693,
    "country": 6104,
    "Ġparched": 11731,
    "Ġdesolated": 24809,
    "iate": 6505,
    "ood": 961,
    "win": 6801,
    "Ġspending": 10925,
    "Ġward": 10158,
    "occupations": 24967,
    "Ġplaited": 14287,
    "credit": 12453,
    "egypt": 15353,
    "Ġepsom": 19986,
    "Ġalpine": 18108,
    "ature": 520,
    "Ġgreeted": 23217,
    "Ġfondly": 19619,
    "Ġphysiognomically": 25613,
    "Ġrevolver": 14903,
    "Ġsublimity": 26348,
    "ĠĠĠĠĠĠĠĠĠĠĠĠĠĠĠĠĠĠĠĠĠĠĠĠĠĠĠĠĠĠĠĠĠĠĠĠĠĠĠ": 19261,
    "Ġcolle": 8928,
    "ternatural": 12720,
    "Ġungrateful": 14124,
    "guarded": 13298,
    "Ġalche": 21787,
    "arranted": 19322,
    "Ġburnished": 24004,
    "ll": 1141,
    "op": 658,
    "woof": 21142,
    "Ġestimated": 16596,
    "adv": 4535,
    "Ġmeanest": 12915,
    "Ġcountenance": 3971,
    "Ġmayhew": 12955,
    "Ġbrief": 6976,
    "rades": 8592,
    "Ñ": 146,
    "lass": 5993,
    "Ġquietly": 4565,
    "towns": 24855,
    "Ġsparsity": 4207,
    "dient": 440,
    "levi": 7048,
    "Ġhereafter": 9334,
    "Ġtorm": 5434,
    "Ġgrated": 22809,
    "torture": 26152,
    "Ġtradesmen": 17106,
    "afforded": 25866,
    "Ġmusic": 5269,
    "Ġfergus": 16869,
    "ade": 880,
    "Ġsubsided": 14552,
    "Ġturns": 4980,
    "Ġsit": 4215,
    "Ġpassion": 4555,
    "ional": 1087,
    "Ġcareful": 2611,
    "Ġunprincipled": 20710,
    "Ġwh": 328,
    "Ġsaving": 15892,
    "Ġafrica": 12349,
    "Ġharriet": 24573,
    "claimed": 9839,
    "cavity": 26127,
    "Ġenvelope": 7318,
    "ı": 242,
    "Ġsymp": 4501,
    "Ġneedle": 8275,
    "Ġvinegar": 20103,
    "Ġessentials": 20006,
    "Ġpersian": 11096,
    "uits": 21107,
    "Ġloadstone": 25817,
    "kind": 3862,
    "Ġundoubted": 19517,
    "Ġpun": 4585,
    "Ġransacked": 26506,
    "Ġmisgivings": 15295,
    "Ġtransported": 11281,
    "tahit": 17694,
    "suspended": 15181,
    "ails": 6161,
    "Ġbrother": 2746,
    "Ġfug": 12600,
    "Ġenemies": 9042,
    "Ġbible": 9323,
    "Ġwearer": 21926,
    "Ġcase": 1942,
    "Ø": 153,
    "haust": 5777,
    "rud": 4190,
    "Ġresting": 7962,
    "consent": 18502,
    "Ġobjects": 5578,
    "Ġendeav": 2952,
    "Ġcopies": 24938,
    "Ġbusily": 9389,
    "Ġ11": 5319,
    "Ġfighting": 12202,
    "ken": 2798,
    "endure": 22229,
    "Ġwind": 1431,
    "reasonable": 7751,
    "Ġpasseng": 12975,
    "Ġnet": 3625,
    "Ġscrolled": 22288,
    "Ġcrav": 19175,
    "uttural": 21592,
    "accompan": 11454,
    "Ġupset": 22157,
    "Ġmed": 4177,
    "unwho": 21881,
    "Ġsouthampton": 24309,
    "tremble": 17144,
    "Ġbaronial": 23796,
    "cop": 20803,
    "abhor": 12712,
    "rights": 23674,
    "ficial": 17550,
    "Ġdented": 17893,
    "âĢĶ_": 3198,
    "Ġprison": 5403,
    "anum": 17837,
    "Ġespe": 21158,
    "those": 4494,
    "Ġnetherfield": 3931,
    "whe": 1078,
    "Ġvision": 1542,
    "Ġassembly": 10645,
    "Ġappointed": 20106,
    "purpose": 10047,
    "Ġfaintness": 24571,
    "upon": 2719,
    "ulatory": 15773,
    "Ġspilled": 10926,
    "do": 1994,
    "magnitude": 17251,
    "Ġq": 1088,
    "Ġsecretly": 13275,
    "Ġspong": 15886,
    "Ġlost": 2634,
    "stolidity": 21666,
    "uctive": 17698,
    "Ġvertu": 23893,
    "Ġanom": 12616,
    "right": 2767,
    "hill": 15366,
    "apparent": 11043,
    "Ġwade": 17786,
    "mir": 20965,
    "Ġconceals": 23907,
    "gerine": 22891,
    "Ġshoreless": 24297,
    "Ġprize": 11952,
    "Ġprevail": 13445,
    "Ġpl": 744,
    "Į": 239,
    "roof": 17956,
    "igger": 21703,
    "grant": 10429,
    "umnal": 18301,
    "Ġprophe": 13082,
    "Ġthro": 5818,
    "Ġafrican": 20140,
    "Ġsurtout": 23467,
    "unte": 21877,
    "Ġphilipses": 24452,
    "Ġplayed": 9420,
    "Ġslips": 23170,
    "rals": 21045,
    "Ġdusting": 24597,
    "ynolds": 10039,
    "Ġvariously": 18654,
    "Ġsolicitude": 10043,
    "ectual": 21919,
    "hro": 20893,
    "Ġfeigned": 22212,
    "Ġmastery": 23999,
    "Ġprotested": 9937,
    "Ġincidentally": 16956,
    "Ġdiminish": 14748,
    "intosh": 22943,
    "Ġinitialization": 1255,
    "ppa": 10242,
    "inte": 5144,
    "ibility": 2390,
    "Ġwondering": 7971,
    "information": 12397,
    "Ġsmell": 7215,
    "convenient": 12242,
    "Ġamong": 1672,
    "Ġtemporarily": 11169,
    "Ġvalleys": 14922,
    "Ġ8": 5433,
    "Ġthreatens": 24375,
    "Ġclassical": 22630,
    "aloft": 8811,
    "Ġherein": 16195,
    "Ġverses": 17065,
    "Ġadhering": 14142,
    "hammered": 19006,
    "Ġpurch": 6600,
    "Ġstarting": 7728,
    "Ġforetold": 23453,
    "suffer": 24329,
    "Ġmariner": 7246,
    "quohog": 21856,
    "Ġmachines": 1777,
    "Ġshriek": 6639,
    "Ġdynamic": 5124,
    "chain": 18042,
    "wives": 15459,
    "Ġpresumed": 10547,
    "ials": 11708,
    "Ġoy": 15551,
    "Ġexile": 12722,
    "Ġhabitual": 24789,
    "Ġwreak": 16819,
    "Ġtension": 13826,
    "Ġbolivia": 24668,
    "noted": 22750,
    "Ġpollard": 20389,
    "edd": 1233,
    "Ġprov": 4398,
    "Ġremedy": 18725,
    "Ġcommons": 22675,
    "g": 75,
    "]": 65,
    "Ġpitch": 5767,
    "Ġaerial": 21201,
    "ocris": 23707,
    "Ġlunch": 13528,
    "Ġbased": 3338,
    "Ġherbage": 25997,
    "roots": 15648,
    "Ġoce": 3028,
    "Ġryder": 10261,
    "ensation": 22549,
    "Ġcloser": 8663,
    "Ġpronouncing": 16971,
    "Ġrheumatic": 20707,
    "Ġflorid": 17138,
    "Ġstalked": 20432,
    "screw": 9351,
    "99": 1896,
    "velled": 9879,
    "beware": 16044,
    "Ġschedules": 3385,
    "Ġpremium": 23908,
    "Ġquenched": 22421,
    "splinter": 25211,
    "moon": 10338,
    "Ġcoin": 9774,
    "Ġlod": 4041,
    "Ġmalignant": 14881,
    "eng": 1489,
    "Ġhappier": 10362,
    "Ġsnatch": 14641,
    "est": 499,
    "ike": 4999,
    "Ġfumbling": 21420,
    "Ġpoisonous": 24888,
    "move": 11858,
    "Ġpeeping": 16132,
    "Ġdri": 2363,
    "iners": 4936,
    "Ġmaty": 22915,
    "Ġdances": 10814,
    "local": 22514,
    "queness": 18149,
    "Ġcouns": 10523,
    "Ġunceasing": 20361,
    "Ġaloud": 6253,
    "Ġuntidy": 23526,
    "Ġneville": 7398,
    "yramid": 8368,
    "Ġparamount": 15883,
    "Ġsoc": 3524,
    "war": 6802,
    "Ġpretending": 19317,
    "desperate": 17360,
    "greater": 13255,
    "Ġorthodox": 22099,
    "Ġthreaten": 24374,
    "Ġredoubled": 23754,
    "fam": 5989,
    "Ġmarrying": 6178,
    "Ġtoad": 21513,
    "Ġmemo": 18120,
    "Ġedinburgh": 16459,
    "Ġpsych": 10179,
    "Ġhipp": 21495,
    "Ġbewildered": 15217,
    "Ġpeg": 22692,
    "inder": 9156,
    "Ġbestirred": 20454,
    "Ġdivulged": 16651,
    "Ġkins": 22198,
    "ribution": 14310,
    "Ġadvised": 16207,
    "oko": 18441,
    "Ġfries": 21418,
    "Ġlightnings": 16357,
    "Ġassign": 11111,
    "Ġfitting": 21411,
    "Ġstrangers": 8314,
    "itoring": 21335,
    "Ġcaroline": 7254,
    "Ġamused": 11803,
    "mighty": 9469,
    "report": 13402,
    "sc": 1260,
    "instead": 14815,
    "Ġspont": 22135,
    "Ġ112": 24437,
    "Ġcommunicates": 24547,
    "Ġdubious": 17386,
    "Ġunravel": 26216,
    "Ġcampaign": 20663,
    "Ġimprudence": 10300,
    "Ġinfants": 16371,
    "Ġlivelihood": 24773,
    "Ġtrains": 10949,
    "Ġgrowl": 16541,
    "osely": 9269,
    "Ġloathsome": 13530,
    "continu": 5501,
    "ognit": 19237,
    "Ġcomprehensiveness": 25075,
    "Ġsperma": 19049,
    "rev": 17758,
    "Ġtranslations": 12055,
    "Ġpepper": 9784,
    "Ġcontemptible": 16955,
    "personal": 24966,
    "Ġassures": 14469,
    "Ġundone": 24119,
    "Ġscream": 5935,
    "Ġdeliver": 9851,
    "Ġherring": 14129,
    "pshaw": 21030,
    "Ġconclusion": 5986,
    "ament": 2439,
    "alterable": 13627,
    "Ġactuated": 18546,
    "Ġkilling": 13336,
    "ortations": 22262,
    "Ġcheese": 9381,
    "Ġmirror": 12382,
    "Ġliveliness": 13646,
    "elect": 20848,
    "eer": 15351,
    "relation": 19451,
    "inois": 17740,
    "cil": 8724,
    "Ġinjunction": 19620,
    "Ġsqueeze": 10042,
    "Ġspoon": 22138,
    "Ġcomprise": 18584,
    "mare": 17601,
    "Ġcasks": 7521,
    "Ġbattery": 21397,
    "ribute": 7226,
    "Ġgranted": 22812,
    "Ġbore": 5079,
    "Ġfinished": 5043,
    "Ġknitted": 19592,
    "uish": 5431,
    "Ġdemand": 4946,
    "Ġpeninsula": 23199,
    "duck": 22416,
    "posterity": 25489,
    "Ġgovernments": 20270,
    "arpo": 1756,
    "churning": 21700,
    "satisf": 5781,
    "Ġavowed": 16636,
    "rice": 13779,
    "neighbours": 24882,
    "Ġaisle": 21204,
    "confl": 22473,
    "Ġapology": 8328,
    "icherry": 15139,
    "fulfilment": 26026,
    "Ġshort": 2227,
    "tempt": 21082,
    "dish": 12457,
    "Ġweighty": 16037,
    "Ġdissuade": 26258,
    "Ġderive": 10397,
    "recklessly": 25270,
    "Ġperpetually": 17072,
    "Ġprocure": 9513,
    "Ġunavailing": 26217,
    "Ġsplinter": 23748,
    "Ġbeaver": 18088,
    "Ġscrutin": 26015,
    "Ġsanity": 24982,
    "Ġinscriptions": 20012,
    "same": 5362,
    "Ġofficially": 24839,
    "quimaux": 21857,
    "yden": 21146,
    "Ġashes": 7617,
    "jar": 17579,
    "Ġtinkling": 25213,
    "suitableness": 26262,
    "vel": 2385,
    "Ġvehement": 16206,
    "Ġvictory": 16656,
    "Ġundulations": 19518,
    "holes": 12058,
    "outh": 2686,
    "attacks": 23125,
    "Ġfoam": 6890,
    "+": 15,
    "Ġwhereupon": 14298,
    "Ġgateway": 24799,
    "bony": 15323,
    "Ġcleans": 18950,
    "Ġonto": 14030,
    "Ġjet": 5309,
    "ense": 2051,
    "Ġplutarch": 22609,
    "Ġbravely": 23842,
    "Ġlane": 5627,
    "convul": 24884,
    "society": 9975,
    "Ġchristendom": 16696,
    "Ġhereditary": 10667,
    "Ġterribly": 10427,
    "fold": 7546,
    "Ġschoolmaster": 16864,
    "Ġwatson": 3594,
    "Ġecstasy": 11633,
    "Ġwilliam": 3479,
    "Ġslaughter": 20732,
    "Ġjovial": 19235,
    "Ġmultitude": 9329,
    "Ġvale": 14085,
    "ĺ": 251,
    "seized": 14037,
    "Ġcruelty": 9972,
    "rich": 11520,
    "Ġdirector": 18922,
    "Ġshutting": 14762,
    "depths": 25664,
    "supplied": 10522,
    "Ġsn": 2948,
    "whispering": 26104,
    "fallen": 19662,
    "Ġmeasureless": 14713,
    "Ġraising": 8913,
    "pers": 4334,
    "Ġcreative": 9833,
    "christian": 17235,
    "Ġvirgin": 7327,
    "Ġwet": 6518,
    "certain": 3678,
    "Ġcreature": 2383,
    "Ġstoper": 14466,
    "urons": 3128,
    "orified": 21405,
    "Ġcollege": 11426,
    "fugitive": 26132,
    "invariably": 26418,
    "Ġassumpt": 5415,
    "Ġarid": 22185,
    "Ġexercised": 24800,
    "Ġhval": 21490,
    "acknowledging": 25477,
    "ially": 9250,
    "ational": 5716,
    "Ġfooted": 23799,
    "Ġundeviating": 15221,
    "Ġmining": 22835,
    "Ġstooped": 14467,
    "bar": 7541,
    "Ġsingularly": 12153,
    "Ġwhaler": 7520,
    "Ġnames": 4531,
    "Ġvoracity": 25987,
    "Ġterrify": 19364,
    "Ġloom": 7629,
    "Ġdwelling": 7321,
    "rigged": 17064,
    "named": 9906,
    "Ġfil": 3470,
    "Ġ74": 24264,
    "Ġattention": 1196,
    "ounced": 4953,
    "Ġte": 1133,
    "Ġangles": 23590,
    "Ġgoverness": 8605,
    "Ġbeh": 1802,
    "Ġtexas": 25923,
    "Ġcabaco": 13170,
    "inquiry": 15146,
    "Ġprevailing": 24674,
    "Ã": 132,
    "Ġnaturally": 2466,
    "Ġmicrosc": 20679,
    "excepting": 19709,
    "Ġsquatted": 25843,
    "Ġisle": 8837,
    "Ġadvancing": 6876,
    "Ġcar": 1418,
    "ould": 427,
    "Ġcalm": 3444,
    "Ġrefused": 6716,
    "Ġfinding": 3265,
    "Ġswan": 23054,
    "Ġearthy": 23714,
    "ę": 218,
    "Ġpertin": 18451,
    "ative": 743,
    "Ġinfallible": 15074,
    "prison": 14665,
    "Ġwander": 9035,
    "rs": 7807,
    "their": 2540,
    "00": 1609,
    "Ġdirt": 15599,
    "Ġvigilant": 20187,
    "Ġcloud": 3909,
    "Ġphrenologist": 25608,
    "situation": 11439,
    "Ġguernsey": 9355,
    "Ġorchard": 22098,
    "Ġstrung": 22621,
    "Ġdropt": 23675,
    "divers": 15346,
    "Ġuncont": 14119,
    "Ġspo": 6845,
    "Ġcomely": 21859,
    "Ġcrucifix": 26080,
    "Ġadvoc": 12992,
    "Ġslime": 23165,
    "Ġomniscient": 20089,
    "Ġsockets": 22092,
    "Ġpallet": 21484,
    "Ġimplicit": 19961,
    "Ġreceives": 20357,
    "fins": 13721,
    "Ġapprehended": 26091,
    "Ġrecurred": 18979,
    "Ġhearken": 21688,
    "dig": 4929,
    "Ġwatching": 4855,
    "Ġrecognised": 8999,
    "Ġuser": 15920,
    "iteous": 14264,
    "Ġprofessors": 14729,
    "Ġwrite": 3820,
    "Ġclust": 9278,
    "pit": 3983,
    "Ġprescribed": 26011,
    "produced": 25415,
    "Ġunmingled": 18264,
    "Ġbutts": 15860,
    "Ġskylarking": 19490,
    "Ġ2026": 12339,
    "Ġret": 1379,
    "goldsmith": 20150,
    "anation": 5804,
    "Ġsoutherly": 23338,
    "Ġphys": 5653,
    "inkling": 16095,
    "Ġcourage": 4631,
    "Ġfly": 3868,
    "fleet": 15016,
    "opinion": 10986,
    "Ġsees": 8847,
    "Ġtestified": 16322,
    "Ġwhir": 6393,
    "Ġsuggestions": 24453,
    "uge": 4016,
    "Ġtwig": 11854,
    "Ġpoetical": 25059,
    "Ġcasked": 24497,
    "Ġelijah": 9104,
    "derstand": 646,
    "Ġmeasuring": 22885,
    "Ġwinding": 8236,
    "Ġfollows": 7673,
    "trap": 24334,
    "spike": 16143,
    "Ġbriony": 9333,
    "races": 21633,
    "distrust": 19573,
    "Ġmajest": 24064,
    "ishness": 22346,
    "ity": 417,
    "Ġglobular": 19012,
    "cigar": 26125,
    "Ġasiatic": 20433,
    "Ġtraversed": 18893,
    "Ġcategor": 4139,
    "ferences": 10329,
    "Ġconjectured": 10000,
    "Ġsperm": 1842,
    "Ġimpud": 18445,
    "Ġarrest": 7408,
    "okes": 9281,
    "Ġthinks": 6170,
    "Ġunrecorded": 17470,
    "Ġexplaining": 15965,
    "acies": 14281,
    "eu": 17532,
    "Ġpope": 11605,
    "inked": 12918,
    "Ġcrowds": 14743,
    "epend": 3314,
    "Ġtranqu": 4603,
    "angels": 22110,
    "Ġdecidedly": 9512,
    "usal": 7639,
    "Ġgraves": 11712,
    "meetings": 20381,
    "Ġendowed": 18925,
    "deed": 1519,
    "etuous": 21586,
    "Ġregardless": 19326,
    "speechless": 25396,
    "grammar": 6435,
    "Ġgrammar": 1063,
    "Ġmomentum": 1602,
    "sus": 6229,
    "Ġsagaciously": 24730,
    "pect": 1256,
    "herfield": 3629,
    "Ġeduc": 4784,
    "Ġintermediate": 18589,
    "oftentimes": 19424,
    "cus": 3980,
    "Ġmappings": 2147,
    "alas": 8808,
    "Ġpar": 456,
    "Ġcir": 21344,
    "Ġcaravan": 26292,
    "Ġnile": 21524,
    "justine": 7683,
    "stool": 23823,
    "eted": 7592,
    "reated": 10305,
    "manif": 14376,
    "Ġsympat": 13344,
    "Ġscreams": 24604,
    "Ġunf": 4089,
    "Ġglistened": 20175,
    "lashed": 20956,
    "wol": 21125,
    "Ġjog": 18405,
    "Ġstanders": 19016,
    "jumped": 20249,
    "Ġeleg": 6193,
    "Ġcommon": 1412,
    "Ġrelaxed": 12988,
    "Ġxxxvi": 24972,
    "familiar": 19786,
    "dropping": 14985,
    "Ġgoverning": 2792,
    "adventures": 20259,
    "Ġfurrow": 22818,
    "severe": 21823,
    "exposure": 19259,
    "Ġskipper": 22801,
    "Ġlodgings": 8312,
    "Ġgodlike": 23360,
    "mill": 13756,
    "Ġconcealment": 16916,
    "kine": 15379,
    "70": 17478,
    "Ġfootfall": 14663,
    "Ġcomfor": 14056,
    "ze": 1350,
    "Ġpulpit": 7469,
    "Ġunmo": 12778,
    "Ġwickedness": 9529,
    "Ġgone": 2108,
    "Ġrep": 1937,
    "vity": 7815,
    "fitters": 24760,
    "Ġuse": 830,
    "Ġoverlook": 10962,
    "reasoning": 9479,
    "Ġvex": 5949,
    "Ġtrumpet": 9576,
    "Ġdupl": 9957,
    "Ġgazes": 24098,
    "revol": 12545,
    "Ġupon": 719,
    "Ġricher": 12764,
    "Ġmum": 13860,
    "Ġtren": 17723,
    "must": 3575,
    "Ġnecessary": 4472,
    "Ġcurrents": 13018,
    "Ġgum": 21598,
    "Ġadmire": 5264,
    "Ġendeavouring": 8035,
    "Ġosc": 2832,
    "Ġclattering": 22355,
    "more": 1033,
    "heum": 17749,
    "conced": 22472,
    "answering": 26005,
    "Ġyards": 5371,
    "Ġchallenges": 13633,
    "Ġpole": 6433,
    "Ġmamma": 10051,
    "Ġparmacetti": 20607,
    "Ġleaped": 8830,
    "Ġtechnical": 17194,
    "rance": 5994,
    "Ġzones": 22822,
    "Ġsig": 868,
    "Ġrachel": 11851,
    "Ġsave": 4050,
    "Ġpattered": 19018,
    "Ġboone": 11844,
    "isa": 17847,
    "Ġscholar": 26112,
    "Ġslightest": 6092,
    "sat": 4810,
    "attempted": 20177,
    "Ġnovelties": 24777,
    "into": 3682,
    "Ġpurchas": 19876,
    "onden": 13846,
    "Ġnumerous": 6919,
    "chooses": 23673,
    "Ġelderly": 13497,
    "Ġdynamically": 5058,
    "Ġxxxii": 24973,
    "Ġsailing": 5324,
    "rations": 10725,
    "Ġtwins": 16125,
    "Ġinvaders": 23482,
    "Ġsummarization": 3646,
    "eze": 20849,
    "Ġcin": 13877,
    "Ġthr": 5709,
    "hamed": 6306,
    "ette": 15664,
    "rets": 12546,
    "act": 787,
    "disappeared": 14572,
    "Ġaffect": 1383,
    "Ġpausing": 8656,
    "Ġwashed": 15770,
    "perfectly": 9090,
    "Ġaback": 22270,
    "Ġ$": 21153,
    "Ġpa": 2986,
    "Ġderick": 9368,
    "Ġsmite": 22561,
    "Ġdup": 21430,
    "similar": 13456,
    "quarrel": 20018,
    "aint": 2541,
    "Ġshowing": 7731,
    "alescence": 15929,
    "Ġ70": 11278,
    "ouder": 17902,
    "Ġexpert": 18870,
    "Ġhighest": 3527,
    "Ġlobes": 22119,
    "Ġability": 2761,
    "Ġears": 4489,
    "Ġaccumulating": 2720,
    "inese": 12884,
    "avering": 24792,
    "Ġjo": 2607,
    "fred": 20857,
    "Ġbutterfly": 19912,
    "Ġsole": 3296,
    "devouring": 24953,
    "Ġgloss": 11963,
    "Ġthames": 13940,
    "aset": 10834,
    "Ġlooking": 2473,
    "nihil": 9850,
    "Ġeternal": 5976,
    "Ġassid": 18947,
    "ĠĠĠĠĠĠĠĠĠĠĠĠĠĠĠĠĠĠĠĠĠĠĠĠĠĠĠĠ": 9978,
    "Ġlimping": 23549,
    "names": 15401,
    "dishon": 20407,
    "composure": 23992,
    "Ġlavater": 20499,
    "Ġregular": 953,
    "mere": 11859,
    "Ġlessened": 19089,
    "Ġsweet": 3463,
    "Ġcured": 21350,
    "Ġimmemorial": 10513,
    "Ġwidower": 24238,
    "Ġwitt": 17785,
    "Ġrestrained": 16380,
    "Ġunforgiving": 25996,
    "Ġhieroglyphic": 25588,
    "Ġbeard": 11658,
    "Ġpubl": 3941,
    "Ġmungo": 25632,
    "fashion": 8081,
    "acks": 11792,
    "Ġtis": 15469,
    "Ġspire": 18307,
    "Ġdistrusted": 13544,
    "Ġtempted": 9060,
    "Ġinattention": 17934,
    "Ġvowed": 14087,
    "regularly": 13211,
    "Ġreciproc": 20625,
    "Ġdeficient": 18827,
    "S": 55,
    "Ġner": 1649,
    "Ġhauled": 11698,
    "hors": 9601,
    "mand": 3892,
    "actory": 8909,
    "have": 2057,
    "sey": 5543,
    "pervading": 18958,
    "Ġviv": 6157,
    "Ġimpressive": 15001,
    "Ġrespect": 1673,
    "police": 10586,
    "sense": 11526,
    "itative": 13872,
    "Ġclients": 19735,
    "Ġeff": 679,
    "Ġmeasured": 9807,
    "Ġmole": 11795,
    "regarding": 15075,
    "Ġnote": 4262,
    "Ġmarvell": 7247,
    "Ġendeared": 26500,
    "thed": 8831,
    "estim": 14172,
    "Ġdare": 3543,
    "cked": 2760,
    "Ġott": 13868,
    "Ġreal": 1635,
    "breckinridge": 24078,
    "Ġabsorb": 25115,
    "intment": 4719,
    "Ġgrop": 12669,
    "Ġthoughtful": 16196,
    "idav": 18095,
    "Ġdecember": 15009,
    "abby": 14023,
    "kitty": 10108,
    "Ġcouldn": 7649,
    "Ġmingling": 20200,
    "Ġringle": 18211,
    "Ġseventeen": 26212,
    "Ġmurky": 19203,
    "Ġbled": 17858,
    "Ġbackbone": 22651,
    "Ġpail": 15612,
    "truck": 15445,
    "Ġsort": 1507,
    "Ġnavigation": 9996,
    "Ġpower": 1221,
    "Ġconstantly": 11977,
    "parad": 16393,
    "Ġadvisable": 11444,
    "Ġ183": 13241,
    "Ġbaleen": 10040,
    "Ġbloodshot": 23802,
    "Ġcollect": 7236,
    "anced": 1277,
    "Ġfashionable": 19547,
    "Ġdirectors": 18923,
    "european": 26373,
    "Ġretrie": 10385,
    "Ġlords": 14643,
    "Ġwe": 387,
    "holder": 13286,
    "folding": 24928,
    "ang": 446,
    "haven": 20914,
    "Ġswash": 23058,
    "ogn": 2609,
    "port": 10721,
    "Ġdey": 11678,
    "Ġadult": 18290,
    "Ġfleet": 9436,
    "fi": 12466,
    "Ġgroan": 13328,
    "onder": 3780,
    "real": 10152,
    "led": 579,
    "wolf": 26411,
    "oro": 21398,
    "Ġhook": 6453,
    "Ġclapham": 17268,
    "wonders": 17146,
    "Ġbreakfast": 3976,
    "Ġbarricade": 14662,
    "ively": 1306,
    "trial": 20353,
    "Ġsquad": 22840,
    "uttle": 6248,
    "Ġdeserves": 13293,
    "commanding": 24751,
    "Ġloathed": 15880,
    "abilities": 3235,
    "Ġbetter": 1175,
    "Ġcollectively": 19971,
    "?âĢĻâĢĿ": 23644,
    "Ġafar": 14296,
    "gaff": 20884,
    "Ġoverpowered": 15292,
    "Ġhercules": 14130,
    "Ġsettee": 22924,
    "Ġsurvived": 14937,
    "Ġsaints": 20677,
    "Ġamiss": 18512,
    "fluke": 25205,
    "Ġinstructive": 19288,
    "Ġcivilised": 24247,
    "uccas": 21109,
    "hyp": 15370,
    "Ġexperience": 1388,
    "rog": 15645,
    "Ġadvise": 7935,
    "Ġfreemason": 23214,
    "Ġinf": 1757,
    "Ġslept": 8259,
    "Ġcomposed": 8895,
    "contains": 16036,
    "Ġadditional": 7936,
    "ig": 322,
    "Ġcommissioned": 19897,
    "nailed": 20998,
    "Ġtemporal": 2612,
    "Ġreaped": 18032,
    "Ġartificial": 785,
    "nns": 1893,
    "Ġexample": 5096,
    "Ġroses": 11790,
    "going": 6314,
    "Ġaccosted": 13675,
    "Ġmetropol": 11142,
    "sing": 5138,
    "gener": 3123,
    "Ġtwinkling": 12328,
    "Ġlifted": 6985,
    "firmly": 20283,
    "merchant": 10468,
    "Ġtale": 5142,
    "peculiar": 6885,
    "Ġalternating": 15033,
    "swallow": 24260,
    "Ġcomb": 1058,
    "Ġusefulness": 19411,
    "expression": 10550,
    "Ġbranch": 8332,
    "Ġabed": 22269,
    "served": 5042,
    "Ġspacious": 18313,
    "Ġcircumn": 11988,
    "Ġheel": 9687,
    "mers": 9613,
    "Ġmournful": 12340,
    "Ġethiopian": 26615,
    "Ġ150": 22829,
    "Ġgripping": 26188,
    "bourgh": 19105,
    "Ġincarnate": 20378,
    "Ġopposing": 12044,
    "Ġruined": 12959,
    "Ġbrought": 2515,
    "beh": 5472,
    "madness": 14885,
    "Ġtrouble": 3693,
    "rupt": 3208,
    "mouse": 15396,
    "Ġsunlight": 13088,
    "peculiarity": 23113,
    "themselves": 6541,
    "Ġcontrivance": 17186,
    "Ġorph": 9720,
    "prev": 12872,
    "complet": 11385,
    "Ġbunger": 9999,
    "Ġgenealogies": 25962,
    "tube": 20414,
    "Ġabstained": 25232,
    "Ġtaffrail": 15480,
    "Ġfix": 2506,
    "Ġadapts": 3816,
    "Ġtrag": 13043,
    "Ġpassing": 4313,
    "Ġhospital": 15042,
    "felix": 10656,
    "Ġcausal": 3409,
    "irst": 878,
    "niest": 18970,
    "Ġgreenhorn": 23769,
    "Ġoffing": 16145,
    "rivial": 9438,
    "Ġembattled": 26291,
    "Ġsplinters": 15106,
    "village": 25423,
    "Ġadv": 1114,
    "range": 3491,
    "Ġmoustache": 20487,
    "Ġfool": 4234,
    "Ġsult": 10769,
    "Ġdeep": 796,
    "ek": 1909,
    "Ġcredited": 25157,
    "boast": 23255,
    "Ġcondemned": 7778,
    "Ġplayers": 12042,
    "Ġsuperficial": 23458,
    "Ġdegener": 14050,
    "bury": 9111,
    "Ġluckless": 16799,
    "mountains": 15184,
    "Ġplaintiffs": 13612,
    "?--": 15307,
    "conditionally": 24835,
    "Ġmig": 13858,
    "liest": 6295,
    "Ġreceptive": 1565,
    "Ġmanhat": 22331,
    "Ġchopping": 24222,
    "Ġbelted": 22951,
    "Ġoutside": 5554,
    "Ġcandle": 8292,
    "Ġequivalent": 4802,
    "Ġkneel": 14809,
    "Ġcustoms": 19655,
    "understand": 1120,
    "Ġtower": 8319,
    "ula": 2822,
    "aware": 16299,
    "Ġribs": 7102,
    "cele": 21628,
    "Ġnuts": 17954,
    "Ġinjuries": 11279,
    "Ġmetallic": 19059,
    "precision": 4329,
    "Ġwalk": 1826,
    "sufficient": 6637,
    "Ġstandards": 19017,
    "Ġverify": 12092,
    "Ġspectacles": 12102,
    "Ġgums": 21614,
    "eliest": 14749,
    "Ġspouter": 12803,
    "ĠĠĠĠĠĠĠĠĠĠ": 18578,
    "Ġcategories": 4476,
    "Ġtransform": 749,
    "Ġsuffer": 4721,
    "fortune": 4974,
    "Ġindebted": 8711,
    "ct": 309,
    "Ġmach": 13859,
    "Ġadm": 2402,
    "het": 5435,
    "Ġgnarled": 25169,
    "gers": 8376,
    "etw": 407,
    "Ġbluish": 23651,
    "Ġconfound": 23308,
    "Ġsobbed": 14139,
    "Ġaffectionately": 13171,
    "Ġdevouring": 11862,
    "Ġpert": 22400,
    "Ġinexperienced": 26101,
    "obst": 11936,
    "Ġrelinqu": 12987,
    "Ġsundry": 20077,
    "didst": 19352,
    "etah": 12666,
    "baron": 24926,
    "inex": 14099,
    "ethics": 8881,
    "Ġmasterly": 24000,
    "mong": 15393,
    "Ġlargely": 14289,
    "Ġassume": 10518,
    "Ġjutting": 22305,
    "Ġol": 17816,
    "Ġconventional": 25548,
    "Ġarchy": 14350,
    "cannib": 11906,
    "Ġhates": 21489,
    "oman": 2017,
    "intense": 22939,
    "Ġpattering": 18652,
    "stra": 4044,
    "Ġalleged": 17293,
    "Ġwonders": 7500,
    "Ġcomplete": 4380,
    "Ġslashing": 23174,
    "Ġnorton": 12654,
    "Ġvitality": 15176,
    "Ġwhistling": 19793,
    "thole": 21990,
    "iverse": 13119,
    "Ġ52": 24317,
    "Ġtawn": 13825,
    "Ġlegisl": 23538,
    "Ġho": 1932,
    "Ġconspicuous": 13606,
    "Ġgeneral": 1861,
    "Ġrowing": 10303,
    "Ġstilly": 25974,
    "Ġsooner": 5573,
    "Ġcontinuation": 22920,
    "placidity": 25989,
    "allions": 22202,
    "bey": 10316,
    "Ġgovernor": 16493,
    "Ġgardens": 16454,
    "mology": 12496,
    "Ġdemig": 20359,
    "Ġvancou": 22880,
    "Ġmassac": 14740,
    "leisure": 21374,
    "ounding": 22397,
    "Ġevangelical": 25507,
    "Ġkicks": 19771,
    "Ġdesperate": 7776,
    "Ġskrimshander": 22802,
    "Ġcontemplate": 19894,
    "Ġdin": 3624,
    "mediterranean": 16410,
    "Ġstiff": 6992,
    "Ġpenalty": 1840,
    "Ġcapst": 8600,
    "Ġoccas": 2701,
    "Ġmish": 15542,
    "Ġjudgment": 5765,
    "Ġchip": 12830,
    "Ġfastened": 7066,
    "Ġwish": 2098,
    "Ġwitty": 21295,
    "Ġbreakers": 12059,
    "wreck": 21139,
    "Ġhear": 1965,
    "Ġnoisier": 4622,
    "ia": 1259,
    "âĢĶâĢĺ_": 24832,
    "fun": 4143,
    "simon": 16975,
    "Ġingenious": 12353,
    "Ġascribed": 14858,
    "Ġyellowish": 24430,
    "Ġbrooding": 18909,
    "construction": 19781,
    "ened": 1386,
    "scor": 13024,
    "Ġmerchants": 23734,
    "quadrille": 20598,
    "expectant": 24278,
    "Ġlogs": 16351,
    "Ġtoes": 10831,
    "Ġkeenly": 9488,
    "Ġallen": 5160,
    "ask": 855,
    "Ġsho": 2247,
    "said": 4104,
    "onged": 18411,
    "Ġactual": 3739,
    "Ġinto": 648,
    "Ġinland": 11611,
    "Ġerudite": 26353,
    "Ġmanager": 11773,
    "Ġbless": 4340,
    "masculine": 24387,
    "Ġcorp": 5575,
    "Ġsynthe": 26008,
    "ĠÂ£": 5005,
    "Ġgarn": 13965,
    "boone": 23256,
    "Ġplain": 2814,
    "Ġundiscernible": 22072,
    "ely": 623,
    "Ġgasp": 7172,
    "Ġrout": 7401,
    "Ġdecide": 9290,
    "threshold": 21991,
    "nal": 1904,
    "Ġfitness": 24006,
    "spirited": 19756,
    "Ġstrangest": 14798,
    "Ġlocations": 12417,
    "anguish": 15988,
    "suff": 4960,
    "ö": 183,
    "Ġirrad": 19095,
    "Ġro": 596,
    "cnns": 3620,
    "Ġfrown": 10809,
    "scuttle": 11914,
    "Ġslim": 18939,
    "Ġparents": 6753,
    "Ġgloom": 4201,
    "ulia": 18151,
    "etieth": 21587,
    "kempt": 20943,
    "Ġreck": 6538,
    "Ġground": 2844,
    "Ġmouths": 7491,
    "cask": 12451,
    "Ġices": 21157,
    "Ġscal": 1567,
    "Ġthereof": 22372,
    "Ġimped": 18443,
    "Ġconsummate": 25311,
    "Ġly": 2271,
    "compliments": 24807,
    "Ġhedgehogs": 25395,
    "Ġdropped": 4470,
    "hur": 6650,
    "moments": 19415,
    "Ġguid": 2637,
    "ä": 165,
    "olog": 1077,
    "Ġcontrary": 5261,
    "Ġhandling": 8916,
    "protection": 19922,
    "ira": 3958,
    "iscuits": 24667,
    "Ġadmires": 19688,
    "Ġoffended": 7041,
    "Ġmetropolis": 17277,
    "la": 10707,
    "Ġunprecedented": 15859,
    "encing": 21285,
    "ady": 998,
    "Ġsmitten": 12904,
    "Ġreluct": 14375,
    "Ġelias": 18636,
    "Ġanne": 1528,
    "Ġbingley": 1679,
    "Ġlanding": 11989,
    "iciously": 17976,
    "Ġdishonoured": 20394,
    "Ġunanswerable": 26523,
    "midnight": 14905,
    "P": 52,
    "yrin": 12527,
    "Ġbulge": 23860,
    "Ġpostponed": 20393,
    "eye": 6225,
    "Ġlegit": 16476,
    "frame": 17117,
    "Ġmidway": 14606,
    "Ġadroit": 26001,
    "Ġintercourse": 11000,
    "Ġmarket": 7708,
    "Ġlimited": 23548,
    "Ġdexter": 9704,
    "Ġcongealed": 25982,
    "Ġfireboard": 23536,
    "Ġclo": 6043,
    "Ġboast": 7035,
    "Ġcallest": 17834,
    "isting": 5551,
    "Ġjoking": 12842,
    "Ġthreat": 5154,
    "rodden": 21538,
    "Ġelaborate": 18638,
    "prevailed": 17348,
    "ential": 826,
    "measureless": 20238,
    "Ġallusions": 10908,
    "Ġsinks": 19552,
    "Ġcard": 7362,
    "Ġprovince": 24191,
    "Ġsebastian": 11700,
    "made": 4808,
    "Ġensuring": 11193,
    "Ġfashioned": 13324,
    "tried": 13796,
    "Ġegot": 18010,
    "Ġnext": 2139,
    "istle": 15875,
    "blades": 24132,
    "obey": 11512,
    "Ġvictoria": 14876,
    "flight": 15356,
    "Ġfitly": 24005,
    "Ġrival": 10488,
    "inburgh": 15494,
    "ulation": 5458,
    "cutting": 23785,
    "Ġrobins": 16251,
    "Ġbook": 2700,
    "Ġdesist": 16243,
    "Ġshine": 12771,
    "Ġstrain": 6024,
    "gration": 9125,
    "da": 17516,
    "Ġrudeness": 17127,
    "gradually": 12920,
    "chance": 6826,
    "redible": 15809,
    "Ġendless": 7054,
    "omp": 2529,
    "dreadful": 11423,
    "mysteries": 26051,
    "Ġbulky": 13232,
    "flies": 19427,
    "gorge": 22336,
    "mbling": 3344,
    "Ġvastly": 23863,
    "Ġswinging": 7448,
    "ored": 3893,
    "Ġcour": 1768,
    "Ġcustomary": 8673,
    "mastod": 23977,
    "Ġcircumference": 13547,
    "Ġjogged": 26238,
    "Ġconflict": 17276,
    "herself": 4890,
    "Ġve": 1108,
    "Ġloitered": 26527,
    "!âĢĻ": 3331,
    "Ġfreshly": 23993,
    "magn": 10613,
    "Ġtalked": 4420,
    "Ġdrove": 4983,
    "Ġangrily": 9411,
    "Ġscale": 1549,
    "Ġarmies": 16495,
    "Ġdifferently": 10391,
    "Ġ18": 3405,
    "Ġwillingness": 24911,
    "ĠĠĠĠĠĠĠĠ": 712,
    "Ġunlike": 7005,
    "iffs": 9026,
    "Ġwearing": 12744,
    "Ġcrad": 21352,
    "Ġannual": 14835,
    "Ġbordeaux": 24565,
    "pistol": 17644,
    "rential": 22922,
    "Ġtriumphantly": 11289,
    "comp": 3667,
    "pocket": 9814,
    "Ġindiscriminately": 20630,
    "Ġoakum": 16936,
    "Ġinvited": 6902,
    "ifice": 7197,
    "Ġprayer": 16669,
    "Ġheroines": 19754,
    "Ġvault": 8845,
    "stays": 15694,
    "Ġ22": 8279,
    "years": 6882,
    "peare": 18913,
    "ctors": 21593,
    "Ġmultiplicity": 19277,
    "Ġphilist": 16603,
    "Ġmonotonous": 13267,
    "mense": 4779,
    "bid": 5611,
    "imate": 4220,
    "Ġlanded": 7468,
    "tale": 10130,
    "groom": 8743,
    "labours": 16619,
    "arent": 4248,
    "mess": 13755,
    "Ġmundane": 26431,
    "Ġbuffaloes": 25218,
    "Ġhate": 5445,
    "sor": 7351,
    "Ġsubdued": 11032,
    "Ġtur": 2563,
    "calm": 8937,
    "movable": 14327,
    "bolts": 11422,
    "weed": 14318,
    "k": 79,
    "Ġjust": 1242,
    "Ġvillanous": 24058,
    "Ġpatagonian": 20536,
    "Ġcloudy": 19480,
    "Ġastonished": 7088,
    "clearly": 25196,
    "Ġwick": 2005,
    "Ġdiscredit": 22783,
    "Ġnumbers": 2887,
    "Ġexamining": 8006,
    "Ġvirtue": 4922,
    "lemency": 21377,
    "simple": 13455,
    "atoes": 17777,
    "walton": 20252,
    "Ġunce": 11715,
    "stocks": 23824,
    "Ġearnestness": 12130,
    "Ġpast": 2099,
    "Ġpositively": 13035,
    "tor": 15436,
    "Ġcharing": 14183,
    "Ġ51": 24316,
    "Ġgermany": 25786,
    "sword": 10728,
    "needle": 20313,
    "lighter": 20961,
    "Ġprep": 4191,
    "Ġtamely": 24980,
    "Ġmeditating": 20046,
    "Ġnatures": 16508,
    "Ġtoil": 6532,
    "Ġanalog": 12617,
    "Ġharvard": 24574,
    "Ġanxiety": 5408,
    "noise": 14337,
    "Ġincisive": 18571,
    "licted": 20958,
    "muring": 17603,
    "Ġresemble": 15698,
    "Ġwhitish": 24867,
    "Ġignited": 25072,
    "Ġstrives": 23694,
    "Ġclimes": 12845,
    "Ġwarehouse": 20420,
    "Ġapples": 22222,
    "Ġdeny": 7488,
    "Ġtropic": 17066,
    "ru": 479,
    "Ġpurpose": 2706,
    "Ġrests": 13096,
    "Ġconqueror": 25797,
    "rogress": 21539,
    "Ġpooh": 18604,
    "Ġjour": 11768,
    "bu": 5132,
    "Ġunappalled": 22069,
    "Ġpeev": 22696,
    "Ġsisters": 3639,
    "Ġappo": 8500,
    "max": 1687,
    "pudding": 17649,
    "Ġessays": 19747,
    "erns": 8782,
    "poor": 6061,
    "Ġfailed": 6673,
    "etence": 21580,
    "thunder": 10265,
    "Ġalone": 2565,
    "story": 9216,
    "stranded": 19227,
    "Ġk": 484,
    "Ġflexible": 23776,
    "Ġdromed": 15602,
    "Ġjumbled": 22301,
    "Ġwrote": 5010,
    "Ġpursuit": 4732,
    "supper": 12925,
    "Ġwindsor": 16889,
    "Ġfirmness": 11239,
    "Ġsympath": 4861,
    "continued": 8679,
    "Ġexplo": 2286,
    "market": 16841,
    "romed": 10907,
    "brows": 17499,
    "charlotte": 6473,
    "Ġlandsman": 11352,
    "Ġsubsisting": 23438,
    "imly": 12692,
    "Ġseat": 4948,
    "Ġbanqu": 12593,
    "tracks": 19649,
    "Ġengrossed": 13001,
    "eringly": 23008,
    "ribes": 23369,
    "Ġconnect": 797,
    "proachable": 23401,
    "suppose": 8648,
    "Ġwaiter": 16367,
    "eminent": 25107,
    "bly": 6111,
    "leaning": 10792,
    "Ġinstrument": 7119,
    "Ġdim": 4756,
    "increas": 10456,
    "z": 94,
    "Ġarchitectures": 2908,
    "admire": 24946,
    "Ġcontract": 18476,
    "ariously": 18525,
    "Ġskiff": 16168,
    "hester": 9634,
    "Ġlively": 5449,
    "igating": 21702,
    "Ġthee": 2621,
    "inging": 5907,
    "consc": 4841,
    "Ġhorns": 11125,
    "marrying": 19550,
    "Ġinclosed": 19541,
    "Ġphrenologically": 20397,
    "Ġidentifies": 12019,
    "Ġmaiden": 13389,
    "Ġtunnel": 14933,
    "Ġfetching": 16898,
    "Ġclifford": 22357,
    "Ġscenes": 5730,
    "uled": 11539,
    "Ġenabling": 1084,
    "aching": 5832,
    "Ġunfrequ": 19511,
    "ess": 411,
    "staff": 21659,
    "Ġsustenance": 19937,
    "Ġtrunk": 7204,
    "Ġoccasion": 3247,
    "Ġaffirmative": 15226,
    "Ġfem": 6135,
    "Ġseclusion": 18207,
    "Ġheightens": 24156,
    "Ġfrontispiece": 23917,
    "wl": 17704,
    "Ġaunt": 3175,
    "Ġwithin": 2163,
    "Ġrepressed": 21671,
    "Ġfourth": 7706,
    "Ġmiserably": 12953,
    "Ġhereford": 22882,
    "daughters": 13469,
    "Ġequival": 4783,
    "Ġhorrify": 23822,
    "Ġtambourine": 9567,
    "Ġthursday": 12649,
    "Ġgenteel": 19984,
    "Ġpossess": 3202,
    "Ġgoing": 2066,
    "Ġacquies": 11099,
    "utch": 21589,
    "±": 114,
    "earthly": 24723,
    "Ġreus": 8826,
    "super": 5944,
    "Ġexcellence": 11453,
    "arted": 2203,
    "Ġrestored": 7067,
    "âĢ": 294,
    "ball": 7792,
    "insurance": 18889,
    "cial": 2647,
    "Ġtender": 5753,
    "Ġmeridians": 17358,
    "Ġfamine": 16332,
    "Ġpaced": 7584,
    "description": 11095,
    "Ġstroll": 13356,
    "Ġsurrey": 14561,
    "Ġrecursive": 4781,
    "ppered": 15796,
    "Ġcapsized": 20093,
    "Ġcelebrated": 13597,
    "Ġlakeman": 6986,
    "Ġfunction": 587,
    "edged": 15636,
    "satisfied": 10581,
    "cooper": 19191,
    "returns": 23143,
    "Ġhil": 10823,
    "mosp": 8089,
    "Ġmanners": 3791,
    "giving": 8742,
    "Ġweaver": 11691,
    "Ġattribute": 16108,
    "Ġfin": 1460,
    "Ġhasn": 12932,
    "Ġwrites": 23201,
    "mannered": 22852,
    "Ġtwilight": 16126,
    "acquired": 24298,
    "Ġuniversally": 12004,
    "Ġsunshine": 14496,
    "Ġrenowned": 26195,
    "Ġwax": 10778,
    "furn": 10094,
    "Ġdetestation": 17130,
    "Ġpeace": 3695,
    "image": 9689,
    "venison": 22629,
    "interested": 9509,
    "Ġmatrix": 1605,
    "motives": 26138,
    "Ġdistinguishing": 16499,
    "ikes": 8087,
    "Ġcontextually": 11959,
    "non": 9614,
    "complacency": 19916,
    "Ġdigesting": 19812,
    "Ġsale": 14157,
    "Ġstripping": 23695,
    "Ġturbid": 23613,
    "tch": 9145,
    "Ġdet": 509,
    "Ġxxxiv": 24970,
    "constit": 24605,
    "oring": 1860,
    "Ġbloss": 19258,
    "erval": 4019,
    "Ġimmemorially": 25384,
    "Ġenumer": 12750,
    "gangway": 20670,
    "Ġgenerously": 22399,
    "hawks": 24695,
    "bra": 6220,
    "Ġchristmas": 6923,
    "humoredly": 26326,
    "Ġunique": 12783,
    "Ġaud": 6663,
    "rabb": 15685,
    "Ġdismal": 11814,
    "sister": 5139,
    "oup": 2014,
    "aust": 15313,
    "Ġrespects": 7268,
    "Ġdelicate": 6480,
    "Ġrect": 18028,
    "subs": 14304,
    "Ġsearching": 13165,
    "Ġoily": 13866,
    "Ġtipt": 21176,
    "value": 18805,
    "Ġflashing": 13032,
    "ld": 385,
    "mun": 20964,
    "Ġscanning": 18400,
    "Ġashore": 5352,
    "Ġtears": 4230,
    "Ġpostpone": 17310,
    "Ġtusked": 25427,
    "disp": 7977,
    "Ġcontributed": 16014,
    "mechanically": 17303,
    "Ġthing": 1642,
    "Ġdiscovers": 4427,
    "worth": 8630,
    "ser": 1424,
    "Ġestimates": 3749,
    "marest": 20982,
    "Ġbroods": 23106,
    "Ġ94": 17719,
    "Ġanimation": 11154,
    "Ġforeseeing": 23452,
    "Ġwarring": 16867,
    "Ġnarrowly": 16822,
    "Ġrephrased": 26479,
    "Ġwasn": 6997,
    "Ġcaut": 6521,
    "Ġgulf": 10638,
    "Ġperdition": 15997,
    "Ġdisinclination": 22540,
    "useless": 14596,
    "Ġengaging": 9340,
    "Ġcompanion": 3642,
    "Ġarches": 14163,
    "eches": 8078,
    "laughing": 15183,
    "Ġbaw": 15574,
    "bit": 3933,
    "Ġremembering": 14613,
    "ellative": 21949,
    "ounts": 4649,
    "Ġships": 3716,
    "Ġentirely": 3431,
    "Ġber": 5698,
    "Ġpret": 3034,
    "mud": 20973,
    "Ġapoplexy": 25266,
    "malicious": 19904,
    "Ġawa": 7713,
    "Ġgar": 10840,
    "Ġsuspicions": 9482,
    "chant": 4257,
    "Ġpips": 9852,
    "insula": 23070,
    "athan": 2955,
    "velling": 14765,
    "Ġsne": 6372,
    "Ġtides": 13823,
    "Ġdinn": 23984,
    ".âĢĶâĢľ": 20749,
    "Ġunwritten": 22038,
    "Ġchamp": 18382,
    "progression": 20385,
    "Ġpeep": 6869,
    "!_âĢĿ": 11378,
    "civility": 17515,
    "Ġimpartial": 15223,
    "Ġallured": 14116,
    "Ġcordially": 16838,
    "phys": 18713,
    "extra": 8219,
    "Ġassist": 3562,
    "niece": 20997,
    "Ġblacks": 23391,
    "agrad": 2744,
    "ictions": 14228,
    "Ġmartha": 16266,
    "Ġesquimaux": 25154,
    "Ġjewels": 12373,
    "Ġbrand": 16191,
    "Ġincluded": 8959,
    "hering": 12819,
    "Ġcig": 6520,
    "._)": 10483,
    "Ġalgorith": 561,
    "wear": 22686,
    "apt": 731,
    "Ġstrugg": 3214,
    "choose": 23672,
    "Ġrecompense": 14841,
    "arthur": 14833,
    "astic": 1868,
    "Ġflourish": 17163,
    "elling": 5831,
    "Ġbristling": 20530,
    "ruck": 6847,
    "Ġsatire": 22903,
    "writing": 7720,
    "arded": 5028,
    "Ġfiner": 13057,
    "cannon": 22965,
    "Ġwaterloo": 11985,
    "astonishment": 10033,
    "Ġveget": 11890,
    "Ġcertainly": 2495,
    "Ġextras": 22757,
    "Ġowner": 8925,
    "mo": 862,
    "Ġcha": 6852,
    "Ġsalt": 8017,
    "Ġtuck": 10143,
    "desponding": 26343,
    "Ġjoyously": 19350,
    "apsed": 6296,
    "Ġvaliantly": 22798,
    "Ġimmensities": 25331,
    "matlock": 23471,
    "pop": 17633,
    "leads": 21373,
    "Ġlooks": 4166,
    "Ġfestival": 25446,
    "unities": 15776,
    "Ġmrs": 1467,
    "Ġterrific": 6755,
    "Ġsoles": 22089,
    "allet": 11085,
    "Ġconsequ": 6255,
    "Ġanswers": 7071,
    "Ġtracks": 18891,
    "Â£": 4812,
    "Ġexultation": 15175,
    "Ġaqu": 17744,
    "air": 1003,
    "Ġbulls": 23861,
    "Ġserpentine": 11362,
    "Ġlanguor": 12852,
    "clump": 23158,
    "Ġgratification": 24100,
    "lob": 22511,
    "Ġshuttle": 12131,
    "timidity": 25754,
    "around": 12613,
    "Ġcells": 13887,
    "Ġconjectures": 16927,
    "Ġlogical": 14489,
    "Ġmonomaniac": 9571,
    "weaving": 18667,
    "Ġdesper": 6177,
    "clock": 3934,
    "stream": 15692,
    "Ġmanufact": 22332,
    "Ġapplications": 4782,
    "Ġemerged": 8688,
    "Ġcurv": 3509,
    "Ġsteak": 9832,
    "ierce": 14395,
    "bbing": 6324,
    "footed": 19692,
    "Ġfifth": 11259,
    "Ġdecomp": 3811,
    "isp": 5528,
    "Ġcreamy": 14332,
    "Ġdisquis": 22531,
    "ble": 542,
    "waters": 11335,
    "ampling": 12731,
    "Ġgeneric": 18449,
    "Ġtrembled": 8705,
    "total": 17253,
    "Ġwonderfully": 10432,
    "Ġtongs": 9964,
    "Ġhorror": 3773,
    "resol": 17762,
    "ohnson": 16330,
    "Ġ132": 19898,
    "instruct": 19545,
    "Ġbiscuit": 12594,
    "prep": 9762,
    "Ġrocking": 10971,
    "Ġembarrassment": 10629,
    "Ġcoarse": 14277,
    "Ġmultitudinous": 26275,
    "Ġpenalizing": 13094,
    "Ġcrows": 24037,
    "pulling": 25149,
    "principle": 10653,
    "Ġobservable": 25129,
    "lim": 9609,
    "Ġpertaining": 18452,
    "Ġstowing": 18074,
    "Ġappetites": 20209,
    "Ġapply": 1778,
    "weave": 22688,
    "drab": 23902,
    "Ġmeasurement": 19426,
    "Ġsake": 4091,
    "Ġfever": 6559,
    "Ġcontinues": 18811,
    "Ġlucy": 17972,
    "diligence": 26111,
    "Ġremorse": 6441,
    "Ġopening": 5044,
    "Ġvolumes": 14802,
    "Ġdoxology": 22248,
    "Ġgirl": 3083,
    "Ġverily": 16605,
    "Ġbreezes": 14872,
    "uture": 1067,
    "lucases": 20213,
    "gir": 8083,
    "Ġallegro": 25795,
    "record": 16923,
    "Ġinteractions": 12908,
    "reflections": 24734,
    "Ġmassachusetts": 24028,
    "horrible": 14602,
    "Ġmockery": 12112,
    "til": 17673,
    "Ġepoch": 26473,
    "Ġconcert": 11971,
    "Ġin": 291,
    "Ġfac": 6381,
    "brandy": 19202,
    "ap": 547,
    "Ġd": 284,
    "Ġded": 2498,
    "condesc": 18504,
    "Ġlinked": 15081,
    "umer": 9262,
    "Ġrevolut": 3258,
    "unable": 14061,
    "Ġjenkinson": 11433,
    "Ġoarsmen": 7737,
    "petulance": 24301,
    "oid": 3124,
    "Ġdorm": 4822,
    "Ġdem": 11677,
    "elves": 2158,
    "Ġlongitude": 11013,
    "Ġrent": 11642,
    "infer": 10147,
    "duodecimo": 16007,
    "tumultuous": 20402,
    "Ġobjections": 8567,
    "leag": 21369,
    "Ġgracechurch": 12203,
    "dependence": 17170,
    "Ġbeauty": 3770,
    "Ġmournfully": 20120,
    "Ġsculpture": 26017,
    "Ġcontriv": 9286,
    "Ġbaltic": 18795,
    "akin": 11772,
    "Ġgros": 14825,
    "Ġpersist": 16291,
    "Ġmagazine": 23103,
    "confirmed": 19643,
    "andy": 8158,
    "Ġribbons": 24325,
    "icity": 2539,
    "Ġdespond": 14670,
    "Ġdespair": 4009,
    "supers": 22644,
    "Ġexceeded": 14436,
    "Ġache": 18664,
    "Ġconcent": 8250,
    "Ġcolumbus": 26566,
    "Ġlowly": 11123,
    "Ġdragging": 14479,
    "Ġensue": 18191,
    "ornament": 23490,
    "Ġletter": 2199,
    "Ġstrong": 1787,
    "Ġdisagreeable": 9302,
    "Ġ179": 19757,
    "Ġreasonable": 7251,
    "del": 4075,
    "Ġmitig": 1336,
    "Ġfiltering": 23930,
    "Ġthrob": 21521,
    "oration": 2210,
    "Ġceti": 24772,
    "Ġjoin": 4854,
    "Ġpaper": 4281,
    "Ġmediocrity": 26610,
    "Ġah": 5075,
    "ged": 1513,
    "Ġdistorted": 14252,
    "Ġab": 528,
    "Ġferry": 24498,
    "pol": 5893,
    "Ġsquaring": 22843,
    "Ġaccounting": 14575,
    "increasing": 20272,
    "Ġpaints": 23527,
    "caught": 8730,
    "Ġheaps": 11645,
    "given": 8377,
    "Ġincome": 7917,
    "Ġalleviated": 26205,
    "Ġcentaurs": 23836,
    "Ġfail": 4149,
    "Ġseverely": 14936,
    "Ġbold": 5293,
    "Ġsalted": 14759,
    "period": 15907,
    ";": 31,
    "isive": 10795,
    "teringly": 21827,
    "Ġbolted": 12249,
    "Ġvigorous": 10569,
    "Ġinfancy": 10411,
    "peddling": 21034,
    "Ġgifted": 17999,
    "Ġbeggar": 9353,
    "Ġstamped": 13529,
    "Ġevent": 2949,
    "Ġsoften": 23126,
    "Ġcontempl": 6702,
    "Ġbagging": 24539,
    "mblings": 19783,
    "odious": 21816,
    "Ġlearning": 386,
    "Ġgoes": 3851,
    "Ġgrapnels": 25552,
    "Ġ111": 24436,
    "Ġwaving": 8578,
    "presbyterian": 26370,
    "Ġdrop": 4342,
    "Ġpurp": 2393,
    "orum": 12595,
    "Ġrheum": 18215,
    "inting": 9817,
    "Ġspace": 1540,
    "Ġgreater": 3036,
    "Ġtoilet": 13939,
    "Ġsprings": 16688,
    "Ġwakeful": 24269,
    "Ġpossessions": 23828,
    "killer": 20479,
    "Ġprophesied": 26063,
    "thr": 12765,
    "Ġtheorem": 2326,
    "ason": 1263,
    "zen": 5140,
    "Ġanswering": 7477,
    "Ġtraverse": 18892,
    "score": 18858,
    "Ġblanche": 18821,
    "hem": 6665,
    "banked": 25338,
    "avating": 18606,
    "frock": 20124,
    "Ġpunctil": 20117,
    "amples": 1823,
    "gathered": 13734,
    "Ġpleasantness": 24140,
    "Ġfundamentals": 14637,
    "Ġpaddington": 17096,
    "Ġabrupt": 9739,
    "Ġenergy": 2551,
    "joined": 13279,
    "Ġneg": 1331,
    "Ġmultiplication": 2869,
    "Ġenvironment": 3932,
    "Ġsteered": 11094,
    "privilege": 25264,
    "heed": 15502,
    "Ġsandwiched": 26612,
    "Ġterr": 3273,
    "stad": 7598,
    "hob": 20902,
    "Ġfuriously": 9805,
    "Ġliked": 5265,
    "fth": 20858,
    "Ġeverywhere": 9799,
    "Ġchancery": 20718,
    "Ġdeclares": 16994,
    "ples": 6844,
    "Ġclaimed": 14204,
    "Ġmark": 2331,
    "Ġtruly": 4795,
    "Ġcuriosity": 2391,
    "Ġfolk": 10378,
    "feeling": 6618,
    "conversation": 7123,
    "usiveness": 22297,
    "wilful": 25152,
    "Ġtackle": 9516,
    "Ġmac": 15543,
    "intments": 18823,
    "Ġconn": 9233,
    "quaker": 15768,
    "isely": 4487,
    "Ġextremest": 19196,
    "Ġassistant": 7297,
    "gressive": 2751,
    ":--": 5784,
    "follow": 5680,
    "Ġsubsisted": 19119,
    "supervised": 1939,
    "carpenter": 11429,
    "Ġtransformers": 1125,
    "chorus": 19814,
    "Ġhabitu": 19531,
    "slow": 7810,
    "Ġstomach": 11656,
    "Ġdart": 4583,
    "ta": 13791,
    "Ġsmoky": 22562,
    "osite": 4893,
    "Ġbounded": 16629,
    "hack": 20898,
    "Ġpatched": 16365,
    "Ġanswer": 2596,
    "relics": 24021,
    "Ġloveliest": 20264,
    "previous": 9764,
    "waiter": 24587,
    "Ġpomp": 12627,
    "ultural": 22572,
    "Ġagricultural": 26552,
    "Ġhunch": 18937,
    "offing": 23337,
    "Ġsuitable": 18279,
    "Ġlet": 1111,
    "N": 50,
    "asted": 4647,
    "Ġincorruption": 26310,
    "ours": 3425,
    "Ġinterior": 8898,
    "Ġunmanufactured": 20437,
    "Ġblameless": 19861,
    "eray": 21269,
    "Ġfisheries": 17441,
    "Ġmaled": 21317,
    "Ġimprisonment": 22392,
    "Ġejaculation": 20257,
    "pitchpoling": 25725,
    "overs": 17623,
    "mistak": 16880,
    "iloqu": 11651,
    "Ġmab": 12565,
    "Ġinhabited": 12190,
    "Ġopine": 19229,
    "erted": 7360,
    "Ġfatal": 5872,
    "Ġhunters": 6301,
    "Ġ5": 4934,
    "ometer": 19328,
    "Ġfloated": 7287,
    "continue": 16863,
    "Ġpredict": 682,
    "Ġphotograph": 6303,
    "tting": 17682,
    "Ġattend": 5035,
    "Ġusher": 22217,
    "whew": 22874,
    "Ġenraptured": 26502,
    "warm": 8102,
    "Ġshows": 8484,
    "Ġtraced": 10386,
    "pertaining": 22192,
    "atiable": 17776,
    "buoy": 7760,
    "Ġdread": 3161,
    "Ġfrenz": 25447,
    "Ġimpul": 7207,
    "Ġanxious": 4516,
    "es": 288,
    "engine": 18929,
    "tree": 11536,
    "Ġpalpable": 15209,
    "Ġpractice": 2644,
    "unwillingness": 25803,
    "Ġunwarrantable": 26346,
    "/": 19,
    "Ġmann": 18417,
    "tallow": 21088,
    "enstein": 5800,
    "qualities": 25046,
    "Ġbee": 21753,
    "ij": 7801,
    "Ġdeliverance": 15161,
    "Ġunclad": 22058,
    "Ġexpost": 18623,
    "istry": 22113,
    "Ġugly": 8719,
    "Ġarrangement": 2656,
    "Ġbower": 15572,
    "Ġruddy": 17128,
    "Ġunaccountable": 7887,
    "Ġvoyage": 3052,
    "resist": 8276,
    "Ġsevent": 18201,
    "Ġpurchases": 24755,
    "Ġeffort": 8204,
    "ument": 5240,
    "ore": 418,
    "Ġequinoctial": 20535,
    "these": 3241,
    "Ġenh": 3074,
    "Ġbull": 7839,
    "Ġcanoe": 9726,
    "possesses": 24617,
    "Ġrecip": 16150,
    "rowed": 22866,
    "Ġtransient": 18482,
    "Ġrazors": 22665,
    "avish": 22597,
    "mistaken": 12215,
    "Ġtem": 806,
    "Ġchristianity": 19863,
    "infant": 19830,
    "Ġrecklessness": 24744,
    "Ġapothecary": 13662,
    "Ġskewer": 19623,
    "Ġinjured": 9043,
    "Ġfellow": 2774,
    "distinct": 13339,
    "Ġrunning": 3952,
    "Ġfiver": 22780,
    "Ġplanting": 16091,
    "Ġmaimed": 21319,
    "undant": 14789,
    "Ġones": 3018,
    "trained": 4238,
    "Ġattached": 5392,
    "Ġdiction": 8799,
    "careful": 14869,
    "Ġtelescopes": 25691,
    "Ġrepresented": 8941,
    "Ġreconsidered": 21676,
    "owe": 15713,
    "dar": 20826,
    "oglyph": 11020,
    "contrad": 19294,
    "Ġministers": 22838,
    "Ġworn": 6445,
    "Ġgiving": 4084,
    "Ġlovers": 9723,
    "Ġjolly": 6857,
    "Ġcovari": 2338,
    "Ġprick": 14481,
    "isation": 13895,
    "Ġaccost": 12851,
    "Ġhealed": 21686,
    "Ġscraggy": 24580,
    "erate": 7149,
    "Ġdab": 15593,
    "Ġpainted": 7979,
    "icating": 15660,
    "Ġtrait": 23078,
    "Ġoceans": 7996,
    "Ġoutermost": 22323,
    "erxes": 21278,
    "Ġpromising": 10402,
    "Ġsunday": 7269,
    "Ġdeceitful": 25733,
    "Ġcommanders": 23871,
    "Ġsincer": 13070,
    "Ġvultures": 25654,
    "Ġsaint": 15511,
    "Ġstudents": 23216,
    "fuller": 22490,
    "trouble": 8296,
    "ituted": 13875,
    "Ġtimidly": 11340,
    "Ġcabs": 23642,
    "Ġoccurring": 2789,
    "Ġtoiling": 15640,
    "Ġweb": 9244,
    "Ġrevolution": 3303,
    "reshold": 21242,
    "tw": 2809,
    "Ġoct": 10161,
    "Ġaspire": 21904,
    "Ġdangers": 12359,
    "Ġmechanisms": 1577,
    "save": 13787,
    "offered": 14521,
    "housekeeping": 24104,
    "Ġvisions": 12978,
    "seek": 8841,
    "Ġalongside": 6312,
    "ran": 11518,
    "Ġgravel": 14105,
    "Ġhotels": 19539,
    "case": 5206,
    "Ġhelm": 5276,
    "Ġcrocod": 19631,
    "connect": 1292,
    "furnished": 20244,
    "Ġreynolds": 10212,
    "Ġearliest": 9834,
    "Ġidleness": 11146,
    "Ġannotations": 25955,
    "Ġeliza": 6437,
    "Ġladyship": 5045,
    "Ġbrow": 3988,
    "Ġridic": 7508,
    "limp": 20954,
    "Ġpowers": 5419,
    "Ġdivided": 8635,
    "Ġenlivened": 26209,
    "swim": 16781,
    "reflected": 24732,
    "vering": 15721,
    "azed": 9403,
    "Ġhearse": 10422,
    "Ġthousands": 6749,
    "Ġinasmuch": 10827,
    "bat": 8072,
    "fearing": 18536,
    "Ġinstruct": 2862,
    "Ġinvoked": 19146,
    "Ġlanes": 19768,
    "Ġhands": 1669,
    "Ġslumber": 13064,
    "Ġamazed": 14892,
    "Ġdispleasure": 16056,
    "Ġimpression": 5732,
    "Ġadventure": 5981,
    "ger": 1107,
    "Ġinnovative": 1629,
    "mut": 17597,
    "Ġslabs": 13065,
    "Ġimpulses": 19965,
    "stranger": 9886,
    "penetrating": 25491,
    "Ġkirwin": 8498,
    "Ġgibraltar": 25788,
    "Ġcentral": 7727,
    "tem": 6369,
    "Ġentire": 2558,
    "Ġlarboard": 11011,
    "Ġswashing": 23059,
    "Ġencamp": 22806,
    "Ġindoors": 18838,
    "Ġworshipper": 25693,
    "Ġintelligence": 558,
    "Ġprepar": 7897,
    "Ġrenow": 18030,
    "Ġswelled": 11089,
    "Ġdifferen": 934,
    "Ġfanatic": 23395,
    "Ġflowing": 14414,
    "Ġappro": 663,
    "quiet": 6155,
    "pid": 1384,
    "Ġhunt": 6184,
    "Ġstren": 15725,
    "su": 799,
    "Ġepid": 18007,
    "exe": 11793,
    "Ġdiggings": 24650,
    "Ġreports": 19086,
    "Ġentities": 11866,
    "Ġeach": 890,
    "Ġstamping": 20034,
    "Ġpunctures": 25136,
    "Ġinterested": 6458,
    "ifix": 21907,
    "Ġresid": 22542,
    "Ġlips": 3991,
    "ihood": 20924,
    "Ġrobustness": 18880,
    "Ġrepeat": 8000,
    "Ġdes": 1253,
    "Ġpensive": 21478,
    "Ġbelieve": 2145,
    "Ġrefresh": 10348,
    "uine": 13801,
    "Ġer": 8105,
    "carte": 25401,
    "Ġsprout": 24092,
    "Ġladder": 8602,
    "Ġavailed": 23955,
    "Ġfragmentary": 25859,
    "Ġimperial": 9484,
    "Ġdun": 6675,
    "Ġindications": 14634,
    "Ġobliterated": 17408,
    "Ġpyramids": 15118,
    "Ġbennets": 9809,
    "Ġany": 688,
    "foremost": 14255,
    "makers": 20984,
    "erect": 20850,
    "Ġamuse": 5940,
    "ciousness": 20819,
    "Ġshifting": 12773,
    "studies": 25170,
    "Ġchances": 9267,
    "Ġmeas": 1099,
    "Ġalice": 1485,
    "ouement": 21451,
    "Ġvagu": 13592,
    "Ġoptimization": 1434,
    "Ġhosmer": 6774,
    "bourn": 3300,
    "Ġbreathes": 13250,
    "glances": 23856,
    "Ġblasp": 14404,
    "Ġmales": 17807,
    "Ġchallenge": 25472,
    "child": 5538,
    "belong": 12127,
    "Ġalex": 15137,
    "arrow": 4180,
    "isis": 12584,
    "affect": 13215,
    "deacon": 22151,
    "observation": 17272,
    "Ġtendons": 19811,
    "Ġezek": 18012,
    "Ġdauntless": 26338,
    "rious": 11692,
    "m": 81,
    "Ġbosom": 6938,
    "Ġshadow": 5596,
    "Ġrick": 21974,
    "Ġnic": 7375,
    "Ġcharley": 19008,
    "Ġapo": 9633,
    "unworthy": 18164,
    "Ġenchanted": 9084,
    "virt": 15455,
    "Ġsuperstitious": 13522,
    "Ġkindly": 6077,
    "Ġle": 333,
    "Ġcrop": 10165,
    "Ġshops": 22005,
    "lee": 11588,
    "Ġrefuse": 5739,
    "Ġlivel": 11357,
    "Ġportable": 19373,
    "Ġassoc": 6402,
    "Ġcopy": 10166,
    "vable": 10135,
    "oud": 1943,
    "Ġfled": 6672,
    "Ġluxur": 12345,
    "Ġedd": 8398,
    "Ġlirra": 21563,
    "Ġconnex": 10668,
    "minded": 9041,
    "Ġprovide": 7749,
    "Ġtoma": 7372,
    "pat": 10119,
    "Ġdurst": 20355,
    "bling": 10685,
    "Ġpassions": 7930,
    "Ġdawn": 6816,
    "Ġ10": 5250,
    "Ġpetticoat": 15299,
    "Ġgrope": 17997,
    "Ġcharacters": 9376,
    "Ġstacked": 21747,
    "Ġunheard": 22029,
    "Ġocc": 886,
    "apply": 18761,
    "Ġconfine": 14511,
    "Ġoath": 7833,
    "Ġnightmare": 18921,
    "anatory": 21366,
    "colour": 9905,
    "breat": 10081,
    "Ġgleams": 17313,
    "Ġencourag": 1391,
    "Ġsouls": 6309,
    "Ġwidth": 16774,
    "stumps": 21662,
    "strikes": 24671,
    "Ġsides": 4577,
    "Ġdoubts": 8582,
    "supernatural": 19782,
    "Ġpause": 5707,
    "eled": 2358,
    "produ": 10722,
    "Ġaudio": 24771,
    "sun": 7140,
    "ace": 717,
    "_âĢĶâĢĿ": 20765,
    "considerable": 10551,
    "cord": 8727,
    "Ġreap": 18029,
    "Ġordinarily": 20651,
    "Ġeluded": 12927,
    "Ġbambooz": 26120,
    "'re": 12432,
    "investments": 25533,
    "Ġisolation": 17153,
    "Ġexponential": 1057,
    "Ġannounce": 13342,
    "Ġprovoke": 14828,
    "Ġglimpses": 13435,
    "Ġnewcomer": 26041,
    "book": 4667,
    "Ġhairs": 13234,
    "Ġunquestion": 18249,
    "iousness": 4899,
    "Ġpleases": 16302,
    "Ġspoutings": 14678,
    "Ġsolved": 8934,
    "Ġscotch": 12214,
    "jo": 3752,
    "Ġquench": 22423,
    "Ġundet": 16703,
    "Ġcrony": 23441,
    "Ġintend": 12769,
    "irements": 22216,
    "idea": 9305,
    "Ġang": 2510,
    "Ġcurb": 16237,
    "method": 17287,
    "Ġtoo": 1166,
    "Ġlanc": 19767,
    "Ġsumat": 14132,
    "mission": 5970,
    "Ġsensitive": 13202,
    "refuge": 24733,
    "Ġincompatible": 25681,
    "Ġobliquely": 12367,
    "Ġreminding": 19800,
    "Ġauthorities": 11266,
    "Ġrelease": 19293,
    "stre": 5451,
    "discover": 10542,
    "Ġhereditarily": 25225,
    "ingham": 21303,
    "Ġyore": 21782,
    "Ġphrases": 2794,
    "executed": 25740,
    "unguarded": 23668,
    "skinned": 25388,
    "Ġerskine": 17435,
    "learning": 2507,
    "Ġjeer": 24125,
    "hook": 12057,
    "Ġmalicious": 10560,
    "ductive": 23939,
    "Ġmystery": 5509,
    "Ġnone": 3221,
    "Ġinside": 5448,
    "Ġancestors": 25643,
    "displayed": 20738,
    "Ġjar": 15955,
    "Ġplanted": 9777,
    "linen": 25258,
    "Ġentries": 22742,
    "Ġresentment": 7530,
    "Ġornam": 15869,
    "Ġintellectual": 11403,
    "Ġmajority": 13296,
    "Ġfrig": 13084,
    "Ġunembarrassed": 22075,
    "Ġvolley": 24147,
    "Ġdrifting": 19281,
    "Ġbeliefs": 24583,
    "Ġtrustworthy": 24108,
    "Ġmary": 3842,
    "county": 25397,
    "oons": 12503,
    "brimming": 23579,
    "estate": 12826,
    "Ġtestament": 23206,
    "angled": 6843,
    "Ġjung": 12841,
    "ĠĠĠĠĠĠĠĠĠĠĠĠĠĠĠĠĠ": 22952,
    "stone": 5089,
    "Ġwhisper": 6206,
    "begins": 18523,
    "hies": 17562,
    "Ġmovable": 22439,
    "plings": 11701,
    "Ġquaint": 18466,
    "worship": 19390,
    "ertion": 12043,
    "Ġold": 1056,
    "Ġborn": 5224,
    "Ġcruc": 16537,
    "Ġhaggard": 17333,
    "Ġbehoo": 19035,
    "inquire": 16934,
    "Ġbrawny": 13616,
    "Ġprobabilities": 4965,
    "Ġint": 410,
    "Ġrhine": 12361,
    "Ġunav": 18241,
    "Ġaustralia": 15236,
    "bethinking": 25746,
    "Ġpositions": 2056,
    "dham": 20832,
    "Ġscruples": 15082,
    "sent": 761,
    "Ġentity": 10344,
    "mpt": 6655,
    "snow": 10726,
    "Ġprinted": 11953,
    "Ġheadland": 22900,
    "ism": 4874,
    "pin": 13769,
    "declared": 15122,
    "Ġdozing": 22247,
    "Ġupheld": 22156,
    "Ġextravag": 11254,
    "Ġveteran": 17453,
    "land": 1529,
    "iliary": 21730,
    "Ġcapacious": 19178,
    "roqu": 21537,
    "Ġlegitimate": 20644,
    "ruded": 15902,
    "Ġenvironments": 24051,
    "Ġverdict": 13478,
    "rolled": 9063,
    "Ġgrounded": 23713,
    "Ġefforts": 11807,
    "Ġpeered": 18669,
    "Ġnowadays": 18547,
    "Ġcoff": 3505,
    "irious": 15791,
    "rant": 11519,
    "Ġrifts": 21979,
    "drown": 13707,
    "Ġre": 317,
    "Ġof": 298,
    "rudent": 6482,
    "Ġutil": 4670,
    "Ġpicturesque": 14897,
    "pleasant": 5875,
    "Ġemperor": 15162,
    "Ġclinched": 17397,
    "Ġparad": 2840,
    "god": 4863,
    "miserably": 24213,
    "Ġlooked": 1803,
    "Ġrue": 11871,
    "Ġunconcern": 14120,
    "thest": 11657,
    "prehensible": 12365,
    "Ġregained": 18599,
    "towards": 5002,
    "Ġthy": 2512,
    "endured": 22231,
    "Ġagitated": 7648,
    "Ġpills": 21469,
    "Ġdrugged": 12607,
    "Ġfocuses": 8653,
    "itals": 17822,
    "Ġproducts": 5198,
    "Ġindignant": 12244,
    "Ġtrades": 8232,
    "relations": 14737,
    "insufferable": 21195,
    "Ġsc": 530,
    "perpendicular": 14165,
    "roses": 17959,
    "ĳ": 244,
    "Ġturner": 7050,
    "takes": 21079,
    "ints": 3415,
    "Ġmatrimonial": 25490,
    "Ġpout": 17908,
    "mer": 2830,
    "Ġglimmer": 15145,
    "furniture": 20245,
    "Ġdomes": 23708,
    "square": 15062,
    "residual": 19264,
    "Ġidle": 8253,
    "usations": 15952,
    "Ġancest": 12619,
    "is": 280,
    "illation": 14144,
    "Ġconvolutional": 2162,
    "Ġgurgling": 17449,
    "alk": 1155,
    "Ġchronicled": 25329,
    "Ġbeget": 9229,
    "Ġcomrade": 11684,
    "aguy": 21914,
    "Ġape": 21199,
    "Ġpredefined": 20719,
    "Ġcontest": 18474,
    "Ġluxurious": 17314,
    "Ġdungeon": 16998,
    "Ġbraced": 16582,
    "prob": 7070,
    "Ġtremble": 6905,
    "Ġfriends": 2653,
    "Ġnods": 19066,
    "Ġh": 290,
    "comed": 8546,
    "bable": 8722,
    "ements": 11109,
    "Ġstaggered": 9542,
    "Ġobscure": 9557,
    "Ġconcern": 2655,
    "Ġmisery": 3814,
    "Ġwestmorland": 24390,
    "Ġminimizing": 3462,
    "Ġconsoled": 18115,
    "istics": 1631,
    "Ġrepenting": 25323,
    "Ġescorted": 23508,
    "Ġseparation": 11248,
    "Ġproc": 5545,
    "Ġsuperl": 16447,
    "Ġsorely": 17259,
    "track": 24335,
    "Ġworthy": 7240,
    "Ġleg": 2335,
    "Ġmortified": 14697,
    "gin": 4930,
    "plish": 18209,
    "Ġwitnesses": 9489,
    "Ġinflexibly": 26372,
    "isons": 17851,
    "Ġrisen": 9496,
    "corrob": 24485,
    "Ġjungfrau": 15252,
    "Ġlaw": 3654,
    "childhood": 16870,
    "gallery": 24694,
    "Ġturban": 23615,
    "ifies": 6687,
    "relapse": 24022,
    "Ġidentity": 2522,
    "Ġlawn": 7378,
    "assure": 9273,
    "Ġbids": 24646,
    "kept": 11721,
    "provided": 13640,
    "Ġhousekeeping": 18946,
    "Ġluxuries": 25167,
    "Ġamb": 9296,
    "Ġrooted": 13172,
    "bler": 11474,
    "Ġwheeled": 14141,
    "Ġsocial": 7008,
    "inople": 13831,
    "stands": 22434,
    "whaling": 7899,
    "Ġrecoil": 18694,
    "creat": 20802,
    "Ġequinox": 25856,
    "Ġimmensely": 13598,
    "í": 174,
    "Ġpreser": 6041,
    "shunned": 22469,
    "Ġbrightly": 13228,
    "Ġneighb": 14076,
    "Ġrich": 2990,
    "soup": 21061,
    "Ġterms": 2561,
    "yield": 13811,
    "Ġcreates": 2009,
    "Ġbass": 17857,
    "weigh": 18666,
    "semic": 21825,
    "Ġinhospit": 25453,
    "Ġnecess": 3473,
    "Ġtub": 7146,
    "Ġeight": 3899,
    "condite": 23250,
    "tumbled": 21093,
    "Ġsignification": 19204,
    "ondon": 2704,
    "Ġsummary": 19406,
    "Ġasked": 2279,
    "Ġcadiz": 17328,
    "pon": 17627,
    "Ġrag": 18644,
    "Ġdaylight": 10353,
    "ak": 539,
    "Ġheaviest": 23329,
    "Ġunconditional": 15849,
    "Ġstir": 5824,
    "Ġchaldee": 26236,
    "Ġensued": 11396,
    "Ġwrinkled": 7263,
    "Ġsound": 2244,
    "Ġprudent": 9189,
    "Ġlan": 5821,
    "health": 13835,
    "white": 4600,
    "Ġsymptom": 13486,
    "americans": 25045,
    "Ġneighbouring": 12123,
    "tend": 17676,
    "v": 90,
    "bones": 8372,
    "winds": 10524,
    "Ġ57": 24321,
    "armed": 7250,
    "baked": 20781,
    "Ġattendant": 11287,
    "Ġpave": 8804,
    "disciple": 16780,
    "indian": 11782,
    "Ġlifeless": 8951,
    "pagan": 17288,
    "poured": 17639,
    "aked": 2015,
    "rob": 5534,
    "Ġinserting": 19908,
    "Ġvirtuous": 14758,
    "cture": 15670,
    "Ġembarkation": 25125,
    "Ġbatch": 888,
    "Ġthoughtless": 16197,
    "Ġbudge": 15168,
    "Ġquestioned": 14622,
    "isco": 12586,
    "Ġflower": 16235,
    "transom": 19738,
    "Ġpittance": 15622,
    "Ġcombined": 8550,
    "Ġintertw": 18587,
    "opened": 7913,
    "Ġorgans": 15870,
    "Ġinspector": 6498,
    "atherley": 7219,
    "Ġimaginative": 19249,
    "Ġsimpler": 2047,
    "Ġmillion": 14990,
    "serv": 7450,
    "Ġmouthfuls": 20648,
    "Ġannot": 15607,
    "Ġpatter": 829,
    "Ġconceal": 5974,
    "apparently": 15208,
    "Ġintermix": 25827,
    "Ġnoteworthy": 24164,
    "ments": 1400,
    "Ġrange": 9715,
    "rist": 10125,
    "Ġarm": 2490,
    "ph": 932,
    "Ġlamp": 4114,
    "Ġrepining": 23363,
    "stretched": 10210,
    "jug": 17582,
    "Ġspeculations": 23001,
    "Ġpushing": 10821,
    "kye": 20940,
    "Ġishmael": 7394,
    "Ġcarbuncle": 14448,
    "veral": 2353,
    "Ġislets": 21805,
    "minutes": 7512,
    "Ġvestige": 20066,
    "asets": 2311,
    "Ġmasoned": 20254,
    "Ġuncompromised": 20606,
    "Ġwatchful": 16529,
    "Ġelevation": 14902,
    "ric": 1375,
    "Ġexceptionable": 25504,
    "Ġdeportment": 22600,
    "Ġrumpled": 24601,
    "Ġbalmy": 22907,
    "Ġsinusoid": 4780,
    "Ġgorge": 13569,
    "Ġparcel": 15203,
    "sound": 6799,
    "Ġindisc": 16232,
    "harpooneer": 8692,
    "Ġtimid": 6346,
    "Ġless": 1938,
    "Ġonly": 790,
    "Ġbod": 4579,
    "Ġlaughter": 9031,
    "kicked": 20945,
    "Ġassertions": 19950,
    "robustness": 26340,
    "wers": 12524,
    "Ġmons": 10159,
    "Ġseason": 5238,
    "Ġprophets": 20453,
    "Ġimbalanced": 18334,
    "Ġaccess": 9750,
    "adier": 18092,
    "Ġrecollections": 10515,
    "oo": 7553,
    "Ġhoofs": 14529,
    "Ġcourses": 10413,
    "ils": 3180,
    "things": 6033,
    "Ġconfines": 23309,
    "Ġsem": 1878,
    "Ġderivatives": 2371,
    "azore": 23464,
    "Ġhabits": 6925,
    "Ġalien": 14020,
    "Ġgrasping": 12170,
    "Ġbranded": 14382,
    "Ġdamps": 23476,
    "iece": 3227,
    "resp": 13841,
    "Ġdejection": 15200,
    "Ġrece": 11641,
    "Ġdispositions": 13236,
    "Ġposs": 1616,
    "Ġprofundities": 20456,
    "Ġfloats": 9417,
    "ried": 925,
    "Ġcon": 348,
    "therefore": 5954,
    "Ġpartake": 18671,
    "Ġcumberland": 21358,
    "Ġfeatures": 1430,
    "ulged": 12735,
    "Ġidolator": 20001,
    "Ġtap": 12531,
    "Ġgi": 15671,
    "Ġloth": 17968,
    "ortion": 11761,
    "comfortableness": 24525,
    "Ġarrival": 4730,
    "Ġquartered": 20376,
    "baggage": 24927,
    "Ġassuming": 16694,
    "Ġclout": 22347,
    "Ġverte": 9445,
    "Ġeconomical": 25288,
    "ĠcÃ¦sar": 20583,
    "opy": 4457,
    "Ġemergencies": 17365,
    "Ġsympathising": 24299,
    "gs": 7337,
    "ryphon": 4163,
    "Ġsuperst": 7703,
    "Ġacted": 7421,
    "brace": 16944,
    "achel": 7033,
    "veil": 18048,
    "felt": 5889,
    "Ġsignificant": 8637,
    "Ġdesire": 3719,
    "Ġensemble": 1607,
    "Ġdepended": 9780,
    "Ġrally": 21972,
    "Ġgourmand": 26468,
    "Ġrises": 9716,
    "Ġformidable": 8220,
    "reported": 24493,
    "Ġshiver": 12772,
    "bone": 5612,
    "Ġlanguages": 1570,
    "Ġhateful": 19716,
    "numerous": 17434,
    "Ġmorcar": 13019,
    "Ġcomment": 9236,
    "Ġmoney": 3416,
    "Ġdivine": 6920,
    "fatig": 17090,
    "Ġenorm": 5304,
    "oriented": 2946,
    "amplified": 26496,
    "Ġbarque": 23793,
    "Ġunfulfilled": 26511,
    "Ġerad": 25031,
    "chest": 11210,
    "ention": 866,
    "compar": 14357,
    "hatch": 15368,
    "Ġsan": 7824,
    "Ġoriginal": 6103,
    "lower": 8883,
    "Ġjulia": 22306,
    "ces": 577,
    "Ġbruited": 25774,
    "Ġacquaintance": 4133,
    "Ġhorses": 6385,
    "ep": 441,
    "folly": 20864,
    "Ġincomp": 12902,
    "Ġmayhap": 18710,
    "wheels": 14384,
    "Ġfollowing": 4062,
    "Ġbathe": 25444,
    "Ġ29": 23731,
    "uously": 7352,
    "subtle": 24246,
    "nervous": 16281,
    "Ġaccelerating": 1618,
    "Ġglanced": 5952,
    "Ġmend": 8407,
    "tail": 8765,
    "ctuous": 9209,
    "Ġworkmen": 23036,
    "virtue": 20572,
    "Ġentering": 6286,
    "Ġrepugnance": 19088,
    "tottenham": 25419,
    "Ġtables": 9881,
    "Ġmermaids": 26171,
    "ateful": 5927,
    "Ġtragedy": 10670,
    "Ġcomputational": 1627,
    "Ġtalent": 12301,
    "Ġfrost": 6096,
    "wards": 1278,
    "Ġatonement": 21946,
    "yingly": 23063,
    "acher": 6867,
    "Ġsprain": 18306,
    "Ġalliance": 18236,
    "en": 271,
    "Ġforts": 21776,
    "Ġsacr": 7193,
    "69": 17477,
    "ks": 3143,
    "Ġretreating": 19802,
    "taining": 7205,
    "Ġus": 493,
    "Ġinfluences": 14868,
    "Ġquaff": 22418,
    "lik": 3914,
    "Ġsubstit": 19543,
    "data": 2192,
    "Ġrepresentation": 14409,
    "Ġcouple": 5423,
    "conqu": 14247,
    "Ġsuspense": 9422,
    "Ġvilla": 14750,
    "conceal": 25117,
    "emed": 3379,
    "age": 506,
    "Ġlamented": 24994,
    "bing": 7791,
    "Ġwholesome": 16011,
    "Ġattentive": 9037,
    "Ġpitches": 23905,
    "ounix": 14166,
    "Ġwant": 1118,
    "Ġlimbs": 5966,
    "ĠâĢĶ_": 3456,
    "lestrade": 9659,
    "Ġpale": 4530,
    "Ġstrangled": 24135,
    "Ġ90": 24589,
    "Ġlazarus": 15031,
    "Ġcelerity": 17439,
    "con": 653,
    "Ġdecay": 1011,
    "idious": 11665,
    "beer": 22492,
    "Ġrags": 18648,
    "Ġardu": 22187,
    "shell": 16290,
    "zza": 24169,
    "Ġsporty": 19892,
    "Ġhats": 14621,
    "ernsey": 8905,
    "Ġlamb": 8817,
    "omics": 21646,
    "Ġfriendless": 23028,
    "Ġleadenhall": 16631,
    "Ġaddress": 2273,
    "Ġprovision": 14827,
    "amiable": 14055,
    "Ġeducated": 16787,
    "strongly": 24685,
    "Ġleaks": 16449,
    "Ġsalmon": 24066,
    "Ġpist": 12620,
    "Ġtattooed": 11380,
    "wa": 5897,
    "Ġstately": 9837,
    "fights": 20867,
    "Ġcarpenter": 4683,
    "Ġprocedural": 12035,
    "orously": 8420,
    "tling": 9146,
    "Ġunbecoming": 22068,
    "Ġcongratulatory": 19770,
    "Ġreadiness": 13054,
    "ify": 1478,
    "50": 6784,
    "Ġspurred": 22142,
    "Ġshaken": 10267,
    "taste": 10132,
    "Ġunseen": 3522,
    "Ġcontinent": 14891,
    "Ġtax": 13818,
    "Ġwithheld": 18117,
    "consumed": 25676,
    "fing": 13715,
    "widely": 25344,
    "Ġdescribe": 2763,
    "Ġflora": 11418,
    "objects": 13473,
    "Ġprecision": 13192,
    "maker": 12497,
    "pal": 9619,
    "Ġpeaceful": 9461,
    "Ġexhilarating": 26339,
    "Ġlam": 21552,
    "intern": 23737,
    "Ġclank": 15969,
    "Ġ180": 16608,
    "fedallah": 25523,
    "Ġapproximate": 2342,
    "necessarily": 19634,
    "Ġdeception": 18142,
    "Ġconflagration": 26366,
    "Ġdivined": 19447,
    "Ġgasps": 24866,
    "Ġtimidity": 24688,
    "vered": 4831,
    "Ġgull": 15675,
    "sens": 8096,
    "Ġgazette": 19504,
    "Ġfeasts": 25370,
    "poverty": 22913,
    "Ġsummoning": 23877,
    "Ġengravings": 15069,
    ".âĢĶ": 4247,
    "Ġevermore": 18813,
    "heard": 5008,
    "Ġhastily": 5763,
    "gered": 9280,
    "Ġinquired": 7485,
    "Ġspout": 3282,
    "Ġupper": 5090,
    "Ġdie": 3962,
    "Ġcrossed": 6069,
    "incident": 14593,
    "Ġshilling": 18229,
    "iters": 21332,
    "ructure": 756,
    "azine": 19132,
    "Ġmassacre": 20550,
    "Ġwhilst": 9222,
    "Ġscattered": 6855,
    "strang": 11185,
    "Ġhearty": 9849,
    "Ġmoving": 1681,
    "Ġingenuity": 17166,
    "Ġgouge": 26190,
    "Ġbecame": 2690,
    "chemical": 23811,
    "transition": 24513,
    "Ġpapers": 4021,
    "antarctic": 22103,
    "retired": 11940,
    "Ġcongregational": 25105,
    "Ġvariety": 8532,
    "Ġmadness": 6602,
    "Ġbackward": 7654,
    "Ġconcuss": 19047,
    "outon": 12808,
    "Ġmoss": 9288,
    "Ġodds": 13333,
    "ram": 13974,
    "whalemen": 10433,
    "solemn": 19820,
    "Ġ1778": 25730,
    "Ġexpans": 18621,
    "osition": 1373,
    "Ġreceive": 4703,
    "Ġsuggestive": 11299,
    "hyme": 19612,
    "powerful": 24848,
    "scene": 14423,
    "Ġencourages": 2060,
    "Ġstreamed": 14548,
    "Ġphilosoph": 19654,
    "Ġlav": 13952,
    "Ġimpenit": 22393,
    "Ġtunnels": 24621,
    "sorrow": 12513,
    "discernible": 20553,
    "precipitance": 25868,
    "Ġrefrained": 14347,
    "Ġstupidity": 15052,
    "anations": 12581,
    "inexplicable": 25810,
    "Ġvouch": 15814,
    "Ġproceeds": 12082,
    "Ġevangelist": 20341,
    "oubtedly": 6942,
    "Ġviews": 7289,
    "Ġfavourites": 16647,
    "lection": 3652,
    "Ġeast": 5370,
    "dis": 2253,
    "him": 1940,
    "Ġlxi": 21564,
    "Ġpremeditated": 22238,
    "inside": 23069,
    "Ġpatterns": 1215,
    "Ġbracelets": 25503,
    "render": 10293,
    "ushed": 2969,
    "Ġherself": 1569,
    "Ġpropontis": 17468,
    "Ġpoured": 8805,
    "Ġeastern": 11632,
    "inous": 8776,
    "ď": 208,
    "ification": 995,
    "illa": 12798,
    "tray": 21080,
    "Ġshaggy": 13573,
    "ind": 567,
    "arr": 3043,
    "Ġelusive": 22650,
    "sis": 1941,
    "longing": 23727,
    "Ġfris": 23258,
    "Ġafford": 4363,
    "Ġdoc": 7199,
    "iter": 4389,
    "Ġgases": 21605,
    "Ġinvestig": 10552,
    "apidated": 22341,
    "Ġrelapses": 26280,
    "Ġthrew": 3974,
    "Ġtattoo": 7358,
    "cable": 20799,
    "Ġmount": 7361,
    "Ġrecess": 10849,
    "Ġ235": 25712,
    "Ġcollar": 11883,
    "Ġpersuaded": 5769,
    "Ġsloop": 25931,
    "Ġproprietor": 12377,
    "deser": 10481,
    "Ġvicissitudes": 12423,
    "Ġscor": 8190,
    "Ġtraits": 23079,
    "Ġhairy": 23868,
    "activation": 3229,
    "Ġdistinct": 4607,
    "joke": 20932,
    "vitiated": 25755,
    "Ġmarked": 4617,
    "omnipotent": 25965,
    "]]": 5205,
    "Ġlomb": 21562,
    "cracy": 24691,
    "Ġpaces": 13921,
    "nel": 11507,
    "Ġpillow": 10041,
    "Ġendeavour": 4675,
    "Ġprocedure": 2807,
    "Ġsuspecting": 14913,
    "Ġunprinciple": 18255,
    "Ġgallant": 8658,
    "conjectures": 25181,
    "compliment": 11366,
    "Ġducks": 25161,
    "contrary": 23730,
    "dogs": 25403,
    "Ġassistance": 6334,
    "Ġofficer": 6754,
    "run": 10723,
    "cerem": 15683,
    "Ġgas": 8133,
    "Ġpretend": 7721,
    "Ġreconc": 9686,
    "diver": 20833,
    "Ġstraighten": 24010,
    "tut": 15438,
    "Ġrapture": 13498,
    "era": 13849,
    "isf": 2434,
    "Ġtheirs": 7025,
    "Ġphilosopher": 12188,
    "Ġshot": 4542,
    "Ġirregular": 9868,
    "disgraceful": 26077,
    "Ġsnoring": 23741,
    "Ġreverse": 16984,
    "Ġcus": 21346,
    "Ġhollows": 19744,
    "Ġcocoanuts": 26364,
    "Ġphiladelphia": 26606,
    "Ġyour": 634,
    "Ġsteps": 2861,
    "Ġdeference": 10883,
    "iosity": 2267,
    "wins": 21132,
    "Ġpreced": 6040,
    "Ġinterpreted": 1715,
    "plete": 10921,
    "Ġallowing": 2173,
    "Ġreturning": 5326,
    "intellig": 5321,
    "Ġpalmy": 19502,
    "bular": 15317,
    "Ġnevertheless": 5039,
    "Ġpatron": 7461,
    "Ġnail": 9199,
    "Ġcap": 2362,
    "Ġpenetrate": 12274,
    "Ġarts": 11010,
    "cence": 9591,
    "aging": 2240,
    "Ġale": 9158,
    "Ġxxxix": 24971,
    "Ġcod": 8413,
    "gl": 3289,
    "Ġgetting": 4065,
    "stamp": 21657,
    "Ġparlour": 12325,
    "repent": 15517,
    "Ġpens": 21463,
    "mons": 17602,
    "Ġhalyards": 21497,
    "bitious": 16672,
    "Ġbloom": 9891,
    "acked": 10975,
    "15": 12434,
    "Ġnewcomers": 26042,
    "Ġsubjects": 7073,
    "quished": 21852,
    "lacings": 26135,
    "betrayed": 24641,
    "abb": 15744,
    "lins": 2026,
    "Ġrecklessly": 16985,
    "Ġrud": 8479,
    "Ġsupper": 4663,
    "occurred": 13341,
    "Ġpines": 12622,
    "âĢĻâĢĶ": 12741,
    "admon": 21764,
    "yp": 1045,
    "ryder": 18642,
    "Ġgratify": 19506,
    "anywhere": 14684,
    "Ġrejoiced": 8687,
    "Ġdizzy": 21435,
    "visit": 7754,
    "Ġtid": 8107,
    "Ġreminds": 13434,
    "helpless": 16792,
    "resembled": 21249,
    "Ġwhelmed": 26000,
    "Ġcalmer": 23047,
    "Ġremark": 2144,
    "Ġballasted": 23983,
    "Ġclings": 15968,
    "Ġwhirl": 13452,
    "Ġhistorically": 19381,
    "attend": 11103,
    "Ġphilips": 5410,
    "Ġmonkey": 8227,
    "Ġboys": 5194,
    "Ġga": 4445,
    "announce": 24561,
    "again": 3397,
    "Ġpreface": 18368,
    "Ġsurpass": 13586,
    "Ġrav": 14308,
    "fo": 5279,
    "Ġsoftness": 18919,
    "medium": 23640,
    "Ġfootman": 8288,
    "orne": 17874,
    "Ġnets": 21527,
    "problem": 25245,
    "ims": 7176,
    "Ġsmelt": 16070,
    "ports": 13776,
    "Ġsweatings": 25709,
    "Ġannihilated": 20255,
    "frequent": 15357,
    "taking": 5689,
    "Ġperpendicular": 7208,
    "Ġvess": 3294,
    "vest": 6231,
    "Ġpiping": 23244,
    "Ġclut": 7642,
    "Ġyawn": 7610,
    "Ġche": 1763,
    "Ġunaffected": 14125,
    "Ġirrevocably": 15301,
    "aces": 2068,
    "Ġcheck": 7270,
    "Ġneglecting": 25010,
    "Ġabject": 18392,
    "Ġbroadway": 23987,
    "Ġcharmingly": 24224,
    "owl": 12688,
    "Ġhut": 15624,
    "beholding": 16045,
    "Ġwhy": 1760,
    "Ġmaintains": 2143,
    "Ġcoincidence": 25484,
    "Ġagrees": 22520,
    "Ġchairs": 12831,
    "Ġtempt": 5565,
    "Ġsummits": 14685,
    "Ġparting": 9786,
    "cking": 4264,
    "clut": 23154,
    "ĠĠ": 353,
    "Ġpitied": 14694,
    "pleasing": 14745,
    "Ġcarelessly": 11122,
    "âĢĿ--": 21820,
    "Ġtransformations": 3481,
    "Ġdebated": 9044,
    "Ġhorizontal": 7782,
    "rub": 15898,
    "Ġexecut": 4246,
    "Ġcurios": 18848,
    "Ġcham": 4892,
    "Ġconfessed": 8009,
    "Ġbowlines": 19324,
    "bered": 4503,
    "clo": 5613,
    "iftings": 23229,
    "Ġstate": 1811,
    "Ġbit": 2962,
    "spermaceti": 12198,
    "Ę": 217,
    "uneasy": 23685,
    "Ġinvitation": 5188,
    "hollow": 24043,
    "strength": 13982,
    "Ġattempted": 8001,
    "Ġquarrel": 7291,
    "rendered": 22343,
    "achment": 5464,
    "ither": 1547,
    "Ġspoilt": 24804,
    "Ġtearing": 14394,
    "Ġdisgraceful": 15022,
    "Ġagreeably": 24955,
    "Ġperilous": 7768,
    "beginning": 13564,
    "âĢĶâĢĿ": 3298,
    "Ġtwisted": 7227,
    "nursery": 26401,
    "alluring": 18353,
    "Ġmol": 12566,
    "Ġjacobian": 2891,
    "Ġreflected": 2907,
    "Ġunsupervised": 2471,
    "Ġconsent": 5372,
    "ads": 5718,
    "haul": 14768,
    "ra": 314,
    "Ġdiscussing": 5202,
    "backs": 9395,
    "Ġpew": 9319,
    "gives": 15361,
    "Ġinvolving": 18763,
    "Ġtrusting": 24107,
    "amous": 15766,
    "urned": 9310,
    "Ġtar": 2562,
    "Ġdel": 1615,
    "Ġdaint": 15598,
    "Ġdist": 678,
    "Ġmagnitude": 1945,
    "Ġquill": 12862,
    "icha": 11742,
    "Ġexult": 10233,
    "wandering": 20287,
    "Ġdipped": 15600,
    "Ġhisself": 21918,
    "Ġamount": 8513,
    "Ġpul": 2040,
    "Ġlig": 21551,
    "Ġface": 1724,
    "ilar": 10218,
    ",âĢĻ": 2328,
    "Ġaccident": 5380,
    "in": 262,
    "appears": 12064,
    "Ġstanding": 2996,
    "Ġchoose": 5982,
    "Ġwalled": 15539,
    "relig": 15516,
    "ug": 1767,
    "Ġside": 1385,
    "Ġsheets": 9725,
    "Ġindication": 22955,
    "Ġlift": 8815,
    "ordingly": 18516,
    "Ġfill": 5701,
    "Ġportentous": 15233,
    "iates": 13739,
    "Ġmotioned": 19595,
    "Ġappearing": 9844,
    "venant": 22628,
    "Ġgeneralize": 3097,
    "Ġtapping": 10754,
    "Ġpersuasion": 10501,
    "Ġphilosophical": 26336,
    "begging": 22501,
    "pointed": 9813,
    "talk": 6658,
    "tackle": 17324,
    "seated": 11675,
    "Ġformed": 3882,
    "Ġdefer": 18825,
    "Ġattempt": 3483,
    "§": 105,
    "Ġrepublic": 14533,
    "Ġdoorway": 14499,
    "hundred": 8331,
    "grace": 5847,
    "Ġenveloping": 19737,
    "Ġmajesty": 5201,
    "Ġsunk": 5752,
    "Ġviolates": 3163,
    "Ġsport": 6689,
    "Ġspitzbergen": 15291,
    "adagrad": 9694,
    "created": 12455,
    "Ġpretended": 19316,
    "fair": 10095,
    "mccarthy": 15398,
    "acy": 3955,
    "Ġcoffins": 13254,
    "verty": 8454,
    "oldened": 22642,
    "Ġsocks": 14136,
    "Ġcalcul": 3636,
    "Ġquickly": 4240,
    "vig": 15450,
    "Ġmarine": 23038,
    "Ġcords": 14882,
    "Ġindef": 9193,
    "Ġrecurring": 23234,
    "Ġyear": 3285,
    "nobody": 16144,
    "Ġcanallers": 13630,
    "Ġtok": 1248,
    "Ġbitt": 10798,
    "lances": 15387,
    "shoulder": 16586,
    "Ġsplin": 8622,
    "Ġunable": 4950,
    "Ġlinn": 13955,
    "Ġtal": 7564,
    "Ġwhalebone": 10979,
    "hope": 5990,
    "loat": 8890,
    "Ġappetite": 12388,
    "Ġcompacted": 23510,
    "umb": 3401,
    "Ġcrying": 10788,
    "Ġprayed": 16670,
    "repaid": 24491,
    "iary": 15374,
    "ribbed": 16417,
    "Ġaforethought": 25429,
    "Ġbrougham": 17872,
    "Ġsinister": 8571,
    "âĢĿ]": 21819,
    "Ġgoodge": 22826,
    "Ġrinal": 21981,
    "acles": 8521,
    "ient": 392,
    "Ġpush": 9188,
    "Ġnearer": 5303,
    "Ġjudges": 14687,
    "mitted": 5213,
    "Ġnature": 2538,
    "Ġambergris": 8709,
    "spoke": 11025,
    "antically": 22100,
    "Ġpredecessor": 26255,
    "Ġapprehens": 5682,
    "macy": 18808,
    "Ġsnodhead": 19304,
    "Ġcosmopol": 16456,
    "trifling": 19417,
    "Ġcursed": 6727,
    "Ġsleet": 8978,
    "Ġwarmer": 19187,
    "Ġmeasures": 1207,
    "Ġyears": 1892,
    "Ġtimbers": 14842,
    "Ġsnarled": 25715,
    "Ġj": 533,
    "Ġdost": 7637,
    "Ġdismasted": 15255,
    "Ġplaymate": 23639,
    "passage": 11263,
    "Ġmerc": 9430,
    "Ġchas": 18380,
    "Ġvul": 10250,
    "Ġchaps": 14182,
    "onds": 13000,
    "Ġlatitudes": 9499,
    "Ġpiling": 17913,
    "fooled": 24419,
    "aphys": 15205,
    "Ġmoderate": 10940,
    "ruction": 4355,
    "weekly": 25685,
    "zwilliam": 5074,
    "boxes": 16890,
    "sequence": 2853,
    "Ġfearlessness": 19163,
    "Ġg": 310,
    "sentence": 2937,
    "Ġsaturation": 2061,
    "preser": 9763,
    "cheer": 9441,
    "ants": 1389,
    "harm": 13737,
    "lingly": 9776,
    "itical": 5802,
    "Ġrelics": 16200,
    "Ġlast": 1123,
    "Ġn": 300,
    "Ġflail": 23012,
    "enorm": 17783,
    "Ġart": 747,
    "Ġpatroness": 13512,
    "Ġdying": 2136,
    "Ġringed": 16752,
    "Ġflank": 8229,
    "Ġinsignific": 13183,
    "Ġshoving": 23491,
    "wander": 17711,
    "Ġsomething": 1794,
    "tr": 3577,
    "nuts": 15402,
    "Ġcondensed": 24056,
    "special": 14708,
    "Ġgreenland": 5761,
    "Ġplausible": 26555,
    "Ġsleeves": 10663,
    "Ġperfections": 23610,
    "Ġfamily": 1966,
    "Ġalterations": 19873,
    "Ġvine": 8473,
    "likes": 18816,
    "rec": 6004,
    "Ġexcited": 5580,
    "Ġdy": 2732,
    "Ġimportant": 1102,
    "sleet": 20152,
    "craft": 12251,
    "Ġunimpeachable": 26524,
    "Ġconsiderations": 9414,
    "Ġblame": 6446,
    "infidel": 24664,
    "yset": 21148,
    "my": 1316,
    "successful": 11360,
    "Ġempty": 5354,
    "zag": 17715,
    "Ġleaving": 3902,
    "ouble": 2660,
    "arming": 8954,
    "Ġadjust": 2155,
    "uments": 5552,
    "yard": 5900,
    "governed": 25406,
    "playful": 24357,
    "Ġchinese": 14186,
    "iracle": 11245,
    "Ġliberated": 19669,
    "Ġmott": 17805,
    "Ġhinting": 19652,
    "brated": 12031,
    "Ġcompetent": 11820,
    "Ġperfectly": 3703,
    "Ġhove": 17925,
    "Ġbusied": 19068,
    "Ġmemories": 14543,
    "Ġclenched": 14206,
    "gies": 13728,
    "ogany": 18676,
    "Ġvocation": 10528,
    "Ġthereupon": 18435,
    "Ġframed": 19055,
    "Ġrotterdam": 25476,
    "Ġdeliberation": 19972,
    "Ġgorgeous": 20470,
    "Ġimmut": 13301,
    "Ġviii": 16418,
    "----âĢĻ": 24101,
    "Ġaudibly": 24770,
    "Ġintegr": 7969,
    "fit": 6647,
    "Ġdus": 8424,
    "fetch": 12469,
    "Ġhy": 5625,
    "icate": 9205,
    "Ġuninjured": 22060,
    "Ġnlp": 3059,
    "Ġloop": 14149,
    "functions": 11257,
    "Ġtowing": 9197,
    "Ġadvantageously": 19548,
    "Ġ2": 2927,
    "Ġspokes": 18314,
    "akness": 14197,
    "Ġclasped": 17209,
    "Ġimplac": 24875,
    "Ġwaistcoat": 12275,
    "Ġseized": 4834,
    "windows": 19537,
    "Ġreven": 18031,
    "Ġnecks": 18182,
    "Ġdoctrine": 24200,
    "girdling": 26391,
    "Ġenlar": 15805,
    "Ġgiver": 21608,
    "Ġinst": 912,
    "adem": 21761,
    "Ġwrung": 14473,
    "Ġconcernment": 23646,
    "empl": 5724,
    "Ġoblige": 10491,
    "couldn": 23719,
    "Ġfed": 5530,
    "Ġaberde": 22281,
    "_,": 2796,
    "Ġdancing": 5703,
    "ma": 1153,
    "retreat": 23142,
    "Ġmatted": 22916,
    "--------": 14785,
    "oters": 21803,
    "customary": 25896,
    "Ġdetection": 3668,
    "uberance": 25917,
    "Ġswamp": 14439,
    "mystical": 25318,
    "darkness": 9515,
    "would": 2351,
    "Ġbrig": 11049,
    "Ġbusy": 6190,
    "grinder": 23418,
    "iply": 22368,
    "qu": 368,
    "Ġfamilies": 8027,
    "plutarch": 21967,
    "Ġinqu": 2963,
    "Ġstre": 2109,
    "pacific": 17643,
    "Ġslew": 23386,
    "Ġretired": 6071,
    "pointing": 12229,
    "Ġroughs": 19960,
    "Ġbackwoods": 22653,
    "sembled": 7262,
    "Ġoctavo": 15167,
    "Ġconcisely": 19045,
    "Ġaccompanying": 11306,
    "icking": 8914,
    "Ġsheet": 6263,
    "Ġunsafe": 22045,
    "Ġstrang": 4161,
    "Ġmainten": 16119,
    "Ġachieved": 13169,
    "Ġannounced": 9038,
    "Ġnorth": 4317,
    "Ġsyllable": 9732,
    "maged": 15397,
    "Ġsetbacks": 11065,
    "lied": 6507,
    "Ġpicked": 6342,
    "Ġarduous": 26531,
    "Ġcolleague": 17162,
    "flame": 16640,
    "Ġtit": 8400,
    "Ġgulp": 20032,
    "Ġmaledictions": 26430,
    "Ġhire": 21488,
    "seaman": 25458,
    "Ġhelp": 1643,
    "claim": 9838,
    "Ġmostly": 7664,
    "Ġcheerfully": 12139,
    "induce": 22378,
    "Ġsome": 655,
    "probable": 17023,
    "Ġthirt": 13941,
    "appalled": 18762,
    "fishermen": 17063,
    "Ġrecollection": 6622,
    "Ġtweezers": 26558,
    "Ġ66": 24369,
    "vul": 15452,
    "Ġbroiled": 18910,
    "Ġheadache": 22902,
    "Ġlifelessly": 23053,
    "Ġenem": 4707,
    "hunted": 16834,
    "gentleness": 24845,
    "preced": 10312,
    "Ġcreaking": 14331,
    "_.âĢĻâĢĿ": 17482,
    "Ġconsequences": 11337,
    "Ġspecific": 2002,
    "Ġtilted": 20416,
    "cially": 3486,
    "anthrop": 17385,
    "Ġbills": 17862,
    "igation": 5918,
    "nameless": 19905,
    "Ġbeast": 7179,
    "allowing": 24358,
    "Ġnineveh": 13392,
    "Ġladies": 3191,
    "splash": 25210,
    "erably": 7573,
    "attended": 8955,
    "gd": 3122,
    "Ġbodies": 8032,
    "Ġtolerably": 8068,
    "mounting": 25208,
    "Ġowners": 7663,
    "unched": 10238,
    "Ġproved": 4884,
    "Ġoverdone": 22364,
    "freely": 16856,
    "resses": 16156,
    "Ġoverhear": 15981,
    "Ġbadly": 12136,
    "Ġwashing": 9708,
    "Ġwearily": 18180,
    "Ġsleeping": 6320,
    "Ġshiny": 14109,
    "ashtego": 4102,
    "Ġsunset": 8965,
    "Ġsports": 18311,
    "Ġsquat": 14371,
    "apside": 22963,
    "Ġtypewritten": 16426,
    "Ġcirculating": 23376,
    "Ġstatue": 23152,
    "wich": 11546,
    "Ġengine": 1920,
    "feren": 768,
    "dislike": 23496,
    "ong": 537,
    "bons": 17489,
    "newsp": 23138,
    "Ġpur": 2219,
    "Ġdiverse": 19211,
    "Ġhap": 18196,
    "Ġconfessor": 24025,
    "Ġchimer": 24603,
    "gloom": 17142,
    "Ġtroop": 24898,
    "Ġassure": 4418,
    "Ġcircumspect": 15088,
    "Ġlabours": 8585,
    "barrel": 17062,
    "Ġshoal": 12020,
    "go": 2062,
    "Ġvictim": 6098,
    "Ġdeductions": 19736,
    "erity": 21270,
    "pilot": 25909,
    "liber": 18815,
    "twenty": 6608,
    "Ġvengeance": 5885,
    "Ġconversation": 3329,
    "Ġapproved": 16041,
    "buck": 17493,
    "Ġpossessed": 5195,
    "goodness": 19291,
    "crowd": 25255,
    "Ġdefence": 11069,
    "Ġfrequent": 3286,
    "Ġcontemplated": 13467,
    "revival": 26163,
    "Ġclasp": 9747,
    "Ġpaved": 17915,
    "Ġrejected": 12298,
    "Ġdemanded": 8327,
    "Ġways": 5396,
    "Ġdark": 2113,
    "Ġark": 10278,
    "Ġflies": 13029,
    "Ġexceed": 1344,
    "Ġutensils": 23516,
    "Ġdeepest": 8213,
    "Ġdard": 21425,
    "ineer": 11705,
    "cape": 13700,
    "Ġwhat": 600,
    "uther": 8821,
    "ā": 194,
    "Ġlearnt": 7614,
    "Ġecho": 12671,
    "cheap": 23807,
    "Ġlin": 10835,
    "ington": 21304,
    "Ġlicense": 20094,
    "Ġcanoes": 12810,
    "eur": 7545,
    "Ġdialogue": 12408,
    "Ġkey": 2102,
    "Ġwrists": 11114,
    "carriage": 9949,
    "aments": 12730,
    "Ġdegenerated": 20509,
    "ann": 5803,
    "Ġevian": 24294,
    "curious": 10485,
    "Ġsay": 931,
    "athies": 22703,
    "Ġoversampling": 20519,
    "Ġmeanness": 22602,
    "Ġcoherent": 3263,
    "expected": 5780,
    "Ġtravell": 5576,
    "Ġfurniture": 6476,
    "Ġcrashes": 13128,
    "Ġbuild": 6474,
    "Ġfisher": 3220,
    "Ġcommencement": 12243,
    "Ġpudding": 17918,
    "þ": 191,
    "Ġdiscriminative": 4325,
    "Ġrates": 1403,
    "unhesitatingly": 26498,
    "Ġfigured": 16646,
    "thoughts": 9938,
    "Ġlancaster": 26342,
    "affectionate": 24922,
    "Ġlearnedly": 23389,
    "tee": 16177,
    "gunwale": 20665,
    "receiving": 12548,
    "code": 15332,
    "Ġcompassionate": 24722,
    "fortun": 3537,
    "Ġunsupplied": 22047,
    "Ġaft": 5737,
    "Ġthomson": 26456,
    "Ġdisgusting": 19896,
    "Ġunho": 18246,
    "Ġstaircase": 20099,
    "ignominious": 26589,
    "Ġcapable": 5053,
    "fal": 17538,
    "Ġdislike": 6048,
    "fters": 20863,
    "Ġreservoir": 20653,
    "em": 391,
    "Ġemir": 23353,
    "Ġzigzag": 26274,
    "eel": 11486,
    "musket": 25342,
    "borough": 20787,
    "Ġviciously": 24404,
    "Ġbarrowful": 25596,
    "equally": 19901,
    "Ġacknowled": 6351,
    "Ġpant": 10819,
    "phia": 22779,
    "Ġpatches": 4236,
    "Ġfloor": 4376,
    "coronet": 16865,
    "astern": 8584,
    "separately": 25228,
    "Ġunostentatious": 22073,
    "Ġdreaming": 11225,
    "tack": 12517,
    "Ġmagistrate": 8234,
    "Ġrope": 4336,
    "Ġglass": 4367,
    "atra": 17773,
    "Ġporter": 15616,
    "impetuous": 23764,
    "Ġphaeton": 17467,
    "Ġdate": 7841,
    "Ġdairy": 20689,
    "Ġencl": 16172,
    "cabinet": 25080,
    "Ġdistributed": 18662,
    "dipped": 20839,
    "pl": 402,
    "Ġprevention": 16096,
    "Ġclassifies": 11838,
    "interest": 5421,
    "senses": 25025,
    "confid": 14870,
    "Ġsteamer": 17191,
    "Ġtens": 17725,
    "ield": 2408,
    "eryton": 4093,
    "Ġtruck": 19514,
    "erranean": 9338,
    "mpus": 13759,
    "adru": 15736,
    "Ġalley": 15741,
    "Ġnations": 8814,
    "Ġsouthwards": 19636,
    "Ġxv": 23410,
    "Ġbeadle": 26486,
    "Ġmu": 17797,
    "Ġdesol": 6880,
    "Ġponder": 6818,
    "piling": 15419,
    "Ġparadigms": 3054,
    "Ġcloudless": 16671,
    "Ġposit": 1305,
    "mistakable": 20655,
    "tically": 3391,
    "Ġincess": 8432,
    "Ġwherefore": 8526,
    "Ġfugitives": 25635,
    "ety": 3519,
    "Ġsauntering": 18328,
    "Ġscarlet": 13227,
    "regulated": 23469,
    "books": 8667,
    "uzz": 4522,
    "Ġpoltroon": 26600,
    "eric": 3468,
    "Ġbelongs": 8015,
    "Ġchimneys": 16974,
    "manifested": 20529,
    "Ġsurmises": 17057,
    "everything": 6325,
    "Ġcourtesy": 9948,
    "Ġmistaken": 4985,
    "Ġkicked": 10584,
    "anel": 21360,
    "Ġbully": 23859,
    "cred": 9112,
    "enes": 5218,
    "sander": 11529,
    "ainted": 3658,
    "iality": 8848,
    "Ġaudacity": 19884,
    "sensibility": 25026,
    "Ġsagacious": 14974,
    "Ġpipe": 4319,
    "Ġstoop": 16314,
    "ink": 755,
    "vult": 21116,
    "influences": 25251,
    "tails": 21089,
    "adel": 15734,
    "Ġsnatching": 10474,
    "Ġanother": 1738,
    "Ġdescending": 8906,
    "Ġdiamond": 15604,
    "Ġasc": 4764,
    "Ġshocked": 9405,
    "Ġlab": 1871,
    "Ġimprovements": 14519,
    "Ġutter": 3975,
    "william": 4560,
    "Ġshrubbery": 18233,
    "Ġdrunkard": 20180,
    "osure": 5308,
    "Ġenquired": 21945,
    "Ġinch": 7850,
    "honour": 13470,
    "fearfully": 25119,
    "Ġex": 362,
    "Ġinquiry": 6484,
    "Ġtip": 15475,
    "Ġchuckled": 10650,
    "Ġpathways": 11155,
    "Ġconfederate": 17356,
    "Ġhurst": 5582,
    "Ġunreason": 15847,
    "marching": 25753,
    "Ġsettlement": 19839,
    "Ġtarquin": 23612,
    "Ġunctuous": 10269,
    "Ġphotography": 24684,
    "Ġapparatus": 24909,
    "Ġexcluded": 16389,
    "Ġaccused": 8509,
    "Ġdiscretion": 10350,
    "Ġuntimely": 16470,
    "n": 82,
    "Ġpoints": 5249,
    "Ġwilfully": 16768,
    "Ġtransp": 4769,
    "ises": 3653,
    "Ġechoed": 20427,
    "church": 8140,
    "Ġimpro": 911,
    "Ġcrescentic": 20624,
    "storm": 9685,
    "¦": 104,
    "Ġwildly": 9418,
    "gment": 4388,
    "Ġdyspepsia": 20645,
    "Ġtranque": 14207,
    "Ġgay": 5535,
    "Ġband": 5292,
    "Ġintrepid": 11710,
    "Ġcircumstances": 3925,
    ";âĢĿâĢĶ": 20762,
    "ifting": 6546,
    "nowledge": 10292,
    "fordshire": 4674,
    "Ġmuseum": 15274,
    "Ġsurveying": 25326,
    "Ġhigher": 1821,
    "Ġorigin": 4119,
    "anch": 15565,
    "Ġqualifications": 24676,
    "Ġmemorand": 23408,
    "Ġportrait": 10664,
    "Ġfish": 2708,
    "iating": 3204,
    "Ġadvantages": 9811,
    "Ġappropriate": 2252,
    "Ġengagements": 9981,
    "impatience": 25501,
    "oil": 7805,
    "cription": 20820,
    "hair": 9126,
    "Ġrecollecting": 17114,
    "orders": 12879,
    "Ġstreat": 15726,
    "Ġstuck": 9224,
    "Ġsinking": 7306,
    "walked": 10573,
    "Ġacknowledge": 13405,
    "Ġaversion": 18867,
    "Ġ88": 19714,
    "Ġbaboon": 19696,
    "Ġnightgown": 23136,
    "Ġcompassion": 6487,
    "Ġinnocently": 24034,
    "Ġporthole": 24399,
    "Ġhoping": 11105,
    "Ġsweetheart": 19398,
    "Ġpained": 19169,
    "Ġscaramouch": 23831,
    "flutterings": 26608,
    "Ġcontinuous": 1564,
    "Ġident": 2242,
    "iod": 3838,
    "ditch": 17530,
    "Ġhesitated": 10005,
    "Ġbenchmarks": 15024,
    "om": 315,
    "clair": 18935,
    "Ġhyper": 19742,
    "shrouded": 26363,
    "queg": 1771,
    "ede": 21509,
    "riet": 18183,
    "Ġmes": 17798,
    "postp": 24635,
    "Ġconjure": 17126,
    "¬": 110,
    "Ġgordon": 26469,
    "dl": 20825,
    "Ġsheer": 14153,
    "Ġselves": 21225,
    "Ġgloves": 8577,
    "Ġamounts": 6705,
    "Ġclump": 15970,
    "encoun": 12302,
    "Ġabased": 22272,
    "ective": 18177,
    "Ġpiny": 21473,
    "Ġlie": 4405,
    "Ġexhilar": 19686,
    "ting": 1332,
    "derness": 11741,
    "Ġdespatched": 23833,
    "Ġcategorization": 12141,
    "elements": 25204,
    "charles": 14702,
    "Ġsaucer": 20608,
    "Ġcompens": 14266,
    "afterwards": 7484,
    "Ġvoluntarily": 12145,
    "paralleled": 14515,
    "howling": 18991,
    "Ġcrowding": 13283,
    "horizon": 23617,
    "Ġdiscourse": 9801,
    "Ġperturbation": 20444,
    "Ġkeepers": 23542,
    "Ġloomings": 24952,
    "Ġblaming": 22933,
    "mentioned": 10626,
    "ister": 1294,
    "uning": 1313,
    "edily": 17946,
    "Ġteaching": 10366,
    "hogs": 20085,
    "lie": 12487,
    "Ġorganically": 3010,
    "lect": 1225,
    "Ġdescribed": 6607,
    "Ġchasing": 11758,
    "Ġlodges": 19503,
    "approbation": 11460,
    "opposition": 24820,
    "rey": 12543,
    "Ġopportunity": 4785,
    "Ġunspeakable": 10059,
    "Ġhospitable": 17061,
    "enced": 4294,
    "Ġfavour": 3640,
    "Ġmechanically": 14400,
    "Ġnur": 5710,
    "osal": 11763,
    "muttered": 13761,
    "etus": 21581,
    "Ġgover": 2461,
    "Ġbreathing": 9449,
    "Ġten": 2386,
    "Ġemboldened": 22977,
    "ĸ": 249,
    "liberal": 26283,
    "Ġ3": 3985,
    "Ġcountryside": 23598,
    "Ġ58": 24322,
    "Ġvivacious": 19818,
    "Ġsurpasses": 25269,
    "Ġattentions": 5878,
    "oted": 4595,
    "Ġchicha": 15941,
    "Ġaccumulates": 2889,
    "Ġcombat": 16189,
    "faced": 8080,
    "Ġlaborious": 13107,
    "Ġiter": 2951,
    "Ġaustrian": 24302,
    "Ġburgled": 23655,
    "Ġgre": 1584,
    "profess": 10631,
    "Ġdistrustful": 25057,
    "failed": 20865,
    "Ġhammock": 5768,
    "Ġpaling": 21465,
    "gard": 7338,
    "ellect": 7380,
    "Ġmodesty": 12822,
    "Ġdomain": 3675,
    "Ġbeheld": 4491,
    "pres": 16033,
    "Ġstrings": 11833,
    "Ġnoises": 18375,
    "tallied": 21092,
    "omitted": 18019,
    "Ġmasters": 11578,
    "mody": 16190,
    "allic": 12818,
    "Ġsurrounded": 5879,
    "helping": 23146,
    "Ġtrout": 22358,
    "Ġmonogra": 22985,
    "skill": 24487,
    "Ġmarvel": 23040,
    "Ġopulence": 23629,
    "Ġplainer": 23703,
    "Ġconsider": 2567,
    "representation": 20199,
    "anzas": 17842,
    "Ġtutored": 20131,
    "reached": 13843,
    "Ġwhal": 5454,
    "Ġinclined": 6624,
    "etian": 13961,
    "Ġsash": 17756,
    "Ġexcused": 23317,
    "pents": 11515,
    "Ġtravellers": 11310,
    "uteronomy": 15669,
    "hood": 2658,
    "Ġsket": 18728,
    "Ġcorrect": 2431,
    "Ġliberally": 16832,
    "ascertaining": 26462,
    "finger": 10096,
    "gaffman": 26392,
    "Ġantip": 24179,
    "urning": 12921,
    "Ġlicensing": 20096,
    "wow": 21124,
    "ches": 2148,
    "Ġcontented": 9759,
    "Ġconquered": 14028,
    "Ġpill": 7846,
    "Ġproving": 15757,
    "Ġindispensable": 11904,
    "Ġspoils": 24805,
    "Ġsilvery": 13097,
    "Ġculprit": 26173,
    "Ġtechniques": 2865,
    "Ġattempts": 10493,
    "sphere": 22735,
    "Ġmonument": 16244,
    "Ġease": 5629,
    "mutually": 26137,
    "keep": 3849,
    "Ġstill": 1158,
    "byshire": 6173,
    "Ġaccounted": 10297,
    "ts": 958,
    "Ġpublished": 11243,
    "Ġbi": 920,
    "Ġbuckskin": 19955,
    "Ġanchors": 12618,
    "Ġske": 4815,
    "Ġgeese": 7694,
    "Ġvexations": 24610,
    "intu": 22936,
    "Ġinferiority": 17116,
    "Ġstart": 3259,
    "Ġkind": 1785,
    "Ġhatches": 12048,
    "idated": 11664,
    "Ġgaieties": 24198,
    "Ġbrew": 23347,
    "elly": 17982,
    "Ġclose": 3035,
    "unalterable": 21890,
    "nment": 20992,
    "Ġdoubtless": 6196,
    "cy": 640,
    "Ġfeatureless": 22612,
    "Ġcassock": 20490,
    "loo": 10322,
    "Ġinstantly": 3589,
    "squee": 15434,
    "Ġconcil": 23325,
    "wished": 13807,
    "Ġstout": 6025,
    "Ġcigarette": 20658,
    "mult": 8751,
    "Ġtusk": 25426,
    "Ġthenceforth": 25183,
    "Ġliar": 22412,
    "excuse": 13384,
    "Ġcustody": 13650,
    "Ġbrass": 11050,
    "Ġket": 18348,
    "maul": 11896,
    "Ġattentively": 9953,
    "Ġwhispering": 14948,
    "Ġbring": 3323,
    "Ġknowledge": 1446,
    "Ġstructures": 2717,
    "Ġcheek": 8580,
    "Ġhearing": 4760,
    "ket": 17584,
    "overcome": 19051,
    "Ġunallied": 22036,
    "Ġirish": 14536,
    "isition": 11589,
    "Ġmer": 2928,
    "oles": 21007,
    "Ġharpoon": 3615,
    "knows": 19174,
    "occur": 19578,
    "confused": 19642,
    "Ġpossibility": 7457,
    "Ġconsidering": 4613,
    "Ġmisled": 22759,
    "ittance": 12850,
    "Ġwidow": 8666,
    "favour": 9552,
    "Ġdecanting": 22447,
    "somewhat": 11162,
    "Ġwater": 1949,
    "Ġharbors": 24902,
    "epilogue": 22104,
    "Ġfurlongs": 20725,
    "Ġmuster": 16127,
    "Ġtrifles": 16953,
    "sets": 17662,
    "Ġstair": 8457,
    "Ġsomehow": 4842,
    "Ġrector": 21679,
    "remediable": 26296,
    "Ġpillows": 24989,
    "Ġquarter": 3977,
    "Ġfools": 14484,
    "Ġchildish": 13140,
    "anged": 3585,
    "Ġplanned": 14755,
    "Ġangelic": 19630,
    "Ġhaving": 1881,
    "Ġbarmaid": 19337,
    "-------": 20392,
    "Ġhabit": 6771,
    "Ġredu": 1354,
    "start": 7599,
    "impat": 11203,
    "Ġeldest": 6572,
    "Ġthence": 8885,
    "Ġmantelpiece": 15211,
    "Ġassent": 12738,
    "she": 1396,
    "Ġlaug": 3626,
    "Ġdisrespect": 18554,
    "ax": 693,
    "Ġexaggerated": 25651,
    "Ġdevoured": 16140,
    "Ġinexper": 16982,
    "features": 14829,
    "Ġfors": 21775,
    "Ġpermitted": 9282,
    "Ġvenom": 24241,
    "abri": 6683,
    "ources": 2786,
    "heeded": 13836,
    "Ġsiber": 17757,
    "ological": 1885,
    "riage": 2124,
    "Ġcorrupt": 11927,
    "sacred": 17030,
    "ploy": 2095,
    "Ġenvelop": 5587,
    "Ġsurprised": 3829,
    "Ġplaster": 16089,
    "itations": 17819,
    "Ġashen": 21903,
    "âĢĿ)": 21818,
    "Ġpra": 4344,
    "ingale": 21302,
    "make": 5793,
    "Ġvacantly": 16817,
    "Ġrebounds": 25968,
    "Ġhull": 5446,
    "othed": 16513,
    "Ġunre": 3475,
    "complexion": 14359,
    "Ġimaginations": 16518,
    "Ġnourishment": 15196,
    "!âĢĶ": 2454,
    "Ġrejection": 19987,
    "Ġcarav": 18903,
    "51": 12435,
    "weaknesses": 26031,
    "Ġoverlooked": 15979,
    "Ġcorresponding": 13441,
    "Ġjonah": 3477,
    "Ġsobs": 14137,
    "Ġpotent": 12068,
    "sick": 13786,
    "Ġstirs": 14920,
    "Ġpuffing": 12259,
    "Ġsignal": 5945,
    "90": 12436,
    "oqu": 7555,
    "Ġprometheus": 15296,
    "Ġsouth": 4911,
    "resc": 21241,
    "Ġbringing": 5870,
    "luxur": 25823,
    "ivered": 7006,
    "Ġgunwale": 7324,
    "terms": 15756,
    "Ġtoilings": 24741,
    "Ġapproxim": 1219,
    "Ġthink": 985,
    "Ġwashington": 17205,
    ".,": 5988,
    "Ġinflict": 15003,
    "Ġsuavely": 26525,
    "Ġda": 5150,
    "Ġdanger": 3517,
    "Ġallegor": 25546,
    "Ġchap": 5934,
    "Ġassumed": 9468,
    "Ġprovid": 1007,
    "Ġsurve": 9877,
    "rrh": 26145,
    "alcul": 15633,
    "ressing": 8922,
    "toes": 22568,
    "Ġtied": 7356,
    "conce": 8512,
    "Ġwards": 17791,
    "fish": 3513,
    "Ġsa": 474,
    "Ġtant": 12530,
    "Ġ54": 24318,
    "Ġcommonplace": 11098,
    "stud": 8824,
    "Ġeucl": 24708,
    "arrange": 23767,
    "Ġevident": 6613,
    "procure": 23400,
    "deprived": 19900,
    "Ġapple": 14171,
    "Ġlimber": 16482,
    "Ġattributed": 11842,
    "Ġsubtile": 20383,
    "function": 4682,
    "Ġfloating": 6605,
    "Ġservice": 6471,
    "Ġdavis": 25953,
    "prim": 23814,
    "Ġintermission": 18588,
    "Ġstark": 7389,
    "Ġstumble": 26484,
    "Ġmontan": 22986,
    "ets": 1161,
    "Ġoscillations": 2897,
    "ready": 2360,
    "cad": 17507,
    "Ġtelegraph": 25584,
    "Ġroofs": 16987,
    "rimsh": 17029,
    "Ġboister": 12924,
    "Ġundivided": 24122,
    "bweb": 20793,
    "Ġoverlooking": 22362,
    "Ġinsatiable": 19274,
    "friendship": 24052,
    "Ġdescrib": 2716,
    "remorse": 14470,
    "fore": 687,
    "estation": 15925,
    "Ġemac": 16411,
    "Ġwomen": 4749,
    "itates": 13871,
    "Ġformations": 18751,
    "investigations": 25534,
    "Ġvoices": 7876,
    "Ġpanelled": 19657,
    "continual": 20646,
    "Ġconvivial": 16551,
    "Ġdeserve": 8309,
    "amy": 8469,
    "Ġhed": 7386,
    "Ġclum": 8876,
    "turtle": 12216,
    "Ġgoney": 14547,
    "ivery": 17574,
    "Ġspell": 8859,
    "brushing": 20790,
    "Ġalternate": 19989,
    "Ġburton": 23654,
    "Ġinteraction": 7423,
    "Ġchance": 3317,
    "replied": 11568,
    "scrape": 25699,
    "Ġdro": 2769,
    "countenances": 24153,
    "Ġcompromising": 22577,
    "generative": 4328,
    "inions": 8403,
    "abash": 18110,
    "bergs": 18683,
    "Ġaven": 10761,
    "Ġsled": 21221,
    "Ġhappy": 2465,
    "Ġtight": 8108,
    "Ġmaps": 2961,
    "orrah": 17877,
    "ursday": 12281,
    "Ġhuddled": 20302,
    "Ġrevolutionized": 3366,
    "Ġconvalescence": 23747,
    "Ġgigantic": 5915,
    "queer": 10365,
    "Ġunsc": 22018,
    "Ġjohn": 5031,
    "Ġane": 9185,
    "Ġcoward": 7155,
    "Ġchrysalis": 26540,
    "Ġxlix": 25861,
    "Ġspecks": 14311,
    "Ġforgery": 25978,
    "Ġspinal": 12306,
    "anse": 12580,
    "Ġdod": 6674,
    "Ġalike": 8147,
    "Ġhaze": 18197,
    "Ġfielding": 16240,
    "Ġdreadful": 4920,
    "preserving": 25305,
    "Ġ50": 24315,
    "rell": 11566,
    "fra": 8375,
    "ually": 2768,
    "Ġben": 1109,
    "Ġshin": 18228,
    "Ġshoals": 13137,
    "Ġpleasurable": 23343,
    "Ġburst": 4378,
    "allah": 5839,
    "igner": 21704,
    "Ġneurons": 977,
    "Ġaccepted": 7750,
    "Ġcivil": 4676,
    "Ġdarcy": 1342,
    "Ġdent": 13908,
    "Ġbloodless": 19341,
    "Ġlies": 5297,
    "Ī": 235,
    "enjoyments": 25434,
    "Ġthereby": 7644,
    "Ġaltering": 18105,
    "Ġtig": 13815,
    "Ġdaresay": 14707,
    "Ġhanding": 16135,
    "instinctively": 26329,
    "Ġdeployment": 11204,
    "Ġsiberia": 26162,
    "Ġch": 513,
    "Ġrang": 9249,
    "tedious": 22636,
    "glim": 19368,
    "vari": 1517,
    "Ġbare": 6133,
    "madly": 24420,
    "Ġtransparent": 9492,
    "Ġbiting": 17863,
    "Ġwinking": 17795,
    "avenue": 25060,
    "Ġhanover": 20589,
    "feelings": 5674,
    "Ġunderwent": 23240,
    "Ġserm": 9636,
    "opening": 10315,
    "Ġsubterraneous": 20268,
    "eers": 20845,
    "Ġskirting": 22800,
    "ating": 664,
    "'(": 2976,
    "rength": 4101,
    "Ġharpooneer": 3772,
    "Ġcrowned": 16843,
    "Ġcolonnades": 26277,
    "Ġdocuments": 10026,
    "Ġcouples": 16854,
    "Ġbur": 2696,
    "Ġmichigan": 26428,
    "Ġeats": 15682,
    "Ġscener": 10951,
    "Ġbenignity": 18783,
    "Ġbutcher": 18272,
    "neg": 12870,
    "Ġcrust": 21354,
    "Ġstrolled": 16772,
    "ough": 471,
    "Ġdau": 21428,
    "Ġpledge": 11604,
    "Ġrecognition": 3215,
    "Ġmaj": 3926,
    "icated": 7591,
    "Ġhurt": 7700,
    "rene": 5379,
    "boscombe": 26122,
    "Ġcombination": 22854,
    "Ġhastened": 9007,
    "Ġers": 15464,
    "Ġirregularity": 25325,
    "?_": 8070,
    "grave": 16099,
    "icorn": 15662,
    "Ġhimself": 1352,
    "end": 501,
    "Ġfreer": 23212,
    "Ġidler": 16409,
    "inspect": 11561,
    "Ġsunda": 13546,
    "Ġmurmured": 7480,
    "blacksmith": 17003,
    "Ġadmired": 7982,
    "off": 1887,
    "================================": 5671,
    "Ġdictated": 25219,
    "Ġunt": 2295,
    "Ġsunwards": 19013,
    "Ġaug": 6235,
    "anelles": 26436,
    "constantinople": 25508,
    "actually": 14299,
    "fted": 9122,
    "Ġreligions": 20111,
    "obliged": 20634,
    "mayhew": 23998,
    "Ġimbalance": 22178,
    "Ġejaculated": 15173,
    "recogn": 13428,
    "omit": 13976,
    "Ġunintelligible": 26516,
    "outward": 22164,
    "Ġintending": 11709,
    "âĢĶ.": 11759,
    "tra": 5001,
    "equ": 6790,
    "iastic": 12484,
    "Ġgoose": 5938,
    "âĢĶâĢĻâĢĿ": 20067,
    "Ġwooded": 23523,
    "pool": 16214,
    "fresh": 13395,
    "affairs": 14658,
    "extent": 22764,
    "Ġwhosoever": 21722,
    "Ġequatorial": 13511,
    "aking": 975,
    "Ġwatch": 2741,
    "Ġcharles": 11962,
    "ath": 861,
    "Ġsurpr": 2549,
    "Ġ20": 8617,
    "Ġwield": 21293,
    "Ġbelrive": 18833,
    "Ġcanaan": 22170,
    "ignor": 8964,
    "Ġstretching": 10018,
    "Ġfeebly": 24878,
    "Ġloaded": 8492,
    "tarpaul": 21100,
    "Ġinconstant": 21499,
    "jaws": 20934,
    "Ġfrancisco": 26065,
    "Ġwith": 349,
    "hoping": 17568,
    "Ġmummy": 25769,
    "alog": 8809,
    "Ġhark": 8429,
    "Ġyer": 15739,
    "Ġhabitations": 24788,
    "Ġwaylaid": 22878,
    "Ġinclu": 1101,
    "Ġlack": 17966,
    "Ġrollicking": 24451,
    "bble": 17487,
    "Ġhopelessly": 16383,
    "Ġloveliness": 13611,
    "Ġtart": 12533,
    "pillar": 5619,
    "Ġhumorous": 10363,
    "catherine": 7128,
    "Ġdesc": 764,
    "Ġhol": 1182,
    "Ġhardened": 14453,
    "Ġdenominated": 15232,
    "mmet": 10990,
    "Ġsprawling": 22143,
    "Ġindicates": 3192,
    "stayed": 25291,
    "Ġglu": 15673,
    "Ġsleek": 23387,
    "Ġgave": 2220,
    "Ġenable": 686,
    "Ġpeaceable": 14727,
    "adequate": 15207,
    "Ġrio": 23894,
    "owal": 13995,
    "Ġserpent": 6738,
    "Ġrings": 11703,
    "Ġ37": 24081,
    "sincerely": 24585,
    "disgu": 19157,
    "Ġstar": 6023,
    "Ġlichen": 20095,
    "Ġtheology": 21279,
    "Ġ62": 24365,
    "complaisance": 24808,
    "staking": 21651,
    "Ġacknowledges": 24689,
    "Ġprompt": 3187,
    "Ġrelations": 5853,
    "Ġhandsomer": 20336,
    "Ġvalues": 2650,
    "Ġresnet": 5473,
    "Ġaction": 5797,
    "imen": 12691,
    "Ġdistended": 16047,
    "Ġslowly": 3617,
    "ables": 7890,
    "arians": 18524,
    "Ġcordiality": 24395,
    "Ġinfatuation": 25858,
    "Ġgambler": 26192,
    "title": 17290,
    "Ġeffeminacy": 20720,
    "unction": 10237,
    "Ġlands": 6595,
    "out": 467,
    "Ġcolony": 18768,
    "Ġarter": 22186,
    "Ġwhine": 21718,
    "network": 1897,
    "Ġsmothered": 20722,
    "Ġvagueness": 25738,
    "Ġabandoned": 8352,
    "gely": 10702,
    "rael": 21632,
    "Ġalluding": 18237,
    "Ġlargest": 6283,
    "mira": 20981,
    "brown": 15321,
    "Ġplaying": 6908,
    "Ġship": 1094,
    "idge": 14016,
    "Ġvideos": 13609,
    "Ġcompleted": 9000,
    "Ġatt": 789,
    "Ġcrawford": 24894,
    "conscience": 14863,
    "disapprobation": 19159,
    "othic": 16220,
    "Ġspurned": 12802,
    "Ġblank": 5951,
    "Ġboon": 22640,
    "Ġpremises": 10490,
    "cords": 25139,
    "Ġconsistent": 14530,
    "Ġtame": 17724,
    "Ġclearer": 16316,
    "indul": 22374,
    "Ġdividing": 12116,
    "reliable": 21243,
    "throne": 25658,
    "Ġsuspending": 19246,
    "Ġscent": 10287,
    "artificial": 986,
    "Ġpugnacious": 26453,
    "helmsman": 24289,
    "Ġbathed": 17867,
    "Ġpaul": 12066,
    "consider": 6349,
    "Ġthirst": 7590,
    "Ġirreduc": 5491,
    "Ġtill": 1825,
    "Ġfleetness": 20182,
    "Ġhast": 3149,
    "Ġdetails": 6566,
    "Ġrestrict": 16381,
    "Ġca": 21342,
    "Ġcritics": 23445,
    "Ġvol": 4189,
    "Ġspas": 10924,
    "Ġheadsman": 13278,
    "Ġextracts": 9369,
    "presume": 25671,
    "Ġindulging": 16906,
    "Ġfamil": 4318,
    "shold": 2771,
    "Ġdiscernible": 15073,
    "particular": 5757,
    "gaining": 20127,
    "Ġjest": 18404,
    "Ġodd": 6626,
    "andish": 18156,
    "Ġscramble": 24579,
    "Ġnotes": 7188,
    "Ġhealth": 3901,
    "Ġit": 339,
    "Ġorganize": 8994,
    "Ġ49": 24085,
    "Ġulster": 14999,
    "Ġmichaelmas": 26376,
    "brad": 20782,
    "Ġpartial": 2129,
    "Ġing": 5284,
    "Ġtalking": 3856,
    "Ġdistance": 3480,
    "does": 6195,
    "constable": 24606,
    "Ġearnestly": 5979,
    "Ġcomplimented": 14907,
    "Ġwired": 17788,
    "Ġcall": 2074,
    "Ġrods": 9756,
    "ul": 371,
    "aff": 3098,
    "Ġtag": 15472,
    "brother": 7092,
    "Ġestim": 3347,
    "E": 41,
    "Ġtrack": 7449,
    "Ġbrace": 11213,
    "Ġcigars": 12257,
    "inclined": 10642,
    "Ġphilosophers": 10554,
    "Ġfacial": 10608,
    "horn": 8086,
    "possibility": 13365,
    "Ġacquaintances": 17353,
    "Ġmicha": 17813,
    "Ġterti": 14540,
    "inlaid": 21193,
    "Ġarguing": 25471,
    "access": 11182,
    "mates": 5073,
    "agged": 9241,
    "prop": 1023,
    "Ġhogshead": 26369,
    "Ġgoest": 22427,
    "ills": 1630,
    "hastening": 24448,
    "envelope": 17784,
    "Ġaverages": 2399,
    "dil": 11480,
    "Ġfortresses": 23623,
    "Ġmilliner": 19886,
    "anity": 9657,
    "Ġengraved": 17082,
    "Ġsorrowful": 10539,
    "Ġmartin": 25437,
    "augmented": 26288,
    "nyder": 16687,
    "Ġquakers": 22420,
    "jub": 20931,
    "station": 10846,
    "Ġunimportant": 22034,
    "Ġgaping": 13971,
    "Ġhandy": 12941,
    "bohem": 19002,
    "ton": 1728,
    "Ġpupella": 20425,
    "Ġfru": 8421,
    "Ġtophet": 23575,
    "recover": 24623,
    "atively": 2694,
    "wor": 3414,
    "Ġbraces": 14672,
    "Ġdetermination": 9822,
    "ual": 943,
    "Ġempire": 11147,
    "Ġgrave": 5100,
    "Ġshining": 8172,
    "insupportable": 21196,
    "Ġtraveller": 8049,
    "pag": 11513,
    "numer": 15403,
    "Ġstri": 2801,
    "Ġnow": 692,
    "Ġcomrades": 9237,
    "mus": 10113,
    "Ġmut": 3580,
    "last": 3803,
    "side": 2302,
    "Ġdisappointing": 19582,
    "remote": 23193,
    "Ġchemical": 10412,
    "Ġmislead": 22760,
    "idirectional": 2420,
    "Ġchamber": 6214,
    "Ġslugg": 15271,
    "Ġcash": 9655,
    "Ġweather": 3996,
    "snowy": 20286,
    "doubted": 17528,
    "Ġmerited": 23732,
    "Ġdashed": 6010,
    "Ġrueful": 25582,
    "ivering": 7698,
    "inence": 15485,
    "Ġexc": 1832,
    "Ġallude": 12776,
    "Ġflap": 14425,
    "furnish": 25339,
    "Ġwomanly": 23554,
    "oke": 1859,
    "Ġstuffed": 13412,
    "li": 1187,
    "Ġseparated": 9467,
    "Ġfrighted": 24035,
    "usually": 10288,
    "ustomed": 6099,
    "movement": 25578,
    "occ": 4483,
    "Ġpriority": 19765,
    "Ġstranger": 3482,
    "Ġchaise": 9080,
    "Ġjoyful": 13225,
    "taffrail": 15446,
    "eyeing": 14949,
    "Ġfactor": 19014,
    "Ġdisadvantage": 12895,
    "deserts": 25382,
    "Ġap": 5007,
    "ø": 185,
    "hound": 20897,
    "Ġmustering": 18663,
    "Ġexpands": 25238,
    "eluded": 21578,
    "Ġreasoning": 2022,
    "Ġproportion": 7280,
    "Ġlisten": 4671,
    "Ġfronted": 23260,
    "pour": 17632,
    "Ġstricken": 9779,
    "Ġinfrequent": 3823,
    "Ġspaulding": 11735,
    "Ġbenches": 18782,
    "å": 166,
    "called": 6293,
    "Ġlordly": 23745,
    "Ġpossibly": 4512,
    "leader": 25352,
    "Ġdeaf": 12726,
    "uck": 1236,
    "Ġturkish": 12266,
    "Ġwra": 5906,
    "kingly": 20941,
    "attending": 18918,
    "companions": 15026,
    "Ġundergone": 18987,
    "Ġthirteen": 15277,
    "discovery": 12021,
    "silence": 8045,
    "Ġenjoyments": 24024,
    "Ġreliance": 14388,
    "Ġmixing": 24937,
    "Ġneedn": 19230,
    "wond": 8772,
    "Ġalle": 11669,
    "Ġheaved": 9387,
    "shr": 10982,
    "Ġfist": 21407,
    "Ġprizes": 13077,
    "Ġintim": 6837,
    "Ġscreamed": 9527,
    "Ġjudiciously": 23881,
    "Ġfirmament": 19474,
    "guilt": 24074,
    "Ġunfortunate": 5376,
    "eous": 13714,
    "Ġthump": 11614,
    "Ġprivacy": 19527,
    "Ġsnap": 11202,
    "Ġrummaged": 16912,
    "desper": 13222,
    "Ġapprehension": 7114,
    "Ġbattle": 5908,
    "Ġworship": 10369,
    "eternal": 17985,
    "anth": 13889,
    "Ġbelfry": 26440,
    "Ġblessings": 24178,
    "Ġexhib": 6350,
    "Ġsubsc": 22791,
    "even": 3836,
    "prov": 16427,
    "Ġforce": 5092,
    "Ġbill": 4039,
    "Ġdisgra": 18550,
    "Ġble": 5223,
    "didn": 9010,
    "Ġovertook": 18429,
    "aged": 2605,
    "assumed": 22312,
    "Ġstreets": 5864,
    "Ġbenediction": 18785,
    "Ġclung": 10959,
    "dripping": 16907,
    "ourably": 14380,
    "Ġsenate": 25215,
    "Ġmachinations": 25768,
    "Ġreaches": 18034,
    "Ġpaternal": 16366,
    "Ġmoody": 8201,
    "Ġaim": 10148,
    "Ġglimpse": 6943,
    "league": 17846,
    "Ġimmedi": 2903,
    "Ġpalpitated": 26086,
    "Ġphyset": 23203,
    "Ġspile": 22131,
    "Ġrumbling": 18212,
    "cull": 20811,
    "ifully": 13189,
    "Ġwildness": 14605,
    "Ġsmoothe": 23657,
    "Ġstig": 14004,
    "icient": 782,
    "Ġklan": 23661,
    "odecim": 9835,
    "Ġfestoon": 20297,
    "draught": 12095,
    "Ġtangle": 25761,
    "nes": 6960,
    "profitable": 17056,
    "offers": 16400,
    "Ġwearied": 15798,
    "acious": 5563,
    "accepted": 20139,
    "Ġfootsteps": 16575,
    "olidity": 18134,
    "Ġglimp": 6066,
    "Ġill": 2195,
    "tubs": 15134,
    "Ġbashful": 20423,
    "inst": 4293,
    "Ġtraged": 9356,
    "Ġanat": 8124,
    "appin": 18760,
    "hess": 4746,
    "Ġcontinue": 5398,
    "lance": 12486,
    "Ġanticipation": 17059,
    "Ġschedu": 1824,
    "Ġfad": 17878,
    "Ġind": 1224,
    "Ġgraph": 10904,
    "street": 6495,
    "mits": 13758,
    "Ġspain": 15885,
    "Ġdisadvantages": 18559,
    "reserve": 17767,
    "Ġflood": 7715,
    "fortnight": 13090,
    "Ġtribute": 15479,
    "brave": 19826,
    "Ġopenly": 8575,
    "pious": 17635,
    "Ġcountless": 16387,
    "Ġanimated": 7701,
    "Ġgoat": 16012,
    "Ġissue": 2312,
    "Ġjunks": 25116,
    "directed": 20408,
    "feit": 16049,
    "Ġhes": 6251,
    "Ġinspired": 2517,
    "belonged": 25598,
    "Ġchart": 10947,
    "Ġun": 423,
    "Ġas": 374,
    "Ġsell": 7825,
    "impression": 15716,
    "Ġlub": 15654,
    "Ġlobster": 11391,
    "Ġwhirled": 14963,
    "irited": 15792,
    "Ġexclaiming": 13644,
    "Ġkeener": 22918,
    "itance": 13870,
    "cular": 15331,
    "Ġdusty": 14928,
    "Ġabated": 18391,
    "ĠdÃ¦mon": 7844,
    "clerval": 7951,
    "Ġworth": 4416,
    "charm": 13992,
    "fl": 3598,
    "Ġsimilitude": 19212,
    "Ġforbid": 7865,
    "Ġintroduce": 3203,
    "difference": 13710,
    "enjoyment": 17260,
    "Ġalarm": 4046,
    "against": 5871,
    "Ġprevailed": 7777,
    "otent": 8836,
    "uncle": 8159,
    "lig": 3171,
    "Ġvalu": 5037,
    "Ġdick": 3494,
    "Ġul": 6827,
    "elze": 21576,
    "ascar": 8436,
    "Ġprevents": 2556,
    "Ġnobleman": 19395,
    "Ġcomparative": 10545,
    "ertain": 1208,
    "trade": 19647,
    "Ġinterm": 14271,
    "Ġspat": 2663,
    "pret": 7211,
    "disaster": 23495,
    "Ġupstairs": 5837,
    "Ġunex": 11717,
    "arab": 21444,
    "¼": 125,
    "cooks": 25070,
    "Ġsuit": 5725,
    "Ġling": 7376,
    "Ġankers": 21448,
    "Ġequilibrium": 4140,
    "amused": 21850,
    "Ġreproach": 9559,
    "Ġwaned": 17793,
    "rect": 1598,
    "Ġamazing": 9980,
    "Ġaccuracy": 1093,
    "ness": 852,
    "lone": 11502,
    "apers": 3478,
    "rict": 8093,
    "Ġbewil": 11660,
    "Ġnod": 1889,
    "abern": 21794,
    "und": 4086,
    "iot": 9603,
    "Ġblankets": 24612,
    "Ġrepetition": 8975,
    "Ġmarshy": 20221,
    "Ġtransportation": 13645,
    "Ġpupp": 10822,
    "Ġflourished": 15129,
    "Ġsilk": 11967,
    "vitality": 20482,
    "inkle": 22617,
    "Ġcuring": 21347,
    "ainty": 21791,
    "pper": 3207,
    "Ġafric": 8907,
    "active": 16105,
    "window": 7742,
    "Ġliving": 3060,
    "Ġbachelors": 24861,
    "apprehens": 17409,
    "iar": 2378,
    "iting": 2157,
    "Ġther": 17780,
    "Ġpython": 1070,
    "Ġmodern": 3226,
    "Ġcolumb": 22862,
    "Ġsedentary": 25431,
    "Ġpilgrim": 25600,
    "Ġ/*": 10142,
    "Ġ177": 13415,
    "Ġgesture": 11401,
    "leave": 7837,
    "Ġfinally": 4664,
    "Ġhistory": 4007,
    "83": 13683,
    "opard": 9295,
    "stationed": 25454,
    "Ġ87": 19713,
    "Ġ[_": 15465,
    "Ġkentuckian": 26344,
    "Ġspies": 22132,
    "Ġseptember": 18206,
    "Ġspiral": 14586,
    "Ġinclemency": 22559,
    "Ġasylum": 13669,
    "Ġ43": 14772,
    "introduction": 15127,
    "Ġregularization": 1202,
    "Ġobsole": 22701,
    "rolling": 9064,
    "commander": 16989,
    "Ġrussian": 14353,
    "Ġbegone": 11921,
    "obtain": 23097,
    "Ġregretted": 13403,
    "sink": 11524,
    "remem": 13071,
    "Ġwheel": 9721,
    "Ġireland": 17338,
    "Ġflit": 23011,
    "plied": 10258,
    "Ġriddle": 14822,
    "ò": 179,
    "Ġenderby": 13654,
    "Ġminiature": 11041,
    "Ġremonstrance": 20626,
    "scheme": 15257,
    "Ġshield": 22003,
    "Ġwere": 557,
    "Ġhan": 15623,
    "Ġsched": 2337,
    "ror": 7350,
    "Ġunfathomably": 25874,
    "easy": 9595,
    "Ġgreedy": 3051,
    "Ġ41": 24083,
    "Ġxl": 11994,
    "Ġpallid": 12303,
    "addressing": 24401,
    "Ġclaims": 13376,
    "cceed": 4142,
    "shirt": 22462,
    "Ġresemblance": 7974,
    "usive": 8192,
    "Ġmacy": 19358,
    "Ġafternoon": 6053,
    "Ġcoals": 16078,
    "Ġbreaths": 14860,
    "recurring": 24197,
    "Ġroarings": 25302,
    "Ġabrid": 22276,
    "enormous": 26167,
    "mechanical": 25579,
    "Ġyarman": 12710,
    "Ġoccupy": 14735,
    "Ġmisfortunes": 7042,
    "adie": 18091,
    "mock": 5174,
    "vill": 10737,
    "copper": 19190,
    "Ġaccept": 4410,
    "Ġoverjoy": 15977,
    "Ġcounterpane": 11345,
    "branch": 23580,
    "Ġsurprise": 3828,
    "Ġcovered": 5171,
    "ut": 308,
    "office": 16401,
    "death": 6262,
    "Ġshad": 3848,
    "Ġburg": 23653,
    "Ġvisual": 5741,
    "Ġrem": 954,
    "above": 8148,
    "Ġswells": 9830,
    "thinks": 16644,
    "Ġpoising": 22594,
    "Ġshaved": 22006,
    "Ġbreak": 2866,
    "Ġascribe": 16784,
    "Ġindestruct": 22961,
    "reject": 21239,
    "Ġsecret": 3722,
    "mn": 3574,
    "hidden": 17374,
    "Ġfam": 1586,
    "Ġpurses": 23478,
    "Ġdetained": 18373,
    "Ġcelestial": 10070,
    "Ġpace": 9187,
    "Ġsoil": 9259,
    "Ġwitnessing": 19601,
    "Ġcot": 13879,
    "Ġfrancis": 26064,
    "Ġpure": 6138,
    "fatal": 17089,
    "christmas": 20258,
    "sy": 2630,
    "Ġprec": 2917,
    "Ġbarbar": 6934,
    "Ġanvil": 11600,
    "Ġfearfully": 23513,
    "call": 8726,
    "ips": 2590,
    "Ġdepress": 14048,
    "isions": 6131,
    "Ġepic": 15032,
    "Ġsec": 2075,
    "Ġactivations": 2718,
    "should": 3262,
    "Ġalph": 9698,
    "mortals": 25410,
    "Ġdiscol": 12958,
    "Ġhaz": 12760,
    "retrie": 18926,
    "Ġpersevering": 20236,
    "illing": 8175,
    "Ġdeceived": 6545,
    "uced": 13802,
    "ggy": 13117,
    "Ġillinois": 19138,
    "accounted": 16504,
    "Ġmalay": 24391,
    "Ġrubbed": 12960,
    "Ġcheetah": 14505,
    "Ġstream": 5186,
    "Ġremarks": 7473,
    "Ġindefatigable": 17180,
    "Ġthickness": 13281,
    "Ġchann": 15940,
    "dirty": 20836,
    "prophecy": 22832,
    "Ġcarries": 7674,
    "Ġsally": 15506,
    "question": 5418,
    "Ġroll": 5381,
    "Ġnervous": 2404,
    "remained": 8572,
    "Ġfi": 935,
    "influ": 9544,
    "giana": 7800,
    "Ġissu": 6254,
    "Ġconceit": 7294,
    "pity": 17629,
    "Ġtents": 13820,
    "Ġgasped": 11374,
    "killed": 15380,
    "Ġadequate": 20311,
    "Ġbodiless": 24229,
    "Ġwears": 10243,
    "Ġprop": 1684,
    "requ": 7148,
    "ceive": 3061,
    "Ġcastaway": 16643,
    "Ġdoll": 10815,
    "Ġexplicit": 3586,
    "Ġguns": 16778,
    "vis": 4575,
    "fireside": 24693,
    "nament": 11509,
    "Ġretire": 10384,
    "cup": 10694,
    "ilated": 18060,
    "ł": 259,
    "Ġbattering": 13903,
    "Ġnotions": 14102,
    "Ġwars": 17787,
    "Ġhad": 444,
    "Ġwinged": 16997,
    "apering": 8041,
    "ogr": 18674,
    "hush": 20908,
    "Ġunstructure": 2991,
    "Ġclearness": 23187,
    "Ġpiled": 8426,
    "Ġimposed": 14218,
    "Ġunw": 7004,
    "umbers": 10920,
    "Ġservices": 11219,
    "Ġgardener": 19136,
    "Ġloudly": 7311,
    "Ġcommunication": 1870,
    "Ġreached": 4022,
    "Ġlurked": 11293,
    "´": 117,
    "Ġrosy": 18458,
    "jonah": 11499,
    "lest": 5290,
    "Ġsecluded": 11997,
    "signs": 16542,
    "kinder": 24846,
    "roar": 17955,
    "Ġoppression": 23652,
    "Ġfilm": 23929,
    "sand": 21055,
    "ound": 584,
    "under": 3129,
    "Ġhunted": 7452,
    "flukes": 25206,
    "Ġberyls": 25776,
    "Ġnewly": 9342,
    "Ġbreathe": 9015,
    "Ġguilt": 6180,
    "ies": 581,
    "Ġcrippled": 25279,
    "âĢľâĢĻ": 10224,
    "insanity": 23072,
    "whatsoever": 18488,
    "Ġtimorous": 24228,
    "xi": 17712,
    "Ġlabour": 7273,
    "Ġtwo": 1043,
    "Ġfootmarks": 19339,
    "bunger": 20405,
    "Ġven": 4645,
    "Ġshan": 9253,
    "Ġacceptance": 14830,
    "gr": 2085,
    "Ġdisclose": 16161,
    "ubbub": 23247,
    "Ġvoids": 25808,
    "ived": 1531,
    "elf": 565,
    "aswag": 21549,
    "Ġkne": 4265,
    "Ġlat": 5087,
    "Ġdropping": 7483,
    "Ġtiles": 17728,
    "Ġrailway": 15023,
    "rece": 21237,
    "Ġvainly": 9927,
    "woe": 21138,
    "Ġstuff": 5717,
    "Ġgarments": 15197,
    "Ġignorantly": 19498,
    "alous": 7371,
    "sunlight": 24852,
    "instinct": 19546,
    "matters": 14877,
    "ē": 212,
    "Ġleaf": 15728,
    "ulled": 14058,
    "Ġconsented": 11297,
    "Ġscarcity": 23830,
    "Ġdrawing": 3916,
    "zeal": 16276,
    "ruined": 18338,
    "bedroom": 14701,
    "Ġirksome": 13115,
    "Ġflickering": 23019,
    "change": 6392,
    "hearse": 17750,
    "cellar": 20280,
    "Ç": 136,
    "Ġenticements": 26034,
    "Ġevenness": 22839,
    "certainly": 5340,
    "acled": 16087,
    "Ġstructural": 2795,
    "Ġlabor": 10420,
    "Ġprediction": 2212,
    "Ġbusiness": 2235,
    "pinn": 21028,
    "Ġbow": 3058,
    "riv": 3106,
    "uneven": 23684,
    "Ġbo": 795,
    "Ġtremulous": 14989,
    "Ġinsists": 23677,
    "Ġvortex": 26210,
    "raved": 18015,
    "Ġpurport": 14583,
    "ishment": 3503,
    "Ġoutwardly": 25001,
    "Ġeccentric": 13652,
    "Ġcountry": 2532,
    "Ġunobstructed": 18265,
    "iarity": 8747,
    "Ġdesperately": 24657,
    "halfway": 24313,
    "trans": 5594,
    "retirement": 23145,
    "encoura": 15051,
    "answer": 11736,
    "Ġchose": 7412,
    "Ġconveniently": 20082,
    "tolerably": 21098,
    "Ġpopularly": 12246,
    "fts": 18695,
    "wishing": 21131,
    "infall": 21191,
    "specimen": 26607,
    "Ġvoid": 14089,
    "powder": 17647,
    "fur": 6356,
    "erne": 21272,
    "Ġsill": 10767,
    "Ġvanish": 8931,
    "Ġash": 4833,
    "Ġdiana": 21439,
    "conclusive": 25674,
    "open": 7026,
    "henomenon": 13617,
    "Ġdears": 18139,
    "anesc": 21363,
    "Ġspind": 18308,
    "Ġbru": 13897,
    "Ġbrahma": 26321,
    "Ġstrategy": 2368,
    "Ġineffectual": 17387,
    "Ġcrushing": 20179,
    "Ġnarration": 13506,
    "will": 1968,
    "irting": 11689,
    "warrant": 21140,
    "Ġride": 12763,
    "keepers": 16662,
    "Ġindependently": 4245,
    "ingu": 2120,
    "ufactured": 15185,
    "rally": 17653,
    "evid": 11487,
    "moonlight": 25376,
    "Ġpestilent": 25778,
    "immediately": 10052,
    "Ġfrowning": 13626,
    "behaved": 24463,
    "Ġspeakest": 23487,
    "Ġwalked": 3137,
    "racting": 10358,
    "Ġfing": 3758,
    "strong": 6323,
    "Ġinstrum": 6055,
    "Ġoppressed": 11191,
    "heaved": 21213,
    "Ġdispose": 23882,
    "jackets": 24896,
    "Ġmitigating": 1617,
    "Ġcedar": 15192,
    "Ġauger": 21206,
    "Ġrattler": 24998,
    "Ġdish": 6137,
    "isite": 15568,
    "Ġmapple": 11152,
    "favourite": 15147,
    "pher": 11514,
    "Ġremonstrate": 22797,
    "Ġconcoct": 19046,
    "intellect": 18824,
    "Ġdaintiest": 25954,
    "enterprise": 24995,
    "ĠĠĠĠĠĠ": 6414,
    "ms": 538,
    "Ġdecency": 18484,
    "Ġenters": 11026,
    "Ġaux": 21202,
    "Ġscowl": 22289,
    "condem": 16348,
    "Ġyes": 2687,
    "hung": 8381,
    "spersed": 22737,
    "fem": 17539,
    "Ġcore": 13880,
    "Ġrending": 19470,
    "Ġcarpet": 9360,
    "rom": 420,
    "Ġtransf": 22441,
    "Ġtigers": 25759,
    "Ġsecondly": 14520,
    "Ġencouragement": 13046,
    "Ġinquirers": 24965,
    "anchor": 13891,
    "ile": 521,
    "Ġcounsel": 13618,
    "Ġdestitute": 14568,
    "Ġsmote": 18575,
    "Ġintrig": 21994,
    "Ġjesty": 18406,
    "disposition": 10045,
    "Ġsolely": 9913,
    "Ġgames": 11629,
    "Ġspotted": 12143,
    "lement": 10169,
    "Ġcuts": 14610,
    "Ġnarrating": 24351,
    "Ġclock": 9536,
    "Ġsufficiently": 8976,
    "safie": 20351,
    "rie": 2784,
    "owders": 18050,
    "embedding": 20360,
    "andes": 18154,
    "rut": 8092,
    "Ġunharmed": 15143,
    "Ġirre": 7467,
    "Ġdirest": 22708,
    "Ġpack": 5444,
    "aders": 21762,
    "Ġunidirectional": 3423,
    "Ġheinous": 18041,
    "Ġ48": 24084,
    "Ġadmirers": 19689,
    "Ġcorrob": 16269,
    "oss": 10118,
    "Ġ98": 24594,
    "Ġappend": 18361,
    "ce": 313,
    "Ġtink": 9152,
    "Ġcrawl": 11377,
    "Ġintrusion": 12770,
    "offic": 7465,
    "Ġdawned": 14997,
    "Ġpreprocess": 22237,
    "affrail": 11207,
    "Ė": 215,
    "Ġwines": 21290,
    "Ġinert": 15627,
    "Ġhow": 599,
    "Ġmaddened": 17246,
    "Ġfright": 3797,
    "training": 2516,
    "Ġcontingency": 26246,
    "Ġball": 3622,
    "Ġmatch": 4527,
    "Ġaverred": 18866,
    "Ġposted": 16726,
    "suit": 18632,
    "Ġsingle": 1695,
    "Ġindiam": 22956,
    "Ġcommended": 18657,
    "Ġtun": 5999,
    "Ġlima": 10444,
    "Ġmoonshine": 19600,
    "Ġsag": 6514,
    "Ġtowns": 11175,
    "Ġbirds": 5874,
    "legra": 10791,
    "dishonourable": 26367,
    "Ġnation": 12652,
    "dress": 17522,
    "ingolstadt": 21306,
    "Ġstab": 10864,
    "fishing": 20861,
    "Ġregain": 22590,
    "Ġglided": 7446,
    "Ġaloft": 4301,
    "Ġunpleasant": 7190,
    "Ġtall": 4037,
    "valued": 2850,
    "nial": 20986,
    "Ġremorselessly": 16969,
    "Ġdisplaying": 16968,
    "Ġfumes": 21421,
    "Ġheed": 5630,
    "malice": 17605,
    "Ġroads": 13292,
    "Ġostent": 13587,
    "rifle": 21049,
    "famous": 16918,
    "Ġemigrant": 25860,
    "Ġfiddle": 25445,
    "Ġsweetly": 23922,
    "beaten": 20318,
    "Ġthank": 3792,
    "Ġreplying": 19584,
    "i": 77,
    "Ġreappearance": 21670,
    "Ġsupers": 18278,
    "à": 161,
    "Ġdoubt": 2225,
    "despicable": 24638,
    "Ġpane": 21466,
    "Ġand": 295,
    "teak": 22820,
    "Ġsaville": 15894,
    "heart": 4524,
    "Ġfiles": 21416,
    "Ġtort": 5902,
    "Ġnormal": 1204,
    "activity": 22633,
    "ras": 21039,
    "âĢľ": 344,
    "Ġturnkeys": 23032,
    "Ġrashness": 25461,
    "questions": 16762,
    "Ġsucking": 12790,
    "Ġthickening": 24030,
    "Ġenthusiastic": 19969,
    "Ġinfinity": 23285,
    "Ġmouse": 4693,
    "Ġdistracted": 11806,
    "Ġelimin": 16113,
    "coarse": 16490,
    "boy": 4737,
    "Ġpatted": 16364,
    "discoloured": 23500,
    "Ġmam": 8406,
    "humoured": 11238,
    "Ġshrew": 22004,
    "Ġunderground": 18986,
    "vative": 1624,
    "representing": 25272,
    "character": 6332,
    "Ġsuspicion": 6212,
    "Ġthrone": 12218,
    "Ġannesley": 19580,
    "igations": 18045,
    "Ġconscientious": 16729,
    "Ġassailants": 20452,
    "Ġhampshire": 15246,
    "Ġabuse": 18393,
    "keeping": 8638,
    "Ġran": 3342,
    "Ġspecksnyder": 17406,
    "Ġdataset": 12824,
    "Ġcanst": 8861,
    "odes": 18122,
    "Ġvigil": 9510,
    "Ġheard": 1399,
    "Ġmaketh": 15191,
    "rods": 21541,
    "Ġbus": 1906,
    "Ġcriminals": 19924,
    "fatigue": 20660,
    "unk": 4537,
    "nails": 17616,
    "gather": 20877,
    "bodily": 17318,
    "Ġscan": 22283,
    "Ġclamped": 18426,
    "Ġhereabouts": 12982,
    "ensions": 14261,
    "Ġupp": 13994,
    "fired": 20862,
    "hetically": 21211,
    "ose": 718,
    "Ġmeaning": 1414,
    "Ġexpected": 3699,
    "outs": 7009,
    "Ġmeryton": 4437,
    "Ġmiraculous": 13550,
    "Ġ&": 6513,
    "moved": 9787,
    "ĠĠĠĠĠĠĠĠĠĠĠĠĠĠĠĠĠĠĠĠĠĠĠĠĠĠĠĠĠĠĠĠĠĠĠ": 19260,
    "Ġ47": 14774,
    "ashing": 4825,
    "rum": 3467,
    "Ġhumiliation": 16203,
    "Ġcompares": 20169,
    "indifference": 15987,
    "oved": 5215,
    "Ġtattooings": 24901,
    "Ġval": 959,
    "beg": 22491,
    "Ġpoky": 21482,
    "Ġmiracle": 15097,
    "wig": 17706,
    "Ġunexampled": 20363,
    "terbury": 21828,
    "ama": 11680,
    "Ġseeing": 2884,
    "Ġwint": 15537,
    "Ġspots": 11733,
    "ots": 3293,
    "dance": 17521,
    "Ġethere": 23954,
    "Ġsped": 22129,
    "mal": 6794,
    "Ġforeshad": 23454,
    "Ġjournal": 15222,
    "abouts": 9456,
    "canst": 22964,
    "sailing": 14717,
    "Ġarrive": 6906,
    "par": 1852,
    "verbally": 25361,
    "Ġpreliminary": 10060,
    "Ġmaw": 15545,
    "ĥ": 230,
    "Ġgradient": 449,
    "spade": 10342,
    "Ġresource": 10995,
    "Ġmanipulation": 10661,
    "alone": 10186,
    "Ġspaces": 3109,
    "Ġmister": 22758,
    "itate": 6669,
    "Ġincognita": 26553,
    "fates": 20860,
    "Ġhurriedly": 11250,
    "Ġoverlapping": 26240,
    "renched": 7907,
    "Ġsitt": 21220,
    "urpation": 16305,
    "Ġarchitects": 18742,
    "cowardly": 25750,
    "Ġdelightfully": 13161,
    "Ġcoop": 14273,
    "bewil": 22502,
    "Ġwhispers": 14703,
    "Ġmischie": 22763,
    "unwittingly": 25802,
    "Ġvariance": 1168,
    "world": 5057,
    "sne": 10127,
    "becoming": 18517,
    "Ġcaw": 13885,
    "Ġpin": 7161,
    "Ġincreased": 2214,
    "Ġperish": 8878,
    "Ġl": 303,
    "Ġdistillation": 16048,
    "ignant": 11131,
    "Ġrandom": 1588,
    "Ġapproaching": 6284,
    "Ġlandlord": 5581,
    "Ġaspect": 3093,
    "Ġbeaches": 18087,
    "Ġacknowledgment": 16959,
    "Ġteacup": 16213,
    "Ġbushes": 16405,
    "ante": 11725,
    "Ġforeshadowing": 26594,
    "Ġcoat": 4552,
    "Ġmill": 6668,
    "ologist": 22872,
    "Ġhead": 1124,
    "Ġgregarious": 18966,
    "wag": 21126,
    "Ġtol": 6676,
    "Ġopp": 2695,
    "Ġsoul": 2723,
    "Ġglowed": 24865,
    "Ġcanted": 17833,
    "Ġwalker": 23314,
    "uble": 21105,
    "commun": 15036,
    "Ġlady": 1587,
    "aternity": 21268,
    "Ġjollies": 20373,
    "Ġreligious": 25124,
    "Ġanomaly": 25637,
    "Ġblind": 3718,
    "Ġpursuers": 13230,
    "minutely": 19596,
    "adders": 24400,
    "Ġcurved": 18847,
    "che": 3169,
    "Ġchoosing": 19593,
    "gunpowder": 25340,
    "stiff": 12680,
    "Ġlowers": 23245,
    "Ġwhistle": 9069,
    "ique": 8746,
    "fully": 2204,
    "Ġdiadem": 24740,
    "Ġphren": 8574,
    "untary": 9870,
    "Ġproviding": 1360,
    "Ġbland": 11066,
    "800": 17479,
    "deception": 22149,
    "Ġdrag": 6185,
    "Ġ119": 24441,
    "Ġconsolidation": 5060,
    "Ġindies": 22954,
    "Ġconstruction": 9390,
    "Ġstable": 2697,
    "Ġabhor": 5467,
    "rents": 5310,
    "Ġlink": 8130,
    "impatiently": 20474,
    "Ġrecommendation": 17027,
    "Ġwarmth": 6904,
    "Ġsmilingly": 22564,
    "Ġtravels": 11931,
    "Ġcherish": 10592,
    "Ġsepulchral": 25893,
    "Ġdeafened": 25652,
    "Ġgr": 978,
    "Ġimputation": 22176,
    "accept": 8901,
    "looked": 6083,
    "earliest": 20123,
    "shame": 16029,
    "Ġalow": 18102,
    "Ġmizzen": 20292,
    "af": 2376,
    "fixedly": 24930,
    "Ġdante": 21441,
    "Ġstalk": 12702,
    "Ġirresistible": 13116,
    "Ġsufferable": 16262,
    "ī": 236,
    "number": 10117,
    "Ġreckoned": 24743,
    "od": 352,
    "Ġlodger": 24096,
    "Ġpartaking": 22700,
    "ivil": 6411,
    "uger": 21106,
    "Ġswimming": 5507,
    "Ġsickening": 19607,
    "ĠlinnÃ¦us": 15278,
    "miraculous": 26398,
    "Ġshake": 6034,
    "Ġvales": 21950,
    "ank": 1364,
    "times": 8099,
    "although": 8810,
    "Ġiterate": 13204,
    "ondescript": 22919,
    "tram": 19646,
    "Ġbored": 16110,
    "aved": 5475,
    "prospect": 23399,
    "Ġhungry": 10535,
    "topp": 22569,
    "arts": 6564,
    "Ġland": 1996,
    "rapt": 13975,
    "ury": 3311,
    "mag": 6508,
    "Ġimpute": 18332,
    "ted": 791,
    "Ġfaintly": 14918,
    "Ġidentical": 10436,
    "Ġstiffest": 24827,
    "enthusiastic": 20695,
    "rope": 3183,
    "Ġagatha": 6865,
    "Ġgable": 15672,
    "84": 15305,
    "rints": 12507,
    "ushes": 22295,
    "Ġpeculiarly": 8287,
    "arthly": 8030,
    "Ġprofited": 19193,
    "rences": 9276,
    "angular": 11727,
    "ordinary": 4406,
    "Ġimbedded": 18333,
    "itself": 7834,
    "Ġemergency": 25731,
    "Ġwishing": 7830,
    "Ġexpiration": 22626,
    "Ġgentle": 1891,
    "evinced": 19928,
    "splice": 17173,
    "domestic": 19828,
    "Ġknowingly": 18481,
    "culous": 11143,
    "Ġcombining": 22855,
    "Ġshaft": 18230,
    "ċ": 204,
    "stalk": 21653,
    "which": 1712,
    "Ġmanner": 2198,
    "revolver": 25628,
    "Ġfilthy": 13252,
    "gro": 10097,
    "Ġspear": 9318,
    "culine": 19067,
    "stars": 18022,
    "sticking": 21663,
    "ancient": 9658,
    "Ġmaybe": 12954,
    "Ġtruest": 16702,
    "Ġmonarch": 14419,
    "Ġcatherine": 2810,
    "Ġexpired": 18622,
    "Ġdelivery": 18977,
    "Ġvent": 3997,
    "Ġflirting": 16255,
    "Ġcomposition": 1690,
    "Ġunsuccessful": 18258,
    "mblies": 24609,
    "!âĢĻâĢĿ": 16594,
    "pleasure": 5978,
    "vial": 17699,
    "gast": 20873,
    "Ġgarden": 3824,
    "Ġstriking": 6088,
    "Ġfacility": 19852,
    "surprising": 16921,
    "Ġmonsieur": 12425,
    "Ġpersecutor": 26097,
    "Ġtherefore": 2241,
    "unken": 10239,
    "Ġdefine": 9818,
    "iers": 5991,
    "Ġirresolute": 24917,
    "Ġtogether": 1879,
    "Ġarctic": 12816,
    "entirely": 7781,
    "Ġinner": 9673,
    "turning": 8317,
    "Ġhaunt": 18198,
    "anche": 10790,
    "utterly": 20015,
    "Ġmood": 6277,
    "Ġsecond": 1882,
    "Ġlivelong": 25512,
    "hastily": 19705,
    "Ġavalanche": 17436,
    "arris": 13212,
    "weeks": 14319,
    "Ġtreacherously": 25132,
    "Ġhabitation": 14805,
    "Ġprodigiously": 14935,
    "Ġreferred": 8920,
    "Ġdeclaration": 16639,
    "circ": 4386,
    "Ġhonorable": 16878,
    "enit": 17781,
    "Ġeddies": 25089,
    "inqu": 6122,
    "Ġrelationship": 2316,
    "Ġconsulted": 13433,
    "Ġsluggish": 25891,
    "Ġcooked": 13273,
    "Ġhoops": 9393,
    "esu": 17903,
    "Ġours": 4610,
    "Ġpeevish": 26559,
    "kerchief": 7525,
    "Ġfabric": 25948,
    "Ġaltern": 7393,
    "Ġclutch": 15056,
    "Ġnapkins": 25165,
    "Ġsanguine": 25929,
    "aper": 4998,
    "conc": 3948,
    "Ġwhiskers": 10495,
    "yond": 2330,
    "Ġunche": 23432,
    "flung": 16641,
    "Ġconstable": 19070,
    "Ġactions": 6279,
    "Ġsins": 13839,
    "passion": 11262,
    "ifford": 15789,
    "moving": 11018,
    "thirty": 12767,
    "Ġdecision": 2674,
    "Ġcomstock": 21862,
    "Ġdeceitfulness": 25734,
    "Ġimmeas": 18331,
    "Ġactually": 5389,
    "Ġpreach": 14175,
    "ban": 9587,
    "Ġfortune": 4239,
    "cham": 10855,
    "eral": 9163,
    "e": 73,
    "blasted": 20192,
    "Ġconsiderably": 7714,
    "accents": 19213,
    "Ġtemporary": 7981,
    "_:": 17481,
    "Ġcurvature": 3571,
    "Ġrejoined": 14930,
    "Ġreveren": 13200,
    "Ġtarpaul": 17732,
    "Ġtranquo": 14846,
    "!âĢĿ": 847,
    "Ġsupplication": 25492,
    "Ġlegal": 10441,
    "Ġlieu": 19567,
    "rimin": 2422,
    "Ĕ": 213,
    "Ġinhabit": 5782,
    "Ġnice": 6677,
    "aning": 2256,
    "Ġindependence": 12109,
    "Ġeverlasting": 9341,
    "Ġjer": 6267,
    "Ġkiss": 8183,
    "cong": 10691,
    "Ġdocumentation": 20557,
    "Ġsentiment": 6589,
    "Ġrear": 6536,
    "Ġorlop": 22097,
    "Ġon": 350,
    "Ġbias": 1190,
    "Ġpaddled": 20204,
    "itters": 10783,
    "Ġarg": 4765,
    "Ġobservation": 6598,
    "adow": 18090,
    "congratulations": 20282,
    "perils": 22191,
    "Ġcosmetic": 23473,
    "Ġcapital": 7980,
    "Ġpolitical": 19225,
    "ogne": 12945,
    "Ġkuiperai": 10937,
    "mar": 4333,
    "Ġqu": 605,
    "Ġleaves": 5020,
    "Ġboarders": 16602,
    "Ġantagonist": 26330,
    "Ġvessel": 3799,
    "assin": 22309,
    "Ġrighteous": 18948,
    "onial": 11569,
    "robber": 21540,
    "deliver": 19507,
    "Ġfra": 1848,
    "Ġunpleasing": 22059,
    "Ġconcerns": 11972,
    "Ġgeneva": 5450,
    "echo": 15352,
    "Ġbanish": 15575,
    "kily": 20939,
    "Ġreptile": 15280,
    "Ġendued": 14080,
    "beside": 19879,
    "Ġprimary": 25063,
    "ization": 489,
    "romised": 14115,
    "Ġpeople": 2543,
    "Ġabout": 633,
    "ĠĠĠĠĠĠĠĠĠĠĠĠĠĠĠĠĠĠĠĠĠĠĠĠĠĠĠĠĠ": 19702,
    "Ġlikeness": 11181,
    "ver": 331,
    "Ġporing": 21470,
    "gins": 12473,
    "Ġwaggish": 25435,
    "Ġineffable": 17335,
    "Ġabreast": 18395,
    "Ġsultan": 15188,
    "Ġdarling": 12609,
    "Ġdespised": 14669,
    "Ġicy": 10749,
    "Ġchall": 10946,
    "otions": 7180,
    "advantages": 11273,
    "Ġebony": 18011,
    "quickly": 14965,
    "ancy": 4391,
    "ara": 12611,
    "eman": 5636,
    "dissatisf": 26130,
    "among": 6257,
    "Ġstripped": 10466,
    "Ġretreat": 6070,
    "Ġsurround": 4615,
    "inav": 15487,
    "Ġsomnambul": 26578,
    "Ă": 195,
    "ishly": 14202,
    "Ġbush": 23340,
    "Ġpreternatural": 12828,
    "magnifying": 25393,
    "Ġultimate": 12354,
    "ev": 6951,
    "Ġinsular": 19270,
    "Ġencoder": 3634,
    "Ġseedy": 21959,
    "Ġexpose": 10330,
    "dra": 3412,
    "Ġcauldron": 25442,
    "Ġmasks": 23331,
    "Ġmotions": 8281,
    "Ġdemoniacal": 20559,
    "Ġ83": 24459,
    "actor": 11840,
    "admitted": 18094,
    "distance": 12157,
    "riend": 1185,
    "Ġniag": 21533,
    "Ġlottery": 19890,
    "Ġruns": 8599,
    "riot": 18184,
    "clergy": 18936,
    "Ġcoiled": 11824,
    "Ġanteced": 26178,
    "bene": 6113,
    "Ġjamming": 17267,
    "Ġspe": 822,
    "Ġaut": 1796,
    "drive": 8686,
    "ouraged": 22865,
    "Ġsurpassing": 20471,
    "Ġdelightful": 6321,
    "embers": 21933,
    "Ġpolar": 9415,
    "Ġworking": 5574,
    "blending": 24130,
    "Ġunman": 12779,
    "https": 11688,
    "Ġdeb": 4763,
    "awe": 20767,
    "itious": 8784,
    "vii": 13151,
    "roofed": 26185,
    "Ġhouses": 6139,
    "Ġdetailed": 12829,
    "Ġ78": 19616,
    "Ġtet": 21160,
    "Ġfirmly": 8014,
    "Ġvacancies": 24345,
    "Ġate": 8844,
    "taken": 7560,
    "Ġroar": 9755,
    "Ġpals": 13920,
    "ĠĠĠĠĠĠĠĠĠĠĠĠĠĠĠĠĠĠĠĠĠĠĠĠĠĠĠĠĠĠĠĠĠĠĠĠĠĠĠĠĠĠĠĠĠĠĠĠĠĠĠ": 20042,
    "lections": 4751,
    "Ġcynical": 25771,
    "Ġmeadows": 11424,
    "kindness": 10508,
    "Ġchimney": 6497,
    "ideas": 18582,
    "Ġflushed": 13031,
    "Ġentertainment": 12227,
    "Ġreasoner": 14441,
    "Ġcrate": 19121,
    "shudder": 26247,
    "ren": 549,
    "erting": 17779,
    "Ġopenshaw": 7955,
    "neurons": 3132,
    "Ġimpelled": 11786,
    "Ġvertebra": 20184,
    "Ġintent": 6409,
    "Ġblushed": 13006,
    "Ġtaller": 16689,
    "Ġcyp": 21348,
    "Ġtickled": 20060,
    "inating": 9157,
    "Ġplun": 6282,
    "Ġexecution": 6926,
    "Ġprofusion": 23570,
    "Õ": 150,
    "Ġxxi": 24476,
    "7": 27,
    "address": 14884,
    "ineff": 21984,
    "ocity": 8278,
    "Ġmaelstrom": 19359,
    "icable": 6388,
    "Ġmentioned": 4327,
    "Ġpled": 17909,
    "Ġbro": 1428,
    "Ġimpulsive": 19966,
    "mblance": 7322,
    "atigable": 15273,
    "ream": 2707,
    "ĠâĢľâĢĺ": 8505,
    "Ġbarrow": 12074,
    "Ġdimly": 9491,
    "Ġgoring": 21607,
    "Ġrecommence": 16814,
    "Ġiteratively": 3055,
    "communication": 25881,
    "Ġchronicle": 20231,
    "Ġrevol": 5537,
    "Ġperseus": 10606,
    "anger": 2171,
    "near": 5843,
    "Ġstop": 2500,
    "buttoned": 13635,
    "Ġpuzzled": 7316,
    "stepfather": 19192,
    "Ġdaniel": 15115,
    "ales": 3316,
    "nings": 9135,
    "Ġpron": 6451,
    "Ġyellow": 5302,
    "Ġhumble": 8553,
    "ppo": 18178,
    "Ġpointed": 4772,
    "ans": 458,
    "ado": 11661,
    "Ġratt": 7881,
    "terrors": 25044,
    "olerably": 11676,
    "Ġenglishman": 11231,
    "Ġdon": 1614,
    "Ġundisturbed": 19522,
    "Ġremo": 3786,
    "Ġderivative": 2997,
    "Ġperfume": 25666,
    "Ġknock": 9976,
    "Ġetext": 23953,
    "Ġ199": 3006,
    "Ġhos": 4941,
    "Ġeag": 2965,
    "assured": 10954,
    "france": 24284,
    "Ġbells": 19604,
    "/`)": 13663,
    "Ġvow": 10249,
    "each": 7334,
    "Ġweighing": 20019,
    "Ġlevers": 18080,
    "Ġstrictly": 12289,
    "Ġoverhung": 15980,
    "Ġwafted": 14501,
    "swe": 5996,
    "Ġhun": 1497,
    "urean": 18125,
    "Ġcoronet": 6345,
    "barrels": 15044,
    "Ġenv": 2858,
    "Ġpermission": 9283,
    "Ġlumps": 21559,
    "Ġreusable": 13560,
    "Ġgangway": 20161,
    "Ġnonce": 23236,
    "Ġjavelins": 26106,
    "Ġwrath": 16320,
    "bow": 5424,
    "Ġprudential": 17922,
    "Ġassaults": 15160,
    "ker": 5792,
    "ascal": 10195,
    "Ġper": 590,
    "stained": 21658,
    "Ġunreserved": 19400,
    "uation": 17696,
    "Ġreader": 11938,
    "Ġarrived": 3748,
    "Ġavocation": 23956,
    "Ġp": 289,
    "Ġbanker": 8670,
    "ful": 661,
    "aid": 1922,
    "roded": 17958,
    "prick": 19346,
    "Ġgills": 17995,
    "Ġgaff": 17996,
    "Ġencirc": 18734,
    "regards": 23468,
    "Ġflooded": 24962,
    "emotions": 15802,
    "Ġcreditors": 20133,
    "Ġunsolved": 22037,
    "Ġbachel": 7158,
    "Ġnowhere": 12891,
    "about": 3584,
    "tha": 15828,
    "Ġlurking": 11291,
    "Ġcorpore": 13404,
    "Ġuniformity": 23485,
    "Ġcrown": 5289,
    "Ġpand": 21458,
    "Ġmelbourne": 24291,
    "Ġtombed": 25164,
    "repe": 8780,
    "Ġcellar": 8059,
    "Ġalluded": 7885,
    "Ġdefection": 22945,
    "arched": 10817,
    "iss": 2176,
    "Ġcorn": 9354,
    "Ġthundering": 24293,
    "Ġsequ": 982,
    "analysis": 26174,
    "Ġdumb": 7843,
    "baned": 17498,
    "Ġunconscious": 9550,
    "night": 2167,
    "Ġman": 544,
    "Ġnorris": 23207,
    "Ġsteadfastly": 10654,
    "Ġmess": 7831,
    "_).": 5887,
    "wife": 8101,
    "Ġglittering": 10056,
    "Ġretreated": 13436,
    "Ġexord": 21832,
    "Ġfluid": 11214,
    "Ġtiger": 11557,
    "Ġsafie": 6619,
    "Ġhelped": 7458,
    "crippled": 26386,
    "six": 7142,
    "Ġ60": 14878,
    "Ġrelatives": 12986,
    "Ġemblazonings": 26044,
    "Ġdragg": 23220,
    "rollable": 13947,
    "ios": 2193,
    "omuch": 21643,
    "Ġgenerator": 3381,
    "Ġvacuous": 24344,
    "ingley": 1545,
    "loath": 22513,
    "Ġaffecting": 2324,
    "Ġgrizz": 10354,
    "Ġbushy": 16406,
    "ix": 1800,
    "speak": 5504,
    "Ġresolution": 5500,
    "Ġregularly": 7659,
    "Ġconsoling": 19461,
    "for": 973,
    "ľ": 255,
    "Ġdamp": 8264,
    "Ġoblong": 14324,
    "Ġdisconsolate": 20721,
    "bushes": 24447,
    "Ġostentatiously": 20472,
    "Ġdisgusted": 14993,
    "Ġinhuman": 13931,
    "Ġbend": 9174,
    "bacc": 7794,
    "Ġunimag": 12780,
    "irium": 8162,
    "Ġinsinuating": 19273,
    "Ķ": 247,
    "Ġbuckets": 17035,
    "Ġcocoa": 25483,
    "Ġabstraction": 26541,
    "ackinaw": 22425,
    "Ġelemental": 19921,
    "Ġinstigated": 18697,
    "Ġselects": 4383,
    "ize": 762,
    "Ġconcentrate": 25066,
    "Ġabruptly": 15154,
    "Ġordering": 18998,
    "Ġapprehending": 26092,
    "others": 7670,
    "Ġmumbled": 17809,
    "Ġcurrent": 13015,
    "Ġrainbows": 19651,
    "Ġiron": 3234,
    "Ġnewspapers": 17189,
    "Ġdrawer": 13270,
    "Ġare": 527,
    "im": 327,
    "fain": 13717,
    "Ġopinions": 9419,
    "##": 2317,
    "stall": 21649,
    "Ġowen": 15098,
    "Ġ19": 6720,
    "pale": 13773,
    "lengthwise": 19953,
    "Ġattitude": 8910,
    "acute": 22601,
    "Ġindirectly": 8942,
    "lost": 8891,
    "antages": 7191,
    "Ġcountrymen": 23597,
    "ous": 477,
    "calculation": 25689,
    "Ġrobberies": 23007,
    "Ġmors": 17803,
    "Ġting": 8399,
    "dled": 9115,
    "Ġpoem": 22592,
    "Ġinequal": 21500,
    "Ġartful": 22613,
    "rug": 18337,
    "Ġexcuses": 19043,
    "oug": 431,
    "Ġforbearing": 25101,
    "Ġafresh": 18627,
    "ļ": 253,
    "Ġerr": 1321,
    "Ġcurves": 18846,
    "Ġsorting": 3232,
    "Ġwouldst": 18500,
    "control": 16546,
    "Ġdexterously": 25296,
    "Ġfaced": 10810,
    "Ġfortunately": 12184,
    "chor": 6147,
    "arks": 2842,
    "Ġliquid": 22413,
    "Ġoriental": 9101,
    "Ġsmoke": 4714,
    "Ġfoul": 7159,
    "Ġcover": 3555,
    "Ġcoer": 22582,
    "Ġgnashed": 20136,
    "fer": 1931,
    "Ġfling": 9663,
    "Ġreserve": 9974,
    "piece": 6657,
    "Ġplatform": 17134,
    "Ġoutline": 15959,
    "Ġassur": 6074,
    "Ġmagnifying": 16324,
    "Ġdarker": 13123,
    "Ġovers": 14208,
    "Ġgenial": 12199,
    "remain": 9841,
    "Ġflapp": 23013,
    "Ġgrievances": 20650,
    "star": 12677,
    "Ġveritable": 19384,
    "pton": 15799,
    "mixed": 17607,
    "iety": 2815,
    "Ġbeat": 4490,
    "hement": 13834,
    "bildad": 9589,
    "Ġbuoy": 8004,
    "pyramid": 21032,
    "bits": 17491,
    "Ġunsocial": 18257,
    "charge": 9452,
    "affording": 23778,
    "irect": 5553,
    "Ġmealy": 18121,
    "anders": 18155,
    "beloved": 19464,
    "Ġugl": 12687,
    "Ġpacing": 8427,
    "Ġtemptations": 24508,
    "ceed": 1080,
    "imperturbable": 25791,
    "Ġfreely": 7057,
    "Ġparametric": 2396,
    "ansion": 10927,
    "Ġvenerable": 9098,
    "liable": 3817,
    "Ġbackstays": 22654,
    "Ġmile": 7151,
    "Ġchase": 3946,
    "Ġterm": 2269,
    "Ġkilled": 4954,
    "trees": 10733,
    "opposing": 24822,
    "hunter": 10558,
    "Ġridge": 14821,
    "Ġrecourse": 22747,
    "Ġconver": 807,
    "Ġlocked": 6035,
    "Ġimpossible": 3541,
    "ushing": 5731,
    "lakeman": 13753,
    "mens": 20971,
    "ilib": 4117,
    "Ġsodden": 25536,
    "á": 162,
    "circle": 16738,
    "Ġwidespread": 20678,
    "shaw": 6863,
    "Ġassociate": 13453,
    "bes": 6643,
    "quid": 18148,
    "Ġsubdivisions": 26038,
    "Ġsets": 8778,
    "Ġswings": 11088,
    "Ġdepends": 1073,
    "Ġdad": 12605,
    "insult": 16283,
    "Ġhypothe": 4073,
    "Ġslee": 8977,
    "Ġmisanthrop": 22762,
    "Ġgenerative": 5644,
    "impregn": 21717,
    "itching": 21338,
    "Ġinmates": 15628,
    "combination": 25486,
    "Ġ118": 19701,
    "Ġhatred": 8612,
    "lege": 17843,
    "Ġsevered": 18204,
    "Ġconfusing": 23311,
    "Ġgord": 21603,
    "city": 15330,
    "Ġprev": 6265,
    "desp": 6093,
    "hatred": 24818,
    "ester": 11601,
    "Ġstreams": 12197,
    "Ġslain": 8956,
    "Ġinfidel": 13091,
    "Ġ96": 24593,
    "grew": 17557,
    "Ġbrightened": 23832,
    "Ġopulent": 23630,
    "Ġexamined": 6335,
    "scorn": 22994,
    "Ġowned": 11880,
    "Ġcalls": 6745,
    "arth": 4442,
    "hurrying": 14986,
    "obscure": 23101,
    "ters": 1574,
    "Ġpedestrian": 25884,
    "Ġunreliable": 3928,
    "block": 11472,
    "Ġperemptory": 25741,
    "histicated": 20903,
    "repugnance": 16866,
    "Ġescaped": 6459,
    "Ġanticipatingly": 26103,
    "Ġmoonlight": 9961,
    "law": 6116,
    "Ġass": 1504,
    "arding": 22161,
    "Ġtrained": 8504,
    "msgate": 18412,
    "V": 58,
    "exceedingly": 9569,
    "Ġaccents": 14213,
    "Ġhuggins": 24826,
    "lue": 8510,
    "larking": 17596,
    "shut": 10983,
    "ris": 9141,
    "requent": 3649,
    "next": 5892,
    "Ġdisenc": 22530,
    "Ġcirclings": 26433,
    "irmed": 9243,
    "Ġlabel": 14518,
    "uvier": 9072,
    "Ġinnoc": 3795,
    "rodu": 1819,
    "Ġdimmed": 24270,
    "otograph": 5827,
    "Ġuseless": 7038,
    "sig": 2873,
    "Ġtennessee": 26598,
    "Ġep": 7383,
    "Ġsnow": 3709,
    "injustice": 17739,
    "Ġreliably": 22883,
    "ouching": 13180,
    "inctions": 17734,
    "Ġresided": 11815,
    "Ġeloped": 22649,
    "ulence": 15771,
    "Ġregarding": 13213,
    "represented": 20198,
    "Ġintelligent": 1651,
    "cement": 3104,
    "Ġdetermined": 2224,
    "Ġcaves": 15559,
    "perch": 18342,
    "Ġalarming": 14784,
    "Ġpads": 21477,
    "waste": 21137,
    "Ġmal": 5221,
    "Ġabomination": 22282,
    "Ġcrocodile": 20742,
    "whence": 23219,
    "arn": 357,
    "Ġsustain": 10020,
    "Ġessential": 7523,
    "Ĺ": 250,
    "Ġapparel": 20439,
    "Ġdefici": 22946,
    "boat": 3361,
    "Ġaccompan": 5513,
    "Ġhusband": 3619,
    "Ġjudged": 12088,
    "Ġtroubles": 19443,
    "Ġbleached": 24396,
    "Ġ(`": 12857,
    "Ġoar": 6237,
    "Ġinsure": 13181,
    "Ġlawyers": 25249,
    "Ġexperiment": 11924,
    "Ġano": 11599,
    "Ġaside": 5234,
    "Ġarsacidean": 20368,
    "Ġaims": 15500,
    "raction": 8138,
    "Ġhoisted": 5960,
    "Ġmyster": 5926,
    "rew": 3648,
    "Ġends": 8238,
    "Ġblu": 2685,
    "stri": 6250,
    "build": 12192,
    "onted": 11570,
    "Ġlest": 6395,
    "xible": 13810,
    "laughed": 20284,
    "Ġhomage": 12360,
    "Ġshape": 5639,
    "Ġtorment": 8677,
    "hopeless": 16919,
    "shroud": 20315,
    "Ġpositional": 2595,
    "Ġmur": 2487,
    "Ġdependency": 3484,
    "ome": 535,
    "Ġhated": 7585,
    "imin": 1769,
    "arius": 14251,
    "augment": 18831,
    "Ġste": 1387,
    "represent": 9640,
    "Ġeuroc": 14962,
    "Ġfift": 6382,
    "y": 93,
    "Ġherd": 7888,
    "Ġcovers": 18593,
    "cary": 10693,
    "Ġstated": 9692,
    "Ġprone": 18971,
    "Ġlunging": 24992,
    "ww": 10739,
    "ison": 3071,
    "Ġbet": 1136,
    "Ġtiar": 21170,
    "Ġtreacher": 8608,
    "Ġoutriders": 26545,
    "Ġcape": 5146,
    "examine": 25478,
    "Ġsatisfy": 6910,
    "oided": 11511,
    "Ġregiment": 6432,
    "Ġsurgeon": 8984,
    "Ġadhes": 22107,
    "Ġswiftness": 9930,
    "itated": 4439,
    "Ġsurface": 5119,
    "isher": 2876,
    "Ġvital": 9247,
    "lings": 8749,
    "Ġrocked": 12858,
    "orange": 21403,
    "Ġpreserved": 9266,
    "turn": 4290,
    "ething": 1601,
    "Ġesteem": 7531,
    "Ġgentlemanly": 19318,
    "icing": 9204,
    "ior": 2039,
    "Ġconcentration": 25065,
    "Ġimmersed": 19488,
    "Ġjerking": 12250,
    "Ġintrude": 25991,
    "iciency": 9577,
    "Ġsyrian": 18355,
    "Ġairth": 23322,
    "Ġmar": 1312,
    "ac": 741,
    "Ú": 155,
    "Ġengineering": 3023,
    "determination": 19948,
    "gn": 8082,
    "Ġsuspect": 5758,
    "Ġquivered": 18468,
    "olstad": 7612,
    "us": 531,
    "Ġsuddenly": 2645,
    "venge": 4656,
    "Ġquohog": 10974,
    "Ġintellig": 526,
    "Ġcomo": 21858,
    "sp": 892,
    "confidence": 16810,
    "dry": 13706,
    "rad": 2153,
    "Ġgeological": 14535,
    "Ġwarrant": 17796,
    "pure": 17628,
    "Ġpol": 2575,
    "Ġfeminine": 15266,
    "Ġhealthy": 10853,
    "fav": 6648,
    "osc": 18388,
    "hawk": 7122,
    "Ġinsertion": 26345,
    "vicinity": 20483,
    "Ġbam": 15571,
    "Ġjones": 7203,
    "Ġblast": 7444,
    "Ġinterposed": 20622,
    "Ġlavenza": 17973,
    "orable": 8120,
    "define": 1525,
    "hid": 13736,
    "Ġhim": 476,
    "Ġbackwards": 12929,
    "Ġinstantaneously": 23659,
    "eler": 1573,
    "wide": 10140,
    "caroline": 24151,
    "Ġarist": 14162,
    "ording": 9767,
    "Ġmourn": 8707,
    "observed": 7675,
    "Ġformerly": 7493,
    "Ġactivity": 7920,
    "Ġargue": 16785,
    "tt": 13792,
    "zy": 2668,
    "han": 12477,
    "oton": 3605,
    "Ġexist": 9235,
    "Ġretort": 23074,
    "Ġcream": 22726,
    "Ġutmost": 5496,
    "Ġpredicts": 2592,
    "foreseen": 14256,
    "determined": 9083,
    "Ġunob": 22019,
    "solely": 19819,
    "indirectly": 18438,
    "silver": 19693,
    "Ġinvariably": 8064,
    "clay": 18933,
    "lucky": 24545,
    "Ġpitiless": 19391,
    "collar": 19330,
    "Ġvulgarity": 25364,
    "Ġassault": 9840,
    "unmistakable": 21899,
    "Ġperpetual": 12307,
    "Ġstreatham": 17452,
    "Ġignominy": 15089,
    "develop": 13520,
    "Ġvexed": 9997,
    "Ġjealous": 9471,
    "Ġprobability": 1126,
    "Ġriots": 23895,
    "Ġdespaired": 14671,
    "Ġanyone": 4458,
    "Ġsustaining": 25334,
    "Ġequilib": 4136,
    "Ġepistle": 24905,
    "poise": 6172,
    "majesty": 26282,
    "Ġworsted": 19998,
    "--âĢĺ": 22851,
    "Ġnarrower": 24354,
    "Ġornamented": 20365,
    "Ġburial": 16523,
    "Ġworm": 9166,
    "verse": 9691,
    "Ġrobbery": 11916,
    "instr": 12536,
    "Ġattain": 12752,
    "Ġmoul": 15549,
    "Ġcountries": 13100,
    "Ġproof": 6154,
    "Ġchag": 15936,
    "Ġlate": 3376,
    "Ġexposing": 11836,
    "Ġowning": 18746,
    "ignomin": 23269,
    "Ġwooing": 19437,
    "Ġpursu": 3239,
    "Ĝ": 221,
    "Ġwharf": 9562,
    "sight": 5995,
    "Ġconvince": 14644,
    "lights": 13208,
    "Ġimpious": 15991,
    "passing": 14814,
    "Ġlone": 11616,
    "Ġdivinely": 25723,
    "Ġshears": 18320,
    "trad": 21078,
    "Ġanchor": 7367,
    "Ġchestnuts": 24381,
    "Ġlifting": 10199,
    "Ġadroop": 26002,
    "Ġcurls": 22972,
    "Ġdiab": 10614,
    "Ġsavoury": 23880,
    "Ġtempor": 2366,
    "Ġtyrant": 24766,
    "Ġadmiration": 5329,
    "thinking": 9017,
    "Ġbarnacled": 25537,
    "Ġmaggie": 26293,
    "Ġalarmed": 6922,
    "bath": 13692,
    "Ġimperson": 14222,
    "baden": 25616,
    "Ġcalhoun": 23048,
    "Ġremain": 1874,
    "lanter": 15391,
    "Ġgrace": 5374,
    "Ġendeavor": 16548,
    "Ġchin": 4891,
    "puted": 8850,
    "aph": 10956,
    "disposed": 25013,
    "Ġparson": 6688,
    "roc": 9677,
    "Ġgrotes": 19566,
    "Ġaskance": 23153,
    "share": 14239,
    "Ġreb": 15696,
    "Ġbeneath": 3236,
    "Ġswandam": 11090,
    "Ġsurviv": 13438,
    "decor": 23781,
    "Ġdispel": 16598,
    "Ġtist": 21165,
    "Ġstating": 15727,
    "hateful": 20911,
    "Ġblazing": 11900,
    "Ġseconds": 16399,
    "resemblance": 25934,
    "Ġdepending": 14294,
    "Ġostrich": 26432,
    "Ġconversed": 13191,
    "arb": 1566,
    "Ġchoking": 15939,
    "insensibility": 23073,
    "erest": 10699,
    "Ġscalding": 16327,
    "Ġloath": 7891,
    "Ġmule": 13864,
    "Ġcounterbalance": 24721,
    "biscuit": 17503,
    "trunk": 23951,
    "contact": 23729,
    "Ġtrop": 7565,
    "Ġwilled": 21294,
    "Ġgallows": 12150,
    "Ġhon": 2537,
    "uer": 21103,
    "Ġcoarsely": 25830,
    "Ġuncivil": 11157,
    "prom": 6509,
    "Ġwhaleman": 4652,
    "Ġacceded": 22382,
    "aisance": 15078,
    "arers": 12134,
    "comm": 7438,
    "Ġoarsman": 8641,
    "whilst": 18372,
    "Ġfeedback": 23436,
    "illes": 12699,
    "Ġacting": 10993,
    "Ġbehooves": 20735,
    "Ġdeclining": 23967,
    "Ġedges": 3825,
    "laden": 14932,
    "Ġprinciple": 6770,
    "Ġirregularly": 25324,
    "mid": 5617,
    "Ġacutely": 14317,
    "gentlemen": 9507,
    "nearer": 22454,
    "distraction": 24203,
    "Ġunprofitable": 18268,
    "Ġunfold": 8022,
    "Ġhere": 1091,
    "Ġheroine": 24543,
    "Ġsuperstitions": 17073,
    "Ġpell": 21459,
    "iron": 3502,
    "Ġunwaning": 24830,
    "Ġneur": 815,
    "Ġjoints": 12039,
    "Ġduke": 7755,
    "Ġindicated": 10471,
    "Ġtahit": 10756,
    "Ġemploy": 3614,
    "warks": 5003,
    "independ": 15986,
    "miserable": 8660,
    "Ġpeddler": 26181,
    "commanders": 16991,
    "Ġscraped": 16905,
    "Ġmuslin": 19386,
    "ifted": 4493,
    "Ġear": 1421,
    "mingled": 14716,
    "Ġandrew": 21510,
    "iction": 4267,
    "Ġsixty": 7722,
    "Ġembatt": 18850,
    "Ġunfinished": 19512,
    "Ġfads": 21419,
    "icit": 3377,
    "Ġrallied": 14098,
    "Ġyojo": 7611,
    "Ġsteeple": 19290,
    "Ġextreme": 2514,
    "Ġsleepy": 8268,
    "vict": 11543,
    "reporting": 24494,
    "sole": 6169,
    "Ġnorthumbria": 24173,
    "Ġledger": 19405,
    "Ġostentatious": 25737,
    "Ġchoice": 2165,
    "Ġthoroughfare": 16946,
    "irection": 2388,
    "Ġisrael": 21807,
    "ifferent": 4261,
    "pier": 17637,
    "touched": 15443,
    "Ġuprising": 12807,
    "rit": 21038,
    "ower": 1015,
    "ê": 171,
    "Ġspur": 18304,
    "pulled": 25148,
    "Ġpatagon": 14500,
    "Ġgrinning": 9057,
    "cart": 10692,
    "Ġnapoleons": 25886,
    "Ġcotton": 17382,
    "sleepers": 24729,
    "Ġbackwater": 18640,
    "sec": 6153,
    "ay": 355,
    "Ġbra": 3255,
    "theories": 18081,
    "Ġbegrim": 23020,
    "Ġwrenching": 17326,
    "Ġpunctual": 17140,
    "Ġune": 4596,
    "entions": 17977,
    "Ġmortification": 12099,
    "Ġkn": 4544,
    "Ġhither": 4758,
    "Ġmiscellaneous": 17465,
    "chess": 16576,
    "Ġevening": 2651,
    "Ġhierarchical": 1927,
    "Ġembeddings": 2146,
    "Ġapp": 498,
    "monkey": 19172,
    "Ġtranscend": 25668,
    "Ġcub": 8415,
    "Ġemails": 13110,
    "Ġadored": 18292,
    "Ġhappened": 3715,
    "Ġcomparison": 7100,
    "phil": 7925,
    "Ġlunatic": 24993,
    "Ġwont": 9855,
    "Ġobtru": 18673,
    "Ġheartfelt": 18969,
    "Ġcam": 10164,
    "Ġhundreds": 4326,
    "Ġegypt": 9681,
    "Ġregards": 16082,
    "Ġjack": 4650,
    "another": 5439,
    "sterns": 23371,
    "Ġsplash": 16552,
    "Ġinsult": 6748,
    "Ġrid": 4352,
    "Ġvener": 8164,
    "Ġtong": 4870,
    "Ġanalyze": 1646,
    "leeward": 15214,
    "expanded": 23664,
    "Ġaccordance": 19501,
    "Ġfainter": 14917,
    "ake": 750,
    "Ġgently": 7171,
    "Ġsynd": 22214,
    "coiled": 16489,
    "Ġscrew": 8871,
    "Ġtease": 18796,
    "Ġnantucketer": 6913,
    "causes": 20346,
    "Ġperennial": 22697,
    "Ġperpet": 7645,
    "Ġhonoured": 9884,
    "Ġincessant": 15101,
    "Ġbowsprit": 16563,
    "fortunately": 9454,
    "Ġcompletion": 12152,
    "medi": 2627,
    "sided": 17666,
    "itement": 7835,
    "glorious": 19370,
    "embraced": 25807,
    "Ġpassenger": 14373,
    "Ġarrayed": 25665,
    "isen": 10794,
    "ulties": 12906,
    "ys": 3960,
    "attempt": 9364,
    "Ġtrembling": 7481,
    "icles": 17975,
    "icism": 13958,
    "upid": 6582,
    "](": 11468,
    "soundest": 24796,
    "yl": 7818,
    "Ġfruit": 12330,
    "Ġmechanism": 2103,
    "Ġexpectantly": 23528,
    "itia": 11582,
    "Ġarticle": 9505,
    "discrimin": 19611,
    "Ġfolios": 23023,
    "Ġcontinuously": 23211,
    "humor": 19456,
    "Ġnieces": 8434,
    "zing": 7820,
    "Ġhelter": 24031,
    "Ġmonarchs": 25851,
    "intending": 22938,
    "Ġintensely": 17019,
    "Ġpaddock": 25040,
    "engaged": 7451,
    "gryphon": 15362,
    "Ġ82": 24458,
    "Ġneskyeuna": 26461,
    "handsome": 13179,
    "Ġfreed": 7266,
    "Ġwhenever": 5166,
    "Ġgouldings": 26189,
    "most": 1258,
    "arrang": 14654,
    "aract": 17896,
    "Ġtuesday": 9629,
    "Ġexe": 3994,
    "Ġdepl": 14046,
    "Ġshifted": 14110,
    "ove": 1744,
    "Ġhidden": 1374,
    "beth": 13691,
    "Ġhyena": 24519,
    "txt": 12520,
    "Ġvideo": 25366,
    "buried": 14852,
    "shri": 14238,
    "landed": 18957,
    "Ġfaster": 3195,
    "conviction": 19968,
    "ushion": 14723,
    "tooth": 18580,
    "intercourse": 14640,
    "Ġinsignificant": 20459,
    "ope": 4124,
    "Ġflamingo": 15104,
    "neys": 23584,
    "ptic": 21928,
    "renewed": 19707,
    "Ġtorpor": 25034,
    "Ġconnections": 972,
    "400": 20757,
    "Ġsummoned": 9914,
    "Ġmathematical": 3349,
    "heav": 5694,
    "whip": 22241,
    "Ġraw": 3320,
    "consciousness": 13369,
    "classification": 4385,
    "ustry": 18359,
    "Ġrainy": 24341,
    "Ġflask": 3038,
    "Ġbabies": 19695,
    "father": 3777,
    "ohog": 9846,
    "Ġdarts": 16770,
    "Ġadjusts": 8983,
    "inching": 21192,
    "expectation": 14859,
    "looking": 4032,
    "Ġminority": 18755,
    "Ġpain": 2304,
    "ú": 187,
    "Ġ[": 6967,
    "shone": 22457,
    "Ġbows": 4082,
    "whisper": 17084,
    "Ġhero": 5715,
    "Ġbrid": 6291,
    "meanwhile": 10612,
    "Ġbehave": 23302,
    "necessary": 5882,
    "parts": 14603,
    "oth": 1184,
    "upset": 23022,
    "Ġconf": 1820,
    "Ġaccompanied": 6780,
    "Ġnostrils": 10945,
    "Ġcaved": 21356,
    "vent": 683,
    "Ġparch": 11730,
    "aus": 1501,
    "Ġstum": 21735,
    "Ġlongbourn": 3506,
    "Ġseparating": 16684,
    "Ġcasket": 19727,
    "westward": 25425,
    "Ġtossed": 5816,
    "Ġtransmit": 10307,
    "Ġtrusty": 24106,
    "Ġeigenvalues": 4997,
    "Ġcomplexity": 1697,
    "Ġgrunted": 16175,
    "gan": 2200,
    "Ġprivileged": 20116,
    "Ġderives": 16312,
    "Ġhonors": 23603,
    "sincere": 16909,
    "Ġleaky": 2346,
    "Ġpip": 1641,
    "forbearance": 22808,
    "Ġanointing": 25540,
    "Ġcord": 5222,
    "being": 3911,
    "Ġexulting": 20261,
    "concerns": 24072,
    "Ġshetland": 22163,
    "Ġtended": 21169,
    "syntax": 5867,
    "Ġendure": 5956,
    "Ġscant": 22284,
    "Ġinnumerable": 13355,
    "hullo": 17572,
    "Ġcircumstantial": 14645,
    "Ġcleat": 18949,
    "atch": 671,
    "Ġdelineate": 26058,
    "Ġdrama": 16333,
    "Ġgales": 12670,
    "Ġfleets": 23775,
    "happily": 14659,
    "Ġfervour": 19729,
    "wedding": 12526,
    "Ġkindred": 16382,
    "expose": 23663,
    "Ġheighten": 19532,
    "Ġlandless": 23382,
    "Ġri": 3393,
    "Ġenabled": 9300,
    "Ġwil": 4578,
    "`": 68,
    "Ġeighty": 19479,
    "baboon": 25517,
    "Ġattitudes": 16107,
    "height": 21208,
    "loved": 14253,
    "ousand": 2429,
    "history": 15017,
    "Ġsum": 2698,
    "Ġtwinkle": 12327,
    "bl": 4141,
    "Ġcared": 8787,
    "Ġpemberley": 4586,
    "contained": 22474,
    "ccarthy": 4888,
    "Ġsoftened": 11104,
    "ithmetic": 18064,
    "Ġdramatic": 4851,
    "Ġages": 7028,
    "Ġnewcastle": 16227,
    "amed": 4447,
    "Ġconfess": 3767,
    "Ġswayed": 15050,
    "Ġmatlock": 18806,
    "tailed": 17687,
    "gia": 20878,
    "Ġexactly": 2766,
    "Ġleague": 6539,
    "Ġlegend": 14577,
    "Ġsat": 1131,
    "Ġwheeling": 18289,
    "Ġphase": 14474,
    "unavoid": 14064,
    "Ġpadded": 25039,
    "Ġworks": 5858,
    "Ġbegan": 2021,
    "Ġusages": 15921,
    "Ġinches": 5846,
    "Ġback": 805,
    "began": 6426,
    "Ġnigh": 4878,
    "Ġenumerating": 15248,
    "Ġprovocation": 24193,
    "lay": 5891,
    "Ġtiresome": 26157,
    "Ġglit": 8562,
    "Ġlance": 4879,
    "Ġsple": 21218,
    "Ġscandinav": 19964,
    "Ġusurpation": 18358,
    "Ġweak": 5098,
    "Ġconcl": 5095,
    "devils": 20036,
    "ashion": 3857,
    "ppings": 18179,
    "owards": 4592,
    "Ġconsp": 10227,
    "aries": 6245,
    "tier": 12519,
    "Ġsable": 15504,
    "ocratic": 17247,
    "prolong": 23398,
    "isson": 23463,
    "Ġinterrupting": 19560,
    "noticed": 14341,
    "Ġfails": 13317,
    "uring": 820,
    "Ġplot": 14284,
    "head": 1435,
    "Ġeventually": 8620,
    "Ġcrisis": 13129,
    "ally": 532,
    "Ġtext": 2270,
    "opÃ¦": 12877,
    "Ġformless": 22833,
    "Ġplough": 18610,
    "Ġsunbeam": 23278,
    "Ġaval": 15497,
    "Ġpromoting": 3159,
    "Ġwiser": 14734,
    "Ġcorruption": 15229,
    "Ġbegg": 16258,
    "Ġought": 3417,
    "Ġexterm": 21834,
    "Ġmovements": 24359,
    "igators": 18047,
    "whose": 6851,
    "ratches": 20128,
    "Ġweighed": 8714,
    "Ġdisent": 22527,
    "wrinkles": 16558,
    "ibly": 2992,
    "Ġsimilarity": 3165,
    "deaux": 22152,
    "Ġpresum": 4838,
    "Ġcreeping": 18685,
    "Ġtreatise": 19348,
    "Ġrevolving": 9986,
    "ì": 173,
    "tru": 10731,
    "Ġshalt": 18231,
    "Ġrevers": 21667,
    "native": 17614,
    "rians": 21929,
    "sorts": 21063,
    "farintosh": 24553,
    "hark": 15369,
    "Ġdescent": 964,
    "Ġneedless": 19231,
    "Ġplaything": 19240,
    "librarian": 26570,
    "Ġcorporeally": 25729,
    "clothed": 19741,
    "uated": 10134,
    "reck": 9639,
    "Ġdiffidence": 14661,
    "Ġwager": 17794,
    "Ġunperceived": 22041,
    "omed": 13977,
    "Ġsuffoc": 18872,
    "top": 4484,
    "subst": 12169,
    "Ġjub": 22299,
    "Ġkid": 9728,
    "Ġstrangely": 5677,
    "Ġphara": 23202,
    "smo": 10128,
    "andam": 10890,
    "Ġdives": 17892,
    "Ġjets": 10290,
    "Ġdriving": 3616,
    "izarre": 17392,
    "dried": 20829,
    "Ġund": 4118,
    "iving": 1727,
    "intended": 11068,
    "Ġrely": 8825,
    "ik": 17573,
    "ley": 1817,
    "Ġhazard": 20435,
    "Ġscrupled": 25052,
    "Ġgroans": 14826,
    "Ġdisliked": 12896,
    "inities": 21188,
    "Ġperceptible": 18453,
    "Ġbasket": 9575,
    "zas": 17714,
    "Ġfundamental": 3012,
    "perfect": 7635,
    "did": 3193,
    "erring": 11059,
    "Ġcrouching": 23444,
    "sort": 6798,
    "Ġfortun": 4981,
    "Ġdocile": 19962,
    "feed": 9297,
    "Ġterminated": 23511,
    "Ġastern": 6090,
    "Ġarithmetic": 18341,
    "rously": 17656,
    "drew": 7333,
    "frozen": 25142,
    "Ġcompanions": 5866,
    "Ġcemeteries": 26377,
    "Ġterrors": 6917,
    "tain": 559,
    "either": 6791,
    "cim": 8723,
    "Ġrescales": 5068,
    "Ġsubdiv": 16164,
    "apolog": 22337,
    "Ġslyness": 25267,
    "Ġtorrents": 20059,
    "Ġdegrees": 7293,
    "bedded": 12447,
    "loa": 18537,
    "Ġliterally": 15120,
    "Ġwantest": 18790,
    "Ġhelps": 9372,
    "drowned": 17372,
    "lonely": 20959,
    "somewhere": 12017,
    "Ġskylight": 24076,
    "Ġaddition": 1148,
    "Ġobstacles": 19838,
    "Ġlatin": 16823,
    "Ġgathered": 8444,
    "Ġfailing": 12142,
    "aded": 3547,
    "Ġgipsies": 12412,
    "Ġcleaning": 23184,
    "shrugged": 22464,
    "Ġforgiveness": 16659,
    "Ġobliv": 16138,
    "Ġ84": 19712,
    "merry": 16539,
    "Ġpatronage": 17054,
    "Ġchange": 1993,
    "Ġexquisite": 12386,
    "log": 18538,
    "Ġgem": 21597,
    "Ġimag": 2673,
    "archangel": 18791,
    "Ġhumiliating": 22887,
    "Ġbegat": 18864,
    "Ġrelev": 1718,
    "Ġimparts": 18446,
    "reflect": 19867,
    "Ġmus": 3395,
    "bree": 15318,
    "hailed": 17567,
    "post": 6062,
    "Ġorb": 22095,
    "vast": 10738,
    "ileries": 18061,
    "Ġblankness": 24611,
    "Ġdecrease": 4200,
    "Ġunfrequently": 20741,
    "Ġgladly": 14683,
    "Ġparticip": 16136,
    "tumultuously": 25614,
    "Ġadds": 1807,
    "avoid": 9309,
    "Ġeel": 18004,
    "Ġspermacetti": 19050,
    "uts": 8820,
    "matter": 5136,
    "scept": 21056,
    "Ġbedford": 7475,
    "aste": 4599,
    "string": 15691,
    "hotel": 20053,
    "ĠĠĠĠĠĠĠĠĠĠĠĠĠĠĠĠĠĠĠĠĠĠĠĠĠĠĠĠĠĠĠĠĠĠĠĠĠĠĠĠĠĠĠĠĠĠ": 9956,
    "Ġfav": 1755,
    "Ġvoyagings": 19238,
    "faith": 15027,
    "blunder": 24131,
    "Ġplumber": 16090,
    "Ġmortally": 23920,
    "iriously": 18174,
    "uarded": 21108,
    "Ġaccidental": 16850,
    "Ġvint": 18195,
    "Ġclosing": 11776,
    "Ġrivers": 9446,
    "Ġpump": 12626,
    "ignity": 4372,
    "Ġgeor": 3386,
    "Ġcrags": 23532,
    "Ġtexel": 25924,
    "Ġcapricious": 20541,
    "Ġabund": 8868,
    "Ġweigh": 10895,
    "if": 375,
    "Ġeh": 6987,
    "dangerous": 20243,
    "Ġboisterously": 25683,
    "Ġsoapstone": 20514,
    "Ġchocks": 13349,
    "happiness": 6469,
    "Ġsociety": 3978,
    "Ġinstituted": 18696,
    "Ġtrying": 4839,
    "hastened": 16847,
    "Ġunden": 22017,
    "evade": 24817,
    "Ġvelvets": 25394,
    "wedged": 24559,
    "reproach": 15190,
    "Ġfoolish": 5980,
    "rier": 9246,
    "Ġbutler": 18271,
    "Ġturbul": 23614,
    "Ġgeography": 23375,
    "Ġnav": 5819,
    "Ġemail": 19076,
    "Ġrefusal": 10347,
    "ider": 21769,
    "Ġhas": 825,
    "iam": 2508,
    "Ġstiffness": 24828,
    "a": 69,
    "Ġaper": 17745,
    "Ġcontinents": 16851,
    "ù": 186,
    "kish": 20936,
    "laz": 15389,
    "ue": 1180,
    "Ġanim": 2114,
    "Ġboisterous": 20446,
    "Ġprogeny": 17391,
    "Ġfew": 1214,
    "Ġconsumm": 15158,
    "Ġpromontory": 11945,
    "Ġdeclined": 9924,
    "yourself": 6743,
    "Ġarchipelagoes": 14351,
    "Ġdiagon": 24739,
    "Ġgoblet": 25824,
    "Ġglens": 18856,
    "Ġpaintings": 15058,
    "iver": 2048,
    "silent": 9977,
    "Ġprograms": 7238,
    "Ġrivals": 20274,
    "Ġobser": 2070,
    "Ġtaking": 3250,
    "Ġcontrolled": 23253,
    "Ġpop": 5151,
    "Ġvolition": 14800,
    "Ġmira": 8408,
    "Ġdrily": 23543,
    "outside": 12809,
    "Ġ126": 24471,
    "Ġgallied": 19559,
    "asible": 21545,
    "Ġunfailing": 24113,
    "Ġmonth": 2846,
    "Ġfigures": 8633,
    "Ġreckoning": 14982,
    "rushed": 10587,
    "Ġaltered": 7392,
    "gent": 7130,
    "ĠĠĠĠĠĠĠĠĠĠĠĠĠĠĠĠĠĠĠĠĠĠĠĠĠĠ": 13391,
    "Ġreplace": 14480,
    "Ġnew": 1195,
    "Ġbaleful": 24985,
    "Ġhonest": 7286,
    "hunters": 16835,
    "Ġ117": 19700,
    "mort": 10712,
    "ins": 1376,
    "frank": 7757,
    "ġ": 226,
    "Ġexactness": 23606,
    "Ġloud": 4700,
    "Ġtown": 2455,
    "Ġdesign": 4132,
    "supp": 4162,
    "thomas": 18220,
    "asters": 8435,
    "Ġcordage": 19681,
    "Ġ*": 1274,
    "Ġsacri": 18329,
    "Ġsad": 3866,
    "Ġamphitheat": 26253,
    "Ġra": 814,
    "Ġmultiple": 1186,
    "Ġrace": 5848,
    "buncle": 13695,
    "collins": 6915,
    "clean": 14763,
    "perplex": 18344,
    "haut": 20904,
    "const": 5939,
    "Ġmosses": 20166,
    "Ġchildren": 3768,
    "ift": 1606,
    "Ġpunchbowl": 20234,
    "Ġpro": 360,
    "Ġbub": 8118,
    "Ġsparks": 22136,
    "kindly": 14747,
    "Ġmodels": 759,
    "Ġconsec": 21809,
    "bird": 9588,
    "Ġcrossing": 7252,
    "dragging": 16611,
    "tled": 3455,
    "ferent": 4194,
    "uttermost": 24943,
    "Ġwasted": 9707,
    "persu": 8028,
    "inent": 9631,
    "or": 282,
    "Ġsqualls": 17022,
    "Ġrecur": 1622,
    "Ġmannish": 26239,
    "cest": 12449,
    "Ġheld": 3583,
    "odox": 21817,
    "Ġunwonted": 15010,
    "imaux": 21715,
    "Ġ134": 24783,
    "Ġfact": 1729,
    "pride": 11212,
    "Ġfounded": 8560,
    "aston": 7407,
    "Ġdiary": 24738,
    "alyards": 18804,
    "Ġwaif": 9379,
    "Ġindependent": 9020,
    "ve": 323,
    "th": 408,
    "Ġanalyzing": 18812,
    "Ġpurely": 12236,
    "Ġlaure": 16911,
    "Ġdenied": 9003,
    "Ġreflection": 6440,
    "urance": 10859,
    "Ġunhing": 18242,
    "Ġdat": 497,
    "travel": 24337,
    "pract": 10122,
    "Ġthirds": 16710,
    "eldest": 22805,
    "Ġdiscompose": 25580,
    "Ġalbatross": 10873,
    "companion": 9560,
    "Ġschoolboys": 24481,
    "backed": 9869,
    "Ġthickets": 24029,
    "separation": 25227,
    "Ġflashed": 11918,
    "Ġadmeasure": 18294,
    "Ġargument": 7099,
    "Ġforlorn": 14017,
    "hoist": 23715,
    "Ġerred": 21159,
    "Ġdevotedly": 24749,
    "Ġblunt": 11898,
    "Ġsprung": 11249,
    "Ġwrapping": 19778,
    "Ġadmits": 23557,
    "Ġcast": 3604,
    "Ġfringed": 17275,
    "Ġruff": 14352,
    "Ġdownstream": 3775,
    "Ġcreation": 6439,
    "Ġincredulity": 11313,
    "Ġguide": 3213,
    "Ġtemperate": 16167,
    "restored": 18980,
    "Ġdignity": 5704,
    "expound": 23662,
    "ĠĠĠĠĠĠĠĠĠĠĠĠĠĠĠĠĠĠĠĠĠĠĠĠĠĠĠĠĠĠĠĠĠĠĠĠĠĠĠĠĠĠĠĠ": 12158,
    "Ġcharnel": 22256,
    "Ġsavagely": 26325,
    "Ġwolfish": 25936,
    "egyptians": 25899,
    "Ġrejoicing": 13424,
    "Ġcomprises": 22576,
    "L": 48,
    "Ġdeduce": 8337,
    "partiality": 13163,
    "rank": 21044,
[...]
