{
  "metadata": {
    "vocab_size": 26614,
    "algorithm": "BPE",
    "created_at": "2026-06-04 06:41:48",
    "special_tokens": [
      "<PAD>",
      "<SOS>",
      "<EOS>",
      "<UNK>",
      "<MASK>"
    ]
  },
  "vocab": {
    "Ġcryst": 9916,
    "Ġreside": 22536,
    "Ġsque": 18756,
    "Ġmomentous": 16171,
    "Ġoutrage": 15957,
    "staking": 21645,
    "Ġforeseeing": 23449,
    "othe": 2614,
    "Ġhunters": 6300,
    "Ġrefill": 18700,
    "Ġsettee": 22918,
    "humorously": 24017,
    "Ġdissu": 18550,
    "ient": 392,
    "Ġvol": 4185,
    "Ġinvest": 4978,
    "Ġomens": 21326,
    "Ġmarvellous": 7538,
    "Ġwithdrawing": 11340,
    "Ġroofs": 16985,
    "Ġmir": 9646,
    "Ġramadan": 9575,
    "Ġthemselves": 3251,
    "teous": 16173,
    "Ġobservable": 25126,
    "represent": 9637,
    "Ġineff": 12632,
    "did": 3194,
    "ord": 666,
    "roman": 22001,
    "Ġdeacon": 18140,
    "happened": 9432,
    "Ġmaledictions": 26428,
    "Ġtorrid": 25032,
    "Ġmortar": 19391,
    "Ġxliv": 23407,
    "sing": 5138,
    "Ġoccurring": 2791,
    "owner": 18610,
    "island": 10794,
    "Ġparaphrasing": 26526,
    "emic": 18179,
    "Ġsomething": 1794,
    "Ġchildhood": 13136,
    "Ġmeagre": 21810,
    "oubled": 23644,
    "species": 13253,
    "cen": 17502,
    "Ġburning": 5976,
    "Ġghastly": 10059,
    "footsteps": 25199,
    "Ġlaug": 3625,
    "Ġlessen": 14532,
    "troubled": 17112,
    "but": 592,
    "isol": 17846,
    "avenue": 25057,
    "across": 10324,
    "Ġcompliments": 8632,
    "Ġwilled": 21290,
    "Ġsires": 21225,
    "Ġ59": 24327,
    "Ġsucking": 12783,
    "cun": 20794,
    "Ġwarned": 16880,
    "Ġoblig": 3445,
    "conditionally": 24834,
    "Ġplaced": 3444,
    "tail": 8761,
    "norm": 20984,
    "Ġblo": 2735,
    "onze": 21254,
    "Ġstripped": 10465,
    "ersampling": 18216,
    "Ġhyp": 3872,
    "un": 373,
    "Ġarbit": 4650,
    "full": 7420,
    "glory": 23850,
    "raction": 8137,
    "midnight": 14901,
    "Ġtypewriting": 16420,
    "Ġcolossal": 11459,
    "Ġunreserved": 19395,
    "Ġcab": 2633,
    "Ġdeftly": 26493,
    "consider": 6348,
    "maid": 8553,
    "Ġpleadings": 25852,
    "dog": 10692,
    "Ġmule": 13861,
    "Ġpetticoat": 15294,
    "Ġweights": 897,
    "indian": 11776,
    "inhabited": 13618,
    "Ġreference": 2567,
    "Ġknock": 9972,
    "Ġbelieve": 2148,
    "aust": 15308,
    "Ġdistressing": 12216,
    "Ġphilipses": 24452,
    "ground": 4671,
    "cking": 4261,
    "fine": 10090,
    "ene": 2169,
    "Ġpromontory": 11939,
    "aphys": 15200,
    "mming": 1172,
    "Ġbecause": 2213,
    "Ġdie": 3960,
    "breathing": 25335,
    "Ġencirc": 18730,
    "should": 3261,
    "published": 26142,
    "contain": 18500,
    "Ġdistinction": 8885,
    "Ġmarvels": 11083,
    "Ġpuffed": 14976,
    "Ġspurn": 18309,
    "Ġshrieks": 12197,
    "Ġtheoretically": 3565,
    "Ġgord": 21597,
    "Ġcritically": 23444,
    "Ġgifts": 21609,
    "Ġcabaco": 13165,
    "======================================================================": 10067,
    "Ġthird": 4183,
    "Ġ37": 24075,
    "Ġreligious": 25121,
    "Ġprotruded": 19468,
    "Ġyale": 21776,
    "unavoid": 14061,
    "Ġsources": 10147,
    "Ġunmannerly": 26517,
    "Ġcarcase": 14443,
    "Ġhans": 12624,
    "unwilling": 14060,
    "Ġconclusion": 5985,
    "experience": 17158,
    "Ġcutting": 4983,
    "verty": 8452,
    "bud": 10682,
    "skill": 24487,
    "Ġsharing": 3475,
    "streamed": 25966,
    "Ġadm": 2402,
    "mole": 22700,
    "dred": 2530,
    "waiting": 12218,
    "Ġmanagement": 8192,
    "Ġbrigandish": 25487,
    "fain": 13714,
    "Ġsuite": 18276,
    "oms": 4591,
    "Ġnapoleon": 20556,
    "Ġforehead": 5261,
    "Ġretreat": 6069,
    "Ġblasphemy": 26115,
    "Ġexerted": 15753,
    "Ġgaze": 6932,
    "Ġpluck": 15612,
    "Ġbroods": 23101,
    "Ġinsolent": 13598,
    "Ġallusion": 7625,
    "uc": 1877,
    "itance": 13867,
    "etency": 21579,
    "Ġkiss": 8182,
    "Ġinner": 9670,
    "Ġdutch": 6327,
    "Ġdissatisfied": 14256,
    "Ġshrinking": 14804,
    "dick": 11479,
    "iction": 4264,
    "property": 19998,
    "Ġwid": 4632,
    "fatal": 17088,
    "aint": 2544,
    "gaz": 20877,
    "neville": 22448,
    "Ġphilosophers": 10551,
    "Ġclair": 6268,
    "Ġfollowed": 1793,
    "Ġvicissitudes": 12417,
    "riers": 18185,
    "Ġdetailed": 12822,
    "iffe": 21894,
    "Ġlodging": 24090,
    "Ġdiary": 24739,
    "erce": 6126,
    "Ġminute": 4274,
    "Ġcommunications": 16354,
    "armon": 23056,
    "Ġsepulchre": 20558,
    "Ġruth": 14092,
    "Ġpoultry": 17440,
    "Ġwhistling": 19789,
    "Ġ(": 594,
    "Ġenrolled": 21935,
    "official": 24914,
    "castles": 14636,
    "Ġdeft": 21833,
    "gar": 5615,
    "Ġprynne": 25540,
    "ĠĠĠĠĠĠĠĠĠĠĠĠĠĠĠĠĠĠĠĠĠĠĠĠĠĠĠĠĠĠĠĠĠĠĠĠĠĠĠĠĠĠĠĠĠĠ": 9952,
    "bony": 15318,
    "Â": 131,
    "Ġdiscovered": 4406,
    "Ġdear": 1539,
    "Ġcounters": 24138,
    "Ġdevilish": 11228,
    "iferous": 17291,
    "Ġtraced": 10384,
    "Ġbeads": 18083,
    "Ġfi": 935,
    "Ġgarden": 3826,
    "binder": 17499,
    "wandered": 20284,
    "00": 1612,
    "Ġemerg": 13422,
    "pieces": 8754,
    "Ġgrown": 5628,
    "Ġancient": 5443,
    "orter": 4251,
    "Ġentrance": 7233,
    "Ġincorrupt": 19233,
    "Ġvilla": 14746,
    "Ġfur": 992,
    "ñ": 178,
    "innocent": 20285,
    "Ġuninterrupted": 22043,
    "Ġextracts": 9361,
    "Ġstaring": 8824,
    "Ġindu": 5293,
    "Ġfocuses": 8649,
    "Ġproceeds": 12075,
    "Ġfetching": 16896,
    "Ġrazors": 22650,
    "Ġgemin": 21607,
    "Ġarrangements": 16515,
    "Ġblew": 9045,
    "Ġstreat": 15719,
    "toed": 18578,
    "Ġwaved": 9644,
    "Ġramadans": 25119,
    "preading": 18491,
    "Ġbored": 16104,
    "Ġstarts": 16582,
    "entered": 8814,
    "Ġcrammed": 16471,
    "charlotte": 6473,
    "Ġmassive": 9931,
    "Ġintermediate": 18588,
    "utarch": 15660,
    "Ġlikeness": 11179,
    "Ġkelson": 18350,
    "Ġtolerably": 8067,
    "Ġdeclaring": 19418,
    "Ġbales": 21387,
    "Ġfundamentals": 14635,
    "olly": 3224,
    "Ġbulls": 23856,
    "calmly": 20138,
    "overed": 2852,
    "bler": 11472,
    "Ġcakes": 13883,
    "Ġtiar": 21166,
    "Ġsurprise": 3829,
    "mechan": 11855,
    "Ġlitter": 19828,
    "tubs": 15129,
    "Ġcham": 4892,
    "Ġcraw": 7282,
    "Ġclosest": 16763,
    "iverse": 13113,
    "taste": 10129,
    "Ġrefinement": 18702,
    "iew": 2446,
    "orm": 425,
    "Ġharris": 13926,
    "socket": 22728,
    "Ġadvis": 9806,
    "patter": 4626,
    "Ġragged": 11844,
    "stad": 7597,
    "divers": 15341,
    "Ġimpetuous": 25570,
    "Ġgurglings": 26465,
    "Ġshall": 1143,
    "bingleys": 19633,
    "Ġslipping": 13358,
    "Ġchain": 1844,
    "metallic": 19879,
    "Ġfail": 4146,
    "Ġspasmod": 12412,
    "Ġimproves": 22741,
    "freighted": 14891,
    "otics": 10223,
    "apology": 22330,
    "Ġsuperflu": 14554,
    "Ġpool": 5173,
    "Ġamazed": 14888,
    "ricade": 13034,
    "Ġprofundity": 20451,
    "Ġpipeline": 2509,
    "Ġbarrens": 25501,
    "Ġsoil": 9254,
    "Ġgentleman": 3037,
    "Ġcomprehensive": 15086,
    "Ġenraged": 10244,
    "ancies": 11583,
    "ading": 5091,
    "proportions": 22832,
    "screwed": 17187,
    "Ġsequentially": 4914,
    "Ġeaves": 15674,
    "Ġobser": 2072,
    "Ġtoilette": 20491,
    "mend": 20965,
    "Ġdescrib": 2719,
    "ess": 410,
    "Ġrecover": 9790,
    "Ġdegree": 3703,
    "Ġproflig": 23566,
    "Ġcampaign": 20660,
    "Ġconverted": 16110,
    "Ġhesitate": 16946,
    "Ġsuch": 791,
    "Ġpaste": 23417,
    "Ġfobbing": 26441,
    "got": 6955,
    "ļ": 253,
    "Ġgoes": 3852,
    "Ġghost": 6142,
    "Ġbremen": 23343,
    "Ġhereditary": 10664,
    "Ġcontradict": 12383,
    "abounding": 25979,
    "Ġpositive": 2299,
    "beheld": 11800,
    "seem": 10227,
    "Ġmig": 13855,
    "Ġfoiled": 23242,
    "vision": 5620,
    "Ġclust": 9271,
    "post": 6061,
    "Ġfervent": 14895,
    "pend": 6367,
    "Ġvisits": 8220,
    "jewell": 25523,
    "rebell": 17763,
    "Ġceaseless": 13486,
    "Ġhack": 12754,
    "rub": 15896,
    "lovely": 16045,
    "reach": 17757,
    "Ġintermix": 22574,
    "Ġgeneva": 5450,
    "Ġprevailed": 7777,
    "Ġenthusiasm": 8064,
    "Ġslices": 23162,
    "aguy": 21907,
    "myself": 5113,
    "Ġceased": 6468,
    "crossing": 19409,
    "amusement": 15281,
    "wicked": 24449,
    "sentence": 2937,
    "Ġsprinkled": 19495,
    "Ġsnarled": 25716,
    "expected": 5780,
    "Ġasph": 21897,
    "Ġlysander": 13137,
    "Ġidentical": 10434,
    "tains": 10962,
    "Ġoak": 6128,
    "rapid": 12668,
    "Ġdesigns": 13012,
    "ription": 5676,
    "Ġevangel": 11280,
    "Ġwaistcoat": 12268,
    "Ġwardrobe": 17225,
    "Ġcongenial": 12409,
    "occupation": 15056,
    "cream": 15330,
    "pure": 17626,
    "brought": 7285,
    "assured": 10951,
    "Ġpursuits": 12074,
    "Ġcooped": 22578,
    "Ġcaptivating": 26049,
    "Ġderivatives": 2372,
    "Ġrifled": 21973,
    "Ġfert": 15580,
    "Ġpanelled": 19653,
    "Ġcultivated": 17363,
    "Ġsay": 932,
    "ne": 646,
    "begged": 18523,
    "Ġanimate": 23421,
    "Ġacquitted": 18898,
    "ruin": 22179,
    "presented": 12989,
    "Ġbeside": 5192,
    "Ġmexico": 15279,
    "Ġcards": 7580,
    "ces": 580,
    "Ġtarred": 23608,
    "Ġflattering": 13026,
    "fire": 6357,
    "Ġdong": 17887,
    "dman": 10088,
    "Ġvariants": 1791,
    "Ġnon": 1627,
    "Ġhastening": 19334,
    "Ġbury": 12039,
    "ctive": 11622,
    "Ġtravelling": 11307,
    "Ġdiscernment": 15067,
    "opius": 18509,
    "Ġplanet": 14749,
    "Ġmap": 2392,
    "Ġentertainment": 12220,
    "Ġborrow": 10170,
    "Ġcovariate": 2353,
    "clopÃ¦": 13052,
    "Ġdisorder": 16049,
    "orse": 5806,
    "written": 7994,
    "utes": 5913,
    "icorn": 15655,
    "wanderer": 25423,
    "hors": 9598,
    "Ġcoburg": 18595,
    "Ġtropics": 17066,
    "Ġintervening": 17267,
    "gence": 877,
    "Ġmethodology": 2182,
    "cares": 24309,
    "Ġfasten": 11132,
    "Ġwrists": 11114,
    "Ġmountain": 3372,
    "Ġacid": 22679,
    "Ġcounterpane": 11343,
    "clear": 9023,
    "Ġopt": 808,
    "impossible": 8823,
    "Ġcompliance": 12112,
    "stones": 11635,
    "Ġrank": 6258,
    "extent": 22769,
    "Ġdispleased": 18555,
    "Ġwharves": 13504,
    "urry": 13992,
    "arle": 21438,
    "bearance": 22492,
    "Ġperformer": 18755,
    "12": 20748,
    "Ġjourneying": 25566,
    "ittleness": 22373,
    "thank": 4950,
    "Ġcircle": 4977,
    "Ġrevolution": 3305,
    "planks": 21949,
    "Ġcanes": 22158,
    "Ġon": 351,
    "Ġalternating": 15030,
    "Ġunallied": 22029,
    "Ġhunch": 18934,
    "rd": 17649,
    "Ġlocked": 6034,
    "naturedly": 24840,
    "Ġreceptive": 1565,
    "Ġintricacies": 15137,
    "Ġsides": 4577,
    "Ġpurchase": 12257,
    "Ġsemantics": 2892,
    "Ġstam": 18065,
    "Ġdeg": 3282,
    "Ġlump": 21549,
    "erting": 17777,
    "Ġsoftened": 11102,
    "approaching": 15011,
    "ressing": 8918,
    "generosity": 23785,
    "trap": 24313,
    "Ġapologized": 25198,
    "end": 502,
    "Ġoptimizer": 5036,
    "pursue": 24973,
    "Ġdiabolism": 25514,
    "icirc": 15654,
    "iel": 11493,
    "ĠĠĠĠĠĠĠĠĠĠĠĠĠĠĠĠĠ": 22946,
    "learning": 2510,
    "Ġlanyard": 26461,
    "Ġshouted": 5347,
    "Ġwatches": 11081,
    "Ġshocking": 10435,
    "Ġdiscuss": 9473,
    "Ġradney": 6775,
    "Ġdaggoo": 5441,
    "Ġcalcul": 3636,
    "Ġmajest": 24057,
    "ards": 2504,
    "Ġmanhat": 22324,
    "affected": 10476,
    "os": 524,
    "Ġmasonry": 13597,
    "clad": 14458,
    "Ġpens": 21458,
    "wick": 5362,
    "boscombe": 26121,
    "Ġfrancis": 26063,
    "urmount": 13994,
    "Ġsle": 2016,
    "agger": 7871,
    "peculiar": 6886,
    "Ġalways": 1696,
    "Ġpam": 21452,
    "Ġenderby": 13649,
    "Ġbaling": 17859,
    "Ġboasting": 19934,
    "ula": 2823,
    "Ġoffences": 18693,
    "musket": 25341,
    "iant": 5427,
    "Ġfisher": 3221,
    "stairs": 5155,
    "Ġlists": 11166,
    "Ĥ": 229,
    "Ġsuit": 5725,
    "france": 24282,
    "fatigue": 20657,
    "Ġsom": 1276,
    "Ġricher": 12757,
    "gay": 11488,
    "purp": 8090,
    "Ġpockets": 8895,
    "Ġlieu": 19563,
    "Ġchanged": 5242,
    "sper": 4428,
    "Ġexplanations": 15910,
    "further": 7535,
    "Ġcompos": 22566,
    "Ġcompress": 21846,
    "Ġtrepidation": 19214,
    "10": 17472,
    "Ġbuilded": 24719,
    "Ġcumulative": 4206,
    "Ġtherefore": 2241,
    "Ġsecurely": 16802,
    "Ġgravesend": 15215,
    "ications": 4438,
    "mant": 20964,
    "urged": 18047,
    "Ġgloomy": 7504,
    "Ġserm": 9633,
    "numerous": 17430,
    "Ġmeridian": 25714,
    "Ġiteratively": 3053,
    "Ġsegment": 12755,
    "Ġturn": 1296,
    "Ġcoron": 4458,
    "Ġveil": 7933,
    "attoo": 6807,
    "Ġbitterest": 12400,
    "Ġassum": 4063,
    "Ġvalues": 2651,
    "Ġunf": 4087,
    "Ġtold": 2186,
    "bouton": 17501,
    "Ġa": 263,
    "exercise": 17459,
    "Ġlist": 2367,
    "ignorance": 17161,
    "Ġcourt": 4166,
    "Ġcrowds": 14738,
    "Ġreflecting": 24751,
    "Ġgoring": 21601,
    "Ġpron": 6451,
    "sen": 21048,
    "Ġchowder": 10280,
    "Ġ131": 24782,
    "Ġdoran": 9179,
    "iform": 2204,
    "iocr": 20922,
    "dying": 10694,
    "Ġpillow": 10037,
    "orders": 12872,
    "clo": 5613,
    "tan": 4742,
    "Ġassistants": 9450,
    "ta": 13788,
    "iousness": 4899,
    "talking": 10006,
    "Ġslashing": 23167,
    "Ġbravest": 23838,
    "principle": 10650,
    "Ġload": 14145,
    "nailed": 20995,
    "Ġcounterpart": 24721,
    "Ġunquestion": 18248,
    "Ġstave": 11650,
    "Ġrates": 1406,
    "Ġowe": 8114,
    "Ġdesolate": 10012,
    "Ġshould": 865,
    "Ġfrowning": 13621,
    "surprising": 16919,
    "Ġalco": 21779,
    "scy": 21054,
    "het": 5435,
    "Ġfools": 14481,
    "Ġstray": 18069,
    "neurons": 3133,
    "Ġaccounted": 10294,
    "Ġranks": 21969,
    "familiar": 19782,
    "Ġbuckskin": 19950,
    "Ġalps": 10870,
    "madly": 24420,
    "endeav": 7150,
    "Ġattested": 22627,
    "Ġdecreed": 18484,
    "Ġsleeps": 10446,
    "Ġsustaining": 25333,
    "Ġshrine": 19530,
    "Ġloops": 8852,
    "omy": 6248,
    "Ġunanswerable": 26521,
    "sharks": 14240,
    "Ġinsurgents": 26600,
    "impud": 23759,
    "Ġgospel": 18000,
    "quarrel": 20013,
    "Ġprovid": 1009,
    "Ġperse": 6272,
    "ilty": 6394,
    "Ġigniting": 25070,
    "igh": 2031,
    "Ġtrance": 12839,
    "Ġlapse": 17120,
    "tish": 17677,
    "hailed": 17565,
    "Ġacceler": 1611,
    "Ġvan": 1087,
    "Ġobliged": 4281,
    "respect": 6374,
    "overcome": 19050,
    "Ġdiscredit": 22778,
    "ignorant": 13561,
    "reading": 12077,
    "Ġflood": 7715,
    "Ġdip": 13906,
    "ldog": 21914,
    "marriage": 7744,
    "forbearance": 22800,
    "Ġintruder": 25991,
    "adventure": 17233,
    "inc": 2524,
    "Ġdisconcerted": 18562,
    "ack": 610,
    "Ġimprudently": 22385,
    "Ġdignified": 15596,
    "Ġrecomm": 4996,
    "twenty": 6607,
    "Ġair": 1836,
    "Ġautomation": 13255,
    "Ġtarn": 21157,
    "blast": 9587,
    "Ġeasy": 3452,
    "Ġkeeled": 18807,
    "Ġhouse": 1506,
    "Ġingratitude": 17468,
    "Ġretrieval": 10674,
    "Ġquitting": 7645,
    "pol": 5892,
    "itioned": 22472,
    "Ġprejudices": 13467,
    "Ġtro": 7356,
    "Ġlurking": 11289,
    "type": 16175,
    "================================": 5671,
    "Ġincreases": 3796,
    "unearthly": 19272,
    "ryder": 18637,
    "inex": 14095,
    "Ġembellish": 25847,
    "thus": 5158,
    "Ġdreamt": 23936,
    "Ġfortunate": 6214,
    "ractions": 11632,
    "close": 9985,
    "Ġkirwin": 8496,
    "Ġherein": 16190,
    "bee": 16037,
    "Ġcomprehen": 5349,
    "Ġblue": 3454,
    "Ġrejection": 19982,
    "Ġdivers": 9665,
    "Ġadrift": 11721,
    "Ġoccupies": 24005,
    "Ġunch": 18239,
    "Ġvertically": 19378,
    "Ġ26": 10470,
    "Ġfamine": 16327,
    "ĥ": 230,
    "Ġpush": 9184,
    "gn": 8081,
    "field": 3068,
    "lock": 1472,
    "ooped": 17623,
    "Ġmerryweather": 9521,
    "resnet": 4068,
    "Ġmaintain": 857,
    "instances": 13317,
    "minded": 9037,
    "Ġoptimization": 1386,
    "gainst": 25141,
    "roofed": 26183,
    "Ġeighty": 19474,
    "itage": 17816,
    "bold": 17487,
    "joice": 9602,
    "Ġext": 884,
    "Ġencourage": 10380,
    "reproach": 15185,
    "Ġhussey": 7724,
    "Ġdocument": 15018,
    "endeavour": 17031,
    "Ġlast": 1121,
    "Ġrevolving": 9982,
    "Ġgreatly": 5849,
    "Ġunsettled": 14122,
    "Ġobstin": 14952,
    "dar": 20823,
    "gd": 3123,
    "Ġarchangel": 8542,
    "ships": 5486,
    "Ġpreserved": 9261,
    "bolt": 25135,
    "Ġboa": 22632,
    "Á": 130,
    "Ġglit": 8559,
    "shutters": 20312,
    "Ġpain": 2306,
    "agged": 9236,
    "Ġwater": 1949,
    "landed": 18954,
    "ateur": 22003,
    "Ġreproof": 24890,
    "aming": 5828,
    "cut": 3122,
    "anish": 2616,
    "apparently": 15203,
    "Ġprepare": 8646,
    "brit": 19196,
    "thee": 9689,
    "Ġimplements": 2483,
    "run": 10721,
    "parted": 21015,
    "Ġbe": 336,
    "occup": 7752,
    "letter": 6201,
    "Ġnodes": 1969,
    "Ġdives": 17890,
    "abs": 11666,
    "Ġfirm": 3870,
    "Ġloving": 8175,
    "Ġexclamations": 11361,
    "ruded": 15900,
    "imately": 12686,
    "render": 10291,
    "Ġrays": 10330,
    "Ġstature": 10863,
    "Ġajar": 21201,
    "lied": 6507,
    "travelling": 24317,
    "ighter": 7967,
    "Ġberry": 19745,
    "Ġdeafened": 25651,
    "Ġpeaks": 16127,
    "Ġcomplet": 4416,
    "eld": 967,
    "deceit": 25556,
    "masterly": 24530,
    "Ġhearts": 4972,
    "assistant": 25565,
    "grown": 10099,
    "we": 848,
    "Ġillness": 8589,
    "unknown": 10890,
    "Ġsparks": 22130,
    "Ġforebodings": 17303,
    "Ġ86": 24461,
    "ologically": 22847,
    "crazy": 24691,
    "fisher": 7547,
    "Ġagrippa": 11805,
    "Ġdistrust": 8204,
    "Ġeluded": 12920,
    "Ġcontextual": 3742,
    "Ġtrotting": 19974,
    "button": 10966,
    "Ġcobbling": 20521,
    "icide": 11617,
    "Ġpred": 663,
    "Ġcetace": 14987,
    "Ġperception": 9749,
    "Ġpul": 2042,
    "Ġdiggings": 24649,
    "omb": 10205,
    "Ġenduring": 16303,
    "Ġmonomaniac": 9568,
    "rail": 10204,
    "used": 3259,
    "Ġprivacy": 19523,
    "Ġrejoined": 14926,
    "Ġwestward": 24389,
    "Ġoverpowered": 15287,
    "Ġcomposing": 16066,
    "task": 13792,
    "linen": 25257,
    "Ġembracing": 14979,
    "Ġtoler": 7588,
    "100": 11464,
    "twain": 23698,
    "real": 10149,
    "moor": 22701,
    "rows": 6442,
    "important": 7112,
    "Ġindividually": 22954,
    "portent": 25412,
    "taller": 26150,
    "Ġwol": 15529,
    "Ġmissionary": 25696,
    "Ġtempt": 5565,
    "õ": 182,
    "Ġcircumnavigation": 20398,
    "Ġworld": 1598,
    "Ġclinched": 17393,
    "Ġvindictive": 20468,
    "Ġtout": 17719,
    "necessity": 13365,
    "Ġhitherto": 5879,
    "Ġstanzas": 21741,
    "Ġgown": 10201,
    "Ġdamps": 23475,
    "Ġcongregational": 25102,
    "Ġmermaids": 26170,
    "Ġalluding": 18236,
    "Ġdilated": 24704,
    "Ġdisrespect": 18553,
    "Ġmasses": 10503,
    "Ġverdict": 13473,
    "Ġintention": 5638,
    "idirection": 2411,
    "Ġage": 3895,
    "Ġparts": 4162,
    "Ġspices": 22128,
    "Ġarchitects": 18743,
    "venge": 4658,
    "Ġimpud": 18445,
    "Ġtoe": 13935,
    "Ġsolemnisation": 24111,
    "Ġouthouse": 22311,
    "rebellum": 26165,
    "Ġlichen": 20090,
    "abilities": 3236,
    "anzas": 17840,
    "Ġsaintsbury": 26372,
    "commodore": 20624,
    "Ġconversed": 13184,
    "Ġgerman": 6141,
    "false": 15353,
    "Ġadventurous": 16733,
    "Ġcoward": 7155,
    "iana": 7048,
    "etical": 13957,
    "Ġsupplied": 8943,
    "plan": 15811,
    "Ġbills": 17860,
    "Ġredoubled": 23752,
    "Ġpractice": 2830,
    "aet": 15306,
    "iftings": 23225,
    "relieved": 13274,
    "Ġquant": 6424,
    "Ġsacrifice": 9555,
    "Ġderision": 16309,
    "Ġbrah": 19355,
    "keel": 14128,
    "Ġpitchpoling": 14910,
    "battering": 20785,
    "algorith": 3421,
    "desolation": 20448,
    "Ġdirty": 9178,
    "Ġassemblage": 26351,
    "dropping": 14981,
    "Ġscorched": 17101,
    "easy": 9592,
    "irement": 18355,
    "derer": 4598,
    "cent": 8072,
    "Ġobstetrics": 24678,
    "Ġchristianity": 19860,
    "Ġclumsy": 9579,
    "lizzy": 6651,
    "Ġvessels": 6755,
    "Ġbarbaric": 10013,
    "Ġmargaret": 10376,
    "Ġg": 310,
    "singing": 24363,
    "Ġwithheld": 18110,
    "Ġparticularly": 5056,
    "Ġincline": 18569,
    "fashioned": 9570,
    "condem": 16343,
    "displayed": 20735,
    "Ġmanifested": 17157,
    "tur": 5688,
    "Ġpot": 2988,
    "exhibited": 18477,
    "Ġmus": 3396,
    "voc": 8393,
    "Ġbullion": 24983,
    "Ġ94": 17717,
    "Ġtrophy": 20005,
    "Ġunconditional": 15843,
    "Ġintroduces": 3268,
    "oundered": 14164,
    "exciting": 19667,
    "ust": 498,
    "Ġviciously": 24404,
    "Ġdownwards": 8529,
    "swiss": 24255,
    "Ġthigh": 10186,
    "rowsers": 8694,
    "Ġyesterday": 5332,
    "slide": 24556,
    "Ġvoices": 7875,
    "Ġchained": 16387,
    "Ġwounded": 8657,
    "ourage": 2450,
    "Ġcreator": 7254,
    "Ġbosom": 6939,
    "Ġdeclare": 6614,
    "Ġrecogn": 2722,
    "Ġsplendid": 17213,
    "Ġarguing": 25470,
    "Ġconfess": 3766,
    "sue": 2078,
    "animated": 14974,
    "Ġlively": 5449,
    "Ġdun": 6673,
    "Ġinstruments": 12221,
    "Ġmedical": 9463,
    "Ġideas": 5494,
    "*": 14,
    "Ġere": 3684,
    "tre": 8760,
    "Ġstacked": 21740,
    "fool": 9047,
    "Ġdiscreet": 16482,
    "Ġoper": 2120,
    "Ġcrucifix": 26079,
    "Ġpassed": 2012,
    "delirium": 14783,
    "Ġeffectual": 18733,
    "Ġstyle": 6946,
    "Ġsophisticated": 1599,
    "tfordshire": 4811,
    "even": 3837,
    "Ġmeek": 21809,
    "Ġgrammars": 11402,
    "Ġsternly": 16715,
    "Ġbeings": 2488,
    "Ġmultiplied": 23688,
    "Ġabode": 7899,
    "Ġcurric": 22959,
    "Ġregularizer": 2342,
    "Ġmercy": 8998,
    "Ġbarrels": 9435,
    "Ġmaintained": 12932,
    "Ġmeasuring": 22879,
    "Ġvigorous": 10566,
    "Ġmirth": 15543,
    "upper": 11538,
    "Ġeleventh": 23367,
    "Ġconsol": 3815,
    "smart": 23904,
    "aloft": 8806,
    "nav": 17612,
    "Ġcauses": 2563,
    "rear": 21231,
    "rance": 5993,
    "Ġfoundering": 21417,
    "Ġillustrative": 25066,
    "Ġthrilling": 19747,
    "fastened": 19323,
    "Ġshift": 2283,
    "sery": 17661,
    "Ġthinnest": 24181,
    "Ġhovered": 12629,
    "ascertaining": 26460,
    "Ġbri": 21376,
    "Ġrheum": 18214,
    "Ġglasses": 9474,
    "ough": 471,
    "ounce": 6557,
    "Ġhumiliation": 16198,
    "Ġroses": 11784,
    "beryls": 25309,
    "Ġleathern": 15050,
    "something": 4280,
    "housekeeper": 24099,
    "itself": 7834,
    "Ġcadiz": 17324,
    "dreadful": 11421,
    ":âĢĶâĢĺ": 24191,
    "omorrah": 18017,
    "Ġbeauty": 3769,
    "relatively": 24011,
    "inte": 5144,
    "anatory": 21361,
    "Ġsooner": 5573,
    "hurriedly": 25510,
    "Ġintegral": 25008,
    "Ġbrightness": 16576,
    "enced": 4291,
    "Ġthanked": 9458,
    "Ġbolt": 11334,
    "Ġsal": 3936,
    "pleas": 3851,
    "Ġgem": 21591,
    "uits": 21103,
    "Ġsallow": 12533,
    "Ġamount": 8511,
    "Ġimposed": 14216,
    "Ġunicorn": 22054,
    "Ġwhaler": 7520,
    "amiable": 14052,
    "Ġglued": 20587,
    "serpent": 16291,
    "chop": 21685,
    "Ġworshipper": 25692,
    "Ġshapeless": 24524,
    "Ġperformance": 1306,
    "Ġdaybreak": 18726,
    "Ġperpetual": 12301,
    "Ġnumerous": 6920,
    "Ġvoluntarily": 12138,
    "drove": 16993,
    "Ġplaint": 10325,
    "bert": 4662,
    "Ġirritation": 20265,
    "Ġsuited": 12782,
    "Ġknowing": 4450,
    "harmony": 25750,
    "Ġmatters": 4974,
    "Ġfeared": 5930,
    "Ġaffectation": 14440,
    "Ġenthus": 7232,
    "ulum": 21860,
    "Ã": 132,
    "Ġsnaky": 23739,
    "Ġribs": 7101,
    "prison": 14662,
    "room": 2179,
    "Ġheadsmen": 14731,
    "Ġraving": 16111,
    "Ġlaughed": 5059,
    "Ġcarpet": 9355,
    "isl": 21373,
    "Ġbernard": 20683,
    "readers": 23845,
    "onden": 13843,
    "Ġrafters": 22649,
    "Ġsuggestions": 24453,
    "commander": 16987,
    "Ġstrateg": 1385,
    "Ġseparating": 16685,
    "Ġidentified": 19150,
    "Ġslave": 7454,
    "value": 18810,
    "Ġencl": 16164,
    "Ġmarching": 16699,
    "critical": 19502,
    "Ġcathedral": 17412,
    "por": 2151,
    "Ġrefreshing": 20263,
    "Ġsequence": 1979,
    "Ġcaved": 21351,
    "Ġassist": 3562,
    "wantonly": 25149,
    "Ġcheering": 11133,
    "Ġuncomp": 15840,
    "Ġaccurately": 4242,
    "Ġeas": 2355,
    "uttering": 12660,
    "body": 2311,
    "Ġvaguely": 17365,
    "Ġarose": 7360,
    "disappointment": 11425,
    "Ġsoapstone": 20509,
    "Ġbehold": 5049,
    "Ġsuspend": 14608,
    "Ġeastward": 13388,
    "avish": 22591,
    "Ġunheard": 22022,
    "Ġtastes": 15477,
    "Ġmoot": 22429,
    "Ġmoulton": 17434,
    "Ġstrangeness": 16707,
    "Ġchanging": 11751,
    "Ġwat": 1286,
    "hen": 3516,
    "Ġfine": 1315,
    "Ġvarying": 15809,
    "Ġbusks": 23337,
    "sentiment": 12912,
    "Ġtrop": 7565,
    "Ġaf": 780,
    "Ġpass": 1038,
    "ree": 875,
    "Ġstuff": 5717,
    "hur": 6648,
    "Ġcorrupt": 11921,
    "Ġspeak": 2232,
    "Ġgirdle": 19156,
    "Ġcups": 16882,
    "Ġfiend": 4405,
    "Ġepsom": 19981,
    "like": 1885,
    "sick": 13783,
    "caut": 20811,
    "Ġdashing": 8795,
    "igin": 3654,
    "itate": 6667,
    "chanced": 18808,
    "Ġspiritual": 9929,
    "Ġerection": 23998,
    "Ġcrocod": 19627,
    "Ġslily": 23161,
    "Ġexceed": 1344,
    "Ġcanst": 8857,
    "Ġhammer": 6093,
    "Ġexpectation": 6904,
    "Ġwindpipe": 23104,
    "Ġlisten": 4673,
    "Ġcrimin": 6901,
    "Ġpushed": 5909,
    "Ġrecurrent": 1805,
    "ength": 2317,
    "Ġjenkinson": 11431,
    "Ġpredicting": 2415,
    "Ġemotions": 8969,
    "sank": 17662,
    "Ġclasping": 20208,
    "Ġtakes": 5007,
    "tired": 21071,
    "Ġv": 399,
    "Ġstoper": 14461,
    "needles": 20310,
    "gathered": 13731,
    "Ġ89": 19711,
    "Ġinvesting": 19645,
    "Ġconfessor": 24016,
    "Ġconce": 3422,
    "Ġunctuous": 10266,
    "autions": 20766,
    "Ġshown": 5159,
    "Ġheaviest": 23322,
    "Ġscrib": 22285,
    "ivery": 17572,
    "Ġheiress": 20696,
    "Ġdrows": 21433,
    "Ġfearless": 9874,
    "Ġdemean": 12721,
    "Ġdoubts": 8579,
    "Ġinvoked": 19144,
    "Ġyawn": 7609,
    "Ġaccurate": 13266,
    "Ġcoverage": 4283,
    "respectable": 19846,
    "ougher": 18279,
    "Ġmosses": 20162,
    "do": 1997,
    "Ġapothecary": 13657,
    "Ġsweeter": 23915,
    "Ġsymph": 22200,
    "Ġsalted": 14755,
    "Ġhumbly": 16197,
    "Ġhands": 1664,
    "gaze": 17557,
    "Ġharpooneers": 4731,
    "Ġsuspicion": 6211,
    "Ġimproper": 22740,
    "Ġtoiled": 12640,
    "Ġsqueezing": 25006,
    "companions": 15023,
    "Ġinhabitants": 7524,
    "?": 35,
    "Ġinterposed": 20617,
    "rennial": 22349,
    "Ġpossessed": 5195,
    "Ġproceedings": 9906,
    "Ġcool": 5734,
    "ipper": 13739,
    "cloud": 11106,
    "Ġappertain": 22213,
    "ivial": 15859,
    "william": 4559,
    "Ġcourtesy": 9944,
    "Ġpro": 360,
    "Ġrender": 8304,
    "Ġentranced": 25833,
    "recognised": 15261,
    "Ġlanding": 11983,
    "Ġ67": 19659,
    "Ġxvi": 19104,
    "Ġspoils": 24808,
    "Ġjoists": 19231,
    "willingly": 11981,
    "exe": 11787,
    "Ġstile": 21729,
    "beginning": 13559,
    "Ġunman": 12772,
    "Ġallen": 5160,
    "Ġfonder": 17880,
    "Ġcamp": 9164,
    "Ġautomatically": 3776,
    "Ġjoyous": 14663,
    "tinted": 17683,
    "Ġfumbled": 17881,
    "Ġcetacea": 20552,
    "enth": 6680,
    "Ġwaters": 3594,
    "beam": 16038,
    "icate": 9201,
    "Ġshrew": 21997,
    "Ġdearly": 10401,
    "ra": 314,
    "exerc": 16014,
    "Ġapparently": 6778,
    "Ġextremely": 2669,
    "Ġquiescent": 26242,
    "sciss": 18857,
    "Ġsociable": 19402,
    "subst": 12162,
    "Ġfreshets": 25705,
    "omin": 4702,
    "Ġconscience": 6929,
    "Ġpersisting": 18888,
    "ostentatious": 20651,
    "Ġattain": 12745,
    "Ġbraided": 16581,
    "Ġfourteen": 12008,
    "Ġlick": 21547,
    "Ġdeficiency": 14402,
    "Ġteacher": 22903,
    "Ġflow": 1240,
    "Ġwearer": 21919,
    "surprise": 9529,
    "Ġplunging": 14951,
    "useless": 14594,
    "Ġthinner": 24180,
    "Ġrag": 18638,
    "Ġfreed": 7267,
    "Ġedge": 5188,
    "laborers": 23913,
    "ul": 371,
    "Ġsoliloqu": 11883,
    "stating": 21644,
    "Ġimparts": 18446,
    "aff": 3100,
    "ral": 4627,
    "Ġchall": 10944,
    "Ġinferior": 8365,
    "chari": 21686,
    "Ġjury": 5378,
    "addition": 13382,
    "Ġevid": 3498,
    "ichron": 22165,
    "ructure": 757,
    "rugged": 6849,
    "orrah": 17875,
    "Ġmounts": 17806,
    "unhappy": 10237,
    "Ġaudible": 19880,
    "Ġlot": 6678,
    "abash": 18107,
    "accusations": 23598,
    "distinctive": 25726,
    "ace": 719,
    "inent": 9628,
    "Ġsentiments": 7960,
    "Ġvigilance": 12369,
    "Ġfootfall": 14661,
    "Ġattitude": 8904,
    "Ġwarb": 17787,
    "Ġspoken": 4836,
    "adow": 18087,
    "rating": 7808,
    "Ġallows": 3232,
    "Ġphil": 3385,
    "Ġenvironment": 4565,
    "Ġdey": 11674,
    "Ġsc": 532,
    "Ġcross": 1370,
    "deemed": 18315,
    "Ġcasual": 11409,
    "Ġscuff": 15942,
    "Ġanimal": 2497,
    "Ġresided": 11809,
    "meant": 7920,
    "Ġcall": 2076,
    "fresh": 13390,
    "Ġclergy": 7642,
    "Ġphys": 5653,
    "Ġencourages": 2062,
    "âĢĻ,": 14069,
    "Ġhomely": 25219,
    "Ġthreatens": 24375,
    "Ġnose": 4396,
    "Ġcatholic": 20680,
    "Ġincreasingly": 9370,
    "ife": 1024,
    "angered": 16177,
    "Ġwisest": 11232,
    "cred": 9107,
    "Ġcruise": 12047,
    "Ġgallied": 19555,
    "Ġtho": 21511,
    "Ġepistle": 24904,
    "Ġdegradation": 2631,
    "Ġdynam": 3365,
    "Ġunforeseen": 22050,
    "Ġjovial": 19232,
    "Ġ1825": 25719,
    "Ġblessing": 11263,
    "Ġpin": 7161,
    "oned": 4630,
    "Ġattempts": 10490,
    "kov": 17586,
    "Ġrecognised": 8995,
    "iature": 8741,
    "Ġcrater": 16439,
    "thou": 4708,
    "Ġhang": 9187,
    "Ġlashing": 11615,
    "Ġrollicking": 24451,
    "una": 21866,
    "Ġruff": 14346,
    "Ġrefreshed": 15289,
    "Ġforgiveness": 16656,
    "Ġforgotten": 5679,
    "Ġstri": 2802,
    "Ġfoss": 9848,
    "Ġapparent": 5466,
    "news": 23131,
    "Ġlaboratory": 13610,
    "Ġholder": 6724,
    "Ġyankees": 26201,
    "Ġemail": 19074,
    "Ġplanets": 24053,
    "Ġbonds": 17869,
    "althily": 19357,
    "second": 6543,
    "Ġwinged": 16995,
    "nine": 13760,
    "pictures": 15089,
    "Ġafter": 870,
    "granting": 23412,
    "å": 166,
    "Ġscarcity": 23824,
    "Ġvitality": 15171,
    "Ġthoughtless": 16192,
    "sheep": 23083,
    "Ġdel": 1615,
    "Ġstim": 18063,
    "Ġbarrel": 23790,
    "ston": 15681,
    "Ġinstinctively": 13457,
    "Ġpartiality": 9397,
    "Ġcot": 13876,
    "crimes": 16697,
    "Ġpostponed": 20388,
    "Ġseemingly": 9317,
    "Ġaffright": 9331,
    "claim": 9834,
    "Ġdetain": 14173,
    "Ġpirates": 9073,
    "Ġsleeve": 20139,
    "Ġhangs": 11605,
    "Ġmanage": 7640,
    "Ġpigs": 19746,
    "Ġbreathe": 9011,
    "ispensable": 9095,
    "steel": 8298,
    "network": 1963,
    "Ġpersian": 11091,
    "Ġgasfitters": 25038,
    "Ġtasselled": 25921,
    "Ġcold": 3029,
    "Ġless": 1938,
    "included": 19207,
    "adieu": 26200,
    "Ġchronic": 9928,
    "Ġlargely": 14284,
    "lessly": 4552,
    "Ġparametric": 2396,
    "Ġrequ": 806,
    "Ġflo": 2588,
    "Ġraise": 6166,
    "Ġperil": 5557,
    "endous": 6850,
    "Ġdrama": 16328,
    "nephew": 26397,
    "Ġmoist": 9284,
    "Ġcurt": 18838,
    "prehensible": 12358,
    "showing": 22460,
    "ordingly": 18518,
    "astron": 22166,
    "diminished": 20838,
    "Ġlogs": 16346,
    "osely": 9264,
    "omited": 21638,
    "Ġspiteful": 19521,
    "ourably": 14374,
    "Ġtambourine": 9564,
    "Ġoat": 21321,
    "thodox": 21985,
    "black": 6768,
    "Ġlaz": 7378,
    "30": 20753,
    "Ġarrows": 18343,
    "Ġrepeatedly": 9020,
    "Ġgladness": 16591,
    "civilized": 17075,
    "Ġtremor": 24768,
    "jephro": 26392,
    "Ġpicking": 11259,
    "vast": 10736,
    "Ġbut": 424,
    "Ġcities": 17827,
    "Ġescaped": 6459,
    "Ġretirement": 25378,
    "somebody": 14565,
    "fier": 9593,
    "Ġgriev": 16634,
    "avenza": 17104,
    "Ġinvulnerable": 19146,
    "Ġpil": 5014,
    "Ġtropical": 17065,
    "Ġobtaining": 16131,
    "Ġwashington": 17202,
    "laug": 10707,
    "Ġpaces": 13918,
    "Ġsoutherly": 23332,
    "Ġsmiting": 12896,
    "Ġfall": 2985,
    "Ġbrood": 23099,
    "Ġgrazed": 15832,
    "Ġcrony": 23439,
    "orough": 5700,
    "Ġtransmit": 10304,
    "Ġonly": 786,
    "Ġavowed": 16633,
    "Ġquito": 24408,
    "Ġbegg": 16251,
    "arily": 4123,
    "antic": 1607,
    "Ġworked": 6583,
    "breast": 11245,
    "Ġoverspread": 14206,
    "amused": 21843,
    "Ġdropping": 7483,
    "whiteness": 18370,
    "ood": 961,
    "ureau": 10226,
    "wling": 11544,
    "Ġchoke": 22246,
    "Ġseverely": 14932,
    "heartily": 24214,
    "uine": 13798,
    "Ġflask": 3036,
    ",âĢĶâĢľ": 10069,
    "Ġreminded": 9998,
    "Ġcourting": 23288,
    "ladyship": 14828,
    "Ġbringing": 5869,
    "Ġlose": 5028,
    "Ġutensils": 23514,
    "Ġmarried": 3407,
    "herent": 2532,
    "Ġfinds": 6299,
    "Ġtahit": 10754,
    "versed": 9824,
    "Ġwindigate": 18910,
    "Ġwhiskers": 10492,
    "told": 7811,
    "Ġassail": 13059,
    "Ġproductions": 22943,
    "mopol": 15395,
    "âĢĿ;": 11669,
    "banish": 20781,
    "some": 2237,
    "cery": 20807,
    "become": 14246,
    "low": 657,
    "suppose": 8644,
    "rasing": 21044,
    "Ġshows": 8482,
    "feren": 766,
    "Ġchips": 14181,
    "Ġbackbone": 22655,
    "Ġsail": 1675,
    "Ġkentuck": 19890,
    "Ġburgl": 13171,
    "Ġpermitting": 22397,
    "Ġbreezes": 14868,
    "Ġthereby": 7643,
    "Ġexpands": 25237,
    "Ġinternal": 2248,
    "Ġwhaleman": 4654,
    "resting": 23233,
    "exact": 7909,
    "Ġghostliness": 24651,
    "Ġdissuade": 26256,
    "lingly": 9772,
    "Ġhurriedly": 11250,
    "uerus": 26406,
    "Ġatonement": 21939,
    "Ġsworn": 14434,
    "hos": 15362,
    "Ġunexpectedly": 19908,
    "Ġrecollected": 8310,
    "Ġheathenish": 13614,
    "Ġultimately": 17164,
    "Ġordained": 19443,
    "benefact": 24641,
    "Ġconvert": 11841,
    "##": 2320,
    "odox": 21808,
    "devilish": 17082,
    "kick": 20935,
    "Ġwaste": 9233,
    "Ġdownst": 3557,
    "Ġprot": 3847,
    "als": 2043,
    "Ġ58": 24326,
    "Ġdem": 11673,
    "idual": 1562,
    "Ġaccommodate": 20515,
    "blot": 20782,
    "âĢĿâĢĶ": 5721,
    "invariably": 26416,
    "repid": 11564,
    "aning": 2255,
    "Ġunresting": 25553,
    "Ġruinous": 24633,
    "Ġarabic": 24978,
    "Ġfavour": 3640,
    "ecess": 17532,
    "Ġhellaswag": 24343,
    "Ġsquatted": 25841,
    "ience": 824,
    "rages": 15679,
    "Ġgloom": 4197,
    "concerning": 9067,
    "ibilities": 13008,
    "),": 1346,
    "Ġoriginated": 24120,
    "Ġgleam": 12306,
    "Ġburnished": 23995,
    "Ġdays": 2079,
    "Ġheightened": 8648,
    "Ġsnake": 12059,
    "Ġlit": 6246,
    "Ġthe": 270,
    "Ġisle": 8832,
    "awk": 23112,
    "boys": 13357,
    "Ġaccept": 4404,
    "itigated": 23042,
    "jury": 15372,
    "Ġgait": 13328,
    "ece": 17531,
    "Ġreclining": 26033,
    "rusion": 11323,
    "Ġlocker": 16911,
    "Ġhiss": 15786,
    "Ġcrop": 10162,
    "imly": 12685,
    "Ġwanderings": 20142,
    "Ġborder": 10169,
    "Ġsurrender": 16450,
    "Ġcolouring": 16751,
    "Ġavalanche": 17432,
    "Ġcollected": 2610,
    "urously": 18049,
    "Ġburned": 8630,
    "Ġscrutiny": 26015,
    "aside": 10191,
    "Ġprair": 7746,
    "comm": 7440,
    "iece": 3228,
    "Ġtarget": 2819,
    "wheeler": 16188,
    "accuracy": 9878,
    "Þ": 159,
    "Ġinjuring": 24268,
    "ament": 2438,
    "Ġwhe": 438,
    "ional": 1084,
    "Ġpersuasion": 10498,
    "Ġforest": 9870,
    "Ġdevoted": 6573,
    "Ġ$": 21149,
    "inity": 5693,
    "Ġdestined": 7974,
    "Ġrecol": 4027,
    "Ġguards": 16266,
    "ads": 5718,
    "sand": 21051,
    "Ġextreme": 2519,
    "Ġbenediction": 18783,
    "Ġreserve": 9970,
    "Ġvon": 14080,
    "ĠĠĠĠĠĠĠĠĠĠĠĠĠĠĠĠĠĠĠĠĠĠĠĠĠĠĠĠĠ": 19698,
    "tw": 2810,
    "vitality": 20477,
    "Ġunrecorded": 17467,
    "dead": 8179,
    "igning": 12678,
    "eman": 5636,
    "acle": 4715,
    "oves": 15403,
    "engaged": 7452,
    "Ġtwos": 18657,
    "Ġcyn": 13885,
    "tram": 19634,
    "Ġintru": 15826,
    "Ġcontents": 7210,
    "Ġabandoned": 8351,
    "Ġgurg": 15671,
    "Ġdiscrete": 2474,
    "Ġarmies": 16492,
    "bol": 8717,
    "Ġbeeches": 9226,
    "Ġfinny": 23125,
    "Ġpence": 17905,
    "Ġsecretary": 19440,
    "Ġcontains": 2792,
    "Ġmole": 11789,
    "pet": 4867,
    "Ġbible": 9318,
    "erval": 4018,
    "Ġpressed": 6041,
    "Ġ127": 24472,
    "Ġrue": 11865,
    "Ġraging": 14304,
    "moderate": 22851,
    "Ġplates": 11006,
    "Ġakin": 15495,
    "Ġdoing": 3659,
    "please": 8176,
    "ant": 439,
    "Ġemboldened": 22972,
    "venant": 22623,
    "ested": 3478,
    "Ġaccompaniments": 24482,
    "rumours": 23897,
    "confused": 19643,
    "Ġbob": 22633,
    "ie": 729,
    "Ġprograms": 7239,
    "Ġcetology": 10008,
    "Ġchim": 5932,
    "Ġgirdled": 19157,
    "eded": 9673,
    "coal": 12023,
    "Ġfound": 1246,
    "Ġinstituted": 18697,
    "Ġflying": 5413,
    "Ġpartial": 2128,
    "Ġbathed": 17865,
    "Ġblinding": 14727,
    "vel": 2385,
    "inspect": 11558,
    "equally": 19898,
    "Ġopposing": 12038,
    "Ġunt": 2295,
    "influences": 25250,
    "Ġ2026": 12333,
    "Ġintentions": 10607,
    "dial": 20824,
    "Ġbow": 3056,
    "grand": 7969,
    "Ġexquis": 9698,
    "Ġvit": 10245,
    "nib": 5214,
    "Ġtossing": 8125,
    "Ġconstantinople": 19836,
    "Ġgoug": 17990,
    "Ġheated": 21679,
    "Ġtopmost": 14587,
    "Ġvelv": 10619,
    "Ġdarkened": 16432,
    "Ġisinglass": 21799,
    "Ġinsinuating": 19270,
    "Ġcontributed": 16008,
    "uccas": 21105,
    "Ġpickle": 16722,
    "came": 4568,
    "Ġdemoniac": 15063,
    "Ġlegal": 10439,
    "Ġdischarge": 18556,
    "thar": 18217,
    "unpardonable": 21887,
    "joined": 13273,
    "ext": 933,
    "inkled": 5477,
    "Ġbedroom": 7277,
    "snapping": 24849,
    "Ġbushes": 16401,
    "antage": 3878,
    "Ġapartment": 6633,
    "Ġsprings": 16687,
    "Ġbelongs": 8014,
    "Ġtendons": 19807,
    "Ġtow": 4389,
    "jane": 4479,
    "Ġfrance": 7681,
    "Ġfeedforward": 2330,
    "anted": 5027,
    "Ġenjoys": 19448,
    "ality": 2515,
    "sn": 7138,
    "Ġcuvier": 9165,
    "pond": 21012,
    "concent": 19478,
    "Ġregarding": 13206,
    "proposal": 18754,
    "Ġsundry": 20072,
    "Ġidentity": 2527,
    "Ġcensured": 25094,
    "gging": 7696,
    "bing": 7791,
    "Ġbarbary": 24215,
    "Ġmagnitude": 1944,
    "inkling": 16089,
    "Ġagreeing": 20017,
    "okened": 15983,
    "Ġunsuccessful": 18257,
    "Ġreverie": 13455,
    "atisf": 21262,
    "Ġty": 6657,
    "Ġattack": 5478,
    "Ġabhorred": 9507,
    "Ġcatch": 4434,
    "pilot": 25908,
    "Ġcharms": 11130,
    "supposed": 13313,
    "Ġpolitely": 8993,
    "Ġbreakers": 12053,
    "Ġadvances": 12987,
    "comed": 8544,
    "Ġhermits": 22071,
    "gyric": 19109,
    "Ġdrank": 16535,
    "Ġexcept": 3313,
    "batim": 25016,
    "Ġminutes": 2998,
    "Ġlogits": 3450,
    "Ġpearl": 20375,
    "care": 4928,
    "mountain": 10713,
    "Ġpeeled": 14317,
    "Ġcompanionship": 14919,
    "Ġglance": 4228,
    "Ġreef": 10849,
    "Ġthro": 5817,
    "catch": 17506,
    "Ġindolence": 16227,
    "supplemental": 25874,
    "lee": 11584,
    "Ġenormous": 5609,
    "Ġimpulsive": 19961,
    "Ġmoodily": 19833,
    "from": 1993,
    "Ġaccompanying": 11304,
    "Ġvoc": 4444,
    "Ġbelfry": 26438,
    "Ġsuffering": 8946,
    "decl": 8856,
    "Ġassent": 12732,
    "Ġslack": 8955,
    "Ġunde": 11710,
    "wer": 8394,
    "Ġpopular": 6216,
    "pad": 13767,
    "Ġpair": 5706,
    "Ġgloried": 22984,
    "Ġthroat": 7770,
    "distrust": 19569,
    "miseries": 16757,
    "Ġeloquence": 11840,
    "Ġgrandeur": 8627,
    "Ġearning": 23938,
    "Ġpowerful": 1542,
    "Ġsteelkilt": 5675,
    "Ġringing": 13329,
    "Ġrecollecting": 17113,
    "Ġheroes": 10576,
    "Ġwished": 3729,
    "usation": 18396,
    "fairly": 17219,
    "Ġbecome": 3157,
    "Ġclamorous": 24909,
    "Ġbrist": 14377,
    "Ġsewing": 21958,
    "Ġeagle": 13198,
    "Ġhertfordshire": 5377,
    "Ġremoving": 12114,
    "splice": 17170,
    "Ġupdating": 2691,
    "Ġconference": 15745,
    "Ġsinners": 18949,
    "Ġ270": 25130,
    "Ġirregularity": 25324,
    "ourney": 3551,
    "Ġug": 8140,
    "antingly": 22095,
    "details": 19674,
    "wes": 17703,
    "Ġclut": 7641,
    "Ġattracted": 8905,
    "apped": 5395,
    "mediate": 16513,
    "Ġgnawed": 25164,
    "Ġrug": 16156,
    "igation": 5917,
    "Ġtufted": 17014,
    "ć": 200,
    "Ġgradually": 3400,
    "Ġinsufferable": 13930,
    "Ġflea": 23772,
    "Ġinh": 10824,
    "nants": 17613,
    "buttoned": 13630,
    "Ġhumanity": 6731,
    "Ġpolynes": 16078,
    "Ġimplicate": 24876,
    "Ġmar": 1310,
    "Ġsmith": 16063,
    "¿": 128,
    "Ġbru": 13894,
    "Ġred": 3003,
    "Ġsurmount": 19999,
    "Ġfixing": 13154,
    "Ġimplies": 24873,
    "Ġtent": 15467,
    "Ġgrassy": 24379,
    "Ġconstrued": 26301,
    "fen": 20849,
    "chapter": 1405,
    "ĠĠĠĠĠĠĠĠĠĠĠĠĠĠĠĠĠĠĠĠĠĠĠĠĠĠĠĠĠĠĠĠĠĠĠĠĠĠĠĠĠĠĠĠ": 12151,
    "Ġhartshorn": 26180,
    "Ġunkindness": 22039,
    "Ġbland": 11064,
    "ented": 4343,
    "infidel": 24663,
    "Ġgreatness": 12941,
    "Ġcrozetts": 19628,
    "Ġrecur": 1624,
    "Ġholiday": 12994,
    "Ġdislike": 6047,
    "ameter": 2917,
    "Ġtinted": 13821,
    "reached": 13840,
    "Ġconjecture": 9531,
    "Ġinsult": 6747,
    "ounix": 14163,
    "Ġepid": 18004,
    "Ġrattling": 11395,
    "Ġmanly": 22321,
    "ately": 1717,
    "mess": 13752,
    "Ġtragic": 15254,
    "Ġcruis": 14624,
    "Ġsomeone": 6703,
    "Ġerrone": 14429,
    "Ġinterruptions": 24184,
    "col": 3101,
    "Ġopera": 23424,
    "inqu": 6121,
    "Ġhold": 2246,
    "Ë": 140,
    "Ġfervour": 19725,
    "ĠâĢĶâĢĶ": 25757,
    "Ġbutt": 14125,
    "Ġstag": 6148,
    "Ġstrangely": 5677,
    "Ġparalle": 1412,
    "Ġgallery": 10524,
    "Ġhorseback": 14849,
    "erns": 8777,
    "flutter": 23968,
    "glit": 23848,
    "Ġfairest": 20461,
    "bedstead": 23847,
    "Ġabased": 22265,
    "ilar": 10215,
    "rayed": 23562,
    "Ġsensible": 4976,
    "Ġdesponding": 25868,
    "Ġhookah": 16970,
    "Ġrand": 1586,
    "immediately": 10048,
    "swam": 24254,
    "Ġmountainous": 16599,
    "Ġambitious": 18514,
    "fourths": 25509,
    "ashing": 4824,
    "apter": 1194,
    "aren": 10073,
    "watching": 16930,
    "Ġbubble": 13533,
    "numer": 15399,
    "Ġbeing": 1165,
    "Ġfarmhouse": 24984,
    "Ġcontriv": 9281,
    "cket": 3686,
    "Ġegot": 18007,
    "Ġder": 1500,
    "Ġdoted": 21431,
    "Ġtresses": 21174,
    "Ġlarge": 1065,
    "Ġfoundations": 11073,
    "oise": 15404,
    "Ġ40": 14767,
    "Ġesteemed": 10588,
    "Ġlowered": 6735,
    "ortunity": 4397,
    "Ġmutual": 8296,
    "fi": 12459,
    "office": 16395,
    "Ġcould": 703,
    "direct": 12454,
    "conclude": 24063,
    "Ġinconstant": 21493,
    "ply": 6366,
    "bearer": 18524,
    "Ġbloodshed": 23799,
    "Ġtangled": 13826,
    "Ġappalling": 8499,
    "Ġmended": 21312,
    "fts": 18696,
    "Ġvivacious": 19814,
    "opolising": 25676,
    "accounted": 16501,
    "Ġsepulch": 15283,
    "Ġsound": 2244,
    "operations": 19973,
    "Ġestimated": 16594,
    "stone": 5089,
    "Ġnervousness": 23555,
    "Ġminus": 18749,
    "Ġhead": 1122,
    "uous": 4142,
    "Ġitems": 9691,
    "Ġglimp": 6065,
    "ele": 9114,
    "archical": 1926,
    "Ġmakes": 3650,
    "handedness": 24920,
    "Ġfinger": 5273,
    "equ": 6790,
    "atherine": 2595,
    "violently": 23542,
    "Ġholland": 10365,
    "Ġindirect": 18835,
    "Ġinterpreter": 23214,
    "abated": 14019,
    "ahawk": 23314,
    "racts": 14354,
    "Ġbaff": 10799,
    "lean": 21363,
    "crowd": 25254,
    "scruple": 26045,
    "thed": 8826,
    "Ġfemale": 8344,
    "itics": 13871,
    "Ġsurpasses": 25268,
    "Ġgallop": 19554,
    "na": 13759,
    "Ġbuilt": 8300,
    "Ġcocain": 18594,
    "ivation": 3109,
    "fast": 3067,
    "Ġezek": 18009,
    "ais": 8070,
    "any": 3338,
    "Ġaffidavit": 20723,
    "Ġwearily": 18177,
    "apers": 3480,
    "Ġcoat": 4550,
    "Ġshortness": 23482,
    "Ġpollard": 20384,
    "Ġbrimstone": 25686,
    "Ġgasping": 17038,
    "Ġbeen": 626,
    "escript": 18471,
    "Ġadditionally": 1175,
    "Ġwreaths": 25937,
    "Ġdedicated": 19242,
    "chants": 21689,
    "Ġoutcast": 18414,
    "ourers": 21447,
    "disappo": 8984,
    "Ġbids": 24645,
    "Ġnourishment": 15191,
    "Ġcurrent": 13002,
    "Ġasser": 6257,
    "Ġhooks": 14967,
    "Ġspecies": 5112,
    "Ġwhipcord": 20093,
    "Ġclamped": 18423,
    "Ġforeshadowing": 26592,
    "Ġbowled": 23768,
    "Ġinland": 11607,
    "Ġmountains": 4420,
    "Ġscheme": 7064,
    "imate": 4216,
    "Ġhag": 12623,
    "Ġincomp": 12895,
    "allest": 5485,
    "Ġpoisoned": 24886,
    "cousin": 10652,
    "Ġlabours": 8582,
    "intelligent": 16844,
    "Ġcomputation": 964,
    "Ġsigmoid": 2461,
    "Ġgrinned": 16857,
    "J": 46,
    "Ġretrie": 10383,
    "Ġtigers": 25758,
    "Ġheaps": 11641,
    "Å": 134,
    "base": 20776,
    "Ġrouted": 24907,
    "Ġjar": 15949,
    "answers": 22120,
    "Ġcomplain": 6685,
    "Ġcloth": 9741,
    "Ġtour": 9147,
    "hic": 3248,
    "wonder": 6371,
    "Ġsne": 6372,
    "hotel": 20048,
    "ctor": 13959,
    "Ġglacier": 11433,
    "Ġsummarization": 3645,
    "Ġsoothed": 10028,
    "Ġrecede": 25968,
    "Ġleaving": 3903,
    "Ġexh": 5232,
    "perishing": 22174,
    "Ġvertical": 16604,
    "Ġwholly": 4440,
    "stave": 21646,
    "Ġequatorial": 13507,
    "Ġjustine": 4970,
    "urities": 18048,
    "Ġhy": 5625,
    "Ġcherished": 10590,
    "Ġpol": 2577,
    "Ġembedding": 2104,
    "Ġchildren": 3767,
    "Ġinform": 999,
    "consum": 12868,
    "Ġstrength": 4255,
    "fee": 12878,
    "featured": 24123,
    "iries": 18169,
    "ters": 1576,
    "Ġresisted": 22538,
    "Ġmurky": 19200,
    "Ġaudibly": 24771,
    "ization": 486,
    "Ġchin": 4891,
    "gratulation": 24349,
    "ader": 14011,
    "aan": 20763,
    "Ġengaged": 3429,
    "come": 2378,
    "Ġdismissed": 12890,
    "Ġnets": 21521,
    "hyena": 24252,
    "Ġmounting": 19975,
    "Ġinfer": 7683,
    "Ġcasting": 12098,
    "employed": 17261,
    "Ġfront": 3451,
    "iner": 2672,
    "Ġpredestinated": 18516,
    "Ġslipper": 24265,
    "Ġgreedy": 3049,
    "Ġbade": 9171,
    "Ġimbec": 14156,
    "cooper": 19188,
    "Ġgate": 6825,
    "Ġodious": 12148,
    "Ġscr": 11759,
    "Ġarrogance": 26231,
    "Ġbald": 16205,
    "mean": 6438,
    "Ġsurmised": 24919,
    "dangerous": 20239,
    "appearance": 5333,
    "Ġcompassionate": 24723,
    "Ġuseless": 7037,
    "Ġexcused": 23311,
    "acked": 10973,
    "Ġpromoting": 3160,
    "halfway": 24311,
    "Ġpeas": 8533,
    "Ġcareless": 11119,
    "Ġwaned": 17791,
    "elling": 5830,
    "suspended": 15176,
    "Ġnaturally": 2465,
    "Ġmuch": 922,
    "Ġdetermines": 2369,
    "urance": 10857,
    "Ġalbino": 20501,
    "orated": 12589,
    "Ġcleansed": 26293,
    "Ġoutriders": 26543,
    "operation": 13499,
    "gan": 2202,
    "Ġregret": 5561,
    "gently": 13728,
    "Ġoverbearing": 12841,
    "asc": 6386,
    "Ġportion": 7492,
    "eon": 8729,
    "itives": 17819,
    "Ġ74": 24261,
    "Ġpsalmody": 20583,
    ";âĢĶ": 3749,
    "Ġhurt": 7700,
    "Ġcolony": 18767,
    "Ġprotectors": 9070,
    "Ġinputs": 844,
    "Ġhumans": 8929,
    "Ġdraught": 9844,
    "parable": 16389,
    "christian": 17232,
    "Ġfaced": 10808,
    "Ġexpans": 18620,
    "Ġmainly": 22653,
    "Ġcased": 21344,
    "Ġenforced": 21936,
    "Ġrelevant": 1863,
    "umbled": 8492,
    "ered": 1684,
    "thirst": 15824,
    "Ġaround": 3609,
    "mel": 9127,
    "peare": 18911,
    "sail": 3601,
    "Ġtorm": 5434,
    "obtained": 23094,
    "Ġsells": 21222,
    "Ġtaken": 2531,
    "oct": 7554,
    "Ġinclement": 22550,
    "Ġobeisance": 19757,
    "Ġwoodlands": 23520,
    "Ġniece": 5712,
    "Ġapolog": 9043,
    "ius": 5789,
    "Ġunh": 9252,
    "spond": 5567,
    "osure": 5306,
    "Ġpossessor": 23821,
    "Ġcigaret": 16976,
    "Ġcharacteristics": 8609,
    "Ġmethodic": 23085,
    "fuller": 22484,
    "broker": 13302,
    "Ġdigging": 14937,
    "Ġlaure": 16909,
    "looks": 12016,
    "resses": 16151,
    "arent": 4245,
    "Ġdiscove": 16154,
    "abling": 1078,
    "Ġanchor": 7368,
    "miles": 10712,
    "imagination": 13478,
    "Ġfan": 2037,
    "Ġinvoluntary": 18762,
    "rated": 6227,
    "Ġach": 2621,
    "Ġinnocent": 4921,
    "tt": 13789,
    "Ġgrudge": 20692,
    "Ġunsounded": 15848,
    "brew": 11473,
    "ssian": 3399,
    "Ġterrify": 19359,
    "Ġpreservative": 24629,
    "hospit": 25903,
    "iver": 2050,
    "ira": 3955,
    "ledyard": 22380,
    "give": 4688,
    "Ġdeclining": 23961,
    "fourth": 11328,
    "Ġoftentimes": 20154,
    "irr": 12735,
    "Ġax": 7822,
    "sig": 2872,
    "Ġriv": 10746,
    "ifications": 9728,
    "Ġver": 3393,
    "Ġblaze": 16219,
    "idity": 8830,
    "control": 16542,
    "Ġface": 1724,
    "Ġste": 1390,
    "Ġconstantly": 11971,
    "ror": 7351,
    "Ġcarbuncle": 14444,
    "Ġholy": 6591,
    "Ġwilderness": 14839,
    "Ġinformation": 1047,
    "Ġsettles": 22917,
    "elaborate": 21573,
    "bantering": 25253,
    "valued": 2851,
    "Ġbracelets": 25502,
    "Ġexceptionable": 25503,
    "Ġ82": 24458,
    "punishment": 15144,
    "Ġvult": 12750,
    "Ġsigma": 1541,
    "embarr": 15794,
    "talk": 6656,
    "Ġnet": 3624,
    "Ġelephant": 8255,
    "ap": 546,
    "Ġweave": 21917,
    "wearing": 22684,
    "Ġthinker": 22808,
    "Ġpreceding": 7528,
    "Ġchamois": 16800,
    "inserted": 18886,
    "Ġsunk": 5752,
    "Ġjeopard": 9942,
    "Ġfearfulness": 23512,
    "Ġportents": 14679,
    "Ġcelebrated": 13592,
    "nor": 2742,
    "attentive": 17189,
    "Ġgrope": 17994,
    "Ġlips": 3991,
    "loved": 14250,
    "Ġcosy": 13129,
    "Ġimmensities": 25330,
    "sor": 7352,
    "visit": 7754,
    "Ġwil": 4578,
    "Ġconfederate": 17353,
    "Ġsinful": 18948,
    "Ġforc": 9227,
    "Ġspangled": 22133,
    "vedale": 22707,
    "embow": 21925,
    "Ġwaits": 23276,
    "uously": 7353,
    "Ġprofundities": 20452,
    "apse": 14198,
    "Ġsums": 2900,
    "lower": 8880,
    "Ġignominy": 15084,
    "Ġbleeds": 24397,
    "Ġcraft": 4370,
    "stupid": 12674,
    "Ġrounding": 16274,
    "Ġornam": 15863,
    "Ġgrop": 12662,
    "Ġconsequently": 8059,
    "Ġimpenit": 22387,
    "Ġmaketh": 15186,
    "exceedingly": 9566,
    "Ġrare": 7036,
    "Ġcontradicted": 20210,
    "Ġdeck": 2138,
    "secret": 12234,
    "rights": 23673,
    "eldom": 4407,
    "month": 6463,
    "moved": 9784,
    "angels": 22100,
    "asserted": 22295,
    "Ġcontracting": 16010,
    "sea": 4763,
    "Ġrephr": 21676,
    "directed": 20403,
    "Ġcomo": 21844,
    "Ġalas": 5921,
    "Ġsubur": 12953,
    "Ġmaimed": 21315,
    "Ġchowders": 18386,
    "avern": 24792,
    "Ġtransl": 2827,
    "Ġyore": 21775,
    "mit": 4933,
    "infliction": 25924,
    "Ġ130": 24781,
    "Ġunhappy": 5640,
    "ship": 1393,
    "Ġinspect": 5963,
    "Ġvillage": 5774,
    "Ġcurling": 9340,
    "combination": 25486,
    "arpaul": 14536,
    "ators": 7829,
    "Ġstruck": 3389,
    "Ġmatrimonial": 25489,
    "understood": 13212,
    "Ġturnpike": 23024,
    "blending": 24127,
    "Ġlest": 6395,
    "tailed": 17685,
    "enorm": 17781,
    "Ġmelt": 21316,
    "Ġhandle": 3135,
    "Ġfewer": 16228,
    "vessel": 11377,
    "Ġaccomp": 4712,
    "Ġherring": 14126,
    "limin": 8383,
    "skeleton": 17375,
    "pit": 3982,
    "Ġorgan": 2502,
    "Ġperemptory": 25740,
    "ferred": 16399,
    "Ġprogram": 12990,
    "desirable": 23209,
    "Ġpaintings": 15055,
    "Ġendeav": 2951,
    "mb": 912,
    "how": 1646,
    "Ġabominate": 20063,
    "induce": 22371,
    "agement": 4184,
    "Ñ": 146,
    "Ġgamy": 17998,
    "Ġchildish": 13135,
    "Ġpuff": 6526,
    "Ġdogs": 7741,
    "Ġarmada": 23579,
    "Ġspind": 18307,
    "Ġstrings": 11827,
    "firm": 10698,
    "gledy": 25403,
    "inclination": 20056,
    "kindred": 24046,
    "Ġreplace": 14477,
    "magistrate": 19862,
    "¬": 110,
    "Ġwad": 13850,
    "jolly": 20930,
    "Ġdeath": 2044,
    "asions": 12649,
    "Ġjonah": 3479,
    "july": 20473,
    "Ġprofund": 13151,
    "``": 15305,
    "Ġcomfort": 3439,
    "Ġcontrive": 16009,
    "majesty": 26280,
    "Ġfierc": 18713,
    "Ġwicked": 5960,
    "Ġworkflow": 2508,
    "turn": 4287,
    "Ġunwelcome": 12778,
    "Ġevidently": 6759,
    "unts": 12729,
    "cad": 17504,
    "Ġmiz": 10777,
    "Ġnavies": 16900,
    "Ġconge": 15744,
    "Ġtrapped": 23074,
    "Ġtie": 10750,
    "umber": 5240,
    "Ġnorms": 3664,
    "Ġmanager": 11767,
    "Ġtears": 4226,
    "Ġrent": 11638,
    "Ġclue": 7019,
    "Ġswung": 6449,
    "abhorred": 17335,
    "Ġcouch": 12569,
    "Ġspas": 10923,
    "Ġsped": 22123,
    "pray": 5429,
    "Ġplain": 2815,
    "Ġrecesses": 17260,
    "pips": 21019,
    "bott": 9105,
    "height": 21204,
    "Ġcontinual": 6777,
    "Ġholes": 16408,
    "Ġenemies": 9038,
    "Ġsog": 22081,
    "Ġsphynx": 20711,
    "Ġdoll": 10813,
    "Ġextra": 4054,
    "Ġblocked": 19221,
    "Ġseem": 915,
    "represented": 20194,
    "Ġpossible": 2585,
    "Ġusual": 3941,
    "Ġpersisted": 13035,
    "shaped": 10309,
    "perfectly": 9085,
    "Ġleaks": 16448,
    "I": 45,
    "venison": 22624,
    "comprehend": 14358,
    "ities": 1827,
    "gladness": 25194,
    "seems": 10875,
    "sul": 15421,
    "Ġbond": 21382,
    "Ġreaction": 15693,
    "Ġstings": 21731,
    "oughed": 22074,
    "Ġtender": 5753,
    "anging": 3549,
    "Ġflushed": 13024,
    "Ġconcentrate": 25063,
    "rank": 21040,
    "Ġglac": 9345,
    "Ġfarthest": 23115,
    "Ġsanction": 20024,
    "constit": 24604,
    "Ġgrapnels": 25551,
    "appo": 3913,
    "stat": 21641,
    "which": 1708,
    "Ġformidable": 8219,
    "Ġflu": 3278,
    "Ġaccur": 3711,
    "Ġcautiousness": 19865,
    "Ġocean": 3304,
    "Ġashamed": 6403,
    "Ġworldly": 16329,
    "bul": 6951,
    "Ġwithdra": 6398,
    "Ġtiresome": 26156,
    "Ġbonnet": 10655,
    "Ġinterval": 4052,
    "Ġcustomary": 8669,
    "ĠĠĠĠĠĠĠĠĠĠĠĠĠĠĠĠĠĠĠĠĠĠĠĠĠĠĠĠĠĠĠĠĠĠĠĠĠĠĠĠĠĠĠ": 12152,
    "Ġrisks": 9963,
    "ching": 5156,
    "fulfil": 16036,
    "Ġscorch": 20065,
    "Ġregretted": 13398,
    "ounding": 22390,
    "ique": 8742,
    "whatever": 6694,
    "Ġcalamity": 17348,
    "Ġbrut": 18769,
    "Ġtahiti": 13617,
    "Ġinstrum": 6054,
    "attent": 9358,
    "Ġdecent": 10978,
    "Ġcultured": 25154,
    "Ġseparation": 11248,
    "Ġsky": 3968,
    "butt": 15993,
    "Ġinsepar": 17933,
    "Ġintend": 12762,
    "Ġaffrighted": 13570,
    "Ġgentlemanlike": 12064,
    "Ġfollow": 1398,
    "Ġgripping": 26186,
    "Ġbraces": 14669,
    "avast": 8896,
    "Ġmariners": 6067,
    "Ġinhabit": 5782,
    "Ġravines": 25831,
    "ientiously": 21929,
    "D": 40,
    "Ġintentionally": 24523,
    "Ġdeceived": 6544,
    "Ġquivered": 18467,
    "appetite": 22844,
    "Ġunst": 18238,
    "Ġwitness": 4620,
    "Ġpurchas": 19873,
    "Ġcrunched": 19123,
    "Ġirretrie": 23372,
    "tie": 21067,
    "Ġshrieked": 9547,
    "Ġcomple": 2838,
    "sun": 7139,
    "Ġwhich": 501,
    "Ġperfection": 19217,
    "Ġchiefly": 5766,
    "Ġexpressly": 16455,
    "Ġgarments": 15192,
    "Ġenergies": 25459,
    "Ġrepair": 11977,
    "Ġtub": 7146,
    "Ġrepast": 16411,
    "distrustful": 26330,
    "Ġpips": 9849,
    "Ġunrest": 11712,
    "avering": 24793,
    "ails": 6160,
    "Ġmounted": 7832,
    "Ġcollections": 22860,
    "otence": 14022,
    "Ġregardless": 19322,
    "prepar": 22449,
    "lant": 20946,
    "Ġsocks": 14133,
    "Ġmanners": 3791,
    "springs": 24911,
    "Ġfulf": 6772,
    "ribute": 7227,
    "transformers": 8714,
    "Ġwaning": 15533,
    "ceased": 21623,
    "Ġaugmentation": 20114,
    "paws": 21028,
    "intense": 22933,
    "father": 3777,
    "iters": 21327,
    "Ġvapors": 19907,
    "limp": 20951,
    "Ġsharpened": 17364,
    "ause": 1312,
    "Ġunnatural": 7190,
    "Ġphantoms": 13484,
    "kshire": 13745,
    "Ġemma": 20693,
    "Ġgrate": 12961,
    "Ġast": 2957,
    "Ġsuperstitious": 13518,
    "Ġrepairs": 19083,
    "frank": 7757,
    "partly": 14602,
    "Ġsigning": 22705,
    "abroad": 18108,
    "Ġcouple": 5423,
    "Ġwrest": 11570,
    "Ġadvertisement": 6941,
    "Ġhost": 7068,
    "Ġabstra": 22268,
    "Ġagatha": 6866,
    "Ġpoured": 8800,
    "gration": 9121,
    "pleasure": 5977,
    "approached": 13483,
    "steak": 14707,
    "cruise": 24841,
    "Ġate": 8839,
    "udg": 22742,
    "Ġrepeated": 3831,
    "hom": 12471,
    "dread": 8728,
    "Ġmolasses": 25628,
    "gen": 6503,
    "Ġtell": 1470,
    "Ġsembl": 19061,
    "Ġmiracle": 15092,
    "Ġlip": 6532,
    "satisf": 5781,
    "Ġthrust": 5084,
    "Ġsurmise": 12293,
    "Ġfocused": 16341,
    "uments": 5552,
    "Ġsentence": 6187,
    "Ġmetaphys": 16392,
    "Ġcumbrous": 26432,
    "reigned": 21241,
    "icking": 8910,
    "Ġfluctuating": 24417,
    "fleece": 19946,
    "garnished": 26388,
    "obliged": 20630,
    "Ġtempor": 2368,
    "Ġshops": 21998,
    "pervised": 1557,
    "Ġforwarded": 19043,
    "anke": 15559,
    "barrel": 17060,
    "Ġgood": 1002,
    "tomorrow": 25914,
    "Ġappointment": 10646,
    "Ġsad": 3867,
    "oundering": 11744,
    "Ġlucifers": 16588,
    "shake": 22454,
    "Ġappl": 1697,
    "Ġremoter": 20104,
    "perquis": 22178,
    "lived": 12484,
    "Ġreceptacle": 23189,
    "ĠĠĠĠĠĠĠĠĠĠĠĠĠĠĠĠĠĠĠĠĠĠĠĠĠĠĠĠĠĠĠĠĠĠĠĠĠĠĠĠĠĠĠĠĠĠĠĠĠ": 20036,
    "salesman": 20670,
    "entrance": 12655,
    "bly": 6110,
    "Ġvacancy": 9044,
    "Y": 61,
    "Ġ29": 23727,
    "Ġpaced": 7583,
    "Ġheavenly": 12082,
    "Ġdeprived": 8210,
    "ens": 701,
    "gate": 12464,
    "Ġrinal": 21974,
    "text": 1975,
    "Ġtracks": 18890,
    "Ġconsisting": 8971,
    "watery": 19825,
    "Ġoccasional": 7289,
    "grateful": 10428,
    "pressing": 19014,
    "Ġscre": 9736,
    "renew": 24450,
    "ated": 724,
    "Ġprogra": 1145,
    "Ġgeor": 3387,
    "wat": 6231,
    "Ġw": 272,
    "Ġfeigned": 22207,
    "_,": 2798,
    "Ġtierce": 15478,
    "Ġprovinc": 16742,
    "hours": 9124,
    "trained": 4234,
    "riety": 12741,
    "Ġbressed": 21385,
    "doublo": 24660,
    "ield": 2408,
    "equal": 14992,
    "Ġpartially": 13120,
    "wondered": 17029,
    "Ġbordeaux": 24564,
    "Ġendowed": 18924,
    "Ġthirt": 13938,
    "Ġforget": 2634,
    "lac": 17589,
    "Ġsearching": 13160,
    "ences": 1265,
    "Ġshave": 21993,
    "Ġmice": 13858,
    "Ġriddles": 16732,
    "prev": 12865,
    "Ġfooting": 14482,
    "Ġflee": 7079,
    "date": 17517,
    "Ġforces": 12700,
    "Ġthunder": 4823,
    "Ġante": 17896,
    "christmas": 20254,
    "imes": 1299,
    "Ġempty": 5353,
    "sample": 12504,
    "lakeman": 13750,
    "disreputable": 23503,
    "Ġafternoon": 6052,
    "Ġeddystone": 25709,
    "Ġimpress": 6862,
    "Ġperilously": 24507,
    "«": 109,
    "county": 25396,
    "delights": 19700,
    "Ġcondensed": 24049,
    "Ġgets": 10839,
    "mell": 20963,
    "Ġemig": 14524,
    "ancial": 21360,
    "Ġuninhabited": 22048,
    "Ġwa": 1752,
    "ercely": 12547,
    "Ġparticulars": 5754,
    "Ġsquares": 11169,
    "Ġnames": 4529,
    "vens": 21111,
    "Ġstiggs": 25792,
    "pleasures": 24043,
    "omist": 21635,
    "Ġwilson": 6629,
    "assembled": 21542,
    "only": 3308,
    "Ġexpected": 3696,
    "grasp": 16430,
    "Ġposture": 24162,
    "execution": 20470,
    "Ġparties": 7038,
    "Ġpreserving": 19795,
    "province": 26072,
    "motives": 26137,
    "Ġoutweigh": 22319,
    "Ġeagerness": 6608,
    "ian": 1239,
    "Ġtennes": 23548,
    "fortunes": 6332,
    "tete": 10732,
    "Ġruss": 18718,
    "Ġnavigators": 19762,
    "Ġsermons": 20193,
    "prim": 23808,
    "ledge": 1327,
    "Ġblackness": 9392,
    "Ġplans": 7917,
    "securing": 19812,
    "deception": 22142,
    "Ġappointed": 20101,
    "Ġdr": 2822,
    "Ġdeprec": 15756,
    "Ġlabels": 3288,
    "scrape": 25698,
    "Ġspin": 7629,
    "ult": 722,
    "Ġclaim": 5106,
    "Ġshar": 9249,
    "anean": 7443,
    "safe": 10053,
    "Ġsakes": 18326,
    "Ġhonors": 23600,
    "gratification": 24348,
    "spike": 16138,
    "Ġsmiles": 6706,
    "faith": 15024,
    "wam": 10135,
    "admitted": 18091,
    "Ġspaniards": 25555,
    "afer": 17481,
    "mpt": 6653,
    "r": 86,
    "Ġcarving": 14442,
    "agre": 18164,
    "whosoever": 22237,
    "derbyshire": 18322,
    "Ġfragment": 14503,
    "Ġmiddle": 4136,
    "Ġskylarking": 19485,
    "thinness": 25810,
    "Ġenjoyed": 8007,
    "ontory": 10459,
    "Ġjava": 12310,
    "study": 15116,
    "Ġsex": 8841,
    "umbered": 22114,
    "Ġextract": 1475,
    "Ġpiqu": 21475,
    "arrival": 15598,
    "rict": 8092,
    "gin": 4930,
    "hertfordshire": 10936,
    "Ġjacobian": 2890,
    "Ġduplicates": 17216,
    "Ġdoublo": 6078,
    "unned": 21875,
    "Ġgulf": 10635,
    "Ġsavor": 23873,
    "impression": 15709,
    "correspond": 13396,
    "Ġsufficient": 2005,
    "Ġtimes": 2305,
    "Ġlighted": 7063,
    "Ġparticular": 2448,
    "baby": 25515,
    "waited": 24585,
    "dances": 17521,
    "Ġinherent": 4589,
    "Ġdesc": 773,
    "Ġchord": 22242,
    "Ġaggregate": 25677,
    "Ġassizes": 11109,
    "uzzle": 19582,
    "scissors": 20726,
    "Ġblunder": 18818,
    "receive": 12539,
    "Ġpassionate": 11273,
    "quely": 10231,
    "Ġdisguise": 10045,
    "feels": 22500,
    "cely": 3573,
    "Ġdears": 18136,
    "Ġticklish": 25034,
    "Ġversion": 10629,
    "wondrous": 12336,
    "writ": 16552,
    "Ġvig": 5460,
    "vember": 10855,
    "Ġconfines": 23302,
    "darted": 20831,
    "Ġactivations": 2721,
    "Ġwhisper": 6205,
    "Ġimprudence": 10297,
    "Ġedward": 19119,
    "rip": 9240,
    "willingness": 24755,
    "Ġaffect": 1387,
    "Ġtail": 3088,
    "ingale": 21298,
    "Ġoccur": 1083,
    "playful": 24357,
    "Ġbread": 5404,
    "Ġpoky": 21477,
    "Ġoutputs": 2884,
    "Ġpresumed": 10544,
    "arted": 2205,
    "Ġfreighted": 16323,
    "Ġwafted": 14498,
    "cav": 17507,
    "bres": 11471,
    "Ġalmanac": 26485,
    "Ġsibbald": 21229,
    "leagues": 21371,
    "Ġinaccessible": 13933,
    "ells": 5303,
    "idents": 6150,
    "Ġtit": 8398,
    "Ġoverthrow": 18431,
    "unching": 18158,
    "£": 101,
    "Ġwhence": 5839,
    "orns": 12590,
    "Ġzealand": 12348,
    "Ġimmortality": 26325,
    "phantoms": 24679,
    "replied": 11565,
    "Ġelaborate": 18635,
    "...": 24549,
    "Ġfrancisco": 26064,
    "Ġlonger": 3359,
    "gentleness": 24844,
    "Ġsummers": 23871,
    "Ġthoughtful": 16191,
    "Ġeats": 15675,
    "Ġcarve": 23091,
    "Ġnail": 9195,
    "Ġfeat": 10937,
    "outh": 2688,
    "block": 11470,
    "Ġshortly": 6196,
    "ving": 593,
    "despatched": 19800,
    "confess": 12173,
    "mariners": 19547,
    "Ġpanting": 11602,
    "Ġswim": 3820,
    "Ġtroublesome": 23999,
    "Ġsar": 21212,
    "inj": 9151,
    "Ġindefatigable": 17177,
    "nett": 16220,
    "orily": 15571,
    "finish": 24384,
    "Ġtransport": 11278,
    "Ġhonorable": 16876,
    "Ġseek": 4505,
    "Ġpaltry": 16692,
    "Ġoun": 13862,
    "Ġ45": 14769,
    "Ġemir": 23348,
    "Ġnailed": 10189,
    "roylott": 20025,
    "Ġgordon": 26467,
    "Ġjets": 10287,
    "Ġheron": 22070,
    "Ġk": 484,
    "Ġsole": 3298,
    "Ġchilled": 18382,
    "treas": 17679,
    "Ġclergyman": 8711,
    "Ġfloor": 4372,
    "ifford": 15781,
    "Ġbaboon": 19692,
    "uth": 3015,
    "reduced": 15804,
    "blasted": 20188,
    "Ġpoetry": 15079,
    "preserver": 20212,
    "kinson": 10025,
    "Ġrheumatic": 20704,
    "fainting": 20471,
    "Ġmotioned": 19591,
    "absolut": 8458,
    "words": 7982,
    "Ġrang": 9244,
    "ĠĠĠĠĠĠĠĠĠĠĠĠĠ": 22559,
    "windward": 24158,
    "ven": 779,
    "ufact": 10733,
    "Ġgabriel": 7595,
    "Ġfamiliarly": 11303,
    "Ġchocks": 13343,
    "verity": 14000,
    "Ġentail": 9792,
    "fare": 7798,
    "Ġseventy": 7879,
    "Ġmeals": 12709,
    "Ġoutlandish": 12836,
    "owders": 18050,
    "Ġfashion": 4293,
    "erick": 13847,
    "Ġcivilly": 19602,
    "arms": 10173,
    "Ġoce": 3027,
    "oh": 1580,
    "Ġdeformity": 11675,
    "sou": 12503,
    "pleased": 8853,
    "Ġimpressive": 14999,
    "Ġle": 333,
    "starbuck": 6018,
    "emin": 8469,
    "Ġsphy": 18311,
    "prepare": 20211,
    "girls": 12317,
    "characteristic": 24685,
    "Ġdamp": 8263,
    "Ġnamed": 6139,
    "Ġquest": 2003,
    "Ġcalling": 5662,
    "asets": 2314,
    "sloop": 26145,
    "Ġplayfully": 19237,
    "extending": 22771,
    "Ġeyebrows": 23515,
    "azine": 19130,
    "mont": 19168,
    "syntax": 5866,
    "Ġoh": 2176,
    "where": 2093,
    "apparat": 22843,
    "Ġpistol": 7846,
    "Ġcomplete": 4376,
    "Ġrecital": 16141,
    "Ġtempestuous": 20069,
    "izon": 18141,
    "Ġdisk": 22519,
    "Ġreasoner": 14437,
    "Ġcompl": 3759,
    "Ġfactory": 23274,
    "Ġretiring": 16280,
    "ways": 1443,
    "Ġconnexion": 11454,
    "Ġbumps": 21390,
    "guessed": 25872,
    "Ġstrain": 6023,
    "Ġsimply": 7218,
    "Ġwithdrew": 9695,
    "ego": 4034,
    "Ġshoulders": 5566,
    "Ġsnugness": 20075,
    "Ġdat": 494,
    "Ġtruly": 4796,
    "Ġremarks": 7474,
    "Ġlegisl": 23534,
    "č": 206,
    "reclining": 20573,
    "Ġarm": 2490,
    "slipped": 25529,
    "sat": 4810,
    "ease": 12455,
    "Ġblossom": 26312,
    "Ġreliability": 22878,
    "Ġdeeper": 2085,
    "cular": 15327,
    "Ġburnt": 9927,
    "steam": 23957,
    "Ġguardsmen": 20629,
    "Ġcharacters": 9371,
    "Ġcolon": 18766,
    "Ġchanc": 18384,
    "Ġvile": 8472,
    "possessed": 9527,
    "neying": 22446,
    "Ġpenn": 11112,
    "Ġserious": 4317,
    "endure": 22222,
    "Ġplumber": 16083,
    "greenland": 10020,
    "bearers": 18527,
    "Ġprized": 23220,
    "ú": 187,
    "Ġcheerily": 13305,
    "Ġop": 2602,
    "caus": 11476,
    "Ġlost": 2636,
    "rowing": 7930,
    "Ġascertain": 9705,
    "Ġinfinitely": 8963,
    "Ġprehens": 22228,
    "parts": 14601,
    "Ġsec": 2077,
    "thrusting": 20258,
    "dles": 11480,
    "track": 24314,
    "Ġconcealment": 16914,
    "Ġoverflow": 10292,
    "Ġembrace": 16990,
    "natural": 2190,
    "sex": 12711,
    "Ġdeserted": 8636,
    "estone": 18363,
    "stretching": 20497,
    "Ġbildad": 3782,
    "Ġ111": 24436,
    "Ġobtained": 7432,
    "ox": 9133,
    "Ġaway": 1244,
    "Ġhydraulic": 10063,
    "Ġxlvi": 25590,
    "par": 1847,
    "gammon": 20242,
    "Ġapple": 14167,
    "Ġseeking": 7035,
    "dawson": 26128,
    "Ġpanther": 16819,
    "wilful": 25086,
    "Ġhides": 16260,
    "Ġperusal": 14224,
    "Ġpurplish": 19140,
    "soon": 4026,
    "Ġcontemptible": 16953,
    "Ġmay": 923,
    "inuating": 16202,
    "misfortunes": 16756,
    "Ġpret": 3032,
    "atching": 8202,
    "Ġexperiment": 11910,
    "vand": 21107,
    "Ġguid": 2639,
    "Ġeffeminacy": 20717,
    "Ġdub": 13908,
    "Ġvagabond": 20202,
    "inhab": 10757,
    "Ġstatement": 5254,
    "berish": 22715,
    "Ġringbolts": 24194,
    "Ġsake": 4089,
    "Ġfortifications": 23619,
    "ampling": 12724,
    "Ġcomparative": 10542,
    "Ġbolivia": 24667,
    "Ġadapts": 3817,
    "Ġlodger": 24089,
    "Ġprepar": 7896,
    "cry": 12443,
    "giving": 8738,
    "Ġceasing": 23756,
    "linging": 16077,
    "Ġunlocked": 14119,
    "Ġwards": 17789,
    "altering": 12638,
    "Ġapproving": 18505,
    "Ġunspeakable": 10055,
    "Ġanoint": 25537,
    "saving": 21058,
    "Ġcelerity": 17435,
    "Ġcrouching": 23442,
    "Ġspouting": 9438,
    "cst": 10084,
    "Ġindestructible": 26572,
    "Ġmilk": 6485,
    "ending": 1992,
    "Ġmem": 2071,
    "Ġlurks": 11290,
    "build": 12185,
    "Ġmuzzle": 21319,
    "ns": 750,
    "lyph": 10852,
    "Ġflanks": 11913,
    "Ġconfirmed": 11139,
    "anned": 17839,
    "Ġdue": 3844,
    "ement": 1505,
    "Ġpalp": 11251,
    "Ġprincely": 24146,
    "inating": 9153,
    "Ġdelivered": 11116,
    "Ġponies": 21474,
    "jumped": 20245,
    "Ġabiding": 22267,
    "ripp": 6404,
    "entle": 1739,
    "photograph": 16150,
    "Ġaloof": 21782,
    "Ġdepartments": 24242,
    "âĢĻ": 378,
    "myst": 9821,
    "Ġrubber": 22782,
    "ic": 304,
    "Ġproved": 4884,
    "Ġbrew": 23342,
    "tee": 16172,
    "Ġeddies": 23436,
    "Ġsmoking": 6429,
    "Ġservants": 6610,
    "Ġpreceded": 13426,
    "Ġhatchways": 24987,
    "Ġdaniel": 15110,
    "Ġimmured": 24069,
    "Ġemployer": 19430,
    "Ġdeeply": 4716,
    "exagger": 22425,
    "Ġhval": 21485,
    "mody": 16184,
    "Ġcondense": 21805,
    "inguish": 9396,
    "Ġno": 511,
    "_?âĢĿ": 15304,
    "deaux": 22145,
    "wound": 21125,
    "departure": 15233,
    "Ġungodly": 26513,
    "baboon": 25516,
    "Ġconsequ": 6254,
    "Ġposted": 16724,
    "putation": 7624,
    "Ġexploit": 19161,
    "Ġcomparison": 7099,
    "Ġinherited": 25353,
    "Ġhandsomest": 20333,
    "Ġ7": 4745,
    "riminately": 16483,
    "Ġperfume": 25665,
    "Ġsuspects": 16890,
    "ÿ": 192,
    "Ġduplicate": 17215,
    "Ġfeminine": 15262,
    "holland": 24038,
    "alously": 15627,
    "Ġencircling": 26271,
    "looking": 4031,
    "thought": 3848,
    "achus": 18283,
    "Ġdatasets": 2390,
    "Ġoverjoyed": 17457,
    "Ġestimable": 23870,
    "condescended": 26248,
    "Ġpredicted": 2046,
    "Ġwhereof": 16101,
    "gerine": 22885,
    "pard": 9618,
    "Ġphaeton": 17464,
    "Ġslighter": 18939,
    "creatures": 7517,
    "Ġpod": 15602,
    "Ġdances": 10812,
    "rices": 4556,
    "Ġplayful": 19235,
    "ousand": 2429,
    "conf": 4957,
    "Ġabst": 9265,
    "ried": 925,
    "lin": 9603,
    "pointing": 12222,
    "mangled": 20980,
    "._)": 10480,
    "Ġsubmission": 22787,
    "Ġembarrassed": 11384,
    "useful": 16502,
    "Ġruminated": 24599,
    "appin": 18758,
    "utterly": 20010,
    "Ġwoke": 21288,
    "ificial": 602,
    "became": 10514,
    "Ġrevellers": 21675,
    "Ġ50": 24319,
    "Ġperforms": 11875,
    "Ġdisappearance": 9296,
    "ullen": 8234,
    "Ġfearlessness": 19160,
    "cement": 3072,
    "Ġtapers": 11551,
    "Ġstony": 21736,
    "iony": 9191,
    "Ġ42": 16678,
    "Ġsports": 18310,
    "germans": 20564,
    "possibly": 10543,
    "Ġpattered": 19039,
    "Ġretain": 7862,
    "Ġpurring": 23476,
    "killer": 20474,
    "Ġpudding": 17915,
    "redit": 3875,
    "Ġvenge": 5420,
    "Ġmodes": 22209,
    "Ġsiber": 17755,
    "Ġamerican": 5061,
    "Ġsincere": 11136,
    "Ġto": 297,
    "dear": 6555,
    "Ġcopper": 7425,
    "Ġexpanding": 25238,
    "rule": 15897,
    "orum": 12588,
    "Ġen": 394,
    "Ġperplexed": 23657,
    "ue": 1179,
    "Ġassociations": 14962,
    "several": 5544,
    "Ġsailors": 4272,
    "ulates": 14054,
    "Ġthought": 1092,
    "repressed": 21242,
    "Ġregain": 22583,
    "ountain": 2915,
    "Ġconceivable": 16613,
    "Ġprophesied": 26062,
    "Ġrevelry": 15135,
    "peleg": 16293,
    "Ġauthentic": 20533,
    "Ġbecalmed": 18086,
    "apothe": 22331,
    "Ġcough": 11580,
    "Ġnuptials": 20492,
    "Ġworthy": 7241,
    "Ġlabel": 14517,
    "Ġadvised": 16208,
    "Ġprovide": 7749,
    "Ġaided": 17745,
    "Ġclassification": 1081,
    "mason": 17603,
    "ill": 447,
    "mense": 4780,
    "ccas": 15884,
    "Ġpick": 4252,
    "decided": 13211,
    "ob": 1421,
    "Ġdisagree": 22529,
    "ationally": 15703,
    "Ġinspector": 6498,
    "fulness": 4305,
    "pun": 9617,
    "liable": 3818,
    "reduc": 5459,
    "Ġafterwards": 3529,
    "Ġcomply": 8890,
    "Ġmumbling": 11573,
    "Ġbore": 5079,
    "Ġsoldier": 16920,
    "third": 8167,
    "always": 5708,
    "reflect": 19864,
    "Ġhoe": 23349,
    "Ġwant": 1118,
    "dough": 15334,
    "pires": 13774,
    "Ġaberde": 22274,
    "hairs": 20903,
    "Ġtrifled": 24674,
    "Ġamericans": 14742,
    "Ġparish": 8854,
    "Ġsubstituting": 26326,
    "Ġresembling": 4095,
    "Ġabhor": 5467,
    "evil": 11485,
    "Ġlull": 15649,
    "worship": 19385,
    "Ġintense": 6157,
    "exper": 8878,
    "Ġresearch": 3204,
    "Ġcath": 17826,
    "Ġprognostics": 20557,
    "Ġperturbation": 20439,
    "Ġmeant": 3548,
    "aples": 20767,
    "Ġadoption": 24948,
    "counter": 20277,
    "pursuit": 20339,
    "Ġegypt": 9678,
    "Ġupon": 718,
    "Ġassertions": 19945,
    "ĠĠĠĠĠĠĠĠĠĠĠĠĠĠĠĠĠĠĠĠĠĠĠĠĠĠĠĠĠĠĠĠĠĠĠĠĠĠĠĠĠĠĠĠĠĠĠĠĠĠĠ": 20037,
    "Ġbrack": 23833,
    "Ġliver": 14227,
    "Ġjesty": 18405,
    "Ġabridged": 26540,
    "Ġclinch": 18422,
    "isis": 12577,
    "enc": 7574,
    "distressed": 24198,
    "tack": 12510,
    "Ġbeat": 4488,
    "Ġloc": 10914,
    "Ġtowing": 9193,
    "gs": 7338,
    "Ġrippling": 17277,
    "elt": 4112,
    "erial": 4631,
    "Ġloggerhead": 13655,
    "Ġworking": 5575,
    "ched": 1548,
    "oses": 3944,
    "unctions": 18155,
    "Ġseated": 4537,
    "Ġanecd": 20153,
    "Ġfret": 10806,
    "Ġsperma": 19048,
    "Ġcandles": 9907,
    "Ġbackpropagation": 1248,
    "pagans": 25525,
    "Ġnumbers": 2886,
    "Ġbanished": 10616,
    "untary": 9866,
    "Ġmyth": 18220,
    "neck": 14234,
    "Ġdin": 3623,
    "Ġshades": 9462,
    "sho": 6425,
    "Ġquaker": 10971,
    "rudently": 16710,
    "ter": 359,
    "eager": 12457,
    "Ġreproofs": 24892,
    "Ġlabor": 10418,
    "Ġade": 22101,
    "Ġtortoise": 16908,
    "Ġclean": 5652,
    "Ġoutskirts": 17456,
    "Ġannoyed": 17199,
    "Ġaccused": 8507,
    "Ġup": 463,
    "latitude": 25259,
    "yramid": 8367,
    "poises": 11889,
    "lands": 8240,
    "Ġworst": 7444,
    "Ġlamb": 8812,
    "Ġproverb": 12714,
    "Ġgiving": 4083,
    "Ġparticip": 16130,
    "Ġbarbar": 6935,
    "Ġwollstonecraft": 26425,
    "wail": 21124,
    "Ġcravat": 26307,
    "ĠâĢĻ": 3039,
    "Ġdescribed": 6606,
    "contrasted": 17305,
    "Ġjaws": 5593,
    "Ġforcibly": 10060,
    "Ġengine": 1920,
    "Ġepicures": 25880,
    "Ġvener": 8163,
    "Ġlosing": 10916,
    "Ġbelief": 5855,
    "Ġlow": 1649,
    "Ġsnapped": 9895,
    "Ġsensibly": 14516,
    "phere": 21018,
    "Ġbig": 5805,
    "Ġarticulated": 24433,
    "Ġlordly": 23741,
    "neys": 23581,
    "wish": 8099,
    "stamp": 21651,
    "Ġhind": 9188,
    "Ġwhitney": 11373,
    "poss": 4778,
    "Ġpassionately": 16764,
    "ource": 5243,
    "charm": 13989,
    "interference": 23735,
    "Ġscaramouch": 23825,
    "steep": 19417,
    "Ġ98": 24593,
    "Ġbod": 4579,
    "encounter": 20390,
    "december": 25558,
    "chers": 11317,
    "Ġroman": 8322,
    "Ġprairies": 20019,
    "istic": 980,
    "yond": 2333,
    "Ġnovels": 15928,
    "months": 9071,
    "persuaded": 15072,
    "amed": 4441,
    "Ġdegrees": 7294,
    "bar": 7541,
    "Ġbarely": 16936,
    "Ġpian": 13916,
    "wrath": 23755,
    "Ġfelicity": 7260,
    "Ġwretchedly": 19505,
    "abilizing": 2922,
    "precaution": 23820,
    "Ġclams": 19987,
    "t": 88,
    "wled": 15454,
    ").": 1272,
    "Ġinnocently": 24025,
    "umed": 6554,
    "O": 51,
    "Ġleviathanic": 12078,
    "tenham": 16320,
    "Ġpuffs": 14975,
    "Ġcrib": 21346,
    "atre": 17770,
    "Ġmoluccas": 25629,
    "Ġelementary": 24814,
    "iteous": 14261,
    "Ġcountry": 2535,
    "Ġfaltering": 17884,
    "bid": 5611,
    "deck": 4497,
    "death": 6261,
    "den": 938,
    "isms": 12578,
    "consequence": 9762,
    "browed": 25894,
    "Ġseer": 21956,
    "Ġjoking": 12835,
    "ofs": 11828,
    "parsee": 14513,
    "Ġobsc": 7039,
    "Ġrep": 1937,
    "recogn": 13423,
    "allies": 14165,
    "R": 54,
    "vag": 8764,
    "Ġreappearance": 21664,
    "Ġpresumption": 10545,
    "ensing": 12894,
    "Ġphilistines": 26082,
    "Ġsolve": 4192,
    "Ġskin": 5038,
    "hee": 10760,
    "Ġflowing": 14411,
    "sharp": 10307,
    "Ġthreatened": 8329,
    "presence": 18490,
    "complacency": 19913,
    "Ġbounty": 26437,
    "romed": 10905,
    "Ġomit": 17815,
    "Ġrequirements": 9793,
    "Ġsort": 1510,
    "Ġhunter": 5401,
    "Ġmich": 21304,
    "Ġslaugh": 18937,
    "Ġfatally": 19392,
    "simultaneously": 19863,
    "Ġrelinqu": 12979,
    "made": 4808,
    "Ġanswering": 7477,
    "Ġwish": 2098,
    "nurtured": 25524,
    "Ġpervading": 20612,
    "Ġdiligence": 17114,
    "Ġtrib": 13818,
    "philosop": 9567,
    "Ġconvulsive": 19305,
    "stre": 5451,
    "Ġbank": 4877,
    "Ġrambling": 18641,
    "outon": 12801,
    "Ġdeser": 3886,
    "Ġendeared": 26498,
    "Ġjustify": 11072,
    "Ġvillages": 14747,
    "Ġarranging": 11174,
    "impulse": 20644,
    "Ġkick": 5837,
    "Ġenter": 4028,
    "Ġanswerable": 23471,
    "Ġbreeds": 23346,
    "Ġdiscussion": 17194,
    "Ġrestrain": 8964,
    "Ġunimpeachable": 26522,
    "Ġcapst": 8596,
    "Ġlassitude": 20585,
    "philosophers": 25252,
    "Ġimmense": 4952,
    "Ġmour": 6973,
    "Ġawkwardness": 13485,
    "Ġripp": 11219,
    "Ġarrival": 4730,
    "imble": 10858,
    "Ġhorsham": 10406,
    "Ġpulled": 5660,
    "Ġdistinctly": 7311,
    "Ġsocial": 7007,
    "scattered": 22992,
    "Ġappropriated": 23485,
    "Ġrags": 18642,
    "Ġupper": 5090,
    "Ġfuneral": 10283,
    "Ġgranted": 22804,
    "Ġpaddled": 20200,
    "onel": 3089,
    "Ġbowls": 23769,
    "hatchway": 25904,
    "Ġwhenever": 5166,
    "circumstances": 8046,
    "Ġsudden": 2001,
    "Ġmasoned": 20250,
    "Ġglimpses": 13430,
    "Ġdangling": 17174,
    "combe": 7660,
    "Ġlamps": 14789,
    "oce": 10714,
    "Ġthrill": 24541,
    "somerset": 26322,
    "etite": 21576,
    "Ġcelest": 9900,
    "each": 7335,
    "Ġresemble": 15691,
    "Ġzoology": 22818,
    "Ġproportionably": 19969,
    "Ġed": 2143,
    "connection": 18868,
    "ighted": 8476,
    "aly": 1125,
    "Ġmemorand": 23403,
    "Ġdiscre": 2416,
    "Ġtease": 18795,
    "Ġxiii": 25591,
    "egypt": 15348,
    "ents": 1897,
    "constant": 11324,
    "Ġdivin": 13271,
    "Ġterra": 13114,
    "Ġpreservation": 24630,
    "Ġaltern": 7394,
    "Ġmemo": 18119,
    "wr": 3025,
    "proceed": 8976,
    "Ġprocessing": 882,
    "Ġtelegra": 11888,
    "alike": 17942,
    "including": 23589,
    "Ġtails": 9901,
    "Ġshilling": 18228,
    "yl": 7818,
    "ckinridge": 11717,
    "Ġwar": 5526,
    "ges": 2871,
    "Ġdeceive": 12720,
    "gover": 10702,
    "Ġpronounce": 16968,
    "atigable": 15269,
    "cushion": 20820,
    "Ġbrim": 12973,
    "Ġenglishman": 11229,
    "unwillingness": 25802,
    "Ġhyena": 24519,
    "Ġhip": 17920,
    "Ġshared": 10263,
    "Ġsuspect": 5758,
    "land": 1531,
    "pherd": 13642,
    "Ġpersonality": 16477,
    "Ġbenchmarks": 15021,
    "Ġcond": 3874,
    "Ġextraordinary": 5414,
    "Ġunwell": 22014,
    "Ġirrevocably": 15296,
    "Ġlogic": 13075,
    "Ġsinister": 8568,
    "Ġmichigan": 26426,
    "Ġexpense": 7651,
    "dressing": 11481,
    "Ġlocal": 1199,
    "shavings": 22462,
    "weaving": 18666,
    "Ġunfrequent": 24107,
    "Ġevian": 24292,
    "roc": 9674,
    "Ġcomparatively": 9489,
    "Ġsource": 6805,
    "Ġenjoy": 3760,
    "orses": 6051,
    "ersman": 11699,
    "ĠÂ£": 5006,
    "Ġmutilated": 23956,
    "scotland": 20527,
    "Ġprevent": 756,
    "barn": 17482,
    "Ġvolcanoes": 24144,
    "Ġchrist": 4071,
    "adem": 21754,
    "tstone": 21083,
    "Ġminor": 12965,
    "swimming": 24258,
    "Ġhus": 3091,
    "Ġdelineate": 26057,
    "Ġgroup": 2039,
    "Ġlucerne": 23862,
    "Ġvagu": 13587,
    "Ġceler": 15549,
    "Ġbead": 21747,
    "Ġembarked": 17134,
    "!": 5,
    "Ġplump": 14281,
    "spring": 7231,
    "ĠâĢĶ_": 3458,
    "amy": 8467,
    "Ġshepherd": 14152,
    "Ġimplore": 24872,
    "Ġoscillations": 2896,
    "Ġbottomless": 12104,
    "Ġinduced": 8670,
    "Ġtransported": 11279,
    "Ġpants": 21463,
    "Ġchilly": 25562,
    "Ġreceiving": 4882,
    "Ġidler": 16406,
    "bask": 20775,
    "Ġintervened": 25481,
    "Ġlodged": 11252,
    "Ġther": 17778,
    "Ġreconciled": 13585,
    "circumst": 5348,
    "Ġmorose": 18849,
    "Ġdelicately": 24124,
    "gether": 1597,
    "Ġleagues": 9223,
    "Ġharry": 24571,
    "Ġspeaks": 11159,
    "infer": 10144,
    "Ġnominally": 17231,
    "frisco": 16787,
    "pig": 8752,
    "artic": 14214,
    "Ġplun": 6281,
    "Ġacquiescence": 20329,
    "Ġreverence": 12057,
    "Ġher": 426,
    "Ġgiver": 21602,
    "corrupt": 14894,
    "Ġnever": 1019,
    "affrail": 11205,
    "cu": 10083,
    "chief": 4644,
    "Ġswearing": 16465,
    "Ġbreeze": 5681,
    "Ġbite": 10797,
    "Ġstro": 4593,
    "Ġalone": 2568,
    "Ġjunk": 15952,
    "Ġsaf": 4001,
    "Ġtornado": 24621,
    "Ġacquaintance": 4131,
    "Ġhandspike": 22695,
    "Ġstraits": 7993,
    "Ġsweet": 3465,
    "encyclopÃ¦dia": 16663,
    "Ġrapidly": 3187,
    "Ġstat": 1492,
    "otle": 21794,
    "Ġpress": 5931,
    "Ġpulverize": 23391,
    "Ġminimize": 7050,
    "feelings": 5674,
    "Ġdistracted": 11802,
    "Ġsystemat": 18439,
    "entials": 22661,
    "jac": 8381,
    "book": 4669,
    "ithmetic": 18061,
    "Ġmediocr": 24081,
    "Ġbuff": 9172,
    "Ġdaily": 5986,
    "Ġcoefficient": 2882,
    "Ġalders": 21781,
    "present": 1138,
    "Ġperplex": 2716,
    "bable": 8718,
    "widows": 25344,
    "pitching": 24073,
    "Ġhurried": 4030,
    "Ġket": 18347,
    "Ġsolitude": 6876,
    "Ġslaves": 23166,
    "lected": 1637,
    "Ġrevers": 21661,
    "Ġobsequ": 14319,
    "who": 2445,
    "Ġxxi": 24476,
    "Ġuncivilized": 25498,
    "Ġstepping": 9353,
    "corners": 17367,
    "Ġagrees": 22513,
    "Ġwhistle": 9065,
    "Ġcontinuously": 23204,
    "Ġashen": 21898,
    "iop": 20918,
    "Ġhumour": 7931,
    "imental": 16533,
    "paid": 15414,
    "speed": 19407,
    "Ġinv": 2226,
    "Ġglobal": 2371,
    "reve": 12536,
    "Ġconject": 6026,
    "Ġplays": 12035,
    "Ġlongbourn": 3506,
    "dev": 7632,
    "pistol": 17642,
    "sleepers": 24730,
    "america": 17097,
    "dipped": 20836,
    "Ġprojecting": 9984,
    "Ġsutherland": 10148,
    "Ġfarm": 7840,
    "ines": 675,
    "Ġshe": 466,
    "Ġlima": 10442,
    "Ġflew": 5587,
    "aurs": 20768,
    "Ġapologizing": 25197,
    "9": 29,
    "terns": 21819,
    "tallow": 21084,
    "oarsman": 25261,
    "Ġtoy": 15632,
    "grew": 17555,
    "throt": 25659,
    "Ġtreated": 7080,
    "roded": 17955,
    "Ġprecise": 7075,
    "Ġencounter": 6627,
    "T": 56,
    "rees": 5436,
    "chased": 18041,
    "electricity": 26385,
    "unusual": 21876,
    "sne": 10124,
    "beh": 5472,
    "Ġcompelled": 14265,
    "Ġadjusted": 23457,
    "Ġsquare": 2397,
    "geese": 22364,
    "Ġtoward": 17946,
    "Ġpropriety": 10009,
    "Ġribbed": 16804,
    "Ġconcept": 680,
    "Ġnevertheless": 5040,
    "usations": 15941,
    "Ġbook": 2702,
    "Ġentertained": 9997,
    "Ġbalancing": 2430,
    "Ġspermaceti": 8967,
    "didst": 19347,
    "Ġtargets": 4200,
    "yonder": 21143,
    "romang": 22002,
    "://": 11465,
    "Ġpunch": 9954,
    "reputation": 15515,
    "Ġturbid": 23610,
    "worked": 19011,
    "Ġjoy": 3182,
    "ights": 8475,
    "Ġreasonably": 11090,
    "Ġcunning": 6238,
    "Ġshook": 4462,
    "balls": 12303,
    "Ġbriefly": 11367,
    "Ġ199": 3007,
    "eping": 5833,
    "usually": 10284,
    "flu": 9117,
    "Ġinevitably": 17230,
    "ared": 770,
    "Ġlofty": 6217,
    "Ġhopes": 4229,
    "Ġmast": 2898,
    "Ġerr": 1320,
    "feather": 16042,
    "ufactured": 15180,
    "Ġcommunity": 19009,
    "Ġimmaculate": 19484,
    "Ġspear": 9313,
    "Ġmoulded": 16975,
    "gor": 547,
    "))": 1517,
    "ative": 737,
    "Ġvector": 1973,
    "Ġmud": 11572,
    "Ġdictionaries": 12338,
    "Ġdisquiet": 18552,
    "Ġcontracted": 12858,
    "Ġpleases": 16297,
    "hack": 20895,
    "Ġfrosty": 14934,
    "ois": 9134,
    "Ġrejoinder": 24597,
    "Ġslacked": 25188,
    "Ġmechan": 1177,
    "Ġbulky": 13226,
    "Ġlun": 7855,
    "Ġstake": 14002,
    "shark": 14239,
    "Ġforgetting": 3435,
    "Ġtension": 13823,
    "Ġsir": 1573,
    "Ġprem": 3426,
    "Ġnegatived": 23043,
    "Ġdiscompose": 25579,
    "mystery": 15154,
    "Ġseize": 8165,
    "Ġoft": 9194,
    "Ġsummoning": 23872,
    "begging": 22495,
    "Ġknow": 632,
    "leo": 21362,
    "Ġaccordingly": 6619,
    "Ġubiquitous": 26195,
    "Ġprosecuted": 25293,
    "Ġsolemnity": 9940,
    "spot": 9788,
    "Ġident": 2243,
    "Ġcoronet": 6344,
    "Ġmanipulated": 25178,
    "Ġpostpone": 17306,
    "intellig": 5320,
    "Ġalow": 18099,
    "lement": 10166,
    "Ġmallet": 17810,
    "rer": 3620,
    "Ġnind": 17949,
    "Ġsy": 487,
    "Ġmisunderstand": 18704,
    "Ġinsect": 12634,
    "Ġsatur": 1930,
    "Ġsimulation": 2752,
    "Ġcease": 7076,
    "Ġimpropriety": 17395,
    "laying": 19771,
    "Ġstup": 14004,
    "Ġcruel": 5121,
    "Ġbrougham": 17870,
    "Ġcaught": 3730,
    "Ġblotting": 25313,
    "Ġxerxes": 23409,
    "Ġinfant": 11957,
    "Ġprofile": 16488,
    "Ġaper": 17743,
    "Ġjerking": 12243,
    "eagerly": 17315,
    "beef": 18526,
    "Ġ63": 24366,
    "Ġinferences": 17934,
    "whereby": 23416,
    "Ġlanc": 19763,
    "Ġitaly": 10867,
    "Ġcompasses": 11267,
    "rusted": 16506,
    "Ġstatue": 23146,
    "Ġsuffers": 2969,
    "Ġcalled": 1974,
    "Ġmilitary": 11258,
    "jub": 20928,
    "f": 74,
    "Ġdoctrine": 24195,
    "Ġpaddle": 20057,
    "Ġrealising": 18983,
    "Ġpersever": 10002,
    "Ġaside": 5234,
    "Ġgallantry": 15102,
    "aborate": 14021,
    "ursday": 12274,
    "Ġslightly": 7293,
    "ana": 15557,
    "Ġdissol": 18551,
    "Ġwatson": 3595,
    "ilogue": 21721,
    "Ġcarried": 3693,
    "dug": 18462,
    "Ġlinguistic": 12423,
    "ical": 753,
    "Ġduchess": 4799,
    "vely": 3866,
    "Ġrecurring": 23230,
    "Ġbest": 1976,
    "Ġerrand": 11085,
    "oul": 4698,
    "Ġcarted": 21347,
    "Ġcondemn": 13442,
    "whiskers": 12309,
    "Ġphrenologists": 25608,
    "particular": 5757,
    "Ġcounties": 23300,
    "Ġmicroscopic": 26373,
    "Ġaffability": 14386,
    "Ġda": 5150,
    "Ġmorcar": 13011,
    "Ġgaff": 17993,
    "Ġcommend": 10334,
    "Ġunhappiness": 14117,
    "going": 6313,
    "Ġtranquillity": 7536,
    "Ġmiller": 19882,
    "Ġcruising": 6913,
    "triumph": 15440,
    "Ġsystem": 571,
    "Ġdrops": 9032,
    "Ġcandle": 8291,
    "Ġthickness": 13275,
    "animate": 12575,
    "ive": 428,
    "guest": 19480,
    "rents": 5308,
    "Ġrounds": 18883,
    "Ġsexes": 25168,
    "ĠĠĠĠĠĠĠĠĠĠĠĠĠĠĠĠĠĠĠĠĠĠĠĠĠĠ": 13386,
    "Ġcomical": 11677,
    "Ġrecall": 3855,
    "Ġtrans": 631,
    "Ġlurid": 19680,
    "truth": 9918,
    "tubes": 25211,
    "Ġcataract": 23426,
    "derest": 18314,
    "fatig": 17089,
    "izard": 10883,
    "Ġflitting": 13023,
    "alloyed": 22198,
    "Ġstriving": 8996,
    "Ġdollar": 25283,
    "Ġbrutality": 26276,
    "ectual": 21912,
    "henry": 16625,
    "Ġmot": 2983,
    "Ġplat": 8520,
    "uish": 5431,
    "knew": 9126,
    "Ġlabrador": 23329,
    "Ġlass": 15646,
    "Ġscal": 1613,
    "Ġcreditors": 20128,
    "Ġcy": 13873,
    "Ġcaterpillar": 5864,
    "Ġuncontrollable": 25814,
    "Ġhearers": 15701,
    "evidently": 20344,
    "ft": 911,
    "Ġvor": 15805,
    "influ": 9540,
    "ellent": 3761,
    "Ġgum": 21592,
    "Ġdrawback": 23987,
    "prof": 7698,
    "Ġkink": 22190,
    "Ġlanded": 7469,
    "Ġbre": 1914,
    "Ġfade": 21405,
    "speps": 14336,
    "may": 3678,
    "Ġploughed": 22602,
    "atived": 21261,
    "Ġwantest": 18789,
    "ief": 2047,
    "porary": 14552,
    "wrong": 13202,
    "Ġlaunched": 14925,
    "wedding": 13369,
    "Ġtattoo": 7359,
    "Ġboneless": 19604,
    "Ġbohemian": 17133,
    "Ġworks": 5858,
    "Ġanxiety": 5408,
    "cup": 10690,
    "smo": 10125,
    "gown": 9596,
    "ssible": 2990,
    "Ġint": 411,
    "Ġseventh": 18206,
    "Ġhighway": 14345,
    "mm": 676,
    "ple": 455,
    "Ġadmirable": 8268,
    "precision": 4326,
    "Ġexcessive": 3891,
    "Ġfairer": 20460,
    "Ġquestionable": 19265,
    "Ġderives": 16308,
    "goes": 10426,
    "albatross": 15628,
    "hither": 11492,
    "snow": 10724,
    "!âĢĻ": 3332,
    "Ġadmitted": 8986,
    "astonished": 15032,
    "Ġfriend": 1294,
    "Ġapprovingly": 26250,
    "Ġslender": 11938,
    "Ġmccarthys": 19661,
    "\\": 64,
    "Ġsimplicity": 2921,
    "asion": 5714,
    "rubbed": 22183,
    "Ġcedar": 15187,
    "Ġid": 1910,
    "iac": 6225,
    "Ġplaster": 16082,
    "Ġsap": 18323,
    "Ġheeds": 24520,
    "Ġregard": 3062,
    "Ġdesirous": 8942,
    "Ġsinging": 7723,
    "Ġbirds": 5873,
    "nesday": 8702,
    "Ġapproved": 16030,
    "Ġconcil": 23319,
    "Ġhud": 10822,
    "rabbit": 20589,
    "comprehens": 16170,
    "Ġproblems": 2846,
    "Ġimpressions": 9552,
    "look": 2263,
    "Ġwhom": 1832,
    "cigar": 26124,
    "conveyed": 20519,
    "Ġappellation": 22216,
    "Ġtrucks": 19511,
    "Ġdistributes": 4191,
    "Ġlee": 4218,
    "Ġexclaiming": 13639,
    "Ħ": 231,
    "down": 3468,
    "fluttering": 23970,
    "Ġten": 2386,
    "whis": 7897,
    "Ġpork": 21456,
    "Ġconjunction": 25100,
    "Ġissues": 9541,
    "aft": 9583,
    "Ġladen": 19176,
    "Ġupwards": 7633,
    "endless": 22223,
    "Ġclosely": 6488,
    "Ġsleep": 2400,
    "sacred": 17028,
    "Ġexordium": 26492,
    "Ġlou": 6822,
    "cherish": 24552,
    "Ġchecking": 23283,
    "Ġloite": 22108,
    "endured": 22224,
    "Ġservices": 11217,
    "Ġoffended": 7040,
    "Ġboyhood": 23754,
    "compared": 24030,
    "sockets": 22729,
    "Ġjavelins": 26105,
    "Ġfertile": 20581,
    "Ġconnection": 5479,
    "Ġvestibule": 13535,
    "married": 9948,
    "Ġmol": 12558,
    "terday": 4704,
    "Ġfireboard": 23532,
    "Ġspur": 18303,
    "Ġintellect": 8169,
    "variety": 23183,
    "Ġenjoyment": 7300,
    "Ġmum": 13857,
    "ony": 3026,
    "Ġacute": 16122,
    "king": 3055,
    "Ġfainting": 16897,
    "Ġanon": 9666,
    "kered": 18274,
    "Ġinvari": 6529,
    "clu": 20798,
    "Ġro": 601,
    "Ġlegitimate": 20641,
    "sisters": 13374,
    "Ģ": 227,
    "Ġamb": 9291,
    "enjoy": 10774,
    "Ġwinc": 9642,
    "Ġcrossing": 7253,
    "enough": 6809,
    "Ġgrip": 11626,
    "Ġbu": 3681,
    "Ġmatch": 4525,
    "Ġpencil": 11941,
    "Ġfeeding": 7971,
    "eridge": 15525,
    "rabb": 15678,
    "Ġfate": 4754,
    "sullen": 17669,
    "coll": 23778,
    "Ġceremonious": 24837,
    "Ġharsh": 9520,
    "Ġsliding": 9363,
    "Ġstraighten": 24001,
    "Ġprejudice": 9075,
    "card": 11475,
    "Ġexhaled": 19681,
    "Ġrecommence": 16812,
    "hurried": 11353,
    "letons": 14613,
    "otted": 14023,
    "affa": 23775,
    "Ġsheer": 14150,
    "Ġbias": 1192,
    "Ġrecommendation": 17025,
    "Ġthey": 576,
    "Ġclap": 10955,
    "Ġfrontispiece": 23911,
    "sis": 1916,
    "Ġenthusiastic": 19964,
    "powers": 25410,
    "Ġpersonal": 7479,
    "Ġinestim": 15622,
    "Ġcedars": 20291,
    "Ġfight": 5366,
    "bub": 15315,
    "Ġsouthern": 7688,
    "Ġmortally": 23914,
    "Ġimproving": 1210,
    "Ġploughing": 26259,
    "Ġcontemptuous": 24676,
    "Ġdifferen": 936,
    "Ġnavel": 24576,
    "raid": 3280,
    "Ġbacking": 16115,
    "opportunity": 12272,
    "Ġhandful": 9782,
    "civility": 17513,
    "Ġjudges": 14685,
    "library": 12995,
    "arson": 22748,
    "Ġstur": 15715,
    "english": 2774,
    "clock": 3931,
    "Ġimpediments": 26240,
    "Ġaccounting": 14573,
    "Ġsecondly": 14519,
    "Ġgamming": 25542,
    "Ġscold": 10950,
    "Ġoccupied": 5272,
    "Ġgour": 21595,
    "Ġestimates": 3747,
    "Ġprices": 15610,
    "imperturbable": 25790,
    "Ġgenius": 8045,
    "keeping": 8634,
    "Ġextent": 7655,
    "Ġago": 3134,
    "py": 17624,
    "slackened": 26094,
    "Ġumbrell": 13648,
    "Ġpredecessor": 26253,
    "Ġan": 286,
    "Ġexpress": 2199,
    "Ġnoiseless": 10357,
    "amaz": 21841,
    "Ġunconcerned": 20508,
    "rudent": 6482,
    "speckled": 23942,
    "soles": 18688,
    "Ġheaths": 25972,
    "zar": 11547,
    "Ġsauntering": 18327,
    "caps": 20806,
    "Ġconsc": 4270,
    "Ġbrandy": 11049,
    "reposed": 24492,
    "Ġcas": 8410,
    "Ġowing": 6004,
    "carrying": 16712,
    "Ġcloser": 8659,
    "Ġguineas": 16268,
    "Ġtormenting": 15103,
    "tland": 21072,
    "Ġsubstit": 19539,
    "Ġsteeply": 23721,
    "theories": 18078,
    "Ġblasphe": 17406,
    "Ġmaterials": 11288,
    "Ġheedful": 19739,
    "Ġtranslates": 12049,
    "Ġfemin": 13434,
    "Ġsmelling": 16065,
    "rot": 21529,
    "idge": 14013,
    ":âĢĶ": 4425,
    "Ġpaddock": 25037,
    "eyed": 11486,
    "Ġbundles": 26175,
    "Ġshouting": 10522,
    "Ġwatchman": 23664,
    "Ġstaid": 21732,
    "Ġpresentation": 14480,
    "Ġcommand": 3322,
    "Ġredden": 15692,
    "Ġquee": 1983,
    "ella": 12747,
    "Ġtry": 3132,
    "Ġproducing": 11897,
    "Ġassured": 4366,
    "Ġtwitched": 20442,
    "Ġwhatsoever": 18455,
    "accur": 14593,
    "Ġfrom": 434,
    "Ġconceive": 8461,
    "Ġsnoo": 21227,
    "Ġinsisted": 12044,
    "Ġhungry": 10532,
    "whal": 10940,
    "Ġpierce": 17036,
    "Ġrowing": 10300,
    "ks": 3144,
    "Ġponder": 6819,
    "enet": 10152,
    "Ġyawned": 15051,
    "stoke": 18022,
    "Ġhesitated": 10001,
    "Ġunmanner": 22026,
    "wore": 21123,
    "Ġreduce": 7942,
    "Ġfranc": 16351,
    "uming": 8491,
    "learnt": 23526,
    "rise": 6226,
    "Ġrelics": 16195,
    "Ġhemisphere": 26478,
    "Ġlighting": 13080,
    "furn": 10091,
    "Ġins": 2780,
    "ieved": 3229,
    "girl": 12316,
    "Ġmerrily": 23729,
    "Ġlin": 10833,
    "Ġground": 2844,
    "Ġoutput": 929,
    "vity": 7815,
    "Ġtin": 15463,
    "Ġslee": 8974,
    "Ġendured": 6072,
    "Ġflight": 6581,
    "Ġinverted": 12635,
    "dart": 20825,
    "Ġsticks": 14930,
    "flukes": 25205,
    "Ġmerely": 3770,
    "braces": 24658,
    "Ġclass": 771,
    "Ġpap": 8797,
    "Ġdynamic": 5124,
    "Ġwrapped": 8341,
    "Ġbenefited": 19396,
    "Ġnar": 7375,
    "Ġamongst": 8959,
    "Ġpallor": 13514,
    "Ġplantation": 11423,
    "Ġspirit": 3724,
    "hounds": 20906,
    "Ġmasked": 3694,
    "acey": 7649,
    "scence": 14418,
    "Ġepicurean": 20554,
    "Ġsting": 10861,
    "pan": 10716,
    "Ġforged": 12702,
    "Ġchallenges": 13628,
    "beaten": 20314,
    "Ġcreating": 2994,
    "?_âĢĿ": 12314,
    "Ġbuild": 6474,
    "themselves": 6540,
    "rib": 1946,
    "Ġchuckled": 10647,
    "Ġstealing": 18893,
    "Ġfinite": 2328,
    "excitement": 19668,
    "Ġprom": 1528,
    "Ġpenalizing": 13089,
    "pennies": 26285,
    "ĠcÃ¦": 15553,
    "Ġteacup": 16207,
    "Ġxviii": 23408,
    "int": 1198,
    "succeed": 10328,
    "Ġslumbering": 25701,
    "Ġundulations": 19514,
    "Ġindefinite": 17176,
    "Ġdanish": 21429,
    "guess": 14760,
    "Ġinsects": 25646,
    "Ġglitter": 25123,
    "Ġpads": 21472,
    "agreeable": 5829,
    "Ġinterpreted": 1712,
    "join": 12111,
    "Ġ**": 4720,
    "ure": 356,
    "Ġrud": 8477,
    "Ġpaling": 21460,
    "Ġmealy": 18120,
    "steering": 16635,
    "Ġbeating": 8144,
    "precipitance": 25867,
    "ps": 4572,
    "boots": 11126,
    "Ġmug": 21311,
    "Ġunravel": 26214,
    "Ġdominic": 25381,
    "cloth": 11935,
    "gent": 7129,
    "istol": 6259,
    "Ġcreative": 9829,
    "furnished": 20240,
    "studies": 25166,
    "Ġbeacon": 21753,
    "shaven": 18497,
    "Ġgash": 15669,
    "chery": 24551,
    "years": 6883,
    "Ġperplexity": 2755,
    "supervised": 1955,
    "Ġsepar": 3999,
    "Ġrevenge": 5452,
    "Ġpallid": 12297,
    "Ġdarting": 7756,
    "Ġsovereign": 10061,
    "tu": 12509,
    "Ġcra": 2335,
    "Ġexpensive": 12915,
    "Ġdishes": 16048,
    "picture": 11407,
    "y": 93,
    "occasionally": 13519,
    "incident": 14591,
    "jointed": 24007,
    "Ġdesert": 6727,
    "Ġvillagers": 19472,
    "appalling": 22842,
    "âĢĿ--": 21813,
    "Ġobserv": 8586,
    "yourselves": 24956,
    "aste": 4599,
    "Ġflag": 7242,
    "noted": 22749,
    "Ġtakings": 20571,
    "Ġcreation": 6439,
    "Ġheighten": 19528,
    "pitch": 13296,
    "Ġmuchness": 18706,
    "Ġowen": 15093,
    "chors": 11643,
    "spoken": 11859,
    "Ġconfiding": 19036,
    "shooting": 16965,
    "Ġusing": 715,
    "Ġabruptly": 15149,
    "Ġattacking": 24465,
    "Ġstr": 762,
    "ular": 714,
    "Ġmanilla": 15958,
    "Ġbegun": 7243,
    "Ġcognitive": 13632,
    "preservation": 25305,
    "Ġhappiest": 11880,
    "Ġlowly": 11121,
    "Ġexceeding": 1583,
    "Ġdial": 10810,
    "Ġfaces": 6008,
    "Ġchasing": 11752,
    "ift": 1609,
    "Ġunwarrantable": 26353,
    "Ġheadlands": 22895,
    "Ġfuss": 13904,
    "Ġgaiters": 20459,
    "ist": 449,
    "Ġausten": 5880,
    "veil": 18045,
    "Ġdriving": 3615,
    "Ġnervously": 19183,
    "ation": 320,
    "Ġchorus": 10946,
    "open": 7025,
    "Ġsk": 960,
    "Ġfragrant": 13088,
    "comb": 11035,
    "Ġprudent": 9185,
    "transp": 24512,
    "cheeks": 23806,
    "Ġspiced": 22131,
    "Ġdisplaying": 16966,
    "adays": 14012,
    "scene": 14419,
    "asingly": 17960,
    "Ġinco": 14259,
    "Ġaggreg": 12882,
    "oglyph": 11016,
    "Ġesquimaux": 25150,
    "je": 11495,
    "Ġbelieved": 4362,
    "turkish": 24533,
    "alluring": 18352,
    "osity": 14185,
    "Ġcol": 1066,
    "Ġlids": 12273,
    "este": 15918,
    "Ġconfusing": 23304,
    "resides": 23667,
    "Ġcherub": 23284,
    "Ġsmooth": 2778,
    "Ġineffect": 13929,
    "arrived": 12607,
    "Ġmasterless": 23992,
    "axed": 8888,
    "Ġess": 5691,
    "sim": 6510,
    "spent": 12940,
    "thirty": 12760,
    "oblivious": 26582,
    "Ġdeposit": 17268,
    "Ġmaker": 15541,
    "coward": 13699,
    "iasm": 8060,
    "Ġalongside": 6311,
    "Ġaristotle": 25817,
    "ishe": 13890,
    "Ġsignify": 16494,
    "face": 3676,
    "Ġheightens": 24152,
    "Ġconsciousness": 9947,
    "Ġcrossed": 6068,
    "Ġcoiled": 11818,
    "Ġsolemnly": 8023,
    "Ġingolstadt": 8332,
    "win": 6801,
    "Ġpuzzle": 11305,
    "Ġdeveloped": 16339,
    "±": 114,
    "ital": 4817,
    "Ġtoilings": 24742,
    "seeing": 7078,
    "Ġdecently": 22439,
    "twinkle": 23701,
    "Ġadjacent": 20710,
    "Ġtra": 1384,
    "Ġsuperiors": 23454,
    "etw": 408,
    "fortunate": 4792,
    "rods": 21535,
    "Ġmasks": 23324,
    "Ġpiping": 23243,
    "Ġlash": 8438,
    "Ġreliable": 18776,
    "Ġperceptibly": 25821,
    "Ġpondered": 15165,
    "Ġdiff": 3114,
    "oboam": 9357,
    "Ġhonour": 3921,
    "Ġjogged": 26236,
    "intervals": 10637,
    "Ġisol": 8833,
    "Ġpatent": 11963,
    "Ġrosy": 18459,
    "Ġpovelson": 26552,
    "Ġoften": 1957,
    "good": 2897,
    "Ġthirty": 4944,
    "Ġguernsey": 9350,
    "Ġundiscernible": 22065,
    "drowned": 17368,
    "Ġoxen": 19949,
    "deployment": 26527,
    "pres": 16023,
    "Ġstowing": 18071,
    "Ġpeels": 22688,
    "icle": 10834,
    "enance": 3371,
    "feet": 6568,
    "Ġeaten": 14844,
    "clusion": 16305,
    "Ġ119": 24441,
    "Ġrequire": 909,
    "Ġenjoying": 11234,
    "imet": 21703,
    "insula": 23063,
    "Ġwed": 3958,
    "Ġranging": 8478,
    "Ġemotion": 7689,
    "phant": 6287,
    "hitherto": 17283,
    "Ġscor": 8190,
    "Ġforbearing": 25098,
    "Ġaffection": 2640,
    "Ġdeliverance": 15156,
    "Ġweighted": 2091,
    "Ġearnestness": 12123,
    "Ġwigwam": 11428,
    "Ġvisiting": 10356,
    "Ġdolphin": 17311,
    "Ġnatur": 17333,
    "Ġsplendour": 20223,
    "Ġconsistence": 23354,
    "evident": 25520,
    "Ġgratitude": 5599,
    "Ġcomb": 1059,
    "Ġexpost": 18622,
    "comrade": 20623,
    "Ġvisibly": 22848,
    "Ġwreak": 16817,
    "Ġstrained": 10218,
    "Ġspray": 7893,
    "Ġhospitable": 17059,
    "ream": 2710,
    "Ġrecursive": 4782,
    "Ġvariously": 18652,
    "gentlemanlike": 20000,
    "Ġmould": 6519,
    "Ġratio": 5066,
    "insanity": 23065,
    "Ġinvader": 23479,
    "Ġbeliever": 25845,
    "Ġbrown": 6298,
    "beware": 16039,
    "shud": 18493,
    "Ġapproximate": 2345,
    "Ġexceptional": 19369,
    "Ġwhirlp": 16963,
    "Ġselected": 9710,
    "Ġcomponents": 8892,
    "Ġfished": 21408,
    "spell": 22731,
    "Ġharness": 17927,
    "supposing": 24133,
    "Ġsilly": 7685,
    "delay": 16698,
    "Ġfaintest": 24569,
    "Ġunintermitted": 26219,
    "dl": 20822,
    "Ġtil": 12521,
    "Ġcords": 14878,
    "fs": 17535,
    "Ġfleshy": 24614,
    "Ġpursu": 3239,
    "Ġnorton": 12647,
    "Ġinsens": 8276,
    "Ġmystic": 7503,
    "Ġdiscover": 4717,
    "Ġprevious": 2090,
    "ateness": 15519,
    "Ġevap": 19622,
    "achine": 611,
    "Ġsmothered": 20719,
    "C": 39,
    "oura": 1061,
    "Ġapprobation": 10984,
    "leaving": 10791,
    "Ġsaucer": 20604,
    "pole": 9332,
    "Ġbidding": 9536,
    "Ġseveral": 2674,
    "ognit": 19206,
    "aug": 1212,
    "rocious": 21536,
    "Ġblast": 7445,
    "vour": 17699,
    "Ġtunnels": 24620,
    "Ġfrock": 10489,
    "Ġabstraction": 26539,
    "tuning": 1584,
    "Ġappeased": 23194,
    "egyptians": 25898,
    "persecutor": 26529,
    "Ġqueer": 4475,
    "fleet": 15013,
    "visitors": 13346,
    "Ġdespaired": 14668,
    "Ġneglected": 10377,
    "Ġjet": 5307,
    "compose": 24029,
    "Ġpivot": 13922,
    "Ġreadily": 5253,
    "Ġbound": 3517,
    "Ġviv": 6156,
    "Ġbridle": 24681,
    "Ġdifferent": 1431,
    "application": 12361,
    "Ġinserting": 19905,
    "Ġkinds": 14504,
    "Ġartic": 5314,
    "Ġfallen": 5967,
    "Ġlookest": 22712,
    "Ġsweetheart": 19393,
    "Ġhammers": 13238,
    "Ġlouder": 13466,
    "Ġi": 312,
    "Ġsuavely": 26523,
    "onious": 15518,
    "Ġreigning": 15699,
    "Ġsuitable": 18278,
    "Ġgraces": 18225,
    "Ġslippery": 12164,
    "Ġaverage": 3138,
    "Ġscowl": 22287,
    "Ġgeneral": 1861,
    "unte": 21870,
    "Ġoccupation": 9930,
    "lob": 22504,
    "Ġoccup": 3739,
    "farintosh": 24553,
    "Ġcontinents": 16849,
    "Ġgigantic": 5914,
    "strate": 12672,
    "Ġwhither": 10214,
    "Ġwarn": 5695,
    "expedition": 26078,
    "Ġwhereby": 11835,
    "cull": 20808,
    "oub": 1634,
    "Ġcreditor": 24290,
    "Ġfiddle": 25444,
    "Ġdictated": 25218,
    "stranded": 19224,
    "Ġheading": 8935,
    "creation": 14805,
    "flung": 16638,
    "Ġessential": 7523,
    "Ġagreeably": 24952,
    "inter": 2946,
    "smitten": 23906,
    "assuming": 22296,
    "coming": 3560,
    "cess": 535,
    "oir": 21001,
    "Ġedges": 3825,
    "Ġmary": 3843,
    "Ġmurmuring": 23578,
    "atched": 6375,
    "cooee": 12416,
    "Ġdissipate": 13631,
    "Ġgodson": 23356,
    "infor": 3274,
    "âĢľâĢĻ": 10221,
    "Ġleisurely": 24746,
    "Ġgasp": 7172,
    "Ġsplendidly": 25327,
    "probability": 17022,
    "Ġphilosop": 5057,
    "Ġpythag": 26448,
    ";âĢĻ": 15301,
    "Ġunluck": 8484,
    "ckled": 9256,
    "ording": 9763,
    "Ġbouton": 17868,
    "Ġpictures": 5503,
    "bildad": 9586,
    "ascending": 24707,
    "se": 357,
    "ifully": 13182,
    "leisure": 21369,
    "precip": 14664,
    "Ġfol": 1287,
    "Ġkno": 5241,
    "Ġdiscretion": 10347,
    "Ġmillions": 11354,
    "braid": 17494,
    "gences": 20876,
    "ĠĠĠĠĠĠĠĠĠĠĠĠĠĠĠĠĠĠĠĠĠĠĠ": 18832,
    "Ġbackground": 18649,
    "Ġoct": 10158,
    "sentimental": 25681,
    "Ġpoints": 5247,
    "Ġadvantages": 9807,
    "Ġfurious": 10354,
    "Ġgor": 9206,
    "gods": 13364,
    "Ġaslant": 21900,
    "originally": 24937,
    "Ġvelvet": 12396,
    "Ġrevolutions": 23839,
    "Ġannals": 17898,
    "Ġcoarse": 14273,
    "ouraged": 22856,
    "canst": 22963,
    "Ġferocity": 16866,
    "sche": 13015,
    "Ġacknowledgment": 16957,
    "adequate": 15202,
    "Ġimpunity": 14218,
    "Ġwrenched": 12555,
    "brary": 5755,
    "constable": 24605,
    "blog": 19838,
    "Ġshudderings": 25200,
    "Ġsubject": 2463,
    "Ġgouldings": 26187,
    "screaming": 20324,
    "rudence": 7092,
    "Ġdelayed": 9517,
    "Ġpleasantly": 14520,
    "wonted": 13491,
    "failed": 20862,
    "mira": 20978,
    "Ġwretch": 6378,
    "Ġalteration": 9545,
    "Ġanvil": 11596,
    "Ġcastors": 23973,
    "Ġaccordance": 19496,
    "Ġnam": 17948,
    "Ġgod": 1936,
    "Ġevanesc": 24294,
    "Ġcream": 22723,
    "Ġchoosing": 19589,
    "skin": 10568,
    "Ġafresh": 18624,
    "Ġhats": 14619,
    "Ġrewarded": 14939,
    "Ġinjure": 16781,
    "Ġprofanely": 23569,
    "Ġunpleasant": 7191,
    "Ġfeelingly": 22994,
    "dimly": 15345,
    "dissatisfied": 26612,
    "Ġaerial": 21197,
    "400": 20754,
    "Ġfountains": 13501,
    "Ġxavier": 2853,
    "bill": 10075,
    "Ġostent": 13582,
    "nyder": 16686,
    "soc": 5175,
    "Ġsuperl": 16446,
    "gement": 13727,
    "Ġscholars": 26112,
    "Ġthanks": 6707,
    "Ġinscribed": 24938,
    "Ġindignity": 18833,
    "Ġpierced": 12279,
    "digger": 24310,
    "princip": 17136,
    "Ġbitterly": 8314,
    "sar": 12502,
    "irms": 18168,
    "Ġkindest": 23291,
    "Ġanticipating": 17058,
    "Ġattorney": 18626,
    "Ġcomprising": 16067,
    "Ġmut": 3581,
    "Ġslabs": 13057,
    "||": 4869,
    "felicity": 25140,
    "Ġdrow": 21424,
    "Ġkramm": 26233,
    "subs": 14300,
    "Ġregulations": 18599,
    "congenial": 25399,
    "Ġfaintness": 24570,
    "Ġadver": 5641,
    "Ġespe": 21154,
    "archbishop": 22889,
    "Ġbodings": 21389,
    "wolf": 26409,
    "Ġharpooneer": 3771,
    "wealth": 22685,
    "oman": 2020,
    "alse": 4181,
    "Ġtemperate": 16161,
    "Ġaffords": 16734,
    "Ġdepths": 4321,
    "Ġmentioned": 4324,
    "pulling": 25146,
    "Ġniag": 21527,
    "Ġshowing": 7731,
    "Ġfanned": 19099,
    "Ġtimbers": 14838,
    "Ġstages": 14003,
    "Ġrural": 21964,
    "Ġphren": 8571,
    "Ġconvivial": 16547,
    "roar": 17952,
    "exclaimed": 11788,
    "stand": 628,
    "asons": 6014,
    "Ġsoldiers": 8686,
    "bbings": 19275,
    "Ġtrooped": 24899,
    "Ġlandless": 23377,
    "Ġwrinkled": 7264,
    "finer": 17546,
    "Ġmingling": 20196,
    "Ġvow": 10246,
    "dismal": 23497,
    "ulpt": 10885,
    "Ġobjectionable": 16991,
    "fulfilment": 26025,
    "Ġcrawled": 17044,
    "language": 5129,
    "po": 1139,
    "eminent": 25104,
    "ily": 1032,
    "'m": 9582,
    "Ġnarrower": 24354,
    "roqu": 21531,
    "requirements": 24857,
    "Ġevangelical": 25506,
    "Ġfaults": 12210,
    "pretty": 10621,
    "approve": 19935,
    "period": 15894,
    "Ġrecom": 4551,
    "inting": 9813,
    "Ġhabits": 6926,
    "state": 13978,
    "Ġheav": 1851,
    "stige": 21658,
    "invisible": 17740,
    "slight": 10727,
    "Ġincivility": 18572,
    "encoun": 12296,
    "Ġcertainly": 2496,
    "Ġcensure": 15094,
    "beloved": 19459,
    "Ġresolved": 3798,
    "angling": 14139,
    "Ġger": 21588,
    "onent": 21247,
    "atively": 2696,
    "Ġopenly": 8572,
    "Ġcomposed": 8891,
    "Ġcocks": 18593,
    "Ġenlar": 15799,
    "Ġterrier": 23397,
    "Ġwoods": 5406,
    "Ġferry": 24498,
    "Ġnumber": 1984,
    "asse": 15643,
    "malice": 17604,
    "Ġbraz": 19356,
    "med": 1909,
    "destruction": 11256,
    "Ġseconds": 16398,
    "capital": 15087,
    "Ġlining": 13950,
    "Ġhopelessly": 16375,
    "handed": 7482,
    "Ġcuff": 17829,
    "charge": 9447,
    "ullo": 12727,
    "Ġexpanded": 14288,
    "Ġbulkhead": 24511,
    "Ġembeddings": 2175,
    "Ġminim": 1322,
    "Ġwhosoever": 21716,
    "Ġconcealing": 23900,
    "jacket": 12290,
    "lodged": 25907,
    "Ġsafer": 22167,
    "Ġconsecrate": 26489,
    "inburgh": 15490,
    "humiliation": 24018,
    "richard": 17286,
    "Ġumb": 11645,
    "Ġcolleg": 22858,
    "befall": 22493,
    "Ġunwaning": 25170,
    "Ġrationally": 18213,
    "Ġrecompense": 14837,
    "embraced": 25804,
    "âĢĶâĢĶâĢĿ": 15938,
    "Ġstratag": 26028,
    "traversed": 19638,
    "Ġjanuary": 13651,
    "passage": 11261,
    "osen": 6855,
    "Ġmitigates": 3047,
    "ism": 4874,
    "Ġox": 7153,
    "Ġindex": 17049,
    "Ġdelights": 14596,
    "Ġprospects": 9958,
    "rist": 10122,
    "inquiries": 13575,
    "cre": 4246,
    "Ġstreet": 2954,
    "Ġwandered": 6930,
    "awakened": 14452,
    "Ġassented": 17337,
    "Ġlodgings": 8311,
    "Ġunassuming": 20507,
    "Ġchimer": 24602,
    "commission": 22807,
    "Ġreligion": 11415,
    "ĠĠĠĠĠĠĠĠĠĠĠĠĠĠĠĠĠĠĠĠĠĠĠĠĠĠĠĠĠĠĠĠĠĠĠĠĠĠ": 16525,
    "Ġregained": 18598,
    "Ġfathom": 17048,
    "Ă": 195,
    "Ġcalculates": 13262,
    "Ġstammered": 26199,
    "istically": 14143,
    "Ġboldly": 9500,
    "Ġvolumes": 14799,
    "Ġje": 4120,
    "Ġparc": 10920,
    "Ġtopic": 9405,
    "Ġintermission": 18587,
    "wreck": 21135,
    "Ġvigorously": 11299,
    "rep": 5525,
    "Ġad": 445,
    "rised": 10123,
    "awing": 18915,
    "Ġconve": 5455,
    "Ġpikes": 21476,
    "specific": 10497,
    "Ġsuburban": 17345,
    "Ġghostly": 24650,
    "illings": 14142,
    "rap": 21625,
    "Ġhigher": 1821,
    "bur": 4686,
    "Ġcatastrophic": 3540,
    "Ġbaleen": 10036,
    "Ġstability": 1361,
    "magnificent": 20273,
    "Ġimplicated": 24875,
    "Ġspile": 22125,
    "Ġshortened": 23483,
    "inching": 21188,
    "Ġsoul": 2727,
    "Ġ80": 24456,
    "coff": 9108,
    "customary": 25895,
    "tuesday": 17690,
    "Ġ=": 1074,
    "Ġpilot": 5984,
    "youngest": 19742,
    "usage": 12830,
    "Ġunfavourable": 17416,
    "Ġcaution": 11346,
    "Ġfrankly": 16745,
    "ured": 1655,
    "tal": 17670,
    "Ġep": 7384,
    "Ġelement": 6898,
    "inform": 10143,
    "unfearing": 21889,
    "Ġhover": 15618,
    "Ġnonce": 23232,
    "Ġprank": 23218,
    "Ġangles": 23587,
    "Ġproper": 1377,
    "Ġbarrier": 16569,
    "recovered": 19786,
    "ĠĠĠĠĠĠĠĠĠĠĠĠĠĠĠĠĠĠĠĠĠĠĠĠĠĠĠĠĠĠĠĠĠĠĠĠĠĠĠĠĠĠĠĠĠĠĠ": 16755,
    "Ġensuing": 12307,
    "Ġimmeas": 18331,
    "fiery": 13579,
    "coffin": 10662,
    "Ġmouths": 7491,
    "oons": 12496,
    "blunder": 24128,
    "restrained": 16335,
    "Ġmassac": 14735,
    "Ġrecording": 24434,
    "Ġlone": 11612,
    "Ġbenef": 3487,
    "Ġenem": 4707,
    "Ġsunrise": 9372,
    "Ġhasty": 10477,
    "en": 271,
    "Ġoriginal": 6102,
    "Ġtiger": 11554,
    "acies": 14276,
    "gia": 20875,
    "Ġhint": 5016,
    "lingering": 18601,
    "Ġimpo": 3442,
    "corrob": 24485,
    "Ġostlers": 25276,
    "itable": 5437,
    "Ġalarm": 4046,
    "Ġbliss": 12997,
    "Ġproficiency": 19191,
    "Ġstupidity": 15049,
    "Ġblades": 11893,
    "flight": 15351,
    "oline": 6834,
    "Ġsteed": 13037,
    "apering": 8040,
    "inglass": 21301,
    "Ġfurnishing": 16645,
    "Ġengage": 9334,
    "Ġconveniently": 20077,
    "icken": 6711,
    "properly": 24918,
    "benevolently": 25600,
    "admon": 21758,
    "fatality": 25019,
    "ives": 1411,
    "Ġfals": 15579,
    "Ġdeploy": 2635,
    "Ġsociet": 9448,
    "histor": 13489,
    "Ġserv": 3329,
    "adr": 6994,
    "tried": 13793,
    "Ġvi": 1954,
    "Ġheedfully": 24521,
    "expressed": 9041,
    "Ġrestrictions": 20634,
    "ctic": 8441,
    "ung": 2746,
    "express": 4895,
    "Ġcrest": 12939,
    "Ġapproached": 5843,
    "Ġdefiance": 11068,
    "Ġsummary": 19401,
    "Ġinglorious": 24424,
    "Ġcontrivances": 12355,
    "Ġspool": 24806,
    "grow": 10098,
    "_âĢĶ": 11467,
    "Ġrepl": 1595,
    "piled": 21014,
    "impenet": 18053,
    "Ġmixed": 6974,
    "Ġhonoured": 9880,
    "itions": 4145,
    "Ġvacantly": 16815,
    "Ġconvalescence": 23743,
    "Ġstepdaughter": 22609,
    "Ġsigh": 10336,
    "Ġgangway": 20157,
    "ulty": 22564,
    "Ġmilliner": 19883,
    "Ġtroub": 22352,
    "Ġloom": 7628,
    "merged": 11194,
    "Ġvoyage": 3050,
    "Ġbreathing": 9444,
    "Ġ101": 24409,
    "Ġsize": 1216,
    "war": 6802,
    "Ġschol": 17376,
    "Ġounce": 15271,
    "Ġporpoise": 7106,
    "vicious": 21117,
    "Ġhunts": 23155,
    "Ġdangers": 12352,
    "bber": 4566,
    "lances": 15382,
    "Ġharpoone": 2908,
    "Ġloaf": 15871,
    "Ġundo": 15839,
    "Ġ34": 16677,
    "Ġdistinguished": 8272,
    "Ġhurtling": 24957,
    "rect": 1600,
    "Ġadjusting": 3411,
    "Ġpail": 15605,
    "Ġnut": 12644,
    "another": 5439,
    "Ġwee": 21915,
    "inese": 12877,
    "Ġoutrid": 22312,
    "ange": 1018,
    "bruary": 15234,
    "Ġtar": 2565,
    "Ġexulting": 20257,
    "Ġtheory": 5798,
    "Ġclothed": 19605,
    "revival": 26162,
    "inclined": 10639,
    "Ġstrainings": 24627,
    "Ġserene": 8166,
    "instruct": 19541,
    "nns": 1893,
    "Ġphant": 7055,
    "Ġsentimental": 24754,
    "grained": 20882,
    "Ġconquest": 15746,
    "weed": 14314,
    "Ġanyone": 4452,
    "Ġoverhanging": 22358,
    "Ġincensed": 18571,
    "still": 4214,
    "Ġthrough": 604,
    "Ġsaloon": 24059,
    "rained": 5162,
    "Ġfru": 8419,
    "Ġexper": 1275,
    "Ġjurors": 17343,
    "ingham": 21299,
    "sorrow": 12506,
    "Ġchat": 6560,
    "ominy": 13977,
    "Ġhopkins": 23128,
    "Ġneglecting": 25007,
    "Ġpane": 21461,
    "send": 15423,
    "idated": 11660,
    "Ġepoch": 26471,
    "Ġplaymate": 23636,
    "Ġcoop": 14269,
    "Ġjane": 1756,
    "Ġindian": 4129,
    "Ġincred": 5646,
    "Ġpacifics": 24373,
    "Ġlays": 15988,
    "inctions": 17732,
    "inary": 3275,
    "ability": 716,
    "naught": 20993,
    "uiperai": 10663,
    "Ġevenness": 22831,
    "ô": 181,
    "Ġjunks": 25113,
    "Ġinsol": 10180,
    "Ġforesee": 19125,
    "fit": 6645,
    "neural": 3061,
    "Ġiter": 2950,
    "Ġchisel": 20366,
    "Ġlens": 8437,
    "Ġoverheard": 11772,
    "fedallah": 25522,
    "Ġoccurrences": 11050,
    "evade": 24820,
    "Ġequival": 4784,
    "Ġsqualls": 17020,
    "ĠâĢľ": 517,
    "necess": 4896,
    "Ġpraised": 19552,
    "sp": 895,
    "Ġingenuity": 17163,
    "Ġcopies": 24935,
    "covenant": 23561,
    "gl": 3291,
    "adam": 15728,
    "vo": 11539,
    "que": 1115,
    "Ġroared": 7023,
    "Ġroasted": 18460,
    "Ġsuperfluous": 17413,
    "Ŀ": 256,
    "Ġtip": 15471,
    "Ġdim": 4757,
    "pede": 19843,
    "bureau": 20788,
    "Ï": 144,
    "Ġundoubted": 19513,
    "Ġdeficiencies": 26570,
    "Ġbattered": 17862,
    "ugl": 23286,
    "Ġsoftly": 7947,
    "Ġuniformity": 23484,
    "Ġpatronage": 17053,
    "inferences": 17739,
    "Ġgirl": 3085,
    "Ġdive": 10172,
    "Ġmature": 17799,
    "Ġgrizzled": 11450,
    "Ġlashings": 25097,
    "Ġdistraction": 22503,
    "tacit": 21097,
    "Ġdevouring": 11857,
    "Ġwaist": 6892,
    "elastic": 17980,
    "aving": 2406,
    "Ġhut": 15617,
    "Ġunfathomable": 20547,
    "Ġcommendation": 13608,
    "Ġmonkey": 8226,
    "scores": 22989,
    "joke": 20929,
    "plish": 18196,
    "missionary": 24615,
    "stayed": 25290,
    "Ġminimum": 23037,
    "ă": 196,
    "mouthful": 25208,
    "Ġmahogany": 20576,
    "Ġcocoan": 20315,
    "write": 14647,
    "incidentally": 20538,
    "Ġvanity": 7045,
    "Ġsupposed": 4555,
    "Ġwaited": 4908,
    "Ġoaths": 13522,
    "hest": 3369,
    "Ġvisions": 12970,
    "captains": 12125,
    "Ġinspection": 14544,
    "Ġfad": 17876,
    "Ġsincer": 13062,
    "Ġtwopence": 18660,
    "Ġungenerous": 18266,
    "ologist": 22846,
    "servants": 15037,
    "Ġbold": 5291,
    "Ġignorance": 6618,
    "Ġfocus": 4231,
    "Ġindications": 14632,
    "warn": 11542,
    "Ġsupport": 6728,
    "favouring": 24762,
    "ilight": 12691,
    "melancholy": 12351,
    "Ġrich": 2991,
    "Ġaged": 10321,
    "Ġavert": 14424,
    "Ġgovernment": 15175,
    "presbyterian": 26368,
    "Ġparted": 5928,
    "Ġoperate": 19115,
    "fes": 20850,
    "Ġpestilent": 25777,
    "accepted": 20135,
    "Ġboxed": 24360,
    "Ġheedfulness": 24522,
    "yp": 1044,
    "Ġprofession": 6207,
    "relig": 15512,
    "anum": 17835,
    "Ġcrept": 11022,
    "nobody": 16134,
    "Ġflowed": 10371,
    "Ġscene": 3096,
    "birth": 15321,
    "Ġrail": 7224,
    "Ġworth": 4410,
    "breeze": 20561,
    "pits": 15412,
    "Ġgracefully": 13389,
    "adm": 7608,
    "Ġconnex": 10665,
    "Ġbay": 9168,
    "Ġpagan": 7117,
    "Ġexcuse": 5861,
    "cont": 2918,
    "Ġwhen": 514,
    "isbury": 21375,
    "pedest": 24695,
    "houn": 20892,
    "Ġslumber": 13056,
    "Ġnowhere": 12884,
    "Ġeternal": 5975,
    "yra": 8102,
    "Ġspies": 22126,
    "Ġkitty": 3908,
    "orable": 8119,
    "insufferable": 21191,
    "Ġconsidered": 4609,
    "els": 1763,
    "allied": 7410,
    "childhood": 16868,
    "sies": 21053,
    "Ġthese": 820,
    "Ġsentin": 16371,
    "lections": 4752,
    "solving": 3098,
    "Ġtokens": 1772,
    "Ġswandam": 11088,
    "Ġtoes": 10829,
    "cod": 12441,
    "Ġheavier": 13099,
    "Ġregions": 10323,
    "Ġelegance": 11332,
    "Ġdiscernible": 15068,
    "warnings": 20350,
    "Ġpat": 1831,
    "Ġimmensely": 13593,
    "Ġfatt": 15577,
    "Ġserpents": 13074,
    "Ġbritain": 16956,
    "Ġinex": 6528,
    "Ġbou": 17852,
    "Ġmysterious": 7527,
    "Ġsplit": 7992,
    "once": 5903,
    "Ġspecks": 14307,
    "Ġsubstantiated": 25875,
    "Ġbugs": 13646,
    "Ġdirector": 18920,
    "Ġreceives": 20353,
    "throw": 14097,
    "Ġmaled": 21313,
    "earliest": 20118,
    "Ġsidel": 9635,
    "Ġdishon": 12228,
    "itely": 5365,
    "Ġobserving": 6080,
    "osite": 4893,
    "aid": 1922,
    "Ġinsc": 7585,
    "Ġmoves": 14231,
    "Ġclipping": 2440,
    "Ġfuller": 11156,
    "Ġundone": 24115,
    "icket": 22665,
    "ieving": 7031,
    "gard": 7339,
    "Ġuppermost": 15277,
    "the": 334,
    "Ġboat": 1278,
    "Û": 156,
    "Ġdough": 8420,
    "Ġpainter": 19167,
    "Ġgraphs": 25463,
    "share": 14237,
    "Ġarduous": 26531,
    "Ġlur": 5226,
    "abode": 21788,
    "Ġascribed": 14854,
    "Ġclassical": 22618,
    "enched": 10154,
    "Ġpiazza": 26450,
    "housekeeping": 24100,
    "Ġenticements": 26034,
    "Ġsculpture": 26016,
    "programming": 10062,
    "Ġsmoky": 22555,
    "Ġriggers": 24154,
    "Ġtotally": 9470,
    "Ġkicked": 10581,
    "attered": 4017,
    "irmed": 9238,
    "Ġmab": 12557,
    "Ġunaccountably": 26515,
    "ac": 742,
    "Ġfolks": 14425,
    "whaler": 20308,
    "Ġinsipid": 26313,
    "Ġstack": 21730,
    "K": 47,
    "Ġwhitened": 24867,
    "anesc": 21358,
    "wander": 17709,
    "wil": 8395,
    "Ġeuropean": 20044,
    "onds": 12992,
    "Ġisland": 4047,
    "Ġblinded": 13268,
    "merit": 19280,
    "con": 652,
    "wharf": 20605,
    "Ġmomentary": 11036,
    "Ġcrown": 5287,
    "Ġtelling": 5747,
    "um": 453,
    "keeper": 5597,
    "treasures": 26152,
    "Ġaw": 2512,
    "Ġinhabited": 12183,
    "vigorous": 25917,
    "illar": 5101,
    "Ġteeth": 4164,
    "ull": 1434,
    "Ġused": 2061,
    "Ġmovement": 9967,
    "edged": 15629,
    "Ġsorrow": 4628,
    "Ġdisclose": 16155,
    "Ġillustrious": 17109,
    "verted": 10217,
    "Ġcanaller": 25467,
    "Ġwitnesses": 9485,
    "Ġconsult": 6056,
    "Ġfixedly": 19247,
    "Ġview": 2762,
    "ficial": 17548,
    "Ġdeductions": 19732,
    "Ġdepicting": 22605,
    "Ġplush": 18609,
    "beyond": 8882,
    "Ġprometheus": 15291,
    "begins": 18528,
    "icy": 6140,
    "enchanted": 26424,
    "aved": 5475,
    "Ġsuperseded": 26223,
    "allowing": 24358,
    "Ġfrigid": 17352,
    "dwelling": 20563,
    "leviathans": 19936,
    "Ġcircumn": 11982,
    "loving": 18540,
    "distraction": 24199,
    "ired": 1447,
    "Ġdoct": 4448,
    "Ġalmost": 1658,
    "Ġmines": 21307,
    "Ġcompanions": 5865,
    "arthy": 4822,
    "Ġfaithful": 9502,
    "spending": 18691,
    "Ġducks": 25157,
    "fiend": 13659,
    "expect": 4769,
    "Ġconstitution": 20107,
    "Ġseats": 14088,
    "Ġlat": 5087,
    "kily": 20936,
    "every": 2809,
    "Ġinhabitant": 19754,
    "Ġhearties": 18967,
    "Ġ90": 24588,
    "Ġornament": 11718,
    "le": 279,
    "ould": 427,
    "heeded": 13833,
    "Ġshakes": 10904,
    "Ġbackwards": 12923,
    "Ġoakum": 16934,
    "Ġvac": 5025,
    "condemned": 26060,
    "Ġtemple": 7653,
    "violent": 14580,
    "Ġstoke": 10395,
    "crooked": 25746,
    "xi": 17710,
    "Ġapprehending": 26090,
    "antial": 8487,
    "Ġdischarged": 15219,
    "Ġfortresses": 23620,
    "Ġfatigue": 8697,
    "Ġnoises": 18374,
    "Ġfailure": 13312,
    "beautiful": 10648,
    "Ġtranque": 14204,
    "Ġowl": 20082,
    "entering": 17976,
    "Ġsympathised": 14861,
    "Ġenvelopes": 24510,
    "Ġswings": 11086,
    "Ġtimidly": 11338,
    "Ġhas": 825,
    "oubted": 5859,
    "Ġdeceased": 15006,
    "Ġvaluable": 5608,
    "Ġallowed": 4057,
    "Ġprogramming": 1184,
    "eled": 2360,
    "Ġmarket": 7708,
    ":": 30,
    "Ġreap": 18026,
    "Ġtwain": 16118,
    "eronomy": 15524,
    "yet": 3753,
    "urbed": 15706,
    "Ġ_": 841,
    "mmar": 952,
    "ui": 9144,
    "Ġbrid": 6290,
    "Ġinterconnected": 1337,
    "Ġaccompanied": 6780,
    "industrious": 26239,
    "sence": 3307,
    "Ġidiotic": 25588,
    "Ġfold": 5531,
    "dishon": 20402,
    "pha": 22761,
    "Ġstow": 21727,
    "Ġrecovering": 11861,
    "Ġcontinuing": 14396,
    "odious": 21807,
    "Ġcleaving": 23179,
    "Ġdeposited": 25484,
    "thine": 15823,
    "Ġaccident": 5380,
    "rary": 4573,
    "Ġcomputes": 4768,
    "Ġreckless": 13456,
    "Ġpromptly": 23815,
    "Ġwig": 9161,
    "Ġbewitching": 25976,
    "entric": 11618,
    "Ġundiscovered": 18252,
    "omitted": 18016,
    "ues": 2081,
    "phew": 6368,
    "dataset": 23245,
    "lig": 3171,
    "slee": 17168,
    "brothers": 17024,
    "feit": 16041,
    "Ġinside": 5448,
    "Ġlikes": 9407,
    "Ġbuttoned": 25368,
    "Ġsearched": 15818,
    "posted": 24635,
    "Ġtusk": 25425,
    "Ġfastened": 7065,
    "Ġtightly": 13532,
    "Ġconcepts": 4547,
    "Ġmob": 16016,
    "Ġgout": 21593,
    "Ġunmanufactured": 20432,
    "Ġweighing": 20014,
    "Ġjuncture": 17129,
    "ased": 1268,
    "Ġdejection": 15195,
    "Ġcomforter": 20505,
    "Ġpursued": 6328,
    "kes": 3677,
    "Ġmoccas": 22433,
    "Ġunjustifiable": 25109,
    "Ġtemptation": 8677,
    "Ġbur": 2698,
    "Ġvengeful": 14889,
    "Ġmurder": 4276,
    "Ġgladstone": 23867,
    "Ġsurgeon": 8981,
    "Ġfrank": 4413,
    "Ġforgot": 4683,
    "Ġeu": 6390,
    "Ġcoco": 11000,
    "Ġacknowledge": 13400,
    "Ġtraitors": 23075,
    "brimming": 23576,
    "ancho": 4938,
    "Ġadhes": 22103,
    "Ġscheming": 23268,
    "Ġreckon": 19869,
    "Ġit": 339,
    "Ġscrut": 15945,
    "Ġforthwith": 16618,
    "innacle": 7519,
    "Ġdisciple": 22779,
    "Ġunquestionable": 26221,
    "Ġmou": 13854,
    "adoes": 11659,
    "Ġsmoked": 10322,
    "Ġprecipices": 12275,
    "icious": 7380,
    "Ġunwearied": 20601,
    "american": 11400,
    "oid": 3125,
    "Ġchains": 8250,
    "security": 26206,
    "Ġslyness": 25266,
    "hair": 9122,
    "Ġextracting": 11104,
    "Ġtransform": 745,
    "Ġpr": 1601,
    "tempestuous": 26097,
    "heads": 4092,
    "Ġbowels": 9429,
    "Ġpugn": 21478,
    "Ġfa": 4819,
    "Ġbadly": 12129,
    "Ġencoding": 4774,
    "drown": 13703,
    "Ġacquaintances": 17349,
    "glow": 20873,
    "Ġforemast": 12004,
    "Ġchambers": 16799,
    "Ġheeded": 13401,
    "embers": 21923,
    "Ġcontextually": 11959,
    "Ġmisgivings": 15290,
    "bles": 7017,
    "Ġperpendicularly": 11374,
    "arter": 17893,
    "before": 3113,
    "imen": 12684,
    "ĠĠĠĠĠĠĠĠĠĠĠĠĠĠĠĠĠĠĠĠĠĠĠĠĠĠĠĠĠĠĠĠĠĠĠĠĠĠĠ": 19258,
    "Ġsow": 17749,
    "Ġlashed": 9198,
    "Ġsensitiveness": 23732,
    "Ġlooks": 4163,
    "Ġscand": 7203,
    "Ġpeep": 6870,
    "Ġinterfere": 11815,
    "Ġheartless": 13070,
    "Ġtermination": 16461,
    "Ġepisode": 26346,
    "discovery": 12015,
    "ß": 160,
    "acknowledging": 25476,
    "forbid": 14352,
    "Ġtrembled": 8701,
    "Ġroaring": 10968,
    "Ġundisturbed": 19518,
    "sided": 17664,
    "Ġwoollen": 12101,
    "Ġenchanted": 9080,
    "Ġcounterbalance": 24722,
    "ove": 1743,
    "sailing": 14713,
    "circuit": 24186,
    "Ġlic": 8435,
    "ĠĠĠĠĠĠĠĠĠĠĠĠĠĠĠĠĠĠĠĠĠĠĠĠĠĠĠĠĠĠĠĠĠĠĠ": 19257,
    "Ġcitadel": 25438,
    "Ġripe": 13232,
    "Ġlect": 9222,
    "Ġaston": 3701,
    "Ġoverthrown": 18430,
    "shel": 11928,
    "Ġsplin": 8618,
    "bation": 9102,
    "Ġinquirers": 24962,
    "Ġpedro": 14994,
    "detached": 19673,
    "signed": 21060,
    "bs": 3750,
    "ete": 9203,
    "Ġimitate": 14157,
    "Ġcringed": 25942,
    "Ġacquies": 11097,
    "Ġoceans": 7995,
    "detained": 24382,
    "Ġdz": 4756,
    "isely": 4485,
    "plainly": 11089,
    "Ġtelescope": 17347,
    "Ġhat": 2772,
    "Ġburnwell": 13265,
    "Ġcave": 10785,
    "Ġmile": 7151,
    "Ġharbor": 10026,
    "Ġexclaim": 11221,
    "wanted": 10743,
    "Ġpurchasing": 19874,
    "erve": 12546,
    "ineering": 21978,
    "Ġtombed": 25160,
    "hunsford": 24386,
    "Ġswe": 2291,
    "isle": 13891,
    "foreign": 18544,
    "asable": 21538,
    "omically": 13975,
    "canoes": 16231,
    "Ġexcel": 3566,
    "Ġkid": 9724,
    "Ġpredicts": 2594,
    "Ġappro": 655,
    "Ġbusily": 9384,
    "whole": 6085,
    "Ġobservations": 13551,
    "Ġgroaned": 11266,
    "Ġgeneralize": 3099,
    "Ġvalued": 12180,
    "awe": 20764,
    "weary": 22683,
    "assment": 9738,
    "ascribed": 24708,
    "Ġcor": 1321,
    "Ġconsists": 11976,
    "Ġstruggled": 9904,
    "Ġimaginations": 16516,
    "Ġeasiest": 23537,
    "Ġwitt": 17783,
    "romised": 14111,
    "Ġmeasurement": 19421,
    "Ġdilatory": 24705,
    "velled": 9875,
    "Ġabraham": 18395,
    "Ġincorporated": 25711,
    "Ġdrawing": 3916,
    "Ġdiamond": 15597,
    "Ġring": 4445,
    "concealed": 25115,
    "yingly": 23114,
    "Ġantics": 24176,
    "draul": 9442,
    "Ġgot": 2281,
    "Ġhumorous": 10360,
    "Ġdeputation": 21836,
    "Ġind": 1220,
    "Ġexhibition": 14956,
    "Ġinch": 7849,
    "Ġtorch": 25030,
    "Ġcalhoun": 23040,
    "Ġindifference": 6725,
    "ě": 220,
    "Ġbier": 22758,
    "becoming": 18522,
    "portuguese": 25413,
    "nment": 20989,
    "ighb": 10423,
    "discrimin": 19607,
    "nearly": 8680,
    "sively": 13785,
    "ved": 869,
    "Ġunsh": 14114,
    "live": 7550,
    "Ġhasten": 10478,
    "ets": 1160,
    "Ġpractised": 23325,
    "Ġsw": 1354,
    "Ġnast": 15637,
    "Ġhumiliating": 22881,
    "Ġriots": 23890,
    "Ġteneriffe": 26414,
    "odecimo": 11444,
    "Ġcramped": 23530,
    "Ġpanel": 13370,
    "Ġslouched": 13055,
    "arthly": 8029,
    "Ġdocuments": 10022,
    "rug": 18341,
    "Ġgardiner": 3238,
    "Ġlingered": 13503,
    "eminence": 20097,
    "Ġexecute": 7505,
    "Ġrubbed": 12952,
    "Ġredundant": 16550,
    "Ġfootpaths": 26318,
    "sent": 760,
    "Ġhave": 444,
    "bed": 3290,
    "Ġnapole": 15114,
    "Ġundersampling": 19517,
    "twilight": 23700,
    "distinct": 13333,
    "Ġdescent": 990,
    "tails": 21085,
    "Ġsponge": 26004,
    "unnecessary": 21877,
    "Ġgenealogies": 25961,
    "ute": 4642,
    "Ġgradu": 15831,
    "appalled": 18760,
    "Ġpioneer": 17918,
    "Ġsuddenly": 2646,
    "opÃ¦": 12871,
    "Ġfavourable": 7958,
    "Ġdiffused": 12066,
    "urp": 1474,
    "firmly": 20279,
    "killed": 15375,
    "Ġfloundered": 18862,
    "Ġopportunities": 19248,
    "Ġfire": 2336,
    "Ġencaps": 12958,
    "undertaking": 23786,
    "Ġstating": 15720,
    "Ġalgorithm": 772,
    "Ġgently": 7171,
    "Ġtum": 5692,
    "reflections": 24735,
    "Ġyields": 19655,
    "Ġgracious": 8846,
    ",": 16,
    "ogy": 22693,
    "Ġmedic": 11247,
    "Ġwhispers": 14699,
    "acetty": 24464,
    "Ġfretfully": 25447,
    "Ġjavel": 17084,
    "Ġcreations": 18685,
    "rawling": 21633,
    "Ġzeal": 9097,
    "Ġhast": 3149,
    "solved": 7684,
    "Ġark": 10276,
    "Ġcaut": 6521,
    "Ġactivation": 918,
    "stood": 4113,
    "oga": 22692,
    "Ġpreserve": 7529,
    "Ġsprout": 24085,
    "Ġinhale": 20299,
    "ach": 435,
    "max": 1685,
    "casks": 20401,
    "Ġscanning": 18400,
    "Ġlives": 4825,
    "Ġexpressive": 8982,
    "Ġlowering": 7986,
    "a": 69,
    "Ġmediterranean": 12313,
    "fate": 17539,
    "Ġcheer": 4065,
    "Ġbred": 9169,
    "Ġstrive": 23691,
    "Ġclout": 22336,
    "Ġestablished": 9069,
    "Ġcomprehend": 6494,
    "Ġconfinement": 19037,
    "Ġcus": 21341,
    "Ġsurvivor": 17362,
    "Ġbitter": 4170,
    "Ġbeaut": 2394,
    "Ġdescribing": 19253,
    "isson": 23460,
    "being": 3912,
    "larking": 17594,
    "oney": 3045,
    "Ġbalances": 2343,
    "Ġmoonshine": 19596,
    "dering": 5305,
    "ras": 21035,
    "Ġdru": 8421,
    "iam": 2511,
    "Ġverte": 9440,
    "camp": 15329,
    "avoid": 9304,
    "Ġtragedy": 10667,
    "Ġpartake": 18673,
    "Ġuncouth": 14549,
    "Ġservox": 23868,
    "race": 11630,
    "Ġsuppression": 22997,
    "Ġstraightway": 9016,
    "marching": 25752,
    "forming": 15915,
    "Ġslain": 8953,
    "cried": 8724,
    "Ġidentifies": 12013,
    "cadence": 26125,
    "Ġscents": 22284,
    "Ġscalding": 16331,
    "Ġappears": 5402,
    "Ġshr": 4221,
    "Ġscandinavian": 26344,
    "screen": 22993,
    "break": 6101,
    "ophisticated": 22475,
    "tempt": 21078,
    "Ġblotches": 25314,
    "blown": 25201,
    "seriously": 18904,
    "Ġclam": 7416,
    "Ġdetermining": 14420,
    "Ġwidely": 8032,
    "Ġtrad": 9827,
    "Ġrole": 15997,
    "deed": 1520,
    "Ġrazor": 22648,
    "Ġbushy": 16402,
    "Ġmeanly": 12907,
    "Ġguitar": 16267,
    "Ġstrolled": 16770,
    "!âĢĿâĢĶ": 8532,
    "Ġbalm": 22901,
    "Ġinc": 702,
    "barbs": 20236,
    "Ġknelt": 12156,
    "Ġinf": 1755,
    "usion": 3301,
    "Ġrejected": 12292,
    "Ġ110": 24435,
    "occur": 19574,
    "doom": 23375,
    "Ġscratching": 20367,
    "Ġunreasonable": 12775,
    "apparatus": 26563,
    "Ġpie": 13914,
    "obviously": 25242,
    "Ġlately": 6387,
    "Ġarrow": 10931,
    "answered": 10273,
    "Ġottoman": 17377,
    "Ġlikely": 3596,
    "Ġthirteen": 15273,
    "fitting": 1512,
    "Ġcoffin": 4422,
    "Ġchoice": 2166,
    "conditional": 9078,
    "Ġresolutely": 14609,
    "Ġnobly": 22238,
    "atmosphere": 21263,
    "Ġable": 3079,
    "Ġlizard": 12652,
    "Ġart": 748,
    "sutherland": 21061,
    "Ġforty": 5719,
    "Ġillustration": 19135,
    "destroyed": 15259,
    "Ġpray": 3898,
    "ivided": 22078,
    "Ġwilful": 10534,
    "Ġadequately": 15197,
    "Ġridiculous": 10628,
    "ributed": 8213,
    "Ġcondesc": 7181,
    "favourable": 12261,
    "Ġinquis": 19302,
    "Ġlocket": 22110,
    "Ġabusive": 22270,
    "Ġbeamed": 23719,
    "ubb": 1651,
    "Ġwapping": 21293,
    "Ġgowns": 25359,
    "Ġviol": 2073,
    "Ġourselves": 5127,
    "Ġstudent": 14469,
    "Ġbacked": 12922,
    "attracted": 13047,
    "ially": 9245,
    "Ġwillow": 18533,
    "Ġlany": 21551,
    "[_": 5131,
    "Ġcharm": 4544,
    "Ġaxis": 12305,
    "Ġprivate": 5345,
    "Ġhowl": 12852,
    "Ġfra": 1768,
    "Ġruddy": 17125,
    "Ġcontact": 9280,
    "dued": 7908,
    "quin": 21850,
    "Ġlomb": 21556,
    "Ġacres": 14312,
    "Ġaloud": 6252,
    "ton": 1728,
    "composure": 24031,
    "son": 2332,
    "Ġparamet": 607,
    "Ġfaster": 3196,
    "Ġprotruding": 16658,
    "Ġrider": 24183,
    "Ġpurest": 14938,
    "urpation": 16300,
    "Ġships": 3714,
    "glad": 9007,
    "Ġcursed": 6726,
    "attain": 21260,
    "urned": 9305,
    "000": 2562,
    "_.âĢĻâĢĿ": 17479,
    "Ġformerly": 7493,
    "ken": 2800,
    "igger": 21697,
    "brushing": 20787,
    "Ġdismantled": 20215,
    "Ġhanding": 16129,
    "Ġemerge": 14927,
    "Ġcontinue": 5398,
    "Ġcries": 7154,
    "oky": 8197,
    "Ġappals": 22214,
    "rain": 462,
    "Ġposition": 1956,
    "Ġsucceeding": 16761,
    "Ġcondescending": 24868,
    "Ġequin": 14495,
    "Ġsubl": 7235,
    "Ġapprehensions": 13402,
    "host": 5867,
    "Ġfailed": 6671,
    "Ġrenow": 18027,
    "rity": 13775,
    "Ġweb": 9239,
    "Ġwore": 6377,
    "Ġunless": 4088,
    "Ġearn": 3545,
    "Ġneskye": 21528,
    "Ġalph": 9694,
    "pivot": 21030,
    "aders": 21755,
    "antically": 22093,
    "Ġimpass": 15984,
    "Ġkingdom": 12017,
    "Ġmortal": 4681,
    "stee": 21648,
    "Ġtouching": 4680,
    "Ġthinking": 4029,
    "Ġarid": 22184,
    "vously": 23504,
    "Ġspringing": 10518,
    "Ġlethar": 21743,
    "Ġsanguinary": 25929,
    "Ġcome": 1242,
    "Ġsatisfactory": 11193,
    "Ġmat": 1147,
    "range": 3492,
    "younger": 11312,
    "knowledge": 7478,
    "blow": 9103,
    "thanked": 24331,
    "Ġrugged": 18719,
    "Ġabrid": 22269,
    "Ġassailants": 20447,
    "Ġcharitable": 23267,
    "Ġsect": 17751,
    "Ġcocoa": 25482,
    "Ġglory": 6064,
    "Ġhumble": 8551,
    "Ġmerchant": 6467,
    "getting": 12964,
    "Ġtrim": 15967,
    "ouched": 4636,
    "Ġtremendous": 8352,
    "Ġdust": 5908,
    "Ġmorocco": 26573,
    "liness": 8746,
    "ispens": 8335,
    "Ġpreluding": 18368,
    "ċ": 204,
    "Ġ103": 24411,
    "brilliancy": 26077,
    "Ġrescued": 24205,
    "Ġunusual": 6553,
    "roof": 17953,
    "punctual": 26355,
    "Ġfirmest": 16664,
    "returning": 12203,
    "fat": 8078,
    "Ġel": 798,
    "ipelag": 12842,
    "Ġwild": 2601,
    "Ġapplies": 11953,
    "Ġadie": 8488,
    "Ġprelimin": 8860,
    "Ġstruggle": 3674,
    "Ġmid": 2615,
    "Ġpalpable": 15205,
    "Ġanecdote": 26354,
    "Ġgaily": 16748,
    "Ġinsupportable": 13931,
    "Ġcrab": 13142,
    "Ġsnatching": 10472,
    "Ġlived": 3990,
    "quick": 6400,
    "Ġsetting": 7046,
    "Ġvisage": 18764,
    "ipt": 12476,
    "Ġignorant": 5343,
    "Ġwhistled": 24623,
    "Ġcastles": 16639,
    "rog": 15638,
    "local": 22507,
    "Ġskilfully": 20522,
    "Ġvehicle": 20137,
    "amb": 5723,
    "Ġconquered": 14025,
    "seam": 10874,
    "Ġengra": 7873,
    "charles": 14698,
    "smoking": 23908,
    "Ġar": 481,
    "Ġdisp": 3358,
    "discredit": 24250,
    "Ġrot": 10967,
    "Ġmarched": 18871,
    "icilian": 20690,
    "aced": 2407,
    "ca": 20792,
    "Ġthrice": 10575,
    "Ġstruggling": 12072,
    "Ġflourished": 15124,
    "persuasion": 20042,
    "Ó": 148,
    "wise": 2575,
    "âĢĺ": 940,
    "encouragement": 17422,
    "horses": 17567,
    "Ġcosine": 2374,
    "departed": 24794,
    "Ġrespective": 16344,
    "Ġmand": 21303,
    "asiness": 8128,
    "rey": 12535,
    "Ġdri": 2365,
    "Ġdeep": 817,
    "discoveries": 25385,
    "Ġrel": 1095,
    "Ġcorpora": 26580,
    "Ġadmitting": 19182,
    "Ġgrimly": 17052,
    ".--": 20745,
    "repeating": 20127,
    "scale": 3533,
    "Ġhereby": 10358,
    "Ġsenior": 17171,
    "Ġrealism": 18984,
    "Ġshrivelled": 19702,
    "Ġexempt": 21825,
    "liberal": 26281,
    "surround": 16758,
    "Ġhearsed": 25039,
    "Ġbuffaloes": 25217,
    "Ġranges": 2881,
    "Ġlurch": 21552,
    "Ġdeclaration": 16636,
    "Ġgin": 13960,
    "Ġshel": 6847,
    "Ġarcher": 22187,
    "iture": 5696,
    "approbation": 11458,
    "Ġscramble": 24578,
    "advise": 24216,
    "pike": 11514,
    "Ġrece": 11637,
    "Ġshores": 8847,
    "olds": 9310,
    "immedi": 8450,
    "attery": 18507,
    "istle": 15869,
    "Ġdispute": 16054,
    "Ġsilk": 11960,
    "those": 4492,
    "Ġfries": 21413,
    "Ġheard": 1401,
    "Ġalche": 21780,
    "Ġunrival": 22044,
    "Ġproceeding": 9905,
    "Ġdirection": 1792,
    "Ġcreases": 22725,
    "Ġinstantaneously": 23656,
    "Ġporus": 24398,
    "varying": 13803,
    "Ġslip": 8954,
    "Ġcost": 2505,
    "Ġexperiences": 13021,
    "bbs": 23690,
    "Ġsled": 21217,
    "haul": 14764,
    "tin": 6116,
    "w": 91,
    "Ġskulls": 12956,
    "Ġmonstr": 7667,
    "spades": 14335,
    "Ġpoint": 2057,
    "som": 3292,
    "Ġappeals": 16315,
    "Ġelbowed": 16108,
    "Ġparacelsus": 15265,
    "exactly": 10636,
    "ener": 562,
    "running": 6797,
    "crowning": 25748,
    "maritime": 24171,
    "L": 48,
    "Ġreservo": 16831,
    "arest": 4004,
    "Ġsluggishly": 25891,
    "Ġbrighton": 6470,
    "ernation": 8211,
    "Ġnortheast": 23201,
    "country": 6103,
    "Ġpicturesqueness": 24480,
    "aus": 1503,
    "wand": 10738,
    "ĠĠĠĠĠĠĠĠĠĠĠĠĠĠĠĠĠĠĠĠĠĠĠĠĠĠĠĠĠĠĠĠĠĠĠĠĠ": 14615,
    "Ġaccording": 5508,
    "crown": 13697,
    "26": 10072,
    "Ġsneezing": 12245,
    "Ġru": 947,
    "icher": 9202,
    "li": 1189,
    "Ġwing": 6665,
    "Ġvolley": 24143,
    "despicable": 24636,
    "bourne": 19102,
    "seemed": 4299,
    "eer": 15346,
    "narrow": 11507,
    "Ġcabin": 3303,
    "Ġensu": 7874,
    "Ġflora": 11416,
    "Ġhardly": 2432,
    "Ġyielding": 12184,
    "Ġmoose": 22430,
    "Ġdrinks": 24279,
    "Ġexhaust": 6399,
    "Ġconcerning": 4067,
    "Ġinsincere": 26599,
    "situ": 9621,
    "Ġtransformed": 22603,
    "load": 12879,
    "Ġforeman": 23446,
    "Ġclaret": 22343,
    "Ġregularization": 1182,
    "Ġtradesmen": 17105,
    ";âĢĿ": 7790,
    "Ġdair": 17889,
    "Ġunderstood": 5655,
    "Ġentreaties": 9035,
    "grey": 14911,
    "conclusion": 25671,
    "Ġunreasoning": 15844,
    "ma": 1150,
    "Ġrem": 954,
    "Ġtrailing": 23076,
    "Ġinject": 2712,
    "Ġthinkings": 22809,
    "Ġbrimming": 22866,
    "Ġnotorious": 18223,
    "Ġclear": 1950,
    "angible": 22099,
    "Ġirreducible": 5519,
    "Ġoccasions": 7987,
    "Ġungod": 22021,
    "Ġointment": 21324,
    "Ġindestruct": 22955,
    "Ġcan": 468,
    "Ġgrizz": 10352,
    "Ġrejoiced": 8683,
    "itaries": 21334,
    "searching": 25103,
    "chase": 11644,
    "bishop": 13693,
    "Ġstraggling": 23749,
    "Ġbalanced": 12985,
    "Ġhealthful": 24055,
    "Ġergo": 25029,
    "Ġport": 3310,
    "izar": 14049,
    "Ġevol": 2813,
    "Ġaqu": 17742,
    "moreover": 12966,
    "Ġsensationalism": 26066,
    "ê": 171,
    "Ġtrod": 15026,
    "dilig": 17282,
    "Ġrepenting": 25322,
    "arian": 10315,
    "Ġintelligence": 558,
    "Ġknighthood": 25297,
    "pursued": 17281,
    "Ġsurpass": 13581,
    "Ġturk": 6603,
    "entions": 17974,
    "Ġconstraint": 16514,
    "horror": 13157,
    "aunted": 20769,
    "fe": 678,
    "Ġmeditating": 20041,
    "whaling": 7898,
    "Ġstronger": 8578,
    "james": 15371,
    "Ġimple": 1802,
    "Ġdegra": 2589,
    "Ġshaped": 15833,
    "Ġmun": 12559,
    "Ġincludes": 2013,
    "sulphur": 25909,
    "feeder": 12359,
    "lab": 3456,
    "mical": 9128,
    "Ġfeed": 2127,
    "mblance": 7323,
    "sy": 2670,
    "create": 24157,
    "Ġlocations": 12411,
    "absolutely": 10645,
    "Ġmidst": 7985,
    "Ġicebergs": 23972,
    "Ġscrupled": 25049,
    "Ġdevice": 1928,
    "Ġpreprocessing": 26536,
    "Ġgaping": 13968,
    "Ġpathetic": 19040,
    "abama": 12707,
    "manner": 6170,
    "Ġauthorities": 11264,
    "remes": 21236,
    "Ġspectre": 16630,
    "Ġshipmate": 8928,
    "sych": 9885,
    "Ġexplain": 545,
    "Ġedition": 16434,
    "abomin": 15740,
    "concern": 6099,
    "Ġcapstan": 9098,
    "goodness": 19287,
    "catherine": 7127,
    "Ġinterior": 8894,
    "opement": 10311,
    "tasted": 17687,
    "Ġunderstand": 832,
    "Ġoppression": 23649,
    "Ġhaughty": 11449,
    "vital": 17700,
    "Ġfel": 1519,
    "nonsense": 17615,
    "Ġtranspired": 16784,
    "Ġstudded": 18956,
    "iger": 8446,
    "Ġfootpath": 19337,
    "prisoner": 20542,
    "iven": 1238,
    "Ġhours": 2817,
    "Ġvindication": 25364,
    "Ġperman": 10965,
    "longer": 8612,
    "Ġnightfall": 23129,
    "constellation": 24607,
    "Ġoutfits": 22318,
    "pulous": 15416,
    "Ġes": 8768,
    "Ġdistricts": 20262,
    "Ġmadam": 5663,
    "likes": 18814,
    "plutarch": 21952,
    "unworthy": 18161,
    "Ġamendment": 26024,
    "Ġaband": 6561,
    "racting": 10351,
    "nect": 662,
    "isure": 6240,
    "Ġenthr": 22747,
    "Ġmantel": 11439,
    "Ġdisconnected": 22522,
    "rud": 4186,
    "Ġ123": 24468,
    "dually": 3284,
    "Ġshoal": 12014,
    "Ġtwitching": 25683,
    "Ġwan": 15527,
    "bowing": 24454,
    "oping": 5559,
    "ulance": 15765,
    "Ġgnashed": 20131,
    "ad": 337,
    "supp": 4159,
    "roses": 17956,
    "Ġpaunch": 23747,
    "Ġdaring": 8120,
    "bolts": 11420,
    "Ā": 193,
    "exc": 5169,
    "Ġsounds": 5190,
    "Ġlearn": 365,
    "Ġenemy": 5605,
    "Ġmccarthy": 5145,
    "Ġconj": 8460,
    "Ġecc": 11627,
    "Ġhorizon": 6632,
    "capable": 13700,
    "Ġdusty": 14924,
    "teenth": 11872,
    "Ġcoding": 8115,
    "Ġevil": 3806,
    "flames": 14711,
    "Ġbeaufort": 13566,
    "Ġrelish": 14383,
    "Ġhardware": 4904,
    "Ġpangs": 15613,
    "doubtful": 24791,
    "Ġdependen": 1829,
    "Ġfitted": 6243,
    "Ġfishermen": 5970,
    "Ġspent": 3963,
    "Ġbrother": 2749,
    "floated": 24643,
    "Ġregent": 18597,
    "blocks": 25517,
    "goldsmith": 20146,
    "Ġstructural": 2797,
    "attacks": 23121,
    "fortunately": 9449,
    "Ġladder": 8598,
    "Ġfiner": 13049,
    "directly": 13708,
    "unimportant": 18159,
    "Ġunintelligible": 26514,
    "Ġgovernesses": 25127,
    "sought": 15427,
    "underneath": 23787,
    "paper": 9136,
    "Ġcoff": 3505,
    "Ġfoolish": 5979,
    "swiftly": 20550,
    "tar": 8097,
    "Ġredress": 23751,
    "agne": 21902,
    "Ġripple": 25504,
    "Ġburied": 7718,
    "Ġlvi": 21550,
    "Ġdepressed": 10882,
    "sounding": 24796,
    "Ġcame": 1298,
    "marvell": 24170,
    "Ġsaleve": 17390,
    "Ġunderwent": 23236,
    "Ġgrasp": 4663,
    "draw": 23896,
    "Ġresembled": 18033,
    "Ġfever": 6558,
    "Ġnugent": 26457,
    "plague": 21948,
    "affections": 17356,
    "Ġsurmisings": 26593,
    "Ġquarter": 3975,
    "Ġsongs": 13418,
    "hence": 16624,
    "Ġrespected": 11951,
    "Ġsoo": 15860,
    "Ġpeace": 3692,
    "laden": 14928,
    "held": 3840,
    "Ġfluid": 11212,
    "Ġferocious": 17418,
    "likewise": 13103,
    "Ġchaos": 17009,
    "thoughtfully": 24041,
    "Ġhusband": 3618,
    "mpus": 13756,
    "Ġprayers": 12121,
    "Ġbedside": 19121,
    "draught": 12087,
    "Ġinferred": 14500,
    "Ġglu": 15666,
    "Ġkeenly": 9484,
    "Ġremoved": 5274,
    "Ġrains": 24340,
    "phys": 18709,
    "Ġwherever": 8523,
    "Ġharem": 9709,
    "Ġespecial": 26410,
    "arrangement": 17414,
    "Ġforenoon": 19126,
    "swelled": 19609,
    "Ġspanish": 2825,
    "Ġpersu": 3561,
    "Ġrelative": 11881,
    "Ġunexampled": 20358,
    "oped": 6046,
    "Ġcrumbs": 20639,
    "Ġconstructed": 9386,
    "M": 49,
    "Ġannouncement": 14832,
    "everlasting": 18772,
    "Ġramble": 9312,
    "Ġtrump": 8195,
    "Ġwhelm": 25998,
    "pread": 7418,
    "shows": 22455,
    "ahead": 12432,
    "Ġactions": 6278,
    "Ġcul": 17822,
    "Ġkilled": 4955,
    "bern": 20774,
    "Ġbabes": 24425,
    "Ġcig": 6520,
    "Ġbeckoning": 20500,
    "Ġsmells": 8889,
    "ers": 405,
    "Ġcorruption": 15224,
    "Ġsolic": 7932,
    "Ġrans": 21963,
    "philosophy": 13578,
    "epend": 3315,
    "Ġwings": 9163,
    "Ġindiam": 22950,
    "chan": 1161,
    "Ġswore": 10378,
    "arial": 5532,
    "calcul": 12983,
    "bethinking": 25745,
    "Ġavenue": 13619,
    "Ġwait": 4907,
    "popular": 26140,
    "Ġhooped": 23353,
    "ounders": 22391,
    "s": 87,
    "Ġpresto": 22227,
    "Ġshutter": 16670,
    "Ġsomnambul": 26576,
    "Ġdy": 2617,
    "Ġweeping": 11685,
    "awake": 14451,
    "Ġpleasantness": 24137,
    "anite": 17837,
    "Ġstride": 22614,
    "Ġorb": 22088,
    "Ġloomings": 24949,
    "Ġbodily": 6106,
    "umes": 10917,
    "aur": 15307,
    "Ġcharging": 23265,
    "borean": 25743,
    "convers": 6567,
    "ĠâĢľâĢĻ": 22251,
    "ulatory": 15766,
    "Ġmatrix": 1608,
    "Ġkilling": 13330,
    "Ġpeleg": 3738,
    "Ġthews": 21276,
    "whispering": 26103,
    "Ġunusually": 15845,
    "Ġtawn": 13822,
    "Ġtablet": 19203,
    "Ġexposing": 11831,
    "mal": 6794,
    "Ġ62": 24365,
    "Ġsacrificial": 24871,
    "Ġcondemned": 7778,
    "Ġtwig": 11848,
    "Ġashore": 5351,
    "dra": 3412,
    "Ġgilded": 17444,
    "Ġcosmetic": 23472,
    "assault": 22292,
    "roots": 15641,
    "Ġswish": 23050,
    "Ġdependency": 3486,
    "®": 111,
    "Ġmightier": 18729,
    "pump": 21016,
    "U": 57,
    "Ġdocile": 19957,
    "seat": 18124,
    "Ġsolutions": 1948,
    "Ġdishonoured": 20389,
    "Ġbestow": 6455,
    "iv": 432,
    "iting": 2158,
    "Ġarrang": 2467,
    "Ġstagnant": 24654,
    "Ġunflinching": 26512,
    "Ġbrawn": 10481,
    "Ġtea": 5041,
    "Ġdoctor": 5067,
    "Ġdance": 4435,
    "!_âĢĿ": 11376,
    "Ġloading": 15873,
    "non": 9611,
    "Ġack": 5622,
    "Ġpause": 5707,
    "Ġacqu": 1418,
    "Ġlessons": 7691,
    "Ġmisanthropic": 26560,
    "settle": 16661,
    "ditch": 17528,
    "shot": 2230,
    "Ġdiscol": 12950,
    "affair": 14655,
    "Ġafforded": 8028,
    "jah": 17581,
    "true": 2586,
    "Ġjacobians": 2891,
    "Ġlazy": 17050,
    "Ġcapsized": 20088,
    "Ġporter": 15609,
    "counters": 25397,
    "ickering": 22667,
    "Ġadding": 2403,
    "Ġmonarchs": 25849,
    "Ġcubic": 20086,
    "Ġunreasonably": 17450,
    "contact": 23725,
    "Ġsuppressed": 11909,
    "Ġnocturnal": 20714,
    "pour": 17630,
    "Ġeither": 2603,
    "ard": 465,
    "Ġcirclings": 26431,
    "Ġard": 5164,
    "Ġbustle": 17227,
    ";--": 8068,
    "ailing": 7021,
    "knife": 6942,
    "Ġspeedy": 11172,
    "bted": 7793,
    "Ġrevelations": 25223,
    "Ġwarped": 25035,
    "Ġarab": 7823,
    "Ġask": 1494,
    "youn": 5690,
    "Ġcomparing": 14264,
    "Ġmanaged": 7905,
    "Ġmalays": 19676,
    "ultaneous": 18582,
    "prophecy": 22833,
    "grandfather": 25009,
    "Ġbingleys": 18995,
    "expl": 9282,
    "chest": 11208,
    "learn": 2313,
    "Ġdefray": 22938,
    "thomas": 18219,
    "Ġcherish": 10589,
    "Ġmate": 3707,
    "Ġperceptible": 18452,
    "Ġkilburn": 18351,
    "Ġexertions": 13408,
    "Ġscores": 2715,
    "Ġwomen": 4750,
    "Ġaffliction": 25844,
    "Ġwrit": 8241,
    "Ġcorridor": 10671,
    "Ġjoke": 8868,
    "Ġnumer": 3637,
    "iza": 6255,
    "Ġhumility": 12981,
    "Ġhypothe": 4072,
    "ro": 301,
    "Ġscrew": 8867,
    "beauty": 20102,
    "Ġcurvature": 3572,
    "Ġbraw": 23832,
    "Ġdirected": 5579,
    "Ġconquer": 14026,
    "Ġprecisely": 6466,
    "preserve": 25303,
    "Ġrolls": 8333,
    "rons": 21038,
    "prevent": 11791,
    "Ġdefendants": 15139,
    "oc": 2832,
    "peril": 18337,
    "hills": 13735,
    "belais": 24035,
    "Ġthose": 1173,
    "Ġegyptian": 13584,
    "band": 3054,
    "boom": 18998,
    "Ġnap": 8808,
    "Ġcargo": 16289,
    "Ġdecay": 1013,
    "Ġglove": 14491,
    "ineff": 21977,
    "sac": 7140,
    "Ġmultiplication": 2869,
    "duct": 3504,
    "Ġlies": 5295,
    "Ġappare": 12818,
    "itud": 2928,
    "bushes": 24447,
    "ropout": 1319,
    "aggoo": 5130,
    "Ġfooted": 23795,
    "Ġvillanous": 24051,
    "anoke": 21359,
    "Ġtroops": 24898,
    "Ġstroke": 6936,
    "ument": 5239,
    "Ġcontinent": 14887,
    "Ġdiabolically": 25513,
    "iality": 8843,
    "Ġingrat": 16840,
    "actor": 11836,
    "Ġindeed": 1681,
    "Ġdevoid": 18684,
    "Ġmood": 6276,
    "Ġrepressed": 21665,
    "elzebub": 26464,
    "supers": 22638,
    "vicinity": 20478,
    "Ġhawk": 15172,
    "compass": 9459,
    "Ġunprinciple": 18254,
    "Ġsquall": 7043,
    "Ġbowsman": 11255,
    "Ġacquirement": 19254,
    "takes": 21074,
    "Ġtr": 552,
    "Ġunprofitable": 18267,
    "Ġhare": 5157,
    "Ġcister": 13881,
    "Ġcope": 17830,
    "Ġunob": 22012,
    "Ġdrily": 23539,
    "Ġmuskets": 17056,
    "Ġparcels": 25465,
    "sorting": 17004,
    "Ġunfor": 15838,
    "intosh": 22937,
    "Ġcheerfully": 12132,
    "anqu": 4107,
    "acknowledge": 18468,
    "Ġflukes": 5266,
    "remental": 21246,
    "Ġdouble": 4940,
    "Ġhatchway": 13523,
    "blows": 17165,
    "Ġay": 15491,
    "thither": 21980,
    "Ġtowns": 11173,
    "ercial": 21273,
    "rossed": 11013,
    "Ġzones": 22816,
    "examine": 25477,
    "Ġpunchbowl": 20230,
    "Ġreal": 1635,
    "Ġfinal": 5400,
    "Ġdenoted": 16564,
    "fted": 9118,
    "Ġevening": 2652,
    "improve": 15710,
    "Ġimmediate": 6089,
    "Ġcuriosities": 26288,
    "Ġyourself": 2593,
    "Ġmodified": 14166,
    "Ġcommenced": 8531,
    "nep": 20985,
    "Ġcupidity": 24535,
    "8": 28,
    "measured": 19988,
    "Ġquaff": 22411,
    "Ġtransferred": 16454,
    "Ġdiffident": 23782,
    "towards": 5002,
    "Ġyoung": 1509,
    "ĩ": 234,
    "anyone": 16593,
    "Ġresponses": 23647,
    "Ġvisited": 5947,
    "Ġadmiring": 16480,
    "Ġ117": 19696,
    "impressed": 12689,
    "Ġpreliminaries": 25176,
    "Ġfactor": 19013,
    "Ġfrozen": 9012,
    "leave": 7837,
    "Ġnorth": 4314,
    "Ġloft": 5642,
    "Ġinn": 4588,
    "Ġforesaw": 19127,
    "offices": 19063,
    "Ġincul": 22546,
    "Ġcove": 22577,
    "mysterious": 26051,
    "Ġfalling": 6915,
    "hent": 12531,
    "Ġarray": 12809,
    "ĠĠĠĠĠ": 3525,
    "thorough": 21982,
    "o": 83,
    "eluded": 21572,
    "ram": 13971,
    "oded": 11668,
    "Ġsignals": 10585,
    "safie": 20347,
    "Ġpoorly": 9854,
    "scuttle": 11908,
    "Ġfought": 12591,
    "Ġcuring": 21342,
    "prep": 9757,
    "ara": 12604,
    "Ġ99": 10745,
    "Ġgambler": 26190,
    "Ġwhirlpool": 20654,
    "cracy": 24690,
    "Ġcomput": 600,
    "Ġlinear": 3433,
    "Ġawoke": 7286,
    "Ġimmens": 9938,
    "itations": 17817,
    "Ġgoverning": 2794,
    "mil": 13751,
    "Ġvenerable": 9093,
    "putting": 14099,
    "cannib": 11900,
    "angu": 569,
    "Ġknitted": 19588,
    "days": 7687,
    "name": 6795,
    "assure": 9266,
    "mistake": 24529,
    "achel": 7032,
    "Ġsupplies": 20325,
    "crow": 9590,
    "Ġresol": 2666,
    "Ġindistinctly": 26117,
    "Ġneighbourhood": 5126,
    "Ġgurgling": 17445,
    "Ġknown": 1644,
    "prejud": 11792,
    "Ġtransparent": 9488,
    "Ġirritated": 17242,
    "Ġseeing": 2883,
    "anged": 3586,
    "liking": 22921,
    "ikes": 8086,
    "pretending": 17041,
    "Ġfinishing": 23123,
    "tube": 20409,
    "ividually": 22080,
    "Ġ39": 19488,
    "arned": 21818,
    "Ġwired": 17786,
    "tout": 21064,
    "Ġunlo": 22009,
    "between": 5071,
    "Ġdanced": 7842,
    "gentlemen": 9503,
    "Ġissuing": 16948,
    "Ġlift": 8810,
    "methodically": 20663,
    "Ġgr": 976,
    "Ġmanipulation": 10658,
    "ituted": 13872,
    "fluke": 25204,
    "Ġletter": 2201,
    "Ġgrasshopper": 24380,
    "Ġinser": 6820,
    "estinated": 15920,
    "Ġgive": 1713,
    "urpr": 2289,
    "ittance": 12843,
    "ville": 6087,
    "Ġcarn": 17821,
    "Ġviolet": 19090,
    "Ġey": 8134,
    "Ġpunctually": 17138,
    "eks": 4727,
    "prick": 19341,
    "ghan": 19453,
    "Ġduncan": 13459,
    "ios": 2134,
    "Ġunknown": 4446,
    "Ġwindows": 4971,
    "Ġcounsel": 13613,
    "Ġma": 3252,
    "ieves": 4005,
    "itering": 17818,
    "Ġeat": 4643,
    "Ġsalt": 8016,
    "Ġcow": 13875,
    "Ġshifted": 14106,
    "capting": 24036,
    "Ġarguments": 8036,
    "mastod": 23971,
    "dogs": 25402,
    "Ġbuffalo": 11429,
    "Ġconfirmation": 17210,
    "Ġtempest": 8212,
    "Ġcordially": 16836,
    "resistible": 10643,
    "ours": 3427,
    "pent": 3491,
    "Ġseries": 7060,
    "Ġaccost": 12844,
    "factories": 19842,
    "Ġtoller": 9090,
    "resist": 8275,
    "soled": 14333,
    "Ġbefallen": 12341,
    "Ġobliv": 16132,
    "crime": 14781,
    "Ġclenched": 14202,
    "Ġrelation": 2141,
    "degree": 12799,
    "Ġreferences": 21671,
    "sive": 4141,
    "nne": 20988,
    "Ġprocesses": 3632,
    "Ġrepel": 23357,
    "outward": 22157,
    "Ġgib": 13964,
    "Ġrepugnant": 26590,
    "Ġlamentations": 17076,
    "Ġconvul": 13199,
    "bohemia": 20730,
    "mounting": 25207,
    "Ġinstructing": 3121,
    "Ġcorroboration": 26052,
    "Ġlectures": 17178,
    "Ġdemon": 7868,
    "Ġantagon": 19549,
    "throne": 25657,
    "ĝ": 222,
    "Ġbasket": 9572,
    "inev": 21976,
    "calm": 8934,
    "Ġdeline": 16332,
    "Ġgay": 5535,
    "sneezes": 11446,
    "Ġcritical": 7475,
    "reeling": 21243,
    "strang": 11183,
    "Ġdod": 6672,
    "barr": 15319,
    "Ġfading": 15582,
    "Ġgrenadier": 21613,
    "Ġcumberland": 21353,
    "Ġgi": 15664,
    "Ġhail": 7400,
    "examined": 17266,
    "Ġsteady": 4847,
    "Ġfro": 3470,
    "Ġrosings": 4605,
    "Ġdense": 8122,
    "Ġraising": 8909,
    "Ġjoist": 19230,
    "dire": 15335,
    "Ġguarded": 9825,
    "Ġcapacity": 10440,
    "itoring": 21330,
    "respectively": 24700,
    "Ġ46": 19489,
    "Ġaimed": 20249,
    "Ġjeopardized": 20229,
    "Ġelapsed": 7652,
    "Ġfollows": 7672,
    "Ġadvers": 4887,
    "Ġgallant": 8654,
    "ancing": 1758,
    "Ġtendinous": 16931,
    "jump": 10103,
    "Ġfearful": 6197,
    "Ġdeceitfulness": 25734,
    "Ġtrappers": 23078,
    "Ġfest": 10804,
    "Ġlack": 17963,
    "Ġill": 2196,
    "madness": 14881,
    "Ġconsented": 11295,
    "Ġhardest": 18912,
    "Ġargue": 16783,
    "Ġcrate": 19122,
    "geons": 15978,
    "Ġsorting": 3233,
    "Ġnoblest": 13239,
    "itig": 1330,
    "unbe": 21869,
    "shoulders": 16584,
    "Ġwonderful": 4560,
    "Ġsultanism": 25888,
    "Ġvalid": 1710,
    "Ġmaintainable": 12933,
    "Ġscaling": 3631,
    "Ġcrushed": 9422,
    "retrospect": 23135,
    "sideways": 14572,
    "manned": 18765,
    "appl": 9325,
    "Ġswap": 23049,
    "fear": 8513,
    "Ġidly": 16405,
    "itime": 15546,
    "oquent": 12497,
    "const": 5938,
    "Ġmerchants": 23730,
    "Ġwrongfully": 24248,
    "Ġspeeding": 23563,
    "Ġshoulder": 5848,
    "fell": 6953,
    "Ġcalls": 6744,
    "Ġimpute": 18332,
    "Ġtorn": 5999,
    "folding": 24927,
    "waist": 13416,
    "Ġcanvassed": 19933,
    "ignantly": 23263,
    "Ġscho": 4429,
    "loveliness": 26549,
    "tra": 4934,
    "Ġwakeful": 24266,
    "Ġconstit": 8583,
    "flaming": 23967,
    "Ġabundant": 17154,
    "Ġwhoever": 10975,
    "Ġfield": 1249,
    "embraces": 25803,
    "Ġcred": 8780,
    "Ġmourning": 13476,
    "Ġlimit": 10443,
    "âĢĶâĢĿ": 3300,
    "Ġosc": 2833,
    "Ġsymbol": 7716,
    "Ġembal": 11903,
    "Ġbefitting": 15724,
    "woes": 21132,
    "pered": 4193,
    "Ġansw": 2208,
    "Ġconfine": 14510,
    "Ġaspects": 4171,
    "Ġjoyful": 13218,
    "Ġunav": 18240,
    "Ġache": 18663,
    "asher": 15644,
    "Ġplough": 18608,
    "Ġspilled": 10925,
    "Ġclings": 15962,
    "groom": 8739,
    "missed": 11209,
    "Ġshapes": 14108,
    "Ġpredefined": 20716,
    "concluded": 11242,
    "Ġ112": 24437,
    "harpooned": 24286,
    "worth": 8626,
    "Ġluxuries": 25163,
    "Ġstick": 6025,
    "Ġgreenness": 23766,
    "Ġeffective": 1250,
    "illum": 15868,
    "Ġsullen": 9157,
    "indisc": 22370,
    "\"],": 26120,
    "irect": 5553,
    "mill": 13753,
    "Ġphilosopher": 12181,
    "olently": 15755,
    "ena": 11567,
    "Ġgravel": 14101,
    "Ġreciproc": 20620,
    "Ġantagonist": 26328,
    "ollion": 19714,
    "Ġdescend": 7427,
    "Ġmoderate": 10938,
    "Ġ79": 24264,
    "Ġdodo": 9072,
    "Ġcork": 12566,
    "Ġmiraculous": 13545,
    "Ġabsolut": 3909,
    "Ġpresuming": 16793,
    "ev": 6952,
    "Ġthomas": 17947,
    "match": 15389,
    "add": 5229,
    "iful": 2880,
    "antique": 18288,
    "Ġchose": 7413,
    "Ġdarcy": 1342,
    "ential": 827,
    "Ġfingertips": 24014,
    "Ġwindow": 2995,
    "acter": 2506,
    "ole": 9613,
    "Ġmeasures": 1205,
    "Ġbodiless": 24226,
    "univers": 15770,
    "ands": 21863,
    "Ġbr": 1072,
    "Ġclearly": 6897,
    "Ġrandom": 1590,
    "Ġcreated": 2708,
    "Ġwhether": 2002,
    "Ġnight": 1467,
    "Ġrude": 7234,
    "Ġfavourite": 5270,
    "Ġinvisible": 7327,
    "Ġadditional": 7935,
    "Ġdistantly": 18534,
    "Ġvivacity": 14940,
    "Ġridic": 7508,
    "Ġresides": 22537,
    "fow": 20852,
    "Ġflatt": 16245,
    "Ġfrocks": 23919,
    "Ġrmsprop": 3354,
    "Ġlinen": 12405,
    "ĠĠĠĠĠĠĠĠĠĠĠĠĠĠĠĠĠĠĠĠĠĠĠĠĠĠĠĠĠĠĠĠ": 2739,
    "aston": 7408,
    "Ġstriking": 6088,
    "Ġthy": 2516,
    "Ġknowledge": 1448,
    "Ġlim": 2381,
    "Ġspinning": 15052,
    "Ġtop": 2469,
    "spe": 3558,
    "gun": 10096,
    "Ġhorseman": 19606,
    "Ġadvancement": 24475,
    "Ġrevered": 23731,
    "Ġdancing": 5703,
    "Ġharpoon": 3614,
    "Ġinhuman": 13928,
    "lets": 7836,
    "Ġslit": 13053,
    "rev": 17756,
    "laughed": 20280,
    "Ġchange": 1996,
    "Ġway": 1086,
    "Ġslept": 8258,
    "Ġstren": 15718,
    "Ġserved": 8245,
    "Ġinitials": 11014,
    "Ġparis": 8178,
    "flagged": 23969,
    "Ġdripping": 13145,
    "Ġshakespeare": 20306,
    "semicirc": 26491,
    "Ġoppress": 13170,
    "Ġcatastrop": 3347,
    "Ġcam": 10161,
    "Ġfoam": 6891,
    "Ġhanded": 8216,
    "Ġbrix": 12581,
    "Ġplayfulness": 23635,
    "suffer": 24333,
    "volutional": 1935,
    "frequently": 9978,
    "observing": 25494,
    "Ġneatness": 19931,
    "Ġwhichever": 13999,
    "Ġguidance": 9416,
    "rived": 5373,
    "government": 25406,
    "unalterable": 21883,
    "Ġaims": 15496,
    "Ġmusical": 23891,
    "iantly": 13738,
    "Ġaccursed": 9455,
    "Ġcontraction": 16007,
    "Ġpersuasions": 16631,
    "_,âĢĿ": 6218,
    "unreasonable": 18162,
    "engineer": 23145,
    "scotch": 25850,
    "ý": 190,
    "Ġcracking": 14574,
    "raved": 18012,
    "è": 169,
    "forward": 2188,
    "Ġtort": 5901,
    "Ġwhims": 12690,
    "Ġtended": 21165,
    "Ġunsur": 22019,
    "wondering": 19844,
    "Ġindiscreet": 22953,
    "rederick": 14078,
    "Ġtumbled": 13404,
    "Ġbinding": 20417,
    "Ġwrinkles": 8570,
    "inarticulate": 21194,
    "Ġcretan": 22726,
    "Ġgarn": 13962,
    "Ġsword": 6732,
    "Ġinducements": 24965,
    "asting": 12804,
    "bbed": 6911,
    "canonical": 22965,
    "Ġunerringly": 18265,
    "Ġentropy": 2033,
    "Ġbloodthirsty": 26601,
    "Ġhousekeeper": 7456,
    "blue": 13692,
    "Ġpolite": 9881,
    "Ġwhilst": 9218,
    "raised": 15677,
    "inav": 15484,
    "genteel": 19947,
    "ifference": 5632,
    "Ġoverlooking": 22354,
    "Ġpacket": 14892,
    "Ò": 147,
    "minds": 24232,
    "Ġfig": 3622,
    "tide": 11532,
    "Ġleyden": 21744,
    "Ġinflexibly": 26370,
    "Ġbalmoral": 16206,
    "Ġgodly": 19080,
    "Ġperf": 12848,
    "Ê": 139,
    "Ġsuddenness": 23380,
    "likely": 9022,
    "Ġspecimen": 13019,
    "Ġreservoir": 20650,
    "asional": 17959,
    "sullenly": 26149,
    "Ġunmindful": 22063,
    "Ġtoast": 21509,
    "whispered": 20032,
    "Ġdon": 1614,
    "Ġconsum": 9798,
    "ĠĠĠĠĠĠĠĠĠĠĠĠĠĠĠĠĠĠĠĠĠĠĠĠĠĠĠĠĠĠĠĠĠĠ": 14614,
    "Ġmarble": 7668,
    "Ġawaited": 17074,
    "requiem": 24856,
    "icial": 12653,
    "Ġunconquerable": 22060,
    "crier": 20819,
    "ifted": 4491,
    "Ġchambermaid": 24304,
    "Ġstudied": 11113,
    "cig": 17503,
    "setting": 13283,
    "Ġderbyshire": 6586,
    "Ġfiled": 15578,
    "oder": 2458,
    "ĠĠĠĠĠĠĠĠĠĠĠĠ": 12898,
    "Ġbuckle": 17033,
    "Ġimposing": 11779,
    "hurrying": 14982,
    "Ġlangs": 13953,
    "heav": 5694,
    "Ġleaped": 8825,
    "Ġslope": 14459,
    "pen": 1203,
    "introduced": 15123,
    "lue": 8508,
    "Ġhuman": 1316,
    "Ġrelu": 1045,
    "Ġinviting": 19143,
    "Ġhorse": 4724,
    "H": 44,
    "Ġstatements": 7516,
    "Ġtreatment": 12069,
    "lik": 3914,
    "kin": 7131,
    "Ġholding": 4979,
    "ho": 2856,
    "Ġcontr": 1915,
    "Ġmaintains": 2146,
    "Ġdut": 2986,
    "ther": 482,
    "Ġcheap": 13086,
    "Ġsculpt": 15946,
    "Ġpolished": 11182,
    "Ġtwist": 11849,
    "Ġwarning": 9058,
    "·": 120,
    "Ġdirections": 1972,
    "Ġshyness": 20305,
    "Ġdepl": 14043,
    "Ġstranger": 3484,
    "Ġjewelled": 20182,
    "Ġspoke": 2748,
    "hanging": 10100,
    "Ġimm": 3964,
    "Ġwh": 328,
    "Ġvictory": 16653,
    "yes": 985,
    "Ġpure": 6137,
    "violence": 16478,
    "Ġreceipt": 20354,
    "Ġdagger": 21435,
    "Ġparagra": 15878,
    "cannibals": 25584,
    "Ġexposes": 22620,
    "ileries": 18058,
    "Ġundeviating": 15216,
    "Ġbed": 2144,
    "ifle": 10891,
    "Ġoptim": 811,
    "Ġtorpor": 25031,
    "Ġgodfre": 14529,
    "Ġdumb": 7843,
    "Ġrounded": 14438,
    "Ġinvestig": 10549,
    "bidden": 19736,
    "Ġchatbots": 11349,
    "Ġtranced": 18426,
    "Ġne": 390,
    "enges": 13050,
    "Ġliveliest": 24775,
    "Ġthreatening": 16828,
    "Ġfain": 5808,
    "Ġclattering": 22344,
    "resp": 13838,
    "Ġweighty": 16031,
    "Ġresolving": 9418,
    "reasoning": 9475,
    "Ġsang": 12532,
    "Ġindulged": 13415,
    "Ġinquest": 16546,
    "Ġintruding": 21988,
    "Ġdelightfully": 13156,
    "Ġhovers": 19078,
    "prodigious": 17466,
    "Ġconducting": 16649,
    "´": 117,
    "Ġweep": 7619,
    "Ġbart": 17856,
    "wishes": 13806,
    "boiling": 19000,
    "Ġze": 8545,
    "Ġlover": 7193,
    "ĠĠĠĠĠĠĠĠĠĠĠĠĠĠĠĠĠĠĠĠĠĠĠĠĠĠĠĠĠĠĠĠĠĠĠĠĠĠĠĠ": 4513,
    "intelligence": 5882,
    "affairs": 14656,
    "Ġposs": 1618,
    "Ġcardboard": 19977,
    "larger": 24201,
    "Ġnonsense": 6982,
    "Ġunsafe": 22038,
    "pacing": 21020,
    "Ġmichaelmas": 26374,
    "Ġencodings": 4775,
    "betrayed": 24640,
    "Ġdepose": 22604,
    "beer": 22486,
    "Ġostr": 21323,
    "otam": 21795,
    "Ġcompromised": 22568,
    "igms": 3042,
    "Ġarabian": 9089,
    "Ġhue": 8428,
    "string": 15684,
    "Ġdelicious": 14792,
    "rol": 5713,
    "Ġsteamer": 17188,
    "Ġpursue": 6314,
    "h": 76,
    "Ġantiquities": 25598,
    "curious": 10482,
    "isa": 17845,
    "tern": 4219,
    "Ġobtain": 8914,
    "Ġpianoforte": 15272,
    "Ġstraightened": 12106,
    "skinned": 25387,
    "Ġrecollection": 6620,
    "Ġanxiously": 8289,
    "Ġdestiny": 8983,
    "Ġjulia": 22306,
    "Ġjoint": 12032,
    "neglected": 25669,
    "quickness": 19850,
    "Ĕ": 213,
    "Ġbegan": 2024,
    "fa": 7336,
    "plac": 15813,
    "cc": 472,
    "ols": 2412,
    "Ġspermacetti": 19049,
    "Ġheal": 21678,
    "Ġdistance": 3482,
    "Ġrev": 6988,
    "Ġattending": 3285,
    "Ġ21": 11199,
    "projecting": 26073,
    "Ġmighty": 4225,
    "asht": 4082,
    "Ġvolition": 14797,
    "kward": 6958,
    "Ġthousandth": 23682,
    "Ġconsequences": 11335,
    "Ġpier": 7162,
    "Ġmiles": 3804,
    "anybody": 12080,
    "Ġlatest": 16822,
    "didn": 9006,
    "Ġfab": 15574,
    "promise": 12248,
    "everybody": 8610,
    "Ġlifelessly": 23047,
    "Ġwatch": 2744,
    "Ġspecially": 11996,
    "Ġdownward": 10331,
    "rad": 2258,
    "Ġlees": 18075,
    "Ġ122": 24467,
    "monkey": 19169,
    "Ġstrives": 23693,
    "difficult": 10057,
    "Ġburgled": 23652,
    "ables": 7889,
    "saved": 15431,
    "umul": 1288,
    "Ġtolland": 24988,
    "Ġtone": 4038,
    "drawn": 9912,
    "Ġadapted": 11043,
    "Ġparamore": 22119,
    "Ġcleaned": 23180,
    "Ġintegrated": 13529,
    "Ġcry": 3494,
    "Ġcomplied": 14733,
    "Ġunbroken": 18250,
    "Ġbelow": 4060,
    "Ġrational": 8479,
    "Ġdwell": 5812,
    "Ġsubfield": 11867,
    "Ġstrangers": 8313,
    "Ġpowers": 5419,
    "Ġimmortal": 8017,
    "Ġsprung": 11249,
    "Ġfootman": 8287,
    "Ġstreams": 12190,
    "Ġquicker": 16507,
    "impregnable": 26481,
    "guarded": 13292,
    "Ġ1890": 23893,
    "Ġsan": 7824,
    "rants": 13777,
    "Ġdiscours": 18717,
    "cursed": 23841,
    "ternatural": 12713,
    "Ġordin": 16650,
    "use": 2538,
    "Ġtooth": 9192,
    "oting": 2745,
    "Ġasylum": 13665,
    "Ġunche": 23427,
    "icant": 21559,
    "Ġphase": 14471,
    "barb": 10080,
    "Ġpolitic": 23617,
    "reader": 23844,
    "ulations": 6028,
    "Ġtwinkling": 12322,
    "Ġactionable": 24559,
    "purposes": 25021,
    "Ġprediction": 2145,
    "Ġminutely": 14561,
    "Ġmummy": 25768,
    "Ġhypothesis": 14780,
    "Ġsuperb": 16445,
    "Ġtyrant": 24767,
    "51": 12429,
    "Ġmockery": 12105,
    "Ġgolden": 5336,
    "Ġescaping": 13133,
    "ivity": 1639,
    "Ġsimpl": 1582,
    "inisc": 15488,
    "ommod": 13976,
    "Ġenc": 965,
    "Ġrelev": 1715,
    "extrem": 18711,
    "rop": 540,
    "Ġpulling": 5862,
    "Ġtiny": 11552,
    "repeated": 12337,
    "soldiers": 25911,
    "Ġlingu": 11613,
    "Ġoutwardly": 24998,
    "Ġoccasioned": 13224,
    "Ġdisturb": 7107,
    "Ġiv": 4043,
    "Ġstormy": 16728,
    "Ġtipped": 17728,
    "Ġche": 1762,
    "Ġreflect": 6575,
    "hears": 12530,
    "Ġpredecess": 18517,
    "Ġvolume": 6769,
    "Ġcourtiers": 24135,
    "Ġrevealing": 3923,
    "Ġmaintaining": 1511,
    "Ġaffinity": 18786,
    "Ġrepresents": 4902,
    "preserving": 25304,
    "recursion": 13326,
    "dam": 7797,
    "Ġhunt": 6183,
    "queen": 12725,
    "Ġrainy": 24341,
    "hat": 6956,
    "Ġarranged": 9876,
    "Ġsublimity": 26345,
    "Ġscrupulous": 20067,
    "Ġframe": 1895,
    "eration": 10772,
    "itar": 15545,
    "Ġsharper": 17179,
    "urer": 18121,
    "danger": 10089,
    "Ġwalled": 15534,
    "Ġorder": 1686,
    "Ġremembr": 24168,
    "hval": 20897,
    "Ġfoot": 3161,
    "Ġsense": 3250,
    "ember": 1958,
    "âĢĶâĢľ": 2966,
    "Ġdisclosed": 15152,
    "Ġunparalleled": 15852,
    "Ġbreach": 11972,
    "Ġtransp": 4770,
    "Ġtriumphantly": 11287,
    "Ġcommercial": 22671,
    "Ġbec": 1348,
    "Ġearthy": 23710,
    "Ġsatisfy": 6912,
    "Ġboughs": 20487,
    "Ġcongeal": 25980,
    "Ġif": 697,
    "Ġallured": 14112,
    "Ġwrecked": 9965,
    "Ġtide": 6658,
    "Ġmists": 14630,
    "Ġcaul": 10787,
    "Ġalexander": 17423,
    "threshold": 21984,
    "gpt": 5355,
    "Ġhandfuls": 17209,
    "Ġbrothers": 13173,
    "Ġceiling": 7996,
    "indust": 18435,
    "bo": 1690,
    "Ġcruises": 23703,
    "Ġdestruction": 6600,
    "Ġboxes": 13372,
    "utmost": 21585,
    "Ġnooks": 26011,
    "scorched": 25697,
    "Ġcovers": 18592,
    "added": 11658,
    "Ġconvolutions": 21804,
    "Ġmonsters": 11074,
    "Ġstart": 3258,
    "rrh": 26144,
    "ittarius": 22374,
    "Ġbusiness": 2235,
    "Ġintimidated": 24805,
    "Ġberries": 13405,
    "avoiding": 25236,
    "south": 8758,
    "rim": 7137,
    "Ġsqu": 1036,
    "Ġporing": 21465,
    "proceeded": 25190,
    "Ġprofoundest": 16860,
    "Ġcomfits": 21849,
    "Ġproject": 5546,
    "lutions": 20949,
    "resolutions": 26164,
    "Ġhabitu": 19527,
    "Ġcorpore": 13399,
    "Ġtorrent": 17092,
    "fro": 8732,
    "des": 1569,
    "Ġroot": 2650,
    "Ġruined": 12951,
    "Ġgrind": 18734,
    "Ġprosecution": 12379,
    "Ġmiser": 18703,
    "Ġrav": 14303,
    "Ġmarch": 4080,
    "Ġspeaking": 4025,
    "makers": 20981,
    "Ġgrammatical": 13537,
    "Ġtranslation": 3086,
    "Ġcalam": 13030,
    "Ġoverladen": 22359,
    "Ġhackney": 20431,
    "physiogn": 26263,
    "eck": 20843,
    "Ġasked": 2279,
    "!âĢĶ": 2453,
    "clings": 23149,
    "Ġhandy": 12934,
    "Ġagricultural": 26550,
    "Ġgenerations": 10964,
    "Ġdistinguishing": 16496,
    "amongst": 24672,
    "wherein": 19107,
    "Ġsurvey": 13591,
    "Ġchiswick": 25560,
    "Ġhazard": 20430,
    "Ġchicha": 15935,
    "ubbub": 23241,
    "Ġwindsor": 16887,
    "Ġbohemia": 10649,
    "reasonable": 7751,
    "Ġcivilised": 24244,
    "seventy": 10876,
    "Ġenergetic": 15196,
    "Ġhoisting": 9861,
    "Ġvices": 14082,
    "Ġmonosyllable": 20725,
    "rucastle": 22181,
    "Ġcolonel": 3406,
    "Ġentertaining": 16926,
    "Ġnoise": 1070,
    "ingly": 2135,
    "Ġjudgment": 5765,
    "Ġcoin": 9770,
    "athans": 7433,
    "had": 1951,
    "Ġthickest": 16654,
    "Ġarriving": 19216,
    "Ġstartling": 14670,
    "Ġsleepers": 13147,
    "Ġindefinitely": 25221,
    "watches": 14946,
    "felt": 5888,
    "entimes": 12654,
    "Ġcrow": 3805,
    "Ġkneel": 14806,
    "Ġaugust": 10597,
    "entropy": 1440,
    "Ġdiabol": 11453,
    "Ġartist": 12910,
    "partner": 19220,
    "Ġpace": 9183,
    "Ġjoppa": 12034,
    "agonies": 21906,
    "Ġgle": 7858,
    "Ġreputation": 11639,
    "Ġoutdone": 22315,
    "Ġpeevish": 26557,
    "Ġaromatic": 25925,
    "Ġcareer": 11118,
    "Ġdamning": 19139,
    "books": 8663,
    "Ġvexatious": 19780,
    "acceptance": 25185,
    "Ġ1991": 3013,
    "Ġskeletons": 16791,
    "fetch": 12462,
    "riptions": 14794,
    "hued": 20910,
    "notches": 22750,
    "Ġheavy": 3743,
    "Ġrequested": 14305,
    "Ġlengthen": 15652,
    "Ġsighed": 10337,
    "Ġhorr": 3189,
    "apt": 739,
    "Ġnocturn": 18375,
    "Ġpompous": 20421,
    "Ġbad": 3987,
    "Ġinvolve": 11042,
    "Ġpenalty": 1841,
    "Ġcosmopolitan": 20640,
    "Ġdeliver": 9847,
    "unt": 2045,
    "Ġacquiesced": 25493,
    "Ġslowly": 3616,
    "Ġsome": 654,
    "introduce": 25186,
    "Ġsplinters": 15101,
    "Ġcurrents": 13005,
    "Ġjaw": 3319,
    "rimsh": 17027,
    "Ġgeorgia": 23884,
    "Ġsecret": 3720,
    "Ġproceed": 3242,
    "Ġundergo": 23235,
    "Ġdisplayed": 10608,
    "Ġfolios": 23016,
    "Ġapproximation": 2344,
    "Ġornaments": 17451,
    "Ġran": 3343,
    "mortal": 10112,
    "Ġwoven": 9925,
    "Ġinstantaneous": 14612,
    "Ġimmedi": 2902,
    "Ġenlivened": 26207,
    "mown": 20969,
    "Ġod": 4432,
    "ible": 1113,
    "mar": 4330,
    "Ġalliance": 18235,
    "Ġresnet": 5473,
    "ruck": 6848,
    "Ġtimely": 19593,
    "Ġwallowing": 24040,
    "indulged": 22372,
    "entiful": 10836,
    "comfortableness": 24525,
    "anced": 1303,
    "Ġpleasurable": 23338,
    "Ġjudged": 12081,
    "Ġaspect": 3095,
    "emotion": 21924,
    "Ġstoutest": 24628,
    "Ġcompose": 12900,
    "kine": 15374,
    "Ġrapt": 7225,
    "ublic": 11227,
    "Ġrevisit": 21667,
    "Ġrattle": 10899,
    "tub": 9143,
    "Ġresolute": 19244,
    "Ġstiffness": 24830,
    "Ġfle": 3090,
    "Ġanother": 1738,
    "Ġimbu": 15890,
    "houses": 9599,
    "đ": 210,
    "Ġmoved": 4839,
    "Ġpictured": 16622,
    "riumph": 4919,
    "iluvian": 18060,
    "Ġsteer": 10387,
    "Ġrepublican": 17411,
    "clut": 23148,
    "cost": 19185,
    "usages": 22277,
    "Ġengraved": 17081,
    "aisance": 15073,
    "Ġmanifold": 13558,
    "Ġbeaver": 18085,
    "desper": 13066,
    "continu": 5501,
    "Ġmerited": 23728,
    "figures": 20120,
    "tain": 560,
    "Ġbeckoned": 25793,
    "Ġfreshe": 13067,
    "Ġsickening": 19603,
    "Ġcand": 3277,
    "Ġsubsisted": 19117,
    "Ġ[_": 15461,
    "Ġadversarial": 5607,
    "reliable": 21239,
    "Ġaye": 3352,
    "Ġcaged": 21350,
    "leg": 2812,
    "Ġintelligible": 15940,
    "Ġaccountability": 10438,
    "Ġbadge": 16683,
    "?_": 8069,
    "wickham": 5883,
    "placed": 7877,
    "laughing": 15178,
    "Ġcomfortable": 6094,
    "Ġroving": 22400,
    "Ġsubdivisions": 26037,
    "Ġpromised": 5181,
    "Ġdimmed": 24267,
    "ope": 4122,
    "ric": 1374,
    "ado": 11657,
    "Ġominous": 12422,
    "B": 38,
    "Ġdauntless": 26336,
    "Ġrod": 9279,
    "muring": 17601,
    "Ġoccurrence": 14381,
    "ready": 2362,
    "hue": 20898,
    "paying": 25411,
    "message": 17371,
    "alyards": 18792,
    "Ġschool": 5512,
    "Ġsuffice": 18869,
    "bag": 7542,
    "Ġlionel": 25286,
    "Ġsettled": 3741,
    "thesize": 24906,
    "serve": 13043,
    "Ġcomputations": 15996,
    "Ġbaggy": 24538,
    "Ġinterest": 2250,
    "reas": 989,
    "Ġinfatuation": 25856,
    "Ġtransient": 18480,
    "Ġsofas": 26224,
    "Ġunobstructed": 18264,
    "dy": 3861,
    "Ġmoderately": 22210,
    "Ġexterior": 19986,
    "Ġetern": 7085,
    "Ý": 158,
    "riage": 2123,
    "ction": 505,
    "Ġapothe": 12373,
    "Ġdisgracing": 26255,
    "Ġservice": 6471,
    "Ġshadowed": 24042,
    "Ġperem": 12930,
    "oled": 17619,
    "Ġneutral": 12742,
    "Ġknowingly": 18482,
    "Ġaccess": 9746,
    "able": 451,
    "Ġrest": 1781,
    "antarctic": 22096,
    "Ġhamper": 19387,
    "Ġhorses": 6385,
    "Ġspar": 10922,
    "pounds": 21024,
    "smooth": 20247,
    "beside": 19876,
    "Ġsche": 1704,
    "Ġsashes": 21224,
    "Ġtren": 17721,
    "irksome": 18172,
    "Ġclothes": 4997,
    "hatred": 24821,
    "lier": 20948,
    "Ġfo": 1653,
    "Ġcrotch": 9962,
    "eel": 11483,
    "Ġlonely": 6823,
    "questioning": 16850,
    "Ġgleams": 17309,
    "Ġguardianship": 17419,
    "ww": 10737,
    "Ġactual": 3737,
    "Ġsciences": 15944,
    "Ġnice": 6676,
    "Ġkiller": 19567,
    "Ġstops": 3165,
    "Ġoriginally": 7304,
    "Ġ104": 24412,
    "Ġcompar": 4771,
    "Ġtruth": 3320,
    "Ġmiseries": 10346,
    "mark": 5281,
    "rians": 21926,
    "Ġhyster": 16873,
    "ires": 6037,
    "shabb": 18498,
    "eye": 6224,
    "success": 6710,
    "Ġmasking": 2419,
    "Ġeffectively": 2705,
    "Ġadmirers": 19685,
    "problem": 25244,
    "thousand": 5547,
    "Ġparade": 18301,
    "berg": 11856,
    "ounts": 4651,
    "Ġfairness": 9892,
    "merc": 19279,
    "shortly": 12256,
    "Ġpatted": 16381,
    "Ġnasty": 17442,
    "Ġgir": 2257,
    "title": 17287,
    "Ġbursting": 8655,
    "dost": 14535,
    "Ġscore": 9737,
    "Ġphrenolog": 12332,
    "Ġcausal": 3409,
    "Ġluggage": 25957,
    "offended": 16396,
    "Ġaccomplishment": 19664,
    "Ġspell": 8855,
    "specul": 23940,
    "inno": 10756,
    "Ġpoetic": 17103,
    "warning": 25531,
    "Ġcomplained": 16998,
    "Ġgorge": 13564,
    "Ġspasmodic": 20396,
    "hearts": 13342,
    "Ġconcerned": 5331,
    "itters": 10781,
    "irth": 5634,
    "Ġridge": 14818,
    "Ġsenor": 20149,
    "Ġextras": 22714,
    "Ġpry": 11599,
    "Ġplaning": 22598,
    "omeness": 18015,
    "clifford": 23154,
    "ier": 1136,
    "Ġrecl": 16139,
    "Ġconstruct": 23340,
    "brad": 20780,
    "Ġbrixton": 13662,
    "Ġbitterness": 8024,
    "Ġheroic": 14907,
    "seven": 8463,
    "byshire": 6172,
    "Ġdetestable": 15097,
    "inople": 13828,
    "Ġcurds": 22960,
    "examination": 25478,
    "ished": 1429,
    "Ġdisappo": 4502,
    "Ġhap": 18197,
    "Ġlanterns": 24577,
    "uctive": 17696,
    "Ġupdates": 1297,
    "afric": 19178,
    "Ġthom": 21513,
    "incing": 15485,
    "irited": 15785,
    "Ġstreamed": 14546,
    "Ġdeclines": 23960,
    "Ġpicture": 4856,
    "Ġmorass": 22973,
    "Ġrespectfully": 18994,
    "Ġinclined": 6622,
    "Ġcircumstance": 4987,
    "Ġrattler": 24995,
    "supplement": 14796,
    "Ġcav": 13879,
    "dwell": 15340,
    "Ġassigned": 16311,
    "ashtego": 4099,
    "Ġshine": 12764,
    "Ġquoted": 22412,
    "Ġscru": 8191,
    "Ġglad": 3326,
    "craft": 12244,
    "stolidity": 21660,
    "Ġclanking": 20610,
    "Ġshiny": 14105,
    "(_": 7540,
    "vari": 1518,
    "Ġday": 956,
    "Ġpreposter": 12820,
    "Ġflashes": 11914,
    "Ġdisgra": 18549,
    "ositions": 10282,
    "vol": 728,
    "Ġsignal": 5944,
    "Ġlaid": 3939,
    "ounder": 11742,
    "Ġskylight": 24070,
    "narrowly": 20346,
    "Ġhipp": 21489,
    "Ġlounged": 19952,
    "Ġconstitutional": 25125,
    "Ġremarked": 3695,
    "historian": 25735,
    "decease": 25557,
    "Ġgermans": 25784,
    "Ġseclusion": 18208,
    "presumption": 20440,
    "nowhere": 18418,
    "appeared": 4277,
    "satisfied": 10578,
    "judged": 14830,
    "Ġget": 1625,
    "Ġresistance": 13528,
    "Ġlestrade": 5825,
    "encoura": 15048,
    "irous": 8838,
    "Ġcranial": 25592,
    "Ġstreatham": 17448,
    "Ġrichest": 26211,
    "Ġphrenologically": 20392,
    "Ġgoodge": 22820,
    "atus": 21259,
    "luded": 4223,
    "coach": 23559,
    "problems": 11434,
    "Ġreminding": 19796,
    "ose": 717,
    "Ġbring": 3324,
    "Ġspleen": 26421,
    "Ġaltogether": 4831,
    "tell": 1378,
    "Ġdromedary": 17438,
    "Ġisrael": 21800,
    "Ġnecessarily": 13246,
    "Ġpotent": 12062,
    "Ġfiles": 21411,
    "Ġstepped": 7051,
    "Ġconjectured": 9996,
    "vere": 4883,
    "Ġvertebra": 20180,
    "Ġharpooning": 23976,
    "88": 20757,
    "Ġharrow": 17925,
    "Ġbought": 8415,
    "Ġcompetition": 14266,
    "Ġbenjamin": 26567,
    "Ġcolonial": 22861,
    "morrow": 4570,
    "Ġplaus": 22596,
    "ollen": 11298,
    "Ġinsensibility": 17110,
    "biqu": 17497,
    "grief": 13730,
    "Ġlion": 9675,
    "Ġwoman": 2387,
    "smug": 23905,
    "subject": 6631,
    "Ġdisposing": 19373,
    "storied": 18024,
    "Ġshrunk": 16718,
    "longbourn": 9894,
    "forgetting": 25485,
    "Ġsequel": 14360,
    "Ġfow": 6133,
    "Ġpublisher": 24062,
    "shr": 10980,
    "Ġthroughout": 8876,
    "accomplished": 17211,
    "iers": 5990,
    "ouring": 6421,
    "tenderly": 20529,
    "Ġtimid": 6345,
    "Ġperished": 11782,
    "inks": 6869,
    "Ġwhere": 782,
    "Ġhealthcare": 8015,
    "Ġqualifications": 24675,
    "odhead": 18117,
    "Ġconvolutional": 2164,
    "Ġmbpp": 21320,
    "Ġeffect": 971,
    "Ġyou": 366,
    "Ġsurging": 19133,
    "Ġmach": 13856,
    "ude": 7562,
    "Ġpetersburgh": 24228,
    "renewed": 19703,
    "conversations": 24749,
    "Ġstream": 5186,
    "til": 17671,
    "Ġjo": 2608,
    "difference": 13707,
    "itted": 2441,
    "other": 1313,
    "Ġeloquent": 16109,
    "Ġenlarge": 21933,
    "71": 20755,
    "Ġinstrument": 7118,
    "Ġinclusive": 24161,
    "Ġvital": 9242,
    "Ġlikewise": 5386,
    "ignant": 11129,
    "putable": 10901,
    "Ġavoid": 5199,
    "ggling": 19096,
    "Ġattentions": 5877,
    "resolved": 9639,
    "Ġnibbling": 17384,
    "cab": 7333,
    "Ġrnns": 2395,
    "Ġwhat": 599,
    "Ġtransitory": 16017,
    "Ġmeddling": 24080,
    "Ġflavor": 16250,
    "refuge": 24734,
    "regularly": 13204,
    "Ġcasualty": 20340,
    "Ġinvent": 7164,
    "Ġwit": 3841,
    "Ġbeautifully": 13264,
    "Ġemergencies": 17361,
    "Ġinterrupted": 6343,
    "Ġbottles": 16570,
    "Ġunhinged": 26216,
    "mass": 12487,
    "Ġabide": 14187,
    "Ġadversary": 12171,
    "keepers": 16659,
    "nantucketer": 24972,
    "Ġbeech": 18082,
    "hangs": 15367,
    "Ġbilliard": 16689,
    "darkness": 9511,
    "Ġconcern": 2656,
    "Ġpatchwork": 24139,
    "ized": 1529,
    "Ġjun": 8505,
    "dress": 17520,
    "Ġsympath": 4861,
    "wood": 5897,
    "ctions": 951,
    "interchange": 23736,
    "near": 5842,
    "afraid": 10441,
    "Ġleaves": 5021,
    "elly": 17979,
    ".âĢĶâĢľ": 20746,
    "Ġopal": 23624,
    "twice": 14621,
    "Ġsketch": 16163,
    "Ġspectacle": 10496,
    "Ġexig": 21823,
    "nervous": 16276,
    "Ġintrusion": 12763,
    "Ġspot": 4152,
    "Ġyanke": 18097,
    "Ġstoven": 23172,
    "commence": 19990,
    "historical": 20464,
    "london": 9609,
    "Ġsmacking": 20164,
    "erpillar": 5797,
    "Ġplatonian": 25118,
    "Ġjiff": 22300,
    "nearer": 22447,
    "henomen": 10494,
    "Ġcompleted": 8997,
    "Ġglared": 13014,
    "Ġpay": 3961,
    "thirds": 25046,
    "Ġshowers": 16605,
    "jee": 17579,
    "Ġrash": 10898,
    "Ġbesee": 19241,
    "Ġreconcile": 25291,
    "Ġdecline": 9286,
    "Ġschools": 9476,
    "itors": 2911,
    "Ġbanker": 8666,
    "Ġpag": 6010,
    "ur": 325,
    "Ġtower": 8318,
    "Ġdood": 22239,
    "Ġseething": 18203,
    "Ġexasperated": 11412,
    "Ġtallow": 14776,
    "Â·": 21148,
    "Ġneeds": 6605,
    "lled": 10107,
    "impressions": 20697,
    "Ġquery": 2477,
    "pse": 21008,
    "Ġprecip": 7074,
    "Ġfifth": 11257,
    "Ġangels": 11178,
    "Ġcondescended": 19954,
    "star": 12670,
    "Ġcomparable": 24278,
    "devoted": 20015,
    "Ġfrogs": 23920,
    "Ġstory": 2899,
    "Ġfordham": 21773,
    "iar": 2379,
    "Ġentreated": 9950,
    "Ġloudly": 7312,
    "Ġdew": 14042,
    "Ġprofane": 13150,
    "Ġtoss": 10184,
    "tahit": 17692,
    "pardonable": 17217,
    "poured": 17637,
    "haw": 6361,
    "Ġex": 361,
    "fishery": 10031,
    "Ġarea": 14186,
    "retreat": 23133,
    "Ġundeserving": 18268,
    "Ġresearches": 13126,
    "Ġtale": 5142,
    "Ġintroduction": 8970,
    "shook": 19855,
    "Ġdexterity": 25294,
    "Ġprincipal": 6496,
    "Ġhymn": 24518,
    "Ġbigness": 19759,
    "salis": 25147,
    "Ġimages": 1602,
    "Ġblack": 2035,
    "culiar": 2818,
    "beneath": 9534,
    "Ġarr": 1798,
    "ips": 2592,
    "Ġtepid": 26412,
    "Ġpanegyric": 26449,
    "Ġelder": 7223,
    "Ġofficio": 23813,
    "Ġvalu": 5039,
    "Ġbroiled": 18908,
    "rigged": 17062,
    "magn": 10610,
    "Ġmorrow": 9342,
    "patched": 17643,
    "much": 3705,
    "Ġrevol": 5537,
    "ver": 331,
    "Ġconceived": 8149,
    "Ġardent": 9969,
    "Ġcasement": 25092,
    "Ġdragg": 23216,
    "uncommon": 11680,
    "Ġsof": 18281,
    "Ġwoes": 23983,
    "hauteur": 26391,
    "ometer": 19324,
    "ppers": 7617,
    "zza": 24165,
    "Ġstout": 6024,
    "Ġramsgate": 18645,
    "Ġoffered": 5816,
    "Ġrapture": 13494,
    "enstein": 5799,
    "eastward": 15128,
    "Ġimaginative": 19246,
    "protruding": 24816,
    "Ġph": 1550,
    "Ġmutineer": 19416,
    "define": 1527,
    "Ġundertaken": 18987,
    "Ġcovering": 13252,
    "Ġsleepless": 14582,
    "unbounded": 21882,
    "Ġfidelity": 15240,
    "Ġapo": 9630,
    "Ġdescending": 8902,
    "Ġequivalent": 4802,
    "Ġoffices": 14337,
    "Ġgathered": 8442,
    "Ġgarb": 21600,
    "Ġsurpassing": 20466,
    "Ġworse": 4718,
    "sixteen": 24853,
    "erxes": 21274,
    "Ġsubdiv": 16158,
    "out": 467,
    "Ġcrocodile": 20739,
    "Ġconvince": 14642,
    "Ġsupp": 1266,
    "except": 5383,
    "unct": 18154,
    "Ġadvancing": 6878,
    "Ġdrown": 6815,
    "Ġasc": 4765,
    "Ġadjac": 18294,
    "Ġmiscellaneous": 17462,
    "Ġexpose": 10327,
    "ogr": 18670,
    "Ġdisobedience": 22532,
    "bowsprit": 16853,
    "reception": 15514,
    "accordingly": 19212,
    "quer": 11678,
    "wig": 17704,
    "computer": 1939,
    "itically": 21328,
    "Ġnewcomers": 26041,
    "Ġintrepidity": 25550,
    "Ġdeformed": 14046,
    "Ġfavourably": 16361,
    "Ġthack": 21514,
    "stuff": 15686,
    "kept": 11715,
    "Ġcomprised": 14267,
    "travel": 24316,
    "guilt": 24066,
    "Ġairth": 23316,
    "Ġlouisiana": 25076,
    "Ġlingering": 11379,
    "Ġholmes": 1307,
    "Ġenormity": 19694,
    "Ġresponsible": 9886,
    "Ġmorsel": 20676,
    "consideration": 14954,
    "Ġunlike": 7004,
    "azore": 23461,
    "Ġdoubting": 13097,
    "Ġpillar": 21471,
    "zed": 8103,
    "veral": 2356,
    "Ġhandling": 8912,
    "Ġdrifted": 14625,
    "Ġproduced": 2451,
    "Ġadaptive": 1424,
    "Ġnext": 2139,
    "Ġcolonnades": 26275,
    "Ġsubaltern": 22788,
    "tremendous": 20672,
    "ĠĠĠĠĠĠ": 6414,
    "Ġcongen": 10873,
    "abby": 14020,
    "gu": 3954,
    "quent": 2095,
    "Ġunfinished": 19508,
    "Ġreaped": 18029,
    "Ġinstructive": 19284,
    "Ġerrors": 2596,
    "Ġlavater": 20494,
    "Ġmccauley": 26427,
    "Ġsharpen": 13567,
    "speaks": 19718,
    "Ġfrequ": 3328,
    "Ġpent": 17903,
    "Ġsample": 3176,
    "Ġtester": 21171,
    "Ġcharted": 22247,
    "iverer": 11714,
    "clopÃ¦dia": 15255,
    "ography": 13360,
    "mph": 20971,
    "pie": 21010,
    "ls": 1289,
    "Ġnecessity": 7296,
    "Ġbankrupt": 16796,
    "Đ": 209,
    "insulting": 26055,
    "Ġstudents": 23196,
    "Ġanom": 12609,
    "Ġdied": 4108,
    "Ġbasis": 16961,
    "Ġprosperity": 20256,
    "Ġcoal": 18591,
    "Ġ-": 1945,
    "Ġpull": 5152,
    "Ġincumbent": 16061,
    "Ġcomplaint": 24776,
    "burned": 25079,
    "Ġacquiring": 2767,
    "Ġsentiment": 6589,
    "miss": 3172,
    "residual": 19261,
    "Ġledger": 19400,
    "ascended": 24706,
    "ocity": 8277,
    "oration": 2212,
    "Ġflows": 13010,
    "Ġauthent": 14509,
    "brandy": 19199,
    "Ġshaft": 18229,
    "Ġforfeit": 21772,
    "Ġstillness": 12991,
    "islands": 21374,
    "Ġsymphony": 26532,
    "angle": 22098,
    "ans": 457,
    "Ġbetake": 22904,
    "voice": 7816,
    "sized": 15428,
    "Ġexaggerate": 25649,
    "onian": 17767,
    "Ġexultation": 15170,
    "crawling": 16958,
    "Ġstrongest": 11135,
    "Ġdecidedly": 9508,
    "Ġdirect": 1473,
    "Ġunembarrassed": 22066,
    "Ġdisgraceful": 15019,
    "Ġcompletely": 4860,
    "Ġgradients": 612,
    "ions": 448,
    "Ġicelandic": 25886,
    "Ġmathemat": 3201,
    "Ġunderground": 18985,
    "Ġship": 1090,
    "Ġsympathies": 14860,
    "Ġprecision": 13185,
    "Ġbiases": 2398,
    "successful": 11358,
    "oun": 483,
    "Ġparcel": 15198,
    "Ġchalk": 15932,
    "Ġthousands": 6748,
    "asper": 7854,
    "rential": 22916,
    "Ġrepeating": 11213,
    "points": 14393,
    "Ġhumorousness": 25377,
    "Ġcollege": 11424,
    "owers": 12683,
    "Ġstreets": 5863,
    "Ġtatters": 21176,
    "Ġboundary": 11222,
    "Ġtrowsers": 9627,
    "principal": 20659,
    "Ġapproximates": 2417,
    "Ġfollies": 16253,
    "they": 1880,
    "Ġpilgr": 12178,
    "Ġoffers": 12943,
    "Ġmeets": 7396,
    "Ġfors": 21768,
    "feeling": 6616,
    "rine": 21036,
    "Ġthreaten": 24374,
    "Ġattendance": 12179,
    "Ġremembrance": 8317,
    "Ġcontented": 9755,
    "Ġorthodox": 22092,
    "alley": 23019,
    "Ġkuiperai": 10935,
    "Ġbuying": 23993,
    "Ġcongratulations": 10580,
    "inite": 6001,
    "Ġbunger": 9995,
    "sadly": 25526,
    "hunting": 24385,
    "Ġco": 730,
    "Ġtigris": 25759,
    "Ġren": 3845,
    "mers": 9610,
    "Ġlandlord": 5581,
    "ear": 8730,
    "Ġports": 10818,
    "Ġblanc": 11065,
    "Ġfed": 5530,
    "Ġmale": 9648,
    "perils": 22175,
    "scarcely": 12384,
    "ok": 574,
    "Ġjolly": 6858,
    "roused": 16652,
    "Ġinvestigations": 17246,
    "Ġfist": 21402,
    "aiian": 23591,
    "Ġconsistent": 14528,
    "\",": 10678,
    "passing": 14811,
    "Ġvirginia": 13498,
    "ke": 429,
    "bitts": 26122,
    "Ġissue": 2315,
    "g": 75,
    "Ġpaints": 23523,
    "Ġnorthern": 7265,
    "ã": 164,
    "Ġintersect": 22572,
    "Ġwritten": 4165,
    "clam": 13051,
    "Ġgilder": 21610,
    "organ": 15572,
    "Ġcaress": 16338,
    "Ġbattering": 13900,
    "rut": 8091,
    "Ġgenuine": 14884,
    "Ġseparate": 5778,
    "Ġloafer": 18299,
    "Ġcourse": 2130,
    "Ġcovered": 5171,
    "Ġdegener": 14047,
    "Ġtangle": 25760,
    "Ġalms": 21777,
    "becomes": 22494,
    "Ġforests": 13590,
    "Ġwidespread": 20674,
    "swed": 24253,
    "ellative": 21942,
    "Ġ183": 13235,
    "lude": 6161,
    "Ġciv": 3309,
    "uarded": 21104,
    "irations": 18170,
    "ided": 2784,
    "possession": 12219,
    "Ġsprawling": 22137,
    "ustry": 18361,
    "Ġappeared": 2775,
    "Ġmon": 1253,
    "Ġjohn": 5032,
    "Ġpunct": 8660,
    "hate": 20891,
    "Ġdisown": 22521,
    "roll": 9196,
    "Ġcolog": 12568,
    "depend": 9112,
    "Ġheredit": 9216,
    "Ġgoin": 18469,
    "oot": 13764,
    "clinging": 20821,
    "Ġspouter": 12796,
    "iable": 3334,
    "Ġsqueaking": 26274,
    "fixed": 7548,
    "Ġchallenge": 25471,
    "Ġknocking": 10559,
    "Ġproblem": 1271,
    "Ġgibe": 25959,
    "Ġmann": 18416,
    "Ġhistory": 4007,
    "Ġagreeable": 4548,
    "Ġcorpulence": 24509,
    "Ġfil": 3471,
    "Ġliberty": 7761,
    "Ġasleep": 6836,
    "back": 2019,
    "Ġincor": 2609,
    "Ġexperience": 1353,
    "recollected": 25347,
    "sher": 5217,
    "Ġneedn": 19227,
    "Ġant": 4340,
    "Ġwebster": 20160,
    "plumed": 21950,
    "educ": 10828,
    "Ġbat": 10795,
    "during": 6787,
    "buried": 14848,
    "Ġfam": 1587,
    "Ġrelieve": 8223,
    "Ġjudiciously": 23876,
    "shadows": 25479,
    "Ġcomposedly": 25183,
    "iminished": 19024,
    "Ġgrapple": 25811,
    "Ġrailway": 15020,
    "Ġpriest": 7526,
    "mbly": 9794,
    "Ġelimin": 16106,
    "Ġrock": 5310,
    "Ġ4": 3985,
    "Ġceases": 19311,
    "Ġnewton": 3531,
    "Ġspitz": 14148,
    "Ġsmoothed": 23655,
    "distinction": 19570,
    "Ġneural": 620,
    "Ġaversion": 18866,
    "tha": 15822,
    "trimmed": 23946,
    "executed": 25739,
    "Ġhourly": 23299,
    "homage": 25616,
    "ann": 5802,
    "Ġstraight": 3702,
    "Ġquohog": 10972,
    "Ġunsolved": 22030,
    "Ġplate": 8898,
    "Ġperadventure": 22396,
    "umbling": 6758,
    "Ġpel": 17904,
    "Ġsleek": 23382,
    "umn": 5835,
    "Ġbetray": 7442,
    "pth": 2382,
    "ners": 3271,
    "Ġamerica": 6763,
    "drawing": 10486,
    "Ġdet": 510,
    "ves": 694,
    "Ġarrived": 3746,
    "Ġbats": 13899,
    "Ġsqualidness": 25842,
    "Ġdiminished": 16665,
    "Ġelated": 18632,
    "venerable": 26408,
    "Ġdefer": 18822,
    "Ġdecide": 9285,
    "Ġsteepest": 3087,
    "Ġrisen": 9492,
    "poise": 6171,
    "contin": 16541,
    "Ġpretensions": 16557,
    "Ġexquisite": 12380,
    "Ġresented": 22540,
    "Ġoverdone": 22356,
    "Ġrum": 5923,
    "Ġinaudible": 21496,
    "tranqu": 14705,
    "Ġpressing": 9260,
    "Ġreflections": 5946,
    "Ġdespairing": 14772,
    "icity": 2542,
    "right": 2769,
    "dition": 15339,
    "hump": 12475,
    "arrested": 15599,
    "Ġdelivery": 18976,
    "Ġcolds": 23757,
    "gue": 12465,
    "Ġarches": 14162,
    "Ġscud": 14190,
    "Ġathe": 17741,
    "onday": 6063,
    "Ġ*": 1273,
    "ojo": 7349,
    "alization": 732,
    "Ġplaces": 5390,
    "Ġbale": 7838,
    "Ġappertaining": 26533,
    "ied": 941,
    "whale": 2140,
    "Ġcalmness": 12090,
    "Ġprolong": 6832,
    "Ġinsure": 13176,
    "Ġby": 383,
    "Ġremembering": 14611,
    "fifth": 20145,
    "Ġfurled": 22811,
    "ically": 850,
    "remark": 7261,
    "Ġmister": 22752,
    "Ġcontemplate": 19891,
    "behold": 12875,
    "securer": 25602,
    "bunger": 20400,
    "Ġintrepid": 11704,
    "Ġbroadway": 23981,
    "Ġdecomposition": 5342,
    "Ġquoin": 22415,
    "Ġsnail": 19298,
    "Ġxii": 11989,
    "ever": 1076,
    "lemagne": 26436,
    "Ġpasseng": 12968,
    "ogene": 18671,
    "vellers": 16673,
    "private": 13580,
    "Ġmentioning": 9898,
    "Ġadaptively": 4454,
    "Ġacceded": 22375,
    "abiding": 21790,
    "Ġprev": 6264,
    "Ġspeedily": 7711,
    "unity": 4149,
    "Ġthre": 2060,
    "Ġcellar": 8058,
    "ascar": 8434,
    "Ġemerging": 24612,
    "atory": 6125,
    "Ġpast": 2099,
    "Ġphotography": 24683,
    "ulating": 10887,
    "farm": 15350,
    "attending": 18916,
    "elizabeth": 1989,
    "ush": 3630,
    "Ġtimber": 13347,
    "rese": 15508,
    "Ġimmemorial": 10510,
    "belief": 13279,
    "Ġmatrim": 11060,
    "icts": 22398,
    "Ġcaulk": 25440,
    "sford": 5997,
    "Ġforeign": 9871,
    "suggested": 17298,
    "Ġsulk": 15045,
    "strade": 5065,
    "Ġmaiden": 13384,
    "zor": 15458,
    "kn": 5791,
    "Ġunexpected": 6841,
    "Ġpremeditated": 22231,
    "Ġunsupp": 22018,
    "Ġprovinces": 24188,
    "whe": 1073,
    "Ġwoll": 21292,
    "espe": 3496,
    "Ġsyllables": 25298,
    "Ġapr": 12529,
    "Ġhesitation": 13439,
    "Ġsolution": 9804,
    "tossed": 10996,
    "Ġcheerfulness": 10516,
    "completely": 12418,
    "Ġinterment": 22571,
    "unks": 15773,
    "Ġinfancy": 10409,
    "Ġcurtains": 22961,
    "Ġgrowl": 16537,
    "Ġgrievances": 20647,
    "Ġchecked": 9375,
    "none": 6962,
    "interests": 19707,
    "hol": 3838,
    "Ġcheating": 16366,
    "mus": 10110,
    "Ġhart": 17921,
    "Ġcorner": 4364,
    "Ġpittance": 15615,
    "rs": 7807,
    "Ġdegenerated": 20504,
    "Ġdepartment": 24241,
    "coun": 10686,
    "Ġwondrous": 4734,
    "luckily": 19751,
    "Ġting": 8397,
    "Ġvectors": 1771,
    "Ġmerry": 5868,
    "Ġtreas": 7358,
    "icated": 7590,
    "icest": 21561,
    "ffic": 22148,
    "Ġvirtuous": 14754,
    "Ġtens": 17723,
    "Ġcrippled": 25278,
    "âĢĶâĢĺ_": 24831,
    "Ġmagnanimous": 17410,
    "onist": 21249,
    "Ġoversight": 22355,
    "dragged": 16608,
    "Ġwandering": 8653,
    "Ġdexter": 9700,
    "incredible": 16498,
    "disappointed": 25191,
    "Ġcorresponding": 13436,
    "Ġvaults": 17153,
    "downstairs": 23917,
    "agra": 14065,
    "Ġfrosted": 19802,
    "Ġvice": 6548,
    "Ġsuccession": 12099,
    "Ġinspecting": 24613,
    "Ġabsorbing": 17128,
    "Ġowning": 18744,
    "Ġpouring": 12622,
    "Ġcorpus": 13028,
    "Ġmerid": 13191,
    "ows": 1918,
    "oquence": 11386,
    "ject": 876,
    "earnestly": 17312,
    "Ġdownstairs": 11224,
    "per": 479,
    "Ġsatisfaction": 5667,
    "Ġforswe": 21771,
    "bb": 2799,
    "coo": 11170,
    "Ġconducted": 10502,
    "Ġrestoration": 19027,
    "Ġpraise": 6486,
    "olic": 14041,
    "Ġseedy": 21959,
    "Ġreadiness": 13046,
    "Ġfacial": 10605,
    "gies": 13725,
    "Ġmass": 3781,
    "nial": 20983,
    "Ġepit": 18006,
    "Ġcontrari": 23347,
    "Ġrespectively": 23247,
    "umst": 2503,
    "Ġstump": 7602,
    "Ġdu": 4582,
    "Ġbewitched": 25975,
    "upid": 6582,
    "Ġfrightened": 5341,
    "Ġdefile": 18823,
    "scap": 22987,
    "Ġjavan": 24997,
    "Ġarc": 14160,
    "Ġterrible": 5327,
    "Ġexalted": 12410,
    "Ġpreparation": 13527,
    "Ġbinnacle": 8118,
    "Ġmythologies": 26213,
    "Ġvenom": 24238,
    "ingolstadt": 21302,
    "Ġankles": 17899,
    "cet": 15324,
    "quaker": 15761,
    "Ġtenants": 23546,
    "accident": 11181,
    "Ġfrequently": 4679,
    "grate": 23410,
    "Ġintently": 8168,
    "Ġsoft": 1461,
    "Ġclum": 8872,
    "Ġindicated": 10469,
    "put": 414,
    "Ġgalvan": 21614,
    "Ġneighbours": 8302,
    "Ġflowers": 8940,
    "Ġwis": 3728,
    "Ġsadly": 7302,
    "usive": 8189,
    "Ġarchy": 14348,
    "Ġdeliciousness": 24125,
    "Ġserenity": 10027,
    "values": 4973,
    "Ġattic": 16097,
    "Ġcountrymen": 23594,
    "cr": 4073,
    "crew": 7544,
    "itarian": 21335,
    "ught": 2751,
    "Ġhauled": 11694,
    "Ġrely": 8820,
    "Ġyojo": 7610,
    "Ġelevate": 24502,
    "Ġstaggers": 24653,
    "shaken": 16025,
    "Ġheaded": 11055,
    "antly": 1991,
    "Ġintrospective": 20599,
    "Ġattentively": 9949,
    "gentleman": 7518,
    "Ġcerem": 7077,
    "Ġparsonage": 7123,
    "Ġdissembling": 26254,
    "Ġswelling": 11923,
    "forgive": 18731,
    "Ġpom": 21450,
    "iogn": 20920,
    "Ġ1828": 25720,
    "Ġnarwhales": 24902,
    "Ġchamber": 6213,
    "Ġvows": 15807,
    "cho": 2761,
    "ments": 1402,
    "Ġcells": 13884,
    "Ġain": 6969,
    "Ġextravagant": 17278,
    "Ġstiff": 6992,
    "changing": 10854,
    "helpless": 16790,
    "Ġ550": 19640,
    "ante": 11719,
    "Ġlighter": 12651,
    "chamber": 13623,
    "Ġostentatiously": 20467,
    "Ġreasoning": 2014,
    "Ġappet": 9729,
    "Ġmustard": 12928,
    "Ġadapt": 1062,
    "yrin": 12519,
    "Ġdisadvantages": 18558,
    "Ġconscious": 7743,
    "Ġwaylaid": 22872,
    "uneasy": 23684,
    "Ġreb": 15689,
    "Ġaught": 8772,
    "ures": 839,
    "thence": 23398,
    "Ġswells": 9826,
    "Ġvalleys": 14918,
    "Ġzero": 1201,
    "Ç": 136,
    "ulgences": 21862,
    "ird": 2427,
    "Ġgrated": 22801,
    "Ġlogical": 14486,
    "oko": 18441,
    "Ġany": 688,
    "Ġimpudence": 26241,
    "Ġcontract": 18475,
    "03": 20747,
    "Ġpreviously": 3918,
    "Ġcrad": 21348,
    "Ġskull": 6288,
    "aloud": 17940,
    "Ġrogue": 22402,
    "cap": 8372,
    "Ġbewit": 15726,
    "destined": 24112,
    "ignity": 4368,
    "Ġstress": 18066,
    "Ġath": 15800,
    "Ġhieroglyph": 11969,
    "Ġpit": 3419,
    "Ġsolicit": 22884,
    "Ġpsych": 10176,
    "Ġloves": 10915,
    "prec": 3200,
    "bod": 12435,
    "Ġconsummate": 25310,
    "cele": 21622,
    "sleeves": 26109,
    "Ġsavann": 14684,
    "Ġperceiving": 8875,
    "scent": 13017,
    "Ġsnows": 14725,
    "Ġfruitless": 25605,
    "Ġj": 534,
    "Ġchurning": 15936,
    "wn": 720,
    "stepfather": 19189,
    "rene": 5379,
    "Ġwink": 11568,
    "Ġbath": 9658,
    "~": 98,
    "Ġstochastic": 3265,
    "usable": 22276,
    "Ġeldest": 6571,
    "Ġmock": 3691,
    "Ġconsolation": 6208,
    "Ġdeterminate": 23001,
    "Ġvis": 1053,
    "are": 638,
    "Ġmysticetus": 24922,
    "Ġugliness": 20425,
    "irst": 879,
    "ĠâĢľâĢĺ": 8503,
    "Ġdeaths": 14537,
    "Ġreduced": 11922,
    "Ġprotested": 9933,
    "ception": 6562,
    "Ġdomains": 6612,
    "Ġsledge": 8110,
    "Ġunwarranted": 25171,
    "Ġshy": 10903,
    "Ġaddison": 14232,
    "Ġbluish": 23648,
    "formed": 2556,
    "gee": 15976,
    "Ġexertion": 8053,
    "Ġshol": 21992,
    "Ġdeepest": 8214,
    "Ġsofa": 10270,
    "Ġwrench": 12554,
    "okes": 9276,
    "jewel": 20345,
    "Ġstructures": 2720,
    "Ġhawaiian": 25366,
    "Ġmemb": 14029,
    "Ġspirits": 3697,
    "Ġvul": 10247,
    "Ġparticle": 18674,
    "ainty": 21784,
    "Ġmurdering": 14810,
    "accursed": 20539,
    "ignomin": 23264,
    "pret": 7212,
    "Ġstep": 751,
    "ixed": 4851,
    "hawks": 24694,
    "discern": 14850,
    "practical": 17221,
    "Ġsmokes": 22556,
    "Ġhypotheses": 4380,
    "shipmates": 11926,
    "significant": 25082,
    "Ġcontinues": 18809,
    "Ġcode": 1723,
    "Ġpooh": 18603,
    "Ġaunts": 21199,
    "Ġtheatre": 21277,
    "Ġdoubted": 7965,
    "Ġdisturbing": 19944,
    "omit": 13973,
    "reed": 6373,
    "obliv": 23095,
    "erted": 7361,
    "Ġinvestigated": 25386,
    "letters": 13172,
    "Ġparac": 12793,
    "Ġrover": 18456,
    "Ġoverfitting": 1544,
    "Ġapprehen": 16829,
    "ingle": 1037,
    "Ġannotations": 25954,
    "Ġpropriet": 9549,
    "Ġnimble": 21525,
    "ped": 6365,
    "oforte": 14285,
    "shape": 10983,
    "ensive": 6279,
    "Ġliquid": 22406,
    "stra": 4044,
    "Ġtaking": 3249,
    "additional": 20462,
    "Ġsor": 4143,
    "Ġetc": 7084,
    "because": 4923,
    "Ġfancying": 12110,
    "Ġuneasily": 24230,
    "quadr": 15762,
    "rannical": 26401,
    "Ġwooded": 23519,
    "Ġteaching": 10364,
    "frequented": 25900,
    "rougham": 15992,
    "Ġmorning": 1747,
    "party": 8992,
    "Ġwoeful": 19618,
    "res": 2759,
    "Ġicicles": 25264,
    "showed": 16027,
    "wol": 21121,
    "again": 3398,
    "Ġembarr": 7446,
    "five": 6356,
    "side": 2304,
    "Ġchristians": 13306,
    "Ġalfred": 21783,
    "ep": 442,
    "abled": 12792,
    "Ġsuperstitions": 17072,
    "hecy": 21205,
    "Ġawed": 23584,
    "Ġblot": 9811,
    "lo": 682,
    "Ġbeak": 18079,
    "Ġchestnuts": 24381,
    "try": 7812,
    "Ġvinc": 14084,
    "lev": 1237,
    "Ġamber": 7026,
    "Ġworshipping": 22925,
    "Ġwhereupon": 14293,
    "Ġthickly": 12113,
    "Ġslop": 23159,
    "pick": 17634,
    "Ġcholera": 22250,
    "Ġhadn": 9718,
    "Ġpeculiarity": 12931,
    "inging": 5906,
    "Ġadult": 18291,
    "Ġmoody": 8200,
    "Ġunavailing": 26215,
    "Ġvanishing": 1345,
    "Ġber": 5698,
    "atherley": 7220,
    "fly": 13713,
    "Ġmeryton": 4431,
    "Ġvictoria": 14872,
    "Ġasia": 11682,
    "cul": 1900,
    "place": 4151,
    "Ġsailed": 4889,
    "chess": 16573,
    "air": 1005,
    "Ġhideous": 5982,
    "Ġcouns": 10520,
    "preced": 10305,
    "Ġbuilding": 8062,
    "Ġswart": 14433,
    "Ġdeadly": 5405,
    "Ġpump": 12619,
    "races": 21627,
    "entary": 21564,
    "Ġconfirm": 9855,
    "X": 60,
    "Ġfervently": 25877,
    "icted": 5936,
    "Ġfejee": 18354,
    "Ġunduly": 25994,
    "aby": 18106,
    "Ġevaluate": 3205,
    "Ġsavoury": 23875,
    "verdict": 21726,
    "Ġnursing": 12212,
    "Ġped": 6817,
    "Ġfull": 2178,
    "Ġexploration": 2339,
    "quar": 7615,
    "Ġcl": 549,
    "Ġhoot": 19076,
    "ouder": 17900,
    "Ġcompact": 2264,
    "Ġdoors": 6418,
    "Ġaid": 6122,
    "Ġdelineations": 26058,
    "Ġhab": 4213,
    "Ġwolfish": 25935,
    "Ġmacy": 19353,
    "Ġx": 2075,
    "Ġapparelled": 20435,
    "miraculous": 26396,
    "Ġhunger": 8566,
    "Ġhovel": 8253,
    "ester": 11597,
    "Ġburden": 8607,
    "Ġfugitive": 17326,
    "Ġxxxiv": 24967,
    "reward": 15509,
    "wife": 8100,
    "Ġflounders": 23011,
    "Ġuniform": 2228,
    "Ġselfishness": 12287,
    "Ġrushes": 20506,
    "iliary": 21723,
    "Ġdemeanour": 17336,
    "Ġprotect": 6337,
    "Ġboarding": 12084,
    "Ġallies": 18234,
    "Ġapproxim": 1217,
    "Ġproc": 5545,
    "outre": 18320,
    "Ġdarling": 12602,
    "Ġgas": 8132,
    "rolled": 9059,
    "menced": 23143,
    "contriv": 19291,
    "Ġexploring": 4300,
    "itably": 10782,
    "Ġpleasure": 2695,
    "Ġrefres": 14342,
    "arches": 10816,
    "Ġinconvenience": 9563,
    "Ġbehind": 2806,
    "Ġabsolute": 6765,
    "Ġtw": 842,
    "allah": 5838,
    "Ġmurmured": 7480,
    "ria": 15795,
    "Ġve": 1106,
    "Ġscound": 12831,
    "Ġremote": 8919,
    "pane": 10120,
    "Ġmam": 8404,
    "degra": 22138,
    "ĠĠĠĠĠĠĠĠĠĠĠĠĠĠĠĠĠĠĠĠĠĠĠĠĠĠĠĠĠĠĠĠĠ": 12041,
    "bery": 9786,
    "Ġconfused": 7964,
    "Ġchina": 8039,
    "oug": 431,
    "Ġmoran": 9341,
    "Ġfeeble": 12282,
    "athed": 7828,
    "spouting": 25000,
    "Ġevinced": 7100,
    "Ġeyelashes": 26106,
    "Ġcrosses": 23059,
    "over": 1846,
    "Ġfowl": 11330,
    "Ġemigrant": 25859,
    "ims": 7176,
    "Ġanatomy": 12318,
    "Ġmr": 661,
    "arus": 13911,
    "arn": 358,
    "anx": 8783,
    "ede": 21503,
    "Ġblacksmith": 6595,
    "Ù": 154,
    "Ġmisfortunes": 7041,
    "dispute": 23499,
    "otic": 15743,
    "trust": 21077,
    "Ġardu": 22186,
    "mbl": 5945,
    "happiest": 19330,
    "re": 266,
    "Ġsurtout": 23464,
    "ugn": 9377,
    "Ġowed": 10780,
    "Ġadieu": 10050,
    "Ġassertion": 13487,
    "Ġoy": 15544,
    "Ġexerting": 21829,
    "gabriel": 15359,
    "Ġfancied": 7326,
    "Ġphysi": 9987,
    "Ġplank": 7033,
    "Ġgra": 415,
    "eyes": 5684,
    "Ġunostentatious": 22067,
    "Ġabruptness": 25299,
    "Ġpear": 11850,
    "Ġaccidental": 16848,
    "iscient": 17851,
    "Ġbequest": 21750,
    "Ġnineveh": 13387,
    "Ġjuly": 17236,
    "err": 1142,
    "Ġdread": 3162,
    "mrs": 3744,
    "Ġordinarily": 20648,
    "Ġposterity": 17401,
    "onah": 3337,
    "Ġresounded": 22541,
    "idable": 8145,
    "Ġlessened": 19087,
    "aps": 1229,
    "etymology": 14700,
    "Ġgeneration": 2296,
    "Ġleave": 2456,
    "Ġrepute": 18034,
    "igns": 8447,
    "stirring": 20424,
    "Ġdonkey": 23227,
    "Ġhapless": 15814,
    "uncle": 8158,
    "iloquent": 21722,
    "Ġrebounds": 25967,
    "idays": 21767,
    "Ġdrove": 4984,
    "pacific": 17641,
    "Ġexacted": 23602,
    "Ġlevels": 12696,
    "Ġnapoleons": 25885,
    "itching": 21333,
    "estab": 14170,
    "Ġlandlady": 10422,
    "inces": 13827,
    "benefit": 24642,
    "Ġbenevol": 5961,
    "Ġjutting": 22305,
    "Ġsultan": 15183,
    "!âĢĻâĢĿ": 16592,
    "Ġshelves": 14998,
    "Ġflies": 13022,
    "Ġsomnam": 23003,
    "Ġskirt": 18728,
    "Ġdoctors": 12149,
    "Ġpassive": 22838,
    "Ġtend": 6120,
    "Ġemperors": 15158,
    "Ġtram": 11092,
    "Ġotherwise": 4657,
    "Ġut": 2280,
    "Ġfurther": 1057,
    "Ġdrenched": 12601,
    "Ġintellig": 525,
    "Ġreced": 15690,
    "welt": 12518,
    "iltrated": 19304,
    "rael": 21626,
    "Ġdespite": 19351,
    "Ġwander": 9031,
    "Ġreserves": 19669,
    "Ġvisual": 5741,
    "lace": 13747,
    "Ġawe": 7147,
    "argue": 21442,
    "ally": 529,
    "Ġcap": 2364,
    "Ġlifetime": 13600,
    "ses": 3024,
    "irm": 3107,
    "cast": 2925,
    "Ġchace": 14178,
    "Ġhush": 13207,
    "orous": 5292,
    "Ġsquint": 22835,
    "xt": 2082,
    "sighted": 19784,
    "Ġmatrices": 4969,
    "Ġhermit": 15856,
    "Ġpaper": 4278,
    "ky": 4516,
    "Ġbeatrix": 24203,
    "confl": 22466,
    "Ġ55": 24323,
    "hamed": 6305,
    "painted": 17639,
    "Ġcet": 6669,
    "known": 3567,
    "Ġconstables": 19072,
    "Ġuncommonly": 7759,
    "Ġmothers": 14540,
    "Ġheap": 12676,
    "ulent": 21859,
    "Ġslumbers": 18941,
    "growing": 13732,
    "Ġkeenest": 12159,
    "Ġchestnut": 19671,
    "declare": 25173,
    "Ġ115": 24439,
    "milk": 20475,
    "Ġcoil": 11816,
    "Ġoakshott": 12227,
    "Ġchink": 15931,
    "Ġnovel": 6695,
    "project": 16424,
    "Ġejac": 10203,
    "Ġlimb": 9401,
    "Ġcalmer": 23039,
    "lantic": 6363,
    "Ġconfirms": 23306,
    "Ġdivert": 23592,
    "Ġequilibrium": 4138,
    "spanish": 14334,
    "around": 12606,
    "Ġspectacles": 12095,
    "Ġconclusions": 10553,
    "wind": 4248,
    "surd": 6934,
    "ration": 2006,
    "Ġjonas": 20608,
    "Ġbelong": 3885,
    "Ġeighteen": 11238,
    "were": 2560,
    "ellation": 12748,
    "flag": 14710,
    "ferences": 10326,
    "fifty": 12350,
    "osy": 11756,
    "unhes": 21872,
    "Ġtriangular": 14858,
    "bellies": 19972,
    "yellow": 9624,
    "Ġinvariably": 8063,
    "Ġwager": 17792,
    "Ġhardened": 14449,
    "Ġcanv": 7009,
    "Ġdeferred": 18825,
    "Ġcran": 11999,
[...]
