{
  "metadata": {
    "vocab_size": 26613,
    "algorithm": "BPE",
    "created_at": "2026-09-26 07:02:51",
    "special_tokens": [
      "<PAD>",
      "<SOS>",
      "<EOS>",
      "<UNK>",
      "<MASK>"
    ]
  },
  "vocab": {
    "Ġdaugh": 2291,
    "Ġconvenience": 11330,
    "mount": 9128,
    "Ġcock": 10998,
    "Ġhung": 4558,
    "ines": 677,
    "owders": 18047,
    "Ġmysticetus": 24922,
    "Ġfleece": 10613,
    "Ġdepartments": 24241,
    "Ġborn": 5223,
    "Ġcan": 470,
    "Ġexclusion": 19394,
    "single": 10125,
    "buck": 17489,
    "Ġprodigious": 8057,
    "Ġwhelmed": 25999,
    "more": 1034,
    "ures": 839,
    "Ġconveyed": 8335,
    "meditated": 19067,
    "unbe": 21870,
    "wreck": 21135,
    "Ġpaddled": 20200,
    "Ġearly": 2079,
    "Ġjumbled": 22295,
    "Ġmin": 1024,
    "Ġjacob": 1898,
    "Ġsounded": 8590,
    "innocent": 20285,
    "ureau": 10225,
    "endeavour": 17030,
    "imagine": 19930,
    "osque": 22260,
    "vanished": 15061,
    "Ġsake": 4091,
    "g": 75,
    "Ġbeg": 1283,
    "Ġsteadily": 8052,
    "Ġbaling": 17859,
    "Ġcapric": 14575,
    "ribut": 818,
    "nobody": 16133,
    "Ġrespite": 13152,
    "ainted": 3657,
    "Ġhookah": 16969,
    "offices": 19061,
    "arts": 6564,
    "Ġcrags": 23525,
    "bless": 22310,
    "fallen": 19658,
    "Ġattributed": 11830,
    "Ġfeet": 2256,
    "diff": 9112,
    "intim": 22932,
    "forty": 9372,
    "pounds": 21024,
    "Ġfacet": 15582,
    "proportions": 22833,
    "Ġemploy": 3614,
    "Ġungrateful": 14118,
    "whole": 6086,
    "Ġcorrid": 9822,
    "prejudice": 25571,
    "hearty": 14832,
    "Ġenlarge": 21933,
    "Ġstaggering": 20272,
    "Ġpost": 4272,
    "Ġawe": 7147,
    "Ġweight": 657,
    "Ġtens": 17722,
    "Ġsolitude": 6876,
    "fold": 7547,
    "Ġinstance": 2545,
    "Ġbacking": 16114,
    "harrow": 20907,
    "within": 6730,
    "oment": 919,
    "Ġincrease": 9368,
    "Ġhopeless": 7462,
    "Ġbustle": 17226,
    "ineff": 21985,
    "Ġsharks": 4496,
    "Ġtimorous": 24224,
    "Ġderive": 10393,
    "monograph": 23523,
    "Ġstung": 21736,
    "Ġunassuming": 20507,
    "Ġpresented": 5182,
    "oves": 15402,
    "ivities": 22075,
    "goldsmith": 20146,
    "Ġbuffalo": 11428,
    "Ġalms": 21778,
    "Ġtransitory": 16026,
    "Ġfin": 1460,
    "aments": 12721,
    "izard": 10878,
    "eu": 17529,
    "Ġpace": 9182,
    "plentiful": 21960,
    "Ġtone": 4039,
    "Ġinvariable": 13454,
    "Ġcrows": 24028,
    "fatality": 25019,
    "Ġgrizzled": 11449,
    "Ġflorid": 17133,
    "Ġmeasurement": 19421,
    "Ġ179": 19753,
    "_,": 2798,
    "anting": 6412,
    "Ġm": 274,
    "Ġsubst": 4273,
    "max": 1687,
    "itement": 7836,
    "marvell": 24171,
    "Ġmayhap": 18707,
    "vation": 4743,
    "Ġresolve": 13168,
    "º": 123,
    "allied": 7410,
    "Ġloite": 22109,
    "way": 766,
    "Ġdimin": 3872,
    "thought": 3849,
    "slide": 24555,
    "ŀ": 257,
    "Ġcountenance": 3970,
    "Ġsam": 7570,
    "iance": 5278,
    "va": 4742,
    "Ġsleeps": 10445,
    "unhesitatingly": 26495,
    "avoid": 9303,
    "despairing": 25074,
    "bony": 15317,
    "Ġwhoa": 22420,
    "depend": 9111,
    "Ġsnapping": 19299,
    "Ġhides": 16262,
    "Ġthinnest": 24182,
    "Ġsir": 1569,
    "anged": 3587,
    "animation": 16978,
    "Ġexasper": 8466,
    "Ġantarctic": 19551,
    "Ġdenial": 13212,
    "Ġvon": 14079,
    "deed": 1520,
    "Ġconquered": 14024,
    "Ġconfessed": 8009,
    "Ġyaw": 18094,
    "Ġrepublican": 17410,
    "thrusting": 20258,
    "Ġeat": 4642,
    "Ġlarge": 1063,
    "food": 12460,
    "Ġcome": 1243,
    "groom": 8739,
    "Ġeighty": 19474,
    "det": 5206,
    "anean": 7443,
    "itated": 4439,
    "gloves": 25143,
    "Ġdiscomp": 11863,
    "ruction": 4358,
    "Ġvillas": 24050,
    "_âĢĶâĢĻâĢĿ": 25741,
    "Ġgossiping": 26243,
    "classes": 12132,
    "Ġdost": 7637,
    "ose": 717,
    "Ġmeditating": 20041,
    "Ġsane": 21220,
    "Ġattaining": 15801,
    "Ġcurse": 7669,
    "Ġscaled": 2107,
    "simp": 17664,
    "shr": 10977,
    "Ġbordered": 24562,
    "Ġinvis": 6902,
    "Ġdishon": 12227,
    "asions": 12647,
    "Ġtantamount": 25625,
    "Ġdraw": 3670,
    "Ġcontrasting": 11153,
    "Ġexcellent": 4238,
    "id": 338,
    "Ġinfamous": 16363,
    "complained": 25838,
    "hideous": 25407,
    "Ġstorms": 11260,
    "ipotent": 10957,
    "Ġdisplays": 19856,
    "Ġprevailing": 24673,
    "Ġadvers": 4886,
    "Ġreiter": 21664,
    "Ġheavier": 13099,
    "Ġlogic": 13075,
    "loat": 8885,
    "Ġscholar": 26111,
    "Ġmapp": 2083,
    "Ġmicha": 17811,
    "Ġhush": 13209,
    "Ġsmoothed": 23658,
    "Ġagonising": 25373,
    "Ġtantalizing": 20412,
    "Ġfurnished": 6475,
    "Ġbor": 5804,
    "weep": 22682,
    "Ġuncl": 22012,
    "raction": 8138,
    "adventure": 17232,
    "Ġsupport": 6728,
    "endom": 15921,
    "Ġpeculiarly": 8287,
    "Ġperempt": 13671,
    "Ġhalting": 16273,
    "Ġtack": 5620,
    "Ġages": 7028,
    "Ġvexations": 24610,
    "Ġten": 2387,
    "ineas": 15824,
    "bbles": 13689,
    "etency": 21580,
    "Ġfitness": 23997,
    "ilet": 12825,
    "Ġshaster": 21996,
    "ulged": 12726,
    "Ġdevice": 1928,
    "cruising": 12276,
    "deep": 1002,
    "conc": 3947,
    "Ġcompensated": 17399,
    "centred": 25017,
    "Ġvictoria": 14871,
    "Ġintent": 6409,
    "Ġoptimize": 1580,
    "Ġmeans": 699,
    "Ġasp": 15778,
    "Ġtwitch": 22674,
    "inserted": 18888,
    "Ġreally": 2160,
    "Ġdriver": 16473,
    "Ġrings": 11697,
    "Ġprecipices": 12274,
    "tender": 14472,
    "Ġincreas": 1695,
    "inger": 6812,
    "Ġforeshad": 23451,
    "Ġnathan": 21524,
    "sery": 17660,
    "grin": 19105,
    "Ġeaster": 15672,
    "drowned": 17367,
    "def": 1453,
    "characteristic": 24685,
    "Ġcr": 2152,
    "Ġbran": 5250,
    "Ġemails": 13104,
    "itely": 5364,
    "Ġsighs": 22707,
    "angry": 18294,
    "leisure": 21369,
    "'m": 9581,
    "Ġinclusive": 24162,
    "Ġlangu": 576,
    "derment": 22159,
    "Ġmari": 6813,
    "hair": 9121,
    "Ġdiverse": 19208,
    "cain": 15324,
    "Ġbravely": 23836,
    "Ġinnovative": 1523,
    "Ġbad": 3988,
    "Ġork": 18284,
    "consol": 9760,
    "Ġfriendless": 23023,
    "lux": 14224,
    "Ġrepeating": 11212,
    "Ġchilled": 18382,
    "Ġthree": 1370,
    "Ġbidirectional": 3755,
    "Ġacceded": 22376,
    "tru": 10728,
    "Ġpunchbowl": 20230,
    "el": 306,
    "compared": 24030,
    "thirds": 25046,
    "crawling": 16957,
    "iel": 11492,
    "Ġgambler": 26190,
    "Ġcoincidence": 25483,
    "peddling": 24696,
    "prob": 7069,
    "bishop": 13692,
    "foam": 24417,
    "Ġgrizz": 10350,
    "stubb": 6018,
    "lott": 6650,
    "cement": 2930,
    "Ġscaramouch": 23825,
    "reng": 4003,
    "Ġheartily": 6890,
    "Ġcopper": 7425,
    "Ġperplex": 2715,
    "piling": 15414,
    "mutually": 26136,
    "initions": 21186,
    "Ġending": 18189,
    "Ġtheories": 13847,
    "Ġsmiling": 5473,
    "Ġhig": 754,
    "Ġregard": 3062,
    "Ì": 141,
    "Ġsuspects": 16889,
    "conjectures": 25180,
    "putation": 7625,
    "Ġprofuse": 23564,
    "operation": 13499,
    "Ġforeheads": 23447,
    "Ġunwarrantable": 26353,
    "Ġprovinces": 24189,
    "Ġincludes": 2011,
    "allet": 11082,
    "band": 3054,
    "Ġknave": 11270,
    "sideways": 14570,
    "Ġschoolboys": 24480,
    "Ġmillar": 13859,
    "Ġboot": 11836,
    "Ġrevolutionized": 3367,
    "objects": 13468,
    "Ġstrategies": 1840,
    "gged": 3777,
    "ertain": 1207,
    "Ġarmada": 23578,
    "admiration": 11386,
    "Ġgentle": 1890,
    "ivil": 6411,
    "Ġrecursive": 4781,
    "wishing": 21127,
    "Ġtwee": 22673,
    "Ġcaught": 3729,
    "perishing": 22184,
    "Ġelix": 22642,
    "Ġappearance": 3699,
    "Ġimpossible": 3543,
    "arled": 21441,
    "revenge": 13840,
    "Ġoverthrown": 18424,
    "ashtego": 4101,
    "Ġbenefited": 19396,
    "Ġreason": 1379,
    "mured": 6960,
    "Ġfill": 5701,
    "54": 15297,
    "ilated": 18057,
    "Ġeastward": 13388,
    "Ġsubmerged": 11869,
    "Ġmalady": 24391,
    "Ġchanc": 18384,
    "garnished": 26387,
    "Ġwreat": 15529,
    "cannib": 11900,
    "Ġgu": 1330,
    "Ġselfishness": 12286,
    "apolog": 22330,
    "ost": 5359,
    "division": 20047,
    "etch": 9203,
    "Ġshouting": 10521,
    "answered": 10272,
    "Ġlist": 2367,
    "beings": 12872,
    "Ġmemoirs": 26205,
    "Ġexclamation": 8698,
    "Ġmut": 3582,
    "Ġbeheading": 21752,
    "Ġpips": 9847,
    "increased": 20269,
    "Ġcrowder": 19454,
    "Ġappalling": 8499,
    "Ġrecol": 4029,
    "ouder": 17900,
    "dri": 5888,
    "regularly": 13206,
    "Ġvacancies": 24344,
    "wick": 5361,
    "Ġshutting": 14757,
    "Ġadro": 15865,
    "sorrow": 12505,
    "Ġsteepest": 3086,
    "uend": 21100,
    "Ġcou": 5285,
    "monkey": 19169,
    "convul": 24883,
    "sey": 5541,
    "borrowed": 20791,
    "Ġtypically": 1537,
    "Ġlightning": 5750,
    "Ġtalker": 23369,
    "Ġexp": 780,
    "itary": 4750,
    "nature": 5358,
    "Ġrecklessly": 16982,
    "Ġweig": 7619,
    "amount": 10883,
    "Ġfarm": 7841,
    "Ġirreparable": 19997,
    "black": 6768,
    "Ġpump": 12617,
    "aves": 3598,
    "Ġconsoling": 19455,
    "pron": 9004,
    "Ġslime": 23162,
    "pinn": 21025,
    "arising": 17895,
    "Ġimbalanced": 18333,
    "Ġ123": 24467,
    "taining": 7206,
    "unnecessary": 21878,
    "dragging": 16608,
    "entire": 6824,
    "03": 20747,
    "onic": 7828,
    "Ġwrit": 8242,
    "Ġwoods": 5405,
    "Ġteaching": 10363,
    "Ġprematurely": 24003,
    "hester": 9630,
    "Ġbra": 3253,
    "Ġthanked": 9457,
    "ond": 1161,
    "Ġunhe": 22006,
    "course": 6104,
    "Ġregiment": 6432,
    "Ġgreatest": 4092,
    "Ġbedroom": 7277,
    "Ġwidow": 8662,
    "Ġconciliating": 19047,
    "iliating": 12691,
    "Ġrenders": 13281,
    "Ġgently": 7171,
    "Ú": 155,
    "Ġuninhabited": 22047,
    "Ġornam": 15862,
    "icking": 8909,
    "don": 3544,
    "Ġincensed": 18571,
    "Ġcompliments": 8632,
    "cal": 1120,
    "Ġadorned": 15245,
    "Ġtoss": 10183,
    "Ġprocesses": 3632,
    "acute": 22593,
    "Ġheh": 21678,
    "non": 9610,
    "hap": 17558,
    "Ġelect": 10841,
    "Ġmustering": 18662,
    "tering": 3808,
    "Ġdissol": 18551,
    "ull": 1434,
    "Ġblackstone": 23387,
    "philosop": 9566,
    "Ġseconds": 16396,
    "Ġsoot": 14130,
    "Ġrelics": 16194,
    "Ġnat": 12641,
    "Ġj": 533,
    "Ġcoldly": 14649,
    "ñ": 178,
    "Ġproved": 4883,
    "Ġacquitted": 18898,
    "Ġindic": 2886,
    "Ġresearch": 3286,
    "Ġspace": 1522,
    "Ġtypewriter": 19097,
    "Ġrem": 954,
    "cruet": 17025,
    "onder": 3779,
    "vib": 21114,
    "Ġimages": 1601,
    "handkerchief": 14617,
    "liv": 9606,
    "urried": 21702,
    "Ġsnow": 3706,
    "alluring": 18352,
    "Ġgn": 8816,
    "eringly": 23001,
    "ish": 550,
    "inted": 2651,
    "perpetually": 20511,
    "Ġhired": 10176,
    "mast": 3601,
    "Ġroods": 22399,
    "Ġblasphemer": 26116,
    "Ġtypes": 8935,
    "Ġaddison": 14231,
    "uing": 17692,
    "Ġtumultuous": 10614,
    "Ġhoe": 23350,
    "Ġrailway": 15019,
    "cou": 13693,
    "calm": 8933,
    "Ġbrawny": 13611,
    "Ġleisurely": 24746,
    "Ġforwarded": 19043,
    "Ġunra": 18234,
    "ising": 2252,
    "kshire": 13744,
    "Ġtrusted": 10516,
    "Ġstart": 3257,
    "Ġdol": 9663,
    "impenetrable": 26196,
    "Ġperforms": 11874,
    "Ġdisobedience": 22533,
    "drunk": 24659,
    "ortion": 11754,
    "»": 124,
    "Ġbenjam": 22888,
    "Ġfight": 5365,
    "inquiry": 15140,
    "Ġprofane": 13150,
    "âĢĶ": 517,
    "Ġdoor": 1740,
    "ease": 12454,
    "Ġye": 900,
    "plate": 18207,
    "Ġmoodily": 19833,
    "Ġmissionary": 25696,
    "Ġcongenial": 12408,
    "Ġdra": 1592,
    "Ġsixty": 7723,
    "Ġyell": 21775,
    "impregn": 21712,
    "Ġinestimable": 17440,
    "advise": 24216,
    "wondered": 17028,
    "mag": 6508,
    "contents": 12055,
    "Ġwrenching": 17321,
    "Ġsal": 3938,
    "sion": 8094,
    "Ġbenevolent": 7773,
    "ynolds": 10034,
    "Ġsolar": 22883,
    "isted": 3297,
    "Ġparlor": 13538,
    "Ġrepulses": 26069,
    "Ġgar": 10837,
    "Ġcountries": 13094,
    "anum": 17835,
    "Ġafar": 14290,
    "Ġvancouver": 26564,
    "Ġentertainment": 12219,
    "Ġvenom": 24237,
    "ration": 2004,
    "create": 24158,
    "Ġexpost": 18625,
    "Ġconcil": 23320,
    "cob": 10085,
    "chains": 9683,
    "Ġjoined": 4562,
    "thorough": 21980,
    "ocations": 23705,
    "Ġpartake": 18670,
    "fears": 18525,
    "Ġtar": 2564,
    "Ġundiscernible": 22064,
    "bable": 8718,
    "Ġseizing": 7878,
    "Ġchimneys": 16971,
    "Ġcanaan": 22165,
    "Ġexig": 21824,
    "famous": 16915,
    "really": 6971,
    "Ġbold": 5290,
    "execut": 13653,
    "wheel": 22870,
    "Ġperform": 1036,
    "lingering": 18601,
    "agrad": 2748,
    "blu": 12437,
    "antingly": 22096,
    "ď": 208,
    "aud": 8521,
    "zealand": 26054,
    "Ġheartfelt": 18967,
    "generally": 9433,
    "Ġeddies": 23436,
    "Ġdisasters": 16051,
    "Ġlandscape": 12414,
    "angular": 11720,
    "Ġcards": 7581,
    "loaded": 22509,
    "Ġurging": 24501,
    "Ġmisconduct": 22756,
    "Ġappetite": 12381,
    "Ġreject": 7386,
    "Ġdur": 11590,
    "awed": 10390,
    "hess": 4746,
    "Ġstraps": 19308,
    "Ġxl": 11986,
    "Ġfluffy": 19362,
    "uits": 21103,
    "opolising": 25676,
    "Ġgirls": 4279,
    "Ġspies": 22126,
    "Ġdepend": 787,
    "animal": 16977,
    "Ġdealing": 14045,
    "throughout": 24084,
    "serious": 14446,
    "Ġinvention": 19951,
    "Ġpint": 17909,
    "developed": 15262,
    "Ġglanced": 5952,
    "Ġlazarus": 15027,
    "Ġhum": 1098,
    "!_âĢĶ": 19971,
    "Ġsuppressing": 22999,
    "Ġripples": 25505,
    "Ġtheatre": 21277,
    "Ġcologne": 12971,
    "Ġjeer": 24121,
    "landed": 18954,
    "Ġpeak": 16124,
    "Ġassur": 6074,
    "Ġlewis": 15722,
    "seeking": 17151,
    "Ġardour": 8043,
    "Ġsplend": 9895,
    "Ġperturbed": 20438,
    "Ġmout": 17798,
    "ances": 1338,
    "Ġbestowing": 16970,
    "entric": 11617,
    "press": 1732,
    "Ġsocket": 12785,
    "Ġade": 22099,
    "Ġperplexed": 23660,
    "Ġunsupplied": 22039,
    "yellow": 9623,
    "iocr": 20922,
    "Ġclimes": 12839,
    "Ġpuffing": 12251,
    "inte": 5143,
    "Ġshoot": 11160,
    "Ġcontemplation": 11356,
    "Ġhurled": 10428,
    "Ġbowsman": 11253,
    "lar": 4482,
    "Ġworld": 1598,
    "Ġplanks": 5561,
    "lan": 15375,
    "Ġinconsiderable": 21493,
    "Ġsoothingly": 25047,
    "power": 7136,
    "Ġexpiration": 22623,
    "Ġ72": 19610,
    "Ġdistrustful": 25054,
    "ancient": 9654,
    "Ġdears": 18139,
    "Ġcleaving": 23182,
    "Ġdelay": 5748,
    "tumult": 12420,
    "cabinet": 25077,
    "Ġmanhat": 22325,
    "urer": 18121,
    "Ġforgetfulness": 14605,
    "ni": 1612,
    "Ġmundane": 26428,
    "Ġpropag": 16346,
    "Ġrelative": 11880,
    "Ġfedallah": 6108,
    "iting": 2158,
    "range": 3495,
    "Ġchoking": 15932,
    "Ġheedless": 14901,
    "Ġsucceed": 4543,
    "Ġattempted": 8001,
    "society": 9970,
    "Ġtouch": 3395,
    "Ġunfolding": 17085,
    "Ġkink": 22191,
    "Ġshortened": 23481,
    "Ġpet": 4585,
    "embraced": 25804,
    "Ġunprinciple": 18251,
    "Ġtapping": 10751,
    "Ġbattered": 17862,
    "lace": 13746,
    "Ġpikes": 21477,
    "achalot": 15861,
    "operations": 19973,
    "Ġpossibility": 7458,
    "oundered": 14163,
    "Ġmentioning": 9896,
    "ocean": 12398,
    "Ġthough": 992,
    "Ġveiled": 16199,
    "Ġmemb": 14028,
    "ex": 623,
    "irited": 15784,
    "Ġestablish": 9541,
    "Ġdelightfully": 13156,
    "Ġwhist": 6022,
    "if": 376,
    "Ġpast": 2100,
    "Ġvesu": 21947,
    "Ġsmelt": 16063,
    "Ġnoblest": 13240,
    "2": 22,
    "arp": 2027,
    "Ġcalcul": 3636,
    "Ġune": 4597,
    "Ġbreaking": 6310,
    "Ġdilig": 8350,
    "approaching": 15010,
    "Ġsomnambul": 26575,
    "Ġearned": 19403,
    "Ġthe": 270,
    "Ġkicks": 19767,
    "bride": 19198,
    "ī": 236,
    "honest": 17002,
    "leaped": 17843,
    "Ġgpus": 3731,
    "Ġadmiring": 16479,
    "Ġvinegar": 20098,
    "Ġextort": 22719,
    "emy": 14071,
    "Ġsnowy": 9016,
    "Ġgrieve": 14705,
    "falsehood": 25901,
    "Ġdelic": 4132,
    "Ġheadstrong": 14386,
    "Ġbuildings": 24720,
    "ader": 14010,
    "Ġgraceful": 11295,
    "usations": 15945,
    "iro": 20913,
    "sockets": 22730,
    "run": 10720,
    "Ġkings": 7197,
    "used": 3258,
    "Ġcobb": 14270,
    "atics": 15521,
    "creatures": 7518,
    "Ġtigers": 25758,
    "Ġresnet": 5472,
    "Ġconjectured": 9995,
    "Ġhouses": 6138,
    "Ġrecords": 12192,
    "Ġcrowned": 16840,
    "Ġspence": 22124,
    "erated": 21269,
    "Ġoutsk": 15954,
    "Ġreadability": 2724,
    "Ġpronounced": 8351,
    "susceptible": 24661,
    "isters": 11916,
    "Ġsemi": 11965,
    "infernal": 24662,
    "guest": 19480,
    "Ġmourning": 13476,
    "Ġsufferer": 16257,
    "Ġunworth": 22032,
    "closing": 23154,
    "Ġhappened": 3712,
    "Ġcommons": 22670,
    "Ġbloss": 19255,
    "blending": 24127,
    "tears": 11035,
    "Ġsanguine": 25928,
    "Ġflood": 7716,
    "Ġmock": 3691,
    "Ġmotive": 6092,
    "Ġarchly": 22776,
    "Ġdetail": 634,
    "fellows": 12270,
    "ky": 4518,
    "Ġfreshet": 25704,
    "Ġtons": 11548,
    "iluvian": 18060,
    "Ġinsight": 16529,
    "Ġfish": 2710,
    "Ġcompass": 4408,
    "Ġscalding": 16330,
    "Ġembed": 1473,
    "71": 20755,
    "Ġori": 8409,
    "Ġwedding": 4857,
    "Ġfad": 17876,
    "lement": 10165,
    "Ġcherished": 10589,
    "Ġpainter": 19167,
    "largely": 19573,
    "Ġcolonies": 14373,
    "Ġdepended": 9775,
    "Ġbulge": 23855,
    "Ġu": 324,
    "Ġbodings": 21389,
    "Ġices": 21153,
    "quest": 4536,
    "ringle": 21039,
    "speech": 10665,
    "Ġoccupy": 14729,
    "^{": 15302,
    "conclusions": 25672,
    "summit": 23415,
    "brad": 20780,
    "lording": 24047,
    "going": 6313,
    "Ġoffice": 4964,
    "Ġanim": 2114,
    "knowing": 10436,
    "backed": 9864,
    ".âĢĿ": 464,
    "sentiment": 12910,
    "Ġadjac": 18292,
    "Ġpity": 4940,
    "Ġrheumatic": 20704,
    "Ġovertook": 18422,
    "stock": 13219,
    "aved": 5474,
    "inea": 7624,
    "Ġhell": 5018,
    "Ġthinner": 24181,
    "Ġattendant": 11284,
    "Ġhero": 5715,
    "agery": 21905,
    "Ġparent": 14644,
    "Ġmccarthys": 19661,
    "Ġrelaps": 18775,
    "Ġeddying": 16434,
    "appearance": 5332,
    "Ġentangled": 10342,
    "servants": 15036,
    "Ġmanufact": 22326,
    "Ġannounced": 9033,
    "Ġrashly": 20304,
    "cking": 4265,
    "Ġwipe": 25764,
    "engthen": 14455,
    "Ġan": 286,
    "isome": 17848,
    "ints": 3417,
    "Ġconstrued": 26301,
    "Ġfrederick": 15584,
    "Ġflattering": 13025,
    "Ġdisclosed": 15151,
    "Ġrubbed": 12951,
    "Ġassented": 17336,
    "Ġboiling": 8525,
    "thumb": 18218,
    "Ġmerciless": 25246,
    "î": 175,
    "Ġcountry": 2533,
    "Ġbund": 17863,
    "Ġsmiting": 12894,
    "ugging": 23289,
    "Ġbrood": 23099,
    "Ġfringe": 17270,
    "Ġcracking": 14572,
    "prince": 23812,
    "Ġcontradict": 12382,
    "Ġconscience": 6929,
    "etts": 12656,
    "Ġirrespective": 23373,
    "Ġdir": 21420,
    "Ġwashing": 9703,
    "Ġmagnifying": 16319,
    "com": 996,
    "worse": 14689,
    "merit": 19280,
    "Ġinvol": 1030,
    "Ġsurmisings": 26592,
    "lod": 15376,
    "divided": 25018,
    "caps": 20806,
    "most": 1257,
    "ergy": 2363,
    "Ġlens": 8438,
    "stream": 15683,
    "intment": 4718,
    "Ġmaimed": 21315,
    "presbyter": 20616,
    "Ġjackson": 24239,
    "Ġspermaceti": 8966,
    "leading": 15559,
    "Ġscra": 5840,
    "Ġache": 18663,
    "Ġallowed": 4058,
    "Ġsenate": 25214,
    "Ġdeceased": 15005,
    "ridge": 9495,
    "doms": 20834,
    "Ġincantation": 26257,
    "orted": 4602,
    "secret": 12233,
    "ę": 218,
    "Ġvulgarity": 25363,
    "lev": 1238,
    "epend": 3314,
    "barbar": 20237,
    "networks": 2407,
    "Ġ69": 19660,
    "get": 1020,
    "Ġoverpow": 14201,
    "dling": 9110,
    "inition": 11555,
    "Ġinsince": 23677,
    "Ġcrown": 5286,
    "Ġnich": 21518,
    "Ġlatterly": 24081,
    "Ġsqueaking": 26274,
    "Â·": 21148,
    "Ġprint": 18970,
    "serve": 13043,
    "Ġattract": 11829,
    "seek": 8835,
    "ature": 521,
    "Ġjealous": 9467,
    "Ġdesisted": 22973,
    "Ġgallons": 14816,
    "Ġcontinent": 14886,
    "Ġscales": 4848,
    "Ġaway": 1246,
    "Ġbarbaric": 10012,
    "Ġpreposter": 12818,
    "Ġloathed": 15873,
    "Ġswamp": 14434,
    "ela": 21567,
    "Ġfloundered": 18860,
    "Ġcontextually": 11956,
    "Ġpursue": 6314,
    "exper": 8877,
    "communication": 25881,
    "drugg": 20837,
    "Ġguarded": 9824,
    "Ġjacobian": 2891,
    "Ġlighten": 23258,
    "onds": 12992,
    "Ġenforced": 21936,
    "taffrail": 15441,
    "Ġholding": 4978,
    "Ġgrace": 5373,
    "Ġscanning": 18399,
    "true": 2586,
    "Ġspouts": 7730,
    "endless": 22224,
    "Ġinfluenced": 19631,
    "Ġvicious": 24402,
    "Ġcrotch": 9961,
    "Ġinterests": 14568,
    "expectation": 14854,
    "Ġconfines": 23304,
    "Ġcommunion": 19008,
    "Ġjove": 9266,
    "Ġdenny": 9000,
    "which": 1709,
    "Ġreputation": 11638,
    "Ġtints": 17726,
    "Ġviciss": 11291,
    "Ġwarring": 16864,
    "Ġwoe": 4792,
    "oration": 2208,
    "beryls": 25309,
    "Ġstanders": 19014,
    "mopol": 15394,
    "roc": 9673,
    "bud": 10681,
    "Ġain": 6969,
    "Ġhydraul": 9512,
    "Ġsanction": 20024,
    "youngest": 19742,
    "Ġtechnically": 12363,
    "Ġnewspapers": 17185,
    "Ġsafe": 5102,
    "Ġwished": 3728,
    "Ġsentinel": 26065,
    "linked": 17592,
    "expression": 10546,
    "wretchedness": 17251,
    "Ġfe": 490,
    "Ġmurder": 4280,
    "Ġkrusenstern": 20713,
    "tenderly": 20529,
    "Ġhastened": 9003,
    "wing": 2519,
    "Ġnothing": 1358,
    "derer": 4599,
    "Ġdagger": 21436,
    "movement": 25577,
    "Ġinvestig": 10548,
    "âĢĿ--": 21814,
    "Ġborrowed": 17228,
    "Ġavast": 9918,
    "arms": 10172,
    "Ġrelied": 16193,
    "ersman": 11696,
    "inqu": 6121,
    "Ġdeposit": 17267,
    "Ġropes": 10747,
    "Ġbrute": 8925,
    "Ġresist": 7917,
    "Ġsmoke": 4713,
    "Ġpirates": 9072,
    "forbid": 14351,
    "Ġdens": 21423,
    "elephant": 12348,
    "Ġpewter": 17184,
    "Ġfavourably": 16360,
    "owder": 8448,
    "Ġinfirm": 19017,
    "Ġindef": 9188,
    "unguarded": 23668,
    "Ġbrand": 16185,
    "quit": 15759,
    "iza": 6255,
    "large": 6625,
    "Ġkindled": 19027,
    "Ġconspicuous": 13601,
    "Ġapple": 14166,
    "Ġepicures": 25880,
    "rew": 3647,
    "musical": 25340,
    "Ġendurance": 23143,
    "discover": 10538,
    "l": 80,
    "che": 3172,
    "ask": 857,
    "Ġmadman": 13149,
    "Ġencodings": 4774,
    "Ġrelease": 19289,
    "Ġfaithfully": 14885,
    "Ġmomentous": 16167,
    "una": 21867,
    "Ġshift": 2281,
    "anzas": 17840,
    "sweet": 8685,
    "Ġhose": 12623,
    "Ġcomputation": 964,
    "lowering": 16029,
    "Ġdisgu": 8206,
    "Ġgazes": 24091,
    "Ġscared": 14188,
    "billiard": 25334,
    "Ġfolds": 12203,
    "Ġdevoted": 6573,
    "Ġglistening": 12362,
    "Ġdistribution": 2019,
    "Ġnumerous": 6920,
    "Ġunseason": 22048,
    "Ġnarrative": 6215,
    "Ġboa": 22634,
    "Ġcocked": 12900,
    "Ġpall": 7583,
    "Ġwaving": 8575,
    "adventurous": 25361,
    "multiple": 15105,
    "Ġendeavored": 19301,
    "across": 10323,
    "places": 7880,
    "Ġimag": 2675,
    "90": 12429,
    "softened": 20408,
    "publ": 17637,
    "Ġhyster": 16872,
    "Ġhosmer": 6774,
    "Ġmeasureless": 14708,
    "âĢĿ": 354,
    "creator": 26380,
    "Ġdressing": 7090,
    "conceal": 25114,
    "Ġsoft": 1459,
    "Ġhardest": 18912,
    "Ġachieve": 3673,
    "apt": 727,
    "Ġdiscriminative": 4328,
    "Ġdiameter": 19866,
    "health": 13831,
    "Ġschoolmasters": 19719,
    "jol": 20924,
    "Ġfir": 17877,
    "first": 3934,
    "osed": 1960,
    "copy": 5132,
    "result": 12041,
    "Ġcold": 3028,
    "Ġgills": 17992,
    "begone": 12874,
    "Ġgenus": 24428,
    "ique": 8742,
    "ispiece": 19724,
    "necessities": 24305,
    "evidently": 20344,
    "ulum": 21861,
    "Ġtrouble": 3690,
    "Ġheightened": 8648,
    "Ġoverheard": 11768,
    "Ġbase": 5012,
    "Ġprofundities": 20452,
    "ught": 2752,
    "irations": 18170,
    "ä": 165,
    "Ġgoing": 2067,
    "Ġwes": 8777,
    "Ġgenerator": 3382,
    "hent": 12530,
    "Ġoffer": 4842,
    "Ġbit": 2961,
    "Ġthreading": 23400,
    "gely": 10699,
    "Ġcrumbs": 20639,
    "marks": 7346,
    "istry": 22107,
    "Ġplaid": 22598,
    "Ġreturning": 5324,
    "pent": 3494,
    "Ġhopkins": 23129,
    "Ġshelf": 12264,
    "Ġrefuse": 5739,
    "cannon": 22962,
    "us": 532,
    "roll": 9195,
    "extinguished": 16148,
    "Ġinspired": 2518,
    "Ġacquisition": 18899,
    "Ġexplored": 23515,
    "Ġtombed": 25160,
    "Ġcontrolled": 23250,
    "surrounded": 26088,
    "Ġplat": 8520,
    "izzy": 3093,
    "Ġ166": 25004,
    "Ġhaz": 12751,
    "Ġstarlight": 24627,
    "Ġsimulates": 2740,
    "anted": 5026,
    "niece": 20994,
    "Ġseems": 2482,
    "retched": 3064,
    "Ġwatchman": 23667,
    "Ġconfirm": 9854,
    "Ġjunk": 15951,
    "Ġgreatly": 5849,
    "95": 17476,
    "Ġaloud": 6252,
    "Ġalb": 14014,
    "involuntarily": 20413,
    "Ġstab": 10861,
    "Ġreplaced": 13069,
    "Ġtort": 5902,
    "Ġgilt": 21604,
    "Ġwreaths": 25937,
    "Ġinboard": 17932,
    "Ġhypothesis": 14780,
    "Ġunimportant": 22026,
    "Ġabandonment": 25603,
    "Ġdemo": 10879,
    "Ġmid": 2615,
    "Ġdusky": 13547,
    "Ġtou": 15465,
    "Ġhuff": 21488,
    "supp": 4160,
    "iful": 2881,
    "Ġholder": 6724,
    "Ġsmells": 8888,
    "flatter": 23964,
    "Ġimproves": 22742,
    "supplement": 14795,
    "Ġunholy": 26218,
    "Ġwinking": 17793,
    "Ġrecesses": 17259,
    "Ġhunt": 6183,
    "Ġroarings": 25301,
    "rs": 7808,
    "Ġobscured": 15009,
    "Ġsuited": 12781,
    "Ġwore": 6377,
    "Ġthoroughly": 8348,
    "Ġapologized": 25198,
    "Ġequin": 14494,
    "]": 65,
    "Ġpossibly": 4512,
    "Ġlaughed": 5058,
    "woe": 21134,
    "Ġbumps": 21390,
    "Ġbanish": 15567,
    "Ġlively": 5448,
    "marrying": 19546,
    "substance": 15229,
    "peleg": 16292,
    "Ġpangs": 15612,
    "hab": 1079,
    "Ġcustom": 5077,
    "devoted": 20015,
    "usions": 6159,
    "Ġbon": 8784,
    "Ġtigris": 25759,
    "Ġopposed": 11187,
    "announcement": 24561,
    "olds": 9309,
    "igms": 3042,
    "Ġlung": 7167,
    "_,âĢĻâĢĿ": 20399,
    "heartedness": 24827,
    "Ġspringing": 10517,
    "yield": 13807,
    "Ġrapt": 7225,
    "Ġthreat": 5153,
    "Ġinstigated": 18702,
    "stirring": 20424,
    "Ġpettiness": 24228,
    "Ġassistance": 6333,
    "bell": 7332,
    "Ġperverseness": 13652,
    "Ġkeels": 11060,
    "Ġrasc": 21972,
    "Ġsincerely": 7963,
    "Ġoutskirts": 17455,
    "caught": 8726,
    "Ġdiscernment": 15053,
    "Ġvalleys": 14917,
    "Ġties": 12523,
    "tasted": 17686,
    "Ġchair": 3660,
    "Ġcommunicates": 24546,
    "Ġlanc": 19763,
    "respectable": 19846,
    "Ġclosing": 11771,
    "Ġ[_": 15460,
    "Ġopal": 23625,
    "Ġpoky": 21478,
    "Ġfade": 21406,
    "uch": 878,
    "antage": 3879,
    "Ġblaming": 22928,
    "Ġagricultural": 26549,
    "Ġconver": 806,
    "Ġhan": 15615,
    "problems": 11433,
    "Ġunbecoming": 22060,
    "ernity": 18612,
    "Ġunsur": 22018,
    "Ġrecoil": 18692,
    "rah": 8137,
    "Ġlandlord": 5579,
    "Ġcasc": 15553,
    "Ġmighty": 4230,
    "Ġmotions": 8281,
    "Ġenl": 18188,
    "Ġceti": 24773,
    "tuesday": 17689,
    "Ġparacelsus": 15264,
    "rapid": 12666,
    "Ġwhere": 783,
    "Ġmodesty": 12813,
    "prudently": 21033,
    "pra": 15406,
    "corrid": 24483,
    "Ġdimly": 9486,
    "momentum": 4990,
    "Ġirre": 7468,
    "quake": 11678,
    "Ġugl": 12678,
    "Ġ1807": 26083,
    "ension": 6569,
    "Ġgruff": 21612,
    "farintosh": 24552,
    "Ġflounders": 23011,
    "Ġuns": 15834,
    "Ġmag": 1432,
    "Ġpresenting": 18988,
    "Ġimperson": 14216,
    "agree": 14065,
    "whenever": 11878,
    "Ġcarbuncle": 14443,
    "ittered": 18439,
    "Ġscenarios": 26541,
    "chase": 11643,
    "ateg": 1396,
    "Ġprop": 1684,
    "Ġillustrate": 25065,
    "Ġconsummate": 25310,
    "Ġunheeded": 18258,
    "idered": 4551,
    "ernsey": 8900,
    "Ġperemptorily": 17365,
    "fl": 3599,
    "Ġprudential": 17919,
    "Ġcosmopolitan": 20640,
    "Ġquarters": 8619,
    "Ġcharms": 11129,
    "Ġrefusing": 11027,
    "atmosphere": 21263,
    "Ġethics": 15461,
    "casks": 20401,
    "wid": 10133,
    "Ġwretchedness": 9025,
    "rug": 18336,
    "Ġken": 22189,
    "Ġexpon": 967,
    "signed": 21060,
    "Ġrifts": 21973,
    "aut": 1912,
    "Ġeleven": 9388,
    "persuasion": 20042,
    "Ġintegral": 25008,
    "indirect": 22370,
    "Ġsquatted": 25841,
    "Ġearnestness": 12122,
    "organ": 15571,
    "Ġloun": 7166,
    "sartain": 25622,
    "found": 4214,
    "Ġloom": 7629,
    "Ġbawling": 25945,
    "ishing": 1145,
    "Ġdey": 11673,
    "Ġequilib": 4134,
    "lections": 4751,
    "Ġprincipal": 6496,
    "Ġastronomy": 25926,
    "Ġchocks": 13343,
    "unfearing": 21890,
    "Ġpresum": 4836,
    "lady": 4432,
    "umbling": 6758,
    "Ġquaff": 22412,
    "Ġslipped": 6492,
    "Ġdexterously": 25295,
    "20": 20752,
    "inching": 21188,
    "rifled": 21046,
    "Ġfailure": 13312,
    "Ġbou": 17852,
    "Ġsongs": 13418,
    "peculiarity": 23108,
    "fair": 10091,
    "Ġconveying": 19713,
    "Ġpersons": 6178,
    "turner": 19540,
    "Ġindispens": 22952,
    "collecting": 26081,
    "Ġmonkey": 8226,
    "roded": 17955,
    "¦": 104,
    "shad": 10979,
    "attended": 8951,
    "Ġfallen": 5968,
    "Ġeffaced": 18541,
    "better": 7119,
    "Ġsettling": 11061,
    "Ġantichronical": 26608,
    "Ġseat": 4948,
    "Ġpeaking": 22688,
    "Ġdebated": 9039,
    "fortunate": 4791,
    "Ġemboldened": 23014,
    "arily": 4124,
    "ding": 1234,
    "iscuits": 24666,
    "stump": 21645,
    "Ġissues": 9540,
    "loud": 11499,
    "jep": 20925,
    "Ġtrout": 22362,
    "lesc": 11037,
    "Ġislands": 6766,
    "Ġtug": 11549,
    "separated": 20158,
    "person": 7746,
    "Ġstained": 11650,
    "Ġhaw": 10250,
    "d": 72,
    "Ġlosing": 10915,
    "Ġ2026": 12332,
    "reach": 17756,
    "77": 15298,
    "Ġemb": 1281,
    "als": 2043,
    "liked": 10507,
    "omely": 21657,
    "Ġhighly": 4843,
    "Ġhollowly": 24525,
    "waste": 21133,
    "Ġrhine": 12353,
    "Ġincluding": 2846,
    "isure": 6240,
    "dÃ¦mon": 17526,
    "Ġglared": 13014,
    "Ġpalaces": 24088,
    "Ġproducing": 11896,
    "ivery": 17571,
    "Ġgordon": 26466,
    "Ġsoaring": 22084,
    "pen": 1204,
    "Ġrighted": 23179,
    "Ġtype": 2020,
    "judge": 13334,
    "Ġscal": 1613,
    "Ġmatches": 14394,
    "Ġsuperlatively": 26075,
    "Ġample": 11795,
    "consequence": 9761,
    "Ġ180": 16605,
    "ieth": 10703,
    "floated": 24643,
    "Ġ76": 24261,
    "ictions": 14225,
    "pressing": 19013,
    "ĠĠĠĠĠĠĠĠĠĠĠĠĠĠĠĠĠ": 22947,
    "Ġunsc": 22010,
    "Ġexpect": 2304,
    "Ġcasually": 25093,
    "retion": 9360,
    "Ġharpooneers": 4730,
    "Ġhobbling": 25644,
    "Ġitaly": 10866,
    "spikes": 10340,
    "Ġberyls": 25775,
    "barrels": 15040,
    "Ġeveryone": 8916,
    "ceased": 21624,
    "Ġwhales": 1829,
    "Ġbrut": 18769,
    "Ġexecut": 4247,
    "outer": 9667,
    "Ġostrich": 26429,
    "Ġprefer": 6416,
    "followed": 8339,
    "aring": 1476,
    "tempered": 13444,
    "Ġcruelty": 9967,
    "shriek": 20518,
    "iew": 2447,
    "ggling": 19096,
    "Ġstript": 23692,
    "sou": 12502,
    "Ġloos": 15869,
    "oughed": 22079,
    "passion": 11258,
    "Ġshade": 6550,
    "Ġprudent": 9184,
    "Ġinvari": 6529,
    "Ġindividually": 22955,
    "independ": 15979,
    "suggest": 20374,
    "Ġstaircase": 20094,
    "mountain": 10712,
    "uguese": 20731,
    "heat": 15496,
    "gir": 8083,
    "Ġglistened": 20171,
    "dripping": 16904,
    "finer": 17545,
    "endeavouring": 15014,
    "repaid": 24490,
    "Ġalternating": 15029,
    "Ġguidance": 9415,
    "sleeve": 26108,
    "Ġpence": 17905,
    "Ġdivinely": 25723,
    "Ġapprised": 18359,
    "Ġchim": 5933,
    "attempt": 9358,
    "Ġenduring": 16301,
    "ĠarchÃ¦": 22777,
    "Ġrecess": 10846,
    "Ġfantastic": 10057,
    "Ġthoughtfulness": 18773,
    "rie": 2786,
    "Ġbind": 12578,
    "Ġlaborious": 13101,
    "strangely": 17275,
    "Ġsheath": 14150,
    "achment": 5463,
    "Ġbrah": 19355,
    "Ġstabbed": 25456,
    "Ġunwritten": 22030,
    "Ġanyone": 4458,
    "Ġicy": 10746,
    "plain": 1357,
    "Ġflann": 23010,
    "blown": 25201,
    "Ġswung": 6449,
    "mand": 3894,
    "legra": 10788,
    "Ġinvincible": 23478,
    "Ġfiftieth": 24703,
    "Ġunimag": 12770,
    "Ġpreferment": 19852,
    "thirty": 12758,
    "Ġproperty": 6450,
    "Ġrandomly": 1920,
    "dragged": 16607,
    "did": 3195,
    "Ġcontinuously": 23206,
    "compl": 6873,
    "Ġmocking": 24000,
    "Ġthickets": 24020,
    "Ġportent": 12078,
    "Ġtrucks": 19511,
    "Ġstolen": 14005,
    "Ġscreams": 24604,
    "Ġexhilarating": 26337,
    "Ġlearnedly": 23384,
    "py": 17623,
    "Ġcannibals": 10586,
    "ubl": 3594,
    "P": 52,
    "Ġcollar": 11876,
    "Ġwelfare": 12555,
    "tomb": 21092,
    "sal": 8757,
    "Ġdramat": 23217,
    "Ġnav": 5818,
    "Ġevil": 3807,
    "peculiar": 6886,
    "Ġming": 9644,
    "aits": 20765,
    "Ġrecollections": 10511,
    "Ġhighest": 3529,
    "Ġoverwhel": 8195,
    "Ġmoderately": 22212,
    "rabb": 15677,
    "Ġlocker": 16910,
    "henomen": 10493,
    "commend": 19991,
    "Ġmoving": 1681,
    "Ġdishonoured": 20389,
    "Ġmethods": 3161,
    "aux": 14287,
    "coal": 12021,
    "Ġreceptive": 1563,
    "Ġoutstanding": 22314,
    "Ġcompression": 18145,
    "Ġtranspointed": 22464,
    "mitted": 5212,
    "Ġboon": 22636,
    "ards": 2505,
    "Ġapolog": 9042,
    "Ġemac": 16404,
    "mouth": 9129,
    "haz": 17563,
    "Ġapplication": 2012,
    "kered": 18274,
    "oblivious": 26581,
    "Ġverses": 17063,
    "Ġpractical": 3165,
    "teringly": 21821,
    "Ġcannot": 1667,
    "Ġunch": 18236,
    "Ġcomprehen": 5348,
    "Ġdidst": 11846,
    "Ġopposition": 16520,
    "Ġdug": 21429,
    "Ġdimensions": 16570,
    "Ġlvi": 21551,
    "Ġdifferences": 18715,
    "Ġwrig": 13064,
    "j": 78,
    "âĢĻ,": 14068,
    "Ġmedium": 16680,
    "ingu": 2120,
    "entials": 22662,
    "Ġneatly": 17015,
    "antediluvian": 24345,
    "Ġirresolute": 24916,
    "Ġopinions": 9413,
    "Ġassured": 4372,
    "Ġhilarious": 20297,
    "Ġfuture": 1109,
    "Ġyear": 3283,
    "Ġunhappy": 5640,
    "Ġbeseeching": 26311,
    "Ġinvestigation": 9041,
    "Ġthreatening": 16827,
    "bruary": 15233,
    "Ġunaccount": 22023,
    "Ġevinced": 7100,
    "ogene": 18674,
    "Ġconge": 15743,
    "Ġslashing": 23171,
    "Ġtrusty": 24102,
    "Ġmending": 17804,
    "Ġfished": 21409,
    "Ġcrime": 4615,
    "ribute": 7227,
    "Ġhelpless": 8302,
    "Ġblush": 14400,
    "yed": 3270,
    "understood": 13214,
    "Ġaccepted": 7751,
    "aly": 1125,
    "Ġdromed": 15594,
    "ibid": 18840,
    "Ġoverhung": 15964,
    "Ġundergo": 23237,
    "Ġblushed": 12998,
    "gu": 3956,
    "Ġbells": 19600,
    "Ġafghan": 22627,
    "Ġneither": 3686,
    "Ġjavan": 24999,
    "Ġchaff": 18383,
    "Ġexpenses": 11832,
    "Ġmazes": 25940,
    "allows": 15905,
    "Ġemph": 14524,
    "Ġjav": 7903,
    "darcy": 5207,
    "ahawk": 23315,
    "ip": 556,
    "Ġ24": 13189,
    "deficient": 23117,
    "Ġimproper": 22741,
    "boiling": 19001,
    "proble": 9392,
    "apside": 22960,
    "Ġdents": 13909,
    "foundation": 16714,
    "Ġ3": 3985,
    "Ġresearches": 13130,
    "Ġcrowds": 14737,
    "Ġpresided": 20206,
    "slo": 17655,
    "ĠĠĠĠĠĠĠĠĠĠĠĠĠĠĠĠĠĠĠĠĠĠĠĠĠĠĠĠĠĠĠ": 19699,
    "utional": 17983,
    "Ġcanv": 7009,
    "Ġol": 17814,
    "shipmates": 11925,
    "Ġ2": 2926,
    "oat": 13762,
    "Ġlub": 15646,
    "Ġderives": 16308,
    "severe": 21816,
    "safety": 20348,
    "Ġtiger": 11553,
    "Ġbeheld": 4491,
    "fearfully": 25116,
    "Ġwed": 3960,
    "ke": 429,
    "ass": 540,
    "additional": 20462,
    "any": 3337,
    "librarian": 26567,
    "anders": 18152,
    "Ġunforeseen": 22049,
    "fits": 13716,
    "Ġhummed": 18777,
    "bulkington": 19924,
    "bler": 11471,
    "Ġfixing": 13154,
    "Ġeducated": 16784,
    "Ġkindling": 19028,
    "Ġrehearsed": 25971,
    "ojo": 7349,
    "Ġplant": 8898,
    "Ġtorch": 25030,
    "ensibility": 22545,
    "Ġwrite": 3822,
    "joined": 13273,
    "Ġstore": 8453,
    "ads": 5718,
    "Ġgrief": 4619,
    "Ġspare": 5101,
    "tarpaulins": 26404,
    "Ġpuffed": 14975,
    "Ġpag": 6011,
    "ulence": 15763,
    "iliary": 21724,
    "Ġomitted": 12560,
    "Ġaudience": 24769,
    "Ġmanif": 8869,
    "member": 20974,
    "box": 5749,
    "Ġuplifted": 11645,
    "asable": 21539,
    "sails": 7498,
    "Ġchose": 7413,
    "breathing": 25335,
    "Ġtropical": 17065,
    "Ġspades": 12792,
    "dishon": 20402,
    "Ġpencils": 23196,
    "Ġflitting": 13022,
    "Ġunreasonably": 17449,
    "Ġconsulting": 13427,
    "Ġdefile": 18823,
    "================================================================": 9988,
    "Ġcolumbus": 26563,
    "Ġbaff": 10798,
    "Ġwip": 13851,
    "Ġdiffident": 23781,
    "Ġfat": 3464,
    "mix": 20973,
    "Ġlimping": 23544,
    "ropy": 1102,
    "Ġaffected": 5575,
    "Ġincreasingly": 9369,
    "loun": 17587,
    "Ġinsatiable": 19271,
    "Ġval": 968,
    "easy": 9591,
    "Ġpolar": 9409,
    "Ġloveliest": 20260,
    "your": 1984,
    "Ġrooted": 13167,
    "Ġcongratulate": 9062,
    "wondering": 19844,
    "Ġpond": 13914,
    "Ġgurglings": 26464,
    "ceremony": 20588,
    "Ġspray": 7895,
    "Ġstill": 1157,
    "yra": 8103,
    "Ġmadam": 5663,
    "Ġmind": 1622,
    "Ġrains": 24339,
    "Ġsteadfastly": 10650,
    "Ġfault": 5702,
    "atlantic": 15522,
    "Ġcher": 6129,
    "Ġscold": 10949,
    "_--": 20761,
    "Ġhaughty": 11448,
    "powerful": 24847,
    "Ġsets": 8773,
    "likeness": 19476,
    "els": 1765,
    "Ġpleasant": 4169,
    "Ġears": 4489,
    "Ġga": 4445,
    "Ġstuffed": 13407,
    "Ġunfathomably": 25873,
    "vap": 13801,
    "poster": 11055,
    "Ġstairs": 5539,
    "Ġpos": 1008,
    "succeeded": 15173,
    "Ġclubb": 22356,
    "willingness": 24755,
    "Ġheavily": 6740,
    "falgar": 26130,
    "Ġhymn": 24517,
    "plenty": 14089,
    "inferences": 17738,
    "Ġchamp": 18381,
    "determine": 19942,
    "travel": 24315,
    "Ġbreeding": 14521,
    "plendent": 21962,
    "aution": 9385,
    "Ġbird": 3756,
    "Ġworse": 4717,
    "whispering": 26103,
    "stretch": 13974,
    "Ġfiltering": 23923,
    "Ġkentuckian": 26342,
    "Ġunbroken": 18247,
    "reated": 10301,
    "?--": 15301,
    "_âĢĶ": 11466,
    "Ġdecapitated": 20614,
    "belief": 13279,
    "Ġquick": 2581,
    "Ġdecency": 18487,
    "Ġans": 1645,
    "Ġlashings": 25097,
    "Ġfif": 4218,
    "shirt": 22441,
    "net": 1196,
    "Ġcoloured": 11044,
    "proved": 11983,
    "Ġclaws": 15970,
    "usal": 7639,
    "ots": 3293,
    "disappearing": 23500,
    "Ġcastaway": 16639,
    "Ġfortifications": 23619,
    "neighb": 16024,
    "Ġproficiency": 19191,
    "Ġ": 225,
    "voice": 7817,
    "death": 6261,
    "Ġ106": 24413,
    "Ġlearned": 2024,
    "kill": 13742,
    "prehensible": 12357,
    "Ġgardiner": 3237,
    "Ġporch": 19679,
    "quarried": 24945,
    "Ġsank": 5075,
    "Ġtusks": 17252,
    "keepers": 16658,
    "Ġmurderer": 4979,
    "des": 1566,
    "Ġtimely": 19593,
    "é": 170,
    "Ġprices": 15609,
    "faced": 8080,
    "Ġobvious": 4963,
    "accessory": 25499,
    "door": 6193,
    "endent": 15920,
    "Ġshortly": 6196,
    "Ġplot": 14278,
    "hic": 3247,
    "saturday": 14856,
    "Ġdeliciousness": 24124,
    "glasses": 11214,
    "Ġscorch": 20065,
    "Ġhumor": 11050,
    "Ġplacing": 8899,
    "Ġequilibrium": 4139,
    "Ġhardship": 18913,
    "thoroughly": 26506,
    "Ġpursuers": 13224,
    "Ġsuspecting": 14908,
    "Ġdiffers": 23779,
    "Ġtre": 2537,
    "Ġoars": 3897,
    "misery": 13341,
    "Ġjabbering": 22301,
    "oquence": 11385,
    "Ġrad": 4961,
    "ette": 15656,
    "Ġaudible": 19880,
    "Ġ91": 24590,
    "Ġhappier": 10358,
    "Ġhurt": 7701,
    "Ġsyrian": 18353,
    "Ġwidower": 24234,
    "Ġthereof": 22366,
    "Ġwinc": 9641,
    "Ġcrucifix": 26079,
    "Ġinfant": 11957,
    "txt": 12512,
    "Ġhaggard": 17328,
    "Ġoccurring": 2791,
    "Ġreputed": 18035,
    "Ġenabling": 1081,
    "Ġaffirmative": 15220,
    "Ġthat": 335,
    "violent": 14579,
    "Ġproject": 5544,
    "Ġflogged": 23624,
    "Ġmasking": 2421,
    "Ġpetticoat": 15293,
    "Ġchord": 22243,
    "articulate": 17396,
    "distinguished": 10525,
    "delight": 5343,
    "riumph": 4918,
    "evening": 7089,
    "Ġlately": 6387,
    "related": 24009,
    "Ġstrange": 2272,
    "Ġprophesy": 26061,
    "Ġisle": 8831,
    "Ġpreserve": 7530,
    "_.âĢĿ": 5886,
    "Ġprobed": 18734,
    "Ġcasked": 24496,
    "Ġdependen": 1830,
    "Ġgratification": 24093,
    "simon": 16972,
    "Ġscener": 10948,
    "Ġtwopence": 18660,
    "Ġfinger": 5272,
    "Ġstockings": 19995,
    "Ġdeterminate": 23002,
    "host": 5867,
    "Ġmuttering": 10498,
    "Ġfixed": 2685,
    "Ġdevoured": 16134,
    "accepting": 20134,
    "Ġparmacetti": 20603,
    "noble": 7923,
    "Ġattentive": 9032,
    "Ġwriter": 11942,
    "Ġfiled": 15577,
    "each": 7335,
    "Ġwritten": 4167,
    "angles": 18295,
    "Ġsnap": 11199,
    "crack": 19839,
    "franch": 24283,
    "Ġstun": 11648,
    "dest": 4102,
    "Ġturned": 2134,
    "Ġanointing": 25539,
    "urning": 12912,
    "ostentatious": 20651,
    "Ġfull": 2177,
    "Ġwings": 9162,
    "Ġven": 4646,
    "Ġblacksmith": 6595,
    "Ġsplinters": 15100,
    "itty": 3554,
    "Ġhoof": 23352,
    "Ġhesitating": 16946,
    "Ġrecital": 16140,
    "Ġfrantically": 23257,
    "Ġtruest": 16702,
    "consp": 18504,
    "obli": 23093,
    "Ġbut": 424,
    "ners": 3269,
    "Ġlistless": 16475,
    "Ġlowermost": 23242,
    "Ġimbecile": 17390,
    "acca": 23596,
    "Ġamaze": 22481,
    "unearthly": 19272,
    "customary": 25895,
    "Ġarchitecture": 1111,
    "flung": 16637,
    "Ġfeast": 10276,
    "Ġbutler": 18270,
    "Ġallegor": 25545,
    "Ġsuspected": 9061,
    "Ġesq": 15106,
    "aviour": 11003,
    "Ġbloodshed": 23799,
    "Ġtwice": 4660,
    "Ġsatire": 22899,
    "mense": 4779,
    "Ġbunch": 11325,
    "iffe": 21900,
    "Ġaffliction": 25844,
    "beholding": 16037,
    "Ġtot": 4185,
    "Ġbully": 23854,
    "Ġhart": 17921,
    "Ē": 211,
    "Ġbarbarians": 19586,
    "Ġuntamed": 19163,
    "atever": 3075,
    "rasing": 21044,
    "Ġbehaved": 13251,
    "Ġhooded": 12403,
    "Ġflexible": 23773,
    "Ġgangs": 21607,
    "ser": 1428,
    "Ġtroubling": 26546,
    "Ġ49": 24078,
    "Ġcombat": 16184,
    "vex": 21696,
    "Ġunravel": 26214,
    "injury": 25213,
    "Ġembra": 6580,
    "Ġdissatisfied": 14255,
    "enger": 10772,
    "treated": 21093,
    "needles": 20313,
    "Ġsurviving": 24638,
    "Ġwhims": 12688,
    "Ġactionable": 24558,
    "Ġdeclared": 5593,
    "Ġapproved": 16031,
    "Ġamongst": 8958,
    "urday": 13993,
    "Ġcane": 10926,
    "ricted": 15419,
    "poises": 11888,
    "extending": 22764,
    "Ġimpulses": 19960,
    "Ġdimens": 3150,
    "inked": 12909,
    "Ġconfirming": 25321,
    "coburg": 13596,
    "Ġabsolut": 3910,
    "Ġredeem": 20498,
    "Ġdrunkard": 20176,
    "rack": 18010,
    "Ġirksome": 13109,
    "move": 11851,
    "Ġderiv": 1737,
    "Ġarabic": 24980,
    "ferred": 16406,
    "Ġstupendous": 20499,
    "Ġrisk": 8039,
    "aning": 2251,
    "filled": 9593,
    "Ġwit": 3842,
    "Ġwax": 10775,
    "Ġjovial": 19232,
    "Ġcollapsed": 15079,
    "shot": 2097,
    "Ġsickle": 24244,
    "Ġbiography": 22760,
    "Ġobject": 1397,
    "Ġharder": 14447,
    "Ġajar": 21201,
    "Ġinclude": 1875,
    "Ġhighlands": 22774,
    "Ġsublim": 19965,
    "Ġdictionary": 15110,
    "catch": 17505,
    "jumping": 20244,
    "Ġlaure": 16908,
    "Ġtrains": 10946,
    "fainting": 20471,
    "Ġhinge": 25541,
    "Ġtout": 17718,
    "Ġpooh": 18603,
    "corn": 13697,
    "Ġmusket": 12293,
    "Ġconsisted": 10418,
    "Ġsque": 18758,
    "Ġphilosopher": 12180,
    "itors": 2912,
    "eting": 7169,
    "Ġexempt": 21826,
    "goodbye": 12053,
    "Ġslice": 23161,
    "Ġprov": 4400,
    "Ġrefer": 18697,
    "presum": 12863,
    "Ġtoilings": 24742,
    "Ġvill": 3878,
    "Ġsect": 17750,
    "Ġmagn": 1555,
    "Ġhelmeted": 19687,
    "Ġpeculiarity": 12929,
    "ork": 416,
    "Ġstormy": 16727,
    "Ġcocksure": 26258,
    "Ġfinds": 6299,
    "ude": 7563,
    "approached": 13483,
    "hmael": 7342,
    "Ġincarn": 11811,
    "perform": 15899,
    "Ġcister": 13880,
    "Ġshaped": 15832,
    "entirely": 7782,
    "Ċ": 203,
    "Ġah": 5074,
    "bert": 4661,
    "resh": 8404,
    "Ġmoss": 9282,
    "Ġevidently": 6759,
    "crimes": 16696,
    "Ġsquaw": 22839,
    "Ġbending": 12581,
    "sters": 6391,
    "Ġpains": 5965,
    "Ġ181": 23892,
    "Ġexpl": 487,
    "Ġresumed": 11809,
    "Ġlantern": 7116,
    "Ġphren": 8571,
    "iards": 17573,
    "knives": 14911,
    "tram": 19634,
    "Ġskil": 14349,
    "Ġcracked": 8593,
    "Ġscratch": 25564,
    "Ġnavy": 14914,
    "omed": 13977,
    "estim": 14167,
    "Ġmarlings": 23034,
    "Ġaltering": 18102,
    "Ġbroker": 23100,
    "Ġmaiden": 13384,
    "irous": 8837,
    "Ġowning": 18744,
    "Ġsoap": 14131,
    "Ġdepth": 2439,
    "Ġauthor": 4375,
    "'s": 2470,
    "Ġwaist": 6892,
    "Ġveracity": 23887,
    "Ġrucastle": 5175,
    "eskye": 21449,
    "Ġanswered": 2850,
    "bled": 5468,
    "Ġheadsman": 13272,
    "Ġprecisely": 6466,
    "Ġtrembling": 7482,
    "Ġbridal": 14952,
    "Ġcreditors": 20128,
    "Ġoceans": 7996,
    "Ġunostentatious": 22066,
    "Ġcaved": 21351,
    "Ł": 258,
    "Ġquickly": 4241,
    "Ġcut": 2643,
    "hanging": 10099,
    "!_âĢĿ": 11375,
    "Ġearthquake": 14627,
    "Ġslain": 8953,
    "rants": 13776,
    "unnatural": 15770,
    "esting": 7412,
    "savagery": 25025,
    "Ġmankind": 6698,
    "Ġpunctually": 17137,
    "Ġcomprehens": 8320,
    "enty": 2914,
    "amped": 12030,
    "Ġunconcerned": 20508,
    "Ġrigging": 5599,
    "Ġretiring": 16279,
    "Ġthem": 638,
    "cheerfulness": 20179,
    "Ġtattoo": 7359,
    "call": 8722,
    "Ġgour": 21596,
    "Ġmadly": 16484,
    "Ġharpoon": 3615,
    "Ġlow": 1648,
    "security": 26206,
    "Ġwrithing": 11943,
    "Ġoriginated": 24120,
    "Ï": 144,
    "enjoyment": 17256,
    "Ġunsettled": 14120,
    "allic": 12809,
    "raved": 18012,
    "profound": 16424,
    "Ġconcerning": 4068,
    "Ġdeser": 3887,
    "Ġalders": 21782,
    "Ġstout": 6025,
    "Ġponder": 6819,
    "Ġcapital": 7980,
    "Ġconference": 15744,
    "Ġobligations": 12088,
    "Ġdevelopment": 7058,
    "reported": 24492,
    "Ġser": 1674,
    "Ġwhither": 10213,
    "Ġhair": 3313,
    "Ġendeavoured": 4917,
    "prick": 19341,
    "ssing": 3810,
    "humoredly": 26324,
    "beware": 16036,
    "Ġcoasts": 12160,
    "Ġpeter": 10534,
    "ises": 3652,
    "Ġadmirably": 16480,
    "Ġforesee": 19125,
    "supportable": 12367,
    "Ġdropout": 1558,
    "twilight": 23700,
    "Ġprominence": 18953,
    "Ġfoster": 18991,
    "Ġaboriginal": 14187,
    "Ġeffectually": 16165,
    "mushroom": 26394,
    "Ġcuff": 17829,
    "Ġdifficulties": 11224,
    "Ġcounterpart": 24721,
    "hunters": 16832,
    "Ġhugest": 17014,
    "Ġlouisa": 13544,
    "Ġpurch": 6599,
    "Ġviolence": 5963,
    "Ġangel": 4851,
    "Ġsleeves": 10659,
    "Ġquivered": 18467,
    "Ġoriginally": 7304,
    "yd": 21141,
    "cheer": 9435,
    "resist": 8276,
    "Ġmaternal": 11058,
    "Ġdaily": 5987,
    "jury": 15371,
    "willing": 6592,
    "Ġvariation": 22663,
    "Ġdecently": 22449,
    "aim": 2757,
    "ante": 11718,
    "Ġ117": 19696,
    "lyph": 10851,
    "Ġbasket": 9571,
    "Ġtriumphant": 12186,
    "Ġsus": 18277,
    "Ġamericans": 14741,
    "Ġpine": 8795,
    "Ġpark": 5464,
    "Ġcomplied": 14732,
    "Ġallen": 5159,
    "Ġprovides": 1929,
    "Ġinput": 608,
    "cas": 20793,
    "early": 20117,
    "Ġallude": 12776,
    "atigable": 15268,
    "Ġimpropri": 14213,
    "expense": 22427,
    "asher": 15643,
    "Ġdisent": 22521,
    "Ġirreproachable": 24917,
    "Ġspotted": 12135,
    "Ġfortitude": 9883,
    "Ġinhuman": 13927,
    "Ġineffect": 13928,
    "Ġscores": 2714,
    "transformers": 8714,
    "outre": 18320,
    "Ġaudacious": 13458,
    "Ġpleased": 4063,
    "Ġplaymate": 23637,
    "Ġunusual": 6553,
    "](": 11465,
    "barn": 17481,
    "oken": 4307,
    "Ġpalace": 16689,
    "Ġastern": 6091,
    "Ġmorrow": 9340,
    "affold": 16561,
    "Ġsavagely": 26323,
    "Ġduplicates": 17215,
    "Ġodd": 6624,
    "Ġunite": 9252,
    "Ġenrapt": 21937,
    "Ġpumps": 8427,
    "Ġplanted": 9772,
    "mockery": 24377,
    "Ġbeth": 9656,
    "Ġboasting": 19934,
    "Ġkelson": 18350,
    "Ġadvertising": 25389,
    "important": 7112,
    "Ġaccord": 4026,
    "Ġdeal": 3607,
    "Ġwaif": 9373,
    "Ġnearer": 5300,
    "Ġdoleful": 18377,
    "Ġmead": 8834,
    "brous": 19197,
    "Ġobli": 9314,
    "much": 3705,
    "Ġshelves": 14997,
    "Ġnugent": 26456,
    "Ġunjustifiable": 25109,
    "Ġ83": 24458,
    "Ġeagle": 13198,
    "Ġlabels": 3285,
    "Ġdad": 12596,
    "arches": 10815,
    "Ġbrain": 2089,
    "damp": 15341,
    "Ġback": 811,
    "Ġstaring": 8823,
    "deployment": 26526,
    "queg": 1771,
    "Ġtelesc": 12986,
    "Ġcakes": 13882,
    "Ġcooped": 22579,
    "Ġpoisonous": 24887,
    "Ġvomit": 21946,
    "abominable": 20592,
    "Ġskipper": 22796,
    "propagation": 1232,
    "sullenly": 26149,
    "jerked": 25618,
    "Ġwretch": 6378,
    "ression": 3404,
    "Ġoblige": 10487,
    "Ġmizzen": 20288,
    "Ġjogged": 26236,
    "nur": 11504,
    "flu": 9116,
    "acked": 10972,
    "solic": 16375,
    "correct": 24482,
    "âĢĻ": 378,
    "Ġhurts": 19111,
    "Ġcritic": 19124,
    "Ġmast": 2899,
    "Ġportions": 19367,
    "Ġcolleg": 22851,
    "concealed": 25115,
    "Ġgalvan": 21615,
    "scales": 22992,
    "inate": 6233,
    "stave": 21641,
    "Ġpatiently": 19917,
    "arying": 9799,
    "Ġswelling": 11922,
    "antee": 22095,
    "Ġexpiring": 16096,
    "portent": 25412,
    "Ġshort": 2224,
    "Ġinfinity": 23281,
    "Ġtedious": 15265,
    "Ġwarning": 9057,
    "Ġboast": 7034,
    "engaged": 7452,
    "Ġrobes": 16228,
    "Ġhack": 12752,
    "ira": 3957,
    "Ġraved": 22645,
    "Ġprovoked": 13323,
    "magistrate": 19862,
    "Ġglu": 15665,
    "Ġchorus": 10945,
    "breeze": 20561,
    "Ġgrass": 5176,
    "Ġstain": 18064,
    "div": 8076,
    "ignorantly": 25189,
    "had": 1950,
    "produ": 10719,
    "Ġauthoritative": 19560,
    "varying": 13802,
    "isc": 6239,
    "ict": 600,
    "visitor": 15058,
    "biscuit": 17499,
    "Ġgallantry": 15101,
    "already": 6980,
    "Ġmouldy": 14972,
    "hurried": 11352,
    "msman": 9268,
    "Ġfries": 21414,
    "ting": 1335,
    "commander": 16986,
    "Ġupp": 13990,
    "Ġthee": 2623,
    "fates": 20857,
    "dred": 2528,
    "loath": 22506,
    "Ġtransl": 2828,
    "Ġfake": 5810,
    "Ġsounding": 8265,
    "mp": 3726,
    "Ġdented": 17891,
    "Ġsavag": 19372,
    "luent": 15996,
    "princ": 8620,
    "half": 4930,
    "Ġforth": 3465,
    "cellar": 20276,
    "Ġarrive": 6907,
    "Ġrect": 18025,
    "0": 20,
    "chants": 21690,
    "talked": 14983,
    "Ġcompiled": 22568,
    "readiness": 19361,
    "ivates": 18275,
    "monster": 8591,
    "Ġdrew": 3537,
    "Ġdismissed": 12888,
    "Ġtarpaul": 17729,
    "Ġstrengthen": 20699,
    "Ġcarn": 17821,
    "Ġmightiest": 12956,
    "bottom": 11425,
    "ede": 21504,
    "Ġbuoyed": 20039,
    "lodged": 25907,
    "Ġdelighted": 5498,
    "Ġdividing": 12108,
    "Ġtrif": 6269,
    "Ġsul": 7571,
    "rons": 21038,
    "remained": 8569,
    "Ġrepel": 23358,
    "Ġpreceded": 13426,
    "Ġhag": 12621,
    "Ġslavery": 16307,
    "undoubtedly": 13308,
    "studied": 17148,
    "astonishment": 10028,
    "Ġpresumed": 10543,
    "Ġinclinations": 19538,
    "Ġgangway": 20157,
    "concl": 12865,
    "willingly": 11979,
    "Ġsnuffed": 15070,
    "oin": 17616,
    "Ġcalifornian": 25851,
    "stepfather": 19189,
    "previous": 9759,
    "Ġtangles": 25761,
    "Ġmouse": 4692,
    "uding": 16146,
    "lingly": 9771,
    "Ġprophet": 7682,
    "Ġhissing": 15787,
    "abbering": 21794,
    "Ġquarto": 17294,
    "artificial": 1028,
    "Ġhospitals": 24923,
    "(-": 2977,
    "Ġintend": 12760,
    "Ġsnatch": 14638,
    "Ġalarmed": 6923,
    "Ġbambooz": 26119,
    "Ġshoal": 12012,
    "Ġslaught": 23168,
    "Ġsacred": 10929,
    "Ġtopic": 9404,
    "uesday": 8587,
    "Ġfowls": 8690,
    "Ġtypewriting": 16419,
    "Ġopened": 3513,
    "Ġhistories": 14686,
    "Ġindulge": 10581,
    "Ġpencil": 11940,
    "Ġagitated": 7648,
    "Ġglassy": 19559,
    "Ġlower": 2663,
    "Ġbrightly": 13222,
    "bpp": 20771,
    "Ġwas": 370,
    "sharp": 10304,
    "Ġcosmopol": 16454,
    "Ġaunts": 21199,
    "Ġresp": 2495,
    "icest": 21562,
    "immortal": 21708,
    "Ġhomeless": 23385,
    "Ġvig": 5459,
    "Ġpresent": 1642,
    "Ġ31": 12127,
    "Ġswells": 9825,
    "Ġastonishment": 4793,
    "cceed": 4141,
    "Ġlengthwise": 10451,
    "Ġridic": 7509,
    "Ġinspecting": 24614,
    "obey": 11508,
    "Ġthroughout": 8875,
    "ornament": 23486,
    "shud": 18481,
    "hammer": 14488,
    "Ġfighting": 12194,
    "Ġcraft": 4376,
    "Ġchosen": 7201,
    "flesh": 13488,
    "Ġenergy": 2553,
    "Ġattends": 19649,
    "Ġreasonably": 11090,
    "Ġwakeful": 24265,
    "Ġbough": 13892,
    "enough": 6809,
    "ming": 3600,
    "Ġinquired": 7486,
    "Ġaside": 5233,
    "Ġinj": 4759,
    "Ġstacked": 21741,
    "quired": 21853,
    "Ġenclosure": 20622,
    "whiteness": 18370,
    "mid": 5616,
    "Ġallow": 1127,
    "Ġgases": 21600,
    "Ġslices": 23166,
    "omach": 11635,
    "ere": 6789,
    "Ġbroom": 18906,
    "================================": 5671,
    "ativeness": 15519,
    "ission": 6457,
    "wester": 21137,
    "atiate": 12544,
    "verb": 10215,
    "hs": 8378,
    "Ġpurplish": 19140,
    "Ġ8": 5432,
    ".âĢĶ": 4248,
    "confirmed": 19644,
    "rified": 15418,
    "Ġweaken": 21920,
    "800": 17475,
    "sets": 17659,
    "Ġforgot": 4682,
    "Ġlatitude": 8329,
    "woes": 21132,
    "Ġsomeone": 6703,
    "Ġelder": 7223,
    "Ġlawy": 9452,
    "Ġchas": 18379,
    "nihil": 9845,
    "prejudiced": 17295,
    "Ġinsolent": 13598,
    "draught": 12086,
    "Ġfled": 6670,
    "horr": 14598,
    "Ġhey": 11639,
    "Ġwrinkles": 8570,
    "Ġenlist": 21934,
    "perils": 22185,
    "Ġinstructive": 19284,
    "Ġconstrained": 19238,
    "Ġpower": 1273,
    "Ġingratitude": 17467,
    "Ġdistinctly": 7311,
    "Ġgable": 15664,
    "arbuck": 2025,
    "Ġhilarity": 20296,
    "Ġrecl": 16138,
    "Ġscaling": 3630,
    "Ġaries": 21196,
    "mention": 7215,
    "Ġlinen": 12404,
    "sequently": 14582,
    "Ġwrath": 16316,
    "Ġbewitched": 25975,
    "presents": 18799,
    "Ġcolds": 23756,
    "Ġinvariably": 8064,
    "south": 8758,
    "gone": 6504,
    "Ġunb": 10905,
    "rebellum": 26165,
    "Ġsports": 18310,
    "Ġconcuss": 19046,
    "Ġtahit": 10753,
    "unwittingly": 25801,
    "Ġsubsets": 2343,
    "Ġprize": 11946,
    "msprop": 2625,
    "Ġmacy": 19353,
    "dress": 17519,
    "Ġsweetheart": 19393,
    "Ġimmutable": 17356,
    "ore": 418,
    "Ġgushed": 21605,
    "vi": 2377,
    "Ġcomparative": 10541,
    "passing": 14810,
    "Ġfurnishes": 19439,
    "revolver": 25627,
    "Ġbee": 21747,
    "Ġcircumspection": 25884,
    "Ġstruggle": 3675,
    "pence": 15408,
    "Ġenjoy": 3760,
    "Ġwhar": 7388,
    "Ġfalse": 4344,
    "roses": 17956,
    "rushed": 10583,
    "Ġinexorable": 12252,
    "ateness": 15518,
    "Ġblundering": 26283,
    "Ġenemies": 9037,
    "ening": 3104,
    "Ġgowns": 25359,
    "Ġsprung": 11247,
    "Ġinsipid": 26313,
    "sheet": 16284,
    "Ġevap": 19622,
    "Ġmors": 17801,
    "Ġpow": 4636,
    "Ġcurling": 9341,
    "Ġdazed": 15593,
    "Ġlone": 11611,
    "sex": 12709,
    "Ġearls": 18903,
    "Ġbart": 17857,
    "Ġindulgence": 11318,
    "suitable": 18630,
    "Ġstre": 2109,
    "Ġshoulders": 5564,
    "Ġrod": 9278,
    "kitty": 10104,
    "imately": 12684,
    "Ġamid": 4958,
    "sunlight": 24851,
    "Ġentering": 6285,
    "wedged": 24337,
    "Ġclouded": 13288,
    "ife": 1023,
    "obtain": 23092,
    "Ġdie": 3962,
    "Ġforebodings": 17302,
    "moreover": 12965,
    "clerval": 7951,
    "Ġphilosop": 5056,
    "rals": 21041,
    "grave": 16092,
    "preserve": 25303,
    "Ġenhancement": 23787,
    "Ġwharf": 9558,
    "Ġspread": 5160,
    "Ġloathsome": 13526,
    "coarse": 16486,
    "Ġarrayed": 25664,
    "Ġcompletion": 12144,
    "reposed": 24491,
    "worked": 19018,
    "Ġgoes": 3853,
    "ional": 1085,
    "Ġfancied": 7326,
    "iom": 20914,
    "mightily": 24101,
    "Ġextending": 11020,
    "Ġwhirled": 14958,
    "play": 5098,
    "Ġtransition": 14241,
    "Ġcompliance": 12111,
    "henry": 16624,
    "pigs": 17139,
    "connected": 1310,
    "Ġpur": 2215,
    "Ġnew": 1197,
    "Ġcurrent": 13009,
    "Ġdelivered": 11115,
    "Ġcall": 2075,
    "o": 83,
    "ï": 176,
    "Ġaccomplishments": 13377,
    "uming": 8491,
    "zers": 21145,
    "Ġdem": 11672,
    "heavens": 19744,
    "Ġgathering": 14976,
    "Ġprotested": 9932,
    "traced": 19636,
    "Ġaltogether": 4830,
    "Ġfring": 11126,
    "Ġnavies": 16899,
    "Ġarchitectures": 2908,
    "Ġberth": 8679,
    "chie": 21688,
    "satisfy": 16891,
    "Ġprovoking": 16742,
    "march": 13753,
    "Ġoakshott": 12226,
    "Ġaspect": 3095,
    "ĠĠĠĠ": 460,
    "Ġsinister": 8568,
    "ense": 2053,
    "Ġeasy": 3455,
    "virtue": 20568,
    "Ġtwilight": 16119,
    "Ġfathom": 17047,
    "skull": 24487,
    "Ġstray": 18069,
    "follows": 24527,
    "Ġcomfits": 21850,
    "Ġwindigate": 18910,
    "ogy": 22698,
    "Ġbracing": 16579,
    "street": 6495,
    "Ġwoll": 21292,
    "Ġoppressive": 20454,
    "Ġinflexibly": 26370,
    "Ġfreshe": 13067,
    "breadth": 20275,
    "Ġmedical": 9462,
    "Ġsigmoid": 2463,
    "utting": 17984,
    "earn": 10695,
    "Ġfab": 15573,
    "desolation": 20448,
    "national": 20997,
    "ingolstadt": 21302,
    "Ġbathing": 20198,
    "Ġneeded": 7718,
    "ollen": 11297,
    "Ġlion": 9674,
    "Ġbulk": 5589,
    "Ġbrow": 3989,
    "Ġdated": 10938,
    "upper": 11537,
    "Ġrule": 1536,
    "Ġbrick": 8924,
    "Ġarist": 14158,
    "desponding": 26341,
    "Ġpalm": 10512,
    "jonah": 11495,
    "Ġamount": 8511,
    "Ġforgo": 21771,
    "Ġcumbrous": 26431,
    "adjust": 21758,
    "Ġcork": 12565,
    "reasonable": 7752,
    "Ġtrivial": 10141,
    "Ġlumps": 21554,
    "Ġcompleted": 8996,
    "Ġhue": 8429,
    "strained": 21650,
    "Ġthyself": 6602,
    "xt": 2082,
    "Ġchurch": 4709,
    "Ġseasonable": 24405,
    "Ġlunatic": 24992,
    "pervised": 1587,
    "Ġburnwell": 13266,
    ");": 7330,
    "Ġcolour": 4460,
    "mel": 9126,
    "aft": 9582,
    "floating": 12224,
    "vine": 10733,
    "Ġarranged": 9875,
    "Ġrecovered": 5480,
    "ignomin": 23265,
    "Ġrepenting": 25322,
    "Ġbowls": 23768,
    "Ġschedu": 1825,
    "Ġretreat": 6070,
    "mo": 863,
    "Ġfrightful": 7736,
    "Ġca": 21337,
    "eminently": 25105,
    "Ġdress": 4021,
    "Ġcomputes": 4767,
    "br": 2479,
    "converse": 22471,
    "Ġnation": 12643,
    "likely": 9021,
    "Ġreminisc": 18725,
    "zz": 4293,
    "asserted": 22307,
    "Ġriddles": 16731,
    "Ġcame": 1300,
    "Ġtreacher": 8604,
    "animals": 24738,
    "Ġcorrespondent": 19821,
    "expressing": 16800,
    "Ġthreatens": 24374,
    "Ġtrim": 15972,
    "Ġaffecting": 2322,
    "Ġrenewal": 12231,
    "Ġhearth": 11978,
    "Ġapplications": 4782,
    "Ġmerryweather": 9520,
    "Ġtorture": 9064,
    "_.âĢĻâĢĿ": 17478,
    "Ġpoll": 12026,
    "united": 14058,
    "Ġpallet": 21480,
    "Ġjoll": 11762,
    "got": 6955,
    "iary": 15368,
    "ugues": 19021,
    "wholly": 10940,
    "dually": 3281,
    "Ġinstability": 3814,
    "aint": 2542,
    "cy": 639,
    "Ġtelescopes": 25690,
    "Ġstating": 15719,
    "Ġneedn": 19227,
    "darkness": 9510,
    "Ġsang": 12531,
    "Ġobscurely": 20187,
    "asion": 5714,
    "aled": 3944,
    "Ġunexplored": 26517,
    "Ġobjective": 3766,
    "Ġ1000": 3116,
    "recovered": 19786,
    "eastern": 17532,
    "intentions": 22937,
    "Ġpromontory": 11938,
    "Ġsallies": 21228,
    "aware": 16293,
    "phants": 9318,
    "Ġfoolishly": 19781,
    "Ġlinguistic": 12422,
    "Ġbachelor": 7787,
    "Ġgunwale": 7325,
    "Ġmischie": 22758,
    "izon": 18133,
    "Ġcompute": 2904,
    "bey": 10313,
    "Ġdeserted": 8636,
    "Ġjacobians": 2892,
    "Ġuneasy": 8661,
    "Ġfollies": 16254,
    "Ġoffences": 18693,
    "Ġsomebody": 7913,
    "Ġdoublo": 6079,
    "*": 14,
    "Ġstudents": 23219,
    "Ġlovely": 4708,
    "Ġworkman": 16261,
    "Ġzeal": 9096,
    "olerable": 7182,
    "Ġdante": 21437,
    "aking": 974,
    "Ġtyphoon": 12386,
    "Ġtistig": 26412,
    "Ġmulti": 1045,
    "Ġtoken": 2039,
    "pitching": 24072,
    "Ġalas": 5922,
    "ptic": 21916,
    "Ġcrav": 19172,
    "Ġvitality": 15170,
    "Ġdecipher": 22453,
    "sip": 10724,
    "where": 2093,
    "irt": 3072,
    "kept": 11714,
    "gled": 10698,
    "residual": 19261,
    "Ġscare": 18396,
    "Ġcannibal": 7774,
    "estation": 15915,
    "Ġdifferent": 1431,
    "Ġthoughtfully": 12976,
    "Ġpadded": 25036,
    "vy": 21106,
    "Ġfitted": 6243,
    "partner": 19220,
    "Ġsebastian": 11693,
    "jeroboam": 25619,
    "sin": 21047,
    "Ġslipping": 13358,
    "Ġfeeds": 16432,
    "obedience": 17408,
    "pleasure": 5978,
    "Ġexecutors": 19532,
    "hamed": 6305,
    "Ġpersonality": 16476,
    "Ġaddressed": 5261,
    "Ġfetched": 24566,
    "ineer": 11700,
    "wich": 11542,
    "wished": 13803,
    "little": 3351,
    "Ġwon": 1666,
    "Ġpartaking": 22695,
    "apart": 15959,
    "Ġquaint": 18465,
    "elfth": 22367,
    "flutterings": 26605,
    "Ġpia": 21463,
    "Ġrigged": 16716,
    "Ġenvy": 13202,
    "Ġharb": 7370,
    "Ġfren": 10804,
    "Ġcruising": 6913,
    "mult": 8747,
    "Ġdeliberately": 10623,
    "Ġvisitors": 7985,
    "Ġnormal": 1203,
    "--": 1043,
    "immed": 9216,
    "Ġslowly": 3617,
    "cles": 8725,
    "Ġsupercil": 23453,
    "Ġswandam": 11088,
    "Ġcombing": 22856,
    "Ġtrials": 16788,
    "dance": 17518,
    "Ġviolent": 5116,
    "onious": 15517,
    "Ġconsol": 3816,
    "Ġlexic": 15721,
    "icher": 9201,
    "cruise": 24841,
    "Ġledgers": 23935,
    "Ġgrasped": 8034,
    "heaved": 21209,
    "Ġofficer": 6753,
    "Ġartic": 5313,
    "Ġamuse": 5940,
    "Ġbattering": 13899,
    "lone": 11498,
    "Ġobtaining": 16130,
    "arrang": 14651,
    "Ġclothe": 4710,
    "rom": 420,
    "hro": 20890,
    "Ġbellies": 13353,
    "aping": 8194,
    "Ġdandy": 17892,
    ")": 13,
    "thrust": 10260,
    "Ġhur": 2101,
    "same": 5360,
    "moments": 19410,
    "Ġobstinacy": 17419,
    "Ġantip": 24176,
    "Ġradiance": 13368,
    "Ġtaurus": 21177,
    "Ġdepends": 1106,
    "mody": 16180,
    "Ġincomplete": 17207,
    "minutes": 7513,
    "keys": 15856,
    "Ġjuggl": 20436,
    "Ġ7": 4744,
    "aunted": 20769,
    "Ġender": 11687,
    "Ġobstin": 14951,
    "Ġgrapnels": 25551,
    "Ġyield": 5092,
    "Ġbreathed": 11219,
    "arcy": 1274,
    "Ġpaper": 4282,
    "Ġobeisance": 19757,
    "Ġ65": 24367,
    "amusement": 15280,
    "surely": 10568,
    "Ġconsolation": 6208,
    "Ġetern": 7085,
    "Ġgomorrah": 21613,
    "Ġdodo": 9071,
    "ents": 1896,
    "altogether": 12635,
    "Ġauto": 23277,
    "planks": 21958,
    "Ġscept": 15502,
    "smitten": 23906,
    "igning": 12677,
    "cold": 9588,
    "tete": 10731,
    "Ġrector": 21674,
    "ucket": 2484,
    "Ġcalmly": 7734,
    "Ġpilgrimage": 17306,
    "iven": 1239,
    "Ġflesh": 5969,
    "Ġbasement": 24702,
    "Ġausten": 5881,
    "Ġdiabolically": 25513,
    "Ê": 139,
    "Ġbruited": 25773,
    "Ġunnearable": 26515,
    "Ġwith": 349,
    "Ġclapham": 17264,
    "hit": 20888,
    "cele": 21623,
    "jumped": 20245,
    "pagans": 25525,
    "Ġknocking": 10558,
    "Ġdinner": 4244,
    "Ġrosings": 4606,
    "Ġkills": 15904,
    "Ġeng": 1162,
    "Ġhyperborean": 26339,
    "Ġofficious": 19346,
    "Ġconstit": 8583,
    "Ġmummy": 25768,
    "Ġactiv": 835,
    "Ġfoolscap": 24157,
    "Ġassembl": 20059,
    "Ġshiver": 12763,
    "int": 1199,
    "Ġteasing": 11886,
    "erting": 17776,
    "intolerable": 22936,
    "Ġmanager": 11766,
    "pretty": 10620,
    "Ġreplacing": 3452,
    "rit": 21034,
    "Ġmatrimonial": 25489,
    "chemical": 23807,
    "ignorance": 17160,
    "hastened": 16844,
    "Ġeasier": 11164,
    "Ġworthy": 7241,
    "Ġreasoned": 23068,
    "Ġhopelessly": 16374,
    "longing": 23723,
    "Ġlecture": 13565,
    "delirium": 14783,
    "Ġproportions": 16467,
    "Ġinsc": 7586,
    "berg": 11855,
    "rush": 7010,
    "Ġsaviour": 20712,
    "elves": 2159,
    "Ġsymbols": 2795,
    "Ġnamed": 6139,
    "Ġsimilarity": 3168,
    "Ġverdure": 10611,
    "Ġarid": 22179,
    "Ġjoint": 12031,
    "whims": 22237,
    "sticking": 21652,
    "Ġspots": 11726,
    "Ġur": 5538,
    "Ġexpressly": 16453,
    "Ġduplicity": 25331,
    "Ġvales": 21944,
    "Ġplants": 22596,
    "disc": 4727,
    "alty": 17938,
    "Ġclerical": 25568,
    "uine": 13797,
    "Ġsparks": 22130,
    "absent": 21788,
    "Ġbaleen": 10035,
    "Ġcollateral": 20070,
    "belongs": 25596,
    "Ġgaped": 13965,
    "Ġrigid": 16715,
    "Ġcivilised": 24243,
    "Ġdowncast": 18652,
    "Ġenglishman": 11228,
    "Ġprotect": 6337,
    "tled": 3460,
    "Ġxx": 5491,
    "Ġplates": 11005,
    "Ġthackeray": 26454,
    "Ä": 133,
    "Ġdeduce": 8337,
    "Ġnameless": 7700,
    "Ġneuron": 1809,
    "injustice": 17736,
    "Ġshallow": 14393,
    "Ġquery": 2480,
    "sounded": 12263,
    "Ġyielded": 14870,
    "Ġbitterness": 8025,
    "Ġcompares": 20165,
    "Ġsolve": 4196,
    "Ġdeserving": 14751,
    "Ġcrashes": 13123,
    "Ġwindward": 6885,
    "Ġelud": 22641,
    "Ġ95": 19772,
    "Ġmodel": 509,
    "Ġconfederate": 17352,
    "Ġcontortions": 18476,
    "Ġburied": 7719,
    "¨": 106,
    "loveliness": 26548,
    "Ġpacific": 5152,
    "Ġdesist": 16236,
    "Ġfishy": 16523,
    "Ġwent": 1538,
    "interesting": 12198,
    "Ġinnocently": 24025,
    "Ġglancing": 5398,
    "Ġrever": 6536,
    "Ġstride": 22615,
    "Ġunallied": 22028,
    "glad": 9006,
    "capt": 3837,
    "Ġchiefly": 5766,
    "[": 63,
    "ourers": 21448,
    "Ġheard": 1402,
    "Ġtierce": 15477,
    "Ġwhaleman": 4653,
    "Ġchemist": 11133,
    "naught": 20993,
    "ought": 831,
    "Ġmodes": 22211,
    "Ġoutlandish": 12834,
    "Ġevermore": 18811,
    "traces": 24314,
    "ative": 734,
    "Ġsquat": 14366,
    "Ġhel": 3786,
    "Ġbrimming": 22867,
    "Ġver": 3393,
    "Ġprophes": 16347,
    "Ġdiscreet": 16481,
    "Ġnought": 21520,
    "hoisted": 19281,
    "Ġweal": 21918,
    "Ġabating": 22265,
    "Ġdearly": 10400,
    "Ġdiscl": 9795,
    "Ġlurid": 19680,
    "cab": 7333,
    "Ġthroat": 7771,
    "Ġsatur": 1930,
    "Ġsill": 10764,
    "Ġfrance": 7683,
    "Ġferocity": 16870,
    "Ġsnugly": 17110,
    "countryman": 24639,
    "Ġdisappoint": 24204,
    "inquir": 9534,
    "morning": 4858,
    "ruin": 22174,
    "Ġscraps": 16901,
    "Ġlustrous": 20155,
    "Ġof": 298,
    "exception": 9974,
    "Ġjo": 2608,
    "ħ": 232,
    "Ġfierce": 7437,
    "Ġstil": 15715,
    "Ġprocession": 11772,
    "Ġoutrages": 18414,
    "Ġabated": 18390,
    "@": 36,
    "Ġwanting": 6721,
    "Ġpaternal": 16384,
    "Ġoriginate": 24119,
    "estab": 14168,
    "breat": 10076,
    "Ġpolicy": 10456,
    "somers": 19366,
    "Ġterritories": 23843,
    "Ġmurmured": 7481,
    "Ġwarmest": 16483,
    "Ġcircumstance": 4986,
    "smooth": 20247,
    "othic": 16214,
    "Ġmaddened": 17243,
    "Ġequinox": 25855,
    "aur": 15306,
    "Ġwhether": 2000,
    "istan": 22106,
    "regiment": 16451,
    "Ġanomalously": 25638,
    "equal": 14991,
    "desolate": 25703,
    "harb": 9122,
    "uced": 13798,
    "Ġbarriers": 23793,
    "Ġdanish": 21430,
    "pos": 15409,
    "Ġdesires": 9455,
    "Ġhypothe": 4073,
    "Ġstalk": 12693,
    "rig": 7557,
    "roof": 17953,
    "Ġbead": 21748,
    "Ġoverspread": 14200,
    "Ġfool": 4235,
    "aper": 4998,
    "ui": 9143,
    "flowing": 14558,
    "Ġpremeditated": 22232,
    "Ġjust": 1242,
    "ouch": 2779,
    "Ġfondness": 16779,
    "months": 9070,
    "Ġstudent": 14476,
    "featured": 24083,
    "ouse": 1193,
    "ansion": 10924,
    "Ġdifference": 1489,
    "ishments": 9271,
    "Ġchimney": 6497,
    "Ġinstructing": 3121,
    "Ġimpious": 15984,
    "Ġpaste": 23417,
    "shattered": 22442,
    "Ġdetermined": 2221,
    "Ġdiscu": 4364,
    "anqu": 4109,
    "Ġundulated": 19515,
    "gris": 8260,
    "anks": 3917,
    "Ġphrase": 11186,
    "ĠĠĠĠĠĠĠĠĠĠĠĠĠĠĠĠĠĠĠĠĠĠĠĠĠĠĠĠĠĠĠĠĠĠĠĠĠĠĠĠĠĠĠĠĠĠĠĠĠĠĠĠĠĠĠĠĠĠĠĠ": 19259,
    "Ġc": 277,
    "Ġfluid": 11211,
    "Ġenjoined": 18191,
    "Ġrepul": 16407,
    "supposing": 24133,
    "netherfield": 9811,
    "Ġted": 13810,
    "Ġuncomfortable": 8485,
    "cious": 6643,
    "aches": 6570,
    "Ġbraced": 16578,
    "Ġunceasing": 20356,
    "Ġgettest": 23233,
    "Ġunho": 18242,
    "Ġent": 904,
    "Ġscrutiny": 26015,
    "Ġkick": 5837,
    "Ġbeh": 1800,
    "morland": 24152,
    "certain": 3676,
    "Ġhud": 10821,
    "combined": 20319,
    "Ġeluded": 12918,
    "Ġascribe": 16781,
    "Ġsyllables": 25298,
    "ping": 9614,
    "Ġchronicled": 25328,
    "Ġorphan": 12380,
    "Ġlomb": 21557,
    "ashes": 6016,
    "Ġtiara": 26414,
    "umbered": 22115,
    "Ġcommod": 10332,
    "Ġgather": 6534,
    "Ġdevils": 7230,
    "denial": 18717,
    "coronet": 16862,
    "Ġignorantly": 19494,
    "Ġquietly": 4565,
    "transition": 24509,
    "emorial": 10240,
    "dering": 5304,
    "Ġalso": 1344,
    "Ġcordon": 24393,
    "Ġabsor": 8504,
    "Ġpeevish": 26556,
    "unken": 10235,
    "Ġliberties": 19666,
    "bermaid": 20789,
    "Ġpained": 19166,
    "Ġstores": 18068,
    "sinking": 17667,
    "well": 1693,
    "Ġprepare": 8646,
    "Ġtherein": 11773,
    "Ġcommissionaire": 16999,
    "leaned": 21367,
    "Ġboundary": 11221,
    "ouncing": 8494,
    "Ġxxxix": 24970,
    "Ġpicking": 11257,
    "Ġbillow": 14777,
    "etian": 13957,
    "offers": 16392,
    "Ġwallow": 19464,
    "Ġtamer": 24978,
    "cushion": 20820,
    "bted": 7794,
    "Ġkindred": 16373,
    "Ġdisquiet": 18552,
    "Ġsepulchral": 25892,
    "medical": 23340,
    "Ġeastern": 11627,
    "Ġintensely": 17016,
    "Ġpitched": 9442,
    "Ġstretching": 10013,
    "Ġgranted": 22805,
    "Ġcompliment": 5673,
    "Ġdeficiencies": 26569,
    "Ġcring": 15549,
    "Ġxlvi": 25590,
    "Ġnourishment": 15190,
    "itche": 7579,
    "Ġtormented": 8674,
    "Ġsyntax": 957,
    "maritime": 24172,
    "tray": 21076,
    "Ġgroans": 14822,
    "etical": 13956,
    "Ġdesirable": 8940,
    "Ġcruellest": 19657,
    "Ġoarsman": 8637,
    "escaped": 14229,
    "Ġhid": 1321,
    "ays": 6683,
    "snow": 10723,
    "Ġmo": 629,
    "gia": 20875,
    "Ġgracechurch": 12195,
    "Ġlull": 15648,
    "Ġswept": 7978,
    "Ġreminded": 9997,
    "although": 8804,
    "Ġtho": 21512,
    "Ġcarrying": 6072,
    "Ġfeebly": 24877,
    "Ġchatbots": 11348,
    "stem": 567,
    "Ġanalyze": 1665,
    "wheeling": 22871,
    "Ġfortunately": 12176,
    "izarre": 17387,
    "Ġcompress": 21847,
    "inhabited": 13618,
    "deceit": 25556,
    "Ġbuy": 8300,
    "Ġfloats": 9411,
    "Ġmasoned": 20250,
    "judging": 24200,
    "Ġaslant": 21899,
    "Ġrightly": 13061,
    "osc": 18387,
    "ried": 925,
    "uplifted": 17694,
    "Ġmus": 3396,
    "Ġdisguise": 10044,
    "scattered": 22993,
    "Ġdames": 23472,
    "Ġlessons": 7693,
    "ift": 1609,
    "kindness": 10504,
    "upp": 10129,
    "canst": 22961,
    "function": 5604,
    "Ġexcused": 23312,
    "Ġentailed": 11026,
    "icherry": 15133,
    "perth": 22183,
    "Ġimpotently": 22388,
    "Ġguilt": 6180,
    "Ġhusbands": 16641,
    "satisf": 5781,
    "condem": 16342,
    "Ġmodified": 14165,
    "omeness": 18022,
    "alter": 10825,
    "Ġinsip": 19266,
    "Ġstepped": 7051,
    "Ġswiftness": 9925,
    "exc": 5168,
    "Ġ1894": 5195,
    "bee": 16034,
    "ulnerable": 18150,
    "Ġcumul": 4178,
    "ked": 5615,
    "punishment": 15143,
    "Ġlake": 5226,
    "Ġwhip": 8451,
    "barbaric": 26358,
    "Ġinheritance": 25355,
    "Ġperfect": 2557,
    "atched": 6375,
    "sized": 15427,
    "_?âĢĿ": 15303,
    "Ġperpendicularly": 11373,
    "Ġsteal": 16282,
    "joice": 9601,
    "Ġlads": 8596,
    "char": 3504,
    "Ġdoxology": 22242,
    "Ġpeddler": 24800,
    "instruct": 19541,
    "utherland": 9577,
    "osop": 4404,
    "tempestuous": 26097,
    "Ġstatistical": 11104,
    "Ġimmediate": 6090,
    "Ġconductor": 24004,
    "Ġdolphins": 20394,
    "Ġbear": 3656,
    "Ġnasty": 17441,
    "Ġimmediately": 3366,
    "Ġvolcano": 24145,
    "Ġsor": 4144,
    "Ġgrant": 11870,
    "ils": 3182,
    "Ġsafely": 9024,
    "Ġdatasets": 2391,
    "Ġcab": 2633,
    "Ġintervening": 17266,
    "Ġplays": 12034,
    "Ġfood": 5079,
    "Ġrecord": 5315,
    "helped": 18923,
    "pret": 7212,
    "Ġ41": 24076,
    "Ġcontracted": 12856,
    "endering": 21283,
    "terday": 4703,
    "footman": 17161,
    "Ġident": 2239,
    "Ġrokovoko": 22401,
    "commanding": 24752,
    "Ġslave": 7454,
    "Ġbrooded": 23102,
    "Ġbeatrix": 24203,
    "project": 16423,
    "Ġsurm": 7477,
    "Ġschools": 9475,
    "grown": 10098,
    "Ġobe": 5800,
    "Ġringbolts": 24195,
    "gings": 7550,
    "Ġdescending": 8901,
    "Ġcal": 1327,
    "Ġoakum": 16933,
    "Ġexplanatory": 22200,
    "arthly": 8030,
    "Ġjeopardy": 13594,
    "Ġmilk": 6485,
    "warks": 5003,
    "Ġtrooped": 24899,
    "warmth": 20051,
    "binder": 17498,
    "afterwards": 7485,
    "Ġray": 18638,
    "Ġcuriosity": 2485,
    "Ġdefence": 11066,
    "Ġcoars": 14269,
    "ĠĠĠĠĠĠĠĠĠĠĠĠĠĠĠĠĠĠĠĠĠĠĠĠĠ": 24441,
    "osing": 3689,
    "Ġconvergence": 973,
    "Ġformation": 2941,
    "Ġcomputing": 2219,
    "Ġpurchase": 12256,
    "blo": 6353,
    "Ġfeared": 5931,
    "Ġfrenzy": 13620,
    "Ġashen": 21897,
    "solution": 14685,
    "Ġgallon": 24183,
    "whosoever": 22238,
    "Ġanimating": 23422,
    "Ġadhering": 14138,
    "Ġfirmly": 8014,
    "bulk": 19923,
    "Ġpatentee": 25586,
    "Ġnailing": 21525,
    "ved": 868,
    "Ġly": 2268,
    "sy": 2650,
    "Ġjoints": 12032,
    "Ġterti": 14537,
    "Ġpike": 12619,
    "Ġraise": 6166,
    "Ġhail": 7400,
    "Ġabundantly": 17155,
    "Ġearthy": 23710,
    "task": 13791,
    "Ġspent": 3964,
    "Ġbetray": 7442,
    "Ġsignature": 16492,
    "voyages": 24855,
    "istle": 15868,
    "Ġdam": 2214,
    "Ġwestward": 24388,
    "Ġefficiently": 3915,
    "Ġpardon": 5727,
    "number": 10113,
    "Ġhap": 18195,
    "Ġvex": 5949,
    "quietude": 24655,
    "Ġhumorously": 18778,
    "ē": 212,
    "Ġskylight": 24069,
    "hig": 12471,
    "cater": 20814,
    "Ġenigmatical": 20596,
    "atiously": 15520,
    "Ġloafer": 18299,
    "bree": 15312,
    "law": 6115,
    "brows": 17495,
    "Ġcharacteristically": 23689,
    ";âĢĻ": 15300,
    "Ġgener": 577,
    "remembrance": 25702,
    "Ġpap": 8796,
    "Ġgrounded": 23709,
    "oun": 483,
    "ĠĠĠĠĠĠĠĠĠĠĠĠĠĠĠĠĠĠĠ": 22948,
    "Ġextreme": 2515,
    "Ġsubstances": 24164,
    "oubled": 23647,
    "Ġarri": 2554,
    "herds": 22201,
    "Ġcoll": 8221,
    "boards": 23254,
    "Ġprofound": 5496,
    "Ġbeautifully": 13265,
    "Ġwade": 17784,
    "Ġtraged": 9350,
    "Ġpads": 21473,
    "Ġcomfort": 3442,
    "presence": 18494,
    "ilib": 4116,
    "Ġmurderous": 8316,
    "hauled": 20667,
    "Ġwidows": 24235,
    "Ġcopse": 17067,
    "Ġparametric": 2398,
    "Ġwaldman": 11344,
    "Ġcastaways": 19426,
    "usages": 22288,
    "ribbed": 16410,
    "rodu": 1820,
    "tenham": 16320,
    "Ġcham": 4891,
    "87": 20756,
    "Ġcasks": 7522,
    "Ġturbid": 23610,
    "spade": 10339,
    "Ġunconsc": 6552,
    "peare": 18911,
    "mpt": 6653,
    "please": 8177,
    "Ġignor": 4013,
    "Ġrobert": 10968,
    "beyond": 8881,
    "bingley": 4926,
    "Ġsmelling": 16064,
    "Ġmeasures": 1206,
    "Ġshark": 5548,
    "estruct": 22218,
    "Ġadmired": 7982,
    "Ġcau": 13879,
    "Ġcanvassed": 19933,
    "Ġwants": 5742,
    "application": 12360,
    "Ġresponsiveness": 2896,
    "Ġardent": 9968,
    "Ġaugmented": 15103,
    "blow": 9102,
    "Ġascend": 9958,
    "Ġsteak": 9827,
    "Ġexhibition": 14955,
    "Ġwait": 4906,
    "Ġplaning": 22599,
    "Ġnineveh": 13387,
    "ambition": 13409,
    "Ġanomaly": 25636,
    "Ġsobs": 14133,
    "ected": 7874,
    "probability": 17021,
    "Ġcommunic": 5751,
    "Ġreckoned": 24744,
    "Ġcommanded": 6330,
    "Ġpaddle": 20057,
    "thirst": 15822,
    "ugl": 23288,
    "Ġdetection": 3432,
    "Ġlivers": 18461,
    "oy": 1032,
    "saving": 21058,
    "Ġpreservation": 24631,
    "Ġmade": 1050,
    "Ġrealities": 18982,
    "dman": 10087,
    "gen": 6503,
    "Ġreserve": 9969,
    "¤": 102,
    "Ġpredef": 18536,
    "Ġarrog": 18339,
    "Ġconqueror": 25796,
    "Ġra": 804,
    "oul": 4697,
    "fastened": 19324,
    "Ġrogue": 22400,
    "Ġfug": 12591,
    "Ġpatent": 11962,
    "puzzling": 26143,
    "Ġspinning": 15051,
    "old": 800,
    "Ġcornelius": 13571,
    "about": 3586,
    "Ġprosper": 10227,
    "killer": 20474,
    "Ġexert": 5722,
    "Į": 239,
    ")(": 2978,
    "erate": 7149,
    "shout": 22435,
    "Ġweighed": 8710,
    "Ġhumiliation": 16197,
    "ong": 536,
    "Ġwoven": 9924,
    "Ġdirected": 5577,
    "Ġfamilies": 8027,
    "iana": 7048,
    "Ġtip": 15470,
    "Ġentranced": 25833,
    "Ġdomain": 3302,
    "Ġembarkation": 25123,
    "Ġtoy": 15631,
    "four": 6113,
    "Ġcar": 1421,
    "Ġupstairs": 5836,
    "Ġduplicate": 17214,
    "Ġkey": 2103,
    "grand": 7970,
    "heric": 15909,
    "Ġfleshy": 24615,
    "Ġgrassy": 24378,
    "Ġwid": 4631,
    "Ġapartments": 19613,
    "=": 33,
    "Ġqueequeg": 2013,
    "hued": 20910,
    "Ġsharply": 9401,
    "Ġleakage": 23458,
    "tend": 17673,
    "Ġdarkness": 4277,
    "joining": 19444,
    "Ġsecretly": 13269,
    "Ġwil": 4579,
    "disapprobation": 19155,
    "Ġcomparing": 14263,
    "Ġimparts": 18445,
    "Ġbagging": 24538,
    "Ġgush": 10201,
    "Ġintelligently": 4318,
    "appearing": 14636,
    "Ġpainful": 6462,
    "Ġdizzy": 21431,
    "Ġslipper": 24264,
    "Ġsymph": 22205,
    "Ġqual": 6274,
    "Ġrueful": 25581,
    ",--âĢľ": 19195,
    "Ġgrimes": 11033,
    "Ġundet": 16703,
    "Ġconviction": 6326,
    "Ė": 215,
    "azine": 19130,
    "Ġjelly": 22298,
    "Ġstarboard": 7605,
    "Ġsaints": 20673,
    "Ġjer": 6266,
    "protest": 24815,
    "Ġahab": 1215,
    "jected": 22710,
    "Ġice": 3603,
    "Ġdisk": 22520,
    "Ġrepositories": 23363,
    "friendship": 24045,
    "Ġsymptoms": 8704,
    "Ġwisest": 11231,
    "Ġsher": 3763,
    "Ġblubber": 5666,
    "Ġreced": 15689,
    "Ġvilest": 20099,
    "Ġretained": 7173,
    "Ġgipsies": 12405,
    "Ġpersuasion": 10497,
    "arrival": 15597,
    "Ġhedgehogs": 25394,
    "Ġslightest": 6093,
    "wling": 11543,
    "Ġmince": 22829,
    "god": 4862,
    "ateur": 22004,
    "Ġscraped": 16902,
    "cific": 10084,
    "destiny": 16701,
    "romed": 10904,
    "hotel": 20048,
    "renched": 7908,
    "redit": 3877,
    "ont": 2622,
    "Ġ68": 24369,
    "hered": 5622,
    "Ġslappin": 18942,
    "Ġhanding": 16128,
    "Ġpetulance": 24226,
    "xic": 9144,
    "tumbled": 21089,
    "Ġgods": 6454,
    "Ġindisc": 16226,
    "Ġfearing": 12811,
    "Ġdecoyed": 18490,
    "Ġshudder": 9049,
    "Ġgul": 7860,
    "Ġpeaks": 16126,
    "Ġfirmness": 11236,
    "Ġpubl": 3940,
    "onstr": 12542,
    "Ġindefinite": 17175,
    "Ġwalker": 23309,
    "Ġgreek": 10630,
    "bout": 20772,
    "Ġflying": 5412,
    "Ġfoundering": 21418,
    "rigged": 17062,
    "Ġembrace": 16989,
    "vere": 4882,
    "Ġgag": 21591,
    "haps": 1673,
    "Ġcalms": 23041,
    "ĠĠĠĠĠĠĠĠĠĠĠĠĠĠĠĠĠĠĠĠĠĠĠĠĠĠĠĠĠĠĠĠĠ": 12040,
    "dish": 12449,
    "Ġdupl": 9952,
    "Ġjoy": 3184,
    "Ġreveren": 13193,
    "usion": 3299,
    "simultaneously": 19863,
    "ourable": 4966,
    "Ġfrown": 10806,
    "Ġbildad": 3781,
    "itters": 10780,
    "Ġcholera": 22251,
    "fury": 17546,
    "deck": 4499,
    "Ġwithdraw": 16963,
    "magnet": 14968,
    "reel": 21232,
    "Ġstoke": 10394,
    "knife": 6942,
    "Ġrange": 9710,
    "Ġfatt": 15576,
    "Ġrept": 13981,
    "Ġbell": 4634,
    "Ġobstacles": 19834,
    "gabriel": 15358,
    "confused": 19643,
    "Ġgin": 13959,
    "Ġtoe": 13934,
    "Ġdrawling": 19435,
    "nnight": 20992,
    "Ġlover": 7193,
    "Ġenlightened": 12742,
    "Ġkl": 2735,
    "vict": 11539,
    "Ġruined": 12950,
    "Ġabsorbing": 17127,
    "Ġchin": 4890,
    "Ġsuav": 22080,
    "Ġfeed": 2129,
    "Ġfuller": 11155,
    "Ġbackward": 7655,
    "|": 96,
    "difficult": 10056,
    "coff": 9107,
    "Ġireland": 17333,
    "Ġactuated": 18545,
    "Ġdevoutly": 25832,
    "therly": 18346,
    "Ġsimultaneously": 4311,
    "grim": 19106,
    "imble": 10857,
    "))": 1517,
    "Ġniagara": 26457,
    "Ġabreast": 18394,
    "Ġended": 7950,
    "Ġgourmand": 26465,
    "Ġdeserts": 10506,
    "inery": 17732,
    "ban": 9583,
    "onement": 21255,
    "mering": 12487,
    "heredit": 21208,
    "Ġvigil": 9505,
    "objection": 19914,
    "Ġassurances": 9998,
    "completed": 19992,
    "vil": 2731,
    "brill": 16490,
    "Ġbroods": 23101,
    "Ġappo": 8498,
    "amore": 21841,
    "Ġstreets": 5863,
    "miles": 10711,
    "Ġsolomon": 11051,
    "ollion": 19714,
    "brushing": 20787,
    "Ġbrave": 6329,
    "Ġredu": 1354,
    "Ġter": 2052,
    "uity": 12514,
    "Ġrib": 4935,
    "Ġcruc": 16533,
    "Ġsupplied": 8942,
    "chariot": 26478,
    "Ġwar": 5525,
    "Ġrequire": 910,
    "sul": 15420,
    "hoisting": 23714,
    "Ġpres": 9730,
    "Ġwarden": 17223,
    "elve": 4640,
    "aples": 20767,
    "orting": 9733,
    "variety": 23187,
    "Ġincorporated": 25711,
    "greek": 25404,
    "Ġadult": 18289,
    "Ġusing": 729,
    "retaining": 21244,
    "Ġweaving": 12736,
    "Ġunalterable": 15849,
    "oing": 15400,
    "Ġhousemaid": 14463,
    "Ġconsideration": 5190,
    "eration": 10771,
    "germans": 20564,
    "Ġinjuries": 11276,
    "Ġsanctified": 25883,
    "ensive": 6279,
    "Ġsod": 11560,
    "comfortably": 16874,
    "ubb": 1650,
    "Ġrode": 15993,
    "Ġhaggerston": 26451,
    "Ġnations": 8808,
    "Ġpoints": 5247,
    "prosperity": 20734,
    "Ġghastly": 10058,
    "Ġvirt": 3907,
    "patter": 4216,
    "Ġmusic": 5267,
    "Ġpainfully": 13140,
    "Ġbreathless": 12166,
    "Ġtable": 2500,
    "Ġincidents": 9297,
    "shrouded": 26361,
    "Ġdismember": 20214,
    "cro": 13694,
    "Ġoppressed": 11188,
    "Ġhonor": 5664,
    "Ġyouth": 4261,
    "Ġjoyful": 13218,
    "Ġciv": 3308,
    "similar": 13451,
    "Ġtiresome": 26156,
    "Ġprofounder": 23567,
    "Ġours": 4611,
    "Ġkeeping": 7283,
    "ospel": 17009,
    "change": 6392,
    "Ġcomposed": 8890,
    "_)âĢĶ": 20143,
    "Ġprison": 5402,
    "Ġpat": 1819,
    "ositions": 10282,
    "Ġaltitude": 26202,
    "Ġforce": 5091,
    "Ġheron": 22071,
    "Ġfurious": 10353,
    "maid": 8553,
    "come": 2379,
    "Ġfootmarks": 19336,
    "nantucket": 7805,
    "Ġdusting": 24597,
    "Ġbennett": 16323,
    "Ġshouldn": 14323,
    "Ġgroves": 16739,
    "fact": 6358,
    "arrow": 4179,
    "Ġbabes": 24424,
    "Ġsooty": 25815,
    "Ġextensive": 12937,
    "Ġdisliked": 12887,
    "Ġbackbone": 22656,
    "varieties": 23188,
    "--âĢľ": 12968,
    "Ġcandelab": 23846,
    "Ġyoked": 15732,
    "lit": 9604,
    "ĠĠĠĠĠĠĠĠĠĠĠĠĠĠĠĠĠĠĠĠĠĠĠĠĠĠĠĠĠĠĠĠĠĠĠĠĠĠĠĠĠĠĠĠ": 12150,
    "Ġcalls": 6744,
    "Ġfinny": 23126,
    "ifies": 6686,
    "pat": 10115,
    "Ġseaman": 8638,
    "Ġcrozetts": 19628,
    "Ġpatron": 7464,
    "Ġgift": 10839,
    "Ġcontrived": 10302,
    "orously": 8419,
    "Ġsize": 1217,
    "Ġjuggling": 20437,
    "treacle": 25148,
    "spell": 22732,
    "volutions": 16321,
    "ann": 5802,
    "Ġdeny": 7489,
    "Ġgospel": 18000,
    "nothing": 3154,
    "Ġwednesday": 9023,
    "earthquakes": 24725,
    "prophecy": 22834,
    "ung": 2747,
    "aust": 15307,
    "Ġdetails": 6565,
    "ermost": 7430,
    "Ġindebted": 8707,
    "Ġel": 802,
    "Ġnosegay": 24191,
    "Ġclasp": 9743,
    "Ġlips": 3992,
    "Ġpleasantest": 24136,
    "mediterranean": 16401,
    "Ġplane": 11820,
    "Ġscenery": 11455,
    "Ġ**": 4719,
    "Ġsta": 18062,
    "Ġantiquity": 15228,
    "Ġmore": 676,
    "Ġflukes": 5265,
    "Ġbare": 6132,
    "evenings": 19461,
    "Ġclassical": 22638,
    "concluded": 11241,
    "Ġnumber": 1981,
    "Ġamaz": 5384,
    "Ġlevelled": 11283,
    "barb": 10079,
    "Ġtranque": 14206,
    "Ġdec": 641,
    "Ġexample": 5095,
    "Ġstrangers": 8314,
    "Ġhands": 1664,
    "Ġwane": 21287,
    "silenced": 24422,
    "shabb": 18486,
    "Ġbud": 10167,
    "ě": 220,
    "Ġ75": 19611,
    "elijah": 19471,
    "Ġsystem": 575,
    "Ġfitzwilliam": 5771,
    "Ġshine": 12762,
    "pendicular": 6499,
    "Ġmealy": 18120,
    "Ġfatality": 12091,
    "Ġsubtlety": 24780,
    "Ġax": 7823,
    "Ġordained": 19443,
    "Ġwheelbarrow": 17203,
    "Ġ78": 19612,
    "Ġhunters": 6300,
    "Ġundiscovered": 18249,
    "gno": 13725,
    "Ġwonderful": 4561,
    "Ġgasps": 24865,
    "violets": 23542,
    "Ġprofile": 16487,
    "Ġgunwales": 12237,
    "Ġproble": 1110,
    "Ġmediocr": 24080,
    "Ġcount": 1816,
    "ud": 912,
    "endured": 22225,
    "Ġalabama": 14017,
    "Ġfortunes": 12175,
    "Ġ63": 24365,
    "Ġrelevant": 1863,
    "what": 642,
    "Ġryder": 10258,
    "Ġmentioned": 4330,
    "striking": 13438,
    "Ġtheir": 643,
    "allah": 5838,
    "estate": 12816,
    "Ġprocess": 561,
    "spe": 3560,
    "Ġreddening": 25970,
    "ut": 308,
    "Ġfavoring": 2342,
    "ancholy": 5069,
    "Ġsincere": 11135,
    "Ġboat": 1277,
    "Ġflames": 7940,
    "Ġalleviated": 26203,
    "oker": 10962,
    "green": 7115,
    "Ġanticipating": 17058,
    "Ġen": 392,
    "_âĢĶâĢĿ": 20762,
    "~": 98,
    "Ğ": 223,
    "Ġimpossibility": 20646,
    "Ġsuggests": 12197,
    "?âĢĻâĢĿ": 23645,
    "Ġbur": 2698,
    "vast": 10735,
    "confirmation": 26089,
    "itude": 1420,
    "verty": 8452,
    "inary": 3272,
    "tails": 21085,
    "Ġperilously": 24503,
    "Ġpress": 5932,
    "Ġincul": 22547,
    "Ġunanswerable": 26520,
    "Ġfocus": 4236,
    "Ġheinous": 18038,
    "Ġinsects": 25646,
    "iron": 3733,
    "otence": 14021,
    "Ġdistended": 16041,
    "Ġlambton": 10656,
    "clouded": 20330,
    "Ġspeak": 2228,
    "Ġforeman": 23446,
    "asis": 12646,
    "Ġstorm": 4301,
    "Ġseparating": 16684,
    "ribe": 1222,
    "aby": 18106,
    "Ġrespond": 11175,
    "Ġpassions": 7930,
    "Ġgovern": 10449,
    "Ġcheapside": 23287,
    "bbs": 23690,
    "Ġbubbles": 11397,
    "bet": 6109,
    "wait": 11319,
    "Ġteach": 8552,
    "odecimo": 11443,
    "Ġkiller": 19567,
    "Ġnotions": 14097,
    "Ġguess": 4902,
    "aught": 2680,
    "appalled": 18762,
    "Ġcautiously": 16976,
    "lemagne": 26435,
    "Ġactive": 7916,
    "battering": 20785,
    "Ġdiabolism": 25514,
    "Ġburly": 19249,
    "Ġcompar": 4770,
    "Ġfemales": 14935,
    "Ġglove": 14490,
    "Ġhoisting": 9860,
    "iles": 2859,
    "destro": 13309,
    "Ġjapan": 7640,
    "Ġstubb": 1786,
    "Ġwhitewashed": 14468,
    "during": 6787,
    "Ġimpress": 6862,
    "doctor": 19095,
    "bots": 10081,
    "ĭ": 238,
    "Ġwe": 387,
    "Ġcrew": 2497,
    "Ġunconsciously": 10003,
    "Ġascribed": 14853,
    "Ġtriangular": 14857,
    "inative": 15482,
    "Ġpouring": 12620,
    "antique": 18287,
    "toed": 18578,
    "Ġdivided": 8631,
    "Ġreverse": 16981,
    "Ġgold": 3276,
    "Ġforces": 12698,
    "orns": 12588,
    "roylott": 20025,
    "Ġgrow": 2858,
    "osy": 11755,
    "ounder": 11741,
    "encoura": 15047,
    "Ġcommunicated": 9060,
    "belated": 24034,
    "obliged": 20630,
    "Ġpunct": 8660,
    "oof": 15404,
    "Ġturnpike": 23026,
    "itable": 5436,
    "Ġturban": 23612,
    "Ġbrix": 12579,
    "Ġ96": 24593,
    "Ġcandidates": 4334,
    "Ġeating": 8136,
    "Ġreaches": 18031,
    "ops": 5246,
    "precise": 19349,
    "enormous": 26166,
    "Ġsimultaneous": 22586,
    "Ġeas": 2352,
    "ben": 4925,
    "imen": 12682,
    "Ġsympathies": 14859,
    "Ġblades": 11892,
    "Ġaccidental": 16847,
    "itering": 17818,
    "ceptibly": 22341,
    "Ġinquest": 16545,
    "Ġevenings": 18753,
    "particularly": 8340,
    "Ġcouns": 10519,
    "Ġtossings": 25356,
    "Ġblasts": 19994,
    "Ġchilly": 25562,
    "dham": 20829,
    "ĳ": 244,
    "Ġprofessed": 14722,
    "Ġsolemnity": 9939,
    "Ġnature": 2539,
    "tawn": 21079,
    "hat": 6956,
    "Ġfrequented": 16584,
    "Ġalluded": 7888,
    "ruff": 15893,
    "Ġlighted": 7063,
    "Ġestablishment": 13577,
    "Ġcumberland": 21353,
    "qualities": 25043,
    "fect": 2298,
    "Ġexceeded": 14431,
    "Ġfragmentary": 25857,
    "Ġknives": 14835,
    "lucifer": 25302,
    "Ġfollowing": 4062,
    "Ġpresently": 5115,
    "inev": 21984,
    "ĠĠĠĠĠĠĠĠĠĠĠĠĠĠĠĠĠĠĠĠĠĠĠĠĠĠĠĠĠĠĠĠĠĠĠĠĠĠĠĠĠĠĠĠĠĠĠĠĠĠĠĠĠ": 20038,
    "Ġweak": 5097,
    "Ġzigzag": 26272,
    "Ġbiggest": 24565,
    "Ġgoble": 14228,
    "world": 5057,
    "gently": 13727,
    "Ġsurface": 5118,
    "ulates": 14053,
    "chancing": 22915,
    "Ġpositively": 13027,
    "Ġrh": 9242,
    "bos": 17482,
    "Ġsustenance": 19932,
    "helmsman": 24286,
    "Ġbeads": 18083,
    "Ġshed": 8181,
    "Ġpassengers": 13673,
    "Ġrat": 4354,
    "reflect": 19864,
    "vity": 7816,
    "Ġstaff": 14004,
    "prosper": 19100,
    "Ġbrotherhood": 23669,
    "queequeg": 4335,
    "Ġsetting": 7046,
    "shelf": 20379,
    "Ġapr": 12528,
    "Ġlookest": 22714,
    "inside": 23063,
    "atived": 21261,
    "Ġspark": 6689,
    "dler": 13704,
    "conspicuous": 26247,
    "Ġchange": 1994,
    "mit": 4932,
    "cannibals": 25584,
    "lude": 6161,
    "Ġshock": 6083,
    "Ġcooking": 16645,
    "Ġrevolutions": 23839,
    "gold": 9119,
    "Ġadieus": 25110,
    "arted": 2201,
    "dutch": 17217,
    "Ġapplies": 11950,
    "missed": 11208,
    "Ġdeceiving": 21836,
    "Ġsupremacy": 20259,
    "Ġcaptiv": 16255,
    "Ġseedy": 21953,
    "Ġbri": 21376,
    "Ġdard": 21421,
    "ten": 1556,
    "Ġpeddling": 24799,
    "formity": 10277,
    "Ġtech": 1629,
    "beef": 18520,
    "Ġaccustomed": 6861,
    "Ġcanal": 8182,
    "Ġgives": 5017,
    "Ġelevated": 7318,
    "Ġfestival": 25445,
    "Ġtendency": 11328,
    "Ġinco": 14258,
    "ven": 781,
    "Ġagony": 5387,
    "luckily": 19751,
    "Ġlay": 586,
    "mant": 20964,
    "Ġresisted": 22539,
    "Ġsuavely": 26522,
    "mile": 17596,
    "Ġdynamically": 4566,
    "aulding": 11338,
    "Ġlords": 14640,
    "fortnight": 13084,
    "Ġtortures": 14921,
    "Ġamsterdam": 22482,
    "ul": 371,
    "Ġpunctilious": 26352,
    "Ġmartha": 16259,
    "Ġsloping": 11936,
    "Ġsituated": 9445,
    "Ġrepine": 16408,
    "Ġequival": 4783,
    "Ġconsumed": 10348,
    "acency": 12904,
    "Ġsitting": 3604,
    "Ġpopulous": 16825,
    "cock": 12022,
    "pop": 17630,
    "ardy": 22154,
    "rab": 7597,
    "Ġcask": 5526,
    "Ġulster": 14996,
    "Ġclutches": 20016,
    "wicked": 24448,
    "Ġinsane": 19268,
    "Ġcrosswise": 18887,
    "yonder": 21143,
    "Ġtambourine": 9563,
    "Ġsecond": 1891,
    "Ġexcuses": 19042,
    "Ġjuggler": 26366,
    "Ġtrue": 1340,
    "Ġnooks": 26011,
    "confess": 12172,
    "success": 6710,
    "Ġparad": 2841,
    "Ġswaying": 15045,
    "Ġhelps": 9366,
    "behold": 12873,
    "zor": 15457,
    "Ġnice": 6676,
    "Ġundu": 15835,
    "Ġcommentaries": 20159,
    "Ġflowery": 16233,
    "quiet": 6154,
    "Ġorganisation": 23581,
    "numerous": 17429,
    "Ġviewing": 19263,
    "Ġmist": 2875,
    "Ġpurpose": 2708,
    "Ġmoves": 14230,
    "Ġexeget": 24082,
    "Ġobtruded": 20721,
    "Ġmagg": 18905,
    "anguish": 15981,
    "Ġregulate": 22585,
    "avo": 8517,
    "Ġunluck": 8484,
    "Ġcontriv": 9280,
    "ù": 186,
    "instances": 13317,
    "impropriety": 21711,
    "ustom": 3789,
    "sor": 7352,
    "phantoms": 24679,
    "Ġear": 1424,
    "Ġpenalizing": 13088,
    "leaves": 12574,
    "pow": 10716,
    "Ġwhich": 502,
    "Ġaccommod": 14211,
    "Ġatonement": 21940,
    "out": 467,
    "assured": 10952,
    "Ġstones": 9220,
    "rese": 15507,
    "Ġmelancholy": 5605,
    "Ġgord": 21598,
    "invariably": 26415,
    "Ġdisappearance": 9295,
    "sively": 13784,
    "Ġshan": 9247,
    "Ġcommended": 18656,
    "Ġdestruction": 6600,
    "Ġgrinning": 9052,
    "Ġcompl": 3759,
    "Ġplutarch": 22601,
    "ra": 314,
    "Ġfolded": 7768,
    "Ġproprietor": 12370,
    "Ġtakes": 5006,
    "ezing": 10572,
    "Ġcarter": 18900,
    "employed": 17260,
    "oding": 1462,
    "Ġlashes": 17966,
    "Ġgallop": 19554,
    "igations": 18043,
    "Ġstudies": 7956,
    "/*": 10069,
    "Ġpract": 1870,
    "Ġdiscipl": 22783,
    "Ġcretan": 22727,
    "atiable": 17773,
    "ledyard": 22390,
    "Ġcetace": 14986,
    "Ġspoutings": 14674,
    "abond": 15738,
    "Ġimpediments": 26240,
    "Ġobsc": 7039,
    "otic": 15742,
    "Ġgnarled": 25165,
    "Ġdepths": 4327,
    "yielded": 25756,
    "Ġhedgehog": 10643,
    "Ġfidget": 15187,
    "labour": 23912,
    "Ġschol": 17375,
    "Ġundecided": 22044,
    "Ġprecision": 13185,
    "Ġgloss": 11955,
    "Ġcarelessness": 13073,
    "Ġjeopardized": 20229,
    "Ġcrescentic": 20619,
    "Ġconveniently": 20077,
    "Ġq": 1086,
    "Ġcleans": 18947,
    "Ġhorseback": 14848,
    "Ġunpitying": 25660,
    "gracechurch": 24580,
    "steaks": 23958,
    "Ġeloquence": 11839,
    "oping": 5557,
    "ĠâĢľ": 516,
    "Ġallegro": 25794,
    "ample": 1363,
    "Ġquietude": 19358,
    "Ġsums": 2901,
    "twelvemonth": 25862,
    "mary": 8748,
    "Ġembarked": 17134,
    "Ġhidden": 1376,
    "pile": 17628,
    "live": 7551,
    "Ġirregular": 9863,
    "Ġtyrant": 24767,
    "trowsers": 17690,
    "uzzle": 19582,
    "collinses": 19922,
    "Ġdocuments": 10021,
    "Ġapiece": 16812,
    "sweetly": 25134,
    "Ġoverlook": 10956,
    "Ġwhiteness": 5919,
    "avern": 24792,
    "Ġcrony": 23439,
    "Ġguessed": 11281,
    "Ġro": 591,
    "Ġpersuaded": 5769,
    "Ġpreacher": 18369,
    "Ġspr": 4025,
    "Ġtolerably": 8068,
    "Ġpublicly": 13320,
    "Ġfootman": 8288,
    "Ġcamp": 9163,
    "pin": 13765,
    "Ġaccelerate": 23228,
    "verse": 9686,
    "Ġcontrivances": 12354,
    "anct": 21356,
    "Ġsimon": 5171,
    "ü": 189,
    "Ġpanic": 11285,
    "Ġchurned": 18385,
    "Ġbuttons": 12777,
    "Ġsetbacks": 11062,
    "Ġfol": 1289,
    "knows": 19171,
    "cloud": 11105,
    "Ġabomination": 22276,
    "rusted": 16505,
    "Ġhelmet": 19686,
    "Ġretired": 6071,
    "Ġintrospective": 20599,
    "Ġsmack": 9298,
    "Ġannoy": 17197,
    "terbury": 21822,
    "gered": 9274,
    "Ġalternative": 19985,
    "Ġrapidity": 11099,
    "ulous": 4449,
    "eronomy": 15523,
    "gar": 5614,
    "Ġattach": 14286,
    "good": 2898,
    "Ġentry": 11025,
    "Ġtwo": 1044,
    "Ġphyset": 23201,
    "jaw": 13741,
    "Ġasia": 11680,
    "breast": 11244,
    "Ġliter": 8810,
    "lonely": 20956,
    "unfortunate": 15774,
    "header": 11930,
    "Ġjackets": 19601,
    "Ġperished": 11781,
    "00": 1615,
    "Ġsolitary": 5854,
    "yn": 7820,
    "Ġrevers": 21662,
    "Ġerror": 1767,
    "Ġheartless": 13070,
    "though": 2117,
    "_.)": 7278,
    "Ġribbons": 24328,
    "stealthily": 23959,
    "Ġelevates": 24499,
    "Ġmean": 742,
    "arking": 16123,
    "ety": 3521,
    "Ġpeeped": 10010,
    "part": 2573,
    "circuit": 24187,
    "Ġoil": 3373,
    "Ġlawyers": 25248,
    "Ġand": 295,
    "Ġauxiliary": 26417,
    "Ġcemeteries": 26375,
    "waist": 13416,
    "Ġworker": 23037,
    "finally": 9497,
    "hecy": 21205,
    "Ġmonica": 22978,
    "Ġgard": 2189,
    "Ġcataract": 23426,
    "Ġsymb": 2591,
    "Ġfem": 6134,
    "Ġsails": 5255,
    "flukes": 25205,
    "Ġtwentieth": 18659,
    "Ġoaken": 13863,
    "Ġnovelist": 24777,
    "Ġdart": 4584,
    "Ġeconomy": 17199,
    "regular": 3037,
    "Ġinforming": 18742,
    "ians": 2360,
    "Ġinsp": 2102,
    "Ġparents": 6752,
    "ashing": 4823,
    "stochastic": 3774,
    "Ġchiselled": 25559,
    "Ġsqu": 1039,
    "Ġstraining": 11326,
    "Ġvengeance": 5885,
    "Ġfads": 21415,
    "Ġshows": 8482,
    "ifice": 7199,
    "hither": 11491,
    "Ġmosses": 20162,
    "Ġingen": 9048,
    "Ġrespected": 11951,
    "uted": 7593,
    "Ġsheet": 6262,
    "Ġmonogra": 22975,
    "Ġsing": 3069,
    "Ġwitnessing": 19597,
    "Ġblending": 14398,
    "admirably": 24944,
    "Ġward": 10154,
    "bastian": 10672,
    "Ġ122": 24466,
    "Ġdevoting": 22722,
    "Ġsquared": 1383,
    "Ġbre": 1913,
    "Ġclothes": 4996,
    "Ġnarrower": 24353,
    "Ġunconscious": 9545,
    "encyclopÃ¦dia": 16662,
    "Ġbaby": 6636,
    "Ġshaft": 18229,
    "Ġblind": 3715,
    "plumed": 21959,
    "Ġmoses": 21314,
    "Ġphiladel": 23883,
    "adam": 15727,
    "ultaneously": 4193,
    "Ġcor": 1324,
    "zes": 11547,
    "Ġmonomaniac": 9567,
    "Ġunful": 22007,
    "express": 4894,
    "Ġtus": 10748,
    ",âĢĶ": 3171,
    "ust": 492,
    "Ġcarpent": 4464,
    "Ġlod": 4042,
    "Ġripple": 25504,
    "Ġcivilities": 14846,
    "pity": 17626,
    "ear": 8730,
    "Ġtheoretic": 23310,
    "quet": 6835,
    "ibles": 18784,
    "Ġcushion": 17833,
    "scotland": 20526,
    "Ġflooring": 23623,
    "Ġvivacity": 14939,
    "Ġshrew": 21998,
    "Ġbrows": 13298,
    "served": 5042,
    "ends": 6039,
    "Ġpile": 8424,
    "Ġclout": 22351,
    "oided": 11507,
    "Ġstature": 10862,
    "Ġintrodu": 1925,
    "Ġroy": 4228,
    "Ġmales": 17805,
    "Ġabstract": 17180,
    "weakness": 16122,
    "supernatural": 19778,
    "dark": 5613,
    "Ġsalmon": 24058,
    "somebody": 14564,
    "Ġcommend": 10333,
    "Ġexplain": 545,
    "Ġtrifling": 10601,
    "oc": 2833,
    "generosity": 23784,
    "Ġeternity": 12275,
    "ead": 2599,
    "cial": 2649,
    "terrific": 25040,
    "Ġsilken": 16377,
    "Ġdavis": 25952,
    "Ġfins": 9662,
    "Ġvect": 1223,
    "Ġconclude": 8580,
    "Ġbid": 6131,
    "Ġire": 12663,
    "lin": 9602,
    "madly": 24419,
    "Ġfut": 15572,
    "Ġaffect": 1387,
    "Ġparchment": 13650,
    "Ġdesolated": 24812,
    "circumstantial": 24443,
    "Ġfiddle": 25444,
    "deception": 22142,
    "Ġstoutest": 24629,
    "Ġcrushing": 20175,
    "Ġglacier": 11432,
    "Ġmeekly": 26489,
    "Ġrefinement": 18700,
    "Ġoccupant": 16650,
    "Ġdint": 15588,
    "uss": 8763,
    "smug": 23905,
    "rods": 21536,
    "fin": 5208,
    "Ġpersecutor": 26096,
    "Ġjealousy": 13574,
    "ar": 285,
    "everlasting": 18772,
    "Ġresulting": 24197,
    "Ġportrait": 10660,
    "almost": 4942,
    "Ġseeth": 21951,
    "Ġremark": 2147,
    "later": 20952,
    "Ġalman": 21779,
    "Ġfinishing": 23124,
    "peasant": 23109,
    "sombre": 23852,
    "chor": 6146,
    "Ġ14": 9321,
    "Ġministers": 22831,
    "dropout": 3196,
    "front": 12167,
    "coiled": 16485,
    "Ġtrades": 8232,
    "ĠĠĠĠĠĠĠĠĠĠĠĠĠĠĠĠĠĠĠĠĠĠĠĠĠĠĠĠĠĠĠĠĠĠĠĠĠĠĠĠĠĠĠĠĠĠĠĠĠ": 20036,
    "ades": 5631,
    "Ġweb": 9238,
    "Ġcarved": 7947,
    "Ġtore": 6530,
    "Ġdescends": 14285,
    "Ġembalmed": 13654,
    "omitted": 18023,
    "gether": 1596,
    "Ġphr": 2681,
    "chat": 21684,
    "Ġcrawford": 24893,
    "pier": 17634,
    "Ġunscrew": 22036,
    "Ġbrad": 8785,
    "nment": 20989,
    "ipl": 20917,
    "Ġpushing": 10818,
    "Ġperfidious": 25666,
    "boys": 13357,
    "Ġknows": 4158,
    "Ġprincess": 23225,
    "uteronomy": 15661,
    "İ": 241,
    "Ġnurtured": 19748,
    "Ġcontemptible": 16952,
    "Ġproclaim": 18130,
    "Ġphrenologist": 25607,
    "Ġreser": 5169,
    "Ġincommunicable": 26610,
    "Ġkissed": 10043,
    "cannot": 5745,
    "Ġlooked": 1802,
    "Ġow": 8408,
    "Ġcoff": 3508,
    "Ġview": 2762,
    "iter": 4391,
    "hies": 17559,
    "Ġbod": 4580,
    "Ġworlds": 11945,
    "base": 20776,
    "Ġmanned": 9269,
    "Ġskilful": 25836,
    "progress": 11984,
    "Ġseparation": 11246,
    "utmost": 21586,
    "ishe": 13889,
    "Ġgregarious": 18964,
    "conclusive": 25673,
    "Ġcupidity": 24534,
    "Ġmiracle": 15091,
    "Ġsuffered": 5649,
    "Ġwrecks": 16817,
    "$": 8,
    "Ġliable": 14227,
    "admire": 24943,
    "wanderer": 25423,
    "Ġvesuvius": 26500,
    "Ġpublic": 4333,
    "Ġcommit": 18655,
    "Ġshriek": 6637,
    "idean": 14261,
    "ogne": 12935,
    "Ġscaffold": 18400,
    "Ġspoiled": 11362,
    "Ġmorocc": 22972,
    "Ġdeformity": 11674,
    "ĠĠĠĠĠĠĠĠĠĠĠĠĠĠĠĠĠĠĠĠĠĠĠĠĠĠĠĠĠ": 19698,
    "Ġorganizations": 12311,
    "Ġbarbara": 24818,
    "utarch": 15659,
    "Ġinvolves": 1067,
    "vital": 17699,
    "Ġswords": 19896,
    "forgot": 11032,
    "impotence": 23759,
    "Ġlie": 4406,
    "Ġperv": 15988,
    "etition": 7382,
    "chased": 18041,
    "Ġstrangest": 14794,
    "adopt": 25544,
    "themselves": 6540,
    "Ġsuperseded": 26223,
    "fordshire": 4675,
    "âĢĻ!âĢĿ": 18167,
    "Ġcares": 9365,
    "Ġtremor": 24768,
    "Ġbewildered": 15211,
    "Ġconjoined": 21804,
    "Ġcontinental": 19704,
    "Ġnaut": 13939,
    "flask": 12096,
    "ensils": 22546,
    "ours": 3429,
    "Ġbuff": 9171,
    "due": 22408,
    "======================================================================": 10066,
    "plied": 10254,
    "Ġriot": 14687,
    "Ġglasses": 9473,
    "Ġreader": 11931,
    "Ġoversampling": 20514,
    "kovoko": 20668,
    "desperate": 17350,
    "bloom": 24689,
    "nigh": 13761,
    "Ġown": 1005,
    "also": 7851,
    "tical": 10127,
    "Ġmau": 21309,
    "Ġchart": 10944,
    "urg": 8142,
    "Ġrecommended": 8667,
    "Ġmaps": 2960,
    "Ġsunk": 5752,
    "ien": 10100,
    "Ġholland": 10364,
    "Ġcomposition": 1690,
    "ura": 1051,
    "Ġround": 1369,
    "overs": 17620,
    "final": 19675,
    "Ġfools": 14480,
    "Ġdrifting": 19278,
    "alescing": 23864,
    "Ġplain": 2816,
    "hist": 7130,
    "Ġxxxi": 24968,
    "alice": 3208,
    "ougher": 18276,
    "Ġstrove": 9955,
    "steel": 8299,
    "arboard": 7266,
    "sailed": 17665,
    "breath": 15160,
    "swed": 24252,
    "Ġplayed": 9414,
    "ksome": 10103,
    "strang": 11182,
    "Ġcarav": 18901,
    "Ġprognostics": 20557,
    "Ġcovari": 2336,
    "Ġhistorical": 3644,
    "Ġengage": 9333,
    "Ġanoints": 25538,
    "Ġd": 284,
    "Ġdestro": 3721,
    "ĠĠĠĠĠĠĠĠĠĠĠĠĠĠĠĠĠĠĠĠĠĠĠĠĠĠĠ": 14884,
    "Ġfooting": 14481,
    "wol": 21121,
    "Ġadversity": 24302,
    "conditionally": 24834,
    "Ġunwelcome": 12775,
    "Ġsequential": 2133,
    "Ġcatastrophic": 3542,
    "Ġdiving": 12597,
    "ighb": 10422,
    "Ġchristendom": 16694,
    "menced": 23144,
    "semble": 1527,
    "Ġcritically": 23444,
    "Ġloudly": 7312,
    "Ġenquired": 21938,
    "Ġdates": 6693,
    "Ġspoil": 17006,
    "ily": 1033,
    "Ġrequested": 14304,
    "Ġdrugg": 17118,
    "Ġattraction": 18620,
    "captain": 3953,
    "Ġpregn": 22230,
    "84": 15299,
    "cause": 7796,
    "Ġgr": 977,
    "Ġreposing": 23360,
    "trained": 4239,
    "Ġsolely": 9908,
    "perai": 10275,
    "Ġdisconcerted": 18562,
    "moved": 9783,
    "Ġfashionable": 19543,
    "goes": 10425,
    "Ġtire": 17719,
    "whaling": 7900,
    "Ġslaughtered": 26583,
    "scarcely": 12383,
    "Ġarticulated": 24432,
    "Ġlass": 15645,
    "<MASK>": 4,
    "Ġfaster": 3197,
    "Ġbott": 3149,
    "Ġstole": 7953,
    "oro": 21393,
    "Ġbelieves": 14405,
    "Ġtremendous": 8353,
    "Ġcringing": 25941,
    "Ġdistributing": 22677,
    "Ġsplintered": 11417,
    "Ġoblong": 14319,
    "Ġengra": 7875,
    "Ġdesperation": 19817,
    "Ġtur": 2565,
    "Ġenvelope": 7319,
    "Ġwheels": 10911,
    "accidents": 19211,
    "Ġconfluent": 19040,
    "Ġlimped": 19180,
    "forced": 11030,
    "yt": 17710,
    "observation": 17268,
    "Ġauthent": 14498,
    "Ġbubble": 13533,
    "pth": 2383,
    "extreme": 11028,
    "Ġkingdom": 12015,
    "Ġmutiny": 13257,
    "hibited": 17425,
    "Ġreigned": 13985,
    "ordinate": 12871,
    "Ġfejee": 18354,
    "Ġsuppression": 22998,
    "ign": 1704,
    "Ġfaults": 12209,
    "Ġasiatic": 20428,
    "Ġplug": 17146,
    "Ġlionel": 25286,
    "Ġwalking": 4325,
    "road": 6677,
    "Ġdoubt": 2222,
    "Ġoffence": 12941,
    "cooee": 12415,
    "glorious": 19365,
    "Ġhissed": 15786,
    "Ġgaiety": 16748,
    "Ġlexicon": 25974,
    "iasm": 8061,
    "Ġmisfortunes": 7041,
    "Ġsav": 3356,
    "ipping": 2206,
    "Ġmccarthy": 5144,
    "Ġvariety": 8530,
    "Ġparading": 23708,
    "Ġsomewhere": 5383,
    "recogn": 13423,
    "Ġsaf": 4002,
    "trimmed": 23946,
    "weary": 22684,
    "brother": 7091,
    "Ġmention": 2983,
    "continuing": 24478,
    "ison": 3070,
    "profess": 10627,
    "Ġtragedies": 25241,
    "acting": 22628,
    "Ġancest": 12610,
    "Ġmourn": 8703,
    "Ġadvert": 10570,
    "Ġargument": 7098,
    "Ġlayers": 819,
    "Ġsour": 21215,
    "bright": 8988,
    "Ġbeat": 4490,
    "bu": 5131,
    "Ġperman": 10964,
    "Ġsharper": 17178,
    "Ġdeeds": 15756,
    "bedroom": 14675,
    "Ġhearse": 10419,
    "Ġunf": 4089,
    "verize": 21726,
    "shell": 16285,
    "Ġnimble": 21526,
    "Ġ32": 19487,
    "expedition": 26078,
    "Ġtainted": 21169,
    "Ġdelusion": 18975,
    "Ġcens": 8413,
    "Ġflapp": 23006,
    "interview": 19297,
    "Ġsaucer": 20604,
    "Ġpeaked": 2294,
    "arrant": 10473,
    "ta": 13787,
    "critters": 14782,
    "Ġenergies": 25459,
    "Ġemaciated": 20637,
    "andes": 18151,
    "Ġblotting": 25313,
    "Ġexh": 5231,
    "Ġscrib": 22281,
    "bask": 20775,
    "Ġcrocod": 19627,
    "Ġpoltro": 23618,
    "Ġskilfully": 20522,
    "emptied": 23635,
    "remarkable": 13496,
    "Ġlifelessly": 23048,
    "Ġiroquois": 26469,
    "lessness": 5316,
    "Ġspices": 22128,
    "Ġtongs": 9959,
    "Ġanat": 8124,
    "Ġconstrain": 2629,
    "Ġcareful": 2611,
    "Ġbristol": 14378,
    "ĠâĢĶâĢľ_": 17717,
    "Ġprouder": 18973,
    "Ġprivile": 8645,
    "Ġwhel": 15864,
    "offensive": 16395,
    "conclude": 24063,
    "queen": 12723,
    "Ġshivering": 10264,
    "Ġisland": 4048,
    "Ġtwinkle": 12320,
    "Ġrid": 4355,
    "iates": 13735,
    "surprise": 9528,
    "Ġenjoying": 11233,
    "har": 20889,
    "Ġoblivious": 26032,
    "bl": 4140,
    "proves": 23392,
    "paradise": 20635,
    "Ġointment": 21324,
    "âĢĻâĢĶ": 12732,
    "itigated": 23045,
    "years": 6883,
    "Ġcounters": 24138,
    "Ġgets": 10838,
    "Ġdepose": 22604,
    "Ġsuggest": 5416,
    "rain": 461,
    "ft": 909,
    "securer": 25602,
    "Ġrestrict": 16372,
    "warnings": 20350,
    "Ġliberty": 7762,
    "lighter": 20958,
    "Ġunlocked": 14117,
    "Ġfrequencies": 4788,
    "Ġmaker": 15540,
    "ug": 1768,
    "Ġfanc": 6743,
    "Ġbread": 5403,
    "Ġreceptacle": 23193,
    "Ġpitied": 14690,
    "Ġaye": 3352,
    "Ġdance": 4441,
    "compan": 7301,
    "anity": 9653,
    "Ġkrempe": 10668,
    "Ġstoven": 23176,
    "Ġclues": 18427,
    "Ġtoll": 7852,
    "shut": 10978,
    "Ġhoars": 19075,
    "Ġmarket": 7709,
    "Ġutterance": 14761,
    "Ġscolding": 15198,
    "Ġsteam": 9351,
    "Ġscrape": 14916,
    "abilizing": 2922,
    "erial": 4630,
    "allies": 14164,
    "flight": 15350,
    "Ġoverbearing": 12836,
    "Ġutilize": 4797,
    "plac": 15818,
    "kins": 7345,
    "Ġsain": 17749,
    "Ġearthly": 7990,
    "Ġaffidavit": 20723,
    "Ġlanding": 11981,
    "Ġevolved": 9889,
    "Ġquantization": 19853,
    "chant": 4258,
    "arling": 10813,
    "attentive": 17188,
    "Ġgamb": 17997,
    "Ġfel": 1519,
    "Ġsnapped": 9894,
    "ufactured": 15179,
    "pan": 10715,
    "duchess": 18463,
    "Ġunwarranted": 25171,
    "Ġunfinished": 19508,
    "Ġreproached": 24891,
    "dearest": 11731,
    "iality": 8842,
    "Ġopenshaw": 7955,
    "Ġnorris": 23202,
    "Ġsouthwards": 19632,
    "Ġmissing": 6175,
    "fur": 6355,
    "Ġdisown": 22522,
    "lucky": 24544,
    "professional": 20274,
    "Ġsab": 10761,
    "quick": 6400,
    "sent": 761,
    "Ġwig": 9160,
    "Ġmagnanimous": 17409,
    "Ġcausing": 16356,
    "Ġgratified": 8022,
    "Ġinfallibly": 10039,
    "Ġhealthful": 24055,
    "Ġfilial": 16619,
    "fri": 20853,
    "oso": 12826,
    "Ġdrawing": 3918,
    "Ġpure": 6137,
    "Ġmutters": 23953,
    "Ġconnections": 972,
    "Ġindividual": 5744,
    "Ġutility": 23511,
    "Ġretrie": 10381,
    "elling": 5830,
    "Ġjoyous": 14662,
    "silly": 24421,
    "awake": 14450,
    "Ġopportunities": 19248,
    "Ġunspeak": 8849,
    "Ġvillanous": 24051,
    "Ġdangerously": 23934,
    "Ġentit": 22744,
    "Ġconvenient": 8346,
    "Ġincredulous": 9985,
    "Ġtrepidation": 19214,
    "Ġdoors": 6418,
    "Ġmatrimony": 13633,
    "bone": 5611,
    "Ġl": 303,
    "Ġyourself": 2593,
    "Ġbowsprit": 16559,
    "Ġmagnitudes": 3823,
    "althily": 19357,
    "Ġabusing": 18393,
    "Ġpreservative": 24630,
    "Ġairth": 23317,
    "Ġcompan": 2173,
    "Ġsens": 1853,
    "Ġmoral": 6578,
    "Ġestim": 3347,
    "simply": 20669,
    "Ġphrases": 2796,
    "51": 12428,
    "Ġstair": 8455,
    "Ġjub": 22293,
    "Ġ}": 21152,
    "Ġrepairing": 25589,
    "Ġlirra": 21558,
    "crew": 7545,
    "Ġcare": 1639,
    "Ġthereby": 7644,
    "Ġenthr": 22747,
    "Ġseethe": 21954,
    "Ġinfatuation": 25856,
    "Ġlowering": 7987,
    "althy": 8432,
    "engagement": 14456,
    "atory": 6125,
    "Ġkin": 15902,
    "ive": 426,
    "Ġweltering": 19584,
    "achusetts": 20709,
    "Ġgriff": 22804,
    "saying": 8640,
    "Ġjuly": 17235,
    "Ġshapes": 14107,
    "Ġtestament": 23158,
    "cies": 1814,
    "Ġbount": 15565,
    "isions": 6130,
    "pl": 402,
    "Ġforbade": 15212,
    "Ġrecovery": 11440,
    "Ġscope": 15941,
    "irious": 15783,
    "iteness": 4392,
    "lee": 11583,
    "Ġgrecian": 26296,
    "elfare": 11774,
    "Ġintense": 6157,
    "Ġran": 3342,
    "Ġunintelligible": 26513,
    "Ġdeeply": 4715,
    "touched": 15438,
    "done": 6500,
    "arity": 1303,
    "Ġdisreputable": 22532,
    "Ġvote": 21945,
    "Ġsanguinary": 25929,
    "Ġbenef": 3490,
    "Ġnot": 412,
    "should": 3260,
    "Ġcaptured": 7245,
    "extric": 22763,
    "storied": 18021,
    "\"]": 17469,
    "iver": 2050,
    "priv": 9618,
    "Ġtake": 1578,
    "chamber": 13623,
    "Ġsons": 10765,
    "complaisance": 24811,
    "Ġrough": 7187,
    "Ġtorment": 8673,
    "Ġdoc": 7200,
    "brown": 15315,
    "ourselves": 9009,
    "Ġmeanest": 12906,
    "Ġbedford": 7474,
    "orter": 4255,
    "Ġleatherhead": 20012,
    "Ġloop": 14145,
    "Ġtransformations": 3486,
    "Ġ61": 24363,
    "Ġlodging": 24090,
    "Ġsultanism": 25888,
    "Ġfeelings": 2453,
    "batross": 9091,
    "Ġsiam": 13836,
    "Ġpadd": 9668,
    "ru": 478,
    "Ġcred": 8779,
    "Ġdrow": 21425,
    "kye": 20937,
    "shoulders": 16583,
    "Ġtophet": 23571,
    "Ġmarbles": 18873,
    "Ġdeceive": 12718,
    "Ġglimpse": 6944,
    "Ġcongregational": 25102,
    "imodal": 17445,
    "Ġstrokes": 16768,
    "Ġlunging": 24991,
    "Ġcompanions": 5865,
    "Ġpatchwork": 24139,
    "magnitude": 17247,
    "Ġapprehension": 7113,
    "Ġcongratulated": 19765,
    "compar": 14357,
    "Ġdark": 2113,
    "Ġlaunched": 14924,
    "Ġintermission": 18589,
    "Ġsatir": 18793,
    "ferences": 10325,
    "idav": 18092,
    "Ġtolland": 24990,
    "idly": 12696,
    "Ġunlo": 22008,
    "Ġmayhew": 12946,
    "urable": 8922,
    "Ġtwain": 16117,
    "Ġforetold": 23450,
    "Ġlamps": 14790,
    "Ġadmit": 7711,
    "Ġsag": 6514,
    "Ġactivation": 917,
    "bohem": 19002,
    "Ġev": 4827,
    "Ġcomplaisance": 19447,
    "Ġsteadfast": 8678,
    "À": 129,
    "Ġlunch": 13524,
    "Ġsuddenness": 23380,
    "Ġmorass": 22969,
    "imagination": 13478,
    "lemency": 21372,
    "Ġentries": 22745,
    "Ġ39": 19488,
    "Ġslugg": 15266,
    "pling": 8474,
    "Ġmodeling": 2096,
    "Ġ74": 24260,
    "Ġphilipses": 24451,
    "broad": 8642,
    "dening": 22778,
    "Ġlessen": 14531,
    "Ġstatistics": 1685,
    "Ġcont": 622,
    "Ġdecide": 9285,
    "Ġbountiful": 25944,
    "ase": 1159,
    "Ġheads": 3740,
    "alleging": 23022,
    "Ġbars": 13895,
    "Ġcure": 21338,
    "iftings": 23226,
    "Ġends": 8238,
    "Ġreverie": 13455,
    "Ġmamm": 25090,
    "Ġvenerable": 9092,
    "Ġmeanings": 18607,
    "Ġbeach": 6541,
    "Ġromantic": 8031,
    "Ġspeaking": 4027,
    "Ġneglecting": 25007,
    "tattoo": 21086,
    "completely": 12417,
    "seemed": 4304,
    "Ġflows": 13006,
    "solute": 16597,
    "Ġseizure": 21955,
    "Ġpresuming": 16792,
    "ontory": 10458,
    "are": 636,
    "Ġsuperstition": 15055,
    "Ġpitching": 16610,
    "tremendous": 20672,
    "saddest": 25527,
    "crews": 15041,
    "Ġrewarded": 14938,
    "local": 22507,
    "Ġred": 3001,
    "happened": 9431,
    "Ġharpooned": 13259,
    "Ġscalable": 1630,
    "Ġhaul": 11689,
    "sto": 3198,
    "experience": 17157,
    "tles": 10729,
    "whatever": 6694,
    "Ġpestilent": 25777,
    "locks": 14454,
    "firmly": 20279,
    "ca": 20792,
    "icity": 2540,
    "Ġconcealing": 23900,
    "Ġsettle": 6293,
    "Ġspecially": 11994,
    "Ġsorrowful": 10535,
    "Ġoccasions": 7988,
    "Ġmonster": 3794,
    "owing": 7602,
    "gust": 6360,
    "Ġdict": 9174,
    "Ġhuddled": 20298,
    "Ġbring": 3323,
    "Ġfeatures": 1435,
    "Ġvalidate": 3081,
    "accusations": 23598,
    "sleeves": 26109,
    "Ġstren": 15717,
    "ifiable": 18163,
    "pertaining": 22186,
    "agement": 4188,
    "prev": 12862,
    "delighted": 10561,
    "ract": 978,
    "Ġterrify": 19359,
    "Ġavailed": 23949,
    "Ġquart": 11784,
    "Ġtruck": 19510,
    "Ġstick": 6026,
    "Ġinjustice": 9189,
    "Ġtomahawk": 7540,
    "crane": 24096,
    "Ġkidn": 20204,
    "grey": 14910,
    "gazing": 12468,
    "Ġfall": 2984,
    "needle": 20312,
    "Ġap": 5007,
    "Ġdexterous": 15146,
    "rudent": 6482,
    "lob": 22504,
    "reward": 15508,
    "andam": 10887,
    "inions": 8402,
    "gon": 17551,
    "requirements": 24857,
    "dimensional": 2346,
    "county": 25396,
    "Ġdiff": 3114,
    "Ġminers": 22830,
    "distressed": 24198,
    "Ġendow": 23141,
    "wards": 1276,
    "jewel": 20345,
    "Ġmoritz": 11903,
    "ha": 3981,
    "commod": 16171,
    "weaknesses": 26030,
    "others": 7671,
    "astrop": 3315,
    "eyed": 11485,
    "Ġeleventh": 23367,
    "Ġth": 299,
    "ague": 3906,
    "Ġflame": 7447,
    "Ġinsure": 13176,
    "Ġembell": 14422,
    "athed": 7829,
    "Ġyanke": 18097,
    "Ġ156": 20169,
    "Ġjudging": 16594,
    "ineering": 21986,
    "Ġug": 8141,
    "Ġshivered": 14106,
    "Ġvoluntarily": 12137,
    "american": 11399,
    "Ġsunset": 8961,
    "ici": 8440,
    "Ġsick": 4691,
    "Ġbattle": 5908,
    "Ġcomprehend": 6494,
    "Ġbushy": 16399,
    "Ġsacri": 18328,
    "Ġpale": 4530,
    "Ġramadans": 25119,
    "fifth": 20145,
    "Ġreversed": 15694,
    "contact": 23725,
    "Ġvigilance": 12368,
    "visible": 10532,
    "swells": 26148,
    "aret": 7417,
    "Ġvigorous": 10565,
    "Ġunwell": 22013,
    "Ġprime": 10403,
    "Ġbecoming": 4397,
    "americ": 8156,
    "civilized": 17074,
    "difficulty": 12387,
    "Ġknowing": 4456,
    "Ġrick": 21968,
    "Ġquebec": 24131,
    "travellers": 24317,
    "Ġwhir": 6393,
    "Ġtreas": 7358,
    "Ġinvestment": 24335,
    "glances": 23851,
    "Ġstand": 1736,
    "Ġforwards": 12699,
    "riors": 18187,
    "Ġwand": 4342,
    "Ġmyst": 4050,
    "Ġwrapping": 19774,
    "Ġsights": 7473,
    "omination": 21660,
    "Ġscotch": 12206,
    "myself": 5112,
    "ones": 2744,
    "Ġscheduling": 2347,
    "Ġhuggins": 24828,
    "ascertain": 21541,
    "tures": 21068,
    "Ġsurpass": 13581,
    "Ġquadruped": 17457,
    "Ġbordeaux": 24563,
    "obscure": 23096,
    "Ġproblems": 2847,
    "mountains": 15178,
    "Ġcathedral": 17411,
    "Ġmerchant": 6467,
    "Ġfortune": 4240,
    "cheeked": 19339,
    "Ġleeward": 6210,
    "sensibility": 25023,
    "speptic": 23943,
    "borean": 25743,
    "Ġedward": 19119,
    "axing": 18547,
    "Ġdecisions": 6702,
    "hyp": 15364,
    "Ġsmell": 7216,
    "Ġhamp": 12626,
    "Ġelopement": 10328,
    "Ġclear": 1949,
    "Ġsurpassed": 25267,
    "Ġunfavourable": 17415,
    "Ġtum": 5692,
    "Ġmississ": 18837,
    "Ġrobustness": 18863,
    "Ġestimation": 11217,
    "grained": 20882,
    "matlock": 23468,
    "Ġhammers": 13239,
    "Ġinvaders": 23479,
    "idents": 6150,
    "pression": 10406,
    "Ġessentially": 24924,
    "Ġappeal": 16314,
    "Ġtumbled": 13404,
    "named": 9897,
    "Ġartist": 12908,
    "isis": 12575,
    "record": 16920,
    "Ġstruck": 3389,
    "Ġvary": 15805,
    "Ġchival": 14181,
    "Ġshone": 7404,
    "Ġmonotonous": 13260,
    "thur": 7188,
    "Ġtechn": 9364,
    "Ġterminating": 23508,
    "certainly": 5338,
    "Ġdistinguish": 2726,
    "Ġoccurrences": 11049,
    "Ġtist": 21161,
    "Ġtowers": 16737,
    "Ġrecollected": 8311,
    "Ġdiscern": 7659,
    "dropping": 14980,
    "Ġtitle": 11407,
    "Ġoverpowering": 15247,
    "Ġcircumnavigating": 25614,
    "Ġcellars": 24665,
    "Ġaccorded": 24086,
    "Ġdisclose": 16154,
    "Ġsideboard": 10384,
    "Ġbath": 9657,
    "Ġbarrowful": 25595,
    "Ġsenior": 17170,
    "Ġadvances": 12988,
    "Ġtrick": 7020,
    "Ġbeams": 14630,
    "species": 13254,
    "news": 23132,
    "Ġforbear": 17120,
    "Ġought": 3419,
    "field": 3067,
    "Ġpumping": 25643,
    "Ġcowardice": 17031,
    "paying": 25411,
    "Ġatom": 18192,
    "detective": 24382,
    "Ġlain": 17961,
    "Ġstyle": 6946,
    "Ġruin": 6056,
    "Ġfrigate": 13079,
    "Ġdod": 6672,
    "Ġtrust": 4078,
    "dashing": 20835,
    "Ġpursu": 3238,
    "Ġlab": 1871,
    "Ġsized": 11561,
    "pemberley": 9619,
    "Ġpassionate": 11271,
    "Ġendowed": 18924,
    "ulate": 5232,
    "Ġdepressions": 25798,
    "Ġslippers": 19614,
    "Ġslide": 10392,
    "dimens": 2315,
    "Ġsammy": 24932,
    "Ġneur": 815,
    "preser": 9758,
    "propriety": 14363,
    "ans": 459,
    "Ġspiritual": 9928,
    "Ġmagnet": 10389,
    "hereabouts": 23605,
    "nearer": 22457,
    "iour": 4037,
    "Ġlandowner": 23379,
    "Ġpeg": 22687,
    "adem": 21755,
    "Ġremorseless": 13449,
    "nd": 11502,
    "Ġdi": 6525,
    "Ġrepresents": 4901,
    "kington": 11201,
    "mean": 6438,
    "owal": 13991,
    "Ġintrusted": 21990,
    "Ġcour": 1769,
    "Ġfreed": 7267,
    "mush": 20976,
    "Ġcasualties": 25512,
    "Ġfugitives": 25634,
    "Ġclaims": 13371,
    "ieve": 1658,
    "gammon": 20242,
    "Ġmaterially": 12188,
    "craft": 12243,
    "Ġmajestic": 8639,
    "rich": 11516,
    "Ġcomprises": 22570,
    "Ġadorn": 12788,
    "altering": 12636,
    "addressing": 24400,
    "Ġepoch": 26471,
    "Ġdistrusted": 13540,
    "nostr": 22713,
    "repeat": 25151,
    "Ġtusked": 25426,
    "Ġphaeton": 17463,
    "Ġinsurmountable": 16530,
    "Ġburden": 8607,
    "Ġwaved": 9643,
    "Ġpleasanter": 19065,
    "Ġfame": 21404,
    "Ġnotable": 18222,
    "fights": 20864,
    "Ġtrading": 23075,
    "ways": 1443,
    "Ġstring": 11824,
    "unsupervised": 10888,
    "oar": 12494,
    "mouthed": 12397,
    "Ġbottled": 23794,
    "Ġpeered": 18668,
    "Ġfigure": 4206,
    "Ġmapple": 11149,
    "Ġavenue": 13619,
    "conject": 8878,
    "Ġblurred": 22929,
    "Ġhandspike": 22694,
    "only": 3307,
    "vac": 15449,
    "scor": 13016,
    "prejud": 11793,
    "capting": 24036,
    "Ġfrontispiece": 23911,
    "Ġbec": 1349,
    "Ġcha": 6853,
    "Ġnecessitates": 23926,
    "Ġheathenish": 13614,
    "Ġswimming": 5506,
    "Ġern": 8397,
    "Ġdiscoloured": 15250,
    "Ġstrategy": 2548,
    "Ġwire": 13850,
    "ience": 801,
    "Ġassemblage": 26351,
    "Ġrefrain": 12943,
    "Ġpotent": 12061,
    "walks": 19720,
    "Ġfaith": 5349,
    "Ġezekiel": 26192,
    "Ġexhibit": 14954,
    "Ġbristles": 25843,
    "Ġranging": 8478,
    "Ġequ": 1735,
    "Ġloo": 22108,
    "Ġsuffer": 4720,
    "Ġpiazza": 26449,
    "Ġperception": 9748,
    "Ġigniting": 25070,
    "Ġcompanionship": 14918,
    "Ġcomp": 723,
    "Ġlightened": 23260,
    "chard": 21685,
    "Ġhypotheses": 4386,
    "ubines": 22959,
    "hero": 21203,
    "Ġgarn": 13961,
    "Ġdut": 2985,
    "Ġmoles": 22432,
    "Ġchronicler": 20228,
    "tern": 4224,
    "Ġsolved": 8930,
    "bear": 10314,
    "Ġcomplained": 16997,
    "Ġid": 1909,
    "Ġserves": 4667,
    "Ġthunders": 15635,
    "Ġincalculable": 17459,
    "Ġsheep": 10925,
    "daughters": 13464,
    "Ġ183": 13236,
    "Ã": 132,
    "oyed": 14364,
    "Ġpiteous": 17917,
    "complacency": 19913,
    "distraction": 24199,
    ".)": 6783,
    "Ġrespectively": 23248,
    "Ġfaithful": 9501,
    "Ġincessantly": 11410,
    "Ġcoppers": 22581,
    "Ġawkwardness": 13485,
    "Ġgentlemen": 3641,
    "deserts": 25379,
    "mber": 7804,
    "Ġpanegyric": 26448,
    "arranged": 19318,
    "Ġtrifle": 10600,
    "nder": 20986,
    "asht": 4083,
    "Ġwithstand": 10224,
    "Ġbridle": 24681,
    "Ġbuck": 7157,
    "humorously": 24017,
    "Ġalley": 15733,
    "Ġhurriedly": 11248,
    "Ġcultiv": 13554,
    "Ġsepar": 4000,
    "dost": 14534,
    "Ġbestow": 6455,
    "rers": 14716,
    "Ġdivinest": 25722,
    "ying": 1367,
    "abound": 15737,
    "Ġvii": 13106,
    "Ġunerring": 15845,
    "analy": 17838,
    "Ġpang": 15602,
    "Ġbackground": 18649,
    "Ġtall": 4038,
    "azore": 23461,
    "Ġfetch": 7770,
    "Ġnervous": 2406,
    "erland": 9639,
    "Ġresting": 7962,
    "asburgh": 15644,
    "Ġtyro": 16993,
    "mem": 10708,
    "Ġgeomet": 3191,
    "Ġspect": 3552,
    "neither": 9756,
    "Ġrepl": 1593,
    "ĠĠĠĠĠĠĠĠ": 711,
    "Ġwillingly": 8883,
    "Ġsilly": 7687,
    "Ġdisinclined": 22527,
    "captains": 12124,
    "Ġcherry": 16934,
    "Ġaberdeen": 26540,
    "Ġdonkey": 23229,
    "rim": 7137,
    "Ġconfusion": 7273,
    "Ġconting": 18472,
    "Ġczar": 12570,
    "suited": 22631,
    "mies": 20967,
    "Ġunappalled": 22061,
    "Ġlamentations": 17075,
    "Ġreflection": 6440,
    "ieves": 4007,
    "Ġdisregarded": 22528,
    "Ġspurned": 12793,
    "Ġconquer": 14025,
    "solemn": 19816,
    "revival": 26162,
    "Ġcompetent": 11813,
    "constellation": 24608,
    "Ġcrawled": 17043,
    "Ġsealed": 15813,
    "Ġunfaltering": 24110,
    "Ġcliffs": 15971,
    "Ġchowder": 10279,
    "Ġunderstood": 5655,
    "Ġunrem": 18241,
    "scar": 9814,
    "Ġforbidden": 17077,
    "Ġintimidated": 24805,
    "Ġformed": 3884,
    "Ġsensit": 2945,
    "Ġbob": 22635,
    "bid": 5610,
    "holmes": 4430,
    "Ġanalogical": 25640,
    "Ġclaret": 22358,
    "âĢĶâĢĶâĢĿ": 15937,
    "Ġhoarse": 14525,
    "Ġturbul": 23611,
    "Ġcocoanuts": 26362,
    ",âĢĻâĢĶ": 23524,
    "Ġmortification": 12090,
    "Ġkra": 18348,
    "Ġsalut": 10508,
    "Ë": 140,
    "ì": 173,
    "Ġtaffrail": 15475,
    "abhorred": 17334,
    "Ġgi": 15663,
    "Ġmiss": 1230,
    "atible": 17771,
    "diss": 17522,
    "Ġwedge": 24066,
    "Ġvoices": 7877,
    "Ġspleen": 26420,
    "discoveries": 25385,
    "Ġsmiled": 5941,
    "Ġports": 10817,
    "heading": 5486,
    "difference": 13706,
    "Ġprivileges": 25132,
    "semicirc": 26490,
    "Ġknots": 15007,
    "Ġwithdrawing": 11339,
    "Ġcause": 2412,
    "Ġverdant": 15001,
    "Ġpretensions": 16556,
    "gr": 2087,
    "Ġdimension": 3239,
    "Ġblunt": 11891,
    "intu": 22931,
    "Ġcarving": 14441,
    "Ġdifficult": 3571,
    "Ġstepfather": 7221,
    "Ġcomment": 9231,
    "Ġsex": 8840,
    "Ġremember": 2678,
    "Ġpul": 2042,
    "Ġdip": 13905,
    "uded": 6286,
    "Ġtook": 1855,
    "thinking": 9012,
    "Ġabominably": 20064,
    "bour": 2073,
    "Ġverify": 12084,
    "Ġaccomplish": 14874,
    "letons": 14612,
    "iloqu": 11646,
    "Ġlaug": 3626,
    "Ġvac": 5024,
    "Ġintruder": 25991,
    "ĉ": 202,
    "dig": 4928,
    "emph": 21924,
    "Ġappearing": 9839,
    "Ġincommod": 25307,
    "invincible": 25089,
    "Ġintroduces": 3267,
    "Ġrider": 24184,
    "Ġ82": 24457,
    "fil": 12459,
    "abez": 10221,
    "Ġelbowed": 16107,
    "Ġpaints": 23521,
    "ard": 465,
    "Ġfatigue": 8697,
    "full": 7420,
    "Ġdireful": 11017,
    "strade": 5064,
    "Ġbite": 10796,
    "Ġru": 948,
    "inct": 3291,
    "Ġjustine": 4969,
    "Ġreview": 18030,
    "Ġobjections": 8564,
    "!âĢĶ": 2454,
    "Ġunforgiving": 25995,
    "Ġconn": 9228,
    "amused": 21844,
    "Ġgreeted": 23212,
    "Ġhold": 2242,
    "Ġlombardy": 26462,
    "belais": 24035,
    "Ġexperiences": 13026,
    "Ġcounterbalance": 24722,
    "inting": 9812,
    "Ġwrong": 4722,
    "learned": 8602,
    "congratulations": 20278,
    "Ġrejoicing": 13419,
    "Ġexercise": 8359,
    "irectly": 6940,
    "atherine": 2595,
    "Ġswiss": 18882,
    "magnifying": 25392,
    "tr": 3579,
    "wam": 10134,
    "ascertaining": 26459,
    "gast": 20870,
    "spending": 18691,
    "Ġsocially": 22085,
    "Ġpleaded": 16297,
    "Ġpad": 8125,
    "culine": 19063,
    "Ġpriest": 7527,
    "Ġfruitless": 25605,
    "asked": 8910,
    "Ġaudacity": 19881,
    "Ġniag": 21528,
    "Ġinf": 1757,
    "und": 4086,
    "Ġinert": 15619,
    "Ġwhistling": 19789,
    "refusal": 24736,
    "stige": 21653,
    "Ġgratify": 19501,
    "Ġtightly": 13532,
    "Ġdogs": 7742,
    "Ġtrop": 7566,
    "Ġperpet": 7645,
    "Ġvaried": 11845,
    "Ġlethar": 21744,
    "Ġvanquished": 22876,
    "Ġbi": 918,
    "Ġboard": 3383,
    "Ġhardly": 2434,
    "Ġis": 347,
    "ho": 2856,
    "Ġadrift": 11719,
    "unconquerable": 21889,
    "ster": 1959,
    "ocratic": 17244,
    "Ġjoyfully": 19344,
    "Ġcomparison": 7099,
    "weather": 7229,
    "Ġlav": 13948,
    "Ń": 260,
    "Ġabomin": 8189,
    "Ġvisitor": 5329,
    "Ġexpanse": 14289,
    "Ġbery": 13896,
    "li": 1188,
    "lid": 20944,
    "Ġhenceforth": 19646,
    "Ġensl": 19273,
    "recursion": 13326,
    "Ġbrothers": 13173,
    "Ġsnake": 12058,
    "Ġhatter": 4111,
    "Ġtransformers": 1134,
    "Ġunconnected": 18239,
    "Ġtong": 4869,
    "Ġpassage": 3885,
    "Ġovercome": 6043,
    "back": 2017,
    "rippa": 11340,
    "msgate": 18415,
    "died": 10692,
    "Ġfashions": 17885,
    "apothe": 22332,
    "ther": 482,
    "acceptance": 25185,
    "Ġbern": 17858,
    "Ġinfidel": 13085,
    "oney": 3045,
    "metic": 14982,
    "Ġaggregated": 25678,
    "Ġirreducible": 5518,
    "bitterly": 20336,
    "Ġwatery": 6296,
    "les": 1015,
    "pleas": 3852,
    "Ġblinding": 14726,
    "inging": 5907,
    "Ġsavage": 4012,
    "Ġalbino": 20501,
    "Ġfurther": 1055,
    "Ġpreside": 18365,
    "Ġbluish": 23651,
    "ppo": 18175,
    "Ġcontaining": 2230,
    "Ġquohog": 10971,
    "Ġsuccessful": 9921,
    "Ġwarmup": 3922,
    "Ġ129": 24473,
    "som": 3290,
    "ishop": 9740,
    "Ġrafters": 22650,
    "Ġconceits": 19388,
    "Ġamelia": 26251,
    "naturally": 14574,
    "Ġcontextual": 3742,
    "Ġsty": 6251,
    "raham": 18013,
    "distant": 13332,
    "Ġvoyages": 6908,
    "gest": 5425,
    "wood": 5898,
    "disp": 7977,
    "ighter": 7968,
    "Ġexerted": 15752,
    "ilight": 12689,
    "respect": 6374,
    "Ġtesting": 23156,
    "Ġincompetent": 25679,
    "Ġqueerest": 16413,
    "me": 876,
    "itying": 21992,
    "Ġgentlemanlike": 12063,
    "Ġfalsely": 20580,
    "isl": 21373,
    "gd": 3124,
    "Ġdropping": 7484,
    "Ġjur": 12830,
    "Ġwithdrew": 9694,
    "Ġvivid": 8058,
    "Ġprimary": 25060,
    "Ġpallor": 13514,
    "wide": 10136,
    "Ġcabin": 3301,
    "Ġouthouse": 22312,
    "bestowed": 12222,
    "Ġanonym": 17897,
    "Ġstoop": 16310,
    "conceivable": 17129,
    "send": 15422,
    "Ġinsulated": 23678,
    "ander": 6401,
    "Ġvolume": 6769,
    "Ġkins": 22192,
    "Ġvainly": 9922,
    "Ġsixpence": 19316,
    "Ġrelapses": 26278,
    "Ġshocking": 10434,
    "Ġcreeping": 18686,
    "Ġsauce": 15888,
    "ok": 573,
    "Ġburying": 19251,
    "Ġkrem": 9724,
    "ock": 15401,
    "÷": 184,
    "Ġkrus": 18349,
    "Ġrests": 13090,
    "Ġinfants": 16362,
    "lac": 17588,
    "Ġchap": 5934,
    "Ġready": 3397,
    "Ġpuzzle": 11304,
    "Ġbubbling": 17324,
    "brevi": 24070,
    "ientific": 6547,
    "Ġpyramids": 15112,
    "Ġvault": 8839,
    "Ġelevate": 24498,
    "cet": 15323,
    "eded": 9672,
    "harm": 13733,
    "Ġchimer": 24603,
    "Ġprofessor": 11229,
    "quid": 18146,
    "Ġsocieties": 20181,
    "Ġsupported": 9816,
    "Ġscuff": 15940,
    "Ġembal": 11913,
    "Ġrespects": 7269,
    "european": 26371,
    "Ġbloom": 9886,
    "accordingly": 19212,
    "consciousness": 13363,
    "Ġstyled": 24671,
    "continuance": 19717,
    "Ġmists": 14629,
    "Ġeyford": 10640,
    "Ġoblivion": 26031,
    "icha": 11735,
    "shark": 14235,
    "lads": 20954,
    "Ġshrivelled": 19702,
    "Ġreserves": 19669,
    "Ġterr": 3271,
    "quakes": 21854,
    "Ġfurnaces": 24002,
    "bellies": 19972,
    "Ġobserved": 3541,
    "inquiries": 13575,
    "idence": 4302,
    "Ġclue": 7019,
    "ation": 320,
    "agation": 1227,
    "Ġuninjured": 22052,
    "Ġremonstr": 16159,
    "Ġlabrador": 23330,
    "Ġbleeds": 24396,
    "impul": 16554,
    "Ġlibr": 15999,
    "Ġwheeling": 18288,
    "Ġsecrets": 9053,
    "Ġvowed": 14082,
    "Ġyes": 2689,
    "Ġgroup": 2038,
    "Ġadvertised": 17246,
    "Ġdigesting": 19808,
    "ately": 1713,
    "scorched": 25697,
    "Ġrequiring": 2919,
    "Ġloathing": 15067,
    "Ġrefresh": 10344,
    "haven": 20911,
    "ighted": 8476,
    "Ġaltern": 7394,
    "Ġoutrageous": 20609,
    "Ġmalays": 19676,
    "insupportable": 21192,
    "¸": 121,
    "osite": 4892,
    "Ġtimor": 24223,
    "Ġcontents": 7210,
    "Ġfluctuations": 5515,
    "lish": 1951,
    "shaped": 10306,
    "Ġresort": 18563,
    "sculpt": 16244,
    "Ġadequate": 20307,
    "recollect": 17222,
    "Ġrecurring": 23232,
    "pping": 1426,
    "Ġwherefore": 8524,
    "Ġescape": 2648,
    "earth": 6502,
    "ilar": 10214,
    "bare": 12438,
    "alt": 12634,
    "Ġcongratulations": 10579,
    "Ġdiscerned": 24956,
    "advance": 12153,
    "Ġneighb": 14074,
    "Ġamours": 22479,
    "Ġappropriated": 23483,
    "Ġdominic": 25381,
    "Ġantiqu": 12141,
    "Ġshavings": 14108,
    "Ġnets": 21522,
    "Ġprone": 18969,
    "Ġimpelled": 11779,
    "Ġbelieving": 8225,
    "Ġfreely": 7056,
    "Ġprobable": 5568,
    "induce": 22372,
    "Ġencirc": 18731,
    "Ġitems": 9690,
    "Ġringle": 18212,
    "Ġsettled": 3741,
    "Ġgranite": 22806,
    "lynes": 15701,
    "Ġesteem": 7532,
    "Ġfortresses": 23620,
    "Ġobjectionable": 16990,
    "Ġdebar": 24270,
    "anche": 10787,
    "Ġstrictly": 12282,
    "Ġam": 660,
    "Ġdazzling": 15209,
    "Ġsidelong": 11437,
    "heav": 5694,
    "meetings": 20376,
    "ouri": 21446,
    "Ġmal": 5220,
    "preserving": 25304,
    "rossing": 18647,
    "Ġextrem": 2475,
    "thread": 15823,
    "occasion": 7754,
    "Ġnear": 1719,
    "hatch": 15362,
    "Ġunder": 1637,
    "safe": 10052,
    "Ġexamining": 8006,
    "Ġwalk": 1827,
    "Ġgoose": 5938,
    "fixed": 7549,
    "Ġportraits": 20141,
    "Ġstable": 2699,
    "buffalo": 20562,
    "purposes": 25021,
    "Ġfright": 3797,
    "Ġ33": 16675,
    "Ġascertain": 9704,
    "approb": 11042,
    "veh": 12675,
    "Ġremaining": 6188,
    "Ġprinciple": 6770,
    "pretend": 24882,
    "impregnable": 26480,
    "Ġbeer": 10218,
    "Ġextinct": 14326,
    "immense": 18052,
    "cry": 12442,
    "countenances": 24150,
    "Ġrefreshment": 17238,
    "Ġpen": 1534,
    "remain": 9836,
    "club": 26379,
    "Ġyojo": 7611,
    "Ġplainly": 4381,
    "origin": 7582,
    "Ġdrives": 14577,
    "inced": 3335,
    "Ġpoetry": 15078,
    "Ġcousin": 3704,
    "sacrifice": 13490,
    "Ġdismay": 11806,
    "unworthy": 18161,
    "Ġmushroom": 13234,
    "etics": 21579,
    "humanity": 24839,
    "Ġpredomin": 16044,
    "Ġencompassed": 15251,
    "wag": 21122,
    "Ġhopeful": 19029,
    "thanked": 24330,
    ",âĢĶâĢľ": 10068,
    "Ġsecurely": 16801,
    "Ġbaboon": 19692,
    "jacket": 12289,
    "Ġrelate": 6875,
    "Ġfam": 1585,
    ";âĢĿ": 7791,
    "med": 1908,
    "Ġappalled": 22216,
    "Ġund": 4117,
    "Ġtelling": 5747,
    "proceed": 8975,
    "christ": 10209,
    "owl": 12679,
    "Ġaust": 4870,
    "Ġunwillingly": 15846,
    "precipitance": 25867,
    "Ġpirate": 14995,
    "Ġsprings": 16686,
    "Ġmortally": 23914,
    "Ġsplinter": 23744,
    "arter": 17893,
    "Ġknowest": 12859,
    "either": 6791,
    "painter": 24896,
    "Ġsolemnisation": 24111,
    "Ġsphere": 15880,
    "Ġpendulous": 25955,
    "rolling": 9059,
    "eds": 6674,
    "wearing": 22685,
    "Ġem": 1924,
    "ates": 518,
    "Ġleaping": 8341,
    "rimsh": 17026,
    "Ġsurest": 19054,
    "Ġskeletons": 16790,
    "baden": 25615,
    "winds": 10520,
    "onies": 6806,
    "Ġlink": 8130,
    "Ġembark": 8563,
    "Ġultimate": 12346,
    "Ġover": 553,
    "Ġfamine": 16326,
    "mock": 5173,
    "ands": 21864,
    "Ġdelicate": 6480,
    "app": 1042,
    "Ġspe": 823,
    "Ġtypewritten": 16420,
    "Ġportcull": 23861,
    "accessible": 13637,
    "win": 6801,
    "ruck": 6848,
    "Ġtents": 13816,
    "without": 4845,
    "Ġwarrior": 24495,
    "ĠcÃ¦": 15552,
    "Ġeaves": 15673,
    "even": 3838,
    "fields": 14652,
    "considerably": 13443,
    "inspector": 13644,
    "Ġpaths": 2569,
    "nels": 12492,
    "Ġexciting": 23311,
    "istence": 2217,
    "Ġscent": 10283,
    "Ġdams": 16455,
    "Ġseparate": 5778,
    "assment": 9738,
    "chief": 4643,
    "Ġtinker": 15129,
    "report": 13397,
    "Ġstilly": 25973,
    "outh": 2688,
    "sharks": 14236,
    "Ġassumpt": 5414,
    "Ġbids": 24645,
    "Ġblankness": 24611,
    "features": 14771,
    "Ġparched": 11724,
    "Ġameric": 3854,
    "sol": 1790,
    "idays": 21768,
    "Ġburns": 16522,
    "Ġwilfully": 16765,
    "Ġ*": 1272,
    "Ġshol": 21993,
    "Ġsuperstitions": 17071,
    "Ġattorney": 18621,
    "Ġendeavouring": 8035,
    "Ġunconditional": 15842,
    "Ġinfinite": 8576,
    "appeared": 4281,
    "Ġbarbed": 14833,
    "steering": 16634,
    "twas": 15436,
    "contrad": 19290,
    "Ġdeposed": 16085,
    "Ġskirts": 14350,
    "stranded": 19224,
    "tish": 17676,
    "uce": 11534,
    "bod": 12434,
    "anely": 17836,
    "Ġprem": 3428,
    "pointing": 12221,
    "Ġwork": 1320,
    "Ġindisp": 18833,
    "Ġsiberia": 26161,
    "Ġshared": 10262,
    "Ġabsorbed": 12328,
    "above": 8148,
    "Ġaverted": 16253,
    "Ġjura": 14191,
    "Ġsituations": 10490,
    "Ġreaders": 18914,
    "Ġsunny": 13083,
    "Ġaware": 5756,
    "Ġperch": 10297,
    "Ġbelie": 14404,
    "thing": 1479,
    "code": 15327,
    "Ġvile": 8472,
    "dles": 11479,
    "Ġwithal": 18113,
    "Ġthan": 737,
    "Ġwholly": 4446,
    "Ġcolonnades": 26275,
    "Ġbreathing": 9443,
    "Ġdiv": 3730,
    "Ġscrolled": 22282,
    "Ġaccomp": 4711,
    "opius": 18509,
    "skeleton": 17374,
    "Ġmap": 2394,
    "Ġenormous": 5608,
    "Ġmotioned": 19591,
    "Ġslightly": 7293,
    "oring": 1860,
    "Ġcran": 11997,
    "ele": 9113,
    "Ġphilistines": 26082,
    "constant": 11323,
    "Ġnapoleon": 20556,
    "ially": 9245,
    "Ġodorous": 19565,
    "Ġproceeding": 9904,
    "enderby": 25215,
    "Ġeasterly": 25962,
    "Ġstation": 5296,
    "Ġfund": 2842,
    "ver": 331,
    "Ġcontract": 18475,
    "Ġmagical": 23097,
    "reinforcement": 7827,
    "divers": 15340,
    "Ġbreak": 2867,
    "Ġdespise": 14664,
    "Ġbig": 5805,
    "Ġcurly": 18846,
    "Ġcre": 890,
    "Ġmachinery": 20483,
    "Ġeuroclydon": 15294,
    "nings": 9130,
    "Ġcomplying": 18586,
    "hard": 4688,
    "Ġfierceness": 26264,
    "Ġmonoman": 7939,
    "orial": 8417,
    "contented": 14633,
    "Ġrapturously": 24888,
    "Ġtravel": 5953,
    "gale": 13722,
    "gration": 9120,
    "piece": 6655,
    "critical": 19502,
    "Ġrevolt": 24500,
    "attempts": 17189,
    "Ġhumaneval": 25582,
    "Ġpreparing": 8647,
    "Ġreflections": 5946,
    "Ġchann": 15933,
    "hope": 5990,
    "names": 15396,
    "Ġstoried": 18072,
    "scornful": 26574,
    "arned": 21819,
    "Û": 156,
    "Ġwhereas": 3855,
    "orte": 14183,
    "Ġdone": 1818,
    "aw": 1449,
    "Ġpushed": 5910,
    "Ġimmured": 24068,
    "aggra": 21904,
    "Ġannoyance": 20661,
    "Ġmalice": 7152,
    "satisfactory": 16892,
    "greeting": 24553,
    "Ġsight": 2112,
    "figured": 20121,
    "sequent": 6831,
    "mentioning": 24885,
    "overcome": 19050,
    "Ġavalanche": 17431,
    "Ġfacing": 10170,
    "Ġscramble": 24577,
    "Ġstroll": 13350,
    "amouch": 21843,
    "inity": 5693,
    "igh": 2029,
    "wrinkles": 16553,
    "Ġshag": 9249,
    "Ġmargin": 11918,
    "need": 10982,
    "angel": 5726,
    "Ġfrench": 4938,
    "Ġwebster": 20160,
    "Ġrattling": 11394,
    "Ġarctic": 12807,
    "Ġdetestation": 17126,
    "typewritten": 26038,
    "mrs": 3744,
    "Ġmonosyllable": 20725,
    "linearity": 1651,
    "Ġforward": 1838,
    "Ġregulations": 18599,
    "tent": 21063,
    "Ġendeavours": 8617,
    "scale": 3535,
    "Ġsupplement": 23000,
    "john": 11496,
    "Ġunderneath": 16336,
    "Ġencountering": 11267,
    "Ġtig": 13811,
    "Ġhop": 1461,
    "Ġmorals": 22970,
    "isation": 13891,
    "Ġcolle": 8923,
    "Ġcreatures": 4135,
    "scho": 8759,
    "Ġdamned": 13129,
    "Ġplague": 11821,
    "gaze": 17556,
    "Ġsuppressed": 11908,
    "misfortunes": 16755,
    "Ġinterpreter": 23213,
    "Ġacquire": 2723,
    "doesn": 19819,
    "Ġencountered": 8322,
    "return": 5488,
    "Ġannouncement": 14831,
    "Ġgrec": 18961,
    "cc": 472,
    "reat": 617,
    "omp": 2472,
    "Ġbl": 1190,
    "itations": 17817,
    "Ġ44": 16678,
    "none": 6962,
    "Ġdoubting": 13097,
    "Ġblasted": 7938,
    "Ġjackal": 24238,
    "suppose": 8644,
    "Ġpiping": 23240,
    "Ġsteered": 11092,
    "Ġprodigiously": 14930,
    "Ġmonsie": 11446,
    "Ġwherever": 8523,
    "halfway": 24310,
    "Ġsouthern": 7690,
    "Ġheath": 15699,
    "Ġdried": 7367,
    "oblig": 16289,
    "sighted": 19784,
    "Ġturkey": 19218,
    "pennies": 26285,
    "Ġevaluate": 3122,
    "Ġlizzy": 3546,
    "marest": 20979,
    "Ġheadway": 18791,
    "Ġcircumnavigation": 20398,
    "threw": 21979,
    "Ġcontemptuously": 19832,
    "ructed": 7027,
    "utch": 21584,
    "penet": 11069,
    "Ġarchy": 14345,
    "Ġmon": 1252,
    "Ġassault": 9835,
    "Ġpostmark": 16724,
    "altern": 17941,
    "Ġdataset": 12817,
    "Ġdav": 15587,
    "Ġremain": 1874,
    "compassion": 12365,
    "ble": 541,
    "stay": 9678,
    "Ġincessant": 15095,
    "Ġdwell": 5812,
    "Ġeighteenth": 14752,
    "ty": 1000,
    "Ġfern": 21405,
    "Ġunicorn": 22053,
    "Ġdetestable": 15096,
    "extensive": 18709,
    "Ġcompressed": 21848,
    "Ġhandle": 3136,
    "Ġstoner": 7178,
    "Ġhurricane": 16430,
    "Ġelab": 22640,
    "utely": 8132,
    "sorrows": 17318,
    "Ġenumerating": 15242,
    "cules": 12388,
    "Ġabsolute": 6765,
    "enary": 12547,
    "companion": 9556,
    "quarters": 24946,
    "Ġpeaceful": 9454,
    "visitors": 13346,
    "sicilian": 21062,
    "Ġcauldron": 25441,
    "Ġlivelihood": 24774,
    "Ġbalances": 2338,
    "disposition": 10040,
    "charles": 14697,
    "ape": 1904,
    "Ġemigrant": 25859,
    "learning": 2741,
    "Ġpreserved": 9260,
    "Ġgen": 5295,
    "Ġelapsed": 7653,
    "Ġtests": 8952,
    "Ġstack": 21731,
    "Ġthrees": 23399,
    "Ġtooth": 9191,
    "Ġminim": 1325,
    "Ġnarrow": 5085,
    "Ġanswering": 7478,
    "gryphon": 15356,
    "Ġtwinkled": 14310,
    "Ġyoung": 1507,
    "strangers": 20335,
    "Ġchancery": 20715,
    "Ġprair": 7747,
    "Ġintensified": 17017,
    "practical": 17220,
    "atement": 17772,
    "Ġupwards": 7634,
    "fore": 687,
    "Ļ": 252,
    "Ġboun": 21378,
    "Ġintrepidity": 25550,
    "ure": 356,
    "Ġgained": 4533,
    "Ġrich": 2990,
    "ipher": 18426,
    "wheels": 14379,
    "chron": 21692,
    "qu": 369,
    "Ġadroit": 26000,
    "Ġadviser": 25312,
    "Ġsaintsbury": 26372,
    "Ġpants": 21464,
    "vitiated": 25754,
    "Ġpresents": 8245,
    "figures": 20120,
    "Ġvan": 1089,
    "Ġseethings": 26502,
    "Ġqualities": 7534,
    "Ġevian": 24291,
    "ezes": 9989,
    "Ġsemblance": 20733,
    "burnt": 20078,
    "Ġregret": 5559,
    "ers": 404,
    "wand": 10737,
    "Ġtransaction": 22463,
    "gay": 11487,
    "Ġthereupon": 18434,
    "overcoat": 19051,
    "farm": 15349,
    "yarn": 15456,
    "aneous": 7240,
    "Ġp": 289,
    "Ġloose": 4647,
    "Ġfairest": 20461,
    "nostril": 26558,
    "dat": 1591,
    "Ġmitigating": 1620,
    "inv": 8401,
    "Ġmanilla": 15957,
    "Ġmart": 10778,
    "chop": 21686,
    "life": 4931,
    "descried": 11926,
    "Ġdissimilar": 22529,
    "Ġutensils": 23512,
    "Ġenchantment": 24869,
    "Ġy": 341,
    "convers": 6567,
    "Ġadhes": 22101,
    "Ġxlix": 25860,
    "Ġphilosophical": 26334,
    "Ġyellow": 5299,
    "island": 10793,
    "Ġteaches": 18797,
    "Ġclutched": 13517,
    "Ġfixedly": 19246,
    "iters": 21327,
    "ace": 715,
    "%": 9,
    "Ġflung": 8561,
    "eric": 3472,
    "Ġvessel": 3799,
    "Ġbeggars": 20628,
    "ą": 198,
    "Ġreflect": 6574,
    "abb": 15736,
    "companies": 24894,
    "Ġhurrying": 11991,
    "Ġstowed": 21734,
    "Ġchick": 22245,
    "weave": 22683,
    "Ġprediction": 2185,
    "arch": 1122,
    "Ġdivulged": 16647,
    "Ġhogshead": 26367,
    "taking": 5689,
    "Ġdampening": 2894,
    "Ġtrag": 13036,
    "Ġacquies": 11096,
    "Ġubiquitous": 26195,
    "Ġrushes": 20506,
    "ials": 11703,
    "Ġbuild": 6474,
    "silence": 8045,
    "ream": 2709,
    "Ġapparel": 20434,
    "Ġremembrance": 8318,
    "Ġflowed": 10370,
    "different": 6501,
    "strongly": 24684,
    "Ġclamped": 18431,
    "convolutional": 4957,
    "curious": 10481,
    "Ġtrad": 9826,
    "iciency": 9573,
    "Ġinadequate": 17936,
    "Ġmistress": 8611,
    "Ġmalay": 24390,
    "Ġtruce": 24113,
    "the": 334,
    "Ġregent": 18597,
    "Ġprofits": 16488,
    "rations": 10722,
    "Ġtrapped": 23076,
    "Ġsole": 3296,
    "Ġeclipsed": 26376,
    "Ġrepute": 18034,
    "Ġinvestigated": 25386,
    "Ġfoe": 7681,
    "antial": 8487,
    "Ġbarbarously": 24819,
    "rayed": 23561,
    "abil": 2007,
    "Ġhoops": 9386,
    "establishment": 26113,
    "suitableness": 26260,
    "Ġmot": 2982,
    "Ġso": 433,
    "Ġparamount": 15876,
    "Ġenviron": 4137,
    "Ġton": 15463,
    "enstern": 17781,
    "Ġshaved": 22000,
    "Ġblacksmiths": 19872,
    "Ġspas": 10921,
    "Ġusually": 6263,
    "Ġterrors": 6918,
    "Ġcertainly": 2498,
    "Ġcombines": 1173,
    "women": 15455,
    "pregn": 18496,
    "ums": 10271,
    "Ġhappen": 5569,
    "Ġherd": 7889,
    "comple": 7441,
    "deeply": 16176,
    "fingers": 17368,
    "nx": 17606,
    "Ġseverest": 14088,
    "Ġwouldn": 6046,
    "rength": 4100,
    "Ġmingling": 20196,
    "Ġangles": 23586,
    "crated": 16695,
    "Ġaccomplishment": 19664,
    "Ġfurn": 3709,
    "Ġflor": 8560,
    "attest": 23119,
    "Ġemig": 14523,
    "note": 14338,
    "Ġcyl": 15554,
    "Ġgallant": 8654,
    "commer": 22815,
    "Ġequally": 5256,
    "Ġexpectantly": 23522,
    "Ġgrowl": 16536,
    "Ġarguments": 8037,
    "etting": 21578,
    "Ġafternoon": 6053,
    "steak": 14706,
    "r": 86,
    "Ġcleaning": 23181,
    "Ġdoes": 943,
    "Ġpantry": 20294,
    "Ġnames": 4531,
    "cask": 12443,
    "umbled": 8492,
    "Ġsprain": 18305,
    "Ġobliter": 14320,
    "Ġdiscontented": 16056,
    "Ġoar": 6236,
    "Ġbored": 16103,
    "ants": 1391,
    "elaborate": 21574,
    "infidel": 24663,
    "Ġunfrequently": 20738,
    "um": 454,
    "Ġtu": 6968,
    "Ġintegrity": 12310,
    "Ġcapstan": 9097,
    "bre": 3979,
    "Ġlamb": 8811,
    "Ġxli": 14541,
    "Ġselected": 9708,
    "Ġscand": 7203,
    "Ġbetokened": 18798,
    "Ġrumpled": 24601,
    "Ġantagon": 19549,
    "Ġprosperous": 15168,
    "Ġgleamed": 17076,
    "Ġembarr": 7448,
    "Ġtaller": 16687,
    "ounders": 22392,
    "Ġalready": 2712,
    "ella": 12744,
    "Ġofficers": 4425,
    "Ġcomponents": 8891,
    "Ġpictures": 5502,
    "Ġdiscol": 12949,
    "Ġfingers": 5672,
    "Ġshare": 1657,
    "Ġguitar": 16268,
    "ident": 3379,
    "wal": 10132,
    "Ġjoes": 19229,
    "Ġwick": 2005,
    "Ġarrested": 9559,
    "Ġmisty": 16538,
    "Ġdocile": 19957,
    "sens": 8096,
    "Ġpermanently": 25473,
    "Ġgrasp": 4662,
    "iece": 3228,
    "Ġweeds": 21922,
    "Ġappre": 5164,
    "Ġmassachusetts": 24019,
    "Ġrespecting": 14482,
    "Ġvoyage": 3050,
    "encies": 4079,
    "Ġgermans": 25784,
    "fluke": 25204,
    "Ġeffective": 1249,
    "iced": 3900,
    "Ġsaloon": 24059,
    "Ġmethodic": 23114,
    "Ġadjusted": 23457,
    "hello": 13361,
    "Ġformer": 3322,
    "cherries": 19755,
    "showing": 22444,
    "Ġroyal": 5600,
    "Ġwherein": 14291,
    "sleepers": 24730,
    "oured": 2672,
    "Ġstriding": 16091,
    "Ġjurymen": 16846,
    "Ġgay": 5533,
    "Ġatone": 15800,
    "Ġessence": 13403,
    "Ġinit": 820,
    "Ġparadigms": 3052,
    "Ġchina": 8040,
    "Ġflattened": 26046,
    "Ġsurp": 9633,
    "Ġgrapp": 14099,
    "gather": 20874,
    "alongside": 19788,
    "Ġunintellig": 22022,
    "Ġhealth": 3903,
    "Ġneglect": 7942,
    "Ġbaltic": 18794,
    "Ġaccident": 5379,
    "Ġserviceable": 24718,
    "common": 4126,
    "Ġapparatus": 24908,
    "Ġoccupies": 24005,
    "Ġsanct": 15063,
    "Ġminded": 23231,
    "Ġcooper": 16073,
    "Ġlaughs": 24114,
    "Ġinteractions": 12899,
    "Ġmortifying": 13243,
    "bolts": 11419,
    "Ġwert": 12552,
    "Ġcharacter": 2793,
    "pleasant": 5874,
    "Ġpoliceman": 15256,
    "Ġtrem": 6659,
    "cle": 3955,
    "ental": 7168,
    "Ġfet": 5807,
    "Ġtam": 7822,
    "Ġdeliberation": 19967,
    "Ġiterate": 13197,
    "around": 12604,
    "Ġfloundering": 16249,
    "Ġwitt": 17783,
    "Ġcobweb": 22582,
    "Ġv": 399,
    "Ġfortun": 4981,
    "position": 15412,
    "nursery": 26398,
    "Ġseemingly": 9316,
    "inglass": 21301,
    "tall": 17672,
    "Ġfuel": 13902,
    "Ġbeware": 8826,
    "Ġmemorable": 16426,
    "Ġrecept": 1526,
    "weigh": 18665,
    "Ġdeemed": 7615,
    "mare": 17598,
    "Ġtranquillity": 7537,
    "Ġwood": 2290,
    "Ġmarvels": 11083,
    "leg": 2812,
    "nut": 12491,
    "Ġbelted": 22946,
    "seized": 14033,
    "Ġcapricious": 20537,
    "Ġansw": 2204,
    "Ġlance": 4878,
    "Ġjog": 18404,
    "Ġproposals": 10612,
    "Ġvehicle": 20137,
    "Ġlargely": 14283,
    "natural": 2350,
    "Ġdignity": 5704,
    "Ġinqu": 2962,
    "Ġinhabited": 12182,
    "Ġinstantaneously": 23659,
    "Ġmainz": 22652,
    "Ġreusable": 13555,
    "Ġfainter": 14912,
    "Ġasi": 12728,
    "rubbery": 17340,
    "Ġanoint": 25537,
    "Ġsentin": 16370,
    "vens": 21111,
    "Ġclatter": 22352,
    "vocation": 25084,
    "Ġglare": 13013,
    "Ġmute": 19414,
    "Ġpapered": 20129,
    "Ġresign": 18564,
    "produce": 20281,
    "Ġbitten": 21388,
    "Ġimpaling": 22381,
    "Ġmild": 4145,
    "furn": 10090,
    "bering": 18680,
    "Ġcoiled": 11817,
    "ender": 9159,
    "Ġpoverty": 9302,
    "orton": 11753,
    "Ġincorpor": 13163,
    "Ġhes": 6250,
    "Ġinflex": 20633,
    "Ġnecessary": 4472,
    "quarter": 11387,
    "õ": 182,
    "aulets": 18622,
    "Ġhandled": 12933,
    "riers": 18186,
    "aces": 2069,
    "Ġadversary": 12170,
    "Ġwhelm": 25998,
    "Ġmorsel": 20676,
    "Ġattic": 16093,
    "Ġscents": 22280,
    "look": 2260,
    "Ġstur": 15714,
    "Ġaw": 2510,
    "Ġdodge": 19885,
    "Ġunnecessary": 8850,
    "Ġcaptain": 1605,
    "Ġproportional": 2526,
    "hush": 20905,
    "upt": 13796,
    "Ġnumberless": 16414,
    "Ġalacrity": 15734,
    "bol": 8717,
    "tained": 4405,
    "Ġplanet": 14748,
    "Ġvalues": 2653,
    "stern": 7862,
    "elihood": 4621,
    "Ġfearfully": 23509,
    "Ġescort": 23503,
    "Ġbroiled": 18908,
    "Ġprocure": 9508,
    "Ġandrew": 21505,
    "Ġnovember": 11746,
    "parsee": 14509,
    "exam": 10975,
    "Ġvindictiveness": 25738,
    "Ġcourage": 4632,
    "Ġflatter": 9346,
    "ĠĠĠĠĠĠĠĠĠĠĠĠĠĠĠĠĠĠĠĠĠĠĠĠĠĠĠĠĠĠĠĠĠĠĠĠĠĠĠĠĠĠĠĠĠĠĠĠĠĠĠ": 20037,
    "Ġsprawling": 22137,
    "Ġlightly": 13081,
    "Ġrang": 9243,
    "Ġcarcase": 14442,
    "ectual": 21913,
    "Ġchronic": 9927,
    "ne": 645,
    "Ġkilled": 4954,
    "Ġgestic": 21606,
    "abled": 12790,
    "Ġbehavioral": 11395,
    "pread": 7418,
    "&": 10,
    "hertfordshire": 10935,
    "system": 3975,
    "awk": 23112,
    "Ġnaked": 8127,
    "Ġbernard": 20683,
    "evident": 25520,
    "iries": 18169,
    "Ġcrucial": 9890,
    "gle": 20868,
    "Ġinquiring": 8998,
    "Ġcirculating": 23371,
    "u": 89,
    "Ġearliest": 9829,
    "Ġintelligences": 12827,
    "aspect": 10192,
    "Ġdecorated": 22452,
    "partly": 14601,
    "Ġappar": 7411,
    "Ġquestion": 2777,
    "fab": 13714,
    "âĢĶ.âĢĿ": 22253,
    "Ġgreedily": 18965,
    "abilities": 3235,
    "Ġhills": 6527,
    "Ġclose": 3032,
    "vative": 1513,
    "yl": 7819,
    "esley": 17902,
    "Ġblot": 9810,
    "Ġgiant": 13966,
    "Ġsighing": 18676,
    "bonnet": 25742,
    "Ġdefend": 9338,
    "boxes": 16887,
    "Ġwithin": 2164,
    "alike": 17942,
    "Ġfibres": 12947,
    "Ġcontrad": 9753,
    "Ġingenuity": 17162,
    "Ġneedless": 19228,
    "Ġreb": 15688,
    "Ġvest": 8163,
    "Ġget": 1625,
    "rushing": 10016,
    "Ġpoles": 11002,
    "Ġposted": 16723,
    "Ġun": 422,
    "Ġtacit": 21173,
    "Ġpersu": 3563,
    "Ġcoils": 9301,
    "Ġarches": 14159,
    "Ġconse": 21802,
    "Ġsignific": 3829,
    "discovered": 8325,
    "Ġstooping": 13058,
    "Ġseasoned": 24404,
    "coffin": 10661,
    "Ġmove": 5106,
    "dozen": 23376,
    "lantic": 6363,
    "Ġadapts": 3818,
    "Ġumb": 11644,
    "Ġallows": 3232,
    "Ġhundred": 2694,
    "discovery": 12013,
    "Ġportents": 14678,
    "sat": 4809,
    "Ġpersist": 16266,
    "Ġaccosted": 13670,
    "_),": 7125,
    "Ġremained": 3140,
    "Ġfolks": 14424,
    "pumps": 21026,
    "Ġpartiality": 9396,
    "Ġnoiseless": 10355,
    "bewil": 22495,
    "chers": 11316,
    "screaming": 20324,
    "ivory": 10267,
    "Ġsuperhuman": 23452,
    "Ġthinking": 4031,
    "Ġserenely": 13505,
    "Ġnoiselessly": 22863,
    "Ġoct": 10157,
    "Ġelusive": 22644,
    "remed": 18952,
    "Ġpenet": 6888,
    "oder": 2460,
    "Ġwayward": 22872,
    "namely": 23752,
    "Ġtrophy": 20005,
    "Ġ53": 19639,
    "Ġcopy": 10162,
    "Ġgardener": 19134,
    "Ġincluded": 8929,
    "dep": 6786,
    "Ġtreble": 16502,
    "Ġincisive": 18570,
    "awful": 23113,
    "mature": 20966,
    "Ġidolator": 19996,
    "onist": 21249,
    "acetty": 24463,
    "Ġstrat": 16090,
    "Ġdegra": 2589,
    "Ġloving": 8176,
    "mindful": 19598,
    "Ġwaistcoat": 12267,
    "medi": 2628,
    "Ġshipwrecked": 25687,
    "scept": 21052,
    "âĢĺ": 941,
    "Ġdis": 694,
    "Ġparis": 8179,
    "Ġdesigned": 7741,
    "Ġalgorithms": 874,
    "Ġcompasses": 11265,
    "inordinate": 21193,
    "Ġshy": 10902,
    "Ġtwin": 12924,
    "Ġpoets": 11818,
    "Ġpersuade": 5872,
    "Ġbeneath": 3236,
    "Ġobservation": 6597,
    "Ġpuff": 6526,
    "Ġvegetables": 15219,
    "Ġdepos": 11006,
    "Ġoversight": 22343,
    "Ġwhispers": 14698,
    "quietly": 10591,
    "angered": 16177,
    "idable": 8146,
    "Ġtrampling": 25492,
    "Ġjudgment": 5765,
    "Ġprophesied": 26062,
    "Ġprank": 23220,
    "romised": 14110,
    "Ġimparted": 15986,
    "af": 2378,
    "Ġmoot": 22430,
    "Ġdoubts": 8579,
    "hog": 8380,
    "Ġporter": 15608,
    "rising": 7558,
    "Ġinterfere": 11814,
    "dam": 7798,
    "ney": 2494,
    "umblings": 23927,
    "determination": 19943,
    "cottage": 9568,
    "Ġmonarch": 14411,
    "Ġmarred": 23030,
    "Ġruins": 16156,
    "Ġblunder": 18818,
    "inc": 2520,
    "Ġinexpressible": 17331,
    "Ġdelineations": 26058,
    "ioneer": 15629,
    "Ġcassock": 20485,
    "acceptable": 25184,
    "Ġterrible": 5326,
    "Ġbriskly": 25311,
    "Ġthames": 13936,
    "inarticulate": 21194,
    "Ġroared": 7023,
    "piteous": 21032,
    "urmount": 13994,
    "Ġauger": 21202,
    "specific": 10496,
    "Ġhulls": 13924,
    "impatient": 13638,
    "Ġuncork": 23428,
    "shipped": 18484,
    "Ġbolts": 16942,
    "keen": 12778,
    "Ġsometimes": 2167,
    "Ġrel": 1096,
    "uvian": 12239,
    "Ġbleak": 10557,
    "didst": 19347,
    "Ġunh": 9251,
    "Ġrestricted": 19026,
    "Ā": 193,
    "Ġfoundling": 22968,
    "consult": 24168,
    "gratitude": 16815,
    "Ġedges": 3826,
    "existence": 16012,
    "Ġham": 3421,
    "quadr": 15761,
    "make": 5793,
    "umber": 5240,
    "Ġrush": 5925,
    "isticated": 1603,
    "lakeman": 13749,
    "boom": 18999,
    "leaning": 10789,
    "Ġpore": 21457,
    "wit": 7818,
    "Ġshadowed": 24042,
    "Ġbandages": 24426,
    "irra": 15782,
    "mend": 20965,
    "Ġeigen": 4880,
    "Ġlean": 7606,
    "Ġpurchas": 19873,
    "moon": 10334,
    "Ġcopied": 20006,
    "Ġbecalmed": 18086,
    "Ġency": 21931,
    "Ġparcel": 15197,
    "Ġcoast": 4654,
    "kings": 17582,
    "Ġimputation": 22170,
    "studies": 25166,
    "Ġstrings": 11826,
    "Ġfond": 4754,
    "Ġdownward": 10330,
    "Ġsailed": 4888,
    "Ġsuccor": 25662,
    "Ġextinguish": 14328,
    "Ġduc": 4695,
    "Ġunparalleled": 15851,
    "Ġdespaired": 14667,
    "atmospheric": 17775,
    "Ġfraud": 19032,
    "berries": 22718,
    "desp": 6076,
    "Ġtongue": 6347,
    "Ġparticip": 16129,
    "Ġtoil": 6531,
    "iating": 3206,
    "Ġsparing": 22127,
    "Ġfun": 523,
    "cnns": 3620,
    "Ġsuccess": 3609,
    "tery": 14035,
    "Ġaccounted": 10293,
    "angible": 22103,
    "Ġneared": 14073,
    "conclusion": 25671,
    "Ġphase": 14470,
    "Ġaper": 17742,
    "Ġevidence": 5268,
    "Ġways": 5395,
    "lay": 5891,
    "disaster": 23491,
    "Ġfant": 9172,
    "Ġcutting": 4982,
    "Ġvel": 7186,
    "Ġembracing": 14978,
    "Ġwol": 15528,
    "Ġunfulfilled": 26508,
    "real": 10148,
    "cket": 3687,
    "Ġinfatuated": 20533,
    "Ġirrad": 19093,
    "Ġrenowned": 26193,
    "Ġvideos": 13604,
    "Ġagree": 7647,
    "stra": 4045,
    "interference": 23735,
    "Ġjoke": 8867,
    "ipelagoes": 13669,
    "perquis": 22188,
    "Ġhaunt": 18197,
    "Ġholiest": 18812,
    "Ġsummar": 3525,
    "inement": 11556,
    "Ġinscriptions": 20007,
    "making": 2572,
    "Ġtouched": 6001,
    "Ġreneg": 21673,
    "iarity": 8743,
    "convalescence": 24884,
    "**": 4684,
    "Ġfasten": 11131,
    "Ġ105": 24412,
    "Ġeight": 3901,
    "Ġowner": 8920,
    "Ġlonged": 6436,
    "Ġarrow": 10930,
    "Ġgo": 612,
    "heavenly": 20043,
    "ogue": 9782,
    "Ġlock": 5928,
    "rut": 8092,
    "Ġclouds": 5775,
    "fare": 7799,
    "Ġdragging": 14474,
    "commotion": 24913,
    "ail": 564,
    "strils": 10457,
    "mighty": 9465,
    "Ġnursing": 12211,
    "eck": 20843,
    "Ġbottomless": 12103,
    "Ġhonest": 7287,
    "Ġgleaming": 24995,
    "Ġchasing": 11751,
    "rences": 9270,
    "utored": 15660,
    "Ġreading": 5113,
    "Ġcomforters": 25800,
    "Ġcowards": 12569,
    "sitting": 8387,
    "walk": 5522,
    "Ġmiz": 10776,
    "isson": 23460,
    "hement": 13830,
    "Ġsecurity": 8976,
    "Ġwield": 21289,
    "crime": 14781,
    "Ġshad": 3850,
    "Ġrep": 1937,
    "pressed": 6587,
    "Ġboxed": 24359,
    "neg": 12860,
    "Ġfrightens": 24027,
    "Ġhoisted": 5960,
    "Ġsinew": 25431,
    "Ġlavater": 20494,
    "voy": 7143,
    "Ġbriony": 9327,
    "Ġriveted": 13616,
    "Ġdusk": 12324,
    "Ġxviii": 23408,
    "uber": 15444,
    "restraint": 18980,
    "Ġlysander": 13137,
    "Ġlegendary": 20536,
    "Ġweap": 6155,
    "Ġmoccas": 22434,
    "makers": 20981,
    "Ġpin": 7161,
    "Ġsalary": 13291,
    "Ġbigot": 24564,
    "osen": 6855,
    "inished": 17733,
    "Ġvexed": 9992,
    "tormented": 13643,
    "orse": 5806,
    "ellative": 21943,
    "Ġmasked": 3694,
    "Ġlegible": 23530,
    "Ġcurves": 18847,
    "returning": 12202,
    "principle": 10649,
    "akness": 14193,
    "Ġappropri": 2226,
    "alle": 1294,
    "Ġ0": 1902,
    "ship": 1392,
    "Ġsurv": 6082,
    "Ġlany": 21552,
    "Ġunthink": 18244,
    "Ġinve": 17928,
    "such": 3079,
    "eaten": 20343,
    "tom": 15434,
    "Ġpaus": 4299,
    "Ġshown": 5158,
    "Ġimplements": 2487,
    "Ġtragic": 15253,
    "Ġsaratoga": 26422,
    "Ġarchitects": 18733,
    "Ġdipped": 15592,
    "Ġfreezing": 23881,
    "Ġoverwhelm": 25050,
    "steady": 14707,
    "Ġwintry": 17432,
    "Ġdesired": 4663,
    "Ġbark": 10797,
    "Ġuninter": 18243,
    "Ġcalendar": 18877,
    "affect": 13210,
    "unforeseen": 21886,
    "Ġadd": 630,
    "Ġindepend": 3667,
    "fully": 2202,
    "Ġinsert": 19904,
    "oton": 3606,
    "Ġhurling": 19110,
    "Ġfidel": 12592,
    "Ġsegmentation": 17338,
    "Ġtresses": 21174,
    "Ġshroud": 6483,
    "Ġrecall": 3856,
    "iforn": 14062,
    "Ġwraps": 19775,
    "pit": 3983,
    "Ġborder": 10168,
    "Ġharness": 17927,
    "Ġsleepless": 14581,
    "Ġounce": 15270,
    "Ġgaiters": 20459,
    "wl": 17701,
    "cracy": 24690,
    "Ġconvention": 25546,
    "Ġarticulate": 24431,
    "Ġclubs": 25179,
    "Ġthoughtlessness": 16192,
    "volume": 18582,
    "Ġhawaiian": 25366,
    "Ġchag": 15929,
    "Ġconceit": 7295,
    "Ġexerting": 21830,
    "Ġsit": 4217,
    "Ġweaver": 11685,
    "Ġcondesc": 7181,
    "trunk": 23945,
    "countless": 24149,
    "Ġmou": 13853,
    "Ġpapa": 10655,
    "Ġbeside": 5191,
    "Ġsoften": 23123,
    "icilian": 20690,
    "square": 15060,
    "ov": 15399,
    "Ġtrumpet": 9572,
    "cour": 4478,
    "Ġiron": 3234,
    "Ġguided": 10460,
    "Ġblight": 18817,
    "superstitious": 17279,
    "Ġlip": 6532,
    "Ġstingy": 25455,
    "Ġpoet": 8208,
    "Ġbias": 1192,
    "Ġhauled": 11691,
    "violence": 16477,
    "aiian": 23591,
    "Ġlatitudes": 9494,
    "tolerable": 17687,
    "battle": 12439,
    "ased": 1267,
    "Ġappellation": 22217,
    "Ġunbending": 25464,
    "Ġsisterly": 16300,
    "Ġmincer": 14362,
    "Ġbachelors": 24860,
    "Ġsummers": 23871,
    "Ġbuoyancy": 20040,
    "Ġdirections": 1970,
    "Ġlik": 2523,
    "ordinary": 4407,
    "Ġ[\"": 19929,
    "Ġhorsey": 24248,
    "subjects": 19875,
    "Ġaction": 5796,
    "Ġtartar": 17320,
    "Ġabominable": 12319,
    "wound": 21125,
    "Ġgrazed": 15831,
    "Ġunresting": 25553,
    "ning": 949,
    "Ġresults": 7308,
    "iminished": 19022,
    "Ġtrample": 20326,
    "performed": 18344,
    "Ġhedge": 8364,
    "fanc": 20863,
    "Ġgabriel": 7596,
    "Ġcoffins": 13248,
    "Ġbequeathed": 20700,
    "Ġded": 2687,
    "angling": 14139,
    "allest": 5484,
    "andish": 18153,
    "Ġrecommendation": 17024,
    "subs": 14297,
    "sur": 4521,
    "Ġcomfortably": 16614,
    "oss": 10114,
    "Ġgrotesque": 26329,
    "home": 7341,
    "Ġincident": 6280,
    "Ġweek": 2825,
    "Ġquiet": 3259,
    "colnett": 19329,
    "hears": 12529,
    "ining": 3221,
    "Ġlightness": 23259,
    "Ġ112": 24436,
    "Ć": 199,
    "Ġsticks": 14929,
    "Ġimprec": 14215,
    "rents": 5307,
    "Ġturbulence": 26596,
    "Ġnapoleons": 25885,
    "Ġdreaming": 11222,
    "Ġpolitical": 19222,
    "swallow": 24256,
    "Ġtun": 5999,
    "Ġind": 1220,
    "object": 6884,
    "Ġtickets": 17093,
    "Ġdepression": 21839,
    "Ġslighted": 16566,
    "mixed": 15392,
    "..": 5783,
    "sw": 4740,
    "Ġmassive": 9930,
    "Ġrear": 6535,
    "Ġprob": 971,
    "Ġware": 12550,
    "Ġoffending": 22743,
    "Ġstalked": 20427,
    "hounds": 20906,
    "Ġinfl": 6893,
    "Ġshin": 18227,
    "Ġassembled": 9234,
    "Ġreptile": 15275,
    "Ġvarieties": 14308,
    "Ġsa": 474,
    "Ġouter": 6859,
    "ogany": 18675,
    "lances": 15381,
    "Ġwhis": 3505,
    "Ġfert": 15579,
    "Ġcreating": 2993,
    "Ġspring": 4119,
    "grace": 5846,
    "Ġfoiled": 23244,
    "antically": 22094,
    "Ġtim": 4577,
    "fthand": 26385,
    "backpropagation": 11982,
    "yingly": 23058,
    "including": 23588,
    "Ġviolet": 19087,
    "Ġmethodology": 2356,
    "rec": 6004,
    "Ġinspect": 5964,
    "Ġtortured": 14922,
    "Ġfourteen": 12006,
    "Ġhe": 318,
    "overhearing": 19052,
    "Ġconsoled": 18112,
    "Ġspilling": 22135,
    "Ġai": 3127,
    "oysius": 14365,
    "hur": 6648,
    "arrange": 23764,
    "Ġlooking": 2474,
    "Ġprev": 6264,
    "Ġboughs": 20487,
    "Ġ221": 25068,
    "allowing": 24357,
    "springs": 24911,
    "Ġcrowded": 8012,
    "lab": 3459,
    "Ġfell": 1976,
    "naturedly": 24840,
    "Ġfunction": 584,
    "sim": 6510,
    "Ġhudson": 15189,
    "Ġpaddock": 25037,
    "idol": 21764,
    "shoe": 14965,
    "Ġirretrie": 23372,
    "Ġverily": 16602,
    "Ġwriggling": 15255,
    "Ġhardy": 8565,
    "atra": 17770,
    "Ġowing": 6005,
    "Ġnieces": 8433,
    "Ġjig": 15949,
    "evade": 24820,
    "Ġcorporeal": 17358,
    "Ġhemp": 9214,
    "Ġvicissitudes": 12416,
    "Ġperuvian": 18453,
    "Ġwager": 17792,
    "lect": 1221,
    "cull": 20808,
    "Ġhom": 9185,
    "Ġstruggling": 12071,
    "asingly": 17960,
    "Ġtokens": 1773,
    "Ġwillow": 18528,
    "Ġopinion": 3141,
    "Ġrejecting": 17050,
    "Ġonto": 14027,
    "receiving": 12539,
    "haired": 14764,
    "Ġpeleg": 3738,
    "illity": 18296,
    "Ġaccidentally": 9503,
    "Ġexchanging": 18131,
    ".": 18,
    "Ġtackle": 9511,
    "Ġbacked": 12920,
    "Ġfron": 14486,
    "gressive": 2755,
    "tubes": 25211,
    "Ġhiding": 9821,
    "Ġbrighter": 16186,
    "Ġcig": 6520,
    "quite": 4645,
    ",_": 11461,
    "H": 44,
    "Ġpoised": 22588,
    "Ġdexterity": 25294,
    "Ġclimb": 15077,
    "bantering": 25253,
    "Ġsurplus": 26303,
    "Ġtroubles": 19437,
    "h": 76,
    "Ġlives": 4825,
    "Ġdespairing": 14772,
    "hend": 13250,
    "inkle": 22613,
    "Ġstr": 762,
    "Ġprecipice": 19939,
    "ĠÂ£": 5005,
    "Ġspeechless": 13351,
    "mod": 1037,
    "Ġmetropolitan": 17274,
    "usually": 10284,
    "contempt": 13186,
    "Ġarrogance": 26231,
    "Ġwarmly": 8986,
    "Ġdisappeared": 5645,
    "Ġidol": 7467,
    "Ġyounger": 5251,
    "Ġincomp": 12893,
    "Ġhis": 380,
    "commun": 15032,
    "Ġdictated": 25218,
    "Ġbeginning": 4243,
    "Ġsubstant": 14807,
    "every": 2809,
    "Ġfearless": 9873,
    "Ġjanuary": 13651,
    "Ġrepeatedly": 9019,
    "Ġtranslation": 3085,
    "Ġprisoner": 8672,
    "venth": 9293,
    "Ġsnugness": 20075,
    "ence": 393,
    "Ġseventeen": 26210,
    "Ġwaterward": 23366,
    "directly": 13707,
    "Ġhimmale": 18334,
    "Ġlaying": 7909,
    "Ġhark": 8428,
    "endar": 18364,
    "gl": 3289,
    "lively": 12481,
    "Ġgratitude": 5597,
    "Ġpalsied": 25779,
    "smart": 23904,
    "Ġrecip": 16139,
    "Ġinattention": 17931,
    "Ġbubblingly": 25632,
    "Ġantics": 24177,
    "Ġhereby": 10357,
    "Ġbarrel": 23790,
    "Ġsaluted": 14756,
    "Ġfed": 5528,
    "Ġintroduction": 8969,
    "Ġbutter": 6842,
    "Ġour": 1007,
    "Ġalco": 21780,
    "Ġconfine": 14512,
    "inspect": 11557,
    "narwhale": 17316,
    "nights": 16448,
    "Ġlent": 21545,
    "lass": 5993,
    "Ġskip": 1845,
    "Ġdock": 15928,
    "Ġthump": 11609,
    "mped": 16646,
    "held": 3841,
    "notice": 16145,
    "Ġdawned": 14992,
    "Ġnile": 21519,
    "Ġrequisition": 22655,
    "Ġintrig": 21988,
    "Ġcomical": 11676,
    "nearly": 8680,
    "Ġunimaginable": 15244,
    "Ġsquall": 7043,
    "Ġservox": 23868,
    "icted": 5937,
    "using": 5467,
    "Ġ35": 24073,
    "am": 367,
    "lydia": 6826,
    "Ġdeuteronomy": 15757,
    "Ġtennes": 23547,
    "Ġfeverish": 11347,
    "nailed": 20995,
    "baned": 17494,
    "Ġarts": 11007,
    "ally": 529,
    "hogs": 20080,
    "Ġsong": 5903,
    "narrow": 11506,
    "unexpected": 15775,
    "alive": 10826,
    "Ġagent": 6277,
    "fortune": 4974,
    "Ġfrom": 434,
    "Ġsold": 6003,
    "olence": 10229,
    "irr": 12733,
    "pleasing": 14740,
    "û": 188,
    "prep": 9757,
    "Ġnorms": 3665,
    "'d": 12424,
    "Ġconnexion": 11453,
    "Ġexists": 14039,
    "moil": 22703,
    "Ġdefinite": 11068,
    "hailed": 17564,
    "Ġspit": 22122,
    "ordered": 8788,
    "ai": 2527,
    "Ġoughts": 23898,
    "protested": 13472,
    "ory": 1082,
    "Ġsubl": 7235,
    "Ġmisanthropic": 26559,
    "Ġcontent": 5033,
    "ered": 1686,
    "Ġmingled": 12374,
    "because": 4922,
    "apsed": 6295,
    "few": 8203,
    "Ġwrites": 23199,
    "cad": 17503,
    "athered": 6972,
    "Ġstreatham": 17447,
    "Ġacceptable": 16743,
    "igated": 15704,
    "cures": 20804,
    "architect": 22894,
    "robust": 19726,
    "Ġingolstadt": 8333,
    "Ġsnatches": 16542,
    "Ġindies": 22949,
    "Ġusefulness": 19406,
    "ý": 190,
    "Ġscience": 1495,
    "Ġadv": 1140,
    "Ġbounce": 21391,
    "Ġfitting": 21407,
    "Ġwharves": 13504,
    "dan": 17514,
    "izing": 1066,
    "volut": 1561,
    "Ġachieves": 4379,
    "Ġsign": 2496,
    "reserve": 17764,
    "Ģ": 227,
    "benevol": 12223,
    "Ġmaintained": 12930,
    "delivered": 24098,
    "Ġwars": 17785,
    "imony": 12686,
    "reliable": 21239,
    "Ġsickening": 19603,
    "Ġday": 956,
    "Ġindiscriminately": 20626,
    "Ġphilosophy": 7103,
    "positive": 20566,
    "Ġfob": 21408,
    "Ġhinted": 6012,
    "iogn": 20920,
    "Ġjollies": 20368,
    "sutherland": 21061,
    "wander": 17708,
    "aloons": 20009,
    "structure": 2302,
    "ľ": 255,
    "dden": 1804,
    "Ġmac": 15536,
    "Ġcrooked": 11280,
    "clever": 20812,
    "imes": 1301,
    "Ġpositions": 2058,
    "Ġricher": 12755,
    "speak": 5503,
    "Ġimpartial": 15217,
    "Ġroyals": 19531,
    "Ġecl": 18005,
    "Ġincidentally": 16953,
    "Ġexception": 11215,
    "Ġdepending": 14295,
    "Ġchain": 1844,
    "Ġautomatically": 3350,
    "slack": 16893,
    "Ġplanning": 14749,
    "mael": 6723,
    "Ġlestrade": 5825,
    "morrow": 4571,
    "naturalists": 23533,
    "rimin": 2425,
    "Ġsorrows": 13352,
    "Ġcultivation": 17144,
    "Ġcate": 4108,
    "wild": 8766,
    "Ġharp": 17923,
    "Ġhow": 598,
    "Ġhierarchical": 1927,
    "Ġlakeman": 6986,
    "Ġadventure": 5981,
    "mond": 20972,
    "paint": 21017,
    "Ġconnected": 5392,
    "glow": 20873,
    "zza": 24166,
    "atic": 4018,
    "whal": 10939,
    "Ġswings": 11086,
    "Ġcorner": 4370,
    "while": 2933,
    "Ġbluff": 16517,
    "pacific": 17640,
    "portuguese": 25413,
    "Ġrepented": 23361,
    "particulars": 11314,
    "Ġconvey": 9979,
    "Ġexempl": 21828,
    "Ġroughly": 17039,
    "Ġacknowledged": 7535,
    "Ġnobly": 22239,
    "Ġroundabout": 23059,
    "Ġfails": 13311,
    "Ġrelinqu": 12979,
    "sp": 895,
    "occup": 7753,
    "Ġtheory": 5798,
    "Ġtal": 7565,
    "plexion": 14259,
    "fulfilment": 26025,
    "Ġste": 1390,
    "Ġstumped": 24942,
    "Ġconjure": 17122,
    "affection": 7488,
    "murderers": 25728,
    "ash": 1992,
    "minutely": 19592,
    "Ġpowerful": 1576,
    "Ġosc": 2834,
    "rages": 15678,
    "Ġbacks": 8528,
    "iability": 20919,
    "Ġpredecess": 18538,
    "Ġremarked": 3695,
    "Ġrequirements": 9792,
    "Ġscotland": 6639,
    "ied": 942,
    "scream": 11076,
    "Ġafloat": 9306,
    "Ġrevered": 23731,
    "ousand": 2431,
    "ush": 3631,
    "Ġmechanisms": 1575,
    "carbuncle": 26381,
    "Ġinnermost": 12157,
    "peace": 13045,
    "Ġwinged": 16994,
    "lantern": 17426,
    "Ġvices": 14081,
    "Ġcourt": 4168,
    "Ġhistor": 3390,
    "angs": 5834,
    "Ġcrash": 11998,
    "Ġmont": 8557,
    "Ġright": 1506,
    "Ġdesperado": 19818,
    "Ġportcullis": 26602,
    "Ġsteady": 4846,
    "Ġvillagers": 19472,
    "Ġcheers": 16364,
    "Ġcampa": 17172,
    "igating": 21698,
    "Ġcarried": 3693,
    "Ġtransformed": 22612,
    "Ġwhisper": 6205,
    "urch": 3994,
    "Ġseveral": 2673,
    "Ġfounder": 17883,
    "Ġodor": 12146,
    "Ġla": 5913,
    "Ġstatement": 5253,
    "ule": 6800,
    "devils": 20031,
    "Ġradiating": 24334,
    "body": 2306,
    "Ġplacid": 11823,
    "Ġtwelfth": 22676,
    "Ġpracticable": 19056,
    "cen": 17501,
    "Ġadoration": 18290,
    "endurable": 22226,
    "Ġwearisome": 19794,
    "ache": 8518,
    "cous": 8721,
    "Ġperiodical": 14770,
    "Ġdropt": 23674,
    "Ġapproaching": 6283,
    "shine": 9284,
    "Ġcorrespond": 6209,
    "Ġroutine": 13506,
    "lilies": 20960,
    "etymology": 14699,
    "fra": 8375,
    "Ġzone": 14360,
    "Ġcleared": 6075,
    "Ġperceive": 6699,
    "Ġyale": 21777,
    "Ġcam": 10160,
    "Ġcompromising": 22571,
    "anth": 13885,
    "Ġchained": 16389,
    "ĠĠĠĠĠĠĠĠĠĠ": 18577,
    "Ġperusal": 14222,
    "lust": 15377,
    "inform": 10142,
    "Ġjudges": 14684,
    "Ġenchant": 7185,
    "counter": 20277,
    "fere": 10988,
    "Ġcabal": 23641,
    "Ġphysi": 9986,
    "war": 6802,
    "both": 5785,
    "Ġdrifted": 14624,
    "announce": 24559,
    "ember": 1955,
    "Ġaback": 22264,
    "draughts": 20386,
    "Ġoctavo": 15161,
    "Ġlooks": 4164,
    "Ġapprehensiveness": 16876,
    "Ġlongitudes": 22633,
    "dirty": 20833,
    "Ġfaintness": 24569,
    "abulary": 4799,
    "Ġrom": 4523,
    "tee": 16168,
    "Ġincurable": 22550,
    "Ġh": 290,
    "Ġspiral": 14583,
    "Ġpolynes": 16077,
    "Ġreinforcement": 3422,
    "Ġstanzas": 21742,
    "transformer": 25015,
    "oice": 1384,
    "Ġherb": 15854,
    "Ġspoke": 2749,
    "Ġexclam": 6757,
    "Ġpremises": 10486,
    "eling": 6681,
    "Ġvint": 18194,
    "solitary": 14505,
    "Ġfret": 10805,
    "Ġhumans": 8928,
    "usiveness": 22291,
    "for": 963,
    "unity": 4150,
    "Ġawful": 6199,
    "enance": 3371,
    "Ġcontinues": 18810,
    "Ġautonom": 10408,
    "Ġinde": 7371,
    "Ġswitching": 23055,
    "Ġ42": 16677,
    "Ġtoilet": 13935,
    "Ġperry": 22394,
    "attered": 4019,
    "tw": 2810,
    "Ġbits": 11586,
    "Ġscott": 22279,
    "Ġimaginations": 16516,
    "Ġstiffest": 24829,
    "I": 45,
    "Ġaids": 12225,
    "Ġclever": 7054,
    "Ġastir": 14639,
    "majesty": 26280,
    "Ġveteran": 17448,
    "ufact": 10732,
    "Ġimmemorial": 10509,
    "fourths": 25509,
    "Ġsweetness": 9444,
    "informed": 17735,
    "Ġintended": 5546,
    "pots": 11512,
    "Ġremoving": 12113,
    "Ġunjust": 8483,
    "Ġstash": 18067,
    "right": 2769,
    "Ġve": 1107,
    "Ġgrowled": 19282,
    "Ġcreep": 22725,
    "Ġseeks": 14300,
    "Ġgive": 1714,
    "Ġbaggy": 24537,
    "ounted": 5029,
    "Ġarchangel": 8542,
    "Ġtriumphantly": 11286,
    "Ġhighland": 18713,
    "ade": 882,
    "Ġdiabolical": 20341,
    "Ġfailed": 6671,
    "Ġcedars": 20291,
    "Ġlimp": 19179,
    "Ġmounted": 7833,
    "entreat": 17975,
    "Ġimportant": 1061,
    "Ġunchanged": 22027,
    "Ġsuffocated": 20727,
    "Ġrelevance": 5183,
    "off": 1886,
    "âĢĶâĢĺ_": 24831,
    "Ġwaters": 3595,
    "Ġsperm": 1843,
    "Ġbelong": 3886,
    "Ġbody": 2437,
    "Ġmovement": 9966,
    "Ġadvise": 7935,
    "Ġdisc": 944,
    "force": 12957,
    "Ġsplendour": 20223,
    "Ġrecourse": 22739,
    "sign": 8388,
    "Ġdistinction": 8884,
    "dough": 15333,
    "Ġ102": 24409,
    "Ġchildren": 3768,
    "Ġbelongs": 8015,
    "Ġpropontis": 17464,
    "ated": 726,
    "Ġnobleman": 19390,
    "Ġinst": 913,
    "Ġveneration": 25044,
    "Ġwearily": 18177,
    "alse": 4184,
    "incidentally": 20538,
    "Ġunrel": 14694,
    "Ġref": 911,
    "Ġsketches": 26270,
    "Ġneighbor": 25805,
    "Ġcrow": 3806,
    "impressed": 12687,
    "Ġimpet": 11776,
    "Ġadversarial": 5606,
    "Ġsays": 3561,
    "hering": 12810,
    "Ġceremony": 8361,
    "Ġenlar": 15798,
    "supper": 12915,
    "Ġsagaciously": 24731,
    "away": 4624,
    "shoulder": 16582,
    "aimed": 3952,
    "Ġmates": 4871,
    "useful": 16501,
    "onely": 6516,
    "Ġwapping": 21293,
    "Ġunsub": 22019,
    "lorn": 12484,
    "âĢĶâĢľ_": 13200,
    "Ġsap": 18323,
    "Ġheal": 21679,
    "Ġmilky": 9945,
    "Ġfigures": 8629,
    "Ġaudibly": 24771,
    "Ġcoins": 11816,
    "Ġrewards": 10847,
    "istics": 1632,
    "Ġrepeat": 8000,
    "Ġdro": 2771,
    "stone": 5088,
    "Ġwanderings": 20142,
    "waited": 24586,
    "Ġtranscend": 25670,
    "Ġsumat": 14128,
    "learn": 2521,
    "increas": 10453,
    "jephro": 26391,
    "Ġadvantages": 9809,
    "zed": 8104,
    "Ġcity": 4528,
    "Ġroused": 7623,
    "son": 2327,
    "pyramid": 21029,
    "delirious": 19504,
    "ĠlinnÃ¦us": 15273,
    "Ġtumb": 21168,
    "Ġinquiry": 6484,
    "Ġlounging": 10020,
    "ears": 20844,
    "Ġadmits": 23552,
    "Ġmultitudinous": 26273,
    "Ý": 158,
    "Ġstarve": 24626,
    "Ġtren": 17720,
    "Ġfagged": 17882,
    "Ġmental": 21318,
    "penetrating": 25490,
    "Ġwhirlpool": 20654,
    "rimshander": 20656,
    "den": 939,
    "Ġincess": 8431,
    "Ġdiligent": 25075,
    "attle": 4465,
    "pillar": 5618,
    "Ġhorses": 6385,
    "Ġcommis": 22669,
    "ifying": 5234,
    "ske": 13780,
    "othe": 2614,
    "ĠĠĠĠĠĠĠĠĠĠĠĠĠĠĠĠĠĠĠĠĠĠĠĠĠĠĠĠĠĠĠĠĠĠĠĠĠĠĠĠĠ": 19581,
    "Ġtemple": 7654,
    "Ġcongregation": 12326,
    "restored": 18979,
    "onomy": 12543,
    "Ġdue": 3845,
    "Ġaffirm": 11884,
    "smoking": 23908,
    "giv": 13720,
    "Ġderivative": 2996,
    "quee": 4128,
    "Ġmonstr": 7668,
    "Ġeven": 1025,
    "Ġsorting": 3233,
    "Ġtravell": 5574,
    "activity": 22629,
    "Ġvector": 1971,
    "Ġdoings": 18376,
    "Ġernest": 8716,
    "ics": 3255,
    "Ġinsisted": 12043,
    "Ġaddresses": 3769,
    "Ġdiligently": 11404,
    "Ġgrate": 12960,
    "draw": 23896,
    "view": 5896,
    "Ġrud": 8477,
    "Ġdons": 17888,
    "asily": 13944,
    "itably": 10781,
    "princip": 17135,
    "lift": 15382,
    "appl": 9324,
    "Ġtravelled": 7772,
    "Ġoffend": 16142,
    "Ġlarboard": 11008,
    "ificial": 613,
    "Ġscorn": 7902,
    "Ġrug": 16155,
    "Ġintermix": 22575,
    "resum": 17760,
    "Ġrecorded": 11292,
    "Ġdevious": 22721,
    "acet": 5475,
    "Ġunwearied": 20601,
    "stuff": 15684,
    "Ġsparkling": 11355,
    "waving": 21130,
    "Ġpillows": 24988,
    "Ġundo": 15838,
    "Ġmachines": 1777,
    "oper": 7347,
    "Ġcoinc": 11000,
    "Ġcynical": 25770,
    "Ġmr": 661,
    "Ġrattle": 10898,
    "Ġplanets": 24053,
    "inf": 6232,
    "shook": 19855,
    "quickness": 19850,
    "action": 3725,
    "returned": 7766,
    "iation": 7343,
    "Ġbreaching": 23346,
    "Ġbank": 4876,
    "Ġharris": 13925,
    "Ġstraightened": 12105,
    "Ġpitchpoling": 14909,
    "process": 11147,
    "Ġchrysalis": 26537,
    "Ġalmost": 1656,
    "Ġresponded": 13636,
    "Ġguide": 3216,
    "Ġmod": 494,
    "Ġhalloa": 13314,
    "Ġrelinquish": 17345,
    "col": 3101,
    "Ġfurlongs": 20722,
    "osis": 18389,
    "daggoo": 13705,
    "Ġsobbed": 14135,
    "observing": 25494,
    "Ġspo": 6846,
    "Ġroughs": 19955,
    "Ġinsens": 8277,
    "Ġbeggar": 9347,
    "construction": 19777,
    "Ġdiscussed": 19558,
    "Ġspurred": 22136,
    "Ġdegenerating": 25799,
    "Ġshreds": 12766,
    "Ġblocked": 19221,
    "catherine": 7127,
    "ord": 666,
    "Ġemployer": 19430,
    "Ġfrayed": 23299,
    "Ġominous": 12421,
    "Ġsynthe": 26007,
    "nephew": 26396,
    "ricade": 13035,
    "Ġspeedy": 11171,
    "Ġpenn": 11111,
    "ĠâĢľâĢĺ": 8503,
    "Ġvul": 10246,
    "ġ": 226,
    "rd": 17648,
    "ording": 9762,
    "ists": 4001,
    "Ġcharley": 19006,
    "Ġincreases": 3796,
    "Ġencounter": 6627,
    "ologically": 22862,
    "Ġloss": 825,
    "Ġwiser": 14728,
    "Ġassigned": 16311,
    "Ġinscribed": 24938,
    "Ġnod": 1888,
    "Ġdarcy": 1343,
    "Ġsacrificed": 17420,
    "Ġ275": 20109,
    "strip": 19829,
    "nerable": 16275,
    "orphans": 26439,
    "Ġunsupp": 22017,
    "gladness": 25194,
    "Ġunc": 2126,
    "Ġassumptions": 5516,
    "hens": 3937,
    "bucket": 17492,
    "Ġmanner": 2195,
    "buttoned": 13630,
    "stayed": 25290,
    "cent": 8073,
    "Ġdearer": 14049,
    "Ġestate": 6316,
    "Ġforeshadowing": 26591,
    "Ġharpooning": 23976,
    "Ġscene": 3096,
    "Ġwhites": 21715,
    "impatiently": 20469,
    "itor": 12562,
    "Ġagainst": 1699,
    "phys": 18712,
    "Ġbree": 5011,
    "entions": 17974,
    "ification": 1012,
    "Ġnour": 10829,
    "Ġaverse": 11080,
    "Ġphrensy": 25124,
    "Ġrelatives": 12978,
    "Ġirregularly": 25323,
    "unfort": 21874,
    "Ġsecretary": 19440,
    "Ġconsistence": 23355,
    "Ġanytime": 12881,
    "Ġserpent": 6737,
    "Ġswaths": 23056,
    "minute": 11272,
    "Ġaut": 1745,
    "Ġdanes": 25156,
    "inkers": 22614,
    "Ġthey": 578,
    "Ġchalk": 15931,
    "young": 7321,
    "Ġriotous": 20543,
    "ria": 15796,
    "Ġcalifornia": 20528,
    "Ġinfluence": 5514,
    "Ġfronts": 20530,
    "Č": 205,
    "Ġuncompromised": 20602,
    "Ġpolitics": 19223,
    "sheltered": 25585,
    "augment": 18828,
    "Ġsecre": 5492,
    "Ġmargaret": 10375,
    "Ġparch": 11723,
    "Ġbenches": 18780,
    "absolut": 8458,
    "Ġalbert": 12702,
    "ailed": 3245,
    "doubt": 6782,
    "igger": 21699,
    "Ġfireside": 23528,
    "Ġperceptible": 18452,
    "Ġanteced": 26177,
    "Ġawoke": 7286,
    "Ġeccentric": 13647,
    "ast": 473,
    "niest": 18974,
    "Ġshrouds": 11343,
    "sc": 1259,
    "Ġplunging": 14950,
    "fifty": 12349,
    "Ġcherish": 10588,
    "dwelling": 20563,
    "Ġregained": 18598,
    "Ġelaborate": 18636,
    "Ġcell": 6237,
    "Ġmartial": 20290,
    "Ġveter": 15809,
    "sofa": 26146,
    "carb": 20809,
    "Ġmer": 2927,
    "corrob": 24484,
    "lik": 3916,
    "Ġcabinets": 23860,
    "Ġboards": 14299,
    "Ġoverladen": 22347,
    "Ġwrapt": 24596,
    "Ġ135": 24785,
    "Ġyesterday": 5331,
    "Ġmenaces": 23105,
    "ary": 986,
    "Ġpaltry": 16691,
    "Ġmartin": 25436,
    "geons": 15977,
    "Ġstripped": 10464,
    "market": 16838,
    "possesses": 24617,
    "Ġer": 8105,
    "Ġincrust": 22548,
    "occurred": 13335,
    "Ġlocal": 1200,
    "Ġmuscle": 14688,
    "would": 2351,
    "surd": 6934,
    "(": 12,
    "remem": 13063,
    "terogene": 21823,
    "deepest": 22822,
    "Ġconfidence": 6590,
    "Ġpuzzled": 7317,
    "Ġbankers": 24301,
    "Ġirene": 8444,
    "Ġhoot": 19074,
    "oters": 21797,
    "Ġcuriosities": 26288,
    "Ġrocking": 10967,
    "Ġbul": 3292,
    "Ġenglish": 3613,
    "fleece": 19946,
    "invest": 11558,
    "Ġthy": 2513,
    "Ġregularizer": 2337,
    "\"": 6,
    "is": 280,
    "Ġlearning": 388,
    "Ġrushed": 4087,
    "remember": 7262,
    "istered": 14143,
    "Ġprofusion": 23566,
    "keeper": 5595,
    "Ġdraughts": 20220,
    "copper": 19187,
    "Ġadjacent": 20710,
    "Ġring": 4451,
    "Ġplaus": 22597,
    "assault": 22304,
    "Ġkne": 4266,
    "stumps": 21651,
    "Ġsnail": 19298,
    "geese": 22365,
    "pil": 15407,
    "Ġcheering": 11132,
    "Ġwives": 12551,
    "Ġundesired": 12774,
    "Ġetc": 7084,
    "Ġtattered": 21170,
    "Ġperpetually": 17070,
    "bowed": 10682,
    "Ġharvest": 13413,
    "Ġabstracted": 17181,
    "Ġvalley": 5850,
    "necessarily": 19630,
    "Ġinserted": 8356,
    "cular": 15326,
    "Ġlonger": 3359,
    "Ġamounted": 18513,
    "Ġshipmate": 8927,
    "Ġholy": 6591,
    "Ġsteel": 3889,
    "iture": 5696,
    "Ġacknowledges": 24688,
    "solitude": 23295,
    "ugnance": 12364,
    "Ġelimin": 16105,
    "Ġinfrequent": 3825,
    "Ġblood": 3169,
    "Ġwhaling": 2782,
    "Ġdot": 4819,
    "Ġstriving": 8995,
    "Ġshocks": 16456,
    "heavily": 24533,
    "noise": 14324,
    "direct": 12453,
    "appo": 3914,
    "Ġconversed": 13184,
    "Ġcircle": 4976,
    "Ġcontest": 18473,
    "aging": 2237,
    "Ġmoderate": 10937,
    "feet": 6568,
    "Ġstrung": 22617,
    "A": 37,
    "Ġobey": 9517,
    "gences": 20876,
    "Ġimbued": 17453,
    "Ġburial": 16521,
    "Ġrelations": 5852,
    "Ġpoland": 23616,
    "Ġuneasiness": 9482,
    "rocket": 13942,
    "feelings": 5674,
    "earliest": 20118,
    "saf": 11523,
    "Ġattended": 5390,
    "Ġcombined": 8548,
    "Ġneskye": 21529,
    "Ġhunter": 5400,
    "Ġit": 339,
    "hen": 3518,
    "Ġplanisphere": 26606,
    "illings": 14141,
    "Ġsurmise": 12292,
    "killed": 15374,
    "Ġobedient": 20103,
    "Ġslighter": 18939,
    "Ġmccauley": 26426,
    "Ġopulent": 23628,
    "Ġancient": 5442,
    "Ġtemporarily": 11166,
    "itive": 6668,
    "ieged": 22576,
    "regulated": 23466,
    "Ġsubmitted": 11868,
    "ww": 10736,
    "Ġgrey": 4511,
    "heaven": 8053,
    "400": 20754,
    "Ġintervened": 25481,
    "Ġidiotic": 25588,
    "isle": 13890,
    "okes": 9275,
    "Ġsuperflu": 14553,
    "Ġlizz": 21555,
    "Ġlimits": 3456,
    "Ġyea": 8914,
    "irms": 18168,
    "disappointment": 11424,
    "ruined": 18337,
    "anoke": 21359,
    "Ġjobs": 24832,
    "quis": 7871,
    "Ġvines": 12747,
    "Ġdomineer": 23643,
    "noo": 9785,
    "Ġtahitian": 25427,
    "Åĵuvre": 25887,
    "Ġmajest": 24057,
    "Ġmiddle": 4136,
    "Ġscarcity": 23824,
    "Ġwhisky": 23931,
    "Ġacceptance": 14825,
    "Ġprevail": 13440,
    "Ġghosts": 12229,
    "wet": 15451,
    "showed": 16020,
    "pred": 2801,
    "toss": 22564,
    "Ġheels": 10849,
    "Ġme": 352,
    "singular": 12185,
    "Ġfrancis": 26063,
    "Ġcrawl": 11374,
    "ofs": 11827,
    "Ġbundle": 13424,
    "Ġmills": 21310,
    "Ġcomputers": 2646,
    "iners": 4936,
    "shabbily": 26246,
    "uberance": 25916,
    "mine": 5617,
    "Ġtilted": 20411,
    "comb": 11036,
    "Ġwonderland": 23423,
    "mind": 4625,
    "Ġappear": 2486,
    "69": 17473,
    "brink": 23574,
    "apparent": 11041,
    "Ġseason": 5237,
    "Ġlogical": 14485,
    "Ġinsupportable": 13930,
    "Ġforg": 3787,
    "Ġsolace": 16198,
    "Ġmum": 13856,
    "entimes": 12652,
    "ignified": 14489,
    "urry": 13992,
    "Ġsmoky": 22556,
    "hamlet": 23261,
    "Ġdisagree": 22530,
    "Ġjingling": 26017,
    "lane": 10705,
    "Ġopp": 2697,
    "Ġplantation": 11422,
    "Ġvibration": 17098,
    "reduc": 5458,
    "Ġduck": 8792,
    "elsewhere": 19867,
    "Ġglimp": 6066,
    "Ġmathemat": 3202,
    "Ġhigh": 932,
    "Ġinc": 702,
    "Ġcharges": 23267,
    "amb": 5723,
    "13": 20749,
    "twain": 23698,
    "Ġlikeness": 11178,
    "gunpowder": 25339,
    "Ġthrone": 12210,
    "Ġrev": 6988,
    "Ġovers": 14199,
    "Ġcorrespondence": 10593,
    "imly": 12683,
    "Ġboy": 3019,
    "itates": 13867,
    "eli": 3874,
    "Ġdefiance": 11067,
    "methodically": 20663,
    "Ġjourney": 3880,
    "Ġrises": 9711,
    "Ġcleanse": 24526,
    "Ġunhappiness": 14115,
    "Ġstared": 8454,
    "Ġlazy": 17049,
    "Ġplow": 21458,
    "Ġgoney": 14544,
    "Ġass": 1505,
    "âĢĿ]": 21813,
    "ctic": 8442,
    "stead": 10845,
    "Ġchatting": 24747,
    "Ġparsee": 6413,
    "nt": 920,
    "procure": 23395,
    "Ġprovoke": 14824,
    "Ġtried": 3646,
    "canallers": 22964,
    "warning": 25531,
    "remonstr": 23192,
    "Ġscruples": 15076,
    "Ġplaintiffs": 13607,
    "uting": 15657,
    "Ġhovel": 8254,
    "Ġchrist": 4072,
    "ason": 1264,
    "orn": 2241,
    "Ġleaf": 15720,
    "Ġferocious": 17417,
    "Ġstrikes": 13179,
    "Ġ177": 13410,
    "carefully": 13366,
    "ateful": 5927,
    "Ġmomentum": 1604,
    "Ġcreations": 18685,
    "nowled": 5469,
    "Ġthenceforth": 25182,
    "harpo": 4804,
    "Ġwafted": 14499,
    "Ġaffections": 10383,
    "Ġconsiderations": 9408,
    "Ġloungers": 24862,
    "Ġwor": 1189,
    "Ġcannib": 6036,
    "tic": 8391,
    "Ġmoody": 8201,
    "Ġinsomuch": 23681,
    "near": 5842,
    "Ġeffectual": 18732,
    "Ġblackness": 9391,
    "higher": 20405,
    "verest": 13989,
    "Ġfolios": 23018,
    "Ġvolition": 14796,
    "Ġideal": 13118,
    "igned": 5656,
    "pierced": 26141,
    "Ġtax": 13814,
    "resnet": 4069,
    "Ġfield": 1231,
    "Ġrobbery": 11898,
    "Ġphaet": 16317,
    "ume": 4834,
    "Ġrespect": 1671,
    "Ġriggers": 24155,
    "Ġjerking": 12242,
    "Ġbarrier": 16568,
    "Ġtechnical": 17190,
    "rior": 12738,
    "Ġpapers": 4022,
    "Ġexulting": 20257,
    "Ġundue": 25993,
    "ober": 15405,
    "hurt": 19877,
    "Ġwag": 10774,
    "Ġpots": 9426,
    "Ġsavory": 23874,
    "aren": 10072,
    "Ġinner": 9669,
    "quadrille": 20593,
    "Ġuncounted": 19116,
    "Ġmug": 21311,
    "Ġliberality": 24376,
    "Ġforgotten": 5679,
    "spersed": 22735,
    "slept": 17168,
    "Ġrounding": 16274,
    "Ġvolley": 24143,
    "Ġpressed": 6042,
    "Ġnightfall": 23130,
    "athan": 2954,
    "Ġaccordingly": 6619,
    "Ġsublimity": 26345,
    "Ġrepresenting": 4060,
    "Ġpeculiarities": 12067,
    "Ġcosmetic": 23470,
    "Ġsolicit": 22885,
    "yesterday": 10352,
    "Ġpend": 15603,
    "Ġunkindness": 22038,
    "imp": 3029,
    "Ġcheer": 4066,
    "thoughtfully": 24041,
    "Ġdomestic": 6910,
    "Ġornamented": 20360,
    "Ġfists": 15580,
    "does": 6194,
    "Ġindestruct": 22956,
    "Ġasked": 2277,
    "Ġtraces": 7946,
    "renewed": 19703,
    "lights": 13201,
    "Ġredness": 19310,
    "Ġboats": 2639,
    "be": 668,
    "urn": 777,
    "Ġnecess": 3477,
    "Ġheaps": 11640,
    "Ġcontributed": 16007,
    "Ġworshippers": 25693,
    "waves": 10741,
    "hes": 1400,
    "dreams": 12334,
    "whales": 5186,
    "brave": 19822,
    "Ġpain": 2301,
    "Ġaston": 3701,
    "fro": 8732,
    "Ġsplashed": 23745,
    "Ġridges": 16730,
    "overspreading": 26139,
    "Ġgreat": 896,
    "puzz": 17639,
    "fron": 24280,
    "Ġrecumbent": 22740,
    "Ġirrevocably": 15295,
    "prairies": 20565,
    "careful": 14864,
    "Ġabandoned": 8352,
    "Ġthro": 5817,
    "Ġago": 3135,
    "Ġdiction": 8793,
    "Ġcomply": 8889,
    "hetic": 12200,
    "mental": 16059,
    "Ġstability": 1362,
    "Ġknocked": 9498,
    "inders": 15978,
    "Ġearl": 7677,
    "osp": 6854,
    "Ġserenity": 10026,
    "ĠĠĠĠĠĠĠĠĠĠĠĠĠĠĠĠĠĠĠĠĠĠĠĠĠĠĠĠ": 9973,
    "Ġleague": 6538,
    "Ġdisease": 14256,
    "addressed": 13383,
    "Ġsparsity": 4207,
    "Ġsoph": 1606,
    "Ġsant": 21213,
    "Ġgrievances": 20647,
    "Ġlastly": 16203,
    "encouragement": 17421,
    "datasets": 11944,
    "Ġprophe": 13076,
    "Ġobjection": 6585,
    "esty": 4306,
    "Ġox": 7153,
    "Ġnervously": 19183,
    "Ġfrivolous": 26176,
    "Ġinvisible": 7327,
    "Ġfunere": 22257,
    "bber": 4567,
    "Ġchilian": 25563,
    "Ġtowed": 11263,
    "Ġshaggy": 13568,
    "Ġcareless": 11118,
    "Ġriots": 23890,
    "Ġspilled": 10923,
    "Ġlandless": 23377,
    "scoured": 22991,
    "sheep": 23085,
    "magn": 10609,
    "fs": 17534,
    "great": 3517,
    "hereditary": 26418,
    "Ġfemale": 8345,
    "Ġakin": 15494,
    "Ġbeef": 6830,
    "Ġwear": 6031,
    "fic": 20851,
    "hoist": 23711,
    "fearing": 18526,
    "Ġcovent": 16070,
    "Ġherds": 9714,
    "aned": 5146,
    "Ġdominant": 12393,
    "Ġantelope": 24179,
    "Ġrisen": 9491,
    "Ġcommanding": 16589,
    "Ġexpand": 9305,
    "accents": 19210,
    "tempted": 26402,
    "bation": 9101,
    "brimmed": 14587,
    "jer": 12477,
    "rougham": 15991,
    "Ġungodly": 26512,
    "Ġsalted": 14754,
    "Ġwreath": 25936,
    "Ġtahiti": 13617,
    "something": 4284,
    "ions": 449,
    "Ġwhitt": 18054,
    "accountable": 7109,
    "Ġshrubbery": 18232,
    "ó": 180,
    "uncommon": 11679,
    "case": 5205,
    "Ġtackles": 8051,
    "Ġreliance": 14383,
    "³": 116,
    "Ġfringed": 17271,
    "Ġ1839": 20458,
    "Ġcalf": 16264,
    "liest": 6294,
    "Ġattribute": 16095,
    "irst": 880,
    "see": 3043,
    "valu": 1702,
    "Ġconsumm": 15152,
    "Ġshabby": 14109,
    "Ġtelegra": 11887,
    "por": 2151,
    "Ġvaluable": 5607,
    "infl": 15486,
    "sensible": 20050,
    "aff": 3100,
    "Ġravines": 25831,
    "Ġabroad": 8864,
    "ricane": 16277,
    "Ġsmilingly": 22558,
    "Ġquito": 24407,
    "Ġunfair": 19506,
    "Ġgeorgia": 23884,
    "Ġmantle": 25274,
    "Ġbritain": 16955,
    "far": 5787,
    "embedding": 20703,
    "Ġcheap": 13086,
    "Ġsavesoul": 26227,
    "Ġrabb": 4161,
    "Ġdidn": 4363,
    "Ġgoat": 16004,
    "expanded": 23664,
    "Ġpitiful": 13237,
    "Ġbrill": 8549,
    "Ġclassify": 1676,
    "christmas": 20254,
    "Ġcurved": 18848,
    "Ġadventures": 7748,
    "Ġgolden": 5335,
    "shall": 4548,
    "Ġfour": 2213,
    "Ġfath": 7364,
    "Ġsog": 22082,
    "Ġreminiscences": 26269,
    "Ġsunday": 7270,
    "lover": 18534,
    "Ġsto": 1500,
    "der": 468,
    "Ġcruisings": 25864,
    "rage": 10842,
    "Ġdivision": 19442,
    "Ġsh": 419,
    "Ġdoubtfully": 23476,
    "original": 9083,
    "circle": 16735,
    "put": 414,
    "prepare": 20211,
    "intend": 16223,
    "Ġtrusting": 24103,
    "tart": 21066,
    "Ġgradual": 20600,
    "Ġidiot": 11968,
    "Ġwishing": 7831,
    "Ġconnection": 5478,
    "Ġyawn": 7610,
    "Ġvoice": 2190,
    "Ġdeficiency": 14401,
    "Ġspaniards": 25555,
    "Ġconcentration": 25062,
    "Ġdecomposes": 5505,
    "Ġeasiest": 23536,
    "Ġeventually": 8616,
    "Ġrambled": 20167,
    "carried": 16711,
    "display": 19154,
    "wandered": 20284,
    "tiger": 13795,
    "Ġassign": 11109,
    "Ġgover": 2462,
    "ant": 438,
    "irting": 11683,
    "esu": 17901,
    "Ġfrig": 13078,
    "Ġquarrel": 7292,
    "Ġdetain": 14173,
    "Ġsigns": 2443,
    "struck": 7863,
    "Ġleaky": 2344,
    "prevented": 20372,
    "will": 1968,
    "Ġroot": 2652,
    "ger": 1105,
    "Ġtheoretically": 3566,
    "keenest": 25661,
    "resolution": 17765,
    "Ġperfection": 19217,
    "ang": 446,
    "Ġespecially": 3936,
    "Ġstayed": 7998,
    "Ġpoured": 8799,
    "Ġsurging": 19133,
    "sings": 4251,
    "moral": 14800,
    "Ġunluckily": 20100,
    "Ġdistraction": 22503,
    "Ġassiduous": 26292,
    "Ġcolon": 18764,
    "urons": 3130,
    "Ġuneasily": 24229,
    "Ġsult": 10766,
    "Ġshovel": 23489,
    "Ġtendons": 19807,
    "Ġjourneying": 25565,
    "Ġbottle": 7491,
    "Ġsinned": 18950,
    "pher": 11510,
    "Ġwindow": 2994,
    "inois": 17737,
    "Ġexhaust": 6399,
    "Ġrecurrent": 1803,
    "Ġinexper": 16979,
    "Ġvirtuous": 14753,
    "cing": 1011,
    "Ġintolerably": 15827,
    "beating": 22486,
    "fiend": 13659,
    "Ġshoreless": 24294,
    "mble": 1408,
    "Ġscheming": 23269,
    "desirable": 23208,
    "Ġobjects": 5576,
    "bb": 2799,
    "orative": 21396,
    "Ġcusack": 26432,
    "Ġdisposing": 19373,
    "jack": 7344,
    "Ġplainpalais": 20736,
    "Ġarrangements": 16515,
    "Ġcapst": 8595,
    "Ġensued": 11393,
    "akin": 11764,
    "Ġunwe": 15836,
    "Ġassuredly": 14820,
    "faces": 13718,
    "Ġelbow": 12917,
    "hatchway": 25904,
    "itan": 10158,
    "Ġreusability": 13556,
    "Ġuniversal": 2232,
    "sleet": 20148,
    "Ġgeneralization": 983,
    "Ġage": 3896,
    "Ġfluttered": 16247,
    "Ġagitation": 6865,
    "icked": 10331,
    "elze": 21571,
    "Ġtrustees": 24105,
    "Ġbeheaded": 11654,
    "Ġbanqu": 12584,
    "Ġgathered": 8443,
    "Ġxxxiv": 24969,
    "arers": 12126,
    "Ġemer": 5959,
    "Ġpractice": 2831,
    "benefact": 24641,
    "Ġappl": 1668,
    "Ġins": 2780,
    "pans": 13768,
    "Ġtransplanted": 22465,
    "Ġprocopius": 19729,
    "Ġpyramid": 8800,
    "Ġbusied": 19064,
    "Ġrevealing": 3925,
    "Ġvague": 6406,
    "Ġrealism": 18984,
    "Ġunche": 23427,
    "Ġscarlet": 13221,
    "roy": 7854,
    "Ġdetained": 18375,
    "discoloured": 23496,
    "Ġconcrete": 20636,
    "Ġpalpable": 15204,
    "Ġforest": 9869,
    "lp": 898,
    "fine": 10089,
    "sole": 6168,
    "Ġengaging": 9334,
    "Ġexploding": 2110,
    "Ġentire": 2560,
    "Ġcrept": 11021,
    "Ġcrimin": 6901,
    "lean": 21363,
    "Ġconverse": 11844,
    "opatra": 22475,
    "Ġpleasantly": 14519,
    "apped": 5394,
    "remediable": 26294,
    "Ġlovel": 10270,
    "Ġsouthampton": 24306,
    "Ġcranial": 25592,
    "crazy": 24691,
    "Ġoptimizer": 5034,
    "algorithm": 3800,
    "tempest": 16958,
    "keeping": 8634,
    "Ġpret": 3031,
    "Ġperceiving": 8874,
    "Ġvelvets": 25393,
    "Ġbeholding": 8668,
    "Ĺ": 250,
    "ks": 3146,
    "Ġcaw": 13881,
    "Ġexperience": 1393,
    "Ġtatters": 21176,
    "Ġluxurious": 17309,
    "Ġdinn": 23978,
    "Ġpens": 21459,
    "Ġstiff": 6992,
    "pe": 1439,
    "Ġascending": 14852,
    "rier": 9240,
    "larger": 24201,
    "maltese": 24795,
    "omical": 9680,
    "Ġtweezers": 26555,
    "Ġsting": 10860,
    "Ġhourly": 23300,
    "Ġconfide": 13096,
    "Ġprodigies": 19792,
    "vious": 1784,
    "Ġhammock": 5768,
    "lizzy": 6651,
    "relig": 15511,
    "icts": 22405,
    "Ġco": 731,
    "Ġsubsc": 22787,
    "gratulation": 24348,
    "kitchen": 17584,
    "Ġengland": 3857,
    "Ġinterconnected": 1339,
    "bearing": 9763,
    "Ġfever": 6558,
    "loss": 22505,
    "Ġsprained": 15881,
    "Ġchestnuts": 24380,
    "arson": 22748,
    "respond": 12540,
    "ene": 2169,
    "Ġserved": 8246,
    "Ġxxii": 24477,
    "Ġobtain": 8913,
    "pract": 10118,
    "Ġcouple": 5422,
    "raint": 18316,
    "unction": 10233,
    "wherein": 19107,
    "Ġtep": 21160,
    "Ġsiber": 17754,
    "name": 6795,
    "sli": 11521,
    "Ġprayed": 16666,
    "Ġrebellion": 26474,
    "Ġtil": 12520,
    "Ġdoct": 4454,
    "Ġforgiveness": 16655,
    "Ġradney": 6775,
    "th": 406,
    "Ġinjunction": 19616,
    "Ġdocument": 15017,
    "Ġtrib": 13817,
    "Ġdate": 7842,
    "Ġend": 1484,
    "Ġprow": 6684,
    "Ġspires": 11727,
    "haustible": 16890,
    "Ġcommunity": 19009,
    "ernal": 4312,
    "feeling": 6616,
    "Ġgiving": 4084,
    "flex": 24843,
    "ese": 4443,
    "servant": 15034,
    "Ġrephr": 21677,
    "Ġginger": 9209,
    "Ġsage": 17751,
    "boscombe": 26121,
    "Ġdefinitions": 22942,
    "Ġstocks": 23177,
    "ĠĠĠĠĠĠĠ": 7633,
    "physiogn": 26265,
    "Ġceases": 19312,
    "Ġannouncing": 16753,
    "Ġretreating": 19798,
    "Ġcheek": 8577,
    "liament": 16216,
    "Ġrattler": 24997,
    "Ġsober": 10910,
    "Ġdavy": 25951,
    "Ġpsal": 15613,
    "Ġcriminal": 7538,
    "fitting": 1510,
    "grampus": 18617,
    "Ġ11": 5317,
    "igner": 21700,
    "Ġtechni": 1677,
    "Ġswain": 18881,
    "Ġapprehending": 26090,
    "Ġdrop": 4345,
    "clinging": 20821,
    "Ġdrank": 16534,
    "Ġbrigandish": 25487,
    "Ġunpleasing": 22051,
    "Ġmildness": 9942,
    "bushes": 24446,
    "Ġsteed": 13037,
    "Ġinestim": 15621,
    "Ġgap": 21597,
    "Ġsoar": 18282,
    "yards": 9622,
    "Ġbeale": 12695,
    "ailing": 7021,
    "Ġinexperience": 26099,
    "Ġimpatience": 7510,
    "Ġdeserved": 7737,
    "Ġcovariate": 2348,
    "Ġbefell": 14008,
    "Ġenh": 3073,
    "Ġcellar": 8059,
    "Ġcalm": 3450,
    "atters": 18497,
    "ometer": 19325,
    "Ġbreakfast": 3976,
    "Ġgriefs": 16770,
    "pay": 10717,
    "Ġcries": 7154,
    "comfort": 5647,
    "prior": 21031,
    "unks": 15772,
    "univers": 15769,
    "Ġvouch": 15807,
    "Ġbaronial": 23792,
    "book": 4668,
    "Ġop": 2602,
    "Ġnoteworthy": 24161,
    "Ġvision": 1597,
    "sought": 15426,
    "Ġfacetious": 20582,
    "unquiet": 21879,
    "enter": 7858,
    "Ġgirth": 13134,
    "palms": 25262,
    "Ġprecipitous": 24835,
    "Ġenderby": 13649,
    "marching": 25752,
    "Ġattempting": 14695,
    "nue": 15395,
    "elevating": 20404,
    "exercise": 17458,
    "Ġcountryside": 23595,
    "Ġembedding": 2106,
    "Ġpliny": 11822,
    "Ġtunes": 24620,
    "Ġwere": 555,
    "pled": 7893,
    "derest": 18314,
    "tling": 9141,
    "Ġtraining": 531,
    "ophisticated": 22476,
    "aside": 10190,
    "Ġsaintly": 25931,
    "Ġroots": 11184,
    "heaving": 21206,
    "Ġducks": 25157,
    "degra": 22138,
    "Ġtranslates": 12048,
    "Ġfanning": 23388,
    "Ġminiature": 11039,
    "Ġ43": 14767,
    "Ġinsincere": 26598,
    "Ġcash": 9651,
    "springing": 24889,
    "Ġassociated": 12246,
    "Ġmajority": 13290,
    "Ġstoper": 14461,
    "Ġunthinkingly": 26220,
    "tar": 8098,
    "Ġmolasses": 25628,
    "Ġfelt": 1746,
    "armon": 23057,
    "Ġrapidly": 3160,
    "Ġpudding": 17915,
    "sa": 8756,
    "Ġannum": 24202,
    "_âĢĶâĢĻ": 13680,
    "Ġresignation": 18566,
    "cheon": 23802,
    "Ġcurses": 13011,
    "ounced": 4953,
    "na": 13758,
    "Ġjib": 14192,
    "Ġexternal": 8365,
    "Ġsk": 960,
    "Ġlest": 6395,
    "repressed": 21242,
    "Ġprogra": 1146,
    "lection": 3651,
    "Ġcem": 17823,
    "Ġacquaintance": 4131,
    "Ġreference": 2566,
    "Ò": 147,
    "Ġrender": 8305,
    "Ġflog": 23622,
    "Ġcompat": 2936,
    "Ġinfiltrated": 23282,
    "desk": 23207,
    "Ġsome": 656,
    "Ġconsequ": 6254,
    "Ġahead": 6662,
    "ousness": 10273,
    "Ġneat": 6999,
    "Ġ52": 24320,
    "aped": 3764,
    "Ġnegative": 1464,
    "agonies": 21907,
    "swept": 19785,
    "osity": 14184,
    "Ġrinal": 21975,
    "mill": 13752,
    "preced": 10307,
    "Ġdew": 14043,
    "bestow": 16928,
    "Ġoverflowed": 20261,
    "Ġgrimly": 17051,
    "Ġimprecate": 20516,
    "Ġbackwoods": 22658,
    "Ġsiamese": 20481,
    "Ġantichron": 24180,
    "Ġhit": 7163,
    "Ġlearn": 364,
    "Ġhawk": 15171,
    "shapes": 22445,
    "_;": 6640,
    "lemag": 21370,
    "lashed": 20953,
    "ably": 1848,
    "ichever": 13955,
    "Ġconceivable": 16612,
    "Ġunderwent": 23238,
    "Ġcolder": 22850,
    "sneezes": 11445,
    "Ġbodies": 8032,
    "Ġinferences": 17934,
    "Ġacquiescence": 20329,
    "Ġsympath": 4860,
    "Ġclam": 7416,
    "devouring": 24950,
    "neys": 23580,
    "Ġdeject": 10880,
    "jur": 17577,
    "Ġcrunched": 19123,
    "ú": 187,
    "Ġindign": 6173,
    "Ġbland": 11063,
    "Ġgovernment": 15174,
    "ividual": 5462,
    "Ġedged": 23435,
    "Ġvisiting": 10356,
    "_.": 2211,
    "suddenly": 6493,
    "Ġstunsail": 25543,
    "```": 25893,
    "hilar": 25081,
    "madness": 14880,
    "cost": 19185,
    "Ġsteeply": 23721,
    "Ġo": 275,
    "Ę": 217,
    "Ġcarry": 4778,
    "Ġpulley": 2973,
    "laughed": 20280,
    "Ġwater": 1948,
    "akes": 2218,
    "ashed": 3784,
    "Ġ88": 19710,
    "Ġaspired": 25984,
    "attached": 11932,
    "vineyard": 25421,
    "Ġunman": 12769,
    "Ġjewelled": 20182,
    "Ġcreaking": 14330,
    "Ġfinally": 4665,
    "Ġexponentiating": 3449,
    "Ġregal": 16074,
    "Ġresources": 2935,
    "iday": 8828,
    "cadence": 26125,
    "Ġsuccession": 12098,
    "enjoyments": 25433,
    "belonged": 25597,
    "ice": 590,
    "Ġsemantic": 1957,
    "iltrated": 19304,
    "Ġowes": 20083,
    "Ġmariners": 6068,
    "abomin": 15739,
    "antages": 7192,
    "Ġvisual": 5741,
    "itaries": 21334,
    "Ġmaterial": 5177,
    "Ġmumbled": 17807,
    "Ġclean": 5652,
    "Ġtamely": 24979,
    "arpening": 21442,
    "fat": 8079,
    "Ġharpoons": 5659,
    "Ġspiced": 22131,
    "Ġdaft": 19662,
    "Ġaccents": 14209,
    "complied": 19912,
    "Ġescorted": 23504,
    "fireside": 24692,
    "Ġdescribing": 19253,
    "udg": 22752,
    "Ġstepping": 9352,
    "Ġhussey": 7725,
    "asting": 12802,
    "Ġdisconsol": 18557,
    "Ġacross": 1332,
    "Ġdeem": 18136,
    "Ġanonymous": 26178,
    "atered": 22005,
    "Ġcheery": 16366,
    "irwin": 8468,
    "ledge": 1331,
    "occasional": 19575,
    "narrative": 17317,
    "Ġinspector": 6498,
    "Ġaroused": 15897,
    "Ġple": 1469,
    "whalebone": 19118,
    "Ġstrewed": 23420,
    "Ġhumanity": 6731,
    "Ġgodfre": 14528,
    "drown": 13702,
    "Ġswear": 6461,
    "Ġmaxim": 3082,
    "Ġepisode": 26346,
    "im": 327,
    "Ġcompletely": 4859,
    "Ġstroke": 6936,
    "extinguish": 22765,
    "suit": 18629,
    "Ġcabinet": 23859,
    "irene": 15912,
    "respectively": 24700,
    "Ġcraggy": 23526,
    "Ġattentions": 5878,
    "racted": 4775,
    "Ġfinal": 5399,
    "chair": 5917,
    "swinging": 25912,
    "B": 38,
    "Ġlifts": 25358,
    "Ġriverside": 25247,
    "Ġconsummation": 17423,
    "attending": 18916,
    "Ġgeorge": 3748,
    "Ġwindibank": 7257,
    "Ġlaud": 17967,
    "Ġrigger": 19529,
    "Ġ/*": 10138,
    "disgrace": 16457,
    "Ġpreyed": 18366,
    "Ġchestnut": 19671,
    "oniously": 21256,
    "Ġclaimed": 14203,
    "Ġabrid": 22270,
    "revealed": 20414,
    "Ġoblique": 20168,
    "iably": 13736,
    "Ġbourgh": 5068,
    "Ġpretext": 22227,
    "Ġdiscourse": 9796,
    "Ġdecorum": 16022,
    "explanations": 25234,
    "spoken": 11858,
    "Ġconjured": 25099,
    "Ġscho": 4435,
    "convenient": 12234,
    "collins": 6916,
    "Ġmacey": 12559,
    "Ġdownst": 3559,
    "pening": 2830,
    "Ġrejoiced": 8683,
    "overing": 6306,
    "ake": 749,
    "Ġsuite": 18278,
    "acknowledge": 18468,
    "Ġenorm": 5301,
    "Ġentreat": 4508,
    "hr": 20887,
    "visit": 7755,
    "capital": 15086,
    "Ġdisturbing": 19944,
    "Ġpompous": 20421,
    "Ġfoundation": 4232,
    "Ġtalk": 1969,
    "Ġshrieked": 9546,
    "loom": 18533,
    "Ġinterven": 10996,
    "Ġfest": 10803,
    "cream": 15329,
    "Ġalphabetical": 17200,
    "emberley": 4170,
    "hear": 10145,
    "Ġglory": 6065,
    "Ġsentences": 2682,
    "Ġoffices": 14336,
    "ford": 2821,
    "Ġrepairs": 19081,
    "Ġdined": 9175,
    "Ġilliter": 23467,
    "Ġmeditative": 25014,
    "Ġmend": 8406,
    "Ġunflinching": 26511,
    "lance": 12478,
    "Ġirrevoc": 15037,
    "ady": 995,
    "Ġworship": 10365,
    "Ġcope": 17830,
    "Ġprogram": 12990,
    "Ġmy": 411,
    "Ġcontrive": 16008,
    "taken": 7561,
    "Ġbrit": 6289,
    "Ġexactness": 23603,
    "Ġshorter": 4497,
    "tut": 15433,
    "Ġerroneous": 17407,
    "spout": 7925,
    "Ġwolfish": 25935,
    "Ġoffing": 16141,
    "byshire": 6172,
    "Ġwhit": 7177,
    "Ġpeculiar": 3153,
    "delights": 19700,
    "gaff": 20881,
    "Ġimbalance": 22172,
    "Ġcomprehension": 15084,
    "Ġlanguages": 1568,
    "Ġpoint": 2057,
    "detached": 19673,
    "Ġmons": 10155,
    "commence": 19990,
    "Ġillustrious": 17108,
    "Ġsquad": 22837,
    "Ġoutfits": 22319,
    "Ġarrangement": 2658,
    "bery": 9786,
    "shortly": 12255,
    "Ġdishonor": 25601,
    "appointment": 24056,
    "pet": 4866,
    "service": 15035,
    "ago": 14063,
    "Ġhist": 2445,
    "Ġmant": 9646,
    "Ġphantom": 8706,
    "beg": 22484,
    "Ġgeneralize": 3099,
    "ado": 11656,
    "composure": 24031,
    "Ġchallenge": 25471,
    "Ġmitig": 1337,
    "friendly": 13282,
    "irc": 1731,
    "ier": 1137,
    "Ġerection": 23998,
    "Ġwhimsical": 20426,
    "Ġpiqu": 21476,
    "mblings": 19779,
    "Ġbegin": 3097,
    "Ġdeliberate": 15021,
    "opp": 6963,
    "ashions": 16416,
    "Ġmemories": 14540,
    "Ġmutually": 23954,
    "Ġabilities": 8865,
    "Ġlive": 2734,
    "ampl": 21840,
    "Ġundisturbed": 19518,
    "highest": 20406,
    "Ġharpo": 1943,
    "always": 5708,
    "Ġfearlessness": 19160,
    "seemingly": 25362,
    "Ġgeneva": 5449,
[...]
