{
  "metadata": {
    "vocab_size": 26616,
    "algorithm": "BPE",
    "created_at": "2026-07-17 05:12:22",
    "special_tokens": [
      "<PAD>",
      "<SOS>",
      "<EOS>",
      "<UNK>",
      "<MASK>"
    ]
  },
  "vocab": {
    "itals": 17822,
    "ipher": 18428,
    "Ġclum": 8876,
    "Ġpantheistic": 26337,
    "ableness": 8149,
    "Ġagonies": 14253,
    "Ã¦mon": 7096,
    "entieth": 17981,
    "Ġclutch": 15055,
    "Ġafraid": 3532,
    "liber": 18816,
    "Ġdeeds": 15763,
    "Ġfronted": 23261,
    "Ġneural": 623,
    "bingley": 4928,
    "Ġseething": 18205,
    "Ġshepherd": 14154,
    "Ġfade": 21412,
    "au": 777,
    "sens": 8096,
    "icating": 15659,
    "phys": 18714,
    "Ġinward": 11610,
    "Ġcuriosity": 2368,
    "uend": 21106,
    "Ġmost": 1021,
    "Ġmiscellaneous": 17465,
    "romised": 14114,
    "Ġmarriage": 3188,
    "Ġseal": 10259,
    "Ġitself": 2522,
    "Ġbullion": 24987,
    "Ġknave": 11274,
    "view": 5897,
    "departed": 24794,
    "Ġcheerily": 13311,
    "Ġnarrated": 14873,
    "odox": 21821,
    "gird": 20882,
    "Ġproceeds": 12082,
    "Ġpossessing": 16577,
    "_.âĢĻâĢĿ": 17482,
    "med": 1914,
    "local": 22514,
    "Ġstreatham": 17452,
    "ę": 218,
    "Ġasked": 2279,
    "sil": 5283,
    "Ġ1671": 25009,
    "Ġinevitably": 17233,
    "Ġbodies": 8032,
    "ic": 304,
    "Ġcosmopol": 16455,
    "Ġremained": 3140,
    "Ġforcing": 3226,
    "Ġcadiz": 17328,
    "Ġsharply": 9406,
    "Ġbricks": 13565,
    "sle": 9141,
    "approb": 11044,
    "Ġnear": 1719,
    "Ġscrewed": 15123,
    "Ġ58": 24323,
    "horses": 17569,
    "Ġpeaceful": 9459,
    "Ġsublimity": 26348,
    "odiac": 14034,
    "Ġmending": 17806,
    "Ġswells": 9830,
    "Ġreaction": 15699,
    "Ġshaft": 18231,
    "Ġsufficiently": 8976,
    "ement": 1501,
    "Ġprotested": 9937,
    "Ġpenetrate": 12274,
    "rit": 21039,
    "Ġproportionably": 19975,
    "remarked": 12292,
    "Ġstratag": 26029,
    "difference": 13710,
    "cool": 19190,
    "Ġsain": 17752,
    "Ġpines": 12621,
    "Ġtale": 5142,
    "Ġuneasiness": 9487,
    "nor": 2740,
    "Ġabuse": 18394,
    "idable": 8146,
    "Ġsomeone": 6705,
    "ies": 583,
    "Ġplying": 17914,
    "smiled": 16616,
    "Ġfitzwilliam": 5771,
    "Ġsouthampton": 24310,
    "Ġsouthwards": 19637,
    "Ġseason": 5237,
    "Ġinscribed": 24942,
    "Ġgenerative": 5644,
    "Ġfir": 17879,
    "savagery": 25029,
    "Ġunallied": 22037,
    "Ġfists": 15587,
    "itely": 5365,
    "Ġhig": 753,
    "Ġcloudless": 16671,
    "Ġexcessively": 9443,
    "Ġpotency": 14647,
    "Ġpoky": 21483,
    "Ġbehavior": 8002,
    "Ġamours": 22486,
    "ison": 3075,
    "urous": 10215,
    "Ġrenewing": 19814,
    "Ġanything": 2187,
    "erial": 4633,
    "omen": 4087,
    "Ġscornful": 25000,
    "Ġcatholic": 20685,
    "Ġtrophy": 20011,
    "Ġwight": 12557,
    "Ġcalamities": 25700,
    "decided": 13218,
    "Ġeclipsed": 26378,
    "plac": 15820,
    "Ġanat": 8124,
    "Ġagitation": 6865,
    "troubled": 17113,
    ".*": 7331,
    "rote": 4594,
    "Ġloss": 824,
    "Ġadvice": 4902,
    "Ġmungo": 25632,
    "apology": 22339,
    "iage": 17575,
    "Ġdl": 3377,
    "hibited": 17430,
    "burgh": 6774,
    "latitudes": 17199,
    "sounding": 24796,
    "perpendicular": 14161,
    "tled": 3460,
    "Ġrobe": 18466,
    "cig": 17506,
    "Ġgained": 4535,
    "speak": 5504,
    "opening": 10315,
    "hogs": 20086,
    "plentiful": 21961,
    "Ġsudden": 1997,
    "Ġto": 297,
    "wound": 21131,
    "Ġuniformly": 19150,
    "Ġbulky": 13232,
    "Ġparish": 8858,
    "urred": 8451,
    "Ġbackwards": 12930,
    "Ġharpoon": 3618,
    "Ġordering": 18999,
    "h": 76,
    "ight": 403,
    "Ġspouted": 14676,
    "striking": 13443,
    "Ġwearisome": 19799,
    "acetty": 24465,
    "chambers": 25456,
    "many": 5250,
    "rench": 3969,
    "itated": 4439,
    "Ġchurned": 18387,
    "Ġmeanwhile": 5736,
    "wake": 11548,
    "Ġappropriate": 2252,
    "ì": 173,
    "ural": 506,
    "willingly": 11987,
    "husband": 8042,
    "Ġappal": 18358,
    "Ġbruised": 25773,
    "Ġdisquis": 22532,
    "Ġaltering": 18105,
    "Ġunabated": 15856,
    "rebellum": 26166,
    "Ġuttermost": 19492,
    "breadth": 20280,
    "Ġensl": 19277,
    "Ġarchipelagoes": 14355,
    "Ġsqueaking": 26276,
    "entary": 21572,
    "shrouded": 26363,
    "Ġmassac": 14738,
    "tiest": 21086,
    "drove": 16995,
    "Ġquivered": 18474,
    "crimson": 24092,
    "Ġ1950": 11361,
    "Ġholder": 6726,
    "explain": 1480,
    "obliged": 20635,
    "Ġespecially": 3939,
    "Ġprofessor": 11232,
    "cture": 15669,
    "scans": 22993,
    "generations": 23789,
    "Ġsquid": 11882,
    "Ġhussey": 7725,
    "rud": 4190,
    "solute": 16600,
    "invested": 17120,
    "Ġcomical": 11683,
    "imaux": 21717,
    "Ġresolution": 5500,
    "Ġbarque": 23794,
    "Ġexecutioner": 12276,
    "honest": 17005,
    "together": 3558,
    "Ġmod": 501,
    "iour": 4039,
    "Ġquartered": 20377,
    "Ġline": 1851,
    "Ġcurric": 22973,
    "Ġseemed": 1277,
    "ira": 3960,
    "porary": 14552,
    "Ġscant": 22285,
    "Ġ44": 16681,
    "Ġcin": 13877,
    "thrown": 8483,
    "Ġoat": 21328,
    "Ġamusement": 8056,
    "Ġanatomical": 15079,
    "degrad": 22148,
    "Ġhammock": 5768,
    "Ġinhabit": 5782,
    "remarkable": 13500,
    "bestowed": 12230,
    "Ġsmiling": 5474,
    "Ġcanaan": 22171,
    "orative": 21403,
    "\"]": 17473,
    "Ġpatagon": 14505,
    "ructive": 18546,
    "Ġinstinctively": 13462,
    "eland": 11623,
    "prot": 6899,
    "Ġjug": 12839,
    "Ġridiculous": 10631,
    "Ġacquiesced": 25495,
    "Ġleast": 2065,
    "Ġlonger": 3360,
    "Ġnight": 1465,
    "cav": 17510,
    "rough": 592,
    "Ġphantoms": 13489,
    "Ġstable": 2698,
    "gloves": 25147,
    "Ġturner": 7051,
    "luxur": 25823,
    "ued": 7561,
    "Ġplenty": 6710,
    "Ġgid": 13964,
    "Ġhushed": 13927,
    "cures": 20808,
    "Ġcatherine": 2812,
    "amount": 10886,
    "Ġoscill": 2857,
    "Ġmutual": 8297,
    "Ġturnpike": 23032,
    "pardon": 10068,
    "Ġrecommendation": 17027,
    "Ġpettic": 14843,
    "Ġstung": 21744,
    "ryphon": 4164,
    "Ġinquiries": 5678,
    "ĠâĢĶâĢľ_": 17720,
    "devils": 20037,
    "Ġjoke": 8872,
    "Ġdenominated": 15231,
    "neither": 9760,
    "Ġobliterated": 17408,
    "Ġb": 281,
    "wreat": 21132,
    "Ġpaus": 4297,
    "Ġcomprehension": 15089,
    "Ġcolumn": 9331,
    "Ġlogits": 3453,
    "Ġlegitimate": 20645,
    "arms": 10176,
    "Ġbachelor": 7787,
    "onsense": 6432,
    "Ġhostile": 19944,
    "Ġgirdle": 19161,
    "Ġflorida": 20662,
    "Ġphase": 14473,
    "Ġbias": 1191,
    "Ġxi": 16432,
    "Ġblessing": 11265,
    "Ġdisciple": 22786,
    "Ġfreshness": 23992,
    "lands": 8241,
    "Ġtreat": 3175,
    "Ġfemin": 13439,
    "north": 14616,
    "Ġsprained": 15887,
    "Ġoperation": 12003,
    "Ġunnecessary": 8855,
    "Ġ54": 24319,
    "Ġagent": 6279,
    "stern": 8446,
    "cturn": 17989,
    "rous": 3753,
    "irious": 15790,
    "sou": 12509,
    "Ġtended": 21171,
    "Ġtennessee": 26598,
    "Ġapart": 4747,
    "Ġpleasurable": 23344,
    "Ġstum": 21737,
    "historian": 25735,
    "sherlock": 5422,
    "Ġchal": 18380,
    "bouton": 17504,
    "Ġdedication": 3218,
    "loose": 11808,
    "Ġgloried": 22991,
    "tolerably": 21100,
    "batt": 20781,
    "kye": 20941,
    "Ġimpaling": 22389,
    "Ġesteem": 7531,
    "Ġ73": 24264,
    "Ġlazily": 11382,
    "Ġimitation": 22176,
    "Ġchief": 3382,
    "Ġriggers": 24160,
    "Ġmess": 7831,
    "rap": 21633,
    "Ġgreatness": 12947,
    "Ġdavis": 25953,
    "Ġgrating": 14357,
    "rons": 21043,
    "proachable": 23402,
    "inates": 21185,
    "spent": 12946,
    "Ġcoincidence": 25485,
    "ram": 13974,
    "Ġforgive": 8010,
    "Ġmis": 917,
    "âĢĻ!âĢĿ": 18171,
    "Ġhelplessly": 20082,
    "listen": 13516,
    "Ġbone": 4696,
    "Ġoverwrites": 5033,
    "Ġr": 406,
    "Ġxli": 14542,
    "Ġdesper": 6178,
    "Ġlikes": 9411,
    "counters": 25399,
    "interest": 5421,
    "istry": 22114,
    "Ġdri": 2364,
    "Ġeyel": 17097,
    "Ġoarsmen": 7738,
    "Ġwatery": 6298,
    "Ġincensed": 18573,
    "Ġmoulded": 16977,
    "Ġwhittingham": 26199,
    "wantonly": 25154,
    "Ġperverseness": 13657,
    "Ġinher": 10182,
    "Ġintimacy": 8704,
    "intimate": 22941,
    "Ġbol": 6243,
    "Ġconsol": 3818,
    "Ġjest": 18405,
    "Ġgnawed": 25169,
    "orders": 12878,
    "Ġexcel": 3569,
    "might": 4079,
    "Ġaffliction": 25846,
    "Ġinsanity": 12050,
    "Ġtass": 15472,
    "Ġwashes": 21866,
    "hecy": 21211,
    "head": 1435,
    "Ġinsignific": 13183,
    "Ġever": 1178,
    "Ď": 207,
    "Ġinvol": 1052,
    "Ġslackened": 15129,
    "Ġsuicide": 12791,
    "Ġwished": 3731,
    "Ġprofessional": 7299,
    "Ġtragedies": 25243,
    "cob": 10089,
    "apart": 15965,
    "Ġwhichever": 14002,
    "¦": 104,
    "hearty": 14836,
    "Ġresting": 7962,
    "scent": 13025,
    "Ġutensils": 23517,
    "Ġcommercial": 22678,
    "Ġapprobation": 10986,
    "Ġfoliage": 18869,
    "Ġfarm": 7840,
    "Ġaper": 17745,
    "hurry": 24763,
    "ue": 1177,
    "Ġmac": 15542,
    "bran": 23577,
    "marrying": 19551,
    "Ġturtles": 19222,
    "Ġstairs": 5541,
    "Ġadmeasure": 18295,
    "new": 1466,
    "Ġamong": 1669,
    "Ġdelicate": 6481,
    "oundering": 11746,
    "phantoms": 24681,
    "scr": 16245,
    "himself": 3973,
    "abounding": 25980,
    "Ġglut": 18856,
    "Ġharvard": 24575,
    "rudent": 6483,
    "ir": 379,
    "younger": 11314,
    "Ġrepresent": 1212,
    "Ġhurling": 19113,
    "yrin": 12526,
    "pra": 15409,
    "Ġartist": 12917,
    "Ġearthy": 23713,
    "games": 20883,
    "Ġimpression": 5732,
    "reigned": 21247,
    "division": 20053,
    "Ġweaver": 11691,
    "auley": 22627,
    "Ġmig": 13858,
    "Ġselecting": 16683,
    "Ġsuffer": 4723,
    "whar": 15931,
    "hemat": 3128,
    "Ġlance": 4880,
    "rogress": 21541,
    "Ġbedfellows": 23448,
    "Ġexclam": 6759,
    "Ġeasterly": 25963,
    "neglect": 25669,
    "kine": 15378,
    "iancy": 13017,
    "stochastic": 3774,
    "Ġsil": 1800,
    "ender": 9163,
    "Ġforb": 11666,
    "ĠĠĠĠĠĠĠĠĠĠĠĠĠĠĠĠĠĠĠĠĠĠĠĠĠĠĠĠ": 9978,
    "ortions": 10950,
    "Ġundeniable": 26512,
    "Ġwidows": 24240,
    "speptic": 23950,
    "Ġdey": 11678,
    "gling": 10100,
    "Ġ66": 24370,
    "ern": 764,
    "iastic": 12484,
    "Ġagric": 22520,
    "Ġcous": 3439,
    "!)": 10072,
    "ribution": 14309,
    "Ġstate": 1812,
    "Ġinvoked": 19147,
    "Ġrid": 4354,
    "Ġexpressed": 4467,
    "Ġdrunk": 9427,
    "Ġtriumph": 5143,
    "Ġvineyard": 12334,
    "o": 83,
    "safie": 20352,
    "wickham": 5885,
    "Ġreser": 5170,
    "osoever": 17346,
    "Ġaunts": 21205,
    "cceed": 4143,
    "block": 11472,
    "itively": 21336,
    "Ġmir": 9649,
    "Ġchicha": 15940,
    "Ġskil": 14352,
    "interests": 19712,
    "ript": 4153,
    "Ġestate": 6318,
    "surprised": 9534,
    "icirc": 15660,
    "Ġerad": 25032,
    "depth": 12804,
    "charming": 15710,
    "Ġsmith": 16068,
    "Ġthere": 563,
    "Ġlarboard": 11011,
    "Ġinitialization": 1254,
    "conc": 3950,
    "Ġbedroom": 7277,
    "Ġstreng": 18073,
    "Ġcandle": 8292,
    "hunters": 16835,
    "Ġpossibly": 4514,
    "utted": 15665,
    "Ġdeer": 12724,
    "Ġmaster": 3683,
    "ipped": 5790,
    "Ġdesired": 4666,
    "Ġpure": 6139,
    "ickory": 22673,
    "Ġwildly": 9417,
    "walk": 5523,
    "Ġtwos": 18658,
    "^{": 15307,
    "Ġrucastle": 5176,
    "Ġplayfulness": 23639,
    "Ġquiet": 3262,
    "spee": 9320,
    "Ġimperfectly": 25727,
    "Ġarmed": 9263,
    "Ġbery": 13900,
    "vocabulary": 25089,
    "Ġromish": 19588,
    "Ġworth": 4416,
    "Ġobstacle": 16957,
    "Ġmust": 843,
    "iag": 20919,
    "example": 16017,
    "Ġconditions": 8307,
    "believed": 9936,
    "8": 28,
    "Ġpurchase": 12264,
    "arm": 1355,
    "oried": 10804,
    "co": 2434,
    "Ġbowing": 10477,
    "Ġphilosoph": 19655,
    "independ": 15990,
    "Ġenvied": 19285,
    "Ġfacial": 10608,
    "Ġdeplored": 20509,
    "Ġgoing": 2067,
    ".âĢĻ": 1720,
    "Ġconnections": 971,
    "Ġdistinct": 4611,
    "Ġlashings": 25101,
    "Ġhelen": 16658,
    "Ġflush": 14426,
    "inked": 12916,
    "erate": 7150,
    "Ġupward": 9724,
    "Ġdenny": 9004,
    "Ġprofane": 13155,
    "..": 5783,
    "Ġdisc": 943,
    "Ġnerves": 2625,
    "ig": 323,
    "Ġvolume": 6770,
    "hunting": 24386,
    "Ġbundles": 26176,
    "Ġbouton": 17870,
    "Ġsit": 4215,
    "Ġ76": 24266,
    "sleepy": 24729,
    "Ġ50": 24316,
    "outon": 12807,
    "Ġbristles": 25845,
    "Ġdetective": 14407,
    "Ġwon": 1666,
    "reported": 24494,
    "determined": 9082,
    "kin": 7133,
    "conclusive": 25674,
    "Ĝ": 221,
    "friend": 3866,
    "Ġplot": 14282,
    "Ġhymn": 24519,
    "Ġlap": 8438,
    "unciation": 25983,
    "surround": 16760,
    "reflected": 24733,
    "Ġdata": 518,
    "Ġcivil": 4680,
    "gered": 9281,
    "dra": 3414,
    "Ġcapst": 8599,
    "Ġsweeter": 23922,
    "Ġperched": 10303,
    "Ġringle": 18214,
    "Ġcele": 9903,
    "ivil": 6412,
    "frantic": 24286,
    "Ġrestrict": 16380,
    "Ġsensit": 2949,
    "Ġju": 10289,
    "Ġma": 3254,
    "Ġspace": 1510,
    "Ġmayhew": 12954,
    "Ġmaybe": 12953,
    "big": 13688,
    "cas": 20797,
    "Ġrollicking": 24452,
    "Ġnest": 10191,
    "Ġmoods": 14953,
    "isher": 2878,
    "ress": 931,
    "Ġg": 310,
    "time": 3145,
    "Ġlimped": 19184,
    "Ġprudence": 13922,
    "Ġgifted": 17999,
    "vedale": 22712,
    "Ġbanish": 15574,
    "Ġemig": 14525,
    "Ġstout": 6026,
    "ined": 1260,
    "Ġtools": 11612,
    "ipelag": 12845,
    "ky": 4520,
    "ficial": 17550,
    "individual": 18443,
    "were": 2558,
    "rain": 461,
    "Ġper": 590,
    "Ġsummar": 3527,
    "Ġemir": 23354,
    "ĠĠĠĠĠĠĠĠĠĠĠĠ": 12904,
    "Ġcharts": 12831,
    "Ġgigantic": 5916,
    "Ġloaf": 15876,
    "Ġinsatiable": 19275,
    "Ġassoc": 6403,
    "Ġexerted": 15761,
    "Ġdivided": 8635,
    "Ġresources": 2940,
    "Ġshr": 4225,
    "Ġhabitation": 14805,
    "born": 7543,
    "Ē": 211,
    "Ġwerter": 15242,
    "tha": 15827,
    "Ġgems": 9211,
    "actory": 8911,
    "Ġabaft": 22279,
    "otam": 21803,
    "ediction": 17947,
    "confusion": 13373,
    "urch": 3994,
    "evid": 11487,
    "erde": 21273,
    "Ġaberde": 22282,
    "Ġfrancisco": 26065,
    "Ġreveal": 11202,
    "Ġwager": 17794,
    "Ġcommander": 8628,
    "Ġlav": 13952,
    "Ġdepended": 9780,
    "hoist": 23714,
    "Ġtart": 12531,
    "Ġparchment": 13655,
    "Ġsplinters": 15105,
    "Ġcurv": 3514,
    "Ġrap": 14306,
    "Ġcoward": 7156,
    "Ġdarting": 7757,
    "Ġrebell": 21674,
    "Ġcontracting": 15984,
    "misrepresented": 24215,
    "Ġsacrifice": 9558,
    "Ġcheating": 16370,
    "Ġimplies": 24875,
    "Ġcalled": 1972,
    "Ġtransparency": 10679,
    "opened": 7913,
    "Ġdav": 15594,
    "Ġallowed": 4060,
    "itying": 21999,
    "majesty": 26282,
    "Ġperiodically": 19498,
    "coast": 10451,
    "Ġsm": 704,
    "Ġstays": 16563,
    "pard": 9621,
    "Ġensure": 23689,
    "weaving": 18668,
    "Ġtol": 6677,
    "Ġsuggested": 8321,
    "Ġpatchwork": 24145,
    "Ġoutright": 18415,
    "twelve": 14623,
    "makes": 10713,
    "Ġarrange": 3120,
    "Ġpersisted": 13036,
    "figure": 13558,
    "Ġparl": 8178,
    "Ġtalks": 23374,
    "cked": 2762,
    "keenest": 25662,
    "tol": 17674,
    "Ġmistake": 6205,
    "gment": 4390,
    "Ġcomfortably": 16617,
    "peculiar": 6886,
    "Ġinv": 2225,
    "fifth": 20150,
    "Ġciv": 3310,
    "Ġassisted": 11112,
    "ollen": 11300,
    "Ġdisadvantage": 12894,
    "rupt": 3210,
    "repairing": 24496,
    "Ġspouts": 7730,
    "Ġdear": 1536,
    "hes": 1396,
    "itt": 571,
    "Ġpolynes": 16083,
    "weed": 14317,
    "Ġreminisc": 18727,
    "resembling": 25933,
    "resent": 10771,
    "Ġodd": 6627,
    "Ġboard": 3384,
    "oblig": 16294,
    "Ġmexico": 15283,
    "ditch": 17530,
    "illustration": 2286,
    "Ġbingley": 1680,
    "Ġuntil": 2667,
    "Ġblasphemy": 26116,
    "Ġemblematical": 25789,
    "Ġcle": 1509,
    "Ġstudying": 9851,
    "pedest": 24824,
    "Ġexe": 3995,
    "Ġumbrell": 13653,
    "Ġbeats": 21758,
    "Ġowl": 20088,
    "Ġcrests": 25686,
    "Ġhut": 15623,
    "Ġsadly": 7302,
    "ev": 6952,
    "Ġfrank": 4419,
    "contin": 16544,
    "Ġreasons": 6021,
    "Ġhedge": 8364,
    "befall": 22500,
    "Ġvoices": 7876,
    "Ġbur": 2697,
    "fin": 5209,
    "did": 3196,
    "Ġmalady": 24393,
    "Ġbrain": 2088,
    "Ġwindlass": 7256,
    "reement": 15514,
    "Ġindoors": 18840,
    "Ġeyed": 12673,
    "--": 1041,
    "anning": 10167,
    "Ġreve": 2936,
    "Ġincommod": 25309,
    "Ġwestward": 24390,
    "uting": 15664,
    "whis": 7898,
    "Ġhaggerston": 26454,
    "Ġindiscreet": 22962,
    "Ġpersu": 3565,
    "Ġhollow": 5648,
    "Ġsucking": 12790,
    "Ġassur": 6075,
    "Ġunc": 2125,
    "Ġadroop": 26002,
    "inquire": 16934,
    "Ġbags": 24538,
    "threw": 21989,
    "Ġaffrighted": 13575,
    "mured": 6960,
    "Ġrespects": 7269,
    "Ġ111": 24437,
    "Ġv": 399,
    "concerns": 24074,
    "Ġdaybreak": 18728,
    "Ġattempted": 8001,
    "âĢĶâĢĺ": 7015,
    "arded": 5029,
    "Ġcomm": 838,
    "pred": 2802,
    "Ġinterposed": 20623,
    "Ġskip": 1847,
    "Ġruminated": 24601,
    "Ġsermons": 20198,
    "Ġmistress": 8615,
    "Ġaff": 1118,
    "Ġcompressed": 21862,
    "amuse": 14054,
    "Ġwrecked": 9969,
    "Ġfield": 1233,
    "Ġtransp": 4771,
    "84": 15304,
    "Ġcurse": 7667,
    "Ġjoist": 19233,
    "cular": 15330,
    "Ġabomination": 22283,
    "Ġreplaced": 13075,
    "scale": 3537,
    "Ġnosegay": 24196,
    "octial": 20009,
    "Ġduncan": 13464,
    "Ġmacey": 12567,
    "Ġbrazen": 23844,
    "Ġpreced": 6041,
    "Ġirrespective": 23379,
    "Ġparacels": 13670,
    "Ġoutputs": 2888,
    "unders": 13314,
    "Ġraved": 22652,
    "Ġforever": 14554,
    "Ġexhilar": 19687,
    "Ġhos": 4942,
    "touching": 15094,
    "proposal": 18758,
    "urches": 12689,
    "gyric": 19112,
    "Ġinconsiderable": 21500,
    "L": 48,
    "Ġcomput": 601,
    "Ġcripple": 11442,
    "extremely": 26265,
    "Ġundiscernible": 22073,
    "atural": 936,
    "Ġgossiping": 26246,
    "Ġanne": 1528,
    "vable": 10135,
    "Ġsubmitted": 11875,
    "âĢĶâĢĺ_": 24833,
    "ilies": 18059,
    "Ġoverthrow": 18434,
    "Ġarray": 12816,
    "vicious": 21123,
    "Ġunfit": 14789,
    "Ġlestrade": 5826,
    "Ġcontemplate": 19895,
    "Ġgrowl": 16539,
    "dutch": 17221,
    "Ġpreliminary": 10060,
    "Ġjerked": 19836,
    "anguish": 15992,
    "Ġ132": 19899,
    "Ġste": 1387,
    "Ġdundee": 16999,
    "entric": 11622,
    "otions": 7181,
    "Ġdenomin": 12072,
    "Ġnarrations": 24353,
    "Ġdaggoo": 5441,
    "Ġeventually": 8620,
    "Ġtutored": 20132,
    "Ġunsolved": 22038,
    "shake": 22460,
    "Ġsegmentation": 17343,
    "Ġlack": 17966,
    "dissemble": 23495,
    "sam": 21055,
    "Ġoverjoyed": 17461,
    "untering": 15780,
    "Ġsporting": 17001,
    "Ġpanel": 13375,
    "Ġelement": 6898,
    "painting": 17047,
    "Ġsuccour": 20439,
    "Ġinverted": 12641,
    "Ġdangerously": 23941,
    "Ġcigaret": 16978,
    "Ġrevealed": 6753,
    "Ġdefendants": 15143,
    "Ġconsid": 1814,
    "Ġdeline": 16335,
    "van": 7814,
    "shel": 11934,
    "Ġsultry": 20292,
    "Ġtopsails": 19196,
    "rade": 9682,
    "Ġjew": 9470,
    "daughter": 8354,
    "Ġey": 8135,
    "Ġre": 317,
    "eth": 622,
    "Ġtut": 8774,
    "Ġsepulchre": 20563,
    "Ġhereditary": 10667,
    "Ġlowered": 6737,
    "Ġfil": 3475,
    "let": 2731,
    "Ġindication": 22958,
    "Ġminority": 18755,
    "Ġxviii": 23413,
    "Ġejac": 10206,
    "consid": 4925,
    "considerably": 13448,
    "ront": 15420,
    "mates": 5073,
    "Ġkeel": 6445,
    "Ġere": 3687,
    "Ġlips": 3992,
    "Ġencode": 4364,
    "Ġfalse": 4343,
    "fine": 10093,
    "excited": 13383,
    "Ġmonuments": 22988,
    "Ġpondicherry": 20495,
    "Ĭ": 237,
    "keeper": 5597,
    "grand": 7970,
    "Ġpredomin": 16037,
    "Ġmusky": 19386,
    "been": 3345,
    "Ġdense": 8123,
    "Ġassu": 21902,
    "brary": 5755,
    "Ġofficially": 24840,
    "Ġdelic": 4134,
    "abriel": 6950,
    "Ġholiest": 18815,
    "Ġadmirably": 16482,
    "Ġrelentless": 26279,
    "Ġinnumerable": 13355,
    "garet": 9600,
    "presence": 18498,
    "orney": 17875,
    "letter": 6203,
    "Ġrejo": 5917,
    "era": 13849,
    "Ġdiscretion": 10350,
    "Ġare": 527,
    "Ġgrandeur": 8631,
    "Ġaccess": 9752,
    "Ġsust": 7008,
    "ared": 772,
    "eastward": 15132,
    "Ġdoc": 7200,
    "Ġfasting": 16359,
    "vicinity": 20484,
    "Ġbowsprit": 16562,
    "Ġaccord": 4027,
    "Ġprobabilities": 4966,
    "contented": 14635,
    "pole": 9336,
    "Ġguar": 23048,
    "Ġhitting": 21492,
    "Ġmassa": 19458,
    "ho": 2858,
    "Ġramadans": 25123,
    "behind": 6780,
    "Ġjoyous": 14665,
    "long": 2914,
    "orts": 2555,
    "Ġmeanest": 12914,
    "Ġidentify": 12018,
    "mod": 1074,
    "Ġpail": 15611,
    "reng": 4003,
    "Ġcosmetic": 23474,
    "Ġskirts": 14353,
    "Ġcomparative": 10545,
    "deacon": 22152,
    "ality": 2512,
    "match": 15393,
    "axen": 22526,
    "cred": 9111,
    "Ġhuzza": 12637,
    "Ġscalable": 1624,
    "Ġmasts": 6466,
    "Ġrecurrent": 1806,
    "Ġcapering": 21359,
    "Ġtranquill": 6633,
    "dden": 1807,
    "eter": 11624,
    "eness": 2293,
    "cons": 4307,
    "avier": 2830,
    "Ġadm": 2403,
    "Ġtrials": 16791,
    "zek": 16260,
    "tw": 2811,
    "Ġillust": 8263,
    "swing": 15432,
    "deep": 1046,
    "Ġparent": 14646,
    "ogrand": 26263,
    "Ġdamning": 19142,
    "harpoon": 9494,
    "Ġwilled": 21296,
    "history": 15016,
    "Ġhart": 17924,
    "vengeance": 13360,
    "Ġcrab": 13147,
    "Ġexponentially": 1443,
    "Ġacres": 14315,
    "uits": 21109,
    "ibilities": 13012,
    "Ġscope": 15947,
    "Ġfathom": 17049,
    "creat": 20803,
    "Ġslewed": 23389,
    "Ġcopy": 10166,
    "prince": 23819,
    "Ġimmort": 19488,
    "Ġparac": 12799,
    "utterly": 20016,
    "Ġhenry": 5197,
    "Ġpresuming": 16795,
    "Ġmiracle": 15096,
    "dissatisf": 26130,
    "Ġopen": 1548,
    "Ġrum": 5925,
    "ampling": 12730,
    "rative": 17654,
    "Ġadvancement": 24476,
    "shoals": 24717,
    "Ġcurved": 18849,
    "Ġclimb": 15082,
    "uther": 8821,
    "iless": 10284,
    "Ġheaded": 11056,
    "rell": 11566,
    "Ġbel": 1217,
    "Ġlaure": 16911,
    "ms": 540,
    "Ġentit": 22738,
    "Ġprevention": 16095,
    "Ġwhistled": 24625,
    "Ġlac": 17967,
    "Ġfingertips": 24021,
    "mb": 879,
    "Ġportentous": 15232,
    "gerine": 22893,
    "Ġfabulous": 25949,
    "Ġjoking": 12841,
    "Ġsummoned": 9914,
    "Ġfully": 6344,
    "Ġcorroboration": 26054,
    "dor": 12456,
    "Ġsurvivors": 25732,
    "Ġshone": 7404,
    "Ġfeather": 8863,
    "Ġ121": 24467,
    "Ġbask": 8117,
    "impenetrable": 26198,
    "Ġrouted": 24909,
    "Ġbennet": 1572,
    "Ġcalendar": 18880,
    "Ġdemanded": 8327,
    "circumspect": 26087,
    "acting": 22635,
    "Ġpole": 6434,
    "reputable": 15520,
    "Ġoverseeing": 22369,
    "I": 45,
    "Ġentailed": 11028,
    "Ġchasing": 11758,
    "overhearing": 19057,
    "ulous": 4449,
    "called": 6294,
    "precision": 4331,
    "progression": 20386,
    "Ġunex": 11717,
    "Ġshel": 6847,
    "Ġremoter": 20110,
    "Ġdissipate": 13636,
    "Ġoverpow": 14209,
    "knows": 19175,
    "Ġpaced": 7584,
    "summer": 11998,
    "tri": 11532,
    "Ġrounding": 16279,
    "south": 8762,
    "Ġmanhood": 22331,
    "tub": 9146,
    "Ġsymb": 2591,
    "Î": 143,
    "ippi": 20248,
    "Ġoutlined": 22325,
    "Ġappertaining": 26535,
    "Ġconstantinople": 19841,
    "Ġvenerable": 9097,
    "rog": 15644,
    "Ġmists": 14631,
    "Ġdecreases": 3410,
    "shabbily": 26248,
    "loveliness": 26551,
    "Ġtroubles": 19443,
    "circumstance": 7764,
    "Ġinclude": 1876,
    "Ġcl": 552,
    "ested": 3482,
    "Ġspeechless": 13357,
    "Ġce": 3034,
    "Ġpostp": 12148,
    "net": 1195,
    "yingly": 23119,
    "Ġvesture": 20066,
    "Ġram": 11014,
    "Ġwhirlp": 16965,
    "Ġconvalescence": 23750,
    "í": 174,
    "aly": 1059,
    "uvian": 12247,
    "brave": 19827,
    "Ġstat": 1491,
    "urements": 18127,
    "Ġliveliest": 24775,
    "Ġcircumstance": 4987,
    "Ġcollapsed": 15084,
    "ittleness": 22382,
    "consc": 4842,
    "Ġalive": 4398,
    "ought": 828,
    "Ġco": 730,
    "Ġhere": 1086,
    "captain": 3956,
    "Ġstorms": 11264,
    "belated": 24043,
    "Ġindec": 13930,
    "vinegar": 25422,
    "Ġoverbearing": 12848,
    "Ġpraised": 19557,
    "Ġhoof": 23357,
    "Ġfacing": 10174,
    "Ġungenerous": 18268,
    "shelf": 20385,
    "Ġastonished": 7089,
    "ge": 559,
    "ø": 185,
    "ody": 1478,
    "Ġwest": 5219,
    "Ġproudly": 19746,
    "operations": 19979,
    "Ġpunctual": 17140,
    "Ġdemonstrate": 24998,
    "Ġidler": 16408,
    "vo": 11542,
    "Ġtyphoon": 12393,
    "Ġsperma": 19053,
    "Ġbegged": 8231,
    "Ġshud": 5461,
    "ill": 447,
    "Ġreply": 4515,
    "Ġeng": 1162,
    "¬": 110,
    "def": 1451,
    "drew": 7334,
    "mine": 5618,
    "Ġbecome": 3157,
    "aneous": 7240,
    "Ġsooner": 5573,
    "Ġcarpet": 9359,
    "Ġdishes": 16054,
    "Ġreveries": 11349,
    "Ġringing": 13335,
    "Ġfoes": 11956,
    "ards": 2505,
    "meanwhile": 10612,
    "Ġeddying": 17119,
    "arat": 9183,
    "engthen": 14459,
    "Ġshark": 5550,
    "Ġhier": 1896,
    "cod": 12448,
    "Ġrecurred": 18979,
    "Ġcampa": 17176,
    "Ġnash": 5820,
    "berwell": 22744,
    "remember": 7262,
    "Ġdesponding": 25869,
    "Ġacc": 573,
    "osal": 11763,
    "Ġstarts": 16585,
    "alo": 7588,
    "ub": 1228,
    "Ġrecogn": 2887,
    "Ġprotection": 9465,
    "Ġmed": 4177,
    "Ġnantucketer": 6913,
    "Ġchain": 1846,
    "dered": 2473,
    "arranging": 19321,
    "Ġpagoda": 19792,
    "chari": 21694,
    "Ġstaving": 21743,
    "Ġidol": 7467,
    "Ġsame": 1342,
    "Ġcontinents": 16850,
    "°": 113,
    "serv": 7451,
    "Ġdestitute": 14567,
    "irmed": 9242,
    "variance": 2655,
    "ĠĠĠĠĠĠĠĠĠĠĠĠĠĠĠĠĠĠĠĠĠĠĠĠĠĠĠĠĠĠĠĠĠĠ": 14614,
    "Ġxxxi": 24970,
    "combined": 20324,
    "Ġsecrecy": 7316,
    "Ġaromatic": 25926,
    "Ġaltogether": 4833,
    "ß": 160,
    "ī": 236,
    "ivorous": 22084,
    "Ġcoffin": 4428,
    "attain": 21266,
    "Ġprevented": 5943,
    "Ġhumbly": 16201,
    "Ġundeserving": 18270,
    "Ġmourn": 8707,
    "elfth": 22375,
    "Ġbestowed": 6595,
    "Ġinfle": 16366,
    "Ġpulling": 5864,
    "Ġnightmare": 18922,
    "Ġtemperature": 1003,
    "africa": 26309,
    "Ġfidget": 15192,
    "Ġgrave": 5100,
    "Ġscrew": 8871,
    "Ġ18": 3407,
    "daughters": 13469,
    "englishman": 23677,
    "Ġhorn": 6187,
    "Ġvict": 3763,
    "Ġnoah": 10944,
    ";": 31,
    "Ġchoicest": 24224,
    "Ġclinch": 18426,
    "Ġhag": 12629,
    "Ġprovoke": 14828,
    "breath": 15165,
    "Ġlift": 8815,
    "Ġconvention": 25548,
    "Ġinsular": 19271,
    "Ġprimal": 17108,
    "Ġmeasureless": 14712,
    "cele": 21630,
    "stayed": 25292,
    "card": 11477,
    "Ġsed": 10763,
    "Ġsparing": 22134,
    "promise": 12255,
    "drugg": 20841,
    "jerked": 25620,
    "Ġlucases": 9013,
    "Ġwhelmed": 26000,
    "state": 13981,
    "hind": 20897,
    "tahit": 17694,
    "Ġtransitory": 16025,
    "Ġuntoward": 19168,
    "recked": 17764,
    "Ġgaze": 6932,
    "nals": 16402,
    "young": 7321,
    "directed": 20409,
    "Ġplunging": 14954,
    "Ġrainy": 24342,
    "Ġspringing": 10521,
    "successfully": 14993,
    "Ġgallied": 19560,
    "entering": 17979,
    "Ġthink": 983,
    "Ġclose": 3039,
    "tasted": 17689,
    "boys": 13363,
    "Ġremainder": 9861,
    "riage": 2124,
    "icide": 11621,
    "Ġvess": 3296,
    "Ġreap": 18029,
    "Ġ134": 24784,
    "Ġdegrees": 7294,
    "overs": 17623,
    "Ġemblem": 20502,
    "lop": 20951,
    "Ġindel": 13008,
    "Ġcased": 21351,
    "Ġantagon": 19554,
    "smug": 23912,
    "Ġshaping": 22008,
    "Ġtrans": 641,
    "Ġstr": 758,
    "pun": 9620,
    "&": 10,
    "Ġresidence": 8207,
    "hue": 20902,
    "ells": 5305,
    "brevi": 24079,
    "perishing": 22187,
    "Ġgreedily": 18966,
    "Ġwell": 900,
    "raid": 3281,
    "semicirc": 26493,
    "Ġintermediate": 18590,
    "Ġactiv": 831,
    "tle": 2410,
    "Ġimperilled": 19582,
    "Ġdistinguish": 2725,
    "Ġtaken": 2528,
    "Ġdeclare": 6616,
    "Ġaddress": 2273,
    "vult": 21118,
    "Ġjewelled": 20187,
    "Ġneighb": 14078,
    "resnet": 4071,
    "Ġgasfitters": 25042,
    "irons": 10241,
    "Ġtweed": 22681,
    "shunned": 22470,
    "Ġredeem": 20504,
    "Ġnobly": 22246,
    ",âĢĶâĢĺ": 23806,
    "Ġfeelings": 2454,
    "harm": 13737,
    "Ġcharitable": 23273,
    "Ġbashaw": 25634,
    "ler": 3494,
    "Ġfix": 2508,
    "Ġcracked": 8597,
    "Ġhereford": 22881,
    "Ġinstances": 5568,
    "ga": 17552,
    "Ġwaistcoat": 12275,
    "Ġbottle": 7490,
    "Ġatmosphere": 10899,
    "Ġadmiration": 5329,
    "Ġprevailing": 24675,
    "Ġprodig": 6029,
    "ipelagoes": 13674,
    "Ġseer": 21964,
    "hee": 10762,
    "adel": 15733,
    "induce": 22380,
    "Ġapparent": 5466,
    "Ġdivert": 23596,
    "Ġloungers": 24864,
    "Ġvehemence": 26568,
    "Ġinvestigations": 17249,
    "possibility": 13365,
    "Ġknows": 4160,
    "Ġwrit": 8242,
    "Ġbachel": 7159,
    "Ġwarrant": 17796,
    "slept": 17172,
    "Ġbott": 3147,
    "Ġtemporary": 7981,
    "Ġworshipper": 25693,
    "Ġcre": 887,
    "Ġfed": 5530,
    "Ġgrand": 3594,
    "Ġinclud": 1511,
    "Ġsebastian": 11702,
    "Ġrelev": 1717,
    "Ġstraining": 11329,
    "ropy": 1104,
    "Ġincomp": 12901,
    "Ġchiswick": 25562,
    "Ġpretext": 22234,
    "Ġmeryton": 4437,
    "Ġomens": 21333,
    "Ġevolved": 9895,
    "Ġrevolved": 9987,
    "Ġluxuriant": 20399,
    "Ġarticles": 7110,
    "Ġapt": 9158,
    "interference": 23742,
    "Ġexerting": 21838,
    "edy": 2859,
    "Ġ122": 24468,
    "zy": 2669,
    "Ġsat": 1133,
    "henomen": 10497,
    "Ġprized": 23226,
    "Ġgouge": 26190,
    "ference": 1885,
    "Ġsilently": 6895,
    "Ġhurrah": 9872,
    "Ġgrease": 26191,
    "Ġbranded": 14381,
    "Ġminutely": 14562,
    "Ġdexterous": 15151,
    "une": 2786,
    "Ġcreation": 6440,
    "rice": 13779,
    "Ġstyled": 24673,
    "fatig": 17090,
    "mathemat": 19140,
    "ef": 5134,
    "Ġoccupy": 14733,
    "Ġwise": 6812,
    "bra": 6221,
    "Ġliber": 5168,
    "Ġvaliantly": 22795,
    "Ġevenly": 4129,
    "Ġgovern": 10452,
    "rods": 21543,
    "Ġunansw": 22063,
    "function": 4568,
    "Ġassuming": 16694,
    "Ġgallows": 12150,
    "brought": 7285,
    "Ġobe": 5801,
    "Ġvitality": 15175,
    "Ġharbors": 24903,
    "charlotte": 6474,
    "Ġwrecks": 16820,
    "Ġunit": 1850,
    "Ġsashes": 21230,
    "sent": 759,
    "favouring": 24762,
    "Ġlydia": 2375,
    "Ġrecollections": 10515,
    "uously": 7353,
    "Ġstock": 7455,
    "Ġerr": 1322,
    "oup": 2014,
    "Ġavoided": 13263,
    "Ġtries": 9153,
    "bl": 4142,
    "desper": 13222,
    "Ġlunging": 24993,
    "Ġoblige": 10491,
    "Ġbeast": 7180,
    "Ġmeditations": 25017,
    "clearer": 24075,
    "Ġmouthful": 16576,
    "Ġfancying": 12117,
    "Ġentail": 9794,
    "ket": 17584,
    "Ġflutter": 16250,
    "Ġcoff": 3510,
    "Ġwhisker": 23939,
    "Ġreven": 18031,
    "Ġdesire": 3718,
    "chant": 4257,
    "ral": 4629,
    ",)": 9104,
    "log": 18536,
    "precise": 19355,
    "Ġhatchway": 13527,
    "enial": 17782,
    "Ġbright": 3213,
    "knowing": 10439,
    "Ġmen": 1434,
    "Ġfifteen": 6947,
    "Ġskies": 8924,
    "Ġstacked": 21749,
    "bber": 4570,
    "lour": 15383,
    "onent": 21253,
    "unhappy": 10240,
    "danced": 20831,
    "Ġfastening": 16360,
    "feeder": 12365,
    "Ġfret": 10808,
    "haul": 14768,
    "steam": 23964,
    "Ġantarctic": 19556,
    "Ġdecorated": 22445,
    "boom": 19000,
    "Ġadversarial": 5607,
    "Ġcontribut": 12849,
    "Ġsen": 9159,
    "Ġsomnambul": 26578,
    "Ġasiatics": 20435,
    "Ġjunior": 15102,
    "arising": 17897,
    "Ġroundabout": 23064,
    "Ġbusiness": 2234,
    "franch": 24287,
    "Ġgrasp": 4665,
    "Ġspoiled": 11365,
    "Ġender": 11694,
    "Ġattribute": 16101,
    "Ġspire": 18308,
    "Ġdiscerning": 25006,
    "Ġbranches": 6777,
    "Ġlargest": 6284,
    "urmount": 13998,
    "agree": 14069,
    "Ġresource": 10995,
    "Ġsteadily": 8052,
    "Ġsecond": 1884,
    "Ġprom": 1525,
    "Ġengine": 1920,
    ",_": 11464,
    "bered": 4505,
    "azing": 7705,
    "Ġtrustworthy": 24110,
    "Ġpacing": 8427,
    "Ġendwise": 23139,
    "Ġslumbering": 25702,
    "initions": 21192,
    "latitude": 25261,
    "dripping": 16907,
    "Ġchildish": 13140,
    "Ġfireplace": 13148,
    "Ġghost": 6144,
    "Ġfewer": 16230,
    "withdrawn": 23031,
    "darkened": 24518,
    "Ġtelling": 5747,
    "retched": 3069,
    "¢": 100,
    "Ġalb": 14018,
    "Ġerrone": 14432,
    "shaken": 16029,
    "Ġcamel": 25351,
    "drown": 13707,
    "bits": 17491,
    "affair": 14656,
    "Ġenig": 15803,
    "delay": 16697,
    "ernity": 18617,
    "Ġsimilarly": 24311,
    "Ġgroping": 13668,
    "fiery": 13584,
    "Ġtradesmen": 17106,
    "stun": 18021,
    "Ġschedule": 2373,
    "Ġargument": 7100,
    "Ġpainfully": 13145,
    "Ġtrinity": 22365,
    "Ġpropagating": 20637,
    "Ġpersuasion": 10501,
    "Ġmake": 1283,
    "Ġbathing": 20203,
    "Ġbarbara": 24816,
    "youngest": 19747,
    "Ġgovernor": 16492,
    "direful": 25897,
    "itar": 15551,
    "robe": 15646,
    "Ġdamn": 11160,
    "Ġdirector": 18923,
    "Ġnonsensical": 21534,
    "Ġscra": 5841,
    "Ġmental": 21324,
    "Ġdiscipl": 22787,
    "Ġyouth": 4260,
    "compass": 9463,
    "short": 6568,
    "Ġparameter": 885,
    "consternation": 16914,
    "Ġ68": 24371,
    "Ġhawk": 15176,
    "Ġoutward": 7904,
    "Ġlexicon": 25975,
    "ichever": 13959,
    "in": 262,
    "Ġbir": 17855,
    "Ġdiligent": 25079,
    "Ġscraggy": 24581,
    "Ġfict": 21410,
    "Ġpretended": 19317,
    "instr": 12535,
    "visual": 24226,
    "Ġsealed": 15822,
    "Ġemma": 20698,
    "asant": 17961,
    "wh": 508,
    "Ġscruples": 15081,
    "Ġlod": 4044,
    "Ġperdition": 16001,
    "dangerous": 20244,
    "Ġashen": 21904,
    "Ġbelshazzar": 16229,
    "Ġheadache": 22904,
    "move": 11858,
    "cun": 20798,
    "subtle": 24247,
    "angry": 18296,
    "_),": 7127,
    "icha": 11742,
    "Ġwandering": 8657,
    "Ġmimic": 3142,
    "epend": 3316,
    "Ġ[": 6968,
    "Ġimparted": 15997,
    "li": 1188,
    "Ġsongs": 13423,
    "Ġtarts": 10755,
    "plied": 10257,
    "Ġreligious": 25125,
    "Ġtomb": 8812,
    "fortunately": 9454,
    "Ġfolios": 23024,
    "Ġextracting": 11118,
    "Ġpatriot": 23298,
    "Ġunappe": 22023,
    "Ġrepaid": 19085,
    "Ġimproved": 7656,
    "Ġpool": 5173,
    "Ġamazement": 7765,
    "yed": 3274,
    "perai": 10278,
    "giana": 7801,
    "Ġtraps": 23083,
    "Ġlearns": 2642,
    "Ġpapa": 10659,
    "Ġquill": 12864,
    "Ġspare": 5102,
    "Ġpicked": 6343,
    "Ġportable": 19374,
    "Ġobjecting": 18898,
    "ual": 945,
    "Ġborders": 15576,
    "Ġascertaining": 17206,
    "Ġ36": 14770,
    ")": 13,
    "credit": 12453,
    "Ġsuggestions": 24454,
    "hunted": 16834,
    "Ġinvulnerable": 19149,
    "Ġdisagree": 22537,
    "hun": 5210,
    "Ġreef": 10851,
    "Ġweeping": 11690,
    "Ġleagues": 9226,
    "Ġlichen": 20096,
    "ion": 296,
    "Ġcreditor": 24293,
    "Ġhaughty": 11451,
    "Ġclung": 10959,
    "tray": 21082,
    "sex": 12717,
    "youn": 5690,
    "Ġdevouring": 11863,
    "useless": 14595,
    "groom": 8743,
    "sloop": 26146,
    "Ġhonest": 7287,
    "Ġaxe": 15063,
    "Ġstoop": 16313,
    "Ġon": 350,
    "Ġobstin": 14955,
    "mysteries": 26052,
    "Ġder": 1498,
    "Ġfer": 5529,
    "Ġoptimizers": 18648,
    "ccas": 15889,
    "Ġluck": 4881,
    "Ġgrapp": 14103,
    "gue": 12472,
    "spiracle": 22735,
    "Ġgerman": 6143,
    "Ġcompetition": 14268,
    "trust": 21083,
    "Ġhurrying": 11999,
    "Ġslung": 23172,
    "pockets": 16213,
    "solving": 3099,
    "Ġdispose": 23883,
    "ana": 15563,
    "peddling": 21035,
    "Ġmap": 2392,
    "Ġstory": 2904,
    "Ġnational": 13944,
    "Ġwith": 349,
    "conviction": 19969,
    "erative": 21277,
    "sincerely": 24586,
    "Ġsnows": 14728,
    "mont": 19172,
    "Ġword": 1050,
    "Ġreck": 6539,
    "aguy": 21915,
    "resolution": 17768,
    "Ġbob": 22641,
    "Ġrouse": 15826,
    "Ġcurving": 16237,
    "vapor": 25756,
    "Ġtails": 9905,
    "Ġcarn": 17823,
    "Ġer": 8105,
    "envelope": 17784,
    "queg": 1772,
    "Ġclosest": 16765,
    "Ġlogical": 14488,
    "Ġdistinguishing": 16498,
    "Ġstruck": 3390,
    "Ġmoody": 8201,
    "ĠĠĠĠĠĠĠĠĠĠĠĠĠĠĠĠĠĠĠĠĠĠĠĠĠĠĠĠĠĠĠĠĠĠĠĠ": 23666,
    "Ġleft": 1762,
    "Ġbelly": 10372,
    "duty": 20243,
    "Ġchances": 9266,
    "illation": 14143,
    "maged": 15396,
    "Ġ150": 22830,
    "concerted": 16674,
    "Ġdescend": 7427,
    "Ġast": 2964,
    "Ġcontest": 18436,
    "xic": 9148,
    "ree": 874,
    "Ġrod": 9285,
    "acks": 11792,
    "Ġrecognition": 3271,
    "Ġgeorgia": 23890,
    "Ġcontinue": 5398,
    "belong": 12127,
    "Ġanimals": 8981,
    "Ġreplay": 5047,
    "partiality": 13163,
    "iii": 14779,
    "Ġexisted": 15759,
    "sive": 4144,
    "Ġwoll": 21298,
    "Ġshop": 9255,
    "Ġdilated": 24704,
    "racting": 10358,
    "bidden": 19741,
    "Ġadmired": 7982,
    "waist": 13421,
    "Ġeasier": 11167,
    "sh": 646,
    "Ġsecluded": 11997,
    "Ġjer": 6268,
    "Ġdeployment": 11195,
    "Ġvillainous": 25135,
    "compl": 6873,
    "Ġconvenient": 8346,
    "them": 3021,
    "ulence": 15770,
    "masts": 19429,
    "Ç": 136,
    "substance": 15234,
    "plicable": 10258,
    "months": 9074,
    "Ġspared": 7893,
    "Ġeloped": 22650,
    "onsensical": 18578,
    "Ġsensitiveness": 23739,
    "Ġsort": 1506,
    "Ġpaddington": 17096,
    "critical": 19500,
    "Ġneighbouring": 12123,
    "Ġlimb": 9405,
    "Ġsteak": 9832,
    "Ġtrust": 4080,
    "Ġcenturies": 8626,
    "Ġaristotle": 25818,
    "Ġtore": 6532,
    "greatest": 10496,
    "Ġdamned": 13135,
    "towing": 17691,
    "onym": 14650,
    "glow": 20877,
    "Ġshag": 9254,
    "magnetic": 20556,
    "Ġscrutin": 26015,
    "atever": 3079,
    "raved": 18015,
    "Ġpang": 15609,
    "ulated": 6031,
    "Ġtreacherous": 13557,
    "Ġimport": 1030,
    "herald": 22210,
    "Ġalgorithms": 858,
    "Ġtranspointed": 22450,
    "Ġconsecrated": 26490,
    "Ġappeased": 23201,
    "Ġslime": 23165,
    "Ġrolls": 8334,
    "Ġconsecut": 18115,
    "Ġost": 9652,
    "Ġapartment": 6636,
    "Ġproperly": 7945,
    "Ġsurrounds": 24235,
    "exceedingly": 9569,
    "Ġcetus": 19888,
    "fortune": 4975,
    "Ġradiant": 16811,
    "oft": 3592,
    "Ġxavier": 2855,
    "limbs": 20195,
    "Ġboth": 1657,
    "umbers": 10920,
    "Ġmoving": 1682,
    "sinking": 17670,
    "Ġsmo": 2700,
    "Ġguns": 16778,
    "Ġpan": 5082,
    "Ġplatonian": 25122,
    "Ġdromedary": 17442,
    "phant": 6289,
    "asp": 3341,
    "Ġprivate": 5346,
    "ourers": 21454,
    "Ġmultiplied": 23691,
    "Ġthen": 667,
    "sales": 17669,
    "Ġrecounted": 22756,
    "Ġdisinterested": 16061,
    "ingolstadt": 21308,
    "Ġfatal": 5873,
    "impotence": 23765,
    "Ġair": 1838,
    "decor": 23784,
    "pos": 15412,
    "Ð": 145,
    "Ġfetch": 7770,
    "Ġvile": 8475,
    "irements": 22217,
    "Ġselection": 18206,
    "Ġtelegram": 15226,
    "illity": 18298,
    "Ġambitious": 18519,
    "Ġfire": 2333,
    "ting": 1333,
    "Ġprow": 6686,
    "ipping": 2207,
    "Ġbecher": 18882,
    "Ġmbpp": 21327,
    "Ġconnecting": 18632,
    "Ġdevice": 1930,
    "lacings": 26135,
    "inioned": 19290,
    "Ġseizing": 7879,
    "peace": 13053,
    "Ġeighteen": 11240,
    "Ġsized": 11565,
    "Ġinh": 10826,
    "Ġqueen": 3212,
    "swed": 24257,
    "Ġhangs": 11609,
    "nants": 17615,
    "Ġlinguistic": 12429,
    "Ġreclining": 26035,
    "ladies": 9532,
    "hate": 20895,
    "Ġjuncture": 17132,
    "Ġexcited": 5580,
    "balanced": 14556,
    "Ġlays": 15998,
    "Ġclaw": 22352,
    "Ġsorts": 6887,
    "Ġcomfortable": 6096,
    "Ġlifted": 6986,
    "beds": 16624,
    "hued": 20914,
    "Ġoy": 15550,
    "Ġtrunks": 15975,
    "Ġpurposely": 10446,
    "Ġhit": 7164,
    "em": 390,
    "snap": 24850,
    "/": 19,
    "Ġcaut": 6522,
    "Ġsuperhuman": 23455,
    "Ġadam": 2127,
    "ravelled": 18017,
    "Ġstrugg": 3216,
    "Ġshaded": 14107,
    "rador": 19130,
    "mel": 9130,
    "itime": 15552,
    "Ġengineering": 3028,
    "Ġabated": 18392,
    "Ġclanking": 20615,
    "stein": 5505,
    "Ġdusting": 24598,
    "Ġplaited": 14285,
    "Ġhearties": 18968,
    "Ġfarthing": 14456,
    "fleet": 15015,
    "accents": 19213,
    "Ġenquired": 21945,
    "Ġomitted": 12568,
    "Ġfootpath": 19341,
    "Ġcrunched": 19123,
    "Ġbelike": 18834,
    "overcoat": 19056,
    "Ġgregarious": 18965,
    "reasonable": 7752,
    "Ġbustle": 17230,
    "Ġdecent": 10980,
    "Ġfalsehood": 10526,
    "Ġset": 1175,
    "diff": 9116,
    "Ġwheeling": 18290,
    "Ġstraps": 19313,
    "aract": 17896,
    "Ġring": 4451,
    "Ġendeavors": 16548,
    "Ġhump": 5855,
    "Ġperches": 18456,
    "Ġclamped": 18427,
    "Ġrough": 7187,
    "Ġcreamy": 14329,
    "Ġtreatment": 12076,
    "Ġpeculiarity": 12937,
    "Ġobservations": 13556,
    "methodically": 20667,
    "Ġgor": 9209,
    "lounged": 26134,
    "call": 8726,
    "Ġthirds": 16710,
    "picture": 11409,
    "exped": 16526,
    "Ġrods": 9759,
    "Ġpe": 852,
    "standing": 5558,
    "Ġconvulsively": 25716,
    "seems": 10877,
    "Ġconquer": 14029,
    "profess": 10637,
    "Ġmicroscopic": 26375,
    "Ġhealed": 21688,
    "Ġarea": 14188,
    "ked": 5616,
    "contriv": 19296,
    "Ġpetticoat": 15298,
    "mccarthy": 15397,
    "Ġtrepidation": 19217,
    "Ġsurmis": 23466,
    "presumption": 20446,
    "Ġthankful": 14741,
    "Ġdiddled": 22671,
    "Ġafghan": 22634,
    "Ġmajesty": 5201,
    "~": 98,
    ".--": 20749,
    "eray": 21271,
    "Ġoldest": 12977,
    "goodness": 19292,
    "obey": 11512,
    "Ġtimorous": 24229,
    "metallic": 19883,
    "Ġbeg": 1281,
    "Ġhaggard": 17333,
    "Ġenrolled": 21942,
    "bounded": 13442,
    "ophisticated": 22483,
    "Ġheidelburgh": 11646,
    "happ": 3103,
    "Ġstatistics": 1686,
    "Ġattain": 12751,
    "india": 22377,
    "Ġtexas": 25923,
    "Ġclassification": 1100,
    "Ġrealising": 18984,
    "valu": 1742,
    "Ġbru": 13897,
    "icy": 6142,
    "pate": 21013,
    "Ġgallant": 8658,
    "ake": 749,
    "Ġsitt": 21222,
    "wick": 5363,
    "Ġprediction": 2141,
    "Ġallurements": 22014,
    "lot": 3207,
    "gia": 20879,
    "infer": 10147,
    "ientious": 11695,
    "Ġdies": 11596,
    "oused": 6558,
    "Ġpant": 10819,
    "Ġfly": 3873,
    "Ġenduring": 16305,
    "apable": 6423,
    "Ġsports": 18312,
    "Ġ53": 19639,
    "Ġdissimilar": 22536,
    "Ġdescribing": 19257,
    "Ġdisclose": 16160,
    "poles": 16212,
    "Ġuncovered": 23435,
    "Ġgracechurch": 12203,
    "clad": 14461,
    "northern": 23667,
    "aciously": 12911,
    "Ġcongratulations": 10583,
    "Ġgorge": 13569,
    "execution": 20476,
    "rown": 2192,
    "Ġawait": 17074,
    "Ġcomposition": 1691,
    "ify": 1358,
    "Ġhur": 2101,
    "moran": 24156,
    "regarding": 15074,
    "Ġdevelopments": 23252,
    "ude": 7562,
    "Ġclutched": 13521,
    "iments": 4945,
    "resses": 16158,
    "grin": 19108,
    "Ġstove": 6735,
    "bacc": 7795,
    "Ġhails": 21955,
    "Ġmel": 4818,
    "heavily": 24535,
    "mass": 12494,
    "Ġobvious": 4964,
    "tural": 21071,
    "browed": 25895,
    "Ġadmirers": 19690,
    "escaped": 14232,
    "Ġrede": 13986,
    "Ġrascal": 11706,
    "remain": 9841,
    "Ġsupply": 6068,
    "Ġpovelson": 26554,
    "network": 1928,
    "coburg": 13601,
    "Ġnovel": 6697,
    "Ġaware": 5756,
    "Ġointment": 21331,
    "Ġaccuracy": 1124,
    "thou": 4710,
    "Ġcustoms": 19656,
    "Ġfrequent": 3288,
    "Ġoverhear": 15980,
    "Ġstri": 2803,
    "cold": 9592,
    "Ġmagnifying": 16322,
    "steep": 19423,
    "Ġrestrain": 8967,
    "brain": 13690,
    "Ġclubbed": 26548,
    "above": 8148,
    "quee": 4130,
    "Ġconcocted": 26300,
    "Ġconsisted": 10421,
    "Ġdescrib": 2717,
    "Ġsmack": 9303,
    "edmund": 17948,
    "Ġdistillation": 16049,
    "Ġtroops": 24900,
    "Ġvisiting": 10360,
    "grasping": 20643,
    "Ġarm": 2491,
    "Ġlow": 1647,
    "Ġincreasing": 8247,
    "Ġlikelihood": 16503,
    "Ġtimor": 24228,
    "Ġgeneral": 1864,
    "Ġserpent": 6739,
    "Ġwhaling": 2783,
    "Ġnecks": 18190,
    "Ġstocks": 23180,
    "Ġmitig": 1336,
    "volutional": 1936,
    "Ġflooded": 24963,
    "Ġbreathlessly": 24284,
    "Ġapparelled": 20441,
    "Ġgambler": 26192,
    "Ġportion": 7492,
    "Ġmic": 17799,
    "Ġattentions": 5879,
    "Ġoscillations": 2900,
    "Ġinquiring": 9002,
    "impressed": 12695,
    "ppo": 18179,
    "ĝ": 222,
    "Ġrevelations": 25225,
    "Ġduplicity": 25333,
    "Ġholding": 4979,
    "Ġpained": 19170,
    "Ġalle": 11669,
    "Ġdismasted": 15254,
    "Ġleads": 12101,
    "Ġcomplement": 23710,
    "bus": 5355,
    "Ġoaths": 13526,
    "Ġmartial": 20295,
    "Ġstaid": 21741,
    "rollable": 13947,
    "ascertaining": 26462,
    "Ġgurg": 15677,
    "founded": 16715,
    "Ġcalculus": 23987,
    "Ġgreatly": 5851,
    "delivered": 24104,
    "Ġhopeless": 7463,
    "bringing": 17169,
    "iating": 3206,
    "Ġrejoiced": 8687,
    "ties": 2758,
    "Ġsynd": 22211,
    "Ġsigned": 11179,
    "Ġrehearsed": 25972,
    "endent": 15926,
    "Ġcabal": 23644,
    "Ġscratch": 25566,
    "Ġdemoniac": 15067,
    "Ġel": 798,
    "Ġseeming": 8543,
    "thrasher": 25659,
    "expense": 22434,
    "sheets": 14443,
    "Ġinfernal": 11965,
    "Ġyourself": 2593,
    "stand": 625,
    "ã": 164,
    "Ġformality": 22832,
    "Ġentertained": 10001,
    "dead": 8180,
    "Ġmoustache": 20488,
    "Ġunsur": 22027,
    "oded": 11673,
    "Ġcautious": 12258,
    "Ġlatent": 19659,
    "beheaded": 22498,
    "Ġbounty": 26439,
    "Ġdreaded": 8289,
    "Ġdisconsol": 18559,
    "ended": 1837,
    "nd": 11506,
    "Ġlandlessness": 23384,
    "rodden": 21540,
    "Ġloudly": 7312,
    "Ġbloodless": 19342,
    "mant": 20968,
    "Ġaffection": 2639,
    "Ġendless": 7055,
    "Ġcumbrous": 26434,
    "Ġfinish": 7949,
    "Ġlatterly": 24088,
    "dire": 15338,
    "Ġaccents": 14212,
    "Ġmamm": 25094,
    "Ġform": 1025,
    "oot": 13767,
    "Ġsubordinate": 18724,
    "bolt": 25139,
    "inese": 12887,
    "classes": 12140,
    "Ġbrig": 11049,
    "Ġineffable": 17335,
    "mun": 20965,
    "Ġmacro": 25940,
    "Ġmonument": 16243,
    "Ġwhitt": 18057,
    "spot": 9792,
    "Ġchinese": 14185,
    "Ġxl": 11994,
    "behaviour": 11303,
    "Ġwired": 17788,
    "Ġrays": 10333,
    "Ġinterruption": 9476,
    "Ġthanking": 18604,
    "Ġexertions": 13413,
    "Ġcontemporary": 15985,
    "Ġcooked": 13273,
    "Ġmeet": 2804,
    "ex": 620,
    "ost": 5361,
    "gh": 3803,
    "Ġsympathising": 24300,
    "Ġlate": 3378,
    "Ġprinted": 11953,
    "Ġ9": 5902,
    "Ġcluster": 13574,
    "Ġwides": 17790,
    "scores": 22996,
    "civilized": 17076,
    "icism": 13958,
    "endurable": 22233,
    "Ġballs": 9018,
    "Ġhilarity": 20301,
    "Ġrug": 16161,
    "Ġ{": 21157,
    "wor": 3416,
    "lays": 14924,
    "Ġmitt": 21312,
    "mell": 20967,
    "Ġunable": 4951,
    "Ġconversation": 3331,
    "Ġgathering": 14980,
    "ppery": 10894,
    "Ġeat": 4645,
    "contrasted": 17309,
    "Ġconductor": 24011,
    "gratulation": 24350,
    "Ġblooming": 17215,
    "Ġmines": 21313,
    "Ġused": 2061,
    "programming": 10066,
    "Ġguiding": 19244,
    "Ġheire": 18039,
    "igms": 3048,
    "secure": 12240,
    "Ġaffording": 14823,
    "Ġsenses": 8252,
    "engines": 18931,
    "Ġbackpropagation": 1262,
    "Ġshowed": 4497,
    "Ġcraft": 4376,
    "Ġstruct": 2784,
    "Ġpoltro": 23622,
    "consolation": 15155,
    "square": 15061,
    "erm": 785,
    "shortened": 24748,
    "Ġcensure": 15098,
    "torm": 11533,
    "involuntarily": 20419,
    "vision": 5620,
    "anelles": 26436,
    "Ġunlim": 18255,
    "deceiving": 22149,
    "enjoy": 10776,
    "Ġgl": 1256,
    "sper": 4434,
    "bag": 7542,
    "Ġaid": 6124,
    "isp": 5528,
    "regularization": 3517,
    "rated": 6229,
    "Ġsoothing": 8173,
    "Ġbled": 17859,
    "Ġunderstand": 833,
    "canoes": 16235,
    "frequent": 15356,
    "unnecessary": 21885,
    "camp": 15332,
    "unicorn": 21894,
    "Ġbasis": 16963,
    "Ġblade": 11897,
    "ired": 1444,
    "script": 11079,
    "Ġoverheard": 11778,
    "Ġbumps": 21397,
    "Ġsickle": 24249,
    "Ġchrysalis": 26540,
    "Ġfireside": 23533,
    "lies": 15384,
    "Ġroused": 7624,
    "Ġfur": 990,
    "su": 796,
    "plish": 18202,
    "somewhat": 11162,
    "therly": 18340,
    "Ġagitated": 7648,
    "Ġany": 687,
    "Ġconsternation": 9862,
    "Ġdish": 6138,
    "Ġwilliam": 3485,
    "acon": 10684,
    "uten": 11625,
    "answer": 11736,
    "Ġdeclaration": 16639,
    "Ġexcess": 3343,
    "Ġrepublican": 17415,
    "Ġweeds": 21928,
    "Ġ114": 24439,
    "Ġerskine": 17435,
    "ised": 1093,
    "prep": 9762,
    "speechless": 25397,
    "Ġevermore": 18814,
    "Ġpressing": 9264,
    "Ġcomputes": 4769,
    "Ġpennies": 17273,
    "Ġlunacy": 20032,
    "gement": 13730,
    "gall": 6361,
    "Ġdesign": 4132,
    "Ġstrain": 6025,
    "organ": 15578,
    "Ġfine": 1316,
    "Ġtor": 8106,
    "Ġmoderately": 22229,
    "threshold": 21992,
    "Ġregarded": 5762,
    "Ġdisobey": 18561,
    "Ġcasualty": 20345,
    "shown": 22459,
    "Ġcorridor": 10674,
    "ta": 13791,
    "Ġwidespread": 20679,
    "che": 3170,
    "Ġheathenish": 13619,
    "Ġmoot": 22437,
    "Ġhome": 2028,
    "Ġdivulged": 16651,
    "blows": 17168,
    "sixteen": 24855,
    "ren": 549,
    "Ġstanders": 19018,
    "fred": 20858,
    "Ġburying": 19255,
    "Ġinclinations": 19543,
    "ifiable": 18167,
    "saving": 21064,
    "condem": 16346,
    "ian": 1240,
    "Ġmortified": 14696,
    "Ġphysical": 7522,
    "Ġencamp": 22806,
    "Ġillustrations": 17109,
    "Ġfervently": 25878,
    "hus": 5072,
    "oysius": 14366,
    "reeling": 21249,
    "Ġ124": 24470,
    "oking": 4608,
    "Ġformless": 22831,
    "Ġinter": 728,
    "singular": 12193,
    "lar": 4483,
    "Ġage": 3900,
    "Ġcondensed": 24058,
    "Ġmanor": 14198,
    "Ġaccompan": 5513,
    "Ġhero": 5715,
    "things": 6034,
    "Ġfears": 5729,
    "ilar": 10218,
    "atter": 659,
    "boast": 23256,
    "Ġremem": 4311,
    "Ġcautiously": 16979,
    "mews": 22714,
    "Ġkilburn": 18350,
    "ohnson": 16328,
    "Ġvoid": 14088,
    "itory": 12571,
    "Ġerud": 20059,
    "Ġpinched": 17036,
    "fering": 17544,
    "Ġmirror": 12382,
    "Ġvestige": 20067,
    "Ġunrelieved": 20549,
    "phants": 9323,
    "Ġfacetious": 20588,
    "corn": 13702,
    "iful": 2883,
    "encountered": 20397,
    "Ġascribe": 16784,
    "Ġrespect": 1670,
    "commendation": 26351,
    "Ġstool": 14463,
    "Ġmim": 3105,
    "positive": 20571,
    "ilingly": 21729,
    "Ġevangelical": 25508,
    "Ġstrokes": 16771,
    "Ġcountenances": 11969,
    "Ġhypotheses": 4386,
    "Ġnorthern": 7265,
    "Ġxxx": 7767,
    "dem": 10695,
    "innocent": 20290,
    "Ġprobability": 1127,
    "Ġpetulance": 24231,
    "Ġimpud": 18452,
    "acters": 9312,
    "Ġdoted": 21438,
    "Ġii": 7384,
    "Ġsickly": 16776,
    "Ġtolerably": 8068,
    "Ġintegr": 7969,
    "Ġrepute": 18037,
    "Ġpromising": 10402,
    "forgive": 18723,
    "othe": 2613,
    "rah": 8137,
    "Ġresort": 18565,
    "feels": 22506,
    "cr": 4014,
    "Ġflounders": 23017,
    "bent": 15314,
    "Ġcarriages": 11100,
    "Ġimpertinence": 11368,
    "Ġgamy": 18001,
    "mindful": 19603,
    "Ġdism": 9770,
    "Ġbrace": 11213,
    "abilities": 3238,
    "sen": 21053,
    "Ġspent": 3966,
    "Ġtattooings": 24902,
    "Ġpain": 2305,
    "vineyard": 25423,
    "oner": 6126,
    "Ġcottagers": 6762,
    "Ġdaw": 21434,
    "Ġniece": 5712,
    "iverse": 13119,
    "progra": 9398,
    "Ġrespectable": 6738,
    "Ġlongitude": 11013,
    "Ġidiotic": 25590,
    "control": 16545,
    "Ġjackets": 19606,
    "Ġred": 3007,
    "Ġchemist": 11136,
    "Ġeh": 6988,
    "Ġdepresses": 25798,
    "mer": 2833,
    "fashion": 8081,
    "Ġnervousness": 23560,
    "Ġchilled": 18384,
    "vand": 21113,
    "Ġstabilizing": 3659,
    "spread": 8389,
    "Ġluckily": 16800,
    "ises": 3656,
    "worked": 19013,
    "guinea": 16675,
    "neat": 22453,
    "Ġkith": 22193,
    "Ġgouldings": 26189,
    "Ġtorm": 5434,
    "Ġhow": 597,
    "Ġsagacity": 16976,
    "stains": 11640,
    "works": 6589,
    "Ġdripping": 13150,
    "Ġflo": 2588,
    "desp": 6094,
    "Ġjung": 12840,
    "Ġsuperl": 16445,
    "ui": 9147,
    "Ġframework": 1961,
    "agatha": 21913,
    "press": 1732,
    "omist": 21643,
    "Ġsurpassed": 25269,
    "Ġnocturnal": 20718,
    "baboon": 25518,
    "hers": 7636,
    "Ġchronicled": 25330,
    "Ġdec": 640,
    "Ġacceptance": 14829,
    "Ġreeling": 18035,
    "Ġenhancement": 23733,
    "Ġcobbler": 25831,
    "speaks": 19723,
    "otes": 15748,
    "Ġlivery": 16006,
    "Ġincommunicable": 26613,
    "Ġbutchers": 18274,
    "Ġhole": 6080,
    "Ġsqualidness": 25844,
    "Ġreproach": 9559,
    "Ġestablished": 9072,
    "Ġaven": 10761,
    "Ġremember": 2677,
    "lodged": 25908,
    "empl": 5724,
    "Ġhaul": 11696,
    "Ġrally": 21976,
    "Ġzone": 14359,
    "umberland": 16839,
    "Ġomn": 8411,
    "Ġinvolved": 8926,
    "craft": 12251,
    "Ġelimin": 16111,
    "ister": 1294,
    "tend": 17676,
    "Ġresidual": 1683,
    "Ġincrust": 22555,
    "enari": 21286,
    "upset": 23021,
    "Ġcape": 5146,
    "Ġetext": 23954,
    "Ġbuckskin": 19956,
    "Ġaccustomed": 6861,
    "ogr": 18679,
    "Ġswiss": 18884,
    "Ġfilled": 4394,
    "Ġmira": 8408,
    "antarctic": 22104,
    "Ġsound": 2245,
    "joy": 3336,
    "quakes": 21855,
    "Ġawe": 7148,
    "profitable": 17072,
    "Ġcolouring": 16753,
    "Ġrepressed": 21673,
    "headed": 4317,
    "Ġdisgracing": 26257,
    "Ġblasts": 20000,
    "umbled": 8495,
    "learnt": 23555,
    ".âĢĶâĢľ": 20750,
    "anqu": 4110,
    "Ġspasmod": 12418,
    "Ġwhispering": 14947,
    "Ġcounted": 12144,
    "Ġuns": 15840,
    "Ġunfair": 19511,
    "Ġassociates": 24712,
    "Ġ$": 21155,
    "Ġloos": 15875,
    "spermaceti": 12198,
    "eddling": 11901,
    "Ġemerge": 14930,
    "atches": 13848,
    "Ġmatrimony": 13638,
    "hoisted": 19286,
    "crier": 20823,
    "ales": 3318,
    "Ġcarpenters": 16754,
    "ilt": 2971,
    "Ġgarn": 13965,
    "Ġportrait": 10664,
    "Ġdiabolical": 20346,
    "Ġhorribly": 16345,
    "Ġwidely": 8033,
    "Ġguided": 10462,
    "Ġwhirlpool": 20658,
    "Ġcaravan": 26292,
    "Ġ4": 3987,
    "Ġuse": 832,
    "Ġbewitched": 25976,
    "vessels": 10628,
    "Ġsquares": 11171,
    "Ġwhip": 8453,
    "Ġdrawing": 3921,
    "eryton": 4094,
    "apparently": 15207,
    "Ġnursing": 12219,
    "Ġpregn": 22237,
    "Ġmonsieur": 12425,
    "Ġreeds": 15700,
    "Ġsucceeded": 6107,
    "irr": 12741,
    "Ġwheel": 9721,
    "pense": 10371,
    "Ġscarcely": 4010,
    "Ġwig": 9164,
    "Ġunfolding": 17087,
    "Ġtransport": 11280,
    "Ġdisk": 22527,
    "ording": 9767,
    "ositories": 22269,
    "osing": 3691,
    "embow": 21936,
    "Ġkinds": 14506,
    "Ġhark": 8429,
    "Ġwarmup": 3925,
    "based": 2963,
    "Ġfather": 1450,
    "Ġgravel": 14104,
    "Ġwaving": 8579,
    "Ġmonth": 2849,
    "Ġsaid": 578,
    "Ġnast": 15643,
    "Ġhorizontal": 7783,
    "Ġstick": 6027,
    "swallow": 24261,
    "Ġfurlongs": 20726,
    "aculate": 16086,
    "reflections": 24735,
    "Ġgratefully": 20449,
    "quadrille": 20599,
    "½": 126,
    "Ġvisits": 8223,
    "saddest": 25529,
    "Ġcou": 5288,
    "rust": 2580,
    "Ġsig": 867,
    "Ġmillar": 13863,
    "uerus": 26408,
    "Ġerect": 6145,
    "orters": 21406,
    "ese": 4443,
    "04": 10682,
    "lined": 12488,
    "whe": 1069,
    "Ġunquestionable": 26223,
    "ratulations": 20130,
    "phon": 4127,
    "Ġspies": 22133,
    "oug": 431,
    "Ġcaus": 1726,
    "ine": 404,
    "Ġforbe": 8459,
    "egyptians": 25899,
    "hos": 15366,
    "geor": 15987,
    "eldom": 4413,
    "Ġadmin": 23557,
    "Ġboon": 22642,
    "Ġcastles": 16642,
    "thick": 10263,
    "Ġent": 902,
    "Ġadvance": 5484,
    "Ġwrought": 11948,
    "Ġmotions": 8281,
    "Ġinvoluntary": 18766,
    "Ġcap": 2363,
    "confused": 19643,
    "scheme": 15257,
    "oda": 15754,
    "itude": 1417,
    "Ġsteersman": 13046,
    "herds": 22208,
    "Ġfifth": 11259,
    "spouter": 22733,
    "Ġangelic": 19631,
    "Ġrepugnant": 26592,
    "Ġcan": 469,
    "Ġspec": 1263,
    "rawling": 21641,
    "devouring": 24954,
    "conda": 18995,
    "archical": 1926,
    "Ġirritation": 20270,
    "Ġsmut": 22561,
    "Ġgrind": 18736,
    "Ġmurky": 19204,
    "Ġcomprehended": 11296,
    "aulding": 11341,
    "irect": 5553,
    "Ġtopmost": 14588,
    "congreg": 25400,
    "mad": 5281,
    "avings": 12027,
    "Ġscale": 1547,
    "cheap": 23808,
    "Ġmail": 17802,
    "captains": 12132,
    "Ġheavy": 3745,
    "Ġaw": 2510,
    "laugh": 10111,
    "bres": 11473,
    "Ġindestruct": 22964,
    "Ġdisrespect": 18555,
    "events": 12321,
    "charge": 9452,
    "Ġseeking": 7037,
    "Ġxliv": 23412,
    "Ġpromotion": 23197,
    "Ġton": 15467,
    "Ġstarted": 4150,
    "Ġmirth": 15549,
    "purposes": 25025,
    "form": 494,
    "Ġpretend": 7722,
    "Ġrises": 9716,
    "nett": 16224,
    "waiter": 24588,
    "Ġplains": 14624,
    ",âĢĶ": 3169,
    "Ġellenborough": 26155,
    "Ġcarbuncle": 14447,
    "Ġtallow": 14782,
    "Ġreligions": 20112,
    "Ġperadventure": 22406,
    "Ġtremble": 6906,
    "Ġtroublesome": 24006,
    "Ġfoundation": 4231,
    "oves": 15405,
    "emin": 8472,
    "Ġlimited": 23548,
    "Ġtension": 13826,
    "Ġdetestable": 15101,
    "initely": 7568,
    "Ġjon": 15952,
    "Ġridges": 16733,
    "Ġdining": 6978,
    "signs": 16540,
    "Ġunexpectedly": 19912,
    "ods": 8840,
    "Ġgratification": 24102,
    "Ġfeatures": 1432,
    "windlass": 16723,
    "family": 7324,
    "masters": 16836,
    "wife": 8101,
    "conscience": 14862,
    "inating": 9156,
    "writhed": 26081,
    "Ī": 235,
    "Ġvows": 15812,
    "Ġlie": 4405,
    "Ġlunatic": 24994,
    "Ġrope": 4338,
    "Ġapril": 13665,
    "Ġpostmark": 16727,
    "Ġimportant": 1068,
    "riptions": 14797,
    "using": 5468,
    "Ġrelease": 19294,
    "planks": 21959,
    "disputed": 23503,
    "Ġlur": 5226,
    "Ġkings": 7196,
    "blooded": 20027,
    "Ġzoned": 22822,
    "Ġcrowded": 8012,
    "Ġplain": 2816,
    "Ġdeceive": 12726,
    "Ġepistle": 24906,
    "contemplated": 20462,
    "Ġinstability": 3816,
    "Ġridic": 7508,
    "proof": 16427,
    "Ġfangs": 12601,
    "Ġdyspeps": 16501,
    "Ġheedful": 19744,
    "Ġspanish": 2827,
    "Ġsurvey": 13596,
    "Ġingratitude": 17471,
    "Ġwaylaid": 22877,
    "ices": 2137,
    "Ġ]": 15462,
    "uation": 17696,
    "Ġglided": 7447,
    "Ġsurve": 9877,
    "Ġpout": 17906,
    "Ġaffecting": 2324,
    "Ġimpact": 10300,
    "Ġtarpaulin": 26158,
    "Ġleviathans": 8282,
    "hearted": 6971,
    "Ġlingering": 11381,
    "Ġpertaining": 18458,
    "Ġshade": 6552,
    "etency": 21587,
    "Ġdusk": 12331,
    "hic": 3250,
    "Ġcubic": 20092,
    "Ġlayers": 816,
    "Ġ38": 24084,
    "Ġopposed": 11190,
    "Ġintermission": 18589,
    "Ġdiffers": 23785,
    "frequently": 9982,
    "solut": 3364,
    "Ġsurprising": 14598,
    "shock": 19858,
    "Ġwhipping": 21721,
    "orable": 8120,
    "Ġremarked": 3697,
    "Ġindependently": 4245,
    "Ġdazzling": 15214,
    "Ġtraveller": 8049,
    "ears": 20848,
    "Ġundertone": 23242,
    "Ġtheirs": 7026,
    "Ġauthentic": 20539,
    "amples": 1823,
    "Ġhear": 1965,
    "Ġwinchester": 10069,
    "Ġnever": 1020,
    "ifling": 15787,
    "Ġsense": 3252,
    "uity": 12521,
    "intosh": 22944,
    "Ġanomalous": 25638,
    "explanations": 25236,
    "Ġshould": 864,
    "Ġcoil": 11822,
    "lance": 12486,
    "blame": 14796,
    "Ġprinc": 4199,
    "Ġbleeds": 24398,
    "originally": 24941,
    "Ġsurvived": 14936,
    "21": 10075,
    "Ġbast": 21384,
    "Ġstrictest": 17043,
    "Ġlaudanum": 20694,
    "abashed": 21797,
    "paused": 17377,
    "Ġlizzie": 26464,
    "Ġcracks": 12024,
    "Ġbapt": 13898,
    "capital": 15091,
    "Ġgangs": 21614,
    "testing": 12520,
    "Ġsmiled": 5942,
    "Ġmiddle": 4138,
    "assault": 22311,
    "bow": 5424,
    "Ġtechnique": 2400,
    "Ġnailed": 10192,
    "gardiner": 12295,
    "carriage": 9949,
    "Ġcommission": 6714,
    "Ġapproximate": 2342,
    "Ġansw": 2205,
    "ulity": 10888,
    "others": 7670,
    "Ġeaten": 14847,
    "get": 1023,
    "Ġbase": 5013,
    "immense": 18055,
    "ks": 3144,
    "with": 1296,
    "Ġvale": 14084,
    "Ġsunset": 8965,
    "Ġgibberish": 25787,
    "Ġchildhood": 13141,
    "Ġcalmness": 12098,
    "Ġconject": 6028,
    "Ġravings": 18644,
    "Ġfibres": 12955,
    "cept": 553,
    "enjoyments": 25435,
    "Ġclutches": 20022,
    "Ġstaggering": 20277,
    "emy": 14075,
    "seventh": 12718,
    "iss": 2177,
    "Ġrefusal": 10346,
    "Ġhimself": 1351,
    "eridge": 15529,
    "Ġtowed": 11267,
    "Ġidentifies": 12019,
    "py": 17626,
    "Ġhobbling": 25645,
    "urring": 21710,
    "Ġprospects": 9962,
    "Ġdialogue": 12408,
    "Ġpretension": 23768,
    "Ġcoarsely": 25830,
    "whims": 22244,
    "mot": 17598,
    "Ġrecommended": 8671,
    "Ĉ": 201,
    "Ġpondering": 17007,
    "withstand": 23030,
    "Ġagonising": 25375,
    "brit": 19200,
    "Ġbleak": 10561,
    "socket": 22725,
    "Ġabilities": 8870,
    "Ġinnocence": 6478,
    "Ġscrewing": 20212,
    "Ġbracing": 16583,
    "Ġimplement": 3191,
    "Ġgaily": 16750,
    "ici": 8441,
    "absolutely": 10648,
    "project": 16428,
    "Ġsorry": 4209,
    "ksome": 10107,
    "pet": 4868,
    "willingness": 24755,
    "Ġangry": 5498,
    "articulate": 17401,
    "Ġaccost": 12853,
    "icing": 9203,
    "Ġspars": 3812,
    "Ġliterature": 17151,
    "movable": 14326,
    "dington": 12070,
    "Ġbrimstone": 25687,
    "bright": 8992,
    "Ġoftener": 13568,
    "pets": 17638,
    "Ġattested": 22626,
    "Ġfounded": 8561,
    "feet": 6570,
    "Ġrisk": 8039,
    "Ġappro": 658,
    "Ġorchard": 22099,
    "sterns": 23372,
    "Ġspecksnyder": 17406,
    "Ġconstruct": 23345,
    "Ġordinarily": 20652,
    "landsmen": 25063,
    "Ġsuccession": 12106,
    "fellows": 12278,
    "al": 292,
    "Ġrail": 7225,
    "Ġcampaign": 20664,
    "ĠĠĠĠĠĠĠĠĠĠĠĠĠĠĠĠĠĠĠĠĠĠĠĠĠĠĠĠĠĠĠĠĠĠĠĠĠĠĠĠ": 4517,
    "Ġtreacherously": 25133,
    "Ġwoodcock": 19166,
    "sweetly": 25138,
    "Ġexhib": 6351,
    "Ġcorroded": 18879,
    "Ġaugmented": 15108,
    "Ġburnished": 24002,
    "Ġpenetrating": 17013,
    "Ġsilly": 7686,
    "tese": 21088,
    "riumph": 4920,
    "Ġfevers": 22213,
    "Ġpup": 12623,
    "Ġblows": 5974,
    "uiperai": 10666,
    "Ġmarvels": 11085,
    "Ġboundless": 10498,
    "Ġcha": 6853,
    "quiet": 6156,
    "Ġvisitors": 7985,
    "umed": 6556,
    "Ġspoon": 22139,
    "engagements": 25855,
    "occupation": 15058,
    "Ġcorrectly": 9407,
    "arle": 21445,
    "Ġchewing": 23289,
    "aside": 10194,
    "regret": 16451,
    "Ġdirest": 22709,
    "Ġassume": 10518,
    "Ġwitnessing": 19602,
    "Ġprayer": 16669,
    "Ġoutriders": 26545,
    "Ġsquaw": 22842,
    "Ġenables": 725,
    "Ġvest": 8163,
    "Ġelasticity": 19562,
    "Ġhoneymoon": 25646,
    "Ġbrit": 6291,
    "aft": 9586,
    "Ġextracted": 16338,
    "Ġrider": 24189,
    "commence": 19996,
    "rel": 3755,
    "Ġadrift": 11726,
    "mers": 9613,
    "ense": 2053,
    "Ġdeceived": 6546,
    "Ġabide": 14189,
    "intentions": 22943,
    "Ġletter": 2198,
    "Ġy": 341,
    "els": 1765,
    "ateur": 22011,
    "ĠâĢľ": 516,
    "necess": 4897,
    "slackened": 26095,
    "Ġkrus": 18348,
    "Ġchip": 12829,
    "need": 10981,
    "Ġsubsisted": 19120,
    "inform": 10146,
    "stirring": 20430,
    "comfortableness": 24526,
    "Ġsells": 21228,
    "actions": 8910,
    "Ġsizes": 1519,
    "represented": 20199,
    "characteristic": 24687,
    "Ġtestified": 16324,
    "br": 2478,
    "Ġplum": 11826,
    "Ġforth": 3465,
    "Ġdragg": 23220,
    "Ġher": 427,
    "excitement": 19673,
    "andy": 8158,
    "attoo": 6808,
    "les": 1016,
    "sequ": 2402,
    "isation": 13895,
    "Ġforts": 21778,
    "Ġdress": 4022,
    "second": 6545,
    "erxes": 21280,
    "Ġfortifications": 23623,
    "Ġfan": 2036,
    "ter": 359,
    "please": 8177,
    "max": 1688,
    "ilder": 15717,
    "narrowly": 20351,
    "Ġdist": 679,
    "drawers": 19390,
    "Ġminim": 1324,
    "Ġeleg": 6194,
    "Ġvag": 9711,
    "leader": 25353,
    "Ġbrothers": 13178,
    "iting": 2157,
    "Ġunexplored": 26520,
    "Ġsnapped": 9900,
    "Ġdegenerating": 25800,
    "Ġpagan": 7119,
    "Ġcursed": 6728,
    "proceeded": 25192,
    "irting": 11689,
    "protected": 19924,
    "Ġmicha": 17813,
    "Ġleathern": 15052,
    "Ġinflexibly": 26372,
    "Ġdiscuss": 9477,
    "ura": 1077,
    "Ġbadge": 16682,
    "Ġforgotten": 5679,
    "Ġfearfulness": 23515,
    "Ġrailway": 15022,
    "Ġsupervised": 3426,
    "Ġcountrymen": 23598,
    "atively": 2695,
    "Ġunreasonably": 17454,
    "sideways": 14572,
    "oars": 9617,
    "================================================================": 9993,
    "Ġdair": 17891,
    "Ġattentively": 9953,
    "convalescence": 24886,
    "leep": 4636,
    "Ġrandomly": 1921,
    "trucks": 25421,
    "buffalo": 20567,
    "disappointed": 25193,
    "Ġfisher": 3223,
    "Ġannum": 24207,
    "Ġdisposed": 7085,
    "Ġtax": 13818,
    "delirium": 14787,
    "numbers": 17618,
    "Ġbeds": 14553,
    "Ġindic": 2889,
    "deal": 12803,
    "conversations": 24749,
    "ified": 3228,
    "Ġtremor": 24768,
    "Ġallusions": 10908,
    "stalk": 21655,
    "arr": 3047,
    "Ġcongratulate": 9066,
    "Ġextraordinary": 5414,
    "Ġvaried": 11852,
    "Ġconsidering": 4617,
    "Ġeternity": 12283,
    "Ġlawyer": 10671,
    "Ġunostentatious": 22074,
    "uarded": 21110,
    "brothers": 17026,
    "less": 928,
    "Ġ14": 9326,
    "Ġrumpled": 24602,
    "Ġdeserted": 8640,
    "Ġtwee": 22679,
    "national": 21001,
    "Ġglassy": 19564,
    "the": 334,
    "ĠĠĠ": 2116,
    "Ġsnatch": 14640,
    "Ġcausal": 3411,
    "Ġstring": 11831,
    "Ġzones": 22821,
    "Ġinquiry": 6485,
    "Ġmechanically": 14400,
    "ans": 458,
    "Ġremonstr": 16166,
    "Ġproflig": 23570,
    "Ġkn": 4546,
    "ooping": 21010,
    "Ġsophisticated": 1610,
    "Ġspoils": 24806,
    "Ġcrotch": 9966,
    "doubtful": 24791,
    "Ġemperors": 15162,
    "irene": 15918,
    "Ġtearless": 24786,
    "Ġlain": 17964,
    "Ġantique": 19555,
    "Ġhorseman": 19611,
    "iece": 3231,
    "Ġoughts": 23905,
    "Ġallen": 5160,
    "liest": 6296,
    "Ġbodiless": 24230,
    "tles": 10732,
    "penetrating": 25492,
    "Ġhandspikes": 12942,
    "Ġtarn": 21163,
    "Ġcannibals": 10590,
    "Ġcertainty": 6736,
    "Ġlaborious": 13107,
    "Ġcas": 8412,
    "satisfied": 10581,
    "Ġsuffice": 18871,
    "Ġbulwarks": 5592,
    "Ġcomplacency": 19452,
    "Ġstaring": 8829,
    "bpp": 20775,
    "Ġreferences": 21679,
    "Ġbenefactor": 14699,
    "Ġintensified": 17020,
    "Ġchambermaid": 24307,
    "judging": 24205,
    "beside": 19880,
    "ss": 397,
    "20": 20756,
    "Ġformal": 2945,
    "Ġlay": 584,
    "Ġcontact": 9279,
    "confirm": 16809,
    "gaining": 20128,
    "iations": 11497,
    "eagerly": 17319,
    "Ġservices": 11219,
    "Ġsubsisting": 23438,
    "old": 797,
    "Ġimprudence": 10301,
    "Ġpresumably": 19628,
    "Ġcondemned": 7779,
    "akness": 14196,
    "anks": 3920,
    "Ġdiadem": 24741,
    "indeed": 4488,
    "Ġsul": 7570,
    "Ġflinging": 13588,
    "elfare": 11780,
    "edding": 4366,
    "make": 5793,
    "entiful": 10838,
    "Ġeu": 6391,
    "Ġforger": 15737,
    "Ġelucidated": 26030,
    "extric": 22747,
    "untary": 9870,
    "Ġreciproc": 20626,
    "ldog": 21922,
    "inition": 11559,
    "Ġraft": 16117,
    "Ġwilds": 16511,
    "Ġpilgrimage": 17311,
    "illum": 15873,
    "Ġspacious": 18314,
    "Ġmanufact": 22333,
    "Ġfluid": 11214,
    "Ġcoats": 16078,
    "Ġagile": 22518,
    "ivance": 22080,
    "Ġberyl": 20494,
    "Ġhove": 17925,
    "rather": 5430,
    "Ġcaterpillar": 5866,
    "Ġtaffrail": 15479,
    "Ġsurf": 19134,
    "Ġgrievous": 13265,
    "reen": 21236,
    "Ġtophet": 23576,
    "://": 11467,
    "Ġtack": 5621,
    "Ġstole": 7953,
    "Ġmustard": 12934,
    "arrow": 4180,
    "Ġsunken": 14494,
    "encoura": 15050,
    "ogany": 18681,
    "Ġjustification": 22977,
    "Ġgood": 999,
    "Ġactionable": 24561,
    "Ġconstructed": 9390,
    "Ġfirmest": 16667,
    "earthquakes": 24725,
    "Ġget": 1623,
    "Ġdomes": 23722,
    "measured": 19994,
    "Ġsince": 1799,
    "iguous": 18047,
    "Ġungover": 18257,
    "gled": 10701,
    "affa": 23780,
    "Ġtrop": 7565,
    "Ġembarr": 7446,
    "league": 17846,
    "comparatively": 25841,
    "Ġvarieties": 14312,
    "Ġdistributing": 22683,
    "inite": 6003,
    "pute": 8849,
    "blacksmith": 17003,
    "Ġrefill": 18698,
    "Ġagrippa": 11811,
    "Ġungracious": 18260,
    "Ġrambling": 18642,
    "Ġtrees": 4202,
    "Ġlocations": 12417,
    "Ġprofoundest": 16862,
    "letons": 14613,
    "ancy": 4393,
    "Ġancles": 21451,
    "Ġable": 3081,
    "Ġbravely": 23843,
    "shabb": 18497,
    "Ġconsistent": 14529,
    "Ġpebbles": 16133,
    "Ġocean": 3304,
    "Ġcharacter": 2794,
    "itigated": 23049,
    "Ġelbows": 18637,
    "poise": 6173,
    "Ġstro": 4597,
    "Ġassert": 7122,
    "Ġubiquitous": 26197,
    "labours": 16619,
    "Ġingen": 9052,
    "pits": 15414,
    "Ġ52": 24318,
    "kilt": 4867,
    "Ġsow": 17751,
    "Ġpraises": 16732,
    "Ġmanual": 14199,
    "Ġdevil": 3615,
    "Ġunwritten": 22039,
    "attering": 7419,
    "nne": 20992,
    "Ġeul": 21625,
    "Ġcashier": 20202,
    "asing": 5913,
    "Ġfav": 1755,
    "Ġgiven": 1628,
    "run": 10723,
    "eli": 3877,
    "Ġprovided": 6579,
    "sincere": 16909,
    "suffered": 24331,
    "sleeves": 26110,
    "oso": 12834,
    "Ġarrant": 23305,
    "tails": 21091,
    "itters": 10783,
    "Ġdecap": 16023,
    "Ġcasks": 7521,
    "Ġquarrel": 7292,
    "Ġreceive": 4705,
    "Ġsubject": 2465,
    "Ġdownwards": 8532,
    "Ġhousemaid": 14466,
    "Ġuncompromised": 20607,
    "Ġsemi": 11973,
    "Ġmission": 13010,
    "Ġribbons": 24326,
    "itous": 13869,
    "Ġliberty": 7762,
    "Ġcountries": 13101,
    "rr": 17652,
    "knife": 6942,
    "Ġenforced": 21943,
    "Ġacqu": 1416,
    "Ġaffinity": 18790,
    "Ġtemples": 18647,
    "ority": 8419,
    "Ġjaw": 3320,
    "Ġcopied": 20012,
    "Ġcalm": 3450,
    "change": 6393,
    "Ġperem": 12936,
    "Ġwhile": 606,
    "Ġyaw": 18097,
    "Ġattendance": 12186,
    "Ġconfidential": 9091,
    "Ġalders": 21790,
    "Ġuneasy": 8665,
    "delighted": 10565,
    "Ġtruck": 19515,
    "Ġentertaining": 16928,
    "Ġentries": 22739,
    "hateful": 20912,
    "Ġdrags": 16943,
    "Ġburly": 19253,
    "glass": 9912,
    "Ġgord": 21605,
    "furnished": 20245,
    "Ġcoquet": 22586,
    "bast": 10080,
    "Ġlane": 5627,
    "Ġinvesting": 19645,
    "hundreds": 25077,
    "Ġfranc": 16355,
    "gu": 3959,
    "Ġindividually": 22963,
    "j": 78,
    "rannical": 26403,
    "İ": 241,
    "Ġdrawings": 14724,
    "ensed": 10997,
    "fowl": 17551,
    "ainty": 18109,
    "Ġconveyed": 8335,
    "phew": 6369,
    "laughed": 20285,
    "gences": 20880,
    "Ġsleeping": 6321,
    "Ġsusp": 2663,
    "rier": 9245,
    "Ġcurly": 18847,
    "Ġunclasp": 26513,
    "brink": 23579,
    "table": 5795,
    "Ġmarines": 16264,
    "Ġequivalent": 4803,
    "Ġoily": 13866,
    "orting": 9738,
    "Ġreads": 23116,
    "appo": 3918,
    "Ġlaunched": 14928,
    "assist": 11771,
    "Ġsworn": 14437,
    "Ġbacks": 8531,
    "Ġthomas": 17950,
    "Ġcircumspect": 15087,
    "Ġdiffer": 18678,
    "ippers": 17578,
    "Ġdistorted": 14251,
    "Ġcarries": 7674,
    "88": 20761,
    "Ġmemoirs": 26207,
    "Ġbelrive": 18835,
    "Ġflail": 23011,
    "Ġtransformed": 22613,
    "exe": 11793,
    "Ġcongratulatory": 19771,
    "tt": 13792,
    "Ġmighty": 4229,
    "Ġsuggests": 12205,
    "Ġelegance": 11334,
    "ening": 3104,
    "ails": 6162,
    "resc": 21243,
    "Ġrevol": 5537,
    "Ġneglect": 7942,
    "blown": 25203,
    "Ġarrive": 6907,
    "Ġthousandth": 23685,
    "Ġvener": 8164,
    "Ġascertained": 25298,
    "Ġtasks": 1791,
    "Ġslammed": 20452,
    "Ġancest": 12618,
    "Ġsepulchral": 25893,
    "furnish": 25340,
    "Ġcompliment": 5673,
    "Ġmeets": 7396,
    "hopeless": 16919,
    "Ġlevel": 5020,
    "Ġbam": 15570,
    "alf": 4640,
    "Ġacceded": 22385,
    "Ġclinging": 10294,
    "Ġlothario": 26186,
    "Ġtowering": 16741,
    "shiver": 16030,
    "Ġsymphony": 26534,
    "dismay": 19157,
    "Ġcentury": 8291,
    "Ġnecess": 3479,
    "Ġexord": 21833,
    "Ġcandelab": 23853,
    "Ġbench": 7238,
    "Ġcolonial": 22858,
    "Ġplaus": 22603,
    "ological": 1887,
    "Ġproperties": 3117,
    "sneezes": 11448,
    "Ġstaggered": 9542,
    "Ġweaving": 12744,
    "ont": 2620,
    "Ġfable": 15581,
    "Ġbugs": 13651,
    "Ġkiller": 19572,
    "Ġreb": 15695,
    "Ġbows": 4084,
    "Ġcomplimented": 14906,
    "fortunes": 6334,
    "oak": 21006,
    "¨": 106,
    "Ġconf": 1820,
    "Ġbressed": 21392,
    "otted": 14026,
    ":": 30,
    "mbling": 3346,
    "anybody": 12087,
    "icious": 7380,
    "deprived": 19901,
    "Ġfre": 1567,
    "Ġhospital": 15041,
    "introduction": 15126,
    "Ġhints": 8431,
    "Ġdecomposition": 5343,
    "Ġneglected": 10380,
    "Ġmaz": 15546,
    "hurt": 19881,
    "54": 15302,
    "Ġconstitution": 20113,
    "Ġsunshine": 14495,
    "Ġcirculation": 16419,
    "Ġdull": 6385,
    "Ġdoubling": 23325,
    "particularly": 8340,
    "fel": 8737,
    "Ġnose": 4402,
    "chronicle": 26482,
    "Ġfullest": 14816,
    "vative": 1627,
    "Ġchord": 22250,
    "intend": 16227,
    "Ġsecurely": 16804,
    "bering": 18693,
    "Ġsimple": 1620,
    "den": 938,
    "Ġaudits": 24770,
    "Ġprofounder": 23572,
    "Ġboldly": 9504,
    "Ġsoon": 1230,
    "apped": 5395,
    "ulgences": 21870,
    "Ġoutlines": 15961,
    "rolling": 9063,
    "poled": 22912,
    "Ġdeduction": 14903,
    "gentle": 5357,
    "Ġeber": 18006,
    "quaker": 15767,
    "Ġhon": 2538,
    "Ġsub": 950,
    "Ġingenuity": 17166,
    "Ġdependence": 18629,
    "Ġdelineations": 26059,
    "retch": 4371,
    "Ġirretrie": 23378,
    "Ġmerits": 13199,
    "grampus": 18619,
    "Ġannihil": 10177,
    "Ġrelu": 1045,
    "Ġvoy": 2618,
    "Ġcass": 13881,
    "rian": 10244,
    "Ġmist": 2877,
    "Ġtestament": 23211,
    "numerous": 17434,
    "Ġcanada": 22170,
    "autumn": 23346,
    "Ġsculpt": 15950,
    "rimshander": 20660,
    "Ġsolely": 9913,
    "ports": 13776,
    "Ġtenement": 23551,
    "Ġentertain": 6055,
    "carries": 19531,
    "Ġauthors": 10418,
    "ishe": 13893,
    "Ġsill": 10767,
    "Ġoccupies": 24012,
    "Ġseries": 7061,
    "anged": 3589,
    "Ġreduced": 11928,
    "antically": 22101,
    "Ġcheer": 4068,
    "Ġrespective": 16347,
    "Ġconsulted": 13433,
    "Ġruined": 12958,
    "ut": 308,
    "storm": 9685,
    "Ġfringed": 17275,
    "folly": 20865,
    "Ġmalicious": 10560,
    "ensity": 11817,
    "lydia": 6826,
    "deepest": 22852,
    "Ġslippers": 19619,
    "woods": 13422,
    "regiment": 16452,
    "Ġprovide": 7750,
    "Ġindign": 6175,
    "Ġax": 7822,
    "Ġletting": 10364,
    "Ġmediocrity": 26610,
    "Ġsuperficial": 23458,
    "Ġgrasshopper": 24381,
    "Ġconse": 21809,
    "inity": 5693,
    "Ġsituations": 10494,
    "Ġinevitable": 15170,
    "Ġroared": 7025,
    "Ġgiving": 4086,
    "Ġintact": 21994,
    "nue": 15399,
    "anation": 5804,
    "Ġchange": 1992,
    "Ġdescent": 974,
    "spell": 22731,
    "Ġshouted": 5348,
    "âĢĶâĢĿ": 3300,
    "ink": 754,
    "Ġtired": 9152,
    "Ġaback": 22271,
    "Ġinser": 6820,
    "endeav": 7151,
    "Ġpatches": 4236,
    "veral": 2353,
    "Ġruns": 8598,
    "ire": 492,
    "waistcoat": 17364,
    "Ġunrival": 22052,
    "algorithm": 3801,
    "Ġrattling": 11397,
    "iceland": 21571,
    "Ġshower": 11714,
    "Ġca": 21344,
    "confirmed": 19644,
    "Ġrange": 9715,
    "unhes": 21880,
    "Ġincognita": 26553,
    "icts": 22399,
    "gallantry": 15060,
    "Ġperceiving": 8879,
    "Ġcircle": 4977,
    "inhabited": 13623,
    "Ġtheory": 5799,
    "Ġdrenched": 12607,
    "Ġdigress": 24650,
    "Ġbecame": 2691,
    "Ġmidday": 23635,
    "leman": 21373,
    "ors": 855,
    "Ġcomfort": 3442,
    "pronouncing": 25195,
    "ready": 2361,
    "Ġlaughs": 24120,
    "ia": 1258,
    "gunwale": 20666,
    "Ġlucifers": 16590,
    "Ġclattering": 22356,
    "Ġeldest": 6573,
    "Ġentering": 6287,
    "beware": 16044,
    "Ġdeserved": 7737,
    "giving": 8742,
    "Ġconscientious": 16729,
    "Ġknitted": 19593,
    "Ġbattery": 21399,
    "Ġreproachfully": 25253,
    "Ġson": 2986,
    "Ġsucceeding": 16763,
    "ensing": 12900,
    "Ġmuse": 13862,
    "dz": 4740,
    "Ġbil": 15569,
    "Ġraven": 16116,
    "Ġscold": 10952,
    "ama": 11680,
    "snapping": 24851,
    "treated": 21099,
    "eenth": 12465,
    "Ġofficer": 6755,
    "desol": 13221,
    "Ġangle": 8606,
    "Ġauthority": 7749,
    "Ġsnar": 13203,
    "Ġaffairs": 6877,
    "Ġshears": 18321,
    "Ġwindward": 6885,
    "Ġspoken": 4838,
    "Ġawful": 6201,
    "points": 14395,
    "insupportable": 21198,
    "Ġsystematically": 3813,
    "tables": 19761,
    "Ġproud": 5654,
    "Ġcool": 5734,
    "vously": 23507,
    "she": 1395,
    "Ġloth": 17968,
    "Ġsummit": 7731,
    "rendering": 22345,
    "Ġstony": 21745,
    "chel": 11209,
    "Ġcetacea": 20557,
    "Ġcommunications": 16358,
    "study": 15120,
    "penet": 11072,
    "til": 17673,
    "inted": 2648,
    "Ġinsensibly": 20080,
    "frank": 7758,
    "Ġclings": 15967,
    "Ġdevoid": 18686,
    "Ġargemone": 24278,
    "yramid": 8368,
    "Ġthroats": 24577,
    "Ġclassical": 22633,
    "wishing": 21133,
    "dued": 7909,
    "Ġreusability": 13561,
    "gives": 15360,
    "charitable": 23937,
    "visible": 10536,
    "Ġapprehension": 7115,
    "Ġsundering": 23278,
    "Ġcomment": 9235,
    "Ġquestioning": 10465,
    "Ġourselves": 5127,
    "Ġwhal": 5454,
    "Ġaction": 5797,
    "Ġensemble": 1607,
    "Ġvexed": 9997,
    "ule": 6801,
    "comfortable": 7320,
    "nest": 10116,
    "inking": 6711,
    "roused": 16655,
    "Ġdazed": 15600,
    "cats": 17514,
    "som": 3292,
    "Ġporus": 24399,
    "Ġbenches": 18785,
    "produce": 20286,
    "ining": 3222,
    "Ġpian": 13919,
    "Ġpyramid": 8806,
    "Ġdiscrimin": 2546,
    "Ġtener": 21168,
    "ump": 2287,
    "Ġnasty": 17446,
    "Ġtailed": 21173,
    "oarsman": 25263,
    "Ġlongbourn": 3511,
    "ication": 985,
    "Ġinestim": 15628,
    "irm": 3107,
    "Ġfondly": 19620,
    "Ġbridle": 24683,
    "Ġhapp": 1087,
    "Ġwhitting": 18058,
    "poises": 11893,
    "Ġpurport": 14582,
    "rudential": 16711,
    "sim": 6511,
    "Ġhookah": 16972,
    "Ġmodesty": 12824,
    "Ġhap": 18197,
    "Ġanon": 9669,
    "Ġeffectually": 16171,
    "Ġpreservative": 24631,
    "Ġethics": 15465,
    "Ġhilarious": 20302,
    "awakened": 14455,
    "Ġremembrance": 8318,
    "Ġdemocracy": 25460,
    "Ġtranslations": 12055,
    "Í": 142,
    "sombre": 23858,
    "moil": 22707,
    "Ġbrotherly": 16529,
    "thy": 2937,
    "Ġestablishment": 13582,
    "pan": 10718,
    "Ġpreface": 18369,
    "Ġsupplication": 25493,
    "Ġpencils": 23199,
    "stripped": 16947,
    "Ġarthur": 7197,
    "pid": 1367,
    "undant": 14794,
    "itative": 13872,
    "Ġinterfere": 11821,
    "Ġdispatched": 23885,
    "balls": 12309,
    "Ġincapable": 7423,
    "Ġdandy": 17894,
    "till": 6966,
    "ometer": 19329,
    "Ġdisgust": 6707,
    "Ġreflected": 2911,
    "Ġnorthumbria": 24175,
    "Ġfejee": 18356,
    "confess": 12180,
    "Ġhackney": 20437,
    "U": 57,
    "Ġacquainted": 5179,
    "Ġunprincipled": 20711,
    "Ġaccurately": 3865,
    "Ġastonishment": 4795,
    "girls": 12323,
    "Ġrelation": 2142,
    "Ġmanner": 2197,
    "Ġleakage": 23461,
    "service": 15038,
    "istrate": 7406,
    "swe": 5997,
    "Ġjura": 14194,
    "astic": 1870,
    "Ġgrego": 18963,
    "Ġsent": 1777,
    "taste": 10132,
    "opportunity": 12279,
    "Ġfl": 1278,
    "Ġoriginate": 24125,
    "myster": 16266,
    "chop": 21693,
    "dilig": 17285,
    "Ġeveryone": 8921,
    "Ġrespectful": 16348,
    "angled": 6844,
    "Ġdecaying": 2250,
    "Ġdissu": 18552,
    "Ġdrought": 19281,
    "Ġcompress": 21861,
    "lingly": 9776,
    "smith": 5669,
    "Ġobtruded": 20725,
    "osc": 18389,
    "Ġbend": 9173,
    "idated": 11664,
    "ery": 1268,
    "Ġbishop": 13904,
    "Ġdotted": 16794,
    "Ġmummy": 25769,
    "nez": 22452,
    "Ġthereof": 22374,
    "altern": 17944,
    "flaming": 23974,
    "gd": 3124,
    "imitably": 21716,
    "ķ": 248,
    "strong": 6324,
    "stolidity": 21668,
    "Ġrecollecting": 17114,
    "Ġtipt": 21178,
    "Ġplayed": 9419,
    "Ġquarrelling": 13501,
    "Ġdiscours": 18719,
    "Ġaids": 12233,
    "Ġimpenit": 22394,
    "touch": 8392,
    "Ġdoth": 13910,
    "Ġgracious": 8851,
    "nurs": 21002,
    "£": 101,
    "duodecimo": 16011,
    "Ġintervened": 25483,
    "ctu": 5088,
    "Ġmadden": 10449,
    "pul": 8757,
    "insist": 23067,
    "Ġdesperation": 19822,
    "guarded": 13298,
    "Ġbuying": 24000,
    "consp": 18504,
    "Ġinhaled": 25453,
    "Ġwantonly": 22898,
    "Ġamuse": 5941,
    "meadow": 18677,
    "thur": 7188,
    "Ġum": 10214,
    "gained": 20884,
    "lesson": 22775,
    "nowhere": 18420,
    "jur": 17580,
    "Ġthou": 1811,
    "bourine": 9399,
    "asable": 21546,
    "Ġquarto": 17299,
    "Ġimmeas": 18332,
    "Ġsea": 1209,
    "attempts": 17193,
    "Ġsinking": 7307,
    "Ġacquaint": 13049,
    "Ġprincess": 23229,
    "proves": 23398,
    "ampton": 18148,
    "Ġextremities": 19198,
    "determination": 19949,
    "Ġmowers": 17814,
    "Ġott": 13868,
    "Ġmixture": 9565,
    "Ġpresum": 4839,
    "Ġpolynesian": 26027,
    "Ġmechanical": 7937,
    "erne": 21274,
    "Ġperceived": 4715,
    "Ġirreproachable": 24919,
    "Ġfatt": 15583,
    "prevailed": 17348,
    "Ġdisobedience": 22540,
    "Ġpend": 15610,
    "Ġstages": 14006,
    "Ġilliter": 23471,
    "colonel": 8285,
    "leaned": 21374,
    "irably": 13299,
    "Ġropes": 10750,
    "frost": 15109,
    "Ġbuffaloes": 25219,
    "uccas": 21111,
    "Ġunce": 11715,
    "Ġide": 2123,
    "Ġgodfrey": 15296,
    "Ġunbounded": 18261,
    "conditional": 9081,
    "Ġundaunted": 24123,
    "cri": 17508,
    "Ġfortune": 4239,
    "vil": 2730,
    "ption": 7398,
    "Ġimmaculate": 19490,
    "Ġscarce": 8625,
    "Ġtraining": 530,
    "when": 1587,
    "Ġerection": 24005,
    "Ġbill": 4042,
    "uned": 21876,
    "Ġbitter": 4173,
    "Ġwooden": 4731,
    "Ġdrawled": 23993,
    "Ġadjust": 2155,
    "Ġreproofs": 24894,
    "Ġduplicate": 17218,
    "continued": 8679,
    "Ġsmell": 7216,
    "Ġnotwithstanding": 9717,
    "althily": 19363,
    "Ġkin": 15906,
    "Ġknight": 9730,
    "Ġflashed": 11917,
    "sided": 17666,
    "Ġjogged": 26238,
    "Ġfanny": 23395,
    "<PAD>": 0,
    "intelligent": 16846,
    "Ġintensely": 17019,
    "animated": 14977,
    "Ġyawn": 7610,
    "fic": 20855,
    "terday": 4706,
    "Ġhonourable": 10458,
    "lie": 12487,
    "Ġdealer": 23981,
    "Ġconcl": 5095,
    "Ġstealing": 18896,
    "lines": 6959,
    "Ġsinusoid": 4782,
    "hever": 13833,
    "Ġthunder": 4825,
    "fen": 20853,
    "rumours": 23925,
    "Ġplausible": 26555,
    "Ġfragments": 19022,
    "Ġcontinued": 2924,
    "raltar": 24237,
    "Ġfiss": 21417,
    "Ġpassers": 18760,
    "mong": 15392,
    "ique": 8746,
    "Ġhadn": 9722,
    "Ġlandsman": 11352,
    "paradise": 20641,
    "Ġprodigies": 19797,
    "paws": 21032,
    "Ġbradstreet": 9579,
    "self": 617,
    "Ġtissu": 25921,
    "green": 7117,
    "Ġnigh": 4879,
    "Ġannesley": 19581,
    "solic": 16383,
    "bell": 7332,
    "Ġslam": 13062,
    "Ġtransaction": 22449,
    "Ġlocal": 1200,
    "Ġbrooded": 23107,
    "trembling": 17145,
    "Ġrampart": 20322,
    "agne": 21910,
    "Ġvariants": 1794,
    "Ġgather": 6536,
    "Ġissues": 9545,
    "Ġrecompense": 14840,
    "ws": 7355,
    "Ġclerval": 4655,
    "ó": 180,
    "Ġshrimp": 24161,
    "Ġfashionable": 19548,
    "tut": 15437,
    "Ġlamentations": 17077,
    "Ġhowled": 12862,
    "Ġcalves": 13040,
    "Ġspeak": 2230,
    "Ġfuneral": 10285,
    "aken": 1871,
    "Ġitalian": 12414,
    "Ġhypothesis": 14786,
    "Ġpouch": 21473,
    "Ġprogen": 14041,
    "....": 11318,
    "terns": 21827,
    "Ġpurch": 6601,
    "Ġforecastle": 5495,
    "ivering": 7698,
    "Ġpooh": 18605,
    "Ġcomputing": 2221,
    "Ġsums": 2905,
    "hairs": 20907,
    "Ġelopement": 10332,
    "Ġtong": 4871,
    "w": 91,
    "Ġnamed": 6141,
    "Ġeternally": 11371,
    "Ġviol": 2072,
    "Ġstructure": 853,
    "growing": 13735,
    "Ġlawless": 19439,
    "score": 18859,
    "Ġ55": 24320,
    "Ġswish": 23057,
    "Ġalchemists": 26489,
    "Ġyarman": 12709,
    "Ġpromise": 4198,
    "intervals": 10640,
    "Ġdegenerated": 20510,
    "disp": 7977,
    "Ġexecuted": 9475,
    "Ġshetland": 22164,
    "Ġstriking": 6089,
    "coronet": 16865,
    "Ġfate": 4755,
    "quitted": 21856,
    "Ġsettlement": 19840,
    "pered": 4197,
    "Ġhourly": 23308,
    "Ġsensational": 16392,
    "linked": 17595,
    "ool": 17620,
    "ifer": 11688,
    "Ġbeside": 5192,
    "Ġsuperstitions": 17073,
    "arb": 1562,
    "Ġreplete": 15702,
    "drink": 10598,
    "Ġphrenologists": 25610,
    "conside": 9293,
    "Ġcorrespond": 6211,
    "Ġt": 261,
    "inside": 23068,
    "restoration": 23239,
    "Ġbrides": 22863,
    "Ġvaluable": 5608,
    "greater": 13256,
    "Ġincessantly": 11413,
    "silenced": 24424,
    "iocr": 20926,
    "mercenary": 26316,
    "Ġgruff": 21619,
    "Ġclaimed": 14203,
    "Ġslept": 8259,
    "Ġsafely": 9028,
    "Ġanimating": 23427,
    "crane": 24091,
    "ckinridge": 11723,
    "Ġsatin": 12992,
    "oo": 7553,
    "Ġsafer": 22175,
    "Ġexposure": 16103,
    "_:": 17481,
    "Ġoutdone": 22323,
    "Ġbuoy": 8004,
    "Ġthickets": 24027,
    "Ġbesee": 19246,
    "Ġwane": 21293,
    "tfordshire": 4812,
    "Ġcalhoun": 23047,
    "Ġdamps": 23477,
    "Ġcondense": 21813,
    "Ġcaves": 15558,
    "Ġflattening": 26049,
    "Ġarrow": 10934,
    "pregn": 18500,
    "neighb": 16027,
    "Ġrosy": 18467,
    "Ġnooks": 26012,
    "Ġ107": 24416,
    "secret": 12241,
    "Ġvenom": 24242,
    "Ġunite": 9257,
    "Ġbamboo": 17440,
    "Ġkuiperai": 10933,
    "Ġrecollected": 8311,
    "Ġvane": 22878,
    "Ġdromed": 15601,
    "hill": 15365,
    "Ġusing": 717,
    "Ġcomputation": 965,
    "fearfully": 25120,
    "comfort": 5647,
    "Ġtrembling": 7481,
    "oir": 21005,
    "idge": 14016,
    "Ġinquisitive": 26318,
    "Ġconjectures": 16927,
    "Ġbeaches": 18087,
    "Ġdesiring": 14417,
    "dawson": 26129,
    "Ġcoiling": 12909,
    "iriously": 18175,
    "Ġpolice": 4676,
    "passage": 11263,
    "Ġans": 1645,
    "ensities": 22551,
    "Ġcapstan": 9102,
    "âĢĶâĢĻâĢĿ": 20068,
    "Ġdeaf": 12725,
    "Ġapprehens": 5682,
    "Ġagents": 9769,
    "ceptibly": 22359,
    "Ġloveliness": 13611,
    "remorse": 14468,
    "Ġsquare": 2397,
    "ford": 2821,
    "Ġapplies": 11961,
    "word": 2487,
    "Ġkne": 4265,
    "rapidly": 15246,
    "cable": 20800,
    "Ġscorching": 20072,
    "puzz": 17642,
    "Ġbenefited": 19402,
    "Ġtwig": 11854,
    "Ġjeopardized": 20234,
    "fly": 13716,
    "nades": 21000,
    "Ġbinnacle": 8119,
    "Ġfleetness": 20183,
    "Ġbrimming": 22864,
    "Ġinsipid": 26314,
    "Ġpervers": 11787,
    "Ġdescribes": 3121,
    "Ġjames": 6420,
    "Ġdoll": 10815,
    "Ġproprietors": 20190,
    "Ġrequested": 14301,
    "oured": 2671,
    "Ġtester": 21177,
    "Ġcompare": 9305,
    "Ġunidirectional": 3425,
    "armon": 23063,
    "Ġamerican": 5061,
    "prodigious": 17469,
    "considered": 9583,
    "Ġchurning": 15941,
    "wn": 721,
    "Ġweep": 7620,
    "Ġthack": 21522,
    "Ġproclaim": 18134,
    "illating": 22112,
    "Ġcarpent": 4465,
    "tallied": 21094,
    "da": 17516,
    "ioning": 21514,
    "Ġgeneva": 5450,
    "lux": 14228,
    "Ġexperiences": 13035,
    "Ġsoap": 14134,
    "Ġengagements": 9981,
    "Ġempt": 5051,
    "Ġfruitless": 25607,
    "ersburgh": 18211,
    "Ġcompliments": 8636,
    "Ġarising": 10936,
    "bedroom": 14700,
    "Ġcoffee": 6761,
    "fail": 17542,
    "Ġgame": 3631,
    "Ġconver": 804,
    "Ġseam": 3912,
    "Ġtak": 15473,
    "render": 10293,
    "Ġrattle": 10901,
    "onness": 21259,
    "Ġmidst": 7986,
    "Ġabsolut": 3914,
    "Ġtechnical": 17194,
    "Ġeel": 18004,
    "forever": 22524,
    "imagination": 13483,
    "Ġconsult": 6058,
    "Ġconvolutional": 2162,
    "Ġhinge": 25543,
    "Ġrickety": 26508,
    "ite": 712,
    "Ġheavenly": 12089,
    "antled": 18288,
    "Ġconsummate": 25312,
    "Ġjollity": 25568,
    "happened": 9436,
    "Ġgerm": 13966,
    "Ġstumbling": 21748,
    "Ġklux": 22196,
    "Ġsettles": 22924,
    "Ġreserve": 9974,
    "Ġmitigates": 3053,
    "application": 12367,
    "Ġexperienced": 6585,
    "Ġprofundity": 20456,
    "Ġhoarsely": 26303,
    "Ġsakes": 18328,
    "Ġresolve": 13173,
    "otent": 8836,
    "Ġadvertise": 25390,
    "Ġunnearable": 26518,
    "Ġtrains": 10949,
    "pronounce": 25194,
    "Ġcongregational": 25106,
    "Ġoutermost": 22324,
    "Ġtaking": 3251,
    "Ġexcite": 11970,
    "abouts": 9456,
    "Ġmug": 21317,
    "Ġwrinkled": 7264,
    "Ġmaimed": 21321,
    "Ġble": 5223,
    "Ġsuperb": 16444,
    "Ġacquirement": 19258,
    "Ġtherefore": 2241,
    "Ġswear": 6462,
    "headsman": 16699,
    "Ġminds": 6305,
    "polar": 24585,
    "Ġadaptation": 3154,
    "Ġcalifornia": 20534,
    "Ġmaterials": 11290,
    "among": 6258,
    "disagreeable": 11165,
    "Ġmathemat": 3203,
    "halfway": 24314,
    "Ġunavailing": 26217,
    "Ġbroom": 18909,
    "Ġberths": 20119,
    "Ġsixteen": 8283,
    "Ġasserted": 16951,
    "stout": 21650,
    "Ġhearses": 20064,
    "Ġripples": 25507,
    "Ġjavelin": 26105,
    "Ġwhipcord": 20099,
    "iron": 3478,
    "ĠĠĠĠĠĠĠĠĠĠĠĠĠĠĠĠĠĠĠĠĠĠĠĠĠĠĠĠĠĠĠĠĠĠĠĠĠĠĠĠĠĠĠĠĠĠĠĠĠĠĠĠĠ": 20044,
    "Ġdub": 13911,
    "bear": 10318,
    "Ġeag": 2970,
    "Ġwickedness": 9529,
    "Ġdeuteronomy": 15764,
    "Ġrebellion": 26477,
    "Ġroad": 3884,
    "Ġnavies": 16902,
    "Ġenergy": 2552,
    "Ġmagnific": 16321,
    "Ġrind": 21977,
    "Ġstern": 4221,
    "ts": 959,
    "appro": 7046,
    "Ġrepairs": 19086,
    "impe": 21713,
    "Ġacquiesce": 20333,
    "Ġdiscoursing": 26268,
    "Ġdenote": 19336,
    "icken": 6713,
    "Ġbetween": 791,
    "unct": 18158,
    "Ġbust": 10170,
    "lutions": 20953,
    "Ġpreferred": 14968,
    "Ġsubstance": 5510,
    "niece": 20998,
    "Ġestablish": 9546,
    "unbidden": 21899,
    "barrels": 15043,
    "Ġu": 324,
    "onely": 6517,
    "Ġpovels": 22596,
    "Ġribbed": 16806,
    "Ġbreath": 4792,
    "allowance": 16826,
    "japan": 15377,
    "Ġnay": 5711,
    "Ġcompan": 2173,
    "Ġbrawn": 10484,
    "iv": 430,
    "Ġproportional": 2525,
    "starbuck": 6020,
    "prospect": 23400,
    "acup": 14280,
    "Ġsqueeze": 10042,
    "whales": 5187,
    "Ġdy": 2521,
    "Ġseverely": 14935,
    "Ġwrapping": 19779,
    "tot": 10730,
    "Ġfinest": 10395,
    "Ġowes": 20089,
    "Ġvort": 18195,
    "Ġimpressions": 9556,
    "unaccountable": 15783,
    "round": 3369,
    "Ġcovent": 16076,
    "Ġlapse": 17123,
    "Ġeats": 15681,
    "member": 20978,
    "preservation": 25307,
    "desolation": 20463,
    "cious": 6646,
    "wild": 8771,
    "Ġretention": 23074,
    "Ġscru": 8191,
    "vous": 2254,
    "Ġinnovative": 1638,
    "p": 84,
    "Ġdeliberation": 19973,
    ").âĢĿ": 20744,
    "rians": 21930,
    "·": 120,
    "super": 5945,
    "gely": 10702,
    "Ġsche": 1707,
    "Ġbites": 23747,
    "dislike": 23497,
    "Ġvanishing": 1346,
    "ellig": 523,
    "orter": 4254,
    "Ġjoyously": 19351,
    "Ġviolently": 6457,
    "Ġmass": 3781,
    "tering": 3809,
    "iters": 21334,
    "ĠĠĠĠĠĠĠĠĠĠĠĠĠĠĠĠĠĠĠĠĠĠĠĠĠĠĠĠĠĠĠĠĠĠĠĠĠĠĠ": 19262,
    "Ġconcentric": 20079,
    "Ġming": 9648,
    "Ġsuspend": 14609,
    "mospheric": 17092,
    "Ġfab": 15580,
    "dum": 17520,
    "Ġsurrounding": 12167,
    "Ġtransportation": 13645,
    "atherley": 7220,
    "suffer": 24330,
    "feed": 9296,
    "Ġfive": 2836,
    "Ġhandkerchief": 8917,
    "Ġscotch": 12214,
    "Ġpours": 17912,
    "Ġbottled": 23799,
    "Ġcontrolled": 23254,
    "Ġlady": 1582,
    "Ġdistrusting": 25057,
    "Ġgladstone": 23873,
    "gies": 13728,
    "Ġworthless": 19569,
    "Ġmalignant": 14880,
    "Ġexotic": 21837,
    "familiar": 19787,
    "Ġsurrey": 14560,
    "Ġvalidation": 2357,
    "Ġprocesses": 3636,
    "Ġpriest": 7526,
    "Ġpremature": 3727,
    "gryphon": 15361,
    "Ġunaccountable": 7887,
    "na": 13762,
    "influence": 13581,
    "Ġflushed": 13031,
    "Ġobsc": 7041,
    "arious": 10320,
    "Ġrefined": 18699,
    "Ġprovidence": 18747,
    "Ġflora": 11418,
    "Ġaddressed": 5263,
    "Ġcher": 6131,
    "dict": 15340,
    "abode": 21796,
    "``": 15309,
    "Ġpersecut": 16955,
    "Ġsibbald": 21235,
    "Ġactivity": 7920,
    "Ġelizabeth": 1131,
    "aled": 3947,
    "Ġsupplement": 23006,
    "set": 3869,
    "Ġcloak": 9537,
    "Ġstraight": 3704,
    "likewise": 13109,
    "Ġrad": 4962,
    "hertfordshire": 10938,
    "Ġw": 272,
    "Ġintroduce": 3205,
    "Ġfaithfulness": 24447,
    "Ġscorched": 17102,
    "Ġcaused": 5048,
    "indifferent": 14210,
    "Ġconsidered": 4613,
    "softened": 20414,
    "Ġtransparen": 10544,
    "Ġdreadful": 4921,
    "cannibals": 25586,
    "live": 7550,
    "Ġvirtual": 11241,
    "Ġcommunity": 19012,
    "Ġvowed": 14086,
    "igate": 8827,
    "puff": 21025,
    "ston": 15687,
    "proceeding": 20145,
    "Ġvelocity": 10623,
    "Ġopenshaw": 7955,
    "Ġmill": 6669,
    "Ġgild": 15673,
    "mouthed": 12404,
    "Ġfiner": 13057,
    "Ġweariness": 19798,
    "Ġdejection": 15199,
    "Ġplayers": 12042,
    "Ġscales": 4851,
    "Ġply": 21457,
    "Ġthee": 2621,
    "hence": 16627,
    "Ġtry": 3133,
    "oring": 1863,
    "acled": 16085,
    "Ġ0": 1904,
    "Ġclumsy": 9582,
    "Ġribs": 7103,
    "Ġeffects": 7236,
    "Ġcooking": 16649,
    "Ġceiling": 7997,
    "billows": 20240,
    "Ġbordeaux": 24566,
    "Ġtet": 21162,
    "Ġtil": 12528,
    "Ġsuperlatively": 26076,
    "Ġcarve": 23096,
    "Ġemphasis": 20540,
    "comfortably": 16877,
    "garden": 15027,
    "Ġdiscovered": 4412,
    "Ġcounterpart": 24721,
    "Ġfrankenstein": 7097,
    "Ġobject": 1393,
    "confined": 24329,
    "Ġperfectly": 3702,
    "Ġwag": 10777,
    "crew": 7544,
    "Ġromantic": 8031,
    "Ġdardanelles": 26445,
    "Ġdance": 4441,
    "Ġlanterns": 24579,
    "Ġgrudge": 20697,
    "Ġstated": 9692,
    "Ġtombed": 25165,
    "ina": 21184,
    "Ġwhites": 21722,
    "Ġphil": 3386,
    "pursued": 17284,
    "Ġinland": 11611,
    "Ġwilson": 6632,
    "Ġlieuten": 13330,
    "Ġreciprocating": 26371,
    "trained": 4238,
    "Ġcommodores": 25376,
    "Ġeigenvalues": 4998,
    "Ġsimpl": 1576,
    "Ġdelightful": 6322,
    "Ġbush": 23341,
    "questioning": 16852,
    "ingu": 2120,
    "crazy": 24693,
    "ò": 179,
    "Ġundesired": 12783,
    "finish": 24385,
    "Ġsignifies": 19206,
    "Ġrationally": 18217,
    "Ġworking": 5574,
    "vard": 21115,
    "distinction": 19575,
    "Ġexultation": 15174,
    "Ġgod": 1937,
    "Ġajar": 21207,
    "Ġcapt": 1290,
    "Ġintention": 5638,
    "Ġwelded": 9574,
    "Ġmalay": 24392,
    "Ġslop": 23166,
    "lat": 9607,
    "Ġdefault": 3041,
    "Ġliberal": 12195,
    "Ġcards": 7581,
    "Ġgladly": 14682,
    "cork": 20799,
    "Ġexc": 1835,
    "Ġaccordance": 19502,
    "Ġdesperate": 7777,
    "olets": 21011,
    "imprudent": 14652,
    "cond": 1664,
    "terogene": 21830,
    "ado": 11661,
    "iminished": 19029,
    "Ġindignantly": 16941,
    "nered": 18490,
    "Ġpersonal": 7479,
    "Ġhearth": 11986,
    "nostril": 26561,
    "Ġdisgusted": 14992,
    "Ġhind": 9191,
    "inc": 2520,
    "enough": 6810,
    "ambition": 13414,
    "Ġtoast": 21517,
    "Ġredress": 23756,
    "Ġpublished": 11243,
    "Ġcheerfulness": 10519,
    "beginning": 13564,
    "acceptance": 25187,
    "Ġgibraltar": 25788,
    "Ġarmitage": 23584,
    "loved": 14252,
    "Ġsmiles": 6708,
    "Ġdeliberate": 15024,
    "distance": 12157,
    "Ġduck": 8798,
    "Ġteacup": 16215,
    "Ġbottomless": 12111,
    "Ġplanisphere": 26609,
    "dham": 20833,
    "stairs": 5155,
    "Ġinqu": 2968,
    "flukes": 25207,
    "Ġbroadened": 23989,
    "Ġske": 4816,
    "Ġsovere": 9259,
    "Ġconsiderably": 7715,
    "harpoone": 6109,
    "nurse": 15211,
    "Ġsubjects": 7074,
    "biscuit": 17503,
    "Ġscaffold": 18402,
    "Ġshocked": 9404,
    "Ġguilt": 6182,
    "Ġschol": 17380,
    "Ġsav": 3357,
    "rip": 9244,
    "arity": 1302,
    "Ġaffirm": 11891,
    "valued": 2853,
    "yea": 23091,
    "Ġforfeit": 21781,
    "Ġregretted": 13403,
    "Ġmix": 7577,
    "appin": 18761,
    "Ġaccorded": 24095,
    "dough": 15337,
    "Ġhighland": 18715,
    "Ġtravelled": 7772,
    "ipotence": 22361,
    "Ġthw": 21520,
    "useness": 22297,
    "around": 12612,
    "Ġtresses": 21180,
    "sust": 15425,
    "moby": 8539,
    "Ġrelinqu": 12987,
    "lied": 6508,
    "Ġcurios": 18850,
    "elve": 4643,
    "Ġbecomes": 6397,
    "acter": 2507,
    "Ġlengthwise": 10454,
    "relieved": 13280,
    "Ġmariner": 7247,
    "cap": 8373,
    "joke": 20933,
    "Ġsphere": 15886,
    "Ġirresistible": 13116,
    "approach": 24835,
    "Ġtorments": 13397,
    "thank": 4950,
    "Ġeuropean": 20050,
    "Ġaimed": 20254,
    "Ġplead": 14457,
    "Ġdoub": 1839,
    "Ġsulk": 15047,
    "pier": 17637,
    "_.âĢĶ": 23475,
    "Ġplainly": 4381,
    "creatures": 7517,
    "rison": 13781,
    "Ġskilful": 25839,
    "plate": 18201,
    "Ġpry": 11602,
    "ization": 488,
    "books": 8667,
    "Ġdrab": 13074,
    "Ġcapable": 5054,
    "Ġwounding": 19590,
    "Ġfarewell": 9523,
    "Ġ3": 3986,
    "Ġhebrew": 13990,
    "ounds": 4157,
    "Ġherring": 14128,
    "Ġunwillingness": 20036,
    "Ġincantation": 26259,
    "weeks": 14318,
    "Ġcheeks": 5959,
    "Ġtransient": 18487,
    "retired": 11940,
    "Ġdeg": 3283,
    "Ġfishe": 15590,
    "igns": 8449,
    "kers": 7134,
    "Ġrecognise": 12059,
    "adequately": 20323,
    "tenham": 16323,
    "Ġbucket": 8792,
    "Ġcalcul": 3640,
    "Ġinfrequent": 3827,
    "Ġrecede": 25969,
    "horrors": 20545,
    "Ġcontentment": 14872,
    "Ġvortex": 26210,
    "umul": 1288,
    "isition": 11589,
    "mediterranean": 16409,
    "floor": 14938,
    "Ġriddle": 14822,
    "Ġimple": 1828,
    "Ġafrican": 20141,
    "Ġlieutenant": 15264,
    "Ġchapter": 2958,
    "atch": 675,
    "Ġamid": 4959,
    "hand": 2757,
    "Ġturned": 2133,
    "neural": 3067,
    "Ġderives": 16311,
    "avast": 8900,
    "Ġreprehensible": 15703,
    "rable": 11635,
    "door": 6195,
    "Ġtiger": 11557,
    "Ġaugment": 8695,
    "Ġcheck": 7271,
    "Ġstrands": 25576,
    "Ġdegener": 14050,
    "Ġharb": 7370,
    "Ġvers": 7563,
    "Ġelements": 2666,
    "Ġlandless": 23383,
    "Ġgrapes": 15218,
    "rut": 8092,
    "att": 1455,
    "Ġtempest": 8214,
    "removing": 17766,
    "Ġworried": 22930,
    "owl": 12687,
    "Ġprayers": 12128,
    "Ġmiserable": 3637,
    "conced": 22473,
    "Ġtip": 15474,
    "Ġpouring": 12628,
    "Ġinformed": 6719,
    "Ġhot": 4256,
    "Ġstifle": 18076,
    "Ġcrash": 12006,
    "kept": 11721,
    "ancho": 4938,
    "intending": 22939,
    "Ġindu": 5295,
    "Ġknowing": 4456,
    "plings": 11699,
    "gra": 769,
    "Ġsmallest": 6431,
    "Ġsymmet": 11751,
    "Ġcard": 7363,
    "Ġrenow": 18030,
    "Ġthump": 11614,
    "Ġsam": 7569,
    "pennies": 26287,
    "linearity": 1650,
    "Ì": 141,
    "Ġxerxes": 23414,
    "acquainted": 7313,
    "Ġshortly": 6198,
    "extent": 22746,
    "abominable": 20598,
    "hope": 5991,
    "Ġresearch": 3241,
    "ternatural": 12719,
    "Ġdignity": 5704,
    "savage": 15078,
    "Ġseat": 4949,
    "Ġslashing": 23174,
    "Ġsuperglue": 23459,
    "Ġinterest": 2251,
    "baked": 20782,
    "Ġ112": 24438,
    "laborers": 23920,
    "Ġharshly": 25251,
    "highest": 20412,
    "Ġdisputes": 25826,
    "wling": 11547,
    "Ġassent": 12737,
    "Ġstorm": 4299,
    "Ġpagans": 16924,
    "Ġfreer": 23213,
    "Ġquoted": 22421,
    "Ġmarket": 7709,
    "inal": 15483,
    "versed": 9828,
    "Ġrecom": 4555,
    "depart": 12270,
    "Ġtender": 5753,
    "Ġdejected": 20308,
    "Ġbison": 21393,
    "manif": 14375,
    "destro": 13313,
    "Ġcross": 1372,
    "perfect": 7635,
    "Ġtrotting": 19980,
    "unks": 15779,
    "mies": 20971,
    "Ġbeard": 11658,
    "Ġsalvation": 14760,
    "Ġshake": 6035,
    "Ġdaughter": 2870,
    "ocations": 23708,
    "Ġpel": 17904,
    "Ġsec": 2076,
    "Ġfatality": 12100,
    "abular": 4763,
    "peculiarities": 13474,
    "cence": 9591,
    "Ġtarget": 2820,
    "dinah": 20085,
    "weakness": 16128,
    "snatched": 24852,
    "Ġbehaved": 13258,
    "Ġpoem": 22593,
    "yonder": 21149,
    "Ġmatlock": 18803,
    "Ġwee": 21923,
    "incl": 8110,
    "dee": 11737,
    "Ġswaths": 23062,
    "90": 12436,
    "Ġterrible": 5328,
    "Ġinject": 2710,
    "Ġency": 21938,
    "Ġpit": 3420,
    "ustration": 2261,
    "Ġvoluntarily": 12145,
    "Ġaccordingly": 6622,
    "Ġrevolut": 3259,
    "Ġflaming": 8567,
    "Ġsimil": 2531,
    "!âĢĶ": 2455,
    "databases": 3026,
    "Ġjoined": 4564,
    "abeth": 907,
    "Ġmixed": 6975,
    "Ġvicious": 24404,
    "Ġjour": 11768,
    "gradually": 12919,
    "met": 6655,
    "Ġtwine": 14313,
    "Ġlabelled": 23334,
    "Ġiterate": 13204,
    "aneously": 4061,
    "Ġneighbor": 25806,
    "men": 1484,
    "Ġducking": 17149,
    "Ġbowlines": 19325,
    "ulates": 14057,
    "Ġbefore": 809,
    "Ġappare": 12820,
    "Ġcinque": 20490,
    "Ġproportions": 16469,
    "resting": 23238,
    "Ġtow": 4395,
    "Ġlearnable": 3996,
    "Ġcontribute": 12851,
    "Ġpredestinated": 18508,
    "Q": 53,
    "Ġvictim": 6099,
    "00": 1612,
    "saved": 15434,
    "Ġelab": 22647,
    "Ġconsequence": 5542,
    "etition": 7382,
    "Ġkindest": 23300,
    "Ġfeels": 6882,
    "ived": 1531,
    "Ġobliging": 13248,
    "Ġwages": 13856,
    "Ġstochastic": 3267,
    "herfield": 3633,
    "Ġrecourse": 22757,
    "Ġmethods": 3159,
    "interrupt": 8619,
    "Ġspeech": 4612,
    "libr": 22927,
    "Ġhardship": 18916,
    "partner": 19223,
    "dost": 14536,
    "Ġprelimin": 8864,
    "churning": 21702,
    "Ġfiver": 22773,
    "exactly": 10639,
    "fears": 18530,
    "penny": 22949,
    "Ġreproached": 24893,
    "find": 6954,
    "mushroom": 26397,
    "pervised": 1609,
    "Ġforeseen": 16442,
    "Ġsuffers": 2977,
    "anting": 6413,
    "sar": 15423,
    "occurrences": 26333,
    "Ġskiff": 16168,
    "Ġdictating": 20156,
    "Ġticking": 25037,
    "recollected": 25349,
    "!_âĢĶ": 19977,
    "Ġmyself": 1453,
    "Ġfixed": 2684,
    "Ġderivatives": 2372,
    "ications": 4444,
    "Ġattachment": 6051,
    "Ġirreducible": 5519,
    "invariably": 26418,
    "Ġstretch": 6994,
    "streamed": 25967,
    "Ġthinner": 24186,
    "Ġharpooned": 13266,
    "ifice": 7199,
    "Ġwine": 6811,
    "Ġneighbours": 8303,
    "Ġpanted": 21476,
    "Ġclimax": 25055,
    "dece": 11738,
    "fabulous": 20478,
    "Ġmatted": 22916,
    "Ġtreas": 7358,
    "Ġfo": 1652,
    "Ġblunt": 11898,
    "Ġinco": 14261,
    "adventure": 17236,
    "Ġjunks": 25117,
    "evil": 11488,
    "Ġinmost": 17933,
    "Ġexhausted": 8697,
    "Ġconce": 3422,
    "everywhere": 23699,
    "Ġberg": 24537,
    "Ġgrapple": 25812,
    "Ġathe": 17743,
    "Ġchased": 8865,
    "digger": 24313,
    "Ġtaught": 6804,
    "anging": 3553,
    "Ġtight": 8108,
    "Ġsanguinary": 25930,
    "Ġstops": 3165,
    "ĭ": 238,
    "Ġsmite": 22562,
    "Ġhysterical": 26093,
    "Ġsteelkilt": 5675,
    "Ġinch": 7850,
    "Ġmanufactured": 22335,
    "Ġgrow": 2860,
    "transform": 8050,
    "genteel": 19953,
    "Ġhospit": 7514,
    "kind": 3867,
    "Ġmeekly": 26492,
    "Ġsuperiors": 23457,
    "punishment": 15148,
    "am": 367,
    "gunw": 17223,
    "Ġprofess": 3700,
    "Ġdiscoverer": 26036,
    "Ġperseus": 10606,
    "Ġenglishmen": 19434,
    "Ġdiscomposure": 20383,
    "Ġinduced": 8674,
    "Ġrashly": 20309,
    "rrh": 26145,
    "Ġtimidity": 24689,
    "Ġeasiest": 23539,
    "oters": 21804,
    "Ġrapture": 13498,
    "collected": 13216,
    "Ġgrotesque": 26331,
    "oker": 10964,
    "Ġmer": 2933,
    "Ġcellars": 24667,
    "vious": 1787,
    "Ġbeings": 2489,
    "itiousness": 21339,
    "reference": 13842,
    "foam": 24419,
    "Ġtis": 15468,
    "uy": 21104,
    "Ġjig": 15955,
    "Ġculprit": 26173,
    "Ġsadness": 13290,
    "Ġdart": 4587,
    "Ġcharacteristics": 8613,
    "Ġforced": 4352,
    "reposed": 24493,
    "vap": 13805,
    "Ġstow": 21736,
    "Ġryder": 10262,
    "Ġaband": 6563,
    "bted": 7794,
    "opÃ¦": 12877,
    "Ġexpert": 18876,
    "Ġmasks": 23332,
    "ouraged": 22859,
    "Ġplanets": 24062,
    "ivot": 11722,
    "Ġejaculation": 20258,
    "Ġdial": 10812,
    "Ġunpardonable": 22067,
    "Ġnail": 9198,
    "bask": 20779,
    "news": 23136,
    "Ġforget": 2633,
    "Ġweedy": 15796,
    "Ġplun": 6283,
    "helmsman": 24290,
    "Ġdru": 8423,
    "americ": 8156,
    "Ġ1883": 23902,
    "Ġloathsome": 13530,
    "pence": 15411,
    "Ġcharge": 5325,
    "Ġbohem": 8529,
    "Ġward": 10158,
    "Ġvisit": 2583,
    "prosperity": 20738,
    "Ġphysiognomy": 25612,
    "Ġdead": 2171,
    "iro": 20917,
    "Ġoutskirts": 17460,
    "umb": 3403,
    "Ġparaph": 22125,
    "Ġhosts": 19943,
    "isions": 6132,
    "Ġnaked": 8127,
    "Ġclo": 6044,
    "Ġbo": 794,
    "sol": 1793,
    "Ġfossil": 12391,
    "Ġmelted": 19625,
    "Ġjumping": 13345,
    "Ġunlocked": 14122,
    "Ġenjoyment": 7300,
    "Ġsord": 21224,
    "Ġhang": 9190,
    "Ġpig": 5705,
    "Ġadie": 8491,
    "Ġdesigned": 7741,
    "Ġsensation": 6896,
    "venant": 22631,
    "Ġdom": 2880,
    "reel": 21238,
    "Ġlivelong": 25513,
    "ivial": 15863,
    "Ġrefreshing": 20268,
    "Ġcurbstone": 26044,
    "istical": 8492,
    "Ġbanquet": 15243,
    "Ġdent": 13908,
    "travellers": 24340,
    "Ġfairer": 20466,
    "claim": 9838,
    "Ġfrequencies": 4790,
    "ozy": 17624,
    "Ġimpl": 7195,
    "Ġunnear": 22033,
    "Ġemaciated": 20642,
    "Ġmaintain": 856,
    "pleasant": 5876,
    "omical": 9683,
    "olen": 9702,
    "Ġcontext": 1636,
    "summoned": 26593,
    "Ġmeditate": 16709,
    "Ġorigin": 4120,
    "fits": 13720,
    "Ġpur": 2218,
    "bug": 17495,
    "Ġtexel": 25924,
    "Ġfisheries": 17441,
    "Ġsole": 3298,
    "supplemental": 25875,
    "velope": 17703,
    "Ġcleaned": 23186,
    "Ġdoom": 6418,
    "Ġfaltering": 17886,
    "reated": 10306,
    "Ġgreece": 17070,
    "Ġprocopius": 19735,
    "Ġdrily": 23543,
    "tinted": 17685,
    "Ġmansion": 17811,
    "Ġsticks": 14933,
    "Ġconcern": 2656,
    "Ġasylum": 13669,
    "eches": 8078,
    "Ġstudent": 14479,
    "Ġunaffected": 14124,
    "Ġimpassable": 20616,
    "adam": 15734,
    "rages": 15685,
    "Ġhospitality": 13515,
    "Ġflourishing": 25189,
    "arers": 12134,
    "commander": 16989,
    "redit": 3879,
    "atig": 13847,
    "Ġlanding": 11989,
    "Ġhers": 7889,
    "concent": 19484,
    "solid": 16384,
    "Ġhatch": 7848,
    "83": 13683,
    "cru": 7128,
    "persecut": 22190,
    "Ġaccountability": 10440,
    "trip": 21096,
    "Ġamput": 16039,
    "Ġcursory": 18851,
    "Ġsubstant": 14811,
    "Ġprender": 22240,
    "Ġquadrant": 11406,
    "87": 20760,
    "Ġlik": 2523,
    "----âĢĿ": 13310,
    "Ġhelmsman": 10507,
    "Ġmagic": 8233,
    "assment": 9742,
    "dirty": 20837,
    "once": 5905,
    "Ġemble": 13973,
    "convinced": 10625,
    "algorithms": 8293,
    "ignorantly": 25191,
    "Ġabstract": 17184,
    "Ġintentionally": 24524,
    "Ġhercules": 14129,
    "Ġtep": 21166,
    "prints": 23817,
    "Ġliberated": 19670,
    "Ġsoaring": 22091,
    "Ġadmirer": 16840,
    "Ġspreading": 13381,
    "bucket": 17496,
    "Ġborder": 10172,
    "Ġge": 1977,
    "sounded": 12271,
    "Ġbrougham": 17872,
    "shapes": 22467,
    "Ġtwelvemonth": 12182,
    "ateful": 5928,
    "Ġfeeling": 3084,
    "Ġbeautiful": 3674,
    "Ġpropriet": 9553,
    "Ġhealthful": 24065,
    "isive": 10795,
    "Ġwert": 12560,
    "Ġexists": 14044,
    "Ġmace": 21314,
    "Ġcomplying": 18586,
    "urry": 13996,
    "across": 10327,
    "Ġmishap": 20580,
    "ys": 3962,
    "shold": 2772,
    "ated": 727,
    "erable": 1917,
    "Ġvocabulary": 4995,
    "impetuous": 23767,
    "ju": 13743,
    "Ġfrenz": 25448,
    "Ġcaliforn": 14433,
    "Ġdew": 14045,
    "Ġtechni": 1725,
    "Ġvideo": 25367,
    "ienced": 5685,
    "aker": 3665,
    ".]": 15301,
    "Ġcustomary": 8673,
    "Ġnorth": 4318,
    "Ġausten": 5882,
    "Ġbritain": 16958,
    "Ġmeasuring": 22887,
    "pardonable": 17220,
    "Ġuseful": 3561,
    "jewell": 25525,
    "Ġcircum": 8258,
    "Ġlime": 13950,
    "springing": 24891,
    "Ġrefuge": 8541,
    "Ġuninter": 18248,
    "Ġslippery": 12171,
    "enstein": 5800,
    "Ġgraces": 18227,
    "forbearance": 22790,
    "teak": 22819,
    "Ġabusive": 22278,
    "aulets": 18623,
    "meetings": 20382,
    "ges": 2874,
    "wont": 21137,
    "Ġclenched": 14205,
    "viii": 12025,
    "castle": 3350,
    "ument": 5239,
    "Ġparch": 11730,
    "Ġ221": 25072,
    "sa": 8760,
    "Ġfootman": 8288,
    "glanced": 19370,
    "esc": 615,
    "Ġmedium": 16708,
    "Ġcistern": 17384,
    "Ġfavourites": 16647,
    "restored": 18980,
    "umber": 5240,
    "Ġkissed": 10048,
    "pton": 15798,
    "Ġwheeled": 14140,
    "roots": 15647,
    "ognit": 19243,
    "sl": 5794,
    "Ġorgies": 18287,
    "aping": 8194,
    "Ġmadness": 6603,
    "ufactured": 15184,
    "gans": 11492,
    "morland": 24157,
    "Ġoutrages": 18417,
    "undertaking": 23791,
    "à": 161,
    "church": 8140,
    "Ġbulls": 23862,
    "Ġwast": 21865,
    "Ġwitt": 17785,
    "Ġdestabilizing": 5053,
    "rear": 21237,
    "Ġbrigs": 20326,
    "apparat": 22849,
    "Ġbloody": 9891,
    "Ġbreckinridge": 14524,
    "abhorred": 17339,
    "Ġforeshad": 23454,
    "Ġoccurrences": 11052,
    "Ġsingularly": 12153,
    "Ġgilded": 17448,
    "Ġpath": 2115,
    "Ġheadsman": 13278,
    "ulpt": 10887,
    "Ġcruellest": 19662,
    "Ġprovoking": 16745,
    "sax": 21061,
    "Ġpressed": 6043,
    "Ġsenseless": 12083,
    "ref": 6516,
    "Ġannouncement": 14835,
    "Ġretreats": 16930,
    "Ġ1836": 25721,
    "Ġsmooth": 2777,
    "discovery": 12021,
    "teen": 6371,
    "Ġbrick": 8928,
    "Ġimbalance": 22179,
    "Ġassistants": 9455,
    "Ġmerged": 19300,
    "Ġruthless": 15288,
    "ha": 3982,
    "Ġflows": 13018,
    "plain": 1356,
    "Ġrustic": 14967,
    "separation": 25228,
    "surely": 10572,
    "Ġattracted": 8908,
    "Ġcordiality": 24396,
    "ision": 1856,
    "Ġfurniture": 6477,
    "Ġnumberless": 16418,
    "Ġhappens": 2189,
    "Ġdiameter": 19870,
    "belt": 24041,
    "Ġpathways": 11155,
    "geon": 6273,
    "swept": 19790,
    "Ò": 147,
    "supplement": 14799,
    "Ġclergyman": 8715,
    "unned": 21883,
    "iana": 7050,
    "Ġtherein": 11779,
    "onom": 9161,
    "devilish": 17083,
    "Ġmessages": 24985,
    "Ġnavigation": 9996,
    "Ġalthough": 4151,
    "Ġsharks": 4498,
    "Ġdank": 21433,
    "Ġlarge": 1062,
    "Ġrank": 6260,
    "Ġbackwater": 18652,
    "Ġadvise": 7936,
    "Ġforswe": 21780,
    "Ġclut": 7642,
    "Ġcharger": 19008,
    "Ġheight": 4219,
    "Ġsurveying": 25327,
    "Ġindestructible": 26574,
    "Ġlives": 4827,
    "Ġredundant": 16553,
    "Ġlandsc": 11148,
    "not": 909,
    "menced": 23148,
    "Ġadvocate": 13679,
    "warnings": 20355,
    "Ġtheories": 13851,
    "ues": 2080,
    "Ġhandsomely": 25499,
    "Ġcloudy": 19481,
    "Ġcompelled": 14267,
    "Ġod": 4438,
    "athered": 6973,
    "Ġfeared": 5932,
    "Ġapples": 22218,
    "warn": 11545,
    "beaten": 20319,
    "abiding": 21798,
    "point": 6064,
    "wreck": 21141,
    "Ġnuts": 17954,
    "Ġcomparing": 14266,
    "Ġindependence": 12109,
    "arthy": 4824,
    "Ġshutter": 16673,
    "upper": 11541,
    "ı": 242,
    "Ġunseason": 22057,
    "const": 5940,
    "Ġexhale": 24403,
    "Ġanteced": 26178,
    "Ġreluct": 14374,
    "pudding": 17649,
    "ressed": 3025,
    "enderby": 25217,
    "Ġcensus": 15099,
    "Ġinsupportable": 13934,
    "ases": 1521,
    "Ġmamma": 10051,
    "exceed": 7911,
    "Ġvengeance": 5886,
    "declared": 15121,
    "mblies": 24610,
    "pal": 9619,
    "Ġmun": 12566,
    "Ġswaying": 15048,
    "arnel": 18131,
    "Ġ79": 24268,
    "Ġholland": 10368,
    "Ġforge": 8458,
    "Ġtoes": 10831,
    "Ġlistening": 6320,
    "Ġstirring": 10582,
    "Ġassigned": 16314,
    "bing": 7792,
    "Ġconfederate": 17356,
    "Ġrep": 1938,
    "ginger": 13166,
    "?âĢĿ": 700,
    "Ġbacked": 12929,
    "Ġvenetian": 14849,
    "Ġobstinate": 11338,
    "Ġfastened": 7067,
    "binder": 17502,
    "lights": 13208,
    "ute": 4644,
    "omics": 21648,
    "Ġmaze": 23835,
    "Ġunsc": 22019,
    "Ġappears": 5402,
    "Ġlandsmen": 11353,
    "Ġcanst": 8861,
    "Ġultimate": 12353,
    "Ġcrystals": 20231,
    "Ġscowl": 22290,
    "viating": 14580,
    "Ġincessant": 15100,
    "here": 2549,
    "Ġadopt": 10634,
    "Ġsettle": 6295,
    "apothecary": 26547,
    "indul": 22376,
    "garnished": 26390,
    "grew": 17557,
    "Ġear": 1423,
    "continu": 5501,
    "joining": 19450,
    "Ġvect": 1226,
    "Ġbernard": 20688,
    "Ġ}": 21158,
    "memory": 13620,
    "Ġtransferred": 16489,
    "t": 88,
    "Ġpitiable": 9917,
    "Ġcasket": 19728,
    "lust": 15382,
    "Ġdiv": 3733,
    "foreseen": 14255,
    "Ġstir": 5824,
    "Ġjonas": 20613,
    "Ġclothe": 4713,
    "Ġvaguely": 17369,
    "Ġunusual": 6555,
    "struck": 7862,
    "Ġpropontis": 17468,
    "Ġbrother": 2747,
    "Ġshirr": 18233,
    "Ġleyden": 21753,
    "Ġlastly": 16208,
    "bbings": 19279,
    "Ġsour": 21221,
    "Ġfurnish": 9022,
    "Ġburden": 8611,
    "pious": 17635,
    "Ġtist": 21167,
    "Ġeasiness": 23538,
    "Ġscar": 3211,
    "Ġarrows": 18352,
    "Ġdrank": 16537,
    "_âĢĶâĢĿ": 20766,
    "Ġmeat": 8152,
    "ĠdÃ¦mon": 7844,
    "rudence": 7094,
    "Ġvoice": 2191,
    "Ġsovereign": 10065,
    "cst": 10087,
    "mmet": 10991,
    "orted": 4605,
    "heeded": 13836,
    "flatter": 23971,
    "coff": 9112,
    "Ġskill": 6872,
    "crawling": 16960,
    "mysterious": 26053,
    "Ġstupendous": 20505,
    "Ġcircumstances": 3929,
    "Ġshifting": 12772,
    "Ġincoherent": 17403,
    "Ġspears": 12928,
    "Ġexhaustion": 14963,
    "Ġcaptured": 7245,
    "Ġbeauty": 3770,
    "Ġwarm": 2426,
    "Ġsculpture": 26017,
    "Ġ80": 24457,
    "Ġhel": 3787,
    "evidence": 25523,
    "Ġparagra": 15883,
    "warm": 8102,
    "nineteenth": 26139,
    "falgar": 26131,
    "Ġfourteen": 12014,
    "Ġjudges": 14686,
    "ĠĠĠĠĠĠĠĠĠĠĠĠĠĠĠĠĠĠĠĠĠĠĠĠĠĠĠĠĠĠ": 24444,
    "Ġcastaways": 19432,
    "Ġstrateg": 1365,
    "Ġpaintings": 15057,
    "Ġneed": 2607,
    "Ġhistories": 14688,
    "stones": 11639,
    "Ġdiscipline": 26563,
    "Ġcommend": 10337,
    "cies": 1815,
    "humanity": 24841,
    "Ġ49": 24087,
    "Ġinsane": 19272,
    "Ġpresented": 5183,
    "affrail": 11207,
    "Ġgateway": 24800,
    "Ġ6": 5141,
    "erated": 21275,
    "visit": 7755,
    "Ġremotest": 10055,
    "Ġoperations": 2301,
    "Ġspar": 10923,
    "Ġapparently": 6779,
    "ubl": 3597,
    "Ġalbatross": 10873,
    "itiously": 13873,
    "Ġugly": 8719,
    "owed": 2272,
    "Ġrose": 3446,
    "dient": 440,
    "Ġtrue": 1340,
    "Ġunsupp": 22026,
    "lantic": 6365,
    "Ġinsomuch": 23684,
    "charles": 14701,
    "icket": 22672,
    "Ġusage": 9734,
    "Ġswerve": 14439,
    "parable": 16394,
    "Ġgest": 8134,
    "ade": 881,
    "reached": 13843,
    "Ġpursued": 6330,
    "Ġrumours": 24600,
    "Ġkingdom": 12023,
    "mitted": 5213,
    "ange": 1018,
    "Ġloite": 22116,
    "meant": 7921,
    "larking": 17596,
    "momentum": 4991,
    "visitor": 15059,
    "Ġtradeoff": 2658,
    "aren": 10077,
    "seem": 10230,
    "Ġphyset": 23204,
    "Ġmanxman": 9568,
    "Ġdrowned": 9555,
    "âĢĿ]": 21817,
    "Ġphiladelphia": 26606,
    "Ġshipwrecked": 25688,
    "hands": 5968,
    "Ġrepl": 1589,
    "Ġmasters": 11578,
    "Ġplata": 25121,
    "Ġsor": 4146,
    "cott": 8074,
    "ivable": 10912,
    "imly": 12691,
    "slide": 24557,
    "Ġaugust": 10600,
    "number": 10117,
    "Ġsilken": 16385,
    "islanders": 25444,
    "pagan": 17288,
    "Ġhorseback": 14852,
    "Ġvagabond": 20207,
    "Ġspouter": 12802,
    "mason": 17604,
    "Ġinsulated": 23681,
    "Ġrecomm": 4996,
    "Ġproduced": 2453,
    "Ġinnoc": 3796,
    "Ġ42": 16680,
    "Ġimprovements": 14513,
    "Ġtraces": 7946,
    "Ġvelvet": 12402,
    "Ġmaid": 5287,
    "Ġoppress": 13175,
    "Ġembra": 6580,
    "âĢĶâĢľ_": 13207,
    "Ġexpedite": 24957,
    "Ġscho": 4435,
    "Ġsneer": 13450,
    "Ġunwaning": 24831,
    "Ġpetersburgh": 24232,
    "Ġforehead": 5262,
    "dar": 20827,
    "unted": 6999,
    "Ġpetrified": 19600,
    "Ġbales": 21394,
    "Ġthro": 5818,
    "Ġfift": 6383,
    "min": 4573,
    "Ġdifferences": 18716,
    "terbury": 21829,
    "freely": 16856,
    "Ġnowadays": 18548,
    "Ġmanaged": 7906,
    "aning": 2256,
    "Ġpush": 9186,
    "countless": 24154,
    "light": 3019,
    "verb": 10219,
    "Ġhams": 16614,
    "Ġrichness": 19314,
    "Ġdances": 10814,
    "Ġnet": 3629,
    "Ġkept": 3347,
    "Ġphr": 2680,
    "curious": 10485,
    "Ġphrenologically": 20398,
    "Ġthinking": 4032,
    "extrem": 18695,
    "seemingly": 25364,
    "Ġbestir": 13113,
    "iosity": 2236,
    "Ġindiscriminately": 20631,
    "Ġcoleridge": 18769,
    "Ġdepicting": 22611,
    "Ġrummaged": 16912,
    "Ġastr": 15497,
    "Ġobliv": 16137,
    "Ġadjusted": 23460,
    "Ġoverjoy": 15976,
    "Ġimpo": 3445,
    "Ġattach": 14290,
    "subst": 12169,
    "Ġaccept": 4410,
    "Ġelevation": 14901,
    "Ġjustify": 11074,
    "collinses": 19926,
    "Ġprim": 8244,
    "wol": 21127,
    "strang": 11185,
    "Ġheads": 3742,
    "Ġaghast": 16051,
    "iscient": 17853,
    "onement": 21261,
    "Ġdipping": 15596,
    "Ġtiller": 8968,
    "Ġhorizontally": 17014,
    "yourselves": 24960,
    "screwed": 17190,
    "Ġcomputations": 16008,
    "bol": 8721,
    "Ġundo": 15844,
    "ashing": 4826,
    "als": 2042,
    "Ġoutweigh": 22327,
    "Ġsoliloquized": 17305,
    "Ġconjoined": 21811,
    "at": 268,
    "roar": 17955,
    "Ġpunctilious": 26355,
    "Ġwinter": 5220,
    "aug": 1213,
    "atived": 21267,
    "rey": 12542,
    "blubber": 15239,
    "event": 8077,
    "Ġinjurious": 24274,
    "Ġmonsters": 11076,
    "Ġcareful": 2611,
    "Ġscrib": 22288,
    "Ġspeeding": 23567,
    "Ġincurable": 22557,
    "Ġmagical": 23102,
    "Ġfamil": 4319,
    "Ġbraces": 14671,
    "Ġports": 10820,
    "Ġexecutors": 19537,
    "bye": 5951,
    "Ġincomplete": 17211,
    "Ġschoolmaster": 16864,
    "Ġassembly": 10645,
    "oon": 6366,
    "Ġrippling": 17280,
    "Ġpalpable": 15208,
    "Ġceaseless": 13491,
    "Ġmuteness": 19421,
    "Ġcrippled": 25280,
    "Ġfree": 3376,
    "Ġfresh": 3672,
    "Ġworked": 6584,
    "Ġentranced": 25836,
    "Ġreposing": 23365,
    "Ġdimensions": 16573,
    "Ġdistracted": 11807,
    "intercourse": 14639,
    "slowly": 9092,
    "Ġinscrut": 10037,
    "Ġexchange": 15760,
    "Ġpallidness": 25606,
    "Ġjokes": 18410,
    "Ġabsurdities": 24880,
    "Ġblack": 2033,
    "harpoons": 24288,
    "Ġcommis": 22675,
    "guest": 19486,
    "Ġmanipulation": 10661,
    "Ġrisks": 9967,
    "filled": 9597,
    "beloved": 19465,
    "Ġrelationship": 2316,
    "Ġremnants": 22797,
    "irection": 2389,
    "Ġhat": 2771,
    "Ġreported": 11984,
    "faith": 15026,
    "Ġgangway": 20162,
    "Ġformerly": 7493,
    "lorious": 17594,
    "Ġresurrection": 12898,
    "inuating": 16206,
    "Ġfull": 2178,
    "Ġexcellent": 4237,
    "pit": 3984,
    "chair": 5918,
    "uracy": 1111,
    "Ġantiqu": 12149,
    "aned": 5147,
    "Ġdisreputable": 22539,
    "Ġassured": 4372,
    "profound": 16429,
    "Ġpaint": 7708,
    "Ġalliance": 18237,
    "Ġdumbly": 24989,
    "Ġhurtling": 24961,
    "Ġmeas": 1098,
    "Ġforetold": 23453,
    "Ġbund": 17865,
    "Ġyarns": 15198,
    "Ġprophe": 13082,
    "Ġenviron": 3834,
    "Ġpendulous": 25956,
    "aint": 2542,
    "Ġcubs": 20091,
    "compared": 24038,
    "embraces": 25804,
    "Ġholiday": 13002,
    "watson": 12248,
    "Ġdeparture": 6491,
    "Ġdiscontented": 16063,
    "imagine": 19935,
    "Ġeth": 17718,
    "Ġpacket": 14895,
    "Ġinert": 15626,
    "alous": 7372,
    "Ġcorrespondence": 10597,
    "Ġperfection": 19220,
    "Ġpens": 21464,
    "dling": 15342,
    "lan": 15380,
    "Ġquiver": 16012,
    "Ġsuns": 23277,
    "acute": 22599,
    "Ġwaist": 6892,
    "pents": 11515,
    "ignorance": 17164,
    "Ġcrocodile": 20743,
    "Ġmexic": 14033,
    "machines": 8385,
    "Ġhesitating": 16949,
    "Ġsupp": 1265,
    "Ġincarnate": 20379,
    "Ġdeclares": 16994,
    "Ġcylinders": 25944,
    "Ġxii": 11995,
    "Ġconcepts": 4551,
    "Ġwapping": 21299,
    "Ġriotous": 20548,
    "Ġgardiners": 11159,
    "Ġenthr": 22741,
    "Ġrace": 5848,
    "Ġunsav": 18253,
    "Ġlascar": 9202,
    "ative": 744,
    "gracious": 11835,
    "Ġcrosses": 23065,
    "horse": 8609,
    "Ġlasted": 11055,
    "Ġtemptation": 8681,
    "guess": 14764,
    "Ġthews": 21282,
    "estic": 4956,
    "Ġhumbled": 16200,
    "Ġcommit": 18656,
    "Ġincorporate": 20458,
    "Ġoccasionally": 5590,
    "ridge": 9500,
    "Ġinfat": 14501,
    "Ġscarcity": 23831,
    "downstairs": 23924,
    "Ġbenevolence": 9530,
    "Ġhanover": 20590,
    "Ġvisions": 12981,
    "Ġconfirms": 23315,
    "portuguese": 25415,
    "Ġcovered": 5171,
    "impud": 23764,
    "Ġice": 3606,
    "tch": 9144,
    "spirits": 8055,
    "scoured": 22997,
    "Ġmutually": 23961,
    "Ġbroad": 3642,
    "Ġwaters": 3598,
    "spect": 3234,
    "Ġfitting": 21413,
    "goodbye": 12060,
    "spl": 9142,
    "ops": 5247,
    "sprit": 11384,
    "principle": 10653,
    "Ġdiscredit": 22785,
    "Ġrokovoko": 22414,
    "Ġunpleasant": 7191,
    "something": 4283,
    "Ġperiods": 13307,
    "Ġdismissed": 12896,
    "Ġpuzzle": 11307,
    "wherein": 19110,
    "Ġslowly": 3620,
    "ently": 1615,
    "persons": 24178,
    "ogne": 12944,
    "Ġfrowning": 13626,
    "Ġvexations": 24611,
    "Ġtepid": 26414,
    "hyena": 24256,
    "Ġexperiments": 23042,
    "Ġfetching": 16898,
    "Ġbounding": 19404,
    "Ġcongealed": 25982,
    "contrast": 25596,
    "Ġquohog": 10973,
    "ser": 1426,
    "Ġmermaids": 26171,
    "iver": 2050,
    "ilet": 12833,
    "longing": 23729,
    "Ġagainst": 1700,
    "Ġanoint": 25539,
    "access": 11182,
    "Ġfleshy": 24616,
    "title": 17290,
    "floated": 24645,
    "Ġterror": 5124,
    "noble": 7923,
    "ĥ": 230,
    "E": 41,
    "Ġoutset": 15959,
    "Ġcoiled": 11824,
    "Ġprev": 6266,
    "Ġjacob": 1900,
    "Ġcont": 558,
    "Ġtilted": 20417,
    "Ġselected": 9714,
    "brother": 7093,
    "ressing": 8922,
    "isons": 17851,
    "Ġcarpenter": 4686,
    "Ġdays": 2078,
    "Ġupwards": 7634,
    "Ġkicks": 19772,
    "Ġassist": 3566,
    "began": 6427,
    "Ġdispel": 16598,
    "Ġconcussion": 26301,
    "Ġitem": 12705,
    "various": 10400,
    "Ġavailed": 23956,
    "Ġnoise": 1066,
    "Ġincom": 9772,
    "Ġfainted": 8796,
    "Ġhotels": 19540,
    "thar": 18219,
    "elstrom": 17984,
    "yp": 1044,
    "Ġeffectively": 2651,
    "Ġacknowledge": 13405,
    "lipped": 16220,
    "tal": 17672,
    "Ġhide": 4591,
    "Ġrelieve": 8224,
    "Ġ113": 19700,
    "Ġvector": 1971,
    "Ġtriumphantly": 11289,
    "Ġstay": 3094,
    "Ġcheering": 11135,
    "nable": 13764,
    "ne": 645,
    "Ġparagraph": 17457,
    "Ġvictims": 19808,
    "onist": 21255,
    "Ġretreating": 19803,
    "Ġnum": 1348,
    "Ġloads": 22119,
    "tears": 11038,
    "mo": 863,
    "remental": 21252,
    "Ġscor": 8190,
    "Ġpleasantly": 14521,
    "Ġushered": 18361,
    "Ġheadway": 18796,
    "Ġremembr": 24174,
    "Ġnarrowly": 16822,
    "Ġglue": 15678,
    "Ġboston": 22643,
    "Ġsemantics": 2896,
    "Ġblanched": 26284,
    "Ġ94": 17719,
    "Ġbeacon": 21762,
    "Ġmarine": 23036,
    "ividual": 5463,
    "engineer": 23150,
    "Ġtooks": 23331,
    "inridge": 11563,
    "ogra": 4575,
    "Ġdownward": 10334,
    "Ġsixty": 7723,
    "Ġdeprec": 15762,
    "Ġdeliber": 7268,
    "Ġsanction": 20030,
    "how": 1644,
    "Ġlads": 8600,
    "Ġcrawford": 24895,
    "uous": 4145,
    "Ġscrupled": 25053,
    "Ġmischief": 8544,
    "Ġmorphology": 3012,
    "Ġcreditable": 19626,
    "adr": 6995,
    "Ġventing": 19497,
    "Ġhabitual": 24790,
    "thing": 1479,
    "Ġtones": 8401,
    "amid": 12728,
    "Ġunfor": 15843,
    "count": 4212,
    "Ġberry": 19750,
    "ouncing": 8497,
    "asy": 5296,
    "Ġfew": 1218,
    "Ġpatentee": 25588,
    "Ġscepticism": 25928,
    "Ġpersuas": 23951,
    "Ġsunrise": 9376,
    "Ġalluded": 7885,
    "Ġknighthood": 25299,
    "Ġcontrari": 23353,
    "Ġeleven": 9393,
    "driven": 19775,
    "Ġinferences": 17937,
    "Ġisinglass": 21807,
    "Ġinsolence": 20257,
    "Ġgait": 13334,
    "wishes": 13809,
    "gorge": 22337,
    "Ġencouragement": 13047,
    "Ġwretchedly": 19510,
    "Ġtrying": 4840,
    "prejudiced": 17300,
    "Ġsombre": 18862,
    "Ġorganisation": 23586,
    "cy": 651,
    "Ġsidel": 9638,
    "Ġinspired": 2518,
    "Ġconfinement": 19044,
    "isturbed": 18299,
    "teenth": 11878,
    "Ġmotive": 6092,
    "Ġdynamic": 5122,
    "Ġpoured": 8805,
    "H": 44,
    "Ġ23": 13195,
    "soc": 5175,
    "collar": 19331,
    "Ġslacked": 25190,
    "Ġaccidental": 16851,
    "Ġencoura": 1366,
    "plutarch": 21962,
    "Ġlo": 453,
    "Ġslide": 10396,
    "Ġmurmur": 14590,
    "Ġshapeless": 24525,
    "Ġpersuading": 19414,
    "18": 20754,
    "Ġindebted": 8711,
    "orses": 6053,
    "covery": 11173,
    "ness": 854,
    "Ġderbyshire": 6588,
    "Ġsane": 21226,
    "Ġa": 263,
    "rers": 14720,
    "Ġpolitics": 19226,
    "coach": 23563,
    "Ġmargaret": 10379,
    "Ġnonce": 23237,
    "Ġwalker": 23316,
    "anned": 17841,
    "Ġcents": 17830,
    "likes": 18817,
    "ais": 8071,
    "Ġpracticable": 19028,
    "century": 20051,
    "Ġplaster": 16087,
    "disappearing": 23505,
    "Ġdivinely": 25723,
    "Ġresearches": 13134,
    "Ġ1869": 19388,
    "Ġlofty": 6219,
    "forks": 26389,
    "Ġbrowne": 13305,
    "Ġcloth": 9746,
    "Ġscud": 14192,
    "streets": 13398,
    "anxiety": 25160,
    "Ġmaterial": 5178,
    "apsed": 6297,
    "gazed": 15364,
    "Ġaboriginal": 14190,
    "swear": 16920,
    "Ġcocks": 18593,
    "raint": 18318,
    "Ġposter": 14277,
    "involved": 25627,
    "Ġmoth": 17804,
    "Ġclaps": 22351,
    "Ġnomine": 26458,
    "Ġpeaceable": 14725,
    "quid": 18149,
    "Ġzodiac": 16176,
    "Ġnumbers": 2890,
    "Ġlabyrinth": 13682,
    "Ġmates": 4873,
    "circled": 24191,
    "ishmael": 18422,
    "coloured": 7291,
    "Ġsem": 1880,
    "Ġparcels": 25467,
    "Ġbudge": 15167,
    "Ġdestro": 3723,
    "Ġdomineer": 23723,
    "Ġmoisture": 12363,
    "Ġbenefits": 4285,
    "Ġimpulse": 10027,
    "Ġnav": 5819,
    "Ġdegree": 3705,
    "Ġincalculable": 17463,
    "ricade": 13043,
    "ato": 17771,
    "impress": 18054,
    "Ġheart": 1590,
    "Ġbeggar": 9352,
    "Ġbursting": 8659,
    "Ġcarter": 18902,
    "Ġcirclings": 26433,
    "three": 5238,
    "atives": 2238,
    "Ġshut": 3945,
    "Ġtag": 15471,
    "Ġquakers": 22422,
    "Ġqual": 6277,
    "Ġsepar": 4000,
    "empt": 2617,
    "Ġ97": 19778,
    "september": 14038,
    "tumultuous": 20403,
    "corrid": 24485,
    "hamlet": 23266,
    "shri": 14237,
    "Ġscriptures": 26237,
    "Ġtempor": 2367,
    "seeking": 17155,
    "Ġadaptively": 4007,
    "Ġinvoking": 19148,
    "Ġ500": 24325,
    "Ġresignation": 18568,
    "Ġprisoner": 8676,
    "Ġsons": 10768,
    "vib": 21120,
    "Ġfrayed": 23284,
    "Ġfirm": 3874,
    "white": 4604,
    "Ġscotland": 6642,
    "Ġboisterously": 25683,
    "Ġbenjamin": 26569,
    "have": 2059,
    "Ġsurmises": 17056,
    "naturedly": 24842,
    "springs": 24913,
    "bies": 15315,
    "clear": 9027,
    "Ġling": 7377,
    "izes": 883,
    "Ġensigns": 23690,
    "final": 19680,
    "moment": 3580,
    "Ġseeing": 2886,
    "Ġplease": 4724,
    "scattered": 22999,
    "Ġrunning": 3954,
    "Ġshorter": 4499,
    "Ġsexes": 25173,
    "Ġweal": 21924,
    "Ġthreshold": 2808,
    "Ġdivined": 19447,
    "Ġineff": 12638,
    "Ġqu": 605,
    "ured": 1654,
    "Ġgrew": 5182,
    "Ġshelf": 12272,
    "Ġoceans": 7996,
    "judges": 19577,
    "Ġtranslation": 3087,
    "Ġacted": 7422,
    "Ġknife": 7309,
    "Ġitems": 9695,
    "lished": 8383,
    "Ġevaluate": 3305,
    "Ġrecollection": 6623,
    "Ġperchance": 16000,
    "Ġconcluding": 9860,
    "meryton": 10114,
    "Ġindulge": 10585,
    "discrimin": 19612,
    "ÿ": 192,
    "aches": 6572,
    "Ġproposal": 10022,
    "oping": 5559,
    "iod": 3843,
    "sence": 3308,
    "ships": 5486,
    "Ġfanc": 6745,
    "Ġassistant": 7298,
    "Ġleaky": 2346,
    "object": 6884,
    "consist": 14818,
    "shop": 14239,
    "Ġperemptory": 25741,
    "Ġric": 18213,
    "Ġproof": 6155,
    "kinson": 10029,
    "Ġapproaching": 6285,
    "mortal": 10115,
    "injured": 15135,
    "aim": 2755,
    "Ġsallow": 12540,
    "Ġmeek": 21814,
    "Ġunfortunately": 10911,
    "Ġconceit": 7295,
    "hom": 12478,
    "Ġperish": 8878,
    "union": 15774,
    "Ġgross": 11628,
    "Ġstarve": 24627,
    "Ġsignificant": 8637,
    "zes": 11551,
    "Ġshore": 4836,
    "promontory": 24728,
    "Ġmurdered": 6465,
    "usive": 8192,
    "eag": 20845,
    "mph": 20975,
    "Ġalternately": 15033,
    "Ġworldly": 16332,
    "writes": 4988,
    "Ġlatitudes": 9499,
    "Ġbrazier": 26322,
    "print": 23816,
    "overed": 2854,
    "ilated": 18060,
    "bearance": 22499,
    "Ġinterven": 10999,
    "escript": 18478,
    "Ġtea": 5041,
    "Ġgazed": 6479,
    "Ġbountiful": 25945,
    "ney": 2492,
    "forget": 11033,
    "Ġsurround": 4619,
    "fully": 2203,
    "Ġflit": 23010,
    "fac": 17543,
    "Ġwaterproof": 19091,
    "Ġphysiognomically": 25614,
    "darker": 24517,
    "Ġanecdote": 26356,
    "Ġbequeathed": 20705,
    "Ġprophetic": 20024,
    "Ġsedentary": 25432,
    "rates": 21042,
    "Ġusual": 3946,
    "Ġdegrad": 2589,
    "Ġgallantry": 15106,
    "univers": 15776,
    "Ġcoolness": 16888,
    "Ġaudibly": 24771,
    "physiogn": 26267,
    "southern": 20413,
    "Ġtedious": 15270,
    "Ġignominy": 15088,
    "Ġmarried": 3409,
    "Ġdebated": 9043,
    "Ġlog": 1681,
    "wants": 21135,
    "Ġsacr": 7194,
    "want": 8770,
    "Ġdeploy": 2824,
    "Ġicelandic": 25887,
    "Ġdepressions": 25799,
    "<EOS>": 2,
    "Ġboys": 5194,
    "Ġdangers": 12358,
    "Ġrich": 2996,
    "Ġarranged": 9880,
    "Ġmeaning": 1415,
    "Ġascendency": 20236,
    "inlaid": 21195,
    "Ġhappy": 2466,
    "fit": 6648,
    "gether": 1591,
    "failed": 20866,
    "Ġfurthermore": 1168,
    "Ġwithered": 19469,
    "opence": 18513,
    "Ġtropical": 17066,
    "Ġplaint": 10328,
    "Ġjeroboam": 10603,
    "Ġchopping": 24223,
    "nose": 17612,
    "ising": 2257,
    "Ġwinds": 5746,
    "Ġpale": 4532,
    "Ġacting": 10993,
    "Ġdisgusting": 19897,
    "grie": 12475,
    "Ġunob": 22020,
    "ally": 529,
    "ĠâĢľâĢĶ": 9737,
    "Ġerrand": 11087,
    "Ġchamp": 18383,
    "nant": 17611,
    "manned": 18764,
    "Ġdiscol": 12957,
    "Ġsignify": 16496,
    "elastic": 17983,
    "suddenly": 6494,
    "Ġwheelbarrow": 17207,
    "nels": 12500,
    "Ġsoldiers": 8690,
    "Ġwinding": 8236,
    "irresist": 21917,
    "Ġfolding": 19731,
    "staking": 21653,
    "Ġstalk": 12701,
    "Ġmistakes": 16542,
    "Ġupbraid": 18320,
    "Ġflirting": 16252,
    "wonders": 17146,
    "bergs": 18694,
    "Ġthrown": 4641,
    "ift": 1606,
    "Ġdrinking": 12173,
    "Ġequality": 16362,
    "Ġjeopard": 9946,
    "Ġestimated": 16596,
    "for": 948,
    "police": 10586,
    "Ġdisliked": 12895,
    "lins": 2026,
    "iries": 18173,
    "Ġdissip": 10994,
    "istics": 1630,
    "Ġcolours": 12978,
    "Ġcaw": 13885,
    "Ġperil": 5557,
    "Ġinjuring": 24272,
    "Ġgra": 416,
    "netherfield": 9816,
    "Ġmatters": 4973,
    "Ġeach": 892,
    "ribute": 7227,
    ");": 7330,
    "Ġflight": 6582,
    "pulled": 25149,
    "Ġamiss": 18517,
    "Ġl": 303,
    "Ġodor": 12154,
    "ceiling": 21632,
    "alive": 10829,
    "Ġwritten": 4168,
    "stocks": 23825,
    "Ġextravagance": 17282,
    "relate": 24015,
    "gor": 546,
    "igations": 18046,
    "Ġprot": 3851,
    "Ġcompared": 2229,
    "doubt": 6783,
    "Ġhandsomer": 20337,
    "Ġobserving": 6081,
    "excellent": 8044,
    "invari": 21189,
    "itically": 21335,
    "caterpillar": 26385,
    "Ġhidden": 1374,
    "stee": 21656,
    "noo": 9793,
    "Ġlodged": 11253,
    "Ġworn": 6446,
    "Ġmaddened": 17246,
    "Ġsequences": 1751,
    "antique": 18289,
    "Ġforbear": 17124,
    "Ġraises": 11847,
    "torture": 26152,
    "Ġanalyzing": 18776,
    "Ġsolitude": 6876,
    "Ġknob": 24408,
    "travel": 24338,
    "pleasure": 5979,
    "Ġrejoinder": 24599,
    "Ġsky": 3971,
    "twinkle": 23704,
    "Ġcope": 17832,
    "Ġbite": 10799,
    "Ġmariners": 6069,
    "Ġguineas": 16274,
    "Ġsteamer": 17191,
    "Ġ2026": 12339,
    "Ġmetal": 9388,
    "Ġspectators": 19411,
    "conclusion": 25672,
    "escape": 16016,
    "Ġhurricane": 16434,
    "Ġdogs": 7742,
    "Ġbrew": 23348,
    "Ġnice": 6678,
    "Ġplough": 18610,
    "Ġgoethe": 22430,
    "Ġoffended": 7042,
    "Ġnarrow": 5086,
    "Ġlat": 5087,
    "Ġregal": 16080,
    "committed": 18744,
    "Ġintuitions": 17344,
    "aved": 5475,
    "Ġembark": 8559,
    "Ġtake": 1575,
    "Ġsw": 1354,
    "Ġentic": 16147,
    "Ġhousekeeping": 18947,
    "Ġderick": 9367,
    ",": 16,
    "Ġcontrol": 13083,
    "resembled": 21251,
    "Ġrobberies": 23052,
    "Ġeconomy": 17203,
    "over": 1848,
    "Ġwithhold": 18119,
    "Ġsuddenness": 23386,
    "Ġdet": 509,
    "Ġenjoy": 3761,
    "Ġinno": 1437,
    "Ġrespecting": 14485,
    "Ġstraighten": 24008,
    "retreat": 23141,
    "Ġexhibition": 14959,
    "Ġigniting": 25074,
    "blood": 7780,
    "Ġunwarrantable": 26346,
    "Ġjuly": 17239,
    "Ġarrival": 4732,
    "Ġmccauley": 26429,
    "gard": 7339,
    "Ġwelcomed": 9485,
    "Ġdeformed": 14049,
    "angular": 11727,
    "Ġmetaphysical": 26070,
    "ination": 2915,
    "Ġharris": 13929,
    "Ġstiggs": 25793,
    "Ġmonday": 6129,
    "Ġjoker": 22303,
    "Ġsurrounded": 5880,
    "actor": 11842,
    "Ġmingled": 12381,
    "Ġretained": 7174,
    "Ġsuddenly": 2645,
    "Ġgenteel": 19985,
    "bewil": 22503,
    "Ġcreaking": 14328,
    "Ġpoetry": 15083,
    "Ġelapsed": 7653,
    "Ġmystical": 12137,
    "Ġspilled": 10926,
    "vember": 10857,
    "antee": 22102,
    "Ġdisplaying": 16968,
    "Ġeagerly": 4990,
    "stood": 4116,
    "assumed": 22313,
    "Ġjane": 1758,
    "Ġretrogression": 26583,
    "Ġsharper": 17182,
    "Ġkeys": 12001,
    "jolly": 20934,
    "Ġcaval": 25770,
    "elope": 14470,
    "weave": 22689,
    "published": 26143,
    "Ġrearing": 12681,
    "Ġruskin": 25810,
    "Ġcreat": 1414,
    "oman": 2017,
    "mush": 20980,
    "osis": 18391,
    "Ġcellar": 8059,
    "conceal": 25118,
    "Ġextensive": 12952,
    "Ġexasperated": 11414,
    "Ġembal": 11905,
    "Ġbern": 17860,
    "rubber": 12813,
    "Ġhist": 2444,
    "Ġdiary": 24739,
    "Ġanatomy": 12324,
    "Ġadieus": 25114,
    "Ġridge": 14821,
    "ede": 21511,
    "Ġrewards": 10850,
    "Ġvices": 14085,
    "Ġdedu": 5584,
    "Ġwilful": 10537,
    "Ġign": 8295,
    "settled": 10509,
    "Ġceases": 19316,
    "Ġmal": 5221,
    "Ġstage": 7389,
    "Ġwatches": 11083,
    "Ġpresenting": 18989,
    "Ġrags": 18643,
    "Ġaltitude": 26204,
    "Ġsociet": 9453,
    "Ġsheepfold": 25468,
    "Ġsmall": 893,
    "Ġbarn": 11590,
    "Ġrest": 1785,
    "cheer": 9440,
    "Ġmoles": 22439,
    "Ġtortured": 14926,
    "Ġthrob": 21523,
    "hearing": 8404,
    "Ġdeliverer": 11954,
    "dancing": 12459,
    "circum": 16739,
    "Ġcomforters": 25801,
    "Ġbasement": 24702,
    "Ġra": 800,
    "Ġrule": 1532,
    "acles": 8522,
    "Ġascend": 9963,
    "Ġportcull": 23867,
    "Ġmildness": 9947,
    "athom": 12943,
    "dreadful": 11423,
    "conf": 4957,
    "Ġblanket": 8343,
    "Ġdolph": 12384,
    "arman": 11598,
    "Ġmercifully": 20182,
    "aset": 10834,
    "thickness": 25369,
    "Ġcentral": 7728,
    "Ġimagine": 3927,
    "bruary": 15238,
    "fain": 13717,
    "wag": 21128,
    "murderer": 13396,
    "Ġobjects": 5578,
    "Ġexeget": 24089,
    "off": 1889,
    "Ġdidst": 11853,
    "Ġunerring": 15851,
    "Ġconfluent": 19045,
    "Ġconsciousness": 9951,
    "Ġbelfry": 26440,
    "Ġheeds": 24521,
    "pread": 7418,
    "Ġimposing": 11785,
    "signed": 21066,
    "Ġinspirited": 23424,
    "ospel": 17012,
    "Ġroot": 2649,
    "Ġgale": 5823,
    "elag": 12662,
    "Ġdiamond": 15603,
    "Ġpaunch": 23753,
    "Ġphilistines": 26083,
    "Ġobli": 9319,
    "Ġassociate": 13453,
    "ught": 2749,
    "Ġmistifying": 23720,
    "outs": 7010,
    "Ġmoonshine": 19601,
    "anc": 6380,
    "hig": 12479,
    "bb": 2800,
    "announce": 24562,
    "Ġsparkled": 13465,
    "pretty": 10624,
    "sorting": 17006,
    "Ġchast": 18382,
    "Ġsmoothe": 23658,
    "Ġimmensity": 25331,
    "Ġpresent": 1642,
    "Ġgoble": 14231,
    "Ġinjure": 16783,
    "ghan": 19459,
    "Ġspring": 4121,
    "Ġadds": 1808,
    "loving": 18539,
    "Ġbeautifully": 13271,
    "bit": 3935,
    "enge": 21285,
    "Ġrandom": 1584,
    "Ġinclination": 6626,
    "desponding": 26343,
    "derstand": 638,
    "Ġclubb": 22353,
    "arranted": 19323,
    "ital": 4819,
    "Ġcell": 6239,
    "spond": 5567,
    "Ġtreacher": 8608,
    "Ġprinciple": 6771,
    "Ġenjoying": 11236,
    "Ġhuge": 4701,
    "recursion": 13332,
    "Ġdepths": 4325,
    "Ġbump": 9662,
    "Ġkirwin": 8499,
    "elves": 2158,
    "Ġspl": 2987,
    "et": 307,
    "mariners": 19552,
    "approaching": 15013,
    "circumst": 5349,
    "Ġantilles": 24183,
    "Ġoverladen": 22371,
    "Ġwhereby": 11841,
    "usation": 18403,
    "assemblies": 25957,
    "Ġstabbed": 25458,
    "destroy": 19514,
    "Ġdiff": 3114,
    "influ": 9544,
    "inserted": 18890,
    "Ġdup": 21432,
    "Ġhummed": 18782,
    "companies": 24896,
    "Ġevaporate": 26334,
    "Ġtweezers": 26558,
    "Ġfloat": 12036,
    "aphys": 15204,
    "Ġabsent": 7016,
    "Ġdeed": 7868,
    "Ġsleepless": 14583,
    "Ġrain": 5005,
    "Ġdeacon": 18144,
    "Ġfleecy": 17025,
    "ley": 1817,
    "Ġflag": 7242,
    "iced": 3904,
    "Ġcrop": 10165,
    "Ġkrusen": 20717,
    "ball": 7793,
    "Ġrighteous": 18949,
    "breaking": 14767,
    "shoulders": 16587,
    "ptember": 10896,
    "Ġcoun": 4178,
    "Ġdrama": 16331,
    "Ġilluminated": 20179,
    "ster": 1952,
    "Ġevidently": 6760,
    "Ġfrightens": 24035,
    "Ġadmit": 7711,
    "Ġcrater": 16438,
    "conceive": 16034,
    "Ġmccarthy": 5145,
    "antic": 1603,
    "Ġpainted": 7979,
    "doc": 23380,
    "Ġn": 300,
    "Ġabusing": 18395,
    "Ġserving": 14487,
    "Ġbeaten": 10531,
    "Ġyankees": 26203,
    "anish": 2615,
    "subsided": 25832,
    "opic": 22481,
    "Ġprinces": 23228,
    "adm": 7609,
    "appear": 13201,
    "Ġwalked": 3139,
    "Ġfreezing": 23887,
    "Ġeagle": 13205,
    "fare": 7799,
    "Ġhumanity": 6733,
    "Ġarbitrary": 4737,
    "Ġseizure": 21969,
    "uneasy": 23687,
    "Ġparents": 6754,
    "ship": 1389,
    "nosed": 20995,
    "antial": 8490,
    "Ġequilibrium": 4141,
    "Ġneedle": 8275,
    "oub": 1633,
    "venty": 6428,
    "nep": 20989,
    "Ġnaught": 8128,
    "finding": 17015,
    "Ġuses": 1210,
    "Ġmatch": 4529,
    "Ġcomprise": 18585,
    "Ġtroubled": 6617,
    "Ġunwell": 22022,
    "Ġnominal": 15171,
    "Ġmitigating": 1617,
    "acher": 6868,
    "Ġthoroughfare": 16946,
    "useful": 16505,
    "Ġbankers": 24305,
    "Ġundu": 15841,
    "Ġalps": 10872,
    "supposing": 24138,
    "hercules": 22209,
    "amongst": 24674,
    "Ġendued": 14079,
    "Ġneglecting": 25011,
    "Ġtouches": 20574,
    "Ġgrassy": 24380,
    "savor": 25028,
    "Ġforeman": 23449,
    "ra": 314,
    "Ġtall": 4040,
    "Ġdeceit": 13484,
    "Ġfaithfully": 14889,
    "Ġindians": 14414,
    "Ġcontinuing": 14399,
    "Ġmilan": 19539,
    "Ġsteward": 6586,
    "Ġhunter": 5401,
    "Ġunknown": 4452,
    "Ġunluckily": 20106,
    "paper": 9139,
    "Ġ98": 24595,
    "twilight": 23703,
    "Ġblanche": 18822,
    "vol": 731,
    "ox": 9136,
    "Ġaust": 4872,
    "educated": 17262,
    "Ġaccuse": 14213,
    "ĠĠĠĠĠĠĠĠĠĠĠĠĠĠĠĠ": 1222,
    "Ġcow": 13878,
    "Ġsubmerged": 11876,
    "iate": 6506,
    "fleece": 19952,
    "iences": 6957,
    "respectively": 24700,
    "sad": 11523,
    "angling": 14142,
    "Ġkidn": 20209,
    "Ġcrisp": 12007,
    "Ġcrying": 10788,
    "attentions": 13577,
    "magnet": 14972,
    "Ġnods": 19065,
    "butter": 11789,
    "tale": 10130,
    "leap": 21372,
    "Ġoverpowered": 15291,
    "Ġarduous": 26533,
    "Ġorlop": 22098,
    "aswag": 21551,
    "plexy": 18577,
    "Ġblinds": 8007,
    "Ġacceptable": 16746,
    "Ġcaptiv": 16259,
    "Ġ16": 7927,
    "Ġsuspected": 9065,
    "Ġthirst": 7590,
    "abroad": 18112,
    "Ġunaccount": 22032,
    "Ġyouthful": 16725,
    "Ġwield": 21295,
    "Ġyawning": 12304,
    "Ġhover": 15624,
    "Ġsobbed": 14138,
    "burn": 8371,
    "ashes": 6017,
    "Ġobliged": 4284,
    "Ġprices": 15616,
    "out": 467,
    "Ġcoat": 4554,
    "leisure": 21376,
    "affect": 13215,
    "mentioned": 10626,
    "Ġconfided": 19042,
    "Ġaustrian": 24303,
    "txt": 12519,
    "caroline": 24153,
    "Ġintercepted": 25828,
    "Ġcovari": 2338,
    "desperate": 17360,
    "Ġcreative": 9833,
    "arbuck": 2025,
    "Ġremonstrance": 20627,
    "Ġincognit": 22559,
    "Ġinconsist": 17938,
    "cousins": 20122,
    "Ġbrill": 8551,
    "satisfactory": 16895,
    "ertion": 12043,
    "Ġclipping": 2440,
    "Ġrud": 8480,
    "nephew": 26399,
    "Ġshouts": 19541,
    "Ġwrench": 12561,
    "Ġbreezes": 14871,
    "rices": 4559,
    "oors": 17622,
    "Ġdis": 694,
    "Ġcannibal": 7774,
    "Ġtistig": 26415,
    "desc": 1392,
    "Ġwantest": 18793,
    "Ġsteeple": 19291,
    "Ġo": 275,
    "Ġyet": 1029,
    "Ġprecisely": 6467,
    "chance": 6827,
    "Ġhunted": 7453,
    "Ġclasping": 20213,
    "Ġfolk": 10378,
    "Ġvishnoo": 12757,
    "Ġfixedly": 19251,
    "Ġfriendless": 23029,
    "bel": 3839,
    "Ġhearing": 4762,
    "Ġdate": 7841,
    "Ġtunnels": 24622,
    "Ġlighten": 23263,
    "Ġenthusiasm": 8065,
    "Ġsketches": 26272,
    "Ġowe": 8115,
    "Ġevol": 2814,
    "Ġlake": 5227,
    "Ġextraction": 11254,
    "izard": 10885,
    "tipt": 25087,
    "Ġsubmission": 22793,
    "Ġworm": 9165,
    "Ġpalaces": 24097,
    "names": 16531,
    "Ġintent": 6410,
    "Ġbackbone": 22663,
    "Ļ": 252,
    "avery": 13686,
    "spe": 3562,
    "Ġfierc": 18712,
    "Ġcens": 8414,
    "Ġuniversally": 12004,
    "Ġnoticed": 5549,
    "Ġchis": 11754,
    "Ġroman": 8323,
    "ductive": 23940,
    "Ġrepaired": 13111,
    "Ġequatorial": 13511,
    "Ġcomposure": 7217,
    "Ġfeedforward": 2327,
    "Ġloftiest": 16876,
    "Ġcollect": 7237,
    "ather": 739,
    "Ġbetray": 7442,
    "girdling": 26391,
    "Ġreminds": 13434,
    "ô": 181,
    "Ġstar": 6024,
    "Ġcontinuation": 22921,
    "Ġvineyards": 25110,
    "Ġrifts": 21983,
    "walton": 20253,
    "Ġtracks": 18893,
    "Ġhonoured": 9884,
    "Ġbrought": 2516,
    "Ġcage": 17827,
    "Ġunless": 4091,
    "put": 414,
    "Ġpassing": 4313,
    "Ġdestination": 19152,
    "ulate": 5233,
    "om": 315,
    "Ġclamorous": 24911,
    "Ġmarlings": 23039,
    "Ġtink": 9151,
    "Ġpossesses": 19356,
    "atious": 10154,
    "intern": 23740,
    "hoped": 20913,
    "exciting": 19672,
    "wish": 8100,
    "Ġsavannah": 17419,
    "cong": 10691,
    ".}": 20748,
    "neys": 23585,
    "effort": 19216,
    "Ġdisd": 7032,
    "coffin": 10665,
    "ploy": 2024,
    "rock": 15645,
    "Ġfame": 21411,
    "Ġbeaufort": 13571,
    "Ġspades": 12800,
    "Ġtunes": 24621,
    "Ġsting": 10863,
    "Ġed": 2244,
    "Ġperf": 12858,
    "wholly": 10943,
    "nothing": 3152,
    "security": 26208,
    "ately": 1676,
    "Ġamerica": 6764,
    "iliar": 15718,
    "Ġsplitting": 4383,
    "treat": 12517,
    "Ġdiscoloured": 15255,
    "Ġchaldee": 26236,
    "arson": 22751,
    "Ġenraged": 10247,
    "ubb": 1649,
    "Ġexistence": 4708,
    "Ġupper": 5090,
    "slanting": 24559,
    "Ġbaff": 10801,
    "Ġireland": 17338,
    "ethics": 8882,
    "Ġfollowed": 1796,
    "(_": 7540,
    "Ġunfathomable": 20552,
    "Ġcritically": 23446,
    "oology": 21009,
    "mockery": 24379,
    "Ġchoked": 9267,
    "Ġch": 512,
    "intense": 22940,
    "oga": 22716,
    "rations": 10725,
    "Ġampl": 22485,
    "warrior": 24798,
    "Ġtube": 15004,
    "swiftly": 20555,
    "asher": 15650,
    "Ġrings": 11705,
    "Ġrecalled": 8542,
    "Ġcities": 17829,
    "Ġprosperity": 20261,
    "usions": 6161,
    "Ġindex": 17050,
    "crimes": 16686,
    ",âĢĻâĢĶ": 23529,
    "doubted": 17528,
    "lose": 12885,
    "ighbour": 3389,
    "conscientious": 19630,
    "Ġbrid": 6292,
    "nui": 21003,
    "_": 67,
    "Ġmonomania": 17086,
    "Ġwing": 6668,
    "suspicions": 25393,
    "skinned": 25389,
    "tea": 18741,
    "Ġliter": 8816,
    "anted": 5027,
    "Ġmrs": 1467,
    "Ġpermanent": 13634,
    "friendship": 24054,
    "Ġcreativity": 3013,
    "Ġchests": 19675,
    "pha": 22776,
    "Ġclos": 4549,
    "Ġvalid": 1671,
    "Ġcontin": 5380,
    "Ġbackgammon": 22667,
    "Ġnovelties": 24778,
    "ublic": 11229,
    "repe": 8780,
    "Ġhospitals": 24925,
    "guilt": 24076,
    "pilot": 25909,
    "experience": 17161,
    "dat": 1656,
    "Ġwallow": 19470,
    "Ġflask": 3042,
    "Ġrel": 1097,
    "inations": 7567,
    "10": 17475,
    "Ġsomehow": 4843,
    "screw": 9350,
    "Ġspeakest": 23488,
    "Ġintellig": 526,
    "Ġcomp": 724,
    "meditated": 19075,
    "ribs": 23369,
    "Ġdrows": 21440,
    "Ġbig": 5806,
    "Ġpopulous": 16828,
    "Ġvisible": 4778,
    "lever": 2935,
    "asc": 6387,
    "Ġkelson": 18349,
    "Ġalong": 1978,
    "Ġchallenges": 13633,
    "cull": 20812,
    "Ġwholly": 4446,
    "queen": 12731,
    "lantern": 17431,
    "Ġtennes": 23552,
    "Ġbes": 2660,
    "Ġheaving": 7601,
    "ohog": 9846,
    "Ġchoice": 2166,
    "combination": 25488,
    "Ġhosea": 17334,
    "Ġchil": 11755,
    "Ġproduct": 3536,
    "Ġsummons": 13235,
    "elaborate": 21581,
    "Ġdoing": 3663,
    "ĠĠ": 352,
    "humoredly": 26326,
    "agonies": 21914,
    "accidents": 19214,
    "cor": 5520,
    "cial": 2647,
    "oment": 921,
    "elop": 1527,
    "Ġexterior": 19992,
    "Ġelias": 18636,
    "Ġfad": 17878,
    "Ġblow": 3375,
    "Ġlengthen": 15658,
    "Ġallev": 18103,
    "brow": 15318,
    "Ġtrusted": 10520,
    "showing": 22466,
    "Ġcloud": 3915,
    "lake": 13751,
    "Ġcentre": 5123,
    "Ġgentlemen": 3645,
    "Ġscolded": 25474,
    "mish": 17600,
    "Ġcaps": 8416,
    "Ġboister": 12923,
    "inhab": 10759,
    "im": 327,
    "Ġmounttop": 19982,
    "places": 7877,
    "broke": 14781,
    "Ġconstitutes": 13555,
    "Ġboy": 3024,
    "Ġincluded": 8959,
    "grounds": 11153,
    "Ġphilosop": 5057,
    "chose": 18043,
    "commend": 19997,
    "Ġdented": 17893,
    "enched": 10157,
    "Ġgrip": 11630,
    "circle": 16738,
    "Ġconception": 10316,
    "Ġdiscove": 16159,
    "scarcely": 12390,
    "Ġspices": 22135,
    "Ġaught": 8777,
    "Ġpresumption": 10548,
    "Ġcircling": 19095,
    "game": 11493,
    "Ġlxi": 21566,
    "Ġenjoyed": 8008,
    "Ġrevolution": 3306,
    "Ġfashioned": 13324,
    "Ġconjure": 17126,
    "Ġscenery": 11458,
    "steady": 14711,
    "ĠĠĠĠĠĠĠĠĠĠĠĠĠĠĠĠĠĠĠĠĠĠĠĠĠĠĠĠĠĠĠĠĠĠĠĠĠĠĠĠĠĠ": 24213,
    "derment": 22166,
    "ė": 216,
    "Ġparameters": 992,
    "pher": 11514,
    "ahawk": 23322,
    "Ġelbowed": 16113,
    ".)": 6784,
    "Ġoun": 13865,
    "gold": 9123,
    "scho": 8763,
    "piling": 15417,
    "cloudless": 20336,
    "Ġproportion": 7281,
    "offic": 7466,
    "Ġstriding": 16097,
    "Ġtou": 15469,
    "gul": 12470,
    "persuaded": 15076,
    "Ġforty": 5719,
    "angu": 570,
    "reception": 15517,
    "instances": 13323,
    "Ġshaped": 15838,
    "ti": 8390,
    "Ġdoubts": 8583,
    "Ġacquiring": 2766,
    "specific": 10500,
    "Ġtwenty": 3952,
    "Ġsmilingly": 22565,
    "sets": 17662,
    "crews": 15044,
    "Ġconstable": 19071,
    "Ġfanatic": 23396,
    "Ġfreshe": 13073,
    "eh": 13712,
    "itten": 3444,
    "Ġversion": 10632,
    "Ġsupplying": 19802,
    "Ġhe": 318,
    "mention": 7214,
    "Ġadvoc": 12998,
    "Ġunerringly": 18267,
    "gin": 4931,
    "ert": 2630,
    "Ġrabbit": 4287,
    "Ġglit": 8563,
    "replied": 11568,
    "Ġstructural": 2798,
    "ep": 445,
    "Ġdiverse": 19211,
    "allions": 22199,
    "Ġsaves": 18326,
    "Ġbraced": 16582,
    "Ġapprehended": 26091,
    "ppings": 18180,
    "Ġreckon": 19873,
    "Ġmary": 3847,
    "adventurous": 25363,
    "Ġcontr": 1916,
    "Ġcure": 21345,
    "modern": 1182,
    "Ġconstables": 19073,
    "surprise": 9533,
    "Ġdevotedly": 24750,
    "Ġcondescend": 19959,
    "biqu": 17500,
    "Ġearnestly": 5980,
    "rospect": 11615,
    "pop": 17633,
    "Ġtalker": 23375,
    "alley": 23027,
    "Ġstoven": 23179,
    "Ġinsufferable": 13933,
    "Ġsensationalism": 26067,
    "Ġhowling": 8512,
    "Ġchained": 16391,
    "Ġaffability": 14389,
    "Ġslumber": 13064,
    "Ġexpost": 18626,
    "Ġcomprehending": 24446,
    "ruit": 22182,
    "Ġcraven": 16471,
    "Ġabraham": 18397,
    "obedience": 17413,
    "Ġreaders": 18917,
    "Ġdives": 17892,
    "bons": 17489,
    "Ġmolasses": 25629,
    "<SOS>": 1,
    "Ġuneasily": 24234,
    "Ġtierce": 15481,
    "Ġpierce": 17037,
    "Ġattentive": 9036,
    "Ġhonestly": 19976,
    "village": 25424,
    "oa": 9615,
    "exc": 5169,
    "Ġdines": 21428,
    "Ġjoky": 18408,
    "told": 7811,
    "Ġlegendary": 20541,
    "Ġbrigandish": 25489,
    "Ġgeneralize": 3100,
    "six": 7143,
    "kington": 11205,
    "Ġdeserves": 13293,
    "Ġentreating": 24211,
    "hoping": 17568,
    "visitors": 13352,
    "hack": 20899,
    "Ġdependencies": 2315,
    "Ġponder": 6819,
    "Ġhumbug": 18784,
    "Ġsplendid": 17216,
    "Ġgeomet": 3192,
    "Ġinsight": 16532,
    "awk": 23117,
    "Ġrelig": 8553,
    "Ġadmitted": 8989,
    "seldom": 13789,
    "Ġes": 8773,
    "Ġfestival": 25447,
    "Ġ1890": 23901,
    "Ġcoburg": 18595,
    "Ġawhile": 13832,
    "Ġspaces": 3110,
    "Ġconvulsive": 19310,
    "Ġeyelashes": 26107,
    "hidden": 17374,
    "incident": 14592,
    "Ġdaniel": 15114,
    "Ġfeathers": 15122,
    "Ġsnuff": 7992,
    "Ġconfound": 23310,
    "Ġhurried": 4033,
    "abri": 6684,
    "hy": 4741,
    "fainting": 20477,
    "Ġsamuel": 10036,
    "Ġcontextual": 3744,
    "Ġbenjam": 22895,
    "Ġharpooning": 23983,
    "wra": 11544,
    "Ġexploit": 19165,
    "Ġsaxon": 25470,
    "umer": 9261,
    "uteness": 17988,
    "Ġsolace": 16203,
    "widows": 25346,
    "Ġcouns": 10523,
    "offer": 19063,
    "suggest": 20380,
    "hot": 8084,
    "Ġdeaden": 23463,
    "rent": 1169,
    "fitting": 1508,
    "_.)": 7278,
    "resh": 8405,
    "Ġunlucky": 10053,
    "Ġhouses": 6140,
    "ort": 522,
    "Ġsavagely": 26325,
    "accurately": 25862,
    "Ġmotives": 7486,
    "Ġwept": 7184,
    "hypothe": 25906,
    "Ġpref": 14173,
    "Ġbrawny": 13616,
    "otence": 14025,
    "lik": 3919,
    "Ġunaccountably": 26517,
    "Ċ": 203,
    "unities": 15775,
    "Ġenough": 1763,
    "ager": 6548,
    "son": 2329,
    "Ġapologize": 15131,
    "deser": 10481,
    "quietude": 24657,
    "Ġtobacco": 8367,
    "Ġfollies": 16258,
    "dist": 4480,
    "Ġconcil": 23327,
    "Ġunhallowed": 17183,
    "ushed": 2974,
    "Ġlit": 6248,
    "Ġcells": 13887,
    "Ġhealthy": 10853,
    "Ġtearing": 14398,
    "naught": 20997,
    "Ġpioneer": 17919,
    "Ġhorizont": 6937,
    "ù": 186,
    "Ġlistened": 4469,
    "stop": 11638,
    "Ġscuttle": 7414,
    "!âĢĿâĢĶ": 8535,
    "Ġutterance": 14766,
    "wharf": 20610,
    "infliction": 25925,
    "unction": 10237,
    "Ġassembl": 20065,
    "Ġdamp": 8264,
    "Ġthinnest": 24187,
    "amplified": 26496,
    "Ġfee": 7198,
    "pale": 13774,
    "Ġskylarking": 19491,
    "igan": 21704,
    "unfort": 21881,
    "Ġexcused": 23319,
    "Ġhop": 1461,
    "Ġuniform": 2227,
    "Ġtruce": 24119,
    "Ġknives": 14839,
    "prejud": 11800,
    "Ġingrat": 16842,
    "_)": 9105,
    "Ġrequest": 6052,
    "Ġplate": 8902,
    "Ġchar": 1706,
    "ultural": 22573,
    "wandered": 20289,
    "Ġloosed": 22117,
    "Ġsiber": 17757,
    "m": 81,
    "condescended": 26250,
    "ech": 4389,
    "Ġdissol": 18553,
    "omn": 15686,
    "clusion": 16308,
    "Ġespe": 21160,
    "neighbour": 7211,
    "Ġune": 4600,
    "Ġblank": 5952,
    "Ġroughs": 19961,
    "Ġsubur": 12961,
    "istic": 986,
    "shipmates": 11932,
    "castles": 14637,
    "Ġbumpkin": 20204,
    "Ġbristling": 20531,
    "oniously": 21262,
    "Ġtoken": 2039,
    "Ġtrack": 7450,
    "Ġjuggler": 26368,
    "Ġcoloured": 11047,
    "Ġamb": 9295,
    "Ġplayfully": 19240,
    "rossing": 18650,
    ">": 34,
    "adjust": 21765,
    "shroud": 20316,
    "Ġroar": 9758,
    "Ġmour": 6974,
    "bears": 22495,
    "octavo": 11387,
    "Ġwhiting": 10861,
    "Ġmax": 2005,
    "arab": 21446,
    "Ġsight": 2112,
    "luding": 6703,
    "drawing": 10489,
    "Ġ91": 24591,
    "amp": 2605,
    "near": 5843,
    "Ġaccounted": 10298,
    "Ġmaxim": 3085,
    "Ġheroic": 14910,
    "Ġflatt": 16249,
    "Ġrelative": 11887,
    "Ġamiable": 4268,
    "Ġexhibiting": 19842,
    "Ġurged": 6782,
    "Ġgrazed": 15837,
    "Ġfobbing": 26443,
    "feit": 16046,
    "snowy": 20287,
    "regularly": 13211,
    "cription": 20821,
    "volutions": 16325,
    "Ġstake": 14005,
    "Ġrealise": 16340,
    "everybody": 8614,
    "aments": 12729,
    "Ġdrugg": 17122,
    "Ġpersecutor": 26097,
    "Ġcharmingly": 24225,
    "Ġcalmly": 7734,
    "Ġmorocco": 26575,
    "Ġmazes": 25941,
    "Ġhertfordshire": 5377,
    "iles": 2862,
    "ensions": 14260,
    "Ġstim": 18066,
    "oubtedly": 6943,
    ".âĢĿ": 464,
    "adie": 18091,
    "Ġtickets": 17095,
    "Ġbengal": 18787,
    "Ġspas": 10924,
    "Ġfaintest": 24571,
    "Ġexplo": 2288,
    "Ġundulating": 19521,
    "whaleman": 23439,
    "stretched": 10210,
    "Ġauto": 23304,
    "Ġbridal": 14956,
    "app": 1040,
    "Ġcoaxing": 18596,
    "Ġchin": 4892,
    "Ġfeel": 1261,
    "gunpowder": 25341,
    "Ġappet": 9733,
    "drive": 8686,
    "afforded": 25866,
    "lording": 24056,
    "jets": 20931,
    "Ġcalifornian": 25853,
    "Ġinspector": 6499,
    "Ġethere": 23955,
    "destruction": 11257,
    "tell": 1379,
    "cle": 3958,
    "successful": 11360,
    "mered": 8218,
    "Ġpomp": 12626,
    "mastod": 23978,
    "Ġoverboard": 6046,
    "recollection": 25350,
    "Ġfollows": 7673,
    "steaks": 23965,
    "without": 4848,
    "used": 3261,
    "hold": 3983,
    "strom": 15688,
    "Ġvastly": 23864,
    "Ġcondescending": 24870,
    "Ġpartiality": 9401,
    "Ġpredicting": 2416,
    "omination": 21647,
    "imming": 9690,
    "Ġvoracity": 25987,
    "ortment": 22262,
    "sterdam": 19092,
    "vens": 21117,
    "boilers": 26298,
    "Ġrise": 5637,
    "pire": 9138,
    "Ġfrosts": 19806,
    "stands": 22435,
    "supportable": 12374,
    "Ġresent": 6050,
    "Ġcringing": 25942,
    "moreover": 12973,
    "Ġtransported": 11281,
    "Ġwester": 25157,
    "sighted": 19789,
    "Ġindulged": 13420,
    "itching": 21340,
    "Ġreminded": 10002,
    "Ġadduced": 26526,
    "Ġwails": 21301,
    "Ġgetting": 4067,
    "obtain": 23097,
    "inders": 15989,
    "oric": 21401,
    "Ġdawn": 6817,
    "Ġlazarus": 15030,
    "Ġcasual": 11411,
    "congenial": 25401,
    "Ġinvested": 7279,
    "Ġmild": 4147,
    "ullo": 12733,
    "Ġsomebody": 7912,
    "mortals": 25411,
    "Ġeggs": 12346,
    "Ġvengeful": 14892,
    "arse": 7161,
    "Ġlux": 8818,
    "Ġpipes": 9848,
    "nay": 7137,
    "Ġsuperst": 7704,
    "oud": 1942,
    "Ġwallowed": 24048,
    "Ġcrags": 23530,
    "omit": 13976,
    "fro": 8736,
    "passed": 8026,
    "fingers": 17373,
    "Ġdollar": 25285,
    "urned": 9309,
    "Ġgardens": 16453,
    "mble": 1406,
    "izabeth": 908,
    "cabinet": 25081,
    "Ġetc": 7086,
    "Ġfring": 11129,
    "Ġsalary": 13297,
    "Ġabutted": 22280,
    "clopÃ¦": 13060,
    "icle": 10836,
    "Ġfinery": 23129,
    "Ġjune": 10291,
    "Ġpreviously": 3923,
    "hatch": 15367,
    "Ġinterpreter": 23218,
    "Ġtravelling": 11309,
    "Ġgrotes": 19567,
    "'re": 12432,
    "Ġspoutings": 14677,
    "deserving": 17248,
    "Ġstationary": 19698,
    "umn": 5836,
    "bishop": 13697,
    "Ġviciss": 11294,
    "Ġpatagonia": 25859,
    "inquir": 9539,
    "Ġwafted": 14499,
    "Ġjingling": 26018,
    "Ġowen": 15097,
    "Ġthan": 736,
    "felt": 5890,
    "Ġnumer": 3641,
    "Ġassuring": 13068,
    "expedition": 26079,
    "laz": 15388,
    "Ġscenes": 5730,
    "Ġpurchases": 24756,
    "Ġafric": 8909,
    "Ġhunts": 23162,
    "ves": 696,
    "umnal": 18302,
    "closed": 23158,
    "ifers": 15786,
    "sailing": 14716,
    "Ġlung": 7168,
    "scene": 14422,
    "Ġtrailing": 23082,
    "binary": 20787,
    "stache": 15694,
    "'m": 9585,
    "confirmation": 26090,
    "Ġspecially": 12002,
    "holland": 24047,
    "Ġbridge": 8349,
    "Ġgenerally": 4158,
    "Ġentirely": 3436,
    "Ġtwice": 4663,
    "ten": 1554,
    "imodal": 17450,
    "Ġdesperado": 19823,
    "Ġjudging": 16597,
    "unching": 18162,
    "Ġcomple": 2841,
    "studied": 17152,
    "eteenth": 20161,
    "shire": 3023,
    "Ġoffered": 5817,
    "Ġgospel": 18003,
    "Ġhieroglyphic": 25589,
    "Ġfault": 5702,
    "decoder": 3647,
    "Ġpleasant": 4170,
    "Ġsystem": 574,
    "ondescript": 22920,
    "possession": 12226,
    "Ġreliability": 22886,
    "kitchen": 17587,
    "Ġretiring": 16284,
    "sign": 8388,
    "Ġmutters": 23960,
    "feather": 16047,
    "hem": 6666,
    "unbounded": 21890,
    "Ġderanged": 23178,
    "erman": 5108,
    "Ġmart": 10781,
    "constantinople": 25509,
    "Ġslumbers": 18945,
    "Ġdetermination": 9822,
    "Ġrejoicing": 13424,
    "Ġinformation": 1047,
    "Ġyou": 366,
    "merely": 16138,
    "training": 2517,
    "certainly": 5340,
    "arming": 8954,
    "Ġpaw": 12624,
    "whence": 23219,
    "Ġfob": 21414,
    "Ġkneel": 14809,
    "Ġsystems": 819,
    "fl": 3602,
    "Ġminimizes": 2047,
    "Ġbowditch": 19326,
    "Ġsleep": 2401,
    "ativeness": 15524,
    "Ġconceits": 19394,
    "mature": 20970,
    "ac": 740,
    "Ġdarkened": 16435,
    "Ġachieves": 4379,
    "ader": 14014,
    "Ġintruding": 21996,
    "omeness": 18018,
    "Ġflowery": 16239,
    "Ġaries": 21202,
    "Ġanalysis": 1832,
    "tattoo": 21092,
    "ugues": 19026,
    "Ġsentence": 6189,
    "Ġrobins": 16276,
    "Ġvariation": 22669,
    "Ġconcealment": 16916,
    "Ġquench": 22425,
    "======================================================================": 10071,
    "ov": 15402,
    "Ġseethe": 21968,
    "Ġearls": 18906,
    "Ġtrifles": 16953,
    "Ġrides": 21979,
    "exam": 10978,
    "Ġstrides": 22621,
    "Ġcompat": 2941,
    "Ġmixing": 24938,
    "Ġalike": 8147,
    "Ġlou": 6822,
    "Ġsay": 933,
    "Ġantiquity": 15233,
    "Ġupdate": 2464,
    "Ġcombines": 1183,
    "Ġgoal": 10305,
    "ode": 1452,
    "Ġskylight": 24078,
    "Ġleaking": 21751,
    "Ġcontrary": 5261,
    "Ġspoke": 2746,
    "Ġfacilitate": 26099,
    "Ġswearing": 16466,
    "enary": 12555,
    "Ġlieu": 19568,
    "Ġexec": 19496,
    "poor": 6062,
    "Ġswords": 19900,
    "Ġbennets": 9809,
    "Ġhollowly": 24527,
    "Ġtok": 1246,
    "iftings": 23230,
    "deliberated": 26119,
    "smart": 23911,
    "reserve": 17767,
    "Ġbenevol": 5963,
    "Ġstigma": 25792,
    "Ġwardrobe": 17228,
    "expected": 5780,
    "vius": 23545,
    "Ġsplashed": 23752,
    "ration": 2003,
    "culiarity": 11143,
    "Ġissue": 2312,
    "venison": 22632,
    "Ġpurse": 12015,
    "scor": 13024,
    "Ġprojecting": 9988,
    "ancient": 9658,
    "Ġgust": 21602,
    "Ġblameless": 19862,
    "skylight": 25624,
    "Ġloved": 4601,
    "awing": 18918,
    "Ġver": 3394,
    "consequential": 26251,
    "Ġsupper": 4667,
    "beauty": 20108,
    "visits": 24227,
    "Ġmythologies": 26215,
    "Ġbewitching": 25977,
    "Ġquadru": 16013,
    "caused": 25521,
    "return": 5489,
    "Ġstarboard": 7605,
    "equ": 6791,
    "looked": 6084,
    "Ġmutinous": 23962,
    "Ġdiminish": 14748,
    "Ġelusive": 22651,
    "Ġexile": 12721,
    "Ġominous": 12428,
    "âĢĶâĢľ": 2973,
    "ivia": 22081,
    "ectual": 21920,
    "Ġcot": 13879,
    "Ġteased": 18807,
    "Ġdined": 9179,
    "Ġembalmed": 13659,
    "sometimes": 5973,
    "Ġpred": 657,
    "readily": 19366,
    "errand": 22914,
    "Ġsolic": 7933,
    "Ġconclude": 8584,
    "Ġpom": 21456,
    "swiss": 24259,
    "sensible": 20056,
    "Ġtie": 10752,
    "Ġcompasses": 11269,
    "Ġcheetah": 14504,
    "Ġwhirl": 13452,
    "Ġlassitude": 20591,
    "god": 4864,
    "Ġfritters": 23260,
    "only": 3309,
    "Ġharpo": 1943,
    "Ġvii": 13112,
    "Ġcabs": 23643,
    "Ġwarp": 8113,
    "Ġtraversed": 18895,
    "!--": 10680,
    "Ġpalmy": 19503,
    "Ġstack": 21739,
    "Ġuncertain": 4069,
    "Ġaccomp": 4714,
    "Ġsociety": 3979,
    "coo": 11172,
    "Ġstamped": 13529,
    "Ġdisgrace": 7215,
    "Ġforward": 1840,
    "malice": 17605,
    "although": 8810,
    "sur": 4523,
    "Ġeucl": 24709,
    "Ġornam": 15868,
    "Ġfretfulness": 25450,
    "Ġdiscomp": 11870,
    "marry": 13327,
    "Ġtheoretically": 3568,
    "gast": 20874,
    "sery": 17663,
    "Ġragged": 11848,
    "happen": 19334,
    "Ġinterpretation": 19720,
    "Ġinexorable": 12260,
    "Ġcus": 21348,
    "loaded": 22516,
    "widely": 25345,
    "toes": 22569,
    "Ġsnarled": 25715,
    "Ġdepartments": 24246,
    "avish": 22598,
    "Ġgenerating": 12857,
    "bermaid": 20793,
    "sleeping": 13457,
    "Ġmysteriously": 24603,
    "ven": 779,
    "where": 2092,
    "inkers": 22617,
    "fab": 13718,
    "icher": 9205,
    "tout": 21070,
    "Ġeddy": 13549,
    "Ġarrangement": 2657,
    "Ġmacy": 19359,
    "handed": 7482,
    "Ġlast": 1125,
    "Ġobst": 6286,
    "gloomy": 25148,
    "Ġstepped": 7053,
    "26": 10076,
    "reproof": 25434,
    "merry": 16538,
    "Ġvideos": 13609,
    "Ġcrews": 8993,
    "Ġimpetus": 25571,
    "Ġstamp": 7864,
    "Ġfavoured": 16364,
    "Ġbattering": 13903,
    "Ġaccused": 8510,
    "gen": 6504,
    "acquired": 24299,
    "Ġfors": 21777,
    "christmas": 20259,
    "Ġdecay": 1011,
    "Ġunnatural": 7190,
    "Ġarter": 22205,
    "Ġloosened": 26003,
    "to": 713,
    "Ġcultivation": 17148,
    "Ġclasped": 17209,
    "Ġslices": 23169,
    "Ġjealously": 24128,
    "Ġcalf": 16270,
    "remediable": 26296,
    "desired": 9008,
    "ver": 331,
    "Ġassociated": 12254,
    "bitious": 16672,
    "Ġunion": 6839,
    "cloth": 11941,
    "Ġrebounds": 25968,
    "Ġexample": 5096,
    "Ġledge": 19405,
    "Ġhose": 12631,
    "isted": 3299,
    "Ġgrie": 3585,
    "Ġlost": 2634,
    "summon": 23419,
    "eluded": 21580,
    "Ġcharley": 19009,
    "either": 6792,
    "produ": 10722,
    "dis": 2253,
    "Ġbeware": 8832,
    "ign": 1704,
    "Ġindelible": 25695,
    "Ġcaptains": 7457,
    "soldiers": 25912,
    "Ġeavesdroppers": 25964,
    "Ġruled": 22788,
    "remaining": 20224,
    "shooting": 16967,
    "Ġkind": 1788,
    "Ġfattened": 25950,
    "Đ": 209,
    "Ġrev": 6989,
    "shud": 18492,
    "given": 8377,
    "Ġflow": 1241,
    "Ġreneg": 21680,
    "bottom": 11428,
    "Ġfancy": 3747,
    "joice": 9605,
    "Ġformidable": 8220,
    "Ġposit": 1305,
    "dance": 17521,
    "eral": 9162,
    "Ġrenew": 6147,
    "Ġmornings": 16241,
    "ceptive": 15972,
    "Ġlabrador": 23335,
    "bern": 20778,
    "uble": 21107,
    "cheeks": 23811,
    "Ġ57": 24322,
    "winds": 10524,
    "Ġphantom": 8710,
    "ĠĠĠĠĠĠĠĠĠĠĠĠĠĠĠĠĠĠĠĠĠĠĠĠĠĠĠĠĠĠĠĠĠĠĠ": 19261,
    "mology": 12496,
    "Ġprize": 11952,
    "Ġflitting": 13030,
    "Ġencomp": 12967,
    "Ġconceived": 8150,
    "]": 65,
    "Ġtattoo": 7359,
    ";âĢĿ": 7791,
    "Ġpostponed": 20394,
    "isson": 23464,
    "Ġgritted": 22809,
    "pond": 21016,
    "Ġillinois": 19139,
    "hospit": 25904,
    "tained": 4406,
    "Ġsolid": 6444,
    "ĠĠĠĠĠĠĠĠĠĠĠĠĠĠĠĠĠĠĠĠĠĠĠĠĠĠĠĠĠĠĠĠ": 2737,
    "Ġbegin": 3098,
    "ically": 836,
    "Ġsmacking": 20169,
    "Ġarrang": 2469,
    "burnt": 20084,
    "Ġabominably": 20070,
    "ath": 862,
    "Ġhis": 380,
    "Ġpredecess": 18509,
    "Ġconscience": 6929,
    "Ġknitting": 24222,
    "Ġpolite": 9885,
    "birds": 15147,
    "Ġrapidity": 11102,
    "Ġhumorously": 18783,
    "Ġwrenching": 17326,
    "Ġalpha": 13591,
    "Ġimagination": 5759,
    "emporary": 15801,
    "Ġremonstrate": 22798,
    "Ġestim": 3349,
    "jep": 20929,
    "Ġmenaces": 23110,
    "trouble": 8296,
    "Ġborrow": 10173,
    "Ġbrine": 18772,
    "Ġimmersed": 19489,
    "fatality": 25023,
    "Ġstrangled": 24137,
    "Ġ(`": 12860,
    "Ġunreasonable": 12781,
    "Ġinjured": 9042,
    "bulk": 19927,
    "Ġanalog": 12616,
    "opposition": 24821,
    "Ġirrevoc": 15040,
    "Ġdeity": 18138,
    "Ġpiling": 17911,
    "Ġrapidly": 3118,
    "Ġheaviest": 23330,
    "Ġforgiveness": 16659,
    "Ġlaughter": 9030,
    "Ġeyes": 1334,
    "paddington": 20482,
    "fun": 4037,
    "caut": 20815,
    "Ġunlikely": 10910,
    "Ġencouraged": 9358,
    "temper": 10007,
    "brew": 11475,
    "Ġsuits": 22088,
    "Ġchamois": 16802,
    "supplementary": 20553,
    "Ġcrimson": 16439,
    "bur": 4688,
    "itories": 15553,
    "est": 498,
    "Ġcrossed": 6070,
    "you": 1004,
    "expound": 23663,
    "creature": 5347,
    "Ġ104": 24413,
    "crowded": 20194,
    "fourth": 11330,
    "stove": 21657,
    "Ġugliness": 20431,
    "proved": 11991,
    "Ġhastily": 5763,
    "Ġears": 4491,
    "Ġor": 437,
    "Ġspend": 5306,
    "Ġseasonable": 24407,
    "Ġheath": 15706,
    "despatched": 19805,
    "Ġassaults": 15159,
    "Ġwakeful": 24270,
    "Ġapp": 493,
    "Ġdisregard": 22533,
    "Ġgleams": 17313,
    "Ġchag": 15935,
    "Ġaffectionate": 5585,
    "Ġoverpowering": 15252,
    "Ġpoltroon": 26600,
    "Ġconsent": 5372,
    "Ġmassive": 9935,
    "Ġlamb": 8817,
    "age": 504,
    "ermost": 7430,
    "ezes": 9994,
    "Ġcommanders": 23872,
    "Ġunlimited": 26224,
    "supplied": 10522,
    "Ġdisposal": 19380,
    "Ġscoresby": 10463,
    "meat": 18676,
    "didn": 9010,
    "berg": 11866,
    "Ġhonorable": 16878,
    "Ġiroqu": 21624,
    ",--âĢľ": 19199,
    "Ġnone": 3224,
    "pleasanter": 24053,
    "Ġsherry": 19455,
    "eff": 2535,
    "got": 6955,
    "Ġserpents": 13080,
    "Ġsubt": 11872,
    "Ġreduce": 7943,
    "Ġfake": 5811,
    "Ġtri": 4814,
    "Ġvital": 9246,
    "Ġforenoon": 19128,
    "Ġchurches": 12832,
    "Ġavowal": 19419,
    "Ġperplexity": 2754,
    "Ġbumpkins": 25283,
    "sentimental": 25682,
    "ood": 962,
    "produced": 25416,
    "Ġtruest": 16702,
    "Ġlearnt": 7614,
    "ils": 3182,
    "etics": 21586,
    "iple": 4807,
    "Ġincreased": 2213,
    "Ġfactor": 19016,
    "Ġvig": 5460,
    "Ġvintage": 26211,
    "arrangement": 17418,
    "Ġhyena": 24520,
    "ĠcÃ¦": 15559,
    "pre": 648,
    "Ġrestore": 9383,
    "Ġstave": 11654,
    "Ġconfid": 7687,
    "Ġaffectionately": 13171,
    "Ġhowl": 12861,
    "Ġlabor": 10420,
    "Ġgreatest": 4093,
    "Ġsounding": 8265,
    "farm": 15354,
    "Ġaccording": 5508,
    "Ġexploring": 4303,
    "Ġsprawling": 22144,
    "Ġfactory": 23280,
    "ually": 2769,
    "Ġcapsizing": 20093,
    "Ġserenely": 13509,
    "ve": 322,
    "Ġdoubted": 7965,
    "Ġolder": 9330,
    "Ġgraze": 18228,
    "caves": 20819,
    "succeed": 10331,
    "nearest": 16026,
    "Ġshipmates": 6722,
    "unwho": 21882,
    "Ġfoam": 6891,
    "Ġpolluted": 25595,
    "Ġmales": 17807,
    "¡": 99,
    "Ġmight": 963,
    "Ġtypically": 1533,
    "Ġviolence": 5964,
    "Ġstall": 12700,
    "pherd": 13647,
    "azed": 9402,
    "iest": 4038,
    "presum": 12872,
    "Ġsauce": 15894,
    "gg": 1994,
    "fifty": 12356,
    "kshire": 13748,
    "vint": 21119,
    "Ġauger": 21208,
    "Ġstagnant": 24656,
    "Ġhun": 1496,
    "inn": 5364,
    "Ġfires": 16473,
    "Ġpot": 2993,
    "strugg": 21667,
    "Ġaccomplished": 7106,
    "Ġelemental": 19922,
    "Ġprecipices": 12282,
    "Ġpurplish": 19143,
    "Ġbohemian": 17136,
    "Ġadvert": 10574,
    "Ġirreduc": 5491,
    "ellest": 21579,
    "Ġfebruary": 15917,
    "chie": 21695,
    "Ġbat": 10797,
    "Ġcolonies": 14377,
    "science": 11913,
    "Ġbrown": 6300,
    "afterwards": 7484,
    "unctions": 18159,
    "Ġwhereon": 16105,
    "Ġquery": 2479,
    "Ġ109": 24417,
    "bad": 12440,
    "Ġtrifling": 10605,
    "ww": 10739,
    "Ġstress": 18069,
    "Ġabhorrence": 9055,
    "forgotten": 12420,
    "Ġthomson": 26456,
    "Ġprescribed": 26011,
    "monster": 8595,
    "foremost": 14254,
    "outward": 22165,
    "Ġleadenhall": 16631,
    "palms": 25264,
    "Ġtwist": 11855,
    "Ġnarwhales": 24904,
    "Ġcompleted": 8999,
    "orphans": 26442,
    "Ġrecol": 4031,
    "Ġsplit": 7993,
    "etch": 9207,
    "Ġsluggishly": 25892,
    "lig": 3172,
    "clu": 20802,
    "Ġwaited": 4909,
    "rably": 21638,
    "reas": 987,
    "Ġfriend": 1295,
    "accessory": 25501,
    "inching": 21194,
    "Ġexploding": 2110,
    "Ġgodly": 19083,
    "prow": 15413,
    "Ġfundament": 2928,
    "Ġbaked": 21391,
    "Ġplague": 11828,
    "arks": 2845,
    "Ġpulley": 2979,
    "relative": 24017,
    "Ġrelinquish": 17350,
    "Ġplainpalais": 20740,
    "ullied": 23108,
    "Ġreading": 5114,
    "Ġmate": 3709,
    "Ġtransform": 747,
    "Ġsafie": 6620,
    "Ġwants": 5742,
    "Ġomniscient": 20090,
    "superiority": 20189,
    "Ġwarming": 23561,
    "possible": 5743,
    "Ġdorm": 4823,
    "riot": 18184,
    "Ġcouples": 16854,
    "Ġtranqu": 4607,
    "Ġlye": 21556,
    "Ġunnaturally": 24872,
    "Ġexpans": 18624,
    "ruined": 18339,
    "Ġherself": 1564,
    "glim": 19369,
    "Ġwe": 386,
    "âĢĿ--": 21818,
    "Ġlazy": 17051,
    "Ġ116": 24441,
    "Ġrustling": 24715,
    "pest": 6965,
    "suspicious": 25392,
    "neglected": 25670,
    "Ġperforming": 7928,
    "Ġpoison": 7219,
    "Ġhumming": 12990,
    "Ġdiscreet": 16483,
    "Ġmatter": 1734,
    "Ġmassachusetts": 24026,
    "lives": 12490,
    "Ġlug": 15656,
    "Ġoutrageous": 20614,
    "buff": 15321,
    "izarre": 17392,
    "Ġ131": 24782,
    "Ġhandwriting": 14321,
    "left": 6976,
    "plifted": 9713,
    "ring": 1752,
    "richard": 17289,
    "Ġforeb": 12008,
    "Ġmusket": 12300,
    "pipe": 8700,
    "stem": 569,
    "Ġoppressive": 20459,
    "arpening": 21448,
    "Ġcompiled": 22575,
    "Ġunobstructed": 18266,
    "ilib": 4117,
    "Ġwhims": 12696,
    "Ġspangled": 22140,
    "Ġvault": 8845,
    "Ġpython": 1065,
    "Ġsunbeam": 23279,
    "utting": 17987,
    "Ġwindow": 3000,
    "Ġspectacles": 12102,
    "Ġramad": 8530,
    "Ġcoopers": 20526,
    "Ġsparsity": 4207,
    "_âĢĶâĢĻ": 13685,
    "pens": 17634,
    "Ġtemptations": 24509,
    "dissatisfied": 26614,
    "ns": 750,
    "tack": 12516,
    "||": 4870,
    "Ġsolve": 4196,
    "marest": 20983,
    "ationally": 15709,
    "joint": 24013,
    "Ġjump": 4504,
    "Ġbrains": 2628,
    "Ġfailure": 13318,
    "Ġricher": 12763,
    "my": 1315,
    "eed": 20844,
    "Ġunwarrant": 19937,
    "bitt": 17488,
    "Ġindulgence": 11321,
    "```": 25894,
    "Ġflat": 8228,
    "Ġdaugh": 2295,
    "Ġxxii": 24479,
    "surv": 24217,
    "Ġvinegar": 20104,
    "enty": 2918,
    "tumultuously": 25615,
    "una": 21874,
    "iability": 20923,
    "Ġbefallen": 12347,
    "Ġboa": 22640,
    "Ġsoftness": 18920,
    "spirit": 11315,
    "stuff": 15692,
    "Ġrubbed": 12959,
    "Ġtap": 12530,
    "Ġmurder": 4279,
    "Ġsphy": 18313,
    "aced": 2408,
    "Ġbalmoral": 16210,
    "Ġcorruption": 15228,
    "resides": 23672,
    "Ġsped": 22130,
    "presume": 25671,
    "secondly": 16986,
    "Ġben": 1110,
    "robustness": 26340,
    "Ġpoorly": 9858,
    "Ġmoby": 3667,
    "skirted": 24490,
    "encouragement": 17426,
    "Ġnorthward": 13325,
    "Ġendurance": 23140,
    "indisc": 22379,
    "give": 4690,
    "Ġfleets": 23778,
    "Ġbarbar": 6935,
    "Ġglobal": 2371,
    "hatches": 19931,
    "Ġskilfully": 20528,
    "Ġretains": 20034,
    "underneath": 23792,
    "Ġstables": 23657,
    "Ġconven": 6153,
    "Ġsource": 6806,
    "Ġdomin": 10470,
    "sit": 13782,
    "verdict": 21735,
    "mightily": 24107,
    "Ġvol": 4189,
    "Ġ20": 8617,
    "Ġwisdom": 11235,
    "uses": 11765,
    "Ġmounted": 7832,
    "mists": 17606,
    "aphs": 22341,
    "_?âĢĿ": 15308,
    "Ġasp": 15785,
    "ateg": 1363,
    "practical": 17224,
    "Ġimbalanced": 18335,
    "Ġner": 1646,
    "Ġmans": 15540,
    "anzas": 17842,
    "ojo": 7349,
    "Ġforthwith": 16620,
    "Ġrascally": 26509,
    "Ġbeloved": 5572,
    "Ġdreamed": 16632,
    "awned": 19464,
    "Ġbourgh": 5069,
    "Ġlip": 6534,
    "Ġmask": 1868,
    "Ġstoner": 7179,
    "ething": 1598,
    "afflicted": 23782,
    "ermaid": 14298,
    "Ġfrocks": 23927,
    "lude": 6163,
    "Ġsays": 3563,
    "Ġpictures": 5503,
    "Ġvapory": 17008,
    "cries": 17513,
    "Ġinducement": 16845,
    "Ġexercised": 24801,
    "Ġexpecting": 10438,
    "Ġimper": 4502,
    "amusement": 15285,
    "oin": 17619,
    "Ġtusk": 25427,
    "oblivious": 26584,
    "cour": 4479,
    "ructure": 761,
    "aternity": 21270,
    "Ġhare": 5157,
    "journey": 8748,
    "Ġstaple": 26200,
    "hip": 8744,
    "causing": 25520,
    "affairs": 14657,
    "Ġroasted": 18468,
    "Ġtorrid": 25036,
    "Ġatlantic": 7001,
    "Ġsmitten": 12903,
    "splice": 17173,
    "uring": 818,
    "Ġdest": 2239,
    "Ġloo": 22115,
    "Ġfra": 1754,
    "bethink": 25745,
    "mpus": 13759,
    "upid": 6583,
    "educ": 10830,
    "Ġgreek": 10633,
    "<UNK>": 3,
    "Ġarrangements": 16517,
    "Ġchoking": 15938,
    "enter": 7858,
    "presbyterian": 26370,
    "Ġattained": 14080,
    "ą": 198,
    "rium": 3132,
    "Ġexplained": 5937,
    "Ġwhose": 2007,
    "Ġassembled": 9239,
    "Ġstra": 2994,
    "Ġsemicircular": 26069,
    "beat": 10988,
    "eer": 15350,
    "othic": 16219,
    "Ġliberally": 16832,
    "Ġmakest": 25437,
    "Ġstores": 18071,
    "Ġsweeping": 8988,
    "Ġpursuits": 12081,
    "ula": 2825,
    "matters": 14876,
    "bling": 10685,
    "Ġriv": 10748,
    "Ġlob": 7628,
    "Ġbriskly": 25313,
    "ouement": 21453,
    "Ġargu": 10937,
    "Ġmutilated": 23963,
    "Ġrisen": 9496,
    "Ġunass": 14116,
    "ributed": 8215,
    "Ġblankets": 24613,
    "ivory": 10271,
    "farintosh": 24554,
    "Ġinstructive": 19289,
    "Ġrapt": 7226,
    "gently": 13731,
    "Ġlecture": 13570,
    "Ġpardon": 5727,
    "Ġlaws": 8003,
    "Ġheed": 5630,
    "800": 17479,
    "Ġseparate": 5778,
    "Ġspasmodic": 20402,
    "Ġardu": 22206,
    "Ġdecisions": 6704,
    "Ġsecretly": 13275,
    "Ġvisage": 18775,
    "Ġdisclosed": 15156,
    "hing": 978,
    "Ġfren": 10807,
    "Ġincess": 8432,
    "hil": 8379,
    "eers": 20846,
    "Ġshrugged": 12773,
    "Ġstilly": 25974,
    "greek": 25406,
    "westward": 25426,
    "Ġsatirical": 26281,
    "Ġtranquillity": 7536,
    "Ġgnashed": 20137,
    "acy": 3957,
    "iogn": 20924,
    "Ġtipped": 17730,
    "Ġvib": 8165,
    "screaming": 20329,
    "Ġticklish": 25038,
    "Ġunexpected": 6841,
    "Ġseating": 18203,
    "omely": 21644,
    "Ġpreserved": 9265,
    "harpooneer": 8692,
    "Ġdetached": 10282,
    "know": 2319,
    "Ġroving": 22411,
    "Ġdiscerned": 25007,
    "entions": 17977,
    "Ġlizzy": 3548,
    "Ġavowed": 16636,
    "tashtego": 9625,
    "compassion": 12372,
    "Ġmccarthys": 19666,
    "Ġthinker": 22813,
    "Ġspleen": 26423,
    "Ġdelighted": 5499,
    "Ġapply": 1780,
    "lect": 1224,
    "luc": 9757,
    "Ġarmy": 11748,
    "Ġfamiliarly": 11305,
    "Ġanimate": 23426,
    "epilogue": 22108,
    "Ġpaws": 13923,
    "Ġforeboding": 20388,
    "arius": 14250,
    "Ġlimber": 16480,
    "mantel": 26396,
    "Ġnote": 4262,
    "Ġsnoring": 23744,
    "erland": 9643,
    "ocity": 8278,
    "ibbald": 18845,
    "twelvemonth": 25863,
    "Ġsurplus": 26304,
    "Ġsalutation": 12401,
    "Ġparamount": 15882,
    "Ġcomplaisance": 19453,
    "grant": 10429,
    "Ġdoubting": 13104,
    "Ġpersonality": 16478,
    "Ġpathetic": 19033,
    "Ġcontraction": 15981,
    "oll": 5456,
    "Ġthirt": 13941,
    "Ġinexperience": 26100,
    "Ġwondered": 11127,
    "orph": 21404,
    "Ġfragmentary": 25857,
    "Ġmak": 10780,
    "ascar": 8436,
    "cham": 10855,
    "Ġdashing": 8800,
    "ville": 6088,
    "pth": 2382,
    "being": 3917,
    "roqu": 21539,
    "acted": 11012,
    "Ġearlier": 9090,
    "pressed": 6590,
    "Ġcrime": 4618,
    "Ġthr": 5709,
    "ibles": 18789,
    "gay": 11491,
    "Ġweeks": 4565,
    "olds": 9314,
    "paralleled": 14517,
    "Ġhonour": 3926,
    "Ġfling": 9663,
    "reject": 21241,
    "Ġoverlook": 10963,
    "Ġwhirling": 12253,
    "breathing": 25337,
    "adders": 24401,
    "Ġthings": 1962,
    "draughts": 20392,
    "Ġdine": 7366,
    "Ġspin": 7630,
    "Ġ43": 14772,
    "sius": 13790,
    "Á": 130,
    "Ġdemands": 19642,
    "Ġenemies": 9041,
    "Ġboards": 14303,
    "levelled": 23646,
    "Ġechoed": 20428,
    "Ġpassions": 7930,
    "awn": 3838,
    "Ġbeaver": 18088,
    "Ġisn": 7866,
    "Ġperfections": 23611,
    "going": 6315,
    "Ġrate": 1061,
    "Ġguiltless": 16942,
    "fered": 5560,
    "Ġdollars": 11457,
    "Ġdiscussing": 5202,
    "Ġstripping": 23697,
    "Ġbound": 3521,
    "Ġing": 5284,
    "rs": 7807,
    "Ġjourneys": 19479,
    "Ġpand": 21459,
    "Ġempire": 11147,
    "Ġoverwhelming": 17103,
    "Ġalleviated": 26205,
    "Ġdoubtful": 19144,
    "Ġaffl": 14388,
    "Ġunderwent": 23241,
    "akes": 2220,
    "rece": 21239,
    "Ġrevolt": 24505,
    "Ġmarbank": 23040,
    "flying": 13723,
    "Ġintrodu": 1925,
    "Ġdreaminess": 23944,
    "Ġsutherland": 10151,
    "sir": 5001,
    "Ġunconscious": 9550,
    "Ġimpatient": 5603,
    "Ġdevotees": 25378,
    "keeping": 8638,
    "Ġlodge": 5779,
    "Ġdisconsolate": 20722,
    "Ġobedient": 20109,
    "gy": 2098,
    "ifference": 5632,
    "Ġain": 6970,
    "idity": 8835,
    "Ġaint": 17746,
    "Ġtints": 17729,
    "frankenstein": 11393,
    "oop": 10717,
    "unctuous": 21887,
    "Ġberm": 21388,
    "Ġdistantly": 18533,
    "bene": 6114,
    "succeeded": 15178,
    "Åĵ": 10746,
    "Ġdescried": 7919,
    "Ġsubdued": 11035,
    "occ": 4484,
    "Ġlooked": 1805,
    "Ġwhite": 1535,
    "witness": 10038,
    "ifled": 14065,
    "belongs": 25598,
    "Ġpeddling": 21486,
    "straight": 9943,
    "wic": 21125,
    "raise": 18014,
    "prison": 14664,
    "cated": 20806,
    "Ġthom": 21521,
    "seamen": 13629,
    "Ġdi": 6526,
    "sworn": 24260,
    "Ġcomply": 8894,
    "human": 7090,
    "Ġpupella": 20426,
    "Ġretrogress": 23076,
    "Ġincrease": 9373,
    "aster": 1869,
    "jane": 4482,
    "mixed": 17607,
    "silent": 9977,
    "ung": 2744,
    "posture": 16929,
    "Ġdim": 4758,
    "Ġbargain": 23796,
    "buck": 17493,
    "Ġcaged": 21357,
    "Ġcategories": 4477,
    "Ġseventh": 18208,
    "Ġresemblance": 7974,
    "Ġwaggish": 25436,
    "eng": 1487,
    "Ġturk": 6605,
    "Ġcleat": 18950,
    "kindred": 24055,
    "Ġpreliminaries": 25178,
    "Ġalert": 18104,
    "page": 13773,
    "Ġspilling": 22142,
    "Ġactions": 6280,
    "Ġadequate": 20312,
    "addition": 13387,
    "ash": 1990,
    "Ġancho": 15607,
    "Ġinquirers": 24966,
    "conject": 8884,
    "Ġ184": 16609,
    "Ġscattered": 6856,
    "Ġrevolutions": 23846,
    "iber": 6507,
    "Ġont": 18120,
    "Ġamaz": 5385,
    "Ġquaint": 18472,
    "Ġtransports": 24281,
    "Ġinsincere": 26601,
    "ai": 2526,
    "Ġne": 391,
    "Ġrespected": 11958,
    "Ġai": 3127,
    "akin": 11772,
    "Ġwholesome": 16014,
    "Ġparade": 18303,
    "Ġcomposedly": 25185,
    "deploy": 22147,
    "Ġp": 288,
    "Ġperempt": 13676,
    "Ġsacrific": 15019,
    "Ġaudacious": 13463,
    "Ġtahiti": 13622,
    "sleep": 6512,
    "Ġlot": 6680,
    "Ġbecoming": 4397,
    "Ġfrosted": 19807,
    "ate": 421,
    "Ġillustration": 19138,
    "inger": 6813,
    "Ġconfine": 14511,
    "Ġsofa": 10273,
    "Ġunobserved": 18251,
    "Ġhair": 3315,
    "Ġdiversion": 17200,
    "poured": 17639,
    "witted": 17709,
    "Ġfeasible": 22215,
    "Ġglacier": 11435,
    "Ġfunctional": 3050,
    "iors": 9128,
    "Ġparadigms": 3058,
    "Ġsleepers": 13152,
    "Ġpants": 21469,
    "solemn": 19821,
    "Ġgratify": 19507,
    "Ġmended": 21318,
    "Ġsights": 7472,
    "yd": 21147,
    "winter": 10742,
    "postp": 24636,
    "urpation": 16304,
    "benevol": 12231,
    "Ġcandidate": 16700,
    "Ġspy": 22128,
    "canst": 22967,
    "Ġpretending": 19318,
    "apers": 3484,
    "Ġastern": 6091,
    "Ġfro": 3474,
    "Ġextort": 22768,
    "Ġabst": 9269,
    "Ġdumplings": 15193,
    "pen": 1205,
    "iature": 8745,
    "Ġsteps": 2864,
    "Ġcanoe": 9726,
    "Ġottoman": 17381,
    "Ġobservant": 20114,
    "Ġunreasoning": 15849,
    "Ġvex": 5950,
    "Ġside": 1385,
    "Ġdexter": 9704,
    "Ġposs": 1616,
    "Ġunflinching": 26514,
    "Ġsorrows": 13358,
    "beaut": 8515,
    "Ġ64": 24368,
    "Ġhush": 13214,
    "Ġsleepy": 8268,
    "Ġengage": 9338,
    "Ġfunny": 7638,
    "Ġhealth": 3907,
    "Ġtangle": 25761,
    "tain": 618,
    "oce": 10716,
    "Ġmature": 17801,
    "Ġmanagement": 8193,
    "Ġfainter": 14916,
    "eminent": 25108,
    "Ġfell": 1976,
    "Ġprosper": 10231,
    "Ġsport": 6690,
    "Ġdilig": 8350,
    "Ġsatire": 22905,
    "common": 4128,
    "Ġab": 528,
    "connected": 1308,
    "Ġhumorousness": 25379,
    "Ġadditionally": 1173,
    "Ġcivilities": 14850,
    "Ġpreternatural": 12827,
    "Ġparson": 6689,
    "Ġimpress": 6862,
    "Ġproving": 15756,
    "Ġprank": 23224,
    "Ġdimmed": 24271,
    "Ġimitated": 18331,
    "inement": 11560,
    "Ġsiamese": 20487,
    "Ġleeward": 6212,
    "Ġfurnace": 19444,
    "Ġgraves": 11712,
    "language": 5129,
    "Ġsolemnly": 8023,
    "Ġstream": 5186,
    "justine": 7683,
    "Ġaugmentation": 20120,
    "returns": 23142,
    "Ġdistance": 3486,
    "poke": 18801,
    "Ġflank": 8229,
    "freighted": 14894,
    "Ġrim": 21973,
    "Ġbanners": 24860,
    "rig": 7556,
    "Ġunmanner": 22034,
    "Ġturks": 14599,
    "Ġhaste": 9006,
    "un": 373,
    "Ġdismal": 11814,
    "Ġpersian": 11086,
    "Ġranged": 10261,
    "Ġimmensities": 25332,
    "Ġvertu": 23894,
    "famous": 16918,
    "Ġneeds": 6607,
    "relations": 14735,
    "ladder": 19788,
    "pleased": 8857,
    "sized": 15431,
    "Ġassurances": 10003,
    "Ġharem": 9712,
    "Ġstupidity": 15051,
    "Ġpilgr": 12185,
    "Ġaccount": 2321,
    "contrivance": 26317,
    "Ġconsecutive": 20706,
    "innacle": 7519,
    "Ġagreeing": 20023,
    "Ġgourmand": 26468,
    "Ġabreast": 18396,
    "Ġforgery": 25978,
    "Ġsqualid": 14371,
    "Ġprefers": 20518,
    "Ġyarn": 10870,
    "Ġairs": 14512,
    "Ġirr": 10423,
    "Ġdark": 2113,
    "bos": 17486,
    "feren": 767,
    "Ġclear": 1949,
    "solitude": 23303,
    "spending": 18689,
    "usually": 10288,
    "Ġblazing": 11900,
    "intment": 4721,
    "Ġhopelessly": 16382,
    "Ġgans": 5822,
    "Ġconvolutions": 21812,
    "Ġcourage": 4635,
    "skill": 24488,
    "Ġfertile": 20587,
    "arest": 4005,
    "Ġpredefined": 20720,
    "Ġcrabs": 19177,
    "Ġindomitableness": 26573,
    "Ġsignific": 3831,
    "west": 10741,
    "Ġplates": 11008,
    "Ġphilipses": 24453,
    "modesty": 22869,
    "Ġcheat": 19024,
    "acency": 12912,
    "Ġlifting": 10199,
    "capitals": 25084,
    "ours": 3428,
    "sockets": 22726,
    "quely": 10234,
    "inferiors": 25348,
    "admit": 18093,
    "charmed": 21701,
    "lic": 17589,
    "Ġenchanting": 17040,
    "gazing": 12476,
    "ureau": 10229,
    "senses": 25026,
    "Ġglanced": 5953,
    "bed": 3493,
    "Ġeveryday": 22774,
    "Ġcommon": 1412,
    "ipp": 10105,
    "Ġeasily": 3894,
    "town": 7144,
    "anim": 6523,
    "Ġimmured": 24077,
    "Ġtraced": 10386,
    "Ġhandy": 12940,
    "Ġmathematical": 3351,
    "Ġtoy": 15638,
    "Ġhelter": 24029,
    "evade": 24818,
    "Ġmarvellous": 7538,
    "Ġsum": 2699,
    "az": 2182,
    "pening": 2831,
    "Ġgur": 21597,
    "pulous": 15418,
    "cer": 6645,
    "maintained": 25024,
    "Ġslope": 14462,
    "Ġtoss": 10187,
    "Ġbeating": 8145,
    "Ġcolony": 18768,
    "Ġoccasions": 7988,
    "Ġbeards": 21757,
    "Ġagencies": 18543,
    "arch": 1121,
    "Ġdetested": 14176,
    "ject": 875,
    "Ġcorpulence": 24510,
    "Ġguards": 16272,
    "Ġfaded": 10811,
    "Ġsanguine": 25929,
    "Ġgolden": 5337,
    "ctions": 951,
    "Ġsly": 9635,
    "Ġshift": 2285,
    "Ġsolving": 2482,
    "Ġbird": 3757,
    "entrance": 12661,
    "isc": 6241,
    "reds": 12752,
    "Ġcall": 2075,
    "Ġunappalled": 22070,
    "carefully": 13372,
    "lower": 8883,
    "nam": 2778,
    "Ġdistraction": 22510,
    "Ġbutt": 14127,
    "Ġbackward": 7655,
    "Ġwithout": 1123,
    "Ġnam": 17951,
    "Ġtattooing": 15029,
    "Ġinsignificant": 20460,
    "Ġpeaks": 16132,
    "rie": 2787,
    "Ġlump": 21557,
    "Ġsom": 1274,
    "Ġactivations": 2718,
    "Ġdoctrine": 24201,
    "Ġwishes": 4796,
    "Ġenumerating": 15247,
    "Ġshock": 6083,
    "Ġhappened": 3714,
    "smooth": 20252,
    "Ġpolic": 13164,
    "Ġreaching": 7303,
    "emone": 21932,
    "Ġade": 22105,
    "Ġprove": 5231,
    "Ġraw": 3322,
    "mons": 17602,
    "Ġwriting": 4669,
    "Ġslain": 8956,
    "Ġintru": 15831,
    "Ġappellation": 22222,
    "ds": 4689,
    "Ġshades": 9466,
    "ositions": 10286,
    "Ġup": 463,
    "Ġnaturally": 2467,
    "Ġportly": 14679,
    "Ġprodigious": 8057,
    "Ġvillain": 8639,
    "uvier": 9071,
    "ess": 412,
    "Ġblackest": 19101,
    "Ġcommentaries": 20164,
    "Ġauthent": 14509,
    "Ġrussia": 26269,
    "force": 12960,
    "fil": 12467,
    "Ġcontinent": 14890,
    "Ġfossils": 20226,
    "Ġspecks": 14310,
    "Ġwaned": 17793,
    "Ġcoils": 9306,
    "Ġfalls": 14645,
    "Ġpronounce": 16970,
    "inev": 21970,
    "Ġincorporated": 25710,
    "Ġslightly": 7293,
    "Ġpike": 12627,
    "gam": 10098,
    "Ġdefile": 18826,
    "Ġbirth": 6525,
    "Ġkick": 5838,
    "Ġsaloon": 24069,
    "inkles": 7426,
    "cul": 1901,
    "Ġundisturbed": 19523,
    "Ġtang": 13816,
    "Ġwrest": 11574,
    "upwards": 18866,
    "Ġbelf": 21386,
    "Ġate": 8844,
    "Ġrefres": 14339,
    "beer": 22493,
    "Ġfolded": 7768,
    "ceiving": 3906,
    "Ġdare": 3547,
    "fee": 12883,
    "Ġcuring": 21349,
    "Ġthread": 14540,
    "Ġbaronial": 23797,
    "conce": 8513,
    "cific": 10088,
    "Ġalley": 15740,
    "Ġdavy": 25952,
    "shot": 2186,
    "stars": 18022,
    "Ġendeavour": 4679,
    "Ġstirs": 14919,
    "Ġharbor": 10030,
    "unc": 15773,
    "Ġfragment": 14500,
    "estruct": 22226,
    "itu": 1229,
    "Ġcarrying": 6073,
    "fitted": 17546,
    "Ġsyllables": 25300,
    "Ġcru": 2822,
    "oline": 6833,
    "Ġemper": 9864,
    "Ġagain": 814,
    "ct": 309,
    "Ġcommitting": 22677,
    "Ġencountered": 8322,
    "Ġcopse": 17068,
    "Ġcleaning": 23184,
    "Ġsufficient": 2002,
    "Ġglorious": 11077,
    "condition": 7060,
    "Ġsket": 18729,
    "Ġcomprises": 22577,
    "wander": 17711,
    "encing": 21287,
    "ihood": 20925,
    "conclusions": 25673,
    "uteronomy": 15668,
    "Ġvel": 7186,
    "Ġblunder": 18821,
    "Ġwax": 10778,
    "pursu": 11394,
    "Ġattorney": 18622,
    "ered": 1687,
    "forming": 15919,
    "Ġprecip": 7076,
    "Ġolfactories": 26172,
    "Ġclearness": 23187,
    "Ġmoreover": 6165,
    "Ġportcullis": 26605,
    "Ġcorpse": 6641,
    "Ġinheritance": 25357,
    "Ġtechniques": 2868,
    "Ġreasonable": 7253,
    "almost": 4943,
    "Ġtoils": 10188,
    "Ġtides": 13823,
    "Ġcompany": 3722,
    "taining": 7210,
    "dom": 6224,
    "tried": 13796,
    "Ġintelligent": 1401,
    "Ġinquest": 16549,
    "elt": 4115,
    "bulwarks": 12277,
    "oury": 22309,
    "ushing": 5731,
    "Ġreturning": 5326,
    "ems": 5235,
    "Ġstained": 11655,
    "devoted": 20021,
    "john": 11500,
    "Ġsoaked": 15866,
    "Ġimpertinent": 9080,
    "Ġprejudices": 13472,
    "Ġindisposed": 26290,
    "zag": 17715,
    "Ġresponded": 13641,
    "Ġawake": 8272,
    "ished": 1427,
    "Ġsundry": 20078,
    "bon": 13687,
    "tar": 8098,
    "exasper": 22432,
    "whisper": 17084,
    "vit": 13803,
    "Ġinfinitely": 8966,
    "Ġfrankness": 16748,
    "onel": 3090,
    "mr": 1902,
    "Ġabsolute": 6766,
    "Ġtid": 8107,
    "somerset": 26324,
    "goose": 19104,
    "Ġweltering": 19589,
    "Ġtransparent": 9492,
    "Ġanswers": 7072,
    "Ġcanals": 22169,
    "roads": 17960,
    "inclination": 20062,
    "Ġprocessions": 18441,
    "Ġfishes": 11594,
    "Ġprominence": 18957,
    "Ġshelves": 14999,
    "Ġklan": 23662,
    "bourne": 19105,
    "Ġstaff": 14008,
    "----": 4059,
    "Ġactively": 18655,
    "Ġenlarged": 25986,
    "wail": 21130,
    "objects": 13473,
    "dropping": 14984,
    "Ġbash": 12590,
    "orified": 21407,
    "gener": 3125,
    "ners": 3273,
    "inable": 11558,
    "ober": 15408,
    "Ġgrammatical": 13541,
    "sink": 11524,
    "Ġbutton": 10270,
    "Ġcommendation": 13613,
    "Ġdiscriminator": 3392,
    "Ġunworth": 22041,
    "Ġcareless": 11121,
    "Ġinspire": 12000,
    "Ġmau": 21315,
    "simple": 13455,
    "Ġusefulness": 19412,
    "Ġprocure": 9513,
    "Ġpauses": 14817,
    ",--": 2477,
    "Ġdetaining": 25819,
    "exper": 8881,
    "Ġmund": 21323,
    "Ġpalsied": 25780,
    "Ġhandspike": 22700,
    "Õ": 150,
    "Ġconn": 9232,
    "Ġconvul": 13206,
    "Ġdeafened": 25652,
    "Ġatone": 15806,
    "Ġexponentiating": 3449,
    "Ġspile": 22132,
    "duchess": 18470,
    "constantly": 24608,
    "Ġundec": 22024,
    "gallery": 24695,
    "igger": 21706,
    "track": 24336,
    "oked": 4306,
    "Ġintelligences": 12835,
    "Ġpurely": 12236,
    "ela": 21574,
    "Ġsigmoid": 2463,
    "Ġtwisting": 18659,
    "Ġveil": 7934,
    "Ġprejudice": 9078,
    "sin": 21052,
    "times": 8099,
    "inions": 8403,
    "Ġpostscript": 14810,
    "Ġunbelief": 22054,
    "Ġreadability": 2723,
    "day": 1860,
    "Ġalways": 1699,
    "alog": 8809,
    "Ġalarm": 4049,
    "Ġimputable": 22178,
    "Ġreveren": 13200,
    "Ġbolivia": 24669,
    "worthy": 7733,
    "Ġdong": 17889,
    "Ġscared": 14191,
    "Ġdr": 2823,
    "Ġstudded": 18970,
    "Ġcove": 22584,
    "Ġvolcanoes": 24150,
    "Ġlowest": 11124,
    "Ġreplying": 19585,
    "spouting": 25004,
    "Ġphotograph": 6304,
    "Ġdesmarest": 22985,
    "Ġpuffed": 14979,
    "Ġgallons": 14820,
    "somehow": 12016,
    "mechanically": 17303,
    "Ġann": 4490,
    "Ġforming": 7044,
    "requirements": 24859,
    "Ġeliza": 6438,
    "Ġframed": 19021,
    "Ġwork": 1286,
    "cherries": 19760,
    "iated": 5891,
    "Ġdetailed": 12828,
    "Ġintruder": 25992,
    "apes": 9744,
    "Ġrepeat": 8000,
    "Ġcore": 13880,
    "een": 726,
    "Ġinhuman": 13931,
    "humorously": 24024,
    "Ġforgiven": 24031,
    "Ġrescued": 24210,
    "Ġabout": 633,
    "Ġfirmness": 11239,
    "lashed": 20957,
    "uded": 6288,
    "ou": 287,
    "honour": 13470,
    "Ġvolumes": 14802,
    "Ġcommodore": 12399,
    "Ġimprec": 14219,
    "seventy": 10878,
    "Ġadvers": 4888,
    "moor": 22706,
    "retrie": 18927,
    "excuse": 13384,
    "Ġfatigue": 8701,
    "Ġtimely": 19598,
    "spike": 16142,
    "bodily": 17318,
    "image": 9689,
    "Ġspan": 11732,
    "Ġpersevering": 20237,
    "Ġshops": 22006,
    "tolerable": 17690,
    "ract": 1005,
    "judged": 14833,
    "Ġsimilar": 4918,
    "say": 3985,
    "united": 14062,
    ":--âĢľ": 24551,
    "Ġpull": 5152,
    "Ġattend": 5035,
    "Ġsaved": 6692,
    "whispering": 26104,
    "Ġhalting": 16278,
    "rows": 6443,
    "mill": 13756,
    "Ġcompassionate": 24723,
    "Ġconge": 15750,
    "Ġ1839": 20464,
    "Ġloun": 7167,
    "Ġgold": 3280,
    "Ġkindness": 4097,
    "Ġnightfall": 23134,
    "Ġopera": 23429,
    "ĠâĢĶâĢĶ": 25758,
    "repent": 15516,
    "Ġassistance": 6335,
    "Ġvexatious": 19785,
    "Ġprob": 970,
    "Ġaltered": 7393,
    "Ġfoiled": 23247,
    "Ġdisturbance": 15014,
    "haust": 5777,
    "Ġsal": 3941,
    "comput": 2000,
    "Ġthundering": 24294,
    "Ġthy": 2513,
    "instead": 14815,
    "Ġinches": 5846,
    "alid": 13937,
    "Ġendeav": 2957,
    "incidentally": 20543,
    "Ġupstairs": 5837,
    "Ġunb": 10909,
    "Ġbank": 4878,
    "Ġelated": 18635,
    "Ġbeliefs": 24584,
    "Ġpartner": 6716,
    "Ġwreaths": 25938,
    "Ġjealousy": 13579,
    "Ġmottled": 20682,
    "Ġbushes": 16403,
    "retaining": 21250,
    "Ġobscurely": 20192,
    "Ġpumping": 25644,
    "Ġinsince": 23680,
    "Ġplans": 7918,
    "acknowledge": 18475,
    "Ġsuffered": 5649,
    "Ġintroduces": 3270,
    "tumult": 12427,
    "ounted": 5030,
    "Ġsensibility": 14514,
    "inj": 9154,
    "Ġproficiency": 19195,
    "Ġcoal": 18591,
    "Ġprejud": 6851,
    "Ġbutler": 18272,
    "Ġimmut": 13301,
    "stationed": 25455,
    "plete": 10921,
    "accustomed": 13160,
    "mary": 8752,
    "Ġnur": 5710,
    "Ġglitter": 25127,
    "described": 18897,
    "Ġalter": 6544,
    "Ġlovely": 4711,
    "vels": 5432,
    "Ġsmiting": 12902,
    "Ġprocessing": 889,
    "Ġits": 706,
    "elihood": 4624,
    "Ġ19": 6721,
    "Ġexecution": 6927,
    "Ġtopic": 9409,
    "Ġpivot": 13925,
    "Ġanonymous": 26179,
    "Ġarticulated": 24434,
    "Ġvictor": 5125,
    "Ġevian": 24295,
    "Ġshrieked": 9551,
    "Ġultimately": 17167,
    "mas": 5212,
    "Ġincidents": 9302,
    "Ġsustaining": 25335,
    "),": 1347,
    "pin": 13769,
    "Ġundeceive": 25554,
    "Ġwaves": 3922,
    "Ġhandle": 3136,
    "Ġeffeminacy": 20721,
    "rederick": 14081,
    "Ġspiced": 22138,
    "Ġwhit": 7178,
    "Ġthrowing": 6337,
    "Ġgr": 976,
    "Ġmeagre": 21815,
    "Ġjan": 11766,
    "Ġdestroyer": 13416,
    "discernible": 20554,
    "Ġdrow": 21431,
    "Ġconvenience": 11333,
    "opolising": 25677,
    "Ġcontain": 1550,
    "Ġspam": 7631,
    "Ġdone": 1818,
    "islands": 21381,
    "Ġspaniard": 20367,
    "Ġbaltic": 18798,
    "difficult": 10061,
    "Ġsleeps": 10448,
    "Ġgunw": 6214,
    "Ġirish": 14535,
    "Ġcongrat": 5828,
    "Ġvariations": 22670,
    "Ġpeak": 16130,
    "Ġrestrained": 16379,
    "farmer": 25900,
    "Ġegress": 21628,
    "gratification": 24349,
    "Ġjavelins": 26106,
    "fearing": 18531,
    "Ġazores": 20197,
    "itoring": 21337,
    "brous": 19201,
    "Ġpunchbowl": 20235,
    "ates": 519,
    "Ġalacrity": 15741,
    "Ġtwinkled": 14314,
    "ividually": 22085,
    "Ġhieroglyphics": 17306,
    "Ġmildly": 9032,
    "Ġframe": 1878,
    "Ġante": 17898,
    "conjectured": 25183,
    "friendly": 13288,
    "Ġdivergence": 2726,
    "whaler": 20313,
    "ols": 2413,
    "aw": 1447,
    "Ġharmony": 16816,
    "Ġdispersed": 16599,
    "single": 10129,
    "Ġabounding": 12348,
    "Ġforbid": 7865,
    "Ġdevout": 14331,
    "Ġfigures": 8633,
    "hest": 3370,
    "olence": 10232,
    "Ġstuff": 5717,
    "rasing": 21049,
    "Ġtallest": 15477,
    "Ġrival": 10488,
    "aited": 12439,
    "acific": 4960,
    "attached": 11939,
    "Ġforefinger": 16443,
    "ļ": 253,
    "Ġcabin": 3303,
    "Ġbed": 2151,
    "Ġtempt": 5565,
    "Ġfinger": 5274,
    "Ġlatin": 16823,
    "Ġeffaced": 18540,
    "Ġunsupervised": 2445,
    "ase": 1159,
    "Ġthrill": 24542,
    "Ġmuttering": 10502,
    "Ġsubsc": 22792,
    "elder": 21577,
    "Ġclimbing": 20074,
    "idence": 4300,
    "Ġdramat": 23221,
    "eous": 13714,
    "inferences": 17741,
    "Ġorganically": 3014,
    "ang": 446,
    "glorious": 19371,
    "Ġmadam": 5663,
    "Ġallegro": 25795,
    "helping": 23145,
    "telescope": 26564,
    "Ġshoot": 11163,
    "itudes": 3017,
    "Ġtrustees": 24111,
    "Ġdevoting": 22728,
    "Ġhardy": 8569,
    "Ġimpet": 11783,
    "volume": 18598,
    "Ġrenewed": 9541,
    "Ġrachel": 11849,
    "pine": 13771,
    "Ġinquired": 7485,
    "ream": 2708,
    "Ġfortun": 4982,
    "Ġmuzzle": 21326,
    "ouse": 1192,
    "ile": 521,
    "Ġslides": 18942,
    "Ġamount": 8514,
    "cery": 20811,
    "Ġbowed": 6244,
    "entle": 1739,
    "Ġdespaired": 14670,
    "Ġbritannica": 24682,
    "detached": 19678,
    "Ġcasually": 25097,
    "Ġ1807": 26084,
    "regular": 3044,
    "en": 271,
    "owers": 12688,
    "Ġunch": 18241,
    "Ġintegration": 9871,
    "ercial": 21279,
    "Ġsales": 12811,
    "isle": 13894,
    "Ġbeaut": 2394,
    "Ġspread": 5161,
    "sullenly": 26150,
    "Ġforces": 12706,
    "atherine": 2595,
    "Ġhalyards": 21499,
    "Ġsisterly": 16307,
    "Ġdeser": 3890,
    "crime": 14777,
    "Ġforwarded": 19048,
    "und": 4118,
    "Ġmeddling": 21325,
    "invite": 25092,
    "returned": 7766,
    "benevolently": 25602,
    "Ġmonstr": 7668,
    "Ġgarden": 3828,
    "Ġmeanings": 18609,
    "Ġsteadfast": 8682,
    "isf": 2435,
    "appalling": 22848,
    "wonderful": 16962,
    "Ġpearl": 20381,
    "Ġadoration": 18292,
    "arians": 18528,
    "Ġsympathised": 14864,
    "hello": 13367,
    "Ġtinge": 25091,
    "Ġtorn": 6001,
    "happy": 4424,
    "Ġgushed": 21612,
    "Ġfootpaths": 26319,
    "infernal": 24664,
    "Ġdams": 16456,
    "Ġsalisbury": 24070,
    "Ġfellow": 2775,
    "Ġdawned": 14996,
    "decan": 22146,
    "Ġweighed": 8714,
    "âĢ": 294,
    "infidel": 24665,
    "Ġfruits": 17121,
    "Ġreckoning": 14981,
    "Ġfaced": 10810,
    "Ġkindred": 16381,
    "Ġphilosophy": 7105,
    "Ġstacks": 18077,
    "A": 37,
    "ffic": 22156,
    "Ġsmart": 11819,
    "asingly": 17963,
    "dried": 20830,
    "Ġharp": 17926,
    "hall": 8085,
    "knew": 9129,
    "usage": 12837,
    "Ġmounts": 17808,
    "broker": 13308,
    "brimmed": 14589,
    "rine": 21041,
    "Ġretribution": 16285,
    "Ġview": 2761,
    "Ġted": 13814,
    "Ġcheerless": 16695,
    "Ġuncommon": 5026,
    "Ġdetermines": 2369,
    "Ġhabitu": 19532,
    "Ġitaly": 10869,
    "Ġostentatious": 25737,
    "Ġrefusing": 11030,
    "boards": 23258,
    "neg": 12869,
    "ificent": 8184,
    "Ġopine": 19229,
    "Ġallowance": 14391,
    "Ġrotation": 25476,
    "Ġmouldings": 24737,
    "Ġfreely": 7058,
    "Ġheroine": 24544,
    "Ġnathan": 21531,
    "Ġimperson": 14220,
    "magnitude": 17251,
    "Ġgot": 2282,
    "Ġconcentration": 25066,
    "Ġinflicted": 11367,
    "Ġcelebrated": 13597,
    "irty": 4051,
    "Ġ10": 5249,
    "negro": 18491,
    "strange": 6087,
    "Ġevents": 4472,
    "Ġthrilling": 19752,
    "desk": 23813,
    "Ġhabit": 6772,
    "ŀ": 257,
    "Ġobed": 8538,
    "Ġexpired": 18625,
    "Ġblotted": 20221,
    "Ġexist": 9234,
    "theirs": 23605,
    "Ġindicates": 3195,
    "Ġgranting": 18738,
    "Ġtenth": 13828,
    "honey": 20908,
    "acious": 5562,
    "Ġmystery": 5509,
    "ents": 1898,
    "Ġasia": 11686,
    "Ġvapors": 19911,
    "Ġahoy": 12189,
    "rigible": 24933,
    "Ġcoral": 11925,
    "Ġbarrow": 12074,
    "Ġdutch": 6329,
    "Ġvia": 2383,
    "Ġbook": 2701,
    "Ġvivid": 8058,
    "zz": 4291,
    "affold": 16564,
    "ondency": 15272,
    "Ġcapabilities": 4377,
    "Ġhopeful": 19038,
    "Ġjonah": 3483,
    "Ġcognitive": 13637,
    "shut": 10983,
    "inian": 21187,
    "assertion": 22316,
    "battering": 20789,
    "evinced": 19929,
    "banish": 20785,
    "Ġeager": 3572,
    "Ġcolle": 8927,
    "vering": 15720,
    "Ġgracefully": 13394,
    "ip": 554,
    "clinging": 20825,
    "Ġadmire": 5264,
    "Ġexciting": 23318,
    "roc": 9677,
    "Ġterm": 2268,
    "okingly": 22384,
    "ables": 7890,
    "Ġhad": 443,
    "Ġrepay": 19084,
    "Ġmcc": 21311,
    "Ġservant": 5764,
    "arance": 4699,
    "Ġimpertin": 6933,
    "Ġslates": 11108,
    "Ġrecorded": 11295,
    "Ġ12": 5483,
    "terr": 8154,
    "Ġretain": 7863,
    "photograph": 16157,
    "Ġsets": 8778,
    "Ġuttering": 16463,
    "fetch": 12469,
    "Ġimmortal": 8018,
    "Ġexertion": 8054,
    "Ġupright": 8496,
    "announced": 19763,
    "affectionate": 24923,
    "Ġhalf": 1672,
    "unts": 12735,
    "complacency": 19917,
    "unken": 10239,
    "Ġdiscompose": 25581,
    "µ": 118,
    "loat": 8890,
    "artificial": 968,
    "Ġplump": 14284,
    "idate": 21773,
    "Ġnations": 8814,
    "Ġhoot": 19079,
    "Ġwonderfully": 10432,
    "Ġded": 2632,
    "stating": 21652,
    "Ġjav": 7902,
    "cating": 20805,
    "previous": 9764,
    "scure": 22992,
    "Ġvenge": 5420,
    "Ġladder": 8601,
    "putable": 10903,
    "appl": 9329,
    "Ġsuperior": 2752,
    "esteemed": 26010,
    "Ġsoothingly": 25051,
    "Ġblinded": 13274,
    "antingly": 22103,
    "Ġsmote": 18576,
    "vate": 21114,
    "male": 15391,
    "Ġgips": 10843,
    "sion": 8094,
    "whatever": 6696,
    "Ġdictionaries": 12344,
    "ĠĠĠĠĠĠĠĠĠĠĠĠĠĠĠĠĠĠĠĠĠĠĠĠĠĠ": 13391,
    "uncommonly": 25551,
    "Ġenrapt": 21944,
    "Ġwallet": 21303,
    "Ġwind": 1433,
    "securer": 25604,
    "Ġdisregarded": 22535,
    "swaying": 25911,
    "Ġmeridian": 25713,
    "Ġfighting": 12202,
    "Ġchambers": 16801,
    "learning": 2585,
    "Ġroofs": 16987,
    "Ġcaution": 11348,
    "jack": 7344,
    "Ġpleases": 16301,
    "Ġdisgu": 8206,
    "Ġpossibilities": 18978,
    "english": 2773,
    "Ġscores": 2713,
[...]
