{
  "metadata": {
    "vocab_size": 26616,
    "algorithm": "BPE",
    "created_at": "2026-07-01 06:24:47",
    "special_tokens": [
      "<PAD>",
      "<SOS>",
      "<EOS>",
      "<UNK>",
      "<MASK>"
    ]
  },
  "vocab": {
    "Ġray": 18635,
    "persuasion": 20047,
    "Ġparish": 8858,
    "Ġtedious": 15271,
    "Ġprogeny": 17391,
    "Ġspout": 3282,
    "than": 4088,
    "18": 20753,
    "che": 3174,
    "Ġtemptations": 24508,
    "Ġperforms": 11881,
    "Ġtambourine": 9567,
    "ruding": 9727,
    "Ġcomp": 724,
    "Ġpound": 12621,
    "ren": 549,
    "announcement": 24563,
    "recogn": 13429,
    "ak": 538,
    "ols": 2416,
    "Ô": 149,
    "Ġczar": 12579,
    "vii": 13152,
    "draughts": 20391,
    "Ġexplore": 15912,
    "convinced": 10625,
    "Ġhealthy": 10853,
    "Ġvintage": 26211,
    "edmund": 17948,
    "rene": 5379,
    "Ġprospect": 4707,
    "Ġtawny": 20485,
    "fork": 20859,
    "Ġservices": 11219,
    "Ġwhole": 1663,
    "Ġreflections": 5948,
    "eryton": 4093,
    "ozy": 17624,
    "Ġpreternatural": 12828,
    "ark": 848,
    "frankenstein": 11393,
    "Ġaccording": 5508,
    "Ġbelike": 18832,
    "Ġrested": 9381,
    "Ġenvironment": 3894,
    "Ġsouls": 6310,
    "fluttering": 23976,
    "claims": 25320,
    "Ġsuck": 15865,
    "christmas": 20258,
    "lue": 8511,
    "tied": 21073,
    "Ġviolent": 5117,
    "Ġadvantageously": 19548,
    "Ġflashed": 11917,
    "gypt": 8261,
    "istry": 22113,
    "Ġdelight": 2548,
    "Ġforesight": 13132,
    "nament": 11509,
    "Ġwarned": 16882,
    "Ġgroves": 16742,
    "Ġrifle": 18213,
    "Ġembellish": 25848,
    "Ġhandling": 8916,
    "Ġparade": 18302,
    "Ġyelling": 18099,
    "scra": 13027,
    "Ġcapt": 1290,
    "{": 95,
    "penetrate": 20327,
    "Ġstretching": 10018,
    "ly": 319,
    "scorn": 22994,
    "Ġscrupulous": 20072,
    "Ġhumaneval": 25583,
    "Ġbulkhead": 24511,
    "acific": 4960,
    "Ġcuba": 25098,
    "second": 6545,
    "Ġadvis": 9813,
    "Ġprophetic": 20023,
    "Ġwarn": 5695,
    "redit": 3876,
    "Ġmisanthrop": 22766,
    "els": 1762,
    "Ġstruggling": 12079,
    "Ġvict": 3762,
    "mistake": 24529,
    "Ġgeneral": 1860,
    "sacrifice": 13496,
    "hump": 12482,
    "Ġtreachery": 15105,
    "Ġbreak": 2872,
    "crated": 16685,
    "Ġenraptured": 26502,
    "Ġplays": 12042,
    "Ġlight": 1699,
    "nonsense": 17617,
    "endless": 22230,
    "Ġalph": 9698,
    "weary": 22689,
    "Ġgift": 10842,
    "Ġpow": 4639,
    "Ġ86": 24461,
    "Ġferocity": 16868,
    "combination": 25487,
    "smitten": 23912,
    "leagued": 26437,
    "Ġmassac": 14739,
    "Ġdusty": 14928,
    "Ġautonom": 10417,
    "Ġinequal": 21500,
    "Ġbattering": 13904,
    "Ġconversation": 3333,
    "Ġbehaviors": 13259,
    "Ġseeming": 8543,
    "Ġmeekly": 26492,
    "Ġfrench": 4939,
    "ld": 385,
    "ividually": 22092,
    "turbaned": 24532,
    "gus": 13728,
    "itate": 6670,
    "Ġdisconsol": 18558,
    "darker": 24516,
    "stubb": 6019,
    "Ġstray": 18075,
    "Ġerrors": 2597,
    "tery": 14040,
    "Ġswerve": 14440,
    "Ġgrapp": 14104,
    "ellow": 3875,
    "ions": 449,
    "ially": 9250,
    "tempestuous": 26098,
    "iracle": 11246,
    "absolut": 8460,
    "Ġdevelopment": 7066,
    "Ġpuzzled": 7317,
    "Ġpropag": 16350,
    "Ġvillainous": 25134,
    "sen": 21052,
    "Ġexpressly": 16454,
    "Ġpetulance": 24230,
    "Ġgreenhorn": 23770,
    "aid": 1921,
    "passed": 8026,
    "ulates": 14058,
    "phew": 6369,
    "buried": 14852,
    "key": 5462,
    "apan": 6860,
    "gi": 17553,
    "Ġsig": 867,
    "fins": 13722,
    "Ġsincer": 13071,
    "Ġload": 14148,
    "Ġdiscoverer": 26036,
    "Ġdegree": 3704,
    "Ġsickle": 24248,
    "Ġder": 1494,
    "Ġtwins": 16124,
    "counters": 25398,
    "Ġlucky": 7759,
    "Ġsweetest": 13252,
    "slowly": 9092,
    "uber": 15448,
    "similar": 13457,
    "Ġapproached": 5844,
    "Ġjeopard": 9946,
    "Ġshipmate": 8932,
    "ouble": 2663,
    "Ġtresses": 21178,
    "Ġdependencies": 2315,
    "ours": 3430,
    "Ġpelt": 15614,
    "Ġrace": 5848,
    "Ġfangs": 12602,
    "possibility": 13366,
    "Ġclams": 19992,
    "Ġspiral": 14586,
    "Ġsmut": 22561,
    "Ġoutright": 18414,
    "Ġvalidation": 2359,
    "Ġsadder": 24055,
    "Ġlangsdorff": 15280,
    "Ġincidents": 9303,
    "Ġpike": 12628,
    "bpp": 20774,
    "Ġparaphrasing": 26528,
    "Ġresponsiveness": 2901,
    "Ġchurchyard": 16779,
    "Ġdepicting": 22611,
    "folly": 20864,
    "Ġsanguine": 25929,
    "vigorous": 25918,
    "Ġprophecy": 25706,
    "hideous": 25408,
    "opius": 18514,
    "omas": 12676,
    "gale": 13727,
    "Ġdaresay": 14707,
    "Ġ28": 19297,
    "Ġtwit": 12934,
    "Ġhier": 1895,
    "swells": 26149,
    "Ġhave": 445,
    "Ġruin": 6057,
    "Ġchaldee": 26236,
    "tumult": 12427,
    "Ġimportance": 4901,
    "tanh": 5204,
    "Ġequinoctial": 20535,
    "mercenary": 26316,
    "ras": 21039,
    "Ġborder": 10172,
    "Ġskirts": 14356,
    "putting": 14103,
    "offers": 16397,
    "problems": 11436,
    "^": 66,
    "Ġjanuary": 13657,
    "Ġbabes": 24425,
    "elder": 21575,
    "aven": 8208,
    "bran": 23576,
    "Ġimprove": 1869,
    "Ġfil": 3476,
    "fol": 4863,
    "hess": 4748,
    "Ġinstinctively": 13463,
    "Ġcommotion": 9783,
    "Ġcurds": 22976,
    "ė": 216,
    "Ġglowing": 12287,
    "Ġwhalers": 8048,
    "rushed": 10587,
    "Ġaugment": 8695,
    "Ġsadly": 7302,
    "flo": 6116,
    "Ġgangway": 20161,
    "Ġdearest": 5457,
    "Ġcottagers": 6762,
    "æ": 167,
    "iform": 2200,
    "terror": 18131,
    "guilt": 24074,
    "mselves": 2866,
    "Ġwonder": 2118,
    "mistaken": 12215,
    "Ġmak": 10780,
    "Ġcollege": 11426,
    "piling": 15418,
    "reeable": 3614,
    "Ġshirr": 18232,
    "Ġdisregard": 22532,
    "dressing": 11484,
    "Ġsufferings": 7513,
    "helping": 23144,
    "least": 8789,
    "Ġblend": 14402,
    "Ġresidual": 1680,
    "Ġbridges": 24683,
    "Ġturned": 2135,
    "Ġsacred": 10932,
    "Ġmercifully": 20181,
    "Ġann": 4492,
    "Ġhorns": 11125,
    "Ġdecanting": 22447,
    "pede": 19932,
    "Ġvanquished": 22879,
    "Ġstream": 5186,
    "Ġmil": 4255,
    "Ġplanets": 24060,
    "Ġthan": 736,
    "fold": 7546,
    "rote": 4594,
    "Ġfugitives": 25635,
    "ediction": 17947,
    "Ġpom": 21454,
    "aration": 12612,
    "Ġformal": 2945,
    "Ġsunk": 5752,
    "icating": 15659,
    "onet": 12550,
    "Ġevent": 2955,
    "Ġprobability": 1125,
    "Ġscar": 3214,
    "Ġleft": 1759,
    "Ġskipper": 22802,
    "Ġmichigan": 26428,
    "twelve": 14624,
    "Ġrecognised": 8998,
    "Ġscound": 12842,
    "Ġends": 8238,
    "ond": 1164,
    "amore": 21853,
    "Ġwiser": 14733,
    "Ġix": 12673,
    "Ġundeviating": 15221,
    "Ġteeth": 4166,
    "Ġspans": 18305,
    "Ġpads": 21476,
    "Ġdisturbing": 19949,
    "Ġfacing": 10174,
    "Ġbusier": 23339,
    "Ġkindred": 16377,
    "Ġbrah": 19360,
    "bu": 5132,
    "sne": 10127,
    "Ġunwell": 22019,
    "Ġnail": 9198,
    "ellations": 21946,
    "Ġdisguises": 25058,
    "Ġrest": 1780,
    "Ġcircumstances": 3926,
    "Ġstreaming": 19676,
    "Ó": 148,
    "Ġapprehending": 26092,
    "Ġdeeps": 16111,
    "Ġinquiries": 5678,
    "Ġdiddled": 22670,
    "Ġcourtesy": 9948,
    "Ġbroom": 18908,
    "whether": 5320,
    "Ġvengeful": 14893,
    "Ġunsh": 14117,
    "Ġrobbed": 23040,
    "ilder": 15717,
    "Ġupdates": 1299,
    "Ġhovers": 19080,
    "transferred": 24514,
    "Ġsteeply": 23726,
    "Ġforth": 3466,
    "that": 850,
    "Ġdent": 13909,
    "Ġboone": 11844,
    "witted": 17709,
    "Ġturkish": 12266,
    "Ġcasualties": 25513,
    "Ġadmission": 23558,
    "Ġunhing": 18239,
    "Ġprophe": 13083,
    "Ġundeceive": 25553,
    "errand": 22913,
    "Ġident": 2239,
    "Ġtooks": 23328,
    "tall": 17675,
    "Ġpoliceman": 15262,
    "fel": 8737,
    "udding": 11869,
    "Ġhunks": 18938,
    "bbles": 13695,
    "yp": 1044,
    "sub": 4661,
    "Ġmisunderstood": 18708,
    "echo": 15352,
    "emone": 21929,
    "floated": 24644,
    "Ġnoiseless": 10360,
    "5": 25,
    "Ġswimmer": 19462,
    "pagan": 17288,
    "Ġlashes": 17969,
    "boxes": 16890,
    "Ġowe": 8115,
    "Ġdesirous": 8945,
    "sink": 11524,
    "idea": 9305,
    "Ġcaptioning": 23024,
    "Ġverse": 16604,
    "Ġcompacted": 23512,
    "Ġhearth": 11986,
    "ws": 7355,
    "Ġdistressing": 12223,
    "Ġgoney": 14546,
    "pieces": 8758,
    "gather": 20877,
    "assin": 22309,
    "atural": 917,
    "process": 11150,
    "Ġmacy": 19358,
    "diversity": 25898,
    "Ġoutskirts": 17460,
    "neg": 12870,
    "Ġrad": 4962,
    "next": 5893,
    "Ġcomprehending": 24445,
    "Ġcope": 17832,
    "Ġempty": 5354,
    "Ġsanguinary": 25930,
    "Ġkentuck": 19893,
    "Ġgomorrah": 21618,
    "Ġmosses": 20166,
    "chester": 23808,
    "Ġimpertinence": 11368,
    "mas": 5212,
    "Ġdiminishing": 4209,
    "entropy": 1437,
    "Ġensure": 23690,
    "Ġglance": 4234,
    "Ġmassachusetts": 24025,
    "Ġwhistling": 19793,
    "Ġdiscoloured": 15256,
    "Ġclamped": 18433,
    "fortnight": 13091,
    "Ġfundamentals": 14637,
    "ret": 1474,
    "Ġcuriously": 13017,
    "Ġabound": 8867,
    "Ġfoam": 6891,
    "Ġmisgivings": 15295,
    "utch": 21589,
    "Ġfeatures": 1432,
    "Ġpell": 21458,
    "creatures": 7517,
    "illar": 5101,
    "Ġsplash": 16552,
    "Ġbrother": 2749,
    "Ġeth": 17718,
    "loveliness": 26551,
    "Ġconcuss": 19050,
    "Ġsentence": 6189,
    "Ġrobberies": 23041,
    "regulated": 23471,
    "Ġechoed": 20427,
    "Ġnonce": 23235,
    "head": 1435,
    "Ġintentions": 10610,
    "wra": 11544,
    "Ġtraps": 23083,
    "Ġaccurate": 13278,
    "Ġbelie": 14411,
    "Ġvictory": 16656,
    "Ġlady": 1586,
    "Ġreversed": 15701,
    "posture": 16929,
    "Ġadmirals": 20388,
    "Ġrebounds": 25968,
    "Ġpence": 17905,
    "Ġgrating": 14358,
    "Ġphilosophers": 10554,
    "Ġbowled": 23771,
    "loat": 8890,
    "Ġmultitud": 18748,
    "Ġraging": 14307,
    "Ġmatrimonial": 25490,
    "Ġenchanted": 9083,
    "offices": 19063,
    "Ġlongitudes": 22638,
    "Ġeffeminacy": 20720,
    "?âĢĿâĢĶ": 12900,
    "Ġswish": 23056,
    "bott": 9109,
    "Ġafore": 10760,
    "Ġcontrived": 10305,
    "Ġcirculating": 23374,
    "Ġholiest": 18814,
    "ender": 9163,
    "Ġwaif": 9398,
    "Ġmeadows": 11424,
    "Ġfeigned": 22212,
    "Ġaffording": 14824,
    "Ġawaken": 23588,
    "Ġpainted": 7979,
    "Ġliber": 5168,
    "Ġelse": 2481,
    "Ġunsavory": 20709,
    "Ġwatchful": 16529,
    "Ġrule": 1532,
    "rist": 10125,
    "uerus": 26408,
    "astrous": 15889,
    "lowering": 16035,
    "Ġredu": 1355,
    "etent": 10202,
    "Ġexerting": 21836,
    "Ġcreation": 6440,
    "Ġsmall": 892,
    "grateful": 10430,
    "Ġmockery": 12112,
    "ickering": 22673,
    "Ġeternal": 5977,
    "Ġaval": 15496,
    "Ġcherub": 23287,
    "mown": 20972,
    "Ġtheir": 643,
    "swed": 24256,
    "broad": 8646,
    "Ġenjoyed": 8008,
    "Ġdomes": 23644,
    "Ġstir": 5826,
    "camp": 15333,
    "Ġoppressively": 25711,
    "amaz": 21854,
    "Ġther": 17780,
    "arian": 10319,
    "crimson": 24090,
    "Ġgaieties": 24198,
    "Ġhandsomer": 20336,
    "abound": 15744,
    "Ġspiritual": 9933,
    "wilful": 25152,
    "curious": 10485,
    "agitation": 14071,
    "orm": 425,
    "iled": 1763,
    "usions": 6161,
    "Ġcharmingly": 24224,
    "Ġkno": 5242,
    "Ġseem": 915,
    "Ġpod": 15608,
    "mankind": 14377,
    "forgot": 11035,
    "Ġholding": 4979,
    "Ġdisdain": 8360,
    "bs": 3775,
    "Ġoverjoyed": 17461,
    "Ġreligions": 20111,
    "Ġneur": 813,
    "ized": 1525,
    "Ġtut": 8774,
    "neath": 12871,
    "Ġjoined": 4566,
    "fen": 20852,
    "Ġexasper": 8469,
    "Ġrelent": 18775,
    "Ġtrance": 12845,
    "beh": 5472,
    "islands": 21379,
    "Ġ1000": 3121,
    "haul": 14768,
    "tray": 21080,
    "Ġfuriously": 9805,
    "movement": 25578,
    "Ġsprang": 5064,
    "Ġbeneath": 3239,
    "Ġobjects": 5578,
    "boards": 23255,
    "Ġfict": 21408,
    "Ġjem": 18398,
    "driven": 19774,
    "Ġdevil": 3615,
    "Ġpatient": 6893,
    "sentimental": 25682,
    "Ġforecastle": 5495,
    "Ġcramped": 23533,
    "Ġissu": 6255,
    "Ġroman": 8323,
    "Ġpairs": 4182,
    "Ġblushed": 13007,
    "visible": 10536,
    "Ġsubstant": 14812,
    "Ġevap": 19626,
    "Ġnear": 1717,
    "Ġtotally": 9474,
    "Ġvision": 1546,
    "ash": 1991,
    "dragging": 16611,
    "crowd": 25255,
    "dis": 2250,
    "pump": 21019,
    "ancho": 4938,
    "ui": 9147,
    "Ġdismasted": 15255,
    "Ġcrystall": 20229,
    "Ġidolator": 20001,
    "Ġscarce": 8625,
    "Ġdance": 4445,
    "Ġprogno": 14043,
    "Ġpainting": 13145,
    "Ġstars": 6151,
    "enesis": 24388,
    "estruct": 22227,
    "Ġ58": 24322,
    "Ġbleached": 24396,
    "fish": 3519,
    "Ġconvent": 11671,
    "Ġpruning": 18971,
    "Ġentreat": 4512,
    "arpening": 21446,
    "Ġchina": 8040,
    "shadows": 25480,
    "Ġadversity": 24305,
    "Ġcumberland": 21358,
    "whosoever": 22244,
    "Ġreveren": 13201,
    "li": 1187,
    "Ġamounts": 6706,
    "twig": 23701,
    "cceed": 4141,
    "Ġlowered": 6737,
    "Ġlantern": 7118,
    "magnetic": 20555,
    "usual": 5841,
    "Ġwestmorland": 24390,
    "istic": 972,
    "Ġobstacle": 16957,
    "Ġinitials": 11016,
    "touch": 8392,
    "Ġstorms": 11264,
    "Ġalleg": 14020,
    "irited": 15791,
    "ribes": 23367,
    "Ġbash": 12591,
    "Ġenabled": 9299,
    "Ġblasphemy": 26116,
    "hosmer": 25903,
    "Ġwretchedness": 9029,
    "Ġfif": 4218,
    "Ġmanifold": 13564,
    "ate": 420,
    "aring": 1475,
    "monster": 8595,
    "Ġfancying": 12117,
    "Ġsettlement": 19839,
    "Ġraising": 8912,
    "Ġlod": 4043,
    "trees": 10733,
    "Ġhousekeeper": 7456,
    "Ġfrown": 10809,
    "Ġcontr": 1915,
    "Ġschedu": 1822,
    "Ġsolve": 4197,
    "damp": 15347,
    "Ġbusy": 6191,
    "stepfather": 19193,
    "Ġremainder": 9861,
    "aking": 974,
    "Ġrnns": 2396,
    "Ġcloudless": 16671,
    "ury": 3315,
    "Ġrueful": 25582,
    "ste": 3587,
    "sleeping": 13458,
    "ĠĠĠĠĠĠĠĠĠĠĠĠĠĠĠĠĠĠĠĠĠĠĠĠĠĠĠĠĠĠĠĠĠĠĠĠĠĠĠĠĠĠĠ": 12159,
    "invite": 25091,
    "Ġsundial": 15086,
    "dock": 16421,
    "Ġvilla": 14750,
    "Ġinvis": 6902,
    "umed": 6556,
    "Ġshudderings": 25201,
    "Ġmessage": 13526,
    "Ġpleasanter": 19069,
    "Ġinnovative": 1653,
    "itty": 3557,
    "Ġstated": 9692,
    "Ġtwitching": 25684,
    "sheet": 16289,
    "Ġunworthy": 11719,
    "Ġresisted": 22545,
    "Ġorph": 9720,
    "Ġelasticity": 19561,
    "goin": 23404,
    "ographical": 16788,
    "filled": 9597,
    "Ġrasc": 21981,
    "Ġwides": 17790,
    "Ġamateur": 22485,
    "ignominious": 26589,
    "gabriel": 15364,
    "Åĵuvre": 25888,
    "recognised": 15266,
    "animal": 16980,
    "Ġinaccessible": 13937,
    "impud": 23762,
    "Ġstride": 22619,
    "irious": 15790,
    "Ġships": 3714,
    "descend": 23089,
    "Ġslippers": 19618,
    "Ġtracks": 18892,
    "inc": 2519,
    "Ġreverend": 15263,
    "pane": 10123,
    "Ġking": 2306,
    "coming": 3565,
    "look": 2261,
    "99": 1897,
    "Ġtight": 8108,
    "Ġpast": 2099,
    "Ġlovers": 9723,
    "oder": 2461,
    "Ġtune": 17727,
    "Ġenterprise": 8645,
    "Ġaberdeen": 26543,
    "stood": 4115,
    "Ġdeclining": 23967,
    "Ġunful": 22013,
    "Ġharsh": 9524,
    "Ġbegun": 7243,
    "Ġoutline": 15958,
    "several": 5544,
    "Ġcock": 11002,
    "advise": 24220,
    "Ġoffended": 7042,
    "Ġquit": 5247,
    "Ġnative": 4642,
    "Ġrosy": 18460,
    "Ġfocus": 4237,
    "Ġselling": 21227,
    "Ġobliquely": 12366,
    "Ġmish": 15541,
    "barn": 17485,
    "Ġpretty": 3861,
    "Ġowner": 8925,
    "Ġbeckoning": 20505,
    "Ġappeared": 2776,
    "Ġcomforts": 14696,
    "maybe": 23994,
    "Ġgentlemanly": 19318,
    "Ġdif": 870,
    "Ġledge": 19404,
    "Ġfurniture": 6477,
    "Ġbelong": 3885,
    "Ġcounterbalance": 24721,
    "courage": 17512,
    "Ġinfer": 7684,
    "Ġcontentment": 14873,
    "cures": 20807,
    "Ġhissing": 15794,
    "Ġreigning": 15705,
    "Ġcategorization": 12141,
    "Ġwounded": 8661,
    "Ġhyperborean": 26341,
    "Ġdong": 17889,
    "Ġtranspointed": 22444,
    "Ġsweat": 13144,
    "Ġcamp": 9167,
    "Ġcased": 21349,
    "Ġproportional": 2523,
    "Ġwatches": 11083,
    "Ġinvoluntary": 18769,
    "âĢĶâĢĿ": 3299,
    "danced": 20830,
    "iting": 2158,
    "Ġblasted": 7938,
    "Ġsizes": 1518,
    "Ġunbecoming": 22066,
    "Ġwra": 5907,
    "seven": 8466,
    "ilib": 4116,
    "Ġengland": 3857,
    "insanity": 23071,
    "tee": 16176,
    "eternal": 17985,
    "leading": 15566,
    "ú": 187,
    "Ġclaim": 5106,
    "Ġsphere": 15886,
    "offic": 7466,
    "teringly": 21827,
    "smile": 23909,
    "Ġhans": 12631,
    "pper": 3212,
    "Ġwork": 1320,
    "Ġsquaring": 22843,
    "Ġcruising": 6913,
    "nel": 11507,
    "Ġbachel": 7159,
    "Ġspear": 9317,
    "thanking": 24326,
    "nur": 11508,
    "Ġaristocratic": 20516,
    ")âĢĶ": 20744,
    "table": 5795,
    "Ġpore": 21460,
    "Ġartistic": 18613,
    "Ġdemoniacal": 20559,
    "Ġdiscussion": 17197,
    "Ġ=": 1074,
    "garden": 15028,
    "wishing": 21131,
    "Ġfrigate": 13086,
    "Ġquitting": 7646,
    "going": 6315,
    "Ġoccupied": 5273,
    "Ġunthink": 18245,
    "icular": 2023,
    "Ġretreat": 6071,
    "Ġbackpropagation": 1242,
    "web": 18665,
    "feel": 3812,
    "Ġlying": 4827,
    "Ġrather": 1491,
    "Ġloveliness": 13612,
    "Ġprofundity": 20455,
    "Ġentrance": 7233,
    "hint": 12480,
    "Ġfactor": 19015,
    "Ġgarments": 15197,
    "athy": 14326,
    "whew": 22872,
    "Ġexchanging": 18134,
    "Ġser": 1672,
    "Ġgrie": 3586,
    "Ġexhaustion": 14964,
    "disappeared": 14573,
    "Ġlazily": 11382,
    "apology": 22338,
    "tide": 11535,
    "Ġguarded": 9829,
    "Ġimpulses": 19965,
    "Ġkick": 5838,
    "Ġwine": 6811,
    "stretching": 20502,
    "Ġlord": 2970,
    "Ġcham": 4893,
    "Ġforeseeing": 23453,
    "Ġthrow": 3783,
    "at": 268,
    "Ġprefer": 6417,
    "times": 8099,
    "M": 49,
    "Ġcaliforn": 14434,
    "holloa": 19467,
    "Ġpains": 5966,
    "eth": 624,
    "Ġfro": 3475,
    "features": 14803,
    "Ġwidely": 8033,
    "ictions": 14228,
    "Ġcrush": 9425,
    "tattoo": 21090,
    "Ġpier": 7163,
    "irements": 22216,
    "Ġdreams": 7496,
    "jour": 20929,
    "Ġcosmetic": 23475,
    "icient": 774,
    "Ġcommitted": 7431,
    "Ġambition": 11434,
    "Ġmurmuring": 23581,
    "Ġadorned": 15251,
    "Ġdaggoo": 5441,
    "Ġbutterfly": 19912,
    "usations": 15946,
    "Ġming": 9648,
    "Ġpursu": 3241,
    "Ġ127": 24472,
    "included": 19210,
    "allows": 15911,
    "shipping": 10310,
    "Ġfoolish": 5981,
    "loved": 14253,
    "Ġnum": 1346,
    "Ġlandsc": 11148,
    "Ġ88": 19714,
    "Ġindefatigable": 17180,
    "Ġru": 947,
    "correct": 24483,
    "immediately": 10052,
    "Ġvisitors": 7985,
    "Ġthundering": 24293,
    "Ġxliv": 23411,
    "side": 2303,
    "oney": 3054,
    "Ġcigar": 9548,
    "Ġcoleridge": 18766,
    "Ġvapors": 19910,
    "ee": 1661,
    "Ġtorch": 25033,
    "Ġregrets": 18595,
    "Ġbosom": 6939,
    "Ġindignant": 12244,
    "iastic": 12484,
    "Ġfoes": 11955,
    "tout": 21068,
    "Ġphilistines": 26083,
    "Ġhilarious": 20301,
    "Ġmerest": 14033,
    "always": 5708,
    "ased": 1267,
    "pardon": 10068,
    "Ġsideboard": 10388,
    "Ġgathers": 24742,
    "finally": 9502,
    "cooks": 25070,
    "Ġpretence": 13211,
    "icip": 6390,
    "Ġcynicism": 25772,
    "Ġsulky": 13518,
    "Ġgoes": 3853,
    "la": 10707,
    "Ġtrain": 515,
    "Ġtore": 6532,
    "ingham": 21303,
    "Ġannihil": 10177,
    "Ġcomplaisance": 19452,
    "enit": 17781,
    "Ġpitching": 16613,
    "Ġsecured": 6747,
    "Ġloosed": 22116,
    "Ġmab": 12565,
    "dropped": 12267,
    "unexpected": 15782,
    "Ġconcrete": 20640,
    "Ġbowed": 6244,
    "Ġsnugly": 17112,
    "Ġwhir": 6394,
    "indul": 22374,
    "Ġgrowled": 19286,
    "Ġselected": 9714,
    "Ġshield": 22003,
    "through": 4024,
    "ifling": 15787,
    "Ġauthentic": 20537,
    "Ġrecurred": 18978,
    "Ġpolynes": 16083,
    "Ġinvaluable": 10185,
    "Ġgpus": 3732,
    "Ġbeggars": 20632,
    "Ġobscure": 9557,
    "Ġstep": 752,
    "ineff": 21970,
    "def": 1451,
    "Ġuncompromised": 20606,
    "Ġstain": 18070,
    "ought": 828,
    "Ġtend": 6122,
    "sum": 2087,
    "distraction": 24203,
    "dead": 8180,
    "Ġbethinking": 25280,
    "Ġunctuousness": 17237,
    "whatsoever": 18488,
    "Ġunde": 11716,
    "Ġundet": 16703,
    "weakness": 16128,
    "Ġdipping": 15596,
    "canallers": 22969,
    "ples": 6845,
    "wheeler": 16192,
    "Ġsubst": 4274,
    "Ġprying": 15613,
    "ellative": 21947,
    "Ġannounce": 13343,
    "tips": 13799,
    "Ġdisengaged": 12894,
    "though": 2117,
    "Ġdepress": 14051,
    "acqu": 4844,
    "readily": 19365,
    "scap": 22993,
    "deal": 12804,
    "Ã": 132,
    "Â": 131,
    "anguish": 15984,
    "Ġisn": 7866,
    "imming": 9690,
    "Ġhates": 21489,
    "Ġspouter": 12803,
    "urpr": 2289,
    "pron": 9009,
    "Ġcognitive": 13638,
    "Ġfamilies": 8027,
    "Ġscra": 5842,
    "Ġwriting": 4669,
    "Ġ131": 24781,
    "northern": 23669,
    "Ġomit": 17817,
    "Ġtide": 6661,
    "Ġdeg": 3281,
    ">": 34,
    "lamps": 25261,
    "Ġ51": 24316,
    "Ġwhile": 607,
    "Ġtyph": 10011,
    "Ġcripp": 9656,
    "Ġpeninsula": 23198,
    "insufferable": 21195,
    "Ġtorments": 13398,
    "Ġexamination": 8005,
    "Ġimpetuous": 25571,
    "Ġhailed": 6408,
    "Ġsystemat": 18448,
    "Ġdisagreeable": 9301,
    "Ġrestrain": 8967,
    "duct": 3510,
    "adamite": 20596,
    "Ġunsupplied": 22045,
    "Ġoffences": 18690,
    "Ġcredited": 25157,
    "Ġenergetic": 15201,
    "Ġtig": 13816,
    "Ġwarmed": 12028,
    "Ġpleasurable": 23341,
    "Ġstrugg": 3219,
    "ctuous": 9208,
    "_).": 5888,
    "iture": 5696,
    "Ġbelrive": 18833,
    "philosophy": 13584,
    "Ġkeeled": 18810,
    "Ġintrude": 25991,
    "successful": 11360,
    "Ġroot": 2652,
    "Ġartist": 12917,
    "Ġpreprocess": 22237,
    "itigated": 23050,
    "ica": 10201,
    "Ġ85": 24460,
    "Ġneskyeuna": 26461,
    "warp": 17708,
    "rance": 5995,
    "Ġocean": 3306,
    "Ġbuttoning": 17238,
    "scoured": 22996,
    "Ġoffic": 3190,
    "Ġhousings": 21496,
    "network": 1892,
    "Ġunderneath": 16341,
    "Ġboscombe": 8326,
    "erer": 8735,
    "Ġfra": 1767,
    "Ġidle": 8253,
    "Ġdevote": 10343,
    "Ġdefici": 22946,
    "Ġarchbishop": 18726,
    "Ġtumbled": 13410,
    "aulding": 11341,
    "Ġthre": 2059,
    "Ġforward": 1837,
    "Ġcrop": 10165,
    "Ġcomponents": 8897,
    "coiled": 16488,
    "pitchpoling": 25725,
    "Ġvenom": 24241,
    "Ġenthus": 7232,
    "Ġprinciple": 6771,
    "fri": 20856,
    "paus": 13776,
    "Ġinvited": 6903,
    "action": 3726,
    "constant": 11326,
    "shirt": 22462,
    "cause": 7796,
    "Ġexpanding": 25239,
    "Ġimpressions": 9556,
    "ites": 3900,
    "Ġpulley": 2979,
    "Ġ21": 11201,
    "matter": 5136,
    "Ġduty": 4071,
    "declaration": 25176,
    "chemical": 23810,
    "Ġlakeman": 6987,
    "Ġcried": 1484,
    "Ġroar": 9756,
    "spass": 18686,
    "Ġdissol": 18552,
    "Ġgr": 976,
    "ified": 3228,
    "Ġsickness": 10541,
    "pilot": 25909,
    "Ġbackwoods": 22662,
    "ope": 4124,
    "pursuit": 20343,
    "musical": 25341,
    "acon": 10684,
    "Ġbri": 21381,
    "Ġgross": 11628,
    "Ġowned": 11880,
    "shri": 14238,
    "Ġlun": 7856,
    "Ġpolic": 13165,
    "Ġacquaintances": 17353,
    "valued": 2855,
    "Ġsheaves": 22162,
    "Ġwink": 11572,
    "Ġunintellig": 22028,
    "Ġnightfall": 23133,
    "Ġsidel": 9638,
    "sockets": 22725,
    "Ġang": 2510,
    "Ġdig": 6137,
    "confused": 19642,
    "conscientious": 19629,
    "cour": 4482,
    "matlock": 23473,
    "ø": 185,
    "Ġflying": 5413,
    "Ġoccurred": 4465,
    "Ġdiscol": 12958,
    "Ġnile": 21524,
    "functions": 11243,
    "Ġincom": 9772,
    "water": 4869,
    "Ġdangerous": 6616,
    "imag": 6991,
    "ley": 1815,
    "hardly": 6492,
    "hol": 3839,
    "tap": 17678,
    "Ġstarry": 16925,
    "âĢĻ!âĢĿ": 18170,
    "Ġrude": 7234,
    "Ġconsiderable": 4007,
    "Ġbanquet": 15244,
    "Ġmethodically": 23196,
    "iard": 9604,
    "Ġcheating": 16369,
    "Ġsheep": 10928,
    "illity": 18297,
    "Ġglorious": 11077,
    "iments": 4945,
    "Ġrumbling": 18212,
    "o": 83,
    "Ġvirtual": 11241,
    "Ġdemean": 12728,
    "Ġliberality": 24377,
    "Ġmotions": 8281,
    "somerset": 26324,
    "Ġgrowl": 16541,
    "<MASK>": 4,
    "hawks": 24695,
    "ta": 13792,
    "hon": 6794,
    "Ġrephrased": 26479,
    "Ġmerchants": 23735,
    "anesc": 21363,
    "Ġnailing": 21530,
    "Ġmed": 4177,
    "scent": 13026,
    "Ġlist": 2368,
    "Ġpianoforte": 15277,
    "Ġbaw": 15573,
    "Ġcorrespondence": 10597,
    "ĠâĢľâĢĺ": 8506,
    "Ġspaniards": 25556,
    "Ġdro": 2772,
    "hug": 17565,
    "Ġcompl": 3759,
    "Ġadmirably": 16483,
    "Ġprotectors": 9073,
    "ribution": 14310,
    "Ġhisself": 21918,
    "Ġbouton": 17870,
    "Ġoverhanging": 22358,
    "Ġpictured": 16625,
    "swear": 16920,
    "Ġscuttle": 7414,
    "Ġlandscape": 12421,
    "Ġcomplied": 14737,
    "toed": 18581,
    "Ġgener": 582,
    "fam": 5990,
    "cig": 17506,
    "Ġduring": 873,
    "ivot": 11722,
    "Ġsuperhuman": 23456,
    "Ġ22": 8279,
    "Ġbetween": 793,
    "iz": 363,
    "Ġvalue": 2085,
    "jerked": 25619,
    "iety": 2819,
    "Ġfinny": 23129,
    "viv": 17700,
    "Ġforgiveness": 16659,
    "Ġstoop": 16313,
    "Ġcanvassed": 19938,
    "leep": 4636,
    "Ġpersonified": 19180,
    "aunt": 8370,
    "Ġrelate": 6875,
    "Ġ1820": 25718,
    "Ġshalt": 18231,
    "Ġindisp": 18836,
    "Ġrefresh": 10348,
    "Ġhatter": 4111,
    "twist": 23703,
    "Ġtolerably": 8068,
    "likelihood": 4992,
    "Ġrobots": 11086,
    "injury": 25214,
    "Ġpo": 737,
    "elfare": 11781,
    "Ġcheek": 8580,
    "Ġaverted": 16256,
    "vard": 21113,
    "Ġmisanthropic": 26562,
    "Ġexquis": 9702,
    "Ġderives": 16311,
    "Ġfortun": 4982,
    "Ġleaping": 8341,
    "untering": 15780,
    "response": 25763,
    "would": 2352,
    "Ġmislead": 22764,
    "begged": 18524,
    "pursue": 24976,
    "search": 8467,
    "Ġtwisting": 18659,
    "Ġwondering": 7972,
    "Ġstudies": 7956,
    "Ġdeficient": 18826,
    "Ġpoliteness": 8274,
    "Ġlamb": 8817,
    "hawk": 7123,
    "Ġintellect": 8170,
    "Ġspam": 7631,
    "Ġcart": 11586,
    "Ġvillains": 14752,
    "Ġact": 690,
    "Ġtex": 15475,
    "Ġtemple": 7654,
    "important": 7114,
    "Ġsli": 4749,
    "Ġfaculties": 14961,
    "iciency": 9577,
    "Ġpeeled": 14321,
    "feared": 11807,
    "contain": 18503,
    "ivory": 10273,
    "Ġmarching": 16698,
    "Ġinstincts": 16988,
    "oars": 9617,
    "Ġsince": 1796,
    "coward": 13704,
    "Ġhowling": 8512,
    "Ġwindward": 6885,
    "Ġbecome": 3161,
    "itch": 10163,
    "Ġbeat": 4494,
    "Ġforbid": 7865,
    "ay": 355,
    "Ġcigarette": 20658,
    "extremely": 26265,
    "Ġpublished": 11244,
    "Ġpikes": 21480,
    "ston": 15687,
    "hack": 20898,
    "sullenly": 26150,
    "john": 11500,
    "Ġconcoct": 19049,
    "another": 5439,
    "Ġstru": 2171,
    "atter": 653,
    "eringly": 23006,
    "andering": 21871,
    "Ġ129": 24474,
    "henomenon": 13618,
    "chron": 21697,
    "Ġdecided": 5471,
    "Ġrelinquish": 17350,
    "Ġremoter": 20109,
    "urning": 12921,
    "Ġcroquet": 9965,
    "Ġofficially": 24839,
    "usive": 8190,
    "Ġinform": 995,
    "Ġresponses": 23653,
    "am": 368,
    "Ġdick": 3501,
    "visits": 24226,
    "ict": 592,
    "desolation": 20462,
    "named": 9896,
    "Ġn": 300,
    "llable": 6879,
    "Ġtertiary": 15298,
    "Ġkicking": 16903,
    "Ġobscured": 15013,
    "Ġadro": 15871,
    "easily": 17536,
    "erred": 6377,
    "belais": 24042,
    "Ġforbade": 15218,
    "Ġarsac": 11746,
    "ien": 10104,
    "Ġaccounts": 7207,
    "Ġshooting": 11164,
    "names": 16540,
    "Ġseveral": 2675,
    "Ġtumultuous": 10618,
    "Ġintervals": 5598,
    "Ġslugg": 15272,
    "Ġdepartments": 24245,
    "mediterranean": 16408,
    "Ġparr": 22123,
    "Ġspleen": 26423,
    "penn": 18828,
    "Ġfelicity": 7260,
    "Ġformations": 18750,
    "Ġpleated": 16300,
    "Ġinsatiable": 19274,
    "Ġextend": 18697,
    "Ġcorrob": 16270,
    "design": 19343,
    "Ġtatters": 21180,
    "Ġsullenly": 17175,
    "Ġabsolute": 6766,
    "imperturbable": 25791,
    "Ġmagic": 8233,
    "Ġherds": 9719,
    "Ġdoor": 1741,
    "commendation": 26351,
    "Ġboats": 2639,
    "Ġdedication": 3074,
    "bod": 12441,
    "Ġsacrificed": 17425,
    "Ġpasses": 2681,
    "Ġpallor": 13519,
    "Ġrabbit": 4291,
    "Ġtransparency": 10679,
    "Ġretire": 10384,
    "Ġheroines": 19754,
    "Ġcamberwell": 25351,
    "Ġscornful": 25000,
    "appalling": 22848,
    "Ġfaintness": 24571,
    "remed": 18955,
    "fowl": 17551,
    "weigh": 18666,
    "Ġrespectability": 14487,
    "Ġalteration": 9549,
    "Ġflushed": 13032,
    "capt": 3837,
    "Ġcosmopol": 16455,
    "footman": 17165,
    "Ġbenjamin": 26569,
    "Ġinterlude": 16074,
    "omically": 13979,
    "prepare": 20215,
    "discoloured": 23502,
    "Ġperu": 14225,
    "plenty": 14091,
    "Ġforwarded": 19047,
    "anelles": 26436,
    "Ġplanisphere": 26609,
    "aboard": 21798,
    "establishment": 26114,
    "Ġpermitted": 9281,
    "lin": 9606,
    "Ġgrop": 12669,
    "Ġgirls": 4280,
    "Ġhoisting": 9865,
    "Ġjabez": 11769,
    "Ġarmitage": 23583,
    "mut": 17597,
    "oso": 12836,
    "Ġdeeds": 15763,
    "sec": 6154,
    "Ġswell": 8952,
    "ival": 4228,
    "Ġgermans": 25785,
    "moral": 14805,
    "eter": 11624,
    "Ġtowed": 11267,
    "stead": 10848,
    "oe": 7552,
    "Ġice": 3606,
    "isive": 10795,
    "ames": 2958,
    "dream": 8731,
    "Ġeffects": 7236,
    "makes": 10713,
    "Ġlig": 21551,
    "Ġmoluccas": 25630,
    "Ġsquaw": 22842,
    "Ġmermaid": 17815,
    "Ġscrutin": 26017,
    "iters": 21332,
    "Ġutilize": 4799,
    "Ġtougher": 21179,
    "Ġit": 339,
    "script": 11079,
    "_.âĢĶ": 23476,
    "Ġtearless": 24785,
    "nineteenth": 26139,
    "retreat": 23140,
    "life": 4933,
    "omited": 21644,
    "aping": 8194,
    "Ġpalp": 11252,
    "Ġstarting": 7729,
    "Ġworthy": 7241,
    "Ġbrown": 6300,
    "Ġbarrowful": 25596,
    "Ġbroke": 5323,
    "Ġhampshire": 15246,
    "ringle": 21043,
    "Ġceler": 15555,
    "Ġseedy": 21966,
    "ruin": 22186,
    "Ġairth": 23321,
    "Ġsammy": 24933,
    "Ġpip": 1588,
    "Ġrejoinder": 24598,
    "usable": 22283,
    "Ġweal": 21924,
    "Ġblew": 9048,
    "torn": 17684,
    "Ġcabinet": 23864,
    "Ġfond": 4756,
    "Ġserenely": 13510,
    "blending": 24130,
    "Ġshort": 2225,
    "Ġcompliance": 12119,
    "ww": 10739,
    "Ġused": 2060,
    "Ġtarget": 2822,
    "trust": 21081,
    "Ġinexpressible": 17336,
    "ufact": 10735,
    "Ġfamiliar": 5511,
    "pred": 2802,
    "Ġnarr": 5085,
    "Ġbureau": 11593,
    "Ġoutside": 5554,
    "Ġcredit": 4820,
    "uberance": 25917,
    "illings": 14145,
    "but": 593,
    "harrow": 20910,
    "aan": 20766,
    "invest": 11562,
    "Ġaf": 782,
    "Ġnecess": 3480,
    "shire": 3024,
    "_,âĢĻ": 12437,
    "Ġeffusion": 22490,
    "ĠĠĠĠĠĠĠĠĠĠĠĠĠ": 22567,
    "Ġentreaties": 9038,
    "Ġsisterly": 16307,
    "Ġegypt": 9681,
    "Ġstun": 11653,
    "mises": 20980,
    "Ġnobler": 14176,
    "atory": 6127,
    "Ġultimately": 17167,
    "Ġminuteness": 19140,
    "Ġdiscussed": 19562,
    "Ġendeavour": 4679,
    "ii": 4015,
    "Ġarranging": 11176,
    "Ġdelayed": 9521,
    "Ĭ": 237,
    "iliating": 12700,
    "care": 4929,
    "aware": 16298,
    "incible": 16499,
    "Ġasi": 12737,
    "Ġmansion": 17811,
    "Ġfloor": 4381,
    "Ġchim": 5934,
    "fore": 686,
    "iro": 20916,
    "Ġbrawn": 10484,
    "Ġrepast": 16414,
    "derer": 4602,
    "Ġnights": 7258,
    "Ġlany": 21557,
    "Ġsally": 15505,
    "Ġplenty": 6710,
    "Ġresearches": 13124,
    "Ġalice": 1481,
    "shattered": 22463,
    "Ġcasked": 24497,
    "Ġcracked": 8597,
    "lucas": 15155,
    "pend": 6368,
    "Ġcornelius": 13577,
    "Ġserpents": 13081,
    "thing": 1478,
    "hearty": 14837,
    "orers": 14106,
    "Ġpitied": 14694,
    "ondon": 2707,
    "Ġdood": 22246,
    "Ġfriday": 14490,
    "Ġventing": 19496,
    "Ġfootpaths": 26319,
    "ullo": 12734,
    "Ġfoaming": 18992,
    "Ġdesignated": 19524,
    "Ġfamiliarly": 11305,
    "Ġmonsieur": 12425,
    "Ġsupplication": 25492,
    "Ġdefault": 3044,
    "slipped": 25530,
    "Ġstalls": 25648,
    "Ġatmosphere": 10899,
    "bres": 11473,
    "evenings": 19466,
    "Ġbowl": 11206,
    "hement": 13835,
    "Ġenthr": 22744,
    "Ġunbending": 25465,
    "cery": 20810,
    "Ġexplo": 2287,
    "Ġfourth": 7707,
    "Ġdelights": 14598,
    "yth": 982,
    "Ġunfathomably": 25874,
    "Ġbeacon": 21760,
    "ub": 1226,
    "Ġdisinterested": 16061,
    "Ġwithered": 19468,
    "disputed": 23504,
    "Ġrepublican": 17415,
    "baron": 24926,
    "Ġhis": 380,
    "honor": 19902,
    "expressed": 9044,
    "jabez": 20935,
    "Ġswearing": 16467,
    "Ġsurpassed": 25268,
    "Ġaw": 2509,
    "osp": 6854,
    "descried": 11933,
    "degrees": 22155,
    "flung": 16641,
    "ilet": 12834,
    "Ġsuit": 5725,
    "Ġminutely": 14563,
    "Ġsoothing": 8173,
    "trem": 17683,
    "cher": 5786,
    "Ġmccarthy": 5145,
    "evident": 25521,
    "Ġterritories": 23849,
    "Ġbaronial": 23795,
    "Ġdusk": 12331,
    "Ġpink": 12623,
    "Ġduodecimo": 16769,
    "Ġarches": 14165,
    "Ġplunged": 8696,
    "romised": 14115,
    "two": 3860,
    "Ġwept": 7184,
    "precise": 19354,
    "Ġyarman": 12710,
    "Ġhobbling": 25645,
    "Ġcrusad": 23708,
    "Ġklan": 23664,
    "Ġappal": 18360,
    "either": 6792,
    "Ġlanes": 19768,
    "Ġreus": 8826,
    "Ġmo": 628,
    "Ġfin": 1459,
    "cask": 12451,
    "Ġah": 5075,
    "runs": 25416,
    "Ġperch": 10301,
    "Ġdisabled": 18562,
    "anxiously": 15114,
    "rich": 11520,
    "Ġpollard": 20389,
    "Ġzoned": 22823,
    "Ġhaunt": 18198,
    "Ġmove": 5107,
    "Ġinvader": 23482,
    "Ġteaching": 10367,
    "Ġtutored": 20131,
    "Ġprehensile": 26536,
    "olog": 1113,
    "Ġbrink": 18772,
    "Ġspend": 5306,
    "ability": 717,
    "Ġdive": 10175,
    "Ġboard": 3386,
    "Ġtie": 10752,
    "acles": 8522,
    "Ġbump": 9662,
    "uger": 21106,
    "merged": 11196,
    "Ġenergies": 25460,
    "voices": 21120,
    "Ġgradient": 450,
    "beth": 13692,
    "Ġmembrane": 20507,
    "Ġimbued": 17458,
    "blog": 19842,
    "Ġshyness": 20309,
    "Ġcakes": 13887,
    "Ġswimming": 5507,
    "yramid": 8368,
    "Ġhaz": 12760,
    "Ġdyspeps": 16508,
    "suspended": 15181,
    "using": 5468,
    "awned": 19463,
    "posted": 24636,
    "Ġpliny": 11829,
    "Ġble": 5223,
    "Ġzone": 14364,
    "Ġgrimesby": 11459,
    "Ġcabal": 23643,
    "unctuous": 21886,
    "Ġaudible": 19883,
    "Ġhaunts": 18199,
    "Ġquiver": 16007,
    "nets": 9135,
    "ut": 308,
    "cra": 6356,
    "wled": 15457,
    "agger": 7872,
    "ries": 3356,
    "voy": 7145,
    "Ġpile": 8425,
    "Ġapologize": 15132,
    "Ġgraceful": 11298,
    "supper": 12924,
    "frau": 15093,
    "ropes": 7903,
    "angs": 5835,
    "uzza": 11272,
    "anx": 8788,
    "Ġranging": 8481,
    "Ġsolace": 16203,
    "spouter": 22733,
    "Ġvectors": 1770,
    "Ġextending": 11029,
    "contemplated": 20461,
    "Ġnursery": 19753,
    "disgraceful": 26077,
    "nns": 1893,
    "opportunity": 12279,
    "Ġprudential": 17920,
    "Ġrich": 2995,
    "Ġpitiful": 13244,
    "Ġdejected": 20307,
    "Ġcorpus": 13037,
    "Ġfundament": 2930,
    "Ġunt": 2296,
    "help": 1476,
    "Ġvolition": 14800,
    "ording": 9767,
    "Ġhighest": 3532,
    "iver": 2049,
    "Ġconfeder": 25708,
    "acknowledge": 18469,
    "?--": 15307,
    "Ġsympathise": 16796,
    "Ġesq": 15112,
    "Ġmarried": 3411,
    "deformity": 22151,
    "octavo": 11387,
    "giana": 7801,
    "Ġapplying": 13097,
    "ssible": 2994,
    "Ġnovelty": 13467,
    "manners": 16189,
    "youn": 5690,
    "Ġalgorith": 563,
    "Ġaffectionately": 13172,
    "Ġsound": 2241,
    "impenet": 18056,
    "trifling": 19417,
    "Ġcells": 13888,
    "soldiers": 25912,
    "Ġchat": 6562,
    "Ġsemicircular": 26069,
    "proved": 11991,
    "Ġsuch": 794,
    "Ġburnwell": 13272,
    "Ġdistinguished": 8273,
    "Ġunconquerable": 22065,
    "merry": 16539,
    "Ġmaz": 15546,
    "officers": 10630,
    "Ġmiseries": 10349,
    "sorrow": 12513,
    "educated": 17262,
    "Ġinexpress": 12640,
    "Ġunguarded": 15854,
    "Ġplanet": 14753,
    "ruined": 18344,
    "Ġrequest": 6052,
    "Ġcrocodile": 20742,
    "Ġsignificantly": 4521,
    "Ġperiods": 13308,
    "many": 5251,
    "Ġfully": 6344,
    "Ġbowlines": 19324,
    "mild": 15395,
    "Ġmetropol": 11142,
    "anging": 3554,
    "perishing": 22181,
    "Ġresounded": 22548,
    "cous": 8725,
    "proper": 7471,
    "ental": 7169,
    "Ġsow": 17751,
    "Ġdestiny": 8986,
    "Ġfuneral": 10285,
    "lady": 4436,
    "Ġviewed": 10465,
    "Ġarose": 7360,
    "Ġyielded": 14875,
    "Ġangular": 19209,
    "Ġsides": 4581,
    "loud": 11503,
    "mantel": 26396,
    "Ġexcepting": 14682,
    "ushes": 22285,
    "wandering": 20287,
    "Ġviolently": 6457,
    "hester": 9634,
    "Ġmonths": 3459,
    "Ġfruits": 17121,
    "Ġcaused": 5048,
    "Ġswim": 3820,
    "Ġprovides": 1929,
    "Ġpalpable": 15209,
    "Ġnaked": 8127,
    "Ġcomprises": 22577,
    "Ġsubstituting": 26328,
    "catch": 17509,
    "rences": 9275,
    "personal": 24966,
    "Ġstaff": 14010,
    "bringing": 17169,
    "Ġmother": 2069,
    "Ġcandle": 8292,
    "Ġward": 10158,
    "Ġintercept": 14273,
    "Ġtwee": 22678,
    "great": 3520,
    "examined": 17269,
    "vedale": 22711,
    "izabeth": 906,
    "sky": 12515,
    "Ġalliance": 18269,
    "Ġlaunched": 14929,
    "Ġport": 3312,
    "Ġharvard": 24574,
    "Ġclinched": 17397,
    "Ġinvention": 19956,
    "Ġdetection": 3433,
    "guest": 19485,
    "Ġcastaways": 19431,
    "see": 3052,
    "grace": 5847,
    "Ġwrist": 8243,
    "mariners": 19551,
    "Ġdivulged": 16651,
    "Ġsixty": 7723,
    "Ġwont": 9855,
    "Ġclose": 3041,
    "Ġinner": 9673,
    "ignified": 14492,
    "âĢĶ(": 15942,
    "commer": 22812,
    "Ġsire": 15504,
    "Ġraise": 6168,
    "Ġsculpture": 26019,
    "elze": 21576,
    "animated": 14978,
    "spermaceti": 12198,
    "Ġfritters": 23257,
    "Ġfortresses": 23623,
    "Ġdisciple": 22785,
    "Ġsmelling": 16070,
    "Ġruskin": 25810,
    "geons": 15983,
    "Ġbennets": 9809,
    "Ġfriendly": 9823,
    "Ġawed": 23587,
    "ahead": 12438,
    "Ġfanatic": 23393,
    "iloqu": 11651,
    "infor": 3033,
    "od": 353,
    "Ġnorthwards": 19549,
    "feather": 16047,
    "Ġdownwards": 8532,
    "Ġrecommence": 16814,
    "Ġflush": 14427,
    "venty": 6428,
    "full": 7420,
    "Ġanno": 9670,
    "anning": 10167,
    "Ġwell": 900,
    "lean": 21368,
    "Ġdegrees": 7294,
    "Ġwhales": 1826,
    "Ġdisgust": 6707,
    "arranged": 19321,
    "Ġhonorable": 16878,
    "Ġpoint": 2056,
    "Ġmainten": 16120,
    "Ġverify": 12092,
    "Ġsailor": 3539,
    "numerous": 17434,
    "Ġwil": 4582,
    "Ġboun": 21383,
    "Ġsewing": 21965,
    "object": 6884,
    "hs": 8378,
    "bree": 15318,
    "fast": 3076,
    "Ġpenalties": 10414,
    "ply": 6367,
    "mber": 5850,
    "Ġprovoke": 14829,
    "Ġproble": 1108,
    "Ġdromed": 15601,
    "Ġintensely": 17019,
    "abulary": 4801,
    "Ġexcitement": 9383,
    "Ġunb": 10908,
    "lightning": 16555,
    "Ġconsequence": 5542,
    "Ġacquitted": 18900,
    "inions": 8403,
    "Ġbott": 3152,
    "Ġtails": 9905,
    "Ġgrunted": 16172,
    ",âĢĶâĢĺ": 23804,
    "Ġshoe": 14570,
    "Ġspears": 12931,
    "rived": 5373,
    "keenest": 25662,
    "castles": 14638,
    "hot": 8084,
    "Ġdefects": 12337,
    "Ġfable": 15581,
    "mpus": 13760,
    "elope": 14474,
    "takes": 21079,
    "Ġnarrations": 24352,
    "Ġsuffers": 2977,
    "Ġstamping": 20034,
    "Ġmult": 1022,
    "Ġclaims": 13377,
    "accustomed": 13161,
    "Ġpatagon": 14509,
    "Ġminima": 3467,
    "Ġshel": 6847,
    "Ġsepar": 3999,
    "Ġsurvivor": 17366,
    "Ġsculpt": 15957,
    "Ġcoopman": 25829,
    "Ġhappening": 14386,
    "infer": 10147,
    "active": 16107,
    "Ġcaroline": 7254,
    "Ġhurst": 5582,
    "mbles": 23092,
    "rubbed": 22190,
    "benefit": 24643,
    "Ġwhelm": 25999,
    "ĠâĢľâĢĻ": 22258,
    "Ġflat": 8228,
    "niece": 20997,
    "Ġdragging": 14477,
    "Ġceleb": 20228,
    "Ġvaluable": 5608,
    "assisted": 22311,
    "Ġgreeted": 23212,
    "Ú": 155,
    "Ġcrept": 11023,
    "according": 12032,
    "Ġbesides": 3517,
    "Ġgame": 3630,
    "Ġmild": 4146,
    "Ġloun": 7167,
    "Ġpenetrating": 17013,
    "ojo": 7349,
    "Ġnot": 413,
    "Ġassurances": 10003,
    "Ġpassive": 22844,
    "ignorant": 13567,
    "Ġundressed": 19516,
    "Ġaloof": 21789,
    "happ": 3108,
    "Ġchristians": 13313,
    "derbyshire": 18322,
    "Ġnodded": 11974,
    "Ġenlar": 15804,
    "Ġnation": 12652,
    "Ġconjure": 17126,
    "nect": 661,
    "Ġsweetheart": 19398,
    "precaution": 23825,
    "punctual": 26357,
    "Ġparticular": 2451,
    "shaw": 6864,
    "globe": 25145,
    "Ġexceeding": 1580,
    "neville": 22455,
    "Ġmappings": 2148,
    "Ġwhip": 8453,
    "father": 3776,
    "showing": 22465,
    "mody": 16188,
    "Ġcollections": 22862,
    "sensations": 20054,
    "Ġgrizz": 10354,
    "winter": 10743,
    "Ġconver": 806,
    "ascended": 24705,
    "Ġregard": 3072,
    "Ġofficer": 6755,
    "ittered": 18440,
    "Ġgid": 13965,
    "Ġhenry": 5197,
    "omit": 13977,
    "Ġsickbed": 24249,
    "Ġalbertus": 25649,
    "Ġcomb": 1049,
    "Ġwield": 21293,
    "Ġbid": 6133,
    "Ġfeel": 1261,
    "Ġgulf": 10638,
    "aciously": 12912,
    "idence": 4304,
    "Ġvillage": 5774,
    "ite": 712,
    "Ġamongst": 8962,
    "atre": 17772,
    "pile": 17631,
    "Ġaloft": 4305,
    "Ġcommanded": 6332,
    "Ġacquiesce": 20332,
    "sherlock": 5422,
    "dington": 12070,
    "childhood": 16870,
    "frequent": 15357,
    "Ġhandful": 9785,
    "uled": 11539,
    "vig": 15449,
    "Ġcountess": 11968,
    "inian": 21185,
    "Ġplunge": 13447,
    "iem": 20919,
    "mechan": 11861,
    "Ġscandalous": 24880,
    "Ġrecommended": 8671,
    "aut": 1912,
    "Ġperusal": 14227,
    "tis": 4104,
    "Ġcomputers": 2646,
    "Ġabominable": 12326,
    "Ġparted": 5930,
    "kee": 18274,
    "lings": 8749,
    "Ġacceptance": 14830,
    "Ġupon": 719,
    "Ġdisappoint": 24208,
    "Ġscolding": 15204,
    "Ġdefine": 9818,
    "Ġcalculate": 13268,
    "moment": 3581,
    "Ġsab": 10764,
    "Ġinclined": 6625,
    "huzza": 20915,
    "Ġplot": 14283,
    "causes": 20346,
    "Ġgenerally": 4156,
    "tol": 17674,
    "wanted": 10745,
    "laws": 19810,
    "spir": 5738,
    "bank": 10082,
    "Ġlicence": 25099,
    "feeling": 6619,
    "argue": 21447,
    "Ġmug": 21315,
    "Ġjamming": 17267,
    "Ġmercy": 9001,
    "[_": 5131,
    "gia": 20878,
    "Ġunluckily": 20105,
    "Ġepis": 19985,
    "Ġsubterr": 10351,
    "Ġer": 8105,
    "gown": 9599,
    "be": 672,
    "Ġcircumnavigating": 25615,
    "Ġlamented": 24994,
    "imate": 4222,
    "ibility": 2391,
    "Ġplatonian": 25121,
    "learnt": 23542,
    "Ġobstetrics": 24679,
    "Ġhunting": 7259,
    "Ġdared": 5440,
    "bride": 19202,
    "Ġburg": 23656,
    "Ġpleases": 16301,
    "Ġcorrected": 10450,
    "Ġcedars": 20295,
    "Ġbreathe": 9015,
    "remember": 7262,
    "sculptured": 26047,
    "principle": 10653,
    "Ġsales": 12812,
    "Ġweighed": 8714,
    "miserably": 24213,
    "Ġentranced": 25835,
    "Ġblowing": 10487,
    "Ġdetermined": 2222,
    "Ġsensit": 2951,
    "Ġremnants": 22795,
    "nearly": 8684,
    "uttle": 6249,
    "Ġrespite": 13158,
    "Ġpunish": 12164,
    "Ġunimaginable": 15250,
    "lutions": 20952,
    "100": 11466,
    "Ġsummers": 23876,
    "snapping": 24850,
    "Ġbrill": 8552,
    "mo": 862,
    "Ġinstead": 2790,
    "evade": 24817,
    "Ġimpatiently": 8338,
    "Ġdenoted": 16568,
    "faith": 15027,
    "Ġgriefs": 16773,
    "skill": 24487,
    "Ġferry": 24498,
    "luxur": 25823,
    "Ġcollar": 11883,
    "perform": 15898,
    "particulars": 11317,
    "pedest": 24823,
    "Ġschoolmaster": 16864,
    "Ġenhance": 3208,
    "Ġplank": 7035,
    "reve": 12544,
    "Ġbreeze": 5681,
    "Ġappropriated": 23488,
    "Ġ$": 21153,
    "rible": 3229,
    "ĕ": 214,
    "traced": 19648,
    "Ġprices": 15616,
    "Ġribbons": 24325,
    "Ġmethodic": 23195,
    "luc": 9755,
    "Ġwhimsical": 20431,
    "data": 2392,
    "Ġrepe": 3280,
    "Ġblade": 11897,
    "Ġpay": 3963,
    "Ġorgies": 18286,
    "Ġstructures": 2721,
    "Ġspermaceti": 8970,
    "icity": 2539,
    "Ġ83": 24459,
    "Ġscaled": 2106,
    "Ġdiffusion": 23784,
    "Ġquart": 11791,
    "Ġstates": 1851,
    "terdam": 18132,
    "Ġstagnant": 24655,
    "Ġsoftly": 7948,
    "Ġresulting": 24201,
    "ure": 356,
    "Ġthrusts": 24350,
    "asets": 2311,
    "Ġmob": 16021,
    "sentence": 2942,
    "allah": 5839,
    "eminence": 20102,
    "otion": 4946,
    "Ġbetray": 7442,
    "incidentally": 20542,
    "ignomin": 23267,
    "Ġmatrim": 11062,
    "Ġprodu": 1206,
    "Ġspitz": 14151,
    "Ġwhitting": 18058,
    "Ġfortnight": 6202,
    "Ġezekiel": 26194,
    "Ġplanted": 9777,
    "Ġvigorously": 11301,
    "_.)": 7278,
    "Ġtar": 2564,
    "prev": 12872,
    "xic": 9148,
    "Ġreg": 728,
    "Ġaugmented": 15109,
    "Ġthrew": 3974,
    "tese": 21086,
    "seeking": 17155,
    "Ġirritated": 17244,
    "deserts": 25382,
    "Ġgn": 8822,
    "Ġhuddled": 20302,
    "Ġcapsized": 20093,
    "Ġskills": 1838,
    "Ġnod": 1888,
    "Ġridiculous": 10631,
    "Ġchinks": 22255,
    "Ġpath": 2115,
    "Ġtand": 21163,
    "determined": 9082,
    "Ġargue": 16785,
    "Ġlegitimate": 20644,
    "Ġpanel": 13376,
    "Ġjacobians": 2897,
    "Ġplutarch": 22606,
    "ional": 1082,
    "countenance": 6925,
    "Ġcurtains": 22977,
    "Ġattraction": 18627,
    "Ġjo": 2609,
    "iling": 3098,
    "Ġsubsc": 22790,
    "surface": 10533,
    "Ġguess": 4904,
    "erde": 21271,
    "Ġtargets": 4205,
    "Ġcarelessly": 11121,
    "Ġcorpulence": 24509,
    "Ġtexture": 19162,
    "Ġlies": 5297,
    "Ġwo": 3652,
    "Ġfurled": 22817,
    "Ġminimize": 7052,
    "Ġcontinually": 5042,
    "Ġyale": 21783,
    "Ġcommercial": 22677,
    "nearest": 16026,
    "score": 18858,
    "zor": 15461,
    "Ġincluded": 8959,
    "Ġobser": 2071,
    "Ġcaresses": 26060,
    "Ġbitter": 4173,
    "Ġcoherent": 3263,
    "ices": 2139,
    "silenced": 24423,
    "á": 162,
    "ivery": 17574,
    "thinking": 9017,
    "Ġgilded": 17448,
    "Ġimpaling": 22387,
    "visitor": 15060,
    "apprec": 22847,
    "Ġclumsy": 9582,
    "Ġwidow": 8666,
    "communication": 25881,
    "Ġthreaten": 24374,
    "Ġdaboll": 25951,
    "Ġfifty": 4625,
    "Ġreception": 9842,
    "Ġscenari": 22306,
    "mentioned": 10626,
    "Ġquiescent": 26244,
    "umns": 14150,
    "Ġsto": 1495,
    "kind": 3863,
    "cottage": 9572,
    "Ġassociate": 13454,
    "Ġglacier": 11435,
    "Ġhearse": 10422,
    "Ġparch": 11730,
    "hoping": 17568,
    "Ġmantel": 11441,
    "function": 4388,
    "tumultuous": 20402,
    "Ġmerrily": 23734,
    "Ġmisfortunes": 7043,
    "Ġlimber": 16481,
    "Ġax": 7822,
    "Ġinco": 14263,
    "ituted": 13876,
    "amet": 590,
    "Ġinterference": 8898,
    "accessory": 25500,
    "Ġcontemptuous": 24677,
    "Ġdignified": 15602,
    "Ġjuicy": 25371,
    "Ġhedge": 8364,
    "Ġball": 3625,
    "grinder": 23417,
    "hatherley": 17570,
    "advent": 10223,
    "Ġcoff": 3511,
    "althily": 19362,
    "Ġshops": 22005,
    "Ġ102": 24410,
    "Ġarrog": 18346,
    "Ġobey": 9522,
    "Ġliable": 14231,
    "Ġink": 8807,
    "Ġconsulted": 13434,
    "gaz": 20880,
    "Ġparacelsus": 15270,
    "¾": 127,
    "Ġendeav": 2959,
    "Ġmeasuring": 22883,
    "Ġevalu": 2761,
    "ek": 1908,
    "ildad": 3535,
    "Ġabsor": 8507,
    "Ġinstrum": 6056,
    "Ġdeified": 18143,
    "beards": 22495,
    "uc": 1876,
    "Ġmrs": 1466,
    "Ġsaratoga": 26425,
    "Ġpartial": 2129,
    "Æ": 135,
    "Ġenig": 15803,
    "vanished": 15063,
    "Ġpauses": 14818,
    "Ġwatson": 3599,
    "ĠĠĠĠĠĠĠĠĠĠĠĠĠĠĠĠĠĠĠĠĠĠĠĠĠĠĠ": 14889,
    "Ġin": 291,
    "Ġhands": 1665,
    "Ġtragedy": 10670,
    "Ġaway": 1244,
    "roc": 9677,
    "Ġhired": 10180,
    "Ġimpet": 11783,
    "Ġenlivened": 26209,
    "scrape": 25699,
    "pleasures": 24050,
    "an": 278,
    "amp": 2606,
    "on": 267,
    "onted": 11570,
    "ifferent": 4263,
    "Ġdoubtfully": 23481,
    "ssing": 3809,
    "Ġinser": 6820,
    "Ġprognost": 15285,
    "Ġbut": 424,
    "lighted": 23756,
    "Ġobli": 9319,
    "Ġexcavating": 23316,
    "Ġgrain": 15835,
    "Ġunlo": 22014,
    "settled": 10509,
    "Ġshade": 6552,
    "tailed": 17687,
    "ux": 7813,
    "Ġnuptial": 25783,
    "rifled": 21050,
    "Ġcoop": 14274,
    "Ġmediocr": 24141,
    "_).âĢĶ": 8685,
    "devilish": 17083,
    "Ġspared": 7893,
    "Ġoverl": 18424,
    "begone": 12884,
    "phur": 16154,
    "unavoidable": 17393,
    "Ġerr": 1322,
    "Ġban": 7157,
    "mbl": 5947,
    "Ġalleghan": 25796,
    "ppa": 10242,
    "Ġbower": 15571,
    "Ġimmut": 13302,
    "Ġch": 513,
    "Ġinconven": 7587,
    "Ġsurgeons": 23468,
    "Ġmeadow": 17154,
    "Ġric": 18210,
    "Ġmariners": 6069,
    "Ġavailed": 23955,
    "Ġfaire": 13369,
    "notwithstanding": 22752,
    "Ġinflict": 15003,
    "Ġmechanis": 1203,
    "Ġcyn": 13889,
    "Ġpirates": 9076,
    "X": 60,
    "Ġsilence": 3268,
    "Ġsuspend": 14611,
    "entiating": 3442,
    "Ġspite": 4155,
    "Ġdorm": 4823,
    "Ġobjection": 6587,
    "Ġseverity": 15824,
    "Ġpersuaded": 5769,
    "Ġextraction": 11254,
    "Ġjetted": 24431,
    "Ġtechni": 1675,
    "subst": 12169,
    "renched": 7907,
    "worm": 15456,
    "brothers": 17026,
    "Ġphaeton": 17467,
    "Ġimmensities": 25331,
    "crane": 24089,
    "ises": 3655,
    "emberley": 4171,
    "esteemed": 26010,
    "Ġgidd": 25784,
    "Ġcoiled": 11824,
    "context": 3407,
    "concl": 12874,
    "Ġdemeanour": 17340,
    "Ġglobe": 6077,
    "Ġmeeting": 5193,
    "Ġowen": 15098,
    "Ġdistrusted": 13545,
    "Ġsustaining": 25334,
    "Ġunderstand": 834,
    "Ġpettic": 14844,
    "Ġbland": 11066,
    "Ġrevealed": 6753,
    "Ġyonder": 7392,
    "ilar": 10218,
    "Ġunnatural": 7190,
    "arat": 9183,
    "matters": 14877,
    "ingu": 2120,
    "Ġincred": 5646,
    "Ġgabriel": 7596,
    "Ġcarry": 4780,
    "Ġohio": 19130,
    "mist": 5686,
    "onies": 6807,
    "uesday": 8590,
    "Ġwestern": 10657,
    "Ġwounding": 19589,
    "Ġdeity": 18140,
    "Ġshortness": 23485,
    "Ġstr": 756,
    "hearing": 8404,
    "Ġeither": 2604,
    "Ġyet": 1028,
    "ulance": 15771,
    "glue": 17558,
    "erson": 7003,
    "mosphere": 10046,
    "Ġnomin": 10193,
    "Ġbeasts": 10620,
    "Ġjoyously": 19350,
    "Ġmedium": 16708,
    "Ġconquered": 14029,
    "Ġsummoning": 23877,
    "Ġlaudanum": 20693,
    "Ġtraditions": 11445,
    "arrang": 14654,
    "Ġstarboard": 7608,
    "orn": 2242,
    "fters": 20863,
    "Ġreservo": 16833,
    "ensical": 18570,
    "Ġappetite": 12388,
    "Ġthickening": 24027,
    "etition": 7382,
    "hun": 5210,
    "Ġastr": 15497,
    "deepest": 22839,
    "punct": 20195,
    "fail": 17542,
    "Ġtell": 1467,
    "Ġimpulse": 10027,
    "onent": 21251,
    "Ġbenignity": 18783,
    "Ġsuckling": 25998,
    "Ġhosts": 19942,
    "Ġcouch": 12576,
    "countenances": 24154,
    "protest": 24812,
    "jonah": 11499,
    "Ġcetology": 10012,
    "lights": 13209,
    "Ġunfelt": 24112,
    "Ġtorrid": 25035,
    "account": 5330,
    "Ġnat": 12650,
    "orses": 6053,
    "Ġanimal": 2498,
    "Ġlou": 6822,
    "Ġsnugness": 20080,
    "Ġflask": 3045,
    "put": 414,
    "Ġleg": 2336,
    "Ġextinction": 14343,
    "strangely": 17279,
    "Ġsnodhead": 19304,
    "Ġcobbling": 20526,
    "tribute": 21091,
    "quadr": 15768,
    "friendship": 24052,
    "Ġcloth": 9747,
    "Ġtire": 17722,
    "Ġpry": 11602,
    "Ġscare": 18406,
    "Ġmaimed": 21319,
    "Ġimpartial": 15223,
    "Ġtwinkled": 14315,
    "gely": 10702,
    "iverer": 11720,
    "Ġbang": 17856,
    "Ġseemed": 1278,
    "Ġsmell": 7216,
    "Ġinnumerable": 13356,
    "contrast": 25595,
    "stonecraft": 24356,
    "flaming": 23973,
    "Ġconspicuous": 13607,
    "Ġstrings": 11833,
    "Ġmore": 678,
    "pon": 17627,
    "Ġsatisfactory": 11194,
    "leman": 21371,
    "Ġdang": 9177,
    "find": 6954,
    "Ġsauce": 15893,
    "Ġturnpike": 23030,
    "Ġwithal": 18116,
    "Ġscreaming": 13427,
    "Ġfumes": 21421,
    "anzas": 17842,
    "Ġnoting": 18222,
    "scales": 22997,
    "Ġrural": 21974,
    "Ġneuron": 1807,
    "promised": 12256,
    "desolate": 25717,
    "Ġyawned": 15054,
    "Ġvegetables": 15225,
    "Ġuneasiness": 9487,
    "Ġconcernment": 23649,
    "Ġ35": 24080,
    "wish": 8100,
    "listened": 15046,
    "Ġsling": 21223,
    "ic": 304,
    "Ġuninhabited": 22053,
    "Ġbast": 21382,
    "Ġglanced": 5953,
    "Ġtested": 23225,
    "Ġpresentiment": 18989,
    "riminately": 16485,
    "Ġjewell": 19523,
    "Ġassaulted": 25321,
    "Ġhark": 8429,
    "penet": 11072,
    "Ġbestow": 6456,
    "Ġrevolution": 3307,
    "Ġsoar": 18278,
    "moid": 2452,
    "Ġtr": 554,
    "discrimin": 19611,
    "Ġprotracted": 19472,
    "Ġaust": 4872,
    "isturbed": 18298,
    "Ġexpressive": 8985,
    "gledy": 25404,
    "Ġfrosty": 14938,
    "Ġbaby": 6639,
    "Ġfejee": 18354,
    "Ġtrembling": 7481,
    "Ġcompre": 4451,
    "Ġagile": 22517,
    "Ġbulge": 23860,
    "Ġsteeple": 19290,
    "Ġdry": 5624,
    "Ġmayhap": 18712,
    "overing": 6308,
    "Ġphysi": 9991,
    "Ġaboriginal": 14191,
    "Ġnovelties": 24777,
    "hereditary": 26421,
    "fellows": 12278,
    "Ġcontrivance": 17186,
    "visit": 7755,
    "queens": 22899,
    "Ġplaymate": 23639,
    "Ġintended": 5548,
    "Ġlordly": 23746,
    "stave": 21652,
    "cooee": 12422,
    "Ġretarded": 23075,
    "alled": 5912,
    "Ġcreature": 2385,
    "Ġnuts": 17954,
    "Ġdank": 21431,
    "Ġdressed": 5081,
    "Ġdarts": 16770,
    "Ġoffers": 12950,
    "âĢĻ": 378,
    "Ġfamil": 4323,
    "Ġtoast": 21515,
    "Ġbrass": 11050,
    "Ġindebted": 8711,
    "Ġheadland": 22901,
    "Ġpref": 14174,
    "Ġclipping": 2443,
    "soup": 21061,
    "scept": 21056,
    "ohn": 4563,
    "maker": 12497,
    "Ġcent": 3254,
    "whar": 15931,
    "Ġlives": 4828,
    "Ġrepresented": 8941,
    "experienced": 15125,
    "husband": 8042,
    "Ġprofuse": 23568,
    "Ġlick": 21553,
    "Ġquill": 12862,
    "surprised": 9534,
    "enet": 10155,
    "Ġlunging": 24992,
    "Ġreview": 18033,
    "flask": 12104,
    "Ġsex": 8846,
    "Ġwhisper": 6207,
    "Ġzones": 22822,
    "adieu": 26202,
    "Ġtrembled": 8705,
    "Ġpiercing": 13497,
    "france": 24284,
    "hangs": 15372,
    "Ġhiding": 9826,
    "Ġsorrow": 4630,
    "Ġtelesc": 12995,
    "aye": 3661,
    "Ġfrequencies": 4790,
    "worse": 14693,
    "Ġubiquitous": 26197,
    "Ġcylinders": 25944,
    "raction": 8138,
    "Ġcrav": 19175,
    "Ġsumatra": 15290,
    "interested": 9509,
    "wherefore": 19110,
    "av": 700,
    "roses": 17959,
    "Ġsher": 3763,
    "cil": 8724,
    "Ġcab": 2634,
    ";âĢĶ": 3750,
    "Ġwas": 370,
    "Ġupheld": 22156,
    "nut": 12499,
    "Ġevangel": 11282,
    "Ġsweating": 16465,
    "Ġmoulded": 16977,
    "Ġoun": 13866,
    "Ġugl": 12687,
    "Ġmanif": 8874,
    "Ġbraced": 16582,
    "mixed": 17607,
    "angle": 22105,
    "Ġaffliction": 25846,
    "Ġlime": 13951,
    "ify": 1505,
    "onomy": 12552,
    "darkened": 24517,
    "bbing": 6325,
    "Ġad": 446,
    "Ġstool": 14464,
    "Ġhatchet": 16532,
    "Ġrepul": 16412,
    "alization": 731,
    "Ġattested": 22632,
    "reds": 12755,
    ".âĢĿ": 464,
    "Ġdesolate": 10016,
    "hailed": 17567,
    ".âĢĻ": 1718,
    "everlasting": 18773,
    "Ġaccept": 4414,
    "Ġcooper": 16081,
    "Ġmetal": 9386,
    "theirs": 23604,
    "Ġinterpretation": 19719,
    "prevent": 11799,
    "dri": 5889,
    "ro": 301,
    "Ġderivatives": 2373,
    "Ġassert": 7122,
    "Ġunique": 12782,
    "iforn": 14067,
    "Ġapart": 4747,
    "Ġlamps": 14793,
    "Ġab": 528,
    "Ġreusable": 13561,
    "Ġdemanded": 8327,
    "Ġkindly": 6078,
    "Ġbeholding": 8672,
    "Ġdoubloon": 6945,
    "ipher": 18422,
    "gratulation": 24349,
    "mental": 16052,
    "Ġwidows": 24239,
    "rier": 9245,
    "Ġforemost": 12009,
    "Ġsurface": 5119,
    "Ġpet": 4588,
    "totally": 25418,
    "Ġarabic": 24981,
    "ichever": 13960,
    "onom": 9161,
    "Ġsuff": 1303,
    "Ġcastle": 14720,
    "Ġregulate": 22583,
    "Ġpostscript": 14811,
    "almost": 4943,
    "Ġpersonages": 23544,
    "inte": 5144,
    "Ġmutually": 23960,
    "Ġdrowning": 19906,
    "Ġlobsters": 13520,
    "swallow": 24260,
    "Ġredeemed": 25790,
    "Ġneedless": 19232,
    "kinson": 10029,
    "Ġchiselled": 25560,
    "riety": 12748,
    "thin": 14100,
    "Ġjealousy": 13580,
    "Ġadvisable": 11444,
    "Ġmildness": 9947,
    "Ġtrifled": 24675,
    "Ġsalad": 19482,
    "Ġmanor": 14199,
    "Ġapplicable": 19014,
    "asht": 4084,
    "astes": 11743,
    "ustom": 3789,
    "Ġjustinian": 22972,
    "Ġsuffocated": 20730,
    "Ġpian": 13920,
    "Ġfacts": 2290,
    "Ġqu": 605,
    "jo": 3751,
    "Ġshad": 3850,
    "city": 15330,
    "Ġcombat": 16187,
    "ouncement": 11749,
    "ission": 6458,
    "Ġroses": 11790,
    "Ġsatiated": 22906,
    "occ": 4487,
    "Ġpilgr": 12185,
    "Ġharpoons": 5659,
    "Ġeasily": 3890,
    "Ġpedest": 15067,
    "Ġrabb": 4162,
    "ske": 13785,
    "whalebone": 19120,
    "mel": 9130,
    "Ġbuttoned": 25369,
    "ĠĠĠĠĠĠĠĠĠĠĠĠĠĠĠĠĠĠĠĠĠĠĠĠĠĠĠĠĠĠĠĠĠĠĠĠĠĠĠĠĠĠĠĠĠĠ": 9956,
    "Ġobjections": 8568,
    "Ġdisclosed": 15157,
    "Ġ75": 19615,
    "ped": 6964,
    "Ġphil": 3388,
    "Ġmodest": 15921,
    "uttering": 12667,
    "azz": 8262,
    "daughter": 8354,
    "armed": 7251,
    "Ġpattered": 19035,
    "misfortunes": 16758,
    "Ġrattler": 24998,
    "Ġmoderation": 12823,
    "Ġneighbours": 8303,
    "Ġblow": 3377,
    "Ġmarrying": 6179,
    "endom": 15927,
    "uments": 5552,
    "Ġflaw": 23013,
    "Ġnature": 2538,
    "Ġlanded": 7469,
    "Ġvoc": 4454,
    "Ġthickly": 12120,
    "Ġamend": 16038,
    "ugging": 23290,
    "te": 993,
    "Ġvideo": 25366,
    "Ġair": 1835,
    "steelkilt": 10050,
    "unts": 12736,
    "Ġreconciled": 13591,
    "felt": 5890,
    "Ġapr": 12537,
    "butter": 11789,
    "Ġanimated": 7702,
    "allic": 12818,
    "sh": 646,
    "missionary": 24616,
    "oundering": 11750,
    "adays": 14016,
    "ivorous": 22091,
    "velling": 14765,
    "Ġvibration": 17100,
    "Ġnightgown": 23134,
    "alas": 8808,
    "olerably": 11676,
    "Ġcoldly": 14652,
    "ould": 427,
    "Ġowning": 18746,
    "Ġtidy": 17094,
    "Ġberm": 21386,
    "rasing": 21048,
    "Ē": 211,
    "dressed": 10697,
    "Ġincivility": 18575,
    "Ġvine": 8474,
    "71": 20758,
    "Ġsand": 6237,
    "Ġcausing": 16361,
    "solved": 7685,
    "coloured": 7291,
    "Ġfrom": 434,
    "Ġmantle": 25275,
    "Ġwithdraw": 16966,
    "Ġscant": 22299,
    "Ġemer": 5960,
    "Ġerected": 12238,
    "Ġcontriv": 9285,
    "Ġpendulous": 25956,
    "Ġpierced": 12286,
    "weed": 14318,
    "Ġupdate": 2465,
    "abri": 6684,
    "sche": 13024,
    "Ġdoted": 21436,
    "Ġencourage": 10383,
    "Ġgown": 10204,
    "ean": 20842,
    "Ġsupple": 23002,
    "rows": 6443,
    "Ġisa": 14028,
    "onse": 21252,
    "Ġreligious": 25124,
    "chor": 6148,
    "ur": 325,
    "ife": 1025,
    "hest": 3372,
    "ager": 6548,
    "rints": 12507,
    "Ġqualifications": 24676,
    "Ġsurveying": 25326,
    "time": 3150,
    "joice": 9605,
    "Ġintrospective": 20603,
    "ordinary": 4411,
    "Ġnearly": 3366,
    "Ġhaughty": 11451,
    "Ġadhering": 14143,
    "Ġfraud": 19023,
    "Ġhymn": 24518,
    "Ġemb": 1214,
    "Ġovertake": 15971,
    "Ġfatt": 15583,
    "Ġrug": 16161,
    "Ġunmanner": 22031,
    "Ġlubber": 17447,
    "ibilities": 13013,
    "ć": 200,
    "doubtless": 17004,
    "ilt": 2972,
    "Ġcongratulate": 9066,
    "Ġaqu": 17744,
    "Ġinjustice": 9193,
    "Ġbuff": 9175,
    "Ġinquire": 7720,
    "quer": 11683,
    "Ġformerly": 7493,
    "disposed": 25013,
    "som": 3291,
    "Ġcring": 15556,
    "Ġwould": 652,
    "Ġxlvi": 25591,
    "Ġ1890": 23900,
    "Ġgleam": 12312,
    "Ġconceited": 12096,
    "drawers": 19389,
    "Ġsurmised": 24920,
    "Ġconfirmation": 17213,
    "owal": 13999,
    "Ġpocket": 4899,
    "Ġjew": 9470,
    "!âĢĿâĢĶ": 8535,
    "heeded": 13837,
    "Ġsuspect": 5758,
    "supposing": 24136,
    "autumn": 23343,
    "orse": 5807,
    "Ġpondicherry": 20494,
    "Ġand": 295,
    "Ġfairer": 20465,
    "Ġply": 21455,
    "Ġmarble": 7669,
    "Ġemblem": 20501,
    "Ġunmolested": 15249,
    "Ġabruptness": 25300,
    "Ġglossy": 15231,
    "situation": 11439,
    "Ġdoubting": 13105,
    "conjecturing": 20137,
    "Ġpanegyric": 26451,
    "Ġpenetration": 19919,
    "Ġdominic": 25381,
    "oyed": 14365,
    "Ġleather": 7604,
    "Ġashore": 5352,
    "Ġrickety": 26508,
    "anke": 15565,
    "Ġtroop": 24898,
    "Ġstowing": 18077,
    "Ġrenders": 13288,
    "pus": 3418,
    "Ġsinned": 18953,
    "Ġgurg": 15677,
    "Ġdifficult": 3574,
    "Ġslumber": 13065,
    "choose": 23675,
    "Ġfootsteps": 16575,
    "Ġcomment": 9235,
    "ences": 1263,
    "Ġfrequent": 3286,
    "stri": 6251,
    "Ġparasol": 22125,
    "Ġbashee": 19851,
    "Ġencouragement": 13048,
    "Ġdisgusting": 19896,
    "Ġstooping": 13067,
    "spirit": 11315,
    "Ġrestless": 10415,
    "Ġspoutings": 14678,
    "woman": 5900,
    "acious": 5562,
    "alcul": 15632,
    "Ġchoke": 22253,
    "Ġfile": 13906,
    "Ġabreast": 18395,
    "beam": 16042,
    "Ġrivals": 20274,
    "rob": 5534,
    "Ġgoverness": 8605,
    "Ġfinds": 6301,
    "Ġequatorial": 13512,
    "confess": 12180,
    "Ġhonourable": 10458,
    "Ġconfessor": 24022,
    "Ġkills": 15910,
    "Ġnaval": 16901,
    "50": 6785,
    "permitted": 18341,
    "Ġsaw": 1348,
    "whip": 22241,
    "hamed": 6307,
    "Ġfatally": 19397,
    "Ġformality": 22831,
    "Ġhonour": 3923,
    "Ġvect": 1225,
    "Ġboarded": 13238,
    "Ġlit": 6248,
    "glancing": 11216,
    "Ġconsulting": 13433,
    "Ġland": 1996,
    "Ġsperm": 1843,
    "Ġhawaiian": 25367,
    "Ġpatentee": 25587,
    "grief": 13734,
    "Ġordained": 19448,
    "despairing": 25077,
    "osity": 14188,
    "leaped": 17845,
    "Ġmaster": 3682,
    "Ġdisinclination": 22540,
    "Ġbrighton": 6471,
    "bildad": 9589,
    "came": 4572,
    "Ġclothes": 4997,
    "Ġattendance": 12186,
    "Ġrevolving": 9986,
    "gers": 8376,
    "exertion": 16020,
    "constantinople": 25508,
    "tles": 10732,
    "mor": 4216,
    "Ġslee": 8977,
    "Ġtrappers": 23084,
    "Ċ": 203,
    "Ġattendant": 11287,
    "rid": 5137,
    "Ġcreatures": 4136,
    "hast": 5358,
    "Ġlodgings": 8312,
    "ush": 3633,
    "Ġtouching": 4682,
    "Ġproprietor": 12377,
    "Ġharshly": 25250,
    "Ġparameters": 992,
    "Ġaccomplished": 7106,
    "courageous": 26128,
    "Ġsignific": 3828,
    "Ġterrify": 19364,
    "Ġcaring": 23095,
    "Ġdynamic": 5124,
    "engines": 18930,
    "repeating": 20132,
    "Ġproclaim": 18133,
    "sperm": 5203,
    "Ġhandsomely": 25498,
    "Ġcontinu": 1168,
    "Ġreads": 23116,
    "Ġminimum": 23045,
    "Ġchimneys": 16974,
    "Ġintensity": 10019,
    "Ġwood": 2294,
    "Ġtransformed": 22615,
    "Ġord": 3735,
    "Ġgrieve": 14710,
    "knows": 19174,
    "animals": 24737,
    "pan": 10718,
    "Ġmurdered": 6465,
    "ix": 1800,
    "sax": 21059,
    "Ġlashed": 9201,
    "Ġgrotes": 19566,
    "Ġrow": 5246,
    "enges": 13059,
    "sofa": 26147,
    "Ġmanx": 7905,
    "Ġcaught": 3730,
    "Ġcoupled": 16853,
    "invariably": 26418,
    "cop": 20803,
    "Ġindestructible": 26574,
    "Ġminded": 23232,
    "Ġprecipitate": 19945,
    "xt": 2081,
    "Ġwriters": 13546,
    "Ġgroup": 2037,
    "Ġaccomplice": 24376,
    "hever": 13834,
    "Ġconsoling": 19460,
    "whisper": 17084,
    "Ġreflecting": 24750,
    "Ġstrange": 2274,
    "Ġwines": 21290,
    "ultural": 22573,
    "ials": 11710,
    "Ġhappier": 10362,
    "Ġmission": 13011,
    "Ġlees": 18065,
    "Ġgale": 5823,
    "bers": 2572,
    "Ġrever": 6538,
    "Ġlock": 5929,
    "plete": 10921,
    "clusion": 16308,
    "Ġevident": 6615,
    "tempt": 21082,
    "roylott": 20030,
    "Ġdrawings": 14725,
    "Ġencode": 4367,
    "Ġgard": 2190,
    "`": 68,
    "vil": 2733,
    "ilburn": 18062,
    "Ġneatness": 19935,
    "Ġdevotedly": 24749,
    "truth": 9922,
    "Ġpreliminary": 10060,
    "Ġtreacle": 14597,
    "spin": 22730,
    "chambers": 25455,
    "Ġexchanged": 10880,
    "harpooned": 24288,
    "Ġimparted": 15992,
    "Ġcanopy": 18323,
    "Ġexcuse": 5863,
    "arms": 10176,
    "Ġclinging": 10295,
    "ilogue": 21728,
    "Ġappl": 1725,
    "caterpillar": 26385,
    "isions": 6132,
    "Ġundoubted": 19517,
    "anely": 17838,
    "Ġhorrors": 10482,
    "aret": 7417,
    "provided": 13641,
    "¼": 125,
    "Ġpersuading": 19413,
    "Ġpressing": 9264,
    "sideways": 14574,
    "Ġdesol": 6881,
    "Ġtuileries": 24824,
    ":âĢĶâĢĺ": 24196,
    "give": 4690,
    "etts": 12665,
    "Ġreject": 7386,
    "ational": 5716,
    "Ġgateway": 24799,
    "Ġassistant": 7298,
    "ove": 1744,
    "danger": 10092,
    "Ġjoining": 13168,
    "dition": 15342,
    "iners": 4937,
    "rict": 8093,
    "Ġalternative": 19990,
    "Ġslumbers": 18944,
    "Ġbrigs": 20325,
    "Ġtone": 4040,
    "Ġ104": 24412,
    "Ġdiffer": 18675,
    "Ġwoes": 23989,
    "Ġdestroyed": 5272,
    "aunted": 20772,
    "Ġseething": 18204,
    "Ġshrivelled": 19706,
    "Ġwholesome": 16009,
    "Ġoutrid": 22319,
    "Ġpirate": 14998,
    "cloud": 11107,
    "Ġentirely": 3437,
    "banked": 25338,
    "ropri": 2180,
    "Ġinjure": 16783,
    "Ġpardon": 5727,
    "Ġhumbug": 18780,
    "Ġcauldron": 25442,
    "Ġdetermining": 14424,
    "Ġparading": 23713,
    "luding": 6702,
    "Ġextinguished": 10346,
    "Ġepicurean": 20558,
    "copy": 5133,
    "iously": 2679,
    "Ġlivery": 16003,
    "Ġcrossing": 7252,
    "Ġunequal": 14845,
    "anct": 21361,
    "Ġst": 333,
    "Ġphysiognomically": 25613,
    "foolish": 12351,
    "Ġthemselves": 3252,
    "Ġredeem": 20503,
    "Ġscenarios": 26544,
    "achus": 18284,
    "Ġguards": 16273,
    "Ġestimate": 19376,
    "embarr": 17295,
    "!)": 10072,
    "Ġmerchantmen": 19862,
    "afternoon": 13191,
    "urable": 8930,
    "Ġgrows": 4985,
    "ernation": 8212,
    "Ġfloundered": 18863,
    "Ġpinched": 17036,
    "Ġwashes": 21865,
    "apering": 8041,
    "Ġinsist": 9893,
    "jud": 4484,
    "Ġ93": 24592,
    "Ġscattered": 6857,
    "seeing": 7080,
    "iquet": 17577,
    "allowing": 24358,
    "Ġoperate": 19117,
    "nez": 22451,
    "posterity": 25489,
    "Ġvoices": 7876,
    "ze": 1293,
    "try": 7812,
    "Ġheedfulness": 24522,
    "Ġbrutality": 26278,
    "Ġblaze": 16223,
    "lection": 3654,
    "Ġsam": 7569,
    "Ġrevolt": 24504,
    "Ġlighting": 13087,
    "desired": 9008,
    "Ġvacant": 9498,
    "Ġhorizontal": 7783,
    "uits": 21107,
    "Ġconstitutional": 25128,
    "hering": 12819,
    "Ġconscientious": 16729,
    "deceiving": 22149,
    "Ħ": 231,
    "Ġconfirm": 9859,
    "ulity": 10888,
    "flood": 19809,
    "shunned": 22469,
    "Ġsurprised": 3830,
    "Ġwonderful": 4565,
    "fin": 5209,
    "tossed": 10999,
    "playing": 19660,
    "Ġson": 2986,
    "ivil": 6412,
    "domestic": 19828,
    "oked": 4310,
    "Ġstockings": 20000,
    "Ġcontributes": 15254,
    "quarters": 24949,
    "Ġremain": 1873,
    "Ġsyllable": 9732,
    "Ġomen": 11579,
    "Ġnumerical": 4246,
    "Ġlot": 6680,
    "Ġslope": 14463,
    "Ġpurplish": 19142,
    "Ġpart": 858,
    "Ġverd": 6919,
    "ire": 492,
    "ardy": 22160,
    "Ġabhor": 5467,
    "Ġpunctual": 17140,
    "Ġpride": 3823,
    "Ġellenborough": 26155,
    "Ġdeafened": 25652,
    "m": 81,
    "Ġquick": 2583,
    "Ġdimin": 3871,
    "Ġsurvive": 9069,
    "Ġener": 10898,
    "Ġautonomous": 10678,
    "ingley": 1541,
    "fatig": 17090,
    "Ġdenominated": 15232,
    "Ġsuperflu": 14556,
    "Ġacute": 16127,
    "Ġgowns": 25360,
    "arches": 10818,
    "cre": 4251,
    "Ġseam": 3910,
    "Ġassur": 6075,
    "press": 1733,
    "izes": 884,
    "humiliation": 24024,
    "Ġlimited": 23548,
    "_âĢĿ": 20763,
    "fancy": 7337,
    "Ġvertical": 16606,
    "ount": 1111,
    "Ġblown": 12090,
    "Ġattended": 5391,
    "watson": 12248,
    "Ġdistrusting": 25056,
    "september": 14039,
    "iteness": 4396,
    "affair": 14657,
    "Ġoars": 3899,
    "Ġbarn": 11590,
    "rupt": 3213,
    "Ġtongs": 9964,
    "Ġmaritime": 23039,
    "Ġforswe": 21778,
    "Ġrisks": 9967,
    "Ġhurrah": 9872,
    "augment": 18830,
    "Ġsupper": 4667,
    "nameless": 19905,
    "Ġsymbol": 7717,
    "Ġgeometric": 3220,
    "Ġsalesman": 13672,
    "Ġsteel": 3888,
    "Ġclattering": 22368,
    "Ġignorance": 6621,
    "Ġportraits": 20145,
    "ment": 688,
    "attacks": 23125,
    "dimly": 15350,
    "Ġunmo": 12777,
    "Ġduplicate": 17218,
    "aught": 2682,
    "fr": 4805,
    "Ġchecked": 9378,
    "Ġreport": 6193,
    "Ġobserver": 11993,
    "Ġbowsprit": 16563,
    "erting": 17779,
    "denial": 18717,
    "Ġdemig": 20359,
    "Ġ2": 2932,
    "Ġuncertain": 4068,
    "Ġturks": 14600,
    "Ġvess": 3295,
    "scorched": 25698,
    "apers": 3485,
    "event": 8077,
    "Ġunfitted": 24110,
    "natured": 7112,
    "omeness": 18018,
    "urpation": 16304,
    "Ġrepulses": 26071,
    "hatches": 19930,
    "Ġuttered": 7280,
    "heedful": 20576,
    "Ġslain": 8956,
    "collected": 13217,
    "Ġanecd": 20157,
    "Ġunspeak": 8854,
    "angible": 22106,
    "Ġpalsy": 25779,
    "oug": 430,
    "ploy": 2018,
    "Ġclubbed": 26549,
    "accordingly": 19215,
    "heavily": 24534,
    "Ġangelic": 19630,
    "ccas": 15894,
    "Ġforeshad": 23455,
    "Ġexcell": 10419,
    "rayed": 23565,
    "sensible": 20055,
    "ner": 1372,
    "smoke": 17225,
    "Ġhab": 4219,
    "Ġbled": 17859,
    "Ġrevenge": 5452,
    "Ġsimultaneously": 4313,
    "oner": 6126,
    "Ġbreadth": 10566,
    "Ġfacetious": 20587,
    "Ġstren": 15727,
    "Ġrepeated": 3832,
    "insula": 23069,
    "restraint": 18980,
    "Ġremorseless": 13455,
    "Ġpatroness": 13513,
    "Ġ1846": 26085,
    "expectation": 14859,
    "Ġoaths": 13527,
    "ihood": 20924,
    "tenderly": 20534,
    "harpooneer": 8692,
    "Ġtwopence": 18661,
    "Ġlargest": 6284,
    "Ġtwelvemonth": 12182,
    "repent": 15516,
    "effort": 19216,
    "!_": 7329,
    "Ġsymptoms": 8708,
    "Ġfath": 7364,
    "apolog": 22337,
    "Ġprovinc": 16744,
    "Ġdeny": 7488,
    "Ġerroneous": 17412,
    "Ġmeasure": 3596,
    "Ġany": 687,
    "Ġevinced": 7102,
    "weave": 22688,
    "Ġwise": 6812,
    "Ġunquestion": 18246,
    "Ġhers": 7889,
    "Ġbes": 2662,
    "Ġ41": 24083,
    "Ġpassengers": 13679,
    "Ġinflexibly": 26372,
    "cock": 12030,
    "Ġgle": 7859,
    "Ġlull": 15655,
    "K": 47,
    "anim": 6523,
    "Ġwarm": 2429,
    "reputation": 15518,
    "rah": 8137,
    "Ġhose": 12632,
    "Ġdissuade": 26258,
    "Ġmorbid": 16240,
    "Ġroyalty": 19739,
    "Ġhazarded": 25655,
    "shell": 16290,
    "Ġwalk": 1824,
    "erranean": 9337,
    "rent": 1172,
    "Ġultimate": 12353,
    "Ġlocations": 12417,
    "Ġjunk": 15952,
    "Ġcolder": 22859,
    "Ġparsonage": 7125,
    "Ġbabies": 19695,
    "Ġcruises": 23707,
    "Ġneglig": 18879,
    "less": 928,
    "Ġveget": 11890,
    "Ġhearty": 9850,
    "Ġexpanse": 14293,
    "stopping": 19353,
    "Ġsuperl": 16445,
    "easy": 9595,
    "cold": 9592,
    "Ġcompatibility": 2963,
    "bearance": 22498,
    "Ġleaps": 14005,
    "Ġpole": 6434,
    "Ġfulfil": 9554,
    "pointed": 9811,
    "Ġnearing": 15802,
    "Ġextras": 22754,
    "estim": 14172,
    "Ġchivalry": 25820,
    "here": 2550,
    "sudden": 5316,
    "Ġoysters": 20582,
    "Ġworm": 9165,
    "Ġaccompanied": 6781,
    "child": 5538,
    "Ġaffability": 14390,
    "Ġsole": 3297,
    "Ġgrind": 18735,
    "asions": 12656,
    "Ġaggreg": 12889,
    "Ġmallet": 17812,
    "Ġrouse": 15826,
    "copper": 19191,
    "lessly": 4558,
    "Ġcreated": 2708,
    "Ġbroker": 23105,
    "lour": 15384,
    "Ġsharpened": 17368,
    "Ġconjunction": 25103,
    "twice": 14623,
    "Ġund": 4118,
    "gence": 876,
    "Ġblotted": 20220,
    "Ġsuperficial": 23459,
    "Ġsequ": 983,
    "bell": 7332,
    "Ġbam": 15570,
    "Ġsoutherly": 23336,
    "Ġperceive": 6701,
    "Ġhaste": 9006,
    "Ġunsatisfied": 22046,
    "brimming": 23579,
    "Ġexec": 19495,
    "Ġgenial": 12199,
    "suddenly": 6494,
    "Ġpoltro": 23621,
    "langu": 4808,
    "Ġcruis": 14626,
    "Ġreb": 15695,
    "Ġharpooneers": 4733,
    "Ġunw": 7005,
    "Ġmutiny": 13264,
    "Ę": 217,
    "awakened": 14456,
    "rival": 12747,
    "Â£": 4813,
    "tered": 2230,
    "handled": 19263,
    "Ġgovern": 10452,
    "Ġshun": 11713,
    "Ġfind": 1457,
    "Ġ181": 23899,
    "Ġindec": 13931,
    "Ġinfirmity": 26299,
    "Ġvishnoo": 12758,
    "Ġgrammatical": 13542,
    "Ġinscrut": 10037,
    "Ġloc": 10916,
    "moor": 22705,
    "frequently": 9982,
    "bar": 7541,
    "Ġgrace": 5374,
    "vi": 2377,
    "Ġfishing": 9665,
    "Ġancho": 15607,
    "Ġafter": 869,
    "Ġpeaceful": 9458,
    "Ġpuffs": 14979,
    "Ġdeclaration": 16639,
    "splinter": 25211,
    "Ġshoulders": 5566,
    "icken": 6713,
    "gor": 546,
    "Ġdishon": 12235,
    "Ġdamps": 23478,
    "Ġlac": 17967,
    "itory": 12572,
    "Ġrelates": 12986,
    "owners": 16090,
    "connections": 14431,
    "Ġschedules": 3389,
    "Ġkindliness": 23295,
    "Ġmant": 9650,
    "Ġmaker": 15547,
    "recursion": 13333,
    "inction": 6663,
    "knight": 20942,
    "Ġvoyage": 3059,
    "Ġ(": 595,
    "spending": 18688,
    "observed": 7675,
    "Ġextravagant": 17281,
    "Ġhomeless": 23388,
    "youth": 11879,
    "complexion": 14362,
    "Ġadvancement": 24475,
    "Ġwasn": 6998,
    "Ġhelps": 9371,
    "Ġassumed": 9468,
    "Ġsurvived": 14937,
    "believed": 9936,
    "Ġbreaths": 14860,
    "Ġhinge": 25542,
    "ists": 4000,
    "onym": 14651,
    "Ġtexas": 25923,
    "Ġheaths": 25973,
    "plan": 15818,
    "backs": 9393,
    "Ġdrawled": 23992,
    "Ġemotion": 7690,
    "Ġdonkey": 23230,
    "Ġtransc": 12869,
    "uated": 10134,
    "Ġalacrity": 15741,
    "Ġstrangers": 8314,
    "Ġtwig": 11854,
    "Ġprogra": 1146,
    "Ġcivilized": 8668,
    "Ġrattled": 15070,
    "exercise": 17462,
    "Ġinflicted": 11367,
    "Ġsettling": 11064,
    "hereabouts": 23608,
    "exceedingly": 9569,
    "Ġappare": 12825,
    "py": 17626,
    "Ġhos": 4942,
    "Ġuniformly": 19149,
    "Ġchil": 11755,
    "itably": 10784,
    "Ġgovernment": 15180,
    "Ġstaggering": 20276,
    "Ġaccounted": 10297,
    "inu": 1115,
    "Ġneskye": 21534,
    "_âĢĶ": 11469,
    "Ġsledge": 8111,
    "yard": 5901,
    "vine": 10736,
    "where": 2092,
    "Ġsimulates": 2740,
    "Ġsatur": 1930,
    "Ġfel": 1516,
    "bureau": 20791,
    "Ġheroine": 24543,
    "Ġwrinkles": 8574,
    "broker": 13309,
    "Ġantagon": 19553,
    "jump": 10106,
    "Ġprecious": 5760,
    "acher": 6868,
    "himself": 3972,
    "Ġcontract": 18475,
    "Ġwhisky": 23937,
    "Ġraved": 22645,
    "Ġplanisp": 24061,
    "spoutings": 25004,
    "Ġangry": 5498,
    "ven": 780,
    "Ġimperial": 9484,
    "eli": 3873,
    "Ġsquall": 7045,
    "hauteur": 26393,
    "Ġmanaging": 22329,
    "anche": 10790,
    "spring": 7230,
    "itic": 11581,
    "Ġvisited": 5949,
    "Ġgorge": 13570,
    "Ġjeroboam": 10603,
    "bare": 12445,
    "vation": 4745,
    "Ġconsum": 9802,
    "ifford": 15788,
    "projecting": 26074,
    "Ġsomnambul": 26578,
    "hung": 8381,
    "ootiful": 17376,
    "Ġhunter": 5401,
    "Ġbr": 1071,
    "favour": 9552,
    "Ġmisconduct": 22765,
    "Ġgroom": 13969,
    "Ġtraffic": 23086,
    "zwilliam": 5074,
    "Ġhurried": 4033,
    "Ġfootpath": 19340,
    "Ġcarelessness": 13080,
    "Ġamiable": 4270,
    "Ġwrought": 11948,
    "Ġunconscious": 9550,
    "iveness": 2469,
    "Ġpurchased": 12265,
    "ulent": 21866,
    "killer": 20479,
    "dling": 15343,
    "view": 5897,
    "ed": 293,
    "Ġsignal": 5946,
    "Ă": 195,
    "Ġworry": 18817,
    "Ġdanes": 25160,
    "baby": 25516,
    "Ġfinishing": 23127,
    "commun": 15036,
    "Ġordinarily": 20651,
    "Ġcard": 7363,
    "Ġbefriend": 18084,
    "sam": 21054,
    "Ġlbs": 11618,
    "Ġamazement": 7765,
    "etymology": 14704,
    "Ġorganically": 3015,
    "eries": 6809,
    "Ġ78": 19616,
    "unciation": 25983,
    "clearly": 25196,
    "Ġthousands": 6750,
    "Ġabund": 8868,
    "cro": 13700,
    "ails": 6162,
    "Ġlegs": 4917,
    "Ġconvention": 25547,
    "Ġnaut": 13944,
    "Ġsailors": 4277,
    "birth": 15325,
    "Ġexperience": 1362,
    "Ġdejection": 15200,
    "Ġplucked": 15117,
    "agged": 9240,
    "Ġterrors": 6918,
    "supposed": 13320,
    "Ġsnail": 19302,
    "Ġdeserts": 10510,
    "Ġhost": 7070,
    "tasted": 17689,
    "deser": 10481,
    "jol": 20927,
    "Ġoblique": 20172,
    "gra": 769,
    "Ġmariner": 7247,
    "vius": 23545,
    "Ġpeas": 8536,
    "shish": 11797,
    "founded": 16715,
    "Ġanswer": 2599,
    "necessary": 5883,
    "unvarying": 21891,
    "ways": 1440,
    "Ġleads": 12101,
    "breathing": 25336,
    "ositories": 22268,
    "dare": 12458,
    "rudential": 16711,
    "Ġdepressed": 10885,
    "Ġproperly": 7945,
    "governed": 25406,
    "Ġfingertips": 24020,
    "Ġentertained": 10001,
    "Ġcountry": 2530,
    "Ġhummed": 18778,
    "yd": 21145,
    "Ġleader": 14705,
    "Ġconstables": 19072,
    "Ġsharing": 3481,
    "Ġbattalions": 25777,
    "-": 17,
    "Ġsob": 12788,
    "Ġwr": 1540,
    "Ġnumerous": 6920,
    "Ġnewspaper": 12368,
    "Ġmention": 2989,
    "Ġcargo": 16293,
    "Ġweep": 7620,
    "Ġimaginary": 11188,
    "Ġwitness": 4623,
    "Ġwednesday": 9087,
    "Ġflights": 24752,
    "Ġculprit": 26173,
    "Ġpunctually": 17141,
    "Ġbor": 5805,
    "Ġcleaning": 23181,
    "aver": 6786,
    "Ġmeal": 9700,
    "Ġprogressive": 5024,
    "Ġborrow": 10173,
    "Ġprofess": 3699,
    "Ġpagoda": 19791,
    "Ġbee": 21753,
    "Ġpedro": 15066,
    "Ġskil": 14355,
    "Ġjumped": 7098,
    "Ġbitterest": 12406,
    "nantucketer": 24975,
    "Ġtro": 7356,
    "Ġ0": 1904,
    "racted": 4777,
    "Ġfavourable": 7959,
    "jammed": 25907,
    "Ġcomrades": 9236,
    "Ġeventually": 8620,
    "Ġimages": 1598,
    "ĠĠĠĠĠĠĠĠĠĠĠĠĠĠĠĠĠĠĠĠĠĠĠĠĠĠĠĠĠĠĠĠĠĠĠĠ": 23668,
    "Ġcelerity": 17439,
    "Ġcomplain": 6687,
    "Ġreliable": 18777,
    "ities": 1825,
    "hopeless": 16919,
    "Ġwisest": 11234,
    "inated": 6805,
    "failed": 20865,
    "latin": 25259,
    "corrupt": 14898,
    "Ġfiled": 15584,
    "Ġlimbs": 5967,
    "facts": 19845,
    "Ġdiverged": 23596,
    "na": 13763,
    "Ġdimensions": 16574,
    "Ġintruding": 21995,
    "Ġdeceased": 15008,
    "interrupt": 8619,
    "Ġnathan": 21529,
    "Ġ130": 24780,
    "Ġplay": 2627,
    "saved": 15434,
    "Ġnavies": 16902,
    "pity": 17629,
    "Ġlurking": 11291,
    "Ġcarries": 7674,
    "Ġapplications": 4784,
    "Ġdisdained": 15012,
    "ingle": 1038,
    "Ġlive": 2736,
    "hem": 6666,
    "Ġcoats": 16080,
    "Ġseek": 4511,
    "eminently": 25108,
    "Ġgigantic": 5916,
    "plainly": 11092,
    "Ġfibres": 12956,
    "mish": 17600,
    "Ġincorrect": 2730,
    "Ġscruple": 25051,
    "ĠcÃ¦": 15559,
    "Ġfocuses": 8653,
    "secre": 18130,
    "involved": 25627,
    "tick": 17680,
    "endeavoured": 12285,
    "hing": 980,
    "Ġthickness": 13282,
    "Ġ(_": 3737,
    "sat": 4811,
    "form": 495,
    "Ġimmediately": 3369,
    "Ġwitty": 21295,
    "Ġbeards": 21755,
    "sloop": 26146,
    "render": 10293,
    "Ġconvivial": 16551,
    "Ġboyhood": 23757,
    "Ġfort": 2580,
    "een": 726,
    "Ġpossessed": 5195,
    "Ġdwelt": 12610,
    "ple": 455,
    "worked": 19012,
    "Ġcomprise": 18586,
    "Ġhyper": 19742,
    "Ġ120": 16860,
    "Ġtoler": 7589,
    "Ġcurios": 18848,
    "Ġcoun": 4178,
    "Ġinspector": 6499,
    "Ġaft": 5737,
    "Ġforbear": 17124,
    "Ġpertur": 12856,
    "inder": 9155,
    "Ġfurthest": 22819,
    "reason": 4418,
    "Ġinterrupt": 4362,
    "better": 7121,
    "Ġstones": 9226,
    "Ġports": 10820,
    "Ġconfluent": 19042,
    "bid": 5611,
    "Ġarmchair": 8271,
    "deed": 1517,
    "amped": 12037,
    "Ġinno": 1445,
    "lifted": 15390,
    "Ġskewer": 19623,
    "Ġrepelled": 19087,
    "hip": 8744,
    "writhed": 26081,
    "Ġmead": 8839,
    "Ć": 199,
    "Ġunlabeled": 3800,
    "extra": 8219,
    "Ġitem": 12706,
    "repaid": 24491,
    "Ġbrandy": 11051,
    "Ġdey": 11678,
    "Ġjan": 11765,
    "Ġbowls": 23772,
    "Ġtrooped": 24900,
    "ique": 8746,
    "ready": 2362,
    "Ġtransf": 22441,
    "button": 10968,
    "Ġopens": 23628,
    "Ġsmoked": 10325,
    "Ġhasten": 10480,
    "Ġchilian": 25564,
    "conscience": 14863,
    "Ġimminent": 11247,
    ",âĢĶâĢľ": 10073,
    "serpent": 16295,
    "Ġtermination": 16463,
    "bitter": 11242,
    "baboon": 25517,
    "Ġdescends": 14290,
    "Ġmeditating": 20046,
    "Ġwrote": 5011,
    "Ġye": 898,
    "Ġchildren": 3767,
    "Ġpomp": 12627,
    "Ġuncomp": 15845,
    "mortar": 25409,
    "snatched": 24851,
    "Ġaccount": 2322,
    "ptic": 21922,
    "Ġregarded": 5762,
    "fing": 13716,
    "Ġsymb": 2592,
    "Ġrush": 5926,
    "hetic": 12208,
    "Ġbegins": 7244,
    "Ġquarrel": 7292,
    "Ġinvested": 7279,
    "Ġclearness": 23184,
    "gentleness": 24845,
    "zed": 8104,
    "based": 2964,
    "ling": 734,
    "Ġbrightly": 13229,
    "wig": 17706,
    "Ġdefinitions": 22947,
    "Ġsaves": 18325,
    "Ġsun": 1720,
    "Ġstrait": 23751,
    "bes": 6644,
    "million": 25752,
    "Ġsenses": 8252,
    "Ġsubtlety": 24779,
    "Ġdressing": 7092,
    "velope": 17703,
    "adel": 15733,
    "Ġenh": 3137,
    "Ġgifted": 17999,
    "ceed": 1075,
    "perse": 15897,
    "luck": 5733,
    "Ġdoleful": 18377,
    "Ġchannel": 26013,
    "loath": 22513,
    "urer": 18124,
    "clifford": 23158,
    "Ġrecollection": 6623,
    "Ġglittering": 10056,
    "sulphur": 25910,
    "quired": 21859,
    "oss": 10118,
    "ineas": 15825,
    "Ġstar": 6024,
    "Ġindividual": 5744,
    "Ġstrengthen": 20703,
    "Ġvector": 1971,
    "shining": 18493,
    "Ġunh": 9256,
    "Ġbeneficial": 23934,
    "Ġdisliked": 12896,
    "avers": 17483,
    "Ġhorizon": 6635,
    "Ġcasualty": 20344,
    "Ġemerg": 13428,
    "Ġspoilt": 24804,
    "ely": 622,
    "Ġsitu": 3499,
    "Ġinex": 6529,
    "Ġmounting": 19980,
    "Ġphara": 23201,
    "Ġclever": 7056,
    "Ġwalking": 4326,
    "ampl": 21852,
    "Ġrelentless": 26279,
    "Ġenquired": 21944,
    "hist": 7132,
    "Ġfighting": 12202,
    "Ġflanks": 11918,
    "Ġm": 274,
    "Ġvia": 2384,
    "Ġhydraulic": 10067,
    "smeer": 26148,
    "mansion": 20985,
    "Ġenriched": 26501,
    "injustice": 17739,
    "Ġlived": 3990,
    "Ġstammered": 26201,
    "norm": 20987,
    "Ġloft": 5642,
    "impe": 21711,
    "Ġartificial": 790,
    "Ġoptimization": 1382,
    "Ġrider": 24188,
    "Ġheartfelt": 18968,
    "Ġgills": 17995,
    "Ġcrotch": 9966,
    "Ġscaling": 3634,
    "itche": 7579,
    "thousands": 16874,
    "Ġdiscomposed": 25581,
    "Ġwaiter": 16430,
    "Ġsmaller": 1883,
    "Ġratio": 5066,
    "R": 54,
    "ming": 3603,
    "Ġforeseen": 16442,
    "Ġsnow": 3707,
    "Ġexcused": 23314,
    "Ġthomas": 17950,
    "Ġsucceeding": 16763,
    "Ġoccasional": 7289,
    "erately": 21276,
    "appointment": 24064,
    "Ġhatherley": 7849,
    "Ġdistraction": 22510,
    "Ġcistern": 17384,
    "Ġdraught": 9849,
    "akes": 2219,
    "trimmed": 23952,
    "ult": 723,
    "Ġattempting": 14699,
    "mystical": 25318,
    "Ġwarmest": 16486,
    "bber": 4570,
    "antically": 22100,
    "Ġpips": 9847,
    "ackled": 22424,
    "anse": 12580,
    "ribly": 8255,
    "Ġdab": 15592,
    "closing": 23157,
    "Ġmountainous": 16601,
    "Ġnortheast": 23204,
    "Ġvol": 4189,
    "Ġsevere": 6033,
    "rine": 21040,
    "persecutor": 26531,
    "trunk": 23951,
    "Ġneighbors": 25807,
    "lose": 12887,
    "Ġpredef": 18515,
    "heart": 4528,
    "arnel": 18127,
    "Ġnotwithstanding": 9717,
    "smo": 10128,
    "Ġguiltless": 16942,
    "unbidden": 21898,
    "Ġnobleman": 19395,
    "Ġaged": 10324,
    "Ġvivacious": 19818,
    "Ġ270": 25133,
    "Ġantichronical": 26611,
    "Ġbattery": 21397,
    "ole": 9616,
    "nes": 6961,
    "Ġleaves": 5021,
    "Ġlengthwise": 10454,
    "declined": 25175,
    "Ġsensitivity": 3075,
    "prom": 6510,
    "Ġpicturesque": 14897,
    "Ġconfederate": 17356,
    "wholly": 10943,
    "Ġstack": 21740,
    "Ġparallelization": 3434,
    "Ġfare": 5810,
    "Ġconsume": 12963,
    "Ġacutely": 14317,
    "tempest": 16961,
    "Ġconcentrated": 15087,
    "F": 42,
    "Ġcontinuation": 22921,
    "gins": 12473,
    "Ġcork": 12574,
    "Ġrekindled": 21680,
    "ription": 5676,
    "Ġcaulking": 20296,
    "mical": 9131,
    "over": 1846,
    "vices": 21119,
    "Ġconcisely": 19048,
    "orne": 17874,
    "Ġthinker": 22814,
    "Ġdenied": 9003,
    "savagery": 25026,
    "extraordinary": 9098,
    "Ġsleeves": 10663,
    "Ġmatch": 4531,
    "Ġhoped": 5488,
    "Ġfainting": 16899,
    "endeavour": 17032,
    "Ġeaves": 15680,
    "Ġskiff": 16168,
    "Ġyourselves": 9031,
    "Ġvigorous": 10569,
    "Ġtravelled": 7772,
    "abash": 18110,
    "wrong": 13210,
    "jewell": 25524,
    "Ġcraft": 4379,
    "âĢĶâĢĶâĢĿ": 15943,
    "Ġsan": 7824,
    "90": 12436,
    "Ġmadman": 13155,
    "Ġsomeone": 6705,
    "Ġanaly": 1142,
    "_--": 20764,
    "nothing": 3157,
    "Ġdiscerned": 25006,
    "host": 5869,
    "Ġcorpse": 6641,
    "Ġepo": 21622,
    "Ġstrictly": 12289,
    "halfway": 24313,
    "objection": 19917,
    "egyptians": 25899,
    "Ġassembl": 20064,
    "Ġecstasy": 11633,
    "Ġodorous": 19569,
    "Ġlydia": 2376,
    "ware": 3936,
    "onel": 3095,
    "Ġundeniable": 26512,
    "Ġpreside": 18366,
    "Ġcured": 21350,
    "Ġpapa": 10659,
    "tone": 8766,
    "seas": 14036,
    "Ġpine": 8801,
    "Ġworst": 7444,
    "umbent": 12094,
    "wrapped": 15213,
    "Ġsuperb": 16444,
    "hope": 5991,
    "Ġlimb": 9405,
    "Ġthump": 11614,
    "nowledge": 10292,
    "Ġlistless": 16478,
    "Ġrepaired": 13112,
    "theast": 21752,
    "oam": 8755,
    "georgiana": 26021,
    "Ġsweet": 3469,
    "Ġpossibilities": 18977,
    "months": 9074,
    "Ġunpleasant": 7191,
    "Ġsanctioned": 26352,
    "Ġassure": 4422,
    "Ġdinn": 23984,
    "coarse": 16489,
    "Ġtid": 8107,
    "wel": 6119,
    "needles": 20314,
    "Ġradiating": 24331,
    "Ġarthur": 7196,
    "produced": 25415,
    "tt": 13793,
    "Ġcontinents": 16851,
    "Ġlodging": 24097,
    "Ġimmens": 9942,
    "Ġthereby": 7644,
    "Ġgallon": 24187,
    "Ġphrenologists": 25609,
    "engthen": 14460,
    "Ġhesitating": 16949,
    "sens": 8097,
    "Ġgraces": 18226,
    "Ġbet": 1134,
    "Ġaffl": 14389,
    "Ï": 144,
    "Ġmasks": 23329,
    "Ġcatastrophic": 3545,
    "bergs": 18694,
    "Ġdisasters": 16058,
    "Ġweigh": 10896,
    "Ġoutstanding": 22320,
    "mary": 8752,
    "Ġdescrying": 18619,
    "Ġputting": 5327,
    "Ġweaving": 12745,
    "Ġwhere": 784,
    "Ġglancing": 5399,
    "Ġwindibank": 7256,
    "Ġseldom": 4631,
    "Ġcredulous": 17147,
    "Ġforging": 18096,
    "Ġpaddles": 15151,
    "Ġwert": 12561,
    "Ġseams": 12129,
    "Ġquestioned": 14622,
    "indifferent": 14211,
    "Ġpossible": 2586,
    "surd": 6934,
    "ugnance": 12371,
    "Ġgreyish": 24211,
    "(-": 2983,
    "stalls": 26475,
    "Ġclang": 15975,
    "Ġjog": 18400,
    "Ġadmir": 12026,
    "ness": 852,
    "Ġtitle": 11410,
    "colonel": 8285,
    "feelings": 5674,
    "Ġstrike": 4857,
    "Ġconstant": 6311,
    "Ġstricken": 9779,
    "Ġmildly": 9032,
    "Ġbushy": 16404,
    "being": 3915,
    "call": 8726,
    "Ġaffrighted": 13576,
    "Ġtwitched": 20447,
    "pute": 8849,
    "Ġsteadfast": 8682,
    "crown": 13702,
    "Ġunrelieved": 20548,
    "Ġarranged": 9880,
    "died": 11482,
    "handkerchief": 14620,
    "Ġthursday": 12649,
    "kindled": 16663,
    "Ġtub": 7147,
    "Ġindiscreet": 22961,
    "Ġrheumatic": 20707,
    "again": 3401,
    "Ġstalked": 20432,
    "study": 15121,
    "Ġbars": 13900,
    "aling": 1033,
    "Ġinh": 10826,
    "Ġcultivation": 17148,
    "Ġbegrimed": 26580,
    "left": 6976,
    "Ġincrease": 9373,
    "Ġbowditch": 19325,
    "Ġfountains": 13506,
    "Ġbene": 2032,
    "lone": 11502,
    "Ġsuddenly": 2648,
    "Ġanother": 1739,
    "Ġvertebra": 20184,
    "Ġloading": 15878,
    "Ġcop": 7580,
    "Ġsum": 2701,
    "Ġ107": 24415,
    "Ġconnexion": 11456,
    "Ġcoronet": 6346,
    "Ġdisposal": 19379,
    "Ġhookah": 16972,
    "Ġsuperseded": 26226,
    "intim": 22937,
    "Ġprep": 4191,
    "shabbily": 26248,
    "hammered": 19005,
    "Ġexpost": 18623,
    "Ġpressure": 13426,
    "yet": 3753,
    "sip": 10727,
    "Ġdrown": 6816,
    "Ġbarbarians": 19590,
    "Ġhoarsely": 26303,
    "Ġlifetime": 13606,
    "hy": 4741,
    "Ġiroquois": 26474,
    "Ġpreventing": 883,
    "semic": 21825,
    "Ġoat": 21326,
    "Ġmund": 21321,
    "unaccountable": 15783,
    "Ġcalamities": 25700,
    "Ġsatan": 14393,
    "Ġinvolved": 8927,
    "Ġhollows": 19744,
    "iance": 5280,
    "Ġsubfield": 11873,
    "Ġspeedily": 7712,
    "bene": 6114,
    "rossing": 18648,
    "define": 1523,
    "1775": 26380,
    "ispensable": 9099,
    "Ġconfl": 11139,
    "Ġbubble": 13538,
    "Ġsplashing": 16553,
    "Ġcomforter": 20510,
    "(_": 7540,
    "ibbald": 18843,
    "street": 6496,
    "Ġarchipelagoes": 14353,
    "Ġduchess": 4800,
    "Ġcleanse": 24527,
    "Ġcorn": 9353,
    "Ġresembling": 4097,
    "signs": 16542,
    "fra": 8375,
    "Ġoust": 21327,
    "mp": 3727,
    "Ġtables": 9881,
    "Ġbiscuit": 12594,
    "Ġbirch": 26175,
    "Ġprojected": 16873,
    "uding": 16156,
    "Ġslouched": 13064,
    "lingly": 9776,
    "Ġweltering": 19588,
    "ns": 751,
    "Ġlivel": 11357,
    "vint": 21117,
    "Ġcorrect": 2435,
    "abriel": 6950,
    "excuse": 13385,
    "Ġserious": 4325,
    "Ġgrow": 2864,
    "education": 20304,
    "Ġhan": 15622,
    "Ġgoug": 17993,
    "heed": 15501,
    "Ġgobern": 22429,
    "Ġdesp": 3217,
    "Ġuseful": 3561,
    "Ġenchantment": 24870,
    "odecimoes": 25319,
    "Ġnarration": 13507,
    "Ġtrag": 13045,
    "drugg": 20840,
    "Ġcategories": 4480,
    "Ġdiscovery": 5412,
    "Ġchuck": 8504,
    "dread": 8732,
    "jacket": 12296,
    "relatively": 24017,
    "Ġperpetual": 12307,
    "Ġincome": 7917,
    "ques": 2844,
    "sheltered": 25586,
    "Ġphren": 8575,
    "assure": 9273,
    "Ġinstant": 2705,
    "Ġmaze": 23834,
    "Ġwith": 349,
    "uiperai": 10666,
    "visitors": 13353,
    "rain": 462,
    "Ġportions": 19372,
    "Ġcontemplative": 19895,
    "Ġaye": 3355,
    "Ġmiddle": 4137,
    "Ġran": 3346,
    "Ġarchitecture": 1148,
    "Ġmiscellaneous": 17465,
    "una": 21873,
    "Ġdatasets": 2390,
    "ctions": 950,
    "Ġtrop": 7565,
    "alarms": 21508,
    "ulation": 5458,
    "branch": 23580,
    "Ġchamber": 6215,
    "output": 4405,
    "Ġenem": 4709,
    "Ġconclusion": 5987,
    "Ġdeigned": 18144,
    "Ġspirit": 3724,
    "Ġyoungster": 23180,
    "âĢĺ": 940,
    "Ġflounders": 23016,
    "Ġcircle": 4977,
    "arts": 6565,
    "hig": 12479,
    "Ġoverhead": 11774,
    "arrested": 15605,
    "Ġsubl": 7235,
    "prolong": 23396,
    "Ġlevers": 18067,
    "Ġunexplored": 26520,
    "rapidly": 15247,
    "Ġcant": 17826,
    "live": 7550,
    "Ġparson": 6689,
    "exceed": 7911,
    "avor": 14261,
    "rights": 23677,
    "Ġlofty": 6219,
    "luded": 4229,
    "orders": 12879,
    "Ġdiscernment": 15072,
    "Ġnumberless": 16418,
    "ernal": 4314,
    "Ġmultiplication": 2875,
    "uneasiness": 23689,
    "Ġtigers": 25759,
    "Ġladder": 8602,
    "single": 10129,
    "Ġsecurity": 8980,
    "Ġfortifications": 23622,
    "spell": 22731,
    "alvan": 21507,
    "Ġpork": 21459,
    "Ġdepends": 1106,
    "arius": 14251,
    "Ġcaves": 15558,
    "Ġdisadvantage": 12895,
    "Ġfurnishes": 19444,
    "dilig": 17285,
    "Ġsakes": 18327,
    "Ġjump": 4506,
    "Ġtools": 11612,
    ");": 7330,
    "inced": 3339,
    "Ġday": 957,
    "Ġencouraging": 2263,
    "Ġoffence": 12949,
    "aspect": 10196,
    "Ġcompact": 2262,
    "Ġrandom": 1587,
    "83": 13684,
    "finding": 17015,
    "Ġ500": 24324,
    "Ġringing": 13336,
    "pen": 1205,
    "Ġstruggled": 9908,
    "incredible": 16500,
    "Ġsepulch": 15288,
    "insufficient": 15492,
    "opard": 9295,
    "Ġlye": 21554,
    "Ġaspired": 25985,
    "described": 18897,
    "Ġinventing": 24862,
    "calmed": 16207,
    "nuee": 17433,
    "or": 282,
    "Ġfidelity": 15245,
    "as": 302,
    "Ġgeor": 3390,
    "attery": 18502,
    "Ġentire": 2560,
    "Ġscanning": 18409,
    "lightened": 12069,
    "Ġantics": 24181,
    "Ġbuoyed": 20044,
    "Ġstudying": 9854,
    "ently": 1614,
    "Ġbon": 8790,
    "ised": 1067,
    "Ġnetwork": 451,
    "Ġhabitations": 24788,
    "purp": 8091,
    "Ġgeneric": 18449,
    "bright": 8992,
    "isl": 21378,
    "notice": 16151,
    "Ġencodings": 4776,
    "Ġcl": 557,
    "Ġbusied": 19068,
    "Ġwick": 2004,
    "Ġeternally": 11371,
    "Ġcarried": 3694,
    "Ġdy": 2566,
    "Ġmarlingspike": 26581,
    "ologist": 22895,
    "Ġeels": 21623,
    "Ġlandau": 16422,
    "Ġcolonial": 22863,
    "Ġeaglet": 19307,
    "Ġwitnessing": 19601,
    "Ġcontribut": 12864,
    "Ġaided": 17747,
    "Ġresources": 2940,
    "lance": 12486,
    "Ġdiscrete": 2477,
    "Ġdeactivates": 20706,
    "ime": 625,
    "whence": 23215,
    "Ġstables": 23659,
    "Ġcour": 1766,
    "Ġliked": 5265,
    "Ġterti": 14539,
    "bedded": 12447,
    "Ġbake": 21385,
    "ieth": 10706,
    "go": 2063,
    ",--": 2478,
    "Ġinsol": 10183,
    "Ġlead": 3526,
    "Ġrange": 9715,
    "shroud": 20315,
    "Ġhardest": 18914,
    "Ġsliding": 9366,
    "Ġskul": 22800,
    "ories": 4754,
    "Ġgrud": 17998,
    "scure": 22991,
    "Ġauthor": 4378,
    "Ġspars": 3810,
    "s": 87,
    "Ġsized": 11565,
    "expectations": 24279,
    "Ġrespectable": 6738,
    "lost": 8891,
    "congreg": 25399,
    "found": 4215,
    "Ġdexterously": 25296,
    "blu": 12444,
    "pockets": 16214,
    "umb": 3405,
    "gardiner": 12295,
    "varying": 13807,
    "idually": 21773,
    "Ġplun": 6283,
    "Ġcushion": 17835,
    "hor": 2573,
    "Ġcaw": 13886,
    "explanation": 12362,
    "bed": 3494,
    "Ġisolation": 17153,
    "Ġeasy": 3456,
    "Ġfo": 1650,
    "Ġeating": 8136,
    "Ġlet": 1110,
    "Ġderick": 9367,
    "Ġexcel": 3570,
    "Ġdisembow": 22541,
    "Ġremoved": 5275,
    "Ġlimit": 10445,
    "bohem": 19002,
    "ditch": 17530,
    "leads": 21373,
    "Ġvehemently": 26040,
    "Ġloosened": 26003,
    "Ġlawyer": 10671,
    "Ġparting": 9786,
    "habit": 16193,
    "Ġcharging": 23268,
    "Ġreplying": 19584,
    "Ġbeheaded": 11659,
    "Ġsending": 8779,
    "×": 152,
    "Ġintroduce": 3207,
    "Ġsuavely": 26525,
    "Ġmorbidness": 20631,
    "thr": 12765,
    "ille": 9222,
    "cooper": 19192,
    "Ġcig": 6521,
    "Ġbadge": 16682,
    "remental": 21250,
    "Ġbible": 9322,
    "portuguese": 25414,
    "Ġfiles": 21416,
    "Ġbery": 13901,
    "progress": 11992,
    "Ġrol": 3558,
    "parted": 21018,
    "indulged": 22379,
    "ac": 740,
    "eled": 2360,
    "Ġrecorded": 11295,
    "Ġsituated": 9450,
    "Ġoperations": 2301,
    "âĢĿâĢĶ": 5721,
    "Ġkate": 15909,
    "Ġintellectual": 11403,
    "generally": 9438,
    "Ġsheeted": 19834,
    "Ġpreaching": 15930,
    "Ġmost": 1019,
    "Ġaltitude": 26204,
    "punishment": 15149,
    "Ġworkmen": 23043,
    "Ġhag": 12630,
    "peculiarities": 13475,
    "Ġpond": 13919,
    "Ġhamp": 12635,
    "Ġharpooning": 23982,
    "ula": 2827,
    "favourable": 12268,
    "porary": 14553,
    "Ġenlightened": 12751,
    "Ġfiss": 21415,
    "cies": 1813,
    "hearse": 17750,
    "umblings": 23897,
    "lives": 12490,
    "Ġruthless": 15289,
    "reliable": 21243,
    "uvier": 9071,
    "Ġtoss": 10187,
    "probability": 17024,
    "extinguish": 22758,
    "Ġcheck": 7271,
    "riumph": 4920,
    "abez": 10225,
    "Ġunstructured": 3006,
    "Ġtrowsers": 9630,
    "Ġpeleg": 3739,
    "Ġcough": 11584,
    "Ġramadans": 25122,
    "Ġunnear": 22030,
    "Ġerudite": 26353,
    "capting": 24043,
    "Ġrags": 18638,
    "Ġinfallibly": 10044,
    "Ġeye": 2283,
    "Ġathe": 17743,
    "Ġcrackling": 24961,
    "shut": 10983,
    "impat": 11204,
    "Ġbarrow": 12074,
    "Ġavenue": 13625,
    "Ġwigwam": 11430,
    "hammock": 16356,
    "Ġintruder": 25992,
    "Ġmyster": 5927,
    "þ": 191,
    "Ġprominence": 18956,
    "windibank": 24164,
    "blacksmith": 17003,
    "Ġbruised": 25773,
    "Ġshoots": 14571,
    "Ġchooses": 13351,
    "Ġlest": 6396,
    "Ġless": 1939,
    "Ġshroud": 6484,
    "Ġassuredly": 14825,
    "uccas": 21109,
    "Ġmiles": 3804,
    "Ġmagnus": 18960,
    "perseus": 26006,
    "some": 2234,
    "Ġramsgate": 18641,
    "Ġinconveniences": 24942,
    "Ġpon": 10178,
    "whiteness": 18371,
    "ats": 4254,
    "athies": 22703,
    "vels": 5432,
    "Ġwretch": 6379,
    "dispositions": 25014,
    "inv": 8402,
    "Ġmodern": 3230,
    "meadow": 18677,
    "Ġphilist": 16603,
    "analy": 17840,
    "Ġduplicity": 25332,
    "Ġut": 2281,
    "Ġherself": 1568,
    "Ġschooner": 16749,
    "slept": 17172,
    "Ġhanover": 20589,
    "Ġpractical": 3167,
    "Ġextraordinary": 5414,
    "Ġdeliverer": 11954,
    "elzebub": 26466,
    "obscure": 23101,
    "Ġtried": 3649,
    "Ġsummarization": 3648,
    "compasses": 19461,
    "Ġfinish": 7949,
    "Ġqueerest": 16417,
    "lingering": 18602,
    "Ġlanding": 11989,
    "prevailed": 17348,
    "begin": 8887,
    "iece": 3231,
    "Ġpens": 21462,
    "Ġbenefited": 19401,
    "resentment": 15189,
    "Ġmerryweather": 9525,
    "Ġ13": 6720,
    "itching": 21338,
    "nostril": 26561,
    "circum": 16739,
    "bermaid": 20792,
    "Ġkith": 22196,
    "rously": 17656,
    "Ġdiscrimin": 2546,
    "Ġcompanionship": 14923,
    "Ġnap": 8813,
    "idents": 6152,
    "herfield": 3632,
    "shutters": 20316,
    "nue": 15400,
    "Ġinnocent": 4922,
    "Ġlibr": 16004,
    "farmer": 25900,
    "Ġuttermost": 19491,
    "utility": 21590,
    "Ġmysticetus": 24923,
    "Ġprescribed": 26011,
    "Ġgans": 5822,
    "anity": 9657,
    "Ä": 133,
    "sleet": 20152,
    "scythes": 26404,
    "Ġthunder": 4825,
    "Ġneighb": 14079,
    "Ġtwenty": 3950,
    "Ġloafer": 18300,
    "Ġinteraction": 7424,
    "figures": 20125,
    "Ġmile": 7152,
    "Ġpleasing": 6192,
    "Ġaltered": 7393,
    "Ġpermission": 9282,
    "conclusion": 25672,
    "Ġroast": 18458,
    "Ġspasmodic": 20401,
    "Ġscotland": 6642,
    "Ġmarched": 18873,
    "threshold": 21991,
    "Ġcame": 1300,
    "ality": 2511,
    "Ġautomatically": 3601,
    "Ġplentiful": 12916,
    "Ġlesson": 7276,
    "erect": 20850,
    "stars": 18022,
    "Ġshrouds": 11346,
    "Ġwre": 5077,
    "Ġglitter": 25126,
    "deli": 15348,
    "Ġsinews": 20290,
    "Ġcapst": 8599,
    "Ġendow": 23137,
    "Ġrecip": 16141,
    "Ġfelony": 18954,
    "¯": 112,
    "dart": 20828,
    "leeward": 15214,
    "Ġhanded": 8217,
    "Ġsymp": 4505,
    "amid": 12729,
    "effect": 8607,
    "professor": 17252,
    "Ġaverage": 3143,
    "Ď": 207,
    "Ġdon": 1612,
    "Ġrendered": 5773,
    "www": 17254,
    "Ġbringing": 5871,
    "Ġcontextually": 11956,
    "Ġclad": 12848,
    "Ġweek": 2828,
    "Ġalmighty": 18107,
    "Ġshoot": 11163,
    "joy": 3338,
    "Ġpin": 7162,
    "Ġmonstr": 7668,
    "anned": 17841,
    "vict": 11543,
    "mechanical": 25579,
    "Ġlinks": 13958,
    "Ġclink": 22362,
    "Ġearning": 23944,
    "Ġbordered": 24564,
    "invisible": 17742,
    "Ġstile": 21739,
    "Ġslip": 8957,
    "Ġex": 361,
    "holmes": 4434,
    "Ġsister": 1473,
    "riot": 18186,
    "Ġuntoward": 19167,
    "Ġgave": 2218,
    "etimes": 1987,
    "Ġended": 7950,
    "Ġregiment": 6433,
    "Ġcorpore": 13405,
    "Ġimprecate": 20521,
    "able": 452,
    "corrid": 24484,
    "Ġinvari": 6530,
    "attend": 11103,
    "Ġfounder": 17885,
    "orum": 12595,
    "®": 111,
    "irts": 9241,
    "Ġaffront": 18790,
    "Ġbids": 24646,
    "Ġtug": 11553,
    "Ġspont": 22135,
    "Ġbeing": 1166,
    "beries": 22746,
    "Ġtiresome": 26157,
    "needle": 20313,
    "Ġretiring": 16284,
    "Ġaffecting": 2325,
    "Ġlocket": 22117,
    "Ġbay": 9171,
    "ory": 1080,
    "ativeness": 15524,
    "Ġineffable": 17335,
    "may": 3680,
    "Ġiteratively": 3062,
    "Ġvulture": 17342,
    "Ġdances": 10814,
    "Ġnomine": 26458,
    "Ġcommon": 1414,
    "Ġoverflow": 10294,
    "Ġtunnel": 14933,
    "Ġcountrymen": 23597,
    "Ġmule": 13865,
    "Ġstyle": 6946,
    "Ġcomplaint": 24775,
    "Ġseverely": 14936,
    "Ġchamounix": 14867,
    "every": 2811,
    "proble": 9396,
    "Ġapartment": 6636,
    "Ġinput": 609,
    "Ġstock": 7455,
    "Ġuncont": 14118,
    "feet": 6570,
    "Ġundergone": 18986,
    "Ġfearfulness": 23516,
    "Ġart": 748,
    "irmed": 9242,
    "Ġgips": 10843,
    "ŀ": 257,
    "fordshire": 4678,
    "Ġseer": 21963,
    "Ġhopelessly": 16378,
    "Ġrefreshment": 17242,
    "anywhere": 14684,
    "Ġinanimate": 13936,
    "isticated": 1553,
    "n": 82,
    "Ġtidings": 11399,
    "Ġrefined": 18700,
    "unavoid": 14065,
    "Ġancestors": 25643,
    "Ġdiff": 3119,
    "Ġresist": 7916,
    "contrad": 19294,
    "Ġgossip": 18471,
    "Ġstash": 18073,
    "Ġhead": 1123,
    "Ġequinox": 25856,
    "ceiling": 21630,
    "amiable": 14057,
    "Ġharbors": 24902,
    "Ġrepublic": 14532,
    "Ġfaultless": 24540,
    "Ġmouldy": 14977,
    "Ġdoubted": 7965,
    "accomplishment": 20226,
    "keeper": 5597,
    "Ġjunior": 15103,
    "Ġobject": 1397,
    "Ġannesley": 19580,
    "Ġdeprived": 8211,
    "ss": 398,
    "Ġfearing": 12820,
    "rigible": 24932,
    "suitableness": 26262,
    "Ġdoctor": 5067,
    "ripp": 6405,
    "Ġselfish": 7272,
    "Ġramble": 9316,
    "affa": 23778,
    "Ġobserving": 6081,
    "Ġpronounced": 8351,
    "Ġplaited": 14286,
    "Ġfact": 1729,
    "george": 26020,
    "icted": 5938,
    "Ġsweeter": 23921,
    "Ġbou": 17854,
    "Ġankles": 17901,
    "Ġaforethought": 25429,
    "Ġgibe": 25960,
    "Ġclasped": 17209,
    "Ġaskance": 23151,
    "Ġanxiety": 5408,
    "Ġdivined": 19446,
    "introdu": 8940,
    "Ġbehoo": 19038,
    "Ġstoper": 14465,
    "Ġslapped": 23172,
    "Ġslam": 13063,
    "connection": 18870,
    "ward": 705,
    "figure": 13559,
    "shavings": 22467,
    "erness": 6435,
    "Ġposted": 16726,
    "Ġchanc": 18385,
    "Ġresid": 22542,
    "Ġreverber": 19871,
    "roqu": 21537,
    "Ġtorment": 8677,
    "created": 12455,
    "retion": 9365,
    "goodbye": 12060,
    "significant": 25085,
    "iny": 4296,
    "bred": 11471,
    "Ġinsincere": 26601,
    "Ġbalm": 22907,
    "couldn": 23720,
    "characteristic": 24686,
    "Ġstare": 10866,
    "belonged": 25598,
    "embraces": 25804,
    "Ġcapering": 21357,
    "Ġattentive": 9036,
    "Ġplantation": 11425,
    "Ġlucifers": 16590,
    "new": 1465,
    "she": 1399,
    "Ġriotous": 20547,
    "Ġberry": 19749,
    "ced": 695,
    "Ġscrewing": 20211,
    "Ġdefendants": 15144,
    "ache": 8521,
    "Ġfir": 17879,
    "Ġahead": 6665,
    "Ġattacks": 12209,
    "Ġdeceiving": 21842,
    "securer": 25603,
    "Ġsimilar": 4918,
    "uplifted": 17697,
    "Ġarmed": 9263,
    "Ġwilling": 7421,
    "Ġshilling": 18229,
    "Ġbewit": 15732,
    "aulets": 18620,
    "Ġactions": 6280,
    "reproach": 15190,
    "aust": 15313,
    "Ġenormity": 19698,
    "tot": 10730,
    "Ġottoman": 17381,
    "Ġcaution": 11348,
    "sounded": 12271,
    "Ġuttering": 16464,
    "Ġrespond": 11178,
    "Ġclim": 8197,
    "Ġfastening": 16360,
    "Ġensued": 11396,
    "wol": 21125,
    "Ġconsoled": 18115,
    "Ġfanciful": 24787,
    "bru": 12443,
    "Ġepistle": 24905,
    "Ġpersistence": 2949,
    "Ġoutrage": 15962,
    "Ġirr": 10423,
    "Ġincl": 4271,
    "Ġfrantic": 7957,
    "Ġsabbee": 17258,
    "Ġwife": 2588,
    "Ġadvertised": 17250,
    "Ġinsists": 23680,
    "Ġformula": 2869,
    "Ġlard": 13950,
    "Ġgradients": 611,
    "Ġvanishing": 1344,
    "physiogn": 26266,
    "Ġpace": 9185,
    "Ġcomposedly": 25184,
    "»": 124,
    "Ġcusack": 26435,
    "cstasy": 11447,
    "ĠĠĠĠĠĠĠĠĠĠĠĠĠĠĠĠĠĠĠĠĠĠĠĠĠĠĠĠĠĠĠĠĠĠĠ": 19260,
    "Ġnameless": 7700,
    "tured": 13798,
    "Ġdeed": 7868,
    "Ġemig": 14525,
    "```": 25894,
    "Ġstops": 3169,
    "Ġjonah": 3484,
    "Ġkind": 1783,
    "Ġsuav": 22085,
    "creature": 5347,
    "Ġvirt": 3909,
    "correspond": 13402,
    "Ġbring": 3327,
    "Ġfavourite": 5271,
    "Ġendeavoured": 4919,
    "bidden": 19740,
    "Ġviolates": 3168,
    "Ġentrapped": 26264,
    "Ġbuoyant": 13535,
    "bold": 17490,
    "compar": 14360,
    "Ġchatbots": 11351,
    "bacc": 7795,
    "Ġmeaning": 1417,
    "Ġflamingo": 15104,
    "syntax": 5868,
    "Ġunfor": 15843,
    "certain": 3677,
    "lic": 17589,
    "Ġdismal": 11814,
    "Ġbingley": 1677,
    "Ġsunwards": 19013,
    "Ġwinking": 17795,
    "Ġunworth": 22038,
    "Ġlearnedly": 23387,
    "Ġrapid": 1406,
    "Ġredoubled": 23755,
    "Ġhears": 8139,
    "oper": 7347,
    "Ġclamorous": 24910,
    "Ġimpenet": 14222,
    "Ġrepining": 23361,
    "fired": 20862,
    "young": 7321,
    "Ġengaging": 9339,
    "alliance": 22204,
    "Ġbidding": 9540,
    "Ġcuts": 14610,
    "Ġclass": 799,
    "billows": 20239,
    "Ġsingular": 4427,
    "Ġsagaciously": 24730,
    "ertips": 23641,
    "gust": 6362,
    "Ġfeels": 6882,
    "Ġnur": 5710,
    "Ġpolitics": 19227,
    "jointed": 24013,
    "por": 2150,
    "Ġworsh": 13005,
    "Ġporpoise": 7108,
    "Ġseeth": 21964,
    "iet": 1773,
    "Ġsurv": 6082,
    "Ġpracticable": 19046,
    "Ī": 235,
    "Ġtash": 13823,
    "iards": 17576,
    "introduction": 15127,
    "Ġgenteel": 19984,
    "Ġsimplest": 16337,
    "chors": 11647,
    "missed": 11211,
    "ones": 2743,
    "\":": 9584,
    "Ġmortified": 14697,
    "Ġaddressing": 11166,
    "Ľ": 254,
    "Ġsho": 2244,
    "Ġcomfortless": 23916,
    "ott": 1872,
    "ches": 2149,
    "Ġplata": 25120,
    "Ġstrategy": 2358,
    "ator": 1922,
    "electricity": 26387,
    "Ġarm": 2492,
    "Ġvexations": 24610,
    "Ġbeware": 8832,
    "Ġplayful": 19239,
    "Ġtorpor": 25034,
    "ogne": 12945,
    "Ġsilver": 7464,
    "umbers": 10920,
    "pendicular": 6500,
    "Ġanomaly": 25637,
    "Ġimmutable": 17361,
    "Ġnotable": 18223,
    "Ġunex": 11717,
    "mess": 13756,
    "Ġfowls": 8694,
    "Ġasia": 11686,
    "Ġbanking": 19633,
    "teness": 23207,
    "hairs": 20906,
    "Ġtort": 5903,
    "gods": 13371,
    "Ġpipeline": 2280,
    "aurus": 20563,
    "aze": 10078,
    "Ġunshored": 25814,
    "Ġmultitude": 9328,
    "client": 18934,
    "Ġbraces": 14672,
    "Ġdispositions": 13237,
    "outer": 9671,
    "Ġchest": 5185,
    "surgeon": 24217,
    "prot": 6898,
    "Ġnearer": 5303,
    "gir": 8083,
    "Ġtumult": 7116,
    "Ġincalculable": 17463,
    "Ġmadness": 6603,
    "occurrences": 26333,
    "Ġexcurs": 23315,
    "Ġtaking": 3250,
    "Ġacceler": 1609,
    "Ġdad": 12605,
    "Ġforced": 4355,
    "Ġhalf": 1670,
    "Ġcomposed": 8896,
    "Ġglue": 15678,
    "Ġbreaks": 13189,
    "Ġbreaches": 14522,
    "Ġprecipices": 12282,
    "menced": 23147,
    ",âĢĿâĢĶ": 14223,
    "preading": 18498,
    "linging": 16082,
    "Ġactuated": 18545,
    "actions": 8910,
    "tur": 5688,
    "introduce": 25187,
    "inese": 12881,
    "aguy": 21914,
    "Ġcharmed": 16764,
    "conjecture": 15126,
    "Ġdifferently": 10391,
    "Ġconsideration": 5191,
    "Ġmorals": 22980,
    "completed": 19997,
    "Ġreluctant": 20528,
    "Ġsupposition": 9820,
    "among": 6258,
    "aswag": 21549,
    "Ġpenetrated": 13476,
    "Ġtales": 10144,
    "Ġconfinement": 19041,
    "Ġard": 5164,
    "Ġverte": 9444,
    "Ġchanges": 2288,
    "Ġtout": 17721,
    "Ġunit": 1848,
    "Ġabsurdly": 19963,
    "utes": 5915,
    "lesome": 12970,
    "gressive": 2754,
    "stay": 9684,
    "Ġseized": 4835,
    "Ġwisely": 13276,
    "Ġfringe": 17274,
    "Ġmumbled": 17809,
    "ross": 808,
    "Ġhunger": 8570,
    "Ġesc": 2252,
    "Ġaught": 8777,
    "Ġsupposing": 6731,
    "Ġjub": 22289,
    "Ġinher": 10182,
    "Ġfortitude": 9888,
    "Ġplacid": 11830,
    "Ġmien": 17810,
    "Ġadvance": 5484,
    "Ġdevoutly": 25834,
    "rolling": 9063,
    "ide": 722,
    "someone": 14567,
    "Ġmystical": 12137,
    "ishe": 13894,
    "Ġnerves": 2628,
    "ener": 558,
    "erve": 12554,
    "Ġinexhaustible": 16983,
    "Ġportra": 9012,
    "Ġvalidate": 2857,
    "vis": 4579,
    "aced": 2410,
    "wishes": 13810,
    "rect": 1596,
    "Ġthousand": 2782,
    "Ġhearing": 4762,
    "Ġafar": 14294,
    "sembled": 7263,
    "Ġreiterating": 26476,
    "Ġpreserve": 7529,
    "Ġgracious": 8851,
    "Ġfootman": 8288,
    "Ġbil": 15569,
    "admitted": 18094,
    "Ġarrow": 10933,
    "Ġwade": 17786,
    "Ġ18": 3409,
    "//": 11465,
    "overs": 17623,
    "enemy": 15530,
    "Ġpict": 3502,
    "flutterings": 26608,
    "Ġtropics": 17067,
    "Ġby": 383,
    "Ġcharacters": 9375,
    "Ġsimple": 1619,
    "Ġbishop": 13905,
    "were": 2559,
    "wedding": 12526,
    "coast": 10451,
    "Ġaff": 1116,
    "liament": 16221,
    "Ġhebrew": 13991,
    "Ġpossibility": 7458,
    "||": 4870,
    "Ġbelfry": 26440,
    "ction": 502,
    "Ġjail": 22288,
    "!--": 10680,
    "Ġsort": 1504,
    "Ġempt": 5051,
    "Ġdeferred": 18827,
    "imental": 16536,
    "Ġflour": 8947,
    "Ġtouched": 6002,
    "Ġswap": 23055,
    "Ġcod": 8413,
    "Ġlug": 15656,
    "Ġcassock": 20490,
    "office": 16398,
    "urried": 21707,
    "stall": 21649,
    "Ġbreath": 4792,
    "entions": 17977,
    "icher": 9205,
    "Ġdiscreet": 16484,
    "etuous": 21586,
    "Ġdiscl": 9800,
    "while": 2938,
    "Ġjustified": 11909,
    "ith": 330,
    "Ġleyden": 21736,
    "Ġmig": 13859,
    "Ġsuccor": 25663,
    "inordinate": 21197,
    "in": 262,
    "our": 534,
    "alously": 15633,
    "ram": 13975,
    "these": 3243,
    "Ġbugs": 13652,
    "Ġreceptive": 1564,
    "understanding": 1163,
    "Ġfoundations": 11075,
    "ister": 1294,
    "possessed": 9531,
    "Ġpreservation": 24631,
    "Ġharpoon": 3618,
    "Ġelegance": 11334,
    "Ġresidence": 8207,
    "Ġrecogn": 2611,
    "Ġframe": 1896,
    "Ġamid": 4959,
    "Ġvort": 18194,
    "Ġdowncast": 18652,
    "Ġreeled": 13989,
    "Ġportion": 7492,
    "flex": 24844,
    "Ġdrew": 3540,
    "lashed": 20956,
    "Ġface": 1723,
    "jury": 15377,
    "circ": 4392,
    "avail": 18568,
    "contempl": 13195,
    "neighbourhood": 10028,
    "Ġfriends": 2656,
    "bourn": 3303,
    "59": 17476,
    "thodox": 21992,
    "appropri": 22846,
    "Ġweariness": 19797,
    "dep": 6787,
    "Ġwatch": 2744,
    "rubbery": 17345,
    "Ġimbecile": 17395,
    "Ġconverse": 11851,
    "Ġproduces": 2093,
    "Ġwarring": 16867,
    "Ġdungeon": 16998,
    "Ġchoosing": 19593,
    "Ġscriptures": 26238,
    "Ġsmacking": 20168,
    "Ġbuy": 8300,
    "Ġcobweb": 22590,
    "Ġ118": 19701,
    "Ġprotecting": 24687,
    "Ġra": 802,
    "Ġmizzen": 20292,
    "Ġcondu": 18112,
    "Ġsheath": 14154,
    "sleep": 6512,
    "Ġpresuming": 16795,
    "Ġlurch": 21558,
    "ĠĠĠĠĠĠĠĠĠĠĠĠĠĠĠĠ": 1221,
    "ail": 566,
    "Ġcomprehend": 6495,
    "Ġencoura": 1367,
    "letters": 13178,
    "Ġbows": 4083,
    "Ġprince": 18972,
    "smooth": 20251,
    "Ġchr": 3689,
    "Ġcompletion": 12152,
    "odiac": 14035,
    "Ġremains": 4909,
    "!âĢĿ": 845,
    "Ġstumped": 24945,
    "Ġbern": 17860,
    "Ġje": 4122,
    "Ġsing": 3079,
    "Ġprofessed": 14727,
    "Ġimposs": 16618,
    "gorge": 22336,
    "Ġsuppressing": 23004,
    "Ġcretan": 22722,
    "Ġhemis": 21687,
    "sell": 13784,
    "Ġmerc": 9429,
    "likes": 18816,
    "Ġdescent": 1001,
    "ch": 321,
    "comfortably": 16877,
    "Ġcrimin": 6901,
    "Ġstaid": 21742,
    "Ġanon": 9669,
    "jewel": 20349,
    "Ġwarning": 9061,
    "Ġanim": 2114,
    "Ġimpressed": 8199,
    "Ġenjoys": 19453,
    "Ġanyhow": 14257,
    "Ġsmoke": 4716,
    "Ġdint": 15595,
    "inferences": 17741,
    "country": 6105,
    "progression": 20385,
    "Ġbumpkin": 20203,
    "Ġsalvation": 14760,
    "beloved": 19464,
    "Ġrachel": 11848,
    "cabinet": 25080,
    "Ġholland": 10368,
    "Ġsnuff": 7992,
    "Ġbucket": 8792,
    "Ġabomin": 8189,
    "Ġbreeding": 14523,
    "Ġda": 5150,
    "Ġchain": 1844,
    "Ġcompromising": 22578,
    "Ġtal": 7564,
    "ifted": 4497,
    "Ġtalent": 12301,
    "Ġragged": 11847,
    "abhor": 12712,
    "oms": 4595,
    "handsome": 13180,
    "Ġspectators": 19410,
    "Ġconcealing": 23906,
    "Ġwidespread": 20678,
    "desperate": 17360,
    "lungs": 26136,
    "Ġloses": 15877,
    "Ġwrists": 11114,
    "Ġalarming": 14784,
    "Ġicelandic": 25887,
    "Ġprocured": 8680,
    "Ġengraved": 17082,
    "Ġcrow": 3805,
    "Ġsolemnisation": 24115,
    "Ġname": 2083,
    "Ġfashioned": 13325,
    "ded": 2757,
    "Ġears": 4493,
    "leviathan": 7785,
    "approve": 19940,
    "Ġtribes": 20484,
    "Ġrepugnant": 26592,
    "Ġungrateful": 14123,
    "Ġsem": 1877,
    "Ġswaying": 15049,
    "dissatisfied": 26614,
    "Ġvariations": 22669,
    "Ġhurtling": 24960,
    "Ġcanaan": 22170,
    "Ġslashing": 23171,
    "relu": 17761,
    "Ġlawy": 9457,
    "Ġstudied": 11124,
    "name": 6796,
    "note": 14340,
    "Ġpreface": 18368,
    "Ġoccupy": 14734,
    "Ġwaited": 4912,
    "cordiality": 25140,
    "Ġwiping": 25766,
    "Ġgouge": 26190,
    "Ġproposals": 10616,
    "azed": 9402,
    "binnacle": 20789,
    "aited": 12439,
    "forbid": 14354,
    "Ġclam": 7416,
    "Ġmoccas": 22438,
    "Ġwooded": 23523,
    "Ġbold": 5293,
    "anatory": 21366,
    "withstanding": 8948,
    "Ġsleep": 2402,
    "Ġpagan": 7119,
    "į": 240,
    "Ġsa": 473,
    "800": 17479,
    "Ġphantom": 8710,
    "Ġquieted": 23846,
    "ascal": 10195,
    "¡": 99,
    "erial": 4633,
    "met": 6655,
    "Ġ59": 24323,
    "unwho": 21881,
    "Ġremoving": 12121,
    "companies": 24895,
    "ĠĠĠĠĠĠĠĠĠĠĠĠĠĠĠĠĠĠĠĠĠĠĠ": 18834,
    "Ġcorroded": 18877,
    "berish": 22745,
    "endeav": 7151,
    "Ġmagnanimous": 17414,
    "Ġcass": 13882,
    "Ġforgetting": 3438,
    "Ġmended": 21316,
    "Ġnever": 1018,
    "Ġbel": 1218,
    "Ġwhaleboats": 18479,
    "Ġve": 1104,
    "effectually": 25131,
    "Ġemma": 20697,
    "Ġtexel": 25924,
    "Ġfilling": 13412,
    "upt": 13801,
    "Ġgoal": 10304,
    "ome": 535,
    "Ġelig": 9781,
    "Ġvigilant": 20187,
    "Ġexclaiming": 13645,
    "Û": 156,
    "doubtful": 24790,
    "Ġhamper": 19392,
    "enance": 3374,
    "Ġquar": 3117,
    "Ġfac": 6382,
    "respectively": 24699,
    "mystic": 25317,
    "Ġvary": 15811,
    "Ġnursing": 12219,
    "Ġmanufactured": 22334,
    "dear": 6557,
    "pall": 17630,
    "Ġwhaler": 7520,
    "Ġadequately": 15202,
    "Ġarticulate": 24432,
    "derest": 18316,
    "Ġryder": 10261,
    "Ġsafely": 9028,
    "lu": 596,
    "Ġupp": 13995,
    "Ġexclamations": 11363,
    "afforded": 25866,
    "Ġbounce": 21396,
    "Ġcoars": 14275,
    "Ġpuffed": 14980,
    "Ġfingers": 5672,
    "becomes": 22500,
    "Ġafrican": 20140,
    "Ġarriving": 19220,
    "Ġwhirlwinds": 20468,
    "Ġrep": 1938,
    "imson": 12694,
    "Ġpoisonous": 24888,
    "Ġterrier": 23400,
    "Ġminut": 2203,
    "Ġmissed": 8560,
    "elop": 1552,
    "bound": 6222,
    "alter": 10828,
    "Ġelderly": 13500,
    "Ġpolitical": 19226,
    "Ġmists": 14632,
    "Ġcertainty": 6736,
    "Ġkrusen": 20716,
    "Ġelopement": 10333,
    "Ġinvol": 1070,
    "Ġuntidy": 23526,
    "Ġprometheus": 15296,
    "smiled": 16616,
    "Ġgames": 11629,
    "regarded": 12012,
    "Ġscript": 18408,
    "Ġsuggestion": 19710,
    "loss": 22512,
    "Ġgore": 17991,
    "Ġwaiting": 4327,
    "Ġinstrument": 7120,
    "Ġcompassionate": 24722,
    "Ġreceptacle": 23192,
    "Ġ1883": 23901,
    "measured": 19993,
    "queen": 12732,
    "eng": 1485,
    "É": 138,
    "Ġpreserved": 9265,
    "pooh": 18803,
    "Ġimplac": 24875,
    "Ġdoct": 4458,
    "Ġcelestial": 10070,
    "Ġcoroner": 7510,
    "Ġ123": 24468,
    "Ġcanted": 17833,
    "Ġsupremacy": 20263,
    "Ġbequeathed": 20704,
    "Ġheinous": 18041,
    "Ġbawling": 25946,
    "Ġsequences": 1751,
    "Ġunfolding": 17087,
    "Ġalbert": 12711,
    "Ġdespond": 14670,
    "illation": 14144,
    "Ġcomprehen": 5350,
    "allers": 22201,
    "bat": 8072,
    "Ġswims": 12124,
    "oard": 4810,
    "odes": 18122,
    "Ġapplied": 6188,
    "Ġmiserably": 12953,
    "Ġrobes": 16265,
    "Ġtheoretic": 23312,
    "Ġcontain": 1550,
    "Ġimmensity": 25330,
    "tained": 4409,
    "shrugged": 22464,
    "Ġgait": 13335,
    "hent": 12539,
    "Ġemploys": 19434,
    "Ò": 147,
    "03": 20750,
    "tarpaulins": 26407,
    "Ġthief": 11613,
    "pher": 11514,
    "eer": 15351,
    "Ġpatch": 4181,
    "Ġlanguage": 637,
    "pinn": 21028,
    "cable": 20799,
    "Ġarist": 14164,
    "Ġclassification": 1101,
    "ors": 854,
    "Ġlima": 10444,
    "Ġimagined": 8610,
    "achable": 14140,
    "Ġgolden": 5337,
    "Ġweakened": 16825,
    "Ġassociated": 12254,
    "Ġfeat": 10939,
    "ack": 610,
    "rusion": 11325,
    "ignorance": 17164,
    "cellar": 20280,
    "Ġmoderately": 22219,
    "Ġunsuccessful": 18255,
    "Ġrese": 2108,
    "Ġlightning": 5750,
    "Ġaerial": 21201,
    "Ġinvestig": 10552,
    "deeply": 16184,
    "secure": 12240,
    "Ġdust": 5910,
    "Ġfireboard": 23535,
    "Ġhoriz": 4727,
    "Ġstop": 2501,
    "..": 5783,
    "eric": 3474,
    "Ġfronts": 19003,
    "Ġpulled": 5660,
    "Ġmaddening": 17245,
    "Ġartful": 22613,
    "Ġbressed": 21390,
    "Ġcumul": 4179,
    "occupations": 24967,
    "Ġhatch": 7848,
    "Ġmanners": 3790,
    "Ġpiny": 21472,
    "lonely": 20959,
    "compass": 9463,
    "judge": 13341,
    "Ġdespair": 4010,
    "Ġcarn": 17823,
    "uish": 5431,
    "ct": 309,
    "ggling": 19098,
    "Ġnewspapers": 17189,
    "Ġgoethe": 22428,
    "proportion": 16183,
    "rope": 3188,
    "Ġbreaching": 23348,
    "ny": 4016,
    "Ġaffairs": 6877,
    "Ġ87": 19713,
    "instr": 12536,
    "Ġelder": 7225,
    "Ġpiazza": 26452,
    "commencement": 26350,
    "semicirc": 26493,
    "Ġindul": 5858,
    "Ġsubsisted": 19119,
    "Ġsplendidly": 25328,
    "desper": 13223,
    "ires": 6039,
    "Ġchaise": 9079,
    "Ġfulfilment": 20190,
    "30": 20756,
    "Ġtru": 4105,
    "horr": 14601,
    "loun": 17590,
    "weep": 22687,
    "Ġegot": 18010,
    "Ġdiffered": 22712,
    "sy": 2621,
    "Ġprof": 2462,
    "Ġcreating": 2999,
    "Ġensuing": 12313,
    "Ġprofited": 19194,
    "venerable": 26410,
    "Ġwhereas": 3855,
    "Ġbride": 6293,
    "Ġtattooing": 15030,
    "speaking": 12103,
    "Ġshortly": 6198,
    "sto": 3201,
    "Ġeddying": 17119,
    "Ġphilosophy": 7105,
    "Ġlichen": 20095,
    "inders": 15985,
    "âĢĿ]": 21819,
    "Ġnecessitates": 23933,
    "Ġrequires": 1036,
    "Ġexceptional": 19374,
    "fill": 15354,
    "Ġ184": 16609,
    "Ġsubordinate": 18722,
    "hyp": 15370,
    "ken": 2801,
    "describe": 1513,
    "belongs": 25597,
    "Ġdistributed": 18662,
    "sorrows": 17323,
    "Ġadapt": 1048,
    "Ġfuss": 13908,
    "pped": 1997,
    "Ġbildad": 3781,
    "Ġnavigation": 9996,
    "Ġmaids": 19694,
    "Ġthreads": 13122,
    "ifiable": 18166,
    "attracted": 13056,
    "Ġeconomy": 17203,
    "Ġvesture": 20065,
    "ish": 550,
    "Ġancient": 5443,
    "pocket": 9812,
    "Ġarrant": 23300,
    "Ġdisturbed": 8675,
    "ctors": 21593,
    "Ġsentiment": 6591,
    "nour": 20990,
    "Ġbundles": 26176,
    "ander": 6402,
    "ell": 395,
    "Ġcrevice": 22723,
    "Ġlifted": 6986,
    "soled": 14331,
    "Ġincul": 22554,
    "Ġdetest": 8503,
    "Ġequal": 4134,
    "Ġjacobian": 2896,
    "Ġgallows": 12150,
    "Ġchapters": 10475,
    "oriented": 2952,
    "ctive": 11626,
    "Ġghosts": 12237,
    "Ġwrig": 13073,
    "disciple": 16780,
    "?âĢĻâĢĿ": 23647,
    "ream": 2710,
    "Ġfearfully": 23515,
    "Ġconsuming": 22793,
    "obed": 14449,
    "actor": 11841,
    "prop": 1029,
    "tisement": 6768,
    "Ġwearied": 15798,
    "Ġimpass": 15989,
    "prospect": 23397,
    "knives": 14916,
    "opotam": 22489,
    "indeed": 4490,
    "Ġfanning": 23391,
    "Ġhaggard": 17333,
    "ane": 1179,
    "Ġthw": 21518,
    "Ġlimping": 23549,
    "Ġgallied": 19559,
    "Ġinsensibly": 20079,
    "Ġperiodically": 19497,
    "Ġshare": 1658,
    "Ġdut": 2991,
    "Ġ54": 24318,
    "sequence": 2860,
    "actually": 14298,
    "Ġsays": 3564,
    "Ġbreach": 11978,
    "Ġcurling": 9344,
    "Ġcompose": 12907,
    "peter": 24300,
    "Ġeager": 3573,
    "Ġpersever": 10006,
    "Ġfashion": 4300,
    "Ġtowing": 9196,
    "Ġtip": 15474,
    "isher": 2881,
    "Ġholy": 6593,
    "crimes": 16686,
    "likely": 9026,
    "Ġrequire": 913,
    "owders": 18053,
    "Ġclassifies": 11845,
    "impatient": 13644,
    "Ġwhiteness": 5920,
    "Ġextracts": 9368,
    "Ġweeps": 24950,
    "Ġdemonstrate": 24997,
    "any": 3341,
    "Ġfain": 5809,
    "Ġinvoluntarily": 8551,
    "Ġveritable": 19384,
    "Ġrequesting": 24633,
    "Ġcomprehens": 8320,
    "Ġtaste": 5524,
    "Ġbowsman": 11256,
    "brÃ¦": 11177,
    "Ġpractises": 23319,
    "Ġenglishmen": 19433,
    "Ġtendons": 19811,
    "Ġbroods": 23106,
    "Ġdevout": 14335,
    "ural": 503,
    "Ġaids": 12233,
    "Ġancest": 12619,
    "ensity": 11817,
    "Ġmirror": 12382,
    "Ġconstructed": 9389,
    "negro": 18490,
    "Ġwheeled": 14141,
    "ariously": 18531,
    "Ġbooks": 4677,
    "Ġcanall": 10930,
    "blow": 9107,
    "Ġmarlings": 23037,
    "Ġpreceding": 7528,
    "Ġbravery": 23840,
    "raged": 9214,
    "collinses": 19925,
    "ifix": 21907,
    "Ġof": 298,
    "Ġrelish": 14387,
    "Ġwriter": 11949,
    "astonished": 15035,
    "Ġevening": 2654,
    "thither": 21987,
    "Ġcrouched": 23443,
    "Ġinsisted": 12050,
    "cle": 3956,
    "adequ": 11022,
    "Ġrosings": 4609,
    "kine": 15379,
    "Ġsavann": 14686,
    "Ġ49": 24085,
    "Ġindicated": 10471,
    "Ġheh": 21683,
    "Ġbackstays": 22663,
    "shark": 14241,
    "ilated": 18060,
    "Ġtusk": 25426,
    "continuing": 24479,
    "Ġfries": 21418,
    "Ġnotice": 4545,
    "Ġpsychology": 11450,
    "Ġcaucus": 17383,
    "Ġcarpenters": 16754,
    "Ġundue": 25994,
    "inch": 10757,
    "vessel": 11379,
    "gain": 8740,
    "Ġsavor": 23878,
    "Ġahab": 1217,
    "Ġembod": 14409,
    "lines": 6959,
    "Ġfashionable": 19547,
    "inkled": 5477,
    "rigged": 17063,
    "Ġescapes": 23511,
    "Ġhides": 16268,
    "Ġpeterson": 9486,
    "Ġpup": 12624,
    "uer": 21103,
    "Ġfurrow": 22818,
    "sander": 11529,
    "altogether": 12644,
    "Ġwant": 1117,
    "Ġmorsel": 20680,
    "Ġtemporarily": 11169,
    "Ġglove": 14493,
    "riet": 18185,
    "impart": 21712,
    "Ġruff": 14350,
    "Ġclustered": 25234,
    "Ġcrowds": 14742,
    "Ġvainly": 9927,
    "Ġwherein": 14296,
    "rule": 15902,
    "ity": 417,
    "Ġlinn": 13956,
    "Ġflo": 2589,
    "akness": 14197,
    "Ġinsomuch": 23685,
    "Ġsnar": 13204,
    "Ġretired": 6072,
    "Ġpie": 13918,
    "han": 12477,
    "Ġstiffness": 24828,
    "everything": 6326,
    "Ġaint": 17746,
    "snow": 10726,
    "ibule": 13012,
    "Ġsquared": 1383,
    "ifle": 10893,
    "Ġpyth": 21463,
    "Ġupd": 946,
    "Ġending": 18924,
    "Ġman": 544,
    "Ġmoss": 9287,
    "Ġtrod": 15029,
    "Ġbutler": 18271,
    "flatter": 23970,
    "glimmer": 26323,
    "residual": 19264,
    "deliberated": 26119,
    "Ġknelt": 12163,
    "tish": 17679,
    "ook": 21006,
    "Ġapprehensiveness": 16879,
    "Ġprocedural": 12035,
    "Ġpince": 21473,
    "Ġintentionally": 24523,
    "favourite": 15147,
    "unearthly": 19275,
    "(": 12,
    "Ġorbs": 22096,
    "Ġri": 3397,
    "Ġforeman": 23450,
    "Ġcorrespond": 6211,
    "Ġhabitu": 19531,
    "Ġpout": 17906,
    "Ġindulging": 16906,
    "Ġbracelets": 25503,
    "Ġsneeze": 24698,
    "ums": 10275,
    "outre": 18321,
    "Ġslaught": 23169,
    "Ġdecoyed": 18487,
    "irregular": 21915,
    "lemagne": 26438,
    "turning": 8317,
    "Ġtrustees": 24109,
    "Ġrights": 10399,
    "westward": 25425,
    "Ġgratefully": 20448,
    "ĠĠĠĠĠ": 3530,
    "pious": 17635,
    "scornful": 26577,
    "Ġcaut": 6522,
    ",âĢĿ": 580,
    "true": 2587,
    "Ġstaircase": 20099,
    "solic": 16379,
    "progra": 9397,
    "Ġbub": 8118,
    "Ġisles": 8461,
    "approaching": 15014,
    "Ġdumb": 7843,
    "tinted": 17685,
    "Ġ8": 5433,
    "Ġspect": 3555,
    "Ġbreathlessly": 24283,
    "beneath": 9538,
    "swelled": 19613,
    "taste": 10132,
    "Ġcapric": 14578,
    "Ġdefile": 18825,
    "Ġpeace": 3693,
    "test": 13795,
    "delay": 16697,
    "tackles": 25625,
    "gaining": 20127,
    "Ġparlour": 12325,
    "Ġidleness": 11146,
    "verdict": 21733,
    "Ġlonger": 3363,
    "tears": 11039,
    "Ġindians": 14414,
    "Ġpurple": 10435,
    "Ġanatomy": 12324,
    "Ġtrusted": 10520,
    "Ġhistories": 14689,
    "eteenth": 20160,
    "mistak": 16880,
    "Ġcruellest": 19661,
    "Ġstartling": 14673,
    "Ġdesire": 3717,
    "Ġisolated": 13563,
    "Ġripe": 13239,
    "Ġeats": 15681,
    "Ġportrait": 10664,
    "Ġ68": 24370,
    "Ġconducting": 16652,
    "Ġsickening": 19607,
    "incom": 21184,
    "outon": 12808,
    "Ġdoc": 7200,
    "vel": 2386,
    "ads": 5718,
    "icest": 21567,
    "Ġrecklessness": 24744,
    "ceive": 3069,
    "Ġjovial": 19236,
    "spears": 23945,
    "Ġpals": 13921,
    "perplex": 18339,
    "violently": 23546,
    "etence": 21580,
    "Ġfolded": 7768,
    "Ġinvests": 14871,
    "Ġacts": 2297,
    "digger": 24312,
    "ospit": 22267,
    "Ġfalling": 6915,
    "Ġincommod": 25308,
    "Ġautom": 3414,
    "des": 3175,
    "Ġoff": 901,
    "plun": 15819,
    "Ġgaping": 13972,
    "steaks": 23964,
    "quake": 11684,
    "Ġabst": 9269,
    "Ġsweatings": 25709,
    "Ġwhitney": 11375,
    "----âĢĿ": 13311,
    "ahab": 4292,
    "revealed": 20419,
    "Ġsour": 21219,
    "Ġseethings": 26505,
    "fields": 14655,
    "readiness": 19366,
    "Ġleisurely": 24745,
    "mount": 9132,
    "tuesday": 17692,
    "Ġheaved": 9385,
    "Ġadagrad": 2907,
    "Ġdivided": 8635,
    "of": 767,
    "Ġrounded": 14441,
    "Ġaccounting": 14575,
    "contrasted": 17309,
    "Ġsilvery": 13099,
    "ĠĠĠĠĠĠĠĠĠĠĠĠĠĠĠĠĠĠĠĠĠĠĠĠ": 5322,
    "cav": 17510,
    "acknowledged": 15206,
    "Ġliking": 23593,
    "Ġhonest": 7287,
    "Ġclimbing": 20073,
    "Ġhitherto": 5881,
    "Ġresented": 22547,
    "cur": 3270,
    "ª": 108,
    "Ġevolved": 9894,
    "Ġsublime": 8066,
    "shold": 2774,
    "Ġbosoms": 16797,
    "Ġflattening": 26049,
    "Ġbelshazzar": 16230,
    "Ġdistant": 5387,
    "Ġdistorted": 14252,
    "pondicherry": 26402,
    "Ġcomplexity": 1694,
    "Ġreceive": 4705,
    "degree": 12806,
    "Ġvan": 1085,
    "Ġqual": 6276,
    "Ġbeings": 2490,
    "ougher": 18276,
    "charming": 15710,
    "well": 1691,
    "Ġexceptions": 13234,
    "Ġimbedded": 18333,
    "drawing": 10489,
    "Ġdamp": 8264,
    "Ġsoothed": 10032,
    "Ġprivilege": 11421,
    "ensation": 22550,
    "shaped": 10311,
    "Ġshrieking": 24757,
    "itage": 17818,
    "ody": 1477,
    "Ġearliest": 9833,
    "odecimo": 11446,
    "rocket": 13947,
    "Ġstro": 4597,
    "bearers": 18528,
    "fro": 8736,
    "Ġolder": 9330,
    "L": 48,
    "Ġlab": 1871,
    "perpendicular": 14162,
    "toller": 20675,
    "justified": 19004,
    "suspicious": 25391,
    "ugn": 9380,
    "Ġdrives": 14580,
    "Ġoutdone": 22322,
    "swam": 24257,
    "Ġneighbor": 25806,
    "Ġlatin": 16823,
    "Ġtransfer": 2260,
    "Ġanyone": 4462,
    "influences": 25251,
    "Ġsmoking": 6430,
    "gno": 13730,
    "imly": 12692,
    "Ġrome": 12160,
    "Ġboxes": 13378,
    "trembling": 17145,
    "Ġdisposition": 5409,
    "Ġrendering": 16660,
    "hound": 20897,
    "Ġx": 2074,
    "Ġpredefined": 20719,
    "irc": 1731,
    "Ġcentury": 8291,
    "Ġsaintly": 25932,
    "Ġseated": 4543,
    "Ġcanv": 7011,
    "Ġmoisture": 12363,
    "impatience": 25501,
    "Ġpraise": 6487,
    "Ġstepdaughter": 22616,
    "Ġknocking": 10562,
    "quin": 21857,
    "Ġoverpow": 14206,
    "opposite": 19931,
    "Ġgive": 1712,
    "ezing": 10576,
    "Ġmethod": 1528,
    "ç": 168,
    "officer": 17055,
    "Ġprone": 18969,
    "atra": 17773,
    "Ġcare": 1636,
    "cuniary": 26381,
    "Ġaunts": 21203,
    "ilies": 18059,
    "was": 1422,
    "Ġghastly": 10063,
    "Ġattempts": 10493,
    "Ġwane": 21291,
    "Ġyesterday": 5333,
    "antages": 7192,
    "aby": 18109,
    "whenever": 11885,
    "Ġcas": 8412,
    "Ġtongues": 14866,
    "Ġgenuine": 14888,
    "Ġsluggish": 25891,
    "Ġremarks": 7473,
    "Ġgrammars": 11404,
    "Ġsubjects": 7074,
    "Ġvaried": 11852,
    "ifying": 5235,
    "ended": 1833,
    "Ġretribution": 16285,
    "iag": 20918,
    "Ġregal": 16076,
    "oons": 12503,
    "Ġvictim": 6099,
    "inter": 2953,
    "ici": 8441,
    "ineffectual": 26506,
    "unless": 9238,
    "Ġreasoned": 23087,
    "Ġeffectually": 16171,
    "Ġgrown": 5628,
    "Ġreports": 19086,
    "Ġunconsciously": 10008,
    "Ġmcc": 21309,
    "Ġsong": 5904,
    "Ġseemingly": 9321,
    "Ġgrotesque": 26331,
    "Ġpreparations": 12314,
    "marks": 7346,
    "Ġnice": 6678,
    "medium": 23640,
    "Ġturtles": 19223,
    "draught": 12095,
    "Ġcondescend": 19958,
    "Ġaware": 5756,
    "Ġ10": 5250,
    "Ġshol": 21999,
    "brad": 20782,
    "Ġsecurely": 16804,
    "ping": 9618,
    "Ġsquint": 22841,
    "ugues": 19022,
    "ĠĠ": 352,
    "Ġalleged": 17293,
    "racts": 14367,
    "charitable": 23936,
    "disapprobation": 19159,
    "Ġnavel": 24577,
    "tawn": 21083,
    "article": 22395,
    "Ġhurled": 10431,
    "Ġcrashes": 13130,
    "Ġ132": 19898,
    "Ġnocturn": 18375,
    "ught": 2751,
    "Ġargu": 10936,
    "continual": 20646,
    "aved": 5474,
    "taking": 5689,
    "resemblance": 25934,
    "osely": 9268,
    "Ġmeantime": 6208,
    "Ġpist": 12620,
    "Ġrolled": 4433,
    "Ġdi": 6526,
    "Ġcoolly": 9775,
    "architect": 22886,
    "crippled": 26386,
    "grant": 10429,
    "missing": 13224,
    "dig": 4930,
    "Ġgayer": 24501,
    "Ġcurse": 7667,
    "Ġintermediate": 18591,
    "Ġcoarsely": 25830,
    "isles": 15568,
    "unfort": 21880,
    "Ġmagician": 25061,
    "Ġposture": 24167,
    "Ġevils": 9023,
    "Ġantichron": 24184,
    "dark": 5614,
    "vex": 21705,
    "Ġegotistical": 26193,
    "Ġuniversally": 12004,
    "band": 3064,
    "bast": 10080,
    "Ġrushing": 7403,
    "Ġbrightest": 13230,
    "Ġgardens": 16453,
    "Ġoak": 6130,
    "Ġimpute": 18332,
    "sculpt": 16248,
    "Ġmomentarily": 22816,
    "Ġborrowed": 17232,
    "Ġlongest": 18632,
    "Ġgaiters": 20464,
    "Ġdisplaying": 16968,
    "Ġjane": 1756,
    "Ġcous": 3440,
    "break": 6103,
    "lp": 897,
    "Ġinserting": 19908,
    "Ġgrooves": 16743,
    "Ġappropriate": 2249,
    "Ġbull": 7839,
    "reference": 13843,
    "Ġobedient": 20108,
    "Ġbegan": 2022,
    "artificial": 967,
    "Ġclassify": 1652,
    "games": 20882,
    "Ġsensitive": 13203,
    "month": 6464,
    "Ġtasks": 1786,
    "vere": 4884,
    "urements": 18126,
    "Ġasser": 6259,
    "prosperity": 20737,
    "Ġdiscoveries": 13363,
    "Ġswiss": 18884,
    "throt": 25660,
    "hitherto": 17286,
    "Ġpun": 4589,
    "Ġinclemency": 22560,
    "Ġbathe": 25444,
    "sailor": 14718,
    "Ġanom": 12616,
    "Ġsinusoidal": 4802,
    "problem": 25244,
    "µ": 118,
    "drop": 15340,
    "gloves": 25146,
    "Ġcomical": 11680,
    "den": 939,
    "eps": 12795,
    "Ġcubs": 20090,
    "residence": 19265,
    "oning": 7572,
    "narrated": 25622,
    "Ġcaptive": 14430,
    "Ġinvolving": 18768,
    "accounted": 16503,
    "Ġwhat": 599,
    "Ġdrenched": 12608,
    "Ġexal": 10879,
    "humanity": 24840,
    "wharf": 20609,
    "Ġoffer": 4845,
    "lied": 6508,
    "Ġthackeray": 26457,
    "Ġfood": 5080,
    "Ġtheory": 5799,
    "Ġquery": 2480,
    "Ġburial": 16524,
    "Ġpowdered": 24240,
    "keepers": 16662,
    "Ġjove": 9271,
    "Ġpenalty": 1841,
    "fellow": 6793,
    "Ġforever": 14555,
    "Ġpuff": 6527,
    "icting": 12857,
    "âĢĶ_": 3203,
    "Ġneedle": 8275,
    "Ġfixedly": 19250,
    "Ġgangs": 21612,
    "Ġinevitably": 17233,
    "Ġcarcase": 14447,
    "ounds": 4157,
    "ade": 882,
    "Ġswarm": 23057,
    "bore": 13690,
    "Ġshifting": 12773,
    "ferent": 4195,
    "Ġdecency": 18484,
    "Ġfavour": 3643,
    "Ġattitudes": 16103,
    "Ġdeceive": 12727,
    "Ġidentified": 19152,
    "88": 20760,
    "Ġlayer": 1009,
    "completely": 12424,
    "Ġspecific": 2001,
    "iment": 2816,
    "Ġtoil": 6533,
    "Ġstudent": 14485,
    "Ġdegenerated": 20509,
    "sledge": 21060,
    "Ġreproof": 24891,
    "request": 21244,
    "Ġhousemaid": 14467,
    "sacred": 17030,
    "Ġnoisy": 13323,
    "Ġgrated": 22807,
    "Ġvolumes": 14802,
    "Ġtester": 21175,
    "Ġender": 11694,
    "dum": 17520,
    "lev": 1236,
    "elaborate": 21579,
    "wil": 8769,
    "xible": 13811,
    "crimin": 17511,
    "Ġghostliness": 24652,
    "Ġbeyond": 2460,
    "arking": 16129,
    "congratulations": 20282,
    "Ġthink": 986,
    "Ġwon": 1666,
    "Ġpack": 5444,
    "Ġver": 3396,
    "mutually": 26137,
    "Ġstorm": 4303,
    "flinging": 20870,
    "her": 488,
    "Ġdiagon": 24739,
    "Ġtistig": 26415,
    "Ġdiadem": 24740,
    "Ġep": 7384,
    "drown": 13708,
    "regret": 16451,
    "Ġglassy": 19563,
    "Ġmightiest": 12966,
    "Ġracket": 22648,
    "sail": 3605,
    "Ġtep": 21164,
    "Ġreadiness": 13055,
    "Ġtusks": 17256,
    "Ġpoor": 1708,
    "Ġcharitable": 23270,
    "Ġremarking": 13129,
    "Ġrecover": 9792,
    "jephro": 26394,
    "Ġamsterdam": 22484,
    "Ġgems": 9211,
    "Ġaccomp": 4714,
    "Ġplowdon": 26449,
    "Ġphilipses": 24452,
    "Ġscratching": 20373,
    "Ġillustrate": 25068,
    "shudder": 26247,
    "Ġinsanity": 12051,
    "Ġwires": 21298,
    "Ġinfinitely": 8966,
    "what": 642,
    "Ġeffemin": 18522,
    "fit": 6648,
    "faces": 13723,
    "Ġgets": 10841,
    "Ġexe": 3994,
    "Ġdeclares": 16994,
    "security": 26208,
    "emic": 18182,
    "Ġopen": 1548,
    "Ġwaving": 8588,
    "Ġpaper": 4283,
    "lan": 15381,
    "Ġflesh": 5970,
    "Ġdecreasing": 2446,
    "Ġsloop": 25931,
    "Ġdepartment": 24244,
    "Ġdragg": 23216,
    "carbuncle": 26384,
    "alse": 4185,
    "Ġhinges": 15216,
    "seek": 8841,
    "written": 7995,
    "Ġmusky": 19385,
    "fering": 17544,
    "Ġflowing": 14415,
    "subs": 14302,
    "vens": 21115,
    "inferiors": 25347,
    "Ġbur": 2699,
    "Ġdams": 16456,
    "Ġdenial": 13218,
    "Ġsalmon": 24066,
    "Ġcondemned": 7779,
    "Ġangle": 8606,
    "Ġgestic": 21611,
    "Ġdepression": 21845,
    "ative": 744,
    "Ġsurve": 9877,
    "Ġago": 3140,
    "Ġet": 3583,
    "Ġplan": 3881,
    "have": 2058,
    "Ġvessels": 6757,
    "Ġdra": 1591,
    "Ġgardiners": 11159,
    "Ġenergy": 2553,
    "manned": 18763,
    "Ġautoregressive": 3435,
    "Ġfinancier": 26585,
    "income": 15489,
    "aviour": 10996,
    "Ġscreams": 24604,
    "Ġcritics": 23446,
    "conven": 6164,
    "Ġfondly": 19619,
    "Ġsparkling": 11358,
    "Ġcautiousness": 19868,
    "Ġcracking": 14576,
    "Ġcolumbus": 26566,
    "Ġmud": 11576,
    "Ġeconomically": 25289,
    "Ġhand": 857,
    "Ġexample": 5096,
    "aract": 17896,
    "Ġsenseless": 12083,
    "Ġadmire": 5264,
    "studies": 25170,
    "elab": 21573,
    "Ġunreasoning": 15849,
    "Ġmam": 8406,
    "cture": 15669,
    "underneath": 23790,
    "powder": 17647,
    "Ġponder": 6819,
    "coll": 23781,
    "Ġgunw": 6214,
    "Ġbetter": 1176,
    "indirect": 22376,
    "extent": 22755,
    "Ġrigging": 5601,
    "covery": 11173,
    "Ġdens": 21427,
    "Ġcritically": 23447,
    "Ġsurgeon": 8984,
    "inj": 9154,
    "Ġpresenting": 18988,
    "rebell": 17765,
    "Ġscrolled": 22303,
    "lested": 14886,
    "Ġwealthy": 18181,
    "aky": 18412,
    "ific": 489,
    "Ġchairs": 12831,
    "Ġtawn": 13826,
    "Ġrepenting": 25323,
    "Ġgri": 17990,
    "Ġfronted": 23258,
    "Ġworrying": 22930,
    "Ġtroubled": 6618,
    "Ġoffing": 16147,
    "Ġlooked": 1802,
    "atlantic": 15527,
    "imod": 15714,
    "Ġshirt": 8853,
    "Ġoblivion": 26032,
    "critters": 14778,
    "Ġeveryone": 8921,
    "Ġusual": 3944,
    "Ġdenote": 19335,
    "enched": 10157,
    "Ġrecol": 4029,
    "Ġmagnific": 16321,
    "Ġgun": 4703,
    "Ġoverdone": 22356,
    "Ġpaddling": 25286,
    "Ġpreparing": 8651,
    "allied": 7410,
    "bowed": 10687,
    "coronet": 16865,
    "fiercely": 25257,
    "houses": 9602,
    "til": 17673,
    "urmount": 13998,
    "twenty": 6609,
    "Ġevery": 927,
    "Ù": 154,
    "Ġapprehen": 16831,
    "rog": 15644,
    "Ġpooh": 18606,
    "Ġanchored": 17443,
    "wers": 12524,
    "ude": 7562,
    "stranger": 9886,
    "niest": 18974,
    "Ġpurposes": 11170,
    "Ġundertaken": 18987,
    "Ġinstruct": 2868,
    "Ġdays": 2078,
    "Ġdiverted": 14594,
    "Ġriding": 14098,
    "Ġmarine": 23034,
    "Ġdefy": 11902,
    "Ġmatches": 14399,
    "Ġlik": 2521,
    "meas": 7434,
    "?_": 8070,
    "Ġnoticing": 18225,
    "rem": 1519,
    "Ġphyseter": 26588,
    "Ġtragic": 15259,
    "thirty": 12767,
    "Ġdeal": 3610,
    "Ġceasing": 23759,
    "hunter": 10558,
    "Ġprofanely": 23572,
    "Ġpair": 5706,
    "putable": 10903,
    "Ġrid": 4357,
    "despicable": 24638,
    "Ġapplication": 2096,
    "Ġangel": 4854,
    "Ġlangs": 13957,
    "Ġmadden": 10449,
    "Ġmounted": 7832,
    "brain": 13691,
    "Ġduties": 6611,
    "inhab": 10759,
    "ibly": 2997,
    "Ġpreferment": 19855,
    "destruction": 11257,
    "offended": 16399,
    "ensities": 22551,
    "ician": 21568,
    "unusual": 21883,
    "ete": 9206,
    "plentiful": 21960,
    "Ġperseverance": 13601,
    "regular": 3047,
    "Ġgradually": 3403,
    "breadth": 20279,
    "Ġalternately": 15034,
    "wondrous": 12342,
    "oglyph": 11021,
    "uck": 1234,
    "Ġelementary": 24811,
    "Ġlxi": 21564,
    "inous": 8776,
    "news": 23135,
    "feren": 766,
    "bear": 10318,
    "Ġsummit": 7731,
    "Ġgriff": 22809,
    "teak": 22820,
    "Ġthom": 21519,
    "treas": 17681,
    "Ġarchy": 14352,
    "ham": 1700,
    "Ġinspect": 5965,
    "Ġane": 9184,
    "assault": 22310,
    "tarpaul": 21100,
    "pronouncing": 25194,
    "Ġslung": 23170,
    "grass": 23415,
    "<SOS>": 1,
    "Ġfails": 13318,
    "arch": 1096,
    "Ġgladstone": 23872,
    "Ġbloodthirsty": 26603,
    "Ġchann": 15939,
    "hastily": 19705,
    "Ġdeployment": 11195,
    "pin": 13770,
    "Ġfresher": 23210,
    "senses": 25027,
    "Ġjoint": 12038,
    "pass": 4293,
    "men": 1483,
    "Ġquadrant": 11406,
    "Ġrucastle": 5176,
    "zza": 24170,
    "Ġexposed": 8525,
    "Ġpoul": 15617,
    "Ġoutrageous": 20613,
    "Ġseas": 3083,
    "Ġafric": 8907,
    "Ġdedicated": 19218,
    "Ġreddening": 25971,
    "rusted": 16509,
    "Ġtormenting": 15108,
    "commotion": 24914,
    "exclaimed": 11794,
    "Ġschoolboys": 24481,
    "Ġresided": 11815,
    "eg": 17531,
    "olet": 13769,
    "Ġflowed": 10374,
    "blind": 16704,
    "painful": 13505,
    "Ġmaty": 22915,
    "nical": 20993,
    "Ġexeget": 24087,
    "imodal": 17450,
    "Ġpail": 15611,
    "Ġbestir": 13114,
    "Ġberries": 13411,
    "Ġinsights": 13183,
    "Ġchart": 10947,
    "bearded": 18526,
    "aving": 2409,
    "sailing": 14717,
    "soever": 11862,
    "Ġslipper": 24268,
    "Ġburgl": 13177,
    "Ġrobert": 10972,
    "ior": 2039,
    "geneva": 13733,
    "Ġcheapside": 23288,
    "slouched": 24557,
    "Ġslily": 23165,
    "legged": 10468,
    "Ġetc": 7086,
    "Ġadvances": 12997,
    "belong": 12127,
    "ph": 921,
    "Ġstaple": 26200,
    "Ġshrunk": 16720,
    "Ġprevented": 5943,
    "Ġinsane": 19271,
    "Ġearnestly": 5980,
    "Ġstud": 1656,
    "Ġpost": 4273,
    "Ġdeck": 2140,
    "Ġsuggest": 5417,
    "Ġblameless": 19861,
    "main": 8088,
    "Ġenc": 965,
    "Ġnlp": 3067,
    "Ġconsecrate": 26491,
    "Ġaccordingly": 6622,
    "ckery": 22094,
    "successfully": 14994,
    "Ġmoney": 3421,
    "Ġparticle": 18672,
    "Ġsmoky": 22563,
    "avoid": 9302,
    "Ġisland": 4049,
    "Ġholmes": 1307,
    "Ġdecomposes": 5506,
    "Ġnarrow": 5086,
    "Ġazure": 12378,
    "Ġstreams": 12197,
    "Ġtraveller": 8049,
    "romeda": 17265,
    "Ġhorrid": 7999,
    "Ġbreat": 3464,
    "Ġmisled": 22763,
    "Ġportents": 14681,
    "Ġgu": 1328,
    "Ġindic": 2891,
    "Ġconnivance": 25226,
    "Ġcongregated": 20100,
    "Ġacres": 14316,
    "Ġapo": 9633,
    "Ġsteamer": 17191,
    "ricity": 23066,
    "ignation": 11130,
    "ĠĠĠĠĠĠĠĠĠĠĠĠĠĠĠĠĠĠĠĠĠĠĠĠĠĠĠĠĠĠĠĠĠĠĠĠĠĠĠ": 19261,
    "Ġsgd": 3133,
    "Ġpress": 5933,
    "Ġchiefly": 5766,
    "Ġsurp": 9637,
    "Ġvulgar": 13608,
    "Ġtransports": 24280,
    "Ġsubject": 2466,
    "Ġpremature": 3725,
    "Ġswitzerland": 10382,
    "feature": 4193,
    "Ġhandy": 12941,
    "sound": 6800,
    "banish": 20784,
    "oices": 7348,
    "Ġordin": 16653,
    "Ġchagrin": 20610,
    "grees": 20888,
    "ishly": 14202,
    "splash": 25210,
    "rested": 13079,
    "flu": 9120,
    "Ġcheerless": 16695,
    "Ġtashtego": 4489,
    "iline": 21724,
    "ical": 753,
    "Ġunconcerned": 20513,
    "Ġdeaf": 12726,
    "riptions": 14797,
    "Ġhoisted": 5961,
    "Ġxxv": 19720,
    "Ġeel": 18004,
    "agne": 21909,
    "Ġserve": 9372,
    "Ġlaborious": 13108,
    "Ġhaw": 10254,
    "sof": 17659,
    "fat": 8079,
    "wic": 21123,
    "lined": 12488,
    "Ġoutlandish": 12843,
    "Ġgovernesses": 25130,
    "report": 13403,
    "sed": 4176,
    "do": 1994,
    "Ġseen": 1369,
    "circle": 16738,
    "oles": 21007,
    "Ġtoy": 15638,
    "Ġ1836": 25721,
    "Ġrearing": 12682,
    "Ġefficiently": 4032,
    "Ġthoroughly": 8348,
    "Ġgallery": 10527,
    "Ġmort": 3463,
    "Ġwaits": 23406,
    "algorithms": 8293,
    "renadier": 18420,
    "Ġstudded": 18993,
    "ect": 381,
    "Ġtam": 7821,
    "chorus": 19814,
    "Ġbigger": 19764,
    "vicinity": 20483,
    "Ġslime": 23162,
    "Ġcopper": 7425,
    "Ġarch": 955,
    "ims": 7177,
    "ald": 15629,
    "Ġelij": 8913,
    "Ġbolted": 12249,
    "crossed": 16635,
    "iarity": 8747,
    "Ġoscillations": 2902,
    "Ġprayers": 12128,
    "saddest": 25528,
    "honest": 17005,
    "Ġgrasshopper": 24380,
    "set": 3865,
    "Ġequival": 4785,
    "Ġcocks": 18598,
    "Ġhappiness": 2948,
    "quohog": 21862,
    "Ġtranque": 14203,
    "same": 5362,
    "Ġcanals": 22168,
    "hunt": 20905,
    "furniture": 20245,
    "Ġtimber": 13354,
    "Ġinve": 17931,
    "Ġabundance": 17158,
    "royal": 11395,
    "))": 1514,
    "ab": 345,
    "committed": 18738,
    "ather": 739,
    "Ġus": 493,
    "acknowledging": 25477,
    "collecting": 26082,
    "otions": 7181,
    "Ġlingo": 24904,
    "omed": 13978,
    "Ġflirting": 16252,
    "Ġlove": 2054,
    "temper": 10007,
    "Ġinferred": 14501,
    "estate": 12826,
    "Ġhurrying": 11999,
    "tie": 21071,
    "leaves": 12583,
    "acter": 2506,
    "Ġterrific": 6756,
    "Ġconverted": 16119,
    "bohemia": 20733,
    "resist": 8276,
    "Ġmisfortune": 5569,
    "Ġconfusion": 7273,
    "Ġreader": 11938,
    "Ġalarmed": 6923,
    "Ġmainly": 22658,
    "Ġrespecting": 14486,
    "Ġcooking": 16649,
    "Ġamaz": 5385,
    "pense": 10371,
    "ening": 3109,
    "geor": 15982,
    "ugl": 23289,
    "summon": 23418,
    "Ġbreezes": 14872,
    "Ġelsewhere": 7713,
    "Ġdistributes": 4196,
    "said": 4103,
    "Ġpercept": 14226,
    "ron": 5216,
    "rie": 2787,
    "Ġminutest": 14562,
    "Ġstri": 2803,
    "Ġbeef": 6830,
    "Ġindispensable": 11906,
    "Ġantelope": 24183,
    "Ġpushing": 10821,
    "Ġfurnished": 6476,
    "Ġloss": 823,
    "Ġamphitheat": 26253,
    "running": 6798,
    "Ġscale": 1545,
    "Ġtrucks": 19515,
    "ssed": 3734,
    "Ġiceland": 15150,
    "Ġfid": 10805,
    "thereby": 14450,
    "Ġapiece": 16815,
    "Ġvisions": 12981,
    "Ġprayer": 16669,
    "wat": 6233,
    "Ġgaze": 6932,
    "Ġsordid": 26424,
    "Ġanew": 11432,
    "hears": 12538,
    "Ġdiabol": 11455,
    "Ġabsurdities": 24879,
    "Ġtipped": 17730,
    "quar": 7616,
    "Ġrele": 2921,
    "covered": 11479,
    "Ġoptim": 781,
    "Ġlane": 5627,
    "Ġscru": 8192,
    "suffered": 24330,
    "ines": 669,
    "Ġvindication": 25365,
    "Ġdisappearing": 22537,
    "Ġindign": 6175,
    "Ġlizz": 21560,
    "Ġscor": 8191,
    "Ġreconciliation": 25293,
    "Ġdarkness": 4278,
    "Ġdismantled": 20219,
    "Ġcupboard": 16885,
    "Ġchis": 11754,
    "connect": 1291,
    "cat": 15327,
    "preserve": 25304,
    "inhabited": 13624,
    "hammer": 14491,
    "accomp": 10457,
    "pe": 1436,
    "assistance": 20374,
    "iate": 6506,
    "breat": 10081,
    "Ġacknowledge": 13406,
    "Ġcanal": 8182,
    "Ġsqualls": 17022,
    "Ġnailed": 10192,
    "Ġyoke": 18098,
    "Ġrisen": 9496,
    "Ġjest": 18399,
    "Ġsternly": 16717,
    "Ġnapkins": 25165,
    "Ġmy": 412,
    "prof": 7699,
    "Ġowest": 25094,
    "Ġawait": 17074,
    "Ġfamed": 16329,
    "Ġpulse": 13119,
    "Ġcubic": 20091,
    "Ġcapting": 23023,
    "Ġclifford": 22370,
    "Ġluckless": 16799,
    "shooting": 16967,
    "Ġguided": 10463,
    "Ġelias": 18643,
    "Ġsiamese": 20486,
    "Ġspecimen": 13028,
    "Ġlonely": 6823,
    "ations": 710,
    "Ġhooded": 12410,
    "Ġkindled": 19031,
    "resol": 17762,
    "join": 12118,
    "Ġbelonging": 8308,
    "ight": 403,
    "oused": 6558,
    "piled": 21017,
    "Ġquantity": 6948,
    "Ġswallows": 18885,
    "fabulous": 20477,
    "Ġaccumulated": 11935,
    "miles": 10714,
    "Ġcircular": 13115,
    "etch": 9207,
    "Ġfer": 5529,
    "Ġemploy": 3617,
    "retrospect": 23142,
    "rrh": 26145,
    "Ġlodger": 24096,
    "irty": 4050,
    "abode": 21795,
    "Ġstaves": 21745,
    "Ġconsistence": 23357,
    "useful": 16504,
    "Ġrecollected": 8311,
    "Ġantagonist": 26330,
    "Ġcandidate": 16700,
    "Ġpythag": 26450,
    "Ġpat": 1790,
    "bal": 2157,
    "Ġfift": 6383,
    "Ġfigures": 8633,
    "Ġlarger": 1403,
    "Ġindulged": 13421,
    "scor": 13025,
    "hastened": 16847,
    "astonishment": 10033,
    "Ġhercules": 14130,
    "whel": 7665,
    "Ġdirector": 18922,
    "Ġoverfitting": 1539,
    "Ġmighty": 4231,
    "Ġeluc": 16116,
    "Ġdiligence": 17115,
    "getic": 12971,
    "Ġengaged": 3432,
    "Ġreplenished": 13640,
    "osa": 22264,
    "atha": 6574,
    "Ġblue": 3458,
    "plish": 18201,
    "Ġsomebody": 7912,
    "flowing": 14564,
    "cim": 8723,
    "Ġimplies": 24874,
    ").": 1271,
    "approb": 11043,
    "ele": 9117,
    "Ġdancing": 5703,
    "Ġretains": 20033,
    "prince": 23817,
    "Ġa": 263,
    "rades": 8592,
    "Ġcitations": 25438,
    "Ġhollowly": 24526,
    "Ġaround": 3613,
    "Ġtransformers": 1124,
    "ech": 4393,
    "racting": 10358,
    "Ġpoisoned": 24887,
    "Ġwashing": 9708,
    "Ġundesired": 12783,
    "Ġvelvets": 25394,
    "venison": 22629,
    "Ġnorth": 4322,
    "Ġearl": 7676,
    "narwhale": 17321,
    "ov": 15403,
    "Ġsunday": 7270,
    "ellect": 7381,
    "Ġelevates": 24503,
    "Ġpiping": 23213,
    "Ġinjured": 9042,
    "Ġbumps": 21395,
    "Ġoptimize": 1611,
    "Ġfals": 15585,
    "project": 16427,
    "lers": 10109,
    "Ġsolicited": 20040,
    "Ġbalancing": 2434,
    "Ġwin": 9644,
    "Ġturkey": 19222,
    "Ġcrown": 5289,
    "Ġcolumn": 9331,
    "Ġunintermitted": 26221,
    "Ġden": 3111,
    "Ġinvariably": 8064,
    "lake": 13752,
    "Ġbreathless": 12174,
    "entreaties": 26187,
    "Ġjoin": 4855,
    "acked": 10975,
    "bag": 7542,
    "swing": 15432,
    "Ġtobacco": 8367,
    "Ġpressed": 6043,
    "Ġno": 509,
    "iamond": 14592,
    "eze": 20849,
    "ina": 21182,
    "Ġepsom": 19986,
    "chain": 18042,
    "Ġcre": 886,
    "Ġwages": 13857,
    "Ġchill": 11756,
    "angu": 567,
    "Ġmake": 1284,
    "ures": 837,
    "Ġunknown": 4456,
    "Ġdolphins": 20399,
    "Ġroy": 4230,
    "sheep": 23090,
    "Ġarrows": 18345,
    "Ġfang": 21406,
    "Ġprofessional": 7299,
    "Ġextort": 22753,
    "Ġprints": 16333,
    "Ġbolivia": 24668,
    "buckets": 26124,
    "Ġgiant": 13971,
    "captains": 12132,
    "Ġsmelt": 16069,
    "Ġundoing": 22037,
    "Ġdireful": 11019,
    "Ġcouns": 10523,
    "Ġsimilitude": 19212,
    "Ġ199": 3012,
    "Ġgull": 15674,
    "charge": 9451,
    "chapter": 1404,
    "Ġworkflow": 2401,
    "Ġrode": 16002,
    "inst": 4297,
    "supplementary": 20552,
    "Ġbambooz": 26120,
    "Ġcocoa": 25483,
    "Ġinsolence": 20256,
    "Ġprovocation": 24194,
    "oar": 12502,
    "ă": 196,
    "Ġsins": 13840,
    "Ġceremonious": 24838,
    "Ġconnecting": 18633,
    "Ġsensationalism": 26067,
    "gle": 20871,
    "robber": 21540,
    "Ġgaily": 16750,
    "Ġcondescending": 24869,
    "Ġbrew": 23345,
    "Ġhints": 8431,
    "arent": 4250,
    "Ġspouts": 7730,
    "Ġannoyance": 20664,
    "mitted": 5213,
    "crooked": 25747,
    "ego": 4036,
    "Ġengineering": 3029,
    "endous": 6850,
    "Ġexplored": 23521,
    "Ġhat": 2773,
    "labour": 23918,
    "Ġcav": 13883,
    "mort": 10712,
    "hurriedly": 25511,
    "Ġmethodology": 2668,
    "ableness": 8149,
    "Ġincline": 18572,
    "Ġjonas": 20611,
    "Ġhoping": 11105,
    "Ġuncontrollable": 25815,
    "Ġfinal": 5400,
    "Ġignited": 25072,
    "story": 9215,
    "aug": 1213,
    "Ġdoors": 6419,
    "rise": 6228,
    "Ġ34": 16679,
    "talking": 10010,
    "Ġstay": 3099,
    "ounix": 14166,
    "Ġprairie": 8716,
    "ighbour": 3391,
    "ubines": 22964,
    "Ġfunere": 22263,
    "sc": 1259,
    "Ġfifth": 11259,
    "Ġpouring": 12629,
    "Ġfee": 7199,
    "mission": 5971,
    "tahit": 17694,
    "Ġtailed": 21171,
    "landed": 18958,
    "Ġcler": 11776,
    "urned": 9309,
    "tranqu": 14709,
    "Ġexecut": 4248,
    "Ġaccompaniments": 24482,
    "amount": 10886,
    "Ġage": 3897,
    "Ġunche": 23431,
    "onings": 21255,
    "Ġinhuman": 13932,
    "ppings": 18179,
    "Ġnational": 13945,
    "erc": 5906,
    "Ġstrang": 4160,
    "shuff": 18492,
    "doubted": 17528,
    "infallibly": 26419,
    "esc": 618,
    "Ġbuildings": 24719,
    "Ġmoments": 4847,
    "Ġcongenial": 12415,
    "Ġfive": 2838,
    "Ġcared": 8787,
    "distinguish": 19575,
    "ĠĠĠĠĠĠĠĠĠĠĠĠĠĠĠĠĠ": 22954,
    "not": 907,
    "Ġfolds": 12211,
    "tried": 13797,
    "Ġperemptorily": 17370,
    "Ġcrockery": 24303,
    "Ġ177": 13416,
    "Ġprair": 7747,
    "regiment": 16452,
    "Ġoutsk": 15960,
    "ĺ": 251,
    "apart": 15965,
    "Ġcongeal": 25981,
    "bunger": 20405,
    "under": 3135,
    "Ġplaster": 16087,
    "emy": 14076,
    "Ġxviii": 23412,
    "bon": 13688,
    "Ġrud": 8480,
    "Ġfollows": 7673,
    "Ġunerringly": 18263,
    "ipped": 5790,
    "Ġhumped": 19772,
    "attention": 2111,
    "ascertaining": 26462,
    "arers": 12134,
    "Ġsighing": 18674,
    "Ġbennet": 1575,
    "whereby": 23420,
    "Ġthrees": 23402,
    "Ġfitly": 24002,
    "Ġlee": 4223,
    "suggested": 17302,
    "narrative": 17322,
    "Ġdimmed": 24270,
    "cad": 17507,
    "Ġilluminate": 17195,
    "Ġentreated": 9954,
    "Ġformless": 22830,
    "ene": 2170,
    "Ġmidway": 14606,
    "Ġblacks": 23389,
    "cater": 20818,
    "Ġwaterproof": 19090,
    "aution": 9390,
    "Ġ55": 24319,
    "Ĩ": 233,
    "Ġfeet": 2257,
    "Ġwool": 19436,
    "protected": 19923,
    "Ġequilib": 4135,
    "Ġdespite": 19356,
    "Ġentertaining": 16928,
    "Ġprynne": 25541,
    "Ġdiffident": 23785,
    "want": 8770,
    "Ġsideways": 6184,
    "Ġtubs": 11372,
    "uel": 6967,
    "dense": 18716,
    "Ġflint": 23012,
    "Ġrelapses": 26280,
    "Ġsatirical": 26281,
    "Ġlistener": 16477,
    "Ġrear": 6537,
    "spark": 18687,
    "Ġmethods": 3164,
    "Ġhemisphere": 26480,
    "Ġwashington": 17205,
    "horrors": 20544,
    "Ġevangelist": 20341,
    "Ġdisquis": 22531,
    "chosen": 21698,
    "gang": 17555,
    "clinging": 20824,
    "connected": 1308,
    "Ġwholly": 4450,
    "Ġstern": 4224,
    "Ġtesting": 23224,
    "oughed": 22079,
    "ears": 20847,
    "Ġhumiliation": 16202,
    "Ġdrank": 16538,
    "Ġtroub": 22352,
    "Ġmap": 2393,
    "Ġinsignificance": 20460,
    "Ġfilters": 3928,
    "Ġsnatches": 16547,
    "vent": 683,
    "Ġsatisfied": 4172,
    "Ġtottenham": 24144,
    "accessible": 13643,
    "guard": 12133,
    "Ġlunch": 13529,
    "philosop": 9570,
    "Ġ103": 24411,
    "travellers": 24339,
    "Ġinscriptions": 20012,
    "Ġarmies": 16494,
    "Ġremonstr": 16165,
    "Ġexcursion": 26591,
    "dire": 15339,
    "Ġsmoothed": 23661,
    "Ġarab": 7823,
    ".)": 6784,
    "answ": 15888,
    "âĢľâĢĶ": 10874,
    "sher": 5217,
    "Ġwriggling": 15261,
    "Ġvernal": 23891,
    "heartedness": 24825,
    "Ġtrousers": 12419,
    "Ġprivately": 19526,
    "Ġfluctuating": 24417,
    "Ġmeals": 12716,
    "Ġindel": 13009,
    "sufficiently": 14984,
    "satisfactory": 16895,
    "bel": 3836,
    "Ġserv": 3332,
    "Ġflexible": 23777,
    "veh": 12686,
    "G": 43,
    "au": 777,
    "Ġsenor": 20153,
    "Ġgl": 1256,
    "Ġhopeful": 19033,
    "kshire": 13749,
    "Ġkilburn": 18352,
    "pervised": 1547,
    "Ġploughed": 22608,
    "Ġupstairs": 5837,
    "Ġantique": 19554,
    "browed": 25895,
    "Ġcopied": 20011,
    "Ġpagans": 16924,
    "Ġjam": 10951,
    "desire": 14664,
    "Ġcran": 12005,
    "Ġprincely": 24151,
    "affold": 16565,
    "Ġclearer": 16315,
    "iage": 17575,
    "Ġbos": 4876,
    "Ġpopulous": 16828,
    "Ġindefinitely": 25222,
    "Ġvesuvius": 26503,
    "saf": 11527,
    "loving": 18541,
    "Ġscrut": 15956,
    "Ġneeds": 6607,
    "Ġodds": 13334,
    "Ġimpulsively": 24881,
    "Ġacquire": 2724,
    "Ġflaming": 8567,
    "Ġcow": 13879,
    "Ġseems": 2482,
    "Ġmysterious": 7527,
    "Ġol": 17816,
    "ivility": 12794,
    "Ġsincerely": 7963,
    "Ġknot": 7013,
    "Ġspeechless": 13358,
    "Ġmachinery": 20488,
    "Ġpaunch": 23753,
    "Ġsalary": 13298,
    "ppers": 7618,
    "Ġdau": 21428,
    "told": 7811,
    "python": 4693,
    "Ġbeaten": 10531,
    "Ġpallid": 12303,
    "ificent": 8184,
    "volutional": 1934,
    "iliary": 21730,
    "Ġascending": 14857,
    "Ġtowering": 16741,
    "older": 15760,
    "Ġcollectively": 19971,
    "laz": 15389,
    "ulatory": 15772,
    "however": 4376,
    "affording": 23779,
    "unch": 14061,
    "ce": 313,
    "mediate": 16516,
    "Ġsmile": 4272,
    "Ġtur": 2565,
    "Ġbumpkins": 25282,
    "Ġsecure": 4913,
    "Ġattract": 11838,
    "whaler": 20312,
    "ot": 346,
    "Ġbeaut": 2395,
    "bbed": 6911,
    "Ġloops": 8856,
    "younger": 11314,
    "Ġstaring": 8830,
    "Ġrambling": 18637,
    "Ġmaid": 5287,
    "hap": 17561,
    "Ġnegative": 1463,
    "Ġbour": 4877,
    "ductive": 23939,
    "Ġintense": 6159,
    "ulated": 6031,
    "Ġbats": 13903,
    "mouthed": 12404,
    "Ġc": 277,
    "Ġtransp": 4771,
    "Ġcul": 17824,
    "Ġrage": 5110,
    "Ġscene": 3102,
    "solute": 16600,
    "mouthful": 25209,
    "Ġoverladen": 22359,
    "Ġmont": 8562,
    "avery": 13687,
    "Ġdistinction": 8889,
    "Ġslice": 23161,
    "Ġembracing": 14983,
    "Ġshores": 8852,
    "gazing": 12476,
    "Ġthickets": 24026,
    "bots": 10085,
    "bent": 15315,
    "Ġcomplaints": 12269,
    "Ġhandled": 12942,
    "Ġumbrella": 15269,
    "Ġworshipped": 25692,
    "yards": 9626,
    "Ġrepugnance": 19088,
    "momentum": 4991,
    "Ġoutriders": 26545,
    "Ġflog": 23624,
    "Ġshowed": 4499,
    "Ġcolon": 18764,
    "Ġusing": 715,
    "Ġbuilded": 24718,
    "Ġillust": 8263,
    "Ġbuoyancy": 20045,
    "passenger": 24169,
    "Ġessex": 20130,
    "Ġinterpret": 5490,
    "Ġmannish": 26239,
    "upon": 2722,
    "Ġoppressive": 20458,
    "bowl": 14894,
    "Ġexecution": 6927,
    "Ġdisplay": 6429,
    "miniature": 16767,
    "Ġsymmetrical": 20370,
    "bowsprit": 16855,
    "Ġunfold": 8022,
    "Ġindifferent": 6176,
    "haz": 17566,
    "erns": 8782,
    "ores": 2417,
    "Ġnatural": 1112,
    "Ġinquirer": 24964,
    "Ġthews": 21280,
    "disgrace": 16460,
    "Ġital": 10868,
    "hatred": 24818,
    "Ġtombed": 25164,
    "Ġmalicious": 10560,
    "Ġbread": 5404,
    "Ġthereupon": 18435,
    "irm": 3112,
    "Ġhomely": 25220,
    "Ġhereditary": 10667,
    "Ġmurder": 4281,
    "Ġsimilarity": 3170,
    "Ġbran": 5252,
    "Ġvaliantly": 22794,
    "japan": 15378,
    "Ġmizen": 17261,
    "Ġpolicy": 10459,
    "Ġunconcern": 14119,
    "Ġfiendish": 13332,
    "Ġbloodshot": 23801,
    "Ġmostly": 7664,
    "Ġstamped": 13530,
    "«": 109,
    "fatigue": 20660,
    "Ġplanned": 14755,
    "Ġhinting": 19652,
    "mark": 5282,
    "Ġconflag": 20338,
    "jeroboam": 25620,
    "Ġpresented": 5183,
    "sm": 3439,
    "Ġparadise": 11197,
    "Ġluc": 3313,
    "false": 15358,
    "rief": 6204,
    "Ġjewels": 12373,
    "Ġdeduced": 12212,
    "estic": 4956,
    "Ġtrem": 6662,
    "Ġdat": 497,
    "iteous": 14265,
    "Ġwet": 6519,
    "!_âĢĿ": 11378,
    "Ġpreparation": 13532,
    "attending": 18918,
    "Ġtower": 8319,
    "Ġglobular": 19011,
    "Ġilliter": 23472,
    "Ġreve": 2936,
    "Ġ29": 23732,
    "Ġostens": 25276,
    "Ġmuskets": 17057,
    "z": 94,
    "straw": 24099,
    "Ġconsecrated": 26490,
    "Ġstability": 1364,
    "Ġgreedily": 18966,
    "proachable": 23399,
    "Ġconsidered": 4613,
    "Ġshaggy": 13574,
    "dled": 9114,
    "Ġsinister": 8572,
    "Ġwarbling": 26169,
    "taught": 17686,
    "inaw": 21186,
    "ners": 3271,
    "rice": 13780,
    "Ġentrances": 25836,
    "ĠĠĠĠĠĠĠĠĠĠĠĠĠĠĠĠĠĠĠĠĠĠĠĠĠĠĠĠĠĠĠĠĠ": 12047,
    "oon": 6366,
    "Ġcommis": 22674,
    "itations": 17819,
    "lleg": 20953,
    ":--âĢľ": 24550,
    "bing": 7792,
    "Ġcontortions": 18476,
    "stern": 8446,
    "crazy": 24692,
    "Ġvoice": 2191,
    "Ġhelping": 3267,
    "Ġdeftly": 26495,
    "streamed": 25967,
    "Ġbegging": 11081,
    "resc": 21241,
    "iply": 22348,
    "wonders": 17146,
    "Ġbehooves": 20735,
    "Ġpaws": 13924,
    "confid": 14870,
    "Ġproceeded": 5336,
    "Ġassembly": 10645,
    "horner": 23616,
    "Ġrecovery": 11443,
    "Ġcashier": 20201,
    "Ġdevice": 1927,
    "thomas": 18220,
    "Ġcal": 1326,
    "Ġjet": 5309,
    "Ġintru": 15831,
    "Ġjudges": 14687,
    "Ġdoubt": 2223,
    "greater": 13256,
    "Ġbuilt": 8301,
    "Ġsunset": 8965,
    "Ġplaid": 22603,
    "istan": 22112,
    "studied": 17152,
    "ument": 5240,
    "Ġlvi": 21556,
    "Ġspecialized": 3921,
    "Ġmasters": 11578,
    "Ġbehavioral": 11398,
    "Ġpreluding": 18369,
    "thirds": 25049,
    "Ġalike": 8147,
    "Ġsymmet": 11751,
    "Ġmatrices": 4969,
    "spiracle": 22735,
    "Ġexclam": 6759,
    "Ġostlers": 25277,
    "Ġjupiter": 17459,
    "jumped": 20249,
    "ria": 15801,
    "Ġhospitality": 13516,
    "Ġfancies": 10426,
    "Ġundecided": 22050,
    "Ġhumming": 12991,
    "game": 11493,
    "Ġunabated": 15856,
    "Ġsain": 17752,
    "weekly": 25685,
    "darted": 20834,
    "rowed": 22866,
    "Ġhappy": 2467,
    "words": 7983,
    "Ġheadlands": 22902,
    "Ġscr": 11770,
    "Ġwherever": 8526,
    "arman": 11598,
    "Ġsmart": 11819,
    "embers": 21931,
    "impregn": 21717,
    "·": 120,
    "urday": 13997,
    "Ġhus": 3097,
    "Ġunbelief": 22051,
    "charles": 14702,
    "Ġperplexity": 2755,
    "Ġsteps": 2867,
    "Ġenvelope": 7319,
    "yset": 21148,
    "foreign": 18544,
    "spades": 14333,
    "Ġfor": 340,
    "gd": 3128,
    "Ġjokes": 18404,
    "Ġenvironmental": 24062,
    "Ġglobules": 26590,
    "specimen": 26607,
    "ows": 1917,
    "Ġheaven": 3368,
    "Ġescape": 2649,
    "Ġcapital": 7980,
    "Ġmediocrity": 26610,
    "je": 11498,
    "Ġschool": 5512,
    "Ġunrest": 11718,
    "Ġnewton": 3536,
    "uttermost": 24943,
    "grand": 7970,
    "Ġunsophisticated": 25993,
    "aset": 10834,
    "dick": 11481,
    "ying": 1368,
    "Ġincensed": 18574,
    "ampling": 12731,
    "listen": 13517,
    "Ġblended": 16222,
    "H": 44,
    "Ġceti": 24772,
    "Ġwow": 15532,
    "Ġungracious": 18256,
    "Ġfaces": 6010,
    "Ġintelligent": 1392,
    "Ġtechnically": 12370,
    "Ġnantucketer": 6914,
    "Ġdeterm": 1269,
    "Ġnoses": 18373,
    "Ġlicensing": 20096,
    "Ġwear": 6032,
    "surround": 16760,
    "https": 11687,
    "vy": 21110,
    "Ġimproves": 22761,
    "Ġrelinqu": 12988,
    "Ġadjusts": 8983,
    "Ġannum": 24206,
    "susp": 10599,
    "Ġcross": 1373,
    "Ġtweezers": 26558,
    "smiles": 14695,
    "Ġstately": 9837,
    "Ġheal": 21684,
    "dil": 11480,
    "directly": 13712,
    "Ġovercame": 9746,
    "S": 55,
    "mped": 16650,
    "Ġinto": 647,
    "expanded": 23667,
    "Ġmasterless": 23998,
    "and": 372,
    "Ġcompensated": 17404,
    "Ġdiscount": 22783,
    "Ġamerican": 5061,
    "ropol": 10954,
    "letter": 6203,
    "urn": 776,
    "stalk": 21653,
    "tin": 6118,
    "Ġwhirled": 14963,
    "Ġrock": 5311,
    "Ġhindoo": 17178,
    "Ġparliament": 18303,
    "Ġhelen": 16658,
    "Ġdeduction": 14904,
    "brew": 11475,
    "fanc": 20866,
    "Ġmiracle": 15097,
    "enc": 7574,
    "window": 7743,
    "milk": 20480,
    "Ġreserves": 19673,
    "Ġjoes": 19233,
    "Ġcalmness": 12098,
    "Ġwalrus": 14976,
    "Ġwhine": 21718,
    "Ġbacks": 8531,
    "Ġour": 1007,
    "Ġfacil": 16964,
    "Ġmutual": 8297,
    "gaze": 17559,
    "Ġskeleton": 5514,
    "content": 11200,
    "ä": 165,
    "oted": 4599,
    "Ġessence": 13409,
    "Ġdepicted": 14287,
    "uneven": 23687,
    "Ġreposing": 23362,
    "Ġsamuel": 10036,
    "aloons": 20014,
    "Ġmuchness": 18711,
    "ationally": 15709,
    "Ġdistressed": 8517,
    "Ġremote": 8923,
    "Ġverge": 23890,
    "Ġintens": 7004,
    "lur": 13750,
    "Ġmisunderstand": 18707,
    "Ġinsensible": 12329,
    "sory": 17661,
    "Ġrefreshed": 15294,
    "Ġknave": 11274,
    "ixed": 4853,
    "Ġjoyous": 14666,
    "Ġfarewell": 9523,
    "softened": 20413,
    "Ġhey": 11644,
    "iantly": 13742,
    "Ġsubord": 22789,
    "Ġenderby": 13655,
    "Ġhumans": 8933,
    "hauled": 20671,
    "msgate": 18413,
    "Ġtobacc": 7853,
    "lab": 3460,
    "church": 8140,
    "Ġlawyers": 25249,
    "sequently": 14585,
    "Ġsinful": 18951,
    "Ġbeech": 18085,
    "Ġsnows": 14729,
    "Ġcolle": 8926,
    "ables": 7890,
    "Ġsnatch": 14641,
    "Ġlarge": 1064,
    "Ġsee": 804,
    "Ġfed": 5530,
    "Ġchief": 3384,
    "Ġfixing": 13160,
    "Ġgeneralization": 984,
    "ermaid": 14299,
    "Ġhistor": 3393,
    "haven": 20914,
    "particip": 23618,
    "Ġstone": 4647,
    "till": 6966,
    "Ġsombre": 18861,
    "Ġplanks": 5563,
    "Ġfollowing": 4063,
    "Ġrascal": 11705,
    "brandy": 19203,
    "Ġheaps": 11645,
    "Ġprejudice": 9078,
    "Ġamaze": 22483,
    "immed": 9220,
    "Ġrescales": 5068,
    "dramatic": 19388,
    "behind": 6780,
    "Ġbasin": 19850,
    "Ġwaterward": 23368,
    "Ġsearched": 15823,
    "devils": 20036,
    "noise": 14336,
    "Ġcou": 5288,
    "Ġbonds": 17871,
    "Ġsplashed": 23750,
    "anced": 1311,
    "Ġchas": 18380,
    "interests": 19711,
    "Ġrefer": 18698,
    "Ġmotives": 7486,
    "shortly": 12263,
    "Ġhelm": 5276,
    "pagans": 25526,
    "don": 3547,
    "Ġmorris": 18852,
    "Ġfattened": 25950,
    "Ġhum": 1094,
    "Ġsepul": 14093,
    "Ġshillings": 15839,
    "gings": 7549,
    "Ğ": 223,
    "cheerful": 13579,
    "warmly": 25029,
    "Ġeverybody": 4513,
    "Ġunsupp": 22023,
    "Ġworked": 6585,
    "Ġcalendar": 18878,
    "apple": 22845,
    "Ġheartily": 6890,
    "Ġjac": 1899,
    "papers": 12506,
    "hospit": 25904,
    "Ġbegat": 18865,
    "Ġjoist": 19234,
    "mont": 19171,
    "Ġremained": 3145,
    "phantoms": 24680,
    "Ġanticipation": 17058,
    "Ġdied": 4110,
    "eastward": 15133,
    "patter": 4142,
    "sford": 5999,
    "Ġclosing": 11778,
    "Ġshoulder": 5849,
    "instances": 13324,
    "Ġphase": 14473,
    "Ġallusion": 7626,
    "comrade": 18739,
    "Ġahoy": 12189,
    "Ġswam": 6449,
    "considerably": 13449,
    "ropy": 1097,
    "quietude": 24656,
    "thoughtfully": 24048,
    "Ġpositions": 2057,
    "ink": 755,
    "Ġgazes": 24098,
    "Ġobserve": 4672,
    "Ġvibrating": 13541,
    "Ġroaring": 10970,
    "Ġbethink": 12383,
    "hurried": 11355,
    "Ġoaken": 13868,
    "Ġwarmly": 8990,
    "Ġabusing": 18394,
    "Ġhistorically": 19381,
    "seemingly": 25363,
    "uncommonly": 25550,
    "Ġgleamed": 17078,
    "bo": 1690,
    "ancy": 4397,
    "oboam": 9361,
    "nerable": 16280,
    "Ġjon": 15947,
    "âĢĶâĢĺ": 7015,
    "Ġcongregation": 12333,
    ".": 18,
    "Ġacc": 574,
    "hogs": 20085,
    "ader": 14015,
    "Ġcombine": 4419,
    "heav": 5694,
    "Ġyork": 11668,
    "Ġapprove": 12878,
    "Ġoccupies": 24011,
    "then": 2053,
    "sixty": 24853,
    "Ġebb": 21625,
    "Ġlavater": 20498,
    "Ġinvestigation": 9045,
    "uth": 3021,
    "Ġintrodu": 1924,
    "Ġkidnapping": 26358,
    "Ġpunctures": 25136,
    "Ġtow": 4399,
    "Ġrightly": 13070,
    "bble": 17487,
    "Ġshipping": 14107,
    "Ġderbyshire": 6588,
    "Ġoutbreak": 22321,
    "load": 12886,
    "igating": 21702,
    "headers": 23112,
    "Ġminimizing": 3468,
    "Ġcrooked": 11283,
    "Ġmess": 7831,
    "Ġhumour": 7932,
    "Ġreiter": 21669,
    "Ġsuppressed": 11915,
    "Ġauthorities": 11266,
    "Ġcommodores": 25375,
    "Ġneutral": 12749,
    "Ġrecom": 4557,
    "Ç": 136,
    "Ġcontented": 9759,
    "ubl": 3597,
    "Ġonce": 1488,
    "Ġgovernor": 16492,
    "Ġoutlast": 22317,
    "Ġawoke": 7286,
    "Ġworth": 4420,
    "Ġign": 8295,
    "Ġdaily": 5988,
    "Ġpyramids": 15118,
    "amongst": 24673,
    "Ġren": 3846,
    "Ġsta": 18068,
    "Ġcaptivating": 26050,
    "sample": 12511,
    "Ġforbidden": 17079,
    "Ġpivot": 13926,
    "avenue": 25059,
    "Ġbrighter": 16191,
    "Ġmate": 3708,
    "Ġdexterous": 15152,
    "Ġcetus": 19887,
    "adoes": 11663,
    "Ġrevive": 13483,
    "season": 14037,
    "Ġanswering": 7477,
    "Ġpeev": 22696,
    "Ġpreposterous": 13673,
    "Ġhunt": 6185,
    "Ġcorners": 18876,
    "Ġblu": 2688,
    "_;": 6643,
    "Ġwoodcock": 19165,
    "Ġbusiness": 2232,
    "collins": 6916,
    "isition": 11589,
    "limp": 20954,
    "Ġfossils": 20225,
    "Ġempire": 11147,
    "_": 67,
    "Ġdoom": 6418,
    "hies": 17562,
    "Ġpatchwork": 24143,
    "rods": 21541,
    "Ġstochastic": 3266,
    "Ġfearful": 6199,
    "Ġtok": 1245,
    "Ġtrust": 4079,
    "Ġimportant": 1061,
    "Ġrole": 16001,
    "salesman": 20674,
    "Ġemptied": 24347,
    "upper": 11541,
    "Ġpap": 8802,
    "Ġhun": 1492,
    "Ġextant": 18696,
    "got": 6955,
    "Ġlapse": 17123,
    "Ġcountries": 13101,
    "anything": 5518,
    "something": 4286,
    "Ġunrestingly": 20364,
    "Ġamply": 22482,
    "adventurous": 25362,
    "Ġdagger": 21440,
    "Ġhoe": 23352,
    "rocious": 21542,
    "Ġisinglass": 21806,
    "Ġperfect": 2557,
    "Ġ101": 24409,
    "scattered": 22998,
    "Ġclosely": 6489,
    "sharp": 10309,
    "medi": 2630,
    "Ġarg": 4767,
    "attentions": 13578,
    "abashed": 21796,
    "Ġunite": 9257,
    "Ġtides": 13824,
    "retrie": 18926,
    "irably": 13300,
    "Ġdissipate": 13637,
    "Ġassertions": 19950,
    "ris": 9140,
    "Ġspeculations": 23001,
    "Ġresemblance": 7971,
    "da": 17516,
    "Ġphrenolog": 12338,
    "Ġspoon": 22138,
    "yonder": 21147,
    "slave": 16897,
    "Ġshipped": 9718,
    "Ġepidemic": 20698,
    "gracechurch": 24582,
    "Ġadds": 1805,
    "undertaking": 23789,
    "Ġbranded": 14382,
    "Ġcasual": 11411,
    "Ġwip": 13856,
    "asingly": 17963,
    "Ġpupils": 20424,
    "Ġfixed": 2687,
    "Ġmeridians": 17358,
    "Ġfrayed": 23292,
    "Ġeffusions": 18521,
    "Ġnotions": 14102,
    "Ġshuddering": 9054,
    "vate": 21112,
    "Ġbrit": 6291,
    "Ġcontracting": 16014,
    "Ġbarricade": 14662,
    "Ġproc": 5545,
    "Ġengraving": 17081,
    "Ġofficious": 19351,
    "willing": 6594,
    "Ġbeggar": 9352,
    "Ġopp": 2698,
    "Ġtracing": 18891,
    "wl": 17704,
    "mble": 1408,
    "Ġgoodly": 22825,
    "Ġdines": 21426,
    "grat": 5052,
    "wise": 2576,
    "Ġwidth": 16774,
    "Ġprofessions": 11233,
    "Ġbumping": 25281,
    "Ġwarnings": 16883,
    "conspicuous": 26249,
    "wrinkles": 16558,
    "wing": 2518,
    "Ġhither": 4760,
    "damn": 20027,
    "Ġstake": 14007,
    "Ġdivert": 23595,
    "Ġmountains": 4430,
    "eches": 8078,
    "etical": 13961,
    "ost": 5361,
    "shud": 18491,
    "Ġsubsequently": 16164,
    "Ġw": 272,
    "somehow": 12016,
    "enter": 7858,
    "itioned": 22473,
    "Ġpenetrate": 12274,
    "stains": 11640,
    "Ġunforeseen": 22055,
    "Ġafrica": 12349,
    "Ġvisits": 8223,
    "Ġpossesses": 19355,
    "irst": 879,
    "waters": 11335,
    "propriety": 14370,
    "Ġfads": 21419,
    "icacy": 15662,
    "Ġghostly": 24651,
    "Ġspecies": 5112,
    "Ġyankees": 26203,
    "Ġmabel": 17327,
    "Ġbingleys": 18996,
    "onian": 17769,
    "urean": 18125,
    "transom": 19738,
    "Ġsustenance": 19937,
    "ort": 522,
    "tales": 17688,
    "dried": 20829,
    "Ġwapping": 21297,
    "Ġpenny": 16316,
    "gover": 10704,
    "society": 9975,
    "united": 14063,
    "Ġapartments": 19617,
    "Ġanne": 1526,
    "enary": 12556,
    "alley": 23025,
    "es": 289,
    "wond": 8772,
    "Ġphrensy": 25127,
    "Ġasiatic": 20433,
    "Ġrev": 6989,
    "ides": 2162,
    "utter": 7594,
    "athans": 7433,
    "agery": 21911,
    "Ġundergo": 23238,
    "Ġalleys": 25979,
    "Ġinfall": 7960,
    "Ġspikes": 22140,
    "flakes": 23971,
    "Ġbarbed": 14838,
    "Ġbed": 2152,
    "Ġgarb": 21606,
    "Ġeldest": 6573,
    "Ġupbraiding": 26228,
    "aphs": 22340,
    "stump": 21656,
    "idirection": 2415,
    "Ġobstin": 14956,
    "Ġperils": 6275,
    "a": 69,
    "Ġutterance": 14766,
    "worthy": 7733,
    "ishing": 1145,
    "Ġornam": 15868,
    "Ġwooden": 4731,
    "Ġsponge": 26004,
    "Ġstudious": 23245,
    "del": 4076,
    "Ġdynam": 3288,
    "Ġbrix": 12588,
    "reckoning": 25271,
    "conviction": 19968,
    "Ġexertions": 13414,
    "Ġtempor": 2369,
    "Ġpropriet": 9553,
    "Ġsymbolize": 24963,
    "Ġcitadel": 25439,
    "loom": 18539,
    "Ġsomnam": 23008,
    "Ġaccusation": 22385,
    "ru": 481,
    "ias": 6364,
    "Ġimagination": 5759,
    "Ġforfeit": 21779,
    "Ġanomalously": 25639,
    "Ġswash": 23058,
    "Ġz": 996,
    "Ġcit": 10785,
    "gloom": 17142,
    "enthusiastic": 20695,
    "Ġdeterminate": 23007,
    "sadly": 25527,
    "Ġexacted": 23605,
    "growing": 13736,
    "abated": 14023,
    "Ġprodig": 6029,
    "Ġske": 4816,
    "evidently": 20348,
    "Ġfever": 6560,
    "ined": 1260,
    "Ġemper": 9864,
    "Ġattached": 5392,
    "Ġbenjam": 22893,
    "sartain": 25623,
    "Ġpal": 4042,
    "Ġcontracted": 12865,
    "Ġbeams": 14633,
    "buffalo": 20566,
    "Ġdrinking": 12173,
    "Ġappropri": 2227,
    "Ġabatement": 22280,
    "Ġdrought": 19280,
    "earliest": 20123,
    "Ġshaft": 18230,
    "Ġhelmeted": 19691,
    "Ġlining": 13954,
    "Ġpoem": 22593,
    "Ġbarriers": 23796,
    "Ġbison": 21391,
    "Ġrealising": 18983,
    "Ġpassing": 4317,
    "Ġmccauley": 26429,
    "Ġlif": 10198,
    "bation": 9106,
    "prodig": 16429,
    "Ġsnap": 11203,
    "Ġsor": 4145,
    "abby": 14024,
    "Ġrumors": 11323,
    "Ġtooth": 9195,
    "etah": 12666,
    "Ġratt": 7881,
    "Ġtra": 1385,
    "Ġinspire": 12000,
    "athom": 12944,
    "dipped": 20839,
    "ositions": 10286,
    "Ġsleeps": 10448,
    "hours": 9127,
    "Ġporus": 24398,
    "Ġblotting": 25314,
    "Ġbitten": 21393,
    "fedallah": 25523,
    "Ġwhaling": 2783,
    "Ġfragment": 14504,
    "§": 105,
    "Ġbennett": 16326,
    "iousness": 4900,
    "berg": 11868,
    "Ġsends": 14792,
    "Ġwarped": 25038,
    "Ġincorporate": 20457,
    "ctor": 13963,
    "gradu": 18617,
    "itories": 15553,
    "Ġwandered": 6930,
    "Ġheidelburgh": 11646,
    "Ġnations": 8814,
    "Ġveter": 15815,
    "upp": 10133,
    "entric": 11622,
    "Ġlounged": 19957,
    "Ġyou": 366,
    "departure": 15238,
    "announced": 19762,
    "Ġsinging": 7724,
    "tu": 12516,
    "Ġassociates": 24711,
    "Ġanalytical": 22914,
    "Ġway": 1084,
    "Ġhath": 12633,
    "ood": 962,
    "Ġanybody": 5314,
    "Ġpowder": 11277,
    "gences": 20879,
    "Ġrepaid": 19084,
    "Ġnick": 21526,
    "count": 4214,
    "Ġevid": 3504,
    "none": 6962,
    "gre": 5788,
    "elves": 2159,
    "Ġmum": 13861,
    "poss": 4779,
    "worth": 8630,
    "Ġspeckled": 14312,
    "Ġseaward": 22950,
    "Ġspoiled": 11365,
    "Ġhierarchical": 1926,
    "Ġdistricts": 20266,
    "protection": 19922,
    "miseries": 16759,
    "parts": 14603,
    "une": 2786,
    "pract": 10122,
    "Ġcaus": 1726,
    "Ġswamp": 14439,
    "Ġmutters": 23959,
    "Ġinstructions": 11198,
    "occasion": 7754,
    "Ġgramm": 8171,
    "skull": 24488,
    "Ġtener": 21166,
    "Ġfasc": 12603,
    "mun": 20964,
    "stumps": 21662,
    "Ġweak": 5098,
    "travel": 24337,
    "Ġcraw": 7282,
    "Ġguar": 23049,
    "cely": 3577,
    "Ġvib": 8165,
    "Ġkeys": 12001,
    "Ġfre": 1571,
    "welt": 12525,
    "Ġape": 21199,
    "marrying": 19550,
    "play": 5099,
    "Ġmanaged": 7906,
    "unting": 21878,
    "Ġdefines": 1743,
    "Ġdislike": 6049,
    "Ġalms": 21784,
    "thesize": 24907,
    "Ġtist": 21165,
    "Ġdepresses": 25798,
    "Ġcrawford": 24894,
    "presumption": 20445,
    "Ġthinking": 4031,
    "Ġbohemia": 10652,
    "Ġmonth": 2852,
    "Ġdeemed": 7615,
    "Ġproof": 6155,
    "Ġunprincipled": 20710,
    "Ġdod": 6675,
    "?_âĢĿ": 12320,
    "deemed": 18317,
    "enger": 10775,
    "wow": 21124,
    "Ġfetched": 24568,
    "Ġsuburban": 17349,
    "Ġdefiance": 11070,
    "imes": 1301,
    "tstone": 21087,
    "Ġcurses": 13018,
    "Ġdesiring": 14418,
    "Ġinsignificant": 20459,
    "otograph": 5827,
    "ideas": 18584,
    "dripping": 16907,
    "Ġenigmatical": 20600,
    "prejudice": 25572,
    "Ġcoffee": 6761,
    "Ġpictures": 5503,
    "Ġchoking": 15938,
    "thought": 3849,
    "Ġsuffoc": 18872,
    "Ġbeget": 9228,
    "Ġgirdle": 19160,
    "ication": 981,
    "bow": 5424,
    "Ġunassuming": 20512,
    "apprehension": 26115,
    "ď": 208,
    "pulous": 15419,
    "ribbed": 16415,
    "_,": 2799,
    "tube": 20414,
    "Ġalways": 1696,
    "Ġglobu": 23274,
    "hunters": 16835,
    "Ġrang": 9248,
    "vac": 15453,
    "bench": 16805,
    "Ġundertaking": 8577,
    "Ġsunrise": 9376,
    "Ġprocessing": 878,
    "ivation": 3114,
    "Ġstudy": 1840,
    "Ġarisen": 11747,
    "pets": 17638,
    "Ġdefinite": 11071,
    "Ġcasts": 19429,
    "paid": 15417,
    "Ġprejudiced": 24806,
    "Ġforwards": 12708,
    "Ġinitial": 822,
    "Ġindu": 5295,
    "since": 5896,
    "singular": 12193,
    "Ġcreations": 18681,
    "Ġapproximation": 2342,
    "Ġeliminating": 20623,
    "Ġinputs": 842,
    "Ġopposition": 16523,
    "Ġapril": 13666,
    "Ġstrikes": 13185,
    "Ġ20": 8617,
    "ishmael": 18421,
    "uteronomy": 15668,
    "Ġamusements": 16915,
    "lung": 17593,
    "Ġfrequ": 3331,
    "Ġimpregn": 26023,
    "Ġlean": 7603,
    "Ġsample": 3181,
    "q": 85,
    "Ġfestoon": 20297,
    "circled": 24190,
    "gold": 9123,
    "ermost": 7430,
    "Ġuneasy": 8665,
    "me": 871,
    "Ġdecanter": 22448,
    "Ġsynthe": 26008,
    "Ġcirculation": 16419,
    "pennies": 26287,
    "Ġbefallen": 12347,
    "Ġneedn": 19231,
    "Ġpapered": 20134,
    "Ġrecept": 1521,
    "Ġgeorge": 3749,
    "Ġpermanent": 13635,
    "Ġcrest": 12946,
    "Ġfrankly": 16747,
    "Ġinspecting": 24614,
    "tackle": 17324,
    "Ġshipwrecked": 25688,
    "Ġreal": 1632,
    "tashtego": 9625,
    "independ": 15986,
    "occurred": 13342,
    "Ġodd": 6627,
    "Ġsubstance": 5510,
    "Ġstreatham": 17452,
    "Ġinspiring": 19114,
    "Ġrepugn": 23364,
    "Ġpatter": 831,
    "Ġdomineer": 23645,
    "oried": 10804,
    "Ġalthough": 4150,
    "lemency": 21377,
    "Ġsupp": 1264,
    "pip": 6657,
    "Ġpalpit": 16692,
    "Ġballs": 9018,
    "draw": 23903,
    "Ġcorresponds": 19824,
    "fairly": 17222,
    "Ġthirds": 16710,
    "Ġuniversity": 13127,
    "nose": 17613,
    "infl": 15490,
    "Ġintricate": 15141,
    "dict": 15341,
    "umbered": 22121,
    "pips": 21022,
    "guarded": 13299,
    "Ġcoefficient": 2888,
    "Ġcounties": 23304,
    "across": 10327,
    "Ġpredomin": 16039,
    "Ġnocturnal": 20717,
    "Ġtechn": 9369,
    "Ġclings": 15976,
    "Ġcin": 13878,
    "erie": 21274,
    "Ġconducted": 10505,
    "heartily": 24218,
    "/`": 12433,
    "Ġsharper": 17182,
    "lad": 5993,
    "Ġkitty": 3911,
    "Ġano": 11599,
    "bottom": 11428,
    "Ġtroublesome": 24005,
    "Ġtheology": 21279,
    "ool": 17620,
    "quit": 15766,
    "cool": 19190,
    "Ġferule": 24499,
    "Ġgesture": 11401,
    "knowledge": 7478,
    "nal": 1903,
    "Ġmounts": 17808,
    "Ð": 145,
    "displeasure": 23499,
    "Ġreturn": 1710,
    "Ġrazors": 22651,
    "Ġla": 5914,
    "Ġlatter": 3989,
    "Ġrugged": 18720,
    "Ġ43": 14772,
    "Ġgiants": 25961,
    "Ġupright": 8496,
    "Ġdescended": 7428,
    "embraced": 25805,
    "avish": 22549,
    "Ġintimacy": 8704,
    "Ġsap": 18324,
    "india": 22375,
    "pleasing": 14745,
    "Ġconsummate": 25311,
    "Ġsoil": 9258,
    "adding": 21765,
    "Ġsundry": 20077,
    "Ġpays": 13301,
    "Ġprivate": 5346,
    "âĢĶâĢĻ": 8188,
    "Ġvineyard": 12334,
    "Ġstriding": 16096,
    "Ġdecently": 22446,
    "Ġqualities": 7533,
    "Ġexerc": 6833,
    "ni": 1608,
    "Ġquest": 2000,
    "sombre": 23857,
    "tastes": 21099,
    "impression": 15715,
    "voice": 7816,
    "Ġburtons": 19255,
    "Ġinf": 1755,
    "Ġstaggered": 9542,
    "Ġsou": 1887,
    "cess": 536,
    "consc": 4842,
    "Ġdemoniac": 15068,
    "Ġtenth": 13829,
    "Ġshadows": 8013,
    "Ġpledge": 11603,
    "Ġseparation": 11249,
    "Ġaccumulates": 2894,
    "Ġmining": 22832,
    "legra": 10791,
    "unfortunate": 15781,
    "Ġdiminished": 16668,
    "Ġcommunication": 1870,
    "Ġnorm": 761,
    "Ġtry": 3138,
    "Ġadventure": 5982,
    "Ġsickly": 16776,
    "Ġvengeance": 5886,
    "Ġblindly": 12114,
    "Ġrib": 4936,
    "Ġdeceived": 6546,
    "assemblies": 25957,
    "Ġopulent": 23630,
    "ambition": 13415,
    "umber": 5241,
    "responsible": 25764,
    "unfearing": 21896,
    "urg": 8142,
    "done": 6501,
    "tling": 9145,
    "inde": 17733,
    "Ġtelegraph": 25584,
    "Ġscreen": 17208,
    "irra": 15789,
    "Ġresembled": 18036,
    "vative": 1638,
    "zes": 11551,
    "Ġsitting": 3607,
    "Ġweighing": 20019,
    "Ġceased": 6469,
    "Ġforgery": 25978,
    "yingly": 23063,
    "Ġproportionably": 19974,
    "Ġflames": 7940,
    "Ġunseen": 3527,
    "spade": 10341,
    "Ġdetected": 18850,
    "value": 18805,
    "Ġphrenologically": 20397,
    "best": 6113,
    "Ġshortened": 23486,
    "Ġnarrative": 6217,
    "Ġterrible": 5328,
    "Ġchronicler": 20232,
    "consid": 4925,
    "nder": 20989,
    "Ġtil": 12529,
    "destined": 24116,
    "apparatus": 26565,
    "rage": 10845,
    "Ġporch": 19683,
    "Ġkilling": 13337,
    "aired": 8369,
    "relation": 19450,
    "Ġself": 1777,
    "Ġdetestation": 17130,
    "departed": 24793,
    "Ġcove": 22586,
    "ginger": 13167,
    "Ġgripping": 26188,
    "resistible": 10646,
    "lead": 10168,
    "Ġspark": 6691,
    "Ġpartners": 11857,
    "Ġdiana": 21439,
    "Ġchivalrous": 20518,
    "magistrate": 19865,
    "Ġheroes": 10579,
    "mushroom": 26397,
    "Ġalle": 11669,
    "Ġresiding": 16065,
    "igh": 2029,
    "consist": 14819,
    "Ġtop": 2472,
    "itives": 17821,
    "Ġmanhat": 22331,
    "Ġwarehouse": 20420,
    "brink": 23578,
    "glorious": 19370,
    "definition": 23121,
    "grampus": 18618,
    "Ġcontrolled": 23251,
    "wreck": 21139,
    "Ġrefrain": 12952,
    "renew": 24450,
    "Ġconsecutive": 20705,
    "Ġturning": 3330,
    "Ġbaker": 4697,
    "employ": 10897,
    "Ġblanc": 11067,
    "Ġge": 1978,
    "staring": 18023,
    "wandered": 20288,
    "Ġchildhood": 13142,
    "Ġbelongs": 8015,
    "Ġbewil": 11660,
    "Ġlip": 6534,
    "ckets": 6843,
    "Ġstirred": 12222,
    "âĢľ": 344,
    "Ġeu": 6391,
    "inspect": 11561,
    "Ġconcentric": 20078,
    "Ġlighten": 23260,
    "Ġappeal": 16317,
    "Ġfrozen": 9016,
    "rep": 5525,
    "ize": 772,
    "Ġcoquet": 22588,
    "cru": 7128,
    "laid": 10112,
    "Ġgeological": 14534,
    "tit": 11530,
    "proof": 16426,
    "Ġfaltering": 17886,
    "guilty": 19486,
    "Ġcharted": 22254,
    "Ġleague": 6540,
    "Ġdownward": 10334,
    "spoke": 11025,
    "acquired": 24298,
    "Ġsaddest": 16665,
    "Ġunreliable": 3929,
    "Ġmim": 3110,
    "Ġpestilent": 25778,
    "viating": 14581,
    "Ġresting": 7962,
    "overlooked": 23326,
    "Ġmonomaniac": 9571,
    "Ġwalled": 15538,
    "Ġprofessors": 14728,
    "Ġappellation": 22226,
    "Ġglimpses": 13436,
    "egypt": 15353,
    "Ġwillingness": 24911,
    "Ġwallowing": 24047,
    "itarian": 21340,
    "signed": 21064,
    "deav": 2676,
    "Ġtells": 9364,
    "Ġmusty": 22683,
    "Ġloadstone": 25817,
    "investigations": 25534,
    "variance": 2657,
    "anations": 12581,
    "Ġcream": 22719,
    "Ġswift": 3670,
    "rolled": 9062,
    "Ġquality": 3531,
    "Ġstag": 6150,
    "Ġfobbing": 26443,
    "reast": 17760,
    "Ġcovers": 18597,
    "Ġheavenly": 12089,
    "Ġsmote": 18577,
    "Ġsteer": 10389,
    "canoes": 16234,
    "Ġsashes": 21228,
    "Ġcooped": 22587,
    "Ġglory": 6066,
    "aceti": 7113,
    "Ġstrangest": 14798,
    "iqu": 7803,
    "Ġimpart": 11784,
    "Ġmeat": 8152,
    "Ġmoral": 6581,
    "Ġtarn": 21161,
    "Ġlabors": 23330,
    "Ġseasonable": 24406,
    "oice": 1384,
    "Ġweapon": 7776,
    "Ġclearing": 8240,
    "ind": 569,
    "everybody": 8614,
    "Ġimprovement": 7966,
    "Ġselfishness": 12293,
    "Ġpatients": 24810,
    "hampshire": 23265,
    "Ġindian": 4130,
    "Ġservice": 6472,
    "Ġfading": 15588,
    "ĝ": 222,
    "minute": 11276,
    "ethe": 9679,
    "Ġ1869": 19387,
    "lat": 9607,
    "Ġreven": 18031,
    "Ġdropping": 7483,
    "chop": 21691,
    "acing": 2718,
    "iscreet": 20685,
    "Ġcaprice": 14579,
    "ame": 644,
    "Ġaffected": 5577,
    "Ġintroduction": 8973,
    "Ġmystic": 7503,
    "Ġbloom": 9891,
    "Ġpartially": 13128,
    "Ġsquatted": 25843,
    "Ġtoilings": 24741,
    "Ġvalued": 12187,
    "Ġlam": 21552,
    "oll": 5456,
    "Ġgraves": 11712,
    "holding": 7739,
    "day": 1857,
    "Ġhero": 5715,
    "ropout": 1321,
    "stun": 18021,
    "plendent": 21962,
    "Ġbrides": 22869,
    "Ġwrapping": 19778,
    "Ġentra": 18692,
    "Ġprofane": 13156,
    "ï": 176,
    "print": 23814,
    "Ġpiqu": 21479,
    "Ġloom": 7629,
    "Ġ1825": 25719,
    "placed": 7878,
    "Ġcommand": 3325,
    "Ġcontest": 18473,
    "sence": 3309,
    "Ġr": 405,
    "ternatural": 12720,
    "Ġfastidious": 14494,
    "Ġgemini": 26471,
    "Ġedge": 5189,
    "Ġstiggs": 25793,
    "hither": 11495,
    "ead": 2600,
    "ining": 3223,
    "unders": 13315,
    "bestow": 16931,
    "unity": 4151,
    "Ġfleece": 10617,
    "Ġretention": 23074,
    "Ĺ": 250,
    "Ġrepose": 6743,
    "crew": 7544,
    "Ġbrougham": 17872,
    "Ġnarrower": 24354,
    "Ġwaistcoat": 12275,
    "dem": 10695,
    "Ġassociation": 24710,
    "Ġvenetian": 14850,
    "Ġpreprocessing": 26538,
    "Ġrecommending": 24333,
    "Ġatone": 15806,
    "licted": 20958,
    "Ġrom": 4527,
    "Ġestimated": 16596,
    "yl": 7818,
    "Ġscreening": 25301,
    "Ġbarred": 9005,
    "Ġstores": 18074,
    "respectable": 19849,
    "tables": 19760,
    "Ġdeparted": 5564,
    "Ġelucidated": 26030,
    "Ġhut": 15623,
    "portent": 25413,
    "herent": 2527,
    "Ġhealthful": 24063,
    "Ġounce": 15276,
    "Ġrains": 24340,
    "advanced": 19591,
    "against": 5872,
    "Ġflu": 3277,
    "cheap": 23806,
    "Ġcrumbs": 19124,
    "each": 7335,
    "overspreading": 26140,
    "Ġeucl": 24708,
    "ney": 2493,
    "industrious": 26241,
    "r": 86,
    "Ġscho": 4439,
    "footsteps": 25200,
    "Ġ": 225,
    "reporting": 24494,
    "Ġenter": 4030,
    "Ġdelightful": 6322,
    "Ġkiss": 8183,
    "manifested": 20529,
    "Ġarts": 11010,
    "Ġask": 1489,
    "Ġum": 10214,
    "Ġundeserving": 18266,
    "aurs": 20771,
    "confidence": 16810,
    "azore": 23466,
    "à": 161,
    "othed": 16513,
    "doub": 6225,
    "Ġconventional": 25548,
    "Ġstopping": 2750,
    "luckily": 19755,
    "Ġdeficiency": 14406,
    "flitted": 23972,
    "Ġwails": 21299,
    "Ġlaz": 7378,
    "Ġhusbands": 16645,
    "Ġjustify": 11074,
    "plifted": 9713,
    "cracy": 24691,
    "ders": 8075,
    "Ġuntimely": 16469,
    "pivot": 21033,
    "idav": 18095,
    "Ġsumm": 3358,
    "antial": 8490,
    "reck": 9639,
    "Ń": 260,
    "ĠâĢľ": 516,
    "Ġcultiv": 13560,
    "Ġturns": 4981,
    "Ġ&": 6514,
    "Ġdelicious": 14795,
    "inent": 9631,
    "ids": 21767,
    "ft": 908,
    "Ġthoughtlessness": 16197,
    "schoolmaster": 15165,
    "wich": 11546,
    "Ġvac": 5025,
    "Ġrepel": 23360,
    "Ġshattered": 7884,
    "inished": 17736,
    "innocent": 20289,
    "Ġsociable": 19406,
    "Ġought": 3422,
    "Ġtattoo": 7359,
    "consult": 24172,
    "Ġchapel": 9526,
    "Ġdeveloped": 16358,
    "Ġthus": 2036,
    "Ġfit": 3685,
    "ints": 3420,
    "Ġarbitrary": 4737,
    "Ġbenefit": 8294,
    "arled": 21445,
    "Ġprofund": 13157,
    "Ġdoubly": 16391,
    "Ġere": 3686,
    "Ġcomforters": 25801,
    "Ġshadow": 5596,
    "eld": 968,
    "Ġdriver": 16476,
    "owing": 7602,
    "gay": 11491,
    "net": 1195,
    "Ġunst": 18236,
    "Ġsect": 17753,
    "Ġott": 13869,
    "Ġspectacle": 10499,
    "Ġentering": 6287,
    "Ġnodes": 1967,
    "osed": 1961,
    "Ġdoctrine": 24200,
    "vill": 10737,
    "Ġvestige": 20066,
    "sutherland": 21065,
    "Ġendeavor": 16548,
    "Ġsuperiors": 23458,
    "mockery": 24378,
    "should": 3262,
    "torture": 26152,
    "Ġcontradict": 12389,
    "quee": 4129,
    "Ġseven": 4544,
    "Ġregular": 934,
    "Ġprobably": 4316,
    "confirm": 16809,
    "turner": 19544,
    "Ġmature": 17801,
    "casks": 20406,
    "iscuits": 24667,
    "ĠĠĠĠĠĠĠĠĠĠĠĠĠĠĠĠĠĠĠĠĠĠĠĠĠĠĠĠĠĠĠĠĠĠĠĠĠĠĠĠĠ": 19585,
    "oker": 10965,
    "Ġsavag": 19377,
    "Ġlogits": 3454,
    "Ġtypewriter": 19099,
    "Ġdishonor": 25602,
    "enari": 21284,
    "Ġfunctional": 3053,
    "Ġcuriosity": 2422,
    "carte": 25401,
    "$": 8,
    "Ġmale": 9651,
    "Ġunreason": 15846,
    "lances": 15387,
    "Ġcounty": 9033,
    "compl": 6873,
    "Ġgain": 4829,
    "heavenly": 20048,
    "Ġmakes": 3653,
    "Ġcompat": 2941,
    "ented": 4351,
    "Ġlanc": 19767,
    "Ġutility": 23517,
    "Ġaltogether": 4833,
    "Ġwretchedly": 19509,
    "lies": 15385,
    "Ġgrenadier": 21619,
    "Ġstave": 11654,
    "Ġundec": 22021,
    "Ġbricks": 13566,
    "Ġscuff": 15953,
    "Ġunwelcome": 12784,
    "Ġaccuracy": 1119,
    "Ġarticulated": 24433,
    "Ġmast": 2904,
    "Ġobtained": 7432,
    "versed": 9828,
    "inglass": 21305,
    "Ġmathematical": 3353,
    "itively": 21334,
    "Ġbug": 11592,
    "Ġvoy": 2620,
    "Ġmaintenance": 17464,
    "Ġlethar": 21735,
    "ċ": 204,
    "Ġelab": 22652,
    "Ġgodlike": 23358,
    "Ġripp": 11221,
    "Ġunfolded": 10641,
    "Ġmonosyllable": 20728,
    "Ġcommunications": 16357,
    "bury": 9110,
    "itiousness": 21337,
    "Ġserm": 9636,
    "awn": 3835,
    "Ġwaist": 6899,
    "Ġforgetfulness": 14609,
    "indef": 17737,
    "Ġinternal": 2246,
    "yield": 13812,
    "Ġlouisa": 13549,
    "asy": 5296,
    "elly": 17982,
    "mer": 2834,
    "owl": 12689,
    "Ġtalked": 4424,
    "Ġchilled": 18383,
    "Ġdecrease": 4201,
    "Ġtrappings": 23085,
    "stretched": 10210,
    "Ġdumbly": 24988,
    "Ġcontemptible": 16955,
    "Ġdear": 1536,
    "Ġcust": 11585,
    "soo": 18683,
    "Ġnervousness": 23559,
    "Ġmischie": 22767,
    "Ġconfines": 23306,
    "Ġcoco": 11003,
    "Ġtruck": 19514,
    "Ġwebster": 20164,
    "Ġspread": 5161,
    "rendering": 22344,
    "concent": 19483,
    "Ġpert": 22400,
    "qual": 8157,
    "Ġcomplacency": 19451,
    "Ġmental": 21322,
    "âĢĻâĢĶ": 12741,
    "Ġpositives": 4320,
    "rative": 17654,
    "Ġcommended": 18657,
    "illed": 2625,
    "Ġsixpence": 19319,
    "Ġquietly": 4569,
    "Ġprecipitous": 24836,
    "lux": 14229,
    "first": 3935,
    "Ġpropagating": 20636,
    "Ġcirc": 1985,
    "Ġchron": 19441,
    "lets": 7836,
    "Ġadoption": 24951,
    "example": 16017,
    "Ġforeb": 12008,
    "Ġclubb": 22365,
    "Q": 53,
    "atics": 15526,
    "Ġsouth": 4910,
    "Ġdeliberate": 15025,
    "Ġactor": 16053,
    "Ġluxury": 20135,
    "comes": 5394,
    "Ġpleas": 1907,
    "rious": 11693,
    "Ġincorrupt": 19237,
    "Ġensuring": 11193,
    "Ġpoured": 8805,
    "Ġmonarchs": 25851,
    "odecim": 9835,
    "Ġpovelson": 26554,
    "Ġagainst": 1697,
    "cus": 3980,
    "ising": 2254,
    "shr": 10982,
    "Ġinhabitant": 19758,
    "icilian": 20694,
    "man": 1054,
    "Ġxx": 5492,
    "anders": 18155,
    "Ġaggregate": 25678,
    "?": 35,
    "Ġhogshead": 26369,
    "Ġforthwith": 16620,
    "Ġcoldness": 23761,
    "Ġannihilation": 15169,
    "Ġconjoined": 21810,
    "unwittingly": 25802,
    "Ġtread": 9412,
    "Ġteach": 8555,
    "Ġwaste": 9237,
    "Ġsummoned": 9914,
    "tremble": 17144,
    "Ġaunt": 3180,
    "Ġsmitten": 12904,
    "Ġseverest": 14094,
    "Ġshot": 4546,
    "Ġlieu": 19567,
    "Ġgrudge": 20696,
    "Ġconcre": 16392,
    "nment": 20992,
    "village": 25423,
    "Ġiii": 7861,
    "ouse": 1191,
    "fiend": 13665,
    "Ġhorsey": 24252,
    "Ġintelligences": 12835,
    "Ġrests": 13098,
    "Ġshoved": 23494,
    "goodness": 19291,
    "Ġconvers": 2910,
    "civil": 7797,
    "Ġdru": 8423,
    "Ġloaded": 8493,
    "Ġpondering": 17007,
    "Ġhurricane": 16434,
    "Ġenabling": 1079,
    "Ġthreshold": 2809,
    "safie": 20351,
    "Ġmari": 6814,
    "absent": 21794,
    "gam": 10098,
    "Ġsparkled": 13466,
    "Ġmachine": 788,
    "Ġyields": 19659,
    "Ġtent": 15470,
    "passing": 14815,
    "Ġpaus": 4301,
    "âĢľ_": 5720,
    "iscuit": 10601,
    "thro": 12766,
    "Ġtransported": 11281,
    "Ġlatitudes": 9499,
    "onder": 3779,
    "Ġgreat": 894,
    "draul": 9446,
    "Ġgout": 21599,
    "Ġproposed": 7460,
    "Ġchrysalis": 26540,
    "Ġ183": 13242,
    "Ġwel": 4529,
    "Ġauxiliary": 26420,
    "Ġreappeared": 21668,
    "Ġchanged": 5243,
    "Ġcage": 17827,
    "Ġencompassed": 15257,
    "cheerfulness": 20183,
    "Ġhorseback": 14853,
    "bud": 10686,
    "Ġlower": 2664,
    "Ġsteward": 6586,
    "Ġreasonable": 7253,
    "ĠlinnÃ¦us": 15279,
    "contented": 14636,
    "Ġerie": 20057,
    "university": 25984,
    "Ġmutilated": 23962,
    "Ġwhe": 439,
    "furnish": 25339,
    "Ġdost": 7637,
    "Ġlustrous": 20159,
    "Ġeduc": 4786,
    "Ġharris": 13930,
    "Ġgodly": 19082,
    "Ġguitar": 16274,
    "Ġextent": 7656,
    ";--": 8069,
    "Ġemaciated": 20641,
    "Ġceremonies": 24837,
    "Ġthomson": 26456,
    "Ġappear": 2485,
    "Ġoxen": 19954,
    "Ġstranded": 9778,
    "Ġlungs": 8362,
    "scar": 9819,
    "Ġgretna": 26470,
    "Ġcapstan": 9102,
    "englishman": 23679,
    "Ġblemish": 19682,
    "Ġausten": 5882,
    "Ġclimates": 25054,
    "Ġheav": 1850,
    "anchor": 13892,
    "Ġembarrassment": 10629,
    "Ġeulogy": 26472,
    "point": 6064,
    "isance": 17849,
    "Ġvenerable": 9097,
    "Ġfle": 3096,
    "Ġideal": 13126,
    "Ġ125": 24470,
    "hopes": 15373,
    "Ġyouth": 4262,
    "Ġinterior": 8899,
    "iancy": 13014,
    "Ġhated": 7585,
    "snap": 24849,
    "abling": 1078,
    "simp": 17667,
    "Ġbillows": 7502,
    "Ġrazor": 22649,
    "Ġfoundation": 4233,
    "ulgent": 18152,
    "miss": 3177,
    "âĢĻ,": 14073,
    "alone": 10186,
    "supportable": 12374,
    "Ġattractions": 12923,
    "falsehood": 25902,
    "Ġslightest": 6093,
    "Ġrefusing": 11030,
    "conjectured": 25182,
    "quimaux": 21863,
    "Ġlevelled": 11286,
    "uncont": 15778,
    "comprehend": 14361,
    "Ġusages": 15920,
    "Ġretreated": 13437,
    "Ġcruise": 12053,
    "Į": 239,
    "Ġcaptains": 7457,
    "istol": 6261,
    "Ġglo": 1714,
    "perquis": 22185,
    "lott": 6653,
    "ange": 1017,
    "Ġscrape": 14921,
    "Ġprosperous": 15174,
    "there": 1424,
    "Ġapprovingly": 26255,
    "Ġserviceable": 24717,
    "angered": 16181,
    "Ġpossession": 5589,
    "Ġmoulton": 17438,
    "Ġbi": 920,
    "Ġflit": 23009,
    "include": 23591,
    "Ġbath": 9661,
    "Ġsatisfaction": 5667,
    "Ġrejoined": 14930,
    "ī": 236,
    "Ġunlimited": 26224,
    "Ġsaints": 20677,
    "choice": 21694,
    "Ġsub": 949,
    "presents": 18801,
    "Ġcover": 3560,
    "Ġingolstadt": 8333,
    "Ġsensitiveness": 23737,
    "Ġcommendation": 13614,
    "Ġwhiff": 21721,
    "Ġscotch": 12214,
    "noo": 9794,
    "engagements": 25855,
    "----âĢĻ": 24101,
    "Ġtwitch": 22679,
    "Ġindolence": 16233,
    "frequented": 25901,
    "loa": 18537,
    "entials": 22667,
    "Ġaccelerate": 23229,
    "Ġweeks": 4567,
    "ource": 5244,
    "Ġforster": 5230,
    "cular": 15331,
    "Ġstript": 23696,
    "ars": 904,
    "Ġbordeaux": 24565,
    "Ġribs": 7103,
    "Ġbullion": 24986,
    "ety": 3524,
    "Ġmode": 8500,
    "Ġrecall": 3856,
    "Ġcomputational": 1623,
    "striving": 24670,
    "Ġslighted": 16570,
    "Ġinvestment": 24332,
    "max": 1685,
    "vult": 21116,
    "ase": 1161,
    "Ġwindings": 18911,
    "Ġinsufficient": 9675,
    "arched": 10817,
    "Ġwrung": 14472,
    "Ġfired": 16158,
    "ached": 2323,
    "properly": 24919,
    "Ġswing": 13042,
    "Ġpearl": 20380,
    "bly": 6112,
    "sounding": 24795,
    "Ġforger": 15737,
    "Ġrepressed": 21671,
    "_),": 7127,
    "Ġobsolete": 26560,
    "Ġpillows": 24989,
    "Ġwast": 21864,
    "Ġtwinkle": 12327,
    "Ġsof": 18277,
    "est": 500,
    "Ġjurors": 17347,
    "harpoone": 6109,
    "Ġpersecut": 16954,
    "Ġuncomfortable": 8488,
    "Ġadvised": 16215,
    "Ġflows": 13015,
    "idable": 8146,
    "Ġphys": 5653,
    "Ġassailed": 23178,
    "Ġ(`": 12858,
    "yden": 21146,
    "Ġgathered": 8444,
    "extracts": 22759,
    "virtue": 20572,
    "Ġpremises": 10490,
    "Ġjost": 23632,
    "centred": 25020,
    "Ġbonnet": 10658,
    "Ġemblazonings": 26043,
    "rily": 7622,
    "Ġhood": 10825,
    "attached": 11939,
    "Ġglimpse": 6944,
    "trying": 15441,
    "thur": 7188,
    "Ġspinning": 15055,
    "mature": 20969,
    "Ġconfusing": 23308,
    "Ġinquis": 19306,
    "description": 11096,
    "Ġmajestic": 8643,
    "Ġclimate": 9278,
    "Ġpersuade": 5874,
    "Ġke": 1157,
    "import": 5668,
    "Ġadmit": 7711,
    "fil": 12467,
    "quakes": 21860,
    "mong": 15393,
    "silver": 19693,
    "oman": 2017,
    "division": 20052,
    "ously": 2491,
    "Ġincarnation": 25574,
    "6": 26,
    "brevi": 24077,
    "Ġneed": 2608,
    "Ġdue": 3845,
    "Ġfeathers": 15123,
    "Ġadopted": 15182,
    "marry": 13328,
    "Ġunp": 12776,
    "wag": 21126,
    "restoration": 23237,
    "za": 13813,
    "lement": 10169,
    "Ġdischarge": 18557,
    "Ġthrowing": 6337,
    "writes": 4988,
    "Ġleviathanic": 12085,
    "Ġenglish": 3616,
    "Ġju": 10288,
    "Ġfeast": 10280,
    "we": 846,
    "Ġfatal": 5873,
    "Ġsick": 4694,
    "Ġeyes": 1334,
    "inquire": 16934,
    "slanting": 24558,
    "chess": 16576,
    "Ġfleets": 23776,
    "Ġmorocco": 26575,
    "Ġhonoured": 9884,
    "collect": 16566,
    "igation": 5919,
    "Ġhabits": 6926,
    "Ġchronicled": 25329,
    "remote": 23190,
    "Ġpassions": 7930,
    "inal": 15483,
    "Ġbridal": 14957,
    "inkling": 16094,
    "Ġamount": 8514,
    "Ġsobbed": 14137,
    "bern": 20777,
    "Ġscud": 14195,
    "Ġfavoring": 2345,
    "Ġflourish": 17163,
    "Ġminiatures": 20324,
    "downward": 16621,
    "tical": 10131,
    "Ġapoplexy": 25266,
    "lacings": 26135,
    "begins": 18529,
    "club": 26382,
    "Ġunra": 18235,
    "who": 2448,
    "Ġmerit": 9430,
    "Ġconfused": 7964,
    "Ġplied": 22600,
    "Ġpublisher": 24070,
    "eling": 6683,
    "Ġnor": 1549,
    "Ġinfernal": 11965,
    "range": 3498,
    "Ġcane": 10929,
    "================": 3723,
    "Ġsquad": 22840,
    "Ġintim": 6838,
    "quely": 10234,
    "giv": 13725,
    "Ġdigging": 14941,
    "ĠĠĠĠ": 459,
    "Ġreally": 2160,
    "Ġquivers": 22417,
    "Ġturing": 7566,
    "opening": 10315,
    "Ġshark": 5550,
    "Ġhatchways": 24990,
    "Ġspent": 3964,
    "laughing": 15183,
    "Ġdaring": 8121,
    "grave": 16098,
    "Ġpioneer": 17919,
    "craft": 12251,
    "igned": 5656,
    "Ġdefence": 11069,
    "Ġshowing": 7732,
    "Ġdisastrous": 16064,
    "atically": 2535,
    "Ġkeeps": 8267,
    "Ġoverflowed": 20265,
    "Ġsprain": 18306,
    "batt": 20780,
    "Ġsympathies": 14864,
    "Ġserved": 8247,
    "Ġflourishing": 25188,
    "Ġmeasured": 9807,
    "tier": 12519,
    "afraid": 10443,
    "inery": 17735,
    "rum": 3473,
    "convalescence": 24885,
    "Ġhorner": 8961,
    "ulsive": 10236,
    "even": 3838,
    "Ġcontemplation": 11359,
    "Ġlandlord": 5581,
    "Ġsuspecting": 14913,
    "rified": 15422,
    "izon": 18135,
    "Ġintent": 6410,
    "Ġconsists": 11982,
    "daw": 17524,
    "rable": 11635,
    "strip": 19833,
    "without": 4848,
    "more": 1032,
    "year": 11098,
    "snowy": 20286,
    "Ġ67": 19663,
    "Ġfruitless": 25606,
    "Ġtruthful": 23870,
    "goldsmith": 20150,
    "Ġmenaces": 23110,
    "Ġshould": 863,
    "Ġrefreshing": 20267,
    "Ġadequ": 10915,
    "Ġheathen": 10568,
    "Ġpatagonia": 25859,
    "Ġhug": 6980,
    "Ġescort": 23509,
    "Ġmaternal": 11061,
    "rium": 3136,
    "ser": 1426,
    "access": 11182,
    "Ġnodding": 23337,
    "combe": 7661,
    "Ġchancing": 22252,
    "guinea": 16675,
    "Ġfet": 5808,
    "Ġgeography": 23373,
    "ouncing": 8497,
    "Ġconfined": 7465,
    "Ġthroat": 7771,
    "Ġbubbles": 11400,
    "Ġwooing": 19437,
    "Ġlashing": 11619,
    "Ġneural": 621,
    "ians": 2361,
    "Ġcomput": 602,
    "Ġirregular": 9868,
    "Ġimpat": 4459,
    "urns": 10216,
    "Ġsatir": 18795,
    "Ġrepresent": 1212,
    "dece": 11738,
    "Ġperches": 18450,
    "Ġobvious": 4964,
    "gree": 10703,
    "Ġrelease": 19293,
    "Ġdarted": 4759,
    "Ġfragmentary": 25858,
    "saturday": 14861,
    "Ġdetails": 6567,
    "swiftly": 20554,
    "Ġsoliloqu": 11889,
    "Ġcheerfulness": 10519,
    "Ġappro": 664,
    "Ġpark": 5465,
    "Ġpublicly": 13327,
    "still": 4220,
    "athan": 2961,
    "Ġguido": 2980,
    "Ġmarchant": 14788,
    "iday": 8834,
    "Ġreproachfully": 25252,
    "Ġexposes": 22625,
    "ivates": 18283,
    "Ġvindict": 13609,
    "Ġgods": 6455,
    "Ġunwonted": 15010,
    "Ġallurements": 22076,
    "Ġhaggerston": 26454,
    "Ġspitzbergen": 15291,
    "yourself": 6744,
    "Ġflapp": 23011,
    "Ġexpressed": 4470,
    "Ġacting": 10993,
    "Ġphantoms": 13490,
    "Ġslipping": 13365,
    "linearity": 1649,
    "Ġpromoting": 3163,
    "ma": 1152,
    "Ġsymptom": 13487,
    "Ġguid": 2640,
    "linen": 25258,
    "Ġsable": 15503,
    "Ġjohn": 5032,
    "Ġexamine": 7735,
    "fthand": 26388,
    "scans": 22992,
    "Ġequator": 7461,
    "Ġtreatise": 19348,
    "sincere": 16909,
    "Ġflutter": 16250,
    "gs": 7338,
    "Ġspeaker": 19150,
    "Ġcoleman": 22591,
    "Ġwhatsoever": 18456,
    "Ġbitterness": 8024,
    "Ġcomputer": 1192,
    "oul": 4700,
    "Ġquee": 1980,
    "Ġruggedness": 26270,
    "Ġdispersed": 16599,
    "Ġcontroverted": 23252,
    "depth": 12805,
    "Ġimpenitent": 26550,
    "Ġluxur": 12345,
    "Ġsilently": 6894,
    "eu": 17532,
    "Ġmice": 13862,
    "Ġrum": 5925,
    "Ġhues": 21492,
    "gage": 13726,
    "Ġinexperience": 26100,
    "Ġgeese": 7694,
    "quished": 21858,
    "Ġthoughtless": 16196,
    "spond": 5567,
    "inkle": 22617,
    "bethink": 25745,
    "Ġintervening": 17270,
    "Ġsituations": 10494,
    "Ġsuperlatively": 26076,
    "lo": 682,
    "original": 9088,
    "ill": 447,
    "mere": 11859,
    "ts": 959,
    "Ġsalisbury": 24068,
    "Ġso": 431,
    "black": 6769,
    "Ġmelbourne": 24291,
    "wherever": 13123,
    "otherwise": 7671,
    "Ġpursued": 6330,
    "°": 113,
    "cousins": 20121,
    "Ġnaturally": 2468,
    "attributed": 23123,
    "Ġbass": 17857,
    "speps": 14334,
    "strangers": 20339,
    "Ġforces": 12707,
    "rarely": 21637,
    "their": 2540,
    "Ġhauled": 11698,
    "apside": 22965,
    "Ġinherent": 4593,
    "colnett": 19332,
    "Ġhigh": 932,
    "Ġscope": 15954,
    "Ġlomb": 21562,
    "pr": 3178,
    "parad": 16388,
    "Ġapplies": 11963,
    "Ġtake": 1578,
    "Ġglasses": 9478,
    "Ġrails": 22647,
    "Ġaslant": 21905,
    "pots": 11516,
    "driver": 14924,
    "cure": 11476,
    "Ġhospitals": 24924,
    "Ġassid": 18947,
    "Ġfisherman": 12080,
    "Ġlights": 8963,
    "Ġenjoined": 18192,
    "Ġwelfare": 12564,
    "lier": 20951,
    "ism": 4875,
    "Ġend": 1472,
    "Ġpredecessor": 26254,
    "Ġclair": 6271,
    "Ġvelvet": 12402,
    "Ġwarmth": 6905,
    "Ġquadru": 16008,
    "Ġunfathom": 14791,
    "whom": 8185,
    "Ġmoderate": 10940,
    "outward": 22164,
    "Ġmexico": 15284,
    "towing": 17691,
    "Ġsatisfy": 6912,
    "Ġabstra": 22275,
    "umnal": 18301,
    "interest": 5421,
    "Ġbursting": 8659,
    "ibank": 6880,
    "Ġcheat": 19020,
    "Ġmantelpiece": 15211,
    "sphere": 22732,
    "Ġcolt": 11045,
    "vessels": 10628,
    "Ġglut": 18855,
    "nx": 17609,
    "Ġmodified": 14169,
    "Ġfowler": 16939,
    "can": 1233,
    "avating": 18569,
    "Ġwes": 8783,
    "Ġcosmopolitan": 20643,
    "Ġslipped": 6493,
    "Ġlabyrinth": 13683,
    "ullen": 8235,
    "bey": 10317,
    "Ġexperiment": 11920,
    "reinforcement": 7826,
    "Ġsilken": 16384,
    "ington": 21304,
    "Ġearthquake": 14630,
    "Ġlurid": 19684,
    "Ġoutputs": 2890,
    "://": 11467,
    "lessness": 5318,
    "ede": 21509,
    "Ġthieves": 15640,
    "lay": 5892,
    "Ġeffort": 8202,
    "informed": 17738,
    "verb": 10219,
    "Ġhypocr": 19475,
    "Ġinflamed": 13477,
    "typewritten": 26039,
[...]
