{
  "metadata": {
    "vocab_size": 26614,
    "algorithm": "BPE",
    "created_at": "2026-08-09 03:39:25",
    "special_tokens": [
      "<PAD>",
      "<SOS>",
      "<EOS>",
      "<UNK>",
      "<MASK>"
    ]
  },
  "vocab": {
    "Ġalow": 18099,
    "Ġexhale": 24402,
    "Ġhaste": 9003,
    "ful": 678,
    "wished": 13804,
    "Ġrude": 7234,
    "Ġaunts": 21199,
    "Ġbusied": 19066,
    "Ġfors": 21768,
    "Ġsnapping": 19299,
    "urpr": 2285,
    "Ġaccording": 5508,
    "drunk": 24659,
    "Ġunobserved": 18249,
    "ell": 396,
    "Ġfondness": 16780,
    "Ġcommercial": 22671,
    "landish": 11940,
    "Ġfusion": 21412,
    "Ġinfle": 16360,
    "months": 9071,
    "bulkington": 19924,
    "Ġhardly": 2434,
    "Ġglades": 19370,
    "Ġembeddings": 2167,
    "Ġlvi": 21550,
    "Ġportrait": 10661,
    "Ġwhiteness": 5918,
    "fil": 12460,
    "Ġfeatureless": 22609,
    "Ġforeseen": 16442,
    "Ġregimentals": 19857,
    "Ġsloping": 11937,
    "Ġprofession": 6207,
    "relation": 19445,
    "Ġ85": 24460,
    "rol": 5713,
    "Ġnoise": 1072,
    "offic": 7466,
    "ged": 1510,
    "darkened": 24517,
    "itself": 7834,
    "intments": 18820,
    "Ġevanesc": 24294,
    "'s": 2472,
    "Ġremains": 4908,
    "Ġhumiliating": 22881,
    "Ġfidget": 15188,
    "vocation": 25084,
    "september": 14035,
    "Ġabove": 2937,
    "Ġmonarchs": 25849,
    "Ġstrenuously": 17447,
    "Ġinser": 6820,
    "Ġgenerally": 4156,
    "chooses": 23673,
    "Ġplied": 22594,
    "Ġvisibly": 22852,
    "Ġhousemaid": 14464,
    "Ġthom": 21513,
    "itioned": 22466,
    "sne": 10124,
    "Ġline": 1850,
    "scorn": 22988,
    "supplementary": 20548,
    "lob": 22504,
    "presumption": 20440,
    "Ġstyle": 6946,
    "ris": 9137,
    "oniously": 21256,
    "Ġnorton": 12646,
    "Ġcataract": 23426,
    "Ġapproximates": 2418,
    "Ġsple": 21214,
    "feelings": 5674,
    "Ġinquirers": 24962,
    "Ġmaelstrom": 19354,
    "cleanliness": 25871,
    "Ġlikeness": 11179,
    "Ġprofess": 3697,
    "Ġguns": 16776,
    "Ġcellar": 8058,
    "erval": 4017,
    "Ġheav": 1851,
    "phur": 16149,
    "Ġalone": 2567,
    "Ġmounted": 7832,
    "miserable": 8656,
    "igating": 21696,
    "confidential": 25876,
    "Ġcheerfulness": 10516,
    "Ġstren": 15717,
    "hering": 12811,
    "Ġefficient": 1046,
    "Ġsnatched": 10471,
    "Ġevaluate": 3217,
    "_,âĢĿ": 6218,
    "Ġdefinite": 11069,
    "Ġpiny": 21468,
    "Ġsurve": 9873,
    "Ġstrictest": 17042,
    "Ġpyramids": 15113,
    "hon": 6793,
    "Ġcredited": 25153,
    "strils": 10458,
    "Ġpe": 851,
    "explained": 23139,
    "Ġadvances": 12993,
    "exhibited": 18477,
    "Ġlouder": 13467,
    "Ġenterprise": 8641,
    "ortal": 6265,
    "Ġpeev": 22690,
    "Ġsurpasses": 25268,
    "Ġsandwiched": 26610,
    "Ġstride": 22611,
    "rive": 9706,
    "ves": 742,
    "killer": 20474,
    "Ġimbalance": 22170,
    "twelve": 14622,
    "í": 174,
    "Ġmiserably": 12944,
    "pleasantness": 19769,
    "Ġflattered": 10374,
    "Ġborne": 6351,
    "iors": 9125,
    "ĠĠĠĠĠĠĠĠĠĠĠĠĠĠĠĠĠĠĠĠĠĠĠĠĠĠĠĠĠĠĠĠĠĠĠĠĠĠĠ": 19258,
    "Ġrudder": 25107,
    "mies": 20967,
    "Ġgenerate": 1543,
    "Ġblu": 2689,
    "Ġleisurely": 24746,
    "een": 726,
    "Ġburke": 19249,
    "ledge": 1328,
    "Ġfeet": 2256,
    "Ġheaped": 18037,
    "Ġebb": 21621,
    "browed": 25894,
    "phia": 22768,
    "Ġsoph": 1589,
    "Ġsale": 14156,
    "Ġcastaways": 19426,
    "reach": 17757,
    "Ġcertainty": 6734,
    "eray": 21265,
    "tahit": 17692,
    "chain": 18039,
    "going": 6313,
    "Ġflourish": 17160,
    "properly": 24918,
    "icles": 17972,
    "Ġharpooned": 13260,
    "Ġvulture": 17338,
    "aim": 2757,
    "Ġcedar": 15187,
    "Ġarm": 2494,
    "Ġintervals": 5598,
    "instance": 24168,
    "Ġbriony": 9328,
    "Ġjungfrau": 15247,
    "Ġdiscipline": 26561,
    "leg": 2816,
    "Ġplowdon": 26447,
    "Ġwhaler": 7520,
    "isation": 13892,
    "knot": 13744,
    "Ġshears": 18319,
    "agos": 21901,
    "approve": 19935,
    "Ġstrife": 18613,
    "Ġmoody": 8200,
    "wise": 2574,
    "set": 3866,
    "Ġbravery": 23834,
    "acon": 10681,
    "Ġberkshire": 16884,
    "Ġmoss": 9283,
    "Ġfirmness": 11238,
    "convalescence": 24884,
    "swept": 19785,
    "Ġstung": 21736,
    "ums": 10272,
    "chop": 21685,
    "Ġrichest": 26211,
    "culiarity": 11142,
    "Ġshrinking": 14804,
    "Ġincl": 4271,
    "Ġuntouched": 16465,
    "clim": 18929,
    "Ġpersuaded": 5769,
    "geese": 22364,
    "bonnet": 25742,
    "Ġwisely": 13271,
    "yet": 3753,
    "Ġstrove": 9956,
    "Ġround": 1371,
    "typewritten": 26038,
    "created": 12448,
    "Ġblinds": 8006,
    "condemned": 26060,
    "Ġb": 281,
    "Ġ117": 19696,
    "professor": 17249,
    "Ġpots": 9427,
    "Ġcake": 12567,
    "Ġremembering": 14610,
    "Ġfriesland": 26442,
    "Ġbeautiful": 3670,
    "Ġacutely": 14313,
    "xter": 9146,
    "Ġalleys": 25978,
    "Ġross": 2767,
    "arrant": 10474,
    "Ġcollinses": 19129,
    "Ġnomine": 26456,
    "Ġtrappings": 23080,
    "aders": 21755,
    "Ġsuffers": 2975,
    "Ġrepented": 23358,
    "ures": 838,
    "Ġ1820": 25718,
    "Ġawake": 8271,
    "Ġinequalities": 26453,
    "Ġix": 12663,
    "qualities": 25043,
    "Ġreception": 9838,
    "ateur": 22068,
    "odecimoes": 25318,
    "Ġdescrib": 2721,
    "Ġforeman": 23446,
    "leader": 25351,
    "Ġim": 474,
    "Ġinvolving": 18778,
    "Ġtrunk": 7205,
    "Ġharpoone": 2913,
    "omy": 6248,
    "Ġopen": 1550,
    "Ġessentials": 20001,
    "ctor": 13959,
    "Ġrecital": 16139,
    "Ġbarbaric": 10013,
    "sank": 17662,
    "present": 1133,
    "Ġunt": 2291,
    "vious": 1783,
    "vanished": 15060,
    "Ġimmens": 9938,
    "un": 373,
    "Ġbordered": 24563,
    "itations": 17817,
    "Ġportable": 19368,
    "Ġmainly": 22645,
    "spears": 23939,
    "mounting": 25207,
    "caroline": 24149,
    "Ġnation": 12644,
    "Ġarchitect": 969,
    "equal": 14992,
    "supper": 12917,
    "Ġtoil": 6531,
    "situ": 9621,
    "Ġwelded": 9571,
    "Ġcontrivances": 12355,
    "Ġechoed": 20422,
    "Ġcracked": 8593,
    "actually": 14294,
    "Ġwanderings": 20142,
    "Ġdecipher": 22443,
    "umerable": 11723,
    "¹": 122,
    "injury": 25213,
    "itious": 8779,
    "Ġreel": 9213,
    "Ġyard": 5920,
    "Ġimplicate": 24875,
    "Ġphilipp": 23882,
    "Ġnugent": 26457,
    "Ġmermaids": 26170,
    "Ġpopular": 6216,
    "Ġinspiring": 19112,
    "Ġforenoon": 19126,
    "ints": 3417,
    "Ġcherished": 10590,
    "Ġaccusation": 22375,
    "Ġbewildered": 15212,
    "any": 3339,
    "Ġhastening": 19335,
    "Ġconceit": 7295,
    "Ġdegenerating": 25799,
    "wig": 17704,
    "lier": 20948,
    "Ġsix": 3048,
    "Ġdisappointing": 19578,
    "Ġfocused": 16340,
    "Ġphrenologists": 25608,
    "Ġfool": 4235,
    "Ġlimb": 9401,
    "Ġcarve": 23090,
    "rote": 4592,
    "Ġemerg": 13423,
    "fier": 9593,
    "Ġmanaged": 7905,
    "Ġapproaching": 6284,
    "honest": 17003,
    "Ġpeered": 18668,
    "Ġlatest": 16822,
    "scho": 8759,
    "Ġcareful": 2610,
    "mentioning": 24885,
    "Ġskeleton": 5514,
    "Ġrotation": 25474,
    "Ġpermitting": 22396,
    "Ġopt": 773,
    "Ġplucked": 15112,
    "Ġcyn": 13885,
    "Ġours": 4612,
    "Ġpropensity": 18996,
    "Ġreposing": 23357,
    "Ġclam": 7416,
    "Ġrank": 6258,
    "Ġexploded": 15907,
    "Ġ$": 21149,
    "domestic": 19824,
    "Ġlethar": 21743,
    "Ġopportunities": 19247,
    "dishon": 20402,
    "feather": 16041,
    "ought": 830,
    "Ġslily": 23161,
    "Ġendeavored": 19301,
    "Ġseries": 7060,
    "Ġforth": 3461,
    "Ġsplintered": 11418,
    "mother": 5480,
    "apparat": 22845,
    "Ġdear": 1535,
    "subtle": 24243,
    "itor": 12563,
    "_âĢĶ": 11467,
    "Ġcreatures": 4135,
    "arrange": 23765,
    "Ġfaltering": 17884,
    "Ġdocuments": 10022,
    "gor": 546,
    "Ġfine": 1316,
    "Ġagitates": 22514,
    "Ġvines": 12748,
    "complaisance": 24811,
    "Ġrenewed": 9537,
    "toller": 20671,
    "directly": 13708,
    "rane": 17653,
    "cart": 10688,
    "Ġmarshalled": 25315,
    "precision": 4331,
    "articulate": 17397,
    "Ġandrew": 21504,
    "Ġdiffers": 23780,
    "Ġconsequences": 11335,
    "ruck": 6848,
    "Ġcolon": 18763,
    "alleled": 14428,
    "Ġdl": 3376,
    "Ġtenderest": 23549,
    "thread": 15824,
    "Ġsorts": 6887,
    "Ġcells": 13884,
    "shown": 22451,
    "apidated": 22334,
    "Ġremote": 8919,
    "Ġconstitutional": 25125,
    "spades": 14334,
    "Ġwealthy": 18178,
    "weep": 22681,
    "Ġgreenhorn": 23767,
    "Ġsneering": 24697,
    "ĠâĢľâĢĺ_": 25111,
    "Ġimprudence": 10297,
    "aws": 8236,
    "Ġpaddled": 20200,
    "Ġhum": 1096,
    "Ġwouldn": 6045,
    "Ġconsciousness": 9947,
    "Ġdigesting": 19808,
    "Ġdiverted": 14592,
    "scar": 9815,
    "partly": 14602,
    "Ġsuitable": 18278,
    "sis": 1903,
    "amples": 1825,
    "Ġignor": 4010,
    "Ġgrec": 18962,
    "Ġitself": 2522,
    "pag": 11510,
    "Ġtint": 13816,
    "authority": 13590,
    "Ġod": 4440,
    "zas": 17712,
    "Ġbackbone": 22647,
    "inions": 8401,
    "acetty": 24464,
    "Ġtransf": 22434,
    "Ġweapons": 10593,
    "Ġgames": 11625,
    "arrang": 14652,
    "dear": 6555,
    "trivial": 21091,
    "lotte": 3332,
    "remembrance": 25702,
    "Ġdawned": 14993,
    "venison": 22625,
    "Ġeternity": 12276,
    "Ġesquimaux": 25150,
    "terday": 4704,
    "Ġclim": 8195,
    "Ġfoundations": 11073,
    "rived": 5373,
    "Ġpeddling": 24799,
    "lab": 3455,
    "fully": 2201,
    "Ġgaiety": 16749,
    "Ġbeginning": 4244,
    "find": 6954,
    "Ġworked": 6583,
    "jets": 20927,
    "Ġrespect": 1666,
    "Ġlaughing": 5338,
    "Ġreporting": 24657,
    "Ġaisle": 21200,
    "spersed": 22733,
    "soundest": 24797,
    "Ġrect": 18025,
    "hidden": 17370,
    "Ġcircle": 4977,
    "isis": 12576,
    "Ġloitering": 22113,
    "Ġnovelty": 13462,
    "ru": 480,
    "Ġdominant": 12394,
    "Ġhangs": 11605,
    "Ġfreshe": 13068,
    "rance": 5993,
    "Ġirregular": 9864,
    "Ġfilthy": 13246,
    "Ġmargaret": 10376,
    "musket": 25341,
    "Ġacting": 10991,
    "ie": 728,
    "qual": 8156,
    "meat": 18677,
    "returning": 12203,
    "Ġscrewing": 20207,
    "Ġbecoming": 4398,
    "Ġgamesome": 17289,
    "Ġresemble": 15690,
    "broad": 8642,
    "Ġvowed": 14083,
    "permitted": 18345,
    "Ġmowers": 17812,
    "Ġnobody": 6158,
    "brimming": 23576,
    "Ġcontents": 7210,
    "Ġmarchant": 14784,
    "Ġeas": 2353,
    "Ġstoven": 23173,
    "rupt": 3210,
    "li": 1188,
    "Ġwings": 9163,
    "embed": 18187,
    "Ġdurst": 20351,
    "Ġfiss": 21410,
    "Ġbattered": 17862,
    "sweetly": 25134,
    "Ġwhither": 10214,
    "pray": 5429,
    "Ġsights": 7472,
    "Ġcordage": 19677,
    "Ġrevol": 5537,
    "anx": 8783,
    "Ġresort": 18563,
    "Ġkeen": 4613,
    "repaid": 24491,
    "quadr": 15761,
    "vand": 21107,
    "Ġtantamount": 25625,
    "Ġplayful": 19235,
    "buckets": 26123,
    "Ġanalogy": 25639,
    "_.": 2210,
    "Ġpatchwork": 24139,
    "Ġclose": 3040,
    "Ġshamefully": 24716,
    "Ġwarriors": 19722,
    "Ġmetaphys": 16395,
    "Ġlimbs": 5965,
    "Ġcorporeally": 25729,
    "shapes": 22459,
    "Ġappointed": 20101,
    "isome": 17848,
    "Ġdrink": 4786,
    "igation": 5917,
    "Ġmoonlight": 9957,
    "Ġgarments": 15192,
    "Ġdarker": 13118,
    "surely": 10569,
    "Ġindividuals": 24546,
    "men": 1486,
    "Ġcompress": 21846,
    "okened": 15986,
    "Ġcarav": 18901,
    "stern": 8444,
    "Ġappears": 5402,
    "Ġmuff": 8113,
    "Ġrespectability": 14484,
    "ostent": 16846,
    "Ġaccidents": 10295,
    "umps": 6317,
    "Ġcrying": 10786,
    "Ġchambers": 16799,
    "unless": 9234,
    "ancies": 11583,
    "Ġgriev": 16634,
    "Ġfools": 14481,
    "Ġlikewise": 5386,
    "Ġforever": 14553,
    "Ġeul": 21617,
    "anged": 3587,
    "Ġstacked": 21740,
    "Ġstrangest": 14794,
    "Ġinit": 817,
    "ink": 757,
    "Ġoblig": 3444,
    "Ġlucases": 9009,
    "ellation": 12746,
    "trop": 15435,
    "Ġfoolish": 5979,
    "Ġisolation": 17150,
    "Ġformless": 22825,
    "Ġastonishing": 10501,
    "P": 52,
    "judging": 24201,
    "ks": 3146,
    "Ġannotations": 25954,
    "interval": 7990,
    "Ġnug": 21522,
    "bellies": 19972,
    "respectable": 19846,
    "atural": 939,
    "Ġtypically": 1532,
    "ian": 1238,
    "Ġcategorization": 12134,
    "piteous": 21032,
    "Ġmotive": 6091,
    "Ġpreserve": 7529,
    "Ġloses": 15871,
    "Ġbills": 17860,
    "gences": 20876,
    "aring": 1475,
    "Ġ": 225,
    "uring": 818,
    "Ġages": 7027,
    "Ġcreation": 6439,
    "entiating": 3437,
    "Ñ": 146,
    "Ġsolution": 9804,
    "Ġcurled": 8225,
    "Ġinjustice": 9190,
    "ivorous": 22084,
    "Ġenvironment": 4209,
    "gment": 4391,
    "glance": 16587,
    "Ġgramm": 8170,
    "ct": 309,
    "narrated": 25621,
    "ascended": 24706,
    "Ġsecretary": 19440,
    "Ġwild": 2600,
    "bone": 5612,
    "code": 15328,
    "Ġeigen": 4881,
    "Ġprisoner": 8672,
    "brow": 15314,
    "Ġsickbed": 24246,
    "Ġenglish": 3612,
    "Ġdub": 13908,
    "Ġgloss": 11956,
    "Ġside": 1387,
    "rous": 3752,
    "bies": 15311,
    "Ġescort": 23505,
    "Ġferguson": 17469,
    "Ġimpetuously": 20370,
    "Ġadvancing": 6879,
    "dearest": 11733,
    "Ġdevoutly": 25832,
    "aside": 10191,
    "Ġquiescent": 26242,
    "actor": 11835,
    "Ġindians": 14409,
    "looking": 4031,
    "conce": 8510,
    "Ġga": 4447,
    "fri": 20853,
    "betrayed": 24640,
    "Ġmile": 7151,
    "Ġconsp": 10224,
    "Ġfastened": 7065,
    "iscient": 17851,
    "Ġappar": 7411,
    "Ġannum": 24203,
    "ulated": 6029,
    "Ġpassing": 4315,
    "Ġgrace": 5374,
    "considerably": 13444,
    "ich": 471,
    "Ġsell": 7825,
    "supplemental": 25874,
    "unquiet": 21878,
    "ogr": 18670,
    "Ġdeeper": 2085,
    "orated": 12588,
    "Ġperseus": 10603,
    "Ġprey": 6415,
    "Ġinjunction": 19616,
    "protection": 19919,
    "Ġunjust": 8483,
    "Ġinseparable": 20687,
    "Ġirrad": 19093,
    "express": 4895,
    "Ġmournfully": 20115,
    "Ġcool": 5735,
    "humiliation": 24018,
    "Ġringle": 18210,
    "Ġcheating": 16364,
    "Ġdep": 748,
    "Ġstaple": 26198,
    "Ġmajor": 13290,
    "gradually": 12912,
    "Ġfashionable": 19543,
    "obed": 14445,
    "lizzy": 6651,
    "dation": 2612,
    "rue": 1124,
    "Ġstoutest": 24628,
    "Ġbir": 17853,
    "Ġdrinks": 24279,
    "pret": 7212,
    "Ġstirs": 14916,
    "Ġstirred": 12215,
    "material": 13128,
    "Ġdoted": 21431,
    "rally": 17651,
    "ible": 1112,
    "Ġbranches": 6776,
    "ources": 2790,
    "twill": 21073,
    "quer": 11678,
    "Ġhier": 1894,
    "gments": 12467,
    "Ġamount": 8511,
    "Ġregal": 16077,
    "macy": 18802,
    "Ġshipmates": 6720,
    "based": 2962,
    "grasp": 16429,
    "mixed": 15393,
    "Ġmind": 1620,
    "asets": 2308,
    "Ġale": 9154,
    "Ġspecially": 11996,
    "romising": 18233,
    "Ġacc": 569,
    "Ġhel": 3785,
    "butt": 15992,
    "Ġtrained": 8502,
    "Ġpractice": 2685,
    "flinging": 20867,
    "Ġjam": 10951,
    "Ġexcursion": 26589,
    "Ġsimilitude": 19209,
    "Ġlessened": 19087,
    "Ġgro": 4397,
    "Ġmoreover": 6163,
    "Ġgriff": 22803,
    "Ġheat": 5453,
    "Ġinsensibility": 17110,
    "Ġlaurel": 20653,
    "recover": 24622,
    "Ġassured": 4373,
    "particulars": 11315,
    "Ġorlop": 22090,
    "battle": 12440,
    "virtue": 20568,
    "brary": 5755,
    "ancholy": 5070,
    "Ġaccompanied": 6780,
    "Ġangelic": 19626,
    "baboon": 25516,
    "perceived": 8858,
    "Ġtimorous": 24225,
    "Ġhatch": 7847,
    "Ġwestmorland": 24390,
    "Ġepis": 19980,
    "Ġindependent": 9015,
    "Ġnotes": 7189,
    "Ġseated": 4541,
    "perhaps": 4120,
    "ê": 171,
    "Ġsuspecting": 14909,
    "Ġwithout": 1119,
    "Ġvisited": 5947,
    "Ġpremium": 23902,
    "Ġstretching": 10014,
    "match": 15389,
    "Ġgrowled": 19282,
    "Ġrashly": 20304,
    "cano": 18839,
    "Ġhedgehog": 10644,
    "Ġseeing": 2887,
    "anim": 6522,
    "Ġblueprints": 13170,
    "race": 11630,
    "Ġdestroy": 5772,
    "Ġarchitectures": 2911,
    "Ġlandless": 23375,
    "Ġtedious": 15266,
    "itics": 13871,
    "Ġbehoo": 19033,
    "Ġcontrol": 13078,
    "Ġfan": 2036,
    "Ġpow": 4637,
    "Ġpositional": 2596,
    "Ġrescales": 5068,
    "Ġconsecrated": 26488,
    "Ġunsettled": 14122,
    "Ġlogger": 11952,
    "laden": 14928,
    "Ġaperture": 26160,
    "imens": 1748,
    "Ġmother": 2069,
    "Ġimpress": 6862,
    "oriental": 23719,
    "Ġslung": 23166,
    "Ġdorm": 4820,
    "ulance": 15764,
    "bitt": 17485,
    "occupations": 24964,
    "Ġkra": 18348,
    "Ġheadway": 18791,
    "Ġspurn": 18309,
    "nature": 5359,
    "Ġbeach": 6541,
    "Ġsires": 21225,
    "ollen": 11298,
    "professional": 20274,
    "ay": 355,
    "extending": 22754,
    "ĠĠĠĠĠĠĠĠĠĠĠĠĠĠĠĠĠĠĠĠĠĠĠĠĠĠ": 13387,
    "Ġcomplain": 6685,
    "Ġbite": 10797,
    "Ġdepression": 21838,
    "eding": 7165,
    "µ": 118,
    "etical": 13957,
    "prot": 6898,
    "alarms": 21502,
    "Ġtist": 21161,
    "tur": 5688,
    "Ġspeaker": 19148,
    "round": 3368,
    "gates": 20871,
    "ibles": 18785,
    "Ġfiled": 15577,
    "Ġjeer": 24121,
    "Ġinclude": 1873,
    "Ġimpulse": 10023,
    "lic": 17587,
    "Ġisles": 8459,
    "Ġsatire": 22894,
    "clopÃ¦dia": 15255,
    "sor": 7352,
    "belated": 24034,
    "ditch": 17528,
    "Ġberg": 24536,
    "sof": 17657,
    "Ġexert": 5722,
    "Ġjudges": 14685,
    "Ġspace": 1542,
    "Ġpoint": 2056,
    "greek": 25404,
    "Ġsavag": 19372,
    "Ġunreasoning": 15843,
    "disappearing": 23502,
    "official": 24914,
    "Ġwithdrawn": 10606,
    "Ġgrove": 12144,
    "Ġheavens": 5050,
    "Ġmeddle": 19490,
    "Ġcomfor": 14053,
    "Ġbern": 17858,
    "yesterday": 10353,
    "Ġduly": 13349,
    "Ġlinguistic": 12423,
    "inkling": 16090,
    "Ġcutting": 4983,
    "tent": 21063,
    "bound": 6220,
    "Ġoften": 1955,
    "Ġintim": 6838,
    "watches": 14946,
    "aloft": 8806,
    "Ġopulence": 23626,
    "iterranean": 15547,
    "Ġbridge": 8348,
    "Ġscreamed": 9523,
    "Ġ**": 4720,
    "Ġjoin": 4853,
    "barrow": 15320,
    "Ġbrand": 16185,
    "cceed": 4141,
    "ids": 21760,
    "herent": 2529,
    "Ġphysiognomical": 25611,
    "Ġunfortunate": 5376,
    "Ġmanip": 8871,
    "ĠâĢľâĢĺ": 8503,
    "Ġhusband": 3618,
    "Ġflu": 3276,
    "Ô": 149,
    "superstitiousness": 25508,
    "earnest": 12397,
    "Ġpell": 21454,
    "reement": 15510,
    "derest": 18314,
    "ining": 3221,
    "Ġgeological": 14532,
    "Ġquestioning": 10464,
    "dial": 20824,
    "Ġbreakfast": 3975,
    "batt": 20777,
    "Ġdisconsol": 18557,
    "Ġorb": 22088,
    "Ġass": 1503,
    "Ġmidst": 7985,
    "Ġarrived": 3746,
    "Ġresumed": 11810,
    "bat": 8071,
    "boom": 18998,
    "Ġscott": 22278,
    "Ġoccup": 3739,
    "Ġindiam": 22950,
    "track": 24314,
    "Ġdeception": 18142,
    "Ġsouthampton": 24307,
    "enorm": 17781,
    "paper": 9136,
    "Ġboxes": 13373,
    "Ġtents": 13817,
    "Ġbutter": 6842,
    "rison": 13778,
    "Ġequ": 1734,
    "Ġapply": 1777,
    "Ġafford": 4366,
    "estab": 14170,
    "Ġfiends": 14827,
    "thanked": 24331,
    "Ġprank": 23216,
    "Ġbidding": 9536,
    "nose": 17611,
    "soo": 18687,
    "Ġflower": 16229,
    "Ġatone": 15800,
    "Ġcapering": 21352,
    "Ġperceive": 6699,
    "Ġformerly": 7493,
    "Ġhabitu": 19527,
    "Ġfins": 9663,
    "Ġdeliciousness": 24124,
    "Ġspiracle": 14149,
    "Ġsuperstitious": 13519,
    "Ġstingy": 25455,
    "Ġblocked": 19221,
    "Ġwhenever": 5166,
    "Ġgarn": 13962,
    "Ġparticulars": 5754,
    "Ġtoss": 10184,
    "Ġwonderful": 4563,
    "Ġfulf": 6772,
    "Ġdeserve": 8308,
    "Ġspotted": 12136,
    "Ġanalog": 12609,
    "bolts": 11420,
    "mount": 9129,
    "Ġincor": 2608,
    "Ġstack": 21730,
    "Ġtype": 2021,
    "shining": 18492,
    "Ġgood": 1003,
    "Ġcause": 2409,
    "Ġincites": 22550,
    "Ġsubord": 22785,
    "Ġcomfortably": 16615,
    "Ġbedrooms": 19968,
    "yours": 7694,
    "heavenly": 20043,
    "Ġdined": 9176,
    "nep": 20985,
    "Ġvertu": 23888,
    "Ġpowdered": 24237,
    "Ġbennets": 9805,
    "rices": 4559,
    "dwelling": 20563,
    "Ġmelt": 21316,
    "fl": 3598,
    "they": 1879,
    "Ġtoll": 7851,
    "semic": 21818,
    "Ġendeav": 2957,
    "Ġmeryton": 4439,
    "ox": 9133,
    "Ġbash": 12583,
    "Ġdelights": 14596,
    "Ġunmingled": 18263,
    "ĠĠĠĠĠĠ": 6414,
    "Ġbast": 21377,
    "Ġprodigious": 8056,
    "middle": 11310,
    "Ġleaky": 2346,
    "what": 642,
    "wered": 2692,
    "Ġcomparing": 14268,
    "Ġinjurious": 24270,
    "igantic": 5539,
    "farmer": 25899,
    "Ġoverfitting": 1540,
    "Ġplantation": 11423,
    "Ġtransplanted": 22438,
    "mas": 5212,
    "uzz": 4524,
    "ice": 588,
    "tomorrow": 25914,
    "Ġgrapple": 25811,
    "Ġwomanly": 23550,
    "Ġclasped": 17206,
    "Ġin": 291,
    "Ġmainmast": 9778,
    "Ġwithdrew": 9695,
    "Ġlimping": 23545,
    "Ġteacup": 16211,
    "Ġinput": 609,
    "word": 2490,
    "irably": 13294,
    "Ġcocoa": 25482,
    "Ġpequod": 2320,
    "grie": 12468,
    "breat": 10077,
    "Ġunrem": 18244,
    "adequately": 20318,
    "Ġtrinity": 22343,
    "securing": 19812,
    "Ġcaring": 23089,
    "dun": 17516,
    "Ġelevate": 24502,
    "Ġmarine": 23030,
    "verted": 10217,
    "Ġcetology": 10008,
    "advance": 12154,
    "Ġsiamese": 20481,
    "Ġpirate": 14996,
    "ore": 418,
    "Ġbequest": 21750,
    "Ġspitzbergen": 15286,
    "form": 496,
    "Ġabstained": 25231,
    "W": 59,
    "Ġresisted": 22538,
    "consequential": 26249,
    "umberland": 16837,
    "Ġcatholic": 20680,
    "Ġalph": 9694,
    "Ġbanners": 24858,
    "Ġdrunken": 12048,
    "Ġruss": 18719,
    "tes": 11528,
    "Ġintrig": 21987,
    "Ġmichigan": 26427,
    "maid": 8552,
    "capital": 15087,
    "Ġslipped": 6492,
    "oted": 4597,
    "Ġmiss": 1230,
    "organic": 25946,
    "do": 1996,
    "Ġpolynes": 16080,
    "aph": 10954,
    "lings": 8745,
    "Ġchrist": 4072,
    "Ġautonom": 10415,
    "holder": 13281,
    "Ġsyrian": 18353,
    "Ġtricks": 13483,
    "Ġgreyish": 24208,
    "Ġlees": 18075,
    "Ġboard": 3383,
    "Ġsympathies": 14860,
    "hertfordshire": 10936,
    "Ġpolar": 9410,
    "whispering": 26103,
    "Ġimmemorial": 10510,
    "Ġsquire": 16180,
    "Ġstaff": 14005,
    "Ġexecutioner": 12269,
    "Ĳ": 243,
    "waiting": 12218,
    "mbles": 23086,
    "gressive": 2755,
    "adequate": 15202,
    "Ġpalp": 11251,
    "Ġlives": 4825,
    "lished": 8382,
    "itled": 7577,
    "progra": 9393,
    "precip": 14664,
    "Ġfeeling": 3086,
    "Ġgowns": 25359,
    ",âĢĻâĢĶ": 23526,
    "possibly": 10543,
    "Ġhadn": 9718,
    "Ġadmit": 7710,
    "Ġdrunk": 9423,
    "skelter": 24490,
    "Ġconfid": 7686,
    "Ġpert": 22392,
    "bottle": 20144,
    "Ġaim": 10145,
    "Ġloun": 7166,
    "Ġquench": 22416,
    "Ġlapse": 17120,
    "Ġahoy": 12182,
    "engineer": 23145,
    "Ġbirch": 26174,
    "postp": 24634,
    "k": 79,
    "Ġsoftness": 18917,
    "Ġlist": 2365,
    "suggest": 20374,
    "stand": 630,
    "Ġinfinity": 23278,
    "Ġbru": 13894,
    "so": 890,
    "Ġmonths": 3454,
    "lemag": 21370,
    "Ġnamed": 6139,
    "Ġcommunicates": 24547,
    "Ġviv": 6156,
    "barrel": 17060,
    "Ġfavour": 3640,
    "she": 1397,
    "fow": 20852,
    "Ġconviction": 6326,
    "Ġleathern": 15050,
    "portuguese": 25413,
    "Ġfirst": 937,
    "Ġinhuman": 13928,
    "Ġstock": 7455,
    "Ġdesigned": 7740,
    "Ġsurmount": 19999,
    "Ġchall": 10944,
    "Ġharshly": 25249,
    "Ġfeedback": 23431,
    "Ġunexplored": 26518,
    "Ġgrandeur": 8627,
    "arrangement": 17414,
    "Ġcav": 13879,
    "Ġmist": 2878,
    "provided": 13636,
    "Ġindul": 5856,
    "`": 68,
    "possession": 12219,
    "Ġquadru": 16002,
    "Ġtelescopes": 25690,
    "Ġwillingly": 8884,
    "Ġmiseries": 10344,
    "wearing": 22684,
    "Ġfairy": 14627,
    "achusetts": 20709,
    "pitching": 24073,
    "Ġhypocr": 19470,
    "distraction": 24200,
    "caps": 20806,
    "Ġunluck": 8484,
    "Ġmonogram": 26574,
    "Ġjoosy": 23630,
    "unaffected": 21880,
    "iring": 1706,
    "Ġwatery": 6296,
    "Ġtwit": 12926,
    "Ġnoted": 15828,
    "Ġphenomena": 21481,
    "Ġhartshorn": 26180,
    "Ġmoved": 4838,
    "misrepresented": 24211,
    "Ġdiminished": 16665,
    "Ġdusk": 12325,
    "Ġsubstantiated": 25875,
    "Ġitems": 9691,
    "Ġgene": 15669,
    "Ġterribly": 10425,
    "Ġmemb": 14029,
    "muttered": 13758,
    "Ġbaleen": 10036,
    "Ġturnpike": 23025,
    "Ġpays": 13295,
    "called": 6292,
    "oce": 10714,
    "avings": 12021,
    "execut": 13654,
    "Ġsyllables": 25298,
    "horrors": 20540,
    "Ġpurporting": 19181,
    "Ġflamingo": 15099,
    "avating": 18569,
    "posterity": 25488,
    ".âĢĻ": 1720,
    "Ġparting": 9783,
    "Ġdolphin": 17311,
    "Ġdrawled": 23986,
    "Ġeffusions": 18529,
    "contains": 16028,
    "uced": 13799,
    "Ġfled": 6670,
    "law": 6115,
    "Ġarve": 15891,
    "Ġju": 10286,
    "ivened": 22962,
    "tree": 11533,
    "Ġintermediate": 18591,
    "allingly": 22196,
    "Ġdizzy": 21430,
    "calling": 12447,
    "im": 327,
    "Ġcounsel": 13614,
    "Ġpoetry": 15079,
    "Ġwhereas": 3855,
    "objects": 13469,
    "Ġintricate": 15136,
    "Ġczar": 12571,
    "Ġconsented": 11295,
    "ild": 1152,
    "Ġbeings": 2492,
    "anity": 9654,
    "meas": 7434,
    "Ġgladly": 14681,
    "Ġbashful": 20418,
    "Ġaccumulating": 2725,
    "Ġseconds": 16396,
    "Ġpreside": 18365,
    "Ġfantastic": 10058,
    "Ġmemo": 18119,
    "dee": 11731,
    "sought": 15426,
    "pour": 17630,
    "Ġvig": 5460,
    "Ġsig": 867,
    "Ġyoke": 18095,
    "Ġconfessor": 24016,
    "Ġpounds": 5368,
    "Ġtrucks": 19511,
    "Ġrat": 4354,
    "Ġfearfully": 23511,
    "commotion": 24913,
    "Ġdecision": 2678,
    "ll": 1135,
    "anzas": 17840,
    "Ġmyst": 4049,
    "Ġfilm": 23922,
    "Ġexacted": 23602,
    "complexion": 14360,
    "Ġbacked": 12921,
    "Ġorders": 5340,
    "chastic": 2332,
    "lads": 20954,
    "Ġdiet": 13909,
    "abri": 6682,
    "Ġyours": 4122,
    "Ġforb": 11662,
    "Ġdemoniac": 15063,
    "Ġhomage": 12353,
    "illings": 14142,
    "steel": 8297,
    "oglyph": 11016,
    "Ġunfeeling": 14118,
    "Ġresults": 7308,
    "Ġdat": 498,
    "Ġaccumulates": 2892,
    "lives": 12483,
    "Ġwealth": 7620,
    "Ġbarrowful": 25595,
    "come": 2378,
    "Ġserpent": 6737,
    "Ġisa": 14024,
    "Ġevalu": 3131,
    "Ġstillness": 12989,
    "Ġwhir": 6393,
    "tried": 13793,
    "Ġchoicest": 24220,
    "Ġdavy": 25951,
    "entreat": 17975,
    "anesc": 21358,
    "mor": 4215,
    "Ġinfluences": 14864,
    "illed": 2623,
    "deduction": 23556,
    "Ġreven": 18028,
    "phant": 6287,
    "enhall": 13849,
    "ges": 2875,
    "Ġimperilled": 19577,
    "wanderer": 25423,
    "Ġemper": 9860,
    "Ġsalmon": 24058,
    "Ġsensibility": 14514,
    "Ġtarts": 10753,
    "Ġtrampling": 25492,
    "Ġaltern": 7394,
    "Ġminds": 6303,
    "Ġimpenit": 22384,
    "cellar": 20276,
    "Ġharriet": 24572,
    "Ġpraises": 16730,
    "Ġcharacteristics": 8609,
    "Ġmodes": 22209,
    "humoredly": 26324,
    "pulling": 25146,
    "subject": 6631,
    "rifice": 12501,
    "years": 6883,
    "vate": 21108,
    "Ġordinarily": 20648,
    "ucy": 15443,
    "Ġposit": 1304,
    "Ġirresolution": 24915,
    "Ġchains": 8250,
    "Ġsherry": 19449,
    "Ġclock": 9532,
    "Ġfervour": 19725,
    "superstitious": 17280,
    "Ġgourmand": 26466,
    "Ġmaintained": 12932,
    "Ġremain": 1872,
    "Ġtunes": 24619,
    "hearty": 14833,
    "Ġexterm": 21826,
    "Ġsequence": 1978,
    "Ġrum": 5923,
    "ger": 1104,
    "mises": 20977,
    "ark": 849,
    "Ġfrigates": 25707,
    "earliest": 20118,
    "nelson": 25620,
    "Ġrav": 14306,
    "Ġreconciled": 13586,
    "clever": 20813,
    "Ġelix": 22641,
    "Ġsmells": 8891,
    "plac": 15814,
    "ipl": 20917,
    "afford": 14654,
    "Ġcorrect": 2433,
    "loa": 18536,
    "sleep": 6511,
    "Ġsupplying": 19797,
    "depths": 25663,
    "iosity": 2304,
    "kinder": 24845,
    "allers": 22194,
    "Ġinterruptions": 24186,
    "Ġmonster": 3793,
    "Ġantarctic": 19551,
    "bodily": 17314,
    "Ġspoilt": 24807,
    "Ġyouth": 4262,
    "su": 800,
    "Ġlabyrin": 13103,
    "subjects": 19875,
    "strip": 19829,
    "wheeler": 16187,
    "Ġarabian": 9089,
    "Ġjib": 14193,
    "Ġay": 15490,
    "Ġvine": 8471,
    "istry": 22106,
    "Ġbounds": 9917,
    "Ġcontemplative": 19892,
    "Ġuttermost": 19486,
    "Ġenvironments": 24125,
    "burning": 25078,
    "sue": 2078,
    "whiskers": 12309,
    "ulity": 10886,
    "Ġtrooped": 24899,
    "resistible": 10643,
    "Ġlizzie": 26462,
    "Ġbunger": 9995,
    "Ġtime": 689,
    "Ġbanqu": 12585,
    "Ġgoverning": 2796,
    "olen": 9699,
    "Ġorph": 9716,
    "happy": 4425,
    "Ġafforded": 8028,
    "Ġbosom": 6939,
    "Ġembarr": 7446,
    "Ġsupreme": 13606,
    "lowering": 16029,
    "Ġlens": 8437,
    "Ġfet": 5807,
    "Ġempires": 19075,
    "Ġgrimes": 11034,
    "Ġpike": 12620,
    "Ġcomplete": 4383,
    "Ġparallel": 1413,
    "lord": 3865,
    "vel": 2385,
    "asible": 21539,
    "Ġall": 421,
    "Ġtribes": 20479,
    "Ġencoura": 1368,
    "Ġinformation": 1048,
    "sequent": 6831,
    "waving": 21130,
    "mr": 1900,
    "imitably": 21708,
    "Ġled": 3522,
    "Ġforbade": 15213,
    "eers": 20842,
    "Ġtechni": 1747,
    "wonders": 17143,
    "itement": 7835,
    "computer": 1960,
    "Ġlighting": 13081,
    "Ġmo": 628,
    "Ġexcessive": 3892,
    "Ġmass": 3779,
    "pike": 11514,
    "Ġpre": 507,
    "braid": 17494,
    "Ġbashee": 19848,
    "shone": 22450,
    "Ġsavory": 23874,
    "Ġsinister": 8568,
    "Ġthinner": 24182,
    "Ġinsisted": 12044,
    "occur": 19574,
    "nett": 16219,
    "Ġhatty": 19264,
    "Ġparac": 12792,
    "Ġballasted": 23977,
    "Ġhails": 21947,
    "Ġbulge": 23855,
    "Ġasse": 8159,
    "Ġsitu": 3494,
    "apparent": 11041,
    "Ġexclude": 19043,
    "Ġclimes": 12838,
    "unbounded": 21882,
    "Ġflaw": 23009,
    "Ġdismay": 11807,
    "Ġqueer": 4479,
    "Ġconsequence": 5542,
    "Ġlect": 9222,
    "Ġsashes": 21224,
    "Ġgossip": 18470,
    "Ġcrav": 19172,
    "am": 367,
    "Ġducking": 17146,
    "successively": 24779,
    "Ġmyself": 1453,
    "hurst": 19878,
    "march": 13754,
    "Ġhoriz": 4725,
    "Ġfattened": 25949,
    "atching": 8201,
    "Ġvigorously": 11299,
    "Ġholds": 7974,
    "complied": 19912,
    "onely": 6516,
    "Ġabutted": 22272,
    "Ġhappiest": 11880,
    "Ġcrater": 16438,
    "black": 6768,
    "Ġsharks": 4498,
    "stir": 12670,
    "Ġnibbling": 17384,
    "unders": 13309,
    "Ġdirection": 1792,
    "Ġferrule": 24500,
    "Ġrailway": 15020,
    "Ġsalisbury": 24060,
    "Ġbirds": 5873,
    "common": 4126,
    "erranean": 9333,
    "Ġoccupation": 9930,
    "ientiously": 21938,
    "wam": 10135,
    "apparatus": 26563,
    "Ġtender": 5753,
    "Ġchuckled": 10647,
    "Ġvirtues": 9935,
    "Ġcasc": 15553,
    "Ġdefy": 11895,
    "Ġluckily": 16798,
    "Ġonto": 14028,
    "Ġremarkably": 7702,
    ".,": 5987,
    "Ġbroods": 23100,
    "gunw": 17220,
    "Ġinhabit": 5782,
    "Ġfinal": 5400,
    "proceeded": 25190,
    "there": 1425,
    "Ġcharacter": 2795,
    "Ġceiling": 7996,
    "Ġchained": 16388,
    "oles": 21004,
    "Ġbeneficial": 23929,
    "msgate": 18412,
    "Ġretirement": 25378,
    "Ġfiendish": 13326,
    "Ġstrainings": 24627,
    "Ġdownward": 10331,
    "erable": 1916,
    "token": 21081,
    "Ġmonsters": 11074,
    "liament": 16216,
    "Ġmaw": 15537,
    "Ġfervent": 14895,
    "Ġ0": 1904,
    "Ġseized": 4832,
    "Ġgang": 9207,
    "Ġshouts": 19536,
    "Ġsnoo": 21227,
    "erred": 6376,
    "ipp": 10102,
    "mes": 1197,
    "Ġrepaired": 13106,
    "roc": 9674,
    "Ġfrontispiece": 23911,
    "exception": 9975,
    "Ġmiser": 18701,
    "Ġethere": 23948,
    "Ġfact": 1728,
    "Ġunfolded": 10638,
    "Ġbraz": 19356,
    "lesome": 12962,
    "Ġhunt": 6183,
    "Ġreminded": 9998,
    "Ġowner": 8921,
    "inisc": 15487,
    "Ġtrampled": 20327,
    "suffer": 24333,
    "apolog": 22330,
    "painting": 17046,
    "ob": 1420,
    "resides": 23668,
    "striving": 24669,
    "ch": 321,
    "Ġalmost": 1654,
    "Ġpurest": 14938,
    "Ġfails": 13312,
    "Ġwhen": 514,
    "carried": 16711,
    "linen": 25257,
    "congreg": 25398,
    "Ġsuperiors": 23454,
    "Ġexpatiate": 18624,
    "Ġtattooings": 24900,
    "astes": 11737,
    "extent": 22752,
    "Ġnuptial": 25782,
    "tland": 21072,
    "Ġunrecord": 16621,
    "grand": 7969,
    "Ġlowered": 6735,
    "atherley": 7220,
    "ickory": 22666,
    "Ġrand": 1584,
    "pat": 10116,
    "pshaw": 21027,
    "Ġintermix": 22576,
    "cabinet": 25077,
    "Ġpolite": 9881,
    "auley": 22618,
    "Ġbreezes": 14868,
    "Ġcontrived": 10303,
    "Ġemotions": 8969,
    "reck": 9636,
    "Ġextort": 22717,
    "Ġaudacity": 19881,
    "ded": 2422,
    "Ġupper": 5090,
    "Ġwaist": 6899,
    "remed": 18952,
    "onse": 21248,
    "clock": 3933,
    "Ġstrangely": 5677,
    "Ġdistrusted": 13541,
    "Ġstops": 3166,
    "conced": 22467,
    "lady": 4434,
    "henomena": 20271,
    "ribes": 23362,
    "semicirc": 26491,
    "esteemed": 26009,
    "illes": 12691,
    "canoes": 16228,
    "Ġrenewal": 12232,
    "voice": 7816,
    "crowd": 25254,
    "carb": 20809,
    "Ġcaution": 11346,
    "bs": 3750,
    "distinguished": 10526,
    "Ġinconven": 7586,
    "Ġstaving": 21734,
    "Ġshaster": 21995,
    "learning": 2533,
    "Ġglaciers": 20172,
    "Ġlisten": 4673,
    "Ġthrown": 4639,
    "Ġinhospit": 25452,
    "Ġcomplying": 18587,
    "Ġchamp": 18381,
    "Ġcurt": 18843,
    "illuminated": 17452,
    "ashed": 3783,
    "Ġgodfrey": 15292,
    "Ġallows": 3233,
    "Ġclothe": 4711,
    "Ġamph": 18510,
    "Ġlights": 8960,
    "thern": 4953,
    "doubted": 17526,
    "ship": 1392,
    "ouncement": 11743,
    "Ġpleases": 16296,
    "Ġsuperficial": 23455,
    "Ġinterpret": 5490,
    "Ġasi": 12729,
    "amid": 12721,
    "Ġunshored": 25813,
    "Ġbreast": 8968,
    "Ġelevated": 7318,
    "Ġsuccessfully": 19427,
    "atively": 2698,
    "Ġwaterproof": 19088,
    "eastern": 17533,
    "Ġreading": 5114,
    "Ġbitt": 10796,
    "te": 996,
    "thoughtfully": 24041,
    "ruit": 22178,
    "urning": 12913,
    "liness": 8746,
    "Ġcopestone": 24936,
    "imson": 12686,
    "Ġgreatly": 5849,
    "Ġfirmest": 16664,
    "Ġharp": 17923,
    "art": 576,
    "Ġvestige": 20061,
    "Ġmode": 8497,
    "Ġjoking": 12834,
    "sme": 17658,
    "dri": 5887,
    "Ġcrush": 9421,
    "Ġarches": 14160,
    "ssian": 3399,
    "Ġsaving": 15887,
    "learn": 2352,
    "breath": 15161,
    "nin": 17608,
    "Ġvanity": 7045,
    "twilight": 23701,
    "sullen": 17669,
    "mbling": 3346,
    "¬": 110,
    "bted": 7793,
    "soldiers": 25911,
    "Ġerred": 21155,
    "Ġdisappears": 18560,
    "presume": 25670,
    "Ġcalms": 23038,
    "morrow": 4572,
    "ham": 1701,
    "Ġcorrupt": 11921,
    "thorough": 21982,
    "asable": 21538,
    "Ġpunctually": 17138,
    "Ġsufferer": 16257,
    "Ġfaith": 5350,
    "voices": 21116,
    "Ġwherein": 14292,
    "Ġsneer": 13446,
    "Ġprolong": 6832,
    "utility": 21584,
    "Ġdutch": 6327,
    "rified": 15418,
    "cats": 17512,
    "Ġmud": 11572,
    "Ġpensive": 21473,
    "spell": 22730,
    "Ġoct": 10158,
    "fever": 22499,
    "observation": 17269,
    "Ġstem": 15716,
    "turkish": 24533,
    "Ġdip": 13906,
    "Ġdeclaration": 16636,
    "Ġfalsely": 20580,
    "Ġredundant": 16550,
    "ishes": 6523,
    "prevailed": 17344,
    "Ġlists": 11166,
    "Ġparson": 6687,
    "endeavouring": 15015,
    "bal": 2156,
    "Ġdecapitated": 20614,
    "Ġreminding": 19796,
    "Ġtransferred": 16457,
    "^": 66,
    "lac": 17589,
    "ĠĠĠĠ": 460,
    "Ġhurry": 4913,
    "Ġinflex": 20633,
    "Ġtag": 15467,
    "aw": 1448,
    "Ġunceasingly": 20357,
    "Ġped": 6817,
    "Ġhog": 13923,
    "apprehens": 17405,
    "Ġcandelab": 23846,
    "Ġtinted": 13821,
    "Ġugl": 12679,
    "Ġreneg": 21672,
    "Ġperception": 9749,
    "Ġphrases": 2798,
    "jaws": 20931,
    "Ġdock": 15928,
    "isc": 6239,
    "Ġextravag": 11254,
    "Ġ52": 24321,
    "Ġrossum": 3015,
    "Ġweal": 21917,
    "Ġzoned": 22818,
    "Ġfortunate": 6214,
    "stretch": 13980,
    "Ġspat": 2667,
    "Ġaddressing": 11164,
    "Ġroyal": 5602,
    "Ġbillow": 14777,
    "Ġcough": 11580,
    "Ġjup": 15950,
    "lances": 15382,
    "bres": 11471,
    "Ġsuspend": 14608,
    "mushroom": 26395,
    "Ġcosy": 13129,
    ":": 30,
    "ensities": 22545,
    "sterns": 23364,
    "Ġself": 1778,
    "Ġfunction": 583,
    "Ġjustify": 11072,
    "Ġbridle": 24681,
    "banked": 25337,
    "impressions": 20697,
    "Ġservants": 6610,
    "Ġunderwent": 23236,
    "cri": 17505,
    "Ġunconsciously": 10004,
    "retion": 9361,
    "artic": 14220,
    "Ġ199": 3011,
    "ureau": 10226,
    "solitary": 14504,
    "greater": 13250,
    "meditated": 19069,
    "Ġluxurious": 17310,
    "Ġeucl": 24709,
    "ittingly": 18803,
    "Ġnoting": 18221,
    "Ġadorned": 15246,
    "Ġsubterr": 10348,
    "Ġerecting": 24652,
    "Ġacre": 22678,
    "Ġunstructured": 3004,
    "Ġdrag": 6184,
    "Ġdisasters": 16052,
    "Ġescaping": 13133,
    "Ġtrance": 12836,
    "Ġilliterate": 26594,
    "Ġmagnificent": 9841,
    "Ġdams": 16455,
    "Ġbewit": 15725,
    "Ġmisled": 22758,
    "Ġaccompan": 5513,
    "Ġimpertinent": 9077,
    "Ġminority": 18752,
    "Ġaltering": 18102,
    "Ġhowled": 12853,
    "od": 350,
    "ushes": 22288,
    "blubber": 15235,
    "Ġremove": 7499,
    "command": 6576,
    "Ġnecks": 18183,
    "Ġpreparing": 8647,
    "attentive": 17189,
    "alarm": 15624,
    "Ġdishes": 16048,
    "practised": 20246,
    "anyth": 5438,
    "Ġpeep": 6870,
    "bantering": 25253,
    "Ġstation": 5297,
    "ete": 9203,
    "low": 656,
    "user": 5105,
    "Ġeaves": 15673,
    "Ġfrolic": 23921,
    "Ġsluggish": 25890,
    "compan": 7301,
    "Ġfavourites": 16644,
    "Ġpl": 740,
    "buttoned": 13631,
    "Ġphantoms": 13485,
    "Ġdollars": 11455,
    "rust": 2580,
    "Ġreconsidered": 21670,
    "itative": 13869,
    "Ġeag": 2969,
    "Ġbiographical": 22765,
    "Ġaccompl": 5167,
    "Ġrevenge": 5452,
    "Ġgreeted": 23211,
    "pump": 21016,
    "Ġdebar": 24271,
    "club": 26380,
    "ik": 17571,
    "Ġcarbuncle": 14444,
    "lounged": 26133,
    "Ġenquired": 21937,
    "Ġmourn": 8703,
    "Ġmultiplied": 23689,
    "atiable": 17774,
    "leads": 21368,
    "Ġnarr": 5085,
    "Ġcash": 9652,
    "housekeeper": 24099,
    "Ġexempt": 21825,
    "Ġow": 8407,
    "Ġcard": 7363,
    "Ġraised": 4660,
    "Ġvideos": 13605,
    "Ġguard": 6178,
    "Ġopinion": 3143,
    "Ġpursue": 6314,
    "itchen": 7787,
    "Ġplaything": 19236,
    "Ġlaughed": 5059,
    "Ġecstasy": 11629,
    "fall": 5135,
    "quake": 11679,
    "umbling": 6758,
    "Ġcreditable": 19621,
    "Ġamateur": 22482,
    "inking": 6709,
    "aps": 1229,
    "Ġtenement": 23547,
    "Ġstudents": 23210,
    "Ġenjoy": 3760,
    "Ġstrait": 23748,
    "captain": 3953,
    "Ġnames": 4533,
    "dipped": 20836,
    "Ġwoeful": 19618,
    "Ġapologies": 25196,
    "furnished": 20240,
    "unwittingly": 25801,
    "dozen": 23374,
    "thomas": 18219,
    "shadows": 25479,
    "iance": 5279,
    "Ġcamberwell": 25350,
    "nowledge": 10289,
    "Ġwasting": 12725,
    "Ġstiffest": 24829,
    "calm": 8934,
    "Ġrestless": 10413,
    "Ġmanaging": 22322,
    "Ġtongs": 9960,
    "description": 11094,
    "Ġrebell": 21666,
    "forming": 15916,
    "Ġcroquet": 9961,
    "reflected": 24733,
    "Ġwails": 21295,
    "Ġfuel": 13903,
    "Ġbenefits": 4287,
    "Ġsleeve": 20139,
    "Ġcarcase": 14443,
    "Ġscaled": 2107,
    "Ġeduc": 4784,
    "uck": 1234,
    "Ġtaffrail": 15475,
    "steak": 14707,
    "Ġpained": 19166,
    "Ġvisiting": 10356,
    "Ġchuck": 8501,
    "Ġpup": 12616,
    "hawk": 7121,
    "Ġpapa": 10656,
    "Ġsallies": 21228,
    "Ġrequesting": 24632,
    "using": 5468,
    "money": 8749,
    "Ġserving": 14485,
    "Ġprow": 6684,
    "olent": 8154,
    "Ġnumbers": 2890,
    "Ġmanoir": 22328,
    "allows": 15905,
    "Ġsympathise": 16794,
    "Ġbenevolence": 9526,
    "flu": 9117,
    "Ġbiases": 2398,
    "Ġunhallowed": 17180,
    "slackened": 26094,
    "Ġforgetfulness": 14606,
    "Ġloomings": 24949,
    "culiar": 2823,
    "activity": 22628,
    "ceptible": 10956,
    "Ġparliament": 18302,
    "Ġday": 957,
    "sig": 2876,
    "ivory": 10270,
    "lucas": 15150,
    "trimmed": 23946,
    "Ġlottery": 19887,
    "Ġshan": 9248,
    "Ġexhaustion": 14960,
    "wives": 15454,
    "Ġvagu": 13588,
    "omn": 15679,
    "exclaimed": 11788,
    "int": 1198,
    "_âĢĶâĢĻâĢĿ": 25741,
    "Ġdestiny": 8983,
    "Ġmay": 924,
    "beauty": 20102,
    "unned": 21875,
    "Ġtides": 13820,
    "Ġfort": 2578,
    "nursery": 26399,
    "Ġaberde": 22274,
    "ny": 4013,
    "Ġtotal": 4993,
    "savagery": 25023,
    "aming": 5828,
    "ric": 1377,
    "Ġ>": 21150,
    "Ġconvention": 25546,
    "Ġnowadays": 18546,
    "Ġdiscrimin": 2547,
    "Ġborders": 15569,
    "Ġexalted": 12410,
    "solid": 16375,
    "ulum": 21860,
    "orious": 6007,
    "Ġbulb": 23853,
    "eluded": 21572,
    "speps": 14335,
    "Ġtusked": 25426,
    "ositories": 22261,
    "Ġsquee": 7928,
    "comfortable": 7320,
    "Ġcathed": 14548,
    "Ġwhipcord": 20093,
    "Ġmedical": 9463,
    "sworn": 24256,
    "hills": 13735,
    "Ġappal": 18359,
    "ocris": 23707,
    "Ġepidemic": 20694,
    "cen": 17502,
    "Ġdepos": 11008,
    "isition": 11585,
    "Ġcrow": 3805,
    "Ġteeth": 4165,
    "Ġjabbering": 22300,
    "Ġwines": 21286,
    "ilty": 6394,
    "urch": 3992,
    "Ġscore": 9737,
    "executed": 25739,
    "hint": 12473,
    "Ġstigma": 25791,
    "Ġdangerously": 23934,
    "Ġjourneys": 19473,
    "Ġeternally": 11369,
    "Ġremem": 4313,
    "Ġregularizer": 2337,
    "Ġbingley": 1675,
    "breast": 11246,
    "Ġirreparable": 19997,
    "ductive": 23933,
    "Ġinspector": 6498,
    "Ġbuck": 7157,
    "Ġdriver": 16473,
    "Ġcoding": 8115,
    "Ġfrightful": 7735,
    "Ġhumph": 22880,
    "Ġmargin": 11919,
    "Ġmuscles": 12086,
    "teous": 16173,
    "hear": 10146,
    "Ġdepths": 4326,
    "Ġinjunctions": 24269,
    "Ġtemper": 955,
    "dening": 22777,
    "squall": 13521,
    "Ġger": 21588,
    "practical": 17221,
    "Ġimitated": 18323,
    "Ġfurthermore": 1167,
    "ampled": 18884,
    "Ġattaining": 15801,
    "hammered": 19003,
    "Ġadopt": 10631,
    "Ġunexpectedly": 19908,
    "chest": 11208,
    "Ġreceived": 2954,
    "Ġpythag": 26448,
    "Ġauger": 21202,
    "well": 1690,
    "pute": 8844,
    "unhappy": 10237,
    "Ġconfirmed": 11139,
    "Ġmock": 3690,
    "Ġrussian": 14349,
    "dinner": 11406,
    "Ġsenate": 25214,
    "Ġegress": 21620,
    "Ġ67": 19659,
    "anks": 3918,
    "Ġhanover": 20584,
    "Ġgovernesses": 25127,
    "Í": 142,
    "securer": 25602,
    "ign": 1702,
    "enged": 23144,
    "Ġwith": 349,
    "Ġirreduc": 5491,
    ".âĢĶ": 4249,
    "Ġlost": 2637,
    "Ġcharts": 12824,
    "Ġbanquet": 15239,
    "Ġsperma": 19050,
    "ve": 323,
    "Ġhissing": 15787,
    "Ġbenignity": 18781,
    "Ġaromatic": 25925,
    "Ġplunder": 22599,
    "he": 264,
    "Ġlay": 585,
    "ute": 4642,
    "Ġattempt": 3485,
    "Ġperusal": 14224,
    "Ġunacquainted": 12773,
    "Ġpretensions": 16557,
    "knew": 9126,
    "Ġcomprehended": 11294,
    "Ġpetulance": 24227,
    "Ġtasselled": 25921,
    "Ġunion": 6839,
    "Ġoutset": 15953,
    "Ġthy": 2514,
    "pol": 5892,
    "barr": 15319,
    "Ġsly": 9632,
    "Ġnon": 1625,
    "lleg": 20950,
    "ipping": 2205,
    "Ġreusability": 13557,
    "Ġconfeder": 25708,
    "Ġvoc": 4452,
    "Ġheels": 10850,
    "Ġpray": 3900,
    "bethink": 25744,
    "Ġdispleasure": 16050,
    "ject": 875,
    "more": 1033,
    "Ġfrenchman": 11283,
    "Ġdrifting": 19278,
    "Ġventing": 19492,
    "izarre": 17388,
    "ounce": 6557,
    "Ġselfish": 7272,
    "according": 12026,
    "vengeance": 13355,
    "Ġbase": 5013,
    "Ġdirty": 9178,
    "relu": 17759,
    "Ġuncouth": 14549,
    "Ġdeposited": 25484,
    "Ġtwinkle": 12321,
    "Ġarsacidean": 20363,
    "Ġelastic": 4362,
    "Ġmusical": 23891,
    "offered": 14517,
    "ikes": 8086,
    "Ġadmitted": 8986,
    "Ġphilipses": 24452,
    "Ġviews": 7290,
    "data": 2058,
    "Ġchronic": 9928,
    "Ġshuddering": 9051,
    "Ġur": 5540,
    "Ġsallow": 12533,
    "didn": 9006,
    "Ġcuts": 14607,
    "Ġneighbourhood": 5126,
    "Ġtit": 8398,
    "Ġeach": 892,
    "Ġswinging": 7449,
    "insist": 23062,
    "Ġarrant": 23293,
    "Ġcaulking": 20292,
    "opening": 10312,
    "Ġolfactories": 26171,
    "Ġbenjamin": 26567,
    "conjectures": 25180,
    "Ġintensity": 10015,
    "judgment": 16753,
    "Ġflowed": 10371,
    "owards": 4594,
    "Ġmartyr": 26360,
    "Ġpromising": 10399,
    "Ġinflexibly": 26370,
    "Ġalarming": 14778,
    "endeavoured": 12278,
    "allowing": 24358,
    "idean": 14266,
    "Ġdi": 6525,
    "Ġishmael": 7395,
    "ifer": 11682,
    "third": 8167,
    "Ġweltering": 19584,
    "ched": 1545,
    "Ġinclusive": 24163,
    "Ġaffidav": 18788,
    "sembled": 7263,
    "Ġlinear": 3432,
    "ook": 21003,
    "speak": 5504,
    "Ġineffectual": 17383,
    "sudden": 5315,
    "Ġtransports": 24277,
    "Ġdescried": 7918,
    "Ġheadsmen": 14731,
    "state": 13978,
    "Ġpushing": 10819,
    "Ġpalms": 8643,
    "otic": 15742,
    "Ġgive": 1712,
    "pha": 22766,
    "Ġagrees": 22513,
    "broke": 14775,
    "Ġthou": 1810,
    "approach": 24833,
    "Ġdetestable": 15097,
    "Ö": 151,
    "Ġbells": 19600,
    "Ġopera": 23424,
    "hereabouts": 23605,
    "Ġseap": 15815,
    "Ġornam": 15862,
    "Ġenclosure": 20622,
    "Ġplaus": 22596,
    "Ġmainland": 22646,
    "Ġinexhaustible": 16981,
    "Ġplease": 4722,
    "Ġrelates": 12978,
    "Ġmer": 2931,
    "fields": 14653,
    "Ġwears": 10240,
    "ap": 547,
    "Ġintervened": 25481,
    "Ġcommotion": 9779,
    "Õ": 150,
    "Ġrabbit": 4289,
    "oft": 3590,
    "Ġalchemists": 26487,
    "Ġaugmentation": 20114,
    "Ġwigwam": 11428,
    "access": 11180,
    "Ġinside": 5448,
    "Ġubiqu": 18046,
    "Ġabsor": 8504,
    "Ġskull": 6288,
    "Ġinitialized": 3948,
    "Ġeffusion": 22497,
    "Ġreeling": 18032,
    "Ġseeth": 21957,
    "ways": 1441,
    "seeing": 7078,
    "Ġmortals": 9915,
    "Ġtrod": 15026,
    "Ġopened": 3511,
    "Ġbade": 9171,
    "Ġsoaring": 22077,
    "Ġstam": 18065,
    "aset": 10832,
    "gold": 9120,
    "Ġserenely": 13506,
    "wra": 11541,
    "Ġtantalizing": 20412,
    "ediction": 17944,
    "Ġfireboard": 23531,
    "Ġaddu": 22102,
    "Ġcondensed": 24049,
    "served": 5043,
    "piece": 6655,
    "Ġexpressly": 16453,
    "Ġstup": 14004,
    "Ġhearses": 20058,
    "Ġmamma": 10047,
    "Ġnosegay": 24192,
    "Ġstrong": 1787,
    "slouched": 24557,
    "Ġlatitudes": 9495,
    "Ġdedu": 5585,
    "Ġgiver": 21602,
    "ü": 189,
    "Ġmuskets": 17056,
    "ceiving": 3903,
    "Ġprejudices": 13468,
    "Ġreputation": 11639,
    "Ġfurnaces": 24002,
    "Ġlarger": 1401,
    "Ġconcentration": 25062,
    "Ġeffaced": 18528,
    "hap": 17559,
    "vy": 21106,
    "acknowled": 10974,
    "Ġrag": 18642,
    "Ġobey": 9518,
    "kick": 20935,
    "Ġmantle": 25274,
    "amore": 21840,
    "oured": 2674,
    "grass": 23411,
    "Ġride": 12755,
    "Ġliking": 23590,
    "idents": 6150,
    "enari": 21280,
    "Ġmapp": 2083,
    "Ġtelegraph": 25583,
    "archbishop": 22901,
    "sledge": 21056,
    "Ġontario": 26204,
    "balance": 12005,
    "endous": 6850,
    "Ġexasper": 8466,
    "ara": 12603,
    "Ġsparkled": 13461,
    "Ġnarration": 13503,
    "ā": 194,
    "Ġconstables": 19072,
    "asses": 7016,
    "house": 4076,
    "Ġinquired": 7485,
    "Ġbra": 3254,
    "Ġcrab": 13142,
    "Ġkindliness": 23290,
    "Ġfitly": 23996,
    "Ġaberdeen": 26541,
    "Ġreceipt": 20354,
    "Ġaids": 12226,
    "abby": 14020,
    "Ġprotectors": 9070,
    "gloom": 17139,
    "Ġgratified": 8021,
    "stre": 5451,
    "Ġcoincidences": 26363,
    "Ġdisgusted": 14989,
    "Ġunequal": 14841,
    "Ġabstra": 22268,
    "Ġbrooks": 25700,
    "Ġrewards": 10848,
    "Ġtaking": 3249,
    "Ġinco": 14263,
    "Ġfootfall": 14661,
    "Ġbury": 12040,
    "lur": 13746,
    "ĠmanÅĵuv": 18417,
    "Ġvehement": 16200,
    "irited": 15784,
    "uneasy": 23685,
    "Ġcraft": 4377,
    "Ġremember": 2680,
    "beat": 10985,
    "æ": 167,
    "africa": 26308,
    "police": 10583,
    ",âĢĻ": 2325,
    "Ġirreproachable": 24917,
    "Ġusages": 15915,
    "Ġuniformly": 19147,
    "Ġwhoa": 22419,
    "those": 4496,
    "Ġsuper": 2154,
    "mund": 13757,
    "Ġmelbourne": 24289,
    "Ġdevelopment": 7058,
    "Ġgrounds": 6749,
    "england": 18928,
    "opius": 18508,
    "Ġprovides": 1928,
    "Ġinduce": 7762,
    "william": 4562,
    "Ġuproar": 22152,
    "breadth": 20275,
    "Ġrooms": 5180,
    "Ġconsult": 6056,
    "quent": 2096,
    "Ġrepining": 23356,
    "lighted": 23753,
    "Ġret": 1382,
    "tempestuous": 26097,
    "chat": 21683,
    "swells": 26148,
    "Ġregulate": 22586,
    "accompanied": 12420,
    "queens": 22907,
    "Ġtransparency": 10676,
    "Ġglassy": 19559,
    "Ġoffering": 3009,
    "Ġutterance": 14762,
    "noon": 5037,
    "burg": 16773,
    "Ġphilips": 5410,
    "Ġfavoring": 2344,
    "except": 5383,
    "Ġbillows": 7502,
    "intment": 4719,
    "Ġscrupulous": 20067,
    "Ġmourning": 13477,
    "Ġadmired": 7981,
    "Ġlucerne": 23862,
    "bath": 13688,
    "Ġtol": 6675,
    "account": 5329,
    "forehead": 8515,
    "soles": 18688,
    "injustice": 17737,
    "crack": 19839,
    "Ġbaboon": 19692,
    "evident": 25520,
    "Ġsultan": 15183,
    "Ġbam": 15563,
    "shop": 14237,
    "Ġrheumatic": 20704,
    "Ġsystemat": 18447,
    "Ġbeaks": 21752,
    "Ġscared": 14189,
    "Ġmomentarily": 22811,
    "Ġsuspects": 16890,
    "Ġspectre": 16630,
    "carries": 19526,
    "mblance": 7323,
    "Ġpickle": 16722,
    "Ġtechn": 9370,
    "Ġmasking": 2420,
    "returned": 7765,
    "Ġbarred": 9002,
    "Ġcalmer": 23039,
    "amp": 2604,
    "bride": 19199,
    "Ġbridal": 14953,
    "Ġlung": 7167,
    "opened": 7912,
    "Ġexquis": 9698,
    "Ġreport": 6191,
    "Ġmighty": 4230,
    "Ġsaturn": 22895,
    "Ġridicule": 13511,
    "Ġtightly": 13533,
    "Ġtransportation": 13641,
    "adventures": 20255,
    "imly": 12684,
    "sterdam": 19089,
    "wolf": 26409,
    "paws": 21028,
    "Ġexhausting": 24710,
    "Ġinjuries": 11277,
    "Ġ47": 14770,
    "Ġrevived": 11368,
    "Ġclum": 8872,
    "formed": 2555,
    "post": 6061,
    "removed": 15515,
    "Ġcherub": 23283,
    "Ġpercept": 14223,
    "nineteenth": 26138,
    "Ġhovering": 10178,
    "Ġapparelled": 20435,
    "Ġbeards": 21748,
    "Ġthinking": 4029,
    "shipped": 18493,
    "rodden": 21532,
    "Ġpresto": 22227,
    "ħ": 232,
    "](": 11466,
    "mish": 17598,
    ",)": 9100,
    "agues": 8160,
    "Ġattractive": 25575,
    "Ġlined": 15647,
    "Ġpoisoned": 24886,
    "gratulation": 24349,
    "Ġwave": 7575,
    "wild": 8766,
    "Ġedged": 23435,
    "Ġincul": 22548,
    "oors": 17620,
    "bell": 7332,
    "Ġheightens": 24154,
    "olstadt": 7788,
    "Ġresult": 4461,
    "Ġhoped": 5488,
    "turtle": 12209,
    "Ġplans": 7917,
    "Ġinstigated": 18698,
    "Ġlatter": 3989,
    "belong": 12120,
    "ckets": 6843,
    "confirm": 16807,
    "tch": 9141,
    "limp": 20951,
    "ĠĠĠĠĠĠĠĠĠĠĠĠĠĠĠĠ": 1220,
    "deemed": 18315,
    "Ġswift": 3667,
    "Ġsong": 5902,
    "Ġterrier": 23395,
    "Ġmutter": 23951,
    "Ġclinging": 10291,
    "ĠĠĠĠĠĠĠĠĠĠĠĠĠĠĠĠĠĠĠĠĠĠĠĠĠĠĠĠĠĠĠĠĠĠĠĠĠĠĠĠĠĠ": 24209,
    "Ġgrampus": 21990,
    "Ġdescribes": 3122,
    "Ġanomaly": 25636,
    "Ġgothic": 17999,
    "Ġoscillations": 2900,
    "supposed": 13314,
    "Ġseven": 4542,
    "whiteness": 18370,
    "stem": 572,
    "houses": 9599,
    "Ġsult": 10767,
    "Ġanalysis": 1957,
    "lasting": 8010,
    "murderers": 25728,
    "Ġabating": 22264,
    "Ġpsal": 15613,
    "Ġ=": 1075,
    "Ġgabriel": 7595,
    "Ġpalm": 10513,
    "vul": 15447,
    "Ġmuslin": 19381,
    "someone": 14564,
    "Ġluxuries": 25163,
    "lands": 8240,
    "wherefore": 19108,
    "Ġtimes": 2299,
    "Ġfaded": 10809,
    "Ġbuild": 6474,
    "Ġdive": 10172,
    "Ġcolder": 22854,
    "Ġsailor": 3536,
    "Ġcontrive": 16008,
    "ces": 579,
    "Ġdevouring": 11857,
    "residual": 19261,
    "beginning": 13560,
    "_.âĢĻâĢĿ": 17479,
    "hol": 3839,
    "Ġtrifle": 10601,
    "Ġ(_": 3736,
    "Ġnatural": 1131,
    "Ġexperience": 1390,
    "Ġign": 8293,
    "Ġflutter": 16247,
    "mir": 20962,
    "Ġimparts": 18443,
    "Ġchief": 3381,
    "begged": 18516,
    "Ġjudging": 16595,
    "invol": 12527,
    "names": 16514,
    "lakeman": 13750,
    "Ġafraid": 3530,
    "atived": 21261,
    "Ġpresenting": 18987,
    "Ġsim": 733,
    "Ġmissionary": 25696,
    "Ġasph": 21895,
    "Ġepistle": 24904,
    "woods": 13418,
    "Ġemperor": 15157,
    "suddenly": 6493,
    "Ġrecklessly": 16983,
    "Ġpreviously": 3920,
    "range": 3493,
    "Ġminima": 3462,
    "Ġwithhold": 18115,
    "Ġgord": 21597,
    "Ġsuck": 15857,
    "Ġsket": 18728,
    "xi": 17710,
    "Ġwor": 1189,
    "Ġflann": 23011,
    "Ġduck": 8793,
    "Ġassum": 4064,
    "Ġdecember": 15007,
    "Ġextent": 7655,
    "Ġdreaming": 11223,
    "Ġoutline": 15952,
    "accur": 14593,
    "Ġcircumstantial": 14643,
    "Ġunimportant": 22025,
    "corrid": 24484,
    "Ġris": 4886,
    "Ġmug": 21311,
    "athom": 12937,
    "Ġclams": 19987,
    "expectations": 24276,
    "ld": 385,
    "sax": 21055,
    "Ġpoul": 15610,
    "Ġbitterest": 12400,
    "ooped": 17623,
    "Ġtheory": 5798,
    "alone": 10183,
    "Ġfinishing": 23123,
    "Ġhorns": 11123,
    "Ġoutlandish": 12835,
    "Ġvehemently": 26039,
    "ar": 285,
    "ding": 1232,
    "Ġslates": 11107,
    "antarctic": 22096,
    "Ġflight": 6580,
    "Ġglit": 8559,
    "Ġkeeping": 7283,
    "Ġpromised": 5181,
    "Ġcate": 4107,
    "##": 2314,
    "sugg": 11839,
    "august": 11071,
    "Ġantiqu": 12142,
    "hope": 5989,
    "lest": 5288,
    "pul": 8753,
    "Ġspont": 22128,
    "Ġviewing": 19263,
    "philosop": 9567,
    "Ġsentimental": 24754,
    "Ġarchangel": 8542,
    "Ġsunken": 14493,
    "Ġbetokened": 18794,
    "Ġhist": 2446,
    "cooper": 19189,
    "Ġmistress": 8611,
    "Ġxxx": 7766,
    "Ġsocial": 7007,
    "omin": 4702,
    "court": 7511,
    "Ġmotionless": 8323,
    "rusted": 16506,
    "Ġenough": 1762,
    "Ġwithstand": 10225,
    "irable": 5776,
    "Ġghostly": 24650,
    "Ġdavis": 25952,
    "ope": 4123,
    "Ġsteeply": 23722,
    "Ġprojecting": 9984,
    "Ġtilted": 20411,
    "Ġunsophisticated": 25992,
    "Ġplutarch": 22600,
    "Ġbow": 3064,
    "Ġdisdain": 8359,
    "Ġpunch": 9954,
    "Ġbitter": 4171,
    "Ġimm": 3965,
    "Ġprecip": 7074,
    "Ġdisconcerted": 18562,
    "Ġmob": 16015,
    "Ġsleep": 2400,
    "ball": 7792,
    "Ġradney": 6775,
    "Ġclutched": 13518,
    "Ġprofanely": 23569,
    "girls": 12317,
    "culine": 19065,
    "exact": 7909,
    "Ġresolved": 3797,
    "Ġmachines": 1776,
    "dl": 20822,
    "Ġtales": 10141,
    "kers": 7132,
    "Ġintact": 21986,
    "Ġele": 1965,
    "would": 2351,
    "Ġemigrant": 25859,
    "Ġspray": 7893,
    "shadow": 20313,
    "numer": 15398,
    "Ġilluminating": 25245,
    "Ġfuriously": 9801,
    "Ġen": 393,
    "ingolstadt": 21302,
    "doublo": 24660,
    "Ġflag": 7242,
    "Ġnoiseless": 10357,
    "Ġloath": 7890,
    "Ġrejoinder": 24597,
    "atical": 10771,
    "Ġsuperhuman": 23452,
    "Ġinarticulate": 21497,
    "Ġcongratulatory": 19766,
    "ithing": 11648,
    "Ġlooked": 1801,
    "Ġtyro": 16994,
    "Ġhas": 824,
    "Ġmalignity": 10556,
    "Ġpersons": 6180,
    "glue": 17556,
    "Ġassociated": 12247,
    "Ġappeared": 2777,
    "idually": 21766,
    "Ġunimaginable": 15245,
    "Ġstanding": 2998,
    "Ġrelinqu": 12980,
    "iet": 1774,
    "Ġmutters": 23953,
    "Ġtough": 13814,
    "uts": 8815,
    "Ã¦us": 14816,
    "Ġuncle": 3192,
    "Ġbree": 5012,
    "Ġsmitten": 12899,
    "Ġ121": 24466,
    "Ġberyls": 25775,
    "Ġhimmale": 18334,
    "Ġinherit": 25352,
    "Ġpawn": 12062,
    "hunted": 16832,
    "Ġblocks": 6321,
    "Ġweep": 7619,
    "pl": 401,
    "Ġpossibility": 7458,
    "Ġtrifling": 10602,
    "cape": 13696,
    "Ġandes": 12638,
    "times": 8098,
    "Ġobscure": 9553,
    "Ġtherefore": 2237,
    "shrugged": 22457,
    "deepest": 22806,
    "Ġexcessively": 9439,
    "ccarthy": 4888,
    "bingleys": 19633,
    "aunted": 20769,
    "Ġsnapped": 9896,
    "iless": 10281,
    "ow": 325,
    "att": 1455,
    "vously": 23504,
    "Ġcour": 1768,
    "Ġpaying": 9937,
    "Ġorganization": 7983,
    "Ġexpedite": 24953,
    "heard": 5009,
    "witted": 17707,
    "assured": 10952,
    "Ġwoollen": 12101,
    "Ġsingle": 1691,
    "ugl": 23285,
    "Ġnast": 15636,
    "Ġhatchway": 13524,
    "Ġmott": 17803,
    "Ġdocks": 14177,
    "Ġanswers": 7070,
    "invari": 21183,
    "re": 266,
    "awakened": 14452,
    "Ġtranque": 14200,
    "Ġworldly": 16328,
    "Ġwhether": 2001,
    "Ġgladness": 16591,
    "forest": 22515,
    "Ġvolition": 14796,
    "Ġamply": 22479,
    "Ġmeadow": 17151,
    "Ġaust": 4871,
    "Ġstrongly": 5657,
    "Ġbird": 3756,
    "uth": 3020,
    "Ġsepulchre": 20558,
    "corrob": 24485,
    "Ġcompanionship": 14919,
    "Ġroarings": 25301,
    "receive": 12539,
    "Ġbeat": 4492,
    "Ġlovel": 10271,
    "iform": 2199,
    "Ġagent": 6277,
    "felicity": 25140,
    "Ġbeggar": 9348,
    "Ġgovernment": 15175,
    "Ġsickle": 24245,
    "swelled": 19609,
    "angular": 11720,
    "Ġmisty": 16539,
    "Ġshrink": 14803,
    "ate": 423,
    "shake": 22452,
    "Ġpendulous": 25955,
    "ans": 458,
    "Ġbriskly": 25311,
    "Ġpruning": 18971,
    "Ġservices": 11217,
    "Ġtwelfth": 22675,
    "iv": 433,
    "Ġproof": 6153,
    "Ġvers": 7563,
    "Ġpieces": 7369,
    "Ġamiable": 4270,
    "Ġherein": 16189,
    "immedi": 8450,
    "Ġsunny": 13084,
    "produce": 20281,
    "Ġdimension": 3240,
    "Ġballarat": 14718,
    "imprisonment": 23761,
    "ging": 2599,
    "yonder": 21143,
    "entieth": 17978,
    "Ġperson": 2370,
    "Ġpivot": 13922,
    "oky": 8198,
    "Ġassociation": 24711,
    "sper": 4436,
    "Ġungover": 18255,
    "ĠĠĠĠĠĠĠĠĠĠĠĠĠĠĠĠĠĠĠĠĠĠĠĠĠĠĠĠĠĠĠĠĠĠĠĠĠĠĠĠĠĠĠĠĠĠĠ": 16755,
    "similar": 13452,
    "Ġtrad": 9827,
    "conscience": 14859,
    "mates": 5073,
    "iancy": 13006,
    "Ġauthorities": 11264,
    "Ġinhabitants": 7524,
    "Ġadmeasurements": 26225,
    "Ġsque": 18756,
    "Ġdegraded": 19225,
    "ringle": 21039,
    "free": 8735,
    "repent": 15512,
    "Ġmoderately": 22210,
    "Ġsalutation": 12395,
    "dirty": 20833,
    "Ġidentifies": 12013,
    "Ġdowry": 20684,
    "Ġsho": 2242,
    "Ġoutlined": 22317,
    "Ġcoars": 14274,
    "abashed": 21789,
    "private": 13581,
    "Ġmurdering": 14810,
    "Ġbu": 3680,
    "Ġknelt": 12156,
    "uments": 5552,
    "Ġbrains": 2631,
    "Ġdesc": 775,
    "Ġcring": 15549,
    "\\": 64,
    "Ġsudden": 2000,
    "elly": 17979,
    "estate": 12818,
    "Ġing": 5283,
    "benefact": 24641,
    "Ġhaggerston": 26452,
    "Ġdiver": 2530,
    "Ġaware": 5756,
    "Ġphrenolog": 12332,
    "Ġdreadfully": 7725,
    "ercial": 21273,
    "inferiors": 25346,
    "Ġconsisted": 10419,
    "Ġasking": 5651,
    "Ġdiscomposed": 25580,
    "Ġstudious": 23209,
    "Ġcarrying": 6071,
    "ille": 9219,
    "Ġsufficiently": 8973,
    "Ġneglecting": 25007,
    "itarian": 21335,
    "Ġfainter": 14913,
    "tural": 21065,
    "Ġspleen": 26421,
    "Ġpaddle": 20057,
    "fiery": 13580,
    "Ġcomparable": 24278,
    "compar": 14358,
    "Ġsweatings": 25710,
    "Ġadorn": 12789,
    "ptember": 10893,
    "ropout": 1320,
    "Ġports": 10818,
    "Ġforced": 4353,
    "Ġmuhammad": 26169,
    "Ġquoted": 22412,
    "Ġshakespeare": 20306,
    "Ġsymbols": 2797,
    "Ġoverall": 4359,
    "Ġanxiety": 5408,
    "arp": 2028,
    "ectual": 21910,
    "Ġfailing": 12135,
    "impregnable": 26481,
    "_),": 7125,
    "Ġcheery": 16365,
    "Ġpallid": 12297,
    "Ġcleat": 18946,
    "ifting": 6545,
    "etah": 12658,
    "ouched": 4636,
    "filled": 9594,
    "ired": 1444,
    "Ġreported": 11978,
    "andish": 18153,
    "rather": 5430,
    "Ġaccord": 4024,
    "Ġshocking": 10435,
    "Ġbiography": 22764,
    "civilized": 17075,
    "Ġdeliriously": 23228,
    "moid": 2451,
    "<UNK>": 3,
    "ishop": 9741,
    "atus": 21259,
    "Ġmuttered": 7086,
    "Ġidiot": 11970,
    "bowl": 14890,
    "regulated": 23466,
    "(-": 2981,
    "Ġpsalmody": 20583,
    "desolation": 20448,
    "Ġmansfield": 25938,
    "holmes": 4431,
    "Ġforgiveness": 16656,
    "opposite": 19928,
    "ament": 2440,
    "Ġwriter": 11943,
    "Ġrevive": 13478,
    "Ġ36": 14766,
    "Ġcamel": 25349,
    "Ġfashion": 4298,
    "Ġsquat": 14367,
    "Ġextra": 4055,
    "Ġeclipsed": 26376,
    "placidity": 25988,
    "Ġpassionate": 11273,
    "Ġvibrated": 25045,
    "persecut": 22186,
    "Ġhourly": 23298,
    "Ġhired": 10177,
    "possesses": 24616,
    "fluke": 25204,
    "ĠâĢĻ": 3047,
    "discredit": 24250,
    "Ġconveys": 16855,
    "pent": 3492,
    "Ġscores": 2717,
    "Ġexter": 7397,
    "Ġphysiogn": 12386,
    "Ġmorsel": 20676,
    "Ġcont": 620,
    "Ġ73": 24260,
    "ce": 313,
    "Ġproportionably": 19969,
    "rid": 5137,
    "Ġincidentally": 16954,
    "urously": 18050,
    "Ġpolicy": 10457,
    "patient": 25342,
    "Ġthrough": 604,
    "Ġstrateg": 1348,
    "Ġbest": 1976,
    "oused": 6556,
    "Ġlanyard": 26461,
    "Ġord": 3735,
    "Ġsaucer": 20604,
    "Ġdirectly": 2106,
    "Ġapprobation": 10986,
    "yth": 983,
    "Ġchick": 22244,
    "è": 169,
    "Ġscener": 10949,
    "Ġsphynx": 20711,
    "Ġtries": 9150,
    "des": 1565,
    "Ġstrength": 4260,
    "Ġarmada": 23579,
    "ohog": 9843,
    "arpo": 1756,
    "Ġcheshire": 13089,
    "Ġneither": 3684,
    "Ġintegral": 25008,
    "gloves": 25143,
    "en": 271,
    "Ġsex": 8841,
    "Ġdownstairs": 11224,
    "Ġdeployment": 11192,
    "nowhere": 18418,
    "commer": 22809,
    "Ġscraps": 16902,
    "ows": 1917,
    "Ġhedges": 19983,
    "Ġeagle": 13199,
    "Ġstupid": 7603,
    "Ġsplash": 16548,
    "Ġmassacre": 20546,
    "Ġheavy": 3743,
    "Ġmalacca": 24393,
    "Ġnat": 12642,
    "Ġbuoyancy": 20040,
    "longer": 8612,
    "Ġeye": 2278,
    "Ġfaces": 6008,
    "Ġfaithfully": 14886,
    "Ġcollege": 11424,
    "ė": 216,
    "Ġlandlessness": 23376,
    "Ġrepeat": 7999,
    "Ġtul": 21158,
    "Ġrubber": 22783,
    "Ġpiling": 17910,
    "Ġsovere": 9255,
    "Ġattic": 16095,
    "Ġmol": 12558,
    "Ġsmoked": 10323,
    "Ġideas": 5494,
    "Ġdeficiencies": 26570,
    "Ġdairy": 20685,
    "Ġessays": 19743,
    "Ġinsensible": 12323,
    "Ġwaved": 9644,
    "Ġafar": 14291,
    "Ġbasement": 24702,
    "Ġpore": 21456,
    "Ġsilk": 11960,
    "Ġresounded": 22541,
    "Ġejaculated": 15168,
    "Ġdictating": 20151,
    "choice": 21688,
    "Ġellenborough": 26154,
    "Ġwept": 7184,
    "Ġunappe": 22013,
    "erness": 6434,
    "Ġspirit": 3722,
    "Ġinc": 702,
    "Ġadversity": 24303,
    "Ġfires": 16471,
    "strike": 14948,
    "Ġhopeful": 19031,
    "ad": 337,
    "Ġbuilt": 8300,
    "Ġreciprocating": 26369,
    "Ġ80": 24456,
    "reat": 617,
    "lement": 10166,
    "Ġfrankenstein": 7095,
    "Ġarmed": 9259,
    "because": 4923,
    "Ġgentleness": 8709,
    "Ġwhim": 13998,
    "clearly": 25195,
    "Ġhove": 17922,
    "Ġreverie": 13456,
    "Ġcabaco": 13166,
    "Ġcigar": 9544,
    "Ġforthwith": 16618,
    "Ġinstantly": 3591,
    "Ġliberally": 16830,
    "Ġforts": 21769,
    "atically": 2633,
    "rossed": 11012,
    "overlooked": 23321,
    "Ġfreely": 7056,
    "cle": 3955,
    "Ġsuffering": 8946,
    "social": 11023,
    "Ġrider": 24185,
    "Ġfatig": 6756,
    "Ġmerely": 3770,
    "Ġdeserving": 14752,
    "Ġsuccession": 12099,
    "Ġice": 3602,
    "Ġcrunched": 19123,
    "proud": 9903,
    "unch": 14057,
    "Ġglorious": 11075,
    "Ġlewis": 15722,
    "ep": 440,
    "Ġwhispers": 14699,
    "coo": 11170,
    "Ġhig": 755,
    "once": 5903,
    "embow": 21928,
    "Ġrespective": 16343,
    "Ġstartling": 14670,
    "enormous": 26166,
    "ignantly": 23263,
    "Ġtendons": 19807,
    "Ġmemorable": 16426,
    "sentence": 2940,
    "Ġbelongs": 8014,
    "Ġmig": 13855,
    "omination": 21639,
    "Ġcarpenters": 16752,
    "Ġrequest": 6050,
    "Ġperfidious": 25666,
    "Ġhanging": 5447,
    "dle": 3247,
    "Ġarmies": 16492,
    "Ġpam": 21452,
    "abern": 21786,
    "Ġbecher": 18879,
    "stock": 13220,
    "Ġstain": 18064,
    "Ġhammer": 6093,
    "riage": 2124,
    "Ġtiles": 17726,
    "Ġag": 684,
    "Ġsleek": 23380,
    "Ġhypothesis": 14780,
    "Ġgroup": 2038,
    "Ġassert": 7120,
    "zors": 21146,
    "Ġmasonry": 13598,
    "Ġcloak": 9533,
    "Ġberth": 8679,
    "Ġconciliating": 19049,
    "Ġbring": 3324,
    "omet": 3078,
    ".âĢĻâĢĿ": 6739,
    "Ġbowsman": 11255,
    "stige": 21658,
    "Ġcoherent": 3262,
    "Ġpronouncing": 16969,
    "Ġgib": 13964,
    "Ġexpost": 18623,
    "Ġopium": 8994,
    "Ġallusions": 10906,
    "noble": 7923,
    "Ġsnug": 8279,
    "Ġconcentrate": 25063,
    "ignant": 11129,
    "quest": 4538,
    "pain": 7350,
    "Ġovertaken": 18429,
    "Ġbeckoned": 25793,
    "Ġfactor": 19013,
    "serve": 13044,
    "osity": 14185,
    "lascar": 20959,
    "Ġfuture": 1117,
    "fell": 6953,
    "robotics": 11306,
    "Ġlur": 5226,
    "Ġhumour": 7931,
    "Ġnoises": 18374,
    "ibank": 6880,
    "Ġsecondary": 23332,
    "Ġsubterraneous": 20264,
    "Ġaffect": 1386,
    "glancing": 11214,
    "Ġset": 1176,
    "Ġprone": 18969,
    "encyclopÃ¦dia": 16663,
    "Ġcharges": 23266,
    "Ġavenues": 25429,
    "erde": 21267,
    "Ġgasfitters": 25038,
    "Ġgreater": 3041,
    "front": 12168,
    "Ġcandelabra": 26602,
    "degree": 12798,
    "monster": 8591,
    "sou": 12503,
    "Ġcombining": 22850,
    "Ġqueerest": 16412,
    "hatchet": 24822,
    "Ġparameter": 886,
    "Ġscaling": 3630,
    "alions": 21498,
    "Ġmalay": 24391,
    "Ġparaph": 22117,
    "Ġauthor": 4376,
    "Ġnetworks": 596,
    "Ġmail": 17800,
    "singular": 12186,
    "iot": 9600,
    "Ġears": 4491,
    "Ġthe": 270,
    "vult": 21112,
    "Ġoptimizer": 5035,
    "Ġtokens": 1772,
    "azing": 7704,
    "Ġunable": 4951,
    "Ġinference": 9671,
    "offensive": 16394,
    "Ġcontrols": 1732,
    "Ġdiversion": 17197,
    "shaped": 10308,
    "Ġdeposed": 16085,
    "Ġpresents": 8244,
    "irect": 5553,
    "Ġqu": 606,
    "animals": 24738,
    "Ġinnocent": 4921,
    "outward": 22162,
    "hess": 4746,
    "Ġbeen": 626,
    "Ġbottle": 7490,
    "earthly": 24724,
    "Ġdodging": 19886,
    "Ġsituation": 4071,
    "âĢĶâĢľ_": 13201,
    "foundation": 16714,
    "Ġsteadily": 8051,
    "Ġdeceased": 15006,
    "pretty": 10621,
    "Ġtartar": 17321,
    "washed": 13043,
    "Ġbowls": 23769,
    "Ġtroublesome": 23999,
    "Ġfin": 1458,
    "Ġhunts": 23155,
    "Ġassent": 12730,
    "Ġmild": 4145,
    "Ġcave": 10785,
    "Ġalternate": 19984,
    "angible": 22099,
    "Ġbrain": 2089,
    "Ġgills": 17992,
    "Ġnaturally": 2467,
    "Ġpleasantest": 24136,
    "Ġnameless": 7699,
    "Ġkitty": 3910,
    "Ġtill": 1827,
    "Ġmayhap": 18709,
    "Ġbrine": 18768,
    "Ġaccidental": 16848,
    "rd": 17649,
    "Ġoperation": 11997,
    "Ġjar": 15948,
    "ledyard": 22389,
    "bestow": 16929,
    "catherine": 7127,
    "Ġlaugh": 4111,
    "Ġmess": 7831,
    "Ġdoubling": 23317,
    "coronet": 16863,
    "Ġinvolve": 11051,
    "along": 6012,
    "Ġpatent": 11961,
    "Ġintensified": 17018,
    "Ġintentions": 10607,
    "thodox": 21985,
    "oubtedly": 6943,
    "enborough": 21284,
    "anel": 21355,
    "gling": 10097,
    "agonies": 21906,
    "Ġinherited": 25353,
    "Ġpall": 7582,
    "Ġsemicirc": 16390,
    "atoes": 17775,
    "hued": 20910,
    "Ġimpossibility": 20646,
    "vol": 738,
    "Ġlistless": 16475,
    "iod": 3840,
    "Ġdown": 831,
    "Ġcost": 2507,
    "Ġcannibals": 10587,
    "Ġshrine": 19530,
    "ĠĠĠĠĠĠĠĠĠĠĠĠĠĠĠĠĠĠĠĠĠĠĠĠĠĠĠĠĠĠĠĠĠĠĠĠĠĠĠĠĠĠĠĠĠĠĠĠ": 7988,
    "Ġimprinted": 22385,
    "ine": 405,
    "wrinkles": 16554,
    "Ġers": 15459,
    "Ġviolin": 16427,
    "disappointed": 25191,
    "volume": 18606,
    "Ġpatched": 16378,
    "mole": 22700,
    "Ġdubious": 17382,
    "Ġjohnson": 18409,
    "loops": 12880,
    "atious": 10151,
    "continuing": 24479,
    "ord": 665,
    "osal": 11757,
    "ines": 669,
    "Ġcommunicative": 24548,
    "Ġtypewriter": 19097,
    "Ġnodding": 23331,
    "Ġpale": 4532,
    "Ġemployer": 19430,
    "tram": 19634,
    "Ġterr": 3272,
    "Ġunquestion": 18248,
    "Ġfrightened": 5341,
    "Ġfossiliferous": 25609,
    "Ġambitious": 18513,
    "Ġcorridor": 10671,
    "Ġhigher": 1823,
    "aling": 1035,
    "paus": 13772,
    "âĢĿ]": 21812,
    "ittered": 18439,
    "Ġcoming": 2617,
    "Ġbarbar": 6935,
    "Ġer": 8104,
    "Ġfow": 6133,
    "i": 77,
    "Ġdissimilar": 22528,
    "came": 4570,
    "Ġdenying": 14658,
    "Ġtoller": 9090,
    "Ġprovocation": 24191,
    "amous": 15758,
    "ived": 1529,
    "Ġmagnus": 18957,
    "Ġtravel": 5952,
    "Ġtrag": 13037,
    "Ġdecisive": 18485,
    "fatality": 25019,
    "earthquakes": 24725,
    "Ġliveliest": 24775,
    "Ġmerged": 19295,
    "Ġpurposed": 23551,
    "rabbit": 20589,
    "Ġpersonality": 16476,
    "Ġfreemason": 23208,
    "renched": 7906,
    "bour": 2074,
    "Ġknock": 9972,
    "appetite": 22846,
    "hall": 8084,
    "kitchen": 17585,
    "Ġslippers": 19614,
    "Ġeastern": 11628,
    "Ġhon": 2538,
    "Ġdug": 21428,
    "Ġmalice": 7152,
    "Ġtwos": 18657,
    "easy": 9592,
    "Ġdate": 7841,
    "white": 4602,
    "Ġstranger": 3484,
    "ifix": 21900,
    "Ġ1807": 26083,
    "Ġicelandic": 25886,
    "Ġlucas": 3833,
    "Ġopposition": 16520,
    "Ġclipping": 2441,
    "elze": 21570,
    "Ġlands": 6594,
    "Ġcarted": 21347,
    "Ġmister": 22757,
    "Ġchoose": 5981,
    "Ġmason": 10157,
    "Ġre": 317,
    "ots": 3295,
    "Ġbestirred": 20450,
    "Ġprov": 4401,
    "inu": 1113,
    "Ġrelated": 3713,
    "advanced": 19587,
    "Ġrefer": 18704,
    "Ġstupidity": 15049,
    "Ġscold": 10950,
    "Ġcrockery": 24301,
    "vings": 9750,
    "Ġflash": 8229,
    "Ġunheeded": 18261,
    "Ġreceptacle": 23189,
    "ption": 7398,
    "ryphon": 4161,
    "kindly": 14743,
    "roded": 17955,
    "Ġeyed": 12666,
    "cles": 8725,
    "poverty": 22904,
    "Ġspans": 18304,
    "Ġmorphology": 3012,
    "Ġnewcastle": 16221,
    "rudential": 16709,
    "Ġtexture": 19159,
    "Ġbrad": 8786,
    "Ġpoints": 5248,
    "Ġpointing": 5661,
    "Ġwitt": 17783,
    "igh": 2030,
    "innocence": 15182,
    "Ġungenerous": 18266,
    "igned": 5656,
    "eliest": 14745,
    "Ġwaving": 8584,
    "Ġ113": 19695,
    "creat": 20799,
    "Ġpapers": 4019,
    "ivity": 1671,
    "Ġcontemplate": 19891,
    "Ġpersevering": 20232,
    "Ġenter": 4028,
    "Ġtamely": 24977,
    "Ń": 260,
    "ckles": 22086,
    "Ġunseason": 22047,
    "Ġbrawny": 13612,
    "Ġfritters": 23254,
    "Ġserv": 3329,
    "Ġepicurean": 20554,
    "Ġparamore": 22119,
    "exactly": 10636,
    "deserts": 25379,
    "mysterious": 26051,
    "Ġantip": 24177,
    "Ġswallows": 18882,
    ">": 34,
    "atmospheric": 17776,
    "eric": 3469,
    "oke": 1859,
    "Ġinfatuation": 25857,
    "recollect": 17223,
    "Ġwill": 679,
    "Ġwatchful": 16526,
    "Ġdisposal": 19374,
    "whisper": 17083,
    "er": 269,
    "neg": 12862,
    "Ġcaprice": 14577,
    "Ġpromoting": 3161,
    "Ġwindibank": 7257,
    "Ġtraining": 531,
    "Ġtashtego": 4487,
    "cil": 8720,
    "Ġheaviest": 23322,
    "ipher": 18432,
    "Ġmarvel": 23032,
    "Ġscrolled": 22281,
    "Ġuns": 15834,
    "alluring": 18352,
    "Ġcondense": 21805,
    "Ġsuspended": 5665,
    "had": 1949,
    "Ġtahiti": 13618,
    "twice": 14621,
    "Ġopposing": 12039,
    "Ġhosmer": 6774,
    "Ġhonestly": 19970,
    "gd": 3125,
    "fugitive": 26131,
    "ulatory": 15765,
    "propagation": 1231,
    "Ġvirtue": 4922,
    "Ġhours": 2822,
    "Ġgroves": 16740,
    "ª": 108,
    "Ġsuffer": 4721,
    "augmented": 26286,
    "Ġlone": 11612,
    "Ġcased": 21344,
    "Ġsubtile": 20378,
    "muring": 17601,
    "Ġhasn": 12924,
    "georgiana": 26020,
    "Ġrepelled": 19085,
    "tossing": 18583,
    "twelvemonth": 25862,
    "Ġfranc": 16350,
    "Ġsymmetrical": 20365,
    "sub": 4659,
    "Ġbottom": 3672,
    "Ġbreaths": 14856,
    "Ġwars": 17785,
    "pull": 6796,
    "gged": 3776,
    "seals": 21815,
    "volous": 18605,
    "soft": 12507,
    "tal": 17670,
    "icha": 11736,
    "Ġtight": 8107,
    "Ġladyship": 5046,
    "Ġbrimstone": 25686,
    "flames": 14711,
    "Ġessentially": 24924,
    "Ġreturned": 2893,
    "aco": 12892,
    "Ġignoble": 19397,
    "Ġlubber": 17443,
    "Ġwipe": 25764,
    "rying": 3185,
    "Ġweld": 8111,
    "whar": 15925,
    "oning": 7572,
    "assist": 11766,
    "Ġmagic": 8232,
    "Ġengineering": 3029,
    "Ġgems": 9208,
    "Ġbloodthirsty": 26601,
    "arer": 3968,
    "======================================================================": 10067,
    "Ġdiscretion": 10347,
    "inion": 2877,
    "Ġcomplimented": 14903,
    "inconsiderable": 21190,
    "Ġcleanse": 24527,
    "Ġattained": 14077,
    "Ġspoutings": 14675,
    "vision": 5620,
    "Ġcaress": 16337,
    "Ġwatching": 4854,
    "Ġlingered": 13504,
    "cular": 15327,
    "ittarius": 22377,
    "cooee": 12416,
    "Ġprofoundly": 16859,
    "Ġholidays": 22919,
    "alty": 17938,
    "Ġramadans": 25119,
    "Ġactivity": 7919,
    "Ġworship": 10366,
    "Ġmutiny": 13258,
    "succeed": 10328,
    "Ġshoals": 13132,
    "Ġanyhow": 14254,
    "gradient": 2272,
    "Ġcalves": 13032,
    "Ġallusion": 7625,
    "Ġgeneration": 2284,
    "Ġpaintings": 15055,
    "orton": 11754,
    "Ġsighed": 10337,
    "imet": 21703,
    "Ġcalendar": 18876,
    "remonstr": 23188,
    "Ġceler": 15548,
    "Ġinsist": 9890,
    "matter": 5136,
    "lat": 9604,
    "Ġislands": 6766,
    "Ġnobly": 22238,
    "Ġstained": 11651,
    "ators": 7829,
    "Ġeagerly": 4990,
    "alled": 5910,
    "Ġcontemptible": 16953,
    "Ġextremities": 19195,
    "Ġcanst": 8857,
    "Ġbakers": 17866,
    "Ġsimpleton": 16333,
    "Ġsimpler": 2048,
    "Ġfunere": 22256,
    "throw": 14097,
    "irth": 5634,
    "Ġhypocritical": 20737,
    "Ġvisit": 2583,
    "Ġapp": 500,
    "quarter": 11388,
    "sky": 12508,
    "shoes": 14240,
    "Ġhopes": 4234,
    "Ġapproach": 872,
    "Ġtraitors": 23076,
    "Ġprosecution": 12379,
    "cence": 9588,
    "Ġprep": 4188,
    "uneasiness": 23686,
    "batch": 1984,
    "Ġunfavourable": 17416,
    "Ġirr": 10421,
    "Ġmajesty": 5201,
    "Ġgl": 1257,
    "Ġstrasburgh": 18614,
    "Ġhideous": 5982,
    "Ġregain": 22585,
    "Ġunfrequ": 19507,
    "daring": 20828,
    "Ġgnarled": 25165,
    "ondency": 15268,
    "zes": 11548,
    "awned": 19458,
    "fifty": 12350,
    "Ġnewsp": 9338,
    "joined": 13274,
    "Ġgrim": 7439,
    "Ġorder": 1685,
    "Ġnar": 7375,
    "Ġmasoned": 20250,
    "Ġincorrupt": 19233,
    "Ġdrawn": 4276,
    "Ġlounged": 19952,
    "Ġhated": 7584,
    "Ġonce": 1491,
    "Ġfluttered": 16248,
    "Ġgradually": 3400,
    "Ġperfectly": 3699,
    "Ġtomahawk": 7539,
    "Ġindifference": 6725,
    "ortunities": 15938,
    "Ġlinn": 13952,
    "enge": 21279,
    "comparison": 25840,
    "Ġcosmetic": 23470,
    "Ġbagging": 24539,
    "seat": 18125,
    "Ġdespond": 14667,
    "Ġseemingly": 9317,
    "Ġchink": 15930,
    "Ġfret": 10806,
    "unforeseen": 21885,
    "garet": 9597,
    "Ġentic": 16143,
    "remembered": 17350,
    "chair": 5916,
    "Ġestimated": 16594,
    "Ġinformed": 6717,
    "ļ": 253,
    "contented": 14634,
    "gish": 20872,
    "Ġthrob": 21515,
    "Ġirritated": 17242,
    "Ġdisposed": 7083,
    "oftentimes": 19419,
    "shattered": 22456,
    "Ġconf": 1822,
    "Ġmiscell": 16148,
    "Ġsister": 1473,
    "Ġtwentieth": 18659,
    "Ġexe": 3993,
    "Ġuntimely": 16466,
    "Ġstepping": 9353,
    "Ġwhy": 1760,
    "Ġcatherine": 2815,
    "Ġpenetrate": 12267,
    "Ġdistorted": 14249,
    "Ġroundabout": 23059,
    "Ġdrowned": 9551,
    "declare": 25173,
    "¿": 128,
    "beheld": 11799,
    "Ġjune": 10288,
    "Ġemotion": 7689,
    "Ġbloodshot": 23798,
    "Ġdirectors": 18921,
    "Ġperiod": 4002,
    "Ġmien": 17808,
    "Ġbacking": 16111,
    "Ġrecourse": 22737,
    "unable": 14058,
    "missionary": 24615,
    "Ġfake": 5810,
    "Ġmagnitudes": 3822,
    "Ā": 193,
    "lux": 14226,
    "Ġputting": 5326,
    "rically": 15416,
    "hist": 7130,
    "Ġstandard": 14496,
    "recognised": 15261,
    "suppose": 8644,
    "Ġnineveh": 13388,
    "gir": 8082,
    "programming": 10062,
    "don": 3544,
    "hastened": 16845,
    "âĢĶâĢĺ": 7013,
    "Ġlucifers": 16588,
    "Ġraving": 16113,
    "Ġmaze": 23828,
    "oric": 21394,
    "Ġvolat": 24142,
    "Ġlatin": 16821,
    "previous": 9760,
    "Ġpatience": 2912,
    "Ġink": 8802,
    "Ġrobbery": 11910,
    "Ġinconveniences": 24939,
    "Ġoy": 15543,
    "through": 4022,
    "stiff": 12672,
    "Ġearnestly": 5978,
    "Ġindistinct": 17407,
    "strade": 5065,
    "plainly": 11090,
    "Ġbelieve": 2147,
    "derbyshire": 18322,
    "ro": 301,
    "iness": 1280,
    "condem": 16342,
    "otence": 14022,
    "Ġdiscussion": 17194,
    "Ġkeenly": 9484,
    "ron": 5216,
    "dilig": 17282,
    "Ġnewton": 3533,
    "Ġthanked": 9458,
    "03": 20747,
    "Ġdespondence": 25869,
    "likeness": 19476,
    "Ġdownwards": 8529,
    "osop": 4405,
    "burnt": 20078,
    "Ġwithheld": 18114,
    "clad": 14458,
    "Ġdistinguishing": 16496,
    "Ġeddies": 23436,
    "part": 2573,
    "Ġrooted": 13168,
    "Ġunnecessary": 8851,
    "Ġcoffee": 6760,
    "long": 2914,
    "ignorant": 13562,
    "Ġdeputation": 21837,
    "Ġtransfer": 2243,
    "Ġsnorting": 23740,
    "Ġcontrivance": 17183,
    "cruising": 12277,
    "Ġaback": 22263,
    "boo": 16349,
    "ascertain": 21540,
    "Ġpauper": 26179,
    "niest": 18994,
    "Ġ87": 19709,
    "Ġspringing": 10518,
    "Ġwhirling": 12246,
    "turning": 8316,
    "Ġlagged": 21555,
    "Ġpenalty": 1842,
    "Ġsurpl": 19132,
    "Ġextremity": 8988,
    "sc": 1260,
    "ile": 521,
    "Ġplainpal": 19276,
    "unbidden": 21891,
    "Ġindifferent": 6174,
    "vellers": 16673,
    "Ġcare": 1637,
    "Ġpatch": 4178,
    "Ġcreature": 2384,
    "Ġelij": 8908,
    "Ġcompliance": 12112,
    "Ġsullenly": 17172,
    "Ġafterwards": 3531,
    "Ġcentury": 8290,
    "kin": 7131,
    "affairs": 14656,
    "Ġher": 426,
    "cushion": 20820,
    "acca": 23596,
    "Ġeducated": 16785,
    "ĠĠĠĠĠĠĠĠĠĠĠĠĠĠĠĠĠĠĠĠĠĠĠĠĠ": 24442,
    "Ġclimates": 25050,
    "jeroboam": 25619,
    "ends": 6038,
    "Ġmine": 3178,
    "Ġboth": 1653,
    "Ġfaintest": 24569,
    "Ġfidgeted": 25889,
    "Ġmurmur": 14589,
    "Ġneighbour": 3808,
    "Ġzoology": 22819,
    "uttural": 21586,
    "warks": 5004,
    "erted": 7361,
    "Ġladder": 8598,
    "Ġunspeakable": 10055,
    "Ġevol": 2817,
    "Ġdiscoveries": 13357,
    "Ġunderstanding": 1814,
    "Ġdiligence": 17114,
    "Ġincessant": 15096,
    "akeman": 6267,
    "Ġawaited": 17074,
    "Ġdependent": 14297,
    "vil": 2734,
    "Ġawkwardness": 13486,
    "gan": 2197,
    "ace": 719,
    "Ġsources": 10147,
    "jumped": 20245,
    "Ġmace": 21308,
    "Ġsoap": 14132,
    "Ġdare": 3545,
    "paint": 21017,
    "Ġprimal": 17107,
    "Ġinfall": 7959,
    "Ġtrop": 7565,
    "smoke": 17222,
    "stick": 15682,
    "Ġhans": 12623,
    "Ġyankees": 26201,
    "affected": 10476,
    "Ġhovered": 12628,
    "Ġfest": 10804,
    "flutter": 23968,
    "yond": 2327,
    "Ġarom": 15491,
    "Ġcomforters": 25800,
    "Ġmove": 5107,
    "Ġreadability": 2727,
    "seem": 10227,
    "Ġfilled": 4395,
    "Ġpregnant": 26535,
    "shine": 9287,
    "Ġsuffocated": 20727,
    "Ġsand": 6235,
    "Ġtransp": 4769,
    "Ġembarks": 22965,
    "recklessly": 25269,
    "rank": 21040,
    "labours": 16617,
    "Ġcass": 13878,
    "contact": 23726,
    "Ġjutting": 22298,
    "whalebone": 19118,
    "Ġroughly": 17040,
    "Ġtiar": 21166,
    "Ġadmirably": 16480,
    "Ġattend": 5036,
    "Ġwee": 21916,
    "Ġincantation": 26257,
    "tears": 11037,
    "interrupted": 11417,
    "Ġoptimizers": 18618,
    "Ġrecursive": 4781,
    "cription": 20817,
    "\",": 10678,
    "custom": 15332,
    "Ġbos": 4875,
    "Ġunsav": 18251,
    "Ġrural": 21964,
    "luxur": 25822,
    "Ġgpus": 3731,
    "gone": 6504,
    "Ġrevealed": 6751,
    "protest": 24815,
    "rec": 6003,
    "Ġpublicly": 13321,
    "Ġreiterating": 26474,
    "Ġcryst": 9916,
    "Ġuninhabited": 22046,
    "Ġenjoys": 19448,
    "Ġ106": 24414,
    "Ġdesired": 4664,
    "Ġchisel": 20366,
    "Ġodd": 6624,
    "skirted": 24489,
    "Ġreplace": 14476,
    "Ġwhalebone": 10977,
    "detained": 24382,
    "impetuous": 23762,
    "onstrate": 17768,
    "ased": 1268,
    "ju": 13740,
    "Ġfresh": 3668,
    "Ġequilibrium": 4139,
    "Ġplaying": 6909,
    "Ġvarying": 15808,
    "before": 3115,
    "Ġfetch": 7769,
    "Ġreg": 732,
    "Ġaccost": 12842,
    "Ġerudite": 26350,
    "higher": 20405,
    "Ġpleasanter": 19067,
    "Ġphilist": 16601,
    "Ġdamned": 13130,
    "Ġguid": 2641,
    "Ġsleepy": 8267,
    "_)": 9101,
    "Ġobserve": 4670,
    "Ġconquered": 14025,
    "Ġtin": 15462,
    "Ġhandsome": 4906,
    "Ġnewcomer": 26040,
    "feeders": 25235,
    "masters": 16834,
    "Ġgrave": 5100,
    "Ġrec": 895,
    "Ġapproached": 5843,
    "Ġcontain": 1552,
    "sche": 13016,
    "alter": 10826,
    "Ġstumble": 26482,
    "Ġcomprehensiveness": 25072,
    "chose": 18040,
    "conquerable": 17398,
    "Ġgulp": 20027,
    "Ġcomplexity": 1693,
    "Ġlook": 879,
    "Ġhish": 21911,
    "iff": 3906,
    "Ġhappily": 9330,
    "alling": 6036,
    "Ġnews": 3819,
    "Ġimprove": 1802,
    "Ġhyp": 3873,
    "oregressive": 3424,
    "impropriety": 21710,
    "Ġpossessions": 23822,
    "Ġsch": 13834,
    "Ġadventures": 7747,
    "Ġboston": 22635,
    "Ġstart": 3258,
    "Ġavoided": 13257,
    "Ġrenegades": 26476,
    "Ġtwisting": 18658,
    "Ġtall": 4037,
    "Ġcasked": 24497,
    "Ġheld": 3585,
    "Ġnet": 3625,
    "behind": 6779,
    "own": 741,
    "Ġboot": 11837,
    "Ġdoom": 6417,
    "local": 22507,
    "Ġhardest": 18912,
    "join": 12111,
    "inqu": 6121,
    "Ġsuns": 23271,
    "Ġproperly": 7944,
    "Ġwhal": 5454,
    "enderby": 25215,
    "Ġmeasure": 3593,
    "Ġyou": 366,
    "Ġdears": 18139,
    "Ġcoiled": 11818,
    "Ġbesides": 3513,
    "hers": 7635,
    "Ġplaited": 14282,
    "Ġduplicate": 17215,
    "Ġge": 1980,
    "Ġmantelpiece": 15206,
    "Ġprofessors": 14724,
    "Ġscotch": 12207,
    "altogether": 12636,
    "harpo": 4804,
    "Ġpitiless": 19386,
    "strom": 15681,
    "Ġpent": 17903,
    "cond": 1664,
    "urements": 18123,
    "Ġrocks": 6863,
    "Ġnecess": 3474,
    "Ġder": 1497,
    "Ġcompar": 4770,
    "Ġtelegram": 15222,
    "Ġlamentations": 17076,
    "Ġbinnacle": 8118,
    "encouragement": 17422,
    "Ġpresentation": 14480,
    "Ġexplore": 15906,
    "Ġtreasure": 9558,
    "ertain": 1207,
    "destroyed": 15259,
    "cheap": 23803,
    "Ġgrapnels": 25551,
    "Ġfeatures": 1433,
    "voyage": 7785,
    "ĠĠĠĠĠĠĠĠĠĠĠĠĠĠĠĠĠĠĠĠĠĠĠĠ": 5321,
    "Ġthenceforth": 25182,
    "Ġduty": 4070,
    "Ġscarcely": 4007,
    "denial": 18717,
    "inter": 2951,
    "Ġsend": 4105,
    "neural": 3069,
    "Ġmari": 6813,
    "mitting": 17602,
    "why": 2831,
    "sal": 8757,
    "plings": 11693,
    "tfordshire": 4810,
    "pered": 4195,
    "Ġulster": 14997,
    "ividually": 22085,
    "fixed": 7548,
    "nson": 16086,
    "Ġstubb": 1786,
    "explanations": 25234,
    "reigned": 21241,
    "Ġbreaking": 6310,
    "Ġrates": 1403,
    "Ġrealise": 16335,
    "Ġband": 5290,
    "urpation": 16299,
    "Ġxi": 16428,
    "circle": 16736,
    "meant": 7920,
    "Ġcur": 1250,
    "isticated": 1587,
    "attest": 23118,
    "Ġbrotherhood": 23667,
    "Ġcurse": 7666,
    "Ġwip": 13852,
    "Ġencouragement": 13040,
    "Ġglobe": 6076,
    "Ġcobb": 14275,
    "cook": 8269,
    "Ġpr": 1599,
    "theirs": 23601,
    "50": 6784,
    "Ġsagittarius": 24732,
    "Ġthread": 14538,
    "erity": 21266,
    "ernation": 8211,
    "Ġconflagration": 26364,
    "Ġbelow": 4061,
    "Ġtool": 21508,
    "thur": 7188,
    "Ġseem": 913,
    "Ġskylight": 24070,
    "Ġdespaired": 14668,
    "Ġuneasily": 24230,
    "Ġbitten": 21388,
    "esley": 17902,
    "Ġresol": 2668,
    "Ġunidirectional": 3425,
    "Ġfrequencies": 4788,
    "Ġquick": 2581,
    "Ġmem": 2071,
    "roofed": 26183,
    "Ġcoldness": 23758,
    "Ġpikes": 21476,
    "Ġclumsy": 9579,
    "application": 12361,
    "Ġbinding": 20417,
    "fal": 17536,
    "Ġsome": 654,
    "Ġas": 374,
    "Ġconstruction": 9384,
    "Ġtugged": 17288,
    "Ġindication": 22949,
    "stands": 22432,
    "flitted": 23966,
    "circ": 4389,
    "Ġsab": 10762,
    "admon": 21758,
    "Ġhost": 7068,
    "shoals": 24717,
    "Ġmaintainable": 12933,
    "sales": 17667,
    "Ġfacility": 19849,
    "Ġwarped": 25035,
    "Ġjagged": 18407,
    "heart": 4526,
    "Ġprotecting": 24686,
    "ggling": 19096,
    "conception": 22471,
    "venty": 6427,
    "Ġlascar": 9199,
    "ifully": 13183,
    "Ġliberated": 19665,
    "Ġfaults": 12210,
    "Ġaristotle": 25817,
    "arabian": 26446,
    "ivation": 3111,
    "boone": 23251,
    "surround": 16758,
    "Ġimmut": 13296,
    "je": 11495,
    "tt": 13789,
    "Ġdigest": 24647,
    "talked": 14984,
    "Ġmallet": 17810,
    "assistance": 20369,
    "Ġburying": 19250,
    "Ġrecollect": 8309,
    "Ġhereabouts": 12975,
    "Ġkissed": 10044,
    "Ġtutored": 20126,
    "Ĉ": 201,
    "Ġmaj": 3927,
    "Ġse": 402,
    "aul": 6352,
    "gazed": 15360,
    "Ġhereditary": 10664,
    "field": 3074,
    "evening": 7089,
    "become": 14246,
    "Ġeffected": 14354,
    "Ġoffences": 18693,
    "Ġseethe": 21960,
    "Ġincludes": 2012,
    "Ġheredit": 9216,
    "measure": 10030,
    "Ġporing": 21465,
    "Ġfierceness": 26265,
    "Ġvengeance": 5884,
    "Ġproceedings": 9906,
    "Ġaspects": 4172,
    "Ġtreated": 7080,
    "Ġpeeping": 16125,
    "Ġimagine": 3924,
    "Ġgag": 21590,
    "Ġrover": 18454,
    "Ġplate": 8898,
    "pious": 17633,
    "Ġdiab": 10611,
    "Ġscientific": 6857,
    "Ġspecial": 2104,
    "Ġready": 3397,
    "unt": 2044,
    "Ġslave": 7454,
    "Ġskilfully": 20522,
    "Ġcannon": 14153,
    "all": 486,
    "Ġstun": 11649,
    "Ġdismasted": 15250,
    "Ġtolland": 24988,
    "Ġkilling": 13331,
    "Ġsmokes": 22558,
    "Ġreced": 15689,
    "acity": 5734,
    "ictions": 14225,
    "stricken": 9883,
    "ieged": 22577,
    "Ġextensive": 12938,
    "elements": 25203,
    "Ġpagans": 16922,
    "Ġordained": 19443,
    "Č": 205,
    "ittle": 810,
    "honour": 13466,
    "stonecraft": 24356,
    "ĥ": 230,
    "listened": 15043,
    "Ġmould": 6519,
    "Ġmexico": 15279,
    "Ġimpo": 3441,
    "Ġworkman": 16270,
    "Ġanew": 11430,
    "Ġwardrobe": 17225,
    "Ġhen": 3501,
    "abb": 15736,
    "Ġunhing": 18241,
    "Ġturnkeys": 23026,
    "eridge": 15524,
    "Ġjacobian": 2894,
    "quickness": 19850,
    "Ġtimor": 24224,
    "apt": 730,
    "Ġsomeone": 6703,
    "nered": 18488,
    "izabeth": 907,
    "Ġpane": 21461,
    "satisf": 5781,
    "Ġcomputer": 1173,
    "Ġheroism": 24544,
    "sword": 10726,
    "terrors": 25041,
    "strate": 12671,
    "blow": 9103,
    "powers": 25410,
    "tains": 10962,
    "Ġformer": 3323,
    "Ġyield": 5093,
    "Ġweeps": 24947,
    "Ġpersecut": 16952,
    "Ġgate": 6825,
    "Ġrugged": 18720,
    "Ġgemini": 26469,
    "Ġsympathy": 6346,
    "Ġtom": 15630,
    "gallery": 24693,
    "deliberated": 26118,
    "Ġdaugh": 2290,
    "adamite": 20591,
    "oam": 8751,
    "Ġtarpaulin": 26157,
    "Ġmumbled": 17807,
    "Ġwallow": 19464,
    "Ġmead": 8835,
    "Ġopal": 23624,
    "Ġwake": 4748,
    "fill": 15349,
    "Ġeyford": 10641,
    "Ġprairie": 8712,
    "Ġtell": 1468,
    "Ġsilken": 16376,
    "stones": 11635,
    "Ġaccusations": 22374,
    "54": 15298,
    "Ġrang": 9244,
    "Ġparish": 8854,
    "Ġabject": 18391,
    "Ġcedars": 20291,
    "mystery": 15154,
    "Ġingen": 9049,
    "talk": 6656,
    "Ġshorter": 4499,
    "Ġblood": 3168,
    "Ġbowled": 23768,
    "iceland": 21563,
    "Ġstable": 2702,
    "Ġabsence": 4894,
    "Ġspouts": 7729,
    "Ġalco": 21779,
    "irium": 8161,
    "const": 5938,
    "Ġalarmed": 6923,
    "disgraceful": 26076,
    "Ġlieu": 19563,
    "cocks": 23560,
    "generative": 4330,
    "Ġvalu": 5039,
    "obscure": 23095,
    "Ġland": 1998,
    "knell": 24555,
    "Ġgums": 21608,
    "Ġancho": 15600,
    "ific": 488,
    "agatha": 21905,
    "Ġassigned": 16310,
    "Ġslipping": 13359,
    "Ġradiant": 16809,
    "lies": 15380,
    "Ġ82": 24458,
    "Ġweaving": 12737,
    "Ġlanc": 19763,
    "Ġfinancial": 23127,
    "Ġought": 3419,
    "Ġinsert": 19904,
    "Ġdimmed": 24267,
    "laid": 10109,
    "Ġpumping": 25643,
    "Ġclad": 12837,
    "Ġeuropean": 20044,
    "Ġoverpowering": 15248,
    "Ġhumorousness": 25377,
    "Ġattacks": 12202,
    "industrious": 26239,
    "resemblance": 25933,
    "ission": 6457,
    "Ġunrelieved": 20544,
    "Ġcompacted": 23508,
    "ontory": 10459,
    "imental": 16533,
    "honorable": 19900,
    "dually": 3283,
    "chamber": 13624,
    "Ġspong": 15879,
    "Ġanaly": 1137,
    "Ġpursued": 6328,
    "Ġwatch": 2745,
    "Ġsolicitude": 10039,
    "Ġrust": 6408,
    "Ġpreface": 18367,
    "Ġdiff": 3116,
    "Ġeffeminacy": 20717,
    "Ġpompous": 20421,
    "ket": 17582,
    "Ġthought": 1092,
    "avern": 24792,
    "Ġoutweigh": 22319,
    "Ġdecorated": 22442,
    "Ġbathing": 20198,
    "Ġspain": 15878,
    "Ġfetching": 16896,
    "ield": 2407,
    "Ġterms": 2563,
    "oyed": 14362,
    "Ġtop": 2473,
    "Ġboundless": 10495,
    "Ġrival": 10485,
    "Ġweights": 897,
    "rapt": 13972,
    "Ġpleaded": 16297,
    "Ġconsec": 21802,
    "Ġ59": 24327,
    "Ġseparation": 11248,
    "igin": 3654,
    "Ġphenomenon": 17916,
    "Ġexcused": 23311,
    "Ġrudeness": 17124,
    "bones": 8371,
    "Ġtrials": 16789,
    "ildad": 3532,
    "grat": 5052,
    "Ġunseen": 3524,
    "Ġscound": 12829,
    "ctuous": 9205,
    "Ġinterior": 8896,
    "Ġsecrets": 9054,
    "Ġscrewed": 15119,
    "itudes": 3017,
    "Ġopening": 5045,
    "/*": 10070,
    "Ġhates": 21483,
    "Ġthird": 4184,
    "this": 1439,
    "Ġunmindful": 22061,
    "Ġtwelve": 4963,
    "Ġdemoniacal": 20555,
    "maker": 12490,
    "Ġauthors": 10416,
    "highest": 20406,
    "Ġhind": 9188,
    "Ġtrapped": 23075,
    "Ï": 144,
    "Ġtoad": 21507,
    "consideration": 14954,
    "Ć": 199,
    "Ġcomplement": 23708,
    "herfield": 3629,
    "gazing": 12469,
    "tap": 17676,
    "Ġovertake": 15971,
    "Ġbeaten": 10528,
    "Ġintertw": 18589,
    "Ġdig": 6135,
    "Ġtal": 7564,
    "crow": 9590,
    "{": 95,
    "Ġdone": 1819,
    "Ġutter": 3974,
    "game": 11490,
    "Ġconnexion": 11454,
    "appo": 3915,
    "swell": 17663,
    "Ġcouns": 10520,
    "rebell": 17763,
    "Ġvenetian": 14846,
    "Ġnind": 17949,
    "hr": 20887,
    "Ġperse": 6271,
    "young": 7321,
    "Ġbrilliant": 11414,
    "Ġscrawled": 24580,
    "Ġreaches": 18031,
    "swe": 5995,
    "Ġjour": 11762,
    "Ġvirt": 3908,
    "persons": 24174,
    "sincerely": 24584,
    "omist": 21635,
    "Ġnieces": 8432,
    "ě": 220,
    "naturalists": 23486,
    "Ġbourgh": 5069,
    "Ġwa": 2065,
    "Ġexasperated": 11412,
    "derstand": 655,
    "Ġquiet": 3260,
    "Ġheadache": 22893,
    "Ġswallowed": 7943,
    "Ġworm": 9162,
    "Ġneedles": 11184,
    "Ġwax": 10776,
    "ompl": 4536,
    "perishing": 22183,
    "Ġresurrection": 12891,
    "Ġexcuses": 19044,
    "madam": 24421,
    "ath": 862,
    "business": 5610,
    "Ġdanced": 7842,
    "Ġdimens": 3150,
    "ivial": 15860,
    "Ġhyster": 16873,
    "Ġasks": 5115,
    "Ġlun": 7855,
    "ribbed": 16410,
    "Ġfearfulness": 23512,
    "wait": 11320,
    "Ġfumes": 21416,
    "Ġaugmented": 15104,
    "Ġlog": 1676,
    "compasses": 19456,
    "Ġincessantly": 11411,
    "Ġtriumph": 5143,
    "weakness": 16122,
    "Ġsocks": 14133,
    "Ġhouse": 1502,
    "able": 451,
    "Ġdestroyer": 13412,
    "Ġspent": 3964,
    "ineas": 15820,
    "Ġfearlessness": 19160,
    "Ġconfirming": 25321,
    "enance": 3371,
    "ff": 461,
    "ract": 970,
    "af": 2377,
    "hump": 12475,
    "ure": 356,
    "Ġskylarking": 19485,
    "Ġwallowing": 24040,
    "neurons": 3136,
    "iction": 4269,
    "ldog": 21914,
    "Ġploughing": 26259,
    "ology": 1539,
    "Ġhuge": 4699,
    "races": 21627,
    "Ġpreacher": 18369,
    "Ġflirting": 16249,
    "Ġmetal": 9382,
    "Ġassail": 13060,
    "Ġhurt": 7700,
    "Ġmildly": 9029,
    "Ġstreat": 15718,
    "Ġsharper": 17179,
    "pinn": 21025,
    "Ġquestionable": 19265,
    "istic": 981,
    "Ġvarieties": 14309,
    "þ": 191,
    "Ġagonized": 25372,
    "ctions": 951,
    "Ġpicturesqueness": 24480,
    "gre": 5788,
    "Ġcharm": 4548,
    "conda": 18992,
    "Ġpanting": 11602,
    "inable": 11555,
    "Ġthickness": 13276,
    "ach": 435,
    "Ġpetrified": 19595,
    "Ġprotect": 6337,
    "min": 4571,
    "Ġcons": 953,
    "commun": 15033,
    "hit": 20888,
    "article": 22388,
    "Ġraiment": 22654,
    "Ġcol": 1063,
    "Ġargu": 10934,
    "quitted": 21854,
    "Ġanticipated": 13510,
    "Ġelaborate": 18636,
    "ľ": 255,
    "Ġsaint": 15506,
    "Ġcrags": 23527,
    "ourers": 21447,
    "teak": 22815,
    "Ġdegenerated": 20504,
    "Ġdisembow": 22534,
    "slight": 10727,
    "christ": 10210,
    "troubled": 17112,
    "Ġlighted": 7063,
    "Ġwindow": 2997,
    "Ġveteran": 17449,
    "Ġevaluation": 16568,
    "Ġnets": 21521,
    "ordingly": 18514,
    "illum": 15867,
    "rove": 21530,
    "Ġjest": 18403,
    "unnecessary": 21877,
    "yed": 3271,
    "Ġwoll": 21292,
    "batross": 9092,
    "Ġphilosophers": 10551,
    "Ġwiping": 25765,
    "Ġknitted": 19588,
    "Ġsignification": 19202,
    "irr": 12734,
    "erns": 8777,
    "aulets": 18620,
    "gin": 4930,
    "Ġderive": 10394,
    "Ġlegible": 23532,
    "jud": 4482,
    "Ġmeta": 3288,
    "acknowledging": 25476,
    "bular": 15312,
    "indulged": 22372,
    "Ġ50": 24319,
    "fifth": 20145,
    "Ġpermanently": 25473,
    "Ġkicks": 19767,
    "Ġscept": 15502,
    "Ġsentin": 16369,
    "Ġsodden": 25535,
    "Ġprecaution": 11197,
    "Ġginger": 9210,
    "caus": 11476,
    "Ġarticulate": 24432,
    "Ġcritic": 19124,
    "inev": 21976,
    "ires": 6037,
    "lean": 21363,
    "Ġabounding": 12342,
    "abhor": 12704,
    "carp": 9109,
    "Ġexper": 1297,
    "scept": 21052,
    "fe": 680,
    "Ġunpleasing": 22050,
    "Ġgeneric": 18453,
    "harm": 13734,
    "Ġsitt": 21216,
    "Ġconsumm": 15153,
    "firmly": 20279,
    "Ġcursed": 6726,
    "Ġsymb": 2590,
    "Ġsofas": 26224,
    "Ġcheat": 19021,
    "Ġharsh": 9520,
    "Ġgeneralization": 985,
    "wooden": 24587,
    "Ġtransformations": 3483,
    "buoy": 7760,
    "dissatisfied": 26612,
    "Ġour": 1011,
    "depend": 9112,
    "Ġhogshe": 20490,
    "Ġmarvell": 7248,
    "cstasy": 11445,
    "chery": 24551,
    "powder": 17645,
    "rised": 10123,
    "increase": 20267,
    "Ġstarlight": 24626,
    "Ġcat": 2122,
    "lynes": 15701,
    "Ġinvesting": 19645,
    "Ġsevered": 18205,
    "discern": 14850,
    "Ġpiercing": 13493,
    "Ġcomposedly": 25185,
    "back": 2018,
    "kindness": 10505,
    "Ġtreading": 16504,
    "Ġforswe": 21771,
    "wherein": 19107,
    "ite": 712,
    "Ġchanc": 18384,
    "umbers": 10918,
    "Ġcheapside": 23284,
    "unalterable": 21883,
    "Ġflor": 8561,
    "ĠĠĠĠĠĠĠĠĠĠĠĠĠĠĠĠĠĠĠĠĠĠĠĠĠĠĠĠĠĠĠĠĠĠĠĠĠ": 14614,
    "Ġpious": 11598,
    "Ġtowns": 11173,
    "Ġimmutable": 17357,
    "Ġbankrupt": 16796,
    "Ġfanc": 6743,
    "Ġ122": 24467,
    "hinting": 17569,
    "Ġnonce": 23232,
    "Ġinspirited": 23419,
    "phren": 22767,
    "Ġmeanly": 12906,
    "cried": 8724,
    "Ġarranged": 9876,
    "urre": 10856,
    "Ġbranded": 14378,
    "Ġmanhandle": 22326,
    "thence": 23396,
    "bucket": 17493,
    "Ġjura": 14192,
    "Ġborn": 5224,
    "devouring": 24950,
    "taller": 26150,
    "Ġcaps": 8414,
    "Ġgamb": 17997,
    "Ġhair": 3314,
    "Ġgem": 21591,
    "tanh": 5204,
    "cold": 9589,
    "shr": 10980,
    "ahit": 9380,
    "nearer": 22447,
    "Ġtap": 12523,
    "Ġfun": 524,
    "Ġchancery": 20715,
    "Ġconfining": 23304,
    "structure": 2366,
    "Ġjob": 7015,
    "Ġestablish": 9542,
    "hs": 8377,
    "Ġmerid": 13192,
    "Ġperfume": 25665,
    "Ġdiscovered": 4413,
    "yramid": 8367,
    "Ġsmoothe": 23655,
    "pressed": 6588,
    "mysteries": 26050,
    "Ġcourting": 23287,
    "merchant": 10467,
    "Ġsurrounding": 12160,
    "Ġissue": 2309,
    "Ġglobal": 2371,
    "Ġdiscoursing": 26266,
    "Ġperiods": 13302,
    "Ġinstances": 5568,
    "Ġasiatics": 20429,
    "uction": 15442,
    "Ġpersuasion": 10498,
    "plish": 18200,
    "also": 7850,
    "fishermen": 17061,
    "meet": 11854,
    "ho": 2860,
    "bbings": 19275,
    "uzza": 11270,
    "Ġmagician": 25058,
    "Ġthree": 1372,
    "tures": 21068,
    "Ġplum": 11820,
    "Ġkind": 1785,
    "helping": 23137,
    "Ġrewarding": 13436,
    "Ġchasing": 11752,
    "Ġcin": 13874,
    "Ġtwins": 16118,
    "Ġ119": 24441,
    "Ġoutside": 5554,
    "Ġdie": 3962,
    "Ġsacrificed": 17421,
    "Ġverses": 17063,
    "assure": 9268,
    "relieved": 13275,
    "Ġnovelties": 24778,
    "E": 41,
    "arthly": 8029,
    "Ġavoid": 5199,
    "Ġrecommence": 16812,
    "given": 8376,
    "ł": 259,
    "Ġtablet": 19204,
    "Ġwedding": 4858,
    "Ġrichness": 19309,
    "showing": 22458,
    "Ġsadder": 24048,
    "Ġviolates": 3165,
    "Ġpictures": 5503,
    "vii": 13147,
    "Ġnom": 21516,
    "ceiling": 21624,
    "ians": 2359,
    "Ġunhinged": 26216,
    "Ġinspection": 14544,
    "Ġworshippers": 25693,
    "½": 126,
    "Ġaboriginal": 14188,
    "ed": 293,
    "phew": 6368,
    "¡": 99,
    "dreams": 12335,
    "igated": 15704,
    "murder": 10564,
    "inement": 11557,
    "Ġweighted": 2091,
    "apped": 5395,
    "Ġacquisition": 18899,
    "Ġlocal": 1199,
    "model": 3791,
    "Ġjelly": 22297,
    "Ġloathsome": 13527,
    "Ġsaville": 15889,
    "shiver": 16024,
    "visitor": 15057,
    "Ġregrets": 18601,
    "Ġmetrics": 19063,
    "Ġshell": 11734,
    "Ġsituated": 9446,
    "shud": 18490,
    "Ġyork": 11664,
    "Ġjeopardy": 13595,
    "ze": 1319,
    "Ġanomalously": 25638,
    "Ġtuck": 10140,
    "Ġgrey": 4513,
    "Ġspeedy": 11172,
    "Ġrole": 15994,
    "Ġcurious": 3361,
    "Ġgirdled": 19157,
    "vity": 7815,
    "gh": 3801,
    "itud": 2932,
    "Ġpredecess": 18524,
    "Ġabilities": 8866,
    "people": 7676,
    "Ġpatagon": 14509,
    "Ġgarb": 21600,
    "Ġchivalry": 25819,
    "ted": 791,
    "polar": 24583,
    "Ġanchors": 12610,
    "Ġcivilised": 24244,
    "extrem": 18699,
    "Ġincorporated": 25711,
    "hatred": 24821,
    "Ġdecent": 10978,
    "passion": 11260,
    "scenes": 16242,
    "ison": 3077,
    "Ġhooked": 19079,
    "itigated": 23042,
    "Ķ": 247,
    "service": 15036,
    "Ġmout": 17798,
    "Ġimprudent": 12844,
    "Ġplaning": 22598,
    "Ġve": 1105,
    "expression": 10547,
    "Ġrecognise": 12037,
    "Ġremorseless": 13450,
    "seas": 14032,
    "trial": 20349,
    "Ġ_": 840,
    "Ġpartial": 2129,
    "ruff": 15895,
    "scale": 3535,
    "Ġdisgrace": 7215,
    "Ġsummoning": 23872,
    "Ġundulating": 19516,
    "Ġgold": 3277,
    "hospit": 25903,
    "Ġisol": 8833,
    "Ġinstructed": 19283,
    "recogn": 13424,
    "Ġlaure": 16909,
    "Ġafrican": 20136,
    "accuracy": 9878,
    "ugues": 19023,
    "omely": 21636,
    "Ġproud": 5654,
    "err": 1136,
    "Ġcredulous": 17144,
    "p": 84,
    "ohnson": 16324,
    "smith": 5669,
    "Ġembraced": 10005,
    "watery": 19825,
    "turbable": 24531,
    "Ġnevertheless": 5040,
    "..": 5783,
    "ommod": 13976,
    "Ġca": 21337,
    "hill": 15361,
    "Ġpython": 1071,
    "persuade": 13532,
    "Ġvectors": 1771,
    "scot": 14417,
    "Ġstructures": 2722,
    "Ġsangu": 15503,
    "Ġanoints": 25538,
    "splinter": 25210,
    "Ġcompelled": 14269,
    "lording": 24047,
    "judged": 14830,
    "Ġdefray": 22938,
    "Ġnuptials": 20492,
    "Ġmiriam": 25273,
    "Ġhearken": 21682,
    "Ġtwain": 16117,
    "ĠĠĠĠĠĠĠĠĠĠĠĠĠĠĠĠĠĠĠĠĠĠĠĠĠĠĠĠĠĠĠĠĠĠĠ": 19257,
    "Ġrenewing": 19809,
    "Ġcontinued": 2924,
    "Ġcontributes": 15249,
    "Ġvisits": 8220,
    "Ġreckless": 13457,
    "Ġrocked": 12851,
    "Ġeffective": 1251,
    "ument": 5240,
    "itors": 2916,
    "Ġfeature": 752,
    "83": 13679,
    "itt": 571,
    "ippi": 20243,
    "arm": 1359,
    "amused": 21843,
    "aye": 3658,
    "scent": 13018,
    "comprehensive": 20625,
    "Ġperceiving": 8875,
    "wat": 6231,
    "Ġsquare": 2397,
    "Ġbrass": 11047,
    "Ġ77": 24263,
    "leton": 5148,
    "Ġshipmate": 8927,
    "ically": 842,
    "Ġtheir": 643,
    "Ġbarnacled": 25536,
    "perpetually": 20511,
    "insanity": 23066,
    "elzebub": 26464,
    "Ġaerial": 21197,
    "Ġinconvenience": 9563,
    "gorge": 22329,
    "Ġchanges": 2283,
    "Ġneighbor": 25803,
    "Ġbull": 7839,
    "Ġtoiling": 15632,
    "Ġremnants": 22790,
    "Ò": 147,
    "erately": 21272,
    "Ġaffairs": 6877,
    "vanity": 24974,
    "cheeked": 19339,
    "Ġemma": 20693,
    "semble": 1521,
    "resolutions": 26164,
    "Ġlurch": 21552,
    "cro": 13695,
    "rants": 13777,
    "building": 17308,
    "Ġinterruption": 9472,
    "tese": 21082,
    "penny": 22942,
    "Ġmonica": 22982,
    "ill": 447,
    "historical": 20464,
    "Ġallurements": 22004,
    "Ġbeget": 9225,
    "Ġbegone": 11915,
    "Ġunspeak": 8850,
    "bow": 5424,
    "Ġopposed": 11188,
    "Ġtechniques": 2869,
    "Ġlabour": 7274,
    "reasonable": 7751,
    "Ġmomentum": 1602,
    "moral": 14801,
    "acceptance": 25184,
    "Ġsight": 2112,
    "Ġtranslation": 3089,
    "ozy": 17622,
    "Ġundivided": 24118,
    "loom": 18538,
    "Ġloom": 7628,
    "Ġtinkling": 25212,
    "Ġgentleman": 3044,
    "iarity": 8743,
    "Ġlothario": 26184,
    "Ġrides": 21968,
    "ë": 172,
    "cock": 12024,
    "regards": 23465,
    "Ġenraged": 10244,
    "ieved": 3230,
    "collins": 6916,
    "Ġmulti": 1044,
    "Ġunreasonably": 17450,
    "disapprobation": 19155,
    "Ġdisposing": 19373,
    "Ġsigh": 10336,
    "obvious": 9356,
    "Ġdreading": 23797,
    "Ġteased": 18806,
    "Ġgum": 21592,
    "Ġcrash": 12000,
    "Ġremoved": 5274,
    "horn": 8085,
    "establishment": 26113,
    "Ġnarwhales": 24902,
    "aggo": 5097,
    "assemblies": 25956,
    "Ġjumped": 7096,
    "Ġtoilette": 20491,
    "Ġhump": 5853,
    "suspected": 12370,
    "Ġrelaxed": 12981,
    "Ġcandles": 9907,
    "cast": 2929,
    "Ġhappen": 5571,
    "Ġimpertin": 6933,
    "london": 9609,
    "Ġtherein": 11774,
    "Ġsilver": 7463,
    "Ġperceptible": 18451,
    "Ġjets": 10287,
    "occ": 4485,
    "Ġsupple": 22996,
    "swallowed": 14852,
    "Ġentreated": 9950,
    "Ġgratifying": 13304,
    "Ġkinds": 14503,
    "Ġblended": 16217,
    "Ġhysterics": 26093,
    "Ġbox": 5109,
    "Ġinfancy": 10409,
    "ings": 633,
    "Ġunsafe": 22036,
    "Ġconcluded": 5658,
    "Ġwindpipe": 23103,
    "ting": 1333,
    "mechanical": 25578,
    "Ġmood": 6276,
    "Ġmurky": 19201,
    "embraced": 25806,
    "Ġdisagree": 22529,
    "Ġfunctional": 3052,
    "Ġlift": 8810,
    "Ġslashing": 23167,
    "Ġtwinkling": 12322,
    "Ġfleetness": 20178,
    "Ġhandsomest": 20333,
    "Ġprairies": 20019,
    "spirits": 8054,
    "Ġnib": 13939,
    "Ġstumped": 24942,
    "Ġveil": 7933,
    "famous": 16916,
    "Ġfourth": 7706,
    "acquainted": 7313,
    "Ġwind": 1434,
    "oner": 6124,
    "Ġbland": 11064,
    "Ġmeasured": 9803,
    "odox": 21808,
    "boast": 23250,
    "constantly": 24606,
    "ries": 3354,
    "Ġflattering": 13026,
    "Ġperennial": 22691,
    "Ġepsom": 19981,
    "Ġir": 1994,
    "man": 1057,
    "Ġguar": 23041,
    "erpillar": 5797,
    "Ġoutward": 7903,
    "Ġnavigation": 9992,
    "lungs": 26135,
    "day": 1858,
    "Ġdirect": 1471,
    "experience": 17158,
    "Ġabstraction": 26539,
    "ying": 1369,
    "Ġneur": 813,
    "Ġlawn": 7379,
    "jep": 20925,
    "Ġadjusts": 8980,
    "Ġaux": 21198,
    "deadly": 17100,
    "Ġqualified": 14949,
    "Ġnarrations": 24352,
    "Ġbelf": 21379,
    "arian": 10316,
    "Ġundoubtedly": 8312,
    "hammer": 14489,
    "Ġadviser": 25312,
    "umphed": 23516,
    "Ġbeams": 14631,
    "Ġduc": 4696,
    "Ġdiscompose": 25579,
    "increased": 20269,
    "themselves": 6540,
    "Ġcleared": 6074,
    "mell": 20963,
    "Ġvigilant": 20183,
    "sp": 894,
    "Ġinmost": 17930,
    "Ġremoter": 20104,
    "Ġexpress": 2194,
    "other": 1314,
    "Ġbasket": 9572,
    "tables": 19756,
    "nights": 16448,
    "Ġconfines": 23303,
    "sive": 4142,
    "Ġboy": 3025,
    "Ġroaring": 10968,
    "Ġpoliteness": 8273,
    "uff": 2733,
    "Ġentitled": 8538,
    "salesman": 20670,
    "Ġwharves": 13505,
    "ordinate": 12871,
    "Ġdaw": 21427,
    "Ġinfirm": 19020,
    "Ġapr": 12529,
    "Ġabusive": 22270,
    "capitals": 25080,
    "Ġmountains": 4427,
    "Ġwhispering": 14944,
    "upright": 23015,
    "Ġare": 527,
    "Ġfrance": 7681,
    "grave": 16092,
    "Ġconvergence": 975,
    "Ġlionel": 25286,
    "Ġparaphrasing": 26526,
    "atter": 649,
    "Ġspl": 2985,
    "Ġromish": 19583,
    "Ġstake": 14002,
    "Ġquarter": 3976,
    "fav": 6646,
    "Ġbully": 23854,
    "nantucket": 7804,
    "iffe": 21899,
    "Ġrelationships": 2927,
    "sprit": 11382,
    "morland": 24153,
    "Ġambiguous": 20163,
    "Ġchewing": 23281,
    "Ġgrop": 12661,
    "Ġusage": 9729,
    "Ġsensation": 6895,
    "Ġsighing": 18676,
    "Ġschooner": 16747,
    "anth": 13886,
    "Ġinspecting": 24613,
    "innocent": 20285,
    "Ġi": 311,
    "_,âĢĻâĢĿ": 20399,
    "Ġuncertain": 4067,
    "Ġsanity": 24979,
    "arance": 4697,
    "olence": 10230,
    "creatures": 7517,
    "/(": 2983,
    "Ġthereof": 22365,
    "Ġwalker": 23308,
    "Ġexperiments": 23027,
    "mend": 20965,
    "ishing": 1140,
    "Ġoverdone": 22357,
    "heric": 15909,
    "hest": 3369,
    "Ġinv": 2221,
    "Ġmaritime": 23035,
    "Ġtwee": 22672,
    "alization": 731,
    "colnett": 19329,
    "Ġsinful": 18948,
    "ulent": 21859,
    "Ġ182": 13235,
    "Ġhints": 8429,
    "arrival": 15597,
    "Ġfrightens": 24027,
    "uding": 16146,
    "Ġinsens": 8276,
    "disappointment": 11425,
    "Ġnearer": 5301,
    "Ġtestified": 16330,
    "Ġmethinks": 10388,
    "party": 8992,
    "Ġcottages": 14726,
    "button": 10965,
    "united": 14059,
    "Ġpaced": 7583,
    "Ġdra": 1592,
    "Ġdoublo": 6078,
    "Ġinconsist": 17935,
    "Ġpicked": 6341,
    "Ġdef": 1201,
    "eat": 11482,
    "Ġfra": 1754,
    "Ġbecome": 3158,
    "Ġvac": 5025,
    "asburgh": 15644,
    "ta": 13788,
    "Ġtreat": 3175,
    "illity": 18296,
    "Ġgibraltar": 25787,
    "ihood": 20921,
    "frightened": 17195,
    "Ġstory": 2903,
    "giv": 13721,
    "pos": 15409,
    "prisoner": 20542,
    "Ġwheeling": 18288,
    "dry": 13702,
    "metal": 24765,
    "Ġabund": 8864,
    "Ġstalk": 12694,
    "Ġstarve": 24625,
    "Ġlangsdorff": 15275,
    "mantel": 26394,
    "Ġwakeful": 24266,
    "Ġinvest": 4978,
    "mush": 20976,
    "Ġblush": 14401,
    "Ġmus": 3396,
    "vation": 4743,
    "Ġnaval": 16899,
    "Ġunembarrassed": 22064,
    "Ġwaves": 3897,
    "beryls": 25309,
    "degra": 22138,
    "Ġtranslations": 12050,
    "ips": 2591,
    "Ġapprehen": 16829,
    "Ġaffections": 10384,
    "duck": 22409,
    "Ġenriched": 26499,
    "Ġrind": 21966,
    "isher": 2879,
    "Ġmoodily": 19833,
    "Ġhunters": 6300,
    "Ġate": 8839,
    "Ġimpressions": 9552,
    "ire": 493,
    "itting": 1148,
    "bulwarks": 12270,
    "Ġraptures": 13496,
    "explain": 1479,
    "Ġsevent": 18202,
    "canonical": 22960,
    "Ġcall": 2076,
    "Ġwilds": 16508,
    "Ġgathers": 24743,
    "Ġfeed": 2128,
    "Ġmet": 1887,
    "uncommon": 11680,
    "Ġwindward": 6885,
    "mag": 6508,
    "Ġashamed": 6403,
    "nostr": 22746,
    "Ġeconomical": 25287,
    "Ġ31": 12128,
    "Ġequilib": 4134,
    "Ġbead": 21747,
    "Ġobliter": 14321,
    "Ġglancing": 5399,
    "ter": 359,
    "orum": 12587,
    "etimes": 1989,
    "Ġsumat": 14129,
    "Ġroving": 22400,
    "Ġcode": 1722,
    "reputation": 15514,
    "Ġcirclings": 26431,
    "promising": 24726,
    "Ġvillas": 24050,
    "Ġholes": 16406,
    "osc": 18387,
    "Ġof": 298,
    "Ġimmortal": 8017,
    "Ġtumbling": 13825,
    "Ġburial": 16521,
    "Ġbubb": 12581,
    "oil": 7805,
    "dog": 10692,
    "Ġrelev": 1715,
    "Ġyore": 21775,
    "Ġpreach": 14172,
    "iron": 3733,
    "sometimes": 5971,
    "Ġnarrower": 24354,
    "Ġyaw": 18094,
    "Ġindividual": 5744,
    "Ġvenom": 24238,
    "influences": 25250,
    "Ġresulting": 24198,
    "Ġpled": 17907,
    "Ġagrippa": 11805,
    "exerc": 16013,
    "Ġpopulation": 16827,
    "connections": 14427,
    "Ġmagnanim": 14471,
    "Ġcetace": 14987,
    "Ġpainting": 13139,
    "Ġtransmit": 10304,
    "Ġcommissioned": 19894,
    "Ġnoses": 18373,
    "Ġtraffic": 23081,
    "Ġwitnessing": 19597,
    "wound": 21125,
    "Ġmuse": 13859,
    "Ġbloss": 19255,
    "Ġorganically": 3014,
    "Ġabsolutely": 4857,
    "vineyard": 25421,
    "promise": 12248,
    "Ġsulkily": 25882,
    "conclusive": 25673,
    "Ġfingers": 5672,
    "herald": 22203,
    "Ġvictory": 16653,
    "Ĝ": 221,
    "Ġpawnbroker": 13657,
    "Ġwhirled": 14959,
    "Ġsplit": 7992,
    "Ġapt": 9155,
    "Ġshoving": 23489,
    "Ġtinker": 15130,
    "continually": 11302,
    "edy": 2861,
    "Ġnaturalists": 10362,
    "poled": 22903,
    "Ġlifts": 25358,
    "perquisites": 26531,
    "Ġwilson": 6629,
    "Ġpettiness": 24229,
    "Ġheap": 12675,
    "history": 15014,
    "west": 10739,
    "audible": 17132,
    "notwithstanding": 22750,
    "Ġachieved": 13165,
    "Ġsongs": 13419,
    "mistake": 24529,
    "ĠcÃ¦sar": 20578,
    "Ġhandwriting": 14318,
    "away": 4625,
    "impotence": 23760,
    "Ġfrock": 10489,
    "Ġunwillingness": 20030,
    "Ġstraw": 9428,
    "Ġhaw": 10251,
    "Ġindefinite": 17176,
    "Ġleviathanic": 12078,
    "wled": 15453,
    "soon": 4026,
    "amiable": 14052,
    "Ġdet": 510,
    "tar": 8097,
    "Ġcreamy": 14331,
    "Ġ*": 1273,
    "mael": 6722,
    "gracechurch": 24581,
    "Ġenraptured": 26500,
    "Ġlarboard": 11009,
    "Ġedition": 16433,
    "pretend": 24882,
    "dick": 11479,
    "ull": 1432,
    "aven": 8207,
    "Ġbegrim": 23014,
    "volutions": 16321,
    "flo": 6114,
    "Ġshar": 9249,
    "Ġscattered": 6856,
    "anqu": 4108,
    "Ġlast": 1120,
    "Ġcrawled": 17044,
    "miniature": 16765,
    ".*": 7331,
    "Ġact": 690,
    "Ġinspect": 5963,
    "Ġleech": 24155,
    "Ġconvulsive": 19305,
    "Ġbegged": 8230,
    "ered": 1683,
    "me": 869,
    "Ġsweep": 8265,
    "Ġdownst": 3559,
    "Ġreducing": 1958,
    "Ġundo": 15838,
    "Ġpliny": 11823,
    "Ġbedside": 19121,
    "ock": 15401,
    "depth": 12797,
    "--": 1042,
    "Ġup": 463,
    "necessarily": 19630,
    "Ġspades": 12793,
    "Ġpacifics": 24373,
    "Ġcommunic": 5751,
    "Ġpea": 14316,
    "Ġartic": 5314,
    "cous": 8721,
    "irous": 8838,
    "atched": 6375,
    "etw": 408,
    "ran": 11515,
    "okes": 9276,
    "Ġcrucifix": 26079,
    "Ġutil": 4672,
    "bran": 23573,
    "dil": 11478,
    "Ġriverside": 25247,
    "Ġcrimes": 8588,
    "Ġcategories": 4478,
    "Ġrio": 23889,
    "lamp": 9608,
    "Ġgaily": 16748,
    "Ġcomprised": 14271,
    "Ġconfess": 3766,
    "Ġted": 13811,
    "alog": 8804,
    "speed": 19407,
    "Ġthomas": 17947,
    "Ġimmedi": 2906,
    "ling": 734,
    "intu": 22930,
    "Ġslit": 13054,
    "ancial": 21360,
    "Ġstandards": 19016,
    "Ġfraud": 19017,
    "Ġlinen": 12405,
    "Ġbrig": 11046,
    "Ġunintellig": 22021,
    "Ġdeserts": 10507,
    "hid": 13733,
    "evid": 11484,
    "Ġwaited": 4911,
    "jur": 17578,
    "Ġbert": 4582,
    "quod": 2164,
    "Ġgratitude": 5599,
    "Ġdances": 10812,
    "Ġoccur": 1083,
    "Ġmasses": 10503,
    "ophisticated": 22475,
    "Ġleghorn": 13145,
    "Ġflights": 24753,
    "describe": 1512,
    "Ġwarbling": 26168,
    "Ġundertaking": 8573,
    "Ġconduct": 3732,
    "Ġhusbands": 16642,
    "Ġdeclines": 23960,
    "Ġjavel": 17084,
    "deliver": 19503,
    "ĠĠĠĠĠĠĠĠĠĠĠĠĠĠĠĠĠĠĠĠĠĠĠ": 18832,
    "fast": 3073,
    "Ġpopularly": 12239,
    "Ġalas": 5921,
    "Ġinterrupt": 4360,
    "Ġreverend": 15258,
    "ated": 724,
    "loo": 10319,
    "Ġovers": 14205,
    "Ġaccess": 9746,
    "Ġsymmetry": 20364,
    "granting": 23412,
    "treacle": 25148,
    "Ġacquiring": 2769,
    "otently": 21797,
    "Ġplayers": 12036,
    "Ġresides": 22537,
    "leful": 17842,
    "jephro": 26392,
    "thirst": 15823,
    "Ġdictionaries": 12338,
    "kles": 17584,
    "Ġcaterpillar": 5864,
    "Ġcoquet": 22581,
    "love": 9293,
    "Ġgrizzled": 11450,
    "Ġlogits": 3449,
    "Ġcandidate": 16701,
    "ipped": 5790,
    "Ġconfusing": 23305,
    "Ġpersu": 3563,
    "mn": 3576,
    "houn": 20892,
    "treated": 21093,
    "Ġstoop": 16309,
    "Ġhermit": 15855,
    "fr": 4803,
    "opes": 10310,
    "txt": 12513,
    "Ġcovers": 18593,
    "countryman": 24639,
    "Ġelectric": 15193,
    "Ġhelm": 5275,
    "Ġcritics": 23443,
    "bweb": 20790,
    "shook": 19855,
    "Ġrepetition": 8972,
    "Ġroyalty": 19735,
    "sex": 12710,
    "Ġlodgings": 8311,
    "Ġoblivious": 26032,
    "relate": 24008,
    "Ġshipwrecked": 25687,
    "Ġpredestinated": 18523,
    "Ġblessing": 11263,
    "Ġloss": 822,
    "pardon": 10064,
    "Ġmercenary": 17193,
    "Ġvect": 1224,
    "eminently": 25105,
    "Ġcondemned": 7778,
    "Ġdeath": 2043,
    "Ġschool": 5512,
    "Ġconnection": 5479,
    "Ġposition": 1954,
    "Ġincompatible": 25680,
    "Ġdescending": 8902,
    "Ġsur": 2182,
    "pread": 7418,
    "Ġapproxim": 1219,
    "ember": 1956,
    "Ġdash": 8121,
    "Ġmultitudinous": 26273,
    "doors": 19094,
    "Ġunwinding": 22055,
    "Ġstudied": 11114,
    "Ġwhoever": 10975,
    "Ġhospit": 7514,
    "30": 20753,
    "Ġstuff": 5717,
    "Ġinquisitive": 26317,
    "Ġaustralia": 15231,
    "governed": 25405,
    "fic": 20851,
    "del": 4075,
    "Ġpovelson": 26552,
    "Ġinterchange": 16072,
    "Ġsuperl": 16445,
    "uplifted": 17695,
    "cream": 15330,
    "coil": 23558,
    "Ġoaths": 13523,
    "Ġmutable": 23952,
    "Ġbeard": 11654,
    "original": 9084,
    "Ġfasten": 11132,
    "Ġcircumnavigating": 25614,
    "Ġjewelled": 20182,
    "Ġleeward": 6210,
    "Ġstrat": 16088,
    "arded": 5029,
    "jet": 13741,
    "Ġfemales": 14936,
    "Ġdespatched": 23827,
    "Ġcasks": 7521,
    "expect": 4768,
    "Ġtrading": 23074,
    "Ġchatting": 24747,
    "Ġformations": 18748,
    "alid": 13934,
    "listener": 24930,
    "Ġpast": 2100,
    "enary": 12548,
    "reasoning": 9475,
    "Ġcalmness": 12090,
    "Ġgenealogies": 25961,
    "unteered": 26495,
    "Ġdit": 21418,
    "Ġharb": 7370,
    "urred": 8449,
    "cred": 9107,
    "Ġlake": 5227,
    "hoisting": 23715,
    "Ġflooded": 24959,
    "Ġfairer": 20460,
    "Ġdevoid": 18684,
    "Ġsnarl": 25715,
    "ouri": 21445,
    "client": 18931,
    "Ġcap": 2362,
    "Ġappellation": 22219,
    "splice": 17170,
    "spect": 3232,
    "idled": 21765,
    "Ġconcussion": 26300,
    "july": 20473,
    "Ġcrad": 21348,
    "intended": 11066,
    "eon": 8729,
    "Ġintellect": 8169,
    "Ġ54": 24322,
    "pect": 1256,
    "Ġfals": 15578,
    "Ġscolding": 15199,
    "Ġpugnacious": 26451,
    "Ġpreposterous": 13668,
    "Ġpraised": 19552,
    "Ġpredicting": 2415,
    "Ġencourages": 2062,
    "mary": 8748,
    "eks": 4727,
    "Ġpurpose": 2711,
    "Ġeligible": 10670,
    "Ġobservation": 6597,
    "Ġeyelids": 26107,
    "Ġmorbidness": 20627,
    "bbing": 6323,
    "text": 1975,
    "Ġashore": 5351,
    "Ġoblique": 20168,
    "Ġblade": 11891,
    "Ġwondering": 7970,
    "strength": 13979,
    "george": 26019,
    "Ġhandled": 12935,
    "Ġpleated": 16295,
    "Ġrelevance": 5184,
    "Ġoverjoy": 15970,
    "Ġprojects": 9510,
    "intern": 23735,
    "sters": 6391,
    "despair": 8343,
    "Ġ}": 21152,
    "Ġdiggings": 24649,
    "poling": 12217,
    "Ġimprisonment": 22383,
    "Ġoccurring": 2793,
    "Ġsides": 4579,
    "mist": 5686,
    "Ġwidespread": 20674,
    "Ġhunsford": 6301,
    "triumph": 15439,
    "topp": 22564,
    "Ġthunders": 15635,
    "forth": 9321,
    "abhorred": 17335,
    "Ġlulled": 17968,
    "Ġmummy": 25768,
    "tawny": 26404,
    "Ġrestored": 7066,
    "Ġdemeanour": 17336,
    "yea": 23085,
    "Ġprofits": 16489,
    "Ġchild": 2258,
    "Ġindicated": 10469,
    "Ġrely": 8820,
    "Ġamusing": 11798,
    "Ġcultured": 25154,
    "Ġanguish": 5583,
    "Ġconfl": 11137,
    "Ġmisgivings": 15289,
    "luyt": 18459,
    "Ġrecom": 4555,
    "stories": 18023,
    "take": 4576,
    "miserably": 24210,
    "Ġelement": 6897,
    "Ġslabs": 13058,
    "Ġmystical": 12130,
    "Ġbalancing": 2432,
    "marks": 7346,
    "Ġashen": 21896,
    "Ġcircumvent": 25064,
    "poke": 18797,
    "Ġdefendants": 15139,
    "atha": 6572,
    "pan": 10716,
    "Ġunaccountable": 7886,
    "Ġaver": 1284,
    "maintained": 25020,
    "fat": 8078,
    "Ġubiquitous": 26195,
    "Ġlaudanum": 20689,
    "wont": 21131,
    "fold": 7546,
    "Ġtransl": 2832,
    "Ġhilarity": 20296,
    "minds": 24232,
    "Ġjonas": 20608,
    "didst": 19347,
    "hunters": 16833,
    "Ġpallor": 13515,
    "Ġbunch": 11326,
    "worthy": 7732,
    "ward": 705,
    "Ġpipes": 9852,
    "Ġpeeling": 22689,
    "Ġrudimental": 25108,
    "telling": 14439,
    "iz": 364,
    "Ġshapes": 14108,
    "Ġdispose": 23877,
    "othing": 6995,
    "icions": 21560,
    "Ġproceeds": 12075,
    "Ġenters": 11025,
    "Ġplough": 18608,
    "Ġstreet": 2960,
    "ensity": 11811,
    "Ġumbrell": 13649,
    "Ġtwitching": 25683,
    "Ġstare": 10864,
    "heidelburgh": 21210,
    "Ġplacing": 8900,
    "Ġartful": 22604,
    "Ġcolourless": 19568,
    "Ġmartha": 16259,
    "Ġpatches": 4237,
    "ued": 7561,
    "mutually": 26136,
    "scra": 13019,
    "Ġpaddling": 25285,
    "ifications": 9727,
    "Ġblubber": 5666,
    "Ġhut": 15616,
    "Ġimpaling": 22379,
    "Ġbequeathed": 20700,
    "Ġbou": 17852,
    "Ġminutely": 14560,
    "Ġprodigy": 19791,
    "Ġinqu": 2967,
    "Ġtriangular": 14858,
    "pres": 16026,
    "Ġvertical": 16604,
    "Ġkn": 4546,
    "Ġmarket": 7708,
    "Ġrnns": 2395,
    "Ġclenched": 14204,
    "Ġjokes": 18408,
    "Ġback": 808,
    "aciously": 12893,
    "Ġanecdote": 26354,
    "Ġbloodless": 19338,
    "discharging": 26305,
    "giving": 8738,
    "Ġspake": 18308,
    "Ġbrides": 22865,
    "croquet": 25747,
    "Ġwan": 15526,
    "Ġfowler": 16937,
    "Ġinvisible": 7327,
    "Ġdeterminate": 23003,
    "),": 1350,
    "Ġseen": 1370,
    "heads": 4093,
    "Ġseam": 3909,
    "presently": 9806,
    "ha": 3980,
    "contrivance": 26316,
    "Ġsummit": 7730,
    "unicorn": 21886,
    "sets": 17660,
    "Ġmincing": 18750,
    "derer": 4600,
    "Ġsorry": 4210,
    "fire": 6357,
    "oo": 7553,
    "Ġkiss": 8182,
    "footman": 17162,
    "ens": 701,
    "Ġsavage": 4009,
    "Ġspermacetti": 19051,
    "Ġarray": 12806,
    "corners": 17367,
    "Ġdistinguish": 2729,
    "Ġenormousness": 24515,
    "Ġencouraged": 9354,
    "Ġrespected": 11951,
    "Ġburtons": 19251,
    "Ġstudying": 9842,
    "saddest": 25527,
    "Ġinsure": 13177,
    "Ġvow": 10246,
    "Ġiceland": 15145,
    "Ġcontempl": 6701,
    "Ġforesaw": 19127,
    "Ġwhosoever": 21716,
    "Ġcyp": 21343,
    "ott": 1871,
    "tolerable": 17688,
    "estinated": 15919,
    "Ġalbert": 12703,
    "flatter": 23964,
    "Ġdarting": 7756,
    "Ġchapel": 9522,
    "Ġaffrighted": 13571,
    "mistakable": 20652,
    "Ġrepresentations": 1874,
    "Ġdemand": 4947,
    "confused": 19643,
    "Ġstreaked": 19113,
    "Ġsomnam": 23004,
    "Ġeaglet": 19303,
    "arius": 14248,
    "Ġunbecoming": 22059,
    "Ġloaf": 15870,
    "Ġtree": 5284,
    "Ġsleeves": 10660,
    "Ġmicroscopic": 26373,
    "Ġsincerely": 7962,
    "Ġencoder": 3634,
    "Ġlat": 5087,
    "zers": 21145,
    "iliating": 12692,
    "Ġclosed": 4605,
    "Ġcirc": 1987,
    "Ġwas": 370,
    "Ġke": 1153,
    "draught": 12087,
    "saved": 15430,
    "Ġvehem": 22886,
    "Ġassume": 10515,
    "Ġplunging": 14951,
    "lin": 9603,
    "spending": 18691,
    "Ġfitting": 21406,
    "Ġdeser": 3887,
    "Ġignominy": 15084,
    "Ġcompatibility": 2961,
    "Ġbeliefs": 24582,
    "Ġdistinctions": 18535,
    "ud": 911,
    "Ġexplanatory": 22199,
    "Ġneighb": 14073,
    "Ġprudence": 13919,
    "Ġofficially": 24838,
    "Ġemperors": 15158,
    "Ġadv": 1177,
    "Ġsupports": 3054,
    "Ġfurlongs": 20722,
    "pest": 6964,
    "Ġsoliloquized": 17301,
    "Ġnodes": 1969,
    "msprop": 2624,
    "Ġswart": 14434,
    "Ġdiddled": 22664,
    "Ġislanders": 19500,
    "Ġminiatures": 20320,
    "investments": 25532,
    "Ġnavy": 14915,
    "kempt": 20940,
    "Ġhunted": 7453,
    "Ġbrought": 2517,
    "Ġgros": 14822,
    "ĺ": 251,
    "Ġbuttons": 12778,
    "Ġboyhood": 23754,
    "Ġske": 4814,
    "count": 4213,
    "Ġvacancy": 9044,
    "charlotte": 6473,
    "Ġplentiful": 12908,
    "ladyship": 14828,
    "Ġmean": 739,
    "Ġcomplacency": 19446,
    "Ġpestilent": 25777,
    "Ġpropriety": 10009,
    "Ġquivering": 12855,
    "Ġoutsk": 15954,
    "wickham": 5883,
    "conven": 6162,
    "impatient": 13639,
    "complained": 25838,
    "Ġlichen": 20090,
    "Ġcar": 1417,
    "Ġconsummate": 25310,
    "just": 1699,
    "Ġwaste": 9233,
    "Ġclutches": 20016,
    "Ġappre": 5165,
    "Ġconfirm": 9855,
    "Ġprepar": 7896,
    "Ġsperm": 1844,
    "fishing": 20858,
    "Ġabominably": 20064,
    "Ġprogram": 12988,
    "Ġlydia": 2375,
    "dro": 6644,
    "upwards": 18863,
    "Ġfanned": 19099,
    "Ġsympathetic": 17358,
    "21": 10071,
    "your": 1986,
    "disputed": 23500,
    "Ġprint": 18970,
    "patched": 17643,
    "Ġinsanity": 12045,
    "Ġarter": 22174,
    "waste": 21133,
    "ribs": 23361,
    "Ġgirdle": 19156,
    "Ġsolemnly": 8023,
    "acked": 10973,
    "Ġfarm": 7840,
    "fem": 17537,
    "queness": 18147,
    "recurring": 24194,
    "excuse": 13380,
    "Ġhummed": 18775,
    "Ġoftener": 13564,
    "waistcoat": 17360,
    "Ġblow": 3374,
    "Ġfeeding": 7971,
    "Ġobsequious": 17403,
    "decoder": 3643,
    "Ġapproximate": 2341,
    "Ġaffectionate": 5584,
    "Ġyon": 9692,
    "Ġunduly": 25994,
    "Ġvindictive": 20468,
    "values": 4973,
    "Ġindirect": 18835,
    "Ġjulia": 22299,
    "Ġproportional": 2525,
    "Ġbegin": 3100,
    "Ġerskine": 17431,
    "Ġreproachfully": 25251,
    "Ġsignature": 16493,
    "Ġjudiciously": 23876,
    "Ġinhale": 20299,
    "Ġmitt": 21306,
    "Ġvacantly": 16815,
    "Ġgrasping": 12163,
    "endurable": 22225,
    "civil": 7796,
    "Ġidle": 8252,
    "Ġorganizations": 12312,
    "characteristic": 24685,
    "Ġundeniable": 26510,
    "Ġcavity": 20486,
    "Ġpitches": 23899,
    "ision": 1854,
    "Ġmutinous": 23955,
    "Ġcravat": 26307,
    "Ġtriumphantly": 11287,
    "urmountable": 15278,
    "Ġlaws": 8002,
    "steady": 14708,
    "Ġincome": 7916,
    "studies": 25166,
    "Ġinsupportable": 13931,
    "Ġundet": 16704,
    "pair": 21011,
    "Ġbalance": 2022,
    "cturn": 17986,
    "Ġxviii": 23408,
    "Ġgrass": 5177,
    "Ġdefection": 22939,
    "Ġmorris": 18850,
    "ances": 1338,
    "Ġornament": 11718,
    "Ġthat": 334,
    "Ġbowlines": 19321,
    "Ġillum": 9399,
    "throt": 25659,
    "Ġstretch": 6993,
    "Ġauxiliary": 26418,
    "Ġentering": 6285,
    "ouement": 21446,
    "subst": 12162,
    "arson": 22747,
    "idated": 11660,
    "Ġpostscript": 14807,
    "Ġfairness": 9893,
    "Ġchosen": 7201,
    "Ġrumours": 24598,
    "Ġvineyard": 12328,
    "arb": 1563,
    "Ġpulse": 13113,
    "omitted": 18016,
    "ercely": 12547,
    "acet": 5474,
    "Ġexploitation": 2347,
    "Ġdesigns": 13013,
    "Ġspitz": 14148,
    "Ġjustice": 5111,
    "Ġpie": 13914,
    "ppa": 10239,
    "Ġspir": 2429,
    "Ġkiller": 19567,
    "stri": 6249,
    "Ġbrixton": 13662,
    "Ġsouthwards": 19632,
    "Ġfervently": 25877,
    "Ġdismantled": 20215,
    "atic": 4015,
    "aus": 1500,
    "Ġattended": 5391,
    "Ġforetold": 23450,
    "acetti": 13395,
    "Ġhey": 11640,
    "Ġcowards": 12570,
    "Ġsynthe": 26007,
    "Ġexpansion": 22621,
    "Ġhoisted": 5959,
    "Ġlieuten": 13325,
    "lucifer": 25302,
    "Ġperformer": 18755,
    "Ġelder": 7223,
    "Ġcele": 9899,
    "etymology": 14700,
    "received": 9638,
    "horrible": 14600,
    "Ġpreservation": 24630,
    "Ġallowing": 2174,
    "Ġ177": 13411,
    "walton": 20248,
    "oarsman": 25261,
    "Ġpaws": 13920,
    "Ġbewil": 11656,
    "seamen": 13625,
    "Ġadapts": 3817,
    "ems": 5236,
    "Ġpurport": 14581,
    "Ġxiv": 23406,
    "Ġlightly": 13082,
    "plex": 708,
    "lig": 3172,
    "henry": 16625,
    "Ġfanatic": 23388,
    "Ġent": 903,
    "Ġphaeton": 17464,
    "Ġdeadliest": 14556,
    "Ġdesperation": 19817,
    "Ġstrange": 2271,
    "Ġinflu": 4907,
    "solved": 7684,
    "Ġpropos": 7062,
    "fs": 17535,
    "Ġbarber": 23788,
    "Ġtortures": 14922,
    "ceptibly": 22340,
    "Ġrouted": 24907,
    "Ġtornado": 24621,
    "Ġstockings": 19995,
    "tarpaulins": 26405,
    "Ġloggerhead": 13656,
    "embarr": 15796,
    "chanced": 18809,
    "Ġunob": 22010,
    "giana": 7800,
    "Ġcontinuing": 14396,
    "ress": 931,
    "Åĵ": 10744,
    "Ġdefiance": 11068,
    "transom": 19734,
    "Ġpresent": 1641,
    "Ġsubstant": 14808,
    "Ġsayest": 22775,
    "Ġfundamental": 3016,
    "faith": 15024,
    "Ġgasps": 24865,
    "ised": 1079,
    "entials": 22661,
    "Ġinvis": 6902,
    "uming": 8491,
    "Ġutility": 23513,
    "veh": 12678,
    "Ġgover": 2462,
    "despatched": 19800,
    "Ġadmiration": 5328,
    "Ġdiverged": 23593,
    "Ġtransparent": 9488,
    "Ġmechanis": 1217,
    "be": 667,
    "Ġstripping": 23695,
    "Ġcollapsed": 15080,
    "Ġ49": 24079,
    "Ġstooped": 14463,
    "Ġthump": 11610,
    "Ġsplice": 19307,
    "Ġwides": 17788,
    "Ġpeaceable": 14722,
    "Ġbible": 9318,
    "rep": 5525,
    "four": 6113,
    "Ġdetailed": 12821,
    "viii": 12019,
    "Ġstilly": 25973,
    "Ġrobustness": 18878,
    "arse": 7160,
    "Ġholiest": 18812,
    "ĠâĢľâĢĻ": 22251,
    "Ġminimum": 23037,
    "instead": 14812,
    "covered": 11477,
    "dington": 11899,
    "Ġeff": 676,
    "Ġstim": 18063,
    "Ġhorrify": 23816,
    "ructive": 18543,
    "Ġmediterranean": 12313,
    "sure": 5522,
    "aging": 2236,
    "legged": 10466,
    "dling": 9111,
    "izing": 1069,
    "Ġalthough": 4149,
    "ieving": 7032,
    "Ġor": 437,
    "thy": 2935,
    "when": 1591,
    "Ġdrama": 16327,
    "pursuit": 20339,
    "lue": 8508,
    "Ġanchor": 7368,
    "girl": 12316,
    "Ġwoven": 9925,
    "Ġconnections": 974,
    "Ġafter": 870,
    "make": 5793,
    "thinness": 25810,
    "Ġnecessity": 7296,
    "Ġelegance": 11332,
    "shortened": 24748,
    "Ġwants": 5742,
    "oice": 1384,
    "hatchway": 25904,
    "Ġtranced": 18421,
    "urp": 1472,
    "Į": 239,
    "Ġcommis": 22668,
    "Ġchilly": 25562,
    "Ġdish": 6136,
    "iter": 4392,
    "Ġburden": 8607,
    "conjecture": 15121,
    "Ġcolonnades": 26275,
    "Ġprogen": 14038,
    "princ": 8620,
    "Ġangrily": 9406,
    "bony": 15318,
    "Ġepit": 18006,
    "sutherland": 21061,
    "emason": 18186,
    "orphans": 26440,
    "Ġspectacles": 12095,
    "Ġramsgate": 18649,
    "Ġscramble": 24578,
    "rival": 12739,
    "chers": 11317,
    "circumstantial": 24444,
    "Ġzeros": 3325,
    "Ġcaptioning": 23019,
    "omed": 13974,
    "itals": 17820,
    "Ġwrapping": 19774,
    "Ġrear": 6535,
    "arr": 3049,
    "Ġupbraiding": 26226,
    "Ġlandsman": 11350,
    "frankly": 20020,
    "Ġguards": 16267,
    "passing": 14811,
    "ique": 8742,
    "Ġblacks": 23384,
    "Ġfailure": 13313,
    "ily": 1032,
    "absurd": 21792,
    "Ġfabric": 25947,
    "gang": 17553,
    "Ġprair": 7746,
    "Ġfri": 17878,
    "Ġsmall": 893,
    "Ġtechnique": 2470,
    "trowsers": 17691,
    "Ġbehave": 23294,
    "Ġgoose": 5937,
    "ache": 8517,
    "isting": 5551,
    "memory": 13616,
    "matlock": 23468,
    "Ġbachel": 7158,
    "Ġpot": 2990,
    "lun": 20945,
    "peare": 18911,
    "fitters": 24761,
    "athy": 14322,
    "Ġbrimming": 22866,
    "Ġappare": 12817,
    "Ġsofa": 10269,
    "astic": 1867,
    "Ġintention": 5638,
    "icable": 6388,
    "Ġimpreg": 15984,
    "our": 534,
    "envelope": 17782,
    ";âĢĿ": 7790,
    "Ġsecret": 3718,
    "Ġperuvian": 18452,
    "Ġrepentance": 15159,
    "orient": 2880,
    "Ġdull": 6384,
    "Ġraven": 16114,
    "Ġeliminating": 20618,
    "Ġplush": 18609,
    "Ġsamples": 2964,
    "vessels": 10625,
    "Ġmurderer": 4980,
    "Ġdum": 10811,
    "stretched": 10207,
    "Ġthirds": 16708,
    "mariners": 19547,
    "lined": 12481,
    "season": 14033,
    "publ": 17638,
    "Ġimpartial": 15218,
    "tical": 10128,
    "Ġmany": 1103,
    "Ġripp": 11219,
    "Ġcalcul": 3636,
    "Ġrespectfully": 18993,
    "ni": 1669,
    "Ġgr": 978,
    "visit": 7754,
    "bruary": 15234,
    "Ġsold": 6002,
    "Ġapprehensions": 13403,
    "Ġquaint": 18465,
    "acc": 2534,
    "Ġlug": 15649,
    "erial": 4631,
    "asters": 8433,
    "landsmen": 25059,
    "Ġstrung": 22613,
    "Ġelegant": 7532,
    "ak": 537,
    "Ġforlorn": 14014,
    "only": 3308,
    "Ġadversary": 12171,
    "Ġrenow": 18027,
    "Ġawhile": 13829,
    "Ġmon": 1254,
    "Ġpagan": 7117,
    "Ġdo": 512,
    "ww": 10737,
    "Ġyes": 2691,
    "Ġchecked": 9374,
    "Ġpom": 21450,
    "east": 9115,
    "Ġlounging": 10021,
    "Ġhousekeeper": 7456,
    "Ġhindoo": 17175,
    "Ġsystematic": 5245,
    "Ġcompare": 9302,
    "Ġantics": 24178,
    "rese": 15507,
    "mp": 3726,
    "Ġvoy": 2619,
    "inching": 21188,
    "crowded": 20189,
    "supplement": 14795,
    "never": 3152,
    "Ġchimney": 6497,
    "Ġlifted": 6985,
    "garden": 15025,
    "Ġdesisted": 22977,
    "Ġassistant": 7298,
    "Ġmastiff": 23723,
    "picture": 11407,
    "Ġsoothed": 10028,
    "Ġshirr": 18231,
    "Ġbingleys": 18995,
    "Ġencounter": 6627,
    "Ġsending": 8774,
    "Ġbeheaded": 11655,
    "suggested": 17298,
    "Ġembark": 8556,
    "Ġpanthe": 19652,
    "Ġmeanest": 12907,
    "Ġout": 543,
    "rop": 539,
    "Ġhagger": 21488,
    "record": 16921,
    "Ġcusack": 26433,
    "Ġhovers": 19078,
    "Ġresigned": 9767,
    "á": 162,
    "courage": 17509,
    "arled": 21440,
    "Ġwishes": 4794,
    "Ġgraceful": 11296,
    "Ġimplements": 2488,
    "keeper": 5597,
    "Ġmagnetic": 17240,
    "pt": 386,
    "Ġtackles": 8050,
    "orus": 10801,
    "itable": 5437,
    "Ġinexplicable": 12254,
    "Ġstole": 7952,
    "brandy": 19200,
    "ais": 8070,
    "Ġpersian": 11091,
    "fastened": 19324,
    "Ġsteering": 10387,
    "Ġnomin": 10190,
    "_.âĢĿ": 5885,
    "Ġphilistines": 26082,
    "inence": 15480,
    "Ġproposals": 10613,
    "Ġbask": 8116,
    "hammock": 16352,
    "Ġsuckling": 25997,
    "Ġzodiac": 16174,
    "Ġsubsc": 22786,
    "analysis": 26173,
    "Ġarise": 7895,
    "human": 7088,
    "necess": 4896,
    "ard": 465,
    "Ġproficiency": 19192,
    "Ġencl": 16164,
    "Ġnothing": 1361,
    "acquaintance": 6938,
    "Ġorchard": 22091,
    "Ġflit": 23005,
    "Ġinsinuating": 19270,
    "Ġturing": 7566,
    "Ġperforms": 11875,
    "apprec": 22843,
    "lips": 13749,
    "Ġgrip": 11626,
    "Ġrange": 9711,
    "their": 2541,
    "÷": 184,
    "Ġwarmest": 16484,
    "Ġtoe": 13935,
    "kins": 7345,
    "Ġnarrating": 24351,
    "fun": 3800,
    "inished": 17734,
    "ezing": 10573,
    "Ġlaud": 17967,
    "destro": 13308,
    "nings": 9131,
    "deliber": 17425,
    "Ġchip": 12822,
    "itaries": 21334,
    "Ġscr": 11758,
    "T": 56,
    "tremble": 17141,
    "nals": 16397,
    "Ġdozing": 22240,
    "study": 15116,
    "ispens": 8335,
    "ushed": 2973,
    "Ġfixing": 13155,
    "Ġdisput": 14255,
    "Ġdoubled": 19641,
    "faced": 8079,
    "Ġdrawing": 3919,
    "Ġsumm": 3356,
    "announcement": 24562,
    "Ġwhimsical": 20426,
    "unting": 21871,
    "inno": 10756,
    "care": 4928,
    "erson": 7002,
    "witness": 10034,
    "Ġdevice": 1927,
    "Ġmor": 1252,
    "Ġfatt": 15576,
    "Ġquarrels": 16565,
    "Ġscenari": 22284,
    "sight": 5994,
    "instr": 12528,
    "icated": 7590,
    "Ġadmission": 23554,
    "Ġpositions": 2057,
    "Ġvirginia": 13499,
    "corpse": 24486,
    "employ": 10895,
    "Ġimproper": 22739,
    "Ġoverflow": 10292,
    "Ġaudible": 19880,
    "Ġminimizing": 3463,
    "Ġmal": 5221,
    "Ġgenius": 8045,
    "Ġopenshaw": 7954,
    "Ġbrooding": 18907,
    "Ġcovering": 13254,
    "keeping": 8634,
    "Ġentangled": 10343,
    "Ġshaded": 14104,
    "Ġwalrus": 14972,
    "Ġsuperstition": 15054,
    "spread": 8388,
    "acher": 6867,
    "Ġunthink": 18247,
    "advantages": 11271,
    "Ġecho": 12665,
    "nothing": 3154,
    "Ġhonoured": 9880,
    "Ġerroneous": 17408,
    "Ġaries": 21196,
    "Ġguidance": 9416,
    "Ġbaling": 17859,
    "nur": 11505,
    "Ġdischarge": 18556,
    "Ġcoin": 9770,
    "grampus": 18617,
    "Ġcatch": 4442,
    "Ġlobes": 22112,
    "Ġmanor": 14196,
    "oko": 18445,
    "sus": 6228,
    "Ġsafie": 6617,
    "Ġascertained": 25296,
    "Ġexpressed": 4468,
    "Ġselecting": 16684,
    "Ġcarried": 3692,
    "Ġinfatuated": 20532,
    "seen": 2882,
    "Ġsulphur": 24933,
    "constellation": 24607,
    "storm": 9681,
    "Ġimpression": 5732,
    "woes": 21132,
    "Ġincluded": 8929,
    "russian": 22180,
    "Ġla": 5912,
    "Ġago": 3137,
    "windows": 19533,
    "Ġfeasts": 25369,
    "endent": 15920,
    "believed": 9932,
    "Ġguardsmen": 20629,
    "interview": 19297,
    "Ġthrills": 24542,
    "facts": 19841,
    "Ġdart": 4585,
    "agger": 7871,
    "Ġpencils": 23192,
    "Ġstagger": 10591,
    "Ġreplied": 2262,
    "Ġvag": 9707,
    "umed": 6554,
    "Ġsubmission": 22787,
    "Ġfry": 17879,
    "Ġrake": 18644,
    "Ġprefers": 20512,
    "Ġblundering": 26283,
    "Ġheeded": 13402,
    "ition": 651,
    "Ġloite": 22108,
    "Ġphyset": 23197,
    "Ġlac": 17964,
    "conditionally": 24834,
    "Ġkate": 15903,
    "Ġbowed": 6242,
    "everlasting": 18770,
    "ashion": 3859,
    "Ġarthur": 7196,
    "Ġgorgeous": 20465,
    "Ġperpendicularly": 11374,
    "Ġxlvi": 25590,
    "ificant": 22200,
    "explanation": 12356,
    "Ġrefill": 18705,
    "ste": 3584,
    "locks": 14455,
    "Ġflexible": 23774,
    "Ġdeject": 10881,
    "Ġdepend": 793,
    "Ġadded": 2719,
    "Ġgigantic": 5914,
    "Ġvia": 2383,
    "please": 8176,
    "Ġtrace": 6181,
    "Ġdis": 694,
    "twinkle": 23702,
    "Ġceasing": 23756,
    "crossing": 19409,
    "Ġlogs": 16345,
    "Ġengineer": 11973,
    "Ġ1846": 26084,
    "Ġmate": 3706,
    "Ġimplore": 24871,
    "Ġneighbors": 25804,
    "Ġobtained": 7432,
    "Ġfellow": 2778,
    "getting": 12964,
    "Ġprotesting": 14740,
    "Ġnoon": 6559,
    "Ġpills": 21464,
    "Ġimproved": 7656,
    "Ġdenial": 13213,
    "Ġexcl": 3473,
    "kept": 11715,
    "Ġcucumber": 21354,
    "resist": 8275,
    "sleeves": 26109,
    "Ġbarbara": 24818,
    "labour": 23912,
    "decan": 22139,
    "down": 3468,
    "disreputable": 23503,
    "justified": 19002,
    "Ġhabitual": 24790,
    "hundred": 8330,
    "Ġlistening": 6318,
    "Ġmuteness": 19415,
    "Ġfloundered": 18861,
    "Ġmountain": 3372,
    "halfway": 24311,
    "Ġcarries": 7673,
    "rudence": 7092,
    "pig": 8752,
    "Ġtennessee": 26596,
    "Ġasia": 11681,
    "Ġthick": 3781,
    "Ġperemptory": 25740,
    "Ġoppression": 23650,
    "palms": 25262,
    "Ġspeed": 2449,
    "Ġarguments": 8036,
    "Ġbuildings": 24720,
    "Ġblankets": 24611,
    "Ġindeed": 1679,
    "Ġeventually": 8616,
    "Ġcorrespondent": 19821,
    "favouring": 24762,
    "Ġcommodores": 25374,
    "ferences": 10326,
    "soul": 9140,
    "Ġcister": 13881,
    "itates": 13868,
    "pire": 9135,
    "Ġdesolate": 10012,
    "Ġaccept": 4411,
    "Ġflourishing": 25187,
    "Ġdiction": 8794,
    "Ġconceals": 23901,
    "Ġtruck": 19510,
    "bermaid": 20789,
    "Ġburnished": 23995,
    "Ġkeys": 11995,
    "chard": 21684,
    "luc": 9753,
    "Ġol": 17814,
    "Ġmeadows": 11422,
    "shut": 10981,
    "Ġpudding": 17915,
    "Ġfol": 1286,
    "Ġcetacean": 25878,
    "entric": 11618,
    "Ġcab": 2635,
    "orily": 15570,
    "rels": 6664,
    "Ġgleamed": 17077,
    "irregular": 21908,
    "Ġtut": 8769,
    "shot": 2185,
    "Ġcoburg": 18596,
    "Ġwonders": 7500,
    "Ġappetite": 12382,
    "comed": 8544,
    "Ġlead": 3523,
    "found": 4214,
    "Ġunman": 12771,
    "Ġnavigators": 19762,
    "features": 14799,
    "Ġfolios": 23017,
    "snapping": 24849,
    "Ġbelonging": 8307,
    "Ġcarpet": 9355,
    "ingly": 2135,
    "Ġhearts": 4972,
    "Ġvon": 14080,
    "resses": 16151,
    "Ġran": 3344,
    "holes": 12052,
    "Ġencodings": 4774,
    "Ġqual": 6274,
    "Ġfluctu": 5267,
    "Ġvesuvius": 26501,
    "Ġeastward": 13389,
    "Ġresting": 7961,
    "Ġsmite": 22556,
    "regard": 7972,
    "function": 4206,
    "score": 18856,
    "Ġsacrificial": 24876,
    "Ġsubsequently": 16158,
    "»": 124,
    "Ġheaving": 7600,
    "Ġdecanting": 22440,
    "resol": 17760,
    "Ġshowers": 16605,
    "Ġrushes": 20506,
    "afflicted": 23777,
    "Ġagreeable": 4552,
    "ifying": 5235,
    "Ġlengthen": 15651,
    "Ġhazarded": 25654,
    "ĠĠĠĠĠĠĠĠĠĠĠĠĠĠĠĠĠĠĠĠĠĠĠĠĠĠĠĠĠĠĠĠĠĠĠĠĠĠ": 16525,
    "belled": 24033,
    "bunger": 20400,
    "bull": 13689,
    "Ġskip": 1846,
    "abiding": 21790,
    "Ġcompliment": 5673,
    "Ġstring": 11825,
    "Ġsed": 10761,
    "elstrom": 17981,
    "fred": 20854,
    "bit": 3932,
    "de": 459,
    "wandered": 20284,
    "Ġsandwich": 19827,
    "Ġ17": 5740,
    "Ġchagrin": 20606,
    "Ġoverwhel": 8196,
    "Ġcrazed": 19174,
    "otam": 21795,
    "Ġthirty": 4944,
    "enes": 5218,
    "rimin": 2424,
    "mannered": 22853,
    "suspended": 15176,
    "Ġmishap": 20575,
    "Ġsanction": 20024,
    "Ġtransform": 744,
    "breaths": 25336,
    "cater": 20815,
    "shrouded": 26361,
    "Ġlurked": 11291,
    "Ġfishers": 19352,
    "dra": 3413,
    "Ġfeel": 1262,
    "lydia": 6826,
    "Ġprice": 10403,
    "Ġgrapes": 15214,
    "Ġsy": 490,
    "Ġarrival": 4730,
    "ilet": 12826,
    "worse": 14690,
    ")": 13,
    "Ġac": 846,
    "Ġest": 2264,
    "wondered": 17029,
    "Ġev": 4827,
    "Ġagreeing": 20017,
    "Ġprovided": 6577,
    "hast": 5357,
    "nar": 12491,
    "Ġstraps": 19308,
    "Ġcautiousness": 19865,
    "Ġastir": 14640,
    "Ġdispleased": 18555,
    "ethics": 8877,
    "Ġannesley": 19576,
    "miles": 10712,
    "Ġoutput": 930,
    "Ġtemptation": 8677,
    "Ġhead": 1121,
    "Ġdead": 2171,
    "rene": 5379,
    "Ġvertebra": 20180,
    "Ġconsoling": 19455,
    "Ġresc": 4507,
    "Ġgips": 10841,
    "Ġfowls": 8690,
    "Ġdiscovers": 4428,
    "Ġcontrast": 2119,
    "uiperai": 10663,
    "Ġupdate": 2464,
    "Ġimbalanced": 18327,
    "Ġdistributed": 18661,
    "iloqu": 11647,
    "Ġpregn": 22229,
    "rospect": 11611,
    "Ġsaid": 578,
    "Ġholland": 10365,
    "thankful": 16806,
    "flakes": 23965,
    "Ġbone": 4694,
    "Ġhorn": 6185,
    "Ġoverseeing": 22358,
    "Ġpeculiar": 3153,
    "Ġsolutions": 1946,
    "bearings": 25371,
    "portent": 25412,
    "Ġexcell": 10417,
    "Ġfrozen": 9012,
    "instant": 8651,
    "asol": 21537,
    "powerful": 24847,
    "Ġshovel": 23491,
    "Ġcrews": 8990,
    "Ġincommun": 25308,
    "Ġboxed": 24360,
    "Ġprobabilities": 4966,
    "understanding": 1171,
    "ind": 567,
    "Ġanvil": 11596,
    "Ġens": 2789,
    "Ġeyel": 17096,
    "Ġgeorge": 3748,
    "whole": 6085,
    "ifts": 12732,
    "Ġsubproblems": 12954,
    "d": 72,
    "ĠâĢľ": 516,
    "nurs": 20998,
    "Ġcommunion": 19007,
    ",_": 11462,
    "Ġcaus": 1725,
    "confidence": 16808,
    "Ġunallied": 22027,
    "Ġpeasant": 13550,
    "Ġfigure": 4204,
    "summon": 23414,
    "plete": 10919,
    "Ġcombines": 1149,
    "Ġendangered": 16302,
    "Ġinsepar": 17933,
    "Ġmurderers": 16811,
    "Ġphrase": 11187,
    "Ġelevating": 19728,
    "Ġconducting": 16649,
    "oton": 3605,
    "Ġcreases": 22724,
    "horner": 23613,
    "Ġsally": 15501,
    "Ġpolitics": 19223,
    "Ġboom": 9309,
    "Ġwelcome": 5604,
    "Ġgeneralize": 3102,
    "Ġqueens": 16706,
    "Ġunchanging": 22040,
    "Ġwear": 6030,
    "Ġcouple": 5423,
    "Ġbubbling": 17325,
    "Ġopenly": 8572,
    "Ġreproached": 24891,
    "itime": 15545,
    "terror": 18128,
    "mselves": 2864,
    "Ġbenevolent": 7772,
    "anations": 12573,
    "Ġfruits": 17118,
    "Ġinstinctively": 13458,
    "Ġsledge": 8110,
    "Ġpreserved": 9261,
    "wheel": 22869,
    "Ġunholy": 26218,
    "Ġpleasure": 2697,
    "vitiated": 25754,
    "Ġdegener": 14049,
    "substance": 15230,
    "rences": 9271,
    "irty": 4048,
    "Ġprofited": 19191,
    "Ġaffl": 14385,
    "Ġswore": 10378,
    "Ġpaling": 21460,
    "Ġ6": 5141,
    "nable": 13761,
    "Ġicy": 10747,
    "Ġvapor": 8699,
    "Ġruined": 12951,
    "Ġpang": 15602,
    "Ġinsights": 13178,
    "Ġacqu": 1415,
    "Ġinj": 4759,
    "Ġfeels": 6882,
    "Ġencouraging": 2261,
    "Ġwarrior": 24496,
    "Ġbosoms": 16795,
    "scence": 14418,
    "Ġforbear": 17121,
    "emotion": 21927,
    "Ġrepugnant": 26590,
    "Ġlips": 3991,
    "ins": 1378,
    "voy": 7143,
    "Ġgentlemanlike": 12064,
    "Ġcorrid": 9823,
    "phys": 18711,
    "Ġknowing": 4458,
    "waited": 24585,
    "complacency": 19913,
    "Ġdynamic": 5122,
    "slide": 24556,
    "Ġaboard": 6697,
    "Ġestate": 6316,
    "surprised": 9530,
    "proves": 23390,
    "Ġorgies": 18285,
    "senses": 25024,
    "Ġseethings": 26503,
    "Ġarsacides": 17293,
    "É": 138,
    "baron": 24925,
    "Ġmouth": 3179,
    "woe": 21134,
    "Ġprofuse": 23565,
    "insupportable": 21192,
    "Ġtying": 15472,
    "wicked": 24449,
    "))": 1513,
    "Ġjoint": 12032,
    "finish": 24384,
    "theories": 18078,
    "ĠĠĠĠĠĠĠĠĠĠĠĠĠĠĠĠĠĠĠĠĠĠĠĠĠĠĠĠĠĠĠĠĠĠ": 14613,
    "tumultuously": 25613,
    "condition": 7059,
    "Ġ{": 21151,
    "Ġwhims": 12689,
    "Ġdiffer": 18679,
    "bud": 10682,
    "ise": 707,
    "alo": 7587,
    "Ġclutch": 15053,
    "cket": 3685,
    "Ġnerve": 16339,
    "prepar": 22463,
    "Ġimaginative": 19245,
    "Ġimpregn": 26022,
    "Ġsuperst": 7703,
    "Ġexaggerated": 25650,
    "Ġthrusting": 10552,
    ")âĢĶ": 20741,
    "Ġchili": 25561,
    "cture": 15662,
    "Ġprospect": 4705,
    "Ġcod": 8411,
    "Ġmain": 807,
    "scr": 16240,
    "Ġdivide": 12108,
    "Ġesteem": 7531,
    "Ġclimbing": 20068,
    "ited": 1751,
    "Ġtormented": 8674,
    "Ġturbid": 23610,
    "Ġpicking": 11259,
    "Ġunch": 18239,
    "Ġdiscredit": 22779,
    "Ġspot": 4153,
    "arab": 21439,
    "Ġexceedingly": 4614,
    "Ġpend": 15603,
    "Ġemblaz": 16232,
    "Ġphantom": 8706,
    "stave": 21646,
    "Ġplot": 14279,
    "gings": 7549,
    "Ġprendergast": 26537,
    "Ġused": 2061,
    "ginger": 13162,
    "Ġli": 603,
    "infallibly": 26417,
    "sartain": 25622,
    "emone": 21924,
    "Ġenlarge": 21932,
    "Ġqueen": 3212,
    "Ġappo": 8498,
    "rubbery": 17341,
    "dissatisf": 26129,
    "Ġbalmoral": 16205,
    "fish": 3516,
    "Ġjealousy": 13575,
    "Ġautomation": 13249,
    "Ġluxuriant": 20393,
    "Ġbetrayed": 9561,
    "fearing": 18533,
    "preced": 10309,
    "Ġsteered": 11093,
    "Ġbodily": 6106,
    "formation": 22213,
    "onement": 21255,
    "Ġlungless": 24863,
    "iluvian": 18060,
    "Ġjumbled": 22294,
    "belonged": 25597,
    "Ġwhichever": 13999,
    "Ġvicissitudes": 12417,
    "Ġrefers": 1564,
    "Ġvital": 9242,
    "Ġlard": 13946,
    "spout": 7922,
    "izings": 14043,
    "Ġlieutenant": 15260,
    "Ġjove": 9267,
    "Ġunmolested": 15244,
    "Ġtrustees": 24105,
    "Ġmemory": 2273,
    "âĢĺ": 940,
    "este": 15917,
    "Ġapologizing": 25197,
    "comra": 16168,
    "Ġjerking": 12243,
    "Ġtragedy": 10667,
    "avenza": 17103,
    "bears": 22486,
    "###": 3827,
    "Ġshoe": 14567,
    "imperturbable": 25790,
    "Ġpeeped": 10011,
    "Ġsteak": 9828,
    "insisted": 23065,
    "Ġex": 361,
    "departure": 15233,
    "Ġbewitching": 25976,
    "charming": 15703,
    "entire": 6824,
    "Ġportcullis": 26603,
    "Ġphilosophy": 7103,
    "hel": 4813,
    "Ġthey": 577,
    "hors": 9598,
    "Ġfragments": 19019,
    "continue": 16861,
    "Ġswe": 2287,
    "Ġarms": 3966,
    "allow": 5104,
    "Ġquicker": 16507,
    "Ġsquaw": 22836,
    "brows": 17496,
    "Ġjoker": 22295,
    "Ġtruest": 16703,
    "Ġcrew": 2498,
    "================================": 5671,
    "finds": 19926,
    "Ġappertaining": 26533,
    "ria": 15792,
    "Ġlocket": 22110,
    "Ġmurmuring": 23578,
    "Ġcontextually": 11953,
    "Ġcareer": 11118,
    "vac": 15449,
    "prolong": 23391,
    "length": 7134,
    "Ġdefault": 3042,
    "Ġrevers": 21661,
    "Ġrelatives": 12979,
    "asted": 4649,
    "Ġsebastian": 11696,
    "Ġreserved": 7515,
    "Ġheadland": 22891,
    "Ġodorous": 19565,
    "Ġinvari": 6529,
    "Ġprobably": 4314,
    "crew": 7544,
    "Ġlegal": 10439,
    "Ġtertiary": 15293,
    "rab": 7596,
    "ities": 1829,
    "Ġtackle": 9512,
    "Ġshocked": 9400,
    "Ġoriginal": 6102,
    "Ġpri": 5813,
    "Ġlonely": 6823,
    "inger": 6812,
    "smiles": 14692,
    "Ġladen": 19176,
    "bpp": 20771,
    "masts": 19423,
    "promised": 12249,
    "consequence": 9762,
    "it": 276,
    "india": 22368,
    "anean": 7443,
    "springs": 24911,
    "mmed": 7913,
    "Ġtorpor": 25031,
    "solemn": 19816,
    "caut": 20811,
    "Ġacceded": 22373,
    "Ġkelson": 18350,
    "cost": 19186,
    "Ġbroke": 5322,
    "tormented": 13644,
    "Ġhorrible": 4905,
    "Ġancestors": 25642,
    "||": 4869,
    "gl": 3291,
    "Ġstared": 8454,
    "angs": 5834,
    "âĢĻ-": 18166,
    "dire": 15335,
    "Ġreigns": 21668,
    "shabb": 18495,
    "ú": 187,
    "Ġensigns": 23688,
    "Ġdismal": 11808,
    "Ġdetect": 1200,
    "vels": 5432,
    "Ġbuttoning": 17235,
    "Ġdedication": 3330,
    "Ġajar": 21201,
    "Ġunknown": 4454,
    "bourine": 9395,
    "artificial": 959,
    "Ġregards": 16078,
    "mbl": 5945,
    "abular": 4761,
    "Ġmaps": 2965,
    "determination": 19943,
    "Ġgently": 7171,
    "persecutor": 26530,
    "Ġexh": 5232,
    "Ġsixteen": 8282,
    "Ł": 258,
    "Ġsir": 1569,
    "Ġmatrimony": 13634,
    "bohem": 19001,
    "Ġactivations": 2723,
    "Ġinitialization": 1255,
    "Ġstretched": 5919,
    "did": 3195,
    "Ġsternly": 16715,
    "Ġrule": 1530,
    "Ġreverence": 12057,
    "Ġprepared": 5876,
    "Ġflannel": 26577,
    "oise": 15402,
    "Ġtested": 23223,
    "Ġsant": 21213,
    "Ġpsychology": 11448,
    "Ġpads": 21472,
    "mastod": 23971,
    "Ġtheore": 1832,
    "Ġspar": 10921,
    "assembled": 21542,
    "Ġinsurgents": 26600,
    "reg": 2183,
    "Ġflows": 13007,
    "Ġlouisiana": 25076,
    "Ġbravest": 23838,
    "Ġwhites": 21714,
    "wal": 10133,
    "sail": 3601,
    "assment": 9739,
    "Ġeloped": 22642,
    "pretending": 17041,
    "Ġabundantly": 17156,
    "Ġsitting": 3603,
    "conviction": 19963,
    "Ġfruit": 12324,
    "Ġjoke": 8868,
    "throughout": 24084,
    "Ġcomm": 839,
    "Ġtranspointed": 22437,
    "dangerous": 20239,
    "Ġclung": 10959,
    "Ġembatt": 18842,
    "Ġdoomed": 11342,
    "Ġfrantically": 23255,
    "mine": 5618,
    "uture": 1108,
    "Ġwheeled": 14138,
    "Ġaccommodate": 20515,
    "rical": 11518,
    "Ġbreeds": 23344,
    "Ġretribution": 16280,
    "inary": 3273,
    "Ġjerk": 16950,
    "rained": 5162,
    "Ġhiding": 9822,
    "daughters": 13465,
    ",âĢĿ": 580,
    "Ġprognostics": 20557,
    "v": 90,
    "heeded": 13833,
    "extremely": 26263,
    "Ġperempt": 13672,
    "Ġiter": 2955,
    "isters": 11917,
    "adjust": 21757,
    "Ġclearer": 16311,
    "aiian": 23591,
    "Ġendeavors": 16545,
    "Ġinverted": 12634,
    "eps": 12787,
    "biting": 20779,
    "paused": 17373,
    "Ġmortification": 12091,
    "Ġlazily": 11380,
    "ctors": 21587,
    "Ġ1000": 3118,
    "renew": 24450,
    "unched": 10235,
    "Ġflashed": 11912,
    "Ġcaused": 5048,
    "ð": 177,
    "Ġinteraction": 7424,
    "simply": 20669,
    "Ġprotested": 9933,
    "Ġhurriedly": 11250,
    "Ġchilian": 25563,
    "Ġcastle": 14716,
    "Ġsheer": 14150,
    "cy": 636,
    "Ġunscrew": 22035,
    "Ġmediocr": 24081,
    "sufficient": 6635,
    "Ġunconcern": 14116,
    "adagrad": 9690,
    "destiny": 16702,
    "occasion": 7753,
    "Ġbearded": 15724,
    "Ġentropy": 2032,
    "undant": 14790,
    "elfth": 22366,
    "Ġpoultry": 17440,
    "instinct": 19542,
    "Ġdisguise": 10045,
    "Ġrifts": 21972,
    "Ġsecurely": 16802,
    "open": 7025,
    "Ġwarmly": 8987,
    "Ġoutright": 18413,
    "Ġhuddled": 20298,
    "Ġapplies": 11957,
    "Ġcongeal": 25980,
    "Ġstate": 1811,
    "Ġcounted": 12137,
    "ary": 988,
    "Ġhempen": 13549,
    "Ġcub": 8413,
    "ripp": 6404,
    "collect": 16562,
    "gracious": 11829,
    "Ġhastily": 5763,
    "trade": 19635,
    "prejud": 11794,
    "gro": 10094,
    "stayed": 25290,
    "Ġabhorrent": 16856,
    "staking": 21645,
    "atever": 3081,
    "Ġintending": 11702,
    "Ġglared": 13015,
    "Ġdefence": 11067,
    "carpenter": 11427,
    "listen": 13513,
    "want": 8765,
    "especially": 3572,
    "Ġembra": 6578,
    "Ġbubblingly": 25632,
    "miss": 3173,
    "Ġingrat": 16840,
    "Ġlongbourn": 3507,
    "lone": 11499,
    "county": 25396,
    "ban": 9584,
    "Ġmending": 17804,
    "Ġsheeted": 19830,
    "Ġunwell": 22012,
    "Ġthr": 5709,
    "Ġwhereon": 16099,
    "dropped": 12260,
    "less": 929,
    "Ġplacid": 11824,
    "Ġmapple": 11150,
    "grinder": 23413,
    "Ġwalking": 4323,
    "gno": 13726,
    "waist": 13417,
    "ounts": 4651,
    "Ġph": 1547,
    "prudently": 21033,
    "Ġcott": 3707,
    "Ġreconciliation": 25292,
    "Ġbending": 12582,
    "Ġvultures": 25653,
    "Ġhurried": 4030,
    "Ġuntidy": 23522,
    "composed": 14739,
    "Ġdisliked": 12888,
    "Ġsolemnity": 9940,
    "Ġmarrying": 6177,
    "Ġoffices": 14336,
    "Ġarrowy": 25469,
    "swam": 24254,
    "olidity": 18132,
    "Ġyea": 8915,
    "meditation": 19068,
    "Ġinconstant": 21493,
    "Ġexclam": 6757,
    "Ī": 235,
    "anguish": 15981,
    "Ġ68": 24370,
    "mens": 20968,
    "scene": 14419,
    "jolly": 20930,
    "Ġherself": 1566,
    "Ġoppress": 13171,
    "Ġmessage": 13522,
    "Ġinfirmity": 26298,
    "Ġsaintsbury": 26372,
    "Ġindignity": 18833,
    "gun": 10096,
    "Ġobscured": 15010,
    "O": 51,
    "Ġ39": 19488,
    "Ġvoyagings": 19234,
    "appe": 2945,
    "Ġabased": 22265,
    "Ġmiller": 19882,
    "lect": 1222,
    "Ġreliability": 22878,
    "everything": 6324,
    "eleg": 20848,
    "Ġflood": 7715,
    "Ġsore": 10764,
    "crazy": 24691,
    "thrusting": 20258,
    "Ġlump": 21549,
    "Ġfurs": 18739,
    "mond": 20972,
    "opposing": 24825,
    "Ġparchment": 13651,
    "Ġtreachery": 15100,
    "Ġhoping": 11102,
    "Ġpaus": 4299,
    "Ġflapp": 23007,
    "ver": 331,
    "Ġwhisky": 23931,
    "Ġproceeding": 9905,
    "Ġdiverse": 19208,
    "guilt": 24066,
    "Ġoriginate": 24119,
    "asy": 5294,
    "Ġsoftened": 11101,
    "Ġdecay": 1014,
    "Ġrept": 13982,
    "Ġpictured": 16622,
    "agings": 18165,
    "Ġheated": 21679,
    "Ġseldom": 4629,
    "Ġimpatiently": 8337,
    "Ġtrepidation": 19214,
    "Ġbountiful": 25944,
    "Ġpack": 5444,
    "Ġvelvets": 25393,
    "Ġmur": 2491,
    "Ġspouter": 12795,
    "Ġpalaces": 24088,
    "onings": 21251,
    "cherish": 24552,
    "instances": 13318,
    "Ġices": 21153,
    "Ġfork": 15729,
    "yard": 5899,
    "Ġevenly": 4127,
    "Ġmournful": 12334,
    "dles": 11480,
    "Ġskil": 14351,
    "Ġcobweb": 22583,
    "Ġcachalot": 17834,
    "rect": 1598,
    "happen": 19330,
    "ý": 190,
    "Ġforemast": 12004,
    "Ġoccasional": 7289,
    "outh": 2690,
    "derick": 22164,
    "occupation": 15056,
    "hen": 3518,
    "Ġshel": 6847,
    "Ġchemical": 10410,
    "Ġspiteful": 19521,
    "stay": 9680,
    "scarcely": 12384,
    "ellative": 21942,
    "Ġturban": 23612,
    "Ġsheet": 6262,
    "Ġapparition": 8066,
    "Ġbrighton": 6470,
    "Ġoutlast": 22310,
    "Ġincom": 9768,
    "tale": 10127,
    "Ġfiddle": 25444,
    "Ġ9": 5900,
    "Ġomens": 21326,
    "Ġpantry": 20294,
    "honor": 19899,
    "Ġharbor": 10026,
    "fashion": 8080,
    "Ġswimming": 5507,
    "Ġupp": 13991,
    "mou": 10708,
    "Ġappropriate": 2247,
    "Ġmcc": 21304,
    "Ġsaluted": 14757,
    "Ġwidower": 24235,
    "farintosh": 24553,
    "Ġefficiently": 3916,
    "telescope": 26562,
    "rest": 1631,
    "Ġbasics": 13447,
    "sweet": 8685,
    "owl": 12680,
    "Ġsuperseded": 26223,
    "disposition": 10041,
    "Ġlibrary": 6423,
    "Ġdiscovering": 13356,
    "Ġfreed": 7267,
    "Ġstarbuck": 2193,
    "Ġauthentic": 20533,
    "Ġsidelong": 11438,
    "Ġthine": 7374,
    "Ġirons": 7695,
    "Ġmightiest": 12958,
    "Ġrestore": 9378,
    "Ġopinions": 9414,
    "hurry": 24763,
    "Ġum": 10211,
    "Ġexultation": 15170,
    "Ġeffects": 7236,
    "Ġtrump": 8194,
    "Ġrending": 19465,
    "Ġsoo": 15858,
    "kington": 11203,
    "Ġtangle": 25760,
    "Ġbeheading": 21751,
    "Ġknob": 24407,
    "Ġpersuade": 5872,
    "Ġclump": 15967,
    "Ġabout": 632,
    "Ġcircling": 19092,
    "Ġper": 589,
    "Ġstoke": 10395,
    "Ġmightier": 18730,
    "Ġdripping": 13146,
    "Ġattacking": 24465,
    "parlour": 16382,
    "Ġhell": 5019,
    "Ġexponentiating": 3445,
    "Ġisn": 7865,
    "ccas": 15883,
    "amb": 5723,
    "till": 6965,
    "Ġunnearable": 26516,
    "Ġawa": 7713,
    "exp": 2739,
    "dashed": 12453,
    "Ġscream": 5934,
    "Ġdust": 5908,
    "web": 18664,
    "Ġprosecut": 9697,
    "Ġboots": 5942,
    "Ġladies": 3193,
    "Ġfif": 4217,
    "specim": 23941,
    "Ġhealed": 21680,
    "Ġunparalleled": 15851,
    "Ġsaturday": 6452,
    "health": 13832,
    "Ġsparsity": 4207,
    "Ġarg": 4765,
    "Ġnin": 10187,
    "Ġenticements": 26034,
    "Ġgiving": 4084,
    "Ġanticipating": 17058,
    "Ġanimating": 23422,
    "pens": 17632,
    "Ġofficial": 7081,
    "feared": 11801,
    "Ġwards": 17789,
    "cheerful": 13574,
    "cl": 1493,
    "believing": 19460,
    "Ġclos": 4549,
    "requent": 3648,
    "Ġcharmingly": 24221,
    "Ġlondon": 2841,
    "mouthful": 25208,
    "Ġprefer": 6416,
    "Ġcrammed": 16470,
    "rope": 3184,
    "Ġprocessing": 891,
    "hav": 20896,
    "Ġsanely": 24980,
    "Ġhumble": 8550,
    "Ġshining": 8171,
    "Ġsickened": 16775,
    "Ġrent": 11638,
    "Ġhuggins": 24828,
    "ict": 595,
    "bons": 17486,
    "Ġappet": 9730,
    "lets": 7836,
    "Ġserviceable": 24718,
    "Ġresolve": 13169,
    "Ġjago": 22296,
    "_;": 6640,
    "built": 16825,
    "Ġprot": 3848,
    "Ġforefinger": 16443,
    "income": 15485,
    "Ġmetropolis": 17274,
    "Ġsulky": 13514,
    "myster": 16260,
    "Ġcontains": 2794,
    "reflections": 24735,
    "nants": 17613,
    "Ġfathoms": 9083,
    "Ġbes": 2663,
    "tipt": 25083,
    "Ġreflections": 5946,
    "Ġindications": 14632,
    "itia": 11578,
    "ascal": 10192,
    "offer": 19060,
    "gument": 20884,
    "Ġprecipitous": 24835,
    "leag": 21364,
    "Ġ104": 24412,
    "half": 4931,
    "Ġfail": 4147,
    "process": 11148,
    "Ġbeer": 10219,
    "Ġlistened": 4470,
    "Ġsideways": 6182,
    "mason": 17603,
    "ickering": 22667,
    "Ġenergies": 25459,
    "é": 170,
    "acceptable": 25183,
    "Ġinstead": 2791,
    "Ġfowl": 11330,
    "inordinate": 21193,
    "Ġmillion": 14986,
    "Ġright": 1504,
    "ers": 406,
    "acing": 2720,
    "Ġencomp": 12960,
    "Ġwindows": 4971,
    "achalot": 15861,
    "feren": 767,
    "having": 5211,
    "ht": 376,
    "Ġpretend": 7721,
    "Ġruggedness": 26268,
    "solut": 3364,
    "Ġcultivated": 17363,
    "Ġventilator": 8713,
    "spring": 7231,
    "Ġimmediately": 3366,
    "accompan": 11452,
    "Ġalter": 6542,
    "mown": 20969,
    "fairly": 17219,
    "ual": 945,
    "Ą": 197,
    "false": 15353,
    "shabbily": 26246,
    "Ġbut": 424,
    "downward": 16619,
    "hunt": 20902,
    "Ġidolator": 19996,
    "month": 6463,
    "ime": 625,
    "lutions": 20949,
    "Ġlikely": 3597,
    "Ġreligions": 20106,
    "Ġrepeated": 3832,
    "Ġdangerous": 6613,
    "Ġleft": 1761,
    "pun": 9617,
    "Ġopenness": 18956,
    "urous": 10212,
    "Ġfrocks": 23919,
    "town": 7142,
    "tempest": 16959,
    "Ġuncommon": 5026,
    "Ġnurse": 9516,
    "Ġmeasureless": 14709,
    "Ġscheme": 7064,
    "Ġpronounce": 16968,
    "Ġeyelashes": 26106,
    "reliable": 21239,
    "thee": 9689,
    "Ġlikes": 9407,
    "crews": 15042,
    "Ġfobbing": 26441,
    "Ġheroes": 10576,
    "Ġsixth": 16558,
    "H": 44,
    "Ġtrem": 6659,
    "Ġfancies": 10424,
    "Ġdiscontented": 16057,
    "Ġgunw": 6212,
    "Ġbud": 10168,
    "Ġquies": 18464,
    "Ġsurv": 6081,
    "Ġworry": 18815,
    "pence": 15408,
    "fters": 20860,
    "Ġoverwhelming": 17102,
    "Ġmonday": 6127,
    "Ĕ": 213,
    "Ġamends": 14245,
    "Ġreceive": 4703,
    "Ġtoiled": 12639,
    "Ġostentatiously": 20467,
    "Ġsermons": 20193,
    "Ġknee": 7093,
    "Ġapoplexy": 25265,
    "Ġhav": 12751,
    "Ġtremble": 6906,
    "Ġ1839": 20458,
    "Ġcompression": 18145,
    "Ġproprietor": 12371,
    "onist": 21249,
    "Ġseaman": 8638,
    "ency": 3869,
    "requirements": 24857,
    "Ġthrust": 5084,
    "Ġpoorly": 9854,
    "Ġcha": 6853,
    "Ġdiscovery": 5412,
    "«": 109,
    "mews": 22709,
    "Ġgeorgia": 23884,
    "Ġbucket": 8787,
    "pip": 6654,
    "ī": 236,
    "Ġgeese": 7693,
    "Ġleatherhead": 20012,
    "compl": 6873,
    "Ġconstant": 6309,
    "Ġmaternal": 11059,
    "brad": 20780,
    "dare": 12451,
    "raid": 3278,
    "wishing": 21127,
    "concluded": 11243,
    "Ġreco": 9788,
    "Ġdoll": 10813,
    "estim": 14169,
    "Ġdeterm": 1270,
    "Ġmad": 2427,
    "ĠĠĠĠĠĠĠĠĠĠĠĠĠĠĠĠĠĠĠĠĠĠĠĠĠĠĠĠĠĠĠĠĠĠĠĠĠĠĠĠĠĠĠĠ": 12151,
    "Ġirrevoc": 15038,
    "causing": 25518,
    "Ġlaborers": 19057,
    "ublic": 11227,
    "Ġsli": 4747,
    "Ġenthusiastic": 19964,
    "pointed": 9807,
    "Ġgra": 415,
    "saw": 5893,
    "Ġmeetings": 16532,
    "Ġamerican": 5061,
    "Ġmainten": 16110,
    "mon": 2307,
    "wheeling": 22870,
    "oriously": 17874,
    "Ġwatches": 11082,
    "obedience": 17409,
    "ble": 542,
    "additional": 20462,
    "Ġpublisher": 24062,
    "Ġdifferences": 18715,
    "Ġcircumn": 11982,
    "hello": 13362,
    "pardonable": 17217,
    "grow": 10098,
    "Ġafric": 8905,
    "iously": 2679,
    "Ġmaintaining": 1507,
    "Ġsiber": 17755,
    "Ġrepl": 1593,
    "Ġeverything": 3155,
    "hammad": 23261,
    "occasionally": 13520,
    "ib": 1235,
    "Ġostrich": 26430,
    "Ġsupers": 18277,
    "finally": 9498,
    "indirect": 22369,
    "Î": 143,
    "Ġliberty": 7761,
    "Ġrelics": 16194,
    "with": 1295,
    "Ġringleader": 26212,
    "Ġdescend": 7427,
    "mortal": 10112,
    "vember": 10855,
    "Ġalphabetical": 17201,
    "Ġrebellion": 26475,
    "Ġdreaded": 8288,
    "Ġrested": 9377,
    "mortar": 25408,
    "red": 398,
    "purpose": 10043,
    "Ġgre": 1583,
    "idate": 21764,
    "Ġbe": 336,
    "Ġpractises": 23301,
    "cherries": 19755,
    "Ġunexpected": 6841,
    "Ġreserves": 19669,
    "during": 6787,
    "convenient": 12235,
    "Ġsense": 3250,
    "Ġhyperborean": 26339,
    "Ġblackness": 9391,
    "rolling": 9060,
    "Ġcurly": 18844,
    "Ġdecks": 6900,
    "Ġdere": 21832,
    "Ġwinking": 17793,
    "Ġhus": 3094,
    "Ġarmchair": 8270,
    "Ġpiece": 5367,
    "spouting": 25000,
    "Ġcottagers": 6761,
    "constantinople": 25507,
    "prob": 7069,
    "Ġsurpr": 2551,
    "Ġprecipice": 19939,
    "Ġlod": 4041,
    "Ġsprung": 11249,
    "says": 13298,
    "Ġ16": 7926,
    "buttons": 22397,
    "Ġarithmetic": 18338,
    "Ġlingu": 11613,
    "apsed": 6295,
    "Ġcourse": 2131,
    "Ġframed": 19018,
    "Ġglacier": 11433,
    "Ġrevisit": 21667,
    "Ġrocky": 13386,
    "Ġmab": 12557,
    "abated": 14019,
    "Ġelemental": 19918,
    "penn": 18827,
    "impart": 21706,
    "Ġshower": 11708,
    "oled": 17619,
    "Ġthousand": 2783,
    "Ġuncomp": 15839,
    "appl": 9325,
    "Ġcompat": 2939,
    "Ġinvoluntary": 18779,
    "besides": 8695,
    "Ġrueful": 25581,
    "Ġgerman": 6141,
    "enstein": 5799,
    "Ġstruggle": 3673,
    "aneously": 4059,
    "Ġcrowned": 16841,
    "bber": 4568,
    "Z": 62,
    "Ġdecrease": 4198,
    "ena": 11567,
    "Ġinvoked": 19144,
    "Ġchar": 1703,
    "Ġstaves": 21735,
    "exam": 10976,
    "Ġsgd": 3130,
    "Ġjoys": 13218,
    "john": 11497,
    "ropol": 10953,
    "Ġwharf": 9559,
    "mming": 1170,
    "Ġbarrel": 23790,
    "accepting": 20134,
    "Ġfinds": 6299,
    "Ġ1869": 19382,
    "Ġpiazza": 26450,
    "Ġwasted": 9703,
    "Ġdrenched": 12600,
    "inations": 7567,
    "luent": 15996,
    "Ġchapters": 10473,
    "Ġphr": 2683,
    "Ġsounds": 5190,
    "possible": 5743,
    "Ġtatters": 21176,
    "tre": 8760,
    "Ġtig": 13812,
    "Ġstamping": 20029,
    "Ġlighten": 23257,
    "Ġfert": 15579,
    "Ġrasc": 21971,
    "Ġsign": 2497,
    "promontory": 24728,
    "Ġobjections": 8564,
    "poss": 4777,
    "Ġplumber": 16082,
    "socket": 22727,
    "¤": 102,
    "Ġoffing": 16140,
    "cripp": 20818,
    "Ġprecision": 13186,
    "Ġpreposter": 12819,
    "Ġexpect": 2302,
    "Ġrecorded": 11293,
    "Ġmalignant": 14877,
    "endar": 18364,
    "butter": 11783,
    "Ġtumbled": 13405,
    "Ġnav": 5818,
    "Ġstum": 21728,
    "Ġere": 3683,
    "Ġloveliness": 13607,
    "sixteen": 24853,
    "sensations": 20049,
    "Ġembracing": 14979,
    "Ġconcealment": 16914,
    "Ġconstrained": 19238,
    "Ġ125": 24470,
    "ancy": 4394,
    "Ġpresided": 20206,
    "Ġsplin": 8618,
    "ittleness": 22376,
    "Ġfrosty": 14934,
    "Ġcarpent": 4466,
    "Ġstreamed": 14546,
    "athered": 6972,
    "bows": 10081,
    "Ġste": 1389,
    "thine": 15822,
    "Ġspots": 11727,
    "Ġcushion": 17833,
    "untering": 15773,
    "Ġbeak": 18079,
    "flag": 14710,
    "Ġconsiderations": 9409,
    "ilt": 2970,
    "aver": 6785,
    "manifested": 20524,
    "Ġdumplings": 15189,
    "Ġcrossing": 7253,
    "Ġezekiel": 26192,
    "ah": 1835,
    "Ġmerits": 13193,
    "pred": 2803,
    "unsupervised": 10889,
    "Ġoptim": 774,
    "Ġblasted": 7937,
    "struck": 7861,
    "Ġdemig": 20355,
    "chairs": 21690,
    "Ġwheelbarrow": 17204,
    "le": 279,
    "Ġgets": 10839,
    "ede": 21503,
    "iamond": 14590,
    "Ġcomputes": 4767,
    "outon": 12801,
    "Ġfanny": 23387,
    "Ġjoll": 11763,
    "rior": 12738,
    "Ġneedless": 19228,
    "Ġcollateral": 20070,
    "Ġcurtain": 14413,
    "Ġcircles": 7966,
    "compassion": 12366,
    "Ġprodigiously": 14931,
    "Ġsty": 6251,
    "Ġliving": 3066,
    "Ġsentinel": 26065,
    "Ġengaged": 3429,
    "Ġpadd": 9669,
    "Ġcommun": 1705,
    "pen": 1204,
    "vig": 15445,
    "Ġbrow": 3988,
    "Ġcharger": 19004,
    "Ġendurance": 23142,
    "forgotten": 12414,
    "Ġconcuss": 19048,
    "Ġprofile": 16488,
    "Ġach": 2620,
    "steelkilt": 10046,
    "Ġunclasp": 26511,
    "adieu": 26200,
    "$": 8,
    "Ġannoyance": 20661,
    "Ġlocks": 11722,
    "icher": 9202,
    "Ġminister": 18751,
    "Ġcontact": 9280,
    "Ġfifth": 11257,
    "Ġcr": 2152,
    "cousins": 20116,
    "Ġgrounded": 23710,
    "Ġdebility": 24272,
    "society": 9971,
    "mense": 4779,
    "Ġstepped": 7051,
    "Ġcond": 3875,
    "Ġtipped": 17728,
    "chiefly": 14845,
    "Ġavenue": 13620,
    "Ġcapsizing": 20087,
    "owed": 2268,
    "Ġdisputing": 25824,
    "avish": 22543,
    "Ġhistories": 14687,
    "reds": 12747,
    "boards": 23252,
    "rious": 11687,
    "Ġyoungest": 7953,
    "Ġplayfully": 19237,
    "Ġcrowd": 6336,
    "Ġundecided": 22043,
    "Ġrot": 10967,
    "Ġequinox": 25855,
    "Ġdragged": 6889,
    "ample": 1366,
    "indisc": 22370,
    "ubines": 22956,
    "surface": 10530,
    "ousings": 18335,
    "causes": 20342,
    "tured": 13794,
    "ĠĠĠĠĠĠĠĠĠĠĠĠĠĠĠĠĠĠĠ": 22947,
    "Ġinher": 10179,
    "langu": 4806,
    "mud": 20970,
    "Ġbanish": 15567,
    "swim": 16779,
    "Ġpossession": 5589,
    "Ġlory": 12649,
    "displeasure": 23495,
    "Ġtube": 15003,
    "Ġdivulged": 16648,
    "Ġthreading": 23398,
    "Ġuneasiness": 9483,
    "Ġgallop": 19554,
    "Ġhandsomer": 20332,
    "Ġv": 399,
    "hester": 9631,
    "benevolently": 25600,
    "delay": 16698,
    "Ġsalad": 19477,
    "akin": 11765,
    "Ġunwearied": 20601,
    "Ġprompted": 23814,
    "Ġbath": 9658,
    "wards": 1276,
    "advancing": 14835,
    "Ġwords": 1324,
    "Ġglu": 15665,
    "Ġtrusted": 10517,
    "leap": 21365,
    "Ġperilous": 7768,
    "eling": 6681,
    "Ġphrensy": 25124,
    "presents": 18796,
    "idation": 5022,
    "were": 2559,
    "Ġdiscussed": 19558,
    "Ġnobler": 14175,
    "Ġst": 332,
    "Ġmealy": 18120,
    "Ġscheming": 23268,
    "Ġresided": 11809,
    "duct": 3505,
    "imagine": 19930,
    "Ġfrenz": 25446,
    "Ġcongrat": 5827,
    "Ġremotest": 10051,
    "ographical": 16786,
    "Ġcrop": 10162,
    "Ġwrote": 5011,
    "Ġbaff": 10799,
    "outer": 9668,
    "Ġcracks": 12018,
    "afterwards": 7484,
    "nurtured": 25524,
    "Ġvor": 15804,
    "Ġstruggling": 12072,
    "Ġsolicit": 22884,
    "sounding": 24796,
    "idav": 18092,
    "writhed": 26080,
    "Ġliable": 14228,
    "frozen": 25139,
    "Ġglimmering": 25240,
    "Ġoysters": 20577,
    "Ġplane": 11821,
    "Ġmince": 22828,
    "reward": 15508,
    "Ġentail": 9791,
    "Ġnathan": 21523,
    "Ġalleghan": 25795,
    "Ġswan": 23049,
    "<EOS>": 2,
    "Ġvalley": 5850,
    "Ġsolar": 22882,
    "taking": 5689,
    "Ġferule": 24499,
    "vour": 17699,
    "Ġdeeps": 16112,
    "Ġequator": 7461,
    "Ġinterpretation": 19715,
    "dried": 20826,
    "jointed": 24007,
    "Ġsnodhead": 19300,
    "ierce": 14390,
    "Ġhearties": 18967,
    "Ġcompose": 12902,
    "Ġtorments": 13393,
    "rist": 10122,
    "hailed": 17565,
    "tstone": 21083,
    "tips": 13795,
    "iability": 20919,
    "Ġshutting": 14758,
    "barn": 17482,
    "jected": 22711,
    "inex": 14095,
    "instantly": 7506,
    "standard": 22433,
    "inburgh": 15489,
    "rows": 6442,
    "considered": 9580,
    "uch": 877,
    "Ġsnoring": 23739,
    "Ġsublim": 19965,
    "Ġwounds": 17790,
    "iciously": 17973,
    "ilities": 6991,
    "Ġlearn": 363,
    "pict": 8385,
    "oses": 3946,
    "continu": 5501,
    "Ġcorrected": 10448,
    "Ġaccompaniments": 24482,
    "ondescript": 22913,
    "Ġturbul": 23611,
    "Ġboisterously": 25682,
    "retrospect": 23135,
    "Ġalleviated": 26203,
    "Ġpostp": 12141,
    "highly": 24764,
    "Ġcolours": 12972,
    "Ġlacey": 10197,
    "oul": 4698,
    "Ġunder": 1634,
    "convers": 6567,
    "threw": 21981,
    "Ġcoloured": 11044,
    "y": 93,
    "Ġsteelkilt": 5675,
    "Ġinducement": 16843,
    "Ġsadly": 7302,
    "Ġindulge": 10582,
    "affording": 23776,
    "first": 3934,
    "Ġdeserted": 8636,
    "Ġwhirlpool": 20654,
    "magnitude": 17248,
    "ambition": 13410,
    "Ġeveryone": 8917,
    "Ġotherwise": 4657,
    "Ġentreaties": 9035,
    "Ġduplicity": 25331,
    "Ġtus": 10749,
    "Ġwhereupon": 14293,
    "Ġpupils": 20419,
    "¼": 125,
    "Ġforce": 5092,
    "rubber": 12808,
    "tails": 21085,
    "shelf": 20379,
    "trees": 10731,
    "attention": 2111,
    "amongst": 24672,
    "Ġbundle": 13425,
    "Ġevaporate": 26332,
    "ileries": 18058,
    "Ġsignifies": 19203,
    "Ġcheap": 13088,
    "Ġgrie": 3583,
    "oboam": 9357,
    "Ġjo": 2607,
    "Ġnavel": 24576,
    "riet": 18179,
    "Ġ1825": 25719,
    "Ġankers": 21443,
    "bus": 5354,
    "Ġenveloped": 12206,
    "menced": 23143,
    "Ġhart": 17921,
    "Ġmoment": 992,
    "Ġslain": 8953,
    "almost": 4943,
    "Ġprudent": 9185,
    "Ġnew": 1196,
    "Ġerected": 12231,
    "Ġevangelist": 20337,
    "Ġbabes": 24425,
    "danish": 20832,
    "Ġhorseback": 14849,
    "hopes": 15368,
    "Ġbreathed": 11220,
    "pled": 7891,
    "Ġskilful": 25837,
    "Ġdecisions": 6702,
    "Ġwhis": 3503,
    "Ġtable": 2501,
    "Ġgentlemanly": 19315,
    "Ġsundry": 20072,
    "Ġilliter": 23467,
    "Ġhostile": 19938,
    "Ġbedford": 7473,
    "Ġattending": 3284,
    "Ġcrucial": 9892,
    "bene": 6112,
    "eties": 10837,
    "Ġbeating": 8144,
    "Ġpastures": 23418,
    "ette": 15656,
    "linearity": 1649,
    "Ġbanished": 10616,
    "midnight": 14901,
    "Ġvib": 8164,
    "Ġforster": 5230,
    "Ġdiscl": 9796,
    "Ġmilitia": 13316,
    "Ġupbraid": 18318,
    "redible": 15802,
    "perch": 18341,
    "seam": 10874,
    "Ġbuckler": 24859,
    "Ġkingdom": 12017,
    "Ġtease": 18805,
    "science": 11907,
    "Ġx": 2075,
    "Ġover": 555,
    "Ġstabbing": 20302,
    "Ġstays": 16560,
    "ago": 14064,
    "Ġcountrymen": 23594,
    "increasing": 20268,
    "bitterly": 20336,
    "Ġentries": 22743,
    "Ġsaved": 6690,
    "Ġincredulous": 9986,
    "Ġ44": 16679,
    "ase": 1158,
    "tedious": 22630,
    "Ġdeceived": 6544,
    "Ġmusic": 5268,
    "Ġphotography": 24683,
    "Ġrandom": 1588,
    "haul": 14764,
    "Ġdeuteronomy": 15757,
    "Ġkl": 2738,
    "Ġvivacity": 14940,
    "Ġexclamations": 11361,
    "Ġcerem": 7077,
    "Ġdisco": 3428,
    "Ġcrippled": 25278,
    "Ġspeak": 2226,
    "Ġtu": 6968,
    "Ġviolation": 23404,
    "Ġcl": 554,
    "Ġforged": 12701,
    "Ġexecution": 6927,
    "symp": 14618,
    "Ġgranting": 18737,
    "gar": 5615,
    "carriage": 9945,
    "rannical": 26401,
    "Ġslink": 23160,
    "Ġworshipped": 25691,
    "iary": 15369,
    "gall": 6359,
    "tack": 12510,
    "Ġsnaky": 23741,
    "orph": 21397,
    "Ġaquiline": 26159,
    "Ġforger": 15730,
    "Ġfrequ": 3328,
    "Ġrobes": 16244,
    "Ġif": 696,
    "Ġsmiled": 5940,
    "luding": 6700,
    "thought": 3849,
    "au": 778,
    "Ġdistrustful": 25054,
    "Ġcoat": 4554,
    "ames": 2956,
    "Ġaut": 1805,
    "Ġdismally": 20213,
    "ffic": 22148,
    "Ġglobu": 23269,
    "forced": 11031,
    "Ġpollard": 20384,
    "happened": 9432,
    "Ġmysterious": 7527,
    "appearance": 5333,
    "peril": 18342,
    "ineffectual": 26507,
    "Ġdiscount": 22778,
    "Ġproves": 14037,
    "Ġextraordinary": 5414,
    "induce": 22371,
    "Ġinfants": 16361,
    "ò": 179,
    "Ġmarling": 23031,
    "tiger": 13796,
    "immediately": 10048,
    "lays": 14921,
    "Ġinstructive": 19284,
    "nels": 12493,
    "ply": 6366,
    "Ġapology": 8327,
    "thyself": 19296,
    "Ġlaid": 3941,
    "Ġhatter": 4110,
    "declaration": 25175,
    "Ġsnuffed": 15071,
    "Ġell": 17715,
    "Ġphysiognomy": 25610,
    "Ġbreathlessly": 24280,
    "Ġamuse": 5939,
    "Ġoffic": 3186,
    "Ġcommitting": 22670,
    "recollected": 25347,
    "Ġcapst": 8596,
    "Ġlet": 1109,
    "Ġcope": 17830,
    "haven": 20911,
    "Ġexpectantly": 23524,
    "Ġmogul": 12859,
    "Ġincapable": 7423,
    "Ġimportant": 1051,
    "Ġpedestrian": 25879,
    "Ġexception": 11216,
    "gence": 876,
    "derness": 11735,
    "Ġunimag": 12772,
    "Ġransacked": 26504,
    "Ġcommonly": 3263,
    "ensive": 6279,
    "Ġprender": 22232,
    "Ġsupremacy": 20259,
    "ì": 173,
    "bitts": 26122,
    "Ġglimp": 6065,
    "ractions": 11632,
    "rock": 15638,
    "Ġsomewhere": 5384,
    "Ġborder": 10169,
    "Ġleviathans": 8281,
    "Ġcardboard": 19977,
    "Ġvindication": 25364,
    "Ġvii": 13107,
    "Ġinserted": 8355,
    "Ġdan": 8792,
    "Ġinitial": 821,
    "Ġrepair": 11977,
    "Ġskies": 8920,
    "Ġblack": 2034,
    "Ġtwine": 14310,
    "charmed": 21693,
    "Ġenjoying": 11234,
    "Ġalluded": 7884,
    "Ġentertainment": 12220,
    "ooping": 21006,
    "discovered": 8324,
    "Ġannouncement": 14832,
    "frankenstein": 11391,
    "Ġribbed": 16804,
    "_.âĢĶ": 23471,
    "Ġcra": 2329,
    "urity": 8142,
    "pronounce": 25192,
    "reme": 2425,
    "Ġshoots": 14568,
    "inkles": 7426,
    "sides": 12505,
    "Ġsuffoc": 18870,
    "iah": 14416,
    "startled": 24941,
    "Ġsam": 7569,
    "Ġlevelled": 11284,
    "Ġjenny": 20161,
    "Ġleisure": 6539,
    "Ġengrossed": 12992,
    "Ġaroused": 15892,
    "²": 115,
    "Ġmoccas": 22431,
    "arrow": 4177,
    "Ġinfl": 6892,
    "ene": 2169,
    "Ġdepartment": 24241,
    "Ġ]": 15458,
    "Ġcompliments": 8632,
    "tit": 11527,
    "Ġprouder": 18973,
    "icken": 6711,
    "Ġsteps": 2865,
    "Ġsunwards": 19012,
    "clean": 14759,
    "Ġplanks": 5563,
    "Ġhoof": 23349,
    "Ġfi": 935,
    "adders": 24400,
    "Ġoverflowed": 20261,
    "varying": 13803,
    "ened": 1388,
    "urities": 18049,
    "Ġyielding": 12184,
    "Ġpersuas": 23944,
    "Ġinvoking": 19145,
    "Ġungodly": 26513,
    "transform": 8049,
    "Ġcontinental": 19704,
    "Ġchoice": 2165,
    "Ġplayed": 9415,
    "ilent": 21717,
    "Ġlumber": 13951,
    "Ġsmiling": 5476,
    "Ġpersist": 16272,
    "helpless": 16790,
    "Ġoutlines": 15955,
    "Ġpantaloons": 20295,
    "================================================================": 9989,
    "Ġcomponents": 8894,
    "Ġ78": 19612,
    "Ġstones": 9221,
    "Ġus": 495,
    "Ġdaylight": 10350,
    "abst": 21785,
    "Ġripe": 13233,
    "Ġsmelling": 16067,
    "sleet": 20148,
    "Ġexactly": 2770,
    "Ġslack": 8955,
    "Ġrecklessness": 24745,
    "burn": 8370,
    "gigantic": 15358,
    "Ġrings": 11697,
    "idy": 21761,
    "Ġtopmost": 14587,
    "Ġassociate": 13449,
    "Ġgetting": 4065,
    "librarian": 26568,
    "iquette": 26132,
    "hercules": 22202,
    "Ġstarvation": 19790,
    "Ġthrowing": 6335,
    "Ġscand": 7203,
    "motives": 26137,
    "Ġcane": 10927,
    "brous": 19198,
    "inously": 21185,
    "render": 10290,
    "ciousness": 20816,
    "Ġmingled": 12375,
    "Ġbushy": 16399,
    "Ġfrayed": 23276,
    "e": 73,
    "ceed": 1076,
    "Ġbureau": 11589,
    "Ġwarn": 5695,
    "âĢĶâĢĿ": 3300,
    "ones": 2744,
    "iers": 5990,
    "conspicuous": 26247,
    "Ġease": 5629,
    "Ġmultitud": 18746,
    "Ġhovel": 8253,
    "Ġweig": 7618,
    "Ġsentry": 19026,
    "Ġnormalization": 1244,
    "Ġbands": 14883,
    "hanging": 10100,
    "following": 10572,
    "Ġprayers": 12121,
    "----âĢĻ": 24094,
    "Ġsoapstone": 20509,
    "Ġscoresby": 10461,
    "Ġhapp": 1089,
    "89": 20758,
    "cement": 2818,
    "Ġnourishment": 15191,
    "iracle": 11244,
    "distinction": 19570,
    "Ġheh": 21677,
    "Ġtiresome": 26156,
    "irious": 15783,
    "Ġdefer": 18823,
    "Ġsustained": 13481,
    "Ġcharged": 9853,
    "Ġcongenial": 12409,
    "Ġexplain": 545,
    "Ġfid": 10803,
    "Ġpanther": 16819,
    "Ġmiscellaneous": 17462,
    "cross": 3575,
    "Ġmeditation": 16680,
    "Ġflesh": 5968,
    "Ġbutchers": 18272,
    "Ġelig": 9777,
    "enses": 10996,
    "inkers": 22615,
    "Ġgermany": 25785,
    "Ġsummits": 14683,
    "Ġslaugh": 18937,
    "rubbed": 22181,
    "questioning": 16850,
    "Ġtor": 8105,
    "mingled": 14712,
    "Ġcollections": 22857,
    "Ġsolitary": 5854,
    "Ġhull": 5446,
    "Ġvery": 637,
    "relative": 24010,
    "Ġraging": 14307,
    "iza": 6255,
    "agery": 21904,
    "trans": 5594,
    "Ġsuicide": 12783,
    "Ġdescended": 7428,
    "Ġfondly": 19615,
    "sle": 9138,
    "educ": 10828,
    "Ġstiggs": 25792,
    "Ġrunning": 3951,
    "Ġfugitives": 25634,
    "disguise": 26306,
    "coward": 13699,
    "Ġinclement": 22552,
    "ĠĠĠĠĠĠĠĠĠĠĠĠ": 12900,
    "leviathans": 19936,
    "Ġadoption": 24948,
    "iquet": 17575,
    "inent": 9628,
    "ĠcÃ¦": 15552,
    "iantly": 13738,
    "results": 20385,
    "Ľ": 254,
    "ogene": 18671,
    "Ġexpiring": 16093,
    "Ġgain": 4826,
    "Ġinjuring": 24268,
    "Ġbeware": 8827,
    "ford": 2825,
    "Ġstammered": 26199,
    "Ġvol": 4186,
    "Ġaccordingly": 6619,
    "Ġfinger": 5273,
    "Ġsou": 1886,
    "ppo": 18175,
    "Ġadduced": 26524,
    "correspond": 13397,
    "ee": 1657,
    "mock": 5174,
    "Ġcommunication": 1869,
    "Ġtalking": 3858,
    "Ġlanterns": 24577,
    "uniform": 18157,
    "aste": 4601,
    "osa": 22257,
    "mod": 1040,
    "Ġspiritual": 9929,
    "ley": 1818,
    "Ġringed": 16750,
    "Åĵuvre": 25887,
    "Ġquit": 5246,
    "ood": 962,
    "Ġmaybe": 12946,
    "Ġsilently": 6893,
    "Ġtrappers": 23079,
    "Ġchairs": 12823,
    "Ġlife": 1356,
    "recol": 10150,
    "quality": 10232,
    "Ġmanufact": 22325,
    "Ġreview": 18030,
    "Ġ181": 23892,
    "Ġmonotonically": 3834,
    "Ġtass": 15469,
    "Ġrational": 8479,
    "Ġ200": 19294,
    "Ġrecollection": 6620,
    "Ġprecisely": 6466,
    "Ġdesiring": 14414,
    "Ġwaterward": 23363,
    "yourselves": 24956,
    "Ġliterary": 25162,
    "Ġsurveying": 25325,
    "meantime": 9091,
    "Ġrelentless": 26277,
    "Ġsheaves": 22155,
    "quarried": 24945,
    "repro": 10770,
    "irmed": 9238,
    "rip": 9240,
    "erate": 7149,
    "Ġgrunted": 16166,
    "iline": 21718,
    "arle": 21438,
    "mighty": 9466,
    "Ġro": 597,
    "Ġdrugg": 17119,
    "Ġscre": 9736,
    "id": 338,
    "£": 101,
    "tranquil": 25870,
    "Ġsetbacks": 11063,
    "Ġintroduce": 3205,
    "Ġknowledge": 1445,
    "chorus": 19810,
    "msman": 9269,
    "ignified": 14490,
    "Ġconcisely": 19046,
    "Ġdigress": 24648,
    "Ġineffect": 13929,
    "Ġamendment": 26024,
    "Ġignorance": 6618,
    "Ġop": 2601,
    "Ġferoc": 14896,
    "harmony": 25750,
    "ighbour": 3388,
    "Ġburglar": 17354,
    "Ġhug": 6979,
    "Ġbraced": 16579,
    "tranqu": 14705,
    "oping": 5559,
    "backs": 9389,
    "Ġo": 275,
    "altern": 17941,
    "birds": 15143,
    "Ġbegg": 16252,
    "intending": 22932,
    "Ġwoof": 14720,
    "itiousness": 21332,
    "Ġeffect": 971,
    "ending": 1991,
    "countless": 24150,
    "Ġscript": 18398,
    "jar": 17577,
    "guard": 12126,
    "acled": 16061,
    "Ġobedience": 11413,
    "Ġcasualties": 25512,
    "Ġresp": 2496,
    "conve": 14243,
    "Ġswelling": 11923,
    "engagement": 14457,
    "Ġextinguish": 14328,
    "chancing": 22915,
    "Ġsoftmax": 1688,
    "Ġprocedures": 9411,
    "Ġbrilliancy": 20105,
    "Ġsolicited": 20035,
    "Ġintegrated": 13530,
    "generations": 23784,
    "Ġundulations": 19514,
    "Ġcoupled": 16851,
    "Ġcrashes": 13124,
    "Ġdenny": 9001,
    "pulous": 15415,
    "Ġwoman": 2387,
    "com": 989,
    "w": 91,
    "Ġfang": 21401,
    "Ġteaches": 18807,
    "12": 20748,
    "announce": 24560,
    "manif": 14372,
    "Ġbount": 15565,
    "Ġmarched": 18871,
    "Ġbuzz": 23994,
    "Ġgracious": 8846,
    "Ġshot": 4544,
    "Ġinsol": 10180,
    "tomb": 21092,
    "looks": 12016,
    "suspicious": 25390,
    "sailing": 14713,
    "lour": 15379,
    "Ġcharacteristically": 23690,
    "Ġreal": 1633,
    "Ġtrespass": 23599,
    "Ġcompanions": 5865,
    "Ġfashions": 17885,
    "Ġevenings": 18753,
    "isite": 15560,
    "olet": 13765,
    "Ġgest": 8133,
    "diligence": 26110,
    "peter": 24298,
    "Ġpolice": 4674,
    "Ġwint": 15531,
    "Ġoakshott": 12227,
    "Ġpoverty": 9304,
    "Ġrev": 6988,
    "Ġdistingu": 2515,
    "enit": 17779,
    "Ġarrows": 18336,
    "Ġapplied": 6186,
    "repressed": 21242,
    "weed": 14314,
    "Ġexposed": 8522,
    "Ġprofane": 13151,
    "sir": 5001,
    "Ġsable": 15499,
    "Ġmultipl": 2792,
    "Ġrecoil": 18692,
    "ana": 15556,
    "Ġkeepers": 23538,
    "surf": 24212,
    "Ġpanel": 13371,
    "Ġstark": 7390,
    "Ġpartly": 6713,
    "phr": 18710,
    "pronounced": 12344,
    "Ġhairs": 13229,
    "Ġfluctuations": 5516,
    "Ġbarriers": 23793,
    "Ġstrategies": 1841,
    "Ġfolio": 11916,
    "Ġhap": 18195,
    "Ġintroduces": 3268,
    "Ġadieus": 25110,
    "Ġinaccessible": 13933,
    "Ġrans": 21963,
    "Ġinvention": 19951,
    "emph": 21925,
    "ivia": 22081,
    "Ġdeafened": 25651,
    "warning": 25531,
    "benevol": 12224,
    "Ġstrive": 23692,
    "Ġsacr": 7195,
    "that": 850,
    "ushion": 14719,
    "Ġbackstays": 22650,
    "Ġreproach": 9556,
    "Ġadvantages": 9810,
    "Ġshaped": 15832,
    "Ġimbu": 15885,
    "Ġevolved": 9891,
    "Ġgeometric": 3218,
    "Ġstreatham": 17448,
    "Ġslee": 8974,
    "Ġkrusen": 20713,
    "Ġpersonages": 23540,
    "Ġtelling": 5747,
    "Ġadmirers": 19685,
    "Ġimminent": 11245,
    "Ġinno": 1463,
    "Ġforcibly": 10060,
    "Ġcallest": 17832,
    "Ġcanaller": 25467,
    "Ġthack": 21514,
    "settle": 16661,
    "satisfaction": 9991,
    "stache": 15687,
    "nay": 7135,
    "Ġinflict": 15001,
    "talking": 10006,
    "Ġbuckle": 17033,
    "Ġ41": 24077,
    "Ġtraps": 23078,
    "al": 292,
    "Ġflank": 8228,
    "Ġharris": 13926,
    "Ġunb": 10907,
    "Ġthis": 382,
    "ther": 482,
    "Ġexamples": 2603,
    "Ġhence": 4989,
    "Ġ15": 9323,
    "ulations": 6028,
    "Ġforgiven": 24024,
    "Ġforesight": 13126,
    "Ġsword": 6732,
    "Ġasleep": 6836,
    "obser": 11099,
    "ouse": 1192,
    "equally": 19898,
    "uber": 15444,
    "apers": 3480,
    "Ġ96": 24592,
    "Ġindisposed": 26287,
    "Ġaccordance": 19496,
    "Ġsounded": 8590,
    "Ġbaw": 15566,
    "Ġresolution": 5500,
    "Ġentrance": 7233,
    "Ġslappin": 18942,
    "Ġwrite": 3821,
    "Ġtowering": 16739,
    "Ġdominion": 16528,
    "bureau": 20788,
    "Ġhurrah": 9868,
    "Ġpreventing": 881,
    "bar": 7541,
    "Ġtradesman": 20071,
    "Ġacceler": 1610,
    "Ġshameful": 19851,
    "sorrow": 12506,
    "Ġworks": 5858,
    "Ġclearness": 23181,
    "Ġparasol": 22118,
    "Ġexult": 10229,
    "murderer": 13392,
    "arat": 9180,
    "Ġwoke": 21288,
    "tashtego": 9622,
    "Ġmorning": 1749,
    "asily": 13945,
    "rrh": 26144,
    "hent": 12531,
    "Ġigniting": 25070,
    "Ġenergy": 2553,
    "Ġaval": 15492,
    "Ġfleshy": 24614,
    "repeat": 25151,
    "completely": 12418,
    "Ġfurniture": 6476,
    "Ġcrows": 24028,
    "vable": 10132,
    "#": 7,
    "ĠĠĠĠĠĠĠĠĠĠĠĠĠ": 22561,
    "Ġnecessitates": 23926,
    "Ġsharkish": 24506,
    "ĠĠĠĠĠ": 3527,
    "Ġgrind": 18735,
    "Ġostr": 21323,
    "wondrous": 12336,
    "Ġgeneva": 5450,
    "drovand": 24760,
    "Ġhabits": 6926,
    "Ġlayers": 816,
    "Ġgravely": 7882,
    "glasses": 11215,
    "======": 9832,
    "Ġdesert": 6727,
    "Ġquietly": 4567,
    "Ġmeddling": 24080,
    "ds": 4687,
    "incible": 16497,
    "Ġpay": 3963,
    "Ġfoe": 7679,
    "thed": 8826,
    "fortune": 4975,
    "royal": 11393,
    "Ġlimber": 16478,
    "Ġrevolution": 3306,
    "Ġwater": 1947,
    "rebellum": 26165,
    "Ġthoughtfully": 12977,
    "nailed": 20995,
    "Ġslugg": 15267,
    "Ġquill": 12854,
    "shavings": 22460,
    "Ġlecture": 13566,
    "yden": 21142,
    "jub": 20928,
    "br": 2480,
    "Ġturn": 1296,
    "Ġrevel": 9214,
    "Ġrefrained": 14344,
    "Ġimmensely": 13594,
    "Ġpage": 6978,
    "Ġalbino": 20501,
    "Ġfeelingly": 22994,
    "dataset": 23205,
    "support": 9469,
    "Ġjem": 18402,
    "Ġstiff": 6992,
    "Ġdisquiet": 18552,
    "Ġetext": 23947,
    "ras": 21035,
    "Ġintegr": 7968,
    "rodu": 1821,
    "Ġsignal": 5944,
    "consc": 4839,
    "Ġdifficulty": 5770,
    "Ġmaria": 7124,
    "Ġfulfilled": 11362,
    "ishe": 13890,
    "Ġdeceitful": 25733,
    "Ġbor": 5804,
    "ben": 4926,
    "which": 1707,
    "Ġcaliforn": 14430,
    "heaven": 8052,
    "circumstance": 7763,
    "coffin": 10662,
    "Ġdrug": 11410,
    "cor": 5520,
    "organ": 15571,
    "Ġundeserving": 18268,
    "ven": 781,
    "h": 76,
    "Ġjur": 12831,
    "Ġsailing": 5323,
    "unaccountable": 15776,
    "Ġchurchyard": 16777,
    "Ġhuman": 1317,
    "Ġdarkened": 16431,
    "bottom": 11426,
    "Ġrobbed": 23000,
    "az": 2181,
    "puted": 8845,
    "Ġmerc": 9425,
    "aid": 1921,
    "Ġafternoon": 6052,
    "allied": 7410,
    "Ġminimizes": 2047,
    "papers": 12499,
    "Ġconstit": 8582,
    "Ġlightnings": 16351,
    "amet": 587,
    "Ġsignificantly": 4519,
    "Ġpraying": 19553,
    "itig": 1330,
    "Ġbeautifully": 13265,
    "Ġstru": 2170,
    "lodged": 25907,
    "swed": 24253,
    "market": 16839,
    "Ġchaise": 9076,
    "Ġslapped": 23168,
    "ele": 9114,
    "Ġmillar": 13860,
    "Ġpreliminaries": 25176,
    "Ġharmony": 16814,
    "german": 11491,
    "Ġinvite": 14562,
    "Ġhelper": 24023,
    "hurrying": 14982,
    "omically": 13975,
    "Ġtapers": 11551,
    "Ġ95": 19772,
    "advice": 12155,
    "Ġretreating": 19798,
    "Ġdood": 22239,
    "Ġsignificance": 13279,
    "Ġinns": 17929,
    "Ġsubsiding": 23432,
    "Ġloop": 14146,
    "Ġvancou": 22874,
    "eler": 1571,
    "Ġtradeoff": 2661,
    "ineff": 21977,
    "hauled": 20667,
    "Ġhandsom": 11124,
    "Ġparsee": 6413,
    "Ġchry": 22243,
    "Ġindel": 13001,
    "Ġfilling": 13407,
    "Ġinsects": 25646,
    "rie": 2788,
    "comput": 1953,
    "Ġquohog": 10972,
    "entropy": 1438,
    "odings": 4400,
    "Ġhundredth": 16518,
    "opement": 10311,
    "dan": 17515,
    "latin": 25258,
    "Ġandromeda": 21505,
    "urrection": 12407,
    "ricane": 16277,
    "Ġrussia": 26267,
    "condesc": 18505,
    "fig": 8734,
    "atlantic": 15522,
    "Ġappalling": 8499,
    "Ġhour": 1813,
    "risonment": 17374,
    "Ġrounding": 16274,
    "Ġoccasion": 3245,
    "Ġoccupant": 16651,
    "sculptured": 26046,
    "pot": 10117,
    "uteronomy": 15661,
    "Ġcant": 17824,
    "ide": 721,
    "Ġpassive": 22838,
    "Ġscalable": 1562,
    "Ġoverspread": 14206,
    "Ġgasped": 11372,
    "Ġreusable": 13556,
    "Ġcrisis": 13125,
    "Ġperverseness": 13653,
    "shri": 14235,
    "Ġpalmed": 24087,
    "Ġcurric": 22970,
    "nurse": 15207,
    "Ġrapid": 1467,
    "tall": 17673,
    "94": 4802,
    "Ġknight": 9726,
    "Ġsneeze": 24699,
    "Ġshiny": 14105,
    "oppressed": 24824,
    "Ġregained": 18599,
    "Ġde": 365,
    "Ġtestament": 23224,
    "Ġglobules": 26588,
    "Ġwhich": 502,
    "uine": 13798,
    "Ġtak": 15468,
    "opolising": 25676,
    "foot": 9046,
    "Ġreturning": 5325,
    "Ġcrusad": 23705,
    "Ġpressed": 6041,
    "Ġshabby": 14110,
    "laugh": 10108,
    "Ġpines": 12614,
    "Ġunheard": 22020,
    "sound": 6799,
    "despairing": 25074,
    "Ġdissolved": 18554,
    "Ġdependency": 3486,
    "resolution": 17766,
    "Ġfoundling": 22967,
    "Ġdeportment": 22608,
    "Ġdeposition": 18612,
    "value": 18810,
    "rain": 462,
    "Ġceases": 19312,
    "Ġsucceed": 4545,
    "Ġdeploy": 2806,
    "repugnance": 16864,
    "conceive": 16027,
    "icirc": 15653,
    "ĠĠĠĠĠĠĠĠĠĠĠĠĠĠĠĠĠĠĠĠĠĠĠĠĠĠĠĠĠĠĠĠĠĠĠĠĠĠĠĠĠĠĠ": 12152,
    "Ġgallows": 12143,
    "Ġpainful": 6462,
    "Ġrelate": 6875,
    "Ġpict": 3498,
    "ĠarchÃ¦": 22771,
    "watson": 12241,
    ".âĢĶâĢľ": 20746,
    "withstand": 23023,
    "Ġshreds": 12767,
    "cong": 10687,
    "Ġabed": 22262,
    "Ġbrook": 13045,
    "Ġdiscomp": 11864,
    "encies": 4079,
    "Ġacquire": 2726,
    "benefit": 24642,
    "Ġcollecting": 12284,
    "Ġprofessor": 11230,
    "Ġlivid": 14988,
    "osoever": 17342,
    "Ġnewly": 9337,
    "Ġasylum": 13665,
    "Ġaccount": 2318,
    "Ġcharacters": 9371,
    "ald": 15622,
    "bble": 17484,
    "Ġmatch": 4529,
    "Ġones": 3022,
    "Ġearn": 3547,
    "byshire": 6172,
    "Ă": 195,
    "Ġappertain": 22216,
    "execution": 20470,
    "M": 49,
    "Ġreckoned": 24744,
    "Ġhorizontal": 7782,
    "Ġunh": 9252,
    "mopol": 15395,
    "Ġcompensated": 17400,
    "Ġconventional": 25547,
    "âĢĻ,": 14069,
    "Ġthomson": 26454,
    "somebody": 14565,
    "Ġscorch": 20065,
    "vain": 15446,
    "Ġrapidity": 11103,
    "Ġsog": 22075,
    "Ġ45": 14769,
    "wanted": 10743,
    "Ġdeferred": 18826,
    "Ġextreme": 2516,
    "Ġsweetest": 13245,
    "consid": 4924,
    "Ġbattalions": 25776,
    "Ġgossiping": 26243,
    "Ġfrederick": 15584,
    "Ġstructure": 832,
    "Ġchristmas": 6924,
    "Ġpolitical": 19222,
    "Ġhinted": 6011,
    "iom": 20914,
    "uracy": 1050,
    "ationally": 15702,
    "Ġthreat": 5154,
    "Ġpriv": 4180,
    "Ġdes": 1253,
    "Ġdreary": 10408,
    "subsided": 25830,
    "Ġcovariate": 2350,
    "cou": 13694,
    "Ġschemes": 11131,
    "Ġunerring": 15845,
    "hopeless": 16917,
    "Ġrecede": 25968,
    "children": 9055,
    "Ġdaunt": 19663,
    "Ġobserved": 3541,
    "Ġdeadly": 5405,
    "ē": 212,
    "Ġsports": 18310,
    "Ġpilgrim": 25599,
    "Ġrods": 9752,
    "Ġopulent": 23627,
    "Ġpeaking": 22687,
    "Ġspr": 4023,
    "Ġrevolver": 14899,
    "Ġmiles": 3804,
    "Ġproport": 2295,
    "hedge": 22495,
    "Ġdrank": 16535,
    "fly": 13713,
    "ai": 2526,
    "Ġplanets": 24053,
    "oysius": 14363,
    "Ġvi": 1952,
    "steering": 16635,
    "Ġhamp": 12627,
    "Ġheedfully": 24521,
    "Ġlived": 3990,
    "faint": 17545,
    "Ġhalf": 1667,
    "Ġherring": 14126,
    "occurrences": 26331,
    "Ġmatters": 4974,
    "hroom": 12474,
    "Ġannoy": 17198,
    "erick": 13847,
    "Ġbracing": 16580,
    "Ġworthy": 7241,
    "Ġdisaster": 12884,
    "avor": 14261,
    "ĠâĢľâĢĶ": 9733,
    "Ġskill": 6872,
    "nam": 2651,
    "Ġfifteen": 6947,
    "etwork": 443,
    "Ġoverpowered": 15287,
    "Ġpages": 15605,
    "Ġmonarch": 14415,
    "Ġultimately": 17164,
    "Ġdistur": 5312,
    "Ġinvincible": 23478,
    "absolute": 17122,
    "Ġpuffed": 14976,
    "gather": 20874,
    "ital": 4816,
    "Ġanchored": 17439,
    "Ġardour": 8042,
    "Ġentity": 10342,
    "lovely": 16044,
    "yrin": 12519,
    "Ġdissol": 18551,
    "flukes": 25205,
    "Ġvulgarity": 25363,
    "ney": 2495,
    "aimed": 3952,
    "Ġdescrying": 18619,
    "ye": 1404,
    "Ġslip": 8954,
    "confirmed": 19644,
    "Ġpistols": 17328,
    "superst": 11325,
    "olic": 14041,
    "Ġclanging": 18423,
    "Ġslightly": 7293,
    "Ġcassock": 20485,
    "Ġmethods": 3160,
    "Ġmoist": 9284,
    "Ġministers": 22830,
    "Ġdelightful": 6320,
    "Ġtea": 5041,
    "sympathy": 20541,
    "neying": 22446,
    "Ġlabels": 3287,
    "Ġstructural": 2799,
    "Ġhawaiian": 25366,
    "Ġlikelihood": 16500,
    "Ġhearing": 4760,
    "Ġredoubled": 23752,
    "Ġwhitened": 24867,
    "Ġ97": 19773,
    "Ġcrushed": 9422,
    "Ġrate": 1066,
    "Ġvincent": 15282,
    "Ġticklish": 25034,
    "Ġinconceivable": 17937,
    "Ġrobert": 10970,
    "rushed": 10584,
    "Ġfruitless": 25605,
    "male": 15387,
    "laughing": 15178,
    "Ġjoes": 19229,
    "feeling": 6616,
    "Ġcrane": 23438,
    "Ġmartin": 25436,
    "het": 5435,
    "Ġhisself": 21912,
    "Ġmanilla": 15957,
    "Ġweather": 3995,
    "Ġlowers": 23239,
    "isely": 4489,
    "aculate": 16062,
    "Ġsymmet": 11745,
    "Ġcocoan": 20315,
    "Ġeuroclydon": 15295,
    "Ġharness": 17927,
    "discovery": 12015,
    "Ġost": 9649,
    "Ę": 217,
    "Ġprovinc": 16742,
    "lengthwise": 19948,
    "Ġsubur": 12953,
    "forty": 9373,
    "Ġnights": 7258,
    "Ġgreat": 896,
    "Ġsettee": 22918,
    "Ġtribute": 15474,
    "Ġheedfulness": 24522,
    "answering": 26004,
    "Ġacknowled": 6350,
    "Ġchis": 11748,
    "Ġnum": 1351,
    "Ġlaunched": 14925,
    "Ġarch": 928,
    "Ġsympath": 4861,
    "Ġlocking": 18298,
    "hered": 5623,
    "ories": 4752,
    "Ġrid": 4355,
    "Ġprocopius": 19730,
    "rings": 10722,
    "Ġkeener": 22911,
    "Ġwhine": 21712,
    "Ġslammed": 20446,
    "Ġcontemptuous": 24676,
    "preading": 18497,
    "bert": 4662,
    "attachment": 13049,
    "nerable": 16275,
    "Ġener": 10896,
    "Ġantagonist": 26328,
    "Ġgreek": 10630,
    "ckinridge": 11717,
    "Ġdepicting": 22607,
    "kinson": 10025,
    "orrowed": 19288,
    "Ġdevils": 7230,
    "Ġchaplain": 19911,
    "sails": 7497,
    "¶": 119,
    "aren": 10073,
    "point": 6062,
    "Ġpratt": 23217,
    "Ġinferiority": 17115,
    "Ġparcel": 15198,
    "coburg": 13597,
    "Ġfish": 2713,
    "Ġinhabited": 12183,
    "follow": 5680,
    "Ġadequ": 10913,
    "84": 15300,
    "Ġfarthing": 14453,
    "Ġdevelop": 1639,
    "table": 5795,
    "warmth": 20051,
    "rose": 6013,
    "tut": 15433,
    "Ġintelligently": 4371,
    "ques": 2843,
    "Ġmonstrous": 7789,
    "Ġindex": 17049,
    "inted": 2652,
    "Ġsent": 1775,
    "Ġprovide": 7749,
    "Ġrefuse": 5739,
    "ounced": 4954,
    "stepfather": 19190,
    "Ġrespectively": 23245,
    "Ġhonour": 3923,
    "gerine": 22885,
    "observed": 7674,
    "Ġsequentially": 4914,
    "alse": 4182,
    "presence": 18496,
    "oves": 15403,
    "azore": 23461,
    "Ġstartled": 7082,
    "Ġaggregated": 25678,
    "Ġfullest": 14813,
    "Ġglistened": 20171,
    "Ġat": 395,
    "sequently": 14583,
    "ĠâĢľ_": 6696,
    "Ġwide": 4106,
    "remental": 21246,
    "Ġmodern": 3228,
    "==": 944,
    "Ġhobbling": 25644,
    "carte": 25400,
    "rapid": 12667,
    "Ġexhib": 6349,
    "Ġdiscre": 2417,
    "intense": 22933,
    "oriented": 2949,
    "Ġconstru": 19071,
    "source": 11525,
    "died": 10693,
    "Ġmoul": 15541,
    "omorrah": 18017,
    "Ġthickets": 24020,
    "Ġbrazen": 23837,
    "roused": 16652,
    "Ġobserver": 11987,
    "onden": 13843,
    "rief": 6202,
    "Ġon": 351,
    "Ġdinnertime": 16719,
    "Ġ131": 24782,
    "Ġestates": 16459,
    "Ġnominal": 15167,
    "Ġnoah": 10942,
    "Ġsweeping": 8985,
    "edmund": 17945,
    "Ġplates": 11006,
    "Ġsill": 10765,
    "Ġforbid": 7864,
    "Ġquartered": 20371,
    "Ġabsorb": 25112,
    "Ġrepro": 7275,
    "Ġpyth": 21459,
    "Ġadditional": 7934,
    "maybe": 23988,
    "Ġincivility": 18575,
    "sequ": 2401,
    "commodore": 20624,
    "used": 3259,
    "term": 3758,
    "Ġparr": 22116,
    "Ġsearch": 2589,
    "ella": 12745,
    "Ġincident": 6280,
    "draul": 9442,
    "Ġvort": 18193,
    "Ġrolls": 8333,
    "Ġadvice": 4901,
    "bingley": 4927,
    "andering": 21864,
    "Ġleaped": 8825,
    "Ġhare": 5157,
    "sl": 5794,
    "torn": 17682,
    "Ġsystems": 799,
    "Ġtremor": 24768,
    "Ġattitude": 8903,
    "Ġgrasped": 8033,
    "Ġadrift": 11721,
    "Ġjustine": 4970,
    "Ġseats": 14088,
    "51": 12429,
    "protected": 19920,
    "\"]": 17470,
    "Ġblanc": 11065,
    "forward": 2187,
    "shaven": 18494,
    "bering": 18680,
    "Ġrealising": 18982,
    "Ġclosing": 11770,
    "Ġbuoyed": 20039,
    "fering": 17542,
    "stains": 11636,
    "Ġsockets": 22079,
    "impenetrable": 26196,
    "Ġobjection": 6585,
    "Ġric": 18209,
    "Ġbumps": 21390,
    "Ġenigmatical": 20596,
    "hunting": 24385,
    "Ġreeled": 13985,
    "wr": 3032,
    "Ġarrangement": 2660,
    "Ġallude": 12768,
    "inkled": 5477,
    "wol": 21121,
    "Ġdiscrimination": 23604,
    "Ġtalents": 15044,
    "Ġcommerce": 11015,
    "pond": 21012,
    "Ġbarbed": 14834,
    "Ġexig": 21823,
    "great": 3517,
    "Ġdistressed": 8514,
    "Ġforms": 6397,
    "Ġbearing": 5298,
    "Ġguido": 2978,
    "tottenham": 25418,
    "Ġdepress": 14047,
    "ioneer": 15629,
    "Ġcarriage": 3950,
    "Ġimpelling": 22381,
    "Ě": 219,
    "carefully": 13367,
    "Ġgen": 5296,
    "Ġdoor": 1740,
    "lace": 13747,
    "indul": 22367,
    "dawson": 26128,
    "Ġresidual": 1678,
    "Ġincompetent": 25679,
    "Ġaverages": 2399,
    "Ġbuy": 8299,
    "Ġappl": 1718,
    "Ġstaying": 8283,
    "Ġenable": 686,
    "Ġbod": 4581,
    "Ġcomposed": 8893,
    "Ġdivineness": 25724,
    "bare": 12439,
    "cer": 6642,
    "Ġfoundering": 21417,
    "accounted": 16501,
    "Ġadvertised": 17247,
    "Ġstarts": 16582,
    "Ġinterest": 2246,
    "claim": 9834,
    "Ġimpenet": 14218,
    "utarch": 15659,
    "Ġminimize": 7050,
    "Ġfle": 3093,
    "Ġfertile": 20581,
    "Ġsubordinate": 18722,
    "Ġhoisting": 9861,
    "Ġempire": 11145,
    "Ġsmile": 4272,
    "Ġinequal": 21494,
    "recovered": 19786,
    "Ġrevolt": 24504,
    "Ġlong": 795,
    "million": 25751,
    "Ġpuff": 6526,
    "madness": 14881,
    "Ġghastly": 10059,
    "Ġbub": 8117,
    "Ġweariness": 19793,
    "Ġenhance": 2950,
    "Ġvoid": 14085,
    "Ġpeleg": 3738,
    "ios": 2231,
    "Ġinsight": 16530,
    "tastes": 21095,
    "Ġbecomes": 6396,
    "ighb": 10423,
    "terbury": 21821,
    "Ġrad": 4962,
    "Ġxxxix": 24968,
    "perpet": 14161,
    "oar": 12495,
    "Ġscene": 3099,
    "Ġsubstances": 24165,
    "revol": 12537,
    "precisely": 6917,
    "Ġknives": 14836,
    "Ġshowed": 4497,
    "ening": 3106,
    "Ġegyptians": 25289,
    "Ġcasualty": 20340,
    "Ġmich": 21305,
    "Ġvexatious": 19780,
    "Ġtyphoons": 20233,
    "insensibility": 23067,
    "Ġacted": 7422,
    "dishonourable": 26365,
    "Ġsuspected": 9062,
    "Ġsne": 6372,
    "Ġedge": 5188,
    "urn": 777,
    "bearers": 18520,
    "fallen": 19658,
    "Ġtout": 17719,
    "Ġimplies": 24872,
    "Ġsteward": 6584,
    "Ġpronounced": 8350,
    "Ġirre": 7468,
    "Ġseparately": 13301,
    "87": 20756,
    "Ġpreceded": 13427,
    "Ġdominic": 25381,
    "Ġstag": 6148,
    "pursu": 11392,
    "Ġbalm": 22897,
    "Ġclanking": 20610,
    "Ġgregarious": 18965,
    "inridge": 11560,
    "Ġgroups": 3717,
    "lion": 20943,
    "es": 288,
    "eg": 17529,
    "Ġgall": 4352,
    "isson": 23460,
    "python": 4691,
    "Ġcandid": 4097,
    "fair": 10092,
    "Ġbenef": 3487,
    "Ġsurrounds": 24231,
    "links": 20957,
    "sol": 1790,
    "atherine": 2594,
    "Ġcoincid": 20316,
    "Ġsow": 17749,
    "Ġfour": 2212,
    "Ġincomp": 12897,
    "Ġplight": 14280,
    "Ġmizzen": 20288,
    "Ġboomer": 20166,
    "Ġrounds": 18885,
    "awing": 18915,
    "lers": 10106,
    "Ġfeigned": 22207,
    "sum": 2088,
    "Ġindestructible": 26572,
    "Ġwrath": 16316,
    "list": 7551,
    "Ġintense": 6157,
    "Ġacknowledgment": 16957,
    "chron": 21691,
    "Ġneural": 621,
    "Ġgoodge": 22821,
    "uous": 4143,
    "Ġgot": 2277,
    "iple": 4805,
    "Ġnominally": 17231,
    "Ġcuba": 25095,
    "Ġeagerness": 6608,
    "Ġfacing": 10171,
    "irs": 14070,
    "Ġheaths": 25972,
    "machine": 990,
    "upon": 2724,
    "Ġcaves": 15551,
    "Ġofficio": 23813,
    "ivot": 11716,
    "Ġbrace": 11211,
    "lock": 1470,
    "Ġregarded": 5762,
    "Ġterror": 5124,
    "phants": 9319,
    "old": 798,
    "concent": 19478,
    "Ġfire": 2330,
    "Ġoutstanding": 22313,
    "Ġassemblage": 26351,
    "Ġgreeting": 18964,
    "Ġconstantly": 11971,
    "atmosphere": 21263,
    "Ġshade": 6550,
    "Ġincarnate": 20373,
    "Ġhammers": 13239,
    "Ġscience": 1537,
    "Ġrestrict": 16371,
    "servant": 15035,
    "Ġinstability": 3813,
    "Ġaffair": 4464,
    "Ġswandam": 11089,
    "Ġcondemn": 13443,
    "Ĩ": 233,
    "allies": 14165,
    "variety": 23183,
    "Ġfarmhouse": 24984,
    "bation": 9102,
    "Ġlassitude": 20585,
    "Ġdeftly": 26493,
    "Ġghosts": 12230,
    "merc": 19279,
    "tempered": 13445,
    "Ġsuperb": 16444,
    "Ġconfession": 11235,
    "Ġfir": 17877,
    "Ġharem": 9708,
    "Ġpenetration": 19916,
    "murdered": 12200,
    "hoping": 17566,
    "uendoes": 26407,
    "dient": 441,
    "Ġbackwater": 18641,
    "Ġhaught": 10252,
    "Ġsurprised": 3830,
    "Ġprogra": 1141,
    "Ġpursuing": 9437,
    "Ġforgot": 4683,
    "Ġwished": 3728,
    "adequ": 11020,
    "Ġkettle": 26232,
    "urbed": 15706,
    "colour": 9902,
    "Ġlam": 21546,
    "Ġcontemplation": 11357,
    "achment": 5464,
    "Ġby": 383,
    "izers": 18134,
    "Ġnovelist": 24777,
    "repairing": 24495,
    "Ġmagnifying": 16319,
    "Ġprivilege": 11419,
    "Ġstationary": 19693,
    "undoubtedly": 13310,
    "comprehens": 16170,
    "vice": 15448,
    "ober": 15405,
    "ulence": 15763,
    "ificent": 8183,
    "Ġrepul": 16407,
    "Ġunintermitted": 26219,
    "Ġbaleful": 24982,
    "dred": 2527,
    "scru": 16241,
    "Ġsemicircular": 26068,
    "Ġbol": 6241,
    "Ġlabors": 23325,
    "gloomy": 25144,
    "Ġ102": 24410,
    "Ġmau": 21309,
    "upid": 6581,
    "&": 10,
    "bank": 10079,
    "Ġaffidavit": 20723,
    "Ġgrain": 15829,
    "Ġ34": 16677,
    "ceived": 1966,
    "Ġfaire": 13363,
    "cab": 7333,
    "inces": 13827,
    "Ġumb": 11645,
    "Ġconfided": 19039,
    "Ġhalting": 16273,
    "Ġoverhung": 15973,
    "estone": 18363,
    "Ġcleaving": 23179,
    "kindred": 24046,
    "ilar": 10215,
    "ilies": 18056,
    "igate": 8822,
    "Ã¦mon": 7094,
    "ions": 449,
    "Ġexerted": 15752,
    "Ġdeliberate": 15022,
    "Ġcunning": 6238,
    "Ġupheld": 22149,
    "Ġcorpulence": 24509,
    "wind": 4253,
    "Ġmule": 13861,
    "Ġundiscovered": 18252,
    "hyena": 24252,
    "Ġmarked": 4619,
    "Ġhitherto": 5879,
    "folio": 10546,
    "cop": 20800,
    "Ġgust": 21594,
    "Ġprompt": 3188,
    "Ġcolleague": 17159,
    "Ġnature": 2539,
    "Ġthirteen": 15273,
    "concerned": 24638,
    "loun": 17588,
    "Ġperemptorily": 17366,
    "Ġindign": 6173,
    "Ġmanhat": 22324,
    "Ġgorge": 13565,
    "Ġrambled": 20167,
    "Ġspectacle": 10496,
    "australian": 20560,
    "conclusion": 25671,
    "Ġoak": 6128,
    "odes": 18116,
    "Ġ38": 24076,
    "Ġvicinity": 7315,
    "myself": 5113,
    "playful": 24357,
    "extra": 8218,
    "@": 36,
    "prof": 7698,
    "Ġslice": 23157,
    "favourite": 15142,
    "Ġplaned": 24052,
    "Ġrevolutions": 23839,
    "Ġmask": 1865,
    "put": 414,
    "Ġdomains": 6612,
    "Ġdiana": 21434,
    "Ġard": 5164,
    "gia": 20875,
    "Ġterrors": 6918,
    "brimmed": 14588,
    "Ġsupplication": 25491,
    "Ġvari": 833,
    "Ġ183": 13236,
    "Ġsearching": 13161,
    "Ġtorm": 5434,
    "Ġtur": 2565,
    "Ġmachine": 786,
    "Ġlying": 4824,
    "suffered": 24334,
    "Ġecc": 11627,
    "heading": 5487,
    "Ġner": 1645,
    "Ġargue": 16783,
    "Ġmasks": 23324,
    "uvian": 12240,
    "berwell": 22715,
    "Ġlurid": 19680,
    "Ġair": 1837,
    "Ġintelligent": 1419,
    "multiple": 15106,
    "renadier": 18419,
    "header": 11931,
    "Ġturner": 7049,
    "î": 175,
    "unity": 4150,
    "Ġthink": 987,
    "might": 4077,
    "aisance": 15073,
    "fulfil": 16039,
    "Ġdil": 6383,
    "tumultuous": 20397,
    "Ġunaware": 22054,
    "x": 92,
    "gown": 9596,
    "Ġdirected": 5579,
    "beheaded": 22489,
    "Ġtreas": 7358,
    "Ġalternative": 19985,
    "Ġassociates": 24712,
    "Ġjewel": 9941,
    "princip": 17136,
    "harpooneer": 8688,
[...]
