{
  "metadata": {
    "vocab_size": 26613,
    "algorithm": "BPE",
    "created_at": "2026-08-22 02:51:47",
    "special_tokens": [
      "<PAD>",
      "<SOS>",
      "<EOS>",
      "<UNK>",
      "<MASK>"
    ]
  },
  "vocab": {
    "ividually": 22078,
    "ulent": 21860,
    "Ġhire": 21483,
    "Ġinasmuch": 10824,
    "treated": 21093,
    "Ġpermission": 9277,
    "Ġchag": 15928,
    "cost": 19186,
    "Ġshrouds": 11343,
    "hued": 20910,
    "Ġfemales": 14935,
    "sweep": 24618,
    "Ġentity": 10340,
    "alarms": 21503,
    "Ġthews": 21276,
    "Ġcoffins": 13248,
    "charm": 13988,
    "enth": 6680,
    "cupboards": 25401,
    "razor": 21635,
    "Ġhoky": 17926,
    "Ġthreatens": 24374,
    "riors": 18187,
    "Ġoakum": 16933,
    "Ġbeacon": 21754,
    "yards": 9622,
    "Î": 143,
    "bol": 8717,
    "erring": 11055,
    "Ġbatt": 13897,
    "Ġunreasonably": 17449,
    "Ġhates": 21484,
    "Ġvengeful": 14888,
    "Ġjew": 9466,
    "Ġchiselled": 25559,
    "white": 4602,
    "rador": 19158,
    "_": 67,
    "gentleness": 24844,
    "Ġ120": 16857,
    "Ġfreshe": 13067,
    "Ġtease": 18805,
    "Ġtop": 2469,
    "Ġprojected": 16868,
    ":--": 5784,
    "Ġhotel": 8650,
    "preser": 9758,
    "Ġsinned": 18950,
    "loo": 10318,
    "Ġaccepted": 7751,
    "Ġprovide": 7750,
    "Ġboundary": 11221,
    "Ġmistaking": 23717,
    "icant": 21560,
    "oran": 8787,
    "liament": 16215,
    "elling": 5830,
    "Ġsitt": 21216,
    "Ġparted": 5929,
    "theless": 4263,
    "Ġbutts": 15852,
    "Ġbraced": 16578,
    "Ġchinese": 14182,
    "admirably": 24944,
    "Ġheeded": 13401,
    "Ġhouses": 6138,
    "iag": 20915,
    "Ġresigned": 9766,
    "Ġ1836": 25721,
    "Ġexplanations": 15908,
    "manned": 18761,
    "Ġwrinkled": 7264,
    "Ġstretched": 5920,
    "empt": 2620,
    "Ġingolstadt": 8333,
    "lessly": 4556,
    "Ġener": 10895,
    "ache": 8518,
    "Ġofficer": 6753,
    "Ġindist": 14407,
    "Ġdemonstrate": 24996,
    "visual": 24221,
    "cription": 20817,
    "Ġmastiff": 23723,
    "imble": 10857,
    "ves": 697,
    "Ġwoke": 21288,
    "Ġsewing": 21959,
    "Ġbreathes": 13243,
    "Ġfuss": 13903,
    "Ġmal": 5221,
    "Ġfren": 10804,
    "Ġaback": 22264,
    "structure": 2208,
    "Ġrefer": 18704,
    "Ġvillain": 8635,
    "Ġmazes": 25940,
    "Ġdeb": 4763,
    "justine": 7684,
    "ufactured": 15179,
    "ogr": 18673,
    "plings": 11692,
    "ough": 470,
    "Ġexcitement": 9379,
    "Ġowe": 8115,
    "ashion": 3859,
    "Ġessentials": 20001,
    "inarticulate": 21194,
    "Ġmonsie": 11446,
    "------": 12130,
    "stalls": 26472,
    ".)": 6783,
    "âĢĻ-": 18166,
    "rem": 1518,
    "servant": 15034,
    "prise": 7727,
    "Ġ97": 19773,
    "Ġexplained": 5936,
    "jolly": 20930,
    "Ġhapless": 15809,
    "Ġenric": 21932,
    "education": 20300,
    "Ġsobbed": 14133,
    "atherine": 2596,
    "Ġunseen": 3524,
    "traces": 24314,
    "assembled": 21543,
    "Ġsupplement": 23000,
    "ric": 1376,
    "Ġscales": 4849,
    "Ġcabinet": 23859,
    "Ġfingers": 5672,
    "Ġfordham": 21774,
    "Ġnames": 4533,
    "Ġrashly": 20304,
    "Ġann": 4490,
    "bl": 4144,
    "Ġsubjects": 7072,
    "Ġtwitching": 25683,
    "Ġdreamed": 16628,
    "pall": 17627,
    "Ġfire": 2331,
    "Ġtipped": 17727,
    "Ġproprietors": 20185,
    "Ġtrial": 6634,
    "Ġform": 1024,
    "hyena": 24251,
    "ill": 447,
    "),": 1344,
    "Ġmerits": 13194,
    "izon": 18133,
    "Ġsuppressing": 22999,
    "Ġenclosure": 20622,
    "Ġsource": 6805,
    "iterranean": 15546,
    "Ġcottagers": 6761,
    "Ġglim": 9341,
    "Ġsubstantial": 14808,
    "pause": 12497,
    "Ġperformance": 1307,
    "Ġrapid": 1438,
    "mblings": 19779,
    "ì": 173,
    "tastes": 21095,
    "Ļ": 252,
    "somebody": 14564,
    "Ġseating": 18201,
    "Ġdispelling": 23878,
    "Ġdictating": 20151,
    "proposal": 18754,
    "Ġcontingency": 26244,
    "Ġrevol": 5536,
    "mber": 7804,
    "emberley": 4173,
    "Ġplayfulness": 23636,
    "ĠĠĠĠĠĠĠĠĠĠĠĠĠĠĠĠĠĠĠĠĠĠĠĠĠĠĠĠĠĠĠĠĠĠĠĠĠĠĠĠĠĠĠĠĠĠĠ": 16754,
    "influ": 9539,
    "ulate": 5233,
    "Ġdecanting": 22441,
    "Ġepistle": 24904,
    "Ġrules": 1921,
    "Ġinglorious": 24423,
    "Ġbash": 12582,
    "ar": 285,
    "chest": 11207,
    "Ġtruth": 3321,
    "Ġmoon": 4608,
    "Ġbites": 23741,
    "Ġillust": 8263,
    "practical": 17220,
    "Ġwooing": 19432,
    "Ġconclusion": 5986,
    "Ġbaboon": 19692,
    "imental": 16531,
    "Ġattacked": 10566,
    "ü": 189,
    "Ġwitnesses": 9484,
    "breakfast": 8687,
    "fow": 20852,
    "Ġglistened": 20171,
    "Ġbolt": 11333,
    "pillar": 5618,
    "Ġearly": 2079,
    "hed": 675,
    "âĢľâĢĻ": 10220,
    "Ġcordon": 24393,
    "Ġabsolut": 3911,
    "Ġplenty": 6708,
    "Ġbreaking": 6310,
    "likelihood": 4992,
    "Ġbead": 21748,
    "Ġconquest": 15744,
    "Ġarticulated": 24432,
    "Ġvestibule": 13535,
    "Ġkeener": 22911,
    "Ġshades": 9461,
    "resides": 23670,
    "ial": 411,
    "Ġ109": 24415,
    "unct": 18154,
    "Ġintrospect": 15825,
    "contrad": 19291,
    "Ġdestructive": 23487,
    "erect": 20847,
    "Ġcrooked": 11280,
    "further": 7536,
    "befall": 22494,
    "Ġcontinually": 5042,
    "Ġglances": 10371,
    "iluvian": 18060,
    "Ġplaces": 5390,
    "Ġenvironments": 24046,
    "Ġapprehensiveness": 16876,
    "philips": 20033,
    "Ġperformed": 8546,
    "Ġthyself": 6602,
    "Ġdeeps": 16113,
    "Ġforwards": 12699,
    "Ġpensive": 21473,
    "Ġpikes": 21476,
    "Ġstudded": 18968,
    "allen": 22194,
    "Ġwithstand": 10224,
    "peculiarities": 13469,
    "Ġquestioning": 10463,
    "collecting": 26081,
    "Ġcaresses": 26059,
    "mbl": 5946,
    "Ġspared": 7894,
    "ly": 319,
    "aspect": 10192,
    "Ġ89": 19711,
    "earthly": 24724,
    "relu": 17758,
    "Ġfigures": 8629,
    "grass": 23411,
    "Ġvideo": 25365,
    "batim": 25016,
    "Ġturtle": 4205,
    "Ġeducated": 16784,
    "Ġconfirm": 9854,
    "Ġdromedary": 17437,
    "Ġadmired": 7982,
    "Ġen": 392,
    "Ġhoist": 11973,
    "ilogue": 21722,
    "Ġlascar": 9198,
    "pond": 21012,
    "la": 10704,
    "Ġspo": 6846,
    "Ġgenerations": 10963,
    "belong": 12119,
    "Ġclear": 1950,
    "tomb": 21092,
    "Ġven": 4647,
    "twelvemonth": 25862,
    "Ġknelt": 12155,
    "Ġlysander": 13137,
    "Ġwriters": 13541,
    "killer": 20474,
    "Ġfiss": 21411,
    "Ġspurned": 12793,
    "Ġsoft": 1457,
    "Ġkeeled": 18803,
    "Ġauthentic": 20534,
    "itz": 6006,
    "Ġcastaway": 16639,
    "Ġlaugh": 4116,
    "Ġmisconduct": 22761,
    "Ġlock": 5928,
    "Ġsite": 17752,
    "daughters": 13464,
    "transition": 24509,
    "nets": 9131,
    "Ġfeasts": 25369,
    "Ġswamp": 14434,
    "wonder": 6371,
    "quer": 11677,
    "gravel": 22618,
    "man": 1053,
    "Ġassaulted": 25320,
    "Ġungenerous": 18266,
    "Ġtradesmen": 17104,
    "coach": 23559,
    "Ġpot": 2992,
    "Ġbaby": 6636,
    "Ġlizard": 12650,
    "pardonable": 17216,
    "Ġcalhoun": 23041,
    "Ġuniformly": 19147,
    "Ġwaters": 3595,
    "Ġdodging": 19886,
    "Ġscraping": 13414,
    "zors": 21146,
    "Ġunerring": 15844,
    "Ġwhereon": 16098,
    "Ġfifteen": 6947,
    "Ġattacking": 24464,
    "Ġparametric": 2396,
    "namely": 23703,
    "Ġbaggy": 24537,
    "Ġsallies": 21228,
    "Ġheartfelt": 18967,
    "Ġparade": 18301,
    "Ġar": 479,
    "Ġprefers": 20512,
    "rect": 1597,
    "tide": 11531,
    "aunt": 8370,
    "Ġpedro": 14993,
    "accepting": 20134,
    "Ġsufficiently": 8972,
    "Ġbenediction": 18783,
    "Ġlanding": 11981,
    "Ġimbib": 22173,
    "earliest": 20118,
    "Ġdem": 11672,
    "imen": 12682,
    "Ġdiet": 13908,
    "Ġsullenly": 17171,
    "Ġfashioned": 13318,
    "cstasy": 11444,
    "Ġimpenit": 22386,
    "oors": 17619,
    "Ġplump": 14280,
    "Ġwinged": 16994,
    "Ġassistance": 6333,
    "Ġplay": 2628,
    "Ġwarmed": 12020,
    "Ġhunt": 6183,
    "Ġconfirms": 23307,
    "Ġwaist": 6892,
    "using": 5468,
    "Ġknot": 7011,
    "Ġsubdivisions": 26037,
    "Ġenglish": 3613,
    "mes": 1198,
    "Ġcombing": 22848,
    "Ġseethe": 21961,
    "Ġyellowish": 24429,
    "Ġcheering": 11132,
    "Ġcan": 472,
    "american": 11399,
    "imitably": 21709,
    "Ġap": 5008,
    "Ġgabriel": 7596,
    "Ġbre": 1916,
    "Ġsands": 14946,
    "isson": 23460,
    "Ġpartly": 6713,
    "Ġgaining": 9490,
    "relics": 24013,
    "Ġglass": 4370,
    "lested": 14881,
    "Ġgot": 2280,
    "Ġstability": 1363,
    "resemblance": 25933,
    "Ġlimped": 19181,
    "Ġprocessions": 18422,
    "Ġprotection": 9460,
    "Ġrind": 21967,
    "belongs": 25596,
    "Ġallured": 14111,
    "peace": 13045,
    "reduc": 5459,
    "breast": 11244,
    "Ġprettier": 23764,
    "bildad": 9585,
    "Ġhamper": 19387,
    "Ġcontemplated": 13462,
    "Ġpeered": 18668,
    "Ġblinding": 14727,
    "Ġfished": 21409,
    "Ġpleasures": 11141,
    "Ġrandomly": 1923,
    "Ġmexic": 14028,
    "step": 2455,
    "Ġdivide": 12107,
    "omet": 3076,
    "Ġcomes": 3424,
    "Ġsovereign": 10060,
    "Ġfrayed": 23290,
    "Ġdisplays": 19856,
    "Ġsembl": 19059,
    "attentions": 13572,
    "Ġnash": 5819,
    "Ġadmirer": 16837,
    "Ġglistening": 12362,
    "Ġapples": 22214,
    "Ġcoleridge": 18766,
    "Ġunequal": 14840,
    "slanting": 24557,
    "Ġbehold": 5049,
    "species": 13254,
    "Ġmalay": 24390,
    "grinder": 23413,
    "Ġcampa": 17172,
    "serve": 13043,
    "crew": 7545,
    "Ġthine": 7374,
    "ipped": 5790,
    "tiger": 13795,
    "Ġpal": 4043,
    "Ġconcise": 23320,
    "quiet": 6154,
    "Ġbehalf": 14505,
    "Ġjoist": 19230,
    "ilight": 12689,
    "aw": 1447,
    "Ġbeque": 18080,
    "turns": 14904,
    "Ġsanctified": 25883,
    "Ġwhipping": 21714,
    "Ġflashed": 11910,
    "irst": 879,
    "Ġmelted": 19620,
    "warks": 5004,
    "Ġmagnitude": 1945,
    "Ġdesist": 16233,
    "Ġsympathies": 14859,
    "frost": 15104,
    "Ġsoftly": 7948,
    "hullo": 17569,
    "mathematics": 26304,
    "Ġcommunicates": 24546,
    "Ġv": 399,
    "malice": 17603,
    "tornadoes": 26153,
    "Ġupdates": 1299,
    "abil": 2010,
    "Ġprejudices": 13467,
    "Ġcircum": 8258,
    "Ġreliability": 22877,
    "Ġmeanly": 12905,
    "lorious": 17591,
    "Ġsensit": 2946,
    "Ġcolleague": 17158,
    "Ġmaterial": 5178,
    "cod": 12440,
    "Ġgrievous": 13258,
    "igned": 5656,
    "valu": 1716,
    "Ġbaltic": 18793,
    "Ġhumming": 12982,
    "Ġupstairs": 5836,
    "rule": 15893,
    "Ġfurthermore": 1171,
    "Ġfootmen": 23796,
    "Ġnurse": 9515,
    "Ġsmitten": 12895,
    "Ġconvinced": 4207,
    "Ġstaggered": 9537,
    "proceeded": 25190,
    "dreaded": 25138,
    "Ġsain": 17749,
    "Ġscrut": 15942,
    "Ġmarty": 20289,
    "Ġlisten": 4673,
    "bern": 20774,
    "Ġbear": 3657,
    "rote": 4592,
    "ius": 5789,
    "Ġspeech": 4610,
    "Ġnorthwards": 19545,
    "tes": 11527,
    "Ġcaut": 6521,
    "rivial": 9432,
    "Ġinitial": 825,
    "Ġfiercely": 12948,
    "Ġexcite": 11963,
    "Ġretrie": 10381,
    "dissatisfied": 26611,
    "true": 2587,
    "Ġenlar": 15797,
    "devil": 7896,
    "Ġpursuits": 12073,
    "moved": 9782,
    "Ġabhor": 5467,
    "prof": 7471,
    "Ġwrap": 24595,
    "Ġrestrict": 16371,
    "Ġbab": 5289,
    "ason": 1252,
    "oftener": 23962,
    "ics": 3257,
    "Ġretrogression": 26580,
    "brow": 15313,
    "Ġassoc": 6402,
    "Ġoutbreak": 22315,
    "stranded": 19224,
    "feed": 9291,
    "bourgh": 19103,
    "Ġswear": 6461,
    "Ġgemin": 21608,
    "cheon": 23802,
    "ondency": 15267,
    "feather": 16040,
    "Ġconstables": 19070,
    "Ġcaps": 8415,
    "Ġstri": 2804,
    "deceptive": 22148,
    "Ġtopsails": 19193,
    "Ġsheath": 14150,
    "pemberley": 9619,
    "Ġcows": 15549,
    "Ġfoster": 18990,
    "atmospheric": 17775,
    "agger": 7873,
    "rust": 2581,
    "engine": 18926,
    "Ġreplay": 5047,
    "Ġlandlady": 10421,
    "Ġhelplessly": 20076,
    "Ġbir": 17853,
    "ertion": 12037,
    "Ġappeared": 2774,
    "eastward": 15127,
    "Ġembodied": 25847,
    "Ġnet": 3625,
    "Ġknown": 1638,
    "oward": 6021,
    "Ġdetail": 634,
    "iously": 2677,
    "archangel": 18791,
    "Ġsmiling": 5474,
    "Ġanswering": 7478,
    "stupid": 12671,
    "Ġrout": 7402,
    "Ġfuller": 11155,
    "Ġple": 1467,
    "Ġgaiters": 20459,
    "Ġascendency": 20231,
    "Ġmichael": 20678,
    "Ġevil": 3805,
    "Ġcoincidences": 26363,
    "entirely": 7782,
    "Ġoun": 13861,
    "Ġnotion": 7883,
    "))": 1512,
    "Ġfrequently": 4679,
    "Ġkind": 1786,
    "Ġphyset": 23198,
    "hounds": 20906,
    "itates": 13867,
    "Ġknighthood": 25297,
    "heard": 5009,
    "Ġtallow": 14776,
    "heum": 17746,
    "Ġcurses": 13013,
    "university": 25983,
    "Ġcont": 619,
    "Ġlookest": 22713,
    "carpenter": 11426,
    "south": 8758,
    "Ġstoutest": 24629,
    "consist": 14814,
    "Ġfavoring": 2342,
    "umbling": 6758,
    "Ġbravely": 23836,
    "Ġindepend": 3667,
    "Ġcoin": 9769,
    "goodness": 19288,
    "Ġmurdering": 14809,
    "Ġimmaculate": 19484,
    "Ġfashions": 17885,
    "absolute": 17121,
    "forest": 22516,
    "Ġshapeless": 24523,
    "Ġerud": 20053,
    "Ġdes": 1250,
    "Ġleech": 24154,
    "Ġsibbald": 21229,
    "Ġsuperstitions": 17071,
    ",âĢĻâĢĶ": 23526,
    "Ġdisappointed": 7097,
    "Ġsimpler": 2049,
    "Ġinequalities": 26452,
    "home": 7341,
    "Ġbreach": 11970,
    "illes": 12690,
    "Ġboneless": 19604,
    "Ġcin": 13873,
    "Ġcolonies": 14373,
    "Ġsane": 21220,
    "Ġfishes": 11589,
    "continue": 16860,
    "Ġsult": 10766,
    "Ġladies": 3191,
    "Ġclients": 19730,
    "quohog": 21856,
    "Ġmasonry": 13597,
    "Ġdetermine": 3245,
    "thank": 4950,
    "concerning": 9063,
    "Ġspeeding": 23563,
    "Ġstandards": 19016,
    "e": 73,
    "Ġlatter": 3993,
    "Ġtru": 4109,
    "ĠĊ": 12519,
    "women": 15454,
    "declaration": 25175,
    "surprised": 9529,
    "Ġfinanc": 23125,
    "Ġrefine": 3214,
    "Ġindignation": 8347,
    "Ġmuch": 924,
    "Ġaccused": 8507,
    "good": 2900,
    "eprints": 12788,
    "emone": 21923,
    "Ġblossom": 26312,
    "iliary": 21724,
    "Ġwhose": 2011,
    "ato": 17768,
    "Ġbrowne": 13299,
    "tanh": 5204,
    "isen": 10791,
    "ozy": 17621,
    "breat": 10076,
    "urities": 18048,
    "Ġlasted": 11052,
    "airs": 2221,
    "cannot": 5745,
    "Ġbeneficial": 23929,
    "Ġglittering": 10051,
    "icated": 7591,
    "Ġtougher": 21175,
    "great": 3517,
    "ms": 541,
    "Ġmorals": 22968,
    "produce": 20281,
    "sam": 21050,
    "Ġcondu": 18109,
    "Ġtexas": 25922,
    "Ġequilibrium": 4143,
    "irection": 2389,
    "Ġunder": 1631,
    "Ġbanqu": 12584,
    "oforte": 14284,
    "uing": 17692,
    "Ġcour": 1768,
    "Ġpropontis": 17464,
    "fortun": 3539,
    "vanity": 24976,
    "member": 20974,
    "Ġfolly": 7941,
    "parameter": 3013,
    "pest": 6964,
    "uth": 3022,
    "utional": 17983,
    "Ġmission": 13002,
    "Ġswallowed": 7944,
    "ĠĠĠĠĠĠĠĠĠĠĠĠ": 12896,
    "position": 15411,
    "Ġtube": 15002,
    "Ġsuddenly": 2648,
    "Ġrampart": 20317,
    "wrath": 23755,
    "Ġpuppy": 12402,
    "Ġthink": 985,
    "Ġafore": 10757,
    "Ġcomical": 11676,
    "ee": 1655,
    "Ġbeards": 21749,
    "nourished": 26397,
    "Ġshort": 2226,
    "Ġmakest": 25435,
    "Ġfort": 2579,
    "Ġfulfil": 9549,
    "oqu": 7556,
    "agree": 14065,
    "Ġaddressed": 5262,
    "Ġpeaceful": 9454,
    "Ġcourtship": 24135,
    "Ġten": 2387,
    "Ġeveryday": 22772,
    "dy": 3863,
    "oring": 1861,
    "Ġ45": 14769,
    "really": 6971,
    "Ġdepicted": 14282,
    "parts": 14600,
    "Ġ42": 16677,
    "script": 11076,
    "Ġtamely": 24979,
    "Ġbeale": 12695,
    "due": 22408,
    "luc": 9750,
    "arson": 22746,
    "umps": 6317,
    "tout": 21064,
    "inated": 6804,
    "Ġhim": 476,
    "Ġchasing": 11751,
    "abeth": 905,
    "Ġ1890": 23893,
    "Ġvows": 15805,
    "liberal": 26281,
    "notice": 16144,
    "view": 5896,
    "Ġpraised": 19552,
    "Ġarbitrary": 4735,
    "same": 5361,
    "particulars": 11314,
    "satisfactory": 16892,
    "barrel": 17060,
    "Ġclum": 8871,
    "Ġgra": 416,
    "iners": 4937,
    "gar": 5614,
    "Ġbuckle": 17032,
    "programming": 10061,
    "õ": 182,
    "Ġlifts": 25358,
    "vation": 4743,
    "Ġdigress": 24648,
    "Ġ3": 3988,
    "Ġresponded": 13636,
    "Ġbranded": 14377,
    "Ġtistig": 26412,
    "Ġenvironmental": 24060,
    "stout": 21637,
    "Ġrifle": 18212,
    "christmas": 20254,
    "scotland": 20527,
    "mentioning": 24885,
    "ella": 12744,
    "Ġdearest": 5457,
    "inf": 6232,
    "loaded": 22510,
    "quakes": 21854,
    "supers": 22632,
    "Ġconstitutes": 13550,
    "umul": 1289,
    "Ġmus": 3397,
    "Ġiter": 2952,
    "Ġminute": 4281,
    "Ġindisposed": 26287,
    "Ġwrath": 16314,
    "volutional": 1937,
    "ucket": 2481,
    "Ġsensitivity": 3070,
    "Ġgreek": 10630,
    "unforeseen": 21886,
    "Ġpitches": 23899,
    "Ġhurry": 4913,
    "Ġcontinues": 18808,
    "Ġcleat": 18946,
    "ided": 2783,
    "_,âĢĻ": 12430,
    "onstrate": 17767,
    "urmount": 13993,
    "rations": 10722,
    "Ġjudgment": 5765,
    "tempered": 13444,
    "fier": 9592,
    "enari": 21280,
    "Ġnooks": 26011,
    "urons": 3131,
    "Ġshuddered": 11299,
    "Ġscroll": 14190,
    "Ġfut": 15571,
    "Ġnegative": 1462,
    "Ġillum": 9398,
    "ples": 6845,
    "encouragement": 17421,
    "x": 92,
    "İ": 241,
    "Ġepicurean": 20554,
    "Ġpore": 21456,
    "Ġaffording": 14819,
    "employ": 10894,
    "stud": 8818,
    "ilege": 22254,
    "Ġdived": 9176,
    "Ġcocked": 12900,
    "Ġfine": 1317,
    "Ġextinct": 14335,
    "Ġnautical": 17384,
    "Ġwigwam": 11427,
    "Ġbuffalo": 11428,
    "out": 467,
    "impud": 23759,
    "Ġsquared": 1381,
    "Ġdetection": 3216,
    "Ġdishon": 12227,
    "Ġessentially": 24924,
    "calculation": 25688,
    "inople": 13827,
    "hearing": 8403,
    "Ġsnar": 13198,
    "Ġsquatted": 25841,
    "Ġstud": 1596,
    "Ġhorribly": 16339,
    "Ġaction": 5796,
    "Ġwood": 2292,
    "Ġlik": 2520,
    "appalled": 18760,
    "erpillar": 5797,
    "constant": 11323,
    "Ġconnectivity": 3666,
    "latter": 15380,
    "often": 6165,
    "ª": 108,
    "nings": 9130,
    "correspond": 13396,
    "tranqu": 14704,
    "destined": 24114,
    "ge": 561,
    "Ġjustification": 22964,
    "Ġrelied": 16192,
    "Ġrestrain": 8963,
    "unhappy": 10236,
    "consult": 24168,
    "Ġteneriffe": 26413,
    "Ġsavannah": 17414,
    "Ġpaw": 12616,
    "Ġblurred": 22929,
    "pequod": 7052,
    "client": 18931,
    "Ġbristles": 25843,
    "greeting": 24553,
    "articulate": 17396,
    "binary": 20783,
    "Ġsuspect": 5758,
    "plete": 10918,
    "Ġability": 2763,
    "Ġnorthern": 7265,
    "Ġgrave": 5100,
    "itt": 571,
    "ail": 567,
    "witted": 17706,
    "Ġroving": 22401,
    "Ġconfed": 13095,
    "Ġmessages": 24983,
    "Ġprocessing": 882,
    "akened": 7415,
    "²": 115,
    "Ġfishing": 9661,
    "Ġventing": 19492,
    "Ġteach": 8553,
    "Ġpane": 21461,
    "Ġbell": 4635,
    "Ġparch": 11723,
    "Ġfull": 2175,
    "threshold": 21985,
    "compan": 7301,
    "dried": 20826,
    "rings": 10721,
    "Ġcontemptuous": 24676,
    "lovel": 22509,
    "Ġstam": 18065,
    "ĠĠĠĠĠĠĠ": 7632,
    "Ġgoble": 14228,
    "etite": 21577,
    "Ġbloodless": 19338,
    "Ġshoved": 23490,
    "presbyterian": 26368,
    "Ġunderstand": 838,
    "aken": 1869,
    "Ġgospel": 18000,
    "continuance": 19717,
    "ersburgh": 18215,
    "Ġfrown": 10806,
    "Ġcock": 10998,
    "Ġacquies": 11096,
    "our": 535,
    "Ġescaping": 13132,
    "Ġrecommendation": 17024,
    "sentiment": 12910,
    "ĠĠĠĠĠĠĠĠĠĠĠĠĠĠ": 22561,
    "Ġcruc": 16533,
    "Ġcraggy": 23528,
    "Ġcondem": 6338,
    "ide": 722,
    "Ġwad": 13849,
    "arrow": 4181,
    "Ġstuff": 5717,
    "Ġparamore": 22120,
    "Ġjenny": 20161,
    "taller": 26150,
    "Ġcrosses": 23061,
    "Ġbenches": 18780,
    "Ġtracing": 18889,
    "Ġmirror": 12375,
    "backpropagation": 11982,
    "Ġnibbling": 17383,
    "ator": 1925,
    "aster": 1867,
    "fleece": 19946,
    "fluke": 25204,
    "Ġeccentric": 13647,
    "woman": 5899,
    "presence": 18498,
    "Ġwhatsoever": 18460,
    "Ġobsequious": 17402,
    "crime": 14781,
    "oes": 4435,
    "scattered": 22993,
    "direction": 17523,
    "Ġascent": 19617,
    "Ġproud": 5654,
    "Ġduchess": 4799,
    "Ġsteam": 9351,
    "ushing": 5731,
    "Ġcommands": 16588,
    "Ġdisposal": 19374,
    "Ġlater": 6017,
    "Ġindicated": 10468,
    "ingu": 2119,
    "Ġbath": 9657,
    "Ġexpose": 10326,
    "Ġdisposing": 19373,
    "Ġdoes": 943,
    "Ġvoid": 14084,
    "balanced": 14554,
    "reply": 19721,
    "Ġarri": 2554,
    "Ġneeds": 6605,
    "Ġenormity": 19694,
    "dismal": 23497,
    "travelling": 24316,
    "Ġtravellers": 11307,
    "Ġpainting": 13139,
    "ney": 2491,
    "solic": 16374,
    "Ġfallen": 5968,
    "separated": 20158,
    "Ġmum": 13856,
    "Ġaims": 15494,
    "evident": 25520,
    "Ġconjure": 17122,
    "Ġpast": 2099,
    "Ġkrempe": 10668,
    "Ġnoted": 15827,
    "clearly": 25195,
    "uge": 4018,
    "isa": 17845,
    "caught": 8726,
    "Ġgloss": 11956,
    "doors": 19094,
    "hoping": 17565,
    "Ġconsciousness": 9946,
    "placidity": 25988,
    "Ġxl": 11986,
    "objections": 19915,
    "message": 17370,
    "Ġcontro": 1686,
    "Ġdrenched": 12599,
    "Ġpaces": 13917,
    "Ġpigeon": 9514,
    "eat": 11481,
    "Ġmiguel": 25766,
    "Ġscimet": 22286,
    "Ġdeaden": 23459,
    "Ġshalt": 18230,
    "Ġmaids": 19690,
    "Ġglad": 3327,
    "Ġmix": 7577,
    "icacy": 15654,
    "Ġassured": 4373,
    "Ġanimation": 11151,
    "pervised": 1541,
    "Ġdomains": 6611,
    "rib": 1947,
    "Ġsay": 935,
    "Ġless": 1940,
    "pencil": 18828,
    "Ġturban": 23612,
    "Ġglacier": 11432,
    "Ġsuccessive": 10499,
    "Ġbroadway": 23982,
    "Ġlamb": 8811,
    "remains": 10397,
    "train": 2036,
    "despairing": 25074,
    "Ġnathan": 21524,
    "maintained": 25020,
    "Ġheathen": 10564,
    "dron": 17524,
    "Ġcorpusants": 13675,
    "hy": 4739,
    "Ġindicates": 3192,
    "Ġ128": 24472,
    "concealed": 25115,
    "Ġanoint": 25537,
    "Ġbegged": 8231,
    "Ú": 155,
    "iocr": 20922,
    "Ġdistinctions": 18535,
    "Ġpea": 14315,
    "Ġnavies": 16899,
    "Ġdiscoursing": 26266,
    "Ġrushed": 4091,
    "Ġunearthly": 9035,
    "Ġimpropri": 14214,
    "Ġlichen": 20090,
    "inces": 13826,
    "century": 20045,
    "prehens": 9287,
    "Ġgamy": 17998,
    "Ġuninhabited": 22049,
    "Ġfraud": 19021,
    "male": 15386,
    "iant": 5427,
    "fol": 4862,
    "Ġappals": 22216,
    "attering": 7418,
    "offer": 19060,
    "Ġ60": 14873,
    "Ġlordly": 23742,
    "Ġclearly": 6897,
    "Ġalcoves": 26485,
    "umed": 6554,
    "protested": 13472,
    "Ġhugh": 15003,
    "walk": 5523,
    "Ġfingertips": 24015,
    "Ġconsist": 1936,
    "Ġawfulness": 23586,
    "Ġroughly": 17039,
    "Ġlonely": 6823,
    "ascending": 24707,
    "Ġsa": 473,
    "food": 12460,
    "Ġchoice": 2163,
    "Ġclaim": 5106,
    "Ġsquint": 22837,
    "Ġdeliberation": 19967,
    "Ġess": 5691,
    "elab": 21568,
    "said": 4107,
    "Ġessence": 13403,
    "Ġcouple": 5423,
    "Ġwave": 7576,
    "Ġsauce": 15886,
    "vial": 17696,
    "Ġ7": 4744,
    "Ġgardeners": 12117,
    "Ġimmovable": 15889,
    "profess": 10627,
    "cst": 10083,
    "Ġdistrustful": 25054,
    "cannon": 22960,
    "Ġdiabolically": 25513,
    "Ġmentioning": 9897,
    "sav": 8097,
    "Ġfixing": 13154,
    "Ġresolve": 13168,
    "Ġprocopius": 19729,
    "freighted": 14890,
    "five": 6356,
    "english": 2773,
    "Ġincompatible": 25680,
    "Ġfeelings": 2452,
    "Ġboom": 9308,
    "Ġcolleg": 22855,
    "approach": 24833,
    "consideration": 14953,
    "Ġeducation": 5128,
    "Ġtold": 2182,
    "Ġunreserved": 19395,
    "Ġwest": 5219,
    "Ġunlucky": 10048,
    "Ġpurp": 2393,
    "Ġaunt": 3175,
    "inct": 3295,
    "Ġminority": 18752,
    "Ġtandem": 26410,
    "Ġsuccessfully": 19427,
    "Ġceler": 15547,
    "Ġsnapped": 9895,
    "Ġinsights": 13177,
    "enchanted": 26423,
    "Ġrefreshment": 17238,
    "Ġfleece": 10613,
    "Ġagreeably": 24952,
    "vast": 10735,
    "Ġcarelessly": 11119,
    "bony": 15317,
    "Ġcared": 8781,
    "Ġpistol": 7847,
    "Ġdesmarest": 22972,
    "accessory": 25499,
    "Ġbegin": 3098,
    "Ġassurances": 9998,
    "Ġdepending": 14295,
    "beginning": 13559,
    "Ġswords": 19896,
    "Ġwaldman": 11344,
    "Ġpolynes": 16076,
    "dred": 2525,
    "business": 5609,
    "Ġmicroscopic": 26373,
    "Ġaccosted": 13670,
    "kill": 13742,
    "Ġdemocracy": 25458,
    "Ġtransplanted": 22439,
    "axing": 18547,
    "Ġunsur": 22020,
    "bench": 16802,
    "Ġbristling": 20525,
    "wow": 21120,
    "enormous": 26166,
    "Ġheroines": 19750,
    "Ġawa": 7714,
    "they": 1880,
    "Ġnarrating": 24350,
    "Ġschemes": 11130,
    "Ġhapp": 1086,
    "Ġeffemin": 18521,
    "Ġunderground": 18984,
    "Ġdisplayed": 10607,
    "Ġsang": 12531,
    "mysterious": 26051,
    "reach": 17756,
    ":--âĢľ": 24549,
    "Ġfrightens": 24028,
    "erne": 21268,
    "Ġunfl": 22018,
    "dreadful": 11420,
    "itancy": 21331,
    "outh": 2687,
    "Ġderision": 16306,
    "Ġeber": 18003,
    "Ġ75": 19611,
    "Ġoblige": 10487,
    "Ġfreed": 7267,
    "Ġcarve": 23091,
    "baned": 17494,
    "ale": 506,
    "Ġgaieties": 24194,
    "Ġmany": 1101,
    "promise": 12247,
    "Ġscuff": 15939,
    "off": 1886,
    "Ġexasperate": 20096,
    "waiter": 24587,
    "Ġevent": 2950,
    "Ġconfirming": 25321,
    "Ġtennes": 23547,
    "Ġmournful": 12333,
    "Ġcoast": 4655,
    "Ġdedu": 5583,
    "Ġ32": 19487,
    "Ġconverse": 11841,
    "ateg": 1352,
    "Ġgraceful": 11295,
    "Ġvoyagings": 19234,
    "Ġoffered": 5816,
    "Ġpierce": 17035,
    "flowing": 14574,
    "tracks": 19637,
    "ĠĠĠĠĠĠĠĠĠĠĠĠĠĠĠĠĠĠĠĠĠĠĠĠĠĠĠĠĠĠĠĠ": 2739,
    "Ġmarshalled": 25315,
    "Ġbasics": 13446,
    "luckily": 19751,
    "Ġunforgiving": 25995,
    "vocation": 25084,
    "Ġspices": 22128,
    "Ġicelandic": 25886,
    "Ġappropriated": 23485,
    "Ġisinglass": 21800,
    "Ġvarieties": 14308,
    "Ġmount": 7362,
    "Ġspit": 22122,
    "Ġderivative": 3002,
    "Ġfigured": 16642,
    "Ġcrow": 3804,
    "Ġwhirled": 14958,
    "Ġunlabeled": 3799,
    "Ġamiss": 18511,
    "ispens": 8336,
    "Ġmomentary": 11034,
    "sweet": 8685,
    "isome": 17848,
    "Ġpines": 12613,
    "Ġfloated": 7288,
    "Ġprocedure": 2810,
    "aning": 2252,
    "Ġworms": 25216,
    "monster": 8591,
    "Ġextravagant": 17277,
    "Ġreasoning": 1997,
    "approb": 11041,
    "Ġmetaphys": 16404,
    "Ġcalm": 3447,
    "plexy": 18576,
    "Ġfervent": 14899,
    "Ġcistern": 17379,
    "Ġrecommended": 8667,
    "Ġoct": 10157,
    "Ġkept": 3348,
    "Ġcannon": 14152,
    "Ġbeg": 1281,
    "brew": 11472,
    "arch": 1122,
    "Ġmidships": 23633,
    "Ġfragment": 14502,
    "Ġwalk": 1824,
    "Ġstark": 7390,
    "happen": 19330,
    "Ġangrily": 9405,
    "Ġdespaired": 14667,
    "Ġmaze": 23828,
    "ignorantly": 25189,
    "Ġfestoon": 20293,
    "Ġchains": 8251,
    "eman": 5636,
    "Ġrelation": 2140,
    "Ġrepressed": 21666,
    "Ġsatire": 22898,
    "Ġkl": 2737,
    "Ġhay": 11603,
    "Ġpoured": 8799,
    "_âĢĶâĢĻâĢĿ": 25741,
    "poverty": 22905,
    ",--": 2475,
    "Ġlabel": 14516,
    "ruff": 15894,
    "quadr": 15760,
    "Ġregulate": 22573,
    "Ġapologies": 25196,
    "Ġcomm": 837,
    "iel": 11492,
    "Ġindians": 14408,
    "Ġindolent": 13001,
    "Ġsp": 457,
    "Ġrow": 5309,
    "usation": 18401,
    "ender": 9159,
    "Ġthickness": 13274,
    "Ġsh": 419,
    "Ġreigned": 13985,
    "Ġshipped": 9713,
    "Ġtone": 4041,
    "Ġleaped": 8824,
    "nails": 17613,
    "Ġ182": 13234,
    "mediate": 16511,
    "Ġforced": 4354,
    "Ġwil": 4580,
    "mpus": 13755,
    "Ġdow": 17886,
    "monograph": 23525,
    "ï": 176,
    "Ġstorms": 11261,
    "Ġcylinders": 25943,
    "aiian": 23591,
    "Ġhinge": 25541,
    "Ġpupella": 20420,
    "Ġindul": 5856,
    "epend": 3316,
    "Ġelasticity": 19557,
    "neck": 14233,
    "Ġerection": 23999,
    "Ġjavelin": 26104,
    "Ġformerly": 7494,
    "Ġundergo": 23235,
    "amples": 1821,
    "Ġidle": 8253,
    "mannered": 22852,
    "Ġinterment": 22574,
    "Ġurgent": 16866,
    "Ġanatomy": 12317,
    "Ġshock": 6083,
    "Ġhoarsely": 26302,
    "Ġunidirectional": 3426,
    "Ġserved": 8246,
    "Ġwears": 10239,
    "Ġchowder": 10279,
    "Ġmincer": 14364,
    "Ġbreaches": 14520,
    "Ġrele": 2917,
    "ado": 11656,
    "Ġlomb": 21557,
    "Ġpref": 14170,
    "Ġcommodore": 12392,
    "Ġhelp": 1636,
    "ontory": 10458,
    "Ġvib": 8165,
    "Ġbottles": 16569,
    "Ġbackwards": 12921,
    "kine": 15373,
    "Ġambergris": 8705,
    "eers": 20842,
    "shaw": 6864,
    "Ġpondered": 15164,
    "Ġemployment": 8628,
    "Ġcomstock": 21849,
    "Ġjames": 6419,
    "vour": 17698,
    "improve": 15708,
    "catherine": 7127,
    "Ġthick": 3782,
    "apprec": 22843,
    "anders": 18152,
    "Ġcounterpane": 11342,
    "Ġdomain": 3455,
    "Ġepicures": 25880,
    "Ġfrost": 6096,
    "Ġbeaten": 10527,
    "Ġtears": 4232,
    "bishop": 13692,
    "Ġgift": 10839,
    "Ġrevolved": 9982,
    "Ġtook": 1855,
    "Ġ4": 3989,
    "Ġjig": 15948,
    "sphere": 22734,
    "Ġasylum": 13664,
    "finding": 17012,
    "Ġerad": 25028,
    "dies": 15336,
    "Ġclifford": 22361,
    "Ġopal": 23625,
    "Ġblotches": 25314,
    "Ġlegible": 23532,
    "doctor": 19095,
    "Ġcorrectly": 9402,
    "training": 2515,
    "æ": 167,
    "sor": 7352,
    "jammed": 25906,
    "Ġpattered": 19034,
    "Ġlightness": 23259,
    "torture": 26151,
    "Ġsuperstitious": 13518,
    "Ġgrand": 3592,
    "counter": 20277,
    "Ġentranced": 25833,
    "Ġdeliverer": 11947,
    "Ġsignification": 19202,
    "ouched": 4636,
    "cules": 12388,
    "uming": 8491,
    "oration": 2207,
    "Ġband": 5290,
    "Ġunspeak": 8849,
    "Ġslanting": 23170,
    "Ġsanguinary": 25929,
    "attended": 8951,
    "Ġreproofs": 24892,
    "Ġslender": 11937,
    "Ġprovidence": 18745,
    "Ġperemptory": 25740,
    "Ġanatomical": 15074,
    "Ġfolks": 14424,
    "Ġisol": 8832,
    "Ġabhorrence": 9051,
    "changed": 7175,
    "field": 3072,
    "Ġ99": 10744,
    ")âĢĶâĢľ": 20742,
    "Ġspr": 4027,
    "Ġpetersburgh": 24227,
    "Ġirksome": 13109,
    "value": 18810,
    "Ġfounded": 8556,
    "ux": 7814,
    "Ġbathed": 17865,
    "insurance": 18888,
    "willingness": 24755,
    "Ġblankets": 24612,
    "osh": 18388,
    "Ġxxx": 7767,
    "dist": 4481,
    "Ġcivilised": 24243,
    "Ġohio": 19128,
    "gage": 13721,
    "Ġrequest": 6051,
    "vag": 8764,
    "Ġabsolutely": 4857,
    "aurs": 20768,
    "ě": 220,
    "Ġlieu": 19563,
    "Ġlovel": 10270,
    "Ġtol": 6675,
    "pat": 10115,
    "edged": 15627,
    "Ġsickening": 19603,
    "Ġsymbol": 7717,
    "Ġtuples": 13475,
    "beam": 16036,
    "Ġpleases": 16295,
    "inating": 9152,
    "Ġimpression": 5732,
    "Ġsavor": 23873,
    "Ġmob": 16014,
    "impulse": 20644,
    "Ġrobert": 10969,
    "Ġoccup": 3737,
    "mutually": 26136,
    "!_": 7329,
    "prodig": 16424,
    "cest": 12441,
    "calabash": 22892,
    "ronted": 14875,
    "Ġanswers": 7070,
    "Ġburke": 19250,
    "Ġsincerely": 7963,
    "Ġinterlude": 16069,
    "introdu": 8936,
    "Ġ62": 24364,
    "Ġflee": 7079,
    "Ġrick": 21968,
    "Ġmiles": 3803,
    "Ġrude": 7234,
    "whilst": 18371,
    "mering": 12487,
    "Ġlearnedly": 23384,
    "etian": 13957,
    "Ġperf": 12846,
    "Ġimpul": 7208,
    "Ġerie": 20052,
    "Ġweighted": 2091,
    "itaries": 21334,
    "Ġvernal": 23886,
    "Ġtail": 3089,
    "accomplishments": 25326,
    "Ġimpatient": 5602,
    "Ġspleen": 26420,
    "Ġstepfather": 7221,
    "Ġpossessions": 23822,
    "Ġspouter": 12794,
    "Ġaccommodate": 20515,
    "cle": 3959,
    "resh": 8404,
    "Ġmo": 628,
    "Ġhimmalehs": 26230,
    "Ġtierce": 15476,
    "Ġdepressed": 10882,
    "Ġgrown": 5628,
    "spouting": 25002,
    "Ġperempt": 13671,
    "Ġremarking": 13122,
    "onged": 18410,
    "Ġenrolled": 21935,
    "Ġendued": 14075,
    "fil": 12459,
    "bid": 5610,
    "Ġtreacherous": 13552,
    "Ġsultanism": 25888,
    "Ġsundry": 20072,
    "Ġdesol": 6881,
    "Ġgener": 587,
    "hend": 13250,
    "Ġchapel": 9521,
    "Ġbrick": 8923,
    "sleepers": 24730,
    "Ġgathered": 8443,
    "iquette": 26132,
    "Ġobst": 6284,
    "Ġmagnified": 23201,
    "shadows": 25479,
    "Ġyaw": 18094,
    "Ġtasselled": 25921,
    "Ġevinced": 7100,
    "Ġhowl": 12850,
    "Ġxi": 16427,
    "Ġdischarged": 15218,
    "Ġattention": 1182,
    "igations": 18042,
    "Ġregulations": 18588,
    "Ġburying": 19251,
    "Ġselected": 9709,
    "Ġinanimate": 13931,
    "Ġcluster": 13569,
    "Ġbod": 4581,
    "Ġhempen": 13548,
    "Ġbounty": 26436,
    "Ġeels": 21620,
    "at": 268,
    "continual": 20643,
    "expanded": 23664,
    "aught": 2680,
    "killing": 20941,
    "Ġshared": 10262,
    "Ġpent": 17901,
    "Ġunnecessary": 8850,
    "Ġarrows": 18336,
    "Ġblending": 14398,
    "casks": 20401,
    "Ġsche": 1704,
    "algorith": 3781,
    "Ġthimble": 15633,
    "Ġlanguages": 1571,
    "fitting": 1507,
    "Ġupon": 719,
    "Ġgasp": 7172,
    "Ġperched": 10298,
    "bbles": 13689,
    "yn": 7820,
    "xes": 21139,
    "Ġbusks": 23338,
    "Ġinevitably": 17229,
    "Ġmasses": 10502,
    "Ġidentity": 2522,
    "vapor": 25755,
    "stre": 5451,
    "Ġcontrad": 9753,
    "Ġsheer": 14149,
    "Ġlaid": 3944,
    "Ġignorantly": 19494,
    "poor": 6061,
    "sounded": 12263,
    "Ġunmo": 12769,
    "Ġprophesy": 26061,
    "Ġvile": 8472,
    "oe": 7553,
    "yp": 1046,
    "Ġshipmates": 6720,
    "hens": 3940,
    "Ġparac": 12791,
    "Ġassumpt": 5415,
    "Ġtug": 11549,
    "saf": 11523,
    "Ġacquiring": 2766,
    "tic": 8391,
    "erably": 7574,
    "Ġunsupp": 22019,
    "Ġscolded": 25472,
    "Ġresuming": 12889,
    "Ġwarm": 2426,
    "Ġchannel": 26012,
    "Ġears": 4491,
    "conce": 8510,
    "Ġdives": 17890,
    "Ġconstantinople": 19836,
    "Ġstumbling": 21740,
    "Ġtowards": 1729,
    "Ġuppermost": 15276,
    "spot": 9788,
    "Ġsends": 14789,
    "Ġweapon": 7776,
    "Ġmes": 17796,
    "Ġgap": 21597,
    "Ġfugitive": 17325,
    "Ġcompose": 12898,
    "ortal": 6265,
    "----âĢĻ": 24096,
    "Ġphilips": 5410,
    "oding": 1460,
    "Ġdard": 21421,
    "Ġprofessions": 11230,
    "when": 1590,
    "Ġtapped": 11552,
    "concerns": 24582,
    "Ġsisters": 3640,
    "peasant": 23109,
    "surrounded": 26088,
    "Ġpoltro": 23618,
    "iriously": 18171,
    "hyp": 15364,
    "equ": 6790,
    "Ġeavesdroppers": 25963,
    "Ġfrigid": 17351,
    "Ġelixir": 26554,
    "ortions": 10947,
    "Ġharpoon": 3615,
    "Ġ(âĢľ": 15992,
    "stalk": 21642,
    "Ġjavan": 24999,
    "Ġleg": 2333,
    "Ġproduced": 2451,
    "particularly": 8340,
    "yielded": 25756,
    "Ġdisobey": 18559,
    "Ġbluish": 23648,
    "¯": 112,
    "ute": 4642,
    "desolate": 25703,
    "uzzle": 19582,
    "Ġringed": 16749,
    "Ġblown": 12082,
    "Ġfluke": 14672,
    "Ġdisease": 14256,
    "Ġrains": 24339,
    "Ġsurmis": 23462,
    "Ġuncl": 22014,
    "Ġsentry": 19026,
    "Ġscaled": 2106,
    "Ġjun": 8505,
    "Ġcare": 1633,
    "Ġdirecting": 16297,
    "shells": 26056,
    "herfield": 3629,
    "preced": 10308,
    "Ġsideboard": 10384,
    "shake": 22453,
    "Ġchaise": 9075,
    "Ġscant": 22278,
    "rows": 6442,
    "inked": 12909,
    "Ġtash": 13818,
    "Ġdriving": 3616,
    "ral": 4627,
    "Ġcommendation": 13608,
    "Ġcomputers": 2647,
    "Ġcordially": 16835,
    "machine": 980,
    "displeasure": 23495,
    "Ġgre": 1584,
    "Ġexpenses": 11830,
    "Ġimpulse": 10022,
    "Ġweak": 5098,
    "iod": 3839,
    "ĠĠĠĠĠĠĠĠĠĠĠĠĠĠĠĠĠĠĠĠĠĠĠĠĠĠĠĠĠĠĠĠĠĠĠĠĠĠĠĠĠĠĠĠĠĠ": 9951,
    "dut": 10086,
    "Ġcanals": 22164,
    "Ġnegatived": 23044,
    "Ġapolog": 9042,
    "Ġantiqu": 12141,
    "Ġsaxe": 13626,
    "Ġarmchair": 8271,
    "Ġleaving": 3905,
    "culous": 11139,
    "Ġidentifies": 12011,
    "Ġgeneral": 1862,
    "Ġimpregnable": 26023,
    "Ġrain": 5005,
    "Ġarcher": 22177,
    "Ġfeet": 2258,
    "Ġfaulty": 14905,
    "Ġdiscretion": 10346,
    "Ġhelmeted": 19687,
    "Ġfiles": 21412,
    "Ġclubs": 25179,
    "Ġyarns": 15193,
    "Ġcigaret": 16975,
    "Ē": 211,
    "Ġoffensive": 18692,
    "Ġlee": 4224,
    "Ġworried": 22924,
    "Ġbid": 6131,
    "uttered": 8441,
    "Ġspasmod": 12411,
    "Ġconfiding": 19037,
    "antee": 22095,
    "Ġinfatuated": 20532,
    "umbria": 23928,
    "Ġscorn": 7902,
    "Ġscare": 18396,
    "display": 19154,
    "Ġstuffed": 13407,
    "joke": 20929,
    "Ġterrified": 14670,
    "Ġengraving": 17079,
    "clock": 3936,
    "Ġbakers": 17866,
    "Ġbeckoned": 25793,
    "Ġwatch": 2744,
    "Ġstrove": 9955,
    "Ġvehicle": 20137,
    "Ġvertical": 16603,
    "down": 3469,
    "Ġmantel": 11438,
    "Ġthanks": 6707,
    "bulwarks": 12269,
    "Ġgrasped": 8034,
    "crimson": 24099,
    "Ġdevouring": 11859,
    "Ġidiot": 11968,
    "Ġgreatest": 4096,
    "twinkle": 23701,
    "Ġfoes": 11948,
    "Ġinfinity": 23280,
    "Ġportraits": 20141,
    "Ġslide": 10392,
    "worthy": 7733,
    "Ġoverspread": 14201,
    "Ġcanterbury": 22167,
    "Ø": 153,
    "dining": 13703,
    "metals": 24766,
    "Ġbind": 12578,
    "Ġadequate": 20307,
    "paws": 21028,
    "Ġforeseen": 16441,
    "several": 5543,
    "Ġcoquet": 22582,
    "Ġflirting": 16246,
    "slipped": 25529,
    "Ġdocile": 19957,
    "Ġscuffle": 20607,
    "oric": 21394,
    "Ġweigh": 10893,
    "su": 793,
    "Ġcogent": 14271,
    "Ġtraditions": 11442,
    "Ġincul": 22547,
    "Ġstrange": 2273,
    "Ġtreating": 4286,
    "won": 7144,
    "Ġwhel": 15863,
    "fortunes": 6332,
    "horrors": 20540,
    "Ġgive": 1712,
    "Ġhogarth": 25780,
    "Ġrussian": 14348,
    "wise": 2575,
    "Ġesq": 15106,
    "rages": 15677,
    "ensities": 22544,
    "_.âĢĶ": 23471,
    "Ġbedfellow": 16435,
    "Ġessays": 19743,
    "Ġarsac": 11739,
    "Ġextravagance": 17278,
    "Ġhumorousness": 25377,
    "aciously": 12903,
    "rooms": 10431,
    "abiding": 21791,
    "dramatic": 19383,
    "Ġjack": 4652,
    "Ġsign": 2493,
    "Ġfortresses": 23620,
    "Ġcircling": 19092,
    "lyph": 10851,
    "Ġsacrific": 15016,
    "but": 593,
    "Ġinformation": 1049,
    "Ġsuav": 22084,
    "Ġrejoice": 10207,
    "Ġknees": 6928,
    "Ġdipped": 15591,
    "ident": 3380,
    "persuaded": 15071,
    "Ġsoutherly": 23333,
    "Ġtwitch": 22674,
    "Ġferoc": 14900,
    "Ġsketches": 26270,
    "Ġconfines": 23303,
    "conversations": 24749,
    "trunk": 23945,
    "Ġclimbing": 20068,
    "Ġships": 3712,
    "Ġscott": 22279,
    "Ġmanhood": 22324,
    "Ġowl": 20082,
    "arched": 10814,
    "Ġcannibals": 10586,
    "aled": 3947,
    "Ġconsole": 8151,
    "Ġlieutenant": 15259,
    "Ġblandly": 20322,
    "Ġcountries": 13094,
    "stains": 11634,
    "Ġiii": 7861,
    "Ġcane": 10926,
    "Ġpettiness": 24228,
    "Ġspinning": 15051,
    "Ġcarry": 4778,
    "Ġsuperb": 16443,
    "Ġsavory": 23874,
    "Ġexterior": 19986,
    "author": 9858,
    "Ġprim": 8244,
    "Ġmills": 21310,
    "Ġpersist": 16269,
    "omination": 21660,
    "coast": 10448,
    "Ġwhaleman": 4654,
    "Ġsurpassed": 25267,
    "Ġsnaky": 23740,
    "pect": 1255,
    "Ġobstinacy": 17419,
    "Ġreserves": 19669,
    "Ġforetold": 23450,
    "Ġnoticing": 18224,
    "irons": 10237,
    "Ġwee": 21917,
    "Ġunfrequently": 20738,
    "Ġriotous": 20543,
    "sec": 6152,
    "Ġproduces": 2094,
    "Ê": 139,
    "Ġsmoked": 10321,
    "Ġflows": 13006,
    "Ġcaterpillar": 5864,
    "Ġsalt": 8017,
    "Ġsons": 10765,
    "Ġsalut": 10508,
    "obtain": 23092,
    "Ġtusked": 25426,
    "Ġcompetition": 14265,
    "Ġxlix": 25860,
    "Ġcities": 17827,
    "Ġmapp": 2083,
    "Ġmagnanimous": 17409,
    "Ġtherein": 11773,
    "Ġmachinery": 20483,
    "bowed": 10682,
    "hecy": 21205,
    "housekeeper": 24101,
    "Ġsubsiding": 23432,
    "breaths": 25336,
    "isf": 2435,
    "smug": 23905,
    "Ġrol": 3555,
    "Ġarrives": 23606,
    "Ġuncertain": 4069,
    "Ġgoat": 16003,
    "kick": 20935,
    "violent": 14579,
    "Ġestimate": 19371,
    "Ġraving": 16110,
    "Ġaffectionate": 5584,
    "unless": 9233,
    "Ġwarrior": 24495,
    "Ġheadland": 22893,
    "Ġdisgust": 6705,
    "Ġmadam": 5663,
    "fairly": 17218,
    "J": 46,
    "Ġcommun": 1705,
    "Ġexpecting": 10435,
    "Ġmagnetic": 17239,
    "umphed": 23516,
    "spr": 7436,
    "stock": 13219,
    "ability": 715,
    "roofed": 26183,
    "Ġcongratulated": 19765,
    "Ġphysiognomical": 25611,
    "Ġequilib": 4138,
    "Ġfavourites": 16643,
    "vit": 13799,
    "Ġ84": 19708,
    "Ġegot": 18007,
    "Ġsisterly": 16299,
    "Ġnumerical": 4247,
    "Ġdost": 7637,
    "grat": 5052,
    "piece": 6655,
    "robber": 21535,
    "biscuit": 17499,
    "vengeance": 13354,
    "Ġseething": 18203,
    "Ġdescribes": 3122,
    "Ġunwritten": 22032,
    "Ġbaker": 4695,
    "Ġpads": 21472,
    "Ġlingering": 11378,
    "thesize": 24906,
    "Ġdependencies": 2313,
    "cont": 2920,
    "Ġsuspicions": 9477,
    "Ġnevertheless": 5040,
    "Ġfaculties": 14956,
    "Ġground": 2847,
    "Ġsequential": 2131,
    "Ġsuggestions": 24452,
    "isting": 5550,
    "Ġ50": 24318,
    "Ġmaddened": 17243,
    "ue": 1180,
    "mend": 20965,
    "conclusive": 25673,
    "ojo": 7349,
    "Ġrudeness": 17123,
    "shaven": 18496,
    "Ġretort": 23069,
    "possessed": 9526,
    "fastened": 19324,
    "Ġinsipid": 26313,
    "Ġunconcerned": 20508,
    "uncommonly": 25549,
    "Ġemblematical": 25788,
    "asses": 7016,
    "Ġflip": 11909,
    "ssian": 3400,
    "define": 1523,
    "Ġelements": 2667,
    "Ġvirginia": 13498,
    "Ġresentment": 7531,
    "Ġestimation": 11217,
    "Ġsubs": 2129,
    "discrimin": 19607,
    "Ġjav": 7903,
    "Ġcham": 4892,
    "Ġcapital": 7980,
    "fort": 1748,
    "ogue": 9783,
    "Ġawed": 23584,
    "Ġargue": 16782,
    "Ġknave": 11271,
    "Ġabomin": 8189,
    "ouses": 5163,
    "Ġwickham": 2203,
    "convers": 6567,
    "Ġmedic": 11245,
    "conqu": 14243,
    "Ġpurport": 14580,
    "Ġafter": 870,
    "Ġcracked": 8593,
    "Ġmisfortune": 5568,
    "Ġinexplicable": 12253,
    "Ġjournal": 15216,
    "Ġbalm": 22901,
    "Ġmaled": 21313,
    "Ġwarmth": 6905,
    "Ġinvisible": 7327,
    "Ġdolph": 12377,
    "reject": 21235,
    "Ġbunch": 11325,
    "min": 4571,
    "etuous": 21581,
    "bab": 11467,
    "Ġfarmhouse": 24986,
    "bill": 10074,
    "Ġparameters": 994,
    "grand": 7970,
    "passed": 8026,
    "Ġcrashes": 13123,
    "Ġunfav": 14787,
    "merry": 16535,
    "etween": 774,
    "Ġrand": 1585,
    "Ġuniformity": 23484,
    "Ġjealously": 24124,
    "Ġislets": 21799,
    "Ġlogs": 16344,
    "cceed": 4145,
    "Ġindebted": 8707,
    "Ġmeta": 3412,
    "forgotten": 12413,
    "Ġlead": 3523,
    "marrying": 19546,
    "ock": 15400,
    "Ġbeads": 18083,
    "Ġcrony": 23439,
    "follows": 24527,
    "hotel": 20048,
    "bec": 4054,
    "bed": 3292,
    "Ġbohem": 8526,
    "Ġharvest": 13413,
    "akeman": 6267,
    "falling": 24360,
    "Ġdeparted": 5563,
    "Ġwor": 1189,
    "hearse": 17747,
    "shark": 14237,
    "Ġdisordered": 16052,
    "Ġprejudice": 9074,
    "Ġdeportment": 22610,
    "Ġmask": 1866,
    "charmed": 21694,
    "Ġvain": 3628,
    "Ġindistinctly": 26117,
    "Ġbeloved": 5571,
    "eration": 10771,
    "below": 12118,
    "Ġneatness": 19931,
    "Ġrascally": 26505,
    "Ġflies": 13021,
    "Ġwine": 6810,
    "darker": 24512,
    "Ġinterpreted": 1711,
    "uts": 8814,
    "Ġfry": 17879,
    "zwilliam": 5074,
    "Ġinvolves": 1107,
    "Ġhorizon": 6632,
    "strangely": 17275,
    "Ġsensibly": 14512,
    "Ġindelicacy": 25695,
    "Ġmercenary": 17192,
    "lect": 1222,
    "safety": 20348,
    "Ġ22": 8279,
    "Ġbert": 4582,
    "Ġbreathe": 9010,
    "Ġpract": 1854,
    "Ġsound": 2241,
    "Ġkicks": 19767,
    "Ġfasc": 12594,
    "Ġ1778": 25730,
    "clothes": 9056,
    "Ġbroadened": 23983,
    "onet": 12541,
    "did": 3193,
    "Ġstrangely": 5677,
    "Ġsinusoid": 4780,
    "Ġire": 12663,
    "ositions": 10282,
    "Ġsituated": 9446,
    "Ġinsight": 16528,
    "Ġperiod": 4006,
    "east": 9114,
    "reproof": 25432,
    "Ġgregarious": 18964,
    "Ġoutside": 5553,
    "Ġadapts": 3816,
    "Ġpatted": 16377,
    "Ġvocation": 10524,
    "Ġback": 820,
    "Ġfashionable": 19543,
    "Ġviews": 7290,
    "Ġspoils": 24808,
    "Ġmizzen": 20288,
    "acher": 6868,
    "determ": 7105,
    "Ġvagueness": 25737,
    "ither": 1547,
    "wherefore": 19108,
    "Ġrounds": 18885,
    "itory": 12563,
    "eur": 7546,
    "Ġwraps": 19775,
    "Ġcigarette": 20655,
    "Ġdisinclined": 22527,
    "Ġconcept": 662,
    "indul": 22368,
    "Ġverte": 9439,
    "eties": 10836,
    "Ġcreep": 22719,
    "Ġinquest": 16545,
    "Ġchinks": 22249,
    "neural": 3067,
    "Ġgun": 4701,
    "branch": 23577,
    "bows": 10080,
    "Ġendless": 7053,
    "Ġtener": 21162,
    "Ġhunger": 8566,
    "gers": 8376,
    "iracle": 11242,
    "Ġcatching": 9476,
    "iscreet": 20681,
    "Ġjutting": 22299,
    "Ġyon": 9691,
    "hr": 20887,
    "swelled": 19609,
    "Ġnovelties": 24778,
    "Ġcruelly": 13373,
    "accompanied": 12419,
    "ining": 3223,
    "Ġarc": 14157,
    "seals": 21815,
    "Ġbarrel": 23790,
    "meditation": 19066,
    "Ġproof": 6153,
    "overfitting": 13098,
    "Ġshiver": 12763,
    "Ġices": 21153,
    "Ġhes": 6250,
    "Ġentreaty": 10528,
    "Ġsaleve": 17389,
    "Ġacres": 14311,
    "Ġmoral": 6578,
    "Ġtremble": 6906,
    "accusations": 23598,
    "Ġexpressly": 16452,
    "recur": 4438,
    "Ġefficient": 1029,
    "lines": 6959,
    "Ġunre": 3477,
    "Ġsheets": 9720,
    "Ġgreatness": 12939,
    "Ġsigmoid": 2461,
    "Ġmab": 12556,
    "Ġdeduction": 14897,
    "Ġfeathers": 15117,
    "Ġwhitney": 11372,
    "Ġforthwith": 16617,
    "Ġheaded": 11053,
    "adm": 7609,
    "leful": 17842,
    "Ġconsecutive": 20701,
    "Ġenrapt": 21937,
    "orate": 10799,
    "wait": 11319,
    "meanwhile": 10608,
    "enjoyments": 25433,
    "Ġ113": 19695,
    "Ġspeedy": 11171,
    "Ġfob": 21408,
    "asingly": 17960,
    "unavoid": 14060,
    "Ġsow": 17748,
    "Ġfurnishing": 16644,
    "Ġsallied": 12533,
    "reflect": 19864,
    "Ġstead": 5650,
    "Ġrelinquish": 17345,
    "Ġsaying": 3244,
    "manif": 14371,
    "int": 1199,
    "Ġinert": 15618,
    "Ġirresistible": 13110,
    "Ġweights": 896,
    "Ġsentimental": 24754,
    "Ġsenor": 20149,
    "romising": 18233,
    "Ġ58": 24325,
    "arranted": 19319,
    "Ġ118": 19697,
    "ampling": 12722,
    "Ġcart": 11581,
    "Ġsadly": 7302,
    "Ġirresolution": 24915,
    "Ġrolling": 5975,
    "encountered": 20391,
    "Ġcompromising": 22571,
    "afforded": 25865,
    "rodu": 1817,
    "Ġdistillation": 16042,
    "Ġhesitation": 13439,
    "Ġcomfortless": 23910,
    "Ġveracity": 23887,
    "orable": 8120,
    "Ġupward": 9719,
    "enes": 5218,
    "barn": 17481,
    "Ġoffended": 7040,
    "cruise": 24841,
    "approbation": 11457,
    "inian": 21181,
    "Ġbacks": 8528,
    "monsters": 19170,
    "Ġproceeded": 5335,
    "gn": 8082,
    "disc": 4728,
    "ħ": 232,
    "Ġembod": 14413,
    "lev": 1234,
    "Ġstatistics": 1681,
    "Ġadmeasure": 18293,
    "Ġcalmed": 16263,
    "ctic": 8442,
    "Ġubiquitous": 26195,
    "ssip": 14078,
    "Ġinsince": 23677,
    "Ġain": 6969,
    "Ġoaken": 13863,
    "Ġinclude": 1875,
    "Ġ24": 13191,
    "Ġfoundling": 22966,
    "Ġcurios": 18852,
    "im": 327,
    "Ġramadan": 9574,
    "Ġrecumbent": 22726,
    "Ġchronicled": 25328,
    "Ġproprietor": 12370,
    "Ġattractions": 12914,
    "Ġtapping": 10751,
    "Ġlac": 17964,
    "esc": 618,
    "Ġscraggy": 24578,
    "spanish": 14329,
    "Ġx": 2074,
    "Ġburning": 5977,
    "Ġbriskly": 25311,
    "Ġblank": 5951,
    "Ġincreases": 3795,
    "Ġprotesting": 14740,
    "Ġse": 402,
    "Ġbecoming": 4399,
    "mast": 3601,
    "rible": 3229,
    "Ġseated": 4541,
    "burned": 25079,
    "Ġsteady": 4847,
    "Ġsatisfy": 6912,
    "Ġperil": 5556,
    "Ġspread": 5161,
    "influences": 25250,
    "Ġexpon": 968,
    "flames": 14710,
    "Ġthoughtless": 16190,
    "Ġgrie": 3583,
    "ards": 2503,
    "ouring": 6420,
    "already": 6980,
    "Ġminimum": 23038,
    "Ġpraying": 19553,
    "ada": 14009,
    "ourers": 21448,
    "Ġbowls": 23769,
    "Ġfierceness": 26265,
    "Ġsuppress": 13020,
    "Ġbows": 4086,
    "tri": 11528,
    "Ġexponential": 1058,
    "Ġthough": 992,
    "Ġdur": 11590,
    "Ġgestures": 13534,
    "Ġvolcano": 24146,
    "Ġ25": 13192,
    "Ġtide": 6658,
    "Ġreplaced": 13069,
    "Ġtou": 15464,
    "Ġseas": 3078,
    "Ġtable": 2498,
    "Ġaddison": 14231,
    "Ġdatasets": 2390,
    "Ġfeelingly": 22995,
    "Ġsacrificed": 17420,
    "Ġhardships": 14449,
    "Ġstatue": 23145,
    "meryton": 10110,
    "numbers": 17615,
    "Ġexisting": 12714,
    "Ġpres": 9730,
    "Ġdisquis": 22525,
    "Ġshot": 4544,
    "proportion": 16178,
    "bearance": 22493,
    "ercely": 12546,
    "storm": 9679,
    "reement": 15509,
    "thing": 1477,
    "Ġriveted": 13616,
    "Ġemployments": 12099,
    "Ġdiscuss": 9472,
    "Ġcommercial": 22672,
    "Ġfil": 3472,
    "frantic": 24282,
    "pents": 11511,
    "Ġring": 4453,
    "etency": 21580,
    "nurs": 20998,
    "ab": 345,
    "Ġthis": 382,
    "Ġjets": 10286,
    "Ġbusily": 9382,
    "adem": 21755,
    "Ġdynam": 3272,
    "benevol": 12223,
    "herself": 4890,
    "Ġrustling": 24715,
    "shorn": 22455,
    "Ġbart": 17857,
    "unctions": 18155,
    "Ġdrifting": 19278,
    "Ġdif": 871,
    "Ġsmut": 22554,
    "Ġ14": 9321,
    "Ġbutterfly": 19909,
    "downstairs": 23917,
    "Ġspiteful": 19521,
    "Ġdella": 21438,
    "Ġaverted": 16252,
    "Ġlanded": 7469,
    "Ġun": 423,
    "Ġfavourably": 16359,
    "Ġplu": 8797,
    "Ġmishap": 20575,
    "Ġobstacles": 19834,
    "Ġscrupulous": 20067,
    "tried": 13792,
    "eternal": 17982,
    "Ġprecious": 5760,
    "Ġscor": 8190,
    "Ġgoes": 3852,
    "Ġbent": 5149,
    "unteered": 26494,
    "Ġchaldee": 26234,
    "ese": 4445,
    "ersampling": 18216,
    "ht": 375,
    "Ġundertaken": 18986,
    "Ġclasses": 4056,
    "Ġmodel": 515,
    "Ġslapped": 23169,
    "interesting": 12198,
    "Ġdiscover": 4717,
    "irr": 12733,
    "Ġexception": 11215,
    "iffe": 21900,
    "Ġceremonious": 24837,
    "Ġdis": 694,
    "atched": 6375,
    "83": 13678,
    "Ġbaw": 15565,
    "Ġcomplex": 749,
    "onds": 12991,
    "morrow": 4572,
    "Ġgrampus": 21991,
    "Ġhop": 1459,
    "gged": 3776,
    "Ġwid": 4632,
    "Ġgrounds": 6749,
    "hat": 6956,
    "Ġtempt": 5564,
    "Ġsmacking": 20164,
    "Ġthirds": 16707,
    "Ġxvi": 19104,
    "Ġhappened": 3711,
    "ker": 5792,
    "regret": 16449,
    "Ġworrying": 22925,
    "brandy": 19200,
    "Ġendeavored": 19302,
    "Ġrelates": 12977,
    "Ġvariations": 22664,
    "marry": 13321,
    "fes": 20850,
    "nical": 20990,
    "ray": 2437,
    "Ġwedge": 24069,
    "scream": 11075,
    "moderate": 22825,
    "safie": 20347,
    "deployment": 26526,
    "oriously": 17874,
    "E": 41,
    "Ġopenly": 8572,
    "Ġremembering": 14609,
    "Ġsumm": 3357,
    "runs": 25415,
    "mere": 11852,
    "bast": 10075,
    "Ġmermaid": 17813,
    "Ġrepine": 16408,
    "Ġpreprocessing": 26535,
    "Ġbrand": 16184,
    "sailor": 14713,
    "Ġbillow": 14777,
    "Ġdreadful": 4920,
    "Ġrake": 18642,
    "Ğ": 223,
    "Ġgrating": 14353,
    "Ġfancied": 7326,
    "Ġdolphin": 17310,
    "Ġunrem": 18244,
    "Ġbeaver": 18085,
    "test": 13790,
    "Ġshown": 5159,
    "complied": 19912,
    "thar": 18217,
    "Ġmalignity": 10555,
    "Ġfiltering": 23923,
    "cely": 3574,
    "Ġnomine": 26455,
    "Ġskewer": 19619,
    "meas": 7434,
    "Ġsecluded": 11989,
    "anging": 3551,
    "ô": 181,
    "Ġdoubted": 7965,
    "aution": 9385,
    "Ġbrill": 8549,
    "rr": 17649,
    "Ġduring": 873,
    "Ġsulk": 15044,
    "Ġmel": 4816,
    "noo": 9790,
    "Ġassisted": 11109,
    "snapping": 24849,
    "Ġsuicide": 12785,
    "Ġspectre": 16629,
    "Ġphilosop": 5057,
    "Ġattics": 22625,
    "Ġlionel": 25286,
    "ions": 449,
    "Ġinhabitants": 7525,
    "weakness": 16121,
    "anning": 10163,
    "Ġradney": 6775,
    "Ġhermit": 15854,
    "Ġpropose": 9851,
    "elt": 4118,
    "Ġinfinitely": 8962,
    "Ġdream": 3538,
    "Ġhappen": 5570,
    "Ġsumatra": 15284,
    "Ġannals": 17898,
    "Ġinexperienced": 26100,
    "pad": 13766,
    "ridge": 9495,
    "Ġwheeled": 14137,
    "Ġremedy": 18724,
    "Ġinnovative": 1659,
    "orum": 12586,
    "Ġdescent": 993,
    "Ġquick": 2582,
    "Ġturner": 7049,
    "goodbye": 12053,
    "um": 454,
    "etieth": 21582,
    "ming": 3600,
    "Ġwatched": 6297,
    "bruary": 15233,
    "Ġfrankenstein": 7095,
    "Ġcomfits": 21850,
    "imes": 1301,
    "Ġowner": 8920,
    "Ġlestrade": 5825,
    "Ġbro": 1429,
    "nothing": 3153,
    "Ġbiscuit": 12585,
    "Ġprominence": 18954,
    "wick": 5362,
    "allers": 22195,
    "Ġgemini": 26468,
    "Ġregards": 16067,
    "Ġmarlingspike": 26578,
    "Ġfanning": 23388,
    "Ġremainder": 9856,
    "Ġconcuss": 19045,
    "hatred": 24821,
    "deformity": 22145,
    "minutes": 7513,
    "Ġwelcomed": 9480,
    "Ġrising": 4357,
    "Ġbengal": 18782,
    "Ġsucking": 12784,
    "Ġevidently": 6759,
    "objects": 13468,
    "Ġfootpath": 19337,
    "Ġconvince": 14641,
    "Ġflock": 21410,
    "Ġshouted": 5347,
    "Ġconse": 21802,
    "Ġrenegades": 26475,
    "Ġ92": 24591,
    "some": 2235,
    "Ġcontribut": 12855,
    "gang": 17552,
    "boy": 4737,
    "Ġnarratives": 24352,
    "Ġperse": 6272,
    "Ġdamp": 8264,
    "Ġmagnific": 16316,
    "not": 907,
    "Ġhealthcare": 8016,
    "Ġmag": 1428,
    "ological": 1884,
    "lesc": 11037,
    "Ġdictionary": 15110,
    "othing": 6995,
    "Ġalleged": 17289,
    "Ġmisunderstood": 18703,
    "Ġwarmest": 16482,
    "recklessly": 25269,
    "Ġanalyzing": 18809,
    "cheered": 23804,
    "sch": 21049,
    "Ġforemast": 12002,
    "Ġdizzy": 21431,
    "wake": 11544,
    "clouded": 20330,
    "vid": 916,
    "Ġovertake": 15964,
    "Ġsupports": 3052,
    "superiority": 20184,
    "Ġconciliating": 19046,
    "Ġhistories": 14686,
    "Ġfailure": 13312,
    "garden": 15024,
    "complete": 15033,
    "Ġexcurs": 23312,
    "Ġphrenologist": 25607,
    "Ġfable": 15573,
    "Ġpossesses": 19350,
    "Ġsecond": 1891,
    "Ġfain": 5808,
    "Ġcoward": 7155,
    "Ġvortex": 26208,
    "Ġphilosophy": 7103,
    "Ġadmitted": 8985,
    "accurately": 25861,
    "Ġperchance": 15988,
    "romised": 14110,
    "Ġsix": 3046,
    "sets": 17659,
    "Ġfors": 21769,
    "Ġroasted": 18459,
    "clings": 23148,
    "men": 1483,
    "Ġcomprising": 16065,
    "Ġrending": 19465,
    "¦": 104,
    "ried": 927,
    "Ġbald": 16203,
    "Ġobeyed": 12213,
    "frisco": 16786,
    "willing": 6592,
    "Ġlain": 17961,
    "Ġbestow": 6455,
    "Ġthistle": 21914,
    "Ġreconciled": 13585,
    "Ġunreliable": 3931,
    "warm": 8102,
    "Ġpeaks": 16125,
    "Ġestimable": 23870,
    "iate": 6505,
    "picture": 11406,
    "uesday": 8587,
    "Ġfeeble": 12281,
    "Ġgenerating": 12845,
    "Ġdotted": 16791,
    "rospect": 11610,
    "impropriety": 21711,
    "Ġstrewed": 23420,
    "Ġtemperature": 1004,
    "Ġtatters": 21176,
    "Ġanticipating": 17058,
    "Ġloads": 22112,
    "Ġshaping": 22001,
    "tempt": 21078,
    "Ġovercome": 6043,
    "accents": 19210,
    "Ġforefinger": 16442,
    "Ġcheating": 16364,
    "Ġrelieve": 8224,
    "Ġgrunt": 18736,
    "avier": 2831,
    "Ġmill": 6666,
    "belt": 24033,
    "Ġhandsomest": 20333,
    "Ġcrash": 11998,
    "Ġprocedural": 12028,
    "Ġpl": 742,
    "Ġbeauty": 3769,
    "unerative": 21894,
    "Ġfanciful": 24788,
    "ency": 3870,
    "osoever": 17341,
    "Ġemph": 14524,
    "Ġdiscourse": 9796,
    "Ġdairy": 20685,
    "innacle": 7520,
    "Ġpang": 15601,
    "sink": 11520,
    "such": 3083,
    "enched": 10153,
    "onsensical": 18575,
    "Ġboldly": 9499,
    "Ġl": 303,
    "main": 8088,
    "Ġmortally": 23914,
    "oters": 21797,
    "vious": 1785,
    "Ġpuzzle": 11304,
    "Ġexceeded": 14431,
    "Ġfurnishes": 19439,
    "Ġdet": 509,
    "ll": 1139,
    "presented": 12986,
    "Ġkey": 2102,
    "singular": 12185,
    "Ġdine": 7366,
    "Ġpoints": 5248,
    "Ġpanegyric": 26448,
    "recollection": 25348,
    "crowd": 25254,
    "Ġwondrously": 24064,
    "Ġunp": 12768,
    "Ġtwilight": 16118,
    "Ġsecuring": 11988,
    "apothe": 22332,
    "Ġreceive": 4703,
    "eng": 1486,
    "chet": 13215,
    "Ġtalked": 4422,
    "gratitude": 16815,
    "Ġblind": 3714,
    "Ġimpossibility": 20646,
    "Ġtrap": 7673,
    "Ġorganize": 8990,
    "Ġbumping": 25280,
    "anse": 12571,
    "Ġfirmest": 16663,
    "Ġwithdrawing": 11339,
    "uc": 1877,
    "Ġnoting": 18221,
    "Ġprove": 5231,
    "Ġdestroyed": 5271,
    "Ġspiral": 14583,
    "mouse": 15390,
    "narrative": 17317,
    "ĠĠ": 352,
    "Ġrefused": 6715,
    "Ġracket": 22651,
    "ay": 355,
    "Ġillustrious": 17108,
    "Ġpain": 2303,
    "Ġillness": 8589,
    "Ġskeletons": 16790,
    "Ġclothed": 19605,
    "sof": 17656,
    "Ġincorporated": 25711,
    "Ġsights": 7473,
    "Ġon": 351,
    "Ġzigzag": 26272,
    "added": 11657,
    "Ġstrugg": 3219,
    "gon": 17551,
    "Ġshabby": 14109,
    "Ġparasol": 22119,
    "Ġcatch": 4442,
    "Ġsank": 5076,
    "Ġdelightful": 6320,
    "irement": 18355,
    "Ġlifted": 6985,
    "Ġobjectionable": 16990,
    "Ġele": 1963,
    "Ġencoder": 3635,
    "declare": 25173,
    "Ġsaratoga": 26422,
    "detained": 24381,
    "ameter": 2957,
    "Ġshocks": 16456,
    "unbidden": 21892,
    "formity": 10277,
    "drive": 8682,
    "Ġunceasingly": 20357,
    "circle": 16735,
    "Ġabstained": 25231,
    "Ġequinoctial": 20531,
    "astron": 22162,
    "Ġsupplies": 20325,
    "knife": 6942,
    "Ġadored": 18291,
    "thin": 14095,
    "nut": 12491,
    "Ġcapst": 8595,
    "Ġnorris": 23199,
    "visitors": 13346,
    "Ġconvert": 11840,
    "Ġmole": 11788,
    "Ġenlightened": 12742,
    "Ġbedside": 19121,
    "Ġlimited": 23543,
    "Ġgraphs": 25463,
    "Ġglist": 9342,
    "Ġroom": 1461,
    "Ġwin": 9640,
    "scru": 16240,
    "Ġobjects": 5577,
    "Ġspoutings": 14674,
    "certainly": 5339,
    "seemed": 4306,
    "impatient": 13638,
    "Ġshe": 466,
    "Ġnought": 21520,
    "Ġvisit": 2584,
    "Ġso": 431,
    "Ġcontact": 9279,
    "shabbily": 26246,
    "catch": 17505,
    "Ġdejected": 20303,
    "Ġmultiplied": 23688,
    "Ġcomfort": 3439,
    "Ġcoronation": 13331,
    "glim": 19363,
    "Ġexhibit": 14954,
    "Ġexplo": 2285,
    "Ġspong": 15878,
    "quis": 7871,
    "sculpt": 16242,
    "Ġhunch": 18934,
    "Ġcurrents": 13014,
    "following": 10571,
    "Ġlungs": 8362,
    "Ġinclemency": 22553,
    "Ġruff": 14347,
    "Ġsaturday": 6452,
    "Ġbottom": 3673,
    "gd": 3125,
    "Ġclimate": 9273,
    "Ġpetrified": 19595,
    "glanced": 19364,
    "sailed": 17665,
    "Ġupset": 22151,
    "conclude": 24066,
    "ourably": 14375,
    "Ġeggs": 12339,
    "stave": 21641,
    "Ġmarvellous": 7539,
    "Ġspermacetti": 19048,
    "Ġoysters": 20577,
    "Ġbitterest": 12399,
    "Ġdood": 22240,
    "dances": 17520,
    "Ġglimp": 6066,
    "Ġalman": 21779,
    "'": 11,
    "Ġdazzling": 15209,
    "Ġworks": 5858,
    "Ġdramat": 23213,
    "Ġconfronted": 23306,
    "Ġmethinks": 10391,
    "Ġaddress": 2271,
    "Ġtransaction": 22437,
    "Ġtropics": 17066,
    "Ġreveries": 11346,
    "Ġalt": 18098,
    "opening": 10311,
    "Ġdoubt": 2224,
    "Ġobservable": 25126,
    "Ġrefrain": 12944,
    "Ġsmooth": 2777,
    "Ġdesc": 771,
    "Ġamphitheat": 26251,
    "Ġprocedures": 9410,
    "Ġsharpened": 17363,
    "Ġoverdone": 22347,
    "Ġmorbid": 16231,
    "Ġsupplied": 8942,
    "ahawk": 23314,
    "Ġvowed": 14082,
    "Ġmatrim": 11059,
    "Ġenthusiastic": 19964,
    "etime": 12655,
    "operations": 19973,
    "night": 2165,
    "Ġeffective": 1248,
    "rad": 2255,
    "Ġcaw": 13881,
    "Ġgoethe": 22422,
    "Ġintrig": 21988,
    "Ġcircumnav": 12423,
    "ony": 3032,
    "Ġstays": 16559,
    "Ġpaintings": 15056,
    "Ġreptile": 15275,
    "ailed": 3247,
    "Ġeludes": 26553,
    "hetically": 21207,
    "Ġfing": 3756,
    "remind": 23185,
    "Ġvalu": 5039,
    "Ġlurks": 11289,
    "Ġbutcher": 18271,
    "Ġgarments": 15191,
    "shop": 14236,
    "waving": 21130,
    "Ġterror": 5124,
    "ĵ": 246,
    "Ġoy": 15542,
    "Ġcapacious": 19175,
    "Ġassembly": 10641,
    "acit": 16077,
    "Ġsweep": 8266,
    "Ġjet": 5307,
    "Ġtalent": 12294,
    "better": 7119,
    "Ġrigged": 16716,
    "secured": 16937,
    "Ġdesigns": 13008,
    "thomas": 18219,
    "Ġmors": 17801,
    "ounce": 6557,
    "aited": 12432,
    "glance": 16586,
    "Ġwouldst": 18501,
    "deli": 15342,
    "Ġdiffident": 23782,
    "uff": 2731,
    "Ġhorizontally": 17011,
    "atherley": 7220,
    "Ġjagged": 18407,
    "Ġclenched": 14206,
    "Ġlima": 10441,
    "uss": 8763,
    "rank": 21040,
    "Ġpoverty": 9302,
    "pay": 10717,
    "consciousness": 13363,
    "remembered": 17349,
    "inished": 17733,
    "Ġfejee": 18354,
    "turtle": 12208,
    "Ġvalue": 2086,
    "Ġpreside": 18365,
    "Ġomens": 21326,
    "Ġespecial": 26409,
    "Ġworldly": 16327,
    "resum": 17760,
    "heaved": 21209,
    "Ġidentified": 19150,
    "Ġfortnight": 6200,
    "flu": 9116,
    "absurd": 21793,
    "Ġcompromised": 22569,
    "Ġprom": 1524,
    "imming": 9685,
    "b": 70,
    "Ġproceedings": 9905,
    "Ġportentous": 15227,
    "Ġofficio": 23813,
    "erting": 17776,
    "Ġbou": 17852,
    "Ġinco": 14258,
    "nurtured": 25524,
    "Ġdiana": 21435,
    "ignominious": 26586,
    "Ġprompted": 23814,
    "backs": 9389,
    "enses": 10993,
    "Ġcirculation": 16414,
    "imag": 6990,
    "Ġmeans": 699,
    "fellow": 6792,
    "uring": 822,
    "Ġunex": 11710,
    "Ġconstraints": 2741,
    "foundered": 20866,
    "Ġwilderness": 14838,
    "Ġusurpation": 18358,
    "eager": 12456,
    "Ġhumbly": 16195,
    "anqu": 4113,
    "bey": 10313,
    "elly": 17979,
    "Ġapprove": 12869,
    "Ġquadru": 16001,
    "Ġcorrid": 9822,
    "dashed": 12452,
    "condem": 16340,
    "Ġdegenerated": 20504,
    "altering": 12636,
    "comfortableness": 24524,
    "Ď": 207,
    "adventures": 20255,
    "Ġsixty": 7723,
    "sister": 5139,
    "yset": 21144,
    "ocean": 12398,
    "Ġrecomm": 4996,
    "Ġattempted": 8001,
    "limping": 26392,
    "Ġenveloping": 19732,
    "Ġvirtuous": 14754,
    "latin": 25258,
    "Ġcomprehensive": 15085,
    "Ġinterchange": 16070,
    "ó": 180,
    "iar": 2378,
    "unimportant": 18159,
    "ĉ": 202,
    "Ġinstantaneous": 14610,
    "Ġexcellence": 11450,
    "Ġgladness": 16590,
    "uous": 4147,
    "Ġshade": 6550,
    "ixed": 4851,
    "sings": 4254,
    "Ġdisappo": 4506,
    "Ġlinguistic": 12422,
    "irene": 15911,
    "Ġpeaked": 2296,
    "Ġbene": 2034,
    "Ġbrimstone": 25686,
    "Ġsummary": 19402,
    "antled": 18286,
    "decease": 25557,
    "Ġforc": 9226,
    "Ġsilvery": 13092,
    "Ġcanaller": 25467,
    "Ġappeased": 23195,
    "Ġphrases": 2796,
    "Ġunsc": 22012,
    "Ġconcealing": 23900,
    "atlantic": 15521,
    "corrupt": 14893,
    "advise": 24216,
    "Ġling": 7377,
    "Ġrepublican": 17410,
    "blending": 24128,
    "Ġsmallest": 6430,
    "Ġnightfall": 23128,
    "Ġamelia": 26250,
    "Ġairy": 23315,
    "Ġyore": 21776,
    "Ġsetting": 7046,
    "ope": 4127,
    "Ġsorrowful": 10535,
    "Ġtry": 3134,
    "Ġlegitimate": 20641,
    "opened": 7914,
    "comfort": 5647,
    "leagues": 21371,
    "Ġpursued": 6328,
    "attacks": 23120,
    "Ġplaguy": 22602,
    "Ġ102": 24409,
    "sprang": 19989,
    "Ġinduced": 8670,
    "Ġshrink": 14802,
    "Ġscar": 3212,
    "Ġchance": 3319,
    "Ġpewter": 17184,
    "concerted": 16670,
    "Ġwow": 15526,
    "Ġfloundered": 18861,
    "Ġroyal": 5601,
    "Ġeluc": 16105,
    "Ġdiscours": 18718,
    "Ġbenefited": 19396,
    "Ġhave": 445,
    "accursed": 20539,
    "Ġchemistry": 11459,
    "Ġundue": 25993,
    "un": 373,
    "imaux": 21710,
    "ulity": 10885,
    "Ġlucerne": 23862,
    "Ġstupid": 7604,
    "Ġrussia": 26267,
    "Ġtree": 5284,
    "dem": 10690,
    "Ġsgd": 3130,
    "Ġfind": 1455,
    "Ġluc": 3312,
    "era": 13845,
    "Ġcuring": 21342,
    "garn": 20869,
    "Ġrival": 10484,
    "Ġfascinating": 17326,
    "inst": 4297,
    "Ġi": 311,
    "useness": 22290,
    "Ġmomentum": 1601,
    "Ġrepented": 23361,
    "scr": 16239,
    "Ġdashing": 8794,
    "Ġfiddle": 25444,
    "Ġlantern": 7116,
    "Ġ95": 19772,
    "Ġbraved": 23835,
    "Ġpursue": 6314,
    "social": 11021,
    "Ġcelerity": 17434,
    "loveliness": 26548,
    "Ġextant": 18694,
    "Ġgreeks": 20011,
    "eries": 6808,
    "Ġdeceitfulness": 25734,
    "corners": 17366,
    "Ġsag": 6514,
    "Ġordained": 19443,
    "savagery": 25025,
    "Ġhalf": 1666,
    "Ġcandle": 8292,
    "olence": 10229,
    "Ġxii": 11987,
    "asserted": 22307,
    "Ġupwards": 7634,
    "arm": 1355,
    "ered": 1682,
    "Ġaveraging": 2419,
    "Ġclumsy": 9578,
    "hack": 20895,
    "opol": 12867,
    "ened": 1386,
    "absence": 12704,
    "Ġabusing": 18393,
    "ag": 377,
    "Ġsyllables": 25298,
    "Ġaccommod": 14212,
    "rential": 22917,
    "compar": 14356,
    "Ġimpressed": 8199,
    "bewil": 22497,
    "ged": 1509,
    "propriety": 14365,
    "Ġpoltroon": 26597,
    "careful": 14864,
    "fishermen": 17061,
    "Ġwhirlwinds": 20463,
    "eff": 2533,
    "Ġjib": 14192,
    "Ġstacks": 18074,
    "otent": 8830,
    "eaten": 20343,
    "Ġcharacters": 9369,
    "pool": 16205,
    "among": 6256,
    "_âĢĶâĢĻ": 13680,
    "ĠâĢĶâĢľ_": 17717,
    "Ġcurves": 18850,
    "Ġthing": 1634,
    "keenest": 25661,
    "Ġaccompanied": 6780,
    "nes": 6961,
    "Ġpursuers": 13223,
    "Ġcheetah": 14501,
    "bureau": 20788,
    "Ġ87": 19709,
    "Ġridic": 7509,
    "Ġmaggie": 26291,
    "ility": 624,
    "Ġchoked": 9262,
    "Ġswe": 2290,
    "suppose": 8644,
    "Ġwondered": 11124,
    "Ġmarvel": 23033,
    "acled": 16078,
    "Ġturbulence": 26596,
    "Ġjamming": 17263,
    "jud": 4482,
    "little": 3353,
    "thousands": 16869,
    "ressing": 8917,
    "edily": 17943,
    "Ġluff": 15649,
    "cutting": 23783,
    "Ġinhab": 5083,
    "described": 18895,
    "Ġbraces": 14668,
    "Ġreeds": 15692,
    "Ġsleeves": 10659,
    "weep": 22682,
    "tears": 11036,
    "Ġimpenet": 14218,
    "alterable": 13622,
    "Ġhinges": 15210,
    "Ġspouted": 14673,
    "Ġdownright": 16115,
    "missing": 13216,
    "Ġgaunt": 11267,
    "scotch": 25850,
    "Ġdeclaration": 16635,
    "Ġencountered": 8322,
    "Ġtranquo": 14841,
    "Ġlaughing": 5338,
    "Ġbatch": 888,
    "Ġtopmost": 14586,
    "sych": 9888,
    "Ġassent": 12729,
    "Ġnervous": 2405,
    "Ġundertaking": 8573,
    "Ġgrowth": 14628,
    "attain": 21260,
    "Ġcogn": 11001,
    "Ġcand": 3279,
    "were": 2559,
    "thumb": 18218,
    "Ġremarkable": 4915,
    "Ġdifferences": 18715,
    "Ġcall": 2075,
    "Ġdireful": 11017,
    "Ġsepulchral": 25892,
    "xology": 21140,
    "etrics": 21583,
    "Ġprimal": 17106,
    "aid": 1924,
    "cous": 8721,
    "Ġcollar": 11876,
    "Ġseaport": 20598,
    "Ġconfident": 11137,
    "son": 2327,
    "Ġalche": 21781,
    "Ġpit": 3421,
    "gling": 10096,
    "Ġproblem": 1271,
    "Ġspacious": 18312,
    "Ġpompous": 20421,
    "Ġcoffee": 6760,
    "Ġw": 272,
    "Ġcorresponding": 13436,
    "Ġsust": 7007,
    "Ġrevered": 23732,
    "lished": 8383,
    "bling": 10077,
    "bu": 5132,
    "rane": 17652,
    "Ġfangs": 12593,
    "affrail": 11204,
    "Ġcrouched": 23440,
    "escript": 18471,
    "Ġclinched": 17392,
    "Ġportly": 14677,
    "Ġturkey": 19218,
    "itiousness": 21332,
    "Ġrealities": 18981,
    "Ġlikeness": 11178,
    "Ġsuperflu": 14553,
    "arn": 358,
    "Ġparl": 8178,
    "Ġcorrected": 10447,
    "Ġangelic": 19626,
    "Ġimproving": 1211,
    "Ġwisely": 13269,
    "Ġwisdom": 11232,
    "provided": 13635,
    "Ġdeclines": 23960,
    "inting": 9812,
    "Ġnapoleons": 25885,
    "Ġcloudless": 16667,
    "Ġwalton": 14970,
    "Ġloath": 7892,
    "Ġincredulous": 9985,
    "purpose": 10042,
    "grey": 14910,
    "Ġno": 510,
    "george": 26019,
    "akness": 14193,
    "Ġarmada": 23579,
    "anche": 10787,
    "Ġreplete": 15694,
    "Ġrepul": 16407,
    "foolish": 12344,
    "Ġsmells": 8888,
    "immediately": 10047,
    "Ġay": 15489,
    "ĠĠĠĠĠĠĠĠĠĠĠĠĠĠĠĠĠĠĠĠĠĠĠĠĠĠĠĠĠĠĠĠĠĠĠĠĠĠĠĠĠĠĠĠĠĠĠĠĠĠĠĠĠ": 20038,
    "Ġgilded": 17443,
    "Ġduly": 13348,
    "Ġpagoda": 19787,
    "rent": 1172,
    "zeal": 16281,
    "avery": 13681,
    "Ġlass": 15644,
    "Ġscratching": 20367,
    "snow": 10723,
    "Ġskull": 6288,
    "resembling": 25932,
    "ille": 9218,
    "ĠâĢĻ": 3045,
    "Ġshetland": 22157,
    "drown": 13702,
    "property": 19998,
    "Ġ73": 24259,
    "Ġranging": 8478,
    "neighb": 16020,
    "residence": 19262,
    "Ġinsult": 6747,
    "eye": 6224,
    "Ġseam": 3909,
    "mare": 17598,
    "Ġuninterrupted": 22044,
    "Ġmounttop": 19976,
    "Ġdemoniacal": 20555,
    "Ġunrestingly": 20359,
    "Ġrnns": 2395,
    "Ġruin": 6056,
    "Ġwasted": 9702,
    "Ġeddies": 23436,
    "Ġcontempl": 6701,
    "Ġwestern": 10653,
    "Ġscope": 15940,
    "Ġoutstanding": 22314,
    "swept": 19785,
    "Ġbanquet": 15238,
    "Ġgasped": 11371,
    "Ġdeuteronomy": 15756,
    "definition": 23116,
    "Ġlook": 880,
    "Ġinexpress": 12631,
    "Ġrough": 7187,
    "Ġpolar": 9409,
    "buckets": 26123,
    "Ġgulp": 20027,
    "Ġproving": 15748,
    "albatross": 15626,
    "Ġdistrusting": 25053,
    "ctuous": 9204,
    "Ġanomalously": 25638,
    "Ġlanguage": 642,
    "Ġrumpled": 24601,
    "diss": 17522,
    "idy": 21762,
    "Ġ30": 10510,
    "univers": 15768,
    "misrepresented": 24210,
    "Ġintroduce": 3202,
    "postp": 24635,
    "gree": 10700,
    "loving": 18540,
    "Ġlivel": 11354,
    "Ġmantle": 25274,
    "Ġintroducing": 11972,
    "Ġwatchful": 16525,
    "sue": 2077,
    "mens": 20968,
    "antial": 8487,
    "Ġstunsail": 25543,
    "Ġonce": 1489,
    "murmured": 24454,
    "Ġpair": 5706,
    "Ġtimber": 13347,
    "Ġoccurred": 4463,
    "opposing": 24825,
    "Ġqueen": 3213,
    "Ġavast": 9918,
    "Ġmasterly": 23992,
    "Ġconceal": 5974,
    "ittle": 810,
    "Ġaghast": 16044,
    "Ġ\"": 6119,
    "covered": 11476,
    "draul": 9441,
    "baggage": 24926,
    "Ġtalents": 15043,
    "Ġdepicting": 22609,
    "Ġcomprehend": 6494,
    "rederick": 14077,
    "Ġmasterless": 23993,
    "next": 5892,
    "Ġexotic": 21829,
    "ryder": 18638,
    "end": 505,
    "acknowled": 10973,
    "Ġdesert": 6726,
    "Ġjustine": 4970,
    "Ġslave": 7454,
    "mish": 17597,
    "Ġbil": 15561,
    "stepfather": 19190,
    "hate": 20891,
    "shirt": 22456,
    "until": 6596,
    "Ġmeryton": 4439,
    "Ġcanall": 10927,
    "Ġquestionable": 19265,
    "Ġrepositories": 23363,
    "Ġhospit": 7515,
    "Ġfetch": 7770,
    "Ġwhiteness": 5919,
    "aton": 21257,
    "Ġimportance": 4900,
    "Ġcosmetic": 23470,
    "barr": 15318,
    "Ġbless": 4344,
    "Ġgoodness": 6059,
    "Ġmaster": 3680,
    "elfare": 11774,
    "Ġdodge": 19885,
    "supposing": 24134,
    "Ġhorizont": 6937,
    "Ġpetulance": 24226,
    "start": 7599,
    "Ġappetite": 12381,
    "thither": 21981,
    "Ġ43": 14768,
    "retired": 11933,
    "calmed": 16201,
    "Ġinsure": 13176,
    "Ġengraved": 17080,
    "Ġtasks": 1789,
    "Ġfoolish": 5980,
    ",âĢĶâĢľ": 10068,
    "Ġconc": 1840,
    "Ġho": 1934,
    "comput": 1975,
    "Ġincompetent": 25679,
    "whip": 22235,
    "otion": 4946,
    "Ġsuff": 1304,
    "arthly": 8030,
    "cottagers": 20046,
    "attention": 2110,
    "Ġeulogy": 26470,
    "Ġchemist": 11133,
    "support": 9468,
    "Ġaz": 9628,
    "Ġpelt": 15606,
    "vice": 15447,
    "Ġhed": 7387,
    "Ġinserted": 8356,
    "stonecraft": 24355,
    "dripping": 16904,
    "¨": 106,
    "alvan": 21502,
    "Ġdint": 15587,
    "Ġmeditate": 16681,
    "Ġsperm": 1841,
    "Ġ156": 20169,
    "Ġbreast": 8967,
    "Ġaffront": 18786,
    "Ġbuying": 23994,
    "Ġruth": 14091,
    "Ġcatastrophe": 10482,
    "Ġtrucks": 19511,
    "Ġankles": 17899,
    "reed": 6373,
    "Ġcomfortable": 6095,
    "Ġze": 8545,
    "Ġbreathing": 9443,
    "ĠcÃ¦": 15551,
    "Ġkirwin": 8496,
    "humorously": 24018,
    "Ġpour": 13912,
    "ouching": 13175,
    ",)": 9099,
    "Ġexpans": 18620,
    "Ġfoolscap": 24157,
    "Ġinnocently": 24026,
    "Ġelaborate": 18636,
    "absent": 21788,
    "oded": 11667,
    "Ġbalancing": 2431,
    "occupation": 15057,
    "Ġstig": 14000,
    "covering": 15332,
    "ivia": 22074,
    "Ġnick": 21521,
    "Ġthen": 667,
    "Ġaided": 17744,
    "drawers": 19384,
    "Ġany": 688,
    "Ġblot": 9810,
    "atic": 4019,
    "Ġquies": 18464,
    "tan": 4741,
    "Ġinsurgents": 26599,
    "blades": 24130,
    "ifferent": 4265,
    "Ġvines": 12747,
    "Ġinward": 11605,
    "istical": 8489,
    "Ġsoc": 3525,
    "Ġtempestuous": 20069,
    "Ġnor": 1552,
    "Ġmiserable": 3634,
    "Ġstudied": 11114,
    "umbered": 22115,
    "Ġretreat": 6070,
    "Ġforgot": 4683,
    "injured": 15130,
    "Ġinconstant": 21494,
    "erial": 4631,
    "Ġpumping": 25643,
    "red": 397,
    "Ġinteraction": 7424,
    "Ġ[\"": 19929,
    "body": 2307,
    "Ġofficers": 4427,
    "Ġsou": 1887,
    "Ġrigid": 16715,
    "befriend": 22491,
    "Ġstoner": 7178,
    "oro": 21393,
    "Ġmerchant": 6467,
    "Ġsolve": 4198,
    "Ġunintellig": 22024,
    "Ġprofessional": 7299,
    "Ġferocious": 17417,
    "Ġpainful": 6462,
    "Ġapothecary": 13657,
    "unpardonable": 21888,
    "dislike": 23494,
    "Ġriver": 5411,
    "Ġcalifornian": 25851,
    "wol": 21121,
    "Ġinvulnerable": 19146,
    "Ġmonument": 16234,
    "Ġinvestigated": 25386,
    "idated": 11659,
    "Ġarrested": 9559,
    "Ġvisible": 4776,
    "99": 1896,
    "onial": 11565,
    "torm": 11529,
    "Ġclosely": 6488,
    "Ġthundering": 24290,
    "Ġirreduc": 5491,
    "Ġlive": 2735,
    "Ġorb": 22089,
    "bingley": 4927,
    "Ġaddressing": 11163,
    "Ġstarry": 16922,
    "Ġpertaining": 18451,
    "Ġuntil": 2668,
    "iastic": 12476,
    "giana": 7801,
    "Ġjar": 15947,
    "Ġredeem": 20498,
    "accountable": 7109,
    "uneasiness": 23685,
    "Ġkidn": 20204,
    "skull": 24487,
    "side": 2301,
    "inal": 15478,
    "allied": 7410,
    "Ġgib": 13963,
    "Ġhumble": 8551,
    "Ġdistances": 22502,
    "Ġmaybe": 12945,
    "Ġdelightfully": 13156,
    "Ġanimated": 7702,
    "different": 6501,
    "Ġrashness": 25460,
    "Ġeasy": 3452,
    "Ġschedule": 2369,
    "Ġ131": 24782,
    "rawling": 21634,
    "Ġmisfortunes": 7041,
    "Ġenjoined": 18191,
    "Ġperforms": 11874,
    "Ġapparatus": 24908,
    "sole": 6168,
    "Ġjohnson": 18409,
    "sincere": 16906,
    "rell": 11562,
    "adel": 15725,
    "Ġlearnable": 3998,
    "punctual": 26355,
    "Ġdomineer": 23658,
    "Ġfamed": 16324,
    "Ġamusing": 11797,
    "upright": 23014,
    "Ġhimmale": 18334,
    "romang": 22003,
    "reduced": 15802,
    "affections": 17355,
    "concluding": 19479,
    "Ġrecol": 4030,
    "Ġhuff": 21488,
    "iries": 18169,
    "Ġobjections": 8564,
    "Ġlaurel": 20653,
    "Ġquarrels": 16565,
    "bing": 7792,
    "Ġceremonies": 24836,
    "concern": 5875,
    "Ġdinners": 23979,
    "Ġalfred": 21784,
    "bourine": 9394,
    "Ġmutineer": 19416,
    "Ġres": 696,
    "deserving": 17240,
    "Ġportable": 19368,
    "Ġdownward": 10330,
    "Ġpresently": 5116,
    "Ġfoe": 7681,
    "Ġflattered": 10373,
    "bearings": 25371,
    "Ġchuckled": 10646,
    "Ġkuiperai": 10934,
    "ology": 1608,
    "bons": 17485,
    "Ġincessantly": 11410,
    "cent": 8073,
    "consolation": 15150,
    "Ġexecutioner": 12268,
    "Ġinstructions": 11195,
    "Ġ1828": 25720,
    "Ġmerely": 3770,
    "Ġhag": 12621,
    "Ġpulverize": 23391,
    "Ġawaken": 23585,
    "Ġwhine": 21713,
    "prises": 23811,
    "Ġnominal": 15166,
    "je": 11494,
    "Ġbarbar": 6935,
    "Ġcard": 7363,
    "Ġethiopian": 26612,
    "Ġebony": 18008,
    "Ġballs": 9013,
    "confirmed": 19644,
    "Ġunprovided": 18260,
    "escaped": 14229,
    "izz": 7613,
    "ront": 15416,
    "Ġgovernments": 20266,
    "Ġfreemason": 23208,
    "ylon": 24977,
    "Ġhawsers": 26501,
    "Ġsucc": 12782,
    "Ġmadness": 6601,
    "unicorn": 21887,
    "Ġplantation": 11422,
    "Ġcolt": 11043,
    "Ġshrugged": 12765,
    "aling": 1036,
    "Ġsing": 3074,
    "Ġshakespeare": 20306,
    "miniature": 16764,
    "Ġverily": 16602,
    "Ġathe": 17740,
    "Ġicebergs": 23972,
    "abated": 14018,
    "Ġfle": 3091,
    "Ġconfess": 3766,
    "Ġhalts": 3158,
    "Ġinteractions": 12899,
    "Ġacquaintance": 4135,
    "Ġwhalers": 8048,
    "string": 15681,
    "Ġendeared": 26497,
    "Ġthinnest": 24182,
    "crat": 24097,
    "ina": 21178,
    "Ġsupposed": 4558,
    "Ġone": 570,
    "Ġlay": 584,
    "share": 14235,
    "Ġprone": 18969,
    "Ġyell": 21775,
    "Ġisolated": 13557,
    "Ġinsane": 19268,
    "Ġarriving": 19216,
    "arse": 7160,
    "Ġofficial": 7081,
    "Ġgrammar": 1062,
    "Ġpantheistic": 26335,
    "Ġdefect": 8554,
    "Ġimportant": 1061,
    "Ġbank": 4877,
    "pton": 15788,
    "modern": 1121,
    "Ġdrug": 11409,
    "few": 8203,
    "amplified": 26493,
    "behold": 12874,
    "Ġslumber": 13056,
    "Ġinterrupt": 4361,
    "Ġpalm": 10512,
    "entimes": 12652,
    "Ġaspire": 21898,
    "successful": 11357,
    "Ġunlocking": 20705,
    "ĠâĢľ": 516,
    "Ġstoried": 18072,
    "Ġhummed": 18776,
    "dissatisf": 26129,
    "tete": 10731,
    "awful": 23113,
    "Ġtechnique": 2483,
    "illed": 2626,
    "delighted": 10561,
    "Ġhero": 5715,
    "Ġworshipped": 25691,
    "abbering": 21794,
    "Ġdemi": 25548,
    "eds": 6674,
    "Ġshutting": 14758,
    "Ġreceives": 20353,
    "Ġsickle": 24244,
    "contempt": 13188,
    "engines": 18927,
    "Ġsmiles": 6706,
    "covery": 11170,
    "Ġchronic": 9927,
    "iguous": 18043,
    "othic": 16213,
    "Ġwhether": 2003,
    "captain": 3957,
    "Ġsavi": 18325,
    "Ġbru": 13893,
    "..": 5783,
    "superior": 9523,
    "ulating": 10886,
    "Ġpenetrating": 17010,
    "Ġdaw": 21428,
    "Ġrelent": 18773,
    "existence": 16011,
    "Ġcheshire": 13087,
    "Ġsignificant": 8633,
    "Ġallusion": 7626,
    "Ġdisappointment": 6626,
    "wid": 10133,
    "measure": 10029,
    "Ġcrystals": 20226,
    "entropy": 1436,
    "Ġtolerably": 8068,
    "Ġsplin": 8618,
    "hon": 6793,
    "robotics": 11305,
    "Ġounce": 15270,
    "Ġpours": 17909,
    "Ġreminding": 19796,
    "inlaid": 21189,
    "critical": 19502,
    "vitality": 20477,
    "Ġwheel": 9716,
    "Ġdestiny": 8982,
    "Ġgould": 17989,
    "purp": 8091,
    "comra": 16167,
    "ys": 3963,
    "Ġinno": 1456,
    "Ġcasualty": 20340,
    "Ġthursday": 12640,
    "Ġsur": 2180,
    "Ġcherished": 10589,
    "Ġinducements": 24967,
    "Ġacute": 16120,
    "hauteur": 26390,
    "Ġcocain": 18596,
    "endeavour": 17030,
    "Ġtying": 15471,
    "Ġridiculous": 10628,
    "Ġtrait": 23073,
    "Ġreadiness": 13046,
    "Ġappre": 5165,
    "Ġwaylaid": 22871,
    "Ġfed": 5529,
    "Ġemerged": 8684,
    "sculptured": 26046,
    "Ġgrowl": 16536,
    "Ġdeposited": 25484,
    "Ġhues": 21487,
    "Ġoutfits": 22319,
    "Ġvisage": 18770,
    "wra": 11540,
    "Ġjewell": 19519,
    "nelson": 25620,
    "Ġtrifles": 16950,
    "Ġclearness": 23181,
    "Ġunimaginable": 15244,
    "atiate": 12544,
    "Ġmiss": 1229,
    "Ġhenceforth": 19646,
    "powerful": 24847,
    "Ġduncan": 13459,
    "wedding": 13369,
    "Ġprofundity": 20451,
    "Ġassu": 21895,
    "guarded": 13292,
    "itters": 10780,
    "Ġbrittle": 22862,
    "Ġfurniture": 6476,
    "Ġenforced": 21936,
    "Ġirritation": 20265,
    "ash": 1994,
    "Ġoccasional": 7289,
    "Ġendowed": 18924,
    "Ġflorid": 17134,
    "allowing": 24357,
    "Ġdesolation": 12265,
    "Ġbulldog": 23857,
    "vac": 15448,
    "Ġpraises": 16729,
    "ott": 1873,
    "Ġblessings": 24175,
    "Ġprecise": 7075,
    "please": 8177,
    "times": 8099,
    "words": 7983,
    "Ġcra": 2330,
    "Ġmechanis": 1207,
    "Ġunappalled": 22063,
    "Ġlistener": 16473,
    "Ġcorporeally": 25729,
    "Ġzealand": 12347,
    "Ġuncivilized": 25498,
    "Ġcombinations": 22851,
    "Ġhumane": 11881,
    "ari": 676,
    "Ġrazor": 22652,
    "ython": 1030,
    "ap": 546,
    "Ġwol": 15527,
    "sailors": 9920,
    "avenza": 17103,
    "Ġwilliam": 3483,
    "Ġtroubled": 6615,
    "Ġthought": 1090,
    "Ġgoverness": 8601,
    "bottle": 20144,
    "ps": 4574,
    "considerably": 13443,
    "atived": 21261,
    "Ġassailants": 20447,
    "shad": 10981,
    "Ġrushes": 20506,
    "ivot": 11715,
    "mates": 5073,
    "unbounded": 21883,
    "Ġembarkation": 25123,
    "Ġimpress": 6862,
    "Ġstowed": 21734,
    "ralian": 19599,
    "Ġimp": 576,
    "Ġter": 2052,
    "Ġslew": 23381,
    "Ġgnashed": 20131,
    "acles": 8519,
    "alling": 6037,
    "centred": 25017,
    "myst": 9820,
    "ilt": 2969,
    "Ġweeks": 4565,
    "Ġthro": 5817,
    "Ġashore": 5351,
    "cherish": 24551,
    "Ġenigmatical": 20596,
    "remained": 8569,
    "Ġru": 948,
    "youngest": 19742,
    "Ġfris": 23255,
    "reader": 23844,
    "Ġreplen": 11113,
    "tale": 10126,
    "Ġacquit": 18897,
    "Ġshaking": 6551,
    ";âĢĿ": 7791,
    "Ġsculpt": 15943,
    "abilizing": 2925,
    "table": 5795,
    "rosc": 17954,
    "Ġcommunity": 19008,
    "Ġgunwale": 7325,
    "visits": 24222,
    "Ġhateful": 19712,
    "Ġblushed": 12998,
    "Ġdecoding": 3082,
    "Ġomniscient": 20084,
    "Ġcross": 1373,
    "Ġbe": 336,
    "Ġgoal": 10300,
    "ster": 1960,
    "reading": 12076,
    "tree": 11532,
    "impossible": 8822,
    "Ġlegs": 4916,
    "tting": 17679,
    "Ġberth": 8679,
    "Ġdeserves": 13287,
    "Ġcapricious": 20537,
    "Ġties": 12523,
    "Ġcuba": 25095,
    "Ġburial": 16519,
    "Ġshun": 11706,
    "Ġridge": 14817,
    "borough": 20784,
    "Ġhands": 1658,
    "Ġsteadily": 8052,
    "achus": 18283,
    "lp": 897,
    "Ġduration": 20352,
    "Ġnewfound": 22930,
    "Ġregretted": 13398,
    "very": 498,
    "explanation": 12355,
    "Ġzoology": 22819,
    "agos": 21902,
    "Ġthanking": 18602,
    "Ġantip": 24176,
    "Ġsav": 3358,
    "Ġfrogs": 23920,
    "ilies": 18056,
    "separ": 9229,
    "antic": 1604,
    "Ġfel": 1514,
    "Ġcaucus": 17378,
    "Ġfondly": 19615,
    "Ġabsent": 7014,
    "repe": 8775,
    "Ġvoices": 7877,
    "Ġoh": 2173,
    "separation": 25226,
    "ence": 393,
    "Ġdistinguishing": 16494,
    "company": 9459,
    "Ġflower": 16229,
    "Ġlvi": 21551,
    "duchess": 18463,
    "Ġastronomy": 25926,
    "response": 25762,
    "Ġswiftness": 9925,
    "Ġrevolve": 19728,
    "Ġimpenetrable": 17395,
    "bs": 3749,
    "Ġtolland": 24990,
    "Ġstroke": 6936,
    "Ġstraining": 11326,
    "Ġvig": 5460,
    "Ġpilgrimage": 17306,
    "Ġvanishing": 1343,
    "Ġcomforts": 14692,
    "ause": 1313,
    "Ġcalculated": 4476,
    "okes": 9275,
    "Ġwelfare": 12555,
    "ic": 304,
    "Ġware": 12550,
    "Ġstockings": 19995,
    "Ġdecreas": 1643,
    "Ġeddystone": 25709,
    "Ġbat": 10794,
    "Ġroy": 4230,
    "Ġreach": 4048,
    "Ġhollowly": 24525,
    "specimen": 26604,
    "mor": 4217,
    "are": 638,
    "Ġjabez": 11763,
    "solute": 16597,
    "Ġalexander": 17422,
    "lads": 20954,
    "Ġalex": 15131,
    "needles": 20310,
    "punishment": 15143,
    "Ġdecently": 22440,
    "Ġlulled": 17968,
    "Ġ19": 6719,
    "Ġlower": 2663,
    "Ġcadiz": 17323,
    "Ġmortified": 14693,
    "Ġintention": 5638,
    "Ġforbidden": 17077,
    "mystic": 25316,
    "Ġspinal": 12299,
    "Ġplatonian": 25118,
    "Ġglare": 13009,
    "bone": 5611,
    "vii": 13146,
    "Ġirish": 14533,
    "Ġspouts": 7730,
    "Ġtist": 21161,
    "Ġpromote": 23190,
    "Ġsolitary": 5854,
    "Ġanne": 1527,
    "https": 11681,
    "Ġmutual": 8296,
    "Ġmonica": 22976,
    "prev": 12863,
    "enance": 3372,
    "Ġ130": 24781,
    "sey": 5542,
    "Ġunrival": 22045,
    "Ġinferences": 17934,
    "Ġregularizer": 2337,
    "similar": 13451,
    "Ġdiscriminative": 4329,
    "Ħ": 231,
    "Ġcrushed": 9421,
    "Ġthin": 4349,
    "Ġprince": 18972,
    "Ġshipmate": 8926,
    "atha": 6572,
    "Ġtransmit": 10303,
    "Ġindia": 10369,
    "icity": 2538,
    "Ġstretching": 10013,
    "Ġunlike": 7004,
    "Ġassociated": 12246,
    "Ġbitten": 21388,
    "70": 17474,
    "Ġportrait": 10660,
    "Ġnumber": 1984,
    "mount": 9128,
    "valued": 2853,
    "riminately": 16481,
    "ur": 325,
    "pin": 13765,
    "Ġthreshold": 2809,
    "Ġhabitation": 14801,
    "Ġjealousy": 13574,
    "lab": 3457,
    "Ġpersuading": 19408,
    "destroy": 19509,
    "Ġagents": 9764,
    "mis": 4521,
    "Ġjago": 22297,
    "ene": 2166,
    "Ġwidow": 8662,
    "Ġadorn": 12786,
    "Ġuneasy": 8661,
    "Ġincl": 4273,
    "Ġresulting": 24197,
    "abound": 15736,
    "educ": 10827,
    "Ġconnections": 973,
    "Ġhypothesis": 14780,
    "Ġscra": 5840,
    "Ġharem": 9707,
    "Ġadversity": 24302,
    "Ġreverber": 19868,
    "Ġdying": 2135,
    "Ġlurking": 11288,
    "Ġmorrow": 9340,
    "delightful": 12193,
    "Ġpausing": 8652,
    "Ġleaned": 7608,
    "======================================================================": 10066,
    "Ġhired": 10176,
    "Ġtenants": 23545,
    "Ġjobs": 24832,
    "Ġcoun": 4179,
    "colour": 9901,
    "inordinate": 21193,
    "Ġanx": 3179,
    "71": 20755,
    "ately": 1684,
    "Ġforemost": 12001,
    "sect": 8153,
    "heartily": 24214,
    "luding": 6700,
    "Ġ----": 7145,
    "Ġemploy": 3614,
    "le": 279,
    "Ġgreeting": 18963,
    "retaining": 21244,
    "Ġpredictions": 1453,
    "Ġrug": 16154,
    "bra": 6219,
    "Ġfortunes": 12175,
    "Ġrelieved": 7667,
    "T": 56,
    "Ġcharge": 5324,
    "Ġskirt": 18729,
    "Ġfalsehood": 10522,
    "Ġgrin": 5482,
    "Ġh": 290,
    "oning": 7573,
    "Ġrecovering": 11857,
    "umerable": 11722,
    "Ġag": 684,
    "Ġsepulch": 15282,
    "lo": 682,
    "Ġ112": 24436,
    "oc": 2835,
    "Ġriot": 14687,
    "inridge": 11559,
    "Ġstray": 18069,
    "Ġtowed": 11264,
    "axen": 22519,
    "Ġsafie": 6617,
    "py": 17623,
    "scho": 8759,
    "Ġstoutly": 16923,
    "Ġtufted": 17013,
    "Ġexquisite": 12379,
    "hig": 12471,
    "Ġfurnished": 6475,
    "Ġorganization": 7984,
    "mons": 17599,
    "Ġreluctant": 20523,
    "farewell": 12303,
    "outward": 22158,
    "aug": 1213,
    "Ġcoolly": 9770,
    "Ġintricacies": 15136,
    "Ġanalogy": 25639,
    "Ġweep": 7620,
    "especially": 3572,
    "Ġlatterly": 24084,
    "Ġclapping": 14205,
    "Ġtour": 9146,
    "Ġpeels": 22689,
    "eastern": 17532,
    "ptic": 21916,
    "Ġic": 9624,
    "search": 8464,
    "Ġshoals": 13131,
    "latitudes": 17195,
    "Ġindistinct": 17406,
    "Ġwick": 2008,
    "unting": 21872,
    "Ġscal": 1539,
    "Ġheeds": 24519,
    "canonical": 22961,
    "Ġgreat": 895,
    "aped": 3763,
    "Ġbabes": 24424,
    "Ġtul": 21158,
    "Ġinstead": 2788,
    "Ġrecompense": 14836,
    "Ġabruptly": 15148,
    "Ġaffability": 14385,
    "Ġphilipses": 24451,
    "Ġchas": 18379,
    "Ġstudies": 7956,
    "Ġstaple": 26198,
    "Ġpolitics": 19223,
    "questions": 16759,
    "anke": 15557,
    "plied": 10253,
    "command": 6576,
    "âĢĶâĢľ_": 13202,
    "Ġantagonist": 26328,
    "istically": 14142,
    "Ġinstant": 2703,
    "Ġdisturbing": 19944,
    "moon": 10334,
    "Ġdeformity": 11674,
    "esu": 17918,
    "clair": 18932,
    "Ġonto": 14029,
    "Ġmagnanim": 14470,
    "istered": 14143,
    "Ġunwell": 22015,
    "Ġjoes": 19229,
    "intellect": 18822,
    "Ġmechanically": 14396,
    "Ġdrawing": 3920,
    "Ġstraightway": 9015,
    "isms": 12576,
    "uracy": 1123,
    "Ġwould": 651,
    "Ġdrifted": 14624,
    "Ġwight": 12549,
    "Ġrepro": 7275,
    "Ġleak": 2158,
    "Ġdependency": 3488,
    "Ġpurchased": 12257,
    "castle": 3351,
    "ram": 13970,
    "Ġpivot": 13921,
    "Ġdespondency": 16576,
    "treacle": 25148,
    "Ġtattoo": 7359,
    "Ġfif": 4219,
    "Ġelbow": 12917,
    "walks": 19720,
    "ger": 1102,
    "fiend": 13659,
    "ours": 3428,
    "Ġpresented": 5183,
    "Ġrescued": 24205,
    "Ġlaws": 8003,
    "Ġfrancis": 26063,
    "hill": 15360,
    "Ġdipping": 15588,
    "Ġamours": 22479,
    "Ġdid": 834,
    "Ġble": 5223,
    "Ġhunting": 7259,
    "Ġeldest": 6571,
    "Ġtriumph": 5143,
    "Ġcanst": 8856,
    "Ġgardiners": 11156,
    "cal": 1117,
    "Ġfatally": 19392,
    "Ġringbolts": 24195,
    "inferiors": 25346,
    "Ġmitigating": 1616,
    "fthand": 26385,
    "Ġshuddering": 9050,
    "Ġdrily": 23538,
    "application": 12360,
    "Ġcautious": 12250,
    "plutarch": 21955,
    "Ġzer": 1091,
    "Ġnow": 692,
    "Ġneighbor": 25805,
    "Ġflapp": 23006,
    "Ġcommunicating": 16888,
    "Ġimpute": 18331,
    "afraid": 10440,
    "Ġcaliforn": 14429,
    "Ġtransformed": 22604,
    "officer": 17053,
    "Ġwish": 2098,
    "Ġlivid": 14987,
    "Ġcampaign": 20660,
    "ias": 6362,
    "unken": 10235,
    "oup": 2017,
    "removed": 15514,
    "Ġrambles": 17183,
    "Ġfabric": 25947,
    "Ġgrim": 7439,
    "Ġprinted": 11946,
    "Ġcrab": 13142,
    "specific": 10496,
    "Ġthreat": 5154,
    "generative": 4332,
    "Ġjeopardized": 20229,
    "Ġscrews": 25177,
    "Ġcaution": 11345,
    "adventurous": 25361,
    "Ġmotionless": 8324,
    "blo": 6353,
    "whaleman": 23434,
    "Ġbehaviors": 13252,
    "Ä": 133,
    "decl": 8855,
    "Ġgrapp": 14099,
    "Ġlizzie": 26461,
    "Ġjacobians": 2894,
    "vib": 21114,
    "carefully": 13366,
    "Ġcage": 17825,
    "expound": 23662,
    "Ġignor": 4014,
    "Ġoftentimes": 20154,
    "article": 22390,
    "elements": 25203,
    "Ġexhaust": 6399,
    "oms": 4593,
    "natured": 7110,
    "Ġdefiance": 11067,
    "Ġintend": 12760,
    "ham": 1701,
    "copy": 5133,
    "Ġguessed": 11281,
    "Ġexercising": 19906,
    "oftentimes": 19419,
    "indignation": 18438,
    "Ġbordered": 24562,
    "necess": 4896,
    "Ġtrepidation": 19214,
    "Ġdetached": 10278,
    "warp": 17705,
    "Ġaboriginal": 14187,
    "Ġmasts": 6465,
    "mediterranean": 16400,
    "Ġchemical": 10409,
    "Ġpan": 5082,
    "Ġjollity": 25566,
    "Ġdoing": 3660,
    "Ġcontemptuously": 19832,
    "Ġunderneath": 16335,
    "prehensible": 12357,
    "================================================================": 9988,
    "Ġpreser": 6041,
    "Ġstrong": 1788,
    "Ġstarboard": 7605,
    "Ġberkshire": 16883,
    "firm": 10697,
    "Ġfinest": 10390,
    "gloomy": 25144,
    "ria": 15795,
    "Ġrallied": 14093,
    "Ġmun": 12558,
    "madly": 24419,
    "Ġcapacity": 10439,
    "ipagos": 22364,
    "ommod": 13979,
    "uctive": 17695,
    "Ġful": 4299,
    "Ġmau": 21309,
    "Ě": 219,
    "Ġostent": 13582,
    "Ġstatement": 5254,
    "cho": 2760,
    "Ġpill": 7846,
    "Ġahead": 6662,
    "Ġfeat": 10936,
    "Ġextraordinary": 5414,
    "al": 292,
    "Ġgle": 7859,
    "professor": 17248,
    "Ġecl": 18005,
    "giving": 8738,
    "Ġcoils": 9301,
    "replied": 11564,
    "whisper": 17082,
    "Ġsweat": 13138,
    "Ġgardens": 16451,
    "Ġshouldn": 14323,
    "eleg": 20848,
    "Ġwar": 5526,
    "Ġtables": 9876,
    "ghost": 20886,
    "Ġundulations": 19514,
    "ration": 2007,
    "Ġab": 528,
    "derbyshire": 18321,
    "L": 48,
    "faces": 13718,
    "ibility": 2391,
    "Ġfearfulness": 23512,
    "Ġslaugh": 18937,
    "idered": 4553,
    "Ġcad": 12564,
    "fits": 13716,
    "Ġtro": 7356,
    "fights": 20864,
    "tell": 1379,
    "Ġshrivelled": 19702,
    "ters": 1575,
    "Ġlonging": 14298,
    "Ġcommenced": 8531,
    "Ġdebt": 12164,
    "Ġsmiled": 5941,
    "Ġhandles": 22693,
    "Ġaval": 15491,
    "dropout": 3194,
    "card": 11474,
    "Ġgaily": 16747,
    "weaving": 18666,
    "iz": 363,
    "Ġed": 2142,
    "Ġdurst": 20351,
    "Ġoverpowering": 15247,
    "Ġjumping": 13339,
    "Ġharm": 5017,
    "velope": 17700,
    "Ġgpus": 3730,
    "Ġpistols": 17327,
    "dz": 4738,
    "canst": 22959,
    "Ġsurpasses": 25268,
    "Ġvenom": 24237,
    "Ġexperiences": 13026,
    "Ġslugg": 15266,
    "shutters": 20312,
    "Ġdissatisfied": 14255,
    "Ġsturgeon": 20590,
    "Ġplains": 14622,
    "skirted": 24488,
    "Ġprophesied": 26062,
    "Ġdamn": 11157,
    "Ġburglar": 17353,
    "Ġmoses": 21314,
    "Ġoverlooking": 22345,
    "answ": 15881,
    "Ġpurchasing": 19874,
    "Ġturned": 2132,
    "Ġbecause": 2210,
    "ioning": 21507,
    "fugitive": 26131,
    "Ġsuperhuman": 23452,
    "chosen": 21693,
    "Ġbenefit": 8293,
    "Ġcreaking": 14325,
    "Ġcleansed": 26293,
    "struck": 7863,
    "Ġrun": 2353,
    "Ġploughing": 26259,
    "Ġbermud": 26438,
    "arpening": 21442,
    "Ġdoubloon": 6945,
    "Ġthread": 14538,
    "Ġoverladen": 22350,
    "gay": 11487,
    "Ġlandscape": 12414,
    "Ġembarrassment": 10625,
    "Ġblackest": 19098,
    "ascal": 10191,
    "gu": 3960,
    "mit": 4933,
    "Ġlooks": 4168,
    "Ġobviously": 16809,
    "putting": 14098,
    "Ġrecl": 16133,
    "Ġpantaloons": 20295,
    "Ġthemselves": 3252,
    "Ġpounds": 5368,
    "anter": 9165,
    "exerc": 16012,
    "mble": 1408,
    "piling": 15413,
    "cement": 2803,
    "====": 1479,
    "Ġcompanies": 14556,
    "rusion": 11322,
    "Ġtraveller": 8049,
    "Ġshoreless": 24294,
    "Ġseized": 4833,
    "<UNK>": 3,
    "Ġdiverted": 14591,
    "susceptible": 24661,
    "tons": 7560,
    "Ġinexorable": 12252,
    "ougher": 18282,
    "Ġnothing": 1359,
    "Ġincant": 18568,
    "lengthwise": 19948,
    "network": 1933,
    "Ġbliss": 12997,
    "Ġslavish": 23171,
    "Ġc": 277,
    "sharks": 14238,
    "Ġplead": 14453,
    "castles": 14635,
    "Ġaunts": 21199,
    "quired": 21853,
    "Ġdiminished": 16664,
    "û": 188,
    "rically": 15415,
    "medical": 23340,
    "Ġsweetest": 13244,
    "Ġoozy": 21325,
    "Ġcharles": 11954,
    "Ġfac": 6381,
    "ripp": 6405,
    "omp": 2470,
    "gre": 5788,
    "perquis": 22188,
    "mysteries": 26050,
    "Ġerr": 1321,
    "keepers": 16658,
    "immortal": 21708,
    "Ġkills": 15903,
    "march": 13753,
    "ensing": 12892,
    "Ġslopes": 18940,
    "Ġspool": 24806,
    "Ġsinews": 20286,
    "Ġprospect": 4705,
    "Ġbitter": 4175,
    "native": 17611,
    "Ġaltitude": 26202,
    "Ġpunctil": 20112,
    "Ġdepartment": 24240,
    "Ġtransformations": 3485,
    "Ġknight": 9725,
    "Ġbraz": 19356,
    "transp": 24508,
    "Ġgout": 21594,
    "meal": 22710,
    "itative": 13868,
    "ounds": 4159,
    "Ġenveloped": 12205,
    "Ġunit": 1847,
    "Ġfocused": 16338,
    "Ġformer": 3324,
    "Ġquivering": 12854,
    "_:": 17477,
    "insisted": 23066,
    "ainty": 21785,
    "Ġglorious": 11074,
    "Ġhonor": 5664,
    "lacings": 26134,
    "mayhew": 23990,
    "Ġbus": 1905,
    "money": 8749,
    "Ġrossum": 3015,
    "erxes": 21274,
    "Ġelucidated": 26029,
    "Ġgrind": 18735,
    "Ġoper": 2120,
    "measureless": 20234,
    "Ġ123": 24467,
    "Ġrevolut": 3258,
    "Ġsurmisings": 26592,
    "Ġslope": 14458,
    "delay": 16697,
    "Ġgiddy": 20495,
    "arded": 5029,
    "whel": 7666,
    "Ġworst": 7444,
    "ckinridge": 11716,
    "tap": 17675,
    "Ġchival": 14181,
    "Ġpepper": 9779,
    "virt": 15449,
    "Ġdusty": 14923,
    "Ġsake": 4095,
    "Ġtre": 2535,
    "Ġcommunion": 19007,
    "Ġcultivated": 17362,
    "effort": 19213,
    "Ġscolding": 15198,
    "apsed": 6295,
    "dry": 13701,
    "Ġmode": 8499,
    "icient": 775,
    "Ġjourneys": 19473,
    "Ġtingling": 15090,
    "Ġgodlike": 23356,
    "protection": 19919,
    "Ġglit": 8558,
    "ography": 13360,
    "goose": 19101,
    "impotence": 23760,
    "Ġconceited": 12087,
    "Ġasph": 21896,
    "attoo": 6807,
    "Ġasserted": 16948,
    "Ġcombination": 22849,
    "Ġfishe": 15582,
    "ditch": 17527,
    "Ġbachelors": 24860,
    "stige": 21653,
    "began": 6426,
    "Ġhesitated": 10000,
    "Ġcure": 21338,
    "Ġsage": 17751,
    "timidity": 25753,
    "._)": 10479,
    "connection": 18867,
    "Ġbriefly": 11366,
    "Ġtwice": 4661,
    "Ġinstances": 5567,
    "Ġfloundering": 16247,
    "Ġcocoa": 25482,
    "Ġintegration": 9866,
    "ars": 904,
    "Ġhelped": 7459,
    "Ġshaster": 21996,
    "Ġcosmopolitan": 20640,
    "Ġproductions": 22944,
    "Ġhopes": 4235,
    "row": 1066,
    "Ġawoke": 7286,
    "Ġmalady": 24391,
    "bil": 20770,
    "Ġevents": 4473,
    "Ġinfirm": 19017,
    "Ġuncork": 23428,
    "pagan": 17284,
    "Ġhint": 5016,
    "stories": 18020,
    "Ġdistribution": 2021,
    "idity": 8829,
    "epilogue": 22104,
    "Ġtortured": 14922,
    "otle": 21795,
    "jee": 17578,
    "Ġelsewhere": 7713,
    "Ġhanover": 20584,
    "idav": 18092,
    "peddling": 24696,
    "Ġremembrance": 8318,
    "Ġaround": 3610,
    "Ġcontain": 1553,
    "Ġglens": 18847,
    "Ġfinds": 6299,
    "Ġunconditional": 15841,
    "Ġannual": 14830,
    "Ġsharing": 3476,
    "versed": 9823,
    "noon": 5037,
    "Ġdisconsolate": 20718,
    "header": 11930,
    "Ġsalted": 14755,
    "anch": 15556,
    "Ġchis": 11747,
    "person": 7746,
    "Ġwinc": 9641,
    "Ġast": 2962,
    "form": 493,
    "Ġgene": 15668,
    "specul": 23940,
    "yours": 7696,
    "Ġunho": 18245,
    "Ġquant": 6424,
    "Ġorganizations": 12311,
    "icate": 9200,
    "Ġsunset": 8961,
    "ledyard": 22389,
    "comes": 5394,
    "confusion": 13367,
    "lot": 3206,
    "Ġmales": 17805,
    "Ġundivided": 24120,
    "Ġrheum": 18214,
    "old": 800,
    "Ġsof": 18276,
    "ĠĠĠĠĠĠĠĠĠĠĠĠĠĠĠĠĠĠĠĠĠĠĠĠĠĠĠĠĠĠĠĠĠĠĠ": 19257,
    "Ġforenoon": 19126,
    "extrem": 18699,
    "Ġobserved": 3541,
    "Ġinsisted": 12043,
    "Ġtumbling": 13824,
    "condite": 23244,
    "stone": 5089,
    "Ġoust": 21322,
    "ersed": 10258,
    "iably": 13736,
    "Ġacquaintances": 17348,
    "Ġpeddling": 24799,
    "elius": 13285,
    "Ġgayer": 24497,
    "Ġscand": 7203,
    "Ġend": 1482,
    "Ġmust": 843,
    "Ġforty": 5719,
    "Ġhowever": 1305,
    "Ġorder": 1685,
    "itic": 11576,
    "Ġolfactories": 26171,
    "Ġrare": 7037,
    "Ġreplenished": 13634,
    "ieve": 1654,
    "Ġadvis": 9808,
    "Ġwallowed": 24040,
    "Ġstraighten": 24002,
    "Ġbeckoning": 20500,
    "Ġrepeated": 3831,
    "touch": 8392,
    "prevented": 20372,
    "Ġforeshadowing": 26591,
    "ang": 444,
    "Ġmachinations": 25767,
    "occup": 7753,
    "splice": 17169,
    "dogs": 25402,
    "delirious": 19504,
    "Ġspade": 9257,
    "Ġperfectly": 3699,
    "Ġlim": 2380,
    "atical": 10770,
    "Ġveins": 8931,
    "Ġpartake": 18670,
    "Ġ1807": 26083,
    "Ġlearning": 388,
    "moby": 8536,
    "Ġindications": 14631,
    "Ġrh": 9242,
    "bank": 10078,
    "Ġentry": 11024,
    "higher": 20405,
    "Ġinsurance": 23680,
    "Ġlab": 1872,
    "short": 6566,
    "yden": 21142,
    "acceler": 23597,
    "regularization": 3515,
    "uncont": 15770,
    "ilated": 18057,
    "alice": 3207,
    "mitting": 17601,
    "rength": 4104,
    "Ġselfishness": 12286,
    "Ġloungers": 24862,
    "mercenary": 26315,
    "Ġmartin": 25436,
    "roded": 17955,
    "Ġscience": 1542,
    "jet": 13740,
    "Ġcourting": 23289,
    "merely": 16131,
    "subst": 12161,
    "mmar": 952,
    "Ġreasoner": 14436,
    "Ġalgorithm": 767,
    "possibly": 10542,
    "aset": 10831,
    "pointing": 12221,
    "hing": 979,
    "elder": 21570,
    "arled": 21441,
    "ieties": 19025,
    "Ġcornelius": 13571,
    "Ġvult": 12748,
    "spark": 18689,
    "cask": 12443,
    "Ġloadstone": 25816,
    "thyself": 19297,
    "Ġorganisation": 23582,
    "Ġserpents": 13074,
    "Ġthoroughfares": 26095,
    "Ġtops": 14585,
    "Ġdelights": 14595,
    "ard": 465,
    "Ġowes": 20083,
    "Ġwhiff": 21716,
    "Ġprospects": 9957,
    "Ġdecreases": 3409,
    "Ġformations": 18748,
    "Ġexpected": 3695,
    "Ġambition": 11431,
    "Ġdummy": 25449,
    "vative": 1650,
    "Ġtissu": 25920,
    "Ġdemand": 4947,
    "Ġgomorrah": 21613,
    "Ġinsatiable": 19271,
    "Ġflood": 7716,
    "Ġcoil": 11815,
    "Ġfills": 12590,
    "mm": 678,
    "dr": 6221,
    "arks": 2845,
    "Ġfists": 15579,
    "master": 5687,
    "Ġpert": 22394,
    "----": 4059,
    "Ġexploring": 4307,
    "Ġferule": 24515,
    "Ġunlocked": 14118,
    "Ġdews": 21837,
    "Ġer": 8105,
    "Ġexponentially": 1443,
    "Ġquestioned": 14618,
    "spite": 16137,
    "Ġsqueeze": 10037,
    "Ġmetropol": 11143,
    "Ġfusion": 21413,
    "sex": 12709,
    "proof": 16421,
    "Ġtenement": 23546,
    "Ġcomplet": 4424,
    "Ġlevelled": 11283,
    "Ġslang": 23157,
    "somers": 19366,
    "Ġhalyards": 21492,
    "Ġporter": 15607,
    "Ġwarbling": 26168,
    "Ġfiend": 4413,
    "mody": 16175,
    "Ġbehaved": 13251,
    "Ġghostly": 24650,
    "Ġrugged": 18720,
    "Ġcelestial": 10065,
    "Ġxxxii": 24972,
    "Ġassault": 9835,
    "opius": 18508,
    "Ġlike": 671,
    "Ġplayfully": 19238,
    "mers": 9609,
    "iness": 1280,
    "Ġitem": 12697,
    "Ġladyship": 5046,
    "hav": 20896,
    "ns": 758,
    "Ġrejoiced": 8683,
    "Ġpoets": 11818,
    "Ġmouthful": 16573,
    "ception": 6562,
    "finger": 10092,
    "Ġcharm": 4548,
    "hatchway": 25904,
    "Ġhyperborean": 26339,
    "entering": 17976,
    "Ġthroughout": 8875,
    "9": 29,
    "Ġpaling": 21460,
    "Ġalbino": 20501,
    "Ġriddle": 14818,
    "lantic": 6363,
    "Ġspilled": 10923,
    "sheets": 14440,
    "Ġkne": 4269,
    "Ġgovernment": 15174,
    "hes": 1400,
    "uses": 11758,
    "intended": 11065,
    "Ġcrawling": 17044,
    "Ġpiling": 17908,
    "teak": 22815,
    "widely": 25343,
    "elzebub": 26463,
    "Ġsharkish": 24502,
    "chess": 16572,
    "iah": 14415,
    "Ġstrokes": 16768,
    "Ġchoose": 5982,
    "ication": 988,
    "Ġsly": 9631,
    "Ġkilling": 13330,
    "Ġuttermost": 19486,
    "prot": 6899,
    "Ġcapting": 23019,
    "Ġapproved": 16032,
    "horr": 14598,
    "Ġgulf": 10634,
    "companion": 9556,
    "Ġestimated": 16593,
    "Ġmerged": 19296,
    "enances": 10152,
    "_âĢĿ": 20760,
    "Ġdecay": 1012,
    "Ġtriumphant": 12186,
    "board": 3565,
    "Ġtrail": 16278,
    "Ġsympath": 4861,
    "Ġnotes": 7189,
    "nature": 5359,
    "ous": 477,
    "Ġhowled": 12851,
    "rimin": 2424,
    "Ġended": 7950,
    "illa": 12789,
    "Ġturks": 14597,
    "Ġupper": 5090,
    "Ġinheritance": 25355,
    "anxiously": 15108,
    "Ġlou": 6822,
    "ourney": 3553,
    "Ġabominably": 20064,
    "Ġrefreshing": 20263,
    "imely": 13996,
    "ĠĠĠĠĠĠĠĠĠĠ": 18577,
    "ium": 4864,
    ".": 18,
    "deceiving": 22143,
    "reated": 10301,
    "borean": 25743,
    "doublo": 24660,
    "smith": 5669,
    "fatig": 17088,
    "tail": 8761,
    "Ġlur": 5226,
    "Ġregrets": 18589,
    "blows": 17164,
    "opposite": 19928,
    "Ġgrudge": 20692,
    "Ġtenderness": 12212,
    "Ġpass": 1041,
    "yarn": 15455,
    "Ġoccasionally": 5589,
    "ip": 558,
    "Ġirregular": 9863,
    "Ġlikewise": 5386,
    "inioned": 19286,
    "stad": 7598,
    "bul": 6951,
    "acity": 5735,
    "ister": 1295,
    "Ġindu": 5293,
    "charles": 14697,
    "pig": 8752,
    "Ġpul": 2042,
    "Ġmbpp": 21320,
    "lish": 1952,
    "Ġfaithfully": 14885,
    "memory": 13615,
    "velling": 14761,
    "lights": 13203,
    "Ġlives": 4826,
    "perpendicular": 14161,
    "Ġcoupled": 16850,
    "Ġshan": 9247,
    "Ġbarque": 23789,
    "Ġrespond": 11175,
    "Ġconcentric": 20073,
    "moreover": 12965,
    "utility": 21585,
    "Ġmeddling": 24082,
    "Ġfeverish": 11347,
    "handkerchief": 14616,
    "Ġsome": 654,
    "Ġfront": 3451,
    "Ġfunny": 7638,
    "Ġapplicable": 19009,
    "inois": 17737,
    "Ġheavy": 3742,
    "ores": 2414,
    "Ġbreezes": 14867,
    "Åĵ": 10743,
    "causes": 20342,
    "striving": 24669,
    "ologist": 22881,
    "Ġinfiltrated": 23281,
    "Ġfaced": 10807,
    "Ġcorroboration": 26052,
    "apologizing": 26543,
    "Ġcompens": 14262,
    "Ġentering": 6285,
    "asted": 4649,
    "derer": 4600,
    "enthusiastic": 20691,
    "Ġvalues": 2653,
    "Ġushered": 18357,
    "som": 3294,
    "fourths": 25509,
    "Ġdevious": 22729,
    "felicity": 25140,
    "banked": 25337,
    "ificial": 607,
    "Ġflap": 14420,
    "Ġgigantic": 5915,
    "itute": 9650,
    "Ġmead": 8833,
    "Ġexpatiate": 18623,
    "putable": 10900,
    "Ġeloquence": 11839,
    "Ġtime": 690,
    "utherland": 9577,
    "presum": 12864,
    "scale": 3535,
    "elsewhere": 19867,
    "state": 13972,
    "Ġrepulses": 26070,
    "tempted": 26402,
    "iates": 13735,
    "Ġslate": 11935,
    "Ġforts": 21770,
    "weight": 2940,
    "ivered": 7005,
    "Ġsoapstone": 20509,
    "Ġintellect": 8170,
    "finished": 10553,
    "endeavouring": 15014,
    "riving": 21929,
    "sunlight": 24851,
    "Ġscore": 9736,
    "Ġchatbots": 11348,
    "Ġrelinqu": 12979,
    "reg": 2181,
    "Ġdepos": 11007,
    "deep": 1054,
    "holloa": 19462,
    "del": 4078,
    "Ġfury": 7662,
    "olerably": 11671,
    "Ġrender": 8305,
    "quin": 21851,
    "abular": 4761,
    "ell": 396,
    "Ġtack": 5620,
    "Ġtorrent": 17091,
    "Ġfitly": 23997,
    "Ġinstability": 3812,
    "odhead": 18120,
    "Ġund": 4121,
    "Ġdial": 10809,
    "hastily": 19701,
    "Ġmerc": 9424,
    "aking": 975,
    "eliest": 14745,
    "Ġfanc": 6743,
    "hope": 5990,
    "named": 9890,
    "Ġexh": 5232,
    "Ġhaught": 10251,
    "Ġaffectionately": 13166,
    "Ġchestnut": 19671,
    "Ġeasiest": 23536,
    "Ġteacher": 22914,
    "Ġflame": 7448,
    "Ġtarpaul": 17729,
    "Ġdepends": 1111,
    "Ġbiography": 22768,
    "Ġquee": 1983,
    "bable": 8718,
    "iem": 20916,
    "ank": 1365,
    "Ġblu": 2686,
    "Ġrecoil": 18684,
    "ance": 478,
    "Ġlean": 7606,
    "Ġcards": 7581,
    "Ġwrapped": 8342,
    "ternatural": 12711,
    "venerable": 26407,
    "Ġquicker": 16506,
    "Ġraved": 22648,
    "Ġchief": 3382,
    "allowance": 16823,
    "Ġimpossible": 3543,
    "Ġhighlands": 22776,
    "ants": 1391,
    "ature": 520,
    "Ġsmokes": 22557,
    "Ġpestilent": 25777,
    "Ġart": 747,
    "Ġautonomous": 10674,
    "Ġcurved": 18851,
    "Ġattribute": 16097,
    "ingley": 1545,
    "Ġtruthful": 23865,
    "salis": 25147,
    "crack": 19839,
    "pursuit": 20339,
    "braces": 24658,
    "Ġcode": 1722,
    "mad": 5280,
    "pretending": 17040,
    "Ġbravest": 23838,
    "ploy": 1982,
    "progra": 9393,
    "Ġgallop": 19554,
    "doub": 6223,
    "Ġelud": 22641,
    "inisc": 15486,
    "Ġrepelled": 19085,
    "Ġlivery": 15996,
    "Ġpsych": 10175,
    "Ġobsc": 7039,
    "Ġbales": 21387,
    "rollable": 13943,
    "aphys": 15199,
    "Ġfringed": 17271,
    "Ġdeploy": 2736,
    "shazzar": 15287,
    "Ġpeeled": 14316,
    "Ġguitar": 16265,
    "factories": 19842,
    "Ġbrazier": 26320,
    "encyclopÃ¦dia": 16662,
    "Ġcrumbs": 20639,
    "Ġexplanation": 6692,
    "ascribed": 24708,
    "range": 3494,
    "Ġwade": 17784,
    "Ġ23": 13190,
    "Ġexasper": 8466,
    "besides": 8695,
    "Ġpickle": 16721,
    "Ġsequences": 1750,
    "looked": 6084,
    "ĠmanÅĵuv": 18417,
    "Ġapprised": 18361,
    "Ġexterm": 21827,
    "Ġstingy": 25455,
    "gorge": 22335,
    "hatches": 19927,
    "Ġrippling": 17276,
    "Ġtheore": 1828,
    "camp": 15328,
    "Ġpsychology": 11447,
    "Ġtypewriter": 19097,
    "shall": 4550,
    "Ġlooking": 2472,
    "licted": 20955,
    "Ġvillage": 5774,
    "Ġwalks": 8965,
    "Ġdescried": 7920,
    "hall": 8085,
    "Ġrelev": 1715,
    "Ġwhichever": 13998,
    "mo": 863,
    "Ġinquirers": 24964,
    "nder": 20986,
    "Ġerskine": 17430,
    "income": 15484,
    "urer": 18121,
    "vap": 13801,
    "adoes": 11658,
    "Ġoutstretched": 14194,
    "Ġmess": 7832,
    "Ġharder": 14447,
    "Ġteased": 18806,
    "Ġbounds": 9916,
    "supp": 4164,
    "unciation": 25982,
    "rol": 5713,
    "Ġresistance": 13528,
    "Ġobserver": 11985,
    "Ġviolent": 5117,
    "Ġnose": 4404,
    "esteem": 26008,
    "wheeling": 22868,
    "Ġweltering": 19584,
    "Ġdone": 1816,
    "umnal": 18300,
    "avoid": 9303,
    "farm": 15349,
    "sac": 7140,
    "Ġcrystal": 17213,
    "mong": 15387,
    "urs": 6989,
    "Ġauthor": 4376,
    "oker": 10962,
    "Ġbloodthirst": 23800,
    "Ġintimacy": 8700,
    "Ġbambooz": 26119,
    "Ġrotterdam": 25475,
    "sufferable": 12173,
    "lue": 8508,
    "once": 5904,
    "lotts": 23823,
    "Ġswiss": 18880,
    "distinction": 19570,
    "Ġaston": 3700,
    "atus": 21259,
    "B": 38,
    "resolution": 17765,
    "object": 6884,
    "Ġfling": 9659,
    "conven": 6162,
    "Ġplank": 7033,
    "impat": 11201,
    "sol": 1791,
    "ġ": 226,
    "deliber": 17424,
    "atch": 677,
    "Ġbandages": 24426,
    "hark": 15363,
    "Ġfrigate": 13079,
    "Ġcontinue": 5398,
    "Ġrecollecting": 17112,
    "Ġremorseless": 13449,
    "wis": 12515,
    "Ġpantry": 20294,
    "Ġfacial": 10604,
    "Ġsurgeons": 23463,
    "malicious": 19901,
    "Ġshrubbery": 18232,
    "Ġboast": 7034,
    "Ġprivileged": 20111,
    "Ġadvancement": 24474,
    "classes": 12132,
    "Ġham": 3422,
    "Ġsauntering": 18327,
    "Ġdemanding": 16804,
    "Ġbright": 3215,
    "Ġcircumnavigation": 20398,
    "Ġbos": 4875,
    "Ġfancying": 12109,
    "Ġgarnery": 17385,
    "Ġprophe": 13076,
    "ĠĠĠĠĠĠĠĠĠĠĠĠĠĠĠĠĠĠĠĠĠĠĠĠĠĠĠĠĠĠĠĠĠĠĠĠĠĠĠĠĠĠ": 24208,
    "Ġwrithed": 17105,
    "figure": 13553,
    "Ġsomebody": 7913,
    "Ġaspired": 25984,
    "Ġyours": 4126,
    "gave": 7800,
    "Ġvagu": 13587,
    "Ġflashes": 11912,
    "Ġexhilarating": 26337,
    "itia": 11577,
    "hist": 7130,
    "Ġrainy": 24340,
    "Ġinvention": 19951,
    "Ġdines": 21422,
    "Ġsympathising": 24296,
    "endous": 6850,
    "Ġsoliloqu": 11882,
    "Ġafforded": 8029,
    "ially": 9245,
    "Ġwalls": 6762,
    "gentlemen": 9502,
    "Ġschoolmaster": 16861,
    "viii": 12017,
    "aint": 2540,
    "Ġlod": 4044,
    "Ġclos": 4549,
    "Ġpir": 6818,
    "children": 9054,
    "Ġcreativity": 2923,
    "hurt": 19877,
    "Ġrhone": 25230,
    "Ġstalls": 25647,
    "Ġsomnam": 23003,
    "Ġchopping": 24218,
    "dl": 20822,
    "Ġdisse": 18548,
    "liking": 22922,
    "Ġdollars": 11454,
    "canoes": 16227,
    "Ġderived": 8239,
    "Ġmarchant": 14784,
    "Ġxlvi": 25590,
    "Ġmiz": 10776,
    "Ġtormenting": 15102,
    "Ġ275": 20109,
    "Ġdesiring": 14410,
    "Ġdominion": 16522,
    "umst": 2502,
    "Ġcorrection": 5062,
    "Ġcomprised": 14266,
    "stir": 12668,
    "Ġunintelligible": 26513,
    "ulia": 18148,
    "Ġernest": 8716,
    "Ġnote": 4266,
    "treasures": 26152,
    "el": 306,
    "offensive": 16394,
    "think": 3608,
    "Ġsporting": 16998,
    "Ġrollicking": 24450,
    "anybody": 12079,
    "Ġalleg": 14015,
    "Ġtwitched": 20442,
    "oa": 9611,
    "Ġspirit": 3722,
    "uncle": 8159,
    "Ġgracious": 8845,
    "converse": 22473,
    "Ġreducing": 1957,
    "Ġgod": 1938,
    "Ġtarts": 10752,
    "Ġisa": 14023,
    "y": 93,
    "Ġsqualid": 14367,
    "Ġmamma": 10046,
    "Ġtightly": 13532,
    "ivance": 22073,
    "Ġexhibition": 14955,
    "î": 175,
    "Ġreproached": 24891,
    "syntax": 5866,
    "Ġinfle": 16360,
    "Ġsoot": 14128,
    "Ġconvergence": 974,
    "Ġproudly": 19741,
    "attle": 4467,
    "Ġextrem": 2473,
    "beside": 19876,
    "Ġdisturb": 7107,
    "Ġpeterson": 9481,
    "achalot": 15860,
    "retrie": 18922,
    "alescing": 23864,
    "Ġ1950": 11358,
    "Ġarguments": 8037,
    "crippled": 26383,
    "Ġtales": 10140,
    "miraculous": 26395,
    "Ġsquare": 2397,
    "Ġor": 437,
    "Ġfirm": 3872,
    "ban": 9583,
    "Ġtweed": 22675,
    "Ġringle": 18210,
    "Ġforgive": 8010,
    "condesc": 18505,
    "Ġsubsc": 22787,
    "Ġultimate": 12346,
    "Ġcompl": 3758,
    "owl": 12680,
    "laden": 14927,
    "Ġgown": 10200,
    "Ġ68": 24369,
    "endar": 18364,
    "Ġportions": 19367,
    "Ġreversed": 15693,
    "usive": 8192,
    "queequeg": 4336,
    "Ġpoised": 22588,
    "Ġbroke": 5322,
    "oubled": 23644,
    "mmed": 7915,
    "Ġrepairing": 25589,
    "Ġresisted": 22539,
    "Ġopposed": 11187,
    "Ġcasked": 24496,
    "entric": 11617,
    "Ġcriminals": 19921,
    "Ġcontinents": 16848,
    "letter": 6201,
    "flutter": 23968,
    "Ġskylight": 24072,
    "genteel": 19947,
    "Ġnavy": 14914,
    "Ġalone": 2568,
    "Ġostlers": 25276,
    "Ġcarn": 17821,
    "feature": 3633,
    "answer": 11729,
    "making": 2573,
    "Ġprinciple": 6770,
    "Ġdesolated": 24812,
    "pacing": 21020,
    "Ġreap": 18026,
    "Ġmeanings": 18607,
    "Ġrhine": 12353,
    "Ġtraps": 23079,
    "Ġrevolutions": 23839,
    "Ġscrutin": 26014,
    "crane": 24098,
    "Ġavert": 14423,
    "sebastian": 21817,
    "Ġmultimodal": 18747,
    "Ġonset": 12707,
    "Ġimpregn": 26022,
    "Ġunderwent": 23236,
    "Ġcurbstone": 26042,
    "Ġlottery": 19887,
    "leton": 5148,
    "iver": 2050,
    "tumultuously": 25613,
    "Ġamendment": 26024,
    "fun": 4215,
    "exped": 16523,
    "wreat": 21126,
    "Ġalongside": 6311,
    "Ġunden": 22011,
    "companions": 15022,
    "Ġmorris": 18843,
    "Ġintrodu": 1927,
    "Ġpressure": 13420,
    "jeroboam": 25619,
    "lection": 3652,
    "Ġwished": 3727,
    "Ġplainpal": 19276,
    "Ġboundless": 10494,
    "Ġscarcity": 23824,
    "Ġrefusal": 10344,
    "Ġsigned": 11176,
    "ckles": 22087,
    "Ġthreatening": 16827,
    "Ġemboldened": 22985,
    "Ġphren": 8571,
    "Ń": 260,
    "Ġlamps": 14790,
    "Ġcod": 8412,
    "vicious": 21117,
    "Ġbeaufort": 13566,
    "bitt": 17484,
    "Ġupd": 947,
    "harbors": 20147,
    "Ġupdating": 2690,
    "Ġbarriers": 23793,
    "Ġpurposely": 10443,
    "Ġdeadly": 5405,
    "ny": 4017,
    "ineer": 11699,
    "fierce": 25255,
    "Ġburn": 3682,
    "Ġfilthy": 13245,
    "Ġwilled": 21290,
    "Ġdandy": 17892,
    "anxiety": 25155,
    "Ġelephant": 8256,
    "Ġwhisker": 23932,
    "ifiable": 18163,
    "Ġmerid": 13193,
    "Ġto": 297,
    "unction": 10233,
    "Ġsurf": 19131,
    "confined": 24331,
    "Ġexchange": 15750,
    "Ġwhales": 1826,
    "ishing": 1144,
    "H": 44,
    "Ġadmit": 7711,
    "Ġreneg": 21673,
    "tained": 4407,
    "aby": 18106,
    "Ġarose": 7360,
    "toes": 22562,
    "Ġfra": 1769,
    "Ġastern": 6091,
    "Ġthickening": 24022,
    "strongly": 24684,
    "Ġface": 1723,
    "ulties": 12897,
    "rolling": 9059,
    "Ġdispleasure": 16049,
    "nnight": 20992,
    "Ġpathways": 11152,
    "adier": 18089,
    "Ġwaterloo": 11977,
    "Ġoriginate": 24121,
    "Ġtranquill": 6630,
    "garity": 17553,
    "Ġstren": 15716,
    "Ġpersistence": 2998,
    "Ġincommun": 25308,
    "savor": 25024,
    "Ġshortly": 6196,
    "xim": 1089,
    "Ġwaterproof": 19088,
    "Ġoverthrow": 18427,
    "Ġtransported": 11278,
    "Ġgazed": 6478,
    "Ġadmitting": 19183,
    "Ġthank": 3791,
    "Ġcop": 7580,
    "Ġdiabol": 11452,
    "Ġdiffusion": 23781,
    "Ġunconscious": 9545,
    "Ġcomparative": 10541,
    "Ġfalse": 4345,
    "enchant": 21282,
    "Ġplum": 11819,
    "Ġpenetrated": 13470,
    "isure": 6240,
    "Ġprofessed": 14723,
    "nameless": 19902,
    "Ġgrinning": 9052,
    "ims": 7176,
    "Ġdated": 10937,
    "thine": 15821,
    "ibilities": 13004,
    "Ġdisposed": 7083,
    "boys": 13357,
    "Ġ116": 24439,
    "Ġmediocr": 24083,
    "Ġhoney": 12628,
    "Ġperceived": 4713,
    "Ġchooses": 13344,
    "Ġblows": 5973,
    "Ġav": 3581,
    "surprising": 16918,
    "Ġgips": 10840,
    "ome": 536,
    "Ġsemblance": 20733,
    "fresh": 13390,
    "Ġproves": 14036,
    "irs": 14069,
    "Ġprodigious": 8057,
    "95": 17476,
    "Ġcircles": 7967,
    "acquired": 24295,
    "blood": 7780,
    "leep": 4634,
    "Ġbleak": 10557,
    "Ġslavery": 16304,
    "Ġsinks": 19548,
    "Ġrib": 4936,
    "Ġende": 21930,
    "Ġleap": 5824,
    "ĠĠĠĠĠĠĠĠĠĠĠĠĠĠĠĠĠĠĠĠĠĠĠĠĠĠĠĠĠ": 19698,
    "disp": 7976,
    "Ġfollow": 1398,
    "actions": 8905,
    "Ġket": 18347,
    "ĠĠĠĠĠĠĠĠ": 712,
    "Ġentered": 2846,
    "Ġcheeks": 5958,
    "Ġmeeting": 5193,
    "Ġidentical": 10433,
    "utes": 5914,
    "danger": 10088,
    "Ġmade": 1050,
    "Ġexcursion": 26588,
    "Ġconstruct": 23341,
    "Ġpencil": 11940,
    "ented": 4350,
    "Ġmature": 17799,
    "argue": 21443,
    "Ġpleasurable": 23339,
    "fing": 13711,
    "meeting": 11018,
    "Ġtorrents": 20054,
    "Ġunaccountably": 26514,
    "Ġaft": 5737,
    "Ġillustrate": 25065,
    "._": 3222,
    "ortunity": 4405,
    "beth": 13686,
    "Ġsalvation": 14756,
    "hawks": 24694,
    "Ġglo": 1714,
    "Ġcomple": 2841,
    "Ġrescue": 13340,
    "Ġst": 332,
    "anxious": 15107,
    "Ġclergy": 7643,
    "Ġenergies": 25459,
    "valley": 16212,
    "Ġsamuel": 10031,
    "ift": 1606,
    "Ġniece": 5712,
    "Ġaspects": 4176,
    "Ġproject": 5545,
    "gallantry": 15059,
    "streamed": 25965,
    "Ġsemantic": 1958,
    "Ġtowering": 16738,
    "upwards": 18863,
    "Ġwarped": 25035,
    "deadly": 17099,
    "Ġshilling": 18228,
    "creation": 14804,
    "Ġcorpus": 13028,
    "Ġcounsel": 13613,
    "Ġ40": 14767,
    "glit": 23848,
    "Ġrasc": 21972,
    "plexion": 14259,
    "Ġwars": 17785,
    "Ġflew": 5587,
    "Ā": 193,
    "bold": 17486,
    "Ġswish": 23051,
    "Ġstabbed": 25456,
    "conjectured": 25181,
    "Ġfitness": 23998,
    "haut": 20901,
    "seemingly": 25362,
    "Ġsabbath": 17253,
    "Ġsnugly": 17110,
    "eling": 6681,
    "Ġindividuality": 14907,
    "Ġtimidly": 11337,
    "com": 995,
    "ĠĠĠĠĠĠĠĠĠĠĠĠĠĠĠĠĠĠĠĠĠĠĠĠĠĠĠĠĠĠĠĠĠĠĠĠĠĠĠĠĠĠĠĠĠĠĠĠĠĠĠ": 20037,
    "Ġperuvian": 18453,
    "Ġcaroline": 7255,
    "Ġcircumspection": 25884,
    "Ġeleg": 6192,
    "Ġfortunately": 12176,
    "ators": 7830,
    "Ġsuperior": 2753,
    "Ġloop": 14145,
    "idence": 4304,
    "Ġgradual": 20600,
    "pretend": 24882,
    "Ġerrone": 14428,
    "Ġdictator": 20152,
    "Ġpork": 21455,
    "perse": 15897,
    "kilt": 4866,
    "Ġblended": 16216,
    "Ġmummy": 25768,
    "Ġsmoothe": 23654,
    "Ġbountiful": 25944,
    "rist": 10121,
    "Ġgreenhorn": 23767,
    "bee": 16035,
    "Ġblowing": 10483,
    "Ġmiscellaneous": 17461,
    "Ġbashful": 20418,
    "Ġsymmetrical": 20365,
    "Ġprofess": 3697,
    "Ġthw": 21513,
    "Ġhack": 12752,
    "pred": 2801,
    "Ġsecure": 4912,
    "Ġminimizing": 3465,
    "started": 10844,
    "light": 3021,
    "Ġpartner": 6714,
    "Ġpartners": 11850,
    "welcome": 9999,
    "Ġlord": 2967,
    "Ġcharted": 22248,
    "Ġdiverged": 23593,
    "Ġsy": 487,
    "founded": 16713,
    "writes": 4988,
    "Ġmilliner": 19883,
    "bear": 10314,
    "vand": 21107,
    "Ġpersisting": 18883,
    "Ġrelevance": 5184,
    "Ġresentful": 24632,
    "Ġarid": 22174,
    "Ġneskyeuna": 26458,
    "Ġdecency": 18485,
    "Ġharsh": 9519,
    "onings": 21251,
    "Ġchink": 15929,
    "Ġretarded": 23071,
    "Ġintended": 5547,
    "Ġtrick": 7018,
    "Ľ": 254,
    "Ġrecre": 22723,
    "inc": 2518,
    "Ġcontempt": 6275,
    "Ġsupremacy": 20259,
    "Ġunnaturally": 24870,
    "awed": 10389,
    "Ġcamberwell": 25350,
    "power": 7136,
    "joy": 3337,
    "Ġfi": 936,
    "orn": 2242,
    "Ġsanta": 26419,
    "Ġrepairs": 19083,
    "Ġwre": 5077,
    "Ġgranite": 22806,
    "Ġtribes": 20479,
    "Ġeffeminacy": 20717,
    "Ġinev": 10180,
    "Ġr": 404,
    "Ġscene": 3097,
    "Ġfilling": 13406,
    "Ġreynolds": 10208,
    "Ġhoisting": 9860,
    "Ġcarried": 3692,
    "igms": 3048,
    "Ġconfining": 23304,
    "Ġd": 284,
    "Ġentrance": 7233,
    "eagerly": 17314,
    "deduction": 23556,
    "birth": 15320,
    "irresist": 21910,
    "odes": 18119,
    "french": 9118,
    "Ġmoist": 9283,
    "Ġstates": 1850,
    "nez": 22445,
    "raised": 15675,
    "sensible": 20050,
    "lux": 14225,
    "oder": 2458,
    "Ġoutright": 18413,
    "Ġdangerously": 23934,
    "delivered": 24100,
    "Ġpairs": 4183,
    "olstad": 7612,
    "Ġprojecting": 9983,
    "overspreading": 26139,
    "norm": 20984,
    "Ġbore": 5079,
    "Ġviolently": 6456,
    "Ġprovision": 14823,
    "inkled": 5477,
    "Ġgazes": 24093,
    "Ġexcited": 5579,
    "Ġconveniences": 19811,
    "Ġfurlong": 18739,
    "oak": 21002,
    "Ġabsolute": 6765,
    "rebell": 17762,
    "Ġuncomfortable": 8485,
    "Ġignominy": 15083,
    "Ġmedicine": 15203,
    "Ġaccompanying": 11303,
    "succeed": 10327,
    "!_âĢĿ": 11375,
    "iii": 14773,
    "Ġhills": 6527,
    "Ġflourishing": 25187,
    "Ġmanaged": 7907,
    "Ġsteed": 13037,
    "sust": 15420,
    "Ġstubbornness": 25380,
    "Ġdarcy": 1340,
    "rog": 15636,
    "M": 49,
    "Ġwidely": 8033,
    "Ġheroic": 14906,
    "Ġstill": 1155,
    "chased": 18041,
    "Ġinvolve": 11042,
    "Ġspire": 18306,
    "Ġcoopman": 25827,
    "ensils": 22546,
    "'(": 2980,
    "Ġunfrequent": 24109,
    "Ġacceptable": 16743,
    "Ġable": 3081,
    "Ġporpoises": 13380,
    "Ġmodesty": 12816,
    "Ġitalian": 12407,
    "inforcement": 3019,
    "wit": 7818,
    "Ġrepresents": 4902,
    "vius": 23540,
    "Ġspeeches": 22661,
    "Ġwatson": 3596,
    "Ġjesty": 18405,
    "Ġ54": 24321,
    "Ġsoo": 15857,
    "Ġsultry": 20287,
    "Ġgul": 7860,
    "ientific": 6547,
    "solving": 3099,
    "igate": 8821,
    "requiem": 24856,
    "imagine": 19930,
    "Ġsuitable": 18281,
    "orily": 15569,
    "Ġjuly": 17235,
    "sur": 4523,
    "Ġhairs": 13228,
    "Ġpom": 21450,
    "Ġturning": 3328,
    "Ġsteel": 3890,
    "Ġmoose": 22429,
    "Ġbehind": 2808,
    "living": 7133,
    "Ġelapsed": 7653,
    "securer": 25602,
    "Ġcamp": 9163,
    "{": 95,
    "Ġmoodily": 19833,
    "protruding": 24816,
    "daw": 17521,
    "height": 21204,
    "Ġilliter": 23467,
    "Ġcomrades": 9553,
    "Ġcaught": 3728,
    "anges": 1671,
    "rians": 21928,
    "unquiet": 21879,
    "Ġgroves": 16739,
    "passage": 11260,
    "iny": 4296,
    "Ġtak": 15467,
    "Ġopera": 23424,
    "igators": 18044,
    "vulgar": 25918,
    "orough": 5700,
    "antique": 18287,
    "enger": 10772,
    "\"]": 17469,
    "Ġpettic": 14839,
    "icked": 10331,
    "Ġclim": 8197,
    "Ġfade": 21406,
    "Ġsubsequently": 16157,
    "Ġtooks": 23325,
    "Ġconsists": 11974,
    "Ġexcused": 23311,
    "Ġstables": 23653,
    "Ġforwarded": 19042,
    "Ġmoonshine": 19596,
    "Ġoversight": 22346,
    "Ġmixture": 9561,
    "Ġagonizing": 17237,
    "shooting": 16964,
    "impressed": 12687,
    "magnifying": 25392,
    "Ġwra": 5906,
    "Ġpemberley": 4588,
    "Ġpresumably": 19623,
    "Ġincommod": 25307,
    "alleging": 23022,
    "rig": 7557,
    "ugn": 9376,
    "soled": 14327,
    "Ġprices": 15608,
    "Ġbabies": 19691,
    "inted": 2651,
    "oology": 21005,
    "Ġteaching": 10363,
    "Ġcoincidence": 25483,
    "Ġimprobable": 9791,
    "Ó": 148,
    "Ġmember": 8585,
    "Ġdeline": 16330,
    "Ġweaving": 12736,
    "Ġanoints": 25538,
    "Ġfixedly": 19247,
    "uments": 5551,
    "withdrawn": 23025,
    "Ġwhole": 1657,
    "restored": 18978,
    "Ġholder": 6724,
    "Ġnieces": 8433,
    "-------": 20387,
    "kicked": 20942,
    "ifference": 5632,
    "Ġfrom": 434,
    "Ġmanagement": 8193,
    "Ġvital": 9241,
    "soldiers": 25911,
    "Ġimages": 1599,
    "Ġparmacetti": 20603,
    "Ġloss": 826,
    "`": 68,
    "hanging": 10099,
    "Ġslo": 15504,
    "Ġwhaleboats": 18478,
    "execut": 13653,
    "Ġsunrise": 9371,
    "full": 7420,
    "Ġlosing": 10915,
    "Ġreserve": 9969,
    "Ġbu": 3681,
    "kinson": 10024,
    "surf": 24211,
    "Ġrece": 11636,
    "Ġhurtling": 24959,
    "user": 5105,
    "means": 9784,
    "Ġpallidness": 25604,
    "Ġwerter": 15237,
    "snap": 24848,
    "Ġdistraction": 22504,
    "Ġedward": 19119,
    "Ġwires": 21294,
    "Ġstum": 21729,
    "Ġunflinching": 26511,
    "Ġjunks": 25113,
    "false": 15352,
    "Ġvi": 1953,
    "P": 52,
    "heading": 5487,
    "Ġdecaying": 2246,
    "spread": 8389,
    "bermaid": 20789,
    "Ġvocabulary": 4995,
    "Ġbrahma": 26319,
    "inction": 6660,
    "Ġboth": 1651,
    "Ġcovariate": 2348,
    "Ġwarn": 5695,
    "Ġsparing": 22127,
    "Ġmemb": 14026,
    "Ġrenewal": 12231,
    "Ġactuated": 18545,
    "mic": 12485,
    "parm": 21013,
    "Ġlists": 11165,
    "Ġdistracted": 11801,
    "Ġrevolver": 14896,
    "Ġdespond": 14666,
    "Ġcrav": 19172,
    "Ġretreated": 13431,
    "endeavoured": 12277,
    "Ġslightest": 6093,
    "acing": 2718,
    "Ġsherry": 19449,
    "Ġrejoicing": 13419,
    "vi": 2373,
    "Ġquote": 18466,
    "tru": 10728,
    "Ġrather": 1492,
    "knell": 24554,
    "agings": 18165,
    "itled": 7578,
    "Ġ(`": 12849,
    "Ġtrustworthy": 24106,
    "Ġimprinted": 22387,
    "summit": 23415,
    "erringly": 16209,
    "Ġheaving": 7601,
    "Ġswell": 8948,
    "tarpaulins": 26404,
    "imp": 3036,
    "Ġimmensities": 25330,
    "Ġmenacing": 23106,
    "Ġnupt": 13941,
    "Ġamend": 16031,
    "Ġprender": 22233,
    "Ġregularity": 22773,
    "Ġouthouse": 22312,
    "Ġ550": 19640,
    "Ġrats": 21971,
    "Ġbreathlessly": 24279,
    "Ġagile": 22511,
    "anity": 9653,
    "Ġconcerned": 5331,
    "ume": 4835,
    "Ġporch": 19679,
    "Ġunostentatious": 22068,
    "Ġrokovoko": 22404,
    "Ġperfume": 25665,
    "communication": 25881,
    "Ġenraptured": 26499,
    "leads": 21368,
    "indian": 11775,
    "Ġmultiplicity": 19274,
    "responsible": 25763,
    "Ġcheat": 19018,
    "Ġhooked": 19079,
    "Ġmightiest": 12957,
    "Ġspots": 11726,
    "circumstantial": 24443,
    "posterity": 25488,
    "cr": 4077,
    "atible": 17771,
    "Ġbuff": 9171,
    "Ġrattler": 24997,
    "Ġforlorn": 14013,
    "hearts": 13342,
    "espe": 3499,
    "leness": 4690,
    "wretched": 10740,
    "Ġexposing": 11829,
    "Ġbustle": 17226,
    "Ġdomes": 23657,
    "Ġenquired": 21938,
    "yra": 8103,
    "Ġ*": 1273,
    "reward": 15507,
    "Ġthither": 6821,
    "tackle": 17319,
    "Ġarts": 11006,
    "Ġwhitewashed": 14467,
    "ad": 337,
    "onse": 21248,
    "suspect": 9538,
    "Ġtwink": 8216,
    "Ġnaturalists": 10361,
    "pie": 21010,
    "conquerable": 17397,
    "Ġdrawback": 23988,
    "Ġboun": 21378,
    "Ġtreacherously": 25129,
    "Ġconstitution": 20107,
    "Ġgracefully": 13389,
    "6": 26,
    "Ġsend": 4110,
    "Ġhazard": 20430,
    "Ġhailed": 6407,
    "shook": 19855,
    "Ġomn": 8410,
    "Ġinitialization": 1254,
    "slo": 17655,
    "keel": 14127,
    "yellow": 9623,
    "Ġjen": 9265,
    "Ĕ": 213,
    "import": 5668,
    "Ġtraced": 10382,
    "silly": 24421,
    "Ġpatience": 2892,
    "breeze": 20561,
    "Ġnodding": 23334,
    "Ġlayer": 1011,
    "Ġgamesome": 17288,
    "Ġconstruction": 9383,
    "lounged": 26133,
    "otently": 21798,
    "Ġtechn": 9370,
    "plainly": 11089,
    "web": 18664,
    "securing": 19812,
    "augment": 18829,
    "Ġthy": 2511,
    "Ġinfants": 16361,
    "Ġostens": 25275,
    "Ġpartially": 13120,
    "pan": 10715,
    "Ġhaunt": 18197,
    "Ġsoothe": 7405,
    "dish": 12449,
    "venant": 22623,
    "ğ": 224,
    "Ġsli": 4747,
    "Ġshow": 3402,
    "describe": 1511,
    "strangers": 20335,
    "Ġwith": 349,
    "alled": 5911,
    "ined": 1262,
    "m": 81,
    "Ġcontrive": 16007,
    "Ġsubt": 11865,
    "Ġdeclare": 6614,
    "Ġlime": 13946,
    "Ġtreacher": 8604,
    "Ġarch": 926,
    "profitable": 17054,
    "Ġuntimely": 16465,
    "Ġdemean": 12719,
    "affording": 23776,
    "dimens": 2316,
    "Ġagonising": 25373,
    "wel": 6117,
    "the": 334,
    "Ġcommand": 3323,
    "Ġsitting": 3604,
    "Ġcrumpled": 16440,
    "icted": 5937,
    "Ġcurtain": 14412,
    "supportable": 12367,
    "Ġpens": 21458,
    "Ġwitt": 17783,
    "Ġconsiderations": 9408,
    "probable": 17020,
    "alike": 17942,
    "Ġfreshness": 23986,
    "Ġornam": 15861,
    "Ġrelease": 19290,
    "Ġprior": 11317,
    "explain": 1478,
    "Ġresult": 4461,
    "Ġcoop": 14268,
    "Ġdefinite": 11068,
    "Ġworshipping": 22926,
    "leviathans": 19936,
    "Ġsphere": 15879,
    "Ġmassachusetts": 24020,
    "Ġfertile": 20581,
    "Ġpretension": 23763,
    "Ġtalking": 3858,
    "Ġendure": 5956,
    "Ġade": 22098,
    "conditionally": 24834,
    "ix": 1800,
    "chains": 9683,
    "Ġrecollections": 10511,
    "Ġhonest": 7287,
    "ored": 3896,
    "Ġus": 495,
    "Ġunav": 18240,
    "surround": 16757,
    "displayed": 20735,
    "eded": 9672,
    "Ġpenet": 6888,
    "Ġshoes": 7071,
    "waited": 24586,
    "Ġresidence": 8207,
    "Ġstore": 8453,
    "Ġchambermaid": 24303,
    "strate": 12669,
    "Ġclose": 3039,
    "important": 7112,
    "Ġshol": 21993,
    "Ġbusy": 6189,
    "serious": 14446,
    "ruck": 6848,
    "oquent": 12496,
    "observing": 25494,
    "Ġdromed": 15593,
    "Ġ59": 24326,
    "sufficient": 6635,
    "Ġbeak": 18079,
    "Ġaudible": 19880,
    "Ġlightened": 23260,
    "Ġcul": 17822,
    "Ġpersonages": 23539,
    "Ġcredulous": 17143,
    "alley": 23021,
    "Ġsnow": 3705,
    "rate": 2423,
    "Ġperturbation": 20439,
    "alse": 4186,
    "verize": 21726,
    "Ġrambled": 20167,
    "Ġspaniards": 25555,
    "pudding": 17646,
    "Ġtimbers": 14837,
    "olent": 8155,
    "Ġ34": 16676,
    "sheep": 23085,
    "material": 13127,
    "compass": 9458,
    "Ġmeasures": 1206,
    "Ġlandless": 23377,
    "Ġgrapnels": 25551,
    "Ġtoiling": 15631,
    "Ġdepths": 4328,
    "Ġchamp": 18381,
    "Ġaccompan": 5513,
    "Ġobsequ": 14318,
    "Ġswain": 18879,
    "Ġmild": 4149,
    "Ġsoar": 18277,
    "Ġalarming": 14778,
    "Ġfreer": 23206,
    "andering": 21865,
    "wil": 8396,
    "Ġanticipatingly": 26102,
    "Ġintrospective": 20599,
    "Ġartfully": 22607,
    "Ġpel": 17902,
    "wedged": 24337,
    "quered": 11057,
    "Ġpatronage": 17052,
    "arned": 21819,
    "Ġsuperl": 16444,
    "Ġrespons": 2684,
    "Ġprint": 18970,
    "Ġkindling": 19030,
    "omen": 4089,
    "signed": 21060,
    "pets": 17635,
    "Ġcheered": 16366,
    "Ġmoderation": 12817,
    "turned": 7306,
    "Ġlandlord": 5580,
    "_)": 9100,
    "Ġveteran": 17448,
    "Ġpeeping": 16124,
    "Ġprognost": 15279,
    "Ġaslant": 21899,
    "Ġcontemplate": 19891,
    "was": 1421,
    "poison": 14390,
    "Ġspur": 18303,
    "dropped": 12259,
    "Ġstamped": 13525,
    "Ġalarmed": 6923,
    "advantage": 8658,
    "queens": 22907,
    "ple": 455,
    "Ġexhausted": 8693,
    "blow": 9102,
    "acknowledged": 15200,
    "Ġexpand": 9305,
    "abash": 18107,
    "ingale": 21298,
    "older": 15752,
    "Ġscenes": 5730,
    "Ġcompos": 22567,
    "Ġanxiety": 5408,
    "Ġ82": 24457,
    "Ġcetacea": 20552,
    "Ġmusk": 7495,
    "Ġeloped": 22643,
    "ahit": 9380,
    "Ġprobed": 18734,
    "asons": 6015,
    "ices": 2136,
    "Ġshrill": 12138,
    "Ġresc": 4507,
    "headers": 23107,
    "rucastle": 22180,
    "uneven": 23683,
    "pennies": 26285,
    "Ġpup": 12615,
    "Ġunfolding": 17085,
    "handsome": 13174,
    "rock": 15637,
    "Ġcanv": 7009,
    "bowl": 14889,
    "Ġhellaswag": 24342,
    "Ġcorrect": 2432,
    "Ġdimin": 3873,
    "Ġenem": 4707,
    "###": 3827,
    "Ġsensitive": 13197,
    "Ġabrupt": 9734,
    "japan": 15372,
    "Ġbegat": 18862,
    "orial": 8417,
    "Ġpapers": 4023,
    "Ġwarning": 9057,
    "Ġcurse": 7669,
    "Ġmonotonous": 13260,
    "resembled": 21245,
    "Ġ0": 1904,
    "regarding": 15069,
    "Ġmean": 741,
    "Ġtheirs": 7024,
    "Ġsnows": 14725,
    "rimshander": 20656,
    "Ġcreate": 2092,
    "danish": 20832,
    "Ġorph": 9715,
    "Ġelementary": 24814,
    "Ġdefault": 3041,
    "flying": 13719,
    "deliberated": 26118,
    "scar": 9814,
    "Ġimputation": 22170,
    "Ġconjured": 25099,
    "Ġcreditable": 19621,
    "Ġphilist": 16600,
    "cleanliness": 25871,
    "Ġack": 5621,
    "aret": 7417,
    "surd": 6934,
    "Ġan": 286,
    "Ġintercourse": 10997,
    "ationally": 15701,
    "vict": 11539,
    "Ġwhims": 12688,
    "Õ": 150,
    "Ġrevelations": 25223,
    "Ġejac": 10202,
    "Ġfrig": 13078,
    "aphs": 22333,
    "pain": 7350,
    "wester": 21137,
    "Ġcomprehen": 5349,
    "bble": 17483,
    "Ġconfessed": 8009,
    "Ġbequeathed": 20700,
    "Ġproperties": 3118,
    "Ġsuperiority": 14615,
    "concerned": 24583,
    "Ġelect": 10841,
    "Ġbutton": 10266,
    "rope": 3183,
    "Ġmuster": 16119,
    "inaw": 21182,
    "Ġpol": 2577,
    "Ġstudying": 9844,
    "Ġstop": 2500,
    ".âĢĻ": 1719,
    "Ġlabors": 23328,
    "Ġproposals": 10612,
    "Ġrainbows": 19647,
    "Ġloose": 4648,
    "Ġbrood": 23099,
    "Ġdents": 13909,
    "Ġvolition": 14796,
    "Ġrepel": 23358,
    "Ġmol": 12557,
    "Ġenabling": 1078,
    "harpooneers": 8689,
    "Ġgurgling": 17444,
    "Ġnearly": 3364,
    "Ġannum": 24202,
    "Ġjewelled": 20182,
    "rising": 7558,
    "Ġbrotherhood": 23669,
    "clo": 5612,
    "Ġtepid": 26411,
    "Ġinner": 9669,
    "if": 376,
    "cooee": 12415,
    "Ġcust": 11580,
    "icorn": 15653,
    "Ġmadame": 13148,
    "Ġowning": 18744,
    "tstone": 21083,
    "omitted": 18023,
    "Ġinfat": 14498,
    "cond": 1663,
    "Ġearnestly": 5979,
    "Ġforehead": 5261,
    "road": 6677,
    "Ġgarn": 13961,
    "Ġshakes": 10903,
    "Ġtogether": 1879,
    "Ġsplitting": 4385,
    "Ġsoldiers": 8686,
    "Ġpushing": 10818,
    "Ġprojects": 9509,
    "years": 6883,
    "Ġundaunted": 24119,
    "Ġwantest": 18788,
    "Ġgam": 11622,
    "Ġmichaelmas": 26374,
    "Ġdiscontented": 16056,
    "ak": 538,
    "Ġdreamy": 14701,
    "Ġforbid": 7866,
    "madness": 14880,
    "Ġgush": 10201,
    "Ġstepping": 9352,
    "Ġcarving": 14441,
    "Ġaskance": 23146,
    "Ġrolls": 8334,
    "hook": 12050,
    "hro": 20890,
    "laug": 10706,
    "apside": 22958,
    "Ġchat": 6560,
    "rating": 7809,
    "Ġexisted": 15749,
    "Ġant": 4347,
    "cou": 13693,
    "Ġbee": 21747,
    "wonderful": 16959,
    "physiogn": 26264,
    "Ġgouge": 26188,
    "Ġweakness": 9965,
    "Ġfrog": 23918,
    "Ġamounts": 6704,
    "Ġpretend": 7722,
    "ľ": 255,
    "Ġisrael": 21801,
    "Ġshoot": 11160,
    "izar": 14041,
    "Ġhebrew": 13986,
    "Ġissuing": 16947,
    "Ġfaltering": 17884,
    "ood": 961,
    "Ġextended": 7925,
    "Ġoutput": 932,
    "extensive": 18700,
    "nearly": 8680,
    "Ġbelongs": 8015,
    "Ġprobability": 1124,
    "Ġwhisper": 6205,
    "aim": 2756,
    "Ġimmured": 24071,
    "Ġagencies": 18541,
    "Ġgenuine": 14883,
    "Ġloft": 5642,
    "Ġpips": 9848,
    "Ġstated": 9687,
    "Ġstate": 1810,
    "gathered": 13730,
    "Ġround": 1369,
    "Ġhabitations": 24789,
    "Ġvices": 14081,
    "eked": 16399,
    "Ġestimates": 3746,
    "Ġminded": 23229,
    "measured": 19988,
    "Ġsandwic": 24664,
    "adru": 15727,
    "Ġunquestion": 18248,
    "Ġscanning": 18399,
    "Ġshipwrecked": 25687,
    "Ġ74": 24260,
    "million": 25751,
    "ruct": 685,
    "onical": 21252,
    "unwholesome": 26496,
    "Ġimpulsively": 24880,
    "Ġconclusions": 10552,
    "attracted": 13047,
    "hercules": 22204,
    "enit": 17778,
    "Ġapril": 13660,
    "coiled": 16484,
    "Ġcorroded": 18875,
    "flame": 16636,
    "unalterable": 21884,
    "Ġanom": 12607,
    "Ġthunder": 4823,
    "countless": 24149,
    "Ġpopularly": 12238,
    "Ġsiber": 17754,
    "disposition": 10040,
    "Ġcemet": 20679,
    "Ġhabits": 6926,
    "deser": 10401,
    "Ġreplace": 14474,
    "Ġautumnal": 19055,
    "Ġroods": 22402,
    "Ġpoland": 23616,
    "Ġlongest": 18631,
    "Ġimpartial": 15217,
    "Ġalso": 1341,
    "Ġjaws": 5592,
    "Ġweedy": 15789,
    "Ġwealth": 7621,
    "Ġcareful": 2612,
    "Ġescorted": 23506,
    "Ġperverseness": 13652,
    "Ġvertu": 23888,
    "Ġfelicity": 7260,
    "Ġfairly": 6325,
    "ificant": 22206,
    "Ġpay": 3967,
    "Ġval": 970,
    "ran": 11514,
    "Ġwhisky": 23931,
    "Ġstone": 4645,
    "Ġoffence": 12940,
    "Ġrivers": 9440,
    "ivory": 10267,
    "niece": 20994,
    "Ġdividing": 12108,
    "Ġbran": 5251,
    "re": 266,
    "otam": 21796,
    "respectively": 24700,
    "Ġrises": 9711,
    "Ġmeet": 2805,
    "Ġecc": 11626,
    "Ġportra": 9007,
    "Ġmargin": 11918,
    "Ġlords": 14640,
    "Ġcalmness": 12089,
    "Ġrevenue": 26194,
    "Ġwis": 3726,
    "Ġdevelopments": 23247,
    "Ġconstraint": 16512,
    "Ġdrops": 9031,
    "strong": 6322,
    "adders": 24399,
    "Ġhere": 1085,
    "Ġgateway": 24802,
    "Ġsore": 10763,
    "leaned": 21367,
    "Ġoath": 7834,
    "ied": 942,
    "pagans": 25525,
    "Ġdevoid": 18687,
    "Ġelev": 5535,
    "Ġhurried": 4034,
    "hatchet": 24822,
    "Ġreplied": 2264,
    "Ġwarehouse": 20415,
    "Ġunexpected": 6841,
    "fare": 7799,
    "Ġindoors": 18836,
    "Ġforeb": 12000,
    "Ġrevolution": 3307,
    "know": 2317,
    "Ġprinciples": 10009,
    "Ġvarying": 15807,
    "Ġpledged": 20686,
    "ounix": 14162,
    "Ġded": 2625,
    "Ġfolded": 7768,
    "Ġespecially": 3939,
    "driver": 14919,
    "alous": 7372,
    "aswag": 21544,
    "kl": 4865,
    "changing": 10853,
    "accept": 8896,
    "acknowledge": 18468,
    "london": 9608,
    "Ġrailway": 15019,
    "Ġplanet": 14749,
    "Ġimag": 2675,
    "Ġmax": 2009,
    "alt": 12634,
    "Ġshirr": 18231,
    "Ġdub": 13907,
    "atra": 17770,
    "ul": 371,
    "Ġprisoner": 8672,
    "ales": 3318,
    "Ġinattention": 17931,
    "pervading": 18953,
    "gunw": 17219,
    "Ġdeduce": 8337,
    "Ġloitered": 26524,
    "Ġmarvell": 7248,
    "Ġdented": 17891,
    "ortment": 22255,
    "Ġflask": 3042,
    "Ġleaky": 2344,
    "Ġtrout": 22342,
    "Ġwolves": 25934,
    "weigh": 18665,
    "charge": 9447,
    "estruct": 22219,
    "Ġrocked": 12852,
    "Ġflannel": 26576,
    "Ġarbit": 4650,
    "Ġjac": 1898,
    "consolatory": 25306,
    "Ġrenowned": 26193,
    "prints": 23810,
    "likeness": 19476,
    "laugh": 10107,
    "judging": 24200,
    "unders": 13307,
    "Ġshrieking": 24758,
    "Ġcircumstance": 4987,
    "seat": 18124,
    "Ġ115": 24438,
    "Ġmost": 1021,
    "Ġnursing": 12211,
    "Ġfriend": 1296,
    "matlock": 23468,
    "Ġtruce": 24115,
    "cruet": 17025,
    "Ġdevices": 2941,
    "uch": 878,
    "Ġindex": 17048,
    "iferous": 17290,
    "protected": 19920,
    "explanations": 25234,
    "Ġdivers": 9664,
    "Ġbeside": 5192,
    "Ġconcentrate": 25063,
    "Ġgentlemen": 3642,
    "Ġgoug": 17990,
    "trembling": 17141,
    "Ġslewed": 23383,
    "Ġwore": 6377,
    "c": 71,
    "Ġawe": 7147,
    "Ġbeat": 4492,
    "confid": 14865,
    "adequate": 15201,
    "Ġclam": 7416,
    "Ġchances": 9261,
    "benevolent": 15231,
    "Ġregained": 18587,
    "remark": 7261,
    "Ġcrimes": 8588,
    "Ġmounted": 7833,
    "Ġstarvation": 19790,
    "mild": 15389,
    "Ġguests": 12284,
    "Ġfoam": 6891,
    "ons": 709,
    "ordingly": 18518,
    "would": 2350,
    "ique": 8742,
    "Ġimbalance": 22172,
    "_;": 6640,
    "Ġbuoyancy": 20040,
    "ro": 301,
    "mem": 10708,
    "Ġroofs": 16984,
    "oured": 2672,
    "ellative": 21943,
    "Ġthom": 21514,
    "favouring": 24762,
    "Ġenormousness": 24511,
    "Ġregiment": 6432,
    "Ġunche": 23427,
    "trained": 4240,
    "patient": 25342,
    "iters": 21327,
    "Ġspat": 2665,
    "Ġbun": 6007,
    "Ġmacy": 19353,
    "Ġdrove": 4984,
    "Ġsprinkled": 19495,
    "Ġbow": 3062,
    "Ġenvy": 13181,
    "inquiries": 13575,
    "Ġfourth": 7707,
    "Ġgenerous": 6271,
    "Ġeffaced": 18519,
    "anely": 17836,
    "tone": 8762,
    "Ġagrees": 22514,
    "humanity": 24839,
    "Ġcou": 5286,
    "finish": 24383,
    "Ġhistor": 3391,
    "Ġcreases": 22720,
    "herent": 2527,
    "Ġath": 15798,
    "avoiding": 25236,
    "Ġexclamations": 11360,
    "Ġsneezing": 12244,
    "Ġlodge": 5779,
    "Ġcrowned": 16840,
    "Ġabstract": 17180,
    "Ġtwins": 16117,
    "hound": 20894,
    "Ġspe": 824,
    "Ġoccasion": 3246,
    "Ġinclu": 1096,
    "octavo": 11384,
    "onze": 21254,
    "Ġabused": 22267,
    "interchange": 23737,
    "Ġproportionate": 17042,
    "oar": 12494,
    "Ġaffairs": 6877,
    "Ġthreaten": 24373,
    "Ġcorre": 3889,
    "eer": 15345,
    "Ġrepining": 23359,
    "Ġeagerly": 4990,
    "Ġguilty": 7250,
    "Ġdripping": 13145,
    "long": 2912,
    "Ġtouch": 3396,
    "grief": 13729,
    "atigable": 15268,
    "Ġvictims": 19803,
    "Ġlexicon": 25974,
    "Ġpupils": 20419,
    "Ġpeculiarities": 12067,
    "iated": 5890,
    "landed": 18955,
    "Ġseems": 2479,
    "Ġhearers": 15699,
    "Ġabject": 18391,
    "thereby": 14445,
    "Ġrush": 5925,
    "Ġbackbone": 22656,
    "lur": 13745,
    "igation": 5918,
    "strip": 19829,
    "Ġbarn": 11585,
    "Ġentries": 22740,
    "nect": 663,
    "Ġpraise": 6486,
    "che": 3170,
    "Ġchorus": 10945,
    "Ġtools": 11607,
    "ocations": 23706,
    "Ġsharper": 17178,
    "_,âĢĻâĢĿ": 20399,
    "Ġsaws": 23045,
    "neighbourhood": 10023,
    "Ġescaped": 6459,
    "berwell": 22716,
    "Ġgentle": 1890,
    "Ġencoura": 1366,
    "kington": 11202,
    "infidel": 24663,
    "scissors": 20726,
    "Ġtragedy": 10666,
    "Ġtaffrail": 15474,
    "Ġrestored": 7066,
    "zag": 17712,
    "rose": 6014,
    "roar": 17952,
    "Ġenc": 967,
    "repugnance": 16863,
    "idays": 21768,
    "Ġwired": 17786,
    "Ġempire": 11144,
    "<EOS>": 2,
    "solitude": 23295,
    "Ġlung": 7167,
    "Ġmississippi": 20724,
    "Ġwaifing": 25243,
    "Ġcombat": 16181,
    "Ġscold": 10949,
    "Ġmuteness": 19415,
    "Ġconsequently": 8060,
    "Ġ26": 10469,
    "reasoning": 9474,
    "Ġoccurrence": 14380,
    "interrupt": 8615,
    "Ġate": 8838,
    "Ġcompletely": 4860,
    "Ġhowling": 8509,
    "gments": 12466,
    "Ġunlock": 18243,
    "Ġspect": 3552,
    "Ġut": 2279,
    "Ġvit": 10244,
    "rossed": 11011,
    "Ġexord": 21825,
    "owards": 4594,
    "Ġconsistence": 23355,
    "treat": 12510,
    "Ġagricultural": 26549,
    "umbers": 10917,
    "Ġindec": 13926,
    "fail": 17539,
    "Ġcould": 703,
    "arrangement": 17413,
    "illating": 22105,
    "fect": 2300,
    "early": 20117,
    "Ġbishop": 13900,
    "Ġgifts": 21610,
    "maged": 15391,
    "Ġostentatious": 25736,
    "Ġcharacteristic": 12045,
    "Ġhome": 2030,
    "Ġoverhead": 11768,
    "Ġstur": 15713,
    "desire": 14472,
    "Ġpricking": 23219,
    "Ġtriumphal": 24370,
    "Ġrequisite": 18648,
    "Ġborrowed": 17228,
    "deck": 4501,
    "sailing": 14712,
    "dishonourable": 26365,
    "dream": 8727,
    "Ġhump": 5853,
    "Ġlanyard": 26460,
    "Ġaccompany": 9485,
    "Ġmountains": 4428,
    "Ġembraced": 10004,
    "resp": 13837,
    "Ġfetching": 16895,
    "Ġinvolved": 8921,
    "Ġruffled": 25835,
    "Ġequinox": 25855,
    "Ġteasing": 11888,
    "Ġsuffers": 2974,
    "Ġtended": 21165,
    "Ġsnorting": 23739,
    "Ġblades": 11892,
    "Ġbattering": 13899,
    "Ġbloody": 9886,
    "Ġbridges": 24682,
    "which": 1708,
    "Ġkiss": 8183,
    "Ġdank": 21427,
    "agra": 14064,
    "Ġtid": 8107,
    "ladder": 19783,
    "Ġbrighton": 6470,
    "conve": 14242,
    "Ġimmense": 4952,
    "Ġsaintly": 25931,
    "unfort": 21874,
    "Ġbelow": 4063,
    "Ġproperly": 7945,
    "consequence": 9761,
    "rer": 3621,
    "Ġheight": 4222,
    "gazing": 12468,
    "be": 673,
    "commander": 16986,
    "Ġpequod": 2321,
    "Ġdemands": 19642,
    "Ġmaternal": 11058,
    "Ġdiscoverers": 26036,
    "Ġdark": 2112,
    "Ġpitiable": 9912,
    "Ġshar": 9248,
    "Ġpenalties": 10411,
    "danced": 20827,
    "Ġaromatic": 25925,
    "Ġinjunction": 19616,
    "agon": 7872,
    "pleas": 3851,
    "Ġfate": 4753,
    ");": 7330,
    "orts": 2556,
    "Ġbirch": 26174,
    "Ġfuneral": 10281,
    "Ġconfederate": 17352,
    "athy": 14321,
    "Ġimpro": 909,
    "Ġremem": 4315,
    "offices": 19061,
    "Ġstepped": 7051,
    "Ġbourgh": 5069,
    "hid": 13732,
    "Ġautonom": 10415,
    "Ġsaith": 14154,
    "Ġambitious": 18513,
    "umn": 5835,
    "Ġlighting": 13080,
    "Ġstern": 4189,
    "sl": 5794,
    "en": 271,
    "Ġtawny": 20480,
    "Ġri": 3395,
    "Ġdiagon": 24740,
    "Ġsavag": 19372,
    "Ġintently": 8169,
    "Ġwind": 1432,
    "Ġnoble": 3440,
    "Ġlaying": 7909,
    "Ġwaned": 17791,
    "Ġperforming": 7928,
    "itous": 13865,
    "lacing": 17589,
    "watch": 6118,
    "spade": 10338,
    "examined": 17265,
    "partiality": 13158,
    "Ġreciproc": 20620,
    "ir": 379,
    "doing": 8584,
    "must": 3577,
    "footsteps": 25199,
    "Ġcrusad": 23705,
    "Ġmistakes": 16539,
    "tranquillity": 20545,
    "representativeness": 25272,
    "Ġwhiskers": 10491,
    "americans": 25042,
    "Ġtyphoons": 20233,
    "kindly": 14743,
    "Ġunreasoning": 15842,
    "Ġaside": 5234,
    "Ġdestro": 3720,
    "Ġbern": 17858,
    "gl": 3293,
    "Ġtokens": 1773,
    "Ġprivilege": 11418,
    "Ġezek": 18009,
    "Ġdrugged": 12598,
    "Ġredness": 19311,
    "Ġmenaced": 16290,
    "meet": 11853,
    "Ġgloom": 4203,
    "Ġspaces": 3111,
    "Ġbedfellows": 23437,
    "Ġencode": 4366,
    "Ġgreenland": 5761,
    "Ġharbors": 24901,
    "Ġmac": 15535,
    "Ġchivalrous": 20513,
    "allingly": 22197,
    "onstr": 12542,
    "Ġspaulding": 11728,
    "Ġfals": 15577,
    "Ġactual": 3735,
    "Ġgoodly": 22820,
    "Ġmercifully": 20177,
    "smoking": 23908,
    "Ġcurtains": 22983,
    "seem": 10226,
    "Ġnav": 5818,
    "Ġadroit": 26000,
    "tallow": 21084,
    "Ġimagine": 3926,
    "Ġsecretary": 19440,
    "Ġad": 443,
    "olds": 9309,
    "Ġafternoon": 6053,
    "hastened": 16844,
    "Ġgroom": 13964,
    "himself": 3975,
    "Ġheed": 5630,
    "Ġdismasted": 15249,
    "Ġcontradicted": 20210,
    "Ġtoller": 9089,
    "Ġdece": 6996,
    "rapid": 12666,
    "Ġcoding": 8116,
    "Ġevap": 19622,
    "prehend": 14241,
    "Ġnicely": 8708,
    "Ġtambourine": 9563,
    "Ġpromptly": 23815,
    "Ġcopying": 17068,
    "paint": 21017,
    "thoughtfully": 24042,
    "intellig": 5320,
    "Ġthey": 577,
    "Ġsanity": 24981,
    "Ġassistants": 9450,
    "Ġwear": 6031,
    "nered": 18490,
    "Ġwrung": 14468,
    "Ġreferences": 21672,
    "Ġtransf": 22435,
    "Ġcreator": 7254,
    "incidentally": 20538,
    "Ġhoot": 19076,
    "Ġgazing": 5876,
    "wail": 21124,
    "reporting": 24493,
    "afer": 17480,
    "Ġgilt": 21604,
    "Ġunjustly": 17125,
    "Ġinconvenient": 20008,
    "Ġshunned": 17291,
    "Ġobliquely": 12359,
    "Ġroof": 6564,
    "Ġ105": 24412,
    "ispiece": 19724,
    "Ġplayers": 12036,
    "complacency": 19913,
    "gained": 20880,
    "Ġmoments": 4845,
    "Ġkra": 18348,
    "Ġrobots": 11079,
    "Ġ221": 25068,
    "proceed": 8975,
    "Ġdock": 15927,
    "remediable": 26294,
    "Ġway": 1083,
    "Ġdevice": 1930,
    "Ġscotland": 6639,
    "arter": 17893,
    "cial": 2650,
    "Ġentrances": 25834,
    "Ġbased": 3341,
    "Ġgriefs": 16770,
    "Ġprobable": 5569,
    "Ġrheumatic": 20704,
    "least": 8783,
    "Ġpeninsula": 23194,
    "Ġmouldings": 24737,
    "kept": 11714,
    "Ġeighteenth": 14753,
    "Ġexam": 3709,
    "Ġdisinclination": 22534,
    "Ġgallows": 12142,
    "Ġcultiv": 13554,
    "Ġpure": 6137,
    "opotam": 22477,
    "Ġlid": 6983,
    "etting": 21578,
    "Ġwake": 4748,
    "Ġshape": 5639,
    "Ġplainpalais": 20736,
    "Ġwantonly": 22890,
    "Ġhieroglyphics": 17301,
    "riet": 18184,
    "xi": 17709,
    "Ġtongue": 6347,
    "raham": 18013,
    "iply": 22362,
    "murderers": 25728,
    "arnel": 18127,
    "Ġboisterous": 20441,
    "Ġchowders": 18386,
    "icher": 9201,
    "Ġabove": 2936,
    "beaten": 20314,
    "Ġscatter": 18397,
    "Ġrepresentations": 1876,
    "Ġassuredly": 14820,
    "Ġvel": 7186,
    "Ġfluttered": 16245,
    "Ġskin": 5038,
    "Ġpinioned": 21480,
    "pop": 17630,
    "rich": 11516,
    "âĢĶ_": 3198,
    "Ġgratefully": 20443,
    "Ġfellows": 8257,
    "up": 1283,
    "Ġhomely": 25219,
    "yed": 3275,
    "ges": 2874,
    "Ġordinary": 6097,
    "Ġbed": 2143,
    "Ġflatt": 16243,
    "Ġtinged": 20081,
    "igating": 21697,
    "Ġga": 4447,
    "Ġcautiously": 16976,
    "Ġmultiplication": 2872,
    "Ġobvious": 4964,
    "Ġadmiration": 5328,
    "Ġhumility": 12981,
    "Ġdownstream": 3774,
    "conscientious": 19625,
    "Ġgorge": 13564,
    "Ġdoll": 10812,
    ".}": 20744,
    "arers": 12126,
    "Ġmercy": 8997,
    "Ġointment": 21324,
    "wide": 10136,
    "fered": 5559,
    "Ġdownst": 3559,
    "Ġwindlass": 7256,
    "ely": 620,
    "Ġrequisition": 22655,
    "Ġbiographical": 22769,
    "Ġinvade": 19142,
    "preservation": 25305,
    "ni": 1673,
    "hamed": 6305,
    "Ġineffectual": 17382,
    "Ġrings": 11696,
    "Ġimprovements": 14515,
    "Ġcove": 22580,
    "Ġserene": 8167,
    "Ġpugn": 21478,
    "Ġhugest": 17014,
    "Ġcraven": 16468,
    "Ġreckoned": 24744,
    "presbyter": 20616,
    "Ġdependen": 1827,
    "interred": 23735,
    "iful": 2882,
    "Ġinmost": 17930,
    "peculiar": 6886,
    "mess": 13751,
    "lin": 9602,
    "Ġarchangel": 8542,
    "steel": 8298,
    "Ġtout": 17718,
    "Ġpennies": 17269,
    "Ġbarbaric": 10012,
    "Ġinterp": 16068,
    "Ġpropag": 16345,
    "Ġoptimization": 1370,
    "Ġspectator": 19404,
    "carriage": 9944,
    "Ġpersuasion": 10497,
    "Ġdefines": 1742,
    "Ġpreprocess": 22231,
    "Ġaint": 17743,
    "Ü": 157,
    "oise": 15402,
    "Ġcheapside": 23286,
    "Ġcelebrate": 26357,
    "Ġ111": 24435,
    "cet": 15323,
    "taken": 7561,
    "Ġric": 18209,
    "visit": 7755,
    "fear": 8513,
    "Ġsecured": 6745,
    "ison": 3075,
    "ascar": 8435,
    "Ġ=": 1072,
    "Ġnightmare": 18919,
    "Ġwaits": 23277,
    "acks": 11785,
    "Ġmacey": 12559,
    "chard": 21685,
    "Ġpunct": 8660,
    "linen": 25257,
    "Ġunconsciously": 10003,
    "Ġjail": 22292,
    "birds": 15142,
    "gences": 20876,
    "Ġeng": 1162,
    "Ġhearse": 10419,
    "Ġspecimens": 18858,
    "Ġcurve": 22979,
    "Ġwont": 9847,
    "Ġwon": 1661,
    "Ġlocations": 12410,
    "Ġpomp": 12618,
    "recover": 24623,
    "itig": 1330,
    "Ġforfeit": 21773,
    "Ġveil": 7934,
    "Ġalighted": 18103,
    "Ġmisanthrop": 22762,
    "fen": 20849,
    "rison": 13777,
    "Ġprocure": 9508,
    "actory": 8906,
    "Ġengineering": 3029,
    "ignomin": 23265,
    "wat": 6231,
    "Ġcarriages": 11097,
    "Ġchristian": 6479,
    "Ġdisreputable": 22532,
    "Ġcent": 3254,
    "Ġtick": 8109,
    "Ġarranging": 11173,
    "Ġpray": 3900,
    "wondrous": 12335,
    "Ġleader": 14700,
    "Ġsnail": 19299,
    "vision": 5619,
    "Ġbug": 11587,
    "Ġforests": 13590,
    "Ġendeavouring": 8035,
    "Ġopens": 23626,
    "Ġunwound": 25169,
    "Ġign": 8294,
    "Ġwriggling": 15255,
    "Ġfollowing": 4064,
    "Ġravines": 25831,
    "azine": 19130,
    "shavings": 22461,
    "Ġcaptains": 7457,
    "Ġnight": 1463,
    "ishly": 14198,
    "lu": 597,
    "Ġfleshy": 24615,
    "Ġbegan": 2024,
    "roqu": 21532,
    "Ġhasten": 10477,
    "Ġencircling": 26271,
    "itted": 2441,
    "onent": 21247,
    "Ġrespectively": 23245,
    "Ġsol": 1100,
    "this": 1437,
    "Ġfeast": 10276,
    "Ġxerxes": 23409,
    "networks": 2406,
    "dick": 11478,
    "perseus": 26005,
    "sleep": 6511,
    "Ġhos": 4942,
    "Ġcannot": 1662,
    "Ġexamine": 7735,
    "thur": 7188,
    "eral": 9158,
    "Ġlobster": 11388,
    "Ġhour": 1811,
    "Ġtrample": 20326,
    "Ġdecember": 15006,
    "Ġtom": 15629,
    "bones": 8372,
    "Ġdinn": 23978,
    "Ġtreated": 7080,
    "jury": 15371,
    "allows": 15904,
    "raint": 18315,
    "Ġ2026": 12332,
    "Ġmed": 3990,
    "bearers": 18527,
    "X": 60,
    "Ġmate": 3706,
    "ĠĠĠĠĠĠĠĠĠĠĠĠĠĠĠĠĠĠĠĠĠĠĠĠĠĠĠĠĠĠĠ": 19699,
    "elijah": 19471,
    "feared": 11800,
    "berg": 11855,
    "maritime": 24172,
    "Ġfirmament": 19469,
    "scept": 21052,
    "Ġchronicle": 20227,
    "reclining": 20573,
    "Ġadjusted": 23457,
    "Ġrepenting": 25322,
    "ascended": 24706,
    "Ġfinishing": 23122,
    "chief": 4644,
    "remorse": 14464,
    "Ġasser": 6257,
    "weekly": 25684,
    "Ġtherefore": 2239,
    "icular": 2025,
    "Ġcased": 21344,
    "neighboring": 20615,
    "Ġpriv": 4184,
    "Ġsweeter": 23915,
    "mod": 1014,
    "--âĢľ": 12968,
    "Ġcourt": 4171,
    "tube": 20409,
    "conceivable": 17129,
    "Ġperennial": 22692,
    "Ġstrateg": 1353,
    "Ġancient": 5443,
    "Ġvales": 21944,
    "Ġdrows": 21434,
    "knowledge": 7479,
    "Ġbolivia": 24667,
    "Ġlegal": 10438,
    "Ġesquimaux": 25150,
    "Ġaccomplishments": 13377,
    "oice": 1382,
    "infliction": 25924,
    "Ġin": 291,
    "Ġblameless": 19858,
    "ited": 1749,
    "Ġunmanner": 22027,
    "Ġmatches": 14393,
    "usations": 15944,
    "Ġnews": 3818,
    "ntax": 937,
    "Ġreflect": 6575,
    "begins": 18528,
    "ccess": 3181,
    "Ġyoked": 15731,
    "Ġlustre": 15132,
    "Ġsquaw": 22838,
    "pression": 10406,
    "Ġhappening": 14381,
    "ugnance": 12364,
    "immedi": 8450,
    "ues": 2081,
    "Ġlitter": 19828,
    "Ġsprung": 11247,
    "adv": 4537,
    "Ġretire": 10380,
    "eth": 622,
    "Ġtam": 7822,
    "quarried": 24945,
    "Ġlodgings": 8312,
    "paid": 15412,
    "Ġsim": 734,
    "Ġhaggard": 17328,
    "Ġharmony": 16813,
    "Ġstirs": 14915,
    "Ġposs": 1615,
    "itor": 12562,
    "Ġhope": 1790,
    "Ġkeels": 11060,
    "Ġbrooded": 23102,
    "ippers": 17575,
    "Ġpaddington": 17094,
    "Ġshoulders": 5565,
    "Ġsurround": 4617,
    "Ġhundred": 2693,
    "Ġfancies": 10423,
    "Ġbuckets": 17033,
    "Ġcenturies": 8622,
    "Ġb": 281,
    "earnestly": 17311,
    "riot": 18185,
    "Ġanchored": 17438,
    "orses": 6052,
    "brilliancy": 26077,
    "Ġpublished": 11240,
    "Ġcircumvent": 25064,
    "Ġduties": 6609,
    "adr": 6994,
    "Ġscreamed": 9522,
    "Ġgi": 15662,
    "Ġmult": 1023,
    "omy": 6249,
    "ert": 2635,
    "Ġrally": 21966,
    "regard": 7973,
    "Ġnantucket": 2839,
    "Ġpowerful": 1517,
    "Ġdissect": 16050,
    "Ġuncounted": 19116,
    "nonsense": 17614,
    "Ġturnkeys": 23027,
    "Ġland": 2000,
    "Ġpredicting": 2416,
    "Ġtelling": 5747,
    "Ġsuperst": 7704,
    "movement": 25577,
    "lets": 7837,
    "Ġthackeray": 26454,
    "Ġtransition": 14232,
    "immense": 18052,
    "Ġoar": 6236,
    "Ġbrack": 23833,
    "Ġuniversally": 11996,
    "Ġsalad": 19477,
    "almost": 4943,
    "Ġattach": 14289,
    "Ġunlab": 3788,
    "Ġfaster": 3195,
    "Ġminiatures": 20320,
    "Ġmort": 3460,
    "wrong": 13204,
    "interested": 9504,
    "Ġcasket": 19723,
    "orters": 21399,
    "asion": 5714,
    "thodox": 21986,
    "Ġembraces": 19871,
    "ater": 3371,
    "istle": 15867,
    "Ġadaptive": 1395,
    "Ġcrate": 19122,
    "Ġpretext": 22227,
    "odious": 21810,
    "Ġpost": 4275,
    "Ġhatty": 19264,
    "wrinkled": 16552,
    "liv": 9606,
    "Ġadopt": 10631,
    "Ġegypt": 9677,
    "thes": 7391,
    "Ġvarious": 3510,
    "speak": 5504,
    "Ġprincess": 23221,
    "Ġinvestigations": 17245,
    "Ġjogged": 26236,
    "painful": 13500,
    "Ġunless": 4094,
    "Ġtypically": 1534,
    "whips": 22236,
    "Ġscientific": 6857,
    "Ġapparently": 6778,
    "Ġsinusoidal": 4801,
    "itations": 17817,
    "iet": 1775,
    "Ġ$": 21149,
    "msgate": 18412,
    "slee": 17167,
    "Ġlunatic": 24992,
    "Ġjourney": 3881,
    "Ġbad": 3991,
    "Ġsus": 18278,
    "Ġusages": 15914,
    "Ġerect": 6143,
    "icates": 11615,
    "Ġdry": 5624,
    "Ġimprove": 1870,
    "Ġfifth": 11256,
    "Ġnormalization": 1242,
    "Ġnoah": 10941,
    "akers": 9737,
    "initely": 7569,
    "Ġduplicity": 25331,
    "Ġlothario": 26184,
    "shish": 11790,
    "lement": 10165,
    "Ġbenefits": 4289,
    "nib": 5214,
    "Ġuses": 1210,
    "Ġpostp": 12140,
    "Ġlot": 6678,
    "season": 14032,
    "Ġexhausting": 24710,
    "Ġtinge": 25087,
    "Ġungrateful": 14119,
    "rief": 6202,
    "Ġtorm": 5434,
    "spass": 18688,
    "elves": 2156,
    "Ġfixed": 2685,
    "Ġbrixton": 13661,
    "Ġstraggling": 23749,
    "Ġchancery": 20715,
    "Ġspecimen": 13019,
    "da": 17513,
    "riety": 12740,
    "Ġpleasantness": 24138,
    "induce": 22372,
    "Ġscattered": 6856,
    "arming": 8950,
    "Ġarchitecture": 1099,
    "Ġbeech": 18082,
    "impress": 18051,
    "Ġwhile": 606,
    "Ġtearless": 24786,
    "Ġbidden": 24646,
    "Ġconsistent": 14527,
    "Ġlewis": 15721,
    "Ġhandspikes": 12934,
    "asant": 17958,
    "Ġembedding": 2104,
    "ibank": 6880,
    "Ġcoburg": 18597,
    "omics": 21661,
    "sofa": 26146,
    "Ġvault": 8839,
    "Ġsimultaneous": 22586,
    "exp": 2738,
    "him": 1941,
    "Ġpoliceman": 15256,
    "owders": 18050,
    "chron": 21692,
    "Ġmetallic": 19072,
    "âĢĿ)": 21812,
    "imagination": 13478,
    "Ġglimmered": 20170,
    "Ġsplinters": 15100,
    "Ġgoin": 18469,
    "Ġdistributing": 22677,
    "Ġhypothe": 4076,
    "scales": 22992,
    "andes": 18151,
    "Ġaugmentation": 20114,
    "ager": 6546,
    "Ġpall": 7583,
    "Ġerecting": 24652,
    "mical": 9127,
    "Ġgall": 4353,
    "Ġdiscomposed": 25580,
    "Ġthrilling": 19747,
    "Ġsuburban": 17344,
    "load": 12877,
    "chop": 21686,
    "treatment": 20410,
    "Ġeither": 2604,
    "Ġhoary": 23353,
    "civil": 7797,
    "Ġkindled": 19029,
    "Ġe": 312,
    "Ġbidding": 9535,
    "crum": 17510,
    "Ġmurderers": 16810,
    "Ġbaptized": 25774,
    "Ġph": 1548,
    "Ġcommon": 1414,
    "Ġshores": 8846,
    "Ġuninter": 18246,
    "Ġinboard": 17932,
    "diversity": 25897,
    "ultural": 22566,
    "polar": 24584,
    "Ġinvestment": 24335,
    "Ġeas": 2351,
    "Ġstumped": 24942,
    "isc": 6239,
    "Ġdearly": 10400,
    "Ġconsol": 3814,
    "]": 65,
    "Ġfriendless": 23023,
    "Ġour": 1009,
    "Ġsolicited": 20035,
    "Ġscorch": 20065,
    "Ġlawyer": 10667,
    "Ġmiraculous": 13545,
    "precaution": 23820,
    "Ġpattern": 1290,
    "Ġvalidate": 3120,
    "cock": 12022,
    "Ġcuts": 14606,
    "Ġcrests": 25685,
    "omed": 13977,
    "harpooneer": 8688,
    "Ġgore": 17988,
    "Ġ67": 19659,
    "Ġguardsmen": 20629,
    "Ġbandaged": 16841,
    "--âĢĺ": 22847,
    "heredit": 21208,
    "Ġprivileges": 25132,
    "Ġreck": 6537,
    "miserable": 8656,
    "Ġevid": 3501,
    "Ġsundering": 23273,
    "Ġhistory": 4010,
    "Ġleagues": 9222,
    "Ġcolon": 18764,
    "Ġintervene": 25480,
    "Ġne": 390,
    "```": 25893,
    "Ġrosy": 18458,
    "Ġcouch": 12567,
    "Ġimpressive": 14998,
    "Ġvalued": 12179,
    "vity": 7816,
    "aye": 3659,
    "Ġobliging": 13240,
    "Ġroast": 18456,
    "Ġsuspicious": 9478,
    "Ġknow": 631,
    "Ġwarring": 16864,
    "appe": 2944,
    "lands": 8241,
    "Ġauthors": 10416,
    "secur": 18125,
    "Ġprofundities": 20452,
    "Ġsilence": 3270,
    "Ġhigher": 1819,
    "Ġheedless": 14901,
    "pip": 6654,
    "modesty": 22824,
    "unctuous": 21880,
    "porary": 14551,
    "Ġtr": 552,
    "against": 5870,
    "itate": 6667,
    "Ġclut": 7642,
    "Ġepidemic": 20694,
    "Ġunimpe": 22070,
    "Ġdecisions": 6702,
    "Ġterms": 2564,
    "olet": 13764,
    "Ġengine": 1922,
    "ornament": 23488,
    "Ġworry": 18815,
    "arrival": 15596,
    "Ġsuccession": 12098,
    "Ġpow": 4637,
    "Ġjem": 18402,
    "Ġentailed": 11025,
    "Ġembed": 1439,
    "batross": 9091,
    "Ġsense": 3251,
    "Ġconfirmation": 17209,
    "bull": 13688,
    "Ġeag": 2968,
    "glorious": 19365,
    "Ġdick": 3497,
    "ugal": 19019,
    "Ġfriday": 14487,
    "Ġassid": 18944,
    "skelter": 24489,
    "powers": 25410,
    "Ġunch": 18239,
    "Ġunfaltering": 24112,
    "ashions": 16415,
    "Ġfears": 5729,
    "Ġsuggestion": 19706,
    "outer": 9667,
    "Ġprogram": 12989,
    "exam": 10975,
    "Ġfebruary": 15910,
    "ization": 483,
    "activation": 3232,
    "Ġsaviour": 20712,
    "ving": 594,
    "Ġphysical": 7523,
    "haust": 5777,
    "unsupervised": 10888,
    "sure": 5522,
    "mounting": 25207,
    "favour": 9547,
    "rents": 5308,
    "Ġquadrille": 13539,
    "readily": 19360,
    "Ġkindness": 4100,
    "Ġcunning": 6238,
    "ft": 908,
    "Ġtwelvemonth": 12174,
    "Ġcommanding": 16589,
    "orous": 5292,
    "Ġconcealment": 16913,
    "Ġdubious": 17381,
    "rifice": 12500,
    "Ġnovelist": 24777,
    "Ġensures": 3057,
    "mont": 19168,
    "clever": 20812,
    "iom": 20914,
    "Ġnowadays": 18546,
    "Ġdistribut": 841,
    "Ġgroan": 13322,
    "finally": 9497,
    "Ġapparition": 8067,
    "Ġcompassion": 6487,
    "Ġnigh": 4878,
    "Ġwicked": 5961,
    "wer": 8395,
    "iv": 430,
    "Ġre": 317,
    "Ġfaith": 5350,
    "entire": 6824,
    "ular": 708,
    "Ġevenness": 22833,
    "bted": 7794,
    "whew": 22866,
    "Ġshowing": 7732,
    "Ġdyspepsia": 20642,
    "Ġsmall": 893,
    "related": 24010,
    "drawing": 10485,
    "baboon": 25516,
    "des": 1569,
    "Ġdecline": 9285,
    "Ġpropensity": 18996,
    "Ġtoll": 7852,
    "ineas": 15819,
    "recurrent": 4994,
    "Ġdramatic": 4850,
    "Ġcorrupt": 11920,
    "sed": 4178,
    "Ġfluffy": 19362,
    "learned": 8600,
    "Ġpleasanter": 19065,
    "dost": 14534,
    "Ġdoubled": 19641,
    "Ġhauling": 14085,
    "Ġperish": 8873,
    "Ġphysi": 9986,
    "Ġsublim": 19965,
    "Ġwines": 21286,
    "Ġfortun": 4982,
    "silent": 9972,
    "Ġsubterranean": 13609,
    "Ġrepugnant": 26589,
    "Ġprovoke": 14824,
    "pt": 386,
    "being": 3915,
    "Ġassist": 3564,
    "industrious": 26239,
    "Ġcoming": 2619,
    "Ġther": 17777,
    "Ġprophets": 20449,
    "Ġenduring": 16300,
    "inev": 21977,
    "Ġapple": 14166,
    "ength": 2312,
    "Ġlately": 6387,
    "publ": 17637,
    "dire": 15334,
    "Ġoscillations": 2899,
    "staking": 21640,
    "neglected": 25669,
    "maid": 8552,
    "uning": 1312,
    "Ġaright": 11737,
    "terns": 21820,
    "directed": 20403,
    "Ġris": 4886,
    "ss": 398,
    "Ġlull": 15647,
    "Ġnail": 9194,
    "aky": 18411,
    "crimin": 17507,
    "perpet": 14160,
    "office": 16392,
    "Ġfavourite": 5270,
    "Ġly": 2269,
    "Ġbrave": 6329,
    "Ġfamine": 16325,
    "rals": 21041,
    "ow": 326,
    "Ġnom": 21517,
    "fred": 20854,
    "Ġresolute": 19244,
    "Ġhumiliating": 22880,
    "Ġdowncast": 18652,
    "Ġminutes": 3003,
    "Ġgets": 10838,
    "Ġhandle": 3137,
    "backed": 9864,
    "Ġexcl": 3474,
    "herald": 22205,
    "ked": 5615,
    "Ġagon": 10319,
    "Ġhans": 12622,
    "Ġmanner": 2193,
    "Ġcomput": 602,
    "stall": 21638,
    "Ġtrades": 8232,
    "Ġripples": 25505,
    "Ġafghan": 22627,
    "Ġeaster": 15671,
    "Ġcomposure": 7217,
    "lid": 20944,
    "Ġbefall": 8827,
    "make": 5793,
    "Ġflush": 14422,
    "Ġdisgusting": 19893,
    "afric": 19179,
    "Ġbag": 5699,
    "saving": 21058,
    "Ġquietude": 19358,
    "Ġcir": 21339,
    "listen": 13512,
    "Ġinscribed": 24938,
    "traversed": 19638,
    "Ġdiscount": 22780,
    "Ġhigh": 934,
    "Ġdiadem": 24741,
    "misfortunes": 16755,
    "book": 4669,
    "pper": 3208,
    "Ġprophetic": 20018,
    "smo": 10124,
    "Ġstupidity": 15048,
    "sar": 12501,
    "aph": 10953,
    "stairs": 5155,
    "fell": 6953,
    "prit": 19340,
    "Ġundiscernible": 22066,
    "ufact": 10732,
    "Ġcommander": 8624,
    "Ġnarwhale": 12290,
    "Ġreconcile": 25291,
    "Ġsad": 3869,
    "shell": 16284,
    "Ġimprudence": 10296,
    "Ġutterance": 14762,
    "Ġclearer": 16309,
    "intimate": 22935,
    "Ġconceits": 19388,
    "Ġintact": 21987,
    "highly": 24764,
    "capital": 15086,
    "Ġtrust": 4082,
    "Ġcottages": 14726,
    "Ġhunks": 18935,
    "jumped": 20245,
    "van": 7815,
    "ł": 259,
    "Ġtreading": 16502,
    "reproach": 15184,
    "pse": 21008,
    "Ġgroup": 2039,
    "Ġparliament": 18302,
    "Ġtheology": 21275,
    "Ġcatches": 23425,
    "Ġhelps": 9365,
    "Ġbrigandish": 25487,
    "Ġreduce": 7943,
    "th": 408,
    "Ġresembling": 4101,
    "pret": 7212,
    "bedroom": 14675,
    "Ġguards": 16264,
    "scy": 21054,
    "jar": 17576,
    "Ġinterconnected": 1336,
    "Ġrealism": 18983,
    "Ġoverpow": 14202,
    "Ġnecessitates": 23926,
    "Ġmoods": 14949,
    "urre": 10855,
    "Ġreligious": 25121,
    "reast": 17757,
    "Ġintegral": 25008,
    "Ġspring": 4123,
    "co": 2434,
    "Ġspoon": 22132,
    "generations": 23784,
    ").": 1272,
    "Ġadmission": 23554,
    "Ġconveniently": 20077,
    "iogn": 20920,
    "Ġappeal": 16311,
    "Ġscrape": 14916,
    "penny": 22943,
    "Ġunperceived": 22035,
    "Ġicicles": 25264,
    "agony": 14067,
    "Ġceti": 24773,
    "ĠâĢĶ": 13809,
    "Ġsister": 1472,
    "Ġharpo": 1944,
    "Ę": 217,
    "bordered": 17497,
    "ropol": 10951,
    "inglass": 21301,
    "Ġalmanac": 26484,
    "Ġharvard": 24572,
    "fight": 17537,
    "Ġoctober": 17225,
    "Ġstrives": 23693,
    "sorts": 21059,
    "Ġchristians": 13306,
    "Ġdumplings": 15188,
    "Ġpertur": 12847,
    "wouldn": 23534,
    "rates": 21037,
    "Ġruss": 18719,
    "Ġhon": 2536,
    "Ġprecip": 7074,
    "itting": 1151,
    "gely": 10699,
    "£": 101,
    "Ġapartment": 6633,
    "Ġburnwell": 13265,
    "Ġdespite": 19351,
    "Ġintimate": 6549,
    "Ġprivacy": 19523,
    "Ġresolution": 5500,
    "sh": 647,
    "Ġcares": 9364,
    "Ġdisappeared": 5645,
    "Ġresent": 6049,
    "Ġtransactions": 18482,
    "Ġtyro": 16993,
    "Ġremarked": 3694,
    "died": 10692,
    "oll": 5456,
    "Ġslung": 23166,
    "Ġgaol": 19566,
    "Ġshouts": 19536,
    "inking": 6709,
    "acter": 2505,
    "Ġpack": 5444,
    "Ġstreaming": 19672,
    "Ġprofanely": 23569,
    "Ġcusack": 26432,
    "zed": 8104,
    "december": 25558,
    "Ġslappin": 18942,
    "attered": 4020,
    "announcement": 24561,
    "Ġyelling": 18096,
    "Ġhole": 6080,
    "Ġyarn": 10867,
    "Ġtubs": 11369,
    "committed": 18740,
    "Ġjog": 18404,
    "Ġvishnoo": 12749,
    "Ġblasts": 19994,
    "Ġprolong": 6832,
    "Ġinvented": 17036,
    "ying": 1367,
    "Ġsplend": 9896,
    "vered": 4830,
    "ifle": 10890,
    "Ġtender": 5753,
    "Ġheated": 21680,
    "Ġinsufficient": 9671,
    "inent": 9627,
    "Ġincommunicable": 26610,
    "Ġcount": 1814,
    "Ġpint": 17907,
    "Ġponies": 21474,
    "Ġemerg": 13422,
    "Ġanywhere": 8516,
    "Ġreposing": 23360,
    "Ġconfidence": 6590,
    "Ġmaximizing": 3168,
    "nd": 11502,
    "Ġmeddle": 19490,
    "ity": 417,
    "Ġterti": 14537,
    "Ġhurrah": 9867,
    "Ġmap": 2392,
    "anyth": 5438,
    "Ġcontortions": 18476,
    "inite": 6002,
    "A": 37,
    "Ġfurnace": 19438,
    "**": 4685,
    "ange": 1019,
    "fish": 3516,
    "Ġidler": 16402,
    "Ġloudly": 7312,
    "Ġscheme": 7064,
    "Ġsupport": 6728,
    "Ġimpat": 4457,
    "six": 7141,
    "Ġfainting": 16896,
    "Ġsunlight": 13082,
    "Ġelephants": 9862,
    "Ġamph": 18510,
    "Ġmir": 9645,
    "Ġpropriet": 9548,
    "contriv": 19292,
    "Ġunwillingly": 15845,
    "Ġcastle": 14715,
    "Ġgerm": 13962,
    "elephant": 12348,
    "Ġwail": 21285,
    "Ġoat": 21321,
    "Ġfrench": 4939,
    "Ġabated": 18390,
    "Ġcubic": 20086,
    "bene": 6112,
    "Ġinvolving": 18762,
    "Ġsched": 2335,
    "Ġmention": 2988,
    "vig": 15444,
    "Ġgrief": 4620,
    "Ġforger": 15729,
    "Ġgalvan": 21615,
    "Ġinfamous": 16362,
    "Ġelizabeth": 1127,
    "Ġcompacted": 23508,
    "spades": 14330,
    "musical": 25340,
    "Ġtrustees": 24107,
    "Ġright": 1502,
    "Ġeffected": 14352,
    "Ġsyrian": 18353,
    "browed": 25894,
    "merit": 19280,
    "icirc": 15652,
    "Ġconject": 6027,
    "gracechurch": 24580,
    "asc": 6386,
    "Ġtiger": 11553,
    "pleasanter": 24045,
    "discovering": 24250,
    "Ġcape": 5146,
    "Ġdinnertime": 16718,
    "Ġhyena": 24518,
    "Ġnear": 1718,
    "Ġthree": 1371,
    "Ġirregularity": 25324,
    "Ġcirc": 1988,
    "ess": 409,
    "Ġdisaster": 12883,
    "Ġassisting": 13255,
    "Ġpicturesque": 14892,
    "und": 4090,
    "guessed": 25872,
    "Ġdistinguished": 8273,
    "Ġintimately": 24804,
    "Ġgrieved": 8297,
    "bular": 15311,
    "Ġpatch": 4182,
    "rested": 13072,
    "shrouded": 26361,
    "lucky": 24544,
    "Ġkilburn": 18351,
    "oars": 9613,
    "Ġvoyage": 3056,
    "ceptible": 10955,
    "Ġneur": 813,
    "Ġembarks": 22984,
    "Ġexpl": 488,
    "see": 3049,
    "dle": 3248,
    "Ġaudacious": 13458,
    "Ġsayest": 22777,
    "icles": 17972,
    "Ġrise": 5637,
    "give": 4688,
    "Ġmethodology": 2521,
    "best": 6111,
    "Ġans": 1640,
    "Ġsatir": 18792,
    "Ġindecision": 25781,
    "says": 13297,
    "conveyed": 20519,
    "streets": 13393,
    "Ġpatron": 7464,
    "Ġmungo": 25631,
    "firmly": 20279,
    "Ġlic": 8436,
    "Ġsavage": 4013,
    "jumping": 20244,
    "Ġmartha": 16258,
    "Ġreflecting": 24751,
    "butter": 11782,
    "Ġfearful": 6197,
    "itch": 10159,
    "Ġterribly": 10424,
    "Ġengagement": 5397,
    "âĢĿ": 354,
    "iltrated": 19305,
    "poke": 18796,
    "jets": 20927,
    "exagger": 22426,
    "Ġadmiral": 17303,
    "ga": 17549,
    "nial": 20983,
    "Ġlacey": 10196,
    "allies": 14164,
    "owal": 13994,
    "ls": 1291,
    "Ġhookah": 16969,
    "Ġprow": 6684,
    "Ġwoody": 23518,
    "quest": 4538,
    "sme": 17657,
    "Ġdeclaring": 19418,
    "Ġbrix": 12579,
    "provoke": 26071,
    "Ġeye": 2281,
    "corn": 13697,
    "Ġmiriam": 25273,
    "grasp": 16428,
    "appearing": 14636,
    "inside": 23064,
    "Ġundisturbed": 19518,
    "Ġlest": 6395,
    "chat": 21684,
    "clerval": 7951,
    "Ġparcel": 15197,
    "gallery": 24693,
    "Ġinto": 648,
    "Ġfeminine": 15261,
    "!--": 10676,
    "Ġends": 8238,
    "Ġdistributed": 18661,
    "Ġjeopardy": 13594,
    "Ġtraverse": 18891,
    "sick": 13782,
    "baby": 25515,
    "Ġrobberies": 23017,
    "Ġhawaiian": 25366,
    "greek": 25404,
    "Ġwindows": 4971,
    "Ġunwonted": 14123,
    "Ġhelen": 16654,
    "Ġinjuring": 24267,
    "Ġsplendidly": 25327,
    "Ġchurches": 12824,
    "Ġwalrus": 14971,
    "Ġoutward": 7905,
    "respectable": 19846,
    "Ġransacked": 26503,
    "whiskers": 12308,
    "ision": 1853,
    "Ġcomputing": 2220,
    "ousings": 18335,
    "Ġimminent": 11243,
    "Ġdict": 9174,
    "Ġdisgu": 8206,
    "foam": 24417,
    "Ġbags": 24536,
    "Ġblanket": 8343,
    "tain": 559,
    "Ġlakes": 8131,
    "Ġherein": 16188,
    "understood": 13214,
    "Ġinternal": 2245,
    "steak": 14706,
    "Ġ56": 24323,
    "Ġanyhow": 14253,
    "Ġawful": 6199,
    "crooked": 25746,
    "Ġringing": 13329,
    "alously": 15625,
    "Ġangry": 5498,
    "conversation": 7122,
    "Ġrav": 14302,
    "Ġpreviously": 3922,
    "Ġtemporal": 2613,
    "pike": 11513,
    "Ġslumbers": 18941,
    "games": 20879,
    "Ġimmemorially": 25383,
    "Ġcringing": 25941,
    "Ġbelief": 5855,
    "gal": 15353,
    "Ġthereupon": 18434,
    "Ġinvariable": 13454,
    "Ġfoul": 7159,
    "Ġderick": 9362,
    "mped": 16646,
    "Ġbrutality": 26276,
    "oir": 21001,
    "unned": 21876,
    "Ġmystery": 5509,
    "Ġsidel": 9634,
    "arts": 6563,
    "prim": 23808,
    "simultaneously": 19863,
    "Ġbowed": 6242,
    "octial": 20003,
    "Ġcoverage": 4290,
    "Ġbashee": 19848,
    "Ġdespair": 4012,
    "etimes": 1990,
    "Ġadvertisement": 6941,
    "Ġbankers": 24301,
    "Ġcrutch": 23445,
    "Ġflamingo": 15098,
    "Ġsquee": 7929,
    "venor": 16094,
    "Ġilluminated": 20174,
    "Ġgrizzled": 11449,
    "Ġprefer": 6416,
    "Ġrespectfully": 18993,
    "Ġseasonable": 24405,
    "Ġquieted": 23840,
    "Ġgeor": 3388,
    "Ġdaughters": 4423,
    "Ġdirectors": 18921,
    "Ġpoising": 22589,
    "limin": 8384,
    "Ġinwards": 15617,
    "perquisites": 26530,
    "Ġjoking": 12833,
    "circum": 16736,
    "Ġcompared": 2229,
    "Ġclimb": 15077,
    "despair": 8344,
    "telling": 14438,
    "Ġhazarded": 25654,
    "Ġcents": 17828,
    "Ġciv": 3310,
    "--------": 14779,
    "wealth": 22686,
    "cords": 25136,
    "Ġseeming": 8539,
    "Ġdiscerned": 24956,
    "ounding": 22391,
    "hampshire": 23263,
    "Ġvect": 1224,
    "Ġhated": 7585,
    "Ġbaked": 21384,
    "Ġhastened": 9003,
    "Ġsuperiors": 23454,
    "Ġbeen": 626,
    "Ġlithe": 24668,
    "foot": 9045,
    "grave": 16091,
    "Ġmuslin": 19381,
    "Ġby": 383,
    "seen": 2881,
    "shape": 10982,
    "Ġdisregard": 22526,
    "Ġprincipally": 11308,
    "lestrade": 9655,
    "Ĭ": 237,
    "uling": 2257,
    "Ġedition": 16432,
    "Ġsymmetry": 20364,
    "Ġcopper": 7425,
    "Ġpress": 5932,
    ";--": 8069,
    "Ġindef": 9188,
    "Ġthunders": 15634,
    "listener": 24930,
    "Ġpredecess": 18517,
    "emy": 14071,
    "pleasantness": 19769,
    "Ġflow": 1238,
    "evening": 7089,
    "ellow": 3877,
    "simp": 17664,
    "etch": 9203,
    "udding": 11862,
    "ane": 1179,
    "Ġnamed": 6139,
    "Ġtons": 11548,
    "rifle": 21045,
    "Ġabroad": 8864,
    "anks": 3919,
    "Ġdip": 13905,
    "ravelled": 18014,
    "sperm": 5203,
    "ceiving": 3903,
    "Ġrephr": 21677,
    "appear": 13196,
    "itheat": 21336,
    "iff": 3906,
    "Ġaberdeen": 26540,
    "admire": 24943,
    "Ġmassa": 19452,
    "Ġrevellers": 21676,
    "intu": 22931,
    "Ġ2": 2929,
    "mistak": 16877,
    "Ġfondness": 16779,
    "Ġdragg": 23212,
    "Ġmetrics": 19073,
    "h": 76,
    "trying": 15436,
    "door": 6193,
    "Ġobsolete": 26557,
    "crowning": 25748,
    "Ġdumb": 7844,
    "Ġpeering": 8534,
    "Ġpieces": 7369,
    "bpp": 20771,
    "Ġkindred": 16372,
    "Ġcommence": 6167,
    "Ġweighing": 20014,
    "dee": 11730,
    "Ĵ": 245,
    "mag": 6508,
    "wall": 10135,
    "Ġfaces": 6009,
    "Ġregimentals": 19857,
    "Ġhor": 1656,
    "onies": 6806,
    "ish": 550,
    "ib": 1233,
    "aguy": 21908,
    "rian": 10241,
    "Ġpond": 13914,
    "travel": 24315,
    "knows": 19171,
    "Ġimplac": 24874,
    "aciousness": 18606,
    "Ġstriding": 16090,
    "Ġnext": 2138,
    "Ġhumiliation": 16196,
    "Ġbubble": 13533,
    "Ġgr": 977,
    "Ġprosperous": 15168,
    "proachable": 23396,
    "Ġclanging": 18429,
    "Ġroots": 11184,
    "Ġgentlemanlike": 12063,
    "hval": 20897,
    "Ġturkish": 12258,
    "och": 21000,
    "heric": 15909,
    "gabriel": 15358,
    "ksome": 10103,
    "Ġrummaged": 16909,
    "Ġriverside": 25247,
    "assment": 9738,
    "Ġfriendly": 9818,
    "knight": 20939,
    "Ġpyramid": 8800,
    "Ġex": 361,
    "eler": 1574,
    "apable": 6422,
    "Ġwonderland": 23423,
    "Ġdescribing": 19253,
    "Ġpersuade": 5872,
    "Ġshillings": 15832,
    "Ġsherlock": 3894,
    "spin": 22732,
    "Ġcompleted": 8996,
    "Ġanno": 9666,
    "Í": 142,
    "Ġwelcome": 5603,
    "Ġpam": 21452,
    "Ġlicense": 20089,
    "Ġmyself": 1452,
    "amore": 21841,
    "Ġcompass": 4410,
    "Ġpolitely": 8993,
    "americ": 8156,
    "Ġspile": 22125,
    "breathing": 25335,
    "Ġaux": 21198,
    "Ġthreats": 13375,
    "declined": 25174,
    "Ġmessage": 13521,
    "Ġencoding": 4773,
    "Ġsnarled": 25716,
    "Ġpowdered": 24236,
    "inspect": 11557,
    "sided": 17663,
    "pen": 1204,
    "Ġpron": 6451,
    "Ġsight": 2111,
    "twilight": 23700,
    "Ġmira": 8407,
    "Ġarisen": 11740,
    "Ġcow": 13874,
    "Ġmuttered": 7086,
    "comprehens": 16169,
    "Ġruskin": 25808,
    "Ġnecks": 18183,
    "Ġfrankness": 16745,
    "Ġestablishment": 13577,
    "lowering": 16029,
    "name": 6795,
    "Ġwildly": 9412,
    "Ġbuoy": 8004,
    "edmund": 17945,
    "vent": 683,
    "uits": 21103,
    "august": 11070,
    "afterwards": 7485,
    "Ġcondense": 21806,
    "Ġtragic": 15253,
    "Ġvisitors": 7985,
    "dial": 20824,
    "Ġgrew": 5182,
    "Ġtusk": 25425,
    "Ġloftiest": 16873,
    "offic": 7466,
    "Ġenticements": 26034,
    "Ġgeorge": 3747,
    "sin": 21047,
    "starbuck": 6019,
    "Ġfatality": 12091,
    "situation": 11436,
    "Ġinsignificance": 20456,
    "Ġsuppression": 22998,
    "Ġencoun": 4512,
    "Ġwhim": 13997,
    "ination": 2913,
    "Ġturing": 7567,
    "featured": 23980,
    "metallic": 19879,
    "Ġvess": 3298,
    "itively": 21329,
    "Ġclasping": 20208,
    "Ġinterview": 9768,
    "tumbled": 21089,
    "whose": 6852,
    "Ġconversed": 13186,
    "iless": 10280,
    "accidents": 19211,
    "robe": 15638,
    "Ġphantoms": 13484,
    "Ġcuff": 17829,
    "sway": 15422,
    "Ġmaxim": 3085,
    "Ġconception": 10312,
    "Ġundulated": 19515,
    "icken": 6711,
    "Ġlubber": 17442,
    "sartain": 25622,
    "Ġbadge": 16682,
    "failed": 20862,
    "furthest": 19840,
    "Ġordin": 16649,
    "Ġsagacity": 16973,
    "haz": 17563,
    "Ġjones": 7204,
    "nerable": 16272,
    "Ġrubbed": 12951,
    "abounding": 25979,
    "oyed": 14360,
    "ö": 183,
    "Ġdesper": 6176,
    "Ġhandsomer": 20332,
    "Ġneared": 14073,
    "âĢľâĢĶ": 10871,
    "formality": 22212,
    "Ġsustaining": 25333,
    "Ġfarther": 5955,
    "rid": 5137,
    "prevailed": 17343,
    "Ġheld": 3585,
    "Ġjub": 22293,
    "severe": 21816,
    "pistol": 17641,
    "Ġgeomet": 3189,
    "Ġseasoned": 24404,
    "Ġpatched": 16378,
    "Ġcreeping": 18683,
    "Ġcouldn": 7649,
    "Ġcomforted": 19389,
    "Ġunrecord": 16620,
    "Ġscraps": 16901,
    "Ġnodded": 11966,
    "private": 13580,
    "crews": 15041,
    "Ġinfrequent": 3823,
    "Ġcompelled": 14264,
    "Ġundressed": 19512,
    "Ġvoyager": 16510,
    "Ġarmed": 9258,
    "somehow": 12008,
    "Ġinconsist": 17935,
    "Ġcolumn": 9326,
    "osop": 4406,
    "Ġbeard": 11653,
    "Ġnobler": 14174,
    "sequ": 2402,
    "zor": 15456,
    "gracious": 11828,
    "Ġaffair": 4464,
    "astes": 11736,
    "elve": 4641,
    "Ġsprang": 5064,
    "Ġschoolboys": 24480,
    "©": 107,
    "Ġexamined": 6334,
    "ables": 7891,
    "Ġborders": 15568,
    "Ġreg": 725,
    "Ġwearily": 18177,
    "sisters": 13374,
    "Ġpulpit": 7470,
    "Ġpopulous": 16825,
    "urns": 10212,
    "Ġ86": 24460,
    "telesc": 22816,
    "anting": 6412,
    "groom": 8739,
    "Ġsafe": 5103,
    "Ġgreater": 3040,
    "cad": 17503,
    "Ġretain": 7864,
    "iqu": 7803,
    "Ġpervading": 20612,
    "ignific": 11953,
    "faith": 15023,
    "udg": 22752,
    "Ġhindoo": 17174,
    "lover": 18539,
    "Ġviv": 6156,
    "Ġbasin": 19847,
    "Ġmoul": 15540,
    "Ġcheese": 9375,
    "inex": 14094,
    "Ġscores": 2715,
    "rushed": 10583,
    "ext": 915,
    "Ġproclaim": 18130,
    "Ġcompares": 20165,
    "alogue": 25159,
    "hence": 16623,
    "Ġvisiting": 10356,
    "naturally": 14561,
    "Ġrewarding": 13435,
    "Ġclean": 5652,
    "dutch": 17217,
    "Ġincludes": 2014,
    "Ġconflict": 17272,
    "blocks": 25517,
    "numerous": 17429,
    "Ġmeridians": 17354,
    "sinking": 17667,
    "clergy": 18933,
    "400": 20754,
    "Ġmusky": 19380,
    "Ġeffectively": 2629,
    "Ġdifficult": 3571,
    "Ġ": 225,
    "Ġpurposes": 11167,
    "deaux": 22147,
    "Ġultimately": 17163,
    "strils": 10457,
    "ourse": 8868,
    "ler": 3491,
    "ece": 17530,
    "Ġhonour": 3925,
    "Ġdiffidence": 14658,
    "include": 23588,
    "Ġforbear": 17120,
    "ui": 9143,
    "Ġingratitude": 17467,
    "ĠĠĠĠĠĠĠĠĠĠĠĠĠĠĠĠĠĠĠĠĠĠĠĠĠĠĠĠĠĠĠĠĠĠĠĠĠ": 14613,
    "Ġnumer": 3638,
    "ertain": 1208,
    "Ġalan": 10868,
    "Ġobtain": 8913,
    "harrow": 20907,
    "belais": 24036,
    "Ġmanoir": 22329,
    "Ġuncomp": 15838,
    "andy": 8158,
    "Ġmutilated": 23956,
    "Ġeverything": 3154,
    "Ġstilly": 25973,
    "Ġbegg": 16249,
    "res": 2759,
    "Ġremnants": 22791,
    "Ġtongs": 9959,
    "Ġknitting": 24217,
    "ooping": 21006,
    "Ġdeclared": 5594,
    "Ġinevitable": 15165,
    "afflicted": 23777,
    "ceremony": 20588,
    "Ġnuts": 17951,
    "considered": 9579,
    "remem": 13063,
    "honey": 20904,
    "Ġadd": 629,
    "Ġthoughtfully": 12976,
    "instantly": 7507,
    "Ġforms": 6397,
    "Ġwindward": 6885,
    "Ġweb": 9238,
    "Ġauthority": 7749,
    "Ġtidings": 11396,
    "jaws": 20931,
    "composure": 24032,
    "circumst": 5348,
    "ppered": 15787,
    "olog": 1095,
    "urch": 3996,
    "Ġult": 9073,
    "Ġtend": 6120,
    "judges": 19572,
    "Ġmolasses": 25628,
    "unching": 18158,
    "Ġmice": 13857,
    "Ġpry": 11597,
    "ally": 531,
    "ical": 752,
    "Ġpreceded": 13426,
    "Ġkid": 9723,
    "choose": 23671,
    "Ġbigger": 19760,
    "ouncement": 11742,
    "ropri": 2177,
    "eed": 20840,
    "enty": 2916,
    "mockery": 24377,
    "safe": 10052,
    "Ġbids": 24645,
    "Ġscraped": 16902,
    "Ġwal": 6517,
    "Ġdiverse": 19208,
    "Ġxv": 23405,
    "Ġdeliver": 9845,
    "Ġvigilant": 20183,
    "feren": 765,
    "idious": 11660,
    "Ġgoverned": 23570,
    "ding": 1230,
    "Ġangular": 19206,
    "andromeda": 21866,
    "imly": 12683,
    "Ġblemish": 19678,
    "control": 16541,
    "uish": 5431,
    "silver": 19689,
    "Ġblacksmiths": 19872,
    "Ġjing": 15946,
    "ogne": 12936,
    "moving": 11015,
    "Ġsquires": 16180,
    "mph": 20971,
    "Ġaudio": 24772,
    "Ġunde": 11709,
    "Ġreaches": 18031,
    "Ġaberde": 22275,
    "more": 1033,
    "Ġlengthen": 15650,
    "Ġstrip": 9419,
    "aces": 2069,
    "Ġamid": 4959,
    "Ġshag": 9249,
    "Ġstricken": 9774,
    "Ġyes": 2688,
    "Ġdeer": 12716,
    "Ġmushroom": 13233,
    "collected": 13211,
    "islanders": 25442,
    "place": 4156,
    "flesh": 13488,
    "nx": 17606,
    "itive": 6668,
    "Ġgentleness": 8709,
    "drink": 10594,
    "Ġswift": 3668,
    "pursu": 11391,
    "Ġstick": 6026,
    "Ġfragmentary": 25857,
    "wandered": 20284,
    "laid": 10108,
    "Ġjob": 7015,
    "Ġsword": 6732,
    "warning": 25531,
    "Ġpatroness": 13508,
    "Ġlifelessly": 23048,
    "usually": 10284,
    "Ġcigar": 9543,
    "aulding": 11338,
    "Ġspeakest": 23486,
    "._]]": 5334,
    "Ġricher": 12755,
    "Ġmerry": 5868,
    "Ġmoth": 17802,
    "Ġgaz": 4045,
    "pute": 8843,
    "/": 19,
    "Ġq": 1082,
    "Ġimpropriety": 17393,
    "Ġpadd": 9668,
    "dec": 3112,
    "Ġmeat": 8152,
    "Ġpsal": 15612,
    "Ġinsc": 7586,
    "cious": 6643,
    "Ġmallet": 17810,
    "Ġmisled": 22759,
    "Ġshowed": 4497,
    "pur": 7807,
    "Ġdiff": 3115,
    "Ġstem": 15715,
    "Ġtemptation": 8677,
    "Ġhedge": 8364,
    "Ġtides": 13819,
    "Ġwalled": 15532,
    "Ġsoap": 14129,
    "Ġrelaps": 18774,
    "iration": 4540,
    "Ġterrify": 19359,
    "retrospect": 23134,
    "Ġcaul": 10786,
    "previous": 9759,
    "Ġprovincial": 20649,
    "Ġlashes": 17966,
    "officers": 10626,
    "Ġinoffensive": 21496,
    "Ġvor": 15803,
    "harpooned": 24285,
    "Ġrome": 12152,
    "rior": 12738,
    "Ġtea": 5041,
    "endom": 15920,
    "quid": 18146,
    "Ġ38": 24078,
    "ud": 912,
    "Ġafric": 8904,
    "restoration": 23234,
    "excellent": 8044,
    "henomena": 20271,
    "quick": 6400,
    "visible": 10532,
    "Ġheedfully": 24520,
    "confidential": 25876,
    "locked": 7679,
    "Ġoaks": 16932,
    "ription": 5676,
    "Ġmaimed": 21315,
    "Ġwouldn": 6046,
    "Ġassumptions": 5517,
    "supplied": 10518,
    "Ġul": 6828,
    "Ġfang": 21401,
    "Ġsuch": 794,
    "Ġincomp": 12893,
    "Ġreckless": 13456,
    "Ġinverted": 12633,
    "Ġproceed": 3243,
    "ropes": 7904,
    "Ġpau": 17906,
    "july": 20473,
    "consider": 6348,
    "entitled": 21566,
    "Ġcomment": 9231,
    "Ġvehem": 22887,
    "Ġnever": 1020,
    "<SOS>": 1,
    "prob": 7069,
    "Ġcontradict": 12382,
    "bring": 9103,
    "sticks": 25964,
    "amp": 2606,
    "dis": 2249,
    "Ġsemicirc": 16390,
    "Ġsporty": 19889,
    "Ġstep": 751,
    "Ġvintage": 26209,
    "Ġhealthful": 24057,
    "Ġjavel": 17083,
    "âĢĶ(": 15935,
    "Ġpoker": 13920,
    "Ġconcentration": 25062,
    "oud": 1943,
    "Ġjokes": 18408,
    "Ġdemig": 20355,
    "Ġveget": 11883,
    "Ġconfl": 11136,
    "unaffected": 21881,
    "izzy": 3095,
    "Ġnantucketers": 9893,
    "Ġyojo": 7611,
    "Ã¦": 4339,
    "Ġfurnaces": 24003,
    "retched": 3069,
    "Ġrejoined": 14925,
    "pow": 10716,
    "Ġgallon": 24183,
    "beef": 18526,
    "sell": 13779,
    "Ġrenow": 18027,
    "Ġanguish": 5582,
    "phew": 6368,
    "Ġunravel": 26214,
    "Ġvon": 14079,
    "Ġpruning": 18971,
    "Ġunprepared": 22048,
    "us": 532,
    "--": 1043,
    "estations": 22220,
    "Ġornaments": 17450,
    "Ġenvelope": 7319,
    "heidelburgh": 21210,
    "towing": 17688,
    "bet": 6109,
    "Ġrevolving": 9981,
    "Ġreappearance": 21665,
    "anatory": 21361,
    "racts": 14362,
    "Ġperpet": 7645,
    "Ġmodular": 12815,
    "Ġtrespass": 23599,
    "Ġstag": 6148,
    "however": 4374,
    "Ġhear": 1965,
    "Ġmoderate": 10938,
    "awing": 18915,
    "acters": 9307,
    "Ġfish": 2710,
    "ogene": 18674,
    "Ġthieves": 15632,
    "Ġconfidential": 9086,
    "Ġstammered": 26199,
    "occur": 19574,
    "acca": 23596,
    "Ġseen": 1368,
    "Ġobed": 8535,
    "Ġ79": 24263,
    "ates": 519,
    "account": 5329,
    "mighty": 9465,
    "Ġprelimin": 8859,
    "Ġstoke": 10394,
    "emotion": 21926,
    "Ġ1839": 20458,
    "ounder": 11741,
    "Ġpound": 12612,
    "ors": 852,
    "greater": 13249,
    "Ġremonstrate": 22792,
    "istrate": 7406,
    "Ġli": 601,
    "ols": 2413,
    "ital": 4817,
    "Ġflapped": 23009,
    "Ġcatastrop": 3349,
    "_.âĢĻâĢĿ": 17478,
    "geons": 15976,
    "**:": 4736,
    "Ġbrass": 11047,
    "typewritten": 26038,
    "Ġ114": 24437,
    "Ġaudits": 24770,
    "Ġhappiness": 2945,
    "Ġunsav": 18251,
    "anded": 5923,
    "ellect": 7381,
    "Ġmoot": 22428,
    "enhall": 13848,
    "É": 138,
    "fth": 20855,
    "Ġcap": 2360,
    "prosper": 19100,
    "solemn": 19816,
    "kered": 18274,
    "Ġcrowder": 19454,
    "Ġpersons": 6180,
    "Ġexpensive": 12913,
    "Ġenumerating": 15242,
    "bow": 5424,
    "movable": 14322,
    "Ġdefined": 11895,
    "Ġburned": 8630,
    "Ġcell": 6237,
    "igen": 4829,
    "invested": 17116,
    "overhearing": 19051,
    "rigged": 17062,
    "dient": 441,
    "Ġpossessed": 5195,
    "visitor": 15058,
    "Ġbrightened": 23826,
    "Ġpals": 13916,
    "Ġloved": 4599,
    "Ġtarshish": 12026,
    "bride": 19199,
    "ley": 1815,
    "Ġtrained": 8502,
    "Ġmultitudinous": 26273,
    "leeward": 15208,
    "Ġwalker": 23308,
    "nowadays": 22336,
    "Ġmisunderstand": 18702,
    "Ġ49": 24081,
    "softened": 20408,
    "Ġdelivered": 11115,
    "Ġcravat": 26307,
    "Ġniag": 21528,
    "Ġuninjured": 22054,
    "Ġcanvassed": 19933,
    "Ġremo": 3785,
    "Ġsubtlety": 24780,
    "Ġdey": 11673,
    "Ġluckily": 16797,
    "recognised": 15260,
    "thro": 12757,
    "bit": 3935,
    "mindful": 19598,
    "Ġbeing": 1165,
    "Ġquito": 24407,
    "Ġopposition": 16518,
    "Ġlowering": 7987,
    "Ġpawnbroker": 13656,
    "Ġenticing": 22741,
    "mblance": 7323,
    "otic": 15741,
    "Ġdab": 15584,
    "bar": 7542,
    "Ġexpressed": 4468,
    "Ġsimpleton": 16332,
    "Ġinconven": 7587,
    "Ġexcess": 3344,
    "hroom": 12473,
    "Ġfaire": 13362,
    "necessities": 24305,
    "banish": 20781,
    "Ġpatent": 11960,
    "Ġbeasts": 10616,
    "Ġdirections": 1970,
    "Ġplain": 2817,
    "prov": 16420,
    "Ġripp": 11218,
    "inity": 5693,
    "Ġwaved": 9643,
    "constit": 24605,
    "arily": 4128,
    "Ġrucastles": 18721,
    "terday": 4704,
    "Ġgibberish": 25786,
    "encoun": 12295,
    "christ": 10209,
    "yea": 23086,
    "uture": 1106,
    "Ġharry": 24570,
    "Ġdagger": 21436,
    "stern": 7862,
    "vers": 1326,
    "hinting": 17568,
    "Ġcerem": 7077,
    "inhabited": 13618,
    "Ġadvertised": 17246,
    "Ġmeals": 12706,
    "Ġwidth": 16771,
    "pertaining": 22186,
    "Ġadvantages": 9809,
    "jephro": 26391,
    "inhab": 10756,
    "Ġactor": 16046,
    "Ġmetal": 9386,
    "persons": 24173,
    "Ġgag": 21591,
    "Ġvacant": 9493,
    "Ġdidst": 11846,
    "Ġbumps": 21390,
    "Ġtelegraph": 25583,
    "Ġjoy": 3182,
    "tisement": 6767,
    "Ġincorpor": 13163,
    "Ġgent": 7383,
    "Ġmaty": 22908,
    "Ġidly": 16401,
    "Ġsuggests": 12197,
    "Ġdevoutly": 25832,
    "Ġanimating": 23422,
    "Ġgrace": 5374,
    "Ġimpud": 18445,
    "Ġhailing": 11690,
    "tailed": 17684,
    "Ġintu": 12759,
    "Ġimport": 1015,
    "Ġelated": 18633,
    "origin": 7582,
    "pra": 15405,
    "Ġintertw": 18590,
    "Ġorders": 5340,
    "dig": 4929,
    "Ġenergetic": 15195,
    "Ġbeds": 14550,
    "¸": 121,
    "surv": 24212,
    "Ġplanets": 24055,
    "Ġburtons": 19252,
    "Ġblasted": 7938,
    "irectly": 6940,
    "hoisting": 23715,
    "phil": 7926,
    "anque": 13886,
    "Ġpanic": 11285,
    "Ġensue": 18190,
    "Ġconqueror": 25796,
    "Ġtransfer": 2199,
    "nevertheless": 8286,
    "Ġmarshy": 20217,
    "apprehens": 17404,
    "Ġrucastle": 5176,
    "Ġprevail": 13440,
    "Ġrepent": 9861,
    "Ġamidst": 9492,
    "'m": 9581,
    "Ġknotted": 17018,
    "Ġdecomp": 3810,
    "Ġdesirous": 8941,
    "Ġarist": 14158,
    "lower": 8879,
    "Ġdarkened": 16430,
    "Ġhook": 6453,
    "Ġsled": 21217,
    "wond": 8767,
    "ai": 2524,
    "practised": 20246,
    "Ġaffections": 10383,
    "Ġpermanently": 25473,
    "Ġsilk": 11959,
    "irations": 18170,
    "Ġmariners": 6068,
    "entiating": 3438,
    "Ġburgl": 13171,
    "Ġcav": 13878,
    "Ġjapanese": 10632,
    "Ġsir": 1572,
    "Ġguard": 6178,
    "uded": 6286,
    "opic": 22474,
    "Ġerror": 1766,
    "Ġfacts": 2289,
    "Ġintruder": 25991,
    "deacon": 22146,
    "Ġjost": 23630,
    "roof": 17953,
    "ancies": 11582,
    "Ġpower": 1247,
    "fourth": 11327,
    "fo": 5278,
    "Ġpalmed": 24089,
    "Ġhish": 21912,
    "instrument": 15236,
    "Ġgin": 13959,
    "Ġresponsiveness": 2898,
    "Ġnum": 1345,
    "Ġallowance": 14387,
    "Ġcaptive": 14425,
    "Ġcandidate": 16700,
    "Ġmonster": 3793,
    "squall": 13520,
    "Ġpasseng": 12967,
    "Ġreverend": 15257,
    "Ġwarnings": 16880,
    "needle": 20309,
    "Ġleave": 2456,
    "ļ": 253,
    "Ġbehav": 3540,
    "blazing": 24131,
    "Ġallows": 3234,
    "kings": 17582,
    "Ġpretending": 19314,
    "derick": 22160,
    "Ġbigot": 24564,
    "Ġclink": 22353,
    "Ġconcepts": 4551,
    "Ġaccording": 5508,
    "Ġfantastic": 10057,
    "Ġforeseeing": 23449,
    "concent": 19478,
    "af": 2376,
    "Ġquoin": 22416,
    "Ġacts": 2295,
    "Ġneglected": 10376,
    "aration": 12603,
    "Ġaimed": 20249,
    "rict": 8093,
    "skylight": 25623,
    "russian": 22181,
    "crucible": 24842,
    "Ġspectacle": 10495,
    "Ġtarpaulin": 26157,
    "connections": 14426,
    "Ġsmoothed": 23655,
    "Ġ1991": 3020,
    "arris": 13207,
    "humiliation": 24019,
    "heavens": 19744,
    "Ġencouraged": 9353,
    "taste": 10128,
    "pidation": 18894,
    "Ġbillows": 7503,
    "Ġfugitives": 25634,
    "Ġsocietal": 11435,
    "ired": 1444,
    "Ġsailed": 4888,
    "fates": 20857,
    "Ġexecutors": 19532,
    "ptember": 10892,
    "Ġfreshly": 23985,
    "Ġweal": 21918,
    "Ġfringe": 17270,
    "ilingly": 21721,
    "dman": 10087,
    "Ġsocial": 7006,
    "Ġtantalizing": 20412,
    "Ġpolluted": 25593,
    "sive": 4146,
    "dan": 17514,
    "am": 367,
    "ated": 720,
    "suddenly": 6493,
    "Ġunpleasant": 7191,
    "Ġhollows": 19740,
    "Ġbenefactor": 14696,
    "begin": 8882,
    "Ġinex": 6528,
    "izens": 18135,
    "Ġcrad": 21348,
    "Ġtiles": 17725,
    "Ġjelly": 22298,
    "orange": 21398,
    "pit": 3986,
    "Ġbrighter": 16185,
    "elstrom": 17981,
    "Ġcobb": 14270,
    "Ġstre": 2108,
    "binder": 17498,
    "ised": 1065,
    "Ġhats": 14617,
    "Ġdragon": 14942,
    "Ġflights": 24753,
    "ees": 13709,
    "Ġapproach": 854,
    "ublic": 11226,
    "Ġdiscernment": 15053,
    "Ġ1869": 19382,
    "Ġcoldly": 14649,
    "leviathan": 7785,
    "Ġpanted": 21470,
    "Ġphaeton": 17463,
    "?âĢĿâĢĶ": 12891,
    "oregressive": 3425,
    "Ġfettered": 24567,
    "Ġclass": 797,
    "Ġdocks": 14176,
    "also": 7851,
    "Ġsammy": 24932,
    "Ġcompatibility": 2960,
    "itchen": 7788,
    "cross": 3575,
    "circuit": 24187,
    "Ġoptim": 783,
    "Ġinsatiate": 19269,
    "trial": 20349,
    "Ġartist": 12908,
    "Ġbesides": 3514,
    "infant": 19826,
    "Ġpreserved": 9260,
    "Ġeveryone": 8916,
    "Ġsashes": 21224,
    "Ġdimens": 3149,
    "magnetic": 20551,
    "influence": 13576,
    "Ġpainter": 19167,
    "difficulty": 12387,
    "holder": 13280,
    "meth": 11501,
    "Ġacquirement": 19254,
    "Ġpreyed": 18366,
    "Ġvapory": 17005,
    "bellies": 19972,
    "Ġkick": 5837,
    "Ġdetermined": 2222,
    "asions": 12647,
    "Ġseemed": 1278,
    "Ġenhancement": 23752,
    "Ġostrich": 26429,
    "Ġunfolded": 10637,
    "Ġnay": 5711,
    "sc": 1261,
    "Ġregions": 10322,
    "Ġaffect": 1384,
    "flight": 15350,
    "Ġgraph": 10901,
    "elop": 1526,
    "loved": 14249,
    "oons": 12495,
    "estic": 4956,
    "Ġswearing": 16463,
    "Ġactionable": 24558,
    "Ġrafters": 22653,
    "uce": 11534,
    "ably": 1846,
    "Ġeasterly": 25962,
    "powder": 17644,
    "Ġdoxology": 22242,
    "ipl": 20917,
    "forgive": 18726,
    "gain": 8736,
    "Ġtombed": 25160,
    "dled": 9109,
    "Ġfru": 8420,
    "Ġpassengers": 13673,
    "special": 14703,
    "Ġfleets": 23773,
    "fins": 13717,
    "Ġcognitive": 13632,
    "hereafter": 19215,
    "uber": 15443,
    "Ġirr": 10420,
    "iber": 6506,
    "Ġcome": 1240,
    "Ġtossing": 8126,
    "Ġsurvivor": 17361,
    "alluring": 18352,
    "Ġoutweigh": 22320,
    "Ġnut": 12642,
    "Ġhighland": 18713,
    "Ġgn": 8816,
    "Ġappare": 12813,
    "Ġflea": 23772,
    "Ġmothers": 14539,
    "Ġamb": 9290,
    "idents": 6150,
    "Ġunallied": 22030,
    "wolf": 26408,
    "Ġardour": 8043,
    "ize": 773,
    "heeded": 13832,
    "Ġarrayed": 25664,
    "Ġprev": 6264,
    "Ġexplain": 545,
    "Ġaids": 12225,
    "Ġcrescentic": 20619,
    "Ġgeneration": 2170,
    "Ġcleared": 6075,
    "Ġfacilitate": 26098,
    "Ġbullion": 24985,
    "ravity": 21633,
    "mists": 17604,
    "oried": 10801,
    "Ġsheep": 10925,
    "Ġconfinement": 19038,
    "Ġrocks": 6863,
    "Ġepoch": 26471,
    "friendly": 13282,
    "Ġentertainment": 12219,
    "Ġsmell": 7216,
    "natural": 2214,
    "hush": 20905,
    "Ġwes": 8777,
    "Ġtemples": 18637,
    "drop": 15335,
    "Ġpur": 2217,
    "Ġstrands": 25574,
    "Ł": 258,
    "Ġexultation": 15169,
    "Ġpreservation": 24631,
    "Ġprairie": 8712,
    "Ġfronts": 20530,
    "Ġexpressions": 7706,
    "Ġcorrespondence": 10593,
    "Ġemotion": 7691,
    "queness": 18147,
    "Ġadduced": 26523,
    "Ġacc": 575,
    "desc": 1396,
    "Ġrecover": 9787,
    "happened": 9431,
    "handle": 11190,
    "Ġalchemists": 26486,
    "Ġcommunic": 5751,
    "Ġstra": 2993,
    "Ġsurpassing": 20466,
    "indebted": 26158,
    "Ġwindigate": 18910,
    "retion": 9360,
    "islands": 21374,
    "Ġrightly": 13061,
    "Ġnlp": 3063,
    "Ġconducted": 10501,
    "Ġthrust": 5084,
    "Ġreality": 7057,
    "Ġpyth": 21459,
    "Ġprogrammed": 11056,
    "Ġrhyme": 21976,
    "Ġexpost": 18622,
    "stirred": 20423,
    "Ġsoph": 1554,
    "Ġsepul": 14088,
    "Ġmistifying": 23718,
    "Ġradiating": 24334,
    "Ġpitched": 9442,
    "Ġtoy": 15630,
    "cular": 15326,
    "masculine": 24386,
    "Ġfootfall": 14660,
    "Ġlessen": 14531,
    "é": 170,
    "gle": 20868,
    "Ġstruct": 2782,
    "Ġmurmur": 14588,
    "Ġinspirited": 23419,
    "[_": 5131,
    "imper": 13995,
    "claimed": 9834,
    "ĠĠĠĠĠĠ": 6414,
    "Ġvote": 21945,
    "Ġwildness": 14602,
    "Ġfumbling": 21416,
    "Ġledgers": 23935,
    "ķ": 248,
    "_.)": 7278,
    "mn": 3576,
    "Ġ100": 14363,
    "Ġpredefined": 20716,
    "Ġdifficulty": 5770,
    "Ġetext": 23947,
    "Ġcrossed": 6069,
    "lever": 2932,
    "Ġtermination": 16459,
    "Ġfork": 15728,
    "Ġcomplexity": 1694,
    "Ġimmort": 19482,
    "Ġredu": 1351,
    "Ġshudder": 9049,
    "Ġjur": 12830,
    "Ġdirected": 5578,
    "Ġought": 3420,
    "ament": 2439,
    "entered": 8813,
    "occasion": 7754,
    "Ġostr": 21323,
    "Ġexpansion": 22622,
    "Ġentreated": 9949,
    "Ġexclaiming": 13639,
    "mole": 22699,
    "gether": 1594,
    "Ġwhal": 5454,
    "Ġproperty": 6450,
    "strained": 21650,
    "Ġeternally": 11368,
    "ropout": 1320,
    "Ġcrippled": 25278,
    "Ġeucl": 24709,
    "Ġutensils": 23514,
    "Ġreports": 19084,
    "Ġbrougham": 17870,
    "Ġzero": 1202,
    "Ġcyn": 13884,
    "painted": 17638,
    "acknowledging": 25476,
    "Ġimaginary": 11185,
    "leading": 15558,
    "Ġasked": 2277,
    "tum": 11530,
    "startled": 24941,
    "Ġtram": 11091,
    "Ġcreation": 6439,
    "inj": 9150,
    "Ġvind": 10248,
    "reme": 2425,
    "Ġjoys": 13217,
    "about": 3586,
    "perishing": 22184,
    "Ġrepresent": 1212,
    "Ġsuffice": 18869,
    "Ġsublimity": 26345,
    "Ġenables": 726,
    "Ġlingu": 11612,
    "Ġsuperfluous": 17412,
    "Ġfisheries": 17436,
    "Ġsilken": 16376,
    "Ġarter": 22175,
    "Ġsoftness": 18917,
    "Ġministers": 22832,
    "Ġatrocious": 21941,
    "mured": 6960,
    "Ġinvis": 6902,
    "Ġtempor": 2364,
    "Ġsecretly": 13268,
    "Ġforesight": 13125,
    "Ġinvader": 23479,
    "Ġass": 1501,
    "Ġhousekeeping": 18943,
    "Ġanecdote": 26354,
    "Ġdistended": 16041,
    "isher": 2878,
    "Ġreasons": 6020,
    "Ġtap": 12522,
    "Ġwharf": 9558,
    "Ġvisions": 12973,
    "enged": 23143,
    "Ġpropri": 6738,
    "Ġtok": 1245,
    "Ġoverseeing": 22348,
    "effectually": 25128,
    "Ġperiods": 13301,
    "ibles": 18784,
    "sixty": 24852,
    "Ġelse": 2478,
    "Ġmonosy": 18844,
    "Ġcar": 1419,
    "Ġleyden": 21745,
    "Ġlabelled": 23329,
    "Ġmonoman": 7939,
    "threadbare": 25989,
    "Ġaught": 8772,
    "narrow": 11506,
    "Ġhackluyt": 25655,
    "Ġmour": 6973,
    "Ġpre": 507,
    "Ġaffecting": 2322,
    "anel": 21355,
    "Ġbleeds": 24396,
    "ching": 5156,
    "Ġtackles": 8051,
    "Ġformal": 2942,
    "acetti": 13394,
    "Ġglimpses": 13430,
    "Ġdecomposes": 5506,
    "urmountable": 15277,
    "compl": 6873,
    "Ġfetched": 24566,
    "Ġcentaurs": 23830,
    "Ġcelest": 9899,
    "inging": 5907,
    "Ġalas": 5922,
    "windward": 24159,
    "abhorred": 17334,
    "emic": 18179,
    "Ġenters": 11023,
    "disappointment": 11424,
    "pair": 21011,
    "Ġbethink": 12376,
    "talked": 14983,
    "Ġanchor": 7368,
    "rences": 9270,
    "Ġenhance": 3018,
    "bree": 15312,
    "function": 4796,
    "Ġsees": 8841,
    "crimes": 16696,
    "need": 10978,
    "derment": 22159,
    "shadow": 20313,
    "disgraceful": 26076,
    "Ġshadows": 8013,
    "mat": 2196,
    "Ġarchitectures": 2910,
    "Ġfiery": 6871,
    "Ġparties": 7038,
    "Ġpredestinated": 18516,
    "aper": 4999,
    "in": 262,
    "Ġmich": 21304,
    "Ġinstructive": 19285,
    "Ġoften": 1955,
    "Ġdefy": 11894,
    "indisc": 22371,
    "Ġcomfor": 14052,
    "hob": 20899,
    "entials": 22662,
    "Ġexpressive": 8981,
    "Ġnuptial": 25782,
    "Ġoverflowing": 17236,
    "@": 36,
    "official": 24914,
    "Ġtroublesome": 24000,
    "Ġpatients": 24813,
    "Ġchristmas": 6924,
    "Ġimpelling": 22383,
    "acid": 11004,
    "ģ": 228,
    "Ġpredicted": 2046,
    "Ġwhitting": 18055,
    "Ġperceptible": 18452,
    "Ġphrensy": 25124,
    "Ġripe": 13232,
    "parsee": 14509,
    "Ġberm": 21381,
    ".âĢĶâĢľ": 20746,
    "preserving": 25304,
    "embraces": 25803,
    "Ġmarched": 18871,
    "fully": 2200,
    "Ġfleecy": 17022,
    "Ġlimbs": 5966,
    "Ġmute": 19414,
    "attempted": 20173,
    "Ġyork": 11663,
    "Ġgums": 21609,
    "Ġreaction": 15691,
    "toss": 22564,
    "remental": 21246,
    "kindness": 10504,
    "neighbours": 24881,
    "Ġrealistic": 5860,
    "Ġwhipcord": 20093,
    "Ġthoughtful": 16189,
    "ubl": 3594,
    "ously": 2489,
    "Ġringleader": 26212,
    "apped": 5395,
    "Ġmartial": 20290,
    "appears": 12057,
    "Ġfri": 17878,
    "pless": 6260,
    "Ġblasp": 14399,
    "Ġtrivial": 10141,
    "Ġmixing": 24934,
    "ells": 5303,
    "fee": 12876,
    "Ġtarquin": 23609,
    "Ġghastly": 10058,
    "Ġwounding": 19585,
    "Ġlucas": 3832,
    "harpoons": 24284,
    "Ġattaining": 15800,
    "Ġinsolence": 20252,
    "Ġrecords": 12192,
    "undant": 14785,
    "ann": 5802,
    "ickering": 22668,
    "Ġunfit": 14786,
    "Ġark": 10274,
    "Ġglades": 19370,
    "expected": 5780,
    "ret": 1473,
    "Ġhydraul": 9512,
    "prairies": 20565,
    "Ġcorp": 5573,
    "Ġhilarious": 20297,
    "Ġheidelburgh": 11641,
    "Ġbo": 796,
    "bright": 8988,
    "twenty": 6607,
    "Ġimpart": 11777,
    "Ġexceptionable": 25503,
    "Ġromantic": 8031,
    "Ġtimidity": 24687,
    "Ġbumpkins": 25281,
    "Ġwaxed": 21296,
    "Ġscalable": 1568,
    "Ġsail": 1670,
    "itious": 8778,
    "Ġnominally": 17230,
    "refuge": 24734,
    "ica": 10197,
    "Ġbackgammon": 22660,
    "Ġpillow": 10036,
    "redit": 3878,
    "Ġspringing": 10517,
    "Ġprep": 4193,
    "Ġbridegroom": 10603,
    "Ġoperations": 2299,
    "attacked": 23119,
    "urements": 18123,
    "Ġserm": 9632,
    "Ġslumbering": 25701,
    "other": 1314,
    "Ġhorsey": 24248,
    "Ġtypes": 8935,
    "linearity": 1645,
    "Ġchoosing": 19589,
    "Ġcolder": 22854,
    "Ġwarmer": 19185,
    "flaming": 23967,
    "Ġdescending": 8901,
    "Ġoverbearing": 12837,
    "Į": 239,
    "Ġaw": 2508,
    "missionary": 24616,
    "Ġcanvas": 7784,
    "beheld": 11799,
    "Ġoblivion": 26031,
    "Ġdegra": 2590,
    "lant": 20946,
    "gans": 11488,
    "loun": 17587,
    "Ġusher": 22213,
    "Ġsu": 432,
    "Ġinfant": 11957,
    "Ġwhirl": 13447,
    "Ġshould": 865,
    "Ġspeed": 2447,
    "discovery": 12013,
    "Ġprevention": 16087,
    "Ġvineyard": 12327,
    "Ġgaiety": 16748,
    "Ġnapkins": 25161,
    "Ġdec": 641,
    "neg": 12861,
    "Ġcold": 3035,
    "ecess": 17531,
    "Ġaven": 10758,
    "Ġheadsmen": 14731,
    "Ġyawning": 12297,
    "Ġsuppressed": 11908,
    "Ġobscurely": 20187,
    "gallant": 7781,
    "Ġmould": 6519,
    "fat": 8079,
    "Ġnormalizing": 1820,
    "Ġdominant": 12393,
    "Ġjacobian": 2893,
    "Ġfancy": 3744,
    "consc": 4840,
    "minute": 11273,
    "Ġdespondence": 25869,
    "helmsman": 24286,
    "Ġpacifics": 24372,
    "Ġchil": 11748,
    "Ġnourishment": 15190,
    "Ġhartshorn": 26180,
    "Ġperplex": 2716,
    "ableness": 8149,
    "Ġearned": 19403,
    "Ġmysteriously": 24602,
    "Ġsaves": 18324,
    "itics": 13870,
    "Ġtransports": 24276,
    "Ġprepared": 5877,
    "usual": 5841,
    "Ġproc": 5544,
    "Ġinfidel": 13085,
    "Ġflirt": 14421,
    "Ġshortness": 23482,
    "Ġdeep": 819,
    "Ġbloodthirsty": 26600,
    "Ġerred": 21155,
    "rinted": 21042,
    "i": 77,
    "fron": 24280,
    "tically": 3393,
    "Ġork": 18284,
    "Ġpolic": 13159,
    "Ġspeaks": 11158,
    "oug": 433,
    "Ġ**": 4720,
    "Ġrot": 10966,
    "guard": 12125,
    "headsman": 16699,
    "Ġclaimed": 14204,
    "nment": 20989,
    "Ġassailed": 23175,
    "Ġslaught": 23165,
    "21": 10070,
    "deav": 2674,
    "Ġcalled": 1972,
    "Ġfunctions": 1338,
    "Ġpatter": 818,
    "prodigious": 17465,
    "spears": 23939,
    "Ġunob": 22013,
    "Ġunfor": 15836,
    "cy": 655,
    "Ġhansom": 13662,
    "Ġelimin": 16104,
    "Ġcarpenters": 16751,
[...]
