{
  "metadata": {
    "vocab_size": 26616,
    "algorithm": "BPE",
    "created_at": "2026-09-15 07:29:24",
    "special_tokens": [
      "<PAD>",
      "<SOS>",
      "<EOS>",
      "<UNK>",
      "<MASK>"
    ]
  },
  "vocab": {
    "oused": 6558,
    "Ġeconomy": 17203,
    "Ġfoss": 9854,
    "Ġlessened": 19089,
    "Ġbumps": 21395,
    "Ġunnearable": 26518,
    "Ġ]": 15462,
    "Ġsubdivisions": 26038,
    "unct": 18157,
    "stars": 18022,
    "·": 120,
    "Ġowning": 18746,
    "Ġzone": 14365,
    "Ġweaken": 21926,
    "Ġpaper": 4282,
    "Ġdented": 17893,
    "antically": 22100,
    "Ġcau": 13883,
    "Ġdecided": 5471,
    "Ġacts": 2295,
    "Ġrevolver": 14903,
    "calling": 12454,
    "room": 2179,
    "Ġfinds": 6301,
    "judges": 19576,
    "nades": 20999,
    "Ġorganizations": 12318,
    "Ġclamped": 18428,
    "interval": 7991,
    "Ġconvenient": 8346,
    "cocks": 23563,
    "Ġvoyages": 6908,
    "Ġdab": 15592,
    "rinted": 21046,
    "Ġanswered": 2853,
    "Ġwheel": 9721,
    "Ġassu": 21901,
    "ered": 1686,
    "Ġprizes": 13077,
    "ginger": 13166,
    "--------": 14786,
    "vand": 21111,
    "Ġswaths": 23061,
    "Ġcoals": 16077,
    "Ġwrenching": 17326,
    "user": 5105,
    "eli": 3872,
    "early": 20122,
    "oved": 5215,
    "Ġwithin": 2163,
    "pot": 10120,
    "Ġreel": 9217,
    "Ġyarns": 15199,
    "Ġpup": 12624,
    "Ġclang": 15969,
    "Ġreciproc": 20625,
    "Ġbiographical": 22770,
    "iter": 4391,
    "Ġtint": 13819,
    "value": 18807,
    "Ġdiscreet": 16484,
    "llable": 6878,
    "solving": 3100,
    "sticks": 25966,
    "Ġtraces": 7946,
    "Ġstrugg": 3220,
    "Ġbarricade": 14662,
    "Ġmalicious": 10560,
    "Ġdames": 23477,
    "blasted": 20192,
    "rosc": 17957,
    "Ġimped": 18450,
    "Ġigniting": 25073,
    "ustry": 18360,
    "flutterings": 26608,
    "caterpillar": 26385,
    "ale": 506,
    "excited": 13383,
    "Ġleaking": 21734,
    "Ġfeigned": 22207,
    "Ġmentioning": 9902,
    "christ": 10213,
    "Ġreceived": 2954,
    "mush": 20979,
    "loved": 14253,
    "Ġpaws": 13923,
    "Ġplaces": 5390,
    "message": 17375,
    "veh": 12684,
    "Ġharvest": 13418,
    "Ġconfessed": 8009,
    "Ġadv": 1140,
    "Ġcomplexion": 8210,
    "Ġmaiden": 13389,
    "Ġjoints": 12039,
    "Ġregards": 16081,
    "Ġinequal": 21500,
    "Ġfocused": 16344,
    "thar": 18218,
    "Ġadmirable": 8269,
    "Ġunquestionable": 26223,
    "ouching": 13180,
    "Ġundivided": 24123,
    "profess": 10637,
    "Ġpleasures": 11145,
    "Ġwhal": 5454,
    "abashed": 21796,
    "croquet": 25748,
    "ture": 7558,
    "istence": 2664,
    "Ġdong": 17889,
    "Ġfug": 12600,
    "Ġclients": 19735,
    "apologizing": 26546,
    "Ġattics": 22628,
    "poison": 14396,
    "inspector": 13649,
    "unpardonable": 21894,
    "carrying": 16714,
    "Ġdispel": 16598,
    "Ġsemi": 11973,
    "london": 9612,
    "Ġnegatived": 23049,
    "Ġdwelling": 7322,
    "Ġpr": 1597,
    "Ġscant": 22284,
    "Ġod": 4438,
    "Ġseverity": 15824,
    "Ġscornful": 24999,
    "Ġover": 555,
    "grace": 5847,
    "Ġebony": 18011,
    "summoned": 26593,
    "Ġlakes": 8131,
    "Ġhil": 10823,
    "Ġundone": 24120,
    "Ġquarrelling": 13501,
    "ingley": 1548,
    "Ġnom": 21522,
    "Ġroanoke": 22411,
    "Ġcompletion": 12152,
    "Ġrun": 2355,
    "Ġunctuousness": 17237,
    "Ġfairer": 20465,
    "Ġaspired": 25985,
    "algorith": 3608,
    "Ġbales": 21392,
    "gent": 7131,
    "atical": 10773,
    "sinking": 17670,
    "Ġfame": 21409,
    "sharp": 10309,
    "supportable": 12374,
    "apprec": 22849,
    "imp": 3034,
    "Ġunlimited": 26224,
    "yours": 7695,
    "Ġtrample": 20330,
    "Ġtropics": 17067,
    "Ġoutside": 5554,
    "Ġhovering": 10181,
    "Ġrepugnance": 19088,
    "low": 657,
    "Ġmix": 7577,
    "league": 17846,
    "irect": 5553,
    "ivering": 7698,
    "Ġnortheast": 23205,
    "sunlight": 24852,
    "ignorantly": 25190,
    "Ġsidel": 9638,
    "granting": 23416,
    "Ġapoplexy": 25266,
    "Ġstress": 18072,
    "Ġpanting": 11606,
    "fr": 4805,
    "Ġmich": 21309,
    "Ġpoul": 15617,
    "bres": 11473,
    "Ġtragedies": 25242,
    "Ġstabbing": 20306,
    "esu": 17902,
    "Ġdiabol": 11455,
    "Ġbony": 12592,
    "Ġbarnacled": 25537,
    "Ġjail": 22298,
    "Ġdefend": 9344,
    "Ġfoiled": 23247,
    "Ġuttered": 7280,
    "Ġwhirlwinds": 20468,
    "yield": 13811,
    "isbury": 21380,
    "asily": 13948,
    "ourers": 21453,
    "favouring": 24761,
    "<": 32,
    "Ġpovels": 22595,
    "Ġappar": 7411,
    "Ġpassing": 4314,
    "Ġsalutations": 25383,
    "Ġtinkling": 25213,
    "Ġprovides": 1930,
    "Ġreduces": 2344,
    "Ġchancing": 22252,
    "fifty": 12357,
    "Ġformal": 2945,
    "Ġheadstrong": 14391,
    "ales": 3319,
    "plumed": 21959,
    "didst": 19352,
    "Ġwides": 17790,
    "hav": 20899,
    "Ġdeserved": 7737,
    "interest": 5421,
    "Ġpathetic": 19033,
    "cap": 8373,
    "Ġrepeatedly": 9025,
    "dron": 17527,
    "umer": 9262,
    "behaviour": 11303,
    "Ġfab": 15580,
    "favourable": 12268,
    "Ġenc": 971,
    "Ġinterference": 8897,
    "Ġtells": 9365,
    "Ġbison": 21391,
    "Ġslippers": 19618,
    "Ġequin": 14497,
    "Ġseparated": 9467,
    "Ġsymmet": 11751,
    "Ġpreserve": 7529,
    "Ġprogress": 5023,
    ")âĢĶ": 20744,
    "woman": 5900,
    "meryton": 10114,
    "cils": 20816,
    "Ġdefilements": 26286,
    "Ġplaintiffs": 13612,
    "wanderer": 25424,
    "stun": 18021,
    "Ġestablishment": 13582,
    "Ġwhirl": 13452,
    "left": 6976,
    "Ġdistraction": 22509,
    "mountains": 15184,
    "wh": 508,
    "oried": 10804,
    "Ġtea": 5041,
    "fiery": 13584,
    "hens": 3935,
    "orrah": 17877,
    "complain": 14357,
    "ernsey": 8905,
    "lifted": 15390,
    "road": 6679,
    "everlasting": 18773,
    "Ġrashly": 20308,
    "Ġcontinuing": 14400,
    "Ġneat": 7000,
    "open": 7027,
    "Ġsk": 960,
    "Ġearnestly": 5980,
    "aste": 4602,
    "Ġorb": 22095,
    "ified": 3229,
    "measure": 10034,
    "Ġenter": 4029,
    "Ġdrunkard": 20180,
    "plainly": 11091,
    "Ġhereditarily": 25225,
    "persecutor": 26532,
    "etuous": 21586,
    "Ġchemistry": 11462,
    "Ġmaid": 5287,
    "Ġstops": 3169,
    "Ġworkman": 16273,
    "Ġinfluences": 14868,
    "charming": 15710,
    "Ġgossiping": 26245,
    "Ġhurt": 7701,
    "Ġhypocritical": 20740,
    "oun": 483,
    "Ġsermons": 20197,
    "Ġexordium": 26494,
    "Ġforce": 5092,
    "Ġaccosted": 13675,
    "Ġstature": 10865,
    "reporting": 24494,
    "Ġwoof": 14724,
    "agger": 7872,
    "Ġboasted": 16110,
    "Ġcreaking": 14334,
    "Ġice": 3605,
    "time": 3150,
    "Ġcaroline": 7254,
    "Ġegotistical": 26193,
    "Ġeas": 2353,
    "Ġimbib": 22179,
    "Ġindulging": 16906,
    "Ġdepicting": 22611,
    "Ġprice": 10405,
    "iled": 1764,
    "Ġacquire": 2724,
    "grateful": 10430,
    "Ġspeeches": 22660,
    "Ġmapp": 2082,
    "Ġbohem": 8529,
    "grad": 2565,
    "entials": 22661,
    "dinner": 11408,
    "Ġportents": 14681,
    "largely": 19577,
    "Ġbrist": 14381,
    "masts": 19428,
    "Ġapril": 13665,
    "blending": 24131,
    "hement": 13834,
    "Ġsharkish": 24506,
    "Ġgirth": 13138,
    "ecess": 17534,
    "Ġembod": 14413,
    "Ġsoap": 14135,
    "Ġadvanced": 1509,
    "Ġenvy": 13199,
    "Ġglimpse": 6944,
    "Ġrays": 10333,
    "son": 2330,
    "seems": 10877,
    "holding": 7739,
    "success": 6712,
    "Ġfatt": 15583,
    "Ġcared": 8787,
    "Ġfabric": 25948,
    "Ġgrant": 11877,
    "Ġmeddling": 21323,
    "Ġobserving": 6081,
    "disgraceful": 26077,
    "Ġfortunately": 12184,
    "Ġsaving": 15891,
    "Ġactor": 16053,
    "Ġnorms": 3668,
    "Ġcorruption": 15229,
    "Ġcross": 1371,
    "reast": 17760,
    "Ġherring": 14129,
    "Ġentrance": 7233,
    "Ġpreprocessing": 26538,
    "concerted": 16674,
    "Ġburying": 19254,
    "Ġtravelling": 11309,
    "sne": 10127,
    "introdu": 8940,
    "upt": 13800,
    "anations": 12581,
    "Ġuncont": 14119,
    "Ġbund": 17865,
    "Ġchurches": 12833,
    "Ġskil": 14355,
    "plentiful": 21960,
    "cont": 2922,
    "Ġrepresenting": 4063,
    "uncle": 8159,
    "ellation": 12755,
    "Ġstrewed": 23424,
    "Ġthrowing": 6337,
    "Ġstandpoint": 23280,
    "Ģ": 227,
    "delight": 5345,
    "caut": 20814,
    "Ġlaws": 8003,
    "Ġagreed": 7030,
    "clouds": 25497,
    "Ġnigh": 4879,
    "snap": 24849,
    "Ġgathering": 14981,
    "bpp": 20774,
    "tallow": 21088,
    "Ġawaiting": 11392,
    "Ġthemselves": 3253,
    "Ġforster": 5230,
    "arch": 1138,
    "ras": 21039,
    "farmer": 25900,
    "Ġcounters": 24143,
    "Ġcollect": 7237,
    "Ġinsipid": 26314,
    "bucket": 17496,
    "Ġcalculus": 23986,
    "Ġbrace": 11213,
    "Ġher": 427,
    "Ġblueprints": 13174,
    "Ġdiscomposed": 25581,
    "Ġcrab": 13146,
    "yielded": 25757,
    "@": 36,
    "Ġsalvation": 14761,
    "Ġfirm": 3869,
    "Ġrelationship": 2317,
    "alvan": 21507,
    "daughters": 13469,
    "uced": 13802,
    "dog": 10696,
    "changed": 7176,
    "Ġmerely": 3771,
    "Ġexternal": 8365,
    "Ġparting": 9786,
    "eat": 11485,
    "onical": 21256,
    "oko": 18441,
    "Ġmarshal": 20222,
    "Ġdisguise": 10049,
    "Ġpeculiar": 3156,
    "iffs": 9026,
    "Ġimpenitent": 26550,
    "Ġirrad": 19095,
    "Ġlaunched": 14929,
    "Ġchambermaid": 24306,
    "quickly": 14965,
    "Ġswam": 6449,
    "ĭ": 238,
    "Ġdetect": 1238,
    "Ġconceits": 19393,
    "fedallah": 25523,
    "Ġfowl": 11332,
    "Ġbreakfast": 3974,
    "Ġimparts": 18453,
    "Ġstretch": 6994,
    "uiperai": 10666,
    "itime": 15552,
    "ipper": 13742,
    "Ġcurric": 22975,
    "ableness": 8149,
    "Ġsweetheart": 19398,
    "Ġemperors": 15163,
    "ishly": 14202,
    "Ġmanly": 22328,
    "Ġdiff": 3117,
    "Ġvirtue": 4923,
    "corners": 17371,
    "Ġtug": 11553,
    "Ġslippery": 12171,
    "Ġcalled": 1972,
    "vulgar": 25919,
    "Ġernest": 8720,
    "inter": 2951,
    "ply": 6367,
    "guilty": 19486,
    "quarters": 24949,
    "Ġeucl": 24708,
    "Ġfists": 15587,
    "Ġcosmopol": 16455,
    "lets": 7836,
    "frequent": 15357,
    "Ġattached": 5392,
    "Ġdiscove": 16160,
    "partiality": 13163,
    "Ġstretching": 10018,
    "irts": 9242,
    "pacing": 21023,
    "Ġperseverance": 13600,
    "hatherley": 17570,
    "Ġtease": 18796,
    "wretch": 17710,
    "Ġexcell": 10419,
    "Ġsilently": 6894,
    "Ġfast": 1718,
    "Ġkindly": 6078,
    "Ġbri": 21381,
    "orter": 4255,
    "pull": 6797,
    ".,": 5989,
    "ii": 4015,
    "Ġdeceitfulness": 25734,
    "Ġbang": 17856,
    "empt": 2617,
    "agrad": 2748,
    "pivot": 21033,
    "Ġcontrari": 23352,
    "Ġglared": 13022,
    "threat": 10902,
    "Ġburied": 7719,
    "blooded": 20026,
    "pict": 8386,
    "Ġtrembled": 8705,
    "Ġdiscipline": 26563,
    "strate": 12679,
    "Ġguest": 7249,
    "serve": 13050,
    "security": 26208,
    "aks": 8509,
    "Ġprom": 1531,
    "Ġhilariously": 25451,
    "Ġrender": 8305,
    "killed": 15380,
    "l": 80,
    "Ġfly": 3868,
    "Ġrespectfully": 18995,
    "terms": 15756,
    "Ġpetty": 19598,
    "Ġbone": 4696,
    "back": 2017,
    "Ġfasten": 11134,
    "Ġpoet": 8208,
    "window": 7743,
    "Ġfailing": 12142,
    "itic": 11581,
    "Ġreigns": 21674,
    "Ġdefy": 11901,
    "Ġmonsters": 11076,
    "pleasure": 5979,
    "Ġoffending": 22738,
    "Ġpreliminary": 10060,
    "instant": 8655,
    "errand": 22913,
    "Ġnightmare": 18921,
    "encountered": 20396,
    "steering": 16638,
    "Ġentreaty": 10532,
    "Ġrudimental": 25111,
    "orting": 9738,
    "accounted": 16504,
    "Ġshortness": 23485,
    "Ġduties": 6611,
    "close": 9989,
    "Ġgoethe": 22426,
    "formed": 2552,
    "changing": 10856,
    "Ġtortoise": 16910,
    "Ġcitations": 25438,
    "Ġearliest": 9833,
    "Ġdrives": 14580,
    "Ġaye": 3354,
    "Ġputting": 5327,
    "Ġsavannah": 17419,
    "Ġused": 2061,
    "Ġneedles": 11186,
    "Ġdeliberation": 19972,
    "Ġencountering": 11271,
    "Ġrephr": 21682,
    "Ġtable": 2497,
    "Ġvalu": 5039,
    "Ġstains": 21748,
    "sum": 2087,
    "Ġmumbling": 11577,
    "Ġkeener": 22917,
    "dington": 12070,
    "ric": 1376,
    "Ġsteering": 10390,
    "Ġactionable": 24560,
    "Ġtroubled": 6618,
    "Ġimage": 3404,
    "ricity": 23067,
    "Ġpermission": 9283,
    "Ġreddening": 25971,
    "Ġegyptian": 13589,
    "oth": 1183,
    "bowsprit": 16855,
    "Ġpossibility": 7458,
    "ready": 2360,
    "straw": 24100,
    "Ġmythologies": 26215,
    "Ġsurging": 19135,
    "ffy": 18318,
    "Ġsoften": 23126,
    "Ġcoolness": 16888,
    "apers": 3482,
    "Ġignited": 25072,
    "Ġconfounded": 16387,
    "ural": 501,
    "Ġmusk": 7494,
    "rum": 3471,
    "ex": 622,
    "Ġhateful": 19716,
    "Ġobservation": 6599,
    "Ġhurry": 4914,
    "oc": 2836,
    "Ġadventure": 5982,
    "Ġsplice": 19311,
    "Ġmorsel": 20680,
    "Ġhaunted": 10256,
    "Ġacceler": 1608,
    "elze": 21576,
    "Ġshorter": 4498,
    "Ġnurtured": 19752,
    "Ġanat": 8124,
    "eler": 1574,
    "Ġcalifornia": 20533,
    "Ġexclusiveness": 23931,
    "ote": 4597,
    "Ġcunning": 6240,
    "sounded": 12271,
    "endering": 21287,
    "Ġlegisl": 23538,
    "Ġconsolidation": 5060,
    "rises": 17657,
    "Ġbabes": 24425,
    "avery": 13686,
    "Ġsteeply": 23727,
    "Ġupstairs": 5837,
    "Ġhoary": 23357,
    "Ġportentous": 15233,
    "uttural": 21592,
    "Ġswarm": 23057,
    "Ġwash": 9706,
    "apprehension": 26115,
    "clam": 13059,
    "Ġbreaches": 14523,
    "nes": 6961,
    "Ġenumer": 12750,
    "Ġdisobey": 18560,
    "chair": 5918,
    "carpenter": 11429,
    "Ġmaintenance": 17464,
    "ic": 304,
    "Ġgentle": 1890,
    "Ġcompute": 2907,
    "Ġallegor": 25546,
    "clo": 5613,
    "Ġtriumphant": 12194,
    "auley": 22624,
    "Ġdelay": 5748,
    "Ġpropos": 7064,
    "Ġsuns": 23276,
    "educ": 10830,
    "deck": 4500,
    "Ġcensure": 15099,
    "uneven": 23688,
    "Ġunex": 11717,
    "aby": 18109,
    "Ġshutter": 16673,
    "ulties": 12906,
    "harpooned": 24288,
    "Ġfields": 2143,
    "Ġwarnings": 16883,
    "Ġadam": 2128,
    "Ġaloud": 6254,
    "Ġhorn": 6187,
    "Ġlofty": 6219,
    "stands": 22439,
    "Ġmasts": 6466,
    "Ġtraged": 9356,
    "Ġplaymate": 23639,
    "Ġjuicy": 25371,
    "aiian": 23594,
    "Ġtalker": 23374,
    "Ġbeeches": 9230,
    "Ġheavily": 6742,
    "Ġpython": 1070,
    "lleg": 20953,
    "Ġinsupportable": 13934,
    "steam": 23963,
    "Ġcolonnades": 26277,
    "deep": 1004,
    "woes": 21136,
    "returning": 12210,
    "Ġinher": 10182,
    "Ġfollowed": 1792,
    "Ġhelen": 16658,
    "training": 2515,
    "recl": 15513,
    "Ġnervously": 19186,
    "ser": 1424,
    "Ġgaff": 17996,
    "Ġsus": 18276,
    "Ġextreme": 2512,
    "sugg": 11845,
    "ants": 1388,
    "Ġemergencies": 17365,
    "Ġrelapses": 26280,
    "Ġwaif": 9379,
    "phys": 18713,
    "Ġlaurel": 20656,
    "Ġwindows": 4971,
    "Ġbrigandish": 25488,
    "Ġq": 1084,
    "icult": 3343,
    "osp": 6854,
    "Ġexisted": 15757,
    "Ġswish": 23056,
    "minds": 24235,
    "ish": 550,
    "Ġconflag": 20338,
    "icating": 15659,
    "Ġrepeated": 3830,
    "Ġheire": 18039,
    "Ġinsight": 16533,
    "Ġtheoretically": 3567,
    "baboon": 25517,
    "Ġapply": 1777,
    "Ġconfided": 19038,
    "Ġaugment": 8695,
    "Ġprynne": 25541,
    "Ġdisappoint": 24208,
    "mccarthy": 15398,
    "itical": 5802,
    "Ġsnapped": 9900,
    "Ġroots": 11187,
    "Ġafresh": 18628,
    "effort": 19215,
    "brew": 11475,
    "Ġmost": 1022,
    "exasper": 22431,
    "causing": 25519,
    "cheon": 23806,
    "married": 9952,
    "dis": 2250,
    "Ġloaf": 15876,
    "data": 2112,
    "diver": 20833,
    "Ġsleeps": 10448,
    "Ġcruise": 12052,
    "Ġnets": 21527,
    "Ġsoldier": 16922,
    "Ġwaved": 9647,
    "Ġconstantly": 11977,
    "Ġapologize": 15132,
    "nyder": 16687,
    "]": 65,
    "fingers": 17373,
    "Ġfrantic": 7957,
    "Ġjacobians": 2895,
    "Ġlabyrin": 13108,
    "Ġdeliverer": 11955,
    "inence": 15484,
    "tinted": 17685,
    "Ġirons": 7696,
    "Ġsteady": 4849,
    "Ġversion": 10632,
    "Ġricher": 12764,
    "Ġcorner": 4369,
    "Ġafterwards": 3532,
    "otence": 14025,
    "fere": 10990,
    "Ġponder": 6819,
    "Ġoutwardly": 25001,
    "verb": 10219,
    "Ġalps": 10872,
    "Ġmutable": 23958,
    "henomena": 20275,
    "rope": 3188,
    "Ġwhe": 439,
    "pane": 10123,
    "Ġmatted": 22915,
    "Ġinconsiderable": 21498,
    "Ġwatchful": 16530,
    "Ġsupply": 6068,
    "Ġsucceed": 4544,
    "Ġori": 8410,
    "Ġuncomfortable": 8488,
    "perquisites": 26533,
    "fashioned": 9573,
    "asters": 8435,
    "ought": 828,
    "ised": 1069,
    "Ġdevious": 22722,
    "Ġgovernments": 20270,
    "Ġrevived": 11370,
    "pots": 11516,
    "perceived": 8862,
    "obtain": 23097,
    "Ġhussey": 7725,
    "Ġconsummation": 17428,
    "transferred": 24514,
    "Ġoffer": 4845,
    "allen": 22200,
    "grant": 10429,
    "Ġprocedure": 2811,
    "Ġautom": 3302,
    "Ġluck": 4881,
    "thumb": 18219,
    "spoken": 11864,
    "Ġdebar": 24274,
    "Ġabject": 18392,
    "Ġwent": 1541,
    "Ġsuppl": 11080,
    "Ġtempted": 9060,
    "Ġarrayed": 25665,
    "Ġchal": 18379,
    "otion": 4946,
    "read": 3277,
    "acid": 11007,
    "ts": 959,
    "Ġdismast": 12893,
    "Ġfeedforward": 2328,
    "stayed": 25291,
    "Ġliberated": 19669,
    "baby": 25516,
    "Ġhaul": 11696,
    "Ġscrolled": 22288,
    "iterranean": 15554,
    "allowed": 5728,
    "Ġall": 422,
    "Ġnarr": 5085,
    "Ġresolutely": 14611,
    "ading": 5091,
    "Ġundue": 25994,
    "Ġcanted": 17833,
    "Ġenergetic": 15201,
    "Ġcounsell": 25385,
    "Ġmountains": 4426,
    "Ġpipe": 4320,
    "Ġpleaded": 16302,
    "Ġaloysius": 15742,
    "scor": 13024,
    "greater": 13256,
    "mmed": 7914,
    "Ġemerg": 13427,
    "iline": 21724,
    "Ġenrapt": 21943,
    "Ġdest": 2235,
    "Ġphysiogn": 12392,
    "Ġern": 8397,
    "Ġstam": 18071,
    "?âĢĻ": 2639,
    "Ġinstead": 2791,
    "Ġmod": 493,
    "Ġbeam": 2882,
    "acquired": 24298,
    "Ġvill": 3876,
    "Ġfurrow": 22818,
    "chester": 23809,
    "james": 15376,
    "bern": 20777,
    "wand": 10740,
    "imate": 4221,
    "ignation": 11130,
    "copper": 19190,
    "Ġpay": 3962,
    "Ġslumber": 13064,
    "aces": 2069,
    "heim": 17748,
    "Ġbackwards": 12932,
    "Ġpatroness": 13512,
    "Ġsolitary": 5856,
    "Ġvarious": 3511,
    "elt": 4116,
    "Ġmouthfuls": 20648,
    "imson": 12694,
    "Ġbred": 9173,
    "urre": 10858,
    "weakness": 16128,
    "misfortunes": 16758,
    "Ġgrud": 17998,
    "âĢ": 294,
    "Ġknot": 7013,
    "Ġspermacetti": 19052,
    "Ġsupposed": 4557,
    "Ġlips": 3990,
    "Ġusage": 9734,
    "Ġsmoky": 22562,
    "Ġnightfall": 23133,
    "Ġdesired": 4666,
    "pursuit": 20343,
    "firm": 10700,
    "Ġthoughtfully": 12984,
    "africa": 26309,
    "pence": 15412,
    "Ġreasons": 6021,
    "wives": 15458,
    "Ġroast": 18458,
    "Ġtip": 15474,
    "Ġ72": 19614,
    "miles": 10714,
    "Ġcranial": 25593,
    "pth": 2381,
    "cold": 9592,
    "Ġunintellig": 22030,
    "proof": 16427,
    "oes": 4433,
    "Ġinasmuch": 10827,
    "Ġabstract": 17184,
    "affections": 17359,
    "latitudes": 17199,
    "minutely": 19596,
    "pole": 9337,
    "Ġunfortunately": 10911,
    "levelled": 23645,
    "Ġcheerless": 16695,
    "iliating": 12700,
    "gabriel": 15364,
    "steady": 14712,
    "Ġlists": 11168,
    "Ġmanhandle": 22333,
    "Ġtorrid": 25035,
    "Ġagainst": 1701,
    "astern": 8585,
    "Ġcrad": 21352,
    "Ġhastening": 19338,
    "complete": 15037,
    "osely": 9269,
    "Ġroving": 22407,
    "Ġtower": 8319,
    "Ġcling": 11775,
    "learn": 2254,
    "alone": 10186,
    "âĢĶ.âĢĿ": 22259,
    "ourselves": 9014,
    "Ġwalled": 15538,
    "ifully": 13187,
    "tormented": 13648,
    "rs": 7807,
    "claimed": 9839,
    "Ġchildren": 3768,
    "Ġclues": 18424,
    "Ġwatched": 6299,
    "udding": 11869,
    "secondly": 16986,
    "friends": 8306,
    "Ġful": 4296,
    "loss": 22512,
    "Ġproblem": 1271,
    "Ġspoon": 22138,
    "Ġproverb": 12720,
    "touched": 15442,
    "and": 372,
    "Ġcomposedly": 25184,
    "gate": 12471,
    "crews": 15045,
    "Ġamaze": 22487,
    "Ġcompletely": 4861,
    "Ġmortifying": 13249,
    "Ġ1671": 25008,
    "ato": 17771,
    "boast": 23255,
    "thodox": 21992,
    "iation": 7343,
    "ax": 694,
    "Ġdrawing": 3915,
    "Ġcoffin": 4428,
    "Ġinsol": 10183,
    "Ġhertfordshire": 5377,
    "Ġwrecked": 9969,
    "Ġblo": 2736,
    "Ġbelow": 4064,
    "Ġsavage": 4010,
    "produce": 20285,
    "gpt": 5356,
    "Ġassembled": 9240,
    "independent": 26022,
    "Ġknots": 15011,
    "satisfaction": 9995,
    "Ġweariness": 19797,
    "Ġprincely": 24151,
    "Ġpreceding": 7528,
    "Ġpainter": 19170,
    "calculating": 25690,
    "Ġbehalf": 14510,
    "de": 459,
    "secut": 7867,
    "Ġbarque": 23793,
    "rier": 9246,
    "aguy": 21914,
    "pursue": 24976,
    "Ġmutinous": 23961,
    "Ġindefatigable": 17180,
    "Ġinanimate": 13935,
    "Ġornaments": 17455,
    "ite": 712,
    "untary": 9870,
    "factories": 19846,
    "Ġfireboard": 23536,
    "Ġpewter": 17188,
    "others": 7670,
    "condemned": 26061,
    "Ġpatiently": 19920,
    "hist": 7132,
    "omuch": 21643,
    "Ġfrequent": 3288,
    "Ġdisposal": 19379,
    "Ġgulp": 20032,
    "Ġwarrant": 17796,
    "bitts": 26123,
    "Ġpir": 6818,
    "Ġanticipating": 17059,
    "Ġconveys": 16857,
    "Ġsupported": 9821,
    "girl": 12322,
    "sander": 11529,
    "Ġlords": 14643,
    "Ġasiatics": 20434,
    "ibly": 2997,
    "Ġencapsulate": 13677,
    "Ġberth": 8683,
    "Ġbleeds": 24397,
    "Ġdigress": 24649,
    "Ġoffences": 18691,
    "Ġallow": 1124,
    "stolen": 13984,
    "Ġsmoked": 10325,
    "Ġglassy": 19563,
    "Ġmuslin": 19386,
    "Ġmerchantmen": 19862,
    "Ġrussian": 14354,
    "Ġprove": 5231,
    "Ġfor": 340,
    "Ġparlor": 13542,
    "ver": 331,
    "bearings": 25372,
    "ĵ": 246,
    "ckles": 22093,
    "Ġchinks": 22255,
    "repro": 10772,
    "fluttering": 23976,
    "priv": 9622,
    "Ġworry": 18816,
    "Ġblunt": 11898,
    "Ġdined": 9180,
    "Ġperusal": 14222,
    "Ġround": 1365,
    "Ġtrains": 10949,
    "fine": 10093,
    "Ġrelu": 1045,
    "Ġconcerning": 4071,
    "Ġcontinents": 16851,
    "Ġdeclared": 5595,
    "modern": 1182,
    "Ġwest": 5219,
    "Ġrecip": 16150,
    "dan": 17517,
    "izers": 18137,
    "vely": 3865,
    "Ġjollity": 25567,
    "Ġshrill": 12146,
    "houn": 20895,
    "Ġcart": 11586,
    "circumst": 5349,
    "Ġyou": 366,
    "Ġbenevolent": 7773,
    "Ġprofundities": 20456,
    "stop": 11638,
    "Ġventil": 8019,
    "wreck": 21139,
    "Ġlabours": 8586,
    "hatches": 19930,
    "Ġmemorable": 16448,
    "Ġmyself": 1453,
    "byshire": 6174,
    "Ġpaved": 17915,
    "lock": 1469,
    "aid": 1921,
    "tisement": 6768,
    "unavoidable": 17393,
    "Ġturner": 7051,
    "adopt": 25545,
    "itional": 22478,
    "Ġmisfortunes": 7043,
    "Ġphilips": 5410,
    "protected": 19923,
    "Ġpermitted": 9282,
    "Ġharem": 9712,
    "sick": 13786,
    "Ġroughs": 19960,
    "Ġsurprise": 3828,
    "Ġsubsiding": 23436,
    "Ġprudent": 9189,
    "^{": 15308,
    "Ġch": 513,
    "Ġpercept": 14221,
    "Ġimply": 18451,
    "uble": 21105,
    "ittarius": 22384,
    "Ġconjunction": 25103,
    "hoped": 20912,
    "Ġfrigid": 17355,
    "ousness": 10277,
    "Ġquiver": 16006,
    "Ġhouses": 6140,
    "courage": 17512,
    "ast": 473,
    "Ġnose": 4402,
    "shaken": 16025,
    "Ġunmanufactured": 20437,
    "Ġdevelop": 1660,
    "Ġdatasets": 2388,
    "Ġmira": 8408,
    "Ġhud": 10824,
    "Ġpaid": 5015,
    "berg": 11866,
    "put": 414,
    "Ġmatters": 4974,
    "odecim": 9835,
    "Ġcoloss": 11048,
    "reinforcement": 7826,
    "Ġkey": 2103,
    "Ġhatter": 4113,
    "hairs": 20906,
    "Ġbosom": 6939,
    "Ġthr": 5709,
    "mild": 15395,
    "Ġunreserved": 19400,
    "satisfy": 16894,
    "calcul": 12991,
    "Ġmastiff": 23728,
    "Ġ64": 24367,
    "irited": 15791,
    "Ġfully": 6344,
    "Ġconstitutes": 13555,
    "Ġindisp": 18835,
    "Ġjeopard": 9946,
    "Ġmoritz": 11910,
    "Ġbliss": 13005,
    "Ġarchitecture": 1120,
    "Ġblankets": 24612,
    "iably": 13740,
    "bud": 10686,
    "Ġbrowne": 13305,
    "atus": 21263,
    "nerable": 16277,
    "Ġsearched": 15823,
    "Ġeth": 17718,
    "sham": 9760,
    "Ġjapanese": 10635,
    "december": 25559,
    "adventurous": 25362,
    "Ġpos": 1012,
    "brandy": 19202,
    "Ġmanhood": 22330,
    "government": 25407,
    "instinct": 19546,
    "animate": 12582,
    "Ġschoolboys": 24481,
    "Ġtedious": 15270,
    "Ġsentimental": 24753,
    "Ġboards": 14303,
    "Ġpreferment": 19855,
    "Ġabsence": 4895,
    "planted": 11700,
    "distinction": 19574,
    "Ġfr": 1698,
    "assuming": 22314,
    "Ġambergris": 8709,
    "lord": 3863,
    "Ŀ": 256,
    "mot": 17598,
    "Ġwinchester": 10069,
    "Ġnlp": 3063,
    "ĠĠĠĠ": 460,
    "Ġsurmised": 24920,
    "Ġmo": 628,
    "Ġmusky": 19385,
    "Ġsubstantial": 14813,
    "Ġd": 284,
    "ury": 3314,
    "nesday": 8706,
    "prodigious": 17469,
    "Ġserious": 4321,
    "Ġsmith": 16068,
    "Ġbrow": 3987,
    "Ġunsatisfied": 22048,
    "surrounded": 26089,
    "Ġcaved": 21356,
    "threw": 21988,
    "Ġdeceased": 15008,
    "Ġwed": 7575,
    "Ġcathed": 14549,
    "Ġbul": 3294,
    "Ġswept": 7977,
    "Ġchowders": 18387,
    "Ġuse": 832,
    "Ġadopt": 10634,
    "Ġmap": 2390,
    "isco": 12586,
    "ems": 5236,
    "Ġsympathies": 14864,
    "ke": 429,
    "Ġpaying": 9941,
    "Ġlazarus": 15031,
    "Ġ1778": 25730,
    "fow": 20855,
    "Ġinde": 7371,
    "springs": 24912,
    "Ġbigness": 19763,
    "Ġwoll": 21296,
    "Ġestablish": 9546,
    "Ġolder": 9331,
    "Ġmodeling": 2096,
    "Ġcrozetts": 19632,
    "more": 1033,
    "Ġunprinciple": 18255,
    "neglect": 25669,
    "Ġoblivion": 26032,
    "hangs": 15372,
    "Ġstung": 21745,
    "Ġmanage": 7641,
    "prevented": 20377,
    "Ġthro": 5818,
    "Ġ112": 24437,
    "Ġseparately": 13306,
    "Ġzeal": 9102,
    "Ġproxim": 3204,
    "hever": 13833,
    "Ġflexible": 23778,
    "cre": 4250,
    "gloomy": 25147,
    "Ġdaily": 5988,
    "resp": 13841,
    "Ġwhatsoever": 18456,
    "Ġxxiv": 24477,
    "whilst": 18372,
    "splash": 25210,
    "gg": 1996,
    "Ġcurve": 22973,
    "amed": 4448,
    "Ġstooping": 13066,
    "Ġdarting": 7757,
    "lake": 13751,
    "eg": 17531,
    "welcome": 10004,
    "Ġso": 433,
    "Ġexpiration": 22626,
    "Ġchimneys": 16974,
    "Ġsubset": 9873,
    "beaten": 20318,
    "Ġclearer": 16316,
    "Ġimprec": 14226,
    "Ġbodies": 8032,
    "Ġannouncing": 16756,
    "diligence": 26111,
    "Ġtotally": 9474,
    "seeing": 7080,
    "Ġonce": 1490,
    "otics": 10226,
    "Ġenorm": 5304,
    "Ġbattered": 17864,
    "Ġboth": 1656,
    "Ġswallows": 18883,
    "Ġerrone": 14433,
    "pale": 13774,
    "Ġardent": 9973,
    "Ġchiswick": 25561,
    "Ġparameter": 876,
    "Ġhoarsely": 26303,
    "cape": 13700,
    "fes": 20853,
    "Ġvinegar": 20103,
    "Ġgabriel": 7596,
    "Ġcinque": 20489,
    "Ġre": 317,
    "Ġrelief": 6061,
    "Ġcustom": 5078,
    "Ġunw": 7005,
    "Ġpathways": 11155,
    "gr": 2086,
    "iancy": 13013,
    "renewed": 19707,
    "hopper": 23717,
    "Ġtragic": 15258,
    "Ġinflexibly": 26372,
    "Ġdif": 870,
    "persecut": 22188,
    "Ġpolar": 9415,
    "Ġbaker": 4697,
    "uttering": 12667,
    "mass": 12494,
    "forbearance": 22785,
    "Ġtrepidation": 19216,
    "Ġtempt": 5565,
    "Ġgruff": 21617,
    "Ġdeliberately": 10627,
    "outre": 18321,
    "Ġclothe": 4713,
    "quietude": 24656,
    "Ġregent": 18598,
    "Ġearthy": 23715,
    "hot": 8084,
    "irmed": 9243,
    "ersman": 11706,
    "hateful": 20911,
    "Ġ>": 21154,
    "Ġlive": 2737,
    "bury": 9111,
    "Ġaugust": 10600,
    "Ġgradients": 611,
    "mit": 4934,
    "Ġexec": 19495,
    "Ġmississ": 18840,
    "hast": 5358,
    "lu": 597,
    "Ġdevil": 3616,
    "bohem": 19003,
    "Ġmonitors": 3160,
    "Ġcerem": 7079,
    "Ġmccarthys": 19665,
    "fortune": 4975,
    "view": 5897,
    "gigantic": 15363,
    "Ġunrel": 14698,
    "oat": 13766,
    "Ġinfinite": 8580,
    "Ġshovel": 23495,
    "Ġcalendar": 18878,
    "Ġminds": 6305,
    "Ġapples": 22216,
    "Ġunless": 4092,
    "Ġneighbour": 3808,
    "poor": 6062,
    "Ġbreathing": 9449,
    "Ġnoticing": 18225,
    "Ġkings": 7197,
    "Ġalluding": 18237,
    "Ġquadruped": 20618,
    "Ġdebts": 8036,
    "Ġexpanded": 14292,
    "Ġcampa": 17176,
    "Ġeager": 3571,
    "Ġhiss": 15792,
    "Ġsunshine": 14496,
    "tears": 11040,
    "indispensable": 14212,
    "bordered": 17501,
    "repent": 15516,
    "Ġdismal": 11814,
    "heric": 15916,
    "Ġsoc": 3527,
    "iantly": 13741,
    "handed": 7482,
    "Ġgover": 2461,
    "Ġdiscriminator": 3392,
    "farewell": 12310,
    "uvier": 9072,
    "pil": 15411,
    "scythes": 26404,
    "sustained": 20571,
    "anged": 3588,
    "wel": 6119,
    "irms": 18171,
    "displayed": 20738,
    "hereafter": 19217,
    "Ġtattooed": 11380,
    "Ġcoburg": 18596,
    "Ġcarr": 23094,
    "ieth": 10706,
    "Ġaccusations": 22381,
    "Ġsurrounds": 24234,
    "Ġbowsman": 11256,
    "Ġexcavating": 23319,
    "Ġleech": 24158,
    "Ġgouge": 26190,
    "Ġclanging": 18425,
    "Ġleaky": 2347,
    "o": 83,
    "watching": 16932,
    "ibilities": 13012,
    "topic": 10530,
    "Ġmembrane": 20507,
    "Ġmule": 13864,
    "harpoon": 9494,
    "Ġsneeze": 24698,
    "Ġanonym": 17899,
    "Ġasleep": 6836,
    "determination": 19948,
    "arrival": 15604,
    "Ġxxx": 7767,
    "Ġhovel": 8254,
    "Ġpeculiarly": 8287,
    "Ġkith": 22196,
    "Ġfellows": 8257,
    "englishman": 23680,
    "Ġchast": 18381,
    "natural": 2149,
    "Ġexpenses": 11837,
    "motives": 26138,
    "stately": 18024,
    "confl": 22473,
    "breath": 15166,
    "itying": 21998,
    "unned": 21882,
    "Ġsummoned": 9914,
    "Ġinvade": 19144,
    "Ġlig": 21551,
    "Ġdiscol": 12959,
    "wholly": 10943,
    "Ġnodes": 1967,
    "northern": 23670,
    "Ġconvince": 14644,
    "Ġanxiety": 5408,
    "Ġsplitting": 4383,
    "ppery": 10894,
    "Ġdelicious": 14796,
    "Ġwilful": 10537,
    "iciency": 9577,
    "writing": 7721,
    "Ġquench": 22423,
    "Ġterminating": 23515,
    "Ġelusive": 22649,
    "Ġmeditations": 25016,
    "Ġblushed": 13006,
    "Ġdeparture": 6491,
    "appre": 14373,
    "incess": 15485,
    "Ġsales": 12812,
    "Ġribs": 7103,
    "Ġext": 887,
    "Ġquantization": 19856,
    "rer": 3625,
    "Ġpinched": 17036,
    "sneezes": 11448,
    "Ġdinah": 9458,
    "tps": 11537,
    "Ġmarched": 18873,
    "tis": 4106,
    "Ġvalidation": 2357,
    "say": 3983,
    "intention": 10370,
    "Ġbuilt": 8301,
    "Ġcloud": 3909,
    "Ġbore": 5079,
    "Ġimprudently": 22401,
    "Ġimages": 1598,
    "Ġgeneral": 1862,
    "Ġnoiseless": 10360,
    "hent": 12539,
    "Ġscrutiny": 26016,
    "mod": 1090,
    "Ġdoubt": 2222,
    "forbidding": 25837,
    "Ġscuffle": 20611,
    "Ġans": 1647,
    "Ġrent": 11642,
    "Ġsaturation": 2063,
    "Ġdecisive": 18492,
    "Ġrepair": 11983,
    "Ġcombining": 22824,
    "Ġhams": 16614,
    "presented": 12995,
    "Ġlogical": 14489,
    "etence": 21580,
    "Ġswashing": 23059,
    "phr": 18712,
    "young": 7321,
    "Ġbodiless": 24229,
    "Ġwhereas": 3854,
    "Ġoaken": 13867,
    "Ġdisposition": 5409,
    "Ġargued": 13632,
    "Ġfielding": 16239,
    "Ġannoyance": 20664,
    "Ġgoug": 17993,
    "Ġdutch": 6329,
    "Ġexperiences": 13034,
    "Ġmotives": 7486,
    "olstadt": 7789,
    "yt": 17713,
    "knowing": 10439,
    "Ġscor": 8190,
    "Ġgracious": 8851,
    "Ġcologne": 12979,
    "Ġenthr": 22742,
    "Ġquarrels": 16569,
    "bes": 6644,
    "Ġtrait": 23078,
    "Ġpro": 359,
    "Ġlass": 15652,
    "Ġedged": 23491,
    "Ġemployed": 5200,
    "Ġbil": 15569,
    "Ġpetersburgh": 24231,
    "ploy": 2019,
    "perse": 15899,
    "Ġopposite": 5120,
    "Ġadmirers": 19689,
    "Ġgunwale": 7325,
    "ment": 682,
    "Ġintens": 7004,
    "approaching": 15014,
    "ubines": 22962,
    "onomy": 12552,
    "Ġphilosophical": 26336,
    "Ġmasks": 23331,
    "Ġvacancy": 9048,
    "vative": 1514,
    "Ġfools": 14484,
    "Ġrhyme": 21982,
    "hy": 4741,
    "Ġnewcomer": 26041,
    "Ġbenef": 3490,
    "Ġconvalescence": 23749,
    "preservation": 25306,
    "Ġsolved": 8934,
    "isp": 5528,
    "Ġglens": 18856,
    "Ġenjoyed": 8008,
    "Ġbelieving": 8225,
    "carefully": 13372,
    "Ġusefulness": 19411,
    "roylott": 20030,
    "Ġter": 2052,
    "Ġinterpreter": 23213,
    "Ġhigh": 929,
    "accepting": 20138,
    "dismay": 19156,
    "Ġjoint": 12038,
    "Ġdeuteronomy": 15764,
    "Ġsqualls": 17022,
    "Ġerroneous": 17412,
    "emporary": 15802,
    "Ġnewfoundland": 26571,
    "Ġxliv": 23411,
    "wling": 11547,
    "Ġadvantageously": 19548,
    "Ġhorsham": 10408,
    "frequented": 25901,
    "stories": 18026,
    "Ġdiscovering": 13361,
    "Ġrepel": 23362,
    "Ġbaleen": 10040,
    "cutting": 23787,
    "alog": 8809,
    "cro": 13699,
    "oof": 15408,
    "ction": 497,
    "Ġsequentially": 4915,
    ".*": 7331,
    "Ġscreaming": 13426,
    "Ġsphere": 15886,
    "acy": 3954,
    "Ġmists": 14632,
    "Ġrefers": 1569,
    "Ġwer": 12557,
    "ceived": 1964,
    "Ġconsequences": 11337,
    "Ġplacid": 11830,
    "sweet": 8689,
    "al": 292,
    "ch": 321,
    "Ġinside": 5448,
    "Ġsignature": 16496,
    "Ġclicked": 22362,
    "Ġsec": 2075,
    "Ġcommentaries": 20163,
    ".]": 15302,
    "Ġpresume": 8038,
    "clu": 20801,
    "Ġmassacre": 20550,
    "Ġgrease": 26191,
    "Ġprospect": 4706,
    "Ġstarboard": 7608,
    "Ġhides": 16266,
    "equally": 19901,
    "reement": 15514,
    "collecting": 26082,
    "Ġignorantly": 19498,
    "Ġhed": 7387,
    "000": 2558,
    "Ġsurmises": 17056,
    "forehead": 8518,
    "Ġgroaned": 11268,
    "Ġcheerily": 13311,
    "Ġloads": 22118,
    "Ġincognit": 22558,
    "Ġnegative": 1462,
    "Ġloom": 7629,
    "Ġgate": 6825,
    "carriage": 9949,
    "ancing": 1758,
    "Ġpersonages": 23544,
    "Ġhumming": 12990,
    "Ġsinks": 19552,
    "Ġdil": 6384,
    "Ġlabels": 3289,
    "Ġprefers": 20517,
    "soc": 5175,
    "Ġvoluntarily": 12145,
    "Ġlexicon": 25974,
    "Ġxli": 14543,
    "ements": 11110,
    "Ġsig": 867,
    "Ġapproached": 5844,
    "Ġstreatham": 17452,
    "ing": 273,
    "henomen": 10497,
    "Ġoars": 3895,
    "begging": 22501,
    "secur": 18129,
    "Ġflorida": 20661,
    "Ġjur": 12839,
    "Ġcrescentic": 20624,
    "Ġbeside": 5192,
    "Ġmistress": 8615,
    "Ġrucastle": 5176,
    "nut": 12499,
    "Ġtreas": 7358,
    "ermost": 7430,
    "Ġreus": 8826,
    "Ġmaterially": 12196,
    "rages": 15685,
    "Ġlegend": 14577,
    "conscience": 14863,
    "Ġstrainings": 24628,
    "nings": 9135,
    "Ġgaped": 13969,
    "european": 26373,
    "Ġske": 4816,
    "holland": 24044,
    "says": 13303,
    "Ġconfirm": 9859,
    "Ġdispute": 16060,
    "Ġsuppression": 23003,
    "Ġgust": 21600,
    "Ġstumble": 26485,
    "antial": 8490,
    "Ġsultanism": 25889,
    "countenance": 6925,
    "Ą": 197,
    "Ġdefault": 3040,
    "Ġextinction": 14331,
    "unctuous": 21886,
    "Ġcongeal": 25981,
    "Ġproject": 5546,
    "quohog": 21862,
    "Ġrob": 1295,
    "Ġbending": 12590,
    "Ġellenborough": 26155,
    "Ġdarcy": 1340,
    "ladyship": 14832,
    "leather": 13892,
    "ushed": 2973,
    "Ġunnaturally": 24871,
    "Ġincarnate": 20378,
    "wife": 8101,
    "Ġimputed": 12813,
    "shelf": 20384,
    "occupied": 12308,
    "Ġunited": 6840,
    "Ġmethod": 1506,
    "comparatively": 25841,
    "ual": 947,
    "shabbily": 26248,
    "suspicions": 25392,
    "arson": 22747,
    "shape": 10983,
    "ppo": 18178,
    "tossed": 10998,
    "Ġnautical": 17389,
    "beries": 22744,
    "isc": 6241,
    "decor": 23783,
    "anity": 9657,
    "Ġafternoon": 6054,
    "Ġcompared": 2227,
    "Ġdifferently": 10391,
    "Ġphilistines": 26083,
    "¥": 103,
    "Ġpartial": 2130,
    "Ġsheer": 14153,
    "Ġlifetime": 13605,
    "beginning": 13564,
    "Ġclosed": 4606,
    "Ġrepresented": 8941,
    "Ġbrushed": 15575,
    "Ġax": 7822,
    "thrown": 8483,
    "Ġpreparations": 12314,
    "Ġinventing": 24862,
    "Ġgrim": 7441,
    "assisted": 22311,
    "hs": 8378,
    "scr": 16245,
    "Ġcongregated": 20100,
    "Ġwell": 900,
    "Ġwra": 5907,
    "Ġarmed": 9264,
    "Ġrely": 8825,
    "Ġcrazy": 8597,
    "Ġfretfulness": 25449,
    "================================================================": 9993,
    "acet": 5476,
    "Ġfeeds": 16436,
    "Ġwidth": 16774,
    "lesome": 12969,
    "happiness": 6470,
    "binnacle": 20789,
    "obstructed": 15230,
    "listen": 13516,
    "Ġforemost": 12009,
    "above": 8148,
    "alt": 12643,
    "comfortable": 7320,
    "Ġdoubting": 13103,
    "emotion": 21934,
    "Ġsatirical": 26281,
    "Ġgrunted": 16174,
    "sufficient": 6638,
    "mason": 17604,
    "Ġradiance": 13374,
    "Ġmicroscopic": 26375,
    "Ġbaggy": 24538,
    "anywhere": 14684,
    "Ġweapon": 7776,
    "Ġwrap": 24595,
    "Ġworshipping": 22930,
    "Ġcontemptuously": 19836,
    "Ġrenewed": 9541,
    "Ġpestilent": 25778,
    "striving": 24670,
    "stead": 10848,
    "Ġtuesday": 9629,
    "Ġoh": 2176,
    "Ġyell": 21781,
    "Ġshallow": 14398,
    "Ġdistended": 16048,
    "meantime": 9096,
    "Ġhelmet": 19690,
    "Ġsweet": 3466,
    "resembling": 25933,
    "amused": 21856,
    "cried": 8728,
    "Ġcaptured": 7245,
    "Ġremind": 6059,
    "Ġsymbols": 2797,
    "Ġevenness": 22841,
    "Ġwond": 3937,
    "Ġic": 9628,
    "inite": 6003,
    "warning": 25532,
    "wrapped": 15213,
    "Ġreceiving": 4883,
    "âĢĻ": 378,
    "rib": 1947,
    "kinder": 24846,
    "anation": 5804,
    "Ġsallied": 12542,
    "Ġcommencement": 12243,
    "Ġmonster": 3794,
    "Ġdear": 1543,
    "dorff": 15241,
    "Ġstark": 7390,
    "ww": 10739,
    "works": 6591,
    "ĠĠĠĠĠĠĠĠĠĠĠĠĠĠĠĠĠĠĠĠĠĠĠĠĠĠĠĠĠĠĠĠĠĠĠĠĠĠĠĠĠĠĠĠ": 12158,
    "Ġmau": 21313,
    "Ġbanks": 6815,
    "Ġspending": 10925,
    "Ġvector": 1971,
    "Ġimprovement": 7966,
    "orders": 12880,
    "Ġclassifies": 11842,
    "tree": 11536,
    "Ġfar": 1449,
    "Ġwhaling": 2784,
    "isles": 15568,
    "Ġrio": 23894,
    "Ġhearing": 4762,
    "savor": 25027,
    "Ġunshored": 25814,
    "Ġthinker": 22814,
    "Ġtransition": 14236,
    "Ġever": 1178,
    "Ġascended": 8669,
    "Ġtags": 20574,
    "mend": 20968,
    "Ġhears": 8139,
    "<MASK>": 4,
    "Ġconfronted": 23312,
    "retrospect": 23142,
    "single": 10129,
    "Ġactivity": 7920,
    "oysius": 14367,
    "Ġcounting": 13099,
    "wal": 10136,
    "Ġident": 2239,
    "Ġmemory": 2276,
    "Ġanywhere": 8519,
    "Ġexplaining": 15964,
    "istical": 8492,
    "Ġadie": 8491,
    "Ġfinancier": 26585,
    "Ġpack": 5444,
    "exp": 2739,
    "ns": 751,
    "Ġdecomp": 3811,
    "hard": 4691,
    "Ġstrained": 10221,
    "Ġadmin": 23556,
    "Ġskylarking": 19490,
    "Ġcirclings": 26433,
    "Ġcastor": 19430,
    "Ġunostentatious": 22073,
    "dear": 6557,
    "looking": 4034,
    "Ġlichen": 20095,
    "Ġhighland": 18711,
    "Ġgallied": 19559,
    "ascending": 24706,
    "city": 15330,
    "Ġbarrels": 9440,
    "Ġdismantled": 20219,
    "Ġbeauties": 10447,
    "Ġnear": 1719,
    "Ġindignantly": 16941,
    "Ġpropriety": 10013,
    "Ġcommunicating": 16891,
    "Ġmining": 22837,
    "Ġengravings": 15069,
    "Ġbits": 11591,
    "Ġtearing": 14395,
    "otions": 7181,
    "fierce": 25256,
    "Ġblankness": 24611,
    "Ġhis": 380,
    "istically": 14146,
    "Ġspectator": 19409,
    "ribbed": 16416,
    "Ġimpat": 4455,
    "Ġmbpp": 21325,
    "Ġriotous": 20547,
    "Ġshares": 23248,
    "plain": 1355,
    "Ġappertain": 22217,
    "Ġchoosing": 19593,
    "vari": 1519,
    "Ġuncertain": 4070,
    "unction": 10237,
    "rie": 2788,
    "output": 4401,
    "Ġgasfitters": 25041,
    "Ġrestricted": 19027,
    "Ġlittle": 866,
    "ist": 451,
    "modesty": 22879,
    "eyeing": 14949,
    "Ġforgo": 21777,
    "Ġpromised": 5181,
    "Ġchewed": 16373,
    "Ġrascal": 11704,
    "prepared": 13593,
    "prec": 3206,
    "haps": 1671,
    "boxes": 16890,
    "Ġquiescent": 26244,
    "hearted": 6971,
    "Ġadequ": 10915,
    "derer": 4601,
    "Ġmen": 1434,
    "storied": 18027,
    "Ġchurch": 4712,
    "Ġpensive": 21478,
    "swam": 24257,
    "Ġrum": 5925,
    "Ġliveliness": 13646,
    "Ġswerve": 14440,
    "Ġpuffed": 14980,
    "inates": 21183,
    "Ġslain": 8956,
    "because": 4924,
    "Ġimperilled": 19581,
    "Ġaffidav": 18789,
    "becoming": 18520,
    "Ġgrammars": 11404,
    "Ġcrouched": 23443,
    "greenland": 10024,
    "exam": 10978,
    "Ġdiscrimin": 2544,
    "Ġallude": 12776,
    "Ġburtons": 19255,
    "Ġbiography": 22769,
    "Ġreasoned": 23065,
    "Ġsquaw": 22844,
    "Ġaverted": 16256,
    "ires": 6039,
    "Ġlethar": 21735,
    "Ġadd": 629,
    "Ġwitty": 21295,
    "Ġlessen": 14534,
    "claims": 25320,
    "res": 2762,
    "mistress": 14908,
    "Ġimagenet": 19248,
    "Ġglistened": 20175,
    "whatever": 6696,
    "Ġdescribe": 2768,
    "nobody": 16138,
    "Ġfirmness": 11239,
    "Ġlabelled": 23333,
    "Ġeleventh": 23372,
    "Ġbeard": 11658,
    "bless": 22316,
    "Ġattacking": 24465,
    "Ġeels": 21623,
    "listened": 15046,
    "arding": 22161,
    "ientific": 6549,
    "Ġhorizon": 6635,
    "Ġbashful": 20423,
    "Ġmagazine": 23103,
    "refuge": 24733,
    "Ġceremony": 8361,
    "Ġwolves": 25935,
    "Ġwapping": 21297,
    "Ġgul": 7860,
    "Ġpresumption": 10548,
    "?âĢĶ": 3469,
    "coarse": 16489,
    "Ġboots": 5944,
    "Ġgenerously": 22386,
    "Ġaid": 6124,
    "Ġeliza": 6438,
    "bond": 17492,
    "Ġfidel": 12601,
    "Ġimplies": 24874,
    "fearfully": 25119,
    "Ġhumaneval": 25583,
    "morn": 20978,
    "Ġpersisting": 18906,
    "Ġdetective": 14416,
    "Ġweapons": 10596,
    "Ġprejudices": 13472,
    "Ġtheoretic": 23315,
    "Ġvariation": 22668,
    "Ġobeisance": 19761,
    "Ġvulgarity": 25364,
    "icha": 11741,
    "attached": 11939,
    "intosh": 22942,
    "Ġindirectly": 8942,
    "mits": 13758,
    "Ġperplex": 2716,
    "ald": 15629,
    "train": 2036,
    "cent": 8073,
    "Ġceti": 24772,
    "Ġsailed": 4890,
    "utarch": 15666,
    "Ġpluck": 15618,
    "Ġassuring": 13068,
    "Ġdragging": 14477,
    "Ò": 147,
    "eager": 12464,
    "nder": 20989,
    "what": 643,
    "edding": 4367,
    "Ġstays": 16564,
    "occup": 7753,
    "Ġevents": 4471,
    "inery": 17735,
    "procure": 23400,
    "icher": 9206,
    "Ġones": 3021,
    "romeda": 17265,
    "Ġcomm": 837,
    "Ġrational": 8482,
    "oking": 4607,
    "Ġpig": 5705,
    "Ġscrews": 25178,
    "Ġryder": 10261,
    "entropy": 1439,
    "Ġthem": 640,
    "9": 29,
    "Ġproved": 4885,
    "itia": 11582,
    "Ġsailor": 3537,
    "ow": 326,
    "Ġaccommod": 14215,
    "Ġshoals": 13136,
    "arrow": 4181,
    "Ġcasual": 11411,
    "Ġfarewell": 9523,
    "Ġusher": 22226,
    "Ġcolumn": 9332,
    "Ġenvelopes": 24510,
    "settle": 16664,
    "ulates": 14057,
    "Ġing": 5284,
    "Ġwestmorland": 24390,
    "Ġlances": 6985,
    "Ġcirculating": 23376,
    "Ġsolicited": 20040,
    "Ġbitterness": 8024,
    "Ġlearns": 2641,
    "down": 3470,
    "vishnoo": 21122,
    "Ġsighing": 18674,
    "enstein": 5800,
    "Ġalas": 5923,
    "estations": 22232,
    "Ġagreeable": 4550,
    "ę": 218,
    "brill": 16494,
    "Ġcloset": 19594,
    "Ġhisself": 21918,
    "Ġstarted": 4151,
    "prises": 23817,
    "Ġshaved": 22006,
    "Ġglide": 22989,
    "Ġcoll": 8221,
    "Ġsli": 4749,
    "Ġsharpen": 13572,
    "Ġpowdered": 24240,
    "Ġgush": 10205,
    "Ġlub": 15653,
    "Ġstables": 23660,
    "Ġcombine": 4415,
    "isure": 6242,
    "haz": 17566,
    "buckets": 26124,
    "mody": 16194,
    "dz": 4740,
    "Ġdemanding": 16807,
    "Ġsubstance": 5510,
    "Ġgrizzled": 11452,
    "Ġbrougham": 17872,
    "Ġsink": 4339,
    "ocity": 8278,
    "Ġdistributing": 22682,
    "Ġyarn": 10870,
    "coiled": 16488,
    "Ġspent": 3963,
    "opatra": 22481,
    "uneasiness": 23690,
    "stocks": 23824,
    "display": 19158,
    "cra": 6356,
    "Ġlifeless": 8951,
    "kingly": 20941,
    "dden": 1803,
    "Ġpierce": 17037,
    "Ġfrequented": 16588,
    "ond": 1159,
    "Ġdeprived": 8211,
    "als": 2043,
    "Ġuncouth": 14550,
    "ipotent": 10959,
    "Ġplough": 18609,
    "Ġdeal": 3610,
    "brow": 15319,
    "Ġregularly": 7658,
    "terns": 21826,
    "sed": 4177,
    "mbl": 5947,
    "Ġsane": 21224,
    "Ġviol": 2071,
    "jour": 20929,
    "aware": 16298,
    "Ġvengeance": 5886,
    "Ġinferences": 17937,
    "amiable": 14056,
    "Ġcomrades": 9237,
    "importance": 9992,
    "parm": 21016,
    "chairs": 21696,
    "ished": 1425,
    "Ġundressed": 19516,
    "suffer": 24329,
    "calm": 8937,
    "mistaken": 12215,
    "imper": 13999,
    "Ġbarbara": 24815,
    "Ġaut": 1767,
    "neighbourhood": 10028,
    "cused": 15335,
    "urs": 6990,
    "Ġgoodge": 22830,
    "Ġclams": 19992,
    "liest": 6296,
    "Ġquieted": 23846,
    "Ġexercise": 8359,
    "Ġstreat": 15728,
    "cat": 15327,
    "Ġtag": 15471,
    "agers": 5633,
    "Ġrelent": 18775,
    "Ġslide": 10396,
    "aternity": 21268,
    "Ġsmoking": 6430,
    "Ġebb": 21625,
    "pun": 9620,
    "Ġestimated": 16596,
    "Ġchronicler": 20232,
    "alter": 10828,
    "Ġhardy": 8569,
    "Ġscorched": 17102,
    "Ġordinarily": 20651,
    "Ġrelease": 19292,
    "urable": 8927,
    "Ġpervading": 20615,
    "Ġslappin": 18945,
    "misrepresented": 24214,
    "Ġpie": 13917,
    "Ġservants": 6612,
    "assertion": 22315,
    "inch": 10757,
    "Ġ126": 24471,
    "Ġnavy": 14919,
    "Ġglaring": 11912,
    "Ġleading": 7297,
    "ceive": 3065,
    "including": 23592,
    "delighted": 10565,
    "Ġfeather": 8863,
    "rederick": 14082,
    "Ġfriendless": 23026,
    "Ġwafted": 14500,
    "Ġcomparable": 24281,
    "fordshire": 4678,
    "admirably": 24947,
    "Ġo": 275,
    "standing": 5558,
    "Ġhid": 1319,
    "contented": 14636,
    "Ġwade": 17786,
    "disp": 7976,
    "Ġbegun": 7243,
    "Ġdiscoverer": 26036,
    "ace": 715,
    "Ġsisterly": 16307,
    "Ġblanched": 26284,
    "Ġpoison": 7219,
    "Ġconditions": 8307,
    "Ġmilky": 9950,
    "Ġfant": 9177,
    "Ġcarpenter": 4686,
    "acit": 16084,
    "wow": 21124,
    "mounting": 25208,
    "Ġinclosed": 19541,
    "Ġpartially": 13126,
    "Ġdurst": 20355,
    "tiness": 21074,
    "ĠĠĠĠĠĠĠĠĠĠĠĠĠĠĠĠĠĠĠĠĠĠĠĠĠĠĠĠĠĠĠĠĠĠĠĠĠĠ": 16529,
    "amb": 5723,
    "Ġfascinated": 25636,
    "Ġfalls": 14646,
    "Ġheads": 3742,
    "Ġpractised": 23304,
    "bled": 5469,
    "Ġstaring": 8830,
    "Ġdesert": 6729,
    "Ġtranslates": 12054,
    "Ġsurm": 7476,
    "Ġaware": 5756,
    "almost": 4943,
    "Ġpert": 22392,
    "Ġoccur": 1082,
    "Ġabed": 22269,
    "tomorrow": 25915,
    "Ġdoublo": 6079,
    "ill": 447,
    "det": 5207,
    "Ġdelineate": 26058,
    "âĢĶâĢĺ_": 24832,
    "Ġthrows": 14741,
    "ractions": 11636,
    "sloop": 26146,
    "Ġsweatings": 25709,
    "eliest": 14750,
    "keenest": 25662,
    "Ĺ": 250,
    "Ġconfirmation": 17213,
    "orial": 8418,
    "ided": 2786,
    "Ġgone": 2108,
    "Ġcorpora": 26582,
    "Ġnonsense": 6983,
    "prepare": 20215,
    "Ġvan": 1087,
    "brit": 19199,
    "Ġmultitud": 18748,
    "Ġashore": 5352,
    "Ġhates": 21489,
    "Ġerudite": 26353,
    "Ġhorseman": 19610,
    "illings": 14145,
    "Ġpuff": 6527,
    "Ġlandlessness": 23383,
    "butter": 11789,
    "ging": 2599,
    "Ġgrotesque": 26331,
    "âĢĻ!âĢĿ": 18170,
    "ĠâĢĻ": 3044,
    "û": 188,
    "Ġcell": 6239,
    "endeav": 7151,
    "Ġproblems": 2849,
    "Ġkuiperai": 10937,
    "directed": 20408,
    "tallied": 21092,
    "Ġerrand": 11087,
    "Ġcategories": 4476,
    "bunger": 20405,
    "Ġvoids": 25808,
    "Ġcaw": 13885,
    "Ġgrip": 11630,
    "Ġassurance": 7775,
    "Ġbeware": 8832,
    "toller": 20675,
    "âĢĿ]": 21816,
    "prev": 12872,
    "anim": 6523,
    "ureau": 10229,
    "Ġfinding": 3267,
    "quarried": 24948,
    "ld": 385,
    "agree": 14069,
    "Ġpleased": 4066,
    "Ġrushes": 20511,
    "Ġjac": 1899,
    "Ġbrush": 17866,
    "irable": 5776,
    "Ġlistened": 4468,
    "running": 6798,
    "fallen": 19662,
    "Ġunhallowed": 17183,
    "Ġadaptation": 3159,
    "rus": 5931,
    "Ġwhose": 2008,
    "ioneer": 15636,
    "Ġgrasp": 4665,
    "Ġinduced": 8674,
    "falling": 24361,
    "Ġsatin": 12992,
    "Ġdescrying": 18620,
    "Ġexpedite": 24956,
    "pense": 10371,
    "Ġsubmit": 11874,
    "Ġheartless": 13076,
    "Ġear": 1421,
    "Ġtrifled": 24675,
    "emason": 18189,
    "Ġshooting": 11164,
    "herent": 2526,
    "Ġ14": 9327,
    "strugg": 21665,
    "Ġbroke": 5323,
    "hab": 1078,
    "who": 2444,
    "Ġplucked": 15117,
    "Ġsnatches": 16547,
    "sun": 7141,
    "Ġretired": 6072,
    "Ġdespite": 19356,
    "Ġprognost": 15284,
    "Ġluggage": 25958,
    "ructive": 18547,
    "ucket": 2482,
    "appearance": 5334,
    "Ġhast": 3154,
    "Ġsympathised": 14865,
    "Ġnupt": 13945,
    "Ġapproach": 841,
    "regret": 16451,
    "Ġcorners": 18876,
    "Ġpointing": 5661,
    "chers": 11319,
    "Ġveteran": 17453,
    "Ġadmiral": 17308,
    "oted": 4598,
    "Ġsmiting": 12903,
    "Ġathirst": 20601,
    "Ġchaos": 17011,
    "Ġembraced": 10009,
    "Ġpry": 11603,
    "Ġsequel": 14364,
    "typewritten": 26039,
    "Ġcultivation": 17148,
    "isis": 12584,
    "Ġexpect": 2306,
    "Ġbonnet": 10658,
    "Ġrepaid": 19084,
    "Ġpudding": 17918,
    "cross": 3576,
    "damp": 15347,
    "oug": 431,
    "Ġvect": 1224,
    "goes": 10428,
    "Ġletter": 2197,
    "Ġsits": 10770,
    "Ġprevent": 758,
    "tstone": 21087,
    "Ġsaleve": 17394,
    "izar": 14045,
    "chamber": 13628,
    "Ġinsisted": 12049,
    "Ġnights": 7258,
    "Ġfeast": 10280,
    "Ġjurymen": 16849,
    "Ġsends": 14793,
    "ding": 3027,
    "racted": 4775,
    "Ġclumsy": 9582,
    "Ġhail": 7400,
    "Ġhappens": 2189,
    "Ġexhilar": 19686,
    "Ĉ": 201,
    "icilian": 20694,
    "Ġshivered": 14111,
    "Ġfantastic": 10062,
    "Ġhumour": 7932,
    "fulness": 4309,
    "Ġware": 12559,
    "Ġinscriptions": 20012,
    "Ġfalsely": 20585,
    "contin": 16545,
    "Ġperceived": 4715,
    "``": 15310,
    "shone": 22447,
    "withdrawn": 23030,
    "Ġmaximizing": 3172,
    "Ġscud": 14193,
    "Ġrecall": 3855,
    "enched": 10157,
    "Ġappet": 9733,
    "Ġkink": 22197,
    "jets": 20930,
    "ingolstadt": 21306,
    "sentimental": 25682,
    "Ġinert": 15626,
    "lady": 4432,
    "erson": 7003,
    "Ġmantle": 25275,
    "Ġtoy": 15638,
    "Ġmainmast": 9782,
    "ulatory": 15772,
    "venant": 22630,
    "latin": 25259,
    "madness": 14885,
    "grasping": 20642,
    "Ġschool": 5512,
    "Ġtimber": 13353,
    "sou": 12510,
    "Ġghastly": 10063,
    "jury": 15377,
    "Ġsiber": 17757,
    "Ġwondered": 11127,
    "Ġtass": 15473,
    "rise": 6228,
    "ĠĠĠĠĠĠĠĠĠĠĠĠĠĠĠĠĠĠĠĠĠĠĠĠĠĠĠĠĠĠĠĠĠĠĠĠĠĠĠĠĠĠĠĠĠĠĠ": 16757,
    "Ġembell": 14414,
    "Ġseaman": 8642,
    "Ġattested": 22629,
    "Ġsold": 6004,
    "ending": 1989,
    "ened": 1386,
    "Ġscan": 22283,
    "Ġcaut": 6522,
    "Ġduke": 7756,
    "oked": 4307,
    "Ġranges": 2885,
    "apparently": 15208,
    "Ġhawaiian": 25367,
    "Ġsubproblems": 12963,
    "Ġdivineness": 25724,
    "bation": 9107,
    "Ġfragrant": 13106,
    "Ġgrat": 4059,
    "Ġarguments": 8037,
    "Ġjustinian": 22972,
    "acked": 10976,
    "Ġmedical": 9473,
    "Ġrewards": 10850,
    "squeezing": 25914,
    "vens": 21115,
    "Ġ55": 24319,
    "harpo": 4806,
    "ark": 848,
    "Ġvicious": 24403,
    "Ġgrapp": 14104,
    "Ġvines": 12756,
    "cig": 17506,
    "Ġmurmuring": 23581,
    "bewil": 22502,
    "Ġcringing": 25942,
    "ential": 823,
    "descend": 23089,
    "Ġflushed": 13031,
    "Ġsinews": 20290,
    "Ġ118": 19701,
    "Ġdecrease": 4201,
    "pled": 7892,
    "Ġjem": 18403,
    "Ġturbul": 23614,
    "enses": 10996,
    "icorn": 15661,
    "mention": 7214,
    "fooled": 24419,
    "Ġpiratical": 24798,
    "Ġwhispered": 5338,
    "Ġrail": 7224,
    "Ġstraw": 9433,
    "och": 21003,
    "Ġunlock": 18244,
    "Ġstren": 15727,
    "urn": 777,
    "Ġwaits": 23281,
    "posterity": 25489,
    "enary": 12556,
    "Ġsympathise": 16796,
    "gentlemen": 9507,
    "Ġlawn": 7379,
    "varieties": 23190,
    "captain": 3953,
    "Ġcarrying": 6073,
    "restored": 18979,
    "quer": 11683,
    "blu": 12444,
    "henomenon": 13617,
    "µ": 118,
    "Ġideal": 13124,
    "Ġfunere": 22261,
    "Ġthousandth": 23687,
    "ulty": 22571,
    "Ġdiscussed": 19562,
    "Ġhan": 15622,
    "Ġbeaut": 2392,
    "quick": 6401,
    "Ġreplaced": 13075,
    "Ġweighted": 2090,
    "infall": 21191,
    "Ġclassification": 1102,
    "world": 5058,
    "Ġfranc": 16355,
    "wake": 11548,
    "Ġhighlands": 22775,
    "Ġspoken": 4838,
    "Ġthrow": 3784,
    "www": 17254,
    "keep": 3849,
    "Ġsynd": 22214,
    "Ġamazing": 9980,
    "Ġdissimilar": 22535,
    "Ġflutter": 16250,
    "Ġcourtiers": 24139,
    "Ġundersampling": 19521,
    "exped": 16528,
    ",": 16,
    "tot": 10730,
    "Ġsmut": 22560,
    "Ġecl": 18008,
    "Ġupwards": 7634,
    "harmony": 25751,
    "Ġirreproachable": 24918,
    "words": 7983,
    "Ġbequest": 21757,
    "Ġfleshy": 24615,
    "Ġcompl": 3760,
    "frightened": 17198,
    "Ġshrouded": 14972,
    "Ġmask": 1866,
    "Ġantichron": 24184,
    "X": 60,
    "dece": 11738,
    "Ġ[": 6968,
    "etting": 21583,
    "remaining": 20223,
    "quiet": 6156,
    "pires": 13777,
    "dug": 18463,
    "storm": 9685,
    "thr": 12765,
    "eray": 21269,
    "rets": 12546,
    "Ġlead": 3524,
    "Ġevid": 3502,
    "Ġourselves": 5127,
    "Ġcattle": 12577,
    "cstasy": 11447,
    "itics": 13874,
    "Ġtrif": 6270,
    "Ġovercome": 6045,
    "greatest": 10496,
    "Ġnerve": 16343,
    "Ô": 149,
    "Ġsanctioned": 26352,
    "Ġv": 399,
    "Ġexh": 5232,
    "Ġstowed": 21743,
    "Ġmate": 3710,
    "burg": 16775,
    "Ġpines": 12622,
    "Ġconsidered": 4612,
    "Ġsocietal": 11438,
    "Ġmumbled": 17809,
    "Ġhurriedly": 11250,
    "rucastle": 22192,
    "Ġoccupations": 9463,
    "lydia": 6826,
    "passed": 8026,
    "foreign": 18544,
    "ogr": 18676,
    "£": 101,
    "frequently": 9982,
    "Ġresulting": 24201,
    "subst": 12169,
    "Ġwarming": 23560,
    "Ġruins": 16163,
    "wharf": 20609,
    "Ġextravagance": 17282,
    "approbation": 11460,
    "Ġbutterfly": 19912,
    "vital": 17702,
    "ned": 3494,
    "fug": 17545,
    "total": 17253,
    "Ġstirring": 10582,
    "Ġdarts": 16770,
    "resolution": 17768,
    "Ġreplying": 19584,
    "Ġmaled": 21317,
    "tum": 11534,
    "Ġsurgeon": 8984,
    "Ġbreakers": 12058,
    "ith": 330,
    "Ġcompasses": 11269,
    "Ġfiled": 15584,
    "plenty": 14091,
    "shine": 9290,
    "Ġdrive": 5055,
    "afternoon": 13188,
    "Ġwiping": 25766,
    "Ġcivility": 4789,
    "backs": 9395,
    "ommod": 13979,
    "Ġorgans": 15869,
    "Ġcatch": 4440,
    "Ġalmanac": 26487,
    "Ġbetter": 1172,
    "Ġwrite": 3820,
    "Ġ1991": 3017,
    "professor": 17252,
    "Ġcontingency": 26246,
    "Ġdissatisfied": 14259,
    "tomahawk": 25916,
    "Ġbridal": 14957,
    "pres": 16032,
    "sartain": 25623,
    "waistcoat": 17364,
    "Ġfiery": 6871,
    "Ġcorrespondent": 19825,
    "Ġetern": 7087,
    "Ġdisasters": 16058,
    "ever": 1077,
    "Ġforthwith": 16620,
    "Ġcachalot": 17836,
    "purpose": 10047,
    "Ġclothes": 4997,
    "Ġaft": 5737,
    "Ġri": 3395,
    "Ġcousin": 3707,
    "wer": 8396,
    "Ġperth": 7024,
    "Ġload": 14148,
    "Ġlibraries": 20617,
    "Ġbritish": 11339,
    "Ġsauntering": 18328,
    "icil": 17974,
    "Ġnursing": 12219,
    "Ġconsid": 1813,
    "Ġencourages": 2062,
    "conduct": 11801,
    "Ġnovelist": 24776,
    "coward": 13703,
    "prep": 9762,
    "Ġplainpalais": 20739,
    "Ġlatitudes": 9499,
    "Ġrap": 14306,
    "parameter": 3102,
    "Ġmerest": 14032,
    "Ġexpressive": 8985,
    "intolerable": 22940,
    "oses": 3944,
    "Ġvineyards": 25109,
    "apothecary": 26547,
    "Ġdevoured": 16140,
    "Ġhollowly": 24526,
    "Ġarguing": 25471,
    "Ġfossiliferous": 25610,
    "Ġshirr": 18232,
    "Ġcomplement": 23712,
    "Ġcolleague": 17162,
    "Ġneatly": 17018,
    "Ġwindward": 6885,
    "Ġimpetuously": 20375,
    "groom": 8743,
    "itan": 10162,
    "Ġprettier": 23768,
    "Ġtallest": 15477,
    "Ġlaborers": 19061,
    "agre": 18167,
    "Ġwhimsical": 20431,
    "Ú": 155,
    "Ġuncommonly": 7760,
    "Ġrig": 4225,
    "Ġterminated": 23514,
    "Ġaffair": 4462,
    "Ġconnivance": 25226,
    "Ġcring": 15556,
    "vest": 6232,
    "right": 2771,
    "Ġarriving": 19218,
    "Ġpropri": 6740,
    "gratitude": 16818,
    "Ġperpendicular": 7208,
    "Ġcolony": 18767,
    "Ġruthless": 15289,
    "Ġraw": 3323,
    "Ġbott": 3152,
    "Ġmoods": 14954,
    "Ġhandle": 3140,
    "compose": 23990,
    "Ġvertically": 19383,
    "Ġdoth": 13910,
    "Ġmocking": 24009,
    "Ġensigns": 23692,
    "harbors": 20151,
    "Ġcalmness": 12098,
    "Ġirreduc": 5491,
    "Ġamongst": 8962,
    "Ġslaughter": 20732,
    "icable": 6389,
    "monsters": 19173,
    "Ġbethinking": 25280,
    "Ġgag": 21596,
    "Ġpref": 14174,
    "ir": 379,
    "slo": 17658,
    "bbing": 6325,
    "Ġoccasions": 7988,
    "teous": 16177,
    "Ġbloody": 9892,
    "asc": 6387,
    "Ġrailway": 15023,
    "Ġcreat": 1435,
    "Ġroylott": 7305,
    "Ġspind": 18308,
    "Ġtranspointed": 22444,
    "Ġsome": 652,
    "ird": 2426,
    "Ġabstra": 22275,
    "Ġschedu": 1823,
    "Ġexperience": 1391,
    "suspected": 12376,
    "anatory": 21366,
    "Ġtrumpet": 9576,
    "Ġmarket": 7709,
    "inj": 9155,
    "peter": 24300,
    "unfearing": 21896,
    "Ġcalf": 16268,
    "upwards": 18865,
    "Ġtendency": 11331,
    "Ġbrave": 6331,
    "Ġmiraculous": 13550,
    "Ġdl": 3377,
    "Ġhatchways": 24990,
    "aph": 10956,
    "ampton": 18148,
    "eastward": 15133,
    "Ġbaffled": 12407,
    "Ġmermaid": 17815,
    "Ġcig": 6521,
    "Ġreckon": 19872,
    "Ġgame": 3631,
    "Ġexcuse": 5863,
    "lesson": 22773,
    "Ġhushed": 13927,
    "Ġautonom": 10413,
    "Ġbestirred": 20454,
    "Ġsurve": 9877,
    "nament": 11509,
    "Ġhard": 1443,
    "warmth": 20056,
    "ze": 1419,
    "Ġgradu": 15836,
    "Ġdown": 829,
    "flight": 15356,
    "Ġdevotion": 22724,
    "gd": 3128,
    "Ġboats": 2636,
    "trees": 10733,
    "Ġurged": 6782,
    "Ġjaw": 3321,
    "Ġhinted": 6013,
    "recover": 24623,
    "Ġyore": 21782,
    "Ġattendant": 11287,
    "Ġentities": 11865,
    "Ġsubst": 4273,
    "Ġconvey": 9984,
    "Ġtechni": 1677,
    "Ġrelinqu": 12987,
    "pious": 17635,
    "Ġicebergs": 23978,
    "Ġtorch": 25033,
    "Ġincomp": 12902,
    "Ġapparently": 6779,
    "Ġintervals": 5598,
    "Ġslumbering": 25702,
    "Ġhaws": 21955,
    "ently": 1438,
    "Ġinfer": 7684,
    "Ġah": 5075,
    "guarded": 13298,
    "Ġconnex": 10668,
    "ernation": 8212,
    "Ġtrans": 637,
    "foremost": 14255,
    "promontory": 24727,
    "sets": 17662,
    "ationally": 15709,
    "Ġuncontrollable": 25815,
    "¾": 127,
    "Ġquaint": 18466,
    "Ġstem": 15726,
    "prairies": 20569,
    "yes": 986,
    "pattern": 4568,
    "Ġmanufactured": 22334,
    "Ġmerry": 5870,
    "term": 3759,
    "Ġtaken": 2525,
    "Ġwhar": 7388,
    "Ġretrie": 10385,
    "Ġchina": 8040,
    "instantly": 7506,
    "yrin": 12527,
    "Ġgrandeur": 8631,
    "Ġbased": 3341,
    "Ġrepul": 16413,
    "Ġjenkinson": 11433,
    "Ġabsolutely": 4859,
    "Ġbarrel": 23794,
    "Ġsame": 1339,
    "Ġdip": 13909,
    "Ġ46": 19494,
    "iform": 2201,
    "concluded": 11244,
    "Ġdiscretion": 10350,
    "mured": 6960,
    "Ġdecanting": 22461,
    "Ġemployment": 8632,
    "Ġperiodical": 14776,
    "Ġprocedures": 9416,
    "Ġnoon": 6561,
    "Ġmrs": 1465,
    "Ġdeliriously": 23229,
    "Ġsant": 21217,
    "Ġagain": 812,
    "Ġtravellers": 11310,
    "Ġhandsomest": 20337,
    "Ġsearching": 13165,
    "pat": 10119,
    "Ġscatter": 18398,
    "retired": 11940,
    "rates": 21041,
    "Ġmarling": 23037,
    "Ġbro": 1430,
    "Ġcleaned": 23185,
    "Ġcontraction": 16012,
    "ught": 2752,
    "Ġendeavoured": 4919,
    "Ġcliffs": 15974,
    "Ġblasphemy": 26116,
    "Ġsingled": 23775,
    "ĠĠĠĠĠĠĠĠĠĠĠĠĠĠĠĠĠĠĠĠĠĠ": 16230,
    "Ġevangel": 11282,
    "Ġpupp": 10822,
    "lilies": 20963,
    "Ġlies": 5297,
    "Ġweal": 21924,
    "Ġbecoming": 4397,
    "Ġgrooves": 16743,
    "reas": 990,
    "oice": 1382,
    "Ġlumber": 13954,
    "Ġashes": 7617,
    "stache": 15694,
    "Ġvirgin": 7328,
    "Ġheap": 12683,
    "Ġsoil": 9259,
    "ize": 753,
    "Ġfig": 3627,
    "Ġdeck": 2139,
    "Ġmic": 17799,
    "Ġdashing": 8800,
    "imprudent": 14653,
    "Ġsubterr": 10351,
    "Ġadver": 5641,
    "Ġthump": 11614,
    "Ġ2": 2931,
    "Ġsavann": 14686,
    "Ġlighten": 23262,
    "Ġcop": 7580,
    "Ġjam": 10953,
    "pressing": 19015,
    "luded": 4228,
    "hunters": 16835,
    "commence": 19995,
    "Ġventilator": 8717,
    "atement": 17775,
    "Ġintellectual": 11403,
    "lingering": 18602,
    "Ġdistinctions": 18533,
    "supervised": 1944,
    "Ġuninjured": 22060,
    "Ġsyntax": 958,
    "Ġconfining": 23310,
    "Ġfloating": 6606,
    "Ġexter": 7397,
    "uling": 2257,
    "Ġtract": 21168,
    "Ġphrenologists": 25609,
    "Ġfulfilled": 11364,
    "ogy": 22715,
    "heed": 15501,
    "Ġbrew": 23347,
    "Ġagencies": 18542,
    "gone": 6505,
    "Ġdrily": 23543,
    "reshold": 21242,
    "Ġkra": 18349,
    "Ġsevent": 18203,
    "Ġduplicate": 17218,
    "anse": 12580,
    "etw": 404,
    "Ġhailed": 6408,
    "Ġpersecut": 16954,
    "Ġentertaining": 16928,
    "sisters": 13379,
    "away": 4627,
    "ra": 314,
    "fra": 8375,
    "Ġthickening": 24030,
    "dued": 7909,
    "Ġbodily": 6108,
    "Ġmatrim": 11062,
    "fitted": 17546,
    "Ġforenoon": 19127,
    "aning": 2253,
    "Ġundeviating": 15221,
    "Ġ17": 5740,
    "Ġhus": 3092,
    "Ġsepulchral": 25893,
    "related": 24018,
    "reated": 10305,
    "Ġunceasing": 20361,
    "Ġbanished": 10619,
    "ior": 2041,
    "Ġhorr": 3194,
    "load": 12886,
    "Ġstil": 15725,
    "Ü": 157,
    "Ġsighs": 22710,
    "prow": 15414,
    "Ġshuddering": 9055,
    "Ġnurse": 9520,
    "Ġpuzzle": 11307,
    "velope": 17703,
    "Ġhappily": 9335,
    "conceivable": 17133,
    "alas": 8808,
    "<EOS>": 2,
    "ignominious": 26589,
    "Ġdiffusion": 23785,
    "Ġshelf": 12272,
    "shortly": 12263,
    "ermaid": 14301,
    "ishments": 9277,
    "Ġwheeling": 18287,
    "Ġmemorand": 23463,
    "Ġsociable": 19407,
    "itiousness": 21337,
    "Ġfol": 1287,
    "Ġferry": 24498,
    "Ġleathern": 15052,
    "Ġisles": 8461,
    "rec": 6005,
    "Ġshipwrecked": 25688,
    "Ġmadly": 16487,
    "Ġanomalously": 25639,
    "ition": 655,
    "plunging": 25988,
    "Ġangrily": 9411,
    "Ġafric": 8909,
    "Ġtweed": 22680,
    "atched": 6376,
    "Ġnecessity": 7296,
    "Ġshyness": 20309,
    "Ġcastaway": 16643,
    "Ġheadland": 22898,
    "import": 5668,
    "Ġnav": 5819,
    "emotions": 15801,
    "Ġchambers": 16801,
    "Ġrequired": 7227,
    "Ġminutest": 14562,
    "Ġresting": 7962,
    "Ġpure": 6139,
    "Ġdeplored": 20508,
    "Ġembeddings": 2094,
    "Ġhob": 12634,
    "Ġcrystal": 17217,
    "rous": 3753,
    "Ġsavagely": 26325,
    "Ġsized": 11565,
    "Ġ41": 24083,
    "Ġorganisation": 23585,
    "Ġquoin": 22422,
    "Ġcomplexity": 1697,
    "Ġexperienced": 6584,
    "Ġdiversion": 17200,
    "Ġaimed": 20253,
    "Ġecc": 11631,
    "Ġinvolving": 18756,
    "bil": 20773,
    "Ġpeeling": 22695,
    "Ġrange": 9715,
    "Ġpurely": 12236,
    "Ġliberality": 24377,
    "Ġdoubloon": 6945,
    "Ġquill": 12862,
    "Ġcy": 13876,
    "ubl": 3595,
    "Ġobjection": 6587,
    "Ġfang": 21406,
    "Ġsprinkled": 19500,
    "addressed": 13388,
    "Ġduplicates": 17219,
    "Ġimpul": 7209,
    "Ġascribed": 14858,
    "Ġoverthrow": 18433,
    "Ġthread": 14541,
    "ude": 7562,
    "Ġmajesty": 5201,
    "app": 1040,
    "Ġcruelly": 13378,
    "Ġbanking": 19633,
    "Ġfa": 4821,
    "revenge": 13844,
    "atig": 13847,
    "Ġtremor": 24767,
    "Ġmoul": 15548,
    "commanded": 16990,
    "Ġclean": 5652,
    "atural": 933,
    "Ġsage": 17754,
    "Ġcumulative": 4211,
    "Ġinsert": 19907,
    "Ġdefer": 18823,
    "Ġpikes": 21481,
    "perth": 22184,
    "Ġoutstanding": 22320,
    "Ġbears": 6829,
    "Ġseated": 4540,
    "Ġpunch": 9958,
    "prof": 7699,
    "explain": 1481,
    "Ġkeenly": 9488,
    "ect": 381,
    "Ġfeatureless": 22597,
    "ø": 185,
    "Ġlizard": 12659,
    "Ġclub": 8877,
    "pard": 9621,
    "Ġlonged": 6437,
    "Ġhoriz": 4727,
    "Ġoldest": 12977,
    "Ġsquaring": 22845,
    "Ġwalk": 1825,
    "medical": 23346,
    "uck": 1232,
    "Ġfettered": 24569,
    "Ġfervent": 14899,
    "Ġalarm": 4050,
    "doubtful": 24790,
    "Ġ100": 14368,
    "repugnance": 16866,
    "Ġconj": 8462,
    "icuous": 10837,
    "Ġhonoured": 9884,
    "Ġtempestuous": 20074,
    "Ġ68": 24370,
    "Ġarrogance": 26233,
    "telesc": 22821,
    "Ġreclining": 26035,
    "screen": 22999,
    "pump": 21019,
    "Ġrambling": 18643,
    "Ġirrevocably": 15301,
    "Ġgrop": 12669,
    "Ġrepresents": 4903,
    "Ġdivinely": 25723,
    "Ġescaping": 13137,
    "sincerely": 24585,
    "Ġanimating": 23426,
    "Ġcharing": 14183,
    "Ġoftentimes": 20158,
    "Ġsab": 10764,
    "Ġcombined": 8548,
    "Ġhole": 6080,
    "americ": 8156,
    "Ġmag": 1429,
    "Ġpasses": 2679,
    "attention": 2111,
    "inging": 5908,
    "Ġarrange": 3123,
    "Ġirre": 7468,
    "rowing": 7931,
    "Ġfounder": 17885,
    "Ġris": 4887,
    "Ġacquiesced": 25494,
    "Ġhorizontal": 7783,
    "reported": 24493,
    "Ġwag": 10777,
    "Ġmort": 3459,
    "unusually": 15784,
    "Ġcoiling": 12910,
    "commun": 15036,
    "Ġpol": 2575,
    "disapprobation": 19159,
    "Ġlone": 11616,
    "clerval": 7951,
    "scissors": 20729,
    "Ġstatistics": 1685,
    "Ġsuperfluous": 17417,
    "Ġinclined": 6625,
    "Ġjustified": 11909,
    "tea": 18743,
    "Ġtumult": 7116,
    "inu": 1114,
    "devoted": 20020,
    "pleasanter": 24050,
    "Ġfemale": 8345,
    "irection": 2387,
    "Ġadventurous": 16735,
    "Ġmislead": 22759,
    "gment": 4390,
    "iocr": 20925,
    "Ġassist": 3565,
    "Ġgrace": 5374,
    "Ġsee": 802,
    "scene": 14423,
    "Ġplunging": 14955,
    "Ġcap": 2362,
    "spot": 9792,
    "sius": 13790,
    "Ġauthoritative": 19564,
    "Ġproprietors": 20189,
    "Ġ102": 24410,
    "Ġwheeled": 14141,
    "Ġexalted": 12416,
    "Ġfrank": 4419,
    "irous": 8843,
    "Ġnecessarily": 13254,
    "Ġexclamations": 11363,
    "though": 2118,
    "vent": 683,
    "Ġpromotion": 23197,
    "Ġequator": 7461,
    "Ġlend": 17965,
    "Ġcrumpled": 16440,
    "considerably": 13448,
    "regarding": 15075,
    "nect": 663,
    "laugh": 10111,
    "Ġalarmed": 6923,
    "robotics": 11308,
    "Ġunprejudiced": 18270,
    "Ġdubious": 17386,
    "Ġornament": 11724,
    "devil": 7895,
    "figured": 20126,
    "Ġinhabitants": 7524,
    "ashed": 3785,
    "unhes": 21879,
    "Ġhappened": 3715,
    "marvell": 24175,
    "Ġproclaim": 18131,
    "icide": 11621,
    "lop": 20950,
    "ediction": 17947,
    "Ġreliance": 14388,
    "Ġmortar": 19396,
    "Ġrever": 6538,
    "Ġconcre": 16391,
    "beds": 16624,
    "imble": 10860,
    "Ġinitialized": 3946,
    "ben": 4927,
    "herald": 22212,
    "goose": 19103,
    "shipmates": 11932,
    "Ġalike": 8147,
    "Ġwhither": 10217,
    "condescended": 26250,
    "Ġfavoring": 2345,
    "prejudiced": 17300,
    "Ġconnexion": 11456,
    "Ġcrackling": 24961,
    "pause": 12505,
    "belt": 24038,
    "itted": 2439,
    "Ġchronicled": 25329,
    "Ġelephant": 8256,
    "Ġdifficulty": 5770,
    "Ġelias": 18635,
    "Ġpaused": 5416,
    "march": 13757,
    "ath": 860,
    "Ġappalled": 22219,
    "edily": 17946,
    "Ġwithdra": 6399,
    "Ġconstrained": 19241,
    "presence": 18497,
    "Ġdistinct": 4610,
    "theast": 21752,
    "Ġlimp": 19182,
    "Ġthoroughfares": 26096,
    "fired": 20862,
    "lantern": 17431,
    "Ġtablet": 19206,
    "Ġgro": 4396,
    "Ġprosperous": 15174,
    "Ġstiff": 6993,
    "Ġapprehen": 16831,
    "Ġlogits": 3450,
    "embarr": 17295,
    "Ġlestrade": 5825,
    "showed": 16027,
    "Ġbutt": 14128,
    "Ġcasked": 24497,
    "ass": 539,
    "Ġmingled": 12381,
    "Ġinfamy": 14503,
    "Ġhackney": 20436,
    "Ġpicturesque": 14897,
    "Ġmature": 17801,
    "Ġfiss": 21415,
    "swift": 14855,
    "Ġjealously": 24127,
    "Ġecstasy": 11633,
    "Ġsilence": 3270,
    "william": 4561,
    "Ġbottomless": 12111,
    "awn": 3833,
    "rospect": 11615,
    "Ġaudits": 24769,
    "Ġactively": 18654,
    "itively": 21334,
    "Ġleaps": 14004,
    "Ġalcoves": 26488,
    "Ġglit": 8563,
    "ines": 656,
    "etian": 13961,
    "Ġproductions": 22949,
    "fishery": 10035,
    "Ġtertiary": 15298,
    "Ġprevailed": 7778,
    "aits": 20768,
    "Ġflog": 23624,
    "Ġpowerful": 1524,
    "Ġflour": 8947,
    "Ġvelv": 10622,
    "composed": 14725,
    "Ġparasol": 22125,
    "Ġrem": 955,
    "apothe": 22338,
    "Ġless": 1938,
    "Ġvainly": 9927,
    "osite": 4894,
    "Ġgenerates": 3666,
    "Ġdressing": 7092,
    "Ġfra": 1855,
    "Ġbreed": 19075,
    "umbent": 12094,
    "worth": 8630,
    "Ġsitu": 3497,
    "Ġpilgr": 12185,
    "Ġdescends": 14290,
    "Ġrumours": 24599,
    "reason": 4414,
    "something": 4284,
    "isf": 2433,
    "ugging": 23292,
    "Ġtows": 19565,
    "many": 5251,
    "reach": 17759,
    "Ġcivilised": 24247,
    "Ġbreaching": 23350,
    "mblings": 19783,
    "Ġcompare": 9306,
    "Ġlaugh": 4114,
    "Ġclosely": 6489,
    "Ġtraffic": 23087,
    "explanation": 12363,
    "Ġcarved": 7947,
    "Ġselect": 3997,
    "Ġsulphur": 24934,
    "Ġunite": 9258,
    "Ġprint": 18970,
    "Ġ\"": 6121,
    "point": 6064,
    "striking": 13443,
    "Ġpouch": 21472,
    "Ġrol": 3556,
    "latter": 15386,
    "Ġpattering": 18673,
    "grey": 14915,
    "Ġante": 17898,
    "Ġsight": 2113,
    "Ġnarrower": 24354,
    "swe": 5997,
    "Ġswelling": 11929,
    "Ġtranscend": 25668,
    "meas": 7434,
    "Ġcomplied": 14738,
    "Ġfeet": 2258,
    "Ġprincess": 23222,
    "Ġim": 476,
    "urred": 8450,
    "Ġactuated": 18545,
    "Ġappl": 1674,
    "Ġallev": 18103,
    "orient": 2881,
    "Ġtending": 17726,
    "Ġmagic": 8233,
    "Ġlearnedly": 23389,
    "apt": 719,
    "Ġbl": 1189,
    "Ġwhen": 514,
    "Ġrecognition": 3305,
    "Ġinvent": 7165,
    "Ġenables": 726,
    "aded": 3550,
    "heidelburgh": 21214,
    "Ġexploring": 4304,
    "recollection": 25349,
    "smart": 23910,
    "afer": 17484,
    "Ġcrimson": 16439,
    "zen": 5140,
    "medium": 23640,
    "frank": 7758,
    "customary": 25896,
    "Ġcost": 2503,
    "com": 963,
    "Ġfishery": 4176,
    "Ġbuilding": 8063,
    "Ġceleb": 20228,
    "Ġharmless": 9968,
    "key": 5462,
    "Ġuninter": 18247,
    "Ġreleased": 2979,
    "slide": 24556,
    "Ġwarp": 8113,
    "Ġholidays": 22924,
    "Ġnothing": 1356,
    "tar": 8098,
    "Ġcomple": 2842,
    "older": 15760,
    "Ġweeping": 11690,
    "Ġpowder": 11277,
    "shake": 22449,
    "Ġsuffoc": 18872,
    "Ġemail": 19076,
    "gy": 2098,
    "Ġnotions": 14102,
    "rapt": 13975,
    "leo": 21367,
    "mort": 10712,
    "ouble": 2661,
    "Ġtransportation": 13645,
    "Ġbiscuit": 12594,
    "Ġscenes": 5730,
    "venty": 6428,
    "Ġkiss": 8183,
    ",âĢĻâĢĶ": 23531,
    "iverse": 13119,
    "ivot": 11722,
    "answered": 10276,
    "Ġvib": 8165,
    "Ġnast": 15643,
    "getting": 12971,
    "Ġincivility": 18573,
    "rist": 10125,
    "Ġcloudless": 16671,
    "irium": 8162,
    "Ġsoothing": 8173,
    "Ġseized": 4835,
    "Ġentreaties": 9039,
    "alty": 17941,
    "azine": 19132,
    "Ġlocks": 11728,
    "Ġportra": 9012,
    "Ġhelmeted": 19691,
    "Ġperempt": 13676,
    "Ġlawy": 9459,
    "Ġcords": 14882,
    "pier": 17637,
    "Ġsentry": 19025,
    "Ġquickly": 4241,
    "boards": 23257,
    "Ġhastened": 9007,
    "lotte": 3333,
    "clut": 23152,
    "Ġindignant": 12244,
    "Ġexe": 3993,
    "Ġhaughty": 11451,
    "Ġnathan": 21529,
    "Ġatrocious": 21947,
    "Ġexciting": 23316,
    "Ġconvolutions": 21811,
    "possible": 5743,
    "Ġperpet": 7645,
    "resolved": 9642,
    "taining": 7206,
    "Ġcondescending": 24869,
    "Ġoutward": 7904,
    "inching": 21192,
    "Ġsubtle": 6718,
    "Ġdaintiest": 25954,
    "beholding": 16045,
    "Ġcomponents": 8896,
    "furnished": 20244,
    "Ġresol": 2666,
    "iop": 20921,
    "Ġorthodox": 22099,
    "Ġopt": 770,
    "Ġdeemed": 7615,
    "oran": 8793,
    "Ġrestore": 9384,
    "Ġdeeply": 4718,
    "Ġreverence": 12063,
    "Ġprobable": 5570,
    "Ġcombat": 16178,
    "Ġwings": 9167,
    "tenham": 16325,
    "saw": 5895,
    "Ġpressure": 13425,
    "infallibly": 26419,
    "Ġangels": 11180,
    "shud": 18484,
    "Ġimprove": 1848,
    "Ġfragmentary": 25859,
    "Ġmagnifying": 16324,
    "vic": 13804,
    "hope": 5991,
    "Ġirregularly": 25324,
    "Ġshaded": 14108,
    "became": 10517,
    "Ġcorpus": 13036,
    "Ġoptim": 773,
    "Ġlbs": 11618,
    "Ġroutine": 13510,
    "Ġborders": 15576,
    "Ġmischief": 8544,
    "osition": 1372,
    "Ġvac": 5025,
    "Ġpasture": 14544,
    "Ġgrappling": 25813,
    "Ġexcess": 3344,
    "rating": 7808,
    "screw": 9351,
    "reen": 21234,
    "Ġtottenham": 24145,
    "Ġshutting": 14763,
    "Ġscheduling": 2350,
    "Ġstanders": 19016,
    "Ġmention": 2987,
    "Ġcompetent": 11820,
    "bus": 5355,
    "Ġjoky": 18407,
    "Ĵ": 245,
    "professional": 20278,
    "Ġlance": 4880,
    "inex": 14099,
    "Ġattending": 3286,
    "hus": 5072,
    "had": 1951,
    "Ġ150": 22834,
    "Ġglimpses": 13435,
    "ability": 716,
    "Ġpassenger": 14372,
    "Ġsuperstitious": 13522,
    "affrail": 11207,
    "Ġcont": 620,
    "Ġforger": 15737,
    "Ġbeing": 1161,
    "Ġemble": 13973,
    "Ġinexplicable": 12261,
    "Ġwoven": 9929,
    "Ġarms": 3965,
    "Ġlens": 8439,
    "mou": 10710,
    "impetuous": 23766,
    "contains": 16034,
    "Ġjustify": 11074,
    "rices": 4558,
    "delightful": 12201,
    "unquiet": 21885,
    "Ġvari": 830,
    "Ġfeed": 2129,
    "wick": 5363,
    "Ġwhole": 1663,
    "Ġrose": 3443,
    "emb": 11693,
    "Ġhowled": 12860,
    "Ġtone": 4042,
    "Ġclosing": 11776,
    "Ġdeceiving": 21842,
    "Ġhearty": 9848,
    "Ġsuper": 2155,
    "Ġoutset": 15959,
    "ringle": 21043,
    "soul": 9144,
    "Ġpedd": 17912,
    "Ġengagements": 9981,
    "maul": 11896,
    "Ġtens": 17725,
    "Ġsolar": 22886,
    "³": 116,
    "Ġunintermitted": 26221,
    "Ġdishon": 12235,
    "Ġvoluntary": 14802,
    "ner": 1370,
    "i": 77,
    "Ġvilest": 20104,
    "Ġsorry": 4210,
    "Ġdoubted": 7965,
    "investments": 25533,
    "Ġsolutions": 1948,
    "inlaid": 21193,
    "gir": 8083,
    "Ġfreer": 23209,
    "Ġbou": 17854,
    "Ġhonors": 23603,
    "Ġdrought": 19280,
    "Ġturk": 6605,
    "Ġsubterranean": 13614,
    "cring": 20813,
    "Ġmorrow": 9347,
    "Ġadmirably": 16483,
    "romising": 18234,
    "Ġeleg": 6194,
    "Ġmediterranean": 12319,
    "wr": 3029,
    "Ġstriking": 6089,
    "Ġtowering": 16741,
    "inv": 8402,
    "rr": 17652,
    "capting": 24042,
    "Ġfallen": 5969,
    "`": 68,
    "stump": 21656,
    "Ġmonstr": 7668,
    "Ġairy": 23321,
    "Ġheart": 1593,
    "jumping": 20248,
    "reasoning": 9479,
    "Ġsanguine": 25929,
    "gaining": 20127,
    "Ġwhiff": 21721,
    "dire": 15339,
    "Ġhearse": 10422,
    "acters": 9313,
    "Ġezek": 18012,
    "Ġexquis": 9702,
    "Ġadvancing": 6879,
    "Ġrequest": 6052,
    "Ġtickled": 20060,
    "Ġstur": 15724,
    "Ġdynam": 3103,
    "bber": 4569,
    "Ġelbows": 18636,
    "Ġsympathising": 24299,
    "Ġfavour": 3644,
    "traces": 24336,
    "Ġenveloping": 19737,
    "Ġauthors": 10414,
    "Ġpieces": 7369,
    "Ġlouder": 13471,
    "Ġimperson": 14227,
    "Ġcrawling": 17046,
    "ario": 14250,
    "Ġgodfrey": 15297,
    "Ġamount": 8514,
    "rers": 14721,
    "Ġcuriosities": 26291,
    "Ġlicence": 25099,
    "ologically": 22890,
    "Ġhungry": 10535,
    "Ġfishy": 16527,
    "creature": 5347,
    "_?âĢĿ": 15309,
    "official": 24915,
    "Ġepaulets": 24906,
    "gainst": 25144,
    "Ġadjacent": 20713,
    "legs": 13185,
    "thirty": 12767,
    "Ġtenderly": 11316,
    "Ġpoltroon": 26600,
    "office": 16397,
    "Ġcompiled": 22574,
    "are": 638,
    "most": 1256,
    "onely": 6517,
    "nable": 13764,
    "Ġalan": 10871,
    "Ġcorn": 9354,
    "Ġtrustworthy": 24109,
    "cks": 3080,
    "Ġbegat": 18864,
    "Ġobligation": 13248,
    "Ġcounterbalance": 24721,
    "Ġtops": 14588,
    "Ġpresent": 1644,
    "mem": 10711,
    "Ġminimax": 5859,
    "Ġaxis": 12311,
    "pra": 15410,
    "Ġstrives": 23698,
    "Ġskulls": 12965,
    "etrics": 21588,
    "belongs": 25597,
    "quar": 7616,
    "Ġjung": 12841,
    "formality": 22224,
    "asse": 15649,
    "Ġgar": 10840,
    "dangerous": 20243,
    "Ġdelicacy": 6342,
    "Ġcheerfulness": 10519,
    "Ġrenounce": 19471,
    "Ġprelimin": 8864,
    "Ġgour": 21601,
    "seven": 8466,
    "Ġdemands": 19641,
    "Ġsnorting": 23744,
    "ouncing": 8497,
    "Ġexquisite": 12386,
    "mile": 17599,
    "Ġfolio": 11921,
    "Ġabased": 22272,
    "Ġfragments": 19058,
    "post": 6063,
    "child": 5538,
    "co": 2432,
    "ced": 696,
    "Ġdepression": 21845,
    "agement": 4189,
    "Ġfalsehood": 10526,
    "Ġprinces": 23221,
    "unforeseen": 21892,
    "Ġcope": 17832,
    "Ġsanctified": 25883,
    "esley": 17903,
    "elihood": 4624,
    "Ġcher": 6131,
    "Ġsparkled": 13465,
    "Ġundoing": 22039,
    "Ġwert": 12561,
    "fre": 5425,
    "Ġmimic": 3147,
    "Ġcheering": 11135,
    "awe": 20767,
    "Ġtitle": 11410,
    "Ġthankful": 14742,
    "Ġprick": 14479,
    "Ġlinked": 15081,
    "Ġresearch": 3598,
    "anter": 9170,
    "Ġalgorithms": 864,
    "iah": 14420,
    "illed": 2623,
    "eled": 2358,
    "Ġxx": 5492,
    "Ġtwinkling": 12328,
    "cible": 20808,
    "Ġvaried": 11852,
    "enial": 17782,
    "convenient": 12242,
    "fro": 8736,
    "Ġpitched": 9448,
    "Ġdecreed": 18491,
    "lp": 898,
    "Ġexception": 11218,
    "ian": 1236,
    "Ġsain": 17752,
    "sufficiently": 14984,
    "Ġwarden": 17227,
    "Ġlump": 21555,
    "Ġconceivable": 16615,
    "Ġentreated": 9954,
    "Ġblan": 18817,
    "Ġtreacherously": 25132,
    "Ġunimaginable": 15250,
    "Ġdiscovered": 4412,
    "Ġmermaids": 26171,
    "Ġcontin": 5382,
    "hurriedly": 25511,
    "endurable": 22230,
    "Ġfuss": 13907,
    "Ġdesignated": 19524,
    "Ġrequisite": 18651,
    "Ġspiteful": 19525,
    "Ġlob": 7628,
    "Ġkeel": 6445,
    "Ġholy": 6593,
    "lemag": 21375,
    "--âĢĺ": 22853,
    "Ġdeem": 18139,
    "Ġstat": 1489,
    "tails": 21089,
    "atter": 669,
    "reng": 4002,
    "slow": 7810,
    "Ġstig": 14005,
    "Ġoxen": 19954,
    "Ġdearly": 10404,
    "books": 8667,
    "Ġattempts": 10493,
    "Ġapprovingly": 26252,
    "burning": 25081,
    "Ġ5": 4935,
    "Ġestate": 6318,
    "Ġgenerate": 1413,
    "Ġsquee": 7929,
    "previous": 9764,
    "throne": 25658,
    "antediluvian": 24346,
    "brated": 12031,
    "determ": 7107,
    "Ġgoverning": 2796,
    "decl": 8860,
    "Ġoutskirts": 17460,
    "ages": 826,
    "Ġpant": 10819,
    "Ġunsettled": 14126,
    "Ġhers": 7889,
    "Ġglad": 3328,
    "Ġnevertheless": 5040,
    "movable": 14327,
    "asol": 21543,
    "herfield": 3633,
    "Ġretire": 10384,
    "Ġgeorge": 3750,
    "Ġextravagant": 17281,
    "Ġtire": 17722,
    "Ġcontemplated": 13467,
    "Ġpromptly": 23821,
    "Ġhab": 4218,
    "mopol": 15399,
    "necessities": 24308,
    "iro": 20916,
    "Ġinsertion": 26345,
    "Ġhollow": 5648,
    "Ġrelatives": 12986,
    "Ġattitude": 8907,
    "Ġawe": 7148,
    "Ġrobinson": 17466,
    "comfortableness": 24525,
    "Ġmoose": 22435,
    "Ġburgled": 23656,
    "Ġbitten": 21393,
    "tern": 4224,
    "expanded": 23668,
    "tiger": 13799,
    "Ġreception": 9842,
    "Ġcherry": 16937,
    "Ġappalling": 8501,
    "Ġenlarged": 25986,
    "Ġunconcerned": 20513,
    "zas": 17714,
    "dispositions": 25014,
    "Ġchests": 19674,
    "Ġasph": 21902,
    "Ġpe": 850,
    "beef": 18524,
    "Ġalchemists": 26489,
    "Ġpresumed": 10547,
    "Ġturns": 4981,
    "Ġindiscriminately": 20630,
    "Ġcompress": 21848,
    "Ġperhaps": 1911,
    "Ġcommunic": 5751,
    "Ġundaunted": 24122,
    "Ġnavigators": 19766,
    "orous": 5294,
    "Ġwarehouse": 20420,
    "iety": 2821,
    "Ġintelligences": 12836,
    "Ġliked": 5265,
    "inside": 23069,
    "protested": 13477,
    "Ġclusters": 25233,
    "reposed": 24492,
    "Ġcomprises": 22576,
    "Ġperturbation": 20444,
    "cim": 8723,
    "Ġarticulated": 24433,
    "Ġgrow": 2862,
    "Ġincreas": 1696,
    "Ġcontact": 9285,
    "Ġlimits": 3453,
    "thanking": 24326,
    "Ġdrifted": 14627,
    "Ġdiggings": 24650,
    "Ġart": 749,
    "Ġencoun": 4511,
    "ferent": 4195,
    "sli": 11525,
    "Ġaffection": 2638,
    "Ġdiet": 13912,
    "Ġshoes": 7073,
    "loath": 22513,
    "Ġsank": 5076,
    "perishing": 22185,
    "presume": 25671,
    "Ġbrink": 18772,
    "rey": 12543,
    "Ġinjunctions": 24272,
    "Ġavenue": 13624,
    "Ġrav": 14307,
    "Ġcarpet": 9360,
    "Ġfearlessness": 19163,
    "over": 1845,
    "Ġton": 15467,
    "Ġextended": 7923,
    "Ġsnatching": 10474,
    "Ġtransactions": 18483,
    "Ġmystical": 12137,
    "Ġdoran": 9183,
    "comput": 1892,
    "ralian": 19603,
    "Ġentic": 16147,
    "Ġquito": 24408,
    "comparison": 25842,
    "Ġchuck": 8504,
    "allowing": 24358,
    "Ġbarren": 11208,
    "ado": 11661,
    "chron": 21697,
    "Ġapex": 24342,
    "Ġmaintaining": 1508,
    "Ġtraced": 10386,
    "Ġutil": 4674,
    "Ġemma": 20697,
    "Ġgates": 10203,
    "Ġtenderness": 12220,
    "chased": 18044,
    "Ġcrowds": 14743,
    "Ġgamesome": 17292,
    "Ġmotionless": 8324,
    "Ġoscillations": 2900,
    "Ġ70": 11278,
    "Ġhappy": 2465,
    "Ġdreadfully": 7726,
    "onds": 13000,
    "Ġwrithed": 17107,
    "Ġsettling": 11064,
    "Ġworn": 6446,
    "melancholy": 12358,
    "Ġsixteen": 8283,
    "Ġdistrust": 8204,
    "arts": 6565,
    "Ġwhisky": 23937,
    "Ġshells": 20367,
    "rest": 1633,
    "Ġfeel": 1261,
    "reproach": 15190,
    "Ġfitzwilliam": 5771,
    "Ġexotic": 21835,
    "Ġskeleton": 5514,
    "Ġintru": 15831,
    "branch": 23580,
    "Ġmoments": 4847,
    "Ġattractive": 25576,
    "Ġ33": 16678,
    "?_âĢĿ": 12320,
    "Ġbesides": 3515,
    "screwed": 17190,
    "cerem": 15682,
    "pent": 3495,
    "anging": 3552,
    "ference": 1882,
    "Ġfoam": 6891,
    "Ġat": 395,
    "irwin": 8471,
    "Ġtune": 17727,
    "Ġsaints": 20677,
    "task": 13795,
    "Ġpratt": 23218,
    "Ġmeta": 3124,
    "Ġanne": 1533,
    "Ġban": 7157,
    "Ġsimul": 1807,
    "isance": 17849,
    "af": 2375,
    "Ġscholars": 26113,
    "Ġfashions": 17887,
    "Ġspirits": 3700,
    "hounds": 20909,
    "Ġcordage": 19681,
    "Ġpatagon": 14509,
    "Ġstrata": 26028,
    "commendation": 26351,
    "grandfather": 25012,
    "Ġinglorious": 24424,
    "Ġcontrive": 16014,
    "Ġgreek": 10633,
    "lab": 3456,
    "equal": 14996,
    "Ġrelating": 2706,
    "Ġeach": 893,
    "Ġgor": 9210,
    "oker": 10965,
    "larger": 24205,
    "continued": 8679,
    "Ġseethings": 26505,
    "sle": 9142,
    "parsee": 14520,
    "lads": 20957,
    "Ġromish": 19587,
    "Ġcomprised": 14270,
    "progression": 20385,
    "unken": 10239,
    "Ġiter": 2955,
    "Ġadvent": 4355,
    "Ġcomparing": 14267,
    "Ġtechnically": 12371,
    "batt": 20780,
    "Ġfraud": 19056,
    "Ġflattening": 26049,
    "Ġwholly": 4446,
    "shavings": 22457,
    "abil": 2007,
    "âĢĶâĢĺ": 7015,
    "ropol": 10955,
    "Ġpriests": 15043,
    "Ġcrushed": 9427,
    "Ġweighing": 20019,
    "Ġadvised": 16215,
    "Ġlevel": 5020,
    "calculation": 25689,
    "ete": 9207,
    "Ġdiver": 2527,
    "Ġmean": 743,
    "Ġjutting": 22305,
    "tol": 17674,
    "Ġclearly": 6897,
    "Ġshabby": 14114,
    "ases": 1527,
    "arab": 21444,
    "ificant": 22213,
    "Ġignominy": 15089,
    "Ġstarvation": 19794,
    "ode": 1452,
    "Ġunf": 4091,
    "Ġbull": 7839,
    "Ġentailed": 11029,
    "rench": 3966,
    "Ġpotent": 12068,
    "Ġpretensions": 16561,
    "couldn": 23721,
    "placidity": 25989,
    "Ġadieu": 10054,
    "Ġpreser": 6042,
    "Ġshoved": 23494,
    "Ġaltern": 7394,
    "_),": 7127,
    "dragged": 16610,
    "Ġdie": 3961,
    "Ġselling": 21227,
    "Ġwhine": 21718,
    "======": 9836,
    "Ġcoming": 2616,
    "acey": 7650,
    "ouncement": 11749,
    "Ġunbroken": 18251,
    "Ġbleak": 10561,
    "letter": 6203,
    "scale": 3536,
    "Ġfow": 6135,
    "Ġcongregation": 12333,
    "Ġshowers": 16607,
    "Ġarab": 7823,
    "Ġweig": 7619,
    "Ġprimary": 25063,
    "Ġdirect": 1470,
    "Ġrotation": 25475,
    "rably": 21636,
    "Ġencourage": 10383,
    "biqu": 17500,
    "Ġaffability": 14390,
    "Ġbrimstone": 25687,
    "Ġhans": 12631,
    "Ġdocumentation": 20557,
    "Ġstammered": 26201,
    "bers": 2569,
    "Ġheading": 8938,
    "treat": 12518,
    "guess": 14765,
    "Ġacquiesce": 20332,
    "luck": 5733,
    "spass": 18688,
    "Ġwears": 10243,
    "bouton": 17504,
    "Ġsoft": 1457,
    "Ġboston": 22641,
    "lakeman": 13753,
    "paper": 9140,
    "Ġworried": 22928,
    "unknown": 10892,
    "ole": 9616,
    "wanted": 10745,
    "protest": 24812,
    "Ġlast": 1121,
    "Ġimbec": 14159,
    "Ġgoest": 22425,
    "slave": 16897,
    "children": 9059,
    "Ġfield": 1245,
    "Ġ2026": 12339,
    "Ġsoda": 25535,
    "itals": 17822,
    "Ġlvi": 21556,
    "Ġvigorously": 11301,
    "Ġcontinually": 5042,
    "winding": 16722,
    "cracy": 24691,
    "Ġcapricious": 20541,
    "Ë": 140,
    "Ġtube": 15005,
    "bered": 4504,
    "Ġneskye": 21534,
    "Ġabode": 7900,
    "ster": 1953,
    "tr": 3580,
    "Ġfisheries": 17441,
    "Ġemph": 14527,
    "Ġdesertion": 24786,
    "Ġgpus": 3734,
    "Ġclimax": 25054,
    "Ġsharp": 2414,
    "alyards": 18811,
    "Ġvineyard": 12334,
    "ĠĠĠĠĠ": 3528,
    "Ġevolved": 9895,
    "Ġmaybe": 12954,
    "Ġinstruction": 14347,
    "Ġsoldiers": 8690,
    "Ġcomplained": 17000,
    "Ġvide": 10253,
    "Ġemptied": 24347,
    "Ġbeque": 18083,
    "Ġdraws": 19440,
    "Ġdirector": 18922,
    "Ġenrolled": 21941,
    "Ġwhiskers": 10495,
    "Ġdeprec": 15762,
    "access": 11182,
    "Ġinterven": 10999,
    "Ġsublimity": 26348,
    "~": 98,
    "Ġsigmoid": 2462,
    "Ġpreservation": 24631,
    "aster": 1867,
    "Ġnotable": 18223,
    "ings": 630,
    "Ġwester": 25156,
    "Ġmortification": 12099,
    "Ġproperties": 3120,
    "Ġforgery": 25978,
    "answer": 11736,
    "Ġcontrols": 1732,
    "Ġdams": 16456,
    "Ġequally": 5258,
    "tastes": 21099,
    "Ġisolated": 13562,
    "Ġpharaoh": 26587,
    "Ġapo": 9633,
    "mere": 11859,
    "Ġanswerable": 23474,
    "rolling": 9064,
    "omen": 4088,
    "extreme": 11031,
    "shipped": 18487,
    "Ġtremendous": 8353,
    "Ġtal": 7564,
    "Ġire": 12674,
    "active": 16107,
    "Ġslapped": 23172,
    "mysterious": 26052,
    "fight": 17540,
    "Ġsmall": 894,
    "Ġpitchpoling": 14914,
    "Ġlost": 2634,
    "Ġintently": 8169,
    "hundreds": 25076,
    "Ġcannon": 14156,
    "Ġcontinues": 18810,
    "Ġsedentary": 25431,
    "Ġforetold": 23454,
    "Ġbakers": 17868,
    "les": 1019,
    "hook": 12056,
    "Ġshrinking": 14808,
    "Ġsteed": 13044,
    "Ġmead": 8839,
    "middle": 11312,
    "actor": 11841,
    "Ġsleek": 23387,
    "Ġtram": 11093,
    "Ġchatbots": 11351,
    "Ġusages": 15922,
    "Ġpolitic": 23620,
    "Ġtruest": 16702,
    "Ġweighty": 16036,
    "Ġrelish": 14387,
    "Ġspots": 11733,
    "persuasion": 20047,
    "apter": 1193,
    "Ġscrut": 15949,
    "Ġfaulty": 14910,
    "vial": 17699,
    "Ġoutlines": 15961,
    "Ġfulf": 6773,
    "thunder": 10265,
    "Ġfrance": 7682,
    "explained": 23146,
    "aton": 21261,
    "omitted": 18019,
    "ensation": 22549,
    "Ġquivers": 22417,
    "network": 1940,
    "Ġhandwriting": 14322,
    "Ġgilded": 17448,
    "childhood": 16870,
    "fearing": 18530,
    "discover": 10542,
    "Ġwrench": 12562,
    "Ġadditional": 7936,
    "Ġabhor": 5467,
    "pos": 15413,
    "cooks": 25070,
    "saving": 21062,
    "Ġplans": 7918,
    "Ġpills": 21469,
    "Ġpushed": 5911,
    "firmly": 20283,
    "Ġhabitations": 24788,
    "Ġshows": 8485,
    "Ġfolk": 10378,
    "Ġdiscern": 7926,
    "moral": 14805,
    "acknowled": 10977,
    "Ġvapory": 17008,
    "here": 2547,
    "bank": 10082,
    "Ġgarn": 13965,
    "Ġparamore": 22126,
    "Ġdestined": 7974,
    "Ġjunks": 25116,
    "Ġgerman": 6143,
    "Ġensemble": 1606,
    "Ġarrangement": 2657,
    "Ġjohn": 5032,
    "uit": 8393,
    "Ġadvancement": 24475,
    "Ġaust": 4872,
    "Ġriverside": 25248,
    "et": 307,
    "Ġdirected": 5579,
    "antages": 7192,
    "Ġdedicated": 19227,
    "ached": 2323,
    "Ġstraighten": 24010,
    "ositions": 10286,
    "Ġ183": 13242,
    "ls": 1289,
    "Ġjudiciously": 23881,
    "Ġfrosty": 14938,
    "stepfather": 19192,
    "ches": 2148,
    "Ġregulate": 22590,
    "Ġdistributions": 1050,
    "Ġbrood": 23104,
    "Ġsupers": 18278,
    "Ġelev": 5536,
    "exertion": 16020,
    "Ġfund": 2845,
    "itancy": 21336,
    "pudding": 17649,
    "ichron": 22170,
    "Ġmushroom": 13240,
    "impatiently": 20474,
    "quered": 11055,
    "Ġmove": 5107,
    "browed": 25895,
    "Ġcommunicative": 24548,
    "Ġhonest": 7287,
    "Ġobey": 9522,
    "Ġcompressed": 21849,
    "Ġaxe": 15064,
    "Ġbee": 21753,
    "Ġcylinders": 25944,
    "Ġdelighted": 5499,
    "Ġclinch": 18427,
    "Ġcatherine": 2814,
    "retch": 4370,
    "Ġhysterical": 26093,
    "Ġgreeted": 23212,
    "Ġquartered": 20376,
    "thing": 1480,
    "arthur": 14833,
    "Ġstern": 4223,
    "pressed": 6589,
    "Ġavoid": 5199,
    "looked": 6084,
    "Ġsammy": 24933,
    "Ġrheumatic": 20707,
    "Ġbags": 24537,
    "rollable": 13947,
    "Ġcontributes": 15254,
    "Ġperfectly": 3703,
    "hol": 3837,
    "Ġflurry": 18862,
    "Ġconscious": 7744,
    "resting": 23234,
    "alse": 4186,
    "Ġitems": 9695,
    "Ġhoneymoon": 25646,
    "ikes": 8087,
    "wealth": 22691,
    "Ġhouse": 1502,
    "Ġdreamed": 16632,
    "Ġofficial": 7083,
    "ustom": 3790,
    "Ġy": 341,
    "Ġhelp": 1643,
    "slackened": 26095,
    "Ġsurest": 19060,
    "Ġsplendid": 17216,
    "Ġlove": 2055,
    "rate": 2421,
    "Ġsockets": 22092,
    "Ġmarble": 7669,
    "Ġstrenuously": 17451,
    "Ġunwarrantable": 26346,
    "Ġforebodings": 17307,
    "Ġaggregated": 25679,
    "oa": 9615,
    "Ġlabeled": 3720,
    "edy": 2861,
    "omn": 15686,
    "dream": 8731,
    "symp": 14622,
    "Ġnat": 12650,
    "Ġgoodness": 6060,
    "Ġthings": 1962,
    "solved": 7685,
    "--": 1041,
    "Ġsimilitude": 19211,
    "quit": 15766,
    "Ġrestraint": 15131,
    "Ġposs": 1614,
    "Ġlovel": 10274,
    "condem": 16347,
    "avenue": 25060,
    "Ġshocking": 10437,
    "Ġescapes": 23511,
    "cules": 12395,
    "Ġtongue": 6349,
    "opposite": 19931,
    "india": 22375,
    "Ġheredit": 9220,
    "stripped": 16947,
    "punishment": 15149,
    "Ġdiscussing": 5202,
    "Ġincline": 18570,
    "Ġrecogn": 2924,
    "Ġwelded": 9574,
    "Ġscreams": 24604,
    "party": 8995,
    "comprehens": 16171,
    "Ġmurdered": 6465,
    "Ġfigure": 4207,
    "find": 6954,
    "Ġhaggerston": 26454,
    "Ġrese": 2380,
    "Ġowen": 15098,
    "esting": 7412,
    "Ġcandelab": 23852,
    "accident": 11183,
    "Ġengineering": 3026,
    "Ġuncivilized": 25499,
    "certain": 3679,
    "Ġungracious": 18259,
    "ub": 1225,
    "Ġdefinition": 14407,
    "Ġwouldst": 18500,
    "currents": 23848,
    "Ġmacy": 19358,
    "inking": 6711,
    "borean": 25744,
    "Ġgold": 3280,
    "Ġposted": 16726,
    "Ġwooden": 4731,
    "Ġrevers": 21667,
    "Ġlung": 7168,
    "Ġ270": 25133,
    "angel": 5726,
    "Ġantilles": 24182,
    "morland": 24156,
    "Ġviii": 16417,
    "Ġretreating": 19802,
    "aintance": 3570,
    "Ġtranslations": 12055,
    "Ġsnug": 8280,
    "cen": 17505,
    "Ġcrisis": 13129,
    "recovered": 19790,
    "Ġbones": 4584,
    "ourse": 8873,
    "Ġ1000": 3119,
    "Ġpolitely": 8996,
    "pointed": 9811,
    "urrection": 12413,
    "Ġforbe": 8459,
    "Ġdark": 2114,
    "Ġtwins": 16124,
    "Ġcommended": 18656,
    "Ġnewspapers": 17189,
    "Ġtransient": 18482,
    "inserted": 18889,
    "Ġfid": 10805,
    "Ġstoutest": 24629,
    "Ġst": 333,
    "Ġsubsequently": 16165,
    "Ġtend": 6122,
    "Ġpalaces": 24096,
    "Ġstump": 7606,
    "Ġlucas": 3831,
    "Ġlabourers": 23335,
    "poverty": 22909,
    "scornful": 26577,
    "Ġfleecy": 17025,
    "Ġample": 11802,
    "Ġblow": 3375,
    "ung": 2747,
    "Ġdesperately": 24657,
    "powerful": 24848,
    "isl": 21378,
    "apan": 6860,
    "fairly": 17222,
    "Ġimmemorial": 10513,
    "Ġmoustache": 20487,
    "Ġshocked": 9405,
    "Ġhandled": 12942,
    "oup": 2014,
    "Ġidentical": 10436,
    "collinses": 19925,
    "aver": 6786,
    "guest": 19485,
    "Ġtraining": 530,
    "waves": 10744,
    "reat": 619,
    "lined": 12488,
    "droppers": 24758,
    "adel": 15733,
    "instrument": 15242,
    "written": 7995,
    "pul": 8757,
    "Ġremembr": 24173,
    "Ġfuriously": 9805,
    "Ġprints": 16334,
    "Ġdifference": 1488,
    "Ġqueerest": 16418,
    "Ġpitied": 14694,
    "Ġspires": 11734,
    "Ġgaiters": 20464,
    "Ġseat": 4949,
    "Ġrag": 18640,
    "Ġlift": 8815,
    "Ġhove": 17925,
    "inburgh": 15493,
    "Ġbottom": 3677,
    "Ġmonth": 2850,
    "Ġlatter": 3988,
    "requ": 7149,
    "Ġreveries": 11349,
    "surprising": 16921,
    "accuracy": 9882,
    "Ġfool": 4235,
    "Ġblotches": 25315,
    "Ġnut": 12651,
    "Ġreturning": 5326,
    "Ġmultiple": 1185,
    "Ġcurt": 18845,
    "Ġconscience": 6929,
    "Ġsleeves": 10663,
    "Ġdub": 13911,
    "Ġapparent": 5466,
    "Ġearl": 7676,
    "thomas": 18220,
    "Ġcontinual": 6778,
    "Ġmiracle": 15097,
    "thee": 9693,
    "Ġpropriet": 9553,
    "Ġdetected": 18844,
    "decoder": 3647,
    "offensive": 16399,
    "Ġswarming": 16274,
    "Ġ182": 13241,
    "Ġintercept": 14272,
    "Ġtowns": 11175,
    "embedding": 20360,
    "Ġenemies": 9042,
    "Ġsuperficial": 23459,
    "Ġbagging": 24539,
    "profound": 16429,
    "13": 20752,
    "plan": 15818,
    "Ġtruthful": 23870,
    "Ġimmediately": 3367,
    "Ġlobsters": 13519,
    "Ġimpulse": 10027,
    "Ġignor": 4011,
    "Ġinfall": 7960,
    "Ġrosy": 18460,
    "leag": 21369,
    "attoo": 6808,
    "Ġdauntless": 26338,
    "meat": 18679,
    "Ġslightest": 6093,
    "Ġunconscious": 9550,
    "ph": 934,
    "ourable": 4967,
    "_.âĢĶ": 23476,
    "Ġinquire": 7720,
    "Ġvult": 12757,
    "irregular": 21915,
    "astonishment": 10033,
    "Ġbumpkins": 25282,
    "Ġcrossing": 7253,
    "Ġclubbed": 26549,
    "Ġkeep": 2356,
    "Ġinference": 9674,
    "employ": 10897,
    "Ġgestures": 13538,
    "atch": 674,
    "relate": 24017,
    "Ġheal": 21684,
    "Ġsnarled": 25715,
    "Ġoy": 15550,
    "Ġinvariable": 13459,
    "Ġinsular": 19270,
    "Ġflung": 8566,
    "Ġwindings": 18911,
    "manifested": 20529,
    "frantic": 24285,
    "jep": 20928,
    "Ġnam": 17951,
    "Ġsickly": 16776,
    "gged": 3778,
    "awk": 23117,
    "Ġbraces": 14672,
    "Ġmutual": 8296,
    "Ġtreble": 16506,
    "Ġwrought": 11948,
    "Ġcomplying": 18587,
    "Ġrele": 2919,
    "Ġblacksmiths": 19875,
    "completed": 19997,
    "shown": 22448,
    "vellers": 16676,
    ".âĢĶâĢľ": 20749,
    "fif": 9120,
    "Ġtestament": 23241,
    "Ġdandy": 17894,
    "blue": 13696,
    "Ġeye": 2282,
    "Ġafrica": 12349,
    "k": 79,
    "2": 22,
    "Ġfortifications": 23622,
    "ju": 13743,
    "Ġbumping": 25281,
    "Ġtra": 1383,
    "ieces": 4773,
    "nals": 16403,
    "Ġdrenched": 12608,
    "Ġdreamy": 14706,
    "Ġelbowed": 16114,
    "runs": 25416,
    "Ġmanxman": 9568,
    "Ġpaling": 21465,
    "earnestly": 17316,
    "Ġovertake": 15976,
    "Ġassertions": 19950,
    "Ġtriumph": 5143,
    "Ġratio": 5066,
    "yourself": 6744,
    "patched": 17645,
    "Ġsplit": 7993,
    "Ġhum": 1100,
    "Ġsubstitute": 16728,
    "Ġconsistent": 14530,
    "Ġwre": 5077,
    "Ġarmchair": 8271,
    "Ġscrewed": 15124,
    "ese": 4443,
    "d": 72,
    "urements": 18126,
    "Ġnaval": 16901,
    "mming": 1168,
    "icular": 2024,
    "Ġtis": 15468,
    "Ġgallows": 12150,
    "Ġunqualified": 22065,
    "interred": 23740,
    "ites": 3896,
    "Ġtit": 8400,
    "Ġtransformed": 22613,
    "Ġmem": 2165,
    "Ġallegro": 25795,
    "Ġincapable": 7423,
    "Ġjetted": 24431,
    "Ġanchor": 7368,
    "Ġsquare": 2395,
    "body": 2308,
    "fered": 5560,
    "blister": 24130,
    "Ġparlour": 12325,
    "Ġphiladelphia": 26606,
    "Åĵuvre": 25888,
    "Ġoriginal": 6104,
    "Ġbrig": 11049,
    "Ġgriefs": 16773,
    "Ġswitching": 23060,
    "danger": 10092,
    "Ġcorrob": 16267,
    "Ġdiamond": 15603,
    "Ġfam": 1586,
    "snowy": 20286,
    "gain": 8740,
    "burnt": 20083,
    "Ġpersu": 3564,
    "Ġfrighten": 13282,
    "Ġthinner": 24185,
    "Ġjavelins": 26106,
    "vate": 21112,
    "Ġvineyarder": 25607,
    "Ġhig": 755,
    "agonies": 21913,
    "should": 3263,
    "Ġthinking": 4031,
    "simon": 16975,
    "Ġchilly": 25563,
    "Ġfibres": 12956,
    "dri": 5889,
    "shoe": 14970,
    "Ġdirectors": 18923,
    "prim": 23814,
    "Ġconstraints": 2742,
    "Ġcoars": 14274,
    "Ġhead": 1122,
    "Ġorganization": 7984,
    "Ġbumpkin": 20203,
    "elastic": 17983,
    "Ġisn": 7866,
    "Ġtemple": 7654,
    "coal": 12029,
    "yarn": 15460,
    "star": 12677,
    "Ġdowncast": 18652,
    "pede": 19932,
    "Ġfifteen": 6947,
    "Ġpurposed": 23555,
    "alarm": 15631,
    "Ġfil": 3474,
    "gloom": 17142,
    "ignorant": 13566,
    "Ġbleeding": 14883,
    "Ġyards": 5371,
    "Ġimpregn": 26023,
    "fears": 18529,
    "Ġimposed": 14223,
    "lan": 15381,
    "Ġequilib": 4138,
    "allowance": 16826,
    "Ġprogno": 14041,
    "leman": 21371,
    "author": 9863,
    "Ġappals": 22218,
    "scept": 21056,
    "whence": 23214,
    "Ġphys": 5653,
    "Ġpursuits": 12081,
    "amples": 1822,
    "Ġvaliantly": 22808,
    "Ġseries": 7062,
    "Ġ}": 21156,
    "Ġsem": 1877,
    "accepted": 20139,
    "prejud": 11800,
    "Ġcurling": 9345,
    "Ġhopeless": 7462,
    "Ġdarkened": 16435,
    "Ġpencils": 23198,
    "Ġseizing": 7879,
    "Ġmasoned": 20254,
    "Ġmerits": 13197,
    "Ġgild": 15673,
    "oldened": 22642,
    "Ġspar": 10923,
    "Ġspur": 18304,
    "danced": 20830,
    "consid": 4925,
    "Ġstoven": 23176,
    "Ġbarbarously": 24816,
    "Ġhoard": 23355,
    "Ġtreatise": 19348,
    "mical": 9132,
    "Ġtold": 2186,
    "ife": 1026,
    "intentions": 22941,
    "ouched": 4638,
    "likely": 9027,
    "uccas": 21109,
    "otes": 15748,
    "Ġmysteries": 11324,
    "st": 316,
    "Ġdeceive": 12727,
    "Ġcompliments": 8636,
    "harpooneer": 8692,
    "extric": 22764,
    "Ġhome": 2030,
    "impropriety": 21716,
    "ivided": 22085,
    "Ġaugmented": 15109,
    "spirit": 11315,
    "Ġintu": 12768,
    "humanity": 24840,
    "Ġrelationships": 2928,
    "failed": 20865,
    "bonnet": 25743,
    "Ġobject": 1393,
    "la": 10707,
    "Ġwear": 6032,
    "=": 33,
    "dum": 17520,
    "Ġattractions": 12923,
    "Ġinhabit": 5782,
    "Ġgleaming": 24996,
    "Ġtheatre": 21281,
    "Ġeffusions": 18535,
    "onde": 21254,
    "furniture": 20245,
    "Ġanointing": 25540,
    "Ġtongs": 9964,
    "Ġunrolled": 22042,
    "ste": 3585,
    "etent": 10202,
    "zor": 15461,
    "Ġhearken": 21688,
    "Ġvideos": 13609,
    "Ġderives": 16312,
    "Ġoutbreak": 22321,
    "vii": 13150,
    "ios": 2199,
    "Ġmarbank": 23040,
    "Ġ18": 3407,
    "Ġharrow": 17928,
    "^": 66,
    "anum": 17837,
    "Ġindispens": 22957,
    "illar": 5101,
    "berries": 22746,
    "Ġattracted": 8908,
    "aneously": 4062,
    "Ġturing": 7566,
    "gener": 3129,
    "Ġegyptians": 25290,
    "swiftly": 20554,
    "Ġleaned": 7605,
    "Ġwhitewashed": 14472,
    "Ġ123": 24468,
    "Ġevol": 2816,
    "during": 6788,
    "ĠâĢĺ_": 11118,
    "Ġcruises": 23708,
    "Ġhotel": 8654,
    "broke": 14782,
    "Ġgot": 2281,
    "Ġsmell": 7216,
    "Ġgene": 15676,
    "Ġmarvel": 23038,
    "Ġinsolent": 13603,
    "Ġraptures": 13499,
    "Ġcabman": 14607,
    "Ġservant": 5764,
    "Ġspecialized": 3918,
    "flying": 13723,
    "Ġfert": 15586,
    "Ġsundry": 20077,
    "uther": 8821,
    "Ġ1807": 26084,
    "Ġpooh": 18604,
    "Ġrealised": 18981,
    "Ġrelaxed": 12988,
    "teak": 22820,
    "Ġhandful": 9785,
    "Ġfigured": 16646,
    "bolt": 25138,
    "Ġenderby": 13654,
    "national": 21000,
    "vember": 10857,
    "Ġoarsmen": 7738,
    "Ġfitting": 21411,
    "Ġultimate": 12354,
    "obst": 11936,
    "Ġdeacon": 18146,
    "Ġdoc": 7200,
    ".âĢĶ": 4248,
    "Ġsquint": 22843,
    "Ġsulk": 15048,
    "Ġpyramid": 8806,
    "Ġramadans": 25122,
    "Ġeating": 8136,
    "painted": 17641,
    "miserable": 8660,
    "Ġassume": 10518,
    "Ġarid": 22180,
    "Ġprotruded": 19473,
    "Ġhoky": 17929,
    "next": 5893,
    "Ġwoes": 23989,
    "Ġdriving": 3620,
    "stays": 15693,
    "Ġtener": 21166,
    "phil": 7925,
    "Ġsprain": 18306,
    "Ġhinge": 25542,
    "Ġreynolds": 10212,
    "months": 9075,
    "ameter": 3050,
    "Ġdav": 15594,
    "Ġlines": 4533,
    "Ġxl": 11994,
    "rim": 7139,
    ").âĢĿ": 20743,
    "Ġaddress": 2271,
    "apparent": 11044,
    "Ġclump": 15972,
    "Ġferocity": 16868,
    "Ġfac": 6382,
    "Ġappointment": 10649,
    "Ġentirely": 3433,
    "Ġproficiency": 19194,
    "king": 3061,
    "Ġcanallers": 13630,
    "ri": 390,
    "reluct": 26164,
    "ake": 750,
    "Ġenig": 15803,
    "Ġpunctilious": 26355,
    "Ġfreedom": 9086,
    "dimly": 15350,
    "Ġbow": 3062,
    "================": 3725,
    "Ġgazed": 6479,
    "Ġintimidated": 24802,
    "Ġbowels": 9434,
    "doms": 20837,
    "ream": 2710,
    "Ġporpoise": 7108,
    "Ġvehemence": 26568,
    "gratification": 24348,
    "Ġrambles": 17187,
    "Ġkeenest": 12166,
    "Ġsob": 12793,
    "Ġsuperhuman": 23456,
    "Ġpresided": 20210,
    "Ġbedroom": 7277,
    "osure": 5308,
    "Ġconfiding": 19039,
    "Ġcrystals": 20230,
    "Ġdedication": 3145,
    "Ġcongratulations": 10583,
    "Ã¦us": 14820,
    "ism": 4875,
    "represented": 20198,
    "reasonable": 7752,
    "Ġsto": 1498,
    "Ġ77": 24266,
    "Ġxii": 11995,
    "Ġmarvell": 7248,
    "lights": 13208,
    "metallic": 19882,
    "av": 740,
    "Ġdanger": 3521,
    "jackets": 24896,
    "remark": 7261,
    "Ġwharf": 9562,
    "Ġreverend": 15262,
    "borough": 20787,
    "Ġalleged": 17293,
    "akes": 2218,
    "Ġphilipses": 24452,
    "ober": 15409,
    "Ġrecept": 1528,
    "Ġped": 7845,
    "Ġreaders": 18916,
    "Ġchar": 1706,
    "Ġtuning": 3073,
    "Ġplates": 11008,
    "Ġbarb": 4530,
    "lad": 5993,
    "Ġflinging": 13588,
    "Ġxxxi": 24969,
    "whisper": 17084,
    "Ġmonica": 22988,
    "ifix": 21907,
    "Ġclaims": 13376,
    "Ġmont": 8562,
    "deal": 12804,
    "arm": 1354,
    "table": 5795,
    "Ġbald": 16209,
    "Ġpained": 19169,
    "Ġgrass": 5177,
    "Ġterra": 13120,
    "Ġpens": 21463,
    "Ġinhabited": 12190,
    "abash": 18110,
    "ots": 3295,
    "Ġtaffrail": 15479,
    "Ġtrap": 7672,
    "Ġtell": 1467,
    "needles": 20317,
    "Ġty": 6660,
    "pread": 7418,
    "Ġsepul": 14093,
    "gul": 12470,
    "Ġmagnitude": 1945,
    "Ġcake": 12575,
    "Ġmere": 2714,
    "Ġserves": 4670,
    "Ġspo": 6846,
    "Ġaccost": 12850,
    "Ġrealism": 18984,
    "visual": 24225,
    "Ġbelieves": 14410,
    "eringly": 23006,
    "Ġkin": 15908,
    "Ġviewed": 10465,
    "imens": 1746,
    "solic": 16380,
    "asleep": 21547,
    "Ġnewly": 9342,
    "Ġinto": 648,
    "Ġresp": 2492,
    "Ġarsacides": 17297,
    ";âĢĻ": 15306,
    "Ġtaurus": 21181,
    "Ġwashing": 9708,
    "Ġvery": 635,
    "Ġsteal": 16284,
    "Ġket": 18348,
    "Ġdel": 1612,
    "Ġbled": 17858,
    "Ġreasonable": 7252,
    "dest": 4104,
    "Ġpedro": 15066,
    "Ġsurround": 4619,
    "rd": 17651,
    "Ġshr": 4226,
    "Ġx": 2073,
    "Ġboyhood": 23758,
    "ij": 7802,
    "Ġconce": 3422,
    "Ġslam": 13062,
    "acks": 11792,
    "girdling": 26391,
    "Ġworth": 4416,
    "quished": 21858,
    "rade": 9682,
    "viv": 17700,
    "holes": 12057,
    "Ġdines": 21426,
    "Ġgreece": 17070,
    "Ġ81": 24457,
    "Ġmenacing": 23111,
    "involuntarily": 20418,
    "Ġquant": 6425,
    "Ġmouse": 4695,
    "Ġgreatest": 4094,
    "Ġxiii": 25592,
    "Ġpropagating": 20636,
    "Ġwonderland": 23427,
    "cad": 17507,
    "Ġell": 17717,
    "Ġchord": 22249,
    "Ġroad": 3879,
    "ceptibly": 22370,
    "Ġheavier": 13105,
    "Ġmemo": 18120,
    "resum": 17763,
    "Ġprayer": 16669,
    "Ġbold": 5293,
    "Ġpod": 15608,
    "told": 7811,
    "rail": 10207,
    "Ġconcernment": 23646,
    "Ġoptimizer": 5035,
    "Ġfoolishly": 19785,
    "Ġcolumb": 22859,
    "rem": 1526,
    "Ġceasing": 23760,
    "Ġwasting": 12733,
    "ressed": 3024,
    "sme": 17660,
    "transform": 8050,
    "Ġfair": 2839,
    "Ġrooted": 13172,
    "Ġportent": 12086,
    "Ġeber": 18006,
    "Ġheaded": 11057,
    "Ġwhaler": 7520,
    "Ġrattler": 24998,
    "jerked": 25619,
    "'re": 12432,
    "Ġeng": 1160,
    "kindly": 14748,
    "autions": 20769,
    "Ġlicensing": 20096,
    "vigorous": 25918,
    "caught": 8730,
    "Ġmad": 2425,
    "Ġclout": 22353,
    "required": 17031,
    "Ġconverse": 11848,
    "Ġcocoanuts": 26364,
    "Ġhealthcare": 8016,
    "justice": 7958,
    "Ġfrig": 13084,
    "Ġclung": 10961,
    "Ġhack": 12761,
    "occasional": 19579,
    "Ġdevoting": 22723,
    "Ġconveniences": 19815,
    "Ġ117": 19700,
    "ĠĠĠĠĠĠĠĠĠĠĠĠĠĠĠĠĠĠĠĠĠĠĠĠĠĠĠĠĠĠĠĠĠĠĠĠĠĠĠĠĠĠĠĠĠĠ": 9956,
    "Ġstript": 23697,
    "adieu": 26202,
    "dient": 441,
    "Ġpad": 8125,
    "Ġperchance": 15991,
    "escaped": 14233,
    "have": 2059,
    "Ġdistinction": 8889,
    "crazy": 24692,
    "Ġburglar": 17357,
    "Ġinterment": 22578,
    "Ġunfathomable": 20551,
    "Ġrecommended": 8671,
    "inspect": 11561,
    "Ġtranspired": 16786,
    "Ġpolluted": 25594,
    "Ġbinnacle": 8119,
    "pronouncing": 25194,
    "Ġchronicle": 20231,
    "Ġconceived": 8150,
    "Ġextend": 18682,
    "Ġrafters": 22655,
    "Ġwire": 13854,
    "Ġfuel": 13906,
    "Ġpaw": 12625,
    "Ġarray": 12814,
    "Ġdies": 11596,
    "Ġcarcase": 14447,
    "Ġtrod": 15029,
    "ious": 772,
    "Ġretains": 20033,
    "Ġmatrimonial": 25490,
    "Ġlumps": 21559,
    "Ġrazor": 22654,
    "Ġperseus": 10606,
    "stricken": 9887,
    "Ġassumpt": 5415,
    "Ġeaglet": 19307,
    "Ġspread": 5161,
    "Ġexperiment": 11924,
    "meadow": 18680,
    "Ġ42": 16680,
    "urmountable": 15282,
    "Ġtricks": 13487,
    "Ġcocaine": 20723,
    "orously": 8420,
    "bearded": 18523,
    "Ġsighed": 10340,
    "whalers": 17266,
    "Ġcarpenters": 16754,
    "Ġmallet": 17812,
    "Ġfastening": 16360,
    "Ġsimilarity": 3170,
    "inction": 6663,
    "Ġeavesdroppers": 25964,
    "Ġpatterns": 1214,
    "Ġcoin": 9774,
    "Ġafar": 14295,
    "Ġrefusal": 10347,
    "Ġboisterous": 20446,
    "Ġstove": 6735,
    "hug": 17565,
    "Ġcontempt": 6277,
    "Ġoverlook": 10962,
    "fain": 13717,
    "made": 4809,
    "unwillingly": 21888,
    "bering": 18694,
    "p": 84,
    "Ġbuzz": 24003,
    "Ġseventh": 18207,
    "Ġreverber": 19871,
    "Ġnook": 15932,
    "cruise": 24842,
    "Ġcobb": 14275,
    "Ġune": 4599,
    "Ġluc": 3313,
    "Ġsliding": 9368,
    "ref": 6516,
    "Ġours": 4613,
    "Ġcontemplate": 19894,
    "Ġrare": 7038,
    "antee": 22101,
    "Ġamiable": 4269,
    "istry": 22113,
    "column": 19331,
    "?âĢĻâĢĿ": 23644,
    "numerous": 17434,
    "Ġkn": 4545,
    "Ġembattled": 26290,
    "Ġrevolutions": 23845,
    "Ġmetal": 9387,
    "ithmetic": 18064,
    "Ġcanopy": 18322,
    "Ġpronounce": 16970,
    "Ġinputs": 843,
    "Ġbreeze": 5681,
    "any": 3340,
    "Ġinjure": 16783,
    "tain": 559,
    "Ġschools": 9480,
    "Ġdiscernible": 15073,
    "lust": 15383,
    "Ġenglishmen": 19433,
    "Ġcocain": 18595,
    "Ġalleghan": 25796,
    "heartily": 24218,
    "arious": 10319,
    "Ġstilly": 25975,
    "Ġguilt": 6181,
    "Ġcho": 4546,
    "Ġthinkings": 22815,
    "Ġfade": 21410,
    "Ġtempor": 2366,
    "ksome": 10107,
    "Ġwing": 6668,
    "Ġgradually": 3401,
    "braid": 17497,
    "Ġtallow": 14783,
    "Ġhal": 1358,
    "Ġfossil": 12391,
    "Ġrises": 9716,
    "Ġ166": 25007,
    "Ġlighting": 13086,
    "Ġwarned": 16882,
    "Ġpostp": 12148,
    "Ġpresentation": 14483,
    "geneva": 13732,
    "itudes": 3016,
    "Ġcamberwell": 25351,
    "Ġmccarthy": 5145,
    "Ġpolite": 9885,
    "Ġham": 3421,
    "Ġcurds": 22976,
    "Ġfelix": 4850,
    "examined": 17269,
    "ick": 835,
    "Ġimpenet": 14228,
    "dropping": 14985,
    "Ġaddu": 22106,
    "Ġgrievances": 20650,
    "Ġsyrian": 18355,
    "Ġlaughed": 5059,
    "gratulation": 24349,
    "Ġrenewing": 19813,
    "¯": 112,
    "Ġroods": 22408,
    "Ġinhabitant": 19758,
    "causes": 20346,
    "Ġlooks": 4167,
    "desired": 9008,
    "ifying": 5235,
    "tashtego": 9625,
    "Ġprincipal": 6497,
    "Ġredden": 15698,
    "Ġlegendary": 20540,
    "Ġmince": 22838,
    "Ġregained": 18599,
    "Ġroll": 5381,
    "Ġquohog": 10974,
    "urpation": 16304,
    "Ġpitiless": 19391,
    "Ġrossum": 3014,
    "Ġskipper": 22801,
    "Ġbaling": 17861,
    "Ġstruggling": 12079,
    "Ġabstained": 25232,
    "Ġcordiality": 24395,
    "started": 10847,
    "appearing": 14639,
    "ĠĠĠĠĠĠĠĠĠĠĠĠĠĠĠĠĠĠĠĠĠĠĠĠĠĠĠĠĠĠ": 24443,
    "Ġuncl": 22020,
    "lucky": 24545,
    "linen": 25258,
    "volume": 18583,
    "Ġperceptible": 18448,
    "tackles": 25625,
    "Ġspence": 22130,
    "listener": 24931,
    "Ġethics": 15465,
    "bod": 12441,
    "Ġexceed": 1342,
    "Ġwish": 2099,
    "Ġretreated": 13436,
    "Ġsixty": 7723,
    "hither": 11495,
    "hailed": 17567,
    "god": 4864,
    "pride": 11212,
    "accompl": 9883,
    "Ġencourag": 1390,
    "isome": 17850,
    "Ġplant": 8903,
    "Ġmills": 21314,
    "Ġcontradictory": 20400,
    "Ġtepid": 26414,
    "Ġstrung": 22621,
    "charles": 14702,
    "Ġdz": 4757,
    "itive": 6671,
    "ieving": 7033,
    "Ġexplo": 2286,
    "has": 4014,
    "Ġbrightly": 13228,
    "Ġdestroyer": 13416,
    "ylon": 24978,
    "Ġnatur": 17337,
    "Ġcos": 2208,
    "Ġstrasburgh": 18615,
    "iousness": 4900,
    "Ġwarn": 5695,
    "Ġreturned": 2893,
    "Ġsecrecy": 7316,
    "charge": 9453,
    "Ġtruce": 24118,
    "Ġbasement": 24701,
    "Ġsophisticated": 1627,
    "fav": 6649,
    "pacific": 17643,
    "Ġhey": 11644,
    "Ġbuoy": 8004,
    "Ġminiature": 11042,
    "Ġskiff": 16168,
    "Ġusually": 6265,
    "Ġplump": 14285,
    "expression": 10550,
    "Ġstranded": 9778,
    "-------": 20392,
    "fugitive": 26132,
    "Ġwrites": 23201,
    "abez": 10225,
    "Ġdesirable": 8944,
    "Ġrasc": 21978,
    "ender": 9164,
    "Ġtoo": 1162,
    "Ġmotion": 4565,
    "Ġauger": 21206,
    "Ġremembrance": 8318,
    "balance": 12011,
    "gathered": 13734,
    "Ġtragedy": 10670,
    "Ġwife": 2585,
    "ational": 5716,
    "shoulder": 16586,
    "Ġthirds": 16710,
    "Ġgrieved": 8297,
    "ollion": 19718,
    "deadly": 17101,
    "Ġobservable": 25129,
    "Ġaudibly": 24770,
    "Ġexpressed": 4466,
    "peleg": 16297,
    "Ġfrankly": 16747,
    "ica": 10201,
    "Ġcannibal": 7774,
    "Ġunce": 11715,
    "incible": 16500,
    "Ġthrees": 23404,
    "Ġsacrifice": 9558,
    "Ġperuvian": 18449,
    "Ġexpedition": 10636,
    "icken": 6713,
    "worship": 19390,
    "imag": 6991,
    "Ġicelandic": 25887,
    "Ġcompassion": 6488,
    "Ġgems": 9212,
    "Ġtent": 15470,
    "rule": 15904,
    "Ġtypically": 1540,
    "hunt": 20905,
    "Ġskin": 5038,
    "bitious": 16672,
    "Ã": 132,
    "Ġchin": 4892,
    "Ġancestry": 25642,
    "desolate": 25717,
    "Ġassailants": 20452,
    "aving": 2405,
    "Ġunche": 23431,
    "Ġchoice": 2167,
    "Ġparaphrasing": 26528,
    ",âĢĶâĢľ": 10073,
    "garden": 15028,
    "vels": 5432,
    "tried": 13796,
    "Ġquenched": 22421,
    "Ġsit": 4216,
    "winds": 10524,
    "meetings": 20381,
    "Ġlengths": 19207,
    "ergy": 2361,
    "Ġfowls": 8694,
    "Ġimpassable": 20616,
    "Ġrules": 1918,
    "Ġobstetrics": 24679,
    "Ġaboriginal": 14191,
    "apable": 6423,
    "Ġtalked": 4420,
    "Ġfanning": 23393,
    "Ġcompelled": 14268,
    "Ġdiversity": 25285,
    "Ġunre": 3479,
    "Ġgrowled": 19285,
    "Ġposterity": 17405,
    "Ġresignation": 18567,
    "Ġdetained": 18378,
    "Ġkingdom": 12023,
    "Ġthird": 4188,
    "tackle": 17324,
    "Ġwinc": 9645,
    "Ġstudents": 23243,
    "fare": 7799,
    "Ġawaken": 23588,
    "cheap": 23807,
    "Ġtinged": 20086,
    "Ġincrust": 22554,
    "Ġbegged": 8231,
    "Ġlounged": 19957,
    "Ġunreason": 15846,
    "Ġcommonest": 23093,
    "tfordshire": 4812,
    "Ġbewit": 15732,
    "Ġthieves": 15640,
    "bulkington": 19927,
    "assemblies": 25957,
    "Ġseems": 2480,
    "ank": 1361,
    "similar": 13456,
    "lion": 20946,
    "aggra": 21910,
    "idual": 1564,
    "Ġtriangular": 14862,
    "alley": 23024,
    "ost": 5361,
    "Ġruss": 18721,
    "Ġcore": 13880,
    "representation": 20199,
    "Ġsocks": 14136,
    "Ġspit": 22128,
    "apply": 18762,
    "Ġcelerity": 17439,
    "Ġalpha": 13591,
    "Ġcomplacency": 19452,
    "seam": 10876,
    "Åĵuv": 15186,
    "ushion": 14723,
    "niest": 18974,
    "Ġinsects": 25647,
    "Ġand": 295,
    "Ġwinding": 8236,
    "dwelt": 23874,
    "Ġartful": 22614,
    "\"]": 17473,
    "asion": 5714,
    "infant": 19830,
    "_)âĢĶ": 20147,
    "Ġearth": 2851,
    "Ġtw": 839,
    "Ġenticements": 26034,
    "Ġknelt": 12163,
    "Ġdiscourse": 9801,
    "hung": 8381,
    "retaining": 21248,
    "kward": 6958,
    "Ġconquest": 15752,
    "Ġliberties": 19670,
    "\\": 64,
    ".âĢĿ": 464,
    "compar": 14358,
    "Ġowl": 20087,
    "Ġcircumnavigating": 25615,
    "Ġenvelop": 5587,
    "Ġpeg": 22692,
    "exception": 9979,
    "beyond": 8886,
    "Ġbreak": 2870,
    "overing": 6308,
    "Ġfunctions": 1338,
    "Ġimbued": 17458,
    "Ġmon": 1251,
    "illation": 14144,
    "assed": 6422,
    "Ġrespite": 13157,
    "whatsoever": 18494,
    "continual": 20646,
    "Ġaccomplishment": 19668,
    "proposal": 18764,
    "Ġdeaths": 14539,
    "Ġguardianship": 17423,
    "Ġmoreover": 6165,
    "Ġencouraged": 9359,
    "Ġwore": 6378,
    "fun": 4038,
    "Ġassailed": 23178,
    "devouring": 24953,
    "Ġlirra": 21563,
    "Ġattract": 11838,
    "Ġoverlooking": 22364,
    "pardonable": 17220,
    "bab": 11470,
    "Ġdarkly": 19116,
    "Ġnorthumbria": 24174,
    "Ġwrapping": 19778,
    "Ġsteward": 6586,
    "Ġaunts": 21203,
    "Ġtowers": 16740,
    "progra": 9399,
    "Ġangel": 4854,
    "Ġcontinuously": 23208,
    "jaw": 13745,
    "Ġadvis": 9813,
    "Ġcat": 2123,
    "urns": 10216,
    "Ġfrightful": 7736,
    "Ġslipped": 6493,
    "Ġnovels": 15933,
    "tri": 11532,
    "monster": 8596,
    "duing": 22415,
    "Ġoppressed": 11191,
    "irements": 22225,
    "renew": 24450,
    "Ġworst": 7444,
    "her": 489,
    "je": 11498,
    "benefit": 24643,
    "ena": 11571,
    "understand": 1165,
    "agreeable": 5830,
    "Ġhenry": 5197,
    "Ġnotes": 7189,
    "us": 532,
    "Ġcurv": 3513,
    "aft": 9586,
    "Ġhope": 1788,
    "Ġmidst": 7986,
    "Ġbridegroom": 10607,
    "Ġtoiling": 15639,
    "Ġ*": 1273,
    "uned": 21875,
    "imly": 12692,
    "pid": 1375,
    "Ġinstructive": 19287,
    "Ġhappen": 5571,
    "Ġbehave": 23302,
    "odecimoes": 25319,
    "second": 6545,
    "Ġimitation": 22175,
    "Ġfun": 522,
    "Ġmelted": 19624,
    "if": 376,
    "Ġdeterm": 1270,
    "der": 472,
    "agos": 21908,
    "avoid": 9309,
    "Ġsaturday": 6453,
    "bey": 10316,
    "Ġresponded": 13641,
    "vices": 21119,
    "Ġpredicts": 2593,
    "Ġrain": 5005,
    "vity": 7815,
    "Ġpierced": 12286,
    "Ġevidently": 6760,
    "gradually": 12920,
    "Ġcraggy": 23533,
    "Ġgroups": 3721,
    "Ġzeros": 3327,
    "Ġleaders": 16630,
    "Ġatt": 780,
    "Ġunclasp": 26513,
    "Ġfad": 17878,
    "oga": 22714,
    "Ġdrop": 4343,
    "discernible": 20553,
    "Ġgl": 1254,
    "measured": 19993,
    "Ġdoze": 14177,
    "thirds": 25049,
    "fem": 17539,
    "Ġfog": 9664,
    "Ġhats": 14620,
    "Ġchestnuts": 24381,
    "stupid": 12681,
    "Ġdragon": 14947,
    "Ġarrives": 23609,
    "Ġdiscussion": 17197,
    "rod": 10833,
    "Ġglimp": 6067,
    "Ġlanguor": 12852,
    "decease": 25558,
    "Ġquivered": 18468,
    "Ġtrailing": 23083,
    "Ġcautious": 12258,
    "ak": 538,
    "Ġwelcomed": 9485,
    "Ġchim": 5934,
    "Ġlight": 1703,
    "hoisted": 19284,
    "Ġprogen": 14040,
    "philosophers": 25253,
    "sprit": 11384,
    "gods": 13370,
    "ntax": 932,
    "gans": 11492,
    "eenth": 12465,
    "Ġmig": 13858,
    "Ġoverbearing": 12849,
    "Ġpatchwork": 24144,
    "Ġdisguises": 25058,
    "shortened": 24747,
    "zag": 17715,
    "Ġscre": 9740,
    "Ġshun": 11713,
    "Ġcrib": 21351,
    "glass": 9912,
    "Ġperf": 12855,
    "roc": 9677,
    "Ġnation": 12652,
    "Ġsayest": 22776,
    "Ġaggreg": 12889,
    "Ġflowing": 14415,
    "vard": 21113,
    "Ġsentinel": 26066,
    "actory": 8911,
    "Ġlifting": 10199,
    "offer": 19064,
    "fool": 9051,
    "atherley": 7220,
    "Ġprovince": 24192,
    "putting": 14103,
    "Ġsuits": 22080,
    "Ġsunken": 14495,
    "Ġobliterated": 17408,
    "Ġconfinement": 19040,
    "wondrous": 12342,
    "mechanical": 25579,
    "Ġdipping": 15596,
    "Ġmeditation": 16707,
    "Ġinvader": 23482,
    "Ġsteelkilt": 5675,
    "Ġmulti": 1043,
    "emin": 8473,
    "Ġenjoys": 19454,
    "Ġswells": 9830,
    "caus": 11478,
    "Ġsetting": 7048,
    "Ġdisdain": 8360,
    "Ġominous": 12428,
    "Ġinfiltrated": 23285,
    "atever": 3079,
    "romang": 22009,
    "Ġruddy": 17128,
    "Ġapprised": 18358,
    "rison": 13781,
    "Ġashen": 21903,
    "Ġramble": 9317,
    "Ġplanets": 24060,
    "ances": 1335,
    "ď": 208,
    "Ġruined": 12960,
    "Ġclue": 7022,
    "combination": 25487,
    "Ġrepulsive": 14532,
    "iates": 13739,
    "Ġgrecian": 26297,
    "lyph": 10854,
    "Ġargemone": 24277,
    "Ġnotice": 4542,
    "oices": 7348,
    "Ġcontrivance": 17186,
    "Ġelopement": 10332,
    "treas": 17681,
    "fork": 20859,
    "Ġowing": 6006,
    "Ġannounced": 9038,
    "excitement": 19672,
    "Ġtarn": 21161,
    "Ġamel": 18509,
    "Ġsung": 23275,
    "Ġawakened": 10455,
    "acity": 5735,
    "ject": 873,
    "ensed": 10997,
    "Ġunaccount": 22031,
    "rable": 11635,
    "neighbours": 24882,
    "Ġislands": 6767,
    "Ġquality": 3529,
    "Ġmeaning": 1414,
    "Ġpract": 1805,
    "Ġrefine": 3039,
    "me": 880,
    "),": 1344,
    "Ġparad": 2844,
    "light": 3018,
    "Ġkiller": 19571,
    "giana": 7801,
    "lotts": 23829,
    "Ġtracks": 18892,
    "omical": 9683,
    "Ġtrust": 4081,
    "Ġanvil": 11600,
    "compass": 9019,
    "making": 2571,
    "Ġsap": 18324,
    "Ġdella": 21442,
    "hidden": 17374,
    "Ġfur": 992,
    "Ġoath": 7833,
    "counters": 25398,
    "Ġotherwise": 4659,
    "S": 55,
    "Ġelemental": 19921,
    "raham": 18016,
    "letons": 14614,
    "Ġalien": 14020,
    "tes": 11531,
    "Ġintellig": 526,
    "aisance": 15078,
    "Ġplain": 2820,
    "Ġrudder": 25110,
    "%": 9,
    "Ġdefence": 11069,
    "Ġschedules": 3387,
    "Ġwatson": 3597,
    "prosperity": 20737,
    "blot": 20785,
    "Ġvestige": 20066,
    "Ġplayed": 9420,
    "Ġtyphoon": 12393,
    "Ġregion": 2272,
    "Ġimpelled": 11788,
    "Ġjingling": 26018,
    "inian": 21185,
    "rebellum": 26166,
    "Ġsenior": 17174,
    "Ġtender": 5753,
    "Ġbuy": 8300,
    "Ġmisanthrop": 22761,
    "shout": 22446,
    "Ġmathematics": 12078,
    "connect": 1291,
    "tt": 13792,
    "Ġrubbing": 9326,
    "Ġpeeled": 14321,
    "recked": 17764,
    "Ġcongreg": 8464,
    "cull": 20811,
    "ugnance": 12372,
    "Ġherein": 16193,
    "Ġcruellest": 19661,
    "bble": 17487,
    "Ġlothario": 26186,
    "Ġveter": 15815,
    "Ġbirds": 5875,
    "Ġdegradation": 2630,
    "Ġplunder": 22606,
    "Ġadroop": 26002,
    "Ġfrench": 4939,
    "Ġcoward": 7156,
    "Ġfiver": 22780,
    "glance": 16589,
    "objection": 19917,
    "rolled": 9063,
    "Ġbrotherly": 16531,
    "consequence": 9766,
    "Ġfringed": 17275,
    "Ġsuperstitions": 17073,
    "discrimin": 19611,
    "Ġshivering": 10268,
    "chess": 16576,
    "Ġsuspicion": 6213,
    "Ġblown": 12090,
    "Ġessex": 20130,
    "Ġindistinct": 17411,
    "Ġregimentals": 19860,
    "Ġbriony": 9333,
    "recurrent": 4994,
    "Ġcurse": 7667,
    "Ġmexic": 14033,
    "Ġvirginia": 13502,
    "onah": 3339,
    "Ġputs": 19031,
    "ich": 470,
    "Ġeffusion": 22510,
    "Ġdelight": 2546,
    "Ġostentatious": 25737,
    "ĠĊ": 12528,
    "utting": 17987,
    "paying": 25412,
    "repeat": 25155,
    "Ġrecesses": 17263,
    "Ġinvaluable": 10185,
    "Ġproposed": 7460,
    "Ġfetching": 16898,
    "Ġwr": 1547,
    "cats": 17514,
    "Ġturks": 14600,
    "father": 3777,
    "shadow": 20315,
    "Ġoceans": 7996,
    "cket": 3690,
    "Ġporing": 21470,
    "robe": 15646,
    "Ġimpatient": 5603,
    "Ġprofessional": 7300,
    "Ġdriver": 16476,
    "Ġtrustees": 24110,
    "execution": 20475,
    "Ġgrowing": 6752,
    "Ġrelated": 3717,
    "evenings": 19466,
    "em": 391,
    "Ġformations": 18750,
    "Ġswore": 10381,
    "Ġsulkily": 25882,
    "culiar": 2823,
    "mering": 12495,
    "Ġperfidious": 25667,
    "ians": 2359,
    "resent": 10771,
    "Ġsuggested": 8321,
    "etite": 21582,
    "yp": 1044,
    "Ġmorality": 22981,
    "arp": 2029,
    "successfully": 14994,
    "Ġbigot": 24566,
    "complet": 11385,
    "Ġgaily": 16750,
    "gently": 13730,
    "disgrace": 16461,
    "liness": 8750,
    "Ġcoer": 22582,
    "Ġdirt": 15598,
    "Ġsix": 3045,
    "Ġmetrics": 19045,
    "Ġexecution": 6927,
    "Ġcards": 7581,
    "Ġexceptional": 19374,
    "allet": 11084,
    "Ġbloodthirsty": 26603,
    "Ġinvitation": 5188,
    "Ġwrit": 8242,
    "Ġdesmarest": 22984,
    "land": 1534,
    "bowed": 10687,
    "Ġdominant": 12400,
    "umbled": 8495,
    "Ġmeasured": 9807,
    "market": 16841,
    "dict": 15341,
    "Ġthoughtfulness": 18774,
    "esteem": 26009,
    "ulgent": 18152,
    "Ġdemo": 10882,
    "Ġrest": 1781,
    "th": 408,
    "Ġearnest": 3928,
    "witness": 10038,
    "capitals": 25083,
    "Ġinjuring": 24271,
    "Ġpapers": 4022,
    "Ġverd": 6919,
    "Ġblinded": 13274,
    "somewhere": 12017,
    "Ġbes": 2660,
    "Ġquestion": 2779,
    "rot": 21535,
    "ething": 1599,
    "Ġilleg": 21626,
    "singular": 12193,
    "Ġpurplish": 19142,
    "uttermost": 24943,
    "Ġinquiries": 5678,
    "a": 69,
    "Ġfanny": 23394,
    "neath": 12871,
    "Ġcheapside": 23290,
    "inkle": 22617,
    "Ġobliter": 14325,
    "Ġsemicircle": 26069,
    "Ġheinous": 18041,
    "Ġwearied": 15798,
    "asons": 6016,
    "Ġcaptioning": 23023,
    "lemency": 21377,
    "Ġadorned": 15251,
    "does": 6196,
    "inforcement": 2757,
    "Ġdistance": 3484,
    "Ġbruited": 25774,
    "Ġdesirous": 8945,
    "abby": 14023,
    "Ġcigaret": 16978,
    "Ġallen": 5160,
    "impulse": 20647,
    "Ġhoisted": 5961,
    "Ġyea": 8919,
    "Ġspear": 9318,
    "âĢľâĢĺ": 1484,
    "itions": 4149,
    "moved": 9787,
    "Ġdraughts": 20224,
    "Ĝ": 221,
    "Ġalphabetical": 17204,
    "Ġunchanging": 22049,
    "Ġhaw": 10254,
    "ensive": 6281,
    "Ġringing": 13335,
    "Ġcompass": 4408,
    "Ġappropri": 2226,
    "Ġqualities": 7533,
    "Ġsnap": 11203,
    "Ġexert": 5722,
    "Ġfleetness": 20182,
    "Ġvice": 6550,
    "Ġunembarrassed": 22075,
    "hue": 20901,
    "ones": 2744,
    "Ġhorror": 3773,
    "ohnson": 16329,
    "ves": 689,
    "Ġshortened": 23486,
    "again": 3399,
    "superst": 11327,
    "Ġpersisted": 13051,
    "Ġsteadily": 8052,
    "Ġharbors": 24902,
    "Ġhun": 1495,
    "Ġrestored": 7068,
    "ocean": 12405,
    "Ġsixth": 16562,
    "Ġcommons": 22675,
    "Ġindic": 2889,
    "bestow": 16931,
    "Ġodor": 12154,
    "Ġcolumns": 14379,
    "Ġcarter": 18901,
    "illustration": 2284,
    "cur": 3272,
    "Ġbravely": 23842,
    "Ġconcise": 23326,
    "Ġroused": 7623,
    "Ġowned": 11880,
    "Ġthank": 3792,
    "possibility": 13365,
    "ken": 2802,
    "position": 15416,
    "Ġfever": 6560,
    "Ġworsted": 19998,
    "Ġseams": 12129,
    "Ġreplenished": 13639,
    "asions": 12656,
    "forster": 16159,
    "Ġassaults": 15160,
    "Ġmerchant": 6468,
    "beneath": 9538,
    "Ġsupposing": 6731,
    "humiliation": 24027,
    "Ġwarriors": 19726,
    "Ġmisconduct": 22760,
    "Ġjeer": 24126,
    "ateur": 22010,
    "Ġparc": 10922,
    "Ġoxford": 11373,
    "Ġthreat": 5154,
    "Ġthence": 8885,
    "Ġrom": 4524,
    "lested": 14886,
    "crat": 24088,
    "Ġappearing": 9844,
    "Ġdeadliest": 14559,
    "Ġnamely": 20692,
    "Ġroaring": 10970,
    "mish": 17600,
    "Ġexperiments": 23033,
    "Ġflood": 7716,
    "Ġopulence": 23629,
    "Ġsouls": 6310,
    "Ġsong": 5904,
    "mont": 19171,
    "Ġresist": 7916,
    "umerable": 11729,
    "Ġobedience": 11415,
    "plendent": 21962,
    "Ġgleam": 12312,
    "rese": 15511,
    "Ġbright": 3217,
    "urons": 3134,
    "Ġcaulking": 20296,
    "Ġbarber": 23792,
    "Ġvillanous": 24058,
    "forming": 15919,
    "prom": 6510,
    "Ġabated": 18391,
    "Ġmarbles": 18874,
    "Ġconve": 5455,
    "Ġgardiner": 3241,
    "Ġgums": 21614,
    "ruined": 18347,
    "antucket": 2642,
    "advancing": 14839,
    "tru": 10731,
    "Ġfaith": 5351,
    "Ġinferior": 8366,
    "thesize": 24907,
    "ball": 7793,
    "Ġcoleman": 22588,
    "gallant": 7781,
    "Ġbites": 23746,
    "Ġbranches": 6777,
    "Ġmagnetic": 17243,
    "Ġblasphe": 17410,
    "Ġpumps": 8428,
    "Ġsurvived": 14937,
    "âĢĶâĢĻâĢĿ": 20067,
    "Ġunconnected": 18243,
    "Ġengra": 7874,
    "uture": 1086,
    "Ġlabor": 10420,
    "Ġdiverged": 23596,
    "Ġpossessed": 5195,
    "orse": 5807,
    "rat": 8759,
    "pequod": 7054,
    "Ġhorsey": 24252,
    "tales": 17688,
    "Ġglasses": 9478,
    "Ġcausing": 16361,
    "Ġdiscoveries": 13362,
    "mathematics": 26305,
    "suddenly": 6494,
    "qual": 8157,
    "Ġconceal": 5975,
    "Ġpa": 2990,
    "women": 15459,
    "securer": 25603,
    "Ġsigns": 2440,
    "Ġswimming": 5507,
    "Ġgloomy": 7504,
    "wherever": 13122,
    "Ġsmothered": 20722,
    "Ġovercame": 9749,
    "Ġtrapped": 23080,
    "computer": 1896,
    "Ġprodigy": 19795,
    "Ġendure": 5957,
    "shoals": 24716,
    "abst": 21792,
    "contrary": 23732,
    "treated": 21097,
    "Ġelij": 8912,
    "Ġyellowish": 24430,
    "desp": 6094,
    "shattered": 22453,
    "Ġne": 389,
    "attent": 9363,
    "thereby": 14450,
    "alluring": 18353,
    "infidel": 24664,
    "Ġstupid": 7607,
    "obtained": 23099,
    "swept": 19789,
    "Ġtahiti": 13622,
    "Ġlowermost": 23245,
    "Ġpreparing": 8651,
    "Ġfearfully": 23516,
    "lying": 7175,
    "Ġency": 21937,
    "bulk": 19926,
    "ssible": 2994,
    "ellative": 21949,
    "Ġblank": 5952,
    "igations": 18046,
    "whenever": 11885,
    "Ġtoday": 12648,
    "Ġprevention": 16095,
    "Ġguar": 23047,
    "geese": 22371,
    "scruple": 26046,
    "Ġcotton": 17382,
    "Ġlullaby": 20591,
    "Ġdismember": 20218,
    "Ġhost": 7070,
    "Ġdint": 15595,
    "due": 22414,
    "Ġwretchedness": 9030,
    "Ġgreatness": 12949,
    "Ġunconquerable": 22067,
    "Ġarrant": 23300,
    "ĠĠĠĠĠĠĠĠĠĠĠĠĠ": 22566,
    "Ġgramm": 8171,
    "recollect": 17226,
    "ert": 2631,
    "que": 1117,
    "numbers": 17618,
    "Ġpadded": 25039,
    "Ġincessantly": 11413,
    "nin": 17610,
    "agatha": 21912,
    "Ġosc": 2837,
    "Ġlower": 2662,
    "Ġleaving": 3902,
    "Ġtar": 2561,
    "Ġpaul": 12066,
    "Ġsplash": 16552,
    "q": 85,
    "Ġharm": 5017,
    "oology": 21008,
    "Ġfourteen": 12014,
    "Ġran": 3345,
    "Ġxxv": 19720,
    "Ġentry": 11028,
    "Ġducks": 25161,
    "Ġunscrew": 22044,
    "Ġhoops": 9393,
    "Ġgrasping": 12170,
    "Ġem": 1923,
    "Ġplaning": 22605,
    "penny": 22947,
    "Ġrecounted": 22754,
    "Ġwitnessing": 19601,
    "reme": 2423,
    "Ġrush": 5926,
    "Ġalt": 18101,
    "Ġwaves": 3916,
    "based": 2962,
    "elling": 5831,
    ",âĢĻ": 2329,
    "Ġeverywhere": 9798,
    "iot": 9603,
    "Ġbeth": 9660,
    "Ġglow": 7171,
    "Ġconclude": 8584,
    "Ġmonkey": 8227,
    "Ġportion": 7492,
    "Ġensu": 7875,
    "Ġbo": 796,
    "iners": 4937,
    "soever": 11863,
    "Ġcomplaisance": 19453,
    "pleasures": 24049,
    "Ġmed": 4178,
    "Ġinconvenient": 20013,
    "emic": 18187,
    "Ġkindest": 23296,
    "horn": 8086,
    "Ġalow": 18102,
    "Ġtidings": 11399,
    "Ġbern": 17860,
    "metals": 24765,
    "Ġcynicism": 25772,
    "Ġdollars": 11457,
    "Ġshan": 9253,
    "ensibility": 22551,
    "pity": 17629,
    "elve": 4643,
    "Ġstreet": 2960,
    "maritime": 24176,
    "Ġtriumphantly": 11289,
    "Ġbeards": 21755,
    "Ġvestibule": 13539,
    "Ġrisks": 9967,
    "Ġwedded": 15539,
    "ee": 1661,
    "Ġhideousness": 16917,
    "|": 96,
    "objects": 13473,
    "Ġheaths": 25973,
    "hess": 4748,
    "Ġmagnificent": 9845,
    "Ġjove": 9272,
    "ditch": 17530,
    "Ġsnarl": 25714,
    "Ġburnished": 24004,
    "Ġdig": 6137,
    "Ġdreaded": 8289,
    "Ġtimid": 6347,
    "hunting": 24385,
    "Ġsentences": 2682,
    "Ġunprincipled": 20710,
    "ishop": 9745,
    "Ġstate": 1810,
    "wound": 21129,
    "bet": 6111,
    "Ġasks": 5115,
    "Ġinboard": 17935,
    "Ġinexpressible": 17336,
    "Ġcolleg": 22858,
    "mis": 4520,
    "ildad": 3533,
    "Ġpatient": 6895,
    "Ġunbecoming": 22068,
    "Ġsinusoid": 4782,
    "Ġtried": 3650,
    "Ġscotch": 12214,
    "Ġprofundity": 20455,
    "formal": 14171,
    "ign": 1705,
    "Ġserving": 14488,
    "ade": 882,
    "sit": 13782,
    "Ġrehearsed": 25972,
    "Ļ": 252,
    "Ġdynamic": 5122,
    "years": 6883,
    "Ġcrack": 7710,
    "Ġabroad": 8869,
    "shaped": 10311,
    "Ġgovernment": 15180,
    "iferous": 17294,
    "Ġplayers": 12042,
    "empty": 23636,
    "tem": 6370,
    "Ġvoc": 4450,
    "Ġwalker": 23314,
    "despicable": 24638,
    "squall": 13524,
    "ineas": 15826,
    "was": 1420,
    "Ġragged": 11850,
    "Ġmur": 2487,
    "Ġend": 1472,
    "Ġcle": 1511,
    "Ġpractical": 3167,
    "atmosphere": 21267,
    "Ġhotels": 19539,
    "apsed": 6297,
    "Ġrewarding": 13440,
    "ascended": 24705,
    "Ġfoundation": 4232,
    "deliver": 19507,
    "hospit": 25904,
    "Ġhereafter": 9334,
    "Ġjudgment": 5765,
    "Ġmidday": 23634,
    "correspond": 13401,
    "pening": 2834,
    "sorrow": 12513,
    "Ġpier": 7163,
    "Ġentreating": 24210,
    "inridge": 11563,
    "prince": 23818,
    "entreat": 17978,
    "Ġerection": 24007,
    "inctions": 17734,
    "tawny": 26406,
    "ivered": 7007,
    "Ġbefriend": 18084,
    "mel": 9131,
    "Ġunwearied": 20605,
    "height": 21208,
    "Ġlongitudes": 22637,
    "Ġlights": 8963,
    "uger": 21106,
    "Ġinsufferable": 13933,
    "fted": 9122,
    "spersed": 22736,
    "umns": 14150,
    "Ġtreat": 3179,
    "probable": 17023,
    "Ġliber": 5168,
    "ishness": 22346,
    "Ġbasis": 16963,
    "compassion": 12351,
    "overcoat": 19054,
    "dually": 3285,
    "Ġresidence": 8207,
    "achel": 7034,
    "Ġrumpled": 24601,
    "Ġsickbed": 24249,
    "Ġeloquent": 16115,
    "Ġveracity": 23892,
    "Ġsaloon": 24066,
    "Ġremarkably": 7703,
    "Ġsoar": 18283,
    "clump": 23156,
    "blame": 14797,
    "Ġseasoned": 24405,
    "Ġcruel": 5121,
    "itering": 17820,
    "Ġadvance": 5484,
    "Ġconsecut": 18117,
    "included": 19209,
    "Ġfrederick": 15591,
    "roded": 17958,
    "Ġindiam": 22956,
    "Ġrestrict": 16377,
    "blows": 17168,
    "Ġfrogs": 23927,
    "Ġissues": 9545,
    "Ġdissol": 18552,
    "cask": 12451,
    "Ġremnants": 22797,
    "msprop": 2624,
    "whom": 8185,
    "omination": 21645,
    "Ġsting": 10863,
    "Ġsooner": 5573,
    "Ġjulia": 22306,
    "liable": 3817,
    "Ġgreen": 3054,
    "Ġdavy": 25952,
    "ific": 490,
    "Ġsatisfying": 23700,
    "Ġclam": 7416,
    "berish": 22743,
    "Ġfronted": 23260,
    "Ġjobs": 24833,
    "oso": 12835,
    "ott": 1872,
    "Ġupward": 9724,
    "ingle": 1038,
    "Ġvessels": 6757,
    "Ġbernard": 20687,
    "Ġepidemic": 20698,
    "Ġprime": 10406,
    "ouder": 17904,
    "Ġdepresses": 25798,
    "putation": 7625,
    "Ġdoctrine": 24200,
    "26": 10076,
    "burned": 25082,
    "meal": 22717,
    "Ġital": 10868,
    "Ġentreat": 4509,
    "ornamented": 26597,
    "pond": 21015,
    "insupportable": 21196,
    "Ġimpotently": 22405,
    "Ġminister": 18753,
    "result": 12047,
    "Ġsister": 1473,
    "Ġdetestation": 17130,
    "Ġcrags": 23532,
    "opence": 18507,
    "Ġpear": 11856,
    "Ġoutcast": 18415,
    "Ġmomentary": 11039,
    "magnificent": 20277,
    "Ġaccorded": 24093,
    "Ġgomorrah": 21618,
    "Ġunwelcome": 12785,
    "Ġpatients": 24810,
    "ater": 3371,
    "Ġcomforts": 14696,
    "Ġcent": 3255,
    "remem": 13071,
    "Ġreasoner": 14442,
    "industrious": 26241,
    "Ġelect": 10844,
    "loose": 11809,
    "Ġrim": 21969,
    "Ġpleasantness": 24141,
    "kily": 20939,
    "Ġherself": 1570,
    "Ġmerged": 19298,
    "none": 6962,
    "laden": 14932,
    "rix": 1576,
    "/(": 2983,
    "Ġluff": 15657,
    "Ġknow": 631,
    "Ġmeeting": 5193,
    "Ġfriday": 14490,
    "Ġreminded": 10002,
    "ugl": 23291,
    "Ġthen": 667,
    "Ġfumbling": 21420,
    "cut": 3127,
    "Ġsubjects": 7074,
    "Ġunlocked": 14123,
    "rugg": 15906,
    "Ġinterruption": 9476,
    "Ġremorselessly": 16969,
    "etymology": 14704,
    "Ġshavings": 14113,
    "my": 1316,
    "Ġchival": 14185,
    "Ġpet": 4587,
    "Ġcuriously": 13016,
    "Ġinflamed": 13476,
    "Ġint": 411,
    "Ġvalid": 1744,
    "Ġfather": 1450,
    "Ġtyp": 1127,
    "Ġpettiness": 24232,
    "ĸ": 249,
    "Ġlunatic": 24993,
    "Ġinspect": 5965,
    "Ġworrying": 22929,
    "Ġinfl": 6893,
    "Ġinterp": 16073,
    "Ġexhaust": 6400,
    "Ġhide": 4590,
    "ortions": 10950,
    "Ġlifelessly": 23053,
    "Ġgardens": 16453,
    "Ġfain": 5809,
    "whip": 22241,
    "Ġund": 4120,
    "Ġscroll": 14194,
    "ative": 734,
    "cles": 8729,
    "Ġpuzz": 5533,
    "Ġpeels": 22694,
    "Ġredundant": 16554,
    "Ġspitzbergen": 15291,
    "Ġweave": 21925,
    "Ġrealities": 18982,
    "Ġplied": 22601,
    "ler": 3493,
    "Ġpurchasing": 19877,
    "Ġpatagonian": 20538,
    "Ġserenity": 10031,
    "actorily": 25577,
    "ĠĠĠĠĠĠĠĠĠĠĠĠĠĠĠĠĠĠĠĠĠĠĠĠĠ": 24442,
    "partly": 14604,
    "Ġasp": 15785,
    "Ġlod": 4045,
    "raved": 18015,
    "Ġcupboard": 16885,
    "Ġartist": 12917,
    "jacket": 12296,
    "heartedness": 24825,
    "Ġcuriosity": 2397,
    "ashes": 6017,
    "Ġlaz": 7378,
    "Ġsells": 21226,
    "Ġwon": 1666,
    "(": 12,
    "Ġstrangers": 8314,
    "Ġcarries": 7674,
    "Ġeasiness": 23540,
    "Ġsavesoul": 26229,
    "umed": 6556,
    "Ġheeded": 13406,
    "col": 3105,
    "!)": 10072,
    "Ġsol": 1104,
    "broad": 8646,
    "Ġfer": 5529,
    "Ġpeculiarities": 12075,
    "Ġexpiring": 16099,
    "Ġowe": 8115,
    "silent": 9977,
    "iven": 1235,
    "Ġreader": 11938,
    "Ġfaltering": 17886,
    "elson": 16374,
    "strang": 11185,
    "Ġlying": 4827,
    "Ġregard": 3068,
    "Ġmiscellaneous": 17465,
    "urches": 12688,
    "Ġmournfully": 20120,
    "halfway": 24313,
    "Ġkills": 15910,
    "ure": 356,
    "Ġlangs": 13956,
    "haut": 20904,
    "mong": 15393,
    "ority": 8419,
    "Ġcontemporary": 16016,
    "Ġflapp": 23011,
    "brimming": 23579,
    "create": 24162,
    "Ġhazarded": 25655,
    "Ġdiscrimination": 23607,
    "complaisance": 24808,
    "Ġstock": 7455,
    "Ġhurling": 19112,
    "pray": 5429,
    "extra": 8219,
    "Ġbachelors": 24861,
    "vitiated": 25755,
    "Ġmachinery": 20488,
    "Ġhy": 5625,
    "Ġprying": 15613,
    "met": 6655,
    "Ġet": 3581,
    "aved": 5475,
    "w": 91,
    "Ġmemoirs": 26207,
    "Ġbrick": 8929,
    "Ġdied": 4112,
    "Ġcopestone": 24939,
    "mysteries": 26051,
    "io": 3802,
    "Ġheron": 22077,
    "knives": 14916,
    "wart": 17707,
    "Ġhamp": 12635,
    "interrupted": 11419,
    "eland": 11623,
    "Ġbustle": 17230,
    "Ġprospects": 9962,
    "Ġmice": 13861,
    "itation": 1780,
    "omics": 21646,
    "ud": 923,
    "nd": 11506,
    "Ġdata": 519,
    "Ġbusily": 9389,
    "Ġsign": 2493,
    "humor": 19456,
    "Ġtranquillity": 7536,
    "Ġpermanently": 25474,
    "Ġroses": 11790,
    "Ġinfinitely": 8966,
    "Ġrepl": 1592,
    "Ġreceptive": 1567,
    "eddling": 11904,
    "Ġlatitude": 8329,
    "carry": 19529,
    "Ġrepresentations": 1875,
    "Ġnearing": 15799,
    "chari": 21692,
    "Ġlocked": 6036,
    "Ġsocial": 7009,
    "Ġcomputational": 1626,
    "Ġdropping": 7483,
    "Åĵ": 10746,
    "wail": 21128,
    "onday": 6065,
    "Ġhovers": 19080,
    "Ġfeminine": 15266,
    "pine": 13771,
    "Ġflashed": 11917,
    "Ġunicorn": 22061,
    "wing": 2517,
    "Ġ124": 24469,
    "Ġloathing": 15071,
    "Ġvulture": 17342,
    "princip": 17139,
    "Ġdressed": 5081,
    "rather": 5430,
    "ifts": 12740,
    "sequ": 2400,
    "Ġforcibly": 10064,
    "Ġgroom": 13968,
    "Ġrippling": 17280,
    "Ġbr": 1072,
    "wishes": 13809,
    "Ġidiotic": 25589,
    "Ġcritically": 23447,
    "iracle": 11245,
    "rapid": 12675,
    "Ġprogra": 1144,
    "Ġconfidence": 6592,
    "elly": 17982,
    "ortations": 22263,
    "speptic": 23949,
    "arying": 9804,
    "ws": 7355,
    "Ġmalignant": 14881,
    "Ġprodigiously": 14935,
    "Ġwords": 1324,
    "Ġandrew": 21510,
    "iii": 14780,
    "Ġaustrian": 24302,
    "Ġawful": 6201,
    "Ġmoonshine": 19600,
    "Ġfe": 487,
    "Ġfearfulness": 23517,
    "Ğ": 223,
    "Ġsaluted": 14762,
    "Ġtravels": 11931,
    "Ġasser": 6259,
    "lection": 3655,
    "ince": 4338,
    "Ġmight": 962,
    "ways": 1442,
    "Ġcoal": 18592,
    "Ġits": 706,
    "Ġproducing": 11903,
    "Ġhish": 21917,
    "Ġclink": 22355,
    "Ġ*/": 10376,
    "Ġcleans": 18950,
    "Ġplanning": 14755,
    "Ġbam": 15570,
    "Ġdisgu": 8206,
    "Ġunlab": 3789,
    "concern": 6101,
    "Ġhealthful": 24062,
    "rip": 9245,
    "Ġphilosophy": 7105,
    "Ġexempt": 21832,
    "Ġpredicting": 2415,
    "Ġpalace": 16691,
    "Ġpositions": 2058,
    "Ġbrawn": 10484,
    "Ġaug": 6236,
    "Ġ109": 24416,
    "sixty": 24853,
    "urous": 10215,
    "Ġimp": 591,
    "Ġleak": 2161,
    "kine": 15379,
    "Ġnailing": 21530,
    "Ġfrequencies": 4790,
    "Ġsqu": 1037,
    "Ġother": 759,
    "Ġthistle": 21920,
    "terdam": 18133,
    "Ġunbending": 25465,
    "Ġcondescension": 10621,
    "Í": 142,
    "Ġdaugh": 2293,
    "ahab": 4289,
    "Ġsteamer": 17191,
    "leave": 7837,
    "Ġtrue": 1337,
    "urring": 21708,
    "Ġappears": 5402,
    "Ġweaver": 11691,
    "terbury": 21828,
    "jam": 15375,
    "Ġrushing": 7403,
    "Ġhereabouts": 12982,
    "mir": 20965,
    "ö": 183,
    "Ġfond": 4756,
    "Ġtolerable": 6949,
    "alice": 3212,
    "Ġancest": 12619,
    "Ġanimate": 23425,
    "Ġdives": 17892,
    "Ġbecome": 3161,
    "perquis": 22189,
    "Ġcheery": 16371,
    "Ġlongitude": 11013,
    "Ġstrangely": 5677,
    "mm": 676,
    "liv": 9610,
    "ctors": 21593,
    "Ġfiendish": 13331,
    "Ġcherished": 10593,
    "Ġlancaster": 26342,
    "persu": 8028,
    "Ġspool": 24803,
    "Ġinnumerable": 13355,
    "Ġacceded": 22380,
    "increasing": 20272,
    "angry": 18295,
    "andam": 10890,
    "hogs": 20085,
    "Ġsums": 2904,
    "Ġvers": 7563,
    "yonder": 21147,
    "95": 17480,
    "Ġelasticity": 19561,
    "Ġanteced": 26178,
    "Ġbeget": 9229,
    "Ġvacuous": 24344,
    "anced": 1315,
    "Ġanon": 9669,
    "ust": 498,
    "Ġno": 510,
    "Ġcomprehens": 8320,
    "Ġcalmer": 23045,
    "Ġhardly": 2431,
    "Ġpatches": 4237,
    "fulfil": 16041,
    "Ġswart": 14437,
    "Ġwithheld": 18113,
    "accessible": 13642,
    "Ġinvestigated": 25387,
    "Ġantarctic": 19555,
    "Ġexactness": 23606,
    "insensibility": 23073,
    "Ġwindibank": 7256,
    "Ġmincer": 14369,
    "invest": 11562,
    "vo": 11542,
    "afflicted": 23781,
    "Ġtoad": 21513,
    "Ġdecaying": 2247,
    "Ġqualified": 14953,
    "publ": 17640,
    "ě": 220,
    "Ġruggedness": 26270,
    "Ġimplement": 2726,
    "chery": 24551,
    "lig": 3176,
    "ougher": 18280,
    "sharks": 14241,
    "provoke": 26072,
    "philips": 20038,
    "Ġloitered": 26527,
    "anct": 21361,
    "seriously": 18905,
    "derness": 11742,
    "each": 7335,
    "rebell": 17765,
    "Ġrejoinder": 24598,
    "Ġpity": 4941,
    "Ġadvantages": 9814,
    "examination": 25479,
    "wherein": 19109,
    "Ġauthentic": 20537,
    "peare": 18913,
    "Ġbeaks": 21759,
    "ifer": 11688,
    "Ġtermination": 16463,
    "Ġreversed": 15701,
    "Ġcom": 367,
    "tled": 3457,
    "Ġfedallah": 6110,
    "Ġjar": 15954,
    "rush": 7012,
    "past": 8090,
    "Ġpossibilities": 18977,
    "Ġhumbly": 16201,
    "wet": 15455,
    "Ġevil": 3806,
    ")(": 2982,
    "Ġdeb": 4765,
    "Ġsanely": 24983,
    "falgar": 26131,
    "Ġlament": 7857,
    "Ġrefinement": 18701,
    "Ġstrikes": 13184,
    "Ġtruck": 19514,
    "Ġpopulous": 16828,
    "Ġcellars": 24666,
    "urbed": 15712,
    "Ġsorrow": 4630,
    "Ġwidest": 24237,
    "Ġbloodshed": 23803,
    "everywhere": 23701,
    "Ġsatiated": 22903,
    "hold": 3981,
    "ved": 868,
    "Ġhatchway": 13527,
    "yesterday": 10356,
    "reputable": 15520,
    "Ġwreak": 16819,
    "Ġresemblance": 7981,
    "add": 5229,
    "Ġawhile": 13832,
    "idered": 4552,
    "icate": 9205,
    "Ġhorrid": 7999,
    "Ġhose": 12632,
    "Ġgore": 17991,
    "entitled": 21571,
    "itche": 7579,
    "Ġpinioned": 21486,
    "Ġgratified": 8021,
    "othed": 16513,
    "loving": 18541,
    "icle": 10836,
    "starbuck": 6020,
    "Ġmeanest": 12915,
    "Ġembarrassment": 10629,
    "Ġaverred": 18866,
    "change": 6393,
    "Ġmeanings": 18608,
    "Ġleghorn": 13148,
    "towards": 5003,
    "Ġaccounted": 10297,
    "Ġraises": 11849,
    "Ġsunwards": 19013,
    "Ġpossession": 5589,
    "Ġpomp": 12627,
    "fortunate": 4793,
    "Ġbritain": 16958,
    "accept": 8901,
    "Ġcorroboration": 26053,
    "Ġrugged": 18722,
    "Ġwomanly": 23554,
    "ldog": 21921,
    "Ġfunction": 578,
    "Ġresearches": 13151,
    "Ġslightly": 7293,
    "Ġblessings": 24179,
    "Ġmetropolitan": 17278,
    "sir": 5001,
    "stool": 23823,
    "Ġresigned": 9771,
    "Ġcasement": 25095,
    "resentment": 15189,
    "ib": 1233,
    "Ġjerked": 19835,
    "Ġpatriot": 23301,
    "car": 4212,
    "emberley": 4172,
    "Ġcave": 10787,
    "Ġmant": 9650,
    "Ġmoist": 9289,
    "Ġdiminishing": 4209,
    "Ġprofanely": 23572,
    "distrustful": 26332,
    "forced": 11032,
    "scream": 11078,
    "mayhew": 23998,
    "Ġdelightful": 6322,
    "ration": 2004,
    "teeth": 10358,
    "said": 4105,
    "mind": 4628,
    "Ġlandsc": 11148,
    "Ġfloor": 4377,
    "._": 3223,
    "Ġbon": 8790,
    "Ġinex": 6529,
    "Ġenthusiasm": 8065,
    "Ġearthquake": 14630,
    "Ġcausal": 3411,
    "posture": 16929,
    "twelve": 14624,
    "robustness": 26340,
    "Ġhook": 6454,
    "ľ": 255,
    "Ġeffeminacy": 20720,
    "Ġuncle": 3197,
    "Ġgibberish": 25787,
    "Ġinqu": 2967,
    "Ġjudged": 12088,
    "Ġfilm": 23929,
    "inquiries": 13580,
    "Ġremained": 3144,
    "Ġtru": 4107,
    "Ġimpunity": 14225,
    "Ġgeneric": 18443,
    "umps": 6319,
    "Ġreproofs": 24893,
    "daring": 20831,
    "Ġallures": 22012,
    "Ġsummarization": 3649,
    "Ġplaid": 22604,
    "request": 21244,
    "Ġanx": 3184,
    "Ġstro": 4596,
    "wishing": 21131,
    "Ġreality": 7059,
    "linked": 17595,
    "Ġinvoluntary": 18757,
    "amusement": 15285,
    "Ġdecanter": 22462,
    "Ġpop": 5151,
    "archbishop": 22911,
    "Ă": 195,
    "Ġbended": 21388,
    "Ġflann": 23015,
    "Ġshouted": 5348,
    "b": 70,
    "sn": 7140,
    "Ġflourished": 15129,
    "uous": 4146,
    "Ġtiara": 26417,
    "Ġscramble": 24579,
    "Ġvocation": 10528,
    "accur": 14595,
    "Ġcomfits": 21851,
    "Ġinit": 815,
    "delirious": 19508,
    "brother": 7093,
    "narwhale": 17321,
    "Ġcin": 13877,
    "ineering": 21985,
    "Ġinhaled": 25452,
    "Ġjonah": 3481,
    "Ġeloped": 22648,
    "ittleness": 22383,
    "Ġfattened": 25950,
    "apolog": 22336,
    "Ġrecumbent": 22756,
    "Ġcanaller": 25468,
    "Ġvalley": 5852,
    "inating": 9157,
    "Ġbrazier": 26322,
    "to": 713,
    "Ġmuffled": 10643,
    "Ġa": 263,
    "Ġenters": 11027,
    "descending": 16285,
    "urious": 21706,
    "Ġawoke": 7286,
    "Ġbaptized": 25775,
    "Ġsnail": 19302,
    "Ġgravity": 9252,
    "Ġserenely": 13509,
    "nlp": 8754,
    "Ġissu": 6255,
    "naturalist": 23439,
    "Ġchemist": 11136,
    "bred": 11471,
    "Ġunheard": 22029,
    "ī": 236,
    "Ġintrospective": 20603,
    "spin": 22732,
    "they": 1879,
    "ensions": 14261,
    "Ġintegrated": 13533,
    "Ġoverhear": 15979,
    "rested": 13078,
    "Ġsatisfactory": 11194,
    "Ġconclusions": 10556,
    "manners": 16188,
    "Ġconsume": 12964,
    "Ġspeedy": 11174,
    "ville": 6088,
    "Ġimpo": 3442,
    "onsense": 6432,
    "Ġforeshadowing": 26594,
    "erne": 21272,
    "tempest": 16961,
    "enhall": 13852,
    "Ġtotal": 4993,
    "bedstead": 23935,
    "Ġforeign": 9875,
    "aming": 5829,
    "tram": 19646,
    "Ġte": 1134,
    "Ġdiction": 8799,
    "Ġauthorized": 16737,
    "Ġsharing": 3478,
    "Ġinfallibly": 10044,
    "desk": 23812,
    "Ġfanciful": 24787,
    "eked": 16406,
    "staff": 21659,
    "Ġassid": 18947,
    "Ġhardened": 14453,
    "Ġreefed": 20305,
    "destro": 13313,
    "Ġlimb": 9406,
    "Ġegot": 18010,
    "Ġburn": 3686,
    "Ġintelligence": 562,
    "heedful": 20576,
    "ears": 20847,
    "Ġbaleful": 24985,
    "unreasonable": 18165,
    "Ġimmediate": 6090,
    "..": 5783,
    "Ġhearses": 20063,
    "Ġcheek": 8581,
    "terrors": 25044,
    "Ġ103": 24411,
    "Ġsample": 3181,
    "Ġcathedral": 17416,
    "Ġadhering": 14142,
    "farintosh": 24553,
    "verity": 14003,
    "fury": 17549,
    "Ġscrape": 14921,
    "Ġambitious": 18513,
    "abriel": 6950,
    "Ġdisappeared": 5645,
    "Ġsex": 8846,
    "triumph": 15443,
    "Ġexped": 7651,
    "Ġresiding": 16065,
    "Ġdet": 512,
    "formation": 22223,
    "Ġexploit": 19164,
    "Ġswap": 23055,
    "Ġinsane": 19271,
    "avern": 24791,
    "Ġmillion": 14990,
    "Ġtoma": 7373,
    "vig": 15449,
    "approached": 13488,
    "ravity": 21638,
    "bidden": 19740,
    "Ġfals": 15585,
    "ckled": 9261,
    "vere": 4884,
    "fish": 3517,
    "girls": 12323,
    "animated": 14978,
    "hosmer": 25903,
    "Ġcitizens": 25440,
    "Ġnapole": 15119,
    "beautiful": 10651,
    "harbor": 13567,
    "Ġmock": 3694,
    "Ġmonotonically": 3832,
    "Ġjack": 4654,
    "Ġlikeness": 11181,
    "how": 1646,
    "Ġcumul": 4180,
    "Ġnosegay": 24195,
    "variance": 2655,
    "Ġcove": 22583,
    "Ġgra": 416,
    "Ġplaced": 3444,
    "sford": 5999,
    "Ġeulogy": 26472,
    "Ġpossible": 2583,
    "Ġblack": 2035,
    "diminished": 20841,
    "Ġdum": 10813,
    "Ġwantonly": 22895,
    "prot": 6899,
    "continuance": 19721,
    "bears": 22494,
    "Ġhunger": 8570,
    "/*": 10074,
    "Ġplumber": 16088,
    "riety": 12749,
    "Ġmeal": 9700,
    "Ġattribute": 16103,
    "eness": 2291,
    "sters": 6392,
    "Ġben": 1109,
    "Ġcaution": 11348,
    "accomp": 10457,
    "achusetts": 20712,
    "mitting": 20975,
    "Ġunrestingly": 20364,
    "earth": 6503,
    "inkers": 22618,
    "opius": 18508,
    "Ġmontan": 22986,
    "bec": 4055,
    "ature": 516,
    "atiate": 12553,
    "ineff": 21984,
    "Ġcabs": 23642,
    "Ġfing": 3758,
    "rom": 420,
    "Ġconfines": 23309,
    "ayed": 12717,
    "Ġsporty": 19892,
    "spout": 7924,
    "Ġaction": 5797,
    "Ġhardest": 18914,
    "Ġfors": 21775,
    "ve": 322,
    "Ġamends": 14248,
    "innocent": 20289,
    "Ġthanks": 6709,
    "Ġvindict": 13608,
    "Ġhooks": 14971,
    "Ġuniversally": 12004,
    "Ġtables": 9881,
    "substance": 15235,
    "ahead": 12438,
    "Ġrejoicing": 13424,
    "Ġdazz": 11597,
    "inion": 2878,
    "Ġbinding": 20422,
    "iriously": 18174,
    "uded": 6288,
    "izzy": 3095,
    "little": 3353,
    "rapidly": 15247,
    "iless": 10284,
    "Ġ49": 24085,
    "Ġlabrador": 23334,
    "ical": 754,
    "abled": 12799,
    "private": 13585,
    "real": 10152,
    "nay": 7137,
    "Ġinstigated": 18703,
    "Ġnarratives": 24353,
    "Ġblended": 16222,
    "Ġsurplus": 26304,
    "istics": 1630,
    "Ġparticle": 18671,
    "Ġpang": 15609,
    "Ġsund": 8249,
    "Ġblackness": 9397,
    "Ġcommerce": 11017,
    "Ġor": 437,
    "Ġapt": 9159,
    "specim": 23947,
    "omon": 10209,
    "Ġfeelings": 2451,
    "Ġpersonally": 8603,
    "Ġunforeseen": 22057,
    "Ġdoctors": 12156,
    "hauteur": 26393,
    "Ġevolve": 3003,
    "fill": 15354,
    "arb": 1568,
    "umpled": 15880,
    "circ": 4388,
    "Ġble": 5223,
    "Ġtrusty": 24107,
    "ollen": 11300,
    "igation": 5919,
    "Ġramsgate": 18647,
    "Ġmoth": 17804,
    "Ġdrowning": 19906,
    "Ġlaughs": 24119,
    "Ġwicked": 5962,
    "look": 2261,
    "bular": 15317,
    "Ġpallor": 13518,
    "ego": 4037,
    "Ġforwarded": 19046,
    "Ġkick": 5838,
    "inted": 2648,
    "zza": 24170,
    "Ġcontaining": 2230,
    "volut": 1565,
    "Ġsleepy": 8268,
    "Ġparched": 11731,
    "Ġobli": 9320,
    "Ġsoothe": 7405,
    "folly": 20864,
    "Ġelement": 6898,
    "Ġpoultry": 17444,
    "atory": 6127,
    "Ġredeem": 20503,
    "Ġsplashing": 16553,
    "pen": 1203,
    "Ġeyel": 17097,
    "arking": 16129,
    "Ġchurchyard": 16779,
    "melted": 25207,
    "Ġdeeps": 16111,
    "altering": 12645,
    "Ġcl": 554,
    "grammar": 6436,
    "apology": 22337,
    "Ġgovernor": 16493,
    "Ġsumat": 14132,
    "aggo": 5097,
    "Ġaccord": 4026,
    "Ġcontest": 18474,
    "Ġanalyze": 1747,
    "unusual": 21883,
    "Ġunpleasing": 22059,
    "uts": 8820,
    "harpoons": 24287,
    "Ġtusks": 17256,
    "Ġont": 18119,
    "Ġsanity": 24982,
    "entimes": 12661,
    "Ġneared": 14075,
    "Ġbud": 10171,
    "Ġcane": 10929,
    "Ġdanes": 25160,
    "Ġrepressed": 21671,
    "Ġscope": 15947,
    "Ġdeserts": 10510,
    "Ġbrim": 12981,
    "Ġgenius": 8046,
    "Ġsmiled": 5942,
    "Ġoutriders": 26545,
    "appro": 7046,
    "Ġonly": 788,
    "remained": 8573,
    "Ġriver": 5411,
    "Ġswears": 16466,
    "Ġfavourably": 16365,
    "wild": 8771,
    "pyramid": 21032,
    "Ġgroans": 14827,
    "Ġtunes": 24620,
    "Ġcares": 9371,
    "Ġmanifested": 17160,
    "shaven": 18488,
    "rew": 3651,
    "Ġsolving": 2481,
    "Ġfit": 3687,
    "Ġsweeping": 8988,
    "librarian": 26570,
    "eping": 5834,
    "Ġunwound": 24829,
    "finger": 10096,
    "Ġsafety": 6341,
    "steel": 8298,
    "puted": 8850,
    "Ġgardiners": 11159,
    "Ġimmovable": 15896,
    "Ġbaltic": 18794,
    "Ġzones": 22826,
    "Ġomin": 11580,
    "rough": 592,
    "Ġchecked": 9380,
    "Ġcomplain": 6687,
    "aw": 1448,
    "evidence": 25522,
    "ker": 5792,
    "Ġproving": 15755,
    "Ġapprehension": 7115,
    "breeze": 20565,
    "Ġlevels": 12701,
    "Ġgrapnels": 25552,
    "tan": 4743,
    "Ġmax": 2006,
    "blunder": 24132,
    "politeness": 16908,
    "Ġfuller": 11158,
    "meth": 11505,
    "Ġbizarre": 17873,
    "Ġprudential": 17922,
    "Ġgenuine": 14888,
    "Ġevening": 2652,
    "vanished": 15063,
    "itters": 10783,
    "Ġdistrict": 10320,
    "Ġsecurely": 16804,
    "Ġtherefore": 2237,
    "belonged": 25598,
    "these": 3244,
    "Ġspars": 3810,
    "Ġglades": 19375,
    "Ġloudly": 7312,
    "Ġhunting": 7259,
    "Ġstaves": 21747,
    "Ġplat": 8523,
    "Ġperpetually": 17071,
    "fig": 8738,
    "Ġcharles": 11962,
    "higher": 20410,
    "Ġtales": 10144,
    "Ġlambton": 10660,
    "Ġsnake": 12065,
    "Ġbrid": 6292,
    "Ġthirst": 7590,
    "Ġlamb": 8817,
    "avings": 12027,
    "Ġcovari": 2339,
    "Ġtravell": 5576,
    "Ġcoincid": 20320,
    "empl": 5724,
    "seas": 14035,
    "leaning": 10792,
    "sl": 5794,
    "Ġarchbishop": 18716,
    "Ġclifford": 22363,
    "Ġflounders": 23016,
    "impregn": 21717,
    "Ġcats": 8982,
    "Ġrapid": 1427,
    "umber": 5241,
    "Ġsupreme": 13610,
    "herself": 4891,
    "Ġgalvan": 21620,
    "Ġtreated": 7082,
    "silenced": 24423,
    "Ġserv": 3331,
    "Ġblocked": 19223,
    "Ġfifth": 11259,
    "Ġsuccess": 3613,
    "Ġwilson": 6632,
    "Ġgleams": 17313,
    "mate": 5359,
    "Ġmoonlight": 9961,
    "Ġplay": 2625,
    "Ġsmo": 2702,
    "Ġbraz": 19361,
    "Ġmim": 3108,
    "stock": 13226,
    "produced": 25415,
    "Ġdiscrete": 2474,
    "Ġbronze": 22869,
    "nuts": 15401,
    "stay": 9684,
    "Ġsqueezing": 25009,
    "'s": 2469,
    "Ġhogshe": 20495,
    "Ġpossess": 3208,
    "Ġsituations": 10494,
    "murderers": 25728,
    "Ġstir": 5826,
    "eer": 15351,
    "Ġamput": 16038,
    "ute": 4644,
    "arn": 357,
    "Ġworms": 25217,
    "rel": 3755,
    "iss": 2177,
    "both": 5785,
    "ivorous": 22086,
    "Ġpoised": 22593,
    "Ġchag": 15935,
    "Ġtooth": 9196,
    "ony": 3030,
    "Ġ101": 24409,
    "Ġgrudge": 20696,
    "Ġincreases": 3796,
    "Ġpiercing": 13496,
    "Ġobeyed": 12221,
    "Ġheard": 1399,
    "organ": 15578,
    "mmar": 953,
    "Ġfurthest": 22819,
    "expose": 23667,
    "Ġimpotent": 18454,
    "trad": 21078,
    "anqu": 4111,
    "Ġmildly": 9033,
    "upp": 10133,
    "Ġelated": 18634,
    "Ġhonorable": 16878,
    "Ġsubmission": 22794,
    "\",": 10681,
    "rigged": 17063,
    "Ġpoisonous": 24888,
    "Ġtalk": 1969,
    "Ġrede": 13986,
    "Ġordained": 19449,
    "Ġawait": 17074,
    "Ġjonas": 20612,
    "coloured": 7291,
    "bag": 7542,
    "Ġafforded": 8029,
    "Ġideas": 5494,
    "Ġhap": 18196,
    "earnest": 12403,
    "eted": 7592,
    "Ġ40": 14772,
    "deav": 2674,
    "nt": 920,
    "Ġpoint": 2057,
    "Ġreminisc": 18727,
    "education": 20304,
    "fect": 2300,
    "beer": 22492,
    "Ġjuncture": 17132,
    "repeating": 20132,
    "friendship": 24052,
    "Ġduchess": 4800,
    "Ġgayer": 24501,
    "Ġundulations": 19518,
    "Ġtranced": 18422,
    "hval": 20900,
    "²": 115,
    "Ġslender": 11944,
    "majesty": 26282,
    "Ġcables": 15562,
    "ede": 21509,
    "Ġscores": 2715,
    "Ġcum": 21345,
    "alescing": 23869,
    "lin": 9606,
    "Ġwhereby": 11840,
    "Ġreckoning": 14982,
    "Ġsneering": 24696,
    "Ġunfor": 15843,
    "od": 355,
    "Ġgreenland": 5761,
    "Ġarrows": 18337,
    "relapse": 24022,
    "signed": 21064,
    "Ġquadru": 16007,
    "pretty": 10624,
    "Ġparents": 6754,
    "Ġheroism": 24544,
    "Ġcomfortless": 23916,
    "Ġpresence": 5031,
    "state": 13981,
    "Ġ94": 17719,
    "promising": 24725,
    "Ġperem": 12937,
    "Ġskill": 6872,
    "turner": 19544,
    "Ġsauc": 15892,
    "Ġpeering": 8537,
    "Ġtackle": 9516,
    "hyp": 15370,
    "Ġdonkey": 23228,
    "Ġwayward": 22873,
    "Ġspectators": 19410,
    "Ġobserv": 8589,
    "Ġintroduce": 3209,
    "Ġrequisition": 22667,
    "chance": 6827,
    "Ġassociates": 24711,
    "Ġguard": 6180,
    "aping": 8194,
    "arcy": 1274,
    "Ġextent": 7656,
    "Ġelixir": 26557,
    "Ġpresently": 5116,
    "Ġfirst": 938,
    "invite": 25091,
    "Ġdut": 2989,
    "Ġsen": 9160,
    "Ġroads": 13292,
    "Ġacre": 22684,
    "Ġmagnific": 16323,
    "Ġparallel": 1412,
    "conda": 18994,
    "Ġlubber": 17447,
    "Ġrumors": 11323,
    "Ġsprained": 15887,
    "perpetually": 20516,
    "Ġmortal": 4683,
    "Ġsyn": 15917,
    "Ġtechnical": 17194,
    "respective": 19848,
    "hercules": 22211,
    "Ġmerc": 9430,
    "Ġpetulance": 24230,
    "Ġprim": 8244,
    "feels": 22505,
    "Ġunsupervised": 2477,
    "Ġbattle": 5909,
    "Ġmain": 808,
    "Ġyielding": 12191,
    "expressive": 24307,
    "Ġfiner": 13057,
    "Ġpreviously": 3917,
    "Ġhabitation": 14806,
    "bbings": 19278,
    "nights": 16449,
    "highest": 20411,
    "Ġbambooz": 26120,
    "achment": 5464,
    "Ġbugs": 13651,
    "walk": 5523,
    "Ġfountains": 13505,
    "Ġreluctant": 20528,
    "Ġgather": 6536,
    "Ġkindness": 4098,
    "acles": 8522,
    "Ġhunch": 18937,
    "immedi": 8452,
    "_âĢĶâĢĻâĢĿ": 25742,
    "Ġsympath": 4862,
    "Ġbeloved": 5572,
    "Ġling": 7377,
    "Ġcorpore": 13404,
    "Ġmaster": 3684,
    "Ġunseason": 22056,
    "Ġships": 3716,
    "perpendicular": 14165,
    "Ġstrength": 4259,
    "Ġbeauty": 3770,
    "Ġland": 1997,
    "handsome": 13179,
    "force": 12958,
    "Ġarch": 937,
    "Ġexclaim": 11223,
    "Ġperturbed": 20443,
    "indignation": 18439,
    "Ġhabitual": 24789,
    "Ġapprehensions": 13407,
    "Ġyourself": 2592,
    "Ġlowerings": 23648,
    "Ġcruising": 6913,
    "Ġappare": 12821,
    "Ġleast": 2065,
    "pervised": 1558,
    "Ġwaiting": 4322,
    "Ġspire": 18307,
    "Ġexhilarating": 26339,
    "assure": 9273,
    "Ġhands": 1665,
    "Ġoverflow": 10295,
    "Ġstrangled": 24136,
    "Ġmerchants": 23736,
    "Ġloosed": 22116,
    "Ġworshipper": 25693,
    "Ġoverwhelm": 25055,
    "Ġsmothe": 18574,
    "Ġcorps": 13037,
    "Ġvalued": 12187,
    "kish": 20936,
    "Ġprophets": 20453,
    "&": 10,
    "Ġdiminished": 16668,
    "Ġhath": 12633,
    "Ġlooked": 1801,
    "erve": 12554,
    "ocation": 14628,
    "Ġ29": 23733,
    "Ġcarefully": 6306,
    "Ġpresuming": 16795,
    "Ġanomalous": 25638,
    "Ġmoderately": 22222,
    "Ġsucceeding": 16763,
    "Ġtissu": 25921,
    "Ġpers": 1426,
    "eminence": 20102,
    "Ġreappearance": 21670,
    "Ġmuchness": 18709,
    "quadrille": 20598,
    "tery": 14042,
    "shott": 11798,
    "Ġninety": 13604,
    "maintained": 25023,
    "Ġdeep": 799,
    "Ġwails": 21299,
    "Ġmaketh": 15191,
    "preser": 9763,
    "Ġ180": 16608,
    "hertfordshire": 10939,
    "learning": 2442,
    "Ġscruples": 15082,
    "Ġspoutings": 14678,
    "tuesday": 17692,
    "inferences": 17741,
    "Ġbushes": 16404,
    "Ġatone": 15806,
    "Ġdiscovery": 5412,
    "Ã¦st": 24178,
    "breadth": 20279,
    "lob": 22511,
    "Ġcorpusants": 13680,
    "ricade": 13042,
    "Ġexposing": 11836,
    "Ġequinoctial": 20535,
    "stript": 21660,
    "Ġmistaken": 4986,
    "Ġoil": 3374,
    "Ġspade": 9263,
    "Ġarrangements": 16517,
    "Ġslighter": 18942,
    "Ġtravelled": 7772,
    "heads": 4096,
    "generosity": 23789,
    "cet": 15328,
    "Ġdug": 21433,
    "ruff": 15905,
    "Ġpalpit": 16692,
    "Ġdomain": 3435,
    "extending": 22765,
    "Ġdampening": 2897,
    "ruded": 15907,
    "smug": 23911,
    "**": 4687,
    "İ": 241,
    "journey": 8748,
    "companions": 15026,
    "Ġconversations": 9429,
    "cell": 10689,
    "atious": 10154,
    "Ġbeaches": 18087,
    "Ġshare": 1658,
    "Ġreign": 13987,
    "Ġtid": 8107,
    "Ġcrews": 8993,
    "nour": 20990,
    "Ġvoy": 2618,
    "asis": 12655,
    "eag": 20844,
    "Ġglass": 4368,
    "Ġtam": 7821,
    "ĠĠĠĠĠĠĠĠĠĠĠĠĠĠ": 22567,
    "sharpening": 22458,
    "Ġtrophy": 20010,
    "Ġclasped": 17209,
    "Ġconnectivity": 3669,
    "Ġknighthood": 25298,
    "opes": 10313,
    "Ġsaxe": 13631,
    "Ġsakes": 18327,
    "Ġworking": 5575,
    "Ġarsac": 11746,
    "ents": 1898,
    "Ġirksome": 13115,
    "deaux": 22152,
    "purposes": 25024,
    "Ġdistant": 5387,
    "Å": 134,
    "gentleman": 7518,
    "Ġrogue": 22409,
    "Ġum": 10214,
    "Ġadds": 1806,
    "travellers": 24339,
    "Ġstriving": 8998,
    "Ġplowdon": 26449,
    "gird": 20881,
    "Ġmolasses": 25629,
    "177": 20754,
    "Ġ3": 3984,
    "Ġowns": 22832,
    "Ġdrops": 9036,
    "Ġhell": 5019,
    "Ġdashes": 21437,
    "acceptable": 25185,
    "Ġplaned": 24059,
    "Ġanswering": 7477,
    "spade": 10343,
    "enesis": 24388,
    "Ġindeed": 1683,
    "Ġcaval": 25770,
    "Ġdecapitated": 20619,
    "ospit": 22267,
    "inav": 15487,
    "wide": 10140,
    "Ġevils": 9024,
    "Ġdais": 24372,
    "Ġcauses": 2559,
    "laws": 19810,
    "Ġglove": 14493,
    "Ġrefused": 6717,
    "enborough": 21288,
    "Ġdisadvantage": 12895,
    "Ġjoke": 8872,
    "Ġladyship": 5046,
    "Ġerskine": 17435,
    "Ġrequiring": 2923,
    "affording": 23780,
    "leness": 4692,
    "Ġclasses": 4057,
    "Ġperform": 1036,
    "antarctic": 22103,
    "Ġabraham": 18396,
    "Ġplus": 3881,
    "Ġoffspring": 16146,
    "uled": 11539,
    "oubled": 23647,
    "Ġeffectively": 2619,
    "'d": 12431,
    "whal": 10942,
    "Ġbeat": 4491,
    "jo": 3752,
    "Ġbehaviour": 4384,
    "Ġmake": 1283,
    "Ġboil": 16108,
    "ripp": 6406,
    "Ġveneration": 25047,
    "anean": 7443,
    "Ġsqueeze": 10042,
    "gazing": 12476,
    "Ġlikened": 16502,
    "pal": 9619,
    "Ġpanic": 11288,
    "Ġwashington": 17205,
    "Ġbefell": 14012,
    "Ġexpanding": 25239,
    "Ġpartake": 18670,
    "Ġwires": 21298,
    "Ġdrows": 21438,
    "au": 778,
    "Ġlearnable": 3994,
    "Ġstring": 11831,
    "quality": 10235,
    "Ġinnocence": 6478,
    "Ġwaist": 6892,
    "Ġrandom": 1588,
    "Ġ275": 20114,
    "peculiar": 6886,
    "Ġscar": 3215,
    "Ġexp": 779,
    "Ġdestiny": 8986,
    "thyself": 19300,
    "Ġappe": 1544,
    "Ġfrenchman": 11285,
    "compasses": 19439,
    "former": 11752,
    "Ġunseen": 3525,
    "osque": 22266,
    "sudden": 5316,
    "anite": 17839,
    "Ġhuge": 4701,
    "wont": 21135,
    "anke": 15565,
    "ected": 7873,
    "Ġcosmetic": 23475,
    "individual": 18437,
    "Ġthigh": 10189,
    "Ġages": 7029,
    "iveness": 2467,
    "oundering": 11750,
    "madly": 24420,
    "Ġlining": 13953,
    "Ġtop": 2470,
    "Ġauthorities": 11266,
    "Ġpaunch": 23752,
    "mand": 3892,
    "Ġpilgrimage": 17311,
    "introduce": 25187,
    "Ġstraggling": 23754,
    "Ġcurios": 18849,
    "judged": 14834,
    "Ġunfitted": 24111,
    "Ġcompacted": 23513,
    "Ġeighty": 19479,
    "want": 8770,
    "Ġperu": 14220,
    "aye": 3662,
    "Ġdivulged": 16651,
    "rally": 17653,
    "Ġwhaleboats": 18479,
    "Ġnorton": 12654,
    "Ġovertook": 18430,
    "Ġthirdly": 24146,
    "riage": 2125,
    "Ġmood": 6278,
    "vitality": 20482,
    "omp": 2528,
    "Ġterritories": 23849,
    "ted": 791,
    "Ġshowing": 7732,
    "restraint": 18980,
    "shrouded": 26363,
    "enemy": 15530,
    "Ġembodiment": 20531,
    "andering": 21871,
    "Ġallured": 14116,
    "shall": 4549,
    "Ġfishers": 19357,
    "nailed": 20998,
    "Ġstacks": 18080,
    "Ġpadd": 9672,
    "mates": 5073,
    "Ġmiguel": 25767,
    "Ġgnawed": 25168,
    "Ġrans": 21970,
    "Ġjet": 5309,
    "Ġthoroughly": 8348,
    "dilig": 17285,
    "Ġspecimens": 18860,
    "Ġriots": 23895,
    "itig": 1330,
    "oline": 6834,
    "Ġsuperst": 7704,
    "ren": 549,
    "Ġpanted": 21475,
    "Ġenthus": 7232,
    "insula": 23070,
    "immed": 9221,
    "Ġfanc": 6745,
    "worn": 13808,
    "Ġscoresby": 10464,
    "Ġsch": 13837,
    "exact": 7910,
    "Ġomens": 21331,
    "Ġgamming": 25543,
    "Ġrevelations": 25224,
    "oms": 4594,
    "limp": 20954,
    "Ġevangelists": 20342,
    "Ġruled": 22790,
    "Ġlow": 1649,
    "fashion": 8081,
    "Ġcharacters": 9376,
    "Ġpalp": 11252,
    "Ġexclaimed": 4684,
    "Ġscru": 8191,
    "Ġintruding": 21995,
    "Ġrevel": 9218,
    "threaten": 25462,
    "Ġpitiable": 9917,
    "Ġacquit": 18898,
    "arus": 13914,
    "arius": 14251,
    "burst": 10540,
    "ations": 710,
    "Ġunceasingly": 20362,
    "Ġconfide": 13102,
    "ized": 1532,
    "fil": 12467,
    "Ġtierce": 15481,
    "Ġcruc": 16537,
    "Ġrecords": 12200,
    "plague": 21957,
    "ct": 309,
    "Ġdis": 695,
    "Ġheel": 9687,
    "Ġsubaltern": 22795,
    "Ġchemical": 10412,
    "cup": 10694,
    "mered": 8218,
    "Ġwillow": 18531,
    "prolong": 23398,
    "Ġwonder": 2119,
    "Ġplague": 11828,
    "Ġperfection": 19219,
    "Ġqu": 604,
    "perfect": 7635,
    "idy": 21768,
    "Ġinsect": 12641,
    "Ġsecret": 3722,
    "Ġjoists": 19234,
    "Ġyouthful": 16725,
    "Ġslack": 8958,
    "Ġhopes": 4234,
    "model": 4614,
    "Ġicy": 10749,
    "Ġweltering": 19588,
    "Ġjungfrau": 15252,
    "Ġconsum": 9802,
    "Ġninetieth": 25358,
    "Ġrestrained": 16376,
    "Ġdread": 3166,
    "roll": 9200,
    "orate": 10802,
    "solitude": 23299,
    "skin": 10571,
    "Ġmagnanimous": 17414,
    "ield": 2407,
    "finished": 10557,
    "Ġboundary": 11224,
    "miss": 3177,
    "ciousness": 20819,
    "Ġphase": 14474,
    "tal": 17672,
    "Ġentries": 22740,
    "Ġaids": 12233,
    "Ġwalking": 4323,
    "paused": 17377,
    "punctual": 26357,
    "Ġsees": 8847,
    "Ġbehoo": 19034,
    "injury": 25214,
    "Ġthanked": 9464,
    "Ġol": 17816,
    "Ġransacked": 26506,
    "Ġmarty": 20293,
    "magnifying": 25393,
    "Ġdissip": 10994,
    "parad": 16400,
    "Ġrecur": 1621,
    "spond": 5567,
    "Ġpicked": 6343,
    "Ġriv": 10748,
    "trucks": 25420,
    "Ġ34": 16679,
    "elab": 21573,
    "mill": 13756,
    "Ġovertaken": 18431,
    "axed": 8892,
    "ilar": 10218,
    "Ġcoincidences": 26365,
    "Ġsocieties": 20185,
    "Ġfinger": 5274,
    "Ġsamples": 2964,
    "fact": 6360,
    "ĠâĢĺ": 1632,
    "horizon": 23617,
    "orious": 6009,
    "Ġcheerful": 6624,
    "Ġfloat": 12036,
    "Ġdescent": 979,
    "assist": 11772,
    "Ġark": 10278,
    "usoid": 4768,
    "Ġthenceforth": 25183,
    "Ġsmelt": 16069,
    "Ġwaxed": 21300,
    "assured": 10954,
    "ihood": 20924,
    "tish": 17679,
    "hester": 9634,
    "Ġsord": 21222,
    "Ġdifferences": 18715,
    "offic": 7466,
    "Ġbarmaid": 19337,
    "pursu": 11394,
    "Ġpsych": 10179,
    "Ġcases": 3960,
    "Ġaccomplice": 24376,
    "Ġpinch": 15019,
    "Ġruffled": 25838,
    "Ġblameless": 19861,
    "pan": 10718,
    "glit": 23853,
    "Ġpostpone": 17310,
    "hibited": 17430,
    "ech": 4389,
    "Ġilluminating": 25246,
    "oriental": 23724,
    "Ġenraptured": 26502,
    "search": 8467,
    "trap": 24334,
    "Ġomniscient": 20089,
    "aphys": 15205,
    "Ġlapl": 19780,
    "Ġproduced": 2450,
    "lar": 4482,
    "Ġactivation": 917,
    "swiss": 24258,
    "amount": 10886,
    "Ġobjections": 8568,
    "gravel": 22623,
    "¿": 128,
    "Ġsleep": 2399,
    "ercely": 12555,
    "better": 7121,
    "feed": 9297,
    "Ġsire": 15504,
    "admit": 18093,
    "umst": 2501,
    "Ġtrees": 4203,
    "Ġweep": 7620,
    "Ġ43": 14773,
    "Ġoverall": 4357,
    "oured": 2672,
    "Ġchristian": 6480,
    "Ġcoopman": 25829,
    "Ġclearing": 8240,
    "Ġsunda": 13546,
    "reds": 12753,
    "yra": 8103,
    "fuller": 22490,
    "thousand": 5547,
    "Ġthoughts": 3141,
    "ĠĠĠ": 2117,
    "commotion": 24914,
    "Ġdexterously": 25296,
    "Ġlife": 1351,
    "Ġshrimp": 24160,
    "Ġsixpence": 19319,
    "Ġdestroy": 5772,
    "ave": 981,
    "Ġthoroughfare": 16946,
    "Ġhyper": 19742,
    "lected": 1637,
    "Ġafloat": 9312,
    "Ġnecessitates": 23933,
    "win": 6802,
    "hetically": 21211,
    "ĠĠĠĠĠĠĠ": 7633,
    "Ġcand": 3278,
    "Ġvagu": 13592,
    "retrie": 18926,
    "Ġhaze": 18197,
    "Ġexcellence": 11453,
    "elled": 3991,
    "Ġloses": 15877,
    "inhabited": 13623,
    "tout": 21068,
    "rically": 15420,
    "Ġadmitting": 19185,
    "sherlock": 5422,
    "Ġspanish": 2830,
    "Ġdawn": 6817,
    "Ġdefray": 22943,
    "Ġtreasures": 17048,
    "Ġextant": 18681,
    "Ġblurred": 22933,
    "whaler": 20312,
    "Ġcommand": 3324,
    "ubbub": 23246,
    "Ġscientific": 6857,
    "Ġbecher": 18880,
    "Ġhundred": 2693,
    "Ġabsorbing": 17131,
    "Ġspacious": 18313,
    "Ġburg": 23654,
    "Ġmasking": 2419,
    "Ġlet": 1111,
    "Ġtars": 21167,
    "Ġneither": 3689,
    "advice": 12162,
    "Ġinclude": 1874,
    "Ġe": 311,
    "Ġcabaco": 13170,
    "Ġbase": 5013,
    "Ġchace": 14181,
    "dor": 12456,
    "Ġassign": 11112,
    "kindled": 16663,
    "halloa": 17091,
    "Ġfordham": 21780,
    "cabin": 8363,
    "Ġhurried": 4033,
    "Ġpicture": 4858,
    "Ġclerval": 4655,
    "Ġsatisf": 2808,
    "leaned": 21372,
    "hurry": 24762,
    "Ġamsterdam": 22488,
    "Ġga": 4445,
    "Ġwritten": 4169,
    "Ġstoop": 16314,
    "Ġplayful": 19238,
    "gang": 17555,
    "Ġye": 899,
    "wis": 12523,
    "Ġstrokes": 16771,
    "Ġspouting": 9443,
    "client": 18934,
    "Ġoutrages": 18416,
    "ċ": 204,
    "newsp": 23136,
    "Ġeffort": 8205,
    "Ġrobins": 16260,
    "Ġadvertisement": 6941,
    "Ġcor": 1322,
    "Ġvile": 8475,
    "Ġupbra": 22158,
    "Ġflattened": 26048,
    "present": 1135,
    "Ġshrivelled": 19706,
    "helped": 18927,
    "Ġterm": 2267,
    "shunned": 22459,
    "Ġtigris": 25760,
    "ispens": 8336,
    "Ġeffects": 7236,
    "Ġfastened": 7067,
    "Ġrushed": 4089,
    "Ġun": 423,
    "Ġshown": 5159,
    "Ġindu": 5295,
    "Ġsave": 4054,
    "Ġtransported": 11281,
    "tland": 21076,
    "conclude": 24070,
    "Ġhusbands": 16645,
    "Ġsect": 17753,
    "iries": 18172,
    "ivance": 22082,
    "Ġpossesses": 19355,
    "ofs": 11834,
    "Ġminority": 18754,
    "Ġundergo": 23236,
    "Ġgord": 21603,
    "aswag": 21549,
    "ough": 471,
    "Ġobjects": 5578,
    "parable": 16401,
    "Ġnatures": 16508,
    "Ġwinged": 16997,
    "Ġimprudence": 10302,
    "Ġoccurring": 2793,
    "Ġcreative": 9834,
    "ifted": 4494,
    "ailed": 3249,
    "deceit": 25557,
    "baked": 20781,
    "lucases": 20213,
    "Ġscold": 10952,
    "Ġflight": 6582,
    "announcement": 24563,
    "Ġbilliard": 16690,
    "Ġsplinter": 23750,
    "Ġcripp": 9656,
    "Ġscand": 7203,
    "Ġnext": 2140,
    "Ġselves": 21225,
    "Ġcurvature": 3574,
    "Ġexeget": 24087,
    "Ġillust": 8263,
    "Ġdiffused": 12073,
    "mut": 17597,
    "there": 1422,
    "Ġgodlike": 23360,
    "Ġsucceeded": 6107,
    "Ġspasmodic": 20401,
    "plun": 15819,
    "Ġorganically": 3013,
    "within": 6732,
    "Ġshuttle": 12131,
    "thank": 4950,
    "Ġintelligently": 4001,
    "Ġmainz": 22657,
    "Ġfacts": 2289,
    "Ġperched": 10300,
    "Ġthirteen": 15277,
    "lays": 14925,
    "Ġextracting": 11108,
    "ersburgh": 18216,
    "ispensable": 9100,
    "mutually": 26137,
    "somewhat": 11162,
    "Ġchanc": 18385,
    "Ġoct": 10161,
    "Ġplease": 4724,
    "Ġgang": 9211,
    "Ġey": 8135,
    "clusion": 16308,
    "harpooneers": 8693,
    "Ġemotions": 8972,
    ":âĢĶâĢĺ": 24196,
    "Ġspotted": 12143,
    "nowhere": 18419,
    "Ġtouched": 6002,
    "ease": 12462,
    "bies": 15316,
    "meant": 7922,
    "Ġtester": 21175,
    "Ġslaught": 23168,
    "Ġforgetfulness": 14608,
    "Ġgloomily": 14804,
    "Ġmagician": 25061,
    "influences": 25251,
    "ĠĠĠĠĠĠĠĠĠĠĠĠĠĠĠĠĠĠĠĠĠĠĠĠĠĠ": 13391,
    "gover": 10704,
    "until": 6598,
    "ounce": 6559,
    "Ħ": 231,
    "Ġworse": 4720,
    "iously": 2677,
    "occasion": 7754,
    "ortal": 6267,
    "Ġcasts": 19429,
    "Ġbreathless": 12174,
    "Ġlottery": 19890,
    "Ġpalpable": 15209,
    "Ġma": 3254,
    "meet": 11860,
    "Ġaristotle": 25818,
    "Ġdat": 496,
    "Ġfoes": 11956,
    "Ġdocks": 14178,
    "erman": 5108,
    "Ġdemoniac": 15068,
    "Ġfortune": 4240,
    "Ġbook": 2703,
    "Ġsteersman": 13045,
    "Ġwight": 12558,
    "Ġmish": 15541,
    "Ġgravely": 7883,
    "introduction": 15127,
    "Ġvastly": 23863,
    "Ġahoy": 12189,
    "®": 111,
    "Ġcomplex": 745,
    "Ġtainted": 21173,
    "shame": 16024,
    "tumult": 12427,
    "Ġtattoo": 7359,
    "Ġwhitish": 24867,
    "tut": 15437,
    "etah": 12666,
    "illity": 18297,
    "gences": 20879,
    "Ġstamped": 13529,
    "Ġho": 1932,
    "oot": 13767,
    "Ġrot": 10969,
    "##": 2318,
    "Ġinh": 10826,
    "Ġden": 3109,
    "dham": 20832,
    "Ġlamented": 24994,
    "Ġfoolscap": 24161,
    "lant": 20949,
    "outer": 9671,
    "Ġrecklessness": 24744,
    "Ġbrighton": 6471,
    "ament": 2437,
    "Ġjew": 9470,
    "Ġcreases": 22727,
    "Ġrevolution": 3307,
    "Ġtren": 17723,
    "occur": 19578,
    "shoes": 14242,
    "admire": 24946,
    "Ġascribe": 16784,
    "notice": 16148,
    "Ġfrigates": 25707,
    "Ġlurch": 21558,
    "Ġgrin": 5482,
    "abode": 21795,
    "ights": 8478,
    "Ġspain": 15884,
    "Ġmelbourne": 24291,
    "guinea": 16675,
    "buck": 17493,
    "orum": 12595,
    "Ġrepining": 23363,
    "islands": 21379,
    "gives": 15361,
    "Ġdisco": 3428,
    "september": 14038,
    "Ġnib": 13942,
    "mediate": 16516,
    "Ġstayed": 7998,
    "Ġnovel": 6697,
    "Ġsalesman": 13671,
    "Ġbalancing": 2429,
    "Ġinfirmity": 26299,
    "Ġmarred": 23035,
    "chariot": 26481,
    "Ġprofession": 6209,
    "Ġlives": 4828,
    "Ġfriesland": 26444,
    "Ġyoked": 15739,
    "Ġsocket": 12794,
    "Ġsou": 1887,
    "Ġmornings": 16241,
    "Ġnightgown": 23134,
    "speak": 5504,
    "ĠĠĠĠĠĠĠĠĠĠĠĠĠĠĠĠĠĠĠĠĠĠĠĠĠĠĠĠĠĠĠĠĠĠĠĠĠĠĠĠĠĠĠĠĠĠĠĠĠ": 20041,
    "Ġhierarchical": 1926,
    "experience": 17161,
    "Ġhuggins": 24826,
    "Ġstave": 11654,
    "Ġreplacing": 3449,
    "onden": 13846,
    "Ġbulldog": 23862,
    "sy": 2804,
    "dispute": 23503,
    "Ġdeceit": 13484,
    "Ġhip": 17923,
    "Ġopened": 3514,
    "characteristic": 24686,
    "dry": 13706,
    "norm": 20987,
    "elop": 1516,
    "Ġpanthe": 19656,
    "trip": 21094,
    "Ġfaces": 6010,
    "Ġmisunderstand": 18705,
    "taller": 26151,
    "Ġskul": 22799,
    "irresist": 21916,
    "Ġpunctual": 17140,
    "Ġremarked": 3698,
    "Ġtolerably": 8068,
    "Ġreco": 9796,
    "Ġsepulch": 15288,
    "Ġbachelor": 7787,
    "animation": 16981,
    "Ġlobster": 11391,
    "Ġjealous": 9471,
    "Ġcommonplace": 11097,
    "Ġexistence": 4708,
    "whiteness": 18371,
    "Ġloves": 10917,
    "Ġtasks": 1787,
    "oubtedly": 6943,
    "Ġexpanse": 14293,
    "Ġnaut": 13943,
    "etition": 7382,
    "Ġinverted": 12642,
    "Ġbeckoning": 20505,
    "turbaned": 24532,
    "uses": 11765,
    "Ġfilthy": 13253,
    "Ġsuavely": 26525,
    "metal": 24764,
    "pendicular": 6500,
    "Ġdollar": 25284,
    "leton": 5148,
    "Ġfainted": 8796,
    "flu": 9121,
    "iff": 3903,
    "Ġclient": 5556,
    "Ġwave": 7576,
    "Ġrad": 4962,
    "crane": 24089,
    "txt": 12520,
    "Ġphr": 2681,
    "Ġunfinished": 19512,
    "Ġjewel": 9945,
    "intelligence": 5884,
    "Ġsandwic": 24665,
    "Ġunquestion": 18249,
    "Ġtruly": 4797,
    "gast": 20873,
    "archical": 1925,
    "Ġconvert": 11847,
    "Ġapprove": 12876,
    "Ġrefined": 18700,
    "Ġseals": 11701,
    "consumed": 25676,
    "uously": 7353,
    "lo": 681,
    "Ġkitty": 3907,
    "nep": 20988,
    "Ġvol": 4190,
    "uted": 7593,
    "wil": 8769,
    "Ġgazes": 24099,
    "Ġaged": 10323,
    "Ġcastors": 23979,
    "Ġmeanly": 12914,
    "eff": 2532,
    "Ġlamp": 4115,
    "Ġdenied": 9003,
    "Ġdough": 8422,
    "Ġlegal": 10441,
    "supposed": 13319,
    "Ġimputable": 22177,
    "Ġpleasurable": 23343,
    "Ġrending": 19470,
    "Ġ0": 1904,
    "driver": 14924,
    "Ġungrateful": 14124,
    "invincible": 25092,
    "poled": 22908,
    "Ġmartial": 20294,
    "tin": 6118,
    "Ġgoat": 16010,
    "Ġshillings": 15839,
    "Ġfruit": 12330,
    "Ġfrancis": 26064,
    "think": 3612,
    "Ġcomprehending": 24445,
    "Ġconcealing": 23906,
    "Ġamours": 22485,
    "whar": 15931,
    "cries": 17513,
    "anx": 8788,
    "Ġconsoling": 19461,
    "umbling": 6613,
    "Ġunlo": 22016,
    "Ġheh": 21683,
    "wall": 10139,
    "Ġinterview": 9773,
    "Ġdent": 13908,
    "Ġremaining": 6190,
    "Ġearthly": 7990,
    "much": 3708,
    "Ġinterconnected": 1336,
    "Ġpurpose": 2709,
    "Ġmedic": 11258,
    "Ġconsuming": 22796,
    "Ġflaw": 23013,
    "sensations": 20054,
    "Ġafore": 10760,
    "Ġnowhere": 12891,
    "ulous": 4449,
    "Ġsuspects": 16892,
    "infer": 10147,
    "hemat": 3132,
    "desirable": 23813,
    "Ġshamefully": 24715,
    "Ġcanst": 8861,
    "seized": 14037,
    "Ġcovering": 13260,
    "bone": 5612,
    "Ġclaw": 22357,
    "remembered": 17354,
    "visit": 7755,
    "Ġregularization": 1179,
    "Ġsurrounded": 5880,
    "seamen": 13629,
    "Ġatonement": 21946,
    "year": 11096,
    "ificent": 8184,
    "Ġ48": 24084,
    "Ġuseless": 7039,
    "Ġpaints": 23528,
    "ocris": 23711,
    "Ġhem": 8447,
    "Ġpetrified": 19599,
    "Ġruinous": 24634,
    "alid": 13937,
    "Ġaver": 1285,
    "Ġ128": 24473,
    "but": 594,
    "Ġvii": 13112,
    "Ġsurmount": 20004,
    "hereabouts": 23608,
    "desire": 14664,
    "deepest": 22831,
    "Ġtale": 5142,
    "arity": 1301,
    "crated": 16685,
    "mystical": 25318,
    "Ġadorn": 12797,
    "Ġmilliner": 19886,
    "Ġmacey": 12568,
    "Ġpocket": 4899,
    "drifting": 19827,
    "allows": 15911,
    "red": 396,
    "Ġweakness": 9970,
    "Ġemergency": 25731,
    "ulgences": 21869,
    "Ġflash": 8230,
    "Ġstiggs": 25793,
    "ounted": 5030,
    "dut": 10090,
    "now": 548,
    "flagged": 23975,
    "ķ": 248,
    "Ġelab": 22645,
    "haul": 14769,
    "Ġseparating": 16684,
    "Ġhieroglyphic": 25588,
    "ituted": 13875,
    "Ġreached": 4023,
    "sullen": 17671,
    "Ġgifts": 21615,
    "Ġair": 1834,
    "Ġunresting": 25554,
    "Ġcharms": 11132,
    "Ġmarriage": 3191,
    "Ġpunish": 12164,
    "Ġeffaced": 18534,
    "degrad": 22147,
    "Ġfamiliarity": 16731,
    "Ġequilibrium": 4142,
    "phren": 22778,
    "canonical": 22968,
    "ortment": 22262,
    "Ġ4": 3985,
    "Ġsouth": 4912,
    "Ġrelig": 8553,
    "irksome": 18175,
    "Ġ181": 23899,
    "floating": 12232,
    "rennial": 22345,
    "Ġ184": 16609,
    "Ġhatty": 19267,
    "mph": 20974,
    "isticated": 1622,
    "Ġatom": 18193,
    "Ġsnow": 3709,
    "Ġbermud": 26441,
    "Ġpagan": 7119,
    "Ġconfused": 7964,
    "atisf": 21266,
    "soldiers": 25912,
    "Ġspouter": 12803,
    "Ġwilderness": 14843,
    "Ġslave": 7454,
    "Ġhumorously": 18779,
    "Ġsufficiently": 8976,
    "Ġsnuffing": 25015,
    "queequeg": 4333,
    "Ġstood": 2549,
    "abeth": 905,
    "Ġunfathom": 14792,
    "Ġmaimed": 21319,
    "Ġopp": 2697,
    "err": 1141,
    "Ġhabitu": 19531,
    "Ġgrowth": 14631,
    "watch": 6120,
    "Ġph": 1551,
    "Ġuntouched": 16468,
    "races": 21633,
    "extraordinary": 9099,
    "vain": 15450,
    "measureless": 20238,
    "Ġimposs": 16618,
    "Ġdangers": 12359,
    "Ġlivelong": 25512,
    "estinated": 15927,
    "Ġuniversity": 13125,
    "obedience": 17413,
    "Ġdominion": 16526,
    "throt": 25660,
    "ifford": 15788,
    "successively": 24778,
    "Ġhimself": 1349,
    "Ġjamming": 17267,
    "washed": 13049,
    "Ġphren": 8575,
    "Ġannoyed": 17202,
    "Ġsecurity": 8980,
    "pronounce": 25193,
    "footed": 19692,
    "eye": 6226,
    "Ġdesper": 6178,
    "savage": 15079,
    "Ġearly": 2079,
    "ernally": 22622,
    "Ġcloth": 9746,
    "Ġdisplaying": 16968,
    "Ġshol": 21999,
    "Ġinfidel": 13091,
    "Ġbordered": 24564,
    "Ġcontinuous": 1566,
    "Ġwhis": 3506,
    "Ġpist": 12620,
    "Ġexig": 21830,
    "Ġcommanding": 16592,
    "Ġardu": 22182,
    "member": 20977,
    "business": 5610,
    "icing": 9204,
    "Ġpian": 13919,
    "Ġespecial": 26412,
    "dramatic": 19388,
    "Ġfiercely": 12957,
    "Ġspeech": 4611,
    "Ġerected": 12238,
    "Ġtro": 7356,
    "Ġherd": 7888,
    "Ġknave": 11274,
    "othe": 2613,
    "Ġ58": 24322,
    "Ġmonarch": 14419,
    "zwilliam": 5074,
    "Ġpacific": 5153,
    "Ġcaress": 16342,
    "duty": 20242,
    "arpening": 21446,
    "Ġunbounded": 18260,
    "Ġbrothers": 13178,
    "Ġbranded": 14382,
    "Ġcongratulated": 19769,
    "announce": 24561,
    "deeply": 16181,
    "ose": 717,
    "Ġdelivery": 18976,
    "Ġname": 2083,
    "Ġitaly": 10869,
    "Ġdue": 3843,
    "Ġpy": 21454,
    "Ġexasperate": 20101,
    "Ġleaped": 8829,
    "ceptible": 10963,
    "linging": 16082,
    "lim": 9609,
    "Ġaudible": 19883,
    "Ġmonths": 3455,
    "Ġexamination": 8005,
    "Ġoptimize": 1476,
    "mortar": 25409,
    "Ġexponential": 1056,
    "Ġcircumstantial": 14645,
    "Ġchoicest": 24223,
    "Ġcommunicate": 10580,
    "Ġslips": 23167,
    "Ġaccompanied": 6781,
    "iscre": 17852,
    "Ġhagger": 21494,
    "Ġstrolled": 16772,
    "Ġlectures": 17181,
    "oned": 4632,
    "Ġcentaurs": 23836,
    "Ġdomes": 23657,
    "wreat": 21130,
    "Ġweigh": 10896,
    "disreputable": 23507,
    "problem": 25245,
    "sweep": 24618,
    "igated": 15711,
    "Ġcommitting": 22676,
    "led": 582,
    "Ġmarried": 3409,
    "ades": 5631,
    "Ġcushion": 17835,
    "conception": 22476,
    "hastily": 19705,
    "Ġuniverse": 14127,
    "Ġdisgusting": 19896,
    "rece": 21237,
    "rect": 1596,
    "Ġjoyously": 19350,
    "Ġexplicit": 3589,
    "conclusions": 25673,
    "Ġdiligently": 11407,
    "Ġgeneralize": 3101,
    "Ġcru": 2826,
    "Ġvial": 10251,
    "Ġabsurdly": 19963,
    "Ġwolfish": 25936,
    "Ġfastidious": 14494,
    "Ġpoky": 21482,
    "j": 78,
    "ows": 1917,
    "exercise": 17462,
    "Ġgasp": 7173,
    "Ġdescending": 8906,
    "Ġgaol": 19570,
    "Ġslowly": 3621,
    "Ġpattern": 1466,
    "dro": 6647,
    "ullen": 8235,
    "specul": 23946,
    "Ġshalt": 18231,
    "Ġacquiescence": 20333,
    "oblig": 16291,
    "Ġburial": 16524,
    "amore": 21853,
    "iliation": 10862,
    "Ġforest": 9874,
    "Ġrespectively": 23251,
    "Ġleaping": 8341,
    "Ġforced": 4351,
    "distant": 13338,
    "?": 35,
    "Ġshade": 6552,
    "Ġincant": 18569,
    "enty": 2917,
    "Ġinsulted": 14995,
    "/`": 12433,
    "Ġinjunction": 19620,
    "Ġprosperity": 20260,
    "iscuit": 10601,
    "Ġtyph": 10011,
    "B": 38,
    "advent": 10223,
    "aked": 2015,
    "delirium": 14788,
    "isive": 10795,
    "Ġfeasible": 22208,
    "_âĢĶ": 11469,
    "Ġdrowsy": 26446,
    "kles": 17586,
    "Ġsincer": 13070,
    "duodecimo": 16005,
    "quin": 21857,
    "towns": 24855,
    "romed": 10907,
    "terrible": 8468,
    "ackinaw": 22429,
    "Ġfarm": 7840,
    "Ġaim": 10148,
    "Ġdegrad": 2588,
    "ice": 587,
    "Ġpen": 1535,
    "Ġbearded": 15731,
    "Ġboxes": 13377,
    "unvarying": 21891,
    "Ġperpetual": 12307,
    "ful": 666,
    "angu": 569,
    "involved": 25627,
    "Ġapr": 12537,
    "Ġsimulates": 2741,
    "orte": 14187,
    "deprived": 19900,
    "Ġfitted": 6245,
    "Ġeconomical": 25288,
    "ould": 428,
    "itz": 6007,
    "ira": 3957,
    "ifle": 10893,
    "Ġmiseries": 10349,
    "Ġfamed": 16330,
    "Ġsulky": 13517,
    "Ġglobal": 2369,
    "Ġinnocently": 24034,
    "Ġimpetus": 25570,
    "Ġpassionate": 11275,
    "Ľ": 254,
    "Ġmansion": 17811,
    "sh": 641,
    "Ġfolly": 7941,
    "Ġwrithing": 11950,
    "Ġamounted": 18512,
    "Ġskirting": 22800,
    "strong": 6324,
    "movement": 25578,
    "multiple": 15111,
    "Ġassured": 4371,
    "Ġprecautions": 23730,
    "Ġinvisibly": 24814,
    "revealed": 20419,
    "oper": 7347,
    "Ġpauper": 26180,
    "abated": 14022,
    "mockery": 24378,
    "supplemental": 25875,
    "let": 2735,
    "inting": 9817,
    "Ġresume": 18566,
    "Ġdeserve": 8309,
    "Ġworldly": 16333,
    "Ġsidelong": 11440,
    "Ġtight": 8108,
    "Ġghast": 9213,
    "Ġstupidity": 15053,
    "madam": 24421,
    "uction": 15446,
    "Ġsne": 6373,
    "orton": 11760,
    "Ġclings": 15970,
    "Ġside": 1385,
    "beg": 22491,
    "Ġspoke": 2749,
    "Ġdomains": 6614,
    "Ġcoffins": 13255,
    "geons": 15983,
    "Ġnick": 21526,
    "described": 18896,
    "Ġloathed": 15879,
    "Ġapartments": 19617,
    "Ġpence": 17907,
    "Ġwhelm": 25999,
    "Ġjupiter": 17459,
    "Ġpumping": 25644,
    "Ġbracelets": 25503,
    "aract": 17896,
    "Ġunsuccessful": 18258,
    "religion": 20578,
    "Ġcond": 3873,
    "Ġpairs": 4183,
    "remed": 18955,
    "determined": 9083,
    "Ġfairly": 6327,
    "fer": 1927,
    "Ġsubsequent": 7659,
    "Ġtwinkle": 12327,
    "str": 2576,
    "Ġopenness": 18959,
    "scence": 14422,
    "enjoyments": 25434,
    "amidst": 25653,
    "Ġexamined": 6336,
    "Ġagreeing": 20022,
    "goin": 23406,
    "Ġwast": 21864,
    "jac": 8382,
    "shell": 16287,
    "Ġberg": 24536,
    "zeal": 16293,
    "Ġkrus": 18350,
    "alle": 1292,
    "umphed": 23521,
    "Ġlevi": 3035,
    "ners": 3273,
    "sentence": 2942,
    "aken": 1869,
    "Ġmeekly": 26492,
    "Ġconfidential": 9092,
    "Ġconcealed": 7495,
    "ier": 1133,
    "Ġmishap": 20579,
    "Ġremem": 4312,
    "asmuch": 10197,
    "Ġdecember": 15009,
    "Ġstraining": 11329,
    "condition": 7061,
    "Ġconfidently": 24958,
    "Ġcomo": 21846,
    "Ġinfernal": 11965,
    "Ġmeasuring": 22883,
    "Ġfinancial": 23131,
    "Ġethere": 23954,
    "Ġbarbs": 10534,
    "buttoned": 13635,
    "Ġerrors": 2595,
    "sail": 3604,
    "enc": 7574,
    "Ġyoungest": 7954,
    "databases": 3025,
    "Ġdelic": 4136,
    "lic": 17589,
    "è": 169,
    "Ġwhipping": 21719,
    "mology": 12496,
    "luent": 16000,
    "positive": 20570,
    "Ġlatin": 16823,
    "Ġwise": 6812,
    "Ġprocessing": 886,
    "uine": 13801,
    "Ġinteresting": 4324,
    "mystic": 25317,
    "Ġprayers": 12128,
    "mense": 4781,
    "Ġclever": 7056,
    "Ġblanc": 11067,
    "Ġjavan": 25000,
    "Ġnarrating": 24351,
    "Ġdeliciousness": 24129,
    "Ġencaps": 12967,
    "Ġyield": 5093,
    "ĕ": 214,
    "Ġperished": 11784,
    "Ġdo": 511,
    "ilty": 6395,
    "Ġbrut": 18770,
    "Ġphenomenon": 17919,
    "Ġeaster": 15679,
    "U": 57,
    "Ġof": 298,
    "rior": 12747,
    "Ġprovision": 14828,
    "Ġstru": 2171,
    "Ġmiddle": 4140,
    "natured": 7112,
    "ington": 21304,
    "cons": 4308,
    "Ġeconomically": 25289,
    "Ġdivined": 19447,
    "somebody": 14567,
    "conced": 22472,
    "Ġintegration": 9871,
    "strip": 19833,
    "maker": 12497,
    "Ġaccomplishments": 13382,
    "Ġoutrid": 22319,
    "Ġharvard": 24574,
    "umbers": 10920,
    "dirty": 20836,
    "usually": 10288,
    "Ġmol": 12566,
    "Ġwards": 17791,
    "Ġbraw": 23838,
    "tremendous": 20676,
    "using": 5468,
    "Ġimproved": 7657,
    "estate": 12826,
    "Ġimmeas": 18332,
    "Ġcompatibility": 2961,
    "Ġsuspected": 9066,
    "Ġhastily": 5763,
    "Ġsuffers": 2975,
    "charitable": 23936,
    "meaning": 2909,
    "Ġoaks": 16935,
    "Ġla": 5914,
    "Ġstre": 2109,
    "nurs": 21001,
    "aff": 3104,
    "Ġstrand": 11832,
    "Ġbeggar": 9353,
    "Ġintolerable": 8484,
    "Ġlitter": 19832,
    "Ġtropical": 17066,
    "Ġarticles": 7110,
    "Ġnotwithstanding": 9717,
    "Ġgovern": 10452,
    "rated": 6229,
    "Ġexponentiating": 3446,
    "attering": 7420,
    "E": 41,
    "tles": 10732,
    "ters": 1575,
    "Ġwarb": 17789,
    "Ġost": 9652,
    "Ġeleven": 9394,
    "Ġcontinent": 14891,
    "Ġscarce": 8625,
    "Ġsinners": 18952,
    "consult": 24172,
    "Ġvisits": 8223,
    "Ġviciously": 24404,
    "Ġrecollect": 8310,
    "cou": 13698,
    "flowing": 14574,
    "Ġbeginning": 4243,
    "Ġworshipped": 25692,
    "Ġcontentment": 14873,
    "Ġ1820": 25718,
    "Ġtied": 7357,
    "sided": 17666,
    "took": 6166,
    "Ġadvers": 4888,
    "lot": 3211,
    "wam": 10138,
    "Ġcontinental": 19708,
    "wl": 17704,
    "fancy": 7337,
    "seat": 18128,
    "Ġrallied": 14098,
    "Ġfiddle": 25445,
    "boat": 3363,
    "type": 16180,
    "Ġlighter": 12658,
    "pure": 17628,
    "Ġpeeped": 10015,
    "pleasant": 5876,
    "Ġsolicitude": 10043,
    "Ġmeasureless": 14713,
    "anel": 21360,
    "prop": 1046,
    "agged": 9241,
    "Ġengland": 3856,
    "Ġplanisphere": 26609,
    "Ġvane": 22875,
    "possessed": 9531,
    "out": 467,
    "Ġrecomm": 4996,
    "Ġwin": 9644,
    "ree": 872,
    "ium": 4865,
    "Ġhempen": 13553,
    "Ġmastery": 23999,
    "outside": 12809,
    "ama": 11682,
    "Ġanother": 1737,
    "Ġfasting": 16359,
    "Ġcompetition": 14269,
    "Ġointment": 21329,
    "why": 2831,
    "whel": 7665,
    "Ġunparalleled": 15857,
    "cork": 20798,
    "Ġbrawny": 13616,
    "Ġstoner": 7179,
    "Ġbaboon": 19696,
    "done": 6501,
    "ainty": 21791,
    "big": 13688,
    "athom": 12944,
    "Ġincomplete": 17211,
    "Ġnursery": 19753,
    "Ġmann": 18417,
    "Ġboldness": 24428,
    "Ġaided": 17747,
    "attacks": 23125,
    "Ġdespatched": 23833,
    "Ġflattered": 10377,
    "Ġjon": 15952,
    "inde": 17733,
    "ophisticated": 22482,
    "Ġbath": 9661,
    "buffalo": 20566,
    "attain": 21264,
    "Ġgenerations": 10966,
    "Ġcommenced": 8534,
    "icket": 22671,
    "caves": 20818,
    "Ġfowler": 16939,
    "Ġsordid": 26424,
    "unnecessary": 21884,
    "Ġhorrify": 23822,
    "Ġunsupp": 22025,
    "und": 4119,
    "Ġconfed": 13101,
    "ç": 168,
    "Ġworthy": 7241,
    "Ġdad": 12605,
    "Ġseclusion": 18209,
    "Ġpled": 17909,
    "Ġsuddenness": 23385,
    "Ġdir": 21424,
    "Ġaccidents": 10298,
    "stirring": 20429,
    "Ġcolouring": 16753,
    "Ġcutting": 4983,
    "Ġparading": 23713,
    "Ġconv": 2971,
    "Ġdeposition": 18612,
    "spears": 23945,
    "Ġvehicles": 10662,
    "Ġtomb": 8812,
    "Ġmultiplication": 2873,
    "waiter": 24587,
    "fins": 13721,
    "mpus": 13759,
    "Ġtarshish": 12033,
    "Ġrefresh": 10348,
    "Ġdisgracing": 26257,
    "Ġbengal": 18784,
    "octial": 20008,
    "Ġfluffy": 19367,
    "Ġfish": 2711,
    "Ġsenseless": 12083,
    "Ġcompat": 2941,
    "Ġsandwich": 19831,
    "unicorn": 21893,
    "Ġwillingly": 8888,
    "Ġadmiring": 16482,
    "Ġtig": 13815,
    "Ġexcel": 3568,
    "Ġsweetness": 9451,
    "iquet": 17577,
    "arded": 5029,
    "Ġfeathers": 15123,
    "Ġhammer": 6095,
    "Ġacquaint": 13048,
    "Ġitself": 2519,
    "esty": 4305,
    "sm": 3436,
    "Ġunexplored": 26520,
    "pre": 649,
    "Ġglaciers": 20176,
    "Ġsummoning": 23877,
    "constable": 24606,
    "Ġjudges": 14687,
    "ientious": 11695,
    "Ġapplications": 4784,
    "Ġcompan": 2174,
    "Ġtails": 9905,
    "Ġstiffness": 24828,
    "_.": 2212,
    "Ġfishing": 9665,
    "unwho": 21881,
    "Ġinfrequent": 3823,
    "ĠĠĠĠĠĠĠĠĠĠ": 18578,
    "contempt": 13191,
    "Ġshoot": 11163,
    "alarmed": 21506,
    "quod": 2166,
    "Ġdefect": 8557,
    "reputation": 15518,
    "Ġutilize": 4799,
    "Ġinstincts": 16988,
    "jewell": 25524,
    "mur": 5428,
    "eel": 11486,
    "Ġrosings": 4608,
    "Ġwhales": 1827,
    "Ġwoman": 2386,
    "Ġconcussion": 26301,
    "Ġresolve": 13173,
    "Ġprofounder": 23571,
    "Ġcorrid": 9827,
    "ccarthy": 4889,
    "Ġcoarsely": 25830,
    "Ġcan": 468,
    "iam": 2506,
    "Ġdelicately": 24128,
    "Ġcooped": 22584,
    "Ġcele": 9903,
    "lections": 4753,
    "ination": 2914,
    "thes": 7391,
    "Ġrepute": 18037,
    "f": 74,
    "Ġcretan": 22728,
    "cannon": 22967,
    "Ġlan": 5821,
    "Ġaside": 5234,
    "Ġchain": 1843,
    "featured": 24051,
    "Ġbad": 3986,
    "Ġlobes": 22119,
    "Ġgodfre": 14531,
    "inces": 13830,
    "Ġche": 1762,
    "habit": 16192,
    "abb": 15743,
    "claps": 23154,
    "Ġdegenerating": 25800,
    "Ġimplicate": 24877,
    "Ġdesponding": 25869,
    "ohn": 4560,
    "Ġfashion": 4297,
    "hammered": 19006,
    "Ġproport": 2298,
    "Ġra": 806,
    "immortal": 21713,
    "Ġate": 8844,
    "Ġeluded": 12927,
    "lower": 8884,
    "intellect": 18822,
    "Ġchiselled": 25560,
    "Ġbrooded": 23107,
    "Ġdesign": 4134,
    "Ġstanding": 3000,
    "Ġcommis": 22674,
    "Ġfist": 21407,
    "ignific": 11961,
    "Ġbitterest": 12406,
    "Ġscrib": 22287,
    "Ġimproves": 22752,
    "Ġdebility": 24275,
    "ineer": 11705,
    "kovoko": 20672,
    "Ġelevates": 24503,
    "Ġlur": 5226,
    "Ġspurned": 12802,
    "Ġnowadays": 18546,
    "fair": 10095,
    "assault": 22310,
    "Ġcup": 5697,
    "Ġpages": 15612,
    "Ġrepe": 3282,
    "Ġbressed": 21390,
    "Ġswash": 23058,
    "iloqu": 11651,
    "autumn": 23345,
    "don": 3545,
    "Ġaccess": 9750,
    "Ġplaguy": 22608,
    "astrop": 3318,
    "Ġfat": 3461,
    "Ġspeak": 2228,
    "maltese": 24794,
    "Ġdrugg": 17122,
    "Ġdefici": 22945,
    "Ġsailors": 4276,
    "ead": 2598,
    "Ġroot": 2649,
    "Ġrec": 910,
    "Ġcouples": 16854,
    "cases": 12452,
    "Ġfortitude": 9888,
    "Ġclaret": 22360,
    "Ġcyn": 13888,
    "unt": 2045,
    "Ġpretence": 13210,
    "ª": 108,
    "Ġundoubted": 19517,
    "Ġextremities": 19197,
    "Ġenclosure": 20629,
    "contain": 18501,
    "Ġpublic": 4331,
    "gle": 20871,
    "indeed": 4487,
    "hro": 20893,
    "Ġpopulation": 16829,
    "Ġyarman": 12710,
    "Ġgenteel": 19984,
    "bingleys": 19637,
    "Ġpetticoat": 15299,
    "followed": 8339,
    "Ġplainly": 4381,
    "anthrop": 17385,
    "Ġirritated": 17244,
    "ured": 1655,
    "Ġretrieval": 10677,
    "Ġindex": 17050,
    "Ġcam": 10164,
    "Ġundertake": 14480,
    "idity": 8835,
    "Ġhadn": 9722,
    "Ġgardener": 19136,
    "weekly": 25685,
    "prit": 19345,
    "oided": 11511,
    "Ġroundabout": 23064,
    "Ġheeds": 24520,
    "Ġdozen": 8186,
    "Ġlexic": 15722,
    "Ġgemin": 21613,
    "Ġwill": 678,
    "Ġcrumbs": 19124,
    "Ġportable": 19373,
    "Ġclothed": 19609,
    "Ġgrievous": 13265,
    "Ġmischie": 22762,
    "allah": 5839,
    "resides": 23675,
    "Ġoffensive": 18692,
    "Ġagree": 7647,
    "philosophy": 13583,
    "Ġawkwardness": 13490,
    "Ġdru": 8423,
    "specimen": 26607,
    "rog": 15644,
    "Ġfairy": 14629,
    "doub": 6225,
    "Ġlaying": 7908,
    "porpoise": 16437,
    "emed": 3381,
    "Ġasse": 8160,
    "Ġseem": 913,
    "Ġthrusting": 10555,
    "Ġlanguage": 647,
    "Ġimpose": 22397,
    "conv": 7213,
    "Ġstrangeness": 16706,
    "killing": 20944,
    "Ġbig": 5806,
    "Ġthin": 4346,
    "rations": 10725,
    "Ġillustrate": 25068,
    "west": 10741,
    "Ġruefully": 17304,
    "mathemat": 19139,
    "whales": 5187,
    "Ġgoal": 10304,
    "Ġarabian": 9094,
    "sus": 6230,
    "Ġop": 2601,
    "Ġbefitting": 15730,
    "historical": 20469,
    "ipotence": 22351,
    "Ġdanish": 21434,
    "rength": 4102,
    "Ġwont": 9855,
    "Ġabundantly": 17159,
    "Ġsteepest": 3088,
    "range": 3496,
    "Ġequival": 4785,
    "Ī": 235,
    "Ġfatally": 19397,
    "Ġbeseeching": 26312,
    "ogene": 18677,
    "Ġgipsies": 12412,
    "Ġmaids": 19694,
    "Ġperemptory": 25741,
    "wore": 21127,
    "Ġlink": 8130,
    "Ġsymphony": 26534,
    "darted": 20834,
    "Ġcabinet": 23864,
    "Ġcolours": 12978,
    "Ġexpl": 488,
    "Ġabsent": 7016,
    "envelope": 17784,
    "Ġconfident": 11140,
    "Ġ221": 25071,
    "clim": 18932,
    "Ġacquitted": 18899,
    "Ġdisordered": 16059,
    "Ġclin": 14204,
    "Ġphantoms": 13489,
    "foundered": 20869,
    "Ġserpent": 6739,
    "Ġdisclose": 16161,
    "Ġvertebra": 20184,
    "Ġclipping": 2438,
    "opolising": 25677,
    "Ġchisel": 20371,
    "Ġrespons": 2684,
    "Ġantichronical": 26611,
    "permitted": 18344,
    "ì": 173,
    "Ġinnovative": 1525,
    "Ġstudious": 23242,
    "Ġsand": 6237,
    "Ġoccupant": 16654,
    "Ġdisobedience": 22539,
    "Ġstartled": 7084,
    "ape": 1906,
    "Ġwooded": 23524,
    "serv": 7451,
    "ash": 1992,
    "ux": 7813,
    "outon": 12808,
    "personal": 24966,
    "Ġanger": 5442,
    "Ġconnections": 973,
    "Ġsticks": 14934,
    "Ġbulls": 23861,
    "Ġmission": 13010,
    "Ġtashtego": 4486,
    "Ġstreng": 18076,
    "may": 3682,
    "Ġmob": 16021,
    "handled": 19263,
    "etieth": 21587,
    "onts": 15522,
    "head": 1436,
    "Ġdungeon": 16998,
    "Ġfired": 16158,
    "Ġven": 4649,
    "offing": 23337,
    "Ġplentiful": 12916,
    "vings": 9754,
    "Ġenterprise": 8645,
    "Ġal": 342,
    "asting": 12811,
    "Ġunfolding": 17087,
    "Ġboat": 1277,
    "construction": 19781,
    "Ġneeded": 7718,
    "uberance": 25917,
    "Ġagile": 22517,
    "Ġpauses": 14818,
    "Ġpatronage": 17054,
    "help": 1477,
    "careful": 14869,
    "Ġquakers": 22420,
    "occurrences": 26333,
    "Ġres": 697,
    "Ġundertaking": 8577,
    "Ġdevoutly": 25834,
    "Ġchaplain": 19914,
    "opÃ¦": 12879,
    "Ġtry": 3137,
    "Ġsherlock": 3891,
    "agon": 7871,
    "Ġobe": 5801,
    "Ġunass": 14117,
    "Ġdim": 4758,
    "Ġregiment": 6433,
    "Ġcollins": 2182,
    "Ġforgiveness": 16659,
    "Ġintervened": 25482,
    "Ġstopped": 5958,
    "Ġswain": 18881,
    "Ġpervers": 11783,
    "Ġdisagreeable": 9302,
    "sheets": 14445,
    "narrow": 11510,
    "âĢĶ.": 11759,
    "Ġsuav": 22079,
    "doctor": 19097,
    "À": 129,
    "ag": 377,
    "leads": 21373,
    "diversity": 25898,
    "ening": 3107,
    "ix": 1798,
    "Ġmachines": 1776,
    "Ġadversarial": 5607,
    "Ġsummary": 19406,
    "Ġemerging": 24613,
    "Ġgrate": 12968,
    "Ġconfession": 11237,
    "Ġtransplanted": 22445,
    "Ġdiscu": 4362,
    "Ġneglected": 10380,
    "Ġplaying": 6909,
    "anzas": 17842,
    "Ġmamm": 25093,
    "Ġilluminate": 17195,
    "sky": 12515,
    "É": 138,
    "Ġadversary": 12178,
    "Ġcostly": 23586,
    "Ġfogs": 25283,
    "Ġcontemplative": 19895,
    "Ġquite": 1740,
    "Ġdaft": 19666,
    "Ġembarrassed": 11386,
    "Ġmethodic": 23181,
    "azing": 7705,
    "Ġseasonable": 24406,
    "conclusion": 25672,
    "invol": 12535,
    "pike": 11517,
    "Ġtahitian": 25428,
    "Ġcareful": 2611,
    "falsehood": 25902,
    "Ġturnkeys": 23032,
    "Ġspiced": 22137,
    "ston": 15687,
    "Ġoverseeing": 22367,
    "ceed": 1076,
    "Ġvesture": 20065,
    "oubted": 5861,
    "Ġcircumn": 11988,
    "Ġbal": 1129,
    "Ġunjustly": 17129,
    "prophecy": 22855,
    "Ġcaravan": 26292,
    "Ġrat": 4352,
    "limping": 26395,
    "Ġseeking": 7037,
    "accurately": 25862,
    "Ġutterly": 6102,
    "iar": 2377,
    "Ġ36": 14771,
    "cient": 4570,
    "Ġfavourite": 5271,
    "Ġclapping": 14206,
    "Ġbuying": 24002,
    "Ġplausible": 26555,
    "forgotten": 12420,
    "despond": 19803,
    "trifling": 19417,
    "Ġindians": 14412,
    "Ġinsurg": 23684,
    "Ġvort": 18194,
    "Ġeh": 6988,
    "Ġdegraded": 19228,
    "Ġsalisbury": 24067,
    "Ġpregnant": 26537,
    "Ġheaving": 7601,
    "Ġface": 1723,
    "rad": 2154,
    "Ġdividing": 12116,
    "az": 2183,
    "Ġrats": 21977,
    "ress": 928,
    "Ġsoftly": 7948,
    "usations": 15951,
    "inions": 8403,
    "Ġhesitating": 16949,
    "breast": 11247,
    "ĠâĢĶâĢľ_": 17720,
    "Ġprediction": 2245,
    "stranded": 19226,
    "Ġcetacean": 25879,
    "eous": 13714,
    "Ġadvoc": 12997,
    "Ġinconven": 7587,
    "Ġaudacity": 19884,
    "Ġpanelled": 19657,
    "Ġeternally": 11371,
    "behind": 6780,
    "diff": 9117,
    "Ġinfluenced": 19635,
    "send": 15426,
    "Ġmab": 12565,
    "rock": 15645,
    "Ġdecl": 3590,
    "umbrance": 22122,
    "unhappy": 10240,
    "Ġstagger": 10594,
    "lessness": 5318,
    "Ġquarrel": 7292,
    "Ġvacancies": 24345,
    "Ġforesaw": 19128,
    "Ġbrisk": 9806,
    "Ġsorely": 17259,
    "Ġ1": 1017,
    "Ġweary": 5635,
    "its": 1147,
    "Ġpeaceful": 9461,
    "Ġhartshorn": 26182,
    "miseries": 16759,
    "Ġbuild": 6475,
    "dozen": 23381,
    "sake": 13785,
    "!âĢĻâĢĿ": 16594,
    "ores": 2413,
    "Ġexchange": 15758,
    "Ġneville": 7399,
    "dipped": 20839,
    "Ġinvested": 7279,
    "hunted": 16834,
    "Ġphysical": 7522,
    "drink": 10598,
    "Ġunp": 12777,
    "supers": 22644,
    "agings": 18168,
    "hair": 9126,
    "Ġxxii": 24478,
    "distraction": 24203,
    "pennies": 26287,
    "sings": 4251,
    "Ġfidget": 15193,
    "carte": 25401,
    "Ġfactory": 23279,
    "Ġbenevol": 5963,
    "Ġreceptacle": 23195,
    "Ġleisure": 6541,
    "fortun": 3540,
    "hob": 20902,
    "pol": 5894,
    "Ġtinted": 13824,
    "Ġbeaufort": 13571,
    "Ġsensitive": 13202,
    "Ġfru": 8421,
    "infliction": 25925,
    "Ġdante": 21441,
    "opening": 10315,
    "ifice": 7199,
    "Ġisa": 14027,
    "Ġloos": 15875,
    "----âĢĻ": 24102,
    "abbering": 21800,
    "Ġwhim": 14001,
    "loops": 12888,
    "Ġ1869": 19387,
    "Ġson": 2984,
    "Ġboneless": 19608,
    "Ġsporting": 17001,
    "Ġsuppressing": 23004,
    "Ġcharm": 4547,
    "imely": 14000,
    "taken": 7560,
    "Ġtying": 15476,
    "iness": 1280,
    "Ġarc": 14161,
    "Ġrode": 16002,
    "Ġinvariably": 8064,
    "Ġpip": 1602,
    "activity": 22634,
    "Ġattorney": 18627,
    "robust": 19731,
    "Ġcase": 1941,
    "didn": 9010,
    "Ġinsomuch": 23686,
    "Ġcrime": 4618,
    "Ġpraise": 6487,
    "composure": 23992,
    "Ġharpo": 1943,
    "Ġacknowledged": 7534,
    "Ġundeniable": 26512,
    "respond": 12549,
    "Ġvoid": 14089,
    "ishing": 1143,
    "fol": 4863,
    "impart": 21712,
    "Ġfacilitate": 26099,
    "mises": 20980,
    "corpse": 24486,
    "Ġrecollected": 8311,
    "immediately": 10052,
    "acquainted": 7313,
    "Ġgeor": 3388,
    "Ġpricking": 23220,
    "Ġbelshazzar": 16229,
    "suit": 18632,
    "Ġcontents": 7210,
    "Ġus": 499,
    "Ġescaped": 6460,
    "Ġdisp": 3360,
    "police": 10586,
    "ron": 5216,
    "uv": 6231,
    "Ġembarkation": 25125,
    "Ġseeing": 2887,
    "sized": 15431,
    "jephro": 26394,
    "Ġsympat": 13344,
    "Ġapplied": 6188,
    "Ġcomprehen": 5350,
    "Ġdeaden": 23464,
    "collar": 19330,
    "possesses": 24617,
    "braces": 24659,
    "Ġschooner": 16749,
    "Ġencouragement": 13046,
    "Ġindiscreet": 22959,
    "risonment": 17378,
    "conjectured": 25182,
    "blown": 25202,
    "Ġhardware": 4905,
    "Ġparticip": 16135,
    "Ġapparel": 20439,
    "mansion": 20985,
    "±": 114,
    "Ġholland": 10368,
    "tains": 10964,
    "society": 9975,
    "Ġfind": 1456,
    "Ġwhitney": 11375,
    "Ġchaff": 18384,
    "mpt": 6656,
    "sailed": 17668,
    "itting": 1149,
    "Ġcaptiv": 16258,
    "histor": 13494,
    "Ġtapering": 8775,
    "things": 6034,
    "benevolent": 15237,
    "assistant": 25568,
    "Ġwarmth": 6905,
    "oglyph": 11020,
    "Ġsaville": 15893,
    "Ġwidows": 24239,
    "reached": 13843,
    "silly": 24422,
    "icted": 5938,
    "Ġbag": 5699,
    "Ġvisited": 5949,
    "Ġherbage": 25997,
    "Ġyellow": 5302,
    "Ġdegree": 3706,
    "Ġshouldn": 14328,
    "Ġbash": 12591,
    "Ġender": 11694,
    "Ġfleets": 23777,
    "Ġdens": 21427,
    "mouse": 15396,
    "Ġvigorous": 10569,
    "third": 8168,
    "Ġcents": 17830,
    "morning": 4860,
    "Ġlack": 17966,
    "heaven": 8053,
    "Ġring": 4451,
    "Ġnocturnal": 20717,
    "Ġannum": 24206,
    "armed": 7251,
    "marked": 9052,
    "violent": 14582,
    "Ġprejudice": 9079,
    "haust": 5777,
    "uracy": 1062,
    "ription": 5676,
    "Ġlangsdorff": 15279,
    "Ġfejee": 18354,
    "Ġindelicacy": 25696,
    "Ġconsp": 10228,
    "Ġampl": 22484,
[...]
