{
  "metadata": {
    "vocab_size": 26614,
    "algorithm": "BPE",
    "created_at": "2026-08-08 03:22:59",
    "special_tokens": [
      "<PAD>",
      "<SOS>",
      "<EOS>",
      "<UNK>",
      "<MASK>"
    ]
  },
  "vocab": {
    "attest": 23116,
    "romised": 14111,
    "nd": 11503,
    "Ġmud": 11572,
    "reeable": 3612,
    "ensed": 10995,
    "throwing": 11701,
    "apart": 15960,
    "Ġdam": 2214,
    "regarded": 12006,
    "Ġlod": 4045,
    "convalescence": 24884,
    "billiard": 25334,
    "also": 7850,
    "Ġrate": 1064,
    "Ġsires": 21225,
    "Ġbequeathed": 20700,
    "Ġspread": 5161,
    "meant": 7920,
    "Ġthousand": 2779,
    "Ġlowest": 11122,
    "Ġjet": 5307,
    "flask": 12097,
    "otions": 7180,
    "ĠĠĠĠĠĠĠĠĠĠ": 18577,
    "Ġrumpled": 24600,
    "Ġcontortions": 18476,
    "v": 90,
    "ð": 177,
    "Ġfrontispiece": 23911,
    "Ġfluid": 11212,
    "Ġcast": 3605,
    "net": 1195,
    "Ġspouted": 14674,
    "arling": 10814,
    "Ġresentment": 7530,
    "Ġ129": 24474,
    "Ġ[": 6967,
    "Ġsli": 4748,
    "Ġcommonplace": 11096,
    "Ġfrigate": 13080,
    "Ġfollows": 7672,
    "g": 75,
    "onah": 3339,
    "Ġpistols": 17328,
    "Ġutmost": 5496,
    "wandering": 20283,
    "Ġinsignificant": 20455,
    "hilar": 25081,
    "Ġdrooping": 9419,
    ".âĢĶâĢľ": 20746,
    "iles": 2863,
    "pid": 1356,
    "Ġpeaceful": 9455,
    "Ġic": 9625,
    "Ġhearing": 4761,
    "Ġtantalizing": 20412,
    "Ġgorge": 13565,
    "Ġexpensive": 12914,
    "spouting": 25000,
    "hauled": 20667,
    "seals": 21815,
    "Ġdecline": 9286,
    "tram": 19634,
    "Ġaquiline": 26159,
    "Ě": 219,
    "shuff": 18487,
    "Ġdrawn": 4276,
    "12": 20748,
    "Ġproving": 15750,
    "Ġunctuousness": 17234,
    "wich": 11543,
    "Ġmacey": 12560,
    "ĠĠĠĠĠĠĠĠĠĠĠĠĠĠĠĠĠĠĠĠĠĠĠĠĠĠĠĠĠĠĠĠĠĠĠĠĠĠĠĠĠĠĠĠ": 12151,
    "gaze": 17557,
    "Ġrebounds": 25967,
    "Ġappalling": 8498,
    "lifted": 15385,
    "Ġsobs": 14134,
    "Ġstreet": 2958,
    "Ġviews": 7290,
    "Ġincorruption": 26309,
    "Ġabhor": 5467,
    "Ġmouldings": 24737,
    "Ġfurnishing": 16645,
    "lier": 20948,
    "Ġpers": 1418,
    "Ġsimon": 5172,
    "Ġdepresses": 25797,
    "Ġbehav": 3539,
    "Ġcapital": 7979,
    "Ġaustralia": 15231,
    "Ġtreats": 19342,
    "tt": 13789,
    "Ġunite": 9253,
    "published": 26142,
    "Ġrevenge": 5452,
    "coach": 23559,
    "Ġmu": 17795,
    "Ġdeft": 21833,
    "tossed": 10996,
    "Ġconflict": 17273,
    "Ġapparition": 8066,
    "ilent": 21717,
    "Ġagreement": 18542,
    "Ġdaft": 19662,
    "ahit": 9381,
    "Ġdividing": 12109,
    "Ġ50": 24319,
    "thirty": 12759,
    "Ġgross": 11624,
    "¶": 119,
    "Ġperforms": 11875,
    "greeting": 24554,
    "blasted": 20188,
    "Ġunfair": 19506,
    "precip": 14664,
    "adequ": 11020,
    "Ġcan": 469,
    "Ġcunning": 6238,
    "Ġaug": 6234,
    "Ġpersuading": 19408,
    "Ġnug": 21522,
    "Ġ(âĢľ": 15994,
    "Ġmodified": 14167,
    "Ġarrive": 6907,
    "running": 6797,
    "iancy": 13006,
    "Ġplacid": 11824,
    "Ġspasmod": 12412,
    "discern": 14850,
    "Ġbleak": 10558,
    "ineering": 21964,
    "Ġgiving": 4087,
    "Ġtackles": 8050,
    "Ġbathing": 20198,
    "Ġimag": 2676,
    "Ġlull": 15649,
    "Ġdistributed": 18661,
    "Ġrelationships": 2927,
    "Ġnewly": 9337,
    "Ġindependence": 12102,
    "Ġoriental": 9096,
    "Ġmiz": 10777,
    "Ġthine": 7374,
    "Ġfundament": 2928,
    "Ġgrass": 5177,
    "Ġtyros": 26101,
    "Ġruss": 18719,
    "flu": 9117,
    "ender": 9160,
    "bunger": 20400,
    "Ġbeheld": 4492,
    "Ġsquall": 7043,
    "Ġpremeditated": 22231,
    "postp": 24634,
    "Ġflip": 11911,
    "Ġemergencies": 17361,
    "Ġpopular": 6216,
    "Ġendeavoured": 4918,
    "bl": 4144,
    "ner": 1370,
    "Ġlomb": 21556,
    "Ġasse": 8159,
    "deaux": 22145,
    "ley": 1816,
    "couldn": 23715,
    "gave": 7799,
    "Ġmeeting": 5193,
    "Ġson": 2983,
    "Ġnav": 5818,
    "ssing": 3812,
    "whisper": 17083,
    "cloudless": 20331,
    "Ġdepart": 4656,
    "Ġcargo": 16288,
    "Ġunable": 4951,
    "Ġjupiter": 17455,
    "umbers": 10918,
    "Ġdeprec": 15756,
    "wont": 21131,
    "Ġwhoa": 22419,
    "Ġintegration": 9867,
    "apothe": 22331,
    "Ġvis": 1081,
    "Ġprom": 1525,
    "Ġranged": 10257,
    "appearance": 5333,
    "Ġvisits": 8222,
    "Ġtinged": 20081,
    "Ġadvance": 5484,
    "Ġunp": 12769,
    "Ġsubsc": 22786,
    "ult": 724,
    "Ġsitu": 3495,
    "Ġcranes": 20381,
    "anum": 17835,
    "Ġoar": 6236,
    "Ġii": 7385,
    "precious": 12070,
    "Ġwhims": 12689,
    "herds": 22200,
    "Ġfit": 3685,
    "Ġsaxe": 13627,
    "Ġadapted": 11038,
    "Ġchimer": 24602,
    "Ġbusy": 6189,
    "Ġsubjects": 7072,
    "Ġsemantic": 1956,
    "coun": 10686,
    "Ġswayed": 15047,
    "Ġreasonable": 7252,
    "Ġaye": 3354,
    "acey": 7649,
    "Ġcompared": 2226,
    "creator": 26381,
    "Ġpruning": 18970,
    "lim": 9606,
    "mant": 20964,
    ";âĢĻ": 15301,
    "Ġensu": 7874,
    "ception": 6562,
    "iracle": 11244,
    "Ġsteer": 10386,
    "databases": 3024,
    "Ġtranslations": 12050,
    "ã": 164,
    "Ġfeathers": 15118,
    "Ġpalms": 8643,
    "Ġquestioned": 14620,
    "._": 3221,
    "cely": 3574,
    "Ġlance": 4879,
    "Ġgrizz": 10351,
    "abetical": 15741,
    "Ġtags": 20570,
    "Ġfourteen": 12008,
    "Ġaccosted": 13671,
    "Ġsolicit": 22885,
    "Ġbolted": 12242,
    "Ġspecimens": 18858,
    "Ġspent": 3967,
    "Ġhyper": 19738,
    "Ġstr": 761,
    "ilege": 22255,
    "Ġidle": 8252,
    "algorith": 3258,
    "Ġholds": 7975,
    "Ġbart": 17857,
    "Ġmajority": 13291,
    "Ġmead": 8834,
    "Ġwhalemen": 3916,
    "2": 22,
    "whar": 15926,
    "Ġinattention": 17931,
    "Ġfathoms": 9083,
    "Ġeluc": 16111,
    "Ġgardens": 16453,
    "absolut": 8458,
    "é": 170,
    "Ġfallen": 5967,
    "Ġbuttons": 12778,
    "fishers": 24928,
    "Ġrefine": 2888,
    "Ġidol": 7467,
    "urg": 8141,
    "itably": 10782,
    "Ġsecuring": 11990,
    "pale": 13771,
    "Ġfurious": 10354,
    "Ġcurse": 7666,
    "Ġstrikes": 13180,
    "icide": 11617,
    "urred": 8448,
    "Ġchatting": 24747,
    "ement": 1499,
    "Ġdarkened": 16432,
    "Ġforgetting": 3437,
    "pronounce": 25192,
    "Ġroofs": 16985,
    "Ġbount": 15566,
    "Ġberth": 8679,
    "actions": 8906,
    "Ġsay": 934,
    "Ġthreaten": 24374,
    "Ġedges": 3828,
    "Ġnerves": 2629,
    "Ġcitations": 25437,
    "uss": 8763,
    "flesh": 13489,
    "Ġtradesmen": 17105,
    "Ġgreenwich": 19320,
    "iquet": 17575,
    "sively": 13785,
    "medi": 2630,
    "odecim": 9831,
    "Ġpassage": 3889,
    "aggra": 21903,
    "Ġadequate": 20307,
    "_âĢĶâĢĻ": 13681,
    "consult": 24169,
    "pence": 15409,
    "itudes": 3015,
    "Ġdistraction": 22503,
    "Ġdamp": 8263,
    "ullen": 8234,
    "Ġdimly": 9487,
    "plun": 15818,
    "Ġtant": 12522,
    "Ġsuccess": 3609,
    "begging": 22493,
    "Ġmod": 496,
    "narr": 12494,
    "Ġubiquitous": 26195,
    "sham": 9756,
    "Ġseething": 18201,
    "ating": 664,
    "pect": 1254,
    "scotland": 20526,
    "mist": 5686,
    "ckets": 6843,
    "Ġ117": 19696,
    "Ġbor": 5804,
    "Ġtorrid": 25032,
    "gence": 876,
    "Ġ1778": 25730,
    "Ġwhal": 5454,
    "Ġadm": 2400,
    "Ġglow": 7170,
    "Ġconsole": 8150,
    "Ġthumb": 6981,
    "Ġcasually": 25093,
    "Ġdishonoured": 20389,
    "Ġticking": 25033,
    "eteenth": 20156,
    "Ġstupendous": 20499,
    "Ġstreatham": 17448,
    "Ġunique": 12775,
    "loved": 14250,
    "voices": 21116,
    "learning": 2524,
    "Ġwork": 1376,
    "Ġwherever": 8523,
    "_.": 2210,
    "Ġmuch": 924,
    "ibly": 2996,
    "diff": 9113,
    "Ġcommentaries": 20159,
    "Ġvanishing": 1346,
    "ield": 2407,
    "Ġmouth": 3181,
    "uck": 1233,
    "Ġbecoming": 4396,
    "Ġconsid": 1813,
    "ught": 2750,
    "Ġnile": 21518,
    "Ġwhirling": 12246,
    "Ġsouth": 4911,
    "Ġcontrived": 10303,
    "Ġfaces": 6008,
    "Ġcolon": 18762,
    "partly": 14602,
    "Ġspy": 22120,
    "ferences": 10326,
    "ulsive": 10233,
    "Ġamend": 16034,
    "Ġshank": 21994,
    "Ġinvest": 4978,
    "Ġrespect": 1666,
    "Ġattempts": 10490,
    "Ġbriefly": 11367,
    "erranean": 9333,
    "ivial": 15861,
    "Ġarsac": 11740,
    "withdrawn": 23024,
    "Ġdiligent": 25075,
    "Ġdomestic": 6913,
    "Ġlimited": 23544,
    "trade": 19635,
    "shelf": 20379,
    "Ġsupernatural": 9872,
    "Ġinjurious": 24270,
    "Ġapplied": 6186,
    "Ġbo": 796,
    "Ġwit": 3844,
    "Ġvehicles": 10659,
    "Ġdowry": 20684,
    "Ġexact": 2542,
    "Ġneville": 7399,
    "Ġtool": 21508,
    "Ġensued": 11394,
    "ux": 7813,
    "Ġirregular": 9864,
    "lemency": 21372,
    "Ġbumps": 21390,
    "Ġchowders": 18386,
    "Ġaffords": 16734,
    "Ġhero": 5715,
    "pardonable": 17217,
    "slo": 17656,
    "Ġindividual": 5744,
    "again": 3400,
    "progression": 20380,
    "Ġspite": 4158,
    "asleep": 21541,
    "uel": 6966,
    "Ġrational": 8479,
    "Ġsmiling": 5474,
    "Ġsuperlatively": 26075,
    "cious": 6643,
    "Ġhagger": 21488,
    "inguished": 6598,
    "utch": 21583,
    "sweetly": 25134,
    "Ġcommend": 10334,
    "Ġpretty": 3864,
    "Ġsplin": 8618,
    "Ġstarts": 16582,
    "Ġphara": 23196,
    "uish": 5431,
    "Ġprecious": 5760,
    "Ġ26": 10470,
    "Ġisle": 8832,
    "Ġdared": 5440,
    "parameter": 2856,
    "recur": 4435,
    "speaks": 19718,
    "stolidity": 21660,
    "beryls": 25309,
    "Ġcircumnavigating": 25614,
    "Ġaberde": 22274,
    "ening": 3106,
    "Ġjanuary": 13652,
    "Ġtorture": 9064,
    "Ġadmit": 7710,
    "Ġpreliminaries": 25176,
    "Ġtho": 21511,
    "Ġhal": 1360,
    "commencement": 26347,
    "Ġnation": 12644,
    "pra": 15407,
    "self": 616,
    "hush": 20905,
    "Ġgladly": 14681,
    "sculpt": 16243,
    "Ġdraught": 9843,
    "Ġelusive": 22650,
    "Ġprecision": 13188,
    "Ġwithin": 2163,
    "¢": 100,
    "enchanted": 26424,
    "Ġvault": 8840,
    "sinking": 17668,
    "single": 10126,
    "convinced": 10622,
    "Ġrepining": 23358,
    "pleasant": 5874,
    "hun": 5210,
    "Ġmuttered": 7086,
    "represent": 9637,
    "Ġvalid": 1720,
    "Ġflint": 23008,
    "irresist": 21909,
    "Ġinconsistency": 26182,
    "ĠĠĠĠĠĠĠĠĠĠĠĠĠĠĠĠĠĠĠĠĠĠĠĠĠĠĠĠĠĠĠĠĠĠĠĠĠĠĠĠĠĠĠĠĠ": 9951,
    "Ġadvances": 12988,
    "Ġpant": 10817,
    "Ġstraightened": 12106,
    "Ġscr": 11758,
    "observed": 7674,
    "Ġtiles": 17726,
    "Ġ113": 19695,
    "helmsman": 24287,
    "aled": 3947,
    "acceptable": 25184,
    "Ġlatent": 19654,
    "Ġarrest": 7409,
    "pursuit": 20339,
    "Ġpals": 13917,
    "ppers": 7617,
    "corners": 17367,
    "vent": 682,
    "collecting": 26081,
    "Ġgen": 5296,
    "officers": 10627,
    "tles": 10730,
    "Ġcanterbury": 22163,
    "Ġdews": 21835,
    "aphys": 15200,
    "Ġglued": 20587,
    "respect": 6374,
    "Ġhorribly": 16341,
    "Ġsordid": 26422,
    "Ġmanaging": 22322,
    "aling": 1035,
    "indef": 17735,
    "shabbily": 26246,
    "gunpowder": 25339,
    "Ġdeposed": 16079,
    "Ġmorning": 1747,
    "Ġmichaelmas": 26374,
    "Ġwithdrew": 9695,
    "listen": 13513,
    "Ġmatch": 4528,
    "inative": 15484,
    "ulent": 21859,
    "Ġjuly": 17236,
    "Ġfiendish": 13326,
    "Ġscraggy": 24579,
    "Ġred": 3006,
    "Ġchap": 5933,
    "overspreading": 26139,
    "Ġsink": 4340,
    "Ġpuff": 6526,
    "Ġconfronted": 23305,
    "Ġbiting": 17861,
    "Ġsurmised": 24919,
    "Ġsullenly": 17172,
    "Ġscrewing": 20207,
    "Ġwrithed": 17106,
    "Ġstrands": 25574,
    "passenger": 24166,
    "high": 6649,
    "reement": 15511,
    "degree": 12798,
    "Ġislands": 6766,
    "ethe": 9676,
    "Ġmutual": 8296,
    "Ġmiseries": 10346,
    "gling": 10097,
    "Ġcru": 2824,
    "Ġtech": 1659,
    "Ġdisaster": 12884,
    "Ġyawned": 15051,
    "Ġadventures": 7747,
    "avo": 8517,
    "Ġsoldier": 16920,
    "Ġinsupportable": 13931,
    "Ġdictionaries": 12338,
    "Ġvirtue": 4922,
    "Ġshores": 8847,
    "Ġvac": 5025,
    "Ġwretch": 6378,
    "sle": 9138,
    "Ġshrill": 12139,
    "Ġplunging": 14951,
    "ortations": 22254,
    "lighter": 20958,
    "Ġdestructive": 23485,
    "Ġbackstays": 22657,
    "Ġowen": 15093,
    "Ġhoky": 17926,
    "Ġfails": 13312,
    "^": 66,
    "mas": 5212,
    "cases": 12445,
    "Ġlibrary": 6423,
    "Ġmainmast": 9778,
    "Ġtorment": 8673,
    "Ġern": 8396,
    "Ġbashaw": 25633,
    "Ġtallow": 14777,
    "Ġfloats": 9412,
    "new": 1464,
    "Ġrespecting": 14483,
    "awned": 19458,
    "Ġrepentance": 15159,
    "backs": 9390,
    "Ġcontention": 22423,
    "buckets": 26123,
    "Ġpreser": 6040,
    "pillar": 5619,
    "contrary": 23726,
    "Ġreconciled": 13586,
    "Ġnumerical": 4246,
    "strained": 21655,
    "Ġsavory": 23874,
    "Ġreckoned": 24744,
    "Ġpout": 17906,
    "Ġomen": 11575,
    "fat": 8078,
    "Ġtrance": 12841,
    "istle": 15869,
    "Ġconcise": 23319,
    "Ġfolds": 12204,
    "usage": 12830,
    "Ġfiddle": 25444,
    "clings": 23149,
    "Ġcalhoun": 23040,
    "Ġsenor": 20149,
    "shoals": 24717,
    "Ġquietly": 4566,
    "Ġdesperately": 24656,
    "Ġpeterson": 9482,
    "follows": 24528,
    "Ġspiteful": 19521,
    "chairs": 21690,
    "Ġcoop": 14269,
    "Ġmasterly": 23991,
    "veil": 18042,
    "Ġsulk": 15045,
    "capital": 15087,
    "hate": 20891,
    "Ġbenchmarks": 15021,
    "ĠĠĠĠĠĠĠĠĠĠĠĠĠĠ": 22560,
    "Ġrat": 4353,
    "Ġgash": 15669,
    "Ġclutches": 20016,
    "Ġfirm": 3874,
    "Ġdictated": 25218,
    "Ġreasonably": 11090,
    "Ġtruth": 3322,
    "itig": 1333,
    "Ġmalignant": 14877,
    "Ġaccumul": 1409,
    "Ġsleepy": 8267,
    "Ġimpaling": 22380,
    "Ġfoiled": 23243,
    "Ġroused": 7623,
    "opius": 18508,
    "Ġsends": 14789,
    "Ġpurposes": 11168,
    "bask": 20775,
    "ğ": 224,
    "contrivance": 26316,
    "ruff": 15896,
    "Ġsnuffed": 15071,
    "Ġacquies": 11097,
    "Ġissu": 6253,
    "fowl": 17549,
    "isters": 11917,
    "Ġbesides": 3513,
    "Ġattack": 5478,
    "deacon": 22144,
    "moreover": 12966,
    "Ġhousehold": 8567,
    "Ġillness": 8589,
    "Ġunhappily": 18262,
    "Ġentire": 2559,
    "accomplishment": 20222,
    "rist": 10122,
    "Ġentreaties": 9035,
    "Ġlounging": 10021,
    "Ġdoors": 6418,
    "Ġcircles": 7966,
    "Ġacquiring": 2765,
    "Ġpref": 14171,
    "Ġpresto": 22227,
    "Ġdestroying": 14728,
    "Ġcl": 555,
    "vely": 3870,
    "Ġfeat": 10937,
    "Ġsnatch": 14639,
    "precipitance": 25867,
    "Ġusefulness": 19406,
    "Ġoscill": 2859,
    "Ġfast": 1718,
    "Ġpupils": 20419,
    "verb": 10216,
    "Ġcursed": 6726,
    "Ġlatterly": 24085,
    "Ġhardware": 4904,
    "_).âĢĶ": 8681,
    "Ġdelightfully": 13157,
    "avern": 24792,
    "Ġarom": 15492,
    "Ġhorizontal": 7782,
    "Ġmin": 1027,
    "Ġhedge": 8363,
    "Ġfinery": 23122,
    "doubt": 6782,
    "Ġpict": 3499,
    "Ġloos": 15870,
    "Ġack": 5622,
    "Ġanticipatingly": 26102,
    "Ġcrater": 16439,
    "Ġforswe": 21771,
    "interest": 5421,
    "bows": 10081,
    "Ġsaucer": 20604,
    "Ġtrifle": 10601,
    "Ġdisgusting": 19893,
    "Ġdiscoverers": 26036,
    "Ġbetray": 7442,
    "Ġunspeak": 8850,
    "Ġspeedy": 11172,
    "etent": 10199,
    "Ġillustrious": 17109,
    "ġ": 226,
    "mariners": 19547,
    "Ġuniversal": 2232,
    "Ġdisdained": 15009,
    "vitiated": 25754,
    "Ġattent": 4360,
    "Ġcran": 11999,
    "iftings": 23224,
    "comfort": 5647,
    "indian": 11776,
    "Ġpoliteness": 8273,
    "Ġslices": 23162,
    "Ġblot": 9811,
    "coll": 23777,
    "turner": 19540,
    "Ġadorn": 12789,
    "raged": 9211,
    "admit": 18090,
    "connection": 18867,
    "rob": 5534,
    "Ġheroic": 14907,
    "unity": 4154,
    "Ġcontinuously": 23202,
    "Ġfade": 21405,
    "animate": 12574,
    "hills": 13735,
    "Ġhyperborean": 26339,
    "Å": 134,
    "cheerful": 13574,
    "lour": 15379,
    "library": 12996,
    "Ġmightiest": 12958,
    "Ġfogs": 25282,
    "vict": 11540,
    "Ġcapable": 5054,
    "Ġkeel": 6444,
    "Ġdeplored": 20503,
    "Ġleads": 12094,
    "Ġchronicle": 20227,
    "hunt": 20902,
    "Ġflood": 7715,
    "Ġqueer": 4478,
    "Ġprinted": 11947,
    "passage": 11261,
    "Ġ166": 25004,
    "Ġfl": 1280,
    "Ġpreliminary": 10056,
    "butter": 11783,
    "Ġjoined": 4563,
    "jug": 17580,
    "animation": 16979,
    "hampshire": 23262,
    "Ġpitch": 5767,
    "Ġmig": 13855,
    "strate": 12671,
    "reduced": 15804,
    "Ġvane": 22873,
    "assistant": 25567,
    "Ġcommunity": 19009,
    "folio": 10546,
    "apt": 721,
    "Ġalgorithm": 773,
    "Ġyarn": 10868,
    "Ġz": 1000,
    "Ġtransports": 24277,
    "!)": 10068,
    "laug": 10707,
    "smeer": 26147,
    "Ġbash": 12583,
    "Ġmodels": 762,
    "177": 20751,
    "Ġdiverse": 19208,
    "Ġunivers": 2125,
    "ĠĠĠĠĠĠĠ": 7632,
    "Ġtum": 5692,
    "}": 97,
    "horror": 13158,
    "Ġsweating": 16462,
    "Ġtread": 9408,
    "humoredly": 26324,
    "presbyter": 20616,
    "Ġvict": 3765,
    "Ġsensitive": 13198,
    "Ġlearns": 2644,
    "dramatic": 19383,
    "Ġembark": 8560,
    "Ġsecurity": 8977,
    "pents": 11512,
    "Ġc": 277,
    "Ġearnestness": 12123,
    "cy": 646,
    "Ġshine": 12763,
    "rations": 10723,
    "Ġacc": 573,
    "anted": 5027,
    "irst": 879,
    "Ġproject": 5546,
    "mathemat": 19137,
    "Ġlandless": 23377,
    "Ġquickly": 4242,
    "Ġtowering": 16739,
    "Ġfossil": 12385,
    "Ġchristianity": 19860,
    "Ġexistence": 4706,
    "embarrassed": 20595,
    "Ġtriumph": 5143,
    "Ġfamed": 16326,
    "have": 2058,
    "Ġzodiac": 16174,
    "Ġrome": 12153,
    "Ġdetest": 8500,
    "iven": 1237,
    "Ġrepresents": 4902,
    "Ġfreely": 7056,
    "Ġfrightful": 7735,
    "Ġfut": 15573,
    "Ġnoble": 3442,
    "Ġqueens": 16706,
    "Ġonset": 12707,
    "Ġcommand": 3324,
    "Ġentreat": 4509,
    "Ġcommercial": 22671,
    "abroad": 18108,
    "strike": 14948,
    "vari": 1514,
    "Ġgliding": 8559,
    "Ķ": 247,
    "Ġcatch": 4439,
    "Ġdams": 16456,
    "ineas": 15820,
    "Ġbowlines": 19321,
    "rows": 6442,
    "Ġforbear": 17121,
    "etymology": 14700,
    "Ġoccupied": 5272,
    "Ġlimbs": 5965,
    "Ġimmense": 4952,
    "mystic": 25316,
    "Ġlevel": 5020,
    "Ġtainted": 21169,
    "Ġdefile": 18823,
    "Ġshrine": 19530,
    "larger": 24202,
    "acting": 22627,
    "Ġhowever": 1305,
    "amp": 2604,
    "Ġenc": 966,
    "Ġhumorousness": 25377,
    "retirement": 23136,
    "bank": 10079,
    "Ġdial": 10810,
    "Ġincrust": 22547,
    "Ġfolks": 14425,
    "Ġdefinite": 11069,
    "Ġearth": 2852,
    "Ġarduous": 26529,
    "warrant": 21136,
    "Ġhelm": 5275,
    "Ġscore": 9737,
    "Ġindign": 6173,
    "ill": 447,
    "illating": 22104,
    "trifling": 19412,
    "Ġsavage": 4014,
    "adventure": 17233,
    "Ġprophesy": 26061,
    "needle": 20312,
    "Ġfocuses": 8649,
    "enjoyments": 25433,
    "quet": 6835,
    "Ġintersect": 22572,
    "Ġhost": 7068,
    "aping": 8193,
    "Ġdrove": 4984,
    "grace": 5846,
    "ilogue": 21721,
    "Ġglu": 15666,
    "zor": 15458,
    "Ġcovent": 16071,
    "Ġnupt": 13942,
    "Ġimpatience": 7509,
    "Ġblazing": 11894,
    "Ġclergy": 7642,
    "Ġnarratives": 24353,
    "shape": 10982,
    "Ġeye": 2277,
    "Ġunembarrassed": 22066,
    "Ġsuffoc": 18869,
    "coff": 9108,
    "ong": 536,
    "Ġunharmed": 15138,
    "Ġcrushed": 9422,
    "Ġdripping": 13146,
    "ther": 482,
    "Ġenabled": 9295,
    "Ġcobweb": 22581,
    "Ġsto": 1497,
    "Ġserpents": 13075,
    "oo": 7553,
    "Ġswap": 23047,
    "Ġseen": 1366,
    "known": 3567,
    "Ġsalt": 8016,
    "Ġlawy": 9454,
    "Ġequatorial": 13508,
    "Ġreflections": 5945,
    "looked": 6083,
    "Ġpossesses": 19350,
    "1775": 26378,
    "iour": 4040,
    "Ġ118": 19697,
    "cr": 4077,
    "ductive": 23933,
    "gies": 13725,
    "Ġmetallic": 19060,
    "Ġhes": 6250,
    "surf": 24212,
    "inqu": 6121,
    "Ġsolved": 8931,
    "Ġadmiring": 16480,
    "put": 414,
    "Ġmrs": 1465,
    "Ġlump": 21549,
    "ban": 9584,
    "amuse": 14051,
    "ouch": 2777,
    "uther": 8816,
    "Ġunintermitted": 26219,
    "Ġbedfellow": 16437,
    "Ġcontro": 1684,
    "ivided": 22083,
    "Ġstrugg": 3217,
    "abeth": 905,
    "meal": 22710,
    "arying": 9800,
    "ails": 6160,
    "delirium": 14784,
    "og": 857,
    "lands": 8240,
    "Ġproceed": 3244,
    "vens": 21111,
    "Ġbright": 3214,
    "Ġbery": 13897,
    "Ġexpectations": 13142,
    "Ġneuron": 1808,
    "respective": 19845,
    "Ġtransf": 22458,
    "Ġseas": 3079,
    "Ġsitting": 3604,
    "Ġrestrained": 16372,
    "Ġcronies": 23441,
    "bench": 16803,
    "Ġbreathless": 12167,
    "cies": 1814,
    "Ġpersian": 11099,
    "Ġstreaming": 19672,
    "violence": 16478,
    "Ġdownstairs": 11224,
    "wilful": 25086,
    "fatig": 17089,
    "Ġmerrily": 23729,
    "Ġbackwards": 12922,
    "frantic": 24283,
    "Ġostlers": 25276,
    "alization": 732,
    "Ġwarmer": 19185,
    "ription": 5676,
    "Ġrainy": 24341,
    "Ġflap": 14421,
    "Ġ102": 24410,
    "Ġbusily": 9384,
    "Ġimpetus": 25569,
    "Ġpart": 861,
    "ouse": 1193,
    "pur": 7806,
    "Ġwh": 328,
    "queequeg": 4334,
    "cules": 12389,
    "Ġwid": 4632,
    "Ġsustain": 10016,
    "Ġprair": 7746,
    "Ġhand": 860,
    "Ġdebated": 9040,
    "Ġleather": 7606,
    "Ġhope": 1788,
    "Ġtap": 12523,
    "Ġamusement": 8055,
    "Ġbooks": 4675,
    "roar": 17952,
    "Ġidiotic": 25588,
    "retrie": 18922,
    "ased": 1269,
    "remains": 10398,
    "yingly": 23055,
    "Ġdeparture": 6490,
    "Ġprudential": 17919,
    "ile": 521,
    "1": 21,
    "Ġfowler": 16937,
    "Ġheeds": 24520,
    "grained": 20882,
    "Ġcosy": 13130,
    "Ġanytime": 12882,
    "pervised": 1587,
    "Ġresponses": 23647,
    "Ġpowder": 11275,
    "elson": 16370,
    "Ġstandards": 19015,
    "Ġphenomenon": 17916,
    "Ġhere": 1090,
    "Ġmichael": 20678,
    "Ġunerring": 15846,
    "Ġpedro": 14994,
    "Ġinconvenience": 9563,
    "Ġinexpressible": 17332,
    "Ġdexterity": 25294,
    "Ġdisreputable": 22531,
    "Ġstraps": 19309,
    "Ġgambler": 26190,
    "dried": 20826,
    "Ġscratching": 20367,
    "Ġafter": 870,
    "Ġgrotes": 19562,
    "Ġreproachfully": 25251,
    "meetings": 20376,
    "imely": 13997,
    "Ġhails": 21947,
    "Ġhotel": 8650,
    "aye": 3659,
    "Ġberyl": 20488,
    "buffalo": 20562,
    "chambers": 25454,
    "Ġsmoking": 6429,
    "Ġsurvivors": 25732,
    "Ġthemselves": 3253,
    "see": 3046,
    "capting": 24039,
    "Ġhypocr": 19470,
    "Ġprayed": 16667,
    "Ġbroken": 3450,
    "traversed": 19638,
    "ivia": 22081,
    "Ġahoy": 12182,
    "Ġnone": 3224,
    "apsed": 6295,
    "Ġsleep": 2398,
    "Ġregulations": 18597,
    "oking": 4605,
    "Ġexcited": 5580,
    "Ġconjectured": 9996,
    "Ġanx": 3182,
    "orted": 4602,
    "ittingly": 18807,
    "Ġperverseness": 13653,
    "Ġshout": 4265,
    "dying": 10694,
    "Ġskrimshander": 22796,
    "Ġbachelor": 7786,
    "Ġboarders": 16600,
    "usation": 18401,
    "Ê": 139,
    "Ġshetland": 22156,
    "ersburgh": 18215,
    "zealand": 26049,
    "knows": 19171,
    "Ġeaten": 14844,
    "Ġfarmhouse": 24984,
    "Ġstole": 7952,
    "brill": 16491,
    "backpropagation": 11984,
    "Ġornamented": 20360,
    "grown": 10099,
    "Ġdiscipl": 22782,
    "gryphon": 15357,
    "Ġextravagant": 17278,
    "gaining": 20122,
    "er": 269,
    "Ġclosest": 16763,
    "Ġelectric": 15193,
    "fun": 3677,
    "Ġpacific": 5153,
    "Ġbrad": 8786,
    "Ġrecess": 10847,
    "Ġblew": 9045,
    "Ġautonom": 10416,
    "Ġvice": 6548,
    "Ġepoch": 26471,
    "Ġless": 1937,
    "bits": 17488,
    "Ġoverall": 4358,
    "Ġcapsized": 20088,
    "requirements": 24857,
    "Ġegypt": 9678,
    "fre": 5425,
    "Ġparting": 9783,
    "supernatural": 19778,
    "Ġbands": 14883,
    "Ġunce": 11709,
    "Ġstig": 14001,
    "lanter": 15386,
    "Ġrevered": 23731,
    "Ġtasselled": 25921,
    "Ġunfathomable": 20547,
    "Ġhing": 11603,
    "Ġaunt": 3178,
    "Ġplumber": 16084,
    "Ġpropose": 9852,
    "ounced": 4954,
    "Ġring": 4450,
    "uttle": 6247,
    "intercourse": 14638,
    "Ġrekindled": 21674,
    "Ġblunder": 18818,
    "Ġferule": 24499,
    "urday": 13993,
    "performed": 18344,
    "Ġeyebrows": 23513,
    "helped": 18923,
    "Ġallowed": 4061,
    "neg": 12861,
    "Ġrespond": 11176,
    "Ġfairest": 20461,
    "beer": 22484,
    "Ġvain": 3629,
    "mad": 5280,
    "poises": 11887,
    "ivation": 3111,
    "Ġsaleve": 17390,
    "Ġbury": 12040,
    "Ġfarm": 7840,
    "allions": 22195,
    "entitled": 21565,
    "ĠĠĠĠĠĠĠĠĠĠĠĠĠĠĠĠĠĠĠĠĠĠĠĠĠĠĠĠĠĠĠ": 19699,
    "Ġespecially": 3939,
    "elizabeth": 1987,
    "Ġprow": 6684,
    "Ġinclude": 1875,
    "angry": 18294,
    "aurs": 20768,
    "Ġromans": 16759,
    "detached": 19673,
    "lu": 597,
    "Ġrequire": 929,
    "Ġsurve": 9873,
    "decease": 25557,
    "Ġsigning": 22705,
    "Ġpoetry": 15079,
    "quired": 21852,
    "hatchet": 24822,
    "Ġmoles": 22429,
    "Ġcommentators": 25229,
    "Ġimmutable": 17357,
    "Ġhundreds": 4328,
    "Ġfortun": 4982,
    "Ġsick": 4692,
    "Ġstupidity": 15049,
    "Ġsolic": 7932,
    "olerable": 7182,
    "eminence": 20097,
    "Ġlondon": 2841,
    "set": 3869,
    "Ġcomputational": 1625,
    "Ġpurchases": 24756,
    "Ġrealistic": 5860,
    "Ġtossed": 5815,
    "slight": 10727,
    "ide": 723,
    "dinner": 11406,
    "ician": 21562,
    "rowsers": 8694,
    "Ġutil": 4672,
    "ripp": 6405,
    "Ġzeros": 3327,
    "Ġsliding": 9363,
    "Ġaffections": 10384,
    "Ġvide": 10250,
    "ivened": 22962,
    "Ġundaunted": 24120,
    "imagine": 19930,
    "probable": 17021,
    "joint": 24008,
    "Ġun": 423,
    "mare": 17599,
    "Ġextinguish": 14328,
    "Ġcause": 2409,
    "Ġfries": 21413,
    "Ġjudgment": 5765,
    "Ġkeen": 4612,
    "Ġswallowed": 7943,
    "Ġnominally": 17231,
    "Ġunderwent": 23237,
    "uttermost": 24940,
    "Ġremained": 3143,
    "tarpaul": 21096,
    "Ġoriginally": 7304,
    "Ġendless": 7053,
    "oves": 15403,
    "figures": 20120,
    "Ġdoomed": 11342,
    "salis": 25147,
    "enorm": 17781,
    "Ġdo": 511,
    "Ġchoke": 22246,
    "Ġconclusion": 5985,
    "Ġpurplish": 19140,
    "Ġ132": 19895,
    "Ġrear": 6535,
    "Ġexisting": 12715,
    "Ġstretching": 10014,
    "oken": 4307,
    "Ġrect": 18025,
    "Ġcash": 9652,
    "Ġresolutely": 14609,
    "Ġmorality": 22973,
    "Ġaghast": 16046,
    "Ġclo": 6044,
    "Ġhar": 5814,
    "Ġdoubloon": 6945,
    "Ġpreluding": 18368,
    "inations": 7567,
    "Ġtoad": 21507,
    "cry": 12443,
    "Ġdelusion": 18974,
    "Ġknew": 2055,
    "wishing": 21127,
    "ti": 8389,
    "iture": 5696,
    "itime": 15546,
    "Ġramble": 9312,
    "Ġgladness": 16591,
    "ikes": 8086,
    "Ġcrawford": 24893,
    "lied": 6507,
    "heart": 4525,
    "Ġdoubtless": 6195,
    "Ġinfer": 7683,
    "Ġby": 383,
    "Ġye": 899,
    "enit": 17779,
    "Ġthyself": 6602,
    "Ġpunch": 9954,
    "Ġevenness": 22831,
    "Ġdischarged": 15219,
    "ouched": 4636,
    "anybody": 12080,
    "ulgent": 18149,
    "Ġsed": 10761,
    "cont": 2922,
    "Ġdiminishing": 4210,
    "Ġbriskly": 25311,
    "buoy": 7760,
    "Ġcarved": 7946,
    "Ġincurable": 22549,
    "Ġdramatic": 4850,
    "lesc": 11039,
    "Ġnour": 10830,
    "Ġomnipotent": 13547,
    "Ġbeau": 9224,
    "Ġrelation": 2141,
    "Ġfam": 1588,
    "Ġsupport": 6728,
    "Ġaveraging": 2418,
    "Ġrummaged": 16910,
    "expressing": 16801,
    "Ġnumbers": 2891,
    "Ġsalmon": 24061,
    "olds": 9310,
    "thousand": 5547,
    "Ġbears": 6829,
    "arabian": 26446,
    "dimly": 15345,
    "Ġworried": 22923,
    "enormous": 26166,
    "icles": 17972,
    "Ġanticip": 7507,
    "Ġobstinacy": 17420,
    "itives": 17819,
    "Ġclassification": 1103,
    "Ġsaws": 23044,
    "Ġparameter": 878,
    "Ġsavagely": 26323,
    "Ġheedfully": 24521,
    "accepting": 20134,
    "Ġunsavory": 20706,
    "Ġunass": 14113,
    "locked": 7677,
    "Ġperuvian": 18452,
    "Ġreferences": 21671,
    "Ġtig": 13812,
    "belais": 24038,
    "Ġimpregn": 26022,
    "asserted": 22306,
    "Ġfreshet": 25704,
    "ancies": 11583,
    "Ġsplash": 16548,
    "prosperity": 20734,
    "stand": 634,
    "Ġtrustees": 24108,
    "ħ": 232,
    "chase": 11644,
    "Ġtrack": 7450,
    "december": 25558,
    "Ġtresses": 21174,
    "Ġfall": 2987,
    "Ġrevolution": 3308,
    "pounds": 21024,
    "Ġclue": 7019,
    "Ġsatir": 18794,
    "Ġcarelessness": 13074,
    "Ġelizabeth": 1129,
    "persecut": 22186,
    "Ġsoar": 18280,
    "bed": 3293,
    "Ġminus": 18749,
    "faced": 8079,
    "Ġbulkhead": 24511,
    "Ġvestibule": 13536,
    "Ġentailed": 11028,
    "orton": 11754,
    "Ġlightning": 5750,
    "popular": 26140,
    "isons": 17849,
    "Ġstem": 15717,
    "dry": 13702,
    "Ġpredomin": 16045,
    "Ġdegrees": 7294,
    "Ġspleen": 26421,
    "Ġwillingness": 24910,
    "Ġtendons": 19807,
    "Ġdangerous": 6612,
    "iety": 2817,
    "Ġderick": 9364,
    "Ġdepl": 14043,
    "Ġintellect": 8169,
    "Ġimpenetrable": 17396,
    "contracting": 19293,
    "Ġslipper": 24265,
    "ihood": 20921,
    "Ġruled": 22783,
    "Ġteasing": 11888,
    "Ġscent": 10284,
    "rooms": 10432,
    "sche": 13016,
    "Ġscoundrel": 13669,
    "Ġbelong": 3890,
    "Ġvoyagings": 19235,
    "Ġinmost": 17930,
    "prophecy": 22833,
    "Ġpowerful": 1564,
    "Ġtexel": 25923,
    "Ġ1836": 25721,
    "utterly": 20010,
    "Ġivory": 4476,
    "Ġgor": 9206,
    "Ġexquisite": 12380,
    "Ġcigarette": 20655,
    "legs": 13183,
    "matters": 14873,
    "adventurous": 25361,
    "Ġjavel": 17084,
    "Ġgritted": 22802,
    "locks": 14455,
    "Ġinfluence": 5515,
    "Ġupward": 9720,
    "apology": 22330,
    "Ġnightgown": 23128,
    "Ġsuffered": 5649,
    "Ġshivering": 10265,
    "Ġopium": 8995,
    "cords": 25136,
    "Ġgladstone": 23867,
    "branch": 23577,
    "featured": 24005,
    "Ġcruisings": 25864,
    "Ġafterwards": 3530,
    "Ġabstained": 25231,
    "bent": 15310,
    "kempt": 20940,
    "Ġtalk": 1968,
    "oding": 1460,
    "Ġfighting": 12195,
    "conversations": 24749,
    "Ġoppressed": 11189,
    "Ġruins": 16157,
    "Ġflora": 11416,
    "Ġdismal": 11808,
    "Ġreaching": 7303,
    "Ġmultipl": 2788,
    "Ġdardanelles": 26443,
    "Ġengineer": 11973,
    "Ġremember": 2679,
    "Ġforcibly": 10060,
    "Ġmuscles": 12086,
    "Ġweig": 7618,
    "Ġconsecutive": 20701,
    "Ġscor": 8189,
    "Ġreader": 11932,
    "Ġslice": 23157,
    "Ġuncivil": 11155,
    "elope": 14467,
    "Ġshouting": 10522,
    "Ġexpenses": 11831,
    "Ġgone": 2107,
    "Ġaffirmative": 15221,
    "bag": 7542,
    "Ġreminding": 19796,
    "Ġdisappears": 18560,
    "tch": 9141,
    "Ġconsecrate": 26489,
    "inordinate": 21193,
    "Ġmotionless": 8323,
    "ella": 12746,
    "iron": 3426,
    "Ġbabel": 24426,
    "Ġbehavior": 8001,
    "Ġsensible": 4976,
    "aug": 1214,
    "Ġtoes": 10829,
    "Ġsagittarius": 24732,
    "Ġmule": 13861,
    "Ġrouted": 24907,
    "Ġcomes": 3425,
    "Ġevalu": 3076,
    "Ġoccurred": 4461,
    "Ġlend": 17962,
    "Ġexpress": 2193,
    "Ġbalance": 2020,
    "Ġfiftieth": 24703,
    "Ġislanders": 19500,
    "Ġspeeches": 22659,
    "oce": 10714,
    "rennial": 22339,
    "Ġbrick": 8925,
    "Ġexaggerate": 25649,
    "Ġgap": 21596,
    "houses": 9599,
    "Ġpre": 507,
    "up": 1283,
    "Ġbound": 3518,
    "Ġalle": 11665,
    "Ġconfine": 14510,
    "ching": 5156,
    "Ġbaling": 17859,
    "crazy": 24691,
    "Ġsquares": 11169,
    "ors": 854,
    "Ġwatched": 6297,
    "Ġsurviv": 13434,
    "Ġhoof": 23351,
    "Ġgrec": 18961,
    "cocks": 23560,
    "late": 11498,
    "Ġpilgr": 12178,
    "arted": 2200,
    "Ġmainten": 16115,
    "Ġpursuit": 4732,
    "isite": 15561,
    "Ġrespectful": 16344,
    "attention": 2110,
    "Ġtire": 17720,
    "Ġgasped": 11372,
    "Ġsituations": 10491,
    "iences": 6957,
    "Ġperpetual": 12301,
    "Ġdampening": 2898,
    "Ġbarbara": 24818,
    "Ġthief": 11609,
    "Ġdella": 21437,
    "Ġexponentiating": 3448,
    "Ġinquir": 4243,
    "Ġtranspired": 16784,
    "Ġdint": 15589,
    "Ġidentifies": 12013,
    "univers": 15770,
    "aky": 18411,
    "Ġannot": 15600,
    "childhood": 16868,
    "Ġbrimming": 22863,
    "Ġwith": 349,
    "Ġvishnoo": 12750,
    "programming": 10062,
    "enc": 7574,
    "Ġunited": 6840,
    "Ġforged": 12701,
    "haut": 20901,
    "Ġvideo": 25365,
    "Ġradiating": 24333,
    "Ġinjure": 16781,
    "Ġcoldness": 23757,
    "Ġderive": 10394,
    "Ġimprec": 14216,
    "istrate": 7406,
    "Ġmarchant": 14785,
    "belonged": 25597,
    "encountered": 20391,
    "Ġreads": 23110,
    "Ġclothing": 18429,
    "ras": 21035,
    "Ġpull": 5152,
    "Ġinclusive": 24163,
    "Ġendwise": 23141,
    "Ġfagged": 17882,
    "paws": 21028,
    "Ġfetch": 7769,
    "ared": 771,
    "andromeda": 21865,
    "ontory": 10459,
    "become": 14246,
    "Ġagency": 11804,
    "duodecimo": 16001,
    "Ġanomalous": 25637,
    "questions": 16760,
    "misery": 13342,
    "ivity": 1679,
    "Ġwatchman": 23664,
    "ilations": 21719,
    "Ġsimplicity": 2925,
    "·": 120,
    "mystery": 15154,
    "Ġseparation": 11248,
    "Ġintelligence": 561,
    "usions": 6159,
    "Ġburst": 4379,
    "Ġsharpen": 13568,
    "Ġtemporarily": 11167,
    "Ġseedy": 21952,
    "Ġbefallen": 12341,
    "Ġmiserable": 3634,
    "lust": 15378,
    "Ġwitnessing": 19597,
    "ĠâĢĶâĢľ_": 17718,
    "Ġwigwam": 11428,
    "Ġmaintained": 12931,
    "Ġstudent": 14478,
    "Ġsanction": 20024,
    "Ġlanguor": 12845,
    "Ġhandspike": 22695,
    "Ġmusical": 23891,
    "Ġfloundering": 16251,
    "_,âĢĻâĢĿ": 20399,
    "slipped": 25529,
    "Ġthenceforth": 25182,
    "uncontrollable": 20594,
    "Ġfounder": 17883,
    "bloom": 24689,
    "Ġskiff": 16163,
    "Ġsolitude": 6876,
    "odecimoes": 25318,
    "Ġpaintings": 15055,
    "aggo": 5097,
    "humour": 7498,
    "Ġsharply": 9402,
    "Ġlim": 2379,
    "consc": 4840,
    "Ġgarnery": 17386,
    "Ġinvisibly": 24817,
    "Ġgreenhorn": 23766,
    "Ġelder": 7225,
    "Ġmccauley": 26427,
    "ourers": 21447,
    "charlotte": 6473,
    "izarre": 17388,
    "mind": 4625,
    "ego": 4038,
    "Ġwhaling": 2780,
    "Ġdumplings": 15189,
    "Ġvictory": 16653,
    "Ġunconcern": 14116,
    "Ġknighthood": 25297,
    "heading": 5487,
    "Ġpalsied": 25779,
    "uttering": 12659,
    "Ġdog": 4193,
    "Ġforthwith": 16618,
    "Ġchristian": 6479,
    "Ġdoubling": 23316,
    "none": 6962,
    "Ġbrigandish": 25487,
    "Ġearnestly": 5978,
    "iliar": 15712,
    "Ġbark": 10798,
    "Ġsmell": 7216,
    "mag": 6508,
    "Ġsunrise": 9372,
    "Ġphysiology": 25332,
    "bles": 7017,
    "Ġinconceivable": 17937,
    "finer": 17546,
    "idable": 8145,
    "oses": 3949,
    "Ġjest": 18403,
    "Ġtechnically": 12364,
    "osition": 1372,
    "Ġfrightens": 24029,
    "tranquillity": 20545,
    "Ġminor": 12965,
    "Ġconsecrated": 26488,
    "Ġ----": 7145,
    "terror": 18128,
    "Ġhome": 2029,
    "Ġresembled": 18033,
    "Ġdaunt": 19663,
    "Ġenvelope": 7319,
    "offices": 19063,
    "thanked": 24331,
    "Ġthimble": 15635,
    "Ġanimate": 23421,
    "Ġsupply": 6066,
    "Ġtwenty": 3952,
    "Ġdetestable": 15097,
    "Ġchace": 14178,
    "Ġdisagreeable": 9297,
    "limin": 8383,
    "Ġdisclosed": 15152,
    "ances": 1338,
    "Ġluggage": 25957,
    "Ġgallons": 14817,
    "Ġpolished": 11182,
    "ceived": 1961,
    "Ġartic": 5314,
    "Ġforming": 7042,
    "Ġwisest": 11233,
    "mont": 19168,
    "Ġairth": 23315,
    "Ġextraordinary": 5414,
    "Ġsummarization": 3646,
    "column": 19328,
    "gan": 2196,
    "remorse": 14465,
    "Ġvexatious": 19780,
    "orious": 6007,
    "frozen": 25139,
    "Ġrad": 4961,
    "Ġpatiently": 19917,
    "Ġpedestrian": 25879,
    "Ġparis": 8178,
    "Ġdeeds": 15757,
    "Ġbare": 6132,
    "Ġbristles": 25843,
    "rush": 7010,
    "darcy": 5208,
    "Ġloudly": 7312,
    "Ġindefinitely": 25221,
    "model": 4459,
    "Ġbale": 7838,
    "icy": 6140,
    "Ġresided": 11809,
    "Ġovertaken": 18424,
    "tri": 11529,
    "Ġrejo": 5915,
    "actory": 8907,
    "Ġtucked": 12390,
    "Ġcleaving": 23178,
    "Ġincensed": 18571,
    "feather": 16040,
    "unearthly": 19272,
    "Ġprofound": 5497,
    "ought": 830,
    "ged": 1509,
    "becoming": 18516,
    "rise": 6226,
    "inioned": 19286,
    "sherlock": 5422,
    "Ġensures": 3055,
    "Ġdefault": 3038,
    "Ġcordage": 19677,
    "8": 28,
    "Ġengagements": 9977,
    "olly": 3226,
    "out": 467,
    "Ġperman": 10964,
    "Ġblessed": 6931,
    "aloud": 17940,
    "Ġmoot": 22427,
    "Ġcas": 8410,
    "icity": 2539,
    "genteel": 19947,
    "Ġunsolved": 22030,
    "earnest": 12397,
    "Ġanticipated": 13510,
    "progress": 11986,
    "nurtured": 25524,
    "relics": 24014,
    "arts": 6563,
    "Ġpursuing": 9437,
    "Ġjavelin": 26104,
    "Ġvalidation": 2354,
    "Ġcovari": 2335,
    "Ġcol": 1059,
    "Ġblue": 3456,
    "Ġmistress": 8611,
    "Ġtending": 17724,
    "Ġmitt": 21306,
    "ib": 1235,
    "Ġtrustworthy": 24107,
    "kne": 20934,
    "Ġcommis": 22668,
    "Ġdispirited": 23880,
    "Ġpossibility": 7458,
    "Ġpr": 1600,
    "Ġkinds": 14503,
    "pole": 9332,
    "Ġstowed": 21733,
    "Ġingolstadt": 8332,
    "Ġbalances": 2337,
    "continuance": 19717,
    "Ġsanct": 15062,
    "Ġwestmorland": 24390,
    "beside": 19876,
    "resp": 13838,
    "Ġmystery": 5509,
    "Ġ1820": 25718,
    "rudent": 6482,
    "baned": 17495,
    "Ġplainpalais": 20736,
    "Ġrelaxed": 12981,
    "rove": 21530,
    "Ġappare": 12814,
    "Ġwapping": 21293,
    "Ġdifficult": 3570,
    "sterns": 23366,
    "Ġpun": 4586,
    "Ġwarn": 5695,
    "Ġpoland": 23616,
    "Ġreview": 18030,
    "idents": 6150,
    "Ġagreeable": 4551,
    "cuniary": 26379,
    "consist": 14815,
    "since": 5894,
    "Ġwhitt": 18054,
    "Ġclifford": 22360,
    "Ġboscombe": 8325,
    "moving": 11017,
    "age": 504,
    "Ġnervously": 19184,
    "ĠĠĠĠĠĠĠĠĠĠĠĠĠĠĠĠĠĠĠĠĠĠĠĠĠĠĠĠĠĠĠĠĠĠĠĠĠĠĠĠĠĠ": 24209,
    "rosc": 17954,
    "bru": 12437,
    "nowhere": 18418,
    "Ġgases": 21599,
    "Ġresult": 4458,
    "Ġpoisonous": 24887,
    "Ġdemocracy": 25458,
    "Ġoctober": 17226,
    "fainting": 20471,
    "tarpaulins": 26405,
    "taking": 5689,
    "counter": 20277,
    "Ġspinal": 12300,
    "Ġco": 730,
    "Ġdawned": 14993,
    "Ġerudite": 26350,
    "Ġimposed": 14213,
    "fair": 10092,
    "Ġglit": 8558,
    "Ġquitted": 5311,
    "wished": 13804,
    "apers": 3482,
    "reserve": 17765,
    "Ġexclaimed": 4682,
    "G": 43,
    "Ġgalvan": 21614,
    "Ġmannish": 26237,
    "Ġweapons": 10593,
    "Ġscenery": 11456,
    "Ġprevail": 13441,
    "Ġromantic": 8030,
    "qu": 369,
    "fish": 3515,
    "Ġvagabond": 20202,
    "Ġunfold": 8022,
    "Ġunwillingly": 15847,
    "wherein": 19107,
    "aning": 2251,
    "Ġgoes": 3855,
    "ableness": 8148,
    "iii": 14774,
    "Ġolive": 12562,
    "Ġellenborough": 26154,
    "Ġcumbrous": 26432,
    "Ó": 148,
    "Ġbraw": 23832,
    "agne": 21902,
    "byter": 16213,
    "Ġdecorum": 16019,
    "admiration": 11387,
    "nect": 663,
    "Ġresign": 18564,
    "Ġstrainings": 24627,
    "fif": 9116,
    "rendering": 22338,
    "deserving": 17241,
    "inkers": 22612,
    "Ġindignant": 12237,
    "Ġpromontory": 11939,
    "gems": 20883,
    "Ġcounty": 9030,
    "Ġprodigies": 19792,
    "Ġreplaced": 13070,
    "Ġbeauties": 10445,
    "Ġbox": 5109,
    "Ġnovelty": 13462,
    "Ġanimated": 7701,
    "persu": 8027,
    "Ġproperties": 3119,
    "Ġneglect": 7941,
    "Ġreasons": 6019,
    "Ġapparent": 5466,
    "gradient": 2271,
    "Ġcomputations": 16000,
    "Ġinstigated": 18702,
    "Ġparametric": 2394,
    "Ġinoffensive": 21495,
    "delightful": 12194,
    "Ġdwelling": 7322,
    "lines": 6959,
    "frankly": 20020,
    "Ġquarrelling": 13498,
    "Ġgravely": 7882,
    "Ġeasily": 3895,
    "pond": 21012,
    "Ġaband": 6561,
    "gerine": 22886,
    "Ġrabb": 4164,
    "âĢĿ]": 21812,
    "Ġwalton": 14971,
    "--------": 14780,
    "Ġpush": 9184,
    "Ġcyl": 15555,
    "Ġcovers": 18590,
    "Ġessential": 7523,
    "Ġanoints": 25538,
    "Ġshutter": 16670,
    "thirst": 15824,
    "secur": 18126,
    "inously": 21185,
    "etw": 406,
    "Ġsuitable": 18278,
    "Ġdocile": 19957,
    "Ġboy": 3022,
    "apparently": 15203,
    "pherd": 13643,
    "lacings": 26134,
    "Ġendow": 23140,
    "liberal": 26281,
    "Ġheaped": 18037,
    "superstitious": 17280,
    "hole": 5587,
    "Ġpractically": 13101,
    "Ġhatchway": 13524,
    "Ġhaggerston": 26452,
    "Ġhart": 17921,
    "taken": 7560,
    "Ġstud": 1605,
    "Ġmand": 21303,
    "atra": 17771,
    "pron": 9005,
    "liness": 8746,
    "Ġkins": 22191,
    "Ġcrying": 10786,
    "Ġcorpulence": 24509,
    "Ġreigns": 21668,
    "Ġbeloved": 5572,
    "Ġmultimodal": 18747,
    "quitted": 21854,
    "neurons": 3137,
    "earth": 6502,
    "Ġident": 2239,
    "Ġmusky": 19380,
    "Ġaccomp": 4712,
    "Ġindulgence": 11319,
    "at": 268,
    "Ġcompass": 4407,
    "ications": 4443,
    "Ġgene": 15670,
    "Ġcastaway": 16640,
    "Ġrich": 2993,
    "painting": 17046,
    "Ġembalmed": 13655,
    "Ġheel": 9683,
    "Ġbridal": 14953,
    "Ġchecking": 23283,
    "posterity": 25488,
    "creature": 5346,
    "Ġharshly": 25249,
    "disgu": 19153,
    "Ġlungs": 8361,
    "ĠâĢĺ_": 11117,
    "Ġix": 12665,
    "Ġremorse": 6441,
    "racting": 10352,
    "anthrop": 17381,
    "Ġenric": 21931,
    "Ġboxes": 13373,
    "Ġthieves": 15634,
    "question": 5418,
    "Ġreturned": 2894,
    "Ġfrightened": 5341,
    "Ġliter": 8811,
    "Ġexamined": 6334,
    "Ġponderous": 8354,
    "Ġcarav": 18900,
    "Ġcolony": 18763,
    "ateness": 15519,
    "Ġmoving": 1675,
    "Ġconcre": 16389,
    "clerval": 7950,
    "olic": 14041,
    "Ġgnawed": 25164,
    "Ġtransformations": 3485,
    "Ġdismay": 11807,
    "Ġdeadliest": 14556,
    "Ġmumbling": 11573,
    "Ġtrusting": 24106,
    "Ġyour": 632,
    "Ġinfat": 14499,
    "Ġturtle": 4205,
    "mblance": 7323,
    "13": 20749,
    "existence": 16013,
    "Ġrelapses": 26278,
    "Ġdifferent": 1427,
    "Ġtaught": 6803,
    "stove": 21649,
    "wered": 2690,
    "endeav": 7150,
    "Ġstrongest": 11135,
    "ow": 326,
    "anything": 5518,
    "Ġexclaiming": 13640,
    "Ġwritten": 4170,
    "Ġvariation": 22662,
    "troubled": 17112,
    "ellect": 7381,
    "Ġprompt": 3191,
    "Ġweaver": 11686,
    "contains": 16029,
    "Ġepistle": 24904,
    "Ġcurls": 22967,
    "Ġrobins": 16246,
    "rushing": 10017,
    "Ġlisten": 4673,
    "Ġstar": 6022,
    "Ġvisiting": 10357,
    "Ġunfolding": 17086,
    "bantering": 25253,
    "ull": 1431,
    "Ġkeep": 2353,
    "distrustful": 26330,
    "Ġmisty": 16539,
    "itory": 12564,
    "manif": 14372,
    "Ġplausible": 26553,
    "Ġchair": 3661,
    "Ġgrief": 4619,
    "Ġgall": 4351,
    "Ġmitigates": 3050,
    "isance": 17847,
    "saved": 15431,
    "appointment": 24059,
    "snatched": 24850,
    "aph": 10954,
    "Ġbuttoning": 17235,
    "Ġdouble": 4940,
    "Ġharpoons": 5659,
    "Ġspices": 22127,
    "Ġsunk": 5752,
    "rage": 10843,
    "Ġmethods": 3161,
    "Ġnorthwards": 19545,
    "Ġinexpress": 12632,
    "arman": 11594,
    "Ġsensibly": 14516,
    "Ġquadrille": 13540,
    "poster": 11056,
    "itancy": 21331,
    "Ġanvil": 11596,
    "Ġnasty": 17442,
    "Ġfaithful": 9502,
    "rr": 17650,
    "Ġauger": 21202,
    "Ġviewed": 10462,
    "Ġmisfortune": 5569,
    "Ġdisposal": 19374,
    "Ġunlimited": 26222,
    "gl": 3294,
    "Ġjar": 15949,
    "igin": 3655,
    "mency": 18925,
    "athy": 14322,
    "Ġlabour": 7274,
    "Ġlux": 8813,
    "Ġstationary": 19693,
    "parsee": 14508,
    "supers": 22645,
    "ize": 768,
    "Ġbrawn": 10481,
    "Ġjewel": 9941,
    "Ġscrewed": 15119,
    "Ġinvoluntary": 18766,
    "Ġslight": 3120,
    "Ġbegun": 7243,
    "guess": 14761,
    "Ġabased": 22265,
    "Ġdependen": 1828,
    "Ġvancouver": 26565,
    "hearty": 14833,
    "Ġinherited": 25353,
    "Ġremonstr": 16160,
    "grounds": 11151,
    "Ġinert": 15620,
    "Ġpsal": 15614,
    "irect": 5553,
    "Ġfalsehood": 10523,
    "shazzar": 15288,
    "Ġunassuming": 20507,
    "idge": 14013,
    "anel": 21355,
    "ored": 3899,
    "Ġrefused": 6715,
    "Ġdedicated": 19222,
    "Ġkilled": 4955,
    "Ġinst": 911,
    "desk": 23203,
    "itors": 2916,
    "Ġmediterranean": 12313,
    "Ġwhist": 6021,
    "Ġpersonal": 7479,
    "Ġerected": 12231,
    "ĠlinnÃ¦us": 15274,
    "hairs": 20903,
    "Ġdespair": 4013,
    "Ġdup": 21425,
    "Ġmastiff": 23722,
    "Ġugly": 8715,
    "Ġstepmother": 16088,
    "Ġzer": 1097,
    "Ġtroubling": 26547,
    "gged": 3780,
    "Ġexpired": 18622,
    "Ġboast": 7034,
    "Ã¦st": 24175,
    "Ġjustice": 5111,
    "Ġprivilege": 11419,
    "Ġrib": 4936,
    "Ġstands": 5258,
    "sought": 15427,
    "Ġrudeness": 17124,
    "skeleton": 17375,
    "Ġunwelcome": 12777,
    "Ġsuspend": 14608,
    "sight": 5994,
    "happily": 14657,
    "unerative": 21893,
    "Ġfrown": 10807,
    "Ġincreas": 1692,
    "Ġbelly": 10369,
    "partiality": 13159,
    "Ġantagonist": 26328,
    "evenings": 19461,
    "Ġgleams": 17309,
    "Ġstrict": 7222,
    "Ġskull": 6288,
    "ulls": 8837,
    "Ġ55": 24323,
    "Ġmaggie": 26291,
    "Ġmorocco": 26573,
    "Ġqueen": 3213,
    "Ġblameless": 19858,
    "Ġignorantly": 19494,
    "ugn": 9377,
    "beginning": 13560,
    "irr": 12733,
    "meth": 11502,
    "Ġafrica": 12343,
    "Ġgros": 14822,
    "Ġprivileged": 20111,
    "Ġinfernal": 11959,
    "Ġburn": 3684,
    "Ġperishing": 22393,
    "Ġdomineering": 23706,
    "Ġrejoined": 14926,
    "Ġfainted": 8791,
    "Ġbedfellows": 23437,
    "Ġpaces": 13918,
    "securing": 19812,
    "humoured": 11237,
    "Ġinland": 11607,
    "Ġswiftly": 5670,
    "Ġbeckoning": 20500,
    "Ġlatest": 16822,
    "Ġvacant": 9494,
    "Ġduodecimo": 16767,
    "pre": 649,
    "thorough": 21982,
    "Ġbeheaded": 11655,
    "bs": 3753,
    "husband": 8041,
    "Ġassid": 18944,
    "Ġincorporate": 20453,
    "Ġdevices": 2942,
    "Ġtalents": 15044,
    "Ġatt": 781,
    "etime": 12656,
    "Ġtimidity": 24687,
    "smo": 10125,
    "Ġcontemplative": 19892,
    "naturalist": 23533,
    "Ġropes": 10748,
    "Ġcuba": 25095,
    "eliest": 14746,
    "Ġpurchas": 19873,
    "Ġknife": 7309,
    "Ġterminated": 23507,
    "tranquil": 25870,
    "Ġimages": 1601,
    "Ġenvironmental": 24030,
    "Ġevangelists": 20338,
    "oing": 15401,
    "Ġcourse": 2130,
    "crimes": 16697,
    "Ġpapers": 4024,
    "Ġmiddle": 4141,
    "Ġopine": 19227,
    "Ġrelated": 3715,
    "Ġclerks": 17294,
    "mayhew": 23989,
    "Ġinjection": 3468,
    "ck": 436,
    "resses": 16152,
    "Ġinstructing": 3124,
    "brave": 19822,
    "Ġhelp": 1639,
    "arily": 4129,
    "ary": 989,
    "Ġbuoyancy": 20040,
    "Ġhad": 445,
    "Ġprofess": 3699,
    "Ġexert": 5722,
    "Ġavailed": 23949,
    "Ġmachinery": 20483,
    "produced": 25414,
    "Ġvolumes": 14799,
    "Ġsatisf": 2805,
    "Ġann": 4489,
    "broke": 14776,
    "Ġassumed": 9465,
    "lass": 5992,
    "Ġconcernment": 23643,
    "Ġaloft": 4303,
    "Ġdiction": 8794,
    "wester": 21137,
    "Ġantagon": 19549,
    "Ġdance": 4440,
    "Ġscoresby": 10461,
    "Ġvulgar": 13603,
    "Ġcircumstances": 3929,
    "zers": 21145,
    "Ġcries": 7154,
    "Ġtalks": 23368,
    "Ġboard": 3385,
    ",âĢĿâĢĶ": 14220,
    "Ġcrad": 21348,
    "Ġreel": 9213,
    "ividual": 5463,
    "Ġincidentally": 16954,
    "den": 939,
    "undertaking": 23785,
    "let": 2733,
    "yield": 13808,
    "Ġmysticetus": 24922,
    "eks": 4727,
    "named": 9896,
    "pay": 10718,
    "Ġlory": 12649,
    "prom": 6509,
    "Ġburglar": 17354,
    "aked": 2015,
    "pen": 1205,
    "pointed": 9807,
    "Ġbride": 6291,
    "Ġrubber": 22784,
    "assisted": 22304,
    "Ġonly": 790,
    "Ġnewfoundland": 26569,
    "Ġsacrifice": 9555,
    "Ġundulates": 24119,
    "aded": 3548,
    "ensation": 22542,
    "Ġunheard": 22022,
    "sue": 2078,
    "Ġsmelling": 16065,
    "Ġrighteous": 18945,
    "Ġwaifing": 25243,
    "Ġsung": 23270,
    "Ġthickest": 16654,
    "feeders": 25235,
    "Ġloads": 22111,
    "shirt": 22445,
    "Ġswandam": 11088,
    "tar": 8097,
    "Ġinhuman": 13928,
    "Ġlabyrinth": 13678,
    "Ġconsidered": 4610,
    "Ġsoftmax": 1687,
    "Ġundulating": 19516,
    "Ġstructures": 2721,
    "fancy": 7337,
    "zeal": 16255,
    "himself": 3974,
    "ounded": 9747,
    "commanding": 24752,
    "Ġbowsprit": 16559,
    "Ġmerry": 5868,
    "engines": 18927,
    "Ġtiresome": 26156,
    "erred": 6376,
    "aiian": 23591,
    "Ġfowl": 11330,
    "hil": 8378,
    "Ġhastily": 5763,
    "Ġoriginate": 24122,
    "Ġsomebody": 7911,
    "Ġquick": 2581,
    "Ġjav": 7901,
    "Ġturbulence": 26597,
    "antled": 18286,
    "Ġwas": 370,
    "Ġpunctual": 17137,
    "Ġbreakfast": 3978,
    "Ġhaven": 8473,
    "Ġassemblage": 26351,
    "straight": 9939,
    "Ġhaving": 1882,
    "Ġuneasily": 24230,
    "Ġrearing": 12674,
    "strongly": 24684,
    "Ġmy": 411,
    "arab": 21439,
    "Ã¦mon": 7094,
    "lotts": 23822,
    "Ġposs": 1616,
    "season": 14033,
    "entering": 17976,
    "Ġiceland": 15145,
    "Ġwedge": 24070,
    "Ġimpact": 10296,
    "smallest": 23909,
    "Ġabraham": 18395,
    "Ġalpha": 13587,
    "churning": 21694,
    "Ġrejoinder": 24597,
    "Ġrevelry": 15135,
    "Ġfearlessness": 19160,
    "Ġdeliber": 7268,
    "run": 10721,
    "Ġreminisc": 18725,
    "Ġadmires": 19684,
    "Ġstop": 2501,
    "much": 3706,
    "Ġfrequently": 4679,
    "Ġsomewhat": 4897,
    "Ġcaus": 1726,
    "Ġgrotesque": 26329,
    "Ġconsummate": 25310,
    "entiating": 3440,
    "Ġungrateful": 14120,
    "assuming": 22307,
    "Ġsteal": 16282,
    "Ġmost": 1020,
    "Ġvigorous": 10566,
    "Ġunnaturally": 24870,
    "equally": 19898,
    "Ġirresistible": 13111,
    "idy": 21761,
    "Ġexpiring": 16094,
    "Ġinfancy": 10409,
    "Ġrepairing": 25589,
    "Ġwits": 15531,
    "wide": 10137,
    "Ġdissimilar": 22528,
    "Ġlaz": 7378,
    "apter": 1194,
    "examine": 25477,
    "apering": 8040,
    "Ġinjuries": 11277,
    "Ġwon": 1662,
    "Ġgidd": 25783,
    "Ġcanes": 22159,
    "Ġbluff": 16517,
    "moil": 22702,
    "care": 4928,
    "secret": 12234,
    "Ġinsect": 12633,
    "pride": 11210,
    "Ġcasement": 25092,
    "Ġfactory": 23274,
    "Ġgnashed": 20131,
    "Ġbattalions": 25776,
    "Ġloitering": 22113,
    "und": 4121,
    "oors": 17620,
    "Ġbase": 5013,
    "Ġtartar": 17321,
    "stranger": 9882,
    "Ġsticks": 14930,
    "Ġ6": 5141,
    "irium": 8161,
    "Ġinputs": 843,
    "Ġclust": 9273,
    "Ġincorpor": 13164,
    "Ġhull": 5446,
    "Ġpride": 3826,
    "Ġinhab": 5083,
    "onial": 11566,
    "Ġdisse": 18548,
    "Ġrus": 14092,
    "ounix": 14163,
    "Ġfreedom": 9082,
    "Ġsustained": 13481,
    "Ġlight": 1700,
    "Ġtremendous": 8352,
    "Ġma": 3254,
    "Ġcoff": 3507,
    "?_": 8069,
    "given": 8376,
    "impress": 18051,
    "private": 13581,
    "Ġobserve": 4670,
    "Ġbrag": 23831,
    "Ġcharacteristically": 23686,
    "brevi": 24074,
    "Ġbible": 9319,
    "Ġblend": 14398,
    "nameless": 19902,
    "Ġpollard": 20384,
    "Ġnocturn": 18375,
    "Ġbusied": 19066,
    "aur": 15307,
    "ancholy": 5070,
    "Ġupwards": 7633,
    "atered": 22006,
    "antee": 22094,
    "Ġlevelled": 11284,
    "Ġvolcanoes": 24146,
    "Ġschedu": 1823,
    "venant": 22622,
    "Ġenlar": 15799,
    "Ġbusier": 23336,
    "Ġdiet": 13909,
    "ixed": 4851,
    "ser": 1425,
    "ĩ": 234,
    "Ġimpulsively": 24880,
    "Ġthird": 4188,
    "Ġyield": 5093,
    "mine": 5618,
    "Ġhan": 15616,
    "tanh": 5204,
    "Ġenticing": 22742,
    "Ġprofessional": 7299,
    "orrah": 17875,
    "Ġopens": 23625,
    "Ġfool": 4236,
    "japan": 15373,
    "Ġposit": 1306,
    "rigged": 17062,
    "Ġincident": 6280,
    "Ġbleached": 24396,
    "bordered": 17498,
    "hab": 1078,
    "Ġagreeably": 24952,
    "Ġcensured": 25094,
    "Ġyork": 11664,
    "ibles": 18785,
    "Ġdaggoo": 5441,
    "Ġbrace": 11211,
    "letter": 6201,
    "Ġdre": 1744,
    "Ġsales": 12804,
    "claps": 23150,
    "flukes": 25205,
    "Ġponies": 21474,
    "Ġtennes": 23548,
    "sheet": 16284,
    "Ġvillains": 14749,
    "velope": 17701,
    "Ġinducements": 24965,
    "Ġcommonplaces": 16287,
    "Ġfullest": 14813,
    "Ġunpitying": 25660,
    "Ġinspect": 5963,
    "Ġharbor": 10026,
    "Ġre": 317,
    "Ġcontemplate": 19891,
    "Ġlids": 12273,
    "hatches": 19927,
    "Ġfacilitate": 26098,
    "ousand": 2429,
    "Ġchallenges": 13629,
    "eked": 16402,
    "Ġconceal": 5973,
    "Ġtreas": 7358,
    "tish": 17677,
    "Ġfading": 15582,
    "Ġannoy": 17198,
    "ph": 917,
    "Ġswaths": 23053,
    "Ġwealth": 7620,
    "shake": 22442,
    "Ġtraits": 23073,
    "Ġundone": 24118,
    "Ġmad": 2426,
    "Ġslipping": 13359,
    "miss": 3175,
    "Ġlip": 6532,
    "quimaux": 21856,
    "Ġed": 2143,
    "Ġweeps": 24947,
    "Ġoutskirts": 17456,
    "Ġphrase": 11187,
    "avoid": 9304,
    "Ġcharcoal": 19007,
    "Ġterrier": 23397,
    "Ġ*": 1274,
    "cking": 4266,
    "Ġwooden": 4729,
    "ampl": 21839,
    "dancing": 12452,
    "Ġ7": 4745,
    "Ġextant": 18682,
    "fa": 7336,
    "Ġprick": 14477,
    "Ġsurp": 9634,
    "Ġvia": 2381,
    "ival": 4228,
    "Ġpiazza": 26450,
    "Ġbeatrix": 24204,
    "taught": 17684,
    "waters": 11333,
    "Ġcensus": 15095,
    "Ġknown": 1641,
    "Ġexploring": 4305,
    "Ġovertook": 18423,
    "Ġconstable": 19070,
    "impulse": 20644,
    "binder": 17499,
    "Ġbloody": 9888,
    "Ġspared": 7892,
    "Ġcontrivances": 12355,
    "Ġrisen": 9492,
    "Ġlowers": 23240,
    "themselves": 6540,
    "Đ": 209,
    "Ġstoried": 18072,
    "Ġinf": 1756,
    "Ġnimble": 21525,
    "treas": 17679,
    "Ġleaves": 5021,
    "Ġpassing": 4315,
    "Ġ{": 21151,
    "###": 3830,
    "Ġliveliest": 24775,
    "Ġbrown": 6298,
    "Ġinn": 4589,
    "Ġguest": 7249,
    "secre": 18127,
    "Ġvote": 21944,
    "dearest": 11733,
    "Ġgrating": 14354,
    "Ġdined": 9176,
    "Ġspl": 2984,
    "Ġfaithfulness": 24446,
    "Ġpushing": 10819,
    "ason": 1263,
    "aul": 6352,
    "Ġleaks": 16448,
    "Ġbump": 9659,
    "```": 25893,
    "Ġwallowed": 24042,
    "Ġderbyshire": 6586,
    "Ġrole": 15995,
    "cracy": 24690,
    "Ġhug": 6979,
    "Ġrogue": 22401,
    "acetty": 24464,
    "Ġwrap": 24594,
    "mouthed": 12398,
    "Ġmetaphys": 16393,
    "Ġpaddles": 15146,
    "Ġexcite": 11964,
    ");": 7330,
    "thro": 12758,
    "Ġtranquo": 14842,
    "evidence": 25521,
    "pane": 10120,
    "mixed": 15393,
    "Ġbedford": 7473,
    "astron": 22166,
    "Ġlofty": 6217,
    "showing": 22448,
    "Ġtar": 2563,
    "Ġcemeteries": 26375,
    "Ġblan": 18816,
    "surprising": 16919,
    "dishonourable": 26365,
    "Ġpresc": 15924,
    "gue": 12465,
    "Ġcar": 1417,
    "Ġincline": 18569,
    "destruction": 11256,
    "Ġexam": 3711,
    "Ġreferred": 8916,
    "Ġmaids": 19690,
    "Ġcome": 1241,
    "Ġlanding": 11983,
    "Ġpat": 1793,
    "Ġay": 15491,
    "Ġfollow": 1394,
    "stretch": 13980,
    "Ġdescription": 7429,
    "rights": 23670,
    "drawn": 9912,
    "trivial": 21091,
    "scand": 18854,
    "Ġaid": 6122,
    "icient": 777,
    "Ġjour": 11762,
    "abs": 11666,
    "Ġcir": 21339,
    "Ġrationally": 18213,
    "christian": 17232,
    "neath": 12862,
    "Ġxliv": 23407,
    "owards": 4593,
    "gard": 7339,
    "Ġswing": 13033,
    "Ġhimmale": 18334,
    "Ġlocal": 1200,
    "afford": 14654,
    "Ġbig": 5805,
    "Ġopenshaw": 7954,
    "Ġnearing": 15793,
    "Ġturbid": 23610,
    "Ġtapped": 11553,
    "Ġwhiff": 21715,
    "Ġdiana": 21434,
    "eyes": 5684,
    "ines": 674,
    "Ġside": 1386,
    "Ġshallow": 14393,
    "Ġsyrian": 18353,
    "Ġopposition": 16520,
    "ashed": 3787,
    "been": 3346,
    "Ġillust": 8262,
    "Ġpuzzled": 7317,
    "Ġgrin": 5482,
    "Ġspoken": 4836,
    "Ġ2026": 12333,
    "german": 11491,
    "Ġshe": 466,
    "Ġomn": 8409,
    "Ġconfidently": 24955,
    "separ": 9230,
    "Ġsympathies": 14860,
    "ulled": 14055,
    "Ġgradu": 15831,
    "Ġfiner": 13050,
    "bud": 10682,
    "Ġinsc": 7585,
    "Ġmisfortunes": 7041,
    "Ġgenerously": 22397,
    "Ġsnugly": 17111,
    "Ġpequod": 2318,
    "Ġswish": 23048,
    "Ġrevers": 21661,
    "heaved": 21209,
    "besides": 8695,
    "thither": 21980,
    "Ġjog": 18404,
    "Ġgrap": 11705,
    "Ġmarched": 18871,
    "Ġinferior": 8365,
    "ned": 3492,
    "Ġwhy": 1759,
    "Ġimmemorial": 10510,
    "Ġspasmodic": 20396,
    "Ġroads": 13287,
    "Ġconge": 15744,
    "suspended": 15176,
    "resc": 21237,
    "Ġtuileries": 24826,
    "Ġsmiled": 5940,
    "Ġeast": 5370,
    "Ġeffort": 8201,
    "Ġfobbing": 26441,
    "ham": 1701,
    "zas": 17712,
    "Ġremarkably": 7702,
    "Ġimpetuous": 25570,
    "Ġcrunched": 19123,
    "Ġstacked": 21740,
    "Ġchicha": 15935,
    "Ġaffright": 9331,
    "vius": 23541,
    "Ġpausing": 8652,
    "watch": 6118,
    "Ġtrusted": 10517,
    "Ġdeceiving": 21834,
    "Ġtie": 10750,
    "Ġcaptain": 1604,
    "Ġforked": 11663,
    "Ġchip": 12822,
    "Ġgun": 4701,
    "Ġpresided": 20206,
    "Ġburial": 16521,
    "Ġcruise": 12047,
    "Ġsums": 2905,
    "Ġdefinition": 14403,
    "Ġlantern": 7116,
    "Ġunconquerable": 22060,
    "complaisance": 24811,
    "Ġdanger": 3519,
    "Ġhey": 11640,
    "Ġwired": 17786,
    "situ": 9621,
    "Ġrecommended": 8667,
    "Ġclock": 9532,
    "waving": 21130,
    "pieces": 8754,
    "Ġbutton": 10267,
    "Ġcherry": 16935,
    "Ġindications": 14632,
    "Ġadvertising": 25389,
    "Ġcontracting": 16010,
    "Ġwhalebone": 10977,
    "bb": 2797,
    "Ġhair": 3316,
    "extremely": 26264,
    "keys": 15857,
    "Ġpast": 2099,
    "achment": 5464,
    "Ġselect": 4002,
    "Ġheld": 3585,
    "gale": 13723,
    "Ġcontinue": 5398,
    "Ġimmeasurable": 26229,
    "Ġmean": 742,
    "zed": 8103,
    "furniture": 20241,
    "Ġop": 2601,
    "Ġexpands": 25237,
    "================================": 5671,
    "Ġextravagance": 17279,
    "Ġsmoothe": 23654,
    "Ġsheets": 9721,
    "ength": 2309,
    "expound": 23659,
    "Ġdiffers": 23779,
    "Ġshudder": 9050,
    "Ġeclips": 20695,
    "Į": 239,
    "Ġlengthwise": 10452,
    "caves": 20815,
    "ez": 5683,
    "Ġregular": 941,
    "Ġbarrens": 25501,
    "early": 20117,
    "Ġchin": 4891,
    "Ġoutbreak": 22314,
    "ouring": 6420,
    "asy": 5294,
    "Ġblueprints": 13170,
    "secure": 12233,
    "sole": 6168,
    "Ġenvied": 19276,
    "Ġparents": 6752,
    "Ġmatter": 1734,
    "Ġcurving": 16233,
    "Ġxiv": 23406,
    "hanging": 10100,
    "Ġcusack": 26433,
    "Ġtrans": 647,
    "Ġinex": 6528,
    "Ġeasy": 3454,
    "affections": 17356,
    "Ġdish": 6136,
    "Ġchances": 9262,
    "Ġunheeded": 18261,
    "Ġscorch": 20065,
    "Ġadmirer": 16838,
    "room": 2177,
    "ignorantly": 25189,
    "finished": 10554,
    "ccarthy": 4888,
    "isturbed": 18297,
    "Ġbar": 3149,
    "Ġmusk": 7494,
    "Ġcounteracted": 19861,
    "bres": 11471,
    "board": 3564,
    "Ġhosmer": 6774,
    "Ġcountrymen": 23594,
    "Ġimpet": 11777,
    "Ġpanted": 21470,
    "utral": 12660,
    "mushroom": 26395,
    "endeavouring": 15015,
    "Ġdumbly": 24985,
    "interesting": 12199,
    "Ġparac": 12792,
    "Ġthoroughfares": 26095,
    "autumn": 23341,
    "Ġplanks": 5564,
    "Ġnavigators": 19762,
    "planks": 21957,
    "Ġascertained": 25296,
    "arse": 7160,
    "Ġsixpence": 19316,
    "Ġpines": 12614,
    "hearted": 6970,
    "by": 1157,
    "Ġexamining": 8005,
    "Ġnods": 19064,
    "Ġparcels": 25465,
    "Ġmess": 7831,
    "ounders": 22390,
    "Ġoccupant": 16651,
    "Ġpreacher": 18369,
    "Ġlogger": 11952,
    "approaching": 15011,
    "Ġlung": 7167,
    "ĠvertebrÃ¦": 11435,
    "Ġessentials": 20001,
    "Ġactionable": 24559,
    "Ġcolleague": 17159,
    "Ġuncertain": 4070,
    "Ġdetached": 10279,
    "Ġlinguistic": 12423,
    "Ġtri": 4813,
    "lucifer": 25302,
    "Ġbloss": 19255,
    "alliance": 22197,
    "bony": 15318,
    "Ġwhenever": 5166,
    "ado": 11657,
    "ouble": 2662,
    "Ġwhitened": 24867,
    "goes": 10426,
    "Ġinve": 17928,
    "Ġtime": 690,
    "Ġcreativity": 3067,
    "indirect": 22369,
    "poor": 6060,
    "Ġnails": 12645,
    "plex": 708,
    "itate": 6667,
    "Ġshrinking": 14804,
    "Ġrepenting": 25322,
    "Ġlad": 2361,
    "Ġbodily": 6106,
    "ultural": 22565,
    "acceptance": 25185,
    "evade": 24820,
    "move": 11852,
    "scence": 14416,
    "Ġslugg": 15267,
    "Ġwindward": 6885,
    "Ġdimension": 3241,
    "kine": 15374,
    "Ġcosmopolitan": 20640,
    "Ġbur": 2699,
    "Ġdangling": 17174,
    "Ġclapping": 14205,
    "request": 21240,
    "Ġvisions": 12974,
    "ivates": 18282,
    "ts": 960,
    "suitableness": 26260,
    "Ġork": 18284,
    "apidated": 22333,
    "Ġforest": 9870,
    "python": 4691,
    "ier": 1135,
    "Ġthink": 987,
    "Ġpenetrated": 13471,
    "hau": 17562,
    "Ġins": 2778,
    "Ġoversight": 22345,
    "particip": 23615,
    "Ġofficer": 6753,
    "eldom": 4412,
    "courageous": 26127,
    "Ġhellish": 10550,
    "coiled": 16486,
    "ern": 759,
    "Ġhay": 11604,
    "ele": 9114,
    "Ġaccur": 3611,
    "march": 13754,
    "Ġdecidedly": 9508,
    "Ġlighting": 13081,
    "keep": 3853,
    "Ġgrenadier": 21613,
    "bushes": 24447,
    "Ġincreasing": 8246,
    "Ġadmin": 23552,
    "Ġreceptive": 1565,
    "Ġsalvation": 14757,
    "Ġsignify": 16494,
    "luding": 6700,
    "Ġfatal": 5871,
    "Ġrede": 13983,
    "Ġannealing": 1554,
    "Ġdispel": 16596,
    "Ġsteward": 6584,
    "spirit": 11313,
    "Ġcharacter": 2791,
    "maker": 12490,
    "Ġfasten": 11132,
    "presently": 9806,
    "ama": 11676,
    "Åĵ": 10744,
    "Ġjustification": 22963,
    "urons": 3132,
    "Ġoh": 2174,
    "Ġfuriously": 9801,
    "Ġwines": 21286,
    "obli": 23092,
    "operations": 19973,
    "Ġdeformed": 14046,
    "\"": 6,
    "Ġgiant": 13967,
    "crippled": 26384,
    "omical": 9679,
    "Ġtails": 9901,
    "Ġserv": 3331,
    "Ġreluct": 14371,
    "Ġeffectual": 18733,
    "Ġsiamese": 20481,
    "Ġsemi": 11967,
    "rowing": 7930,
    "Ġunh": 9252,
    "Ġwished": 3729,
    "Ġdiscoverer": 26035,
    "Ġhinges": 15211,
    "asiness": 8128,
    "Ġdiscontented": 16058,
    "Ġarrested": 9560,
    "pped": 1998,
    "rate": 2422,
    "Ġvap": 6837,
    "Ġtex": 15472,
    "Ġobst": 6284,
    "Ġ1890": 23893,
    "therefore": 5953,
    "Ġplush": 18610,
    "aways": 15309,
    "hounds": 20906,
    "ospel": 17010,
    "asis": 12647,
    "ven": 780,
    "Ġdispleasure": 16051,
    "Ġproofs": 19813,
    "Ġyard": 5920,
    "malicious": 19901,
    "offers": 16394,
    "Ġautomatically": 3981,
    "Ġdorm": 4821,
    "miles": 10712,
    "Ġbarbed": 14834,
    "Ġsteadfast": 8678,
    "Ġpaying": 9937,
    "Ġexist": 9231,
    "Ġbehavioral": 11396,
    "Ġmalays": 19676,
    "Ġmien": 17808,
    "Ġinclemency": 22552,
    "loa": 18533,
    "Ġdrawled": 23986,
    "vital": 17700,
    "Ġresume": 18565,
    "Ġdiffusion": 23780,
    "suff": 4962,
    "Ġfootfall": 14661,
    "Ġgenerate": 1505,
    "Ġsuspecting": 14909,
    "'(": 2978,
    "conqu": 14244,
    "Ġscandal": 9081,
    "Ġthoughtless": 16192,
    "Ġtiara": 26415,
    "Ġforster": 5230,
    "ancy": 4392,
    "interval": 7990,
    "imod": 15708,
    "Ġbecomes": 6396,
    "sin": 21047,
    "uous": 4147,
    "bond": 17489,
    "Ġwalled": 15534,
    "Ġbear": 3657,
    "dies": 15337,
    "Ġflattered": 10374,
    "Ġwear": 6030,
    "horner": 23613,
    "Ġproceeds": 12075,
    "start": 7598,
    "shudder": 26245,
    "ently": 1430,
    "car": 4213,
    "Ġveracity": 23887,
    "ifting": 6545,
    "Ġignor": 4015,
    "Ġmeridians": 17355,
    "Ġoust": 21322,
    "Ġbeaufort": 13567,
    "Ġtheirs": 7024,
    "robe": 15640,
    "Ġcapricious": 20537,
    "virtue": 20568,
    "Ġderives": 16308,
    "Ġjohnson": 18409,
    "Ġplays": 12036,
    "Ġlumps": 21553,
    "Ġbermud": 26439,
    "Ġamerican": 5061,
    "Ġrare": 7035,
    "inde": 17731,
    "Ġholidays": 22919,
    "Ġsane": 21220,
    "Ġnevertheless": 5040,
    "Ġunceasingly": 20357,
    "cas": 20793,
    "Ġtradesman": 20071,
    "Ġresid": 22535,
    "Ġdetaining": 25818,
    "'s": 2470,
    "eration": 10772,
    "Ġtracing": 18889,
    "constellation": 24607,
    "Ġlascar": 9199,
    "Ġmilk": 6485,
    "cheered": 23803,
    "Ġarist": 14159,
    "Ġexceptional": 19369,
    "Ġbars": 13896,
    "Ġbecame": 2692,
    "Ġplum": 11820,
    "Ġprogressive": 5024,
    "Ġfortifications": 23619,
    "vineyard": 25421,
    "Ġbottle": 7490,
    "Ġascendency": 20231,
    "Ġtink": 9148,
    "Ġobli": 9315,
    "Ġform": 1025,
    "hatred": 24821,
    "Ġgreyish": 24208,
    "danger": 10089,
    "Ġshepherd": 14152,
    "tend": 17674,
    "forbidding": 25836,
    "sharks": 14237,
    "adie": 18088,
    "Ġho": 1931,
    "Ġauthority": 7748,
    "sery": 17661,
    "goodness": 19288,
    "Ġripp": 11219,
    "Ġdoze": 14176,
    "Ġprodigious": 8056,
    "Ġadjac": 18292,
    "dwelling": 20563,
    "ables": 7889,
    "Ġharris": 13926,
    "sighted": 19784,
    "Ġhessian": 3547,
    "Ġbrixton": 13662,
    "ullo": 12726,
    "persuasion": 20042,
    "ell": 398,
    "Ġgathered": 8442,
    "Ġrelev": 1716,
    "should": 3264,
    "Ġclever": 7054,
    "Ġpresuming": 16793,
    "Ġspoilt": 24807,
    "Ġbelow": 4064,
    "Ġeleven": 9389,
    "iner": 2672,
    "Ġsalad": 19477,
    "Ġcarefully": 6304,
    "Ġill": 2191,
    "Ġgrated": 22801,
    "Ġanswering": 7477,
    "Ġhiss": 15786,
    "stern": 8444,
    "ism": 4874,
    "Ġsensation": 6896,
    "Ġpalpit": 16691,
    "ital": 4817,
    "Ġmoustache": 20482,
    "Ġsult": 10767,
    "trembling": 17142,
    "hurrying": 14982,
    "dece": 11732,
    "Ġchick": 22244,
    "Ġreckless": 13457,
    "Ġ76": 24262,
    "Ġcoward": 7155,
    "Ġcanst": 8857,
    "function": 4036,
    "Ġsearch": 2589,
    "Ġgleaming": 24993,
    "official": 24914,
    "Ġsixty": 7722,
    "rrh": 26144,
    "Ġslates": 11107,
    "Ġmathemat": 3204,
    "pray": 5429,
    "Ġcorresponding": 13437,
    "cats": 17512,
    "renched": 7906,
    "Ġchag": 15930,
    "Ġintellectual": 11401,
    "Ġburgl": 13172,
    "Ġdescends": 14286,
    "Ġsibbald": 21229,
    "Ġprofession": 6207,
    "Ġan": 286,
    "Ġfront": 3453,
    "quished": 21851,
    "Ġdep": 738,
    "Ġplanets": 24056,
    "Ġonce": 1490,
    "Ġparmacetti": 20603,
    "Ġproceeding": 9905,
    "Ġstair": 8455,
    "Ġdiving": 12598,
    "Ġrenegades": 26476,
    "Ġroar": 9751,
    "Ġseverely": 14932,
    "arthly": 8029,
    "Ġbelieved": 4367,
    "arrangement": 17414,
    "ification": 1014,
    "itheat": 21336,
    "U": 57,
    "Ġstrictly": 12283,
    "Ġoftener": 13564,
    "Ġprospects": 9958,
    "Ġhooped": 23353,
    "Ġnoise": 1072,
    "Ġexhibiting": 19837,
    "Ġridic": 7508,
    "success": 6710,
    "Ġdisputing": 25824,
    "Ġdancing": 5703,
    "Ġindignation": 8346,
    "Ġdistracted": 11802,
    "accept": 8897,
    "Ġthanks": 6707,
    "Ġbehalf": 14507,
    "Ġadro": 15866,
    "Ġclimb": 15078,
    "drove": 16993,
    "Ġano": 11595,
    "Ġunprinciple": 18254,
    "Ġbab": 5289,
    "Ġdisappointing": 19578,
    "Ġpatient": 6894,
    "Ġloss": 823,
    "into": 3681,
    "Ġrags": 18635,
    "steaks": 23958,
    "ole": 9613,
    "afforded": 25865,
    "Ġclubb": 22355,
    "Ġmaternal": 11059,
    "acious": 5563,
    "ble": 542,
    "Ġfacing": 10171,
    "may": 3680,
    "Ġwithdrawing": 11340,
    "Ġharriet": 24572,
    "Ġoughts": 23898,
    "thyself": 19297,
    "vid": 915,
    "soft": 12507,
    "ted": 791,
    "Ġrigging": 5601,
    "idually": 21766,
    "Ġpack": 5444,
    "owl": 12681,
    "visited": 13346,
    "Ġsil": 1796,
    "Ġdirected": 5579,
    "Ġselves": 21221,
    "pinn": 21025,
    "placed": 7879,
    "Ġklux": 22192,
    "Ġrepeating": 11213,
    "Ġcarpent": 4464,
    "Ġmoderation": 12817,
    "Ġwhirlpool": 20654,
    "Ġflukes": 5266,
    "Ġpenetrating": 17011,
    "Ġheightens": 24154,
    "Ġsmile": 4272,
    "Ġhatchet": 16528,
    "Ġexquis": 9698,
    "Ġelig": 9777,
    "complexion": 14360,
    "Ġsix": 3043,
    "Ġwhimsical": 20426,
    "Ġscarce": 8621,
    "extending": 22768,
    "Ġempty": 5353,
    "Ġregained": 18596,
    "good": 2902,
    "Ġconductor": 24004,
    "Ġchowder": 10280,
    "rey": 12535,
    "Ġinflu": 4909,
    "endless": 22221,
    "Ġmagnifying": 16320,
    "Ġapproached": 5843,
    "weave": 22682,
    "Ġmouthful": 16574,
    "arming": 8951,
    "clu": 20798,
    "Ġd": 284,
    "uts": 8815,
    "Ġeffusion": 22495,
    "Ġbead": 21747,
    "maltese": 24795,
    "Ġunderground": 18984,
    "monograph": 23523,
    "Ġlombardy": 26463,
    "Ġreckon": 19869,
    "Ġostent": 13583,
    "ination": 2915,
    "public": 17646,
    "Ġassisting": 13255,
    "Ġconvulsive": 19306,
    "esc": 617,
    "Ġaccordance": 19496,
    "harmony": 25750,
    "Ġpigeon": 9515,
    "Ġstam": 18065,
    "Ġmystic": 7503,
    "ivility": 12786,
    "Ġtumbling": 13825,
    "Ġsurrender": 16450,
    "Ġren": 3848,
    "Ġextra": 4058,
    "Ġenvirons": 13182,
    "Ġexpl": 487,
    "tempt": 21078,
    "Ġtoller": 9090,
    "sockets": 22729,
    "Ġmich": 21304,
    "ĭ": 238,
    "harpooneers": 8689,
    "relatively": 24013,
    "triumph": 15440,
    "sartain": 25622,
    "ug": 1767,
    "quickly": 14961,
    "Ġjinglers": 26018,
    "Ġconveniently": 20077,
    "ge": 559,
    "Ġunsh": 14114,
    "Ġwhispers": 14699,
    "Ġwis": 3728,
    "thee": 9689,
    "h": 76,
    "Ġbru": 13894,
    "Ġbelike": 18830,
    "Ġsearched": 15815,
    "plexion": 14260,
    "._]]": 5334,
    "made": 4808,
    "Ġcontain": 1553,
    "Ġproperly": 7944,
    "plish": 18208,
    "Ġpace": 9183,
    "Ġbless": 4342,
    "Ġappearances": 10451,
    "ression": 3406,
    "Ġsmite": 22554,
    "smart": 23904,
    "Ġmain": 810,
    "fth": 20855,
    "Ġunexplored": 26518,
    "ara": 12603,
    "Ġbranches": 6776,
    "Ġhorizont": 6937,
    "Ġrecoil": 18684,
    "Ġ59": 24327,
    "Ġscaffold": 18400,
    "Ġmat": 1148,
    "gging": 7696,
    "ask": 856,
    "Ġfreshe": 13068,
    "Ġdonkey": 23226,
    "afterwards": 7484,
    "Ġunrest": 11712,
    "Ġliquid": 22406,
    "Ġlively": 5449,
    "Ġtransition": 14241,
    "Ġarg": 4766,
    "Ġbuttoned": 25368,
    "Ġfirmly": 8013,
    "Ġperhaps": 1911,
    "rud": 4191,
    "included": 19207,
    "landish": 11940,
    "Ġminimizes": 2047,
    "person": 7745,
    "Ġpolar": 9410,
    "Ġtouch": 3397,
    "Ġstature": 10863,
    "agos": 21901,
    "oquent": 12497,
    "failed": 20862,
    "penetrating": 25490,
    "Ġslaves": 23166,
    "Ġcollection": 8221,
    "Ġthose": 1173,
    "Ġchast": 18380,
    "Ġalmighty": 18104,
    "una": 21866,
    "orable": 8119,
    "ë": 172,
    "Ġvilest": 20099,
    "Ġyarman": 12702,
    "Ġcounterpart": 24721,
    "æ": 167,
    "Ġoutlast": 22310,
    "atmosphere": 21263,
    "apologizing": 26544,
    "Ġdiscoveries": 13357,
    "Ġpom": 21450,
    "Ġsympathetic": 17358,
    "Ġendued": 14076,
    "phren": 22759,
    "Ġstony": 21736,
    "inkling": 16089,
    "rods": 21535,
    "Ġwreaths": 25937,
    "Ġcomparatively": 9489,
    "Ġpatients": 24813,
    "Ġgarb": 21600,
    "Ġgeese": 7693,
    "Ġzero": 1202,
    "Ġcarries": 7673,
    "deceit": 25556,
    "Ġcounting": 13094,
    "Ġharvest": 13414,
    "rief": 6202,
    "terrific": 25040,
    "Ġpreceded": 13427,
    "tical": 10128,
    "Ġhamp": 12627,
    "Ġinterested": 6458,
    "sit": 13779,
    "immense": 18052,
    "Ġsymmetry": 20364,
    "Ġnoon": 6559,
    "Ġstarted": 4152,
    "umpled": 15875,
    "Ġtun": 5998,
    "Ġattempting": 14696,
    "jeroboam": 25619,
    "Ġinsince": 23674,
    "Ġourselves": 5127,
    "Ġviolin": 16428,
    "fishing": 20858,
    "Ġraptures": 13495,
    "Ġadjusting": 3414,
    "Ġcuff": 17829,
    "Ġgrimes": 11034,
    "Ġdemand": 4947,
    "calcul": 12984,
    "Ġwould": 652,
    "Ġthickness": 13276,
    "Ġ275": 20109,
    "Ġeternally": 11369,
    "gent": 7129,
    "Ġcorrupt": 11921,
    "stool": 23816,
    "addition": 13383,
    "Ġfunny": 7637,
    "Ġest": 2263,
    "Ġvolley": 24145,
    "R": 54,
    "Ġattics": 22624,
    "Ġdozing": 22240,
    "Ġsav": 3358,
    "Ġparm": 15876,
    "mercenary": 26315,
    "calmly": 20138,
    "ascribed": 24708,
    "Ġsolely": 9909,
    "Ġimp": 574,
    "Ġtease": 18801,
    "arch": 1118,
    "separately": 25227,
    "Ġpassive": 22838,
    "officer": 17054,
    "Ġmaimed": 21315,
    "Ġtrading": 23074,
    "Ġaverred": 18864,
    "norm": 20984,
    "appl": 9325,
    "drop": 15336,
    "Ġpips": 9847,
    "father": 3779,
    "stript": 21654,
    "Ġhail": 7400,
    "Ñ": 146,
    "rous": 3755,
    "Ġturning": 3329,
    "Ġgentlemanly": 19315,
    "sli": 11522,
    "howling": 18990,
    "Ġpolitics": 19224,
    "mansion": 20982,
    "Ġmince": 22828,
    "Ġrashly": 20304,
    "Ġsmoky": 22555,
    "doubted": 17526,
    "Ġslang": 23156,
    "direct": 12454,
    "Ġsuspic": 4469,
    "obliged": 20630,
    "proper": 7471,
    "Ġvegetables": 15220,
    "dart": 20825,
    "Ġshilling": 18228,
    "dar": 20823,
    "Ġbeamed": 23719,
    "Ġimpulses": 19960,
    "Ġbeaver": 18085,
    "Ġalice": 1481,
    "Ġhabitations": 24789,
    "Ġlustre": 15133,
    "thrusting": 20258,
    "Ġsucceeded": 6105,
    "Ġmelted": 19620,
    "Ġgover": 2462,
    "Ġallured": 14112,
    "iding": 3849,
    "Ġlatter": 3993,
    "Ġcomforted": 19389,
    "tea": 18741,
    "Ġevenings": 18753,
    "nical": 20990,
    "ectual": 21910,
    "Ġwhiteness": 5918,
    "gather": 20874,
    "Ġeducation": 5128,
    "Ġcreature": 2382,
    "Ġraved": 22637,
    "Ġregain": 22583,
    "Ġsw": 1354,
    "carries": 19526,
    "Ġoverwhel": 8194,
    "ouder": 17900,
    "Ġeasiness": 23536,
    "Ġsqueezing": 25006,
    "Ġdreadful": 4920,
    "anced": 1320,
    "Ġxxii": 24478,
    "regards": 23465,
    "expanded": 23661,
    "Ġglobules": 26588,
    "Ġassented": 17337,
    "thou": 4708,
    "Ġbrink": 18769,
    "values": 4973,
    "Ġneatly": 17016,
    "ese": 4442,
    "Ġslavery": 16307,
    "Ġredu": 1353,
    "Ġprolong": 6832,
    "gratulation": 24349,
    "emptied": 23634,
    "Ġsmut": 22553,
    "acute": 22595,
    "rabb": 15678,
    "Ġalco": 21779,
    "begone": 12875,
    "breast": 11246,
    "gree": 10701,
    "Ġnantucketers": 9893,
    "Ġcruellest": 19657,
    "ceive": 3063,
    "anous": 21357,
    "Ġhuff": 21487,
    "đ": 210,
    "Ġvelv": 10619,
    "Ġpromoting": 3162,
    "Ġcells": 13884,
    "Ġslashing": 23167,
    "answering": 26004,
    "Ġguessed": 11282,
    "Ġesteemed": 10588,
    "dev": 7631,
    "Ġcosmopol": 16455,
    "Ġartist": 12909,
    "Ġswift": 3668,
    "superst": 11325,
    "Ġfaced": 10808,
    "gd": 3126,
    "tout": 21064,
    "Ġinserting": 19905,
    "Ġfinishing": 23121,
    "Ġloaded": 8490,
    "opotam": 22476,
    "ra": 314,
    "involuntarily": 20413,
    "Ġtrooped": 24899,
    "Ġspeechless": 13352,
    "Ġ38": 24079,
    "Ġspine": 7407,
    "Ġnegro": 6447,
    "Ġgaping": 13968,
    "mund": 13757,
    "Ġsof": 18279,
    "Ġpond": 13915,
    "Ġpanel": 13371,
    "Ġoblivious": 26032,
    "Ġcasks": 7521,
    "bitterly": 20336,
    "avor": 14276,
    "Ġtables": 9877,
    "Ġportable": 19368,
    "proachable": 23396,
    "Ġassumpt": 5415,
    "Ġbold": 5291,
    "Ġdoth": 13907,
    "Ġpugnacious": 26451,
    "oyed": 14363,
    "clump": 23152,
    "iscuits": 24666,
    "Ġyanke": 18097,
    "Ġstrateg": 1381,
    "linen": 25257,
    "Ġflattering": 13026,
    "immediate": 20092,
    "cou": 13694,
    "Ġreveries": 11347,
    "Ġpertin": 18449,
    "Ġrepublic": 14531,
    "ĠĠĠĠĠĠĠĠĠĠĠĠĠĠĠĠĠĠĠĠĠĠĠĠĠĠĠĠĠ": 19698,
    "Ġforests": 13591,
    "!_âĢĶ": 19971,
    "Ġpersisting": 18902,
    "Ġfort": 2578,
    "bound": 6220,
    "Ġsubsisted": 19117,
    "Ġmarbank": 23034,
    "Ġthoroughly": 8347,
    "unmistakable": 21892,
    "Ġeveryone": 8917,
    "heard": 5009,
    "culiar": 2820,
    "Ġdeliver": 9846,
    "ulated": 6029,
    "Ġstation": 5297,
    "li": 1189,
    "rice": 13776,
    "Ġfinite": 2320,
    "endar": 18362,
    "ape": 1905,
    "Ġcring": 15550,
    "Ġassur": 6073,
    "upwards": 18863,
    "Ġcommunication": 1869,
    "Ġfurled": 22809,
    "adieu": 26200,
    "Ġcharnel": 22249,
    "winding": 16720,
    "reposed": 24492,
    "Ġcrosses": 23058,
    "hears": 12530,
    "commotion": 24913,
    "Ġsixth": 16558,
    "ĠĠĠĠĠĠĠĠĠĠĠĠĠĠĠĠĠĠĠĠĠĠĠĠĠĠĠĠĠĠĠĠĠĠĠĠĠĠĠĠĠĠĠ": 12152,
    "unless": 9234,
    "onent": 21247,
    "expedition": 26078,
    "Ġmemoirs": 26205,
    "Ġhospit": 7514,
    "Ġindiscreet": 22953,
    "Ġvoids": 25807,
    "strength": 13979,
    "laying": 19771,
    "bre": 3982,
    "abated": 14019,
    "Ġrepugn": 23361,
    "Ġour": 1009,
    "Ġungracious": 18258,
    "ercely": 12547,
    "ě": 220,
    "Ġdismasted": 15250,
    "Ġgothic": 17999,
    "ak": 537,
    "grampus": 18617,
    "Ġheart": 1596,
    "Ġdue": 3847,
    "Ġplant": 8899,
    "Ġev": 4828,
    "Ġenraged": 10244,
    "*": 14,
    "pe": 1436,
    "carp": 9109,
    "jected": 22709,
    "Ġabhorrence": 9052,
    "hearse": 17748,
    "Ġinstantaneous": 14612,
    "Ġcomprehensive": 15086,
    "Ġbri": 21376,
    "Ġclimbing": 20068,
    "atiate": 12545,
    "Ġrobustness": 18877,
    "Ġdirectly": 2105,
    "Ġhearsed": 25039,
    "Ġencircling": 26271,
    "Ġherself": 1569,
    "Ġcrouched": 23440,
    "table": 5795,
    "Ġtra": 1384,
    "Ġkettle": 26232,
    "Ġpreferred": 14965,
    "Ġberths": 20113,
    "Ġhabits": 6926,
    "previously": 17207,
    "Ġinquirers": 24962,
    "ernsey": 8901,
    "avoiding": 25236,
    "Ġcharacters": 9371,
    "ø": 185,
    "Ġimpossibility": 20646,
    "Ġgnarled": 25165,
    "Ġauthors": 10417,
    "Ġknitted": 19588,
    "Ġguardian": 14941,
    "Ġperturbed": 20438,
    "admirably": 24944,
    "Ġstill": 1155,
    "overed": 2855,
    "Ġbidding": 9536,
    "Ġwool": 19431,
    "Ġimagine": 3927,
    "deemed": 18315,
    "Ġwise": 6811,
    "Ġcould": 703,
    "Ġhearty": 9844,
    "wag": 21122,
    "varied": 23181,
    "Ġmeanings": 18608,
    "painful": 13501,
    "Ġallurements": 22004,
    "Ġmaddening": 17243,
    "ife": 1026,
    "impregnable": 26481,
    "Ġunlim": 18253,
    "Ġponder": 6819,
    "Ġamerica": 6763,
    "rapidly": 15242,
    "gee": 15976,
    "Ġclothed": 19605,
    "t": 88,
    "Ġsire": 15501,
    "Ġgans": 5821,
    "Ġsufficient": 2003,
    "rison": 13778,
    "Ġmetropolitan": 17275,
    "ceed": 1076,
    "Ġdollar": 25283,
    "heric": 15910,
    "horn": 8085,
    "Ġwrought": 11942,
    "pag": 11510,
    "Ġpreside": 18365,
    "americ": 8155,
    "Ġanyone": 4457,
    "tomb": 21092,
    "expressive": 24305,
    "Ġdeity": 18134,
    "Ġorder": 1683,
    "Ġfatality": 12092,
    "Ġtremble": 6906,
    "Ġhab": 4219,
    "Ġ57": 24325,
    "object": 6884,
    "Ġlandsman": 11350,
    "Ġsoftened": 11102,
    "ozy": 17622,
    "Ġlabourers": 23330,
    "Ġshelves": 14998,
    "<SOS>": 1,
    "Ġevidence": 5269,
    "Ġmoderate": 10939,
    "urious": 21700,
    "Ġvehicle": 20137,
    "Ġdazzling": 15210,
    "Ġwoof": 14720,
    "Ġbread": 5404,
    "philosop": 9567,
    "plain": 1357,
    "gyric": 19109,
    "Ġwee": 21916,
    "Ġbrother": 2748,
    "Ġdispersed": 16597,
    "liest": 6294,
    "Ġmotions": 8280,
    "Ġfled": 6670,
    "Ġsnug": 8279,
    "Ġcritic": 19124,
    "Ġeyford": 10641,
    "Ġdire": 866,
    "Ġspan": 11726,
    "Ġjumped": 7096,
    "ste": 3584,
    "Ġfurrow": 22810,
    "Ġcompanionship": 14919,
    "Ġhasn": 12924,
    "onde": 21250,
    "Ġprank": 23216,
    "Ġelij": 8909,
    "Ġshol": 21992,
    "oe": 7552,
    "max": 1682,
    "Ġprivate": 5345,
    "search": 8464,
    "seat": 18125,
    "Ġchaplain": 19911,
    "mental": 16047,
    "Ġwholly": 4445,
    "Ġaroused": 15893,
    "Ġencamped": 22798,
    "anatory": 21361,
    "glow": 20873,
    "Ġedward": 19119,
    "Ġcultured": 25154,
    "nantucketer": 24972,
    "cask": 12444,
    "Ġinscribed": 24938,
    "amous": 15759,
    ".âĢĻ": 1721,
    "Ġannals": 17898,
    "Ġunra": 18237,
    "Ġegg": 8818,
    "Ġpropos": 7061,
    "inates": 21179,
    "sw": 4741,
    "Ġimperial": 9480,
    "Ġchill": 11750,
    "Ġmarks": 6746,
    "Ġshad": 3852,
    "projecting": 26073,
    "Ġfairly": 6325,
    "Ġchapter": 2956,
    "Ġcrumpled": 16442,
    "elt": 4118,
    "Ġrand": 1586,
    "Ġwhitney": 11373,
    "Ġunaware": 22056,
    "Ġnorthward": 13320,
    "mies": 20967,
    "Ġvocabulary": 4995,
    "intended": 11066,
    "âĢĶ_": 3202,
    "bree": 15313,
    "Ġgra": 416,
    "thern": 4953,
    "Ġallows": 3234,
    "severe": 21816,
    "large": 6625,
    "Ġmis": 916,
    "Ġpand": 21453,
    "Ġextreme": 2514,
    "Ġrapture": 13494,
    "turtle": 12209,
    "Ġlick": 21547,
    "latitudes": 17196,
    "Ġirritated": 17242,
    "Ġsources": 10147,
    "reg": 2182,
    "Ġbelieve": 2147,
    "Ġarising": 10933,
    "Ġcraven": 16469,
    "Ġmountains": 4425,
    "Ġworshipper": 25692,
    "Ġmonuments": 22979,
    "Ġwoodlands": 23518,
    "pate": 21009,
    "Ġamusements": 16913,
    "Ġpeered": 18668,
    "Ġamsterdam": 22481,
    "Ġasyl": 12731,
    "alid": 13934,
    "water": 4868,
    "Ġseptember": 18205,
    "Ġalso": 1344,
    "Ġhalting": 16272,
    "everybody": 8610,
    "brÃ¦": 11175,
    "harpoone": 6107,
    "Ġclearer": 16312,
    "Ġjob": 7015,
    "...": 24549,
    "Ġpersist": 16289,
    "passing": 14811,
    "Ġinfamy": 14501,
    "Ġobeying": 13413,
    "clothes": 9057,
    "Ġcultiv": 13555,
    "Ġemer": 5958,
    "Ġdata": 515,
    "Ġbegrim": 23014,
    "Ġconduct": 3733,
    "Ġpag": 6010,
    "Ġartistic": 18612,
    "tit": 11527,
    "Ġfreighted": 16323,
    "Ġweigh": 10894,
    "Ġforgot": 4683,
    "Ġassumptions": 5517,
    "grim": 19106,
    "Ġsuppress": 13021,
    "very": 500,
    "majesty": 26280,
    "Ġfren": 10805,
    "Ġminima": 3465,
    "Ġwra": 5905,
    "doom": 23375,
    "Ġunworthy": 11713,
    "elzebub": 26464,
    "Ġwell": 900,
    "Ġbarb": 4530,
    "algorithms": 8291,
    "splash": 25209,
    "Ġoverheard": 11769,
    "Ġtexas": 25922,
    "aken": 1868,
    "ild": 1153,
    "height": 21204,
    "Ġemigrant": 25859,
    "Ġtaken": 2527,
    "Ġsurpass": 13582,
    "atre": 17770,
    "angling": 14140,
    "Ġabridged": 26540,
    "fe": 672,
    "Ġfare": 5809,
    "Ġalthough": 4153,
    "Ġcanaan": 22162,
    "ountain": 2920,
    "Ġrecede": 25968,
    "hedge": 22496,
    "cially": 3490,
    "Ġtranquillize": 24757,
    "Ġapparel": 20434,
    "Ġhoofs": 14527,
    "Ġthrobbing": 16898,
    "Ġarranged": 9876,
    "ounding": 22389,
    "condem": 16342,
    "Ġduchess": 4799,
    "Ġcord": 5222,
    "Ġindians": 14409,
    "perseus": 26005,
    "Ġfiend": 4410,
    "Ġinhospit": 25452,
    "estation": 15921,
    "jac": 8381,
    "ibilities": 13005,
    "Ġsacrificial": 24871,
    "possesses": 24616,
    "gathered": 13731,
    "ulous": 4448,
    "Ġaccident": 5380,
    "osal": 11757,
    "Ġadieus": 25110,
    "uttered": 8440,
    "prints": 23809,
    "Ġsteered": 11092,
    "someone": 14563,
    "Ġnatures": 16505,
    "abst": 21785,
    "Ġdepartment": 24241,
    "Ġdoc": 7200,
    "Ġgrow": 2862,
    "swear": 16918,
    "Ġrevol": 5537,
    "Ġgiven": 1627,
    "poky": 17644,
    "Ġcongenial": 12409,
    "consolatory": 25306,
    "splice": 17170,
    "Ġattitude": 8903,
    "Ġconfound": 23301,
    "parts": 14601,
    "Ġwantonly": 22892,
    "fellows": 12271,
    "Ġful": 4297,
    "Ġcontriv": 9281,
    "Ġdiscount": 22779,
    "repugnance": 16864,
    "countryman": 24639,
    "omuch": 21637,
    "Ġrepugnance": 19086,
    "Ġguards": 16268,
    "crum": 17511,
    "mon": 2305,
    "id": 338,
    "Ġreceives": 20353,
    "which": 1708,
    "Ġdepicting": 22592,
    "go": 2064,
    "Ġchanges": 2282,
    "Ġnegatived": 23043,
    "Ġelias": 18642,
    "ifications": 9728,
    "Ġgreat": 896,
    "ourse": 8869,
    "phys": 18707,
    "ond": 1160,
    "Ġdiscrete": 2476,
    "imagination": 13479,
    "Ġprovide": 7749,
    "Ġstubb": 1785,
    "bowl": 14890,
    "Ġfab": 15574,
    "ose": 718,
    "Ġmunro": 25630,
    "uble": 21101,
    "Ġrevellers": 21675,
    "onian": 17767,
    "disgraceful": 26076,
    "ogra": 4572,
    "Ġbit": 2964,
    "Ġgenteel": 19979,
    "Ġarriving": 19216,
    "Ġenorm": 5302,
    "lish": 1949,
    "widows": 25344,
    "stating": 21644,
    "adoes": 11659,
    "cri": 17505,
    "Ġnay": 5711,
    "Ġblocked": 19221,
    "Ġperpetually": 17070,
    "Ġclump": 15970,
    "sulphur": 25909,
    "utmost": 21585,
    "ă": 196,
    "Ġeve": 13969,
    "su": 802,
    "Ġtattooed": 11378,
    "auley": 22618,
    "ograph": 4797,
    "Ġneglig": 18878,
    "Ġplanning": 14751,
    "Ġfavourites": 16644,
    "favourable": 12261,
    "Ġjoys": 13218,
    "Ġfault": 5702,
    "far": 5787,
    "Ġpunctil": 20112,
    "Ġug": 8140,
    "pedest": 24695,
    "Ġrivals": 20270,
    "Ġslaugh": 18937,
    "peace": 13046,
    "Ġundertone": 23238,
    "olera": 21830,
    "iminished": 19021,
    "Ġdeer": 12717,
    "sters": 6391,
    "Ġpartly": 6713,
    "Ġarms": 3969,
    "some": 2234,
    "recognised": 15261,
    "revol": 12537,
    "resolution": 17766,
    "Ġstained": 11651,
    "sleeve": 26108,
    "Ġwhalers": 8047,
    "Ġfortitude": 9884,
    "Ġface": 1724,
    "Ġoverwhelm": 25050,
    "sky": 12508,
    "Ġrash": 10898,
    "Ġell": 17715,
    "Ġgracious": 8846,
    "Ġcrow": 3808,
    "mathematics": 26304,
    "real": 10149,
    "att": 1455,
    "Ġfemin": 13435,
    "pointing": 12222,
    "Ġbiases": 2396,
    "intolerable": 22935,
    "jaw": 13742,
    "staff": 21653,
    "Ġ27": 8614,
    "Ġthee": 2623,
    "Ġwaterproof": 19088,
    "Ġlifted": 6985,
    "ost": 5360,
    "Ġravines": 25830,
    "Ġdug": 21428,
    "suspect": 9539,
    "Ġdiff": 3116,
    "strom": 15682,
    "Ġhugest": 17015,
    "Ġforenoon": 19126,
    "intellig": 5320,
    "Ġsidel": 9635,
    "thankful": 16806,
    "draught": 12087,
    "Ġcoiling": 12902,
    "ifferent": 4263,
    "Ġundressed": 19512,
    "ispens": 8335,
    "Ġnotions": 14098,
    "wood": 5897,
    "Ġdau": 21423,
    ":âĢĶ": 4430,
    "ecess": 17532,
    "umbered": 22114,
    "gus": 13724,
    "Ġextracted": 16304,
    "Ġbingley": 1673,
    "suspicious": 25390,
    "Ġprime": 10404,
    "Ġblood": 3169,
    "light": 3017,
    "Ġforeshad": 23451,
    "illing": 8174,
    "Ġcrony": 23439,
    "osures": 22258,
    "Ġperturbation": 20439,
    "steel": 8298,
    "Ġredoubled": 23751,
    "athered": 6972,
    "value": 18810,
    "Ġhansom": 13663,
    "Ġnarwhale": 12291,
    "Ġbringing": 5869,
    "Ġpacing": 8425,
    "ordered": 8789,
    "Ġlounged": 19952,
    "Ġdeserved": 7736,
    "Ġpythag": 26448,
    "Ġentitled": 8539,
    "crew": 7544,
    "Ġsledge": 8110,
    "Ġpennies": 17270,
    "uneven": 23680,
    "Ġdoubted": 7964,
    "Ġale": 9154,
    "Ġperilously": 24507,
    "Ġspecialized": 3924,
    "pennies": 26285,
    "duct": 3506,
    "adem": 21754,
    "tired": 21071,
    "Ġregent": 18595,
    "Ġtep": 21160,
    "utarch": 15660,
    "Ġmedium": 16681,
    "Ġdrunkard": 20176,
    "guarded": 13293,
    "dee": 11731,
    "Ġpra": 4346,
    "ommod": 13976,
    "Ġplaited": 14283,
    "Ġenjoying": 11235,
    "sustained": 20567,
    "gold": 9120,
    "Ġvineyards": 25106,
    "Ġincessant": 15096,
    "ogr": 18670,
    "va": 4743,
    "pict": 8385,
    "maged": 15392,
    "restoration": 23235,
    "Ġaccomplice": 24376,
    "wra": 11541,
    "Ġalan": 10869,
    "Ġstri": 2800,
    "Ġpastures": 23418,
    "oll": 5456,
    "Ġconfide": 13097,
    "Ġvalidate": 3069,
    "distressed": 24199,
    "Ġhunch": 18934,
    "Ġcircle": 4977,
    "Ġoscillations": 2901,
    "Ġjobs": 24832,
    "Ġforlorn": 14014,
    "Ġcount": 1815,
    "urous": 10212,
    "Ġdesigns": 13013,
    "Ġ25": 13193,
    "Ġobservations": 13552,
    "03": 20747,
    "Ġskipper": 22795,
    "Ġexploding": 2109,
    "congreg": 25398,
    "Ġdromedary": 17438,
    "emason": 18186,
    "eluded": 21572,
    "Ġcurly": 18843,
    "other": 1315,
    "Ġapprehen": 16829,
    "Ġtransportation": 13641,
    "Ġtermination": 16460,
    "footman": 17162,
    "Ġpyth": 21459,
    "pleasures": 24046,
    "Ġhyster": 16873,
    "Ġlaurel": 20653,
    "agings": 18165,
    "overhearing": 19051,
    "Ġgeneration": 2283,
    "Ġfireboard": 23530,
    "Ġdoleful": 18377,
    "Ġminimax": 5857,
    "Ġmast": 2903,
    "rin": 10121,
    "unfortunate": 15775,
    "izer": 2031,
    "convul": 24883,
    "Ġblush": 14401,
    "Ġbeliever": 25845,
    "Ġbelf": 21379,
    "Ġ156": 20169,
    "proportions": 22832,
    "ark": 848,
    "Ġresting": 7961,
    "Ġwhose": 2008,
    "Ġfrequented": 16585,
    "Ġdl": 3378,
    "uity": 12515,
    "Ġthoughts": 3140,
    "À": 129,
    "Ġannihil": 10174,
    "Ġprovision": 14824,
    "thirds": 25046,
    "Ġfiss": 21410,
    "frisco": 16787,
    "K": 47,
    "Ġnoted": 15829,
    "Ġreusable": 13556,
    "Ġwarp": 8112,
    "Ġcurric": 22968,
    "Ġleak": 2160,
    "Ġamount": 8511,
    "Ġprince": 18971,
    "Ġboil": 16103,
    "]]": 5205,
    "Ġstrive": 23688,
    "Ġpacket": 14892,
    "**:": 4737,
    "Ġbacking": 16116,
    "ĠĠĠĠĠĠĠĠĠĠĠĠĠĠĠĠĠĠĠĠĠĠĠĠĠĠĠĠĠĠ": 24443,
    "returning": 12203,
    "Ġcalculating": 9924,
    "family": 7324,
    "Ġin": 291,
    "Ġwatery": 6296,
    "Ġterrible": 5327,
    "aspect": 10193,
    "Ġcompetition": 14266,
    "Ġgallantry": 15102,
    "Ġcigars": 12250,
    "Ġtries": 9150,
    "Ġhistorical": 3645,
    "Ġalighted": 18103,
    "Ġgrievous": 13258,
    "Ġsled": 21217,
    "Ġwoe": 4793,
    "Ġmoves": 14231,
    "Ġcos": 2206,
    "Ġmargin": 11919,
    "Ġsamuel": 10032,
    "usive": 8191,
    "article": 22396,
    "iciously": 17973,
    "Ġchange": 1994,
    "Ġemotion": 7689,
    "presumption": 20440,
    "Ġfedallah": 6108,
    "fortunes": 6332,
    "Ġprosper": 10228,
    "drew": 7334,
    "Ġhospitals": 24923,
    "Ġ>": 21150,
    "Ġpours": 17911,
    "Ġnamed": 6139,
    "plate": 18207,
    "Ġforgiveness": 16656,
    "osh": 18388,
    "Ġpreposterous": 13668,
    "lun": 20945,
    "circumst": 5348,
    "Ġmasterless": 23992,
    "iply": 22341,
    "prit": 19340,
    "police": 10583,
    "ructure": 760,
    "Ġdarker": 13118,
    "kicked": 20942,
    "ashions": 16417,
    "Ġling": 7377,
    "pread": 7418,
    "soled": 14331,
    "Ġrebellion": 26475,
    "Ġsap": 18323,
    "io": 3805,
    "added": 11658,
    "Ġmoderately": 22216,
    "hope": 5989,
    "mouse": 15391,
    "Ġcoffin": 4427,
    "Ġboughs": 20487,
    "Ġlately": 6387,
    "Ġapril": 13661,
    "Ġdisadvantages": 18558,
    "£": 101,
    "âĢĶâĢĺ": 7013,
    "Ġpau": 17908,
    "Ġassistants": 9450,
    "osity": 14185,
    "Ġdinner": 4245,
    "Ġfeedforward": 2322,
    "iation": 7343,
    "Ġshake": 6033,
    "Ġdecreed": 18482,
    "Ġopinions": 9414,
    "Ġlongest": 18629,
    "Ġlysander": 13138,
    "Ġpalace": 16690,
    "paus": 13772,
    "purposes": 25021,
    "Ġtelling": 5747,
    "preserve": 25303,
    "Ġgenerates": 3663,
    "Ġexcavating": 23312,
    "Ġcurvature": 3573,
    "clearer": 24068,
    "Ġmining": 22827,
    "Ġrealised": 18980,
    "Ġsqueezed": 20034,
    "Ġhappiest": 11880,
    "exp": 2737,
    "Ġing": 5283,
    "Ġtrampled": 20327,
    "Ġtransformers": 1139,
    "Ġimpressions": 9552,
    "Ġopinion": 3144,
    "Ġlink": 8129,
    "civility": 17513,
    "tables": 19756,
    "anks": 3920,
    "Ġmodular": 12815,
    "ifies": 6686,
    "loveliness": 26549,
    "Ġinnocently": 24027,
    "Ġhissing": 15788,
    "hearth": 15499,
    "black": 6768,
    "Ġsmacking": 20164,
    "conjectures": 25180,
    "Ġflame": 7448,
    "Ġspont": 22128,
    "ilated": 18057,
    "Ġcoco": 11000,
    "phants": 9318,
    "Ġmagnific": 16319,
    "Ġice": 3603,
    "Ġkin": 15903,
    "Ġstash": 18067,
    "Ġsuperlative": 26074,
    "Ġgallows": 12143,
    "Ġdegree": 3704,
    "Ġwill": 678,
    "Ġelbow": 12918,
    "Ġarch": 921,
    "heav": 5694,
    "Ġperplex": 2716,
    "ris": 9137,
    "Ġwithdrawn": 10606,
    "isp": 5528,
    "Ġagents": 9765,
    "browed": 25894,
    "Ġanything": 2184,
    "Ġlimb": 9401,
    "etah": 12658,
    "Ġstrings": 11827,
    "gun": 10096,
    "Ġensuring": 11191,
    "Ġresulting": 24198,
    "hamlet": 23260,
    "Ġtropic": 17064,
    "Ġxerxes": 23409,
    "Ġaffidav": 18788,
    "Ġanalogy": 25639,
    "impul": 16555,
    "Ġpoets": 11819,
    "Ġamericans": 14743,
    "Ġtrespass": 23599,
    "pits": 15412,
    "Ġdenial": 13213,
    "Ġluc": 3313,
    "ilet": 12826,
    "mael": 6723,
    "Ġheaded": 11054,
    "Ġrobinson": 17463,
    "Ġstables": 23653,
    "Ġpencils": 23191,
    "Ġgrounds": 6749,
    "pretty": 10621,
    "Ġbuildings": 24720,
    "azine": 19130,
    "voyages": 24855,
    "Ġestablishment": 13578,
    "acter": 2506,
    "absurd": 21792,
    "mering": 12488,
    "Ġrequ": 828,
    "Ġreduces": 2340,
    "Ġevanesc": 24294,
    "Ġcobbling": 20521,
    "Ġsimpl": 1581,
    "furnish": 25338,
    "Ġ39": 19488,
    "Ġcourt": 4171,
    "walked": 10570,
    "Ġdears": 18136,
    "Ġchinks": 22248,
    "flutterings": 26606,
    "Ġpause": 5707,
    "Ġunjustly": 17126,
    "Ġperempt": 13672,
    "Ġanointing": 25539,
    "metals": 24766,
    "Ġdinners": 23979,
    "towns": 24854,
    "Ġcrevice": 22727,
    "spears": 23939,
    "ters": 1575,
    "Ġchuck": 8501,
    "nets": 9132,
    "itics": 13871,
    "Ġmail": 17800,
    "Ġcabman": 14605,
    "Ġprincipally": 11309,
    "retired": 11934,
    "Ġaccelerate": 23225,
    "ott": 1873,
    "Ġchilly": 25562,
    "Ġadoration": 18290,
    "Ġuttering": 16461,
    "Ġdiscipline": 26561,
    "Ġfoundations": 11073,
    "ense": 2052,
    "Ġnever": 1018,
    "ctic": 8441,
    "Ġcirculating": 23371,
    "Ġadvertise": 25388,
    "Ġmccarthys": 19661,
    "bottle": 20144,
    "Ġserve": 9368,
    "ots": 3298,
    "Ġfringed": 17272,
    "Ġacre": 22678,
    "Ġartificial": 789,
    "fights": 20864,
    "Ġwharf": 9559,
    "Ġtornado": 24621,
    "Ġcircumstantial": 14643,
    "Ġ93": 24591,
    "mblies": 24608,
    "avating": 18606,
    "Ġdiddled": 22664,
    "Ġconveys": 16855,
    "Ġatmosphere": 10897,
    "Ġcrazy": 8592,
    "regularly": 13207,
    "Ġwet": 6518,
    "Ġgrego": 18962,
    "remind": 23184,
    "Ġbraces": 14669,
    "fering": 17542,
    "Ġcircus": 19091,
    "interrupt": 8615,
    "Ġcomprehensiveness": 25072,
    "Ġrenewal": 12232,
    "ified": 3227,
    "Ġdepending": 14287,
    "rifled": 21046,
    "Ġoutward": 7903,
    "Ġdisobey": 18559,
    "agement": 4189,
    "uting": 15658,
    "Ġdisgrace": 7215,
    "Ġoffers": 12943,
    "Ġmer": 2931,
    "pher": 11511,
    "housekeeper": 24102,
    "Ġcounterbalance": 24722,
    "Ġfaulty": 14906,
    "Ġpa": 2989,
    "Ġsworn": 14434,
    "brated": 12025,
    "Ġpalsy": 25778,
    "Ġtablets": 13154,
    "Ġceleb": 20224,
    "Ġhumane": 11882,
    "transferred": 24514,
    "harpoon": 9490,
    "'": 11,
    "Ġenhancement": 23827,
    "string": 15684,
    "Ġjail": 22291,
    "Ġhump": 5853,
    "Ġbier": 22761,
    "Ġwrite": 3824,
    "assin": 22302,
    "Ġpractises": 23326,
    "imately": 12685,
    "Ġpersuasions": 16631,
    "ured": 1652,
    "Ġlibr": 15999,
    "Ġcourtesy": 9944,
    "Ġens": 2785,
    "Ġscrew": 8867,
    "Ġends": 8237,
    "Ġsimilarly": 24308,
    "flutter": 23968,
    "Ġgaze": 6932,
    "oices": 7348,
    "shoes": 14238,
    "Ġgenerally": 4160,
    "Ġhearties": 18966,
    "Ġmarshalled": 25315,
    "drawers": 19384,
    "aract": 17894,
    "Ġgrammatical": 13538,
    "reflected": 24733,
    "glimmer": 26321,
    "ksome": 10104,
    "Ġdiscerning": 25002,
    "Ġdent": 13905,
    "bulwarks": 12270,
    "Ġviolence": 5962,
    "Ġune": 4597,
    "Ġassoc": 6402,
    "securer": 25602,
    "Ġomitted": 12561,
    "Ġveneration": 25044,
    "Ġbegging": 11080,
    "Ġhills": 6527,
    "Ġju": 10286,
    "amiable": 14052,
    "Ġpapered": 20129,
    "Ġbearing": 5298,
    "Ġtrip": 16788,
    "across": 10324,
    "Ġeternity": 12276,
    "Ġrevolt": 24504,
    "Ġrecognised": 8992,
    "extric": 22767,
    "Ġundiscovered": 18252,
    "Ġstatue": 23146,
    "Ġjudged": 12081,
    "oda": 15747,
    "Ġgest": 8133,
    "ù": 186,
    "Ġexcessively": 9439,
    "mat": 2197,
    "Ġcultivated": 17363,
    "nial": 20983,
    "Ġharpoon": 3616,
    "Ġexhaust": 6399,
    "Ġhenry": 5197,
    "Ġhack": 12753,
    "Ġoutstretched": 14195,
    "rest": 1631,
    "exercise": 17459,
    "Ġruddy": 17125,
    "Ġineffect": 13929,
    "Ġnostrils": 10943,
    "Ġmagazine": 23097,
    "vate": 21108,
    "educated": 17259,
    "Ġportcull": 23861,
    "Ġboone": 11838,
    "Ġstate": 1810,
    "inclination": 20056,
    "Ġfuture": 1067,
    "consuming": 25674,
    "Ġj": 533,
    "travellers": 24318,
    "Ġtechnical": 17191,
    "supposed": 13314,
    "Ġgeorgiana": 8625,
    "Ġeurope": 8061,
    "Ġwickham": 2204,
    "igms": 3045,
    "Ġmagnitude": 1942,
    "mic": 12486,
    "Ġpalaces": 24091,
    "Ġmingled": 12375,
    "reve": 12536,
    "tender": 14472,
    "atha": 6572,
    "icates": 11616,
    "Ġrenewed": 9537,
    "enary": 12548,
    "Ġca": 21337,
    "Ġhonest": 7287,
    "inary": 3277,
    "rec": 6003,
    "Ġpaint": 7707,
    "Ġthack": 21514,
    "Ġundivided": 24121,
    "Ġprotectors": 9070,
    "Ġabominate": 20063,
    "Ġopulent": 23627,
    "Ġits": 706,
    "verest": 13990,
    "chief": 4644,
    "Ġcircumspection": 25884,
    "Ġconvention": 25546,
    "shunned": 22452,
    "Ġadvers": 4887,
    "Ġignominy": 15084,
    "Ġlaying": 7907,
    "box": 5749,
    "pip": 6654,
    "enhall": 13849,
    "welcomed": 24644,
    "ac": 741,
    "crimson": 24100,
    "Ġpledged": 20686,
    "Ġprofoundest": 16860,
    ").âĢĿ": 20740,
    "Ġflights": 24753,
    "Ġexpedition": 10633,
    "Ġpetticoat": 15294,
    "Ġhearth": 11980,
    "venty": 6427,
    "Ġaccompanying": 11304,
    "othe": 2613,
    "Ġsparkled": 13461,
    "Ġbehind": 2806,
    "Ġbreaks": 13184,
    "Ġph": 1548,
    "Ġcomplex": 745,
    "Ġtobacc": 7852,
    "Ġstreaked": 19113,
    "Ġcordon": 24394,
    "Ġdisobedience": 22532,
    "Ġunstructure": 2994,
    "trying": 15438,
    "Ġ98": 24593,
    "Ġchestnut": 19671,
    "Ġtoil": 6531,
    "Ġinde": 7371,
    "assistance": 20369,
    "header": 11931,
    "viv": 17698,
    "Ġunquestionable": 26221,
    "fiend": 13660,
    "Ġdeployment": 11201,
    "Ġappetites": 20205,
    "ricted": 15420,
    "Ġincompetent": 25679,
    "tee": 16172,
    "Ġshrouded": 14968,
    "Ġlashing": 11615,
    "Ġgreenness": 23765,
    "Ġscorched": 17101,
    "bill": 10075,
    "stocks": 23817,
    "Ġmonstrous": 7789,
    "Ġthreats": 13376,
    "Ġrules": 1918,
    "Ġplaid": 22600,
    "conve": 14243,
    "Ġcomplexion": 8210,
    "vice": 15449,
    "precise": 19349,
    "Ġinside": 5448,
    "Ġleaky": 2343,
    "Ġsow": 17749,
    "Ġsupre": 10268,
    "talked": 14984,
    "fight": 17538,
    "Ġdim": 4757,
    "placidity": 25988,
    "Ġsatan": 14389,
    "Ġeff": 669,
    "flood": 19805,
    "q": 85,
    "Ġapp": 495,
    "ilburn": 18059,
    "drovand": 24760,
    "darkness": 9511,
    "fate": 17539,
    "contrast": 25594,
    "Ġerror": 1765,
    "oper": 7347,
    "jar": 17577,
    "Ġimaginations": 16516,
    "Ġsuperst": 7703,
    "ated": 720,
    "went": 6512,
    "Ġfact": 1729,
    "Ġsupple": 22998,
    "Ġuncomp": 15840,
    "Ġcomment": 9232,
    "Ġintercourse": 10998,
    "trimmed": 23946,
    "Ġjudiciously": 23876,
    "Ġdecreasing": 2444,
    "Ġfulfilment": 20186,
    "Ġconfined": 7465,
    "Ġmeddling": 24083,
    "disappointment": 11425,
    "Ġmans": 15535,
    "Ġenthr": 22743,
    "Ġrepel": 23357,
    "Ġcontinual": 6777,
    "sail": 3602,
    "Ġcasts": 19424,
    "²": 115,
    "ructive": 18544,
    "oundered": 14164,
    "Ġhonoured": 9880,
    "Ġprompted": 23813,
    "ameter": 2803,
    "arpo": 1755,
    "Ġreveren": 13196,
    "romang": 22002,
    "laughed": 20280,
    "Ġnumber": 1982,
    "Ġcollateral": 20070,
    "putation": 7624,
    "Ġdiscoursing": 26266,
    "removing": 17764,
    "Ġactuated": 18545,
    "Ġsaf": 4005,
    "vanity": 24974,
    "honey": 20904,
    "reasonable": 7751,
    "Q": 53,
    "Ġlook": 880,
    "ples": 6845,
    "Ġmere": 2714,
    "Ġshrieks": 12197,
    "destined": 24115,
    "û": 188,
    "Ġmanx": 7904,
    "Ġcompression": 18145,
    "Ġduplicity": 25331,
    "Ġconsent": 5372,
    "bation": 9102,
    "Ġtrait": 23072,
    "roof": 17953,
    "Ġcalam": 13031,
    "Ġnightfall": 23127,
    "Ġinitialization": 1253,
    "som": 3295,
    "Ġferguson": 17469,
    "Ġinfluences": 14864,
    "vered": 4829,
    "Ġhour": 1812,
    "hung": 8380,
    "covering": 15333,
    "dz": 4739,
    "Ġsafer": 22167,
    "der": 471,
    "Ġemph": 14525,
    "Ġgard": 2187,
    "enterprise": 24992,
    "Ġthomson": 26454,
    "paused": 17373,
    "Ġf": 283,
    "Ġbrilliantly": 25120,
    "Ġelbowed": 16112,
    "Ġshoot": 11161,
    "Ġbelief": 5855,
    "spark": 18690,
    "unciation": 25982,
    "imet": 21703,
    "rived": 5373,
    "Ġpip": 1626,
    "Ġbanish": 15568,
    "Ĉ": 201,
    "Ġif": 697,
    "ĸ": 249,
    "/`": 12427,
    "ids": 21760,
    "compar": 14358,
    "Ġtruck": 19510,
    "wake": 11545,
    "Ġmorocc": 22974,
    "inea": 7622,
    "Ġsisterly": 16301,
    "passed": 8025,
    "Ġunfolded": 10638,
    "Ġecho": 12663,
    "Ġfoul": 7159,
    "tw": 2810,
    "contempt": 13189,
    "Ġsupp": 1266,
    "Ġdestro": 3722,
    "Ġabout": 631,
    "Ġtoma": 7373,
    "oded": 11668,
    "Ġbeams": 14631,
    "Ġfrocks": 23919,
    "eches": 8077,
    "Ġskeletons": 16791,
    "Ġringing": 13330,
    "å": 166,
    "ique": 8742,
    "glit": 23848,
    "Ġclouds": 5775,
    "Ġdais": 24372,
    "estate": 12818,
    "Ġdel": 1615,
    "Ġcrawling": 17045,
    "Ġjoints": 12034,
    "grasp": 16430,
    "Ġsurvive": 9066,
    "Ġaffair": 4462,
    "Ġsuspect": 5758,
    "Ġlin": 10833,
    "comes": 5394,
    "fashion": 8080,
    "moments": 19410,
    "ork": 415,
    "Ġtakes": 5007,
    "Ġowned": 11874,
    "Ġneared": 14072,
    "Ġrestless": 10413,
    "haustible": 16891,
    "rust": 2580,
    "Ġprocured": 8676,
    "spermaceti": 12191,
    "Ġfinancier": 26583,
    "Ġinclement": 22550,
    "ach": 434,
    "attentions": 13573,
    "Ġtempt": 5565,
    "Ġthrow": 3786,
    "Ġbenediction": 18784,
    "Ġearthy": 23710,
    "udg": 22751,
    "Ġattracted": 8904,
    "Ġmarvelled": 18873,
    "Ġdair": 17889,
    "Ġtemple": 7653,
    "Ġdol": 9664,
    "completely": 12418,
    "nurse": 15207,
    "reclining": 20573,
    "Ġdefinitions": 22941,
    "Ġpipe": 4321,
    "Ġvillas": 24053,
    "kye": 20937,
    "putting": 14099,
    "Ġsimple": 1620,
    "Ġopenly": 8572,
    "Ġbet": 1134,
    "next": 5891,
    "Ġevaluate": 3170,
    "Ġhemisphere": 26478,
    "speed": 19407,
    "choose": 23668,
    "tacit": 21097,
    "Ġpopulation": 16827,
    "Ġpinched": 17035,
    "xi": 17710,
    "Ġlegisl": 23532,
    "tales": 17686,
    "Ġproposals": 10613,
    "uiperai": 10663,
    "Ġsnarled": 25716,
    "Ġmumbled": 17807,
    "Ġcheat": 19018,
    "sciss": 18856,
    "Ġallegor": 25545,
    "Ġobsole": 22697,
    "Ġjavan": 24997,
    "ocr": 10467,
    "Ġtambourine": 9564,
    "Ġreproofs": 24892,
    "Ġanonym": 17897,
    "Ġfinanc": 23124,
    "Ġirreduc": 5491,
    "Ġwheelbarrow": 17204,
    "Ġdejected": 20303,
    "Ġbewitched": 25975,
    "Ġpreprocessing": 26536,
    "Ġflounders": 23012,
    "Ġbatch": 890,
    "Ġshoreless": 24295,
    "Ġgrew": 5182,
    "lonely": 20956,
    "desol": 13066,
    "Ġwhether": 2000,
    "Ġsequences": 1751,
    "Ġpow": 4637,
    "uine": 13798,
    "Ġmists": 14630,
    "Ġinstances": 5568,
    "Ġdescent": 998,
    "opportunity": 12272,
    "sford": 5997,
    "Ġoccur": 1084,
    "Ġlessen": 14532,
    "Ġkno": 5242,
    "Ġinverted": 12634,
    "Ġpiteous": 17917,
    "Ġexasper": 8466,
    "Ġestate": 6316,
    "excited": 13379,
    "limp": 20951,
    "Ġornament": 11718,
    "pos": 15410,
    "Ġnet": 3626,
    "elijah": 19471,
    "ifference": 5632,
    "anche": 10788,
    "Ġequinox": 25855,
    "Ġidea": 2487,
    "caut": 20811,
    "Ġdeduction": 14900,
    "Ġinspirited": 23419,
    "arnel": 18124,
    "attacks": 23119,
    "izing": 1070,
    "bergs": 18681,
    "fears": 18528,
    "publ": 17638,
    "Ġrepresented": 8938,
    "Ġscience": 1528,
    "pest": 6964,
    "irt": 3078,
    "Ġosc": 2836,
    "Ġtenderness": 12213,
    "Ġneedn": 19228,
    "Ġ13": 6718,
    "Ġlodgings": 8311,
    "etian": 13958,
    "Ġcensure": 15094,
    "thine": 15823,
    "Ġmanual": 14197,
    "Ġcrescentic": 20620,
    "confid": 14866,
    "Ġuntil": 2669,
    "ampton": 18144,
    "Ġhilarious": 20297,
    "tling": 9142,
    "Ġcheetah": 14502,
    "reject": 21235,
    "Ġheron": 22070,
    "Ġexhib": 6349,
    "iverer": 11714,
    "sworn": 24256,
    "features": 14730,
    "Ġmenaces": 23104,
    "Ġunsuccessful": 18257,
    "inc": 2519,
    "be": 668,
    "Ġ135": 24785,
    "reasoning": 9475,
    "interchange": 23736,
    "Ġpleased": 4066,
    "Ġsubterraneous": 20264,
    "Ġsplice": 19308,
    "stolen": 13981,
    "Ġforb": 11662,
    "Ġmocking": 24000,
    "Ġlaid": 3944,
    "ich": 468,
    "prolong": 23393,
    "Ġworaciousness": 22926,
    "alarmed": 21500,
    "Ġrocky": 13386,
    "Ġcouldn": 7648,
    "canst": 22958,
    "Ġledgers": 23935,
    "belled": 24036,
    "Ġretreating": 19798,
    "Ġboneless": 19604,
    "Ġdisgra": 18549,
    "rets": 12538,
    "page": 13770,
    "ertion": 12038,
    "Ġassent": 12730,
    "Ġwife": 2586,
    "Ġ46": 19489,
    "Ġhawsers": 26502,
    "Ġdisembow": 22534,
    "Ġpistol": 7846,
    "Ġendangered": 16303,
    "Ġdowncast": 18652,
    "Ġansw": 2203,
    "Ġphil": 3387,
    "pp": 384,
    "Ġsneer": 13446,
    "displayed": 20735,
    "as": 302,
    "Ġfreshly": 23984,
    "Ġlandlady": 10422,
    "renew": 24450,
    "Ġmagnetic": 17240,
    "Ġbrut": 18767,
    "Ġworsh": 12997,
    "dering": 5305,
    "Ġinev": 10181,
    "spiracle": 22735,
    "Ġstaying": 8283,
    "omin": 4702,
    "Ġmeditations": 25013,
    "nonsense": 17615,
    "undant": 14791,
    "uzzle": 19582,
    "laugh": 10108,
    "Ġcomplained": 16998,
    "disgust": 23494,
    "Ġwasting": 12725,
    "athom": 12937,
    "Ġsturgeon": 20590,
    "Ġenclosure": 20622,
    "sprinkling": 24912,
    "Ġmuscle": 14689,
    "Ġfrequent": 3290,
    "barbaric": 26358,
    "Ġsweat": 13139,
    "missionary": 24615,
    "Ġguardsmen": 20629,
    "w": 91,
    "Ġpestilent": 25777,
    "Ġinclu": 1104,
    "Ġmagnitudes": 3825,
    "Ġhither": 4759,
    "omeness": 18015,
    "shish": 11791,
    "Ġathirst": 20597,
    "Ġsystems": 800,
    "Ġblasp": 14400,
    "Ġhorsham": 10406,
    "Ġrepeat": 7999,
    "ten": 1558,
    "glue": 17556,
    "Ġyellowish": 24430,
    "Ġblinding": 14727,
    "Ġreco": 9787,
    "Ġpang": 15603,
    "Ġchimneys": 16972,
    "legged": 10465,
    "vo": 11539,
    "Ġmalignity": 10556,
    "Ġgale": 5822,
    "reflections": 24735,
    "parm": 21013,
    "famous": 16916,
    "ortunity": 4402,
    "Ġimportance": 4900,
    "Ġ79": 24264,
    "avenza": 17104,
    "escape": 16006,
    "Ġpresumably": 19623,
    "agre": 18164,
    "Ġdesigned": 7740,
    "something": 4285,
    "illes": 12691,
    "itioned": 22466,
    "Ġcalifornian": 25851,
    "Ġinsertion": 26343,
    "happy": 4423,
    "Ġinnermost": 12158,
    "humanity": 24839,
    "Ġindefinite": 17176,
    "Ġresides": 22537,
    "Ġdusting": 24596,
    "Ġdispatched": 23879,
    "Ġdiscre": 2416,
    "Ġborrow": 10170,
    "batch": 1983,
    "shipped": 18489,
    "Ġbubbles": 11398,
    "Ġepo": 21616,
    "Ġcatholic": 20680,
    "Ġcharted": 22247,
    "Ġprofund": 13152,
    "Ġsinking": 7307,
    "Ġhogarth": 25780,
    "Ġshed": 8180,
    "Ġservices": 11217,
    "fic": 20851,
    "Ġauthorized": 16735,
    "Ġrepetition": 8972,
    "isition": 11585,
    "Ġcannib": 6035,
    "Ġbildad": 3784,
    "apothecary": 26545,
    "phenomenon": 17648,
    "oura": 1060,
    "âĢĶâĢĺ_": 24831,
    "deduction": 23556,
    "Ġsensationalism": 26066,
    "magnifying": 25392,
    "Ġoutfits": 22318,
    "general": 7489,
    "Ġdeliberately": 10624,
    "Ġpronounced": 8350,
    "Ġarguments": 8036,
    "Ġjoyous": 14663,
    "Ġimitated": 18329,
    "Ġdemig": 20355,
    "arers": 12127,
    "Ġmillar": 13860,
    "Ġminiatures": 20320,
    "Ġcrimin": 6901,
    "Ġrowing": 10300,
    "Ġwhichever": 13999,
    "mot": 17596,
    "Ġsquare": 2395,
    "Ġciv": 3311,
    "pacing": 21020,
    "goldsmith": 20146,
    "Ġbitt": 10796,
    "Ġindustry": 18837,
    "Ġconstructed": 9386,
    "ibule": 13004,
    "Ġsuppose": 2868,
    "neglect": 25667,
    "Ġdreaded": 8288,
    "ressed": 3023,
    "vill": 10735,
    "Ġrazor": 22641,
    "Ġspirit": 3724,
    "Ġbr": 1073,
    "ici": 8439,
    "Ġbuckler": 24859,
    "Ġstraits": 7993,
    "Ġcomely": 21845,
    "properly": 24918,
    "Ġtepid": 26412,
    "Ġcryst": 9916,
    "Ġtranqu": 4604,
    "Ġmirth": 15543,
    "Ġchewing": 23282,
    "Ġcushion": 17833,
    "Ġunprepared": 22047,
    "Ġstops": 3167,
    "Ġwhither": 10214,
    "details": 19674,
    "solution": 14686,
    "Ġcloud": 3915,
    "better": 7119,
    "Ġinitialized": 3951,
    "Ġdisengaged": 12886,
    "chapter": 1402,
    "Ġdiary": 24739,
    "Ġconcepts": 4550,
    "alf": 4638,
    "Ġexhibit": 14955,
    "Ġbath": 9658,
    "Ġedge": 5188,
    "Ġrepe": 3283,
    "Ġemm": 18002,
    "Ġdif": 871,
    "ivers": 1984,
    "friendship": 24048,
    "Ġterrified": 14671,
    "Ġunacquainted": 12773,
    "inement": 11557,
    "numer": 15399,
    "Ġimpress": 6862,
    "readiness": 19361,
    "Ġethics": 15462,
    "inspect": 11558,
    "incing": 15485,
    "anc": 6379,
    "Ġding": 12596,
    "Ġcomfortable": 6094,
    "Ġsensational": 16391,
    "Ġnib": 13939,
    "influence": 13577,
    "storied": 18024,
    "Ġarts": 11008,
    "Ġmeta": 3271,
    "Ġread": 1447,
    "Ġhigh": 933,
    "context": 3405,
    "Ġneeds": 6605,
    "bib": 17491,
    "po": 1137,
    "ę": 218,
    "Ġproximity": 3220,
    "blazing": 24132,
    "correct": 24483,
    "Ġinterpreter": 23212,
    "unctuous": 21879,
    "Ġpivot": 13922,
    "mistress": 14904,
    "Ġtestament": 23211,
    "bus": 5354,
    "roll": 9196,
    "elements": 25203,
    "supplied": 10519,
    "Ġcomparison": 7099,
    "Ġfondly": 19615,
    "Ġaccomplished": 7104,
    "nez": 22453,
    "Ġphilipp": 23882,
    "Ġobstinate": 11336,
    "final": 19675,
    "Ġelevate": 24502,
    "bott": 9105,
    "Ġbewitching": 25976,
    "ain": 343,
    "Ġdab": 15586,
    "Ġtimbers": 14838,
    "Ġhelen": 16655,
    "powder": 17645,
    "mast": 3601,
    "Ġfring": 11127,
    "Ġtoilings": 24742,
    "Ġburtons": 19252,
    "waistcoat": 17360,
    "attered": 4021,
    "Ġcheered": 16368,
    "Ġdenied": 9000,
    "although": 8805,
    "Ġrolling": 5974,
    "orse": 5806,
    "Ġpledge": 11600,
    "Ġrh": 9243,
    "Ġpinioned": 21480,
    "Ġrecords": 12193,
    "Ġinfinitely": 8963,
    "Ġrelative": 11881,
    "Ġcompos": 22566,
    "riv": 3110,
    "Ġmonoton": 3636,
    "Ġrepositories": 23362,
    "Ġbee": 21746,
    "Ġslink": 23160,
    "Ġtand": 21159,
    "Ġpractised": 23325,
    "Ġdecaying": 2245,
    "Ġrecesses": 17260,
    "imprudence": 16556,
    "rants": 13777,
    "Ġmagnus": 18957,
    "Ġconstrain": 2631,
    "Ġintricacies": 15137,
    "Ġdrily": 23539,
    "Ġstopping": 2749,
    "Ġsund": 8248,
    "evinced": 19925,
    "Ġjoppa": 12035,
    "Ġfiltering": 23923,
    "Ġbil": 15563,
    "asc": 6386,
    "Ġxli": 14542,
    "Ġspam": 7630,
    "accident": 11181,
    "Ġarmitage": 23580,
    "Ġmonsie": 11447,
    "takes": 21074,
    "Ġfulfil": 9550,
    "unt": 2044,
    "morrow": 4571,
    "ials": 11702,
    "85": 13680,
    "fs": 17535,
    "prince": 23811,
    "Ġparamore": 22119,
    "Ġlamb": 8812,
    "umberland": 16837,
    "Ġmonotonous": 13261,
    "Ġperilous": 7768,
    "against": 5870,
    "Ġmeas": 1101,
    "depth": 12797,
    "akers": 9738,
    "Ġtrifles": 16951,
    "Ġindomit": 22952,
    "despairing": 25074,
    "Ġflapp": 23007,
    "Ġreeds": 15694,
    "arius": 14248,
    "ny": 4018,
    "Ġissues": 9541,
    "perquisites": 26531,
    "Ġcombining": 22849,
    "umerable": 11723,
    "Ġunrolled": 22035,
    "hunter": 10555,
    "Ġarabic": 24978,
    "Ġports": 10818,
    "Ġappe": 1539,
    "successfully": 14990,
    "Ġroyalty": 19735,
    "Ġsufferer": 16260,
    "cre": 4251,
    "_.,": 14561,
    "substance": 15230,
    "homely": 25617,
    "Ġrelates": 12978,
    "Ġagonized": 25372,
    "felix": 10653,
    "Ġamongst": 8959,
    "Ġunob": 22012,
    "lit": 9605,
    "Ġabstraction": 26539,
    "th": 408,
    "Ġmr": 662,
    "duck": 22409,
    "perfectly": 9085,
    "ining": 3222,
    "jackets": 24895,
    "Ġbunch": 11326,
    "Ġtarn": 21157,
    "claim": 9834,
    "Ġscandinav": 19959,
    "laborers": 23913,
    "Ġbegone": 11915,
    "dog": 10692,
    "Ġacting": 10991,
    "Ġstormy": 16728,
    "Ġgrain": 15830,
    "Ġwaterward": 23365,
    "Ġusurpation": 18361,
    "Ġaround": 3610,
    "Ġloveliness": 13607,
    "Ġportents": 14679,
    "Ġexhilar": 19682,
    "omp": 2472,
    "scept": 21052,
    "Ġcarcase": 14443,
    "Ġdumb": 7843,
    "humor": 19450,
    "Ġinvaluable": 10182,
    "Ġnantucketer": 6914,
    "Ġwidest": 24234,
    "hic": 3250,
    "Ġcountenances": 11963,
    "manifested": 20524,
    "rador": 19158,
    "Ġtints": 17727,
    "Ġbeen": 626,
    "mou": 10708,
    "Ġtheory": 5798,
    "Ġsmiles": 6706,
    "Ġglorious": 11075,
    "Ġstead": 5650,
    "==": 945,
    "impressions": 20697,
    "Ġconcrete": 20636,
    "pede": 19843,
    "Ġpangs": 15613,
    "allet": 11083,
    "Ġcheerless": 16694,
    "Ġtrapped": 23075,
    "Ġlive": 2735,
    "abbering": 21793,
    "Ġcontin": 5382,
    "Ġyes": 2689,
    "kin": 7131,
    "Ġcorners": 18874,
    "Ġnavy": 14915,
    "Ġcountless": 16385,
    "fabulous": 20472,
    "Ġbreathe": 9011,
    "urer": 18121,
    "ribution": 14305,
    "caterpillar": 26383,
    "Ġspong": 15880,
    "word": 2488,
    "Ġwafted": 14498,
    "Ġcorporeally": 25729,
    "Ġwaldman": 11345,
    "Ġdiminished": 16665,
    "Ġabroad": 8865,
    "influences": 25250,
    "¾": 127,
    "Ġspell": 8855,
    "Ġpreserve": 7529,
    "Ġcheating": 16366,
    "mill": 13753,
    "Ġexpressive": 8982,
    "Ġdaugh": 2289,
    "Ġnature": 2538,
    "Ġpossessing": 16575,
    "eries": 6808,
    "Ġrollicking": 24451,
    "valley": 16214,
    "Ġaccost": 12843,
    "Ġhapp": 1091,
    "reast": 17758,
    "Ġembodiment": 20527,
    "pulling": 25146,
    "Ġsnaky": 23739,
    "fishery": 10031,
    "attachment": 13049,
    "iscuit": 10598,
    "Ġcalmer": 23039,
    "irene": 15913,
    "Ġannotations": 25954,
    "Ġinexhaustible": 16981,
    "Ġpain": 2299,
    "Ġstamped": 13526,
    "Ġfaster": 3199,
    "Ġoccasional": 7289,
    "Ġwait": 4907,
    "itations": 17817,
    "herfield": 3630,
    "Ġsurm": 7476,
    "Ġadvancing": 6879,
    "Ġfrosty": 14934,
    "investigations": 25533,
    "ubl": 3594,
    "leeward": 15209,
    "collins": 6916,
    "rified": 15419,
    "Ġenable": 684,
    "Ġcorrid": 9823,
    "Ġunseason": 22049,
    "say": 3987,
    "Ġperem": 12929,
    "quite": 4646,
    "Ġdropout": 1560,
    "sized": 15428,
    "Ġoverlooking": 22344,
    "Ġbowing": 10475,
    "gown": 9596,
    "waited": 24585,
    "Ġinterchange": 16070,
    "Ġstars": 6149,
    "Ġrigged": 16717,
    "Ġlikes": 9407,
    "Ġdad": 12597,
    "thinness": 25810,
    "asburgh": 15645,
    "Ġblown": 12083,
    "studies": 25166,
    "Ġoil": 3375,
    "Ġsurmis": 23462,
    "Ġabsurdly": 19958,
    "Ġconfessor": 24018,
    "Ġjuggling": 20437,
    "Ġfragments": 19034,
    "Ġrheum": 18214,
    "Ġforbade": 15213,
    "Ġhesitation": 13440,
    "Ġdarling": 12601,
    "Ġwasted": 9703,
    "Ġscale": 1550,
    "Ġfarthest": 23113,
    "oup": 2014,
    "harb": 9123,
    "Ŀ": 256,
    "Ġincognita": 26551,
    "Ġsights": 7472,
    "ultaneously": 4194,
    "Ġnom": 21516,
    "Ġrosings": 4606,
    "Ġventing": 19492,
    "mistake": 24529,
    "Ġjuggler": 26366,
    "§": 105,
    "confidential": 25876,
    "nerable": 16274,
    "Ġhurts": 19111,
    "Ġstove": 6733,
    "rib": 1944,
    "Ġowners": 7662,
    "Ġquartered": 20371,
    "Ġhowled": 12852,
    "oftentimes": 19419,
    "Ġton": 15464,
    "profitable": 17071,
    "Ġcasualties": 25512,
    "Ġmother": 2069,
    "Ġimitation": 22168,
    "Ġreasoning": 2025,
    "merc": 19280,
    "Ġdiffidence": 14659,
    "Ġemails": 13105,
    "Ġtribute": 15475,
    "boat": 3363,
    "gast": 20870,
    "Ġinferiority": 17115,
    "a": 69,
    "erate": 7149,
    "Ġillustration": 19135,
    "lived": 12484,
    "eldest": 22800,
    "Ġsymbolize": 24960,
    "stout": 21642,
    "Ġstraining": 11327,
    "Ġtears": 4232,
    "Ġflourish": 17160,
    "Ġblundering": 26283,
    "rocious": 21536,
    "Ġabound": 8863,
    "Ġpurple": 10433,
    "Ġcares": 9365,
    "Ġheaps": 11641,
    "emone": 21924,
    "ingolstadt": 21302,
    "conject": 8879,
    "exact": 7909,
    "sphere": 22732,
    "Ġoper": 2120,
    "Ġwindows": 4971,
    "Ġmultiplication": 2873,
    "Ġbrighter": 16187,
    "Ġhelmet": 19686,
    "Ġcorpore": 13400,
    "ogue": 9781,
    "ifice": 7198,
    "Ġhaws": 21948,
    "eastward": 15128,
    "angu": 567,
    "Ġulster": 14997,
    "acity": 5735,
    "Ġlowered": 6735,
    "Ġheadlong": 11886,
    "lost": 8887,
    "inions": 8401,
    "Ġgrunted": 16167,
    "Ġsob": 12784,
    "Ġclubs": 25179,
    "thomas": 18219,
    "ologies": 18772,
    "Ġpiping": 23233,
    "atters": 18499,
    "Ġstress": 18066,
    "Ġsuspicions": 9478,
    "Ġmeanest": 12907,
    "Ġraw": 3323,
    "forbid": 14350,
    "Ġargosy": 24273,
    "Ġpractical": 3165,
    "Ġvincent": 15282,
    "thrown": 8480,
    "Ġnuptial": 25782,
    "attle": 4465,
    "Ġaffidavit": 20723,
    "social": 11023,
    "were": 2558,
    "comprehend": 14359,
    "Ġbott": 3150,
    "hereabouts": 23605,
    "leaned": 21367,
    "âĢĿ": 354,
    "flowing": 14584,
    "disguise": 26306,
    "Ġpocket": 4898,
    "Ġexquisitely": 20201,
    "Ġbraced": 16579,
    "Ġlookest": 22712,
    "pad": 13767,
    "conditional": 9078,
    "Ġpressed": 6041,
    "characteristic": 24685,
    "Ġsurrounding": 12160,
    "Ġsegmentation": 17339,
    "Ġtumbled": 13405,
    "Ġhurtling": 24957,
    "weaknesses": 26030,
    "spe": 3559,
    "Ġengra": 7873,
    "Ġalcoves": 26486,
    "mists": 17605,
    "earthly": 24724,
    "Ġslippery": 12164,
    "itche": 7578,
    "Ò": 147,
    "Ġobsolete": 26558,
    "Ġwarring": 16865,
    "ishop": 9741,
    "Ġmemories": 14541,
    "Ġcomplement": 23707,
    "Ġwondrous": 4734,
    "giving": 8738,
    "isc": 6239,
    "Ġfever": 6558,
    "Ġlizzie": 26462,
    "Ġsprain": 18305,
    "chor": 6146,
    "ions": 448,
    "Ġfry": 17879,
    "achines": 1725,
    "Ġpromethe": 14466,
    "Ġnonsensical": 21526,
    "insula": 23062,
    "Ġadmeasurements": 26225,
    "Ġunqualified": 22058,
    "Ġwondered": 11125,
    "Ġcompelled": 14265,
    "Ġserves": 4668,
    "Ġsympat": 13339,
    "band": 3058,
    "Ġapplying": 13090,
    "Ġanno": 9667,
    "Ġestimable": 23870,
    "raham": 18013,
    "concluding": 19479,
    "Ġtests": 8957,
    "Ġdisplayed": 10608,
    "furthermore": 20002,
    "Ġbeing": 1164,
    "Ġ106": 24414,
    "Ġknave": 11272,
    "spades": 14333,
    "Ġbass": 17855,
    "lur": 13746,
    "Ġeyed": 12664,
    "utting": 17984,
    "Ġcarter": 18899,
    "Ġcompute": 2908,
    "Ġagony": 5388,
    "ority": 8417,
    "mm": 676,
    "Ġplainly": 4380,
    "ille": 9219,
    "Ġannounce": 13337,
    "heavy": 10574,
    "prophet": 16179,
    "functions": 11230,
    "k": 79,
    "Ġfear": 2273,
    "Ġsec": 2077,
    "Ġabusive": 22270,
    "usiveness": 22290,
    "mmet": 10989,
    "terogene": 21822,
    "ĠÂ£": 5006,
    "Ġdisown": 22521,
    "Ġexpose": 10327,
    "Ġencouragement": 13039,
    "benevolent": 15232,
    "conscientious": 19625,
    "crop": 20797,
    "Ġdisputes": 25825,
    "Ġbugs": 13647,
    "Ġninetieth": 25357,
    "Ġshocks": 16457,
    "these": 3243,
    "Ġwer": 12549,
    "Ġbenjamin": 26567,
    "Ġforever": 14553,
    "miserably": 24210,
    "Ġbas": 6380,
    "less": 930,
    "Ġthrilling": 19747,
    "Ġtranslates": 12049,
    "Ġcalcul": 3637,
    "Ġimpenet": 14218,
    "unned": 21875,
    "Ġhempen": 13549,
    "print": 23808,
    "Ġheed": 5630,
    "Ġconfirming": 25321,
    "Ġsuperfluous": 17413,
    "Ġwollstonecraft": 26425,
    "Ġeaves": 15674,
    "elfare": 11775,
    "jammed": 25906,
    "mouthful": 25208,
    "Ġparr": 22116,
    "Ġstayed": 7997,
    "live": 7550,
    "Ġ94": 17717,
    "Ġdistended": 16042,
    "ute": 4642,
    "Ġtwinkled": 14311,
    "Ġbells": 19600,
    "Ġmerciless": 25246,
    "ancient": 9655,
    "Ġslumbering": 25701,
    "conspicuous": 26247,
    "Ġrealising": 18982,
    "Ġaval": 15493,
    "utility": 21584,
    "_.)": 7278,
    "directed": 20403,
    "Ġregularization": 1182,
    "Ġforging": 18093,
    "Ġwaiter": 16359,
    "treated": 21093,
    "Ġbecome": 3159,
    "calculating": 25689,
    "declare": 25173,
    "Ġspokes": 18313,
    "gences": 20876,
    "Ġostens": 25275,
    "Ġfeedback": 23431,
    "boone": 23252,
    "Ġcult": 8781,
    "Ġpoul": 15611,
    "Ġsmelt": 16064,
    "Ġharpooneers": 4731,
    "Ġfairness": 9892,
    "Ġbutterfly": 19909,
    "leagued": 26435,
    "jee": 17579,
    "urch": 3997,
    "william": 4561,
    "networks": 2404,
    "Ġmisanthrop": 22756,
    "contain": 18502,
    "Ġreddening": 25970,
    "Ġpoetic": 17103,
    "grieved": 17316,
    "Ġbouton": 17868,
    "redible": 15803,
    "sweeping": 24618,
    "Ġforgery": 25977,
    "port": 10719,
    "tasted": 17687,
    "Ġappear": 2485,
    "gor": 547,
    "ced": 696,
    "itable": 5437,
    "suddenly": 6493,
    "gr": 2087,
    "feature": 3737,
    "Ġcompressed": 21847,
    "Ġsun": 1722,
    "Ġadvise": 7934,
    "Ġgoat": 16005,
    "ptic": 21915,
    "Ġtremulous": 14985,
    "dress": 17520,
    "Ġlightnings": 16352,
    "ane": 1177,
    "Ġconsuming": 22789,
    "evidently": 20344,
    "Ġgem": 21591,
    "Ġblessings": 24176,
    "uvier": 9068,
    "range": 3494,
    "offensive": 16397,
    "serv": 7451,
    "uend": 21100,
    "just": 1699,
    "Ġexpressing": 12007,
    "oriented": 2948,
    "alcul": 15626,
    "Ġtechnique": 2368,
    "noise": 14342,
    "cod": 12441,
    "Ġbenefit": 8293,
    "returns": 23134,
    "benevol": 12224,
    "ette": 15657,
    "Ġrule": 1532,
    "conjectured": 25181,
    "Ġbullion": 24983,
    "Ġbrew": 23342,
    "Ġturbul": 23611,
    "Ġsupposed": 4557,
    "poss": 4778,
    "verty": 8452,
    "Ġpluck": 15612,
    "pine": 13768,
    "Ġmatrices": 4969,
    "ction": 502,
    "Ġhoarse": 14526,
    "?âĢĿâĢĶ": 12892,
    "oam": 8751,
    "Ġcorpus": 13029,
    "igns": 8447,
    "Ġline": 1848,
    "Ġindian": 4134,
    "entieth": 17978,
    "cork": 20795,
    "Ġfoot": 3163,
    "define": 1524,
    "Ġpretending": 19314,
    "aret": 7417,
    "Ġassertion": 13488,
    "mered": 8217,
    "Ġglist": 9344,
    "Ġinvis": 6902,
    "Ġupbraided": 26528,
    "Ġadroop": 26001,
    "Ġmerc": 9425,
    "abashed": 21789,
    "erman": 5108,
    "sensibility": 25023,
    "uten": 11621,
    "cousins": 20116,
    "Ġmist": 2878,
    "Ġprosperity": 20256,
    "Ġcalm": 3449,
    "Ġwolves": 25934,
    "Ġjerk": 16950,
    "writing": 7720,
    "Ġspanish": 2828,
    "Ġfiery": 6871,
    "Ġobvious": 4964,
    "gracious": 11829,
    "Ġwonder": 2117,
    "recover": 24622,
    "Ġmishap": 20575,
    "jewel": 20345,
    "feren": 766,
    "Ġelopement": 10330,
    "Ġbingleys": 18995,
    "Ġexig": 21823,
    "Ġdriven": 6198,
    "Ġnovember": 11747,
    "Ġdisplay": 6428,
    "eur": 7545,
    "Ġalleg": 14016,
    "Ġtruce": 24116,
    "Ġblacksmiths": 19872,
    "Ġseverity": 15816,
    "----âĢĿ": 13305,
    "Ġveins": 8932,
    "Ġencoun": 4511,
    "int": 1199,
    "Ġroll": 5381,
    "encoura": 15048,
    "Ġruthless": 15284,
    "Ġpartially": 13121,
    "gia": 20875,
    "verbally": 25360,
    "Ġsplashed": 23746,
    "twas": 15437,
    "Ġembod": 14418,
    "pumps": 21026,
    "anish": 2615,
    "archical": 1925,
    "reas": 990,
    "lads": 20954,
    "Ġsqualls": 17020,
    "Ġgibberish": 25786,
    "adopt": 25544,
    "hullo": 17570,
    "Ġgulf": 10635,
    "Ġabandonment": 25603,
    "itely": 5365,
    "hear": 10146,
    "'t": 3146,
    "bery": 9786,
    "W": 59,
    "Ġspecimen": 13020,
    "struck": 7861,
    "Ġimmensities": 25330,
    "Ġconve": 5455,
    "Ġfondness": 16780,
    "Ġfle": 3093,
    "cused": 15331,
    "Ġesq": 15107,
    "Ġdissu": 18550,
    "Ġvirtual": 11240,
    "plainly": 11089,
    "Ġpan": 5082,
    "Ġinscrut": 10033,
    "Ġcontains": 2790,
    "atics": 15522,
    "Ġmarching": 16699,
    "Ġspouting": 9438,
    "Ġfeigned": 22207,
    "Ġawe": 7147,
    "forster": 16162,
    "Ġcontent": 5034,
    "Ġperceiving": 8875,
    "Ġbast": 21377,
    "Ġade": 22098,
    "perfect": 7634,
    "Ġboth": 1653,
    "ific": 490,
    "ifted": 4494,
    "Ġisn": 7865,
    "Ġtens": 17723,
    "foreseen": 14253,
    "Ġabsorbing": 17128,
    "phew": 6368,
    "ographical": 16786,
    "Ġtension": 13823,
    "Ġextract": 1487,
    "Ġrandom": 1590,
    "attending": 18916,
    "hearing": 8402,
    "Ġsmells": 8889,
    "Ġnut": 12643,
    "Ġobstin": 14952,
    "ipp": 10102,
    "Ġfinancial": 23125,
    "Ġimpul": 7208,
    "anean": 7443,
    "Ġswash": 23050,
    "joke": 20929,
    "Ġvexation": 10586,
    "thus": 5158,
    "Ġdeigned": 18138,
    "Ġsepulchral": 25892,
    "stop": 11634,
    "Ġunimaginable": 15245,
    "stayed": 25290,
    "Ġfeelingly": 22994,
    "tol": 17672,
    "Ġwe": 388,
    "Ġsobbed": 14136,
    "unctions": 18155,
    "ect": 380,
    "antic": 1606,
    "Ġdecember": 15007,
    "ev": 6952,
    "Ġrebell": 21666,
    "Ġburied": 7718,
    "istan": 22105,
    "life": 4932,
    "Ġcountryside": 23595,
    "Ġrallied": 14095,
    "Ġmutinous": 23955,
    "isk": 9167,
    "Ġcautious": 12251,
    "exped": 16524,
    "sir": 5001,
    "carb": 20809,
    "Ġmechanis": 1188,
    "full": 7420,
    "Ġdangers": 12352,
    "ual": 946,
    "Ġreturns": 11924,
    "Ġtantamount": 25625,
    "Í": 142,
    "Ġexcursion": 26589,
    "hus": 5072,
    "Ġhydraul": 9513,
    "Ġadvancement": 24475,
    "frame": 17116,
    "Ġinqu": 2965,
    "erity": 21266,
    "Ġcrumb": 16440,
    "guest": 19480,
    "possibly": 10543,
    "believing": 19460,
    "nothing": 3155,
    "nel": 11504,
    "aus": 1498,
    "Ġdoctor": 5067,
    "vap": 13802,
    "eze": 20846,
    "ready": 2357,
    "Ġ21": 11198,
    "granting": 23412,
    "Ġvibrating": 13537,
    "Ġcleansed": 26293,
    "-------": 20387,
    "Ġexpected": 3697,
    "Ġredden": 15692,
    "ep": 442,
    "Ġegot": 18007,
    "Ġwhilst": 9218,
    "Ġglades": 19370,
    "mble": 1405,
    "Ġhelped": 7459,
    "Ġbodings": 21389,
    "past": 8089,
    "Ġoppress": 13171,
    "Ġnotion": 7881,
    "heredit": 21208,
    "Ġexpiration": 22620,
    "Ġsatire": 22898,
    "Ġoccurrence": 14381,
    "Ġswept": 7977,
    "alvan": 21501,
    "{": 95,
    "mph": 20971,
    "Ġshirt": 8848,
    "Ġinhabitant": 19754,
    "Ġjutting": 22298,
    "Ġthroes": 24574,
    "Ġdilatory": 24705,
    "Ġalley": 15734,
    "Ġdefence": 11067,
    "Ġhastening": 19335,
    "Ġsickened": 16775,
    "ahab": 4290,
    "Ġgirl": 3088,
    "Ġchaff": 18383,
    "hroom": 12474,
    "Ġpositively": 13028,
    "Ġmood": 6276,
    "Ġcrockery": 24301,
    "hel": 4814,
    "shazz": 14239,
    "son": 2324,
    "plifted": 9710,
    "skin": 10568,
    "Ġtragedies": 25241,
    "buck": 17490,
    "allest": 5485,
    "Ġdeuteronomy": 15758,
    "head": 1435,
    "rop": 539,
    "ceptible": 10955,
    "Ġstunsail": 25543,
    "Ġancles": 21444,
    "Ġconsumm": 15153,
    "commanders": 16989,
    "ch": 321,
    "Ġgrowing": 6750,
    "steak": 14707,
    "adding": 21756,
    "Ġadditional": 7935,
    "Ġweaving": 12737,
    "Ġ131": 24782,
    "Ġfer": 5529,
    "âĢĿ--": 21813,
    "Ġanon": 9666,
    "Ġgree": 7594,
    "ĠĠĠĠĠĠĠĠĠĠĠĠĠĠĠĠĠĠĠĠĠĠĠĠ": 5321,
    "lab": 3458,
    "Ġflitting": 13023,
    "ishnoo": 10956,
    "Ġboister": 12916,
    "Ġnugent": 26457,
    "steady": 14708,
    "mystical": 25317,
    "Ġformation": 2944,
    "Ġsounding": 8264,
    "Ġatlantic": 7000,
    "iel": 11493,
    "silly": 24422,
    "Ġfog": 9661,
    "occasionally": 13520,
    "Ġrecip": 16135,
    "Ġcommonest": 23087,
    "Ġpainful": 6462,
    "iable": 3336,
    "Ġefficiently": 3859,
    "Ġamb": 9291,
    "Ġunresting": 25553,
    "Ġbreast": 8968,
    "Ġrailway": 15020,
    "Ġgunwales": 12238,
    "Ġfreshets": 25705,
    "minutely": 19592,
    "Ġcolonel": 3408,
    "Ġtales": 10141,
    "89": 20758,
    "Ġexperienced": 6582,
    "tur": 5688,
    "Ġxlix": 25860,
    "girl": 12316,
    "Ġallev": 18100,
    "pike": 11514,
    "Ġrapidity": 11095,
    "Ġvult": 12749,
    "Ġinvention": 19951,
    "Ġpulverize": 23391,
    "Ġmediocr": 24084,
    "uniform": 18157,
    "everything": 6324,
    "inders": 15980,
    "oarsman": 25261,
    "Ġclaps": 22353,
    "highly": 24764,
    "Ġallusions": 10906,
    "paralleled": 14509,
    "Ġlightened": 23259,
    "pet": 4867,
    "Ġcoffins": 13248,
    "ories": 4753,
    "porpoise": 16438,
    "gradually": 12912,
    "Ġrig": 4226,
    "entreaties": 26185,
    "Ġsame": 1342,
    "lever": 2933,
    "Ġshared": 10263,
    "Ġupheld": 22149,
    "ositions": 10283,
    "Ġpedest": 14995,
    "ladder": 19783,
    "nervous": 16275,
    "ency": 3872,
    "Ġtrivial": 10142,
    "jane": 4482,
    "knot": 13744,
    "Ġ95": 19772,
    "Ġalive": 4397,
    "Ġsensibility": 14515,
    "september": 14035,
    "Ġendured": 6072,
    "Ġcanoe": 9722,
    "Ġheredit": 9216,
    "Ġsoundings": 13132,
    "worthy": 7732,
    "Ġintentionally": 24523,
    "Ġbennet": 1577,
    "ni": 1636,
    "Ġundisturbed": 19518,
    "utes": 5913,
    "bar": 7541,
    "Ġwarmly": 8987,
    "Ġagonies": 14251,
    "Ġgentleman": 3040,
    "Ġsubsequently": 16159,
    "Ġrealise": 16336,
    "Ġunreason": 15841,
    "ilight": 12690,
    "Ġblame": 6446,
    "Ġlevels": 12695,
    "Ġpoverty": 9303,
    "Ġhastened": 9004,
    "walton": 20248,
    "wretched": 10741,
    "Ġwalrus": 14972,
    "rugged": 6849,
    "Ġpanthe": 19652,
    "Ġglimmered": 20170,
    "Ġtreatise": 19343,
    "Ġcroquet": 9961,
    "Ġadapt": 1003,
    "Ġbordered": 24563,
    "comra": 16169,
    "Ġimpartial": 15218,
    "Ġrep": 1936,
    "Ġbeats": 21749,
    "Ġabsolutely": 4857,
    "Ġswim": 3823,
    "Ġstated": 9688,
    "might": 4080,
    "Ġcanaller": 25467,
    "mbles": 23086,
    "dischar": 19151,
    "ublic": 11227,
    "Ġers": 15460,
    "sideways": 14570,
    "ods": 8835,
    "Ġtempestuous": 20069,
    "Ġunfrequent": 24110,
    "Ġcabin": 3306,
    "semicirc": 26491,
    "erately": 21272,
    "adv": 4536,
    "Ġmouldy": 14973,
    "Ġrange": 9711,
    "Ġbuild": 6474,
    "ò": 179,
    "Ġcom": 368,
    "comfortableness": 24525,
    "Ġwilderness": 14839,
    "Ġavocation": 23950,
    "Ġdrowning": 19903,
    "Ġsketches": 26270,
    "Ġbarrow": 12067,
    "particularly": 8339,
    "proposal": 18754,
    "tled": 3459,
    "pots": 11513,
    "imental": 16532,
    "possibility": 13360,
    "Ġcompletely": 4860,
    "enger": 10773,
    "maul": 11890,
    "Ġdistant": 5387,
    "ket": 17582,
    "Ġindisc": 16227,
    "Ġcylinders": 25943,
    "Ġslips": 23163,
    "Ġperennial": 22691,
    "cruise": 24841,
    "Ġcurious": 3362,
    "gazed": 15360,
    "Ġpolynesian": 26026,
    "difficulty": 12388,
    "Ġnets": 21521,
    "Ġwithstand": 10225,
    "Ġemblaz": 16244,
    "Ġuniformly": 19147,
    "Ġterrors": 6918,
    "Ġfastening": 16356,
    "onsense": 6431,
    "Ġvers": 7563,
    "circle": 16736,
    "Ġsunny": 13084,
    "Ġtablet": 19204,
    "Ġtrouble": 3691,
    "Ġ14": 9322,
    "Ġapologizing": 25197,
    "could": 2874,
    "Ġdr": 2825,
    "or": 282,
    "Ġclothe": 4711,
    "arms": 10173,
    "Ġimmersed": 19483,
    "nep": 20985,
    "Ġply": 21451,
    "Ġ124": 24469,
    "Ġenlarged": 25985,
    "Ġlowly": 11121,
    "Ġwrinkles": 8570,
    "gers": 8375,
    "Ġvisited": 5947,
    "Ġsmoothed": 23655,
    "Ġcarted": 21347,
    "Ġentirely": 3436,
    "perpet": 14161,
    "Ġprivileges": 25132,
    "Ġatone": 15801,
    "Ġtam": 7821,
    "took": 6164,
    "Ġencompassed": 15252,
    "Ġscrawled": 24580,
    "kl": 4865,
    "darted": 20831,
    "Ġparish": 8854,
    "attentive": 17189,
    "Ġdesign": 4135,
    "Ġchinese": 14183,
    "Ġdealer": 23974,
    "Ġcheever": 23281,
    "Ġwre": 5077,
    "Ġchronicler": 20228,
    "Ġcomfort": 3441,
    "Ġwick": 2005,
    "Ġcoldly": 14650,
    "youn": 5690,
    "Ġwarmup": 3925,
    "Ġportentous": 15228,
    "========": 2308,
    "Ġfew": 1203,
    "several": 5544,
    "antages": 7192,
    "Ġhardy": 8565,
    "Ġovercome": 6042,
    "Ġadopted": 15177,
    "Ġunnatural": 7190,
    "Ġsuppressed": 11910,
    "Ġforetold": 23450,
    "side": 2297,
    "Ġdesper": 6176,
    "Ġlegs": 4916,
    "Ġsmothe": 18573,
    "goin": 23401,
    "Ġstrangely": 5677,
    "Ġembedding": 2104,
    "Ġsons": 10766,
    "anzas": 17840,
    "shot": 2140,
    "Ġobligation": 13242,
    "fishermen": 17061,
    "Ġexertions": 13409,
    "sunlight": 24851,
    "Ġovertake": 15963,
    "Ġpolitely": 8994,
    "Ġbanker": 8666,
    "ultaneous": 18582,
    "Ġ49": 24082,
    "oran": 8788,
    "fac": 17541,
    "Ġrecept": 1520,
    "Ġextracts": 9362,
    "Ġunhing": 18241,
    "Ġnoting": 18221,
    "orus": 10801,
    "Ġpassed": 2010,
    "izure": 21838,
    "ure": 356,
    "Ġcens": 8412,
    "âĢĻ-": 18172,
    "Ġbristling": 20525,
    "races": 21627,
    "determine": 19942,
    "short": 6566,
    "Ġdeg": 3285,
    "Ġneglected": 10377,
    "Ġcomparable": 24278,
    "rees": 5436,
    "Ġarbit": 4650,
    "Ġverdure": 10612,
    "Ġnice": 6676,
    "Ġattain": 12744,
    "Ġtack": 5621,
    "Ġsumm": 3357,
    "gravel": 22617,
    "Ġtongs": 9960,
    "vac": 15450,
    "itching": 21333,
    "turbable": 24531,
    "Ġburgled": 23652,
    "Ġpersonified": 19178,
    "Ġwidespread": 20674,
    "Ġprovinces": 24190,
    "Ġreiterating": 26474,
    "Ġwhip": 8451,
    "Ġoverflow": 10291,
    "Ġsailed": 4889,
    "there": 1423,
    "Ġsex": 8841,
    "confirmed": 19644,
    "anging": 3550,
    "Ġloc": 10914,
    "oars": 9614,
    "mown": 20969,
    "Ġjonas": 20608,
    "Ġgratify": 19501,
    "Ġanat": 8123,
    "oons": 12496,
    "Ġclut": 7641,
    "Ġcatastrophic": 3541,
    ",âĢĶâĢĺ": 23800,
    "westward": 25424,
    "Ġstrove": 9956,
    "nable": 13761,
    "searching": 25103,
    "Ġaugmentation": 20114,
    "Ġadmeasure": 18293,
    "Ġcrews": 8990,
    "icant": 21559,
    "ww": 10737,
    "apply": 18759,
    "beth": 13687,
    "engagement": 14457,
    "Ġluxurious": 17310,
    "Ġclamorous": 24909,
    "Ġridges": 16731,
    "iosity": 2302,
    "Ġanatomical": 15075,
    "man": 1052,
    "gement": 13728,
    "Ġtreating": 4284,
    "Ġnobody": 6158,
    "Ġripple": 25504,
    "Ġcons": 953,
    "Ġaccording": 5508,
    "Ġparaph": 22117,
    "upon": 2722,
    "Ġpartiality": 9397,
    "Ġoperations": 2295,
    "Ġquart": 11785,
    "Ġunfathom": 14788,
    "odox": 21810,
    "Ġtener": 21162,
    "osop": 4403,
    "acles": 8519,
    "Ġresented": 22540,
    "Ġirrad": 19093,
    "Ġconfident": 11138,
    "Ġsharing": 3477,
    "lection": 3652,
    "overs": 17621,
    "situation": 11437,
    "Ġesc": 2250,
    "unted": 6998,
    "sake": 13782,
    "Ġlot": 6678,
    "Ġhopeless": 7462,
    "Ġconspicuous": 13602,
    "Ġunflinching": 26512,
    "Ġprogen": 14038,
    "Ġter": 2051,
    "phant": 6287,
    "Ġguise": 14431,
    "narrated": 25621,
    "Ġfinal": 5400,
    "Ġextort": 22717,
    "Ġpost": 4273,
    "Ġriots": 23890,
    "Ġintent": 6409,
    "Ġput": 1797,
    "whiteness": 18370,
    "Ġdaughter": 2871,
    "middle": 11310,
    "Ġinjunction": 19616,
    "Ġlurch": 21552,
    "Ġtable": 2499,
    "volume": 18600,
    "found": 4215,
    "Ġauthoritative": 19560,
    "Ġconfused": 7963,
    "Ġhard": 1442,
    "Ġavail": 11226,
    "Ġfolios": 23017,
    "Ġcassock": 20485,
    "trust": 21077,
    "Ġscreams": 24603,
    "iza": 6255,
    "Ġcove": 22577,
    "Ġdirecting": 16299,
    "repairing": 24495,
    "Ġdiverted": 14592,
    "Ġandes": 12638,
    "peare": 18911,
    "Ġphantom": 8706,
    "Ġpreserving": 19795,
    "Ġamours": 22478,
    "Ġunhappy": 5640,
    "Ġsuffers": 2973,
    "Ġmantle": 25274,
    "whatsoever": 18485,
    "otle": 21794,
    "Ġspeeding": 23563,
    "Ġcomprising": 16067,
    "Ġtweed": 22674,
    "Ġrequesting": 24632,
    "Ġperth": 7022,
    "Ġisinglass": 21799,
    "makes": 10711,
    "robber": 21534,
    "Ġhurt": 7700,
    "drowned": 17368,
    "heeded": 13833,
    "Ġholmes": 1308,
    "Ġincludes": 2011,
    "Ġhorizontally": 17012,
    "Ġwedged": 24071,
    "Ġsteadily": 8051,
    "swiss": 24255,
    "athans": 7433,
    "jumped": 20245,
    "imate": 4222,
    "Ġdisquis": 22524,
    "burn": 8370,
    "Ġprodig": 6027,
    "Ġjon": 15947,
    "heim": 17746,
    "Ġbellies": 13354,
    "motives": 26137,
    "Ġpostp": 12141,
    "acy": 3957,
    "Ġreality": 7057,
    "Ġmodel": 512,
    "Ġemotions": 8969,
    "Ġharmless": 9964,
    "Ġimpetuously": 20370,
    "ler": 3491,
    "Ġfist": 21402,
    "cold": 9589,
    "ays": 6683,
    "Ġsuns": 23271,
    "pull": 6796,
    "argue": 21442,
    "Ġgermans": 25784,
    "Ġempt": 5051,
    "Ġyea": 8915,
    "leo": 21362,
    "Ü": 157,
    "Ġmarine": 23030,
    "Ġretrie": 10382,
    "olets": 21007,
    "dial": 20824,
    "Ġowns": 22821,
    "Ġembell": 14419,
    "under": 3133,
    "Ġdeterminate": 23003,
    "carpenter": 11427,
    "bern": 20774,
    "Ġpurporting": 19182,
    "pursu": 11392,
    "Ġendeavored": 19302,
    "Ġstra": 2991,
    "Ġutterance": 14763,
    "Ġchar": 1704,
    "delighted": 10562,
    "Ġprodigiously": 14931,
    "beds": 16586,
    "Ġsinks": 19548,
    "Ġbeard": 11654,
    "Ġpresence": 5031,
    "Ġswords": 19896,
    "hood": 2660,
    "Ġrocking": 10969,
    "Ġrussia": 26267,
    "ca": 20792,
    "Ġfearless": 9874,
    "nosed": 20991,
    "Ġfame": 21404,
    "Ġlimits": 3455,
    "precision": 4331,
    "ounder": 11742,
    "tossing": 18580,
    "Ġsolace": 16199,
    "usages": 22287,
    "Ġwad": 13850,
    "repressed": 21242,
    "Ġnar": 7375,
    "Ġinstantaneously": 23656,
    "Ġaccurate": 13259,
    "Ġgouge": 26188,
    "Ġsteel": 3893,
    "Ġtry": 3136,
    "Ġmental": 21318,
    "Ġfict": 21403,
    "ply": 6366,
    "ipotence": 22342,
    "interruption": 20110,
    "extinguished": 16151,
    "owers": 12682,
    "Ġhandles": 22694,
    "brance": 7284,
    "Ġtalked": 4419,
    "Ġimply": 18443,
    "akeman": 6267,
    "Ġinjustice": 9190,
    "uguese": 20731,
    "Ġload": 14145,
    "like": 1886,
    "supervised": 1963,
    "loom": 18535,
    "standers": 18480,
    "ipelagoes": 13670,
    "hide": 10703,
    "Ġepidemic": 20694,
    "ething": 1602,
    "castles": 14636,
    "Ġacquainted": 5179,
    "safe": 10053,
    "Ġstranded": 9774,
    "ames": 2883,
    "whe": 1074,
    "Ġtight": 8107,
    "Ġstoutly": 16924,
    "idirectional": 2420,
    "Ġdeclining": 23961,
    "ul": 371,
    "ders": 8074,
    "Ġserenity": 10027,
    "Ġserious": 4322,
    "Ġfloor": 4377,
    "Ġstyle": 6946,
    "due": 22407,
    "Ġcircular": 13109,
    "Ġwindow": 2998,
    "aneously": 4062,
    "Ġchil": 11749,
    "Ġpiqu": 21475,
    "Ġbottom": 3674,
    "Ġexe": 3998,
    "jephro": 26392,
    "arle": 21438,
    "Ġcruising": 6912,
    "V": 58,
    "icip": 6389,
    "shame": 16020,
    "isure": 6240,
    "Ġpeep": 6870,
    "Ġvehemence": 26566,
    "Ġfundamentals": 14635,
    "ĠĠĠĠĠĠĠĠĠĠĠĠĠĠĠĠĠĠĠĠĠĠĠĠĠĠĠĠĠĠĠĠĠĠĠĠĠĠĠĠĠĠĠĠĠĠĠĠĠĠĠ": 20037,
    "diversity": 25897,
    "wig": 17704,
    "Ġtelegraph": 25583,
    "_âĢĶâĢĿ": 20762,
    "continual": 20643,
    "Ġinform": 999,
    "wish": 8099,
    "avings": 12021,
    "Ġfoolish": 5979,
    "Ġconstruction": 9385,
    "Ġdivision": 19442,
    "Ġlashings": 25097,
    "Ġvindict": 13604,
    "those": 4495,
    "@": 36,
    ",_": 11462,
    "Ġinterconnected": 1339,
    "illa": 12790,
    "Ġstraighten": 24001,
    "Ġsur": 2181,
    "Ġcalled": 1971,
    "Ġprot": 3850,
    "Ġmouthfuls": 20645,
    "minute": 11274,
    "nes": 6961,
    "skull": 24488,
    "Ġkind": 1784,
    "crossed": 16632,
    "Ġchained": 16390,
    "Ġboards": 14299,
    "Ġdefilements": 26284,
    "icacy": 15656,
    "Ġdeficiencies": 26570,
    "Ġfailing": 12135,
    "rant": 11516,
    "Ġhunters": 6300,
    "versed": 9824,
    "Ġunexpectedly": 19908,
    "urry": 13992,
    "absolute": 17122,
    "©": 107,
    "paid": 15414,
    "Ġmot": 2985,
    "bulkington": 19924,
    "Ġcompose": 12899,
    "Ġmultiplied": 23685,
    "obscure": 23095,
    "Ġ200": 19295,
    "departure": 15233,
    "changing": 10854,
    "Ġunclasp": 26511,
    "Ġrenounce": 19466,
    "ope": 4128,
    "Ġrestored": 7066,
    "Ġphilosoph": 19650,
    "Ġpeeling": 22689,
    "city": 15326,
    "Ġwoman": 2385,
    "nne": 20988,
    ")(": 2980,
    "Ġiteratively": 3057,
    "/(": 2981,
    "leading": 15560,
    "Ġtrotting": 19974,
    "Ġforgive": 8009,
    "Ġbun": 6006,
    "close": 9985,
    "Ġextinguished": 10338,
    "Ġobtained": 7432,
    "Ġlifelessly": 23045,
    "Ġveteran": 17449,
    "fetch": 12462,
    "wand": 10738,
    "alogue": 25159,
    "repe": 8775,
    "Ġindication": 22949,
    "ashing": 4824,
    "Ġaffl": 14385,
    "Ġcounters": 24140,
    "ropes": 7902,
    "Ġstepping": 9353,
    "Ġslumber": 13057,
    "sticking": 21657,
    "Ġobtaining": 16131,
    "Ġscan": 22276,
    "Ġerie": 20052,
    "Ġdisappointment": 6626,
    "supposing": 24135,
    "ues": 2081,
    "Ġdignified": 15596,
    "constantinople": 25507,
    "Ġ32": 19487,
    "Ġreached": 4025,
    "pleased": 8853,
    "neying": 22455,
    "effect": 8603,
    "estab": 14170,
    "Ġmim": 3107,
    "Ġdur": 11591,
    "Ġwriggling": 15256,
    "garious": 17558,
    "Ġplat": 8520,
    "Ġlodging": 24093,
    "Ġgratitude": 5599,
    "Ġgazette": 19499,
    "Ġencountered": 8321,
    "Ġdisenc": 22523,
    "Ġslides": 18938,
    "Ġroods": 22400,
    "Ġown": 1007,
    "Ġcontemptuous": 24676,
    "Ġsleeping": 6319,
    "Ġlamp": 4117,
    "Ġexposed": 8522,
    "perquis": 22187,
    "Ġrandomly": 1920,
    "cket": 3688,
    "Ġcheery": 16367,
    "memory": 13616,
    "whilst": 18371,
    "blood": 7779,
    "Ġminutest": 14559,
    "ordinary": 4406,
    "own": 744,
    "ities": 1826,
    "Ġsm": 704,
    "whispering": 26103,
    "Ġpomp": 12619,
    "missing": 13217,
    "Ġspilled": 10924,
    "ribed": 7692,
    "Ġimplore": 24872,
    "N": 50,
    "Ġearnest": 3933,
    "Ġsecure": 4912,
    "Ġfind": 1456,
    "Ġfinding": 3267,
    "wins": 21128,
    "longing": 23723,
    "Ġprotested": 9933,
    "professional": 20274,
    "Ġclass": 795,
    "Ġhollowly": 24526,
    "Ġiceberg": 14715,
    "Ġclasp": 9744,
    "grateful": 10428,
    "Ġrelics": 16195,
    "Ġbambooz": 26119,
    "Ġowner": 8921,
    "strip": 19829,
    "Ġunmindful": 22063,
    "Ġshocked": 9400,
    "nue": 15396,
    "thodox": 21985,
    "Ġtoll": 7851,
    "feet": 6568,
    "Ġcorrob": 16265,
    "bad": 12434,
    "absolutely": 10645,
    "Ġtwentieth": 18659,
    "atically": 2622,
    "Ġdeline": 16332,
    "Ġdress": 4023,
    "Ġdull": 6384,
    "Ġtargets": 4206,
    "Ġlocations": 12411,
    "name": 6795,
    "Ġphaet": 16318,
    "Ġimpressed": 8198,
    "Ġenrapt": 21936,
    "lift": 15383,
    "Ġdotted": 16792,
    "Ġtransformed": 22608,
    "Ġirreparable": 19997,
    "M": 49,
    "Ġlearn": 362,
    "Ġcheerily": 13306,
    "Ġback": 813,
    "Ġdoor": 1740,
    "ault": 2303,
    "Ġinsanity": 12045,
    "drugg": 20837,
    "Ġbudge": 15163,
    "Ġenergetic": 15196,
    "descried": 11927,
    "originally": 24937,
    "Ġnotice": 4542,
    "church": 8139,
    "Ġshops": 21998,
    "Ġgrammar": 1063,
    "favourite": 15142,
    "Ġcent": 3255,
    "ayed": 12709,
    "Ġmaybe": 12946,
    "Ġarticulated": 24433,
    "Ġimbec": 14156,
    "Ġcrocod": 19627,
    "draw": 23896,
    "Ġsuits": 22073,
    "Ġvolcano": 24147,
    "leg": 2812,
    "Ġunnearable": 26516,
    "Ġcomrades": 9554,
    "Ġdescending": 8902,
    "Ġphilosophy": 7103,
    "Ġdescried": 7918,
    "Ġambergris": 8705,
    "Ġescort": 23503,
    "Ġgives": 5018,
    "when": 1593,
    "Ġgod": 1935,
    "studied": 17149,
    "unusually": 15778,
    "Ġserved": 8245,
    "Ġgates": 10200,
    "Ġmeek": 21806,
    "Ġtit": 8398,
    "Ġengage": 9334,
    "sur": 4522,
    "tan": 4742,
    "mod": 1058,
    "ubbub": 23242,
    "signs": 16538,
    "Ġbalmoral": 16206,
    "Ġpick": 4257,
    "ame": 644,
    "limping": 26393,
    "Ġbasic": 24701,
    "igger": 21698,
    "remediable": 26294,
    "Ġspouts": 7729,
    "Ġsciences": 15943,
    "do": 1995,
    "Ġ23": 13191,
    "Ġship": 1094,
    "approach": 24833,
    "Ġringed": 16750,
    "considerable": 10548,
    "umnal": 18300,
    "coast": 10449,
    "meanwhile": 10609,
    "on": 267,
    "Ġresearch": 3218,
    "Ġdepressions": 25798,
    "india": 22368,
    "Ġrehears": 15698,
    "owders": 18050,
    "trans": 5594,
    "rie": 2784,
    "Ġfisherman": 12073,
    "alike": 17942,
    "Ġfrog": 23918,
    "efficient": 2872,
    "narrative": 17318,
    "Ġdreaming": 11223,
    "Ġunansw": 22055,
    "Ġray": 18632,
    "Ġacknowledged": 7534,
    "Ġdizzy": 21430,
    "Ġchemistry": 11460,
    "affording": 23775,
    "ica": 10198,
    "ouement": 21446,
    "Ġpreventing": 883,
    "Ġcounties": 23300,
    "instinct": 19542,
    "gro": 10094,
    "ĠĠĠĠĠĠĠĠĠĠĠĠĠĠĠĠĠĠĠĠĠĠĠĠĠĠĠĠĠĠĠĠĠĠ": 14614,
    "Ġleaping": 8340,
    "plans": 21955,
    "violent": 14579,
    "Ġsins": 13836,
    "Ġbritain": 16956,
    "resistible": 10643,
    "Ġstreamed": 14546,
    "Ġplanned": 14752,
    "Ġdragon": 14943,
    "riminately": 16483,
    "Ġcompens": 14263,
    "Ġseizure": 21954,
    "osed": 1958,
    "Ġunprincipled": 20707,
    "Ġsupposition": 9816,
    "Ġimparts": 18445,
    "Ġstur": 15715,
    "Ġheidelburgh": 11642,
    "Ġparacelsus": 15265,
    "Ġdisappoint": 24205,
    "Ġprestige": 22233,
    "zek": 16254,
    "Ġgeography": 23370,
    "Ġpoet": 8207,
    "Ġblotting": 25313,
    "Ġ500": 24328,
    "Ġprogramming": 1184,
    "books": 8663,
    "Ġrinal": 21977,
    "Ġprovinc": 16742,
    "desp": 6075,
    "Ġhitherto": 5879,
    "tinted": 17683,
    "Ġbelongs": 8014,
    "Ġdolphin": 17311,
    "Ġ11": 5318,
    "Ġwat": 1287,
    "Ġwes": 8778,
    "Ġruskin": 25809,
    "/*": 10070,
    "Ġorph": 9716,
    "Ġcurves": 18844,
    "Ġperceptible": 18451,
    "ledge": 1330,
    "Ġfamine": 16327,
    "dare": 12451,
    "methodically": 20663,
    "Ġconverted": 16114,
    "wreat": 21126,
    "Ġlobster": 11389,
    "whips": 22235,
    "Ġfoundation": 4233,
    "Ġcontribut": 12856,
    "ean": 20839,
    "Ġembed": 1441,
    "commanded": 16988,
    "Ġlottery": 19887,
    "Ġturner": 7049,
    "Ġfragmentary": 25858,
    "Ġpersons": 6182,
    "speptic": 23943,
    "Ġinclined": 6622,
    "Ġbruised": 25772,
    "Ġbuckskin": 19950,
    "Ġagonising": 25373,
    "Ġwherefore": 8524,
    "Ġconvul": 13202,
    "Ġimproving": 1212,
    "itoring": 21330,
    "Ġusher": 22217,
    "Ġclassify": 1667,
    "isbury": 21375,
    "Ġamazing": 9976,
    "Ġunnecessary": 8851,
    "Ġobscure": 9553,
    "Ġsee": 804,
    "Ġwatching": 4854,
    "Ġappeal": 16314,
    "Ġarticles": 7108,
    "sell": 13780,
    "Ġinduce": 7762,
    "Ġapothecary": 13658,
    "avery": 13682,
    "Ġspitz": 14148,
    "Ġpretend": 7721,
    "Ġmadame": 13149,
    "Ġeighteen": 11239,
    "Ġliberties": 19666,
    "Ġphr": 2682,
    "rule": 15895,
    "squ": 7809,
    "Ġarea": 14186,
    "acon": 10681,
    "Ġbaron": 19333,
    "Ġsuch": 793,
    "Ġamounted": 18513,
    "9": 29,
    "Ġevolved": 9890,
    "Ġreced": 15690,
    "Ġpious": 11598,
    "Ġcastle": 14716,
    "vint": 21113,
    "Ġinsensibly": 20074,
    "hued": 20910,
    "Ġsubproblems": 12954,
    "either": 6791,
    "Ġgreece": 17069,
    "Ġtaste": 5524,
    "Ġthere": 563,
    "Ġep": 7384,
    "ended": 1833,
    "Ġsensitivity": 3070,
    "Ġmalice": 7152,
    "Ġsympathy": 6346,
    "Ġsentin": 16371,
    "Ġunperceived": 22034,
    "cen": 17502,
    "Ġexter": 7397,
    "traces": 24315,
    "Ġmethodically": 23132,
    "pooh": 18799,
    "iest": 4039,
    "Ġunpleasing": 22052,
    "y": 93,
    "ental": 7168,
    "Ġvisible": 4777,
    "eling": 6681,
    "Ġeliminating": 20618,
    "Ġexp": 779,
    "Ġreplace": 14476,
    "Ġwallowing": 24043,
    "aster": 1866,
    "Ġlandlord": 5581,
    "beef": 18520,
    "Ġmix": 7576,
    "Ġfidget": 15188,
    "in": 262,
    "Ġinnoc": 3797,
    "Ġbeaten": 10528,
    "Ġsulphur": 24933,
    "Ġgranite": 22805,
    "aft": 9583,
    "Ġannouncement": 14832,
    "Ġwept": 7184,
    "fixedly": 24929,
    "destroy": 19509,
    "Ġtower": 8318,
    "itself": 7834,
    "Ġincome": 7916,
    "lemag": 21370,
    "mention": 7214,
    "dirty": 20833,
    "Ġwilfully": 16766,
    "embarr": 15797,
    "Ġvenetian": 14846,
    "Ġdeliverance": 15156,
    "Ġlat": 5087,
    "vessel": 11377,
    "done": 6500,
    "Ġsoaked": 15860,
    "respectable": 19846,
    "Ġelegant": 7532,
    "neat": 22454,
    "Ġquote": 18466,
    "Ġargument": 7098,
    "Ġexamination": 8004,
    "Ġassisted": 11111,
    "bling": 10078,
    "Ġfeeling": 3085,
    "Ġsmiting": 12895,
    "Ġwindsor": 16887,
    "Ġsoothed": 10028,
    "Ġworshipped": 25691,
    "Ġemblematical": 25788,
    "guinea": 16672,
    "erringly": 16210,
    "reme": 2424,
    "Ġurgent": 16869,
    "shore": 10304,
    "Ġapartments": 19613,
    "lo": 680,
    "Ġshr": 4227,
    "Ġoffended": 7040,
    "Ġperceive": 6699,
    "tackles": 25624,
    "eds": 6674,
    "Ġblasphe": 17406,
    "Ġcolt": 11043,
    "Ġhum": 1102,
    "Ġforeb": 12002,
    "foremost": 14252,
    "Ġdevotees": 25376,
    "remem": 13064,
    "bowed": 10683,
    "Ġaccomplish": 14875,
    "Ġcharmed": 16762,
    "Ġrod": 9279,
    "chess": 16573,
    "Ġrefreshing": 20263,
    "slackened": 26094,
    "Ġ65": 24368,
    "Ġmortification": 12091,
    "zors": 21146,
    "Ġpebbles": 16128,
    "Ġglen": 18851,
    "Ġsuddenly": 2647,
    "Ġfant": 9173,
    "Ġmariner": 7247,
    "Ġbalmy": 22902,
    "valued": 2854,
    "Ġgained": 4534,
    "âĢĶ.": 11753,
    "Ġconditions": 8306,
    "Ġcrusad": 23701,
    "le": 279,
    "Ġexplained": 5935,
    "Ġbolivia": 24667,
    "Ġcontrive": 16009,
    "?âĢĿ": 700,
    "Ġdante": 21436,
    "Ġscarcely": 4012,
    "Ġumb": 11645,
    "Ġtongues": 14862,
    "legra": 10789,
    "Ġmine": 3180,
    "Ġvaguely": 17365,
    "Ġenlightened": 12743,
    "Ġweight": 655,
    "Ġprendergast": 26537,
    "craft": 12244,
    "Ġwronged": 24247,
    "Ġbush": 23335,
    "Ġcandle": 8292,
    "Ġcontinents": 16849,
    "Ġpillar": 21471,
    "Ġoutrageous": 20609,
    "tale": 10127,
    "Ġsquat": 14367,
    "Ġmarines": 16261,
    "Ġcleared": 6074,
    "Ġharpooning": 23976,
    "Ġintervals": 5598,
    "Ġdeclines": 23960,
    "Ġmaps": 2963,
    "Ġpresented": 5183,
    "Ġinterrupted": 6343,
    "Ġuncounted": 19116,
    "pair": 21011,
    "condite": 23245,
    "Ġconfided": 19036,
    "suspected": 12370,
    "weep": 22681,
    "Ġalgorithms": 859,
    "Ġdarkness": 4278,
    "Ġseeming": 8540,
    "Ġwashing": 9704,
    "Ġcrab": 13143,
    "ral": 4627,
    "ome": 535,
    "skirted": 24489,
    "eminent": 25104,
    "Ġschoolmaster": 16862,
    "Ġsanta": 26420,
    "angular": 11721,
    "eu": 17530,
    "Ġplate": 8898,
    "Ġhorrify": 23815,
    "oblig": 16290,
    "itals": 17820,
    "clad": 14458,
    "boxes": 16888,
    "Ġcedars": 20291,
    "Ġgold": 3281,
    "Ġuse": 827,
    "from": 1991,
    "opinion": 10984,
    "cavity": 26126,
    "able": 452,
    "Ġcrate": 19122,
    "Ġdisd": 7030,
    "Ġclutching": 24951,
    "Ġplaned": 24055,
    "Ġchannel": 26012,
    "mell": 20963,
    "orne": 17872,
    "acters": 9308,
    "Ġgestic": 21605,
    "estion": 18363,
    "different": 6501,
    "aces": 2070,
    "Ġnlp": 3061,
    "urmount": 13994,
    "Ġstray": 18069,
    "quod": 2164,
    "moderate": 22852,
    "Ġah": 5075,
    "Ġpitches": 23899,
    "Ġsteals": 23082,
    "Ġtown": 2456,
    "Ġteneriffe": 26414,
    "Ġwardrobe": 17225,
    "Ġadvocate": 13675,
    "sicilian": 21062,
    "Ġfierc": 18715,
    "folding": 24927,
    "violently": 23542,
    "urried": 21701,
    "fired": 20859,
    "Ġanxiety": 5408,
    "ricity": 23059,
    "Ġextrem": 2475,
    "hue": 20898,
    "Ġeagerly": 4990,
    "offic": 7466,
    "Ġtransplanted": 22462,
    "akes": 2217,
    "rog": 15638,
    "Ġheadstrong": 14387,
    "meeting": 11019,
    "tide": 11532,
    "Ġsecured": 6745,
    "Ġhuge": 4699,
    "Ġiterate": 13200,
    "ascertaining": 26460,
    "Ġoccup": 3740,
    "noted": 22745,
    "athed": 7828,
    "Ġgregarious": 18964,
    "inquir": 9535,
    "Ġborder": 10169,
    "breathing": 25335,
    "Ġgets": 10839,
    "Ġgroup": 2038,
    "Ġvect": 1224,
    "Ġrapturously": 24888,
    "Ġenig": 15798,
    "Ġsnar": 13199,
    "turned": 7306,
    "Ġrecent": 7435,
    "Ġperson": 2367,
    "Ġlurk": 13382,
    "Ġastern": 6090,
    "Ġsecurely": 16802,
    "Ġcalifornia": 20528,
    "Ġeasterly": 25962,
    "osy": 11756,
    "Ġreaches": 18031,
    "Ġtoiled": 12639,
    "regret": 16451,
    "Ġhumorously": 18779,
    "Ġalarm": 4050,
    "descend": 23083,
    "Ġdrawback": 23987,
    "Ġtout": 17719,
    "I": 45,
    "Ġconsulted": 13429,
    "Ġnoiselessly": 22860,
    "Ġmaintenance": 17461,
    "imble": 10858,
    "ernal": 4312,
    "ientiously": 21938,
    "ray": 2436,
    "eld": 970,
    "Ġarrangement": 2658,
    "Ġdow": 17886,
    "Ġrambling": 18634,
    "grew": 17555,
    "Ġeth": 17716,
    "Ġwhile": 607,
    "Ġcondu": 18109,
    "Ġinch": 7849,
    "relative": 24012,
    "Ġremaining": 6188,
    "Ġhop": 1459,
    "Ġbye": 12735,
    "veral": 2351,
    "Ġarrange": 3121,
    "breaking": 14764,
    "ondescript": 22914,
    "Ġbegg": 16253,
    "Ġmealy": 18118,
    "recol": 10150,
    "Ġmorcar": 13012,
    "col": 3104,
    "unting": 21871,
    "Ġsimil": 2531,
    "fifty": 12350,
    "forty": 9373,
    "Ġvictims": 19803,
    "Ġregrets": 18598,
    "Ġliberal": 12188,
    "Ġdub": 13908,
    "Ġmerchantmen": 19859,
    "Ġalien": 14017,
    "Ġdissembling": 26254,
    "Ġself": 1778,
    "Ġtreacle": 14595,
    "match": 15389,
    "Ġsuperb": 16445,
    "roads": 17957,
    "87": 20756,
    "Ġbrittle": 22861,
    "Ġdistribut": 841,
    "ckles": 22086,
    "Ġshiny": 14105,
    "Ġthrusts": 24350,
    "Ġfelix": 4848,
    "pour": 17630,
    "Ġcontrasting": 11154,
    "Ġgrudge": 20692,
    "Ġlye": 21548,
    "Ġjealously": 24125,
    "Ġminimizing": 3466,
    "nearer": 22456,
    "Ġpantheistic": 26335,
    "riptions": 14794,
    "Ġfo": 1649,
    "Ġwalls": 6762,
    "Ġunreserved": 19395,
    "Ġconsideration": 5191,
    "Ġfamous": 5255,
    "Ġparadise": 11194,
    "revolver": 25627,
    "Ġgreater": 3037,
    "ius": 5789,
    "Ġforbid": 7864,
    "queen": 12724,
    "oting": 2744,
    "deadly": 17100,
    "Ġpulley": 2975,
    "Ġmantel": 11439,
    "Ġqu": 606,
    "Ġsorting": 3235,
    "Ġachieve": 3672,
    "Ġbrushed": 15569,
    "olidity": 18132,
    "Ġcircumference": 13544,
    "Ġhist": 2445,
    "bitious": 16669,
    "Ġflirt": 14422,
    "Ġgestures": 13535,
    "introdu": 8937,
    "Ġmenacing": 23105,
    "Ġhelper": 24025,
    "encouragement": 17422,
    "Ġsettling": 11062,
    "reason": 4413,
    "Ġstones": 9221,
    "Ġoverfitting": 1542,
    "tempered": 13445,
    "Ġspeedily": 7711,
    "airing": 16176,
    "Ġplanisphere": 26607,
    "Ġkings": 7197,
    "Ġdisinclination": 22533,
    "Ġholland": 10365,
    "Ġscru": 8190,
    "Ġcourtship": 24136,
    "gossip": 23402,
    "icherry": 15134,
    "Ġprevailed": 7777,
    "Ġinvests": 14867,
    "well": 1690,
    "Ġmagician": 25058,
    "Ġfre": 1573,
    "51": 12429,
    "Ġdeference": 10881,
    "igantic": 5539,
    "Ġimbedded": 18332,
    "structure": 2410,
    "Ġaddison": 14232,
    "Ġpattered": 19029,
    "lan": 15376,
    "Ġvinc": 14084,
    "Ġhowl": 12851,
    "welcome": 10000,
    "ena": 11567,
    "considering": 12172,
    "Ġgreatly": 5849,
    "Ġhorns": 11123,
    "Ġrumors": 11321,
    "Ġeyelashes": 26106,
    "Ġbilliard": 16689,
    "iful": 2884,
    "Ġputting": 5326,
    "Ġsplitting": 4382,
    "Ġbohem": 8526,
    "Ġblind": 3716,
    "une": 2783,
    "Ġstreets": 5863,
    "chancing": 22908,
    "ĠĠĠĠĠĠĠĠĠĠĠĠĠĠĠĠĠĠĠĠĠĠĠĠĠĠĠĠĠĠĠĠĠĠĠ": 19257,
    "tures": 21068,
    "ston": 15681,
    "Ġreduce": 7942,
    "Ġadvertised": 17247,
    "Ġexamine": 7734,
    "cab": 7333,
    "recked": 17762,
    "story": 9212,
    "Ġsubsets": 2342,
    "Ġwindigate": 18910,
    "Ġcontour": 18474,
    "Ġbadge": 16683,
    "Ġhovered": 12628,
    "Ġintrodu": 1924,
    "Ġvexations": 24609,
    "Ġinwards": 15619,
    "Ġburg": 23650,
    "Ġseized": 4833,
    "pretending": 17041,
    "Ġindoors": 18836,
    "disaster": 23491,
    "talking": 10006,
    "Ġexcepting": 14680,
    "Ġwoody": 23516,
    "Ġterm": 2264,
    "rue": 1128,
    "Ġprofile": 16488,
    "Ġintelligent": 1650,
    "Ġgospel": 18000,
    "Ġfrigid": 17352,
    "Ġsigh": 10336,
    "torture": 26151,
    "Ġmira": 8406,
    "Ġwhistles": 24624,
    "Ġtierce": 15478,
    "Ġintelligently": 3883,
    "hy": 4740,
    "Ġspasmodically": 17313,
    "Ġcour": 1768,
    "Ġwhispered": 5337,
    "Ġkeenly": 9484,
    "Ġprocess": 560,
    "Ġturnkeys": 23026,
    "Ġprocessing": 881,
    "Ġcurved": 18845,
    "Ġguardianship": 17419,
    "security": 26206,
    "Ġremembrance": 8317,
    "Ġsleeps": 10446,
    "Ġtemples": 18645,
    "ippers": 17576,
    "itia": 11578,
    "vicinity": 20478,
    "Ġeuroc": 14958,
    "while": 2936,
    "Ġwaned": 17791,
    "Ë": 140,
    "Ġchemical": 10410,
    "arness": 11670,
    "ario": 14247,
    "Ġlongitude": 11011,
    "icult": 3343,
    ",âĢĶâĢľ": 10069,
    "viii": 12019,
    "Ġ20": 8613,
    "Ġenjoyments": 24017,
    "Ġmany": 1108,
    "Ġdescribed": 6606,
    "Ġswear": 6461,
    "Ġconflag": 20334,
    "Ġquench": 22416,
    "Ġbulge": 23855,
    "Ġshort": 2223,
    "Ġengraved": 17081,
    "break": 6101,
    "Ġarchitectures": 2912,
    "burgh": 6773,
    "peculiarities": 13470,
    "Ġcharacteristic": 12046,
    "Ġjuncture": 17129,
    "covenant": 23561,
    "Ġtells": 9360,
    "Ġhast": 3152,
    "seven": 8463,
    "ud": 913,
    "half": 4931,
    "Ġmatches": 14395,
    "Ġvesu": 21946,
    "Ġafore": 10758,
    "Ġmeadow": 17151,
    "Ġspoil": 17007,
    "Ġflirting": 16250,
    "Ġcoun": 4179,
    "Ġsperma": 19047,
    "Ġkitchen": 8495,
    "condemned": 26060,
    "uplifted": 17695,
    "acing": 2718,
    "prehend": 14242,
    "Ġslee": 8974,
    "Ġgrease": 26189,
    "Ġthereupon": 18434,
    "Ġpalpitated": 26085,
    "Ġdrowned": 9551,
    "Ġ128": 24473,
    "Ġshining": 8171,
    "Ġhilarity": 20296,
    "iece": 3230,
    "andam": 10888,
    "agitation": 14067,
    "eding": 7165,
    "Ġaware": 5756,
    "Ġgib": 13964,
    "tried": 13793,
    "iltrated": 19305,
    "erve": 12546,
    "Ġfurlongs": 20722,
    "Ġwhitish": 24866,
    "Ġencoder": 3635,
    "chest": 11208,
    "Ġportraits": 20141,
    "izabeth": 906,
    "Ġadventure": 5980,
    "Ġcetacea": 20552,
    "Ġmathematical": 3352,
    "Ġvor": 15805,
    "Ġdidn": 4362,
    "Ġplates": 11007,
    "Ġgrapple": 25811,
    "fill": 15349,
    "Ġuneasy": 8661,
    "Ā": 193,
    "division": 20047,
    "Ġhoars": 19077,
    "Ġblo": 2734,
    "representing": 25271,
    "whel": 7664,
    "Ġ270": 25130,
    "Ġimputable": 22170,
    "ashtego": 4105,
    "Ġhampshire": 15241,
    "Ġfancy": 3747,
    "Ġsurvey": 13592,
    "Ġheadache": 22897,
    "only": 3310,
    "Ġrecl": 16134,
    "unwho": 21874,
    "woes": 21132,
    "tumultuously": 25613,
    "Ġbook": 2703,
    "clock": 3936,
    "Ġhoops": 9388,
    "Ġcrutch": 23445,
    "iforn": 14063,
    "Ġprevailing": 24673,
    "infl": 15487,
    "Ġposted": 16724,
    "Ġplanisp": 24057,
    "Ġvoluntarily": 12138,
    "bod": 12435,
    "Ġaided": 17745,
    "iot": 9600,
    "contented": 14634,
    "brilliancy": 26077,
    "Ġhabitu": 19527,
    "Ġglowed": 24864,
    "Ġevinced": 7100,
    "Ġresignation": 18566,
    "Ġdoubled": 19641,
    "Ġcarrying": 6071,
    "Ġretarded": 23070,
    "propriety": 14366,
    "Ġyonder": 7392,
    "cream": 15330,
    "Ġarches": 14160,
    "spike": 16139,
    "Ġaught": 8772,
    "Ġconfederate": 17353,
    "giana": 7800,
    "Ġlizzy": 3545,
    "carefully": 13367,
    "Ġalterations": 19870,
    "beyond": 8882,
    "Ġeternities": 19941,
    "spirits": 8054,
    "Ġknob": 24407,
    "Ġenergies": 25459,
    "¹": 122,
    "Ġkick": 5837,
    "Ġguide": 3216,
    "Ġformula": 2867,
    "Ġtwig": 11848,
    "Ġcatastrop": 3349,
    "zwilliam": 5074,
    "seamen": 13625,
    "Ġapproved": 16032,
    "likely": 9022,
    "interred": 23734,
    "Ġangry": 5498,
    "Ġcivilised": 24244,
    "Ġtroubles": 19437,
    "Ġlevers": 18077,
    "ailing": 7021,
    "Ġlaw": 3654,
    "Ġchim": 5932,
    "doctor": 19095,
    "ĠarchÃ¦": 22765,
    "Ġcongratulated": 19765,
    "Ġdecapitated": 20614,
    "Ġflank": 8228,
    "Ġthrows": 14737,
    "Ġvagueness": 25737,
    "strade": 5065,
    "wrinkled": 16553,
    "Ġgood": 1001,
    "berish": 22713,
    "hemat": 3130,
    "Ġsurely": 6307,
    "Ġnich": 21517,
    "levelled": 23642,
    ";âĢĿâĢĶ": 20759,
    "ingly": 2134,
    "Ġforced": 4352,
    "Ġcocoan": 20315,
    "Ġbelieves": 14407,
    "Ġgradually": 3402,
    "dost": 14535,
    "Ġbestowed": 6593,
    "Ġhereby": 10358,
    "noo": 9792,
    "estic": 4956,
    "Ġintuitions": 17340,
    "Ġparc": 10920,
    "Ġwears": 10240,
    "ofs": 11828,
    "day": 1858,
    "notice": 16145,
    "Ġpettiness": 24229,
    "Ġceremonies": 24836,
    "imp": 3033,
    "Ġretiring": 16279,
    "Ġbe": 336,
    "Ġsplintered": 11418,
    "Ġcanv": 7009,
    "ohog": 9842,
    "claimed": 9835,
    "Ġnarwhales": 24902,
    "Ġdrunken": 12048,
    "Ġbrass": 11048,
    "Ġfurs": 18738,
    "Ġmoth": 17802,
    "Ġhosts": 19937,
    "Ġfervour": 19725,
    "Ġrolled": 4428,
    "Ġpanegyric": 26449,
    "Ġsacred": 10930,
    "Ġindirect": 18835,
    "ropy": 1105,
    "Ġspin": 7629,
    "warn": 11542,
    "Ġunprotected": 22064,
    "Ġconveniences": 19811,
    "Ġben": 1111,
    "abilizing": 2926,
    "Ġembarrassed": 11384,
    "Ġchanced": 8186,
    "fitting": 1507,
    "Ġseveral": 2674,
    "Ġdetailed": 12821,
    "remed": 18952,
    "batross": 9092,
    "Ġglowing": 12280,
    "original": 9084,
    "Ġpure": 6137,
    "Ġbloom": 9887,
    "alizing": 17939,
    "pleasantness": 19769,
    "fiery": 13580,
    "Ġhasten": 10478,
    "profound": 16425,
    "Ġspeak": 2227,
    "Ġfrankness": 16746,
    "Ġawaited": 17074,
    "Ġguiltless": 16940,
    "Ġremark": 2146,
    "fted": 9118,
    "Ġdong": 17887,
    "ignation": 11128,
    "Ġmade": 1049,
    "Ġsacrificed": 17421,
    "agatha": 21905,
    "symp": 14611,
    "Ġdissipate": 13632,
    "Ġrooted": 13168,
    "discovered": 8324,
    "Ġattention": 1180,
    "Ġmoreover": 6163,
    "Ġslaughtered": 26584,
    "approb": 11042,
    "icher": 9202,
    "Ġcautiously": 16977,
    "Ġoaks": 16933,
    "cater": 20814,
    "Ġkicked": 10581,
    "ling": 735,
    "rates": 21037,
    "pression": 10407,
    "keen": 12779,
    "Ġattaining": 15802,
    "Ġaddressing": 11164,
    "Ġexclusiveness": 23924,
    "tent": 21063,
    "Ġpenn": 11112,
    "seam": 10874,
    "Ġkentuckian": 26342,
    "driver": 14920,
    "ribe": 1223,
    "ench": 21278,
    "Ġtext": 2265,
    "Ġexcess": 3344,
    "Ġacceptance": 14826,
    "Ġbland": 11064,
    "Ġberm": 21381,
    "Ġloosed": 22109,
    "e": 73,
    "despatched": 19800,
    "Ġcontr": 1915,
    "Ġcaliforn": 14430,
    "irection": 2387,
    "Ġfet": 5807,
    "ately": 1702,
    "Ġslam": 13055,
    "Ġhoe": 23349,
    "ĠâĢľâĢĺ": 8503,
    "Ġgipsies": 12406,
    "barrels": 15041,
    "acency": 12905,
    "mountain": 10713,
    "na": 13759,
    "Ġshows": 8482,
    "Ġhunting": 7259,
    "Ġimplies": 24873,
    "Ġchairs": 12823,
    "Ġtransient": 18494,
    "ards": 2504,
    "Ġcoppers": 22580,
    "Ġringle": 18210,
    "Ġgossip": 18470,
    "Ġtooth": 9192,
    "Ġlocks": 11722,
    "Ġbrowne": 13300,
    "gained": 20880,
    "geons": 15978,
    "Ġhelplessness": 25071,
    "august": 11071,
    "Ġfelony": 18951,
    "Ġneatness": 19931,
    "Ġsparks": 22129,
    "called": 6292,
    "Ġsad": 3871,
    "ings": 636,
    "ornament": 23486,
    "Ġchests": 19670,
    "Ġtenth": 13824,
    "frock": 20119,
    "fortun": 3538,
    "display": 19154,
    "Ġpronounce": 16968,
    "monkey": 19169,
    "dom": 6222,
    "lay": 5890,
    "Ġnoah": 10942,
    "Ġfanning": 23388,
    "Ġdelicious": 14792,
    "Ġasks": 5115,
    "warrior": 24798,
    "Ġcentrally": 23829,
    "sleepy": 24729,
    "Ġclanking": 20610,
    "Ġxxx": 7766,
    "Ġportrait": 10661,
    "Ġfisheries": 17437,
    "Ġserenely": 13506,
    "plumed": 21958,
    "Ġtying": 15473,
    "Ġcalculate": 13262,
    "Ġinterment": 22571,
    "aware": 16294,
    "Ġprof": 2461,
    "Ġhousekeeper": 7456,
    "aw": 1448,
    "Ġpicking": 11259,
    "Ġmatrix": 1609,
    "Ġschol": 17376,
    "ivering": 7697,
    "Ġbelieving": 8224,
    "Ġcomical": 11677,
    "bourine": 9395,
    "Ġflit": 23005,
    "Ġsurgeons": 23463,
    "Ġstoven": 23172,
    "Ġdownright": 16117,
    "niece": 20994,
    "ution": 4349,
    "Ġfavourable": 7958,
    "Ġtrade": 2547,
    "Ġglimp": 6065,
    "Ġmeasure": 3593,
    "ree": 873,
    "Ġmartha": 16262,
    "Ġwand": 4341,
    "Ġcurds": 22969,
    "eronomy": 15524,
    "Ġ126": 24471,
    "Ġuncouth": 14549,
    "osp": 6854,
    "herent": 2528,
    "Ġunreliable": 3932,
    "Ġunman": 12771,
    "comprehens": 16171,
    "Ġsolutions": 1945,
    "ur": 325,
    "Ġdishonor": 25601,
    "Ġ36": 14767,
    "Ġshoots": 14567,
    "engaged": 7452,
    "Ġdiscovery": 5412,
    "Ġtypically": 1535,
    "Ġmajesty": 5201,
    "Ġunimag": 12772,
    "Ġliving": 3062,
    "linging": 16077,
    "Ġrespective": 16343,
    "Ġbeaches": 18084,
    "Ġwheeled": 14138,
    "Ġcherub": 23284,
    "Ġmeets": 7396,
    "Ġliberated": 19665,
    "Ġhogshe": 20490,
    "smote": 23907,
    "Ġjenny": 20161,
    "Ġphiladelphia": 26604,
    "Ġspectrum": 4474,
    "Ġyards": 5371,
    "Ġobe": 5800,
    "icts": 22404,
    "Ġlearnable": 3999,
    "oled": 17619,
    "Ġvillanous": 24054,
    "Ġjack": 4652,
    "quis": 7869,
    "ucket": 2483,
    "vengeance": 13355,
    "Ġglacier": 11433,
    "Ġlob": 7627,
    "bes": 6641,
    "Ġfantastic": 10058,
    "Ġcemet": 20679,
    "Ġdown": 831,
    "scale": 3534,
    "Ġproceedings": 9906,
    "purse": 20023,
    "remental": 21246,
    "Ġpuzz": 5533,
    "Ġnarrative": 6215,
    "encies": 4082,
    "Ġlangu": 575,
    "lins": 2027,
    "cu": 10083,
    "Ġrecumbent": 22722,
    "Ġnose": 4401,
    "acific": 4960,
    "Ġimmemorially": 25383,
    "Ġincreasingly": 9370,
    "Ġunmannerly": 26517,
    "anded": 5922,
    "Ġsharp": 2414,
    "Ġbad": 3991,
    "Ġlabours": 8582,
    "Ġpatches": 4238,
    ".}": 20744,
    "Ġdiscomposure": 20377,
    "Ġconstitutes": 13551,
    "utted": 15659,
    "olstadt": 7788,
    "Ġreposing": 23359,
    "bacc": 7794,
    "Ġstript": 23689,
    "z": 94,
    "Ġoverhead": 11768,
    "aging": 2237,
    "ular": 714,
    "Ġundertaking": 8573,
    "Ġerrors": 2595,
    "Ġenterprise": 8641,
    "tottenham": 25418,
    "Ġlistening": 6318,
    "flo": 6114,
    "execut": 13654,
    "Ġbro": 1429,
    "Ġspeaker": 19148,
    "must": 3577,
    "Ġspilling": 22134,
    "Ġappearing": 9840,
    "Ġentic": 16144,
    "minds": 24232,
    "Ġmasking": 2419,
    "Ġassaulted": 25320,
    "Ġirregularity": 25324,
    "bodily": 17314,
    "Ġbawling": 25945,
    "Ġdrew": 3536,
    "Ġunit": 1847,
    "Ġcaved": 21351,
    "Ġai": 3129,
    "Ġvernal": 23886,
    "lesome": 12962,
    "Ġmischief": 8541,
    "Ġanyhow": 14254,
    "ildad": 3531,
    "Ġleast": 2065,
    "Ġjoyously": 19345,
    "conce": 8510,
    "Ġplants": 22598,
    "Ġearthquake": 14628,
    "quake": 11679,
    "ates": 519,
    "client": 18931,
    "Ġmundane": 26429,
    "Ġconveying": 19713,
    "Ġbra": 3256,
    "Ġtwitch": 22673,
    "obedience": 17409,
    "Ġweal": 21917,
    "app": 1040,
    "gy": 2097,
    "Ġperformance": 1307,
    "ĠĠĠĠĠĠĠĠĠĠĠĠĠĠĠĠĠĠĠĠĠĠĠĠĠĠĠĠĠĠĠĠĠĠĠĠĠĠĠĠĠĠĠĠĠĠ": 9952,
    "Ġunconnected": 18242,
    "conception": 22471,
    "Ġdecide": 9285,
    "Ġbony": 12584,
    "carte": 25400,
    "proceeding": 20140,
    "wore": 21123,
    "Ġsl": 1495,
    "Ġunsatisfied": 22041,
    "Ġflows": 13007,
    "iv": 433,
    "Ġsave": 4054,
    "Ġcruis": 14624,
    "Ġcrabs": 19173,
    "Ġlanded": 7469,
    "Ġcontinent": 14887,
    "Ġascertain": 9705,
    "objections": 19915,
    "outon": 12800,
    "Ġencodings": 4775,
    "Ġprop": 1678,
    "althily": 19357,
    "Ġunusual": 6553,
    "Ġshar": 9249,
    "Ġoverladen": 22349,
    "Ġelements": 2668,
    "augmented": 26286,
    "Ġterror": 5123,
    "enged": 23144,
    "ps": 4573,
    "unable": 14058,
    "Ġstubbs": 23292,
    "Ġexchange": 15752,
    "xes": 21139,
    "Ġstripping": 23691,
    "Ġvirgin": 7328,
    "Ġmilitary": 11258,
    "honour": 13466,
    "gods": 13365,
    "trucks": 25419,
    "unwittingly": 25801,
    "begins": 18522,
    "Ġvineyarder": 25606,
    "Ġplayed": 9415,
    "tained": 4404,
    "Ġvit": 10245,
    "Ġexpressed": 4466,
    "fierce": 25255,
    "cription": 20817,
    "Ġhow": 598,
    "½": 126,
    "Ġhanged": 17924,
    "Ġu": 324,
    "Ġrapidly": 3051,
    "ishes": 6523,
    "Ġfortunate": 6214,
    "Ġministers": 22830,
    "innocence": 15182,
    "Ġdeposit": 17268,
    "derment": 22164,
    "Ġmutilated": 23956,
    "ladyship": 14828,
    "Ġneighbouring": 12116,
    "Ġlikened": 16499,
    "Ġtelegram": 15222,
    "Ġcracking": 14572,
    "Ġchurned": 18385,
    "Ġimpelled": 11780,
    "Ġextremities": 19195,
    "Ġsupremacy": 20259,
    "Ġclearing": 8239,
    "alleled": 14428,
    "c": 71,
    "Ġ199": 3010,
    "Ġtimor": 24224,
    "ators": 7829,
    "uzza": 11270,
    "etite": 21576,
    "culous": 11141,
    "Ġum": 10211,
    "Ġ69": 19660,
    "Ġwedding": 4858,
    "Ġtumult": 7114,
    "Ġindependent": 9015,
    "Ġmak": 10778,
    "Ġmonica": 22980,
    "Ġpouring": 12621,
    "Ġtransform": 749,
    "Ġmarlings": 23033,
    "Ġamendment": 26024,
    "wards": 1277,
    "Ġlullaby": 20586,
    "Ġlect": 9222,
    "Ġcousins": 9914,
    "orts": 2555,
    "ort": 520,
    "Ġregret": 5561,
    "Ġsublimity": 26345,
    "heedful": 20572,
    "nels": 12493,
    "Ġtrunk": 7205,
    "Ġcorp": 5574,
    "Ġsolemnly": 8023,
    "Ġcanvas": 7783,
    "Ġlurid": 19680,
    "Ġunforgiving": 25995,
    "Ġhemis": 21681,
    "ckled": 9256,
    "volutional": 1934,
    "comp": 3819,
    "wart": 17705,
    "Ġdisastrous": 16059,
    "uring": 819,
    "Ġbill": 4043,
    "Ġhurst": 5582,
    "Ġoccasioned": 13225,
    "Ġexercising": 19906,
    "Ġpray": 3903,
    "anywhere": 14682,
    "atical": 10771,
    "Ġdistance": 3484,
    "Ġsleepless": 14581,
    "knowledge": 7478,
    "Ġexternal": 8364,
    "deformity": 22143,
    "Ġcripple": 11440,
    "mal": 6794,
    "reference": 13839,
    "Ġhob": 12626,
    "Ġclad": 12839,
    "Ġfifty": 4622,
    "Ġtarpaul": 17730,
    "ornamented": 26595,
    "shud": 18486,
    "fav": 6646,
    "Ġabomin": 8188,
    "Ġmoment": 991,
    "rians": 21922,
    "langu": 4807,
    "Ġtheme": 16017,
    "Ġprofundities": 20452,
    "Ġimpregnable": 26023,
    "boo": 16350,
    "Ġjoists": 19232,
    "Ġsecondly": 14519,
    "Ġselfish": 7272,
    ",--âĢľ": 19196,
    "inte": 5144,
    "Ġassociations": 14962,
    "Ġbeaks": 21752,
    "confl": 22468,
    "wishes": 13806,
    "Ġexceptions": 13228,
    "Ġillustrate": 25065,
    "agery": 21904,
    "belt": 24035,
    "Ġgravity": 9247,
    "espe": 3498,
    "Ġga": 4444,
    "formity": 10278,
    "Ġunusually": 15845,
    "uted": 7592,
    "spade": 10339,
    "Ġplane": 11821,
    "Ġdeem": 18133,
    "pattern": 4735,
    "ć": 200,
    "lantic": 6363,
    "Ġiv": 4047,
    "Ġengine": 1919,
    "Ġplenty": 6708,
    "ap": 546,
    "Ġmassive": 9931,
    "Ġwhale": 627,
    "Ġpilgrimage": 17307,
    "distinguish": 19571,
    "Ġthames": 13937,
    "Ġsafe": 5103,
    "Ġsolitary": 5854,
    "Ġwrung": 14469,
    "Ġcredulous": 17144,
    "combination": 25486,
    "Ġvoid": 14085,
    "twenty": 6607,
    "Ġhappy": 2466,
    "Ġrecovering": 11858,
    "snapping": 24849,
    "operation": 13500,
    "special": 14704,
    "stead": 10846,
    "silent": 9973,
    "Ġsober": 10910,
    "gradu": 18616,
    "ode": 1452,
    "rative": 17652,
    "Ġjane": 1757,
    "Ġices": 21153,
    "armon": 23054,
    "Ġarrangements": 16515,
    "shortly": 12256,
    "Ġenchanting": 17039,
    "dispositions": 25011,
    "ward": 705,
    "appeared": 4282,
    "69": 17474,
    "Ġpelt": 15608,
    "Ġassum": 4067,
    "Ġsuddenness": 23380,
    "Ġeastward": 13389,
    "wife": 8100,
    "Ġemerg": 13423,
    "Ġscorching": 20066,
    "Ġtake": 1580,
    "Ġexterm": 21826,
    "Ġdates": 6693,
    "Ġshrieking": 24758,
    "Ġheading": 8935,
    "Ġappeals": 16315,
    "Ġsmo": 2702,
    "screw": 9346,
    "Ġmoul": 15542,
    "Ġpicturesque": 14893,
    "Ġfervently": 25877,
    "Ġwearied": 15792,
    "ĠĠĠĠĠĠĠĠĠĠĠĠĠĠĠĠĠĠĠĠĠĠĠĠĠĠĠĠĠĠĠĠĠĠĠĠĠĠĠĠĠĠĠĠĠĠĠĠĠ": 20036,
    "Ġrecre": 22719,
    "Ġtransport": 11278,
    "Ġestimation": 11218,
    "ised": 1083,
    "Ġequival": 4784,
    "Ġdarkly": 19114,
    "Ġpound": 12613,
    "Ġkith": 22189,
    "Ġissue": 2307,
    "rope": 3187,
    "Ġgallant": 8654,
    "Ġdism": 9766,
    "shel": 11928,
    "ante": 11719,
    "ear": 8730,
    "Ġplumage": 17297,
    "Ġswerve": 14436,
    "Ġyoked": 15733,
    "Ġreap": 18026,
    "Ġfood": 5080,
    "Ġjoes": 19230,
    "Ġdownst": 3558,
    "Ġzone": 14361,
    "Ġmanners": 3793,
    "Ġcomputation": 965,
    "anning": 10164,
    "Ġperish": 8874,
    "Ġpron": 6451,
    "Ġjug": 12832,
    "Ġlapl": 19776,
    "Ġleap": 5824,
    "Ġcart": 11582,
    "Ġabsurd": 7202,
    "Ġasc": 4765,
    "Ġcountenance": 3973,
    "ginger": 13162,
    "consp": 18504,
    "Ġconstables": 19072,
    "reproach": 15185,
    "Ġmortified": 14694,
    "Ġadmon": 15867,
    "Ġconversing": 14633,
    "sullenly": 26149,
    "Ġgloomily": 14800,
    "appalled": 18760,
    "necessary": 5881,
    "cheon": 23801,
    "reputable": 15517,
    "Ġlarger": 1400,
    "Ġclipping": 2439,
    "Ġdoorway": 14497,
    "Ġdiscussing": 5202,
    "Ġmapple": 11150,
    "Ġarter": 22174,
    "Ġoctavo": 15162,
    "Ġinnocent": 4921,
    "Ġnecessitates": 23926,
    "isome": 17848,
    "Ġexpeditions": 24954,
    "Ġforbidden": 17078,
    "Ġabrupt": 9735,
    "critical": 19502,
    "ira": 3960,
    "Ġslightly": 7293,
    "Ġgrampus": 21990,
    "Ġdated": 10938,
    "Ġgir": 2253,
    "Ġincumbent": 16061,
    "ousness": 10274,
    "Ġkitty": 3913,
    "Ġmonoman": 7938,
    "ase": 1158,
    "Ġsecondary": 23334,
    "Ġdearest": 5457,
    "Ġnursed": 16885,
    "Ġsinews": 20286,
    "Ġfamiliarly": 11303,
    "cleanliness": 25871,
    "Ġpatter": 826,
    "centred": 25017,
    "tru": 10729,
    "mes": 1198,
    "Ġbustle": 17227,
    "Ġ5": 4935,
    "Ġremoval": 12115,
    "Ġdecision": 2677,
    "Ġgl": 1255,
    "Ġplata": 25117,
    "cial": 2649,
    "Ġemployments": 12100,
    "suffered": 24335,
    "Ġobstacle": 16955,
    "Ġvital": 9242,
    "Ġroots": 11185,
    "Ġexpressly": 16454,
    "Ġbarrel": 23789,
    "Ġglaring": 11905,
    "Ġethere": 23948,
    "Ġjokes": 18408,
    "Ġuses": 1211,
    "punct": 20191,
    "Ġlodge": 5779,
    "Ġceti": 24773,
    "Ġgodfre": 14529,
    "Ġblacks": 23386,
    "Ġwarriors": 19722,
    "Ġcadiz": 17324,
    "Ġprofane": 13151,
    "orm": 425,
    "Ġsubaltern": 22788,
    "Ġtakings": 20571,
    "ignantly": 23263,
    "ols": 2412,
    "Ġstarry": 16923,
    "!âĢĶ": 2454,
    "Ġere": 3686,
    "Ġbaptized": 25774,
    "Ġceler": 15549,
    "Ġgeneralization": 985,
    "zetts": 17714,
    "Ġafrican": 20136,
    "Ġsu": 430,
    "Ġvery": 635,
    "Ġsixteen": 8282,
    "bowsprit": 16853,
    "consideration": 14954,
    "pires": 13774,
    "Ġcivility": 4788,
    "dis": 2248,
    "Ġlac": 17964,
    "Ġsunshine": 14494,
    "gled": 10699,
    "Ġanimal": 2498,
    "objects": 13469,
    "ĠĊ": 12520,
    "L": 48,
    "Ġbeauty": 3773,
    "Ġshould": 865,
    "thousands": 16872,
    "Ġmeryton": 4436,
    "Ġpattering": 18650,
    "Ġspectacle": 10496,
    "Ġunexpl": 22036,
    "Ġadmirals": 20383,
    "Ġfasting": 16355,
    "nyder": 16686,
    "Ġundu": 15836,
    "Ġtimber": 13348,
    "elze": 21570,
    "ellow": 3880,
    "Ġunwarrantable": 26353,
    "etition": 7382,
    "ai": 2525,
    "Ġhangs": 11605,
    "Ġought": 3421,
    "hill": 15361,
    "Ġtransl": 2830,
    "owing": 7601,
    "illustration": 2279,
    "vere": 4883,
    "Ġassault": 9836,
    ").": 1273,
    "Ġwitness": 4620,
    "steep": 19417,
    "Ġenjoys": 19448,
    "Ġtren": 17721,
    "whip": 22234,
    "kitty": 10105,
    "Ġnothing": 1358,
    "Ġbeam": 2881,
    "¨": 106,
    "Ġaffectation": 14440,
    "Ġentrapped": 26262,
    "ying": 1365,
    "glim": 19363,
    "gates": 20871,
    "Ġnovelist": 24777,
    "ippi": 20243,
    "huzza": 20912,
    "Ġwreat": 15530,
    "Ġbern": 17858,
    "´": 117,
    "Ġconsol": 3818,
    "Ġconsult": 6056,
    "Ġprecip": 7074,
    "Ġannouncing": 16754,
    "Ġknows": 4162,
    "urity": 8142,
    "Ġtongue": 6347,
    "Ġenemies": 9038,
    "Ġpeddling": 24799,
    "Ġconsoled": 18112,
    "Ġgloss": 11956,
    "Ġindicates": 3196,
    "uracy": 1092,
    "Ġfunctional": 3047,
    "Ġsense": 3252,
    "Ġcared": 8782,
    "cra": 6354,
    "un": 373,
    "erick": 13847,
    "Ġcub": 8413,
    "Ġsuggestion": 19706,
    "Ġdiscriminative": 4327,
    "Ġsteep": 2892,
    "itud": 2932,
    "Ġsumat": 14129,
    "air": 1004,
    "sho": 6425,
    "hor": 2570,
    "Ġpalpable": 15205,
    "Ġdeser": 3891,
    "Ġfoundering": 21417,
    "Ġgust": 21594,
    "okingly": 22375,
    "ituted": 13872,
    "art": 590,
    "Ġeleventh": 23367,
    "Ġferoc": 14896,
    "Ġfolding": 19726,
    "keeping": 8634,
    "Ġnodded": 11968,
    "longbourn": 9894,
    "Ġsauc": 15887,
    "enses": 10994,
    "Ġbroom": 18906,
    "contrasted": 17305,
    "contents": 12056,
    "Ġchambermaid": 24304,
    "unaffected": 21880,
    "Ġpit": 3422,
    "Ġtok": 1244,
    "sacred": 17028,
    "Ġhans": 12623,
    "iveness": 2468,
    "Ġconvincing": 19307,
    "Ġlandowner": 23379,
    "theirs": 23601,
    "falgar": 26130,
    "Ġunlike": 7004,
    "Ġpin": 7161,
    "Ġvul": 10247,
    "Ġcompetent": 11814,
    "4": 24,
    "Ġhip": 17920,
    "Ġweld": 8111,
    "Ġscho": 4434,
    "Ġcyn": 13885,
    "Ġinns": 17929,
    "Ġsneezes": 24698,
    "Ġawed": 23584,
    "Ġeffective": 1249,
    "ladies": 9528,
    "Ġravine": 18637,
    "accessory": 25499,
    "Ġfr": 1694,
    "hoist": 23711,
    "promote": 24727,
    "Ġimage": 3404,
    "endured": 22222,
    "Ġinquis": 19303,
    "Ġfirmament": 19469,
    "Ġirreducible": 5519,
    "cannibal": 15223,
    "description": 11093,
    "cook": 8269,
    "Ġwars": 17785,
    "dropping": 14981,
    "Ġeffected": 14353,
    "tete": 10732,
    "Ġattacking": 24465,
    "Ġvengeful": 14889,
    "remembrance": 25702,
    "Ġathe": 17741,
    "Ġmasonry": 13598,
    "Ġangular": 19206,
    "Ġsphynx": 20711,
    "dl": 20822,
    "ĠĠĠĠĠĠĠĠĠĠĠĠĠĠĠĠĠĠĠĠĠĠĠĠĠĠĠĠĠĠĠĠĠĠĠĠĠĠ": 16525,
    "Ġawkwardness": 13486,
    "Ġrmsprop": 3356,
    "Ġpop": 5151,
    ",âĢĶ": 3172,
    "Ġhell": 5019,
    "/": 19,
    "Ġkindliness": 23291,
    "garet": 9597,
    "antarctic": 22096,
    "behold": 12874,
    "Ġsable": 15500,
    "mason": 17603,
    "Ġproclaim": 18130,
    "ela": 21566,
    "Ġmol": 12558,
    "Ġicelandic": 25886,
    "case": 5206,
    "inting": 9813,
    "Ġtyphoons": 20233,
    "\"],": 26120,
    "âĢĶâĢľ_": 13203,
    "iability": 20919,
    "ative": 747,
    "Ġexotic": 21828,
    "Ġsandwiched": 26610,
    "emper": 18185,
    "fred": 20854,
    "approached": 13484,
    "Ġanomalously": 25638,
    "hav": 20896,
    "Ġrid": 4354,
    "Ġdestined": 7974,
    "employ": 10895,
    "Ġbumpkin": 20199,
    "Ġrecording": 24434,
    "Ġlists": 11166,
    "meadow": 18679,
    "bring": 9104,
    "Ġlying": 4825,
    "camp": 15329,
    "Ġhazarded": 25654,
    "pred": 2799,
    "Ġfewer": 16224,
    "Ġfork": 15730,
    "inclined": 10639,
    "nour": 20987,
    "Ġpave": 8799,
    "Ġminutely": 14560,
    "Ġdrowsiness": 26445,
    "Ġ3": 3988,
    "aside": 10191,
    "Ġda": 5150,
    "Ġgam": 11623,
    "Ġsympt": 7012,
    "Ġamphitheat": 26252,
    "Ġsubmission": 22787,
    "Ġdesolated": 24812,
    "Ġuprising": 12799,
    "tailed": 17685,
    "Ġvan": 1089,
    "thence": 23398,
    "whims": 22236,
    "Ġdart": 4584,
    "Ġdat": 492,
    "ha": 3984,
    "Ġ&": 6513,
    "Ġaffirm": 11885,
    "achine": 604,
    "Ġsports": 18310,
    "Ġsymphony": 26532,
    "Ġapologies": 25196,
    "pierced": 26141,
    "comfortable": 7320,
    "generative": 4330,
    "Ġcate": 4112,
    "Ġbade": 9171,
    "Ġshavings": 14109,
    "Ġappropriate": 2247,
    "ys": 3962,
    "Ġcott": 3709,
    "concerns": 24067,
    "Ġpretensions": 16557,
    "Ġlowerings": 23645,
    "hatchway": 25904,
    "ay": 355,
    "Ġadjusts": 8980,
    "Ġcabal": 23640,
    "Ġinquest": 16546,
    "Ġcarry": 4779,
    "Ġsurpasses": 25268,
    "Ġsoil": 9254,
    "Ġmethod": 1471,
    "hers": 7635,
    "ister": 1294,
    "Ġsnarl": 25715,
    "isting": 5551,
    "allah": 5838,
    "solitary": 14504,
    "Ġmann": 18416,
    "zening": 21147,
    "Ġcheers": 16365,
    "Ġwail": 21285,
    "incl": 8109,
    "leather": 13889,
    "thed": 8826,
    "Ġgrimly": 17052,
    "ache": 8518,
    "Ġmarried": 3409,
    "â": 163,
    "Ġsoften": 23120,
    "beg": 22483,
    "Ġevermore": 18811,
    "ascending": 24707,
    "oker": 10963,
    "roqu": 21531,
    "Ġmeddle": 19490,
    "Ġscolded": 25472,
    "Ġastonishing": 10501,
    "Ġindisp": 18834,
    "miserable": 8656,
    "Ġrambles": 17184,
    "odious": 21809,
    "Ġprojects": 9510,
    "Ġanyways": 22517,
    "Ġdomin": 10468,
    "Ġoffered": 5816,
    "tube": 20409,
    "Ă": 195,
    "jewell": 25523,
    "Ġmerchants": 23730,
    "post": 6061,
    "Ġken": 22188,
    "nnight": 20992,
    "Ę": 217,
    "mitting": 17602,
    "Ġcultivation": 17145,
    "bermaid": 20789,
    "ery": 1270,
    "Ġsusp": 2664,
    "Ġmes": 17796,
    "Ġorbs": 22089,
    "posture": 16927,
    "Ġcanada": 22161,
    "Ġguess": 4903,
    "Ġanswered": 2853,
    "pret": 7212,
    "Ġ1671": 25005,
    "ĠĠĠĠĠĠĠĠĠĠĠĠĠĠĠĠĠĠĠĠĠĠĠĠĠĠĠĠĠĠĠĠĠ": 12041,
    "Ġshaggy": 13569,
    "Ġconfiding": 19037,
    "avast": 8896,
    "Ġlarboard": 11009,
    "pious": 17633,
    "Ġvirtues": 9935,
    "Ġloud": 4700,
    "6": 26,
    "Ġthick": 3785,
    "guard": 12126,
    "thouse": 21979,
    "Ġdine": 7366,
    "Ġgull": 15668,
    "cures": 20804,
    "Ġdisgraceful": 15019,
    "queness": 18147,
    "glance": 16587,
    "solute": 16598,
    "arctic": 12607,
    "thole": 21983,
    "Ġpolice": 4674,
    "Ġbarbary": 24216,
    "Ġheightened": 8648,
    "Ġrelig": 8550,
    "Ġmerit": 9426,
    "tis": 4108,
    "Ġmallet": 17810,
    "than": 4090,
    "brimmed": 14588,
    "enances": 10153,
    "Ġmorose": 18848,
    "Ġpul": 2041,
    "Ġweighted": 2091,
    "Ġcoopers": 20520,
    "Ġpaths": 2568,
    "pled": 7891,
    "Ġperplexed": 23657,
    "Ġthought": 1096,
    "beings": 12873,
    "Ġhonour": 3926,
    "Ġsuperflu": 14554,
    "Ġdiscourse": 9797,
    "Ġcad": 12565,
    "Ġincompatible": 25680,
    "Ġdir": 21419,
    "Ġupper": 5090,
    "Ġfed": 5530,
    "Ġdelicate": 6480,
    "penet": 11070,
    "Ġplaying": 6909,
    "Ġstilly": 25973,
    "Ġrun": 2352,
    "Ġmidnight": 5265,
    "Ġimplement": 3086,
    "momentum": 4991,
    "Ġrelatives": 12979,
    "Ġmillions": 11354,
    "Ġliterature": 17148,
    "footsteps": 25199,
    "commendation": 26348,
    "Ġstim": 18063,
    "Ġpulling": 5862,
    "Ġdiffer": 18677,
    "tural": 21065,
    "Ġregimentals": 19857,
    "<MASK>": 4,
    "Ġwearily": 18177,
    "ibank": 6880,
    "Ġobscurely": 20187,
    "Ġmanxman": 9565,
    "Ġmotives": 7486,
    "ldog": 21914,
    "Ġwoollen": 12101,
    "ernally": 22613,
    "Ġarrival": 4730,
    "Ġsmothered": 20719,
    "gammon": 20242,
    "ague": 3910,
    "Ġexamples": 2603,
    "sign": 8387,
    "greatest": 10493,
    "Ġdispelling": 23878,
    "Ġharp": 17923,
    "animals": 24738,
    "Ġbravery": 23834,
    "Ġalpine": 18105,
    "Ġmutineer": 19416,
    "refuge": 24734,
    "Ġdivinest": 25722,
    "grey": 14911,
    "Ġserpent": 6737,
    "obviously": 25242,
    "smoking": 23908,
    "hall": 8084,
    "Ġboldly": 9500,
    "/`)": 13659,
    "Ġstand": 1736,
    "smooth": 20247,
    "Ġoutermost": 22316,
    "Ġexeget": 24086,
    "Ġyielding": 12184,
    "ipher": 18421,
    "Ġislets": 21798,
    "Ġimmens": 9938,
    "bon": 13683,
    "Ġpuffed": 14976,
    "expected": 5780,
    "Ġflashed": 11912,
    "americans": 25042,
    "Ġancient": 5443,
    "Ġunw": 8849,
    "Ġexpanding": 25238,
    "occurrences": 26331,
    "Ġforces": 12699,
    "Ġsuperstition": 15054,
    "Ġwaif": 9374,
    "Ġconsternation": 9858,
    "ye": 1404,
    "Ġtiller": 8965,
    "rougham": 15992,
    "professor": 17249,
    "Ġcustom": 5078,
    "vast": 10736,
    "Ġclink": 22352,
    "Ġquarter": 3979,
    "Ġintimately": 24804,
    "Ġforfeit": 21772,
    "Ġcircumspect": 15083,
    "greater": 13249,
    "Ġvivid": 8057,
    "abular": 4762,
    "owder": 8449,
    "Ġingenious": 12346,
    "Ġsociable": 19402,
    "x": 92,
    "Ġdestination": 19149,
    "Ġdraw": 3670,
    "Ġmalady": 24392,
    "Ġquietude": 19358,
    "rent": 1171,
    "exagger": 22425,
    "Ġconfidential": 9087,
    "icable": 6388,
    "Ġloops": 8852,
    "Ġmarvell": 7248,
    "billows": 20235,
    "_.âĢĶ": 23471,
    "Ġchapel": 9522,
    "Ġoccupy": 14731,
    "Ġexceeded": 14432,
    "Ġprovoking": 16743,
    "Ġnap": 8808,
    "elopement": 23193,
    "Ġpurse": 12009,
    "jury": 15372,
    "distinguished": 10526,
    "Ġbias": 1192,
    "arson": 22744,
    "Ġinexperience": 26099,
    "arded": 5029,
    "thanking": 24330,
    "total": 17250,
    "Ġbulkington": 14677,
    "Ġaz": 9629,
    "dough": 15334,
    "barr": 15319,
    "Ġcategor": 4142,
    "ifix": 21900,
    "trap": 24313,
    "Ġappointment": 10646,
    "volous": 18599,
    "ortunities": 15939,
    "Ġmending": 17804,
    "Ġgenuine": 14884,
    "Ġscared": 14189,
    "Ġgovernments": 20266,
    "Ġattached": 5392,
    "Ġsocial": 7007,
    "Ġsounded": 8590,
    "Ġengravings": 15064,
    "embow": 21928,
    "street": 6495,
    "Ġaxis": 12305,
    "circumspect": 26086,
    "ppo": 18175,
    "Ġdelights": 14596,
    "ily": 1033,
    "dependence": 17167,
    "Ġtrophy": 20005,
    "rusted": 16506,
    "Ġcleanse": 24527,
    "impregn": 21711,
    ",âĢĿ": 580,
    "uctive": 17696,
    "dil": 11478,
    "Ġbowl": 11204,
    "á": 162,
    "Ġordered": 5832,
    "Ġpracticable": 19056,
    "Ġheavens": 5050,
    "Ġlima": 10442,
    "Ġsomewhere": 5384,
    "Ġdisguise": 10045,
    "words": 7982,
    "Ġo": 275,
    "Ġcontradicted": 20210,
    "otics": 10223,
    "ars": 904,
    "occupied": 12302,
    "Ġslack": 8955,
    "Ġlocker": 16911,
    "atig": 13844,
    "Ġtransaction": 22460,
    "Ġtask": 1310,
    "Ġslime": 23158,
    "stun": 18018,
    "Ġantelope": 24180,
    "papers": 12499,
    "Ġstudded": 18973,
    "Ġcoral": 11920,
    "Ġbeautifully": 13265,
    "roofed": 26183,
    "Ġeats": 15675,
    "Ġbasement": 24702,
    "Ġanxious": 4517,
    "ü": 189,
    "Ġhearses": 20058,
    "Ġcolonial": 22857,
    "Ġretreated": 13432,
    "encing": 21281,
    "Ġmiller": 19882,
    "concerned": 24638,
    "ascal": 10192,
    "Ġrepair": 11977,
    "Ġwatchful": 16526,
    "Ġtoler": 7588,
    "Ġreputation": 11639,
    "echo": 15347,
    "friend": 3866,
    "Ġmatters": 4974,
    "Ġtem": 805,
    "Ġhun": 1494,
    "Ġbennett": 16324,
    "ingle": 1038,
    "Ġsingle": 1691,
    "Ġtreble": 16503,
    "Ġslily": 23161,
    "Ġmaking": 1779,
    "Ġ1894": 5196,
    "Ġwashed": 15763,
    "canonical": 22960,
    "aire": 10680,
    "Ġdiscol": 12950,
    "Ġdisapprobation": 16057,
    "Ġmorbid": 16235,
    "Ġsummons": 13230,
    "Ġchr": 3689,
    "Ġsta": 18062,
    "Ġsuccour": 20433,
    "Ġoblig": 3447,
    "Ġwidow": 8662,
    "Ġquant": 6424,
    "Ġornam": 15863,
    "Ġdismantled": 20215,
    "Ġshadowed": 24045,
    "off": 1887,
    "Ġunwearied": 20601,
    "Ġ[_": 15461,
    "Ġears": 4490,
    "chose": 18040,
    "Ġanom": 12608,
    "Ġquitting": 7645,
    "resides": 23667,
    "Ġid": 1909,
    "they": 1881,
    "inces": 13827,
    "Ġsheepfold": 25466,
    "Ġcream": 22723,
    "regular": 3041,
    "Ġtalking": 3861,
    "Ġstable": 2700,
    "erson": 7002,
    "Ġnetworks": 595,
    "morn": 20975,
    "Ġelevates": 24503,
    "evil": 11485,
    "Ġcentre": 5122,
    "Ġproposed": 7460,
    "Ġterribly": 10425,
    "Ġjun": 8505,
    "injustice": 17737,
    "Ġpon": 10175,
    "Ġinheriting": 25354,
    "grandfather": 25009,
    "crat": 24098,
    "Ġcleaning": 23177,
    "liber": 18813,
    "analy": 17838,
    "Ġarmchair": 8270,
    "Ġcavity": 20486,
    "entimes": 12653,
    "Ġsoup": 7067,
    "dered": 2473,
    "Ġinforming": 18742,
    "Ġshudderings": 25200,
    "obey": 11509,
    "Ġsamples": 2962,
    "Ġperception": 9749,
    "Ġdeclaring": 19418,
    "lested": 14882,
    "Ġcollar": 11877,
    "enet": 10152,
    "comb": 11036,
    "geor": 15977,
    "Ġwilful": 10534,
    "Ġsubstant": 14808,
    "Ġsord": 21218,
    "Ġcass": 13878,
    "Ġblank": 5950,
    "chased": 18041,
    "Ġthoughtfulness": 18773,
    "Ġfeast": 10277,
    "respond": 12541,
    "Ġsomnambul": 26576,
    "infliction": 25924,
    "misrepresented": 24211,
    "stochastic": 3777,
    "Ġprob": 972,
    "Ġminimum": 23037,
    "Ġpile": 8423,
    "Ġprogrammed": 11058,
    "blind": 16705,
    "osa": 22257,
    "drink": 10595,
    "Ġxx": 5492,
    "examination": 25478,
    "amusement": 15281,
    "Ġner": 1644,
    "affold": 16562,
    "rimin": 2423,
    "Ġunobserved": 18249,
    "lord": 3868,
    "°": 113,
    "Ġboasting": 19934,
    "lotte": 3333,
    "Ġfrequencies": 4789,
    "Ġske": 4815,
    "Ġdelighted": 5499,
    "Ġtorpor": 25031,
    "Ġsuccessful": 9922,
    "Ġdrawing": 3921,
    "Ġblanc": 11065,
    "Ġprocesses": 3633,
    "Ġang": 2510,
    "Ġpuppy": 12403,
    "Ġlingo": 24903,
    "Ġshape": 5639,
    "inglass": 21301,
    "somebody": 14564,
    "onsensical": 18576,
    "Ġintruding": 21988,
    "inian": 21181,
    "Ġobserv": 8586,
    "circled": 24187,
    "Ġsmilingly": 22557,
    "Ġsigma": 1540,
    "anth": 13886,
    "Ġprojected": 16871,
    "Ġinquiry": 6484,
    "Ġclos": 4548,
    "Ġfuneral": 10282,
    "sorting": 17004,
    "arking": 16124,
    "Ġconstant": 6309,
    "Ġpatagonian": 20533,
    "Ġsimpleton": 16334,
    "unbounded": 21882,
    "others": 7669,
    "Ġchili": 25561,
    "tackle": 17320,
    "cular": 15327,
    "Ġresentful": 24631,
    "eye": 6224,
    "odes": 18119,
    "report": 13398,
    "Ġany": 688,
    "speps": 14334,
    "ques": 2843,
    "razor": 21634,
    "Ġslept": 8258,
    "crier": 20819,
    "buttons": 22398,
    "Ġunfrequ": 19507,
    "ergy": 2358,
    "Ġrent": 11638,
    "kers": 7132,
    "impl": 21704,
    "Ġrepaid": 19082,
    "catch": 17506,
    "Ġdepressed": 10882,
    "Ġpolynes": 16078,
    "Ġkidnapping": 26356,
    "berwell": 22715,
    "ivorous": 22084,
    "Ġshuttle": 12124,
    "Ġparcel": 15198,
    "Ġleviathanic": 12078,
    "Ġfidelity": 15240,
    "Ġtorrent": 17092,
    "Ġunfailing": 24112,
    "Ġvector": 1970,
    "Ġcomplet": 4421,
    "ignific": 11954,
    "Ġnavies": 16900,
    "Ġguests": 12285,
    "Ġwonderful": 4562,
    "ber": 884,
    "Ġoptimizers": 18628,
    "tumultuous": 20397,
    "Ġadieu": 10050,
    "Ġconvolutions": 21804,
    "proof": 16423,
    "Ġdupl": 9953,
    "Ġsurmisings": 26593,
    "Ġdexter": 9700,
    "Ġbohemia": 10649,
    "Ġsituation": 4074,
    "Ġrecalled": 8537,
    "rusion": 11323,
    "Ġgenerator": 3384,
    "Ġchron": 19436,
    "Ġbandages": 24427,
    "Ġbreaking": 6310,
    "plac": 15819,
    "Ġvigour": 24462,
    "altogether": 12636,
    "Ġpursuits": 12074,
    "Ġgoble": 14229,
    "rap": 21625,
    "surgeon": 24214,
    "Ġignorance": 6618,
    "Ġplaymate": 23636,
    "Ġtear": 6722,
    "benefact": 24641,
    "otherwise": 7670,
    "aped": 3767,
    "thr": 12757,
    "Ġwounds": 17790,
    "alter": 10826,
    "Ġmish": 15536,
    "Ġsincerely": 7962,
    "Ġmortally": 23914,
    "Ġcamp": 9164,
    "Ġweighed": 8710,
    "Ġgraces": 18225,
    "Ġmaintaining": 1506,
    "Ġelaborate": 18644,
    "upset": 23016,
    "Ġeh": 6987,
    "Ġlustrous": 20155,
    "shown": 22441,
    "Ġtrim": 15973,
    "Ġran": 3345,
    "calling": 12447,
    "Ġdoct": 4453,
    "Ġproved": 4884,
    "grees": 20885,
    "!âĢĿ": 846,
    "illed": 2624,
    "shorn": 22444,
    "surely": 10569,
    "asily": 13945,
    "Ġinfallibly": 10040,
    "Ġperformed": 8546,
    "upp": 10130,
    "Ġverify": 12085,
    "Ġdescribe": 2764,
    "windward": 24160,
    "Ġflooded": 24959,
    "Ġdeductions": 19732,
    "Ġcomplexity": 1693,
    "Ġdesirable": 8941,
    "Ġintroduction": 8970,
    "Ġunconditional": 15843,
    "Ġproble": 1112,
    "Ġlinear": 3435,
    "Ġconstraint": 16514,
    "Ġcorn": 9349,
    "relieved": 13275,
    "glad": 9007,
    "Ġbraided": 16581,
    "compl": 6873,
    "Ġminut": 2202,
    "Ġdefe": 21832,
    "acet": 5476,
    "Ġspans": 18304,
    "metal": 24765,
    "Ġprecipice": 19939,
    "Ġinvader": 23477,
    "Ġdashes": 21432,
    "ould": 428,
    "Ġimprisonment": 22384,
    "Ġhat": 2770,
    "Ġledge": 19399,
    "Ġexerting": 21829,
    "dia": 2133,
    "draughts": 20386,
    "ool": 17618,
    "Ġsped": 22122,
    "Ġmarred": 23029,
    "icial": 12652,
    "Ġwhat": 599,
    "Ġcautiousness": 19865,
    "insist": 23060,
    "Ġdesk": 11904,
    "Ġtravels": 11925,
    "garnished": 26388,
    "Ġcandidate": 16701,
    "que": 1133,
    "Ġsubstances": 24165,
    "uture": 1061,
    "prob": 7069,
    "cheap": 23802,
    "Ġsequel": 14356,
    "collinses": 19922,
    "Ġheeded": 13402,
    "Ġmakes": 3651,
    "Ġgasfitters": 25038,
    "Ġincorrect": 2729,
    "Ġsevered": 18203,
    "aloft": 8806,
    "Ġlaunched": 14925,
    "rederick": 14079,
    "ricade": 13035,
    "clo": 5613,
    "Ġoverpowering": 15248,
    "Ġincomp": 12894,
    "Ġrage": 5110,
    "Ġcondemned": 7778,
    "Ġpantry": 20294,
    "Ġriggers": 24156,
    "Ġremainder": 9857,
    "semble": 1521,
    "attempted": 20173,
    "Ġbizarre": 17871,
    "analysis": 26173,
    "Ġmould": 6519,
    "Ġmasoned": 20250,
    "Ġwives": 12552,
    "Ġshipping": 14103,
    "licted": 20955,
    "Ġalarmed": 6923,
    "spirited": 19752,
    "Ġindia": 10370,
    "esteem": 26008,
    "izzy": 3097,
    "Ġalteration": 9545,
    "Ġnotable": 18222,
    "Ġacceler": 1612,
    "atlantic": 15523,
    "enes": 5218,
    "Ġproportionate": 17043,
    "Ġundoubted": 19513,
    "Ġleading": 7297,
    "Ġstriding": 16092,
    "foreign": 18543,
    "Ġemperor": 15157,
    "Ġmechanically": 14396,
    "Ġdetection": 2995,
    "Ġaust": 4871,
    "resentment": 15184,
    "if": 376,
    "Ġprize": 11946,
    "ened": 1387,
    "Ġtrees": 4204,
    "Ġfacial": 10605,
    "kindly": 14744,
    "willingly": 11981,
    "Ġflutter": 16248,
    "Ġwade": 17784,
    "impotence": 23759,
    "oboam": 9357,
    "Ġparticular": 2449,
    "playful": 24357,
    "Ġstaggering": 20272,
    "Ġprophes": 16347,
    "Ġcrags": 23525,
    "sander": 11526,
    "Ġfooted": 23794,
    "outer": 9668,
    "Ġhalls": 19524,
    "Ġigniting": 25070,
    "âĢĶâĢĻ": 8187,
    "Ġincoherent": 17399,
    "Ġexplanations": 15909,
    "Ġgilt": 21603,
    "Ġcomposing": 16066,
    "bedded": 13226,
    "naught": 20993,
    "Ġrevenue": 26194,
    "Ġuntutored": 19165,
    "Ġirrespective": 23373,
    "Ġitalian": 12408,
    "Ġdesperate": 7776,
    "Ġberg": 24536,
    "Ġyours": 4127,
    "Ġabruptness": 25299,
    "articulate": 17397,
    "Ġfi": 937,
    "Ġbuying": 23993,
    "quest": 4537,
    "Ġhare": 5157,
    "Ġconqueror": 25796,
    "Ġamends": 14245,
    "Ġbreat": 3462,
    "Ġoffic": 3189,
    "!âĢĶâĢĻ": 23564,
    "orum": 12587,
    "jack": 7344,
    "killing": 20941,
    "Ġmorphology": 3011,
    "Ġconsolation": 6208,
    "Ġastr": 15494,
    "Ġ235": 25713,
    "supplement": 14796,
    "Ġmuzzle": 21319,
    "Ġannum": 24203,
    "Ġperform": 1036,
    "Ġbeget": 9225,
    "Ġequivalent": 4802,
    "Ġlack": 17963,
    "Ġinvoluntarily": 8548,
    "Ġgrievances": 20647,
    "ning": 949,
    "ung": 2745,
    "ls": 1290,
    "okened": 15983,
    "ske": 13781,
    "Ġequinoctial": 20531,
    "Ġask": 1491,
    "Ġexpon": 968,
    "Ġvanished": 6874,
    "han": 12470,
    "Ġ12": 5483,
    "hur": 6648,
    "Ġintermix": 22574,
    "Ġstooping": 13059,
    "Ġpupella": 20420,
    "ight": 403,
    "Ġdoings": 18376,
    "âĢĶ": 518,
    "alarms": 21502,
    "and": 372,
    "Ġunchanged": 22028,
    "Ġdolphins": 20394,
    "ather": 740,
    "Ġwinged": 16995,
    "Ė": 215,
    "Ġchocks": 13344,
    "Ġpled": 17907,
    "wes": 17703,
    "Ð": 145,
    "Ġwip": 13852,
    "Ġmanipulation": 10658,
    "jump": 10103,
    "Ġunrestingly": 20359,
    "Ġparlor": 13539,
    "sigma": 3003,
    "Ġflower": 16230,
    "Ġthin": 4347,
    "Ġsternly": 16715,
    "Ġvicissitudes": 12417,
    "Ġsuggests": 12198,
    "manner": 6170,
    "difference": 13707,
    "res": 2758,
    "Ġletters": 3795,
    "lesson": 22772,
    "Ġthing": 1638,
    "Ġsatur": 1929,
    "Ġobeyed": 12214,
    "Ġenabling": 1080,
    "tured": 13794,
    "Ġbeds": 14551,
    "Ġaccommod": 14212,
    "twinkle": 23698,
    "slightest": 25416,
    "fl": 3599,
    "Ġcountries": 13095,
    "colnett": 19329,
    "Ġbreaths": 14856,
    "happen": 19330,
    "Ġcouple": 5423,
    "instant": 8651,
    "naturedly": 24840,
    "knew": 9126,
    "aker": 3662,
    "Ġwarmed": 12022,
    "wants": 21129,
    "gabriel": 15359,
    "Ġsnuffing": 25012,
    "Ġdeclare": 6613,
    "alarm": 15625,
    "Ġcitizens": 25439,
    "Ġoath": 7833,
    "hom": 12471,
    "Ġundulated": 19515,
    "continued": 8675,
    "Ġdissuade": 26256,
    "Ġital": 10866,
    "iction": 4269,
    "Ġign": 8294,
    "Ġque": 4161,
    "Ġdrawer": 13264,
    "Ġembarked": 17134,
    "Ġsolar": 22883,
    "Ġhints": 8429,
    "scissors": 20726,
    "Ġadagrad": 2906,
    "acid": 11006,
    "inous": 8771,
    "affrail": 11205,
    "Ġsplashing": 16549,
    "oil": 7805,
    "Ġyelling": 18096,
    "iage": 17573,
    "Ġlobsters": 13516,
    "uming": 8491,
    "Ġeaster": 15673,
    "Ġshipwrecked": 25687,
    "Ġhandy": 12934,
    "Ġshelter": 17008,
    "Ġcombines": 1156,
    "lengths": 24846,
    "character": 6331,
    "ishe": 13890,
    "Ġexpression": 4515,
    "Ġnewcomer": 26040,
    "Ġtoiling": 15633,
    "rucastle": 22179,
    "decl": 8856,
    "Ġ90": 24588,
    "Ġeddystone": 25709,
    "Ġperfidious": 25666,
    "concent": 19478,
    "Ġgloom": 4203,
    "Ġpeg": 22686,
    "hs": 8377,
    "Ġsluggishly": 25891,
    "Ġinsignificance": 20456,
    "Ġent": 903,
    "Ġcommon": 1412,
    "tem": 6369,
    "Ġincarnation": 25573,
    "nevertheless": 8285,
    "Ġtremor": 24768,
    "irms": 18166,
    "Ġfull": 2176,
    "Ġdreamt": 23936,
    "Ġbut": 424,
    "Ġapplications": 4783,
    "Ġcerem": 7077,
    "Ġdozen": 8185,
    "Ġindel": 13001,
    "simp": 17665,
    "Ġxxxi": 24966,
    "thank": 4950,
    "Ġfleshy": 24614,
    "ears": 20844,
    "Ġscrupulous": 20067,
    "Ġpregnant": 26535,
    "Ġassuredly": 14821,
    "hyena": 24252,
    "Ġcoloured": 11044,
    "Ġappetite": 12382,
    "cro": 13695,
    "Ġsunday": 7270,
    "Ġantique": 19550,
    "conclude": 24066,
    "Ġnaut": 13940,
    "aternity": 21264,
    "Ġbarnacled": 25536,
    "Ġloo": 22107,
    "ĠĠĠĠĠĠĠĠĠĠĠĠĠĠĠĠĠĠĠĠĠĠĠĠĠĠĠĠ": 9974,
    "Ġblackness": 9392,
    "Ġallowance": 14388,
    "ication": 977,
    "rible": 3228,
    "Ġaffrighted": 13571,
    "Ġvoy": 2619,
    "Ġbeg": 1282,
    "ĠâĢĻ": 3042,
    "Ġhill": 5626,
    "Ġseeth": 21950,
    "supp": 4165,
    "every": 2809,
    "Ġcomponents": 8892,
    "Ġforc": 9227,
    "amore": 21840,
    "Ġgag": 21590,
    "achusetts": 20709,
    "readers": 23845,
    "Ġdu": 4583,
    "Ġapparently": 6778,
    "Ġwitnessed": 14843,
    "recollected": 25347,
    "rank": 21040,
    "Ġpreach": 14172,
    "Ġcharley": 19006,
    "belief": 13280,
    "Ġperpendicularly": 11374,
    "ridden": 24362,
    "Ġbring": 3326,
    "machine": 974,
    "Ġinclinations": 19538,
    "Ġfatigue": 8697,
    "urns": 10213,
    "Ġvary": 15806,
    "Ġhemp": 9215,
    "balls": 12303,
    "neighbourhood": 10024,
    "Ġbone": 4694,
    "Ġdepos": 11004,
    "Ġtruthful": 23865,
    "Ġnovels": 15928,
    "Ġsized": 11562,
    "Ġunimportant": 22027,
    "consequence": 9762,
    "Ġmaketh": 15186,
    "Ġawful": 6199,
    "õ": 182,
    "Ġiter": 2953,
    "Ġdelineations": 26058,
    "Ġdisagree": 22529,
    "Ġjoist": 19231,
    "Ġstaggers": 24653,
    "Ġglistened": 20171,
    "Ġpleasures": 11143,
    "Ġbene": 2033,
    "inted": 2650,
    "isl": 21373,
    "terr": 8153,
    "Ġstruggled": 9904,
    "Ġchiswick": 25560,
    "Ġgrosvenor": 17417,
    "Ġerrand": 11085,
    "Ġfrogs": 23920,
    "neighboring": 20615,
    "Ġmace": 21308,
    "ke": 429,
    "Ġpencil": 11941,
    "Ġad": 443,
    "Ġundeserving": 18268,
    "Ġdiscovered": 4411,
    "iom": 20914,
    "appre": 14370,
    "Ġundoing": 22032,
    "Ġcivilities": 14847,
    "Ġrefined": 18697,
    "oner": 6124,
    "Ġhorizon": 6632,
    "Ġdoubts": 8579,
    "patched": 17643,
    "Ġfaintness": 24570,
    "joining": 19444,
    "Ġforeign": 9871,
    "islands": 21374,
    "Ĺ": 250,
    "Ġdevil": 3613,
    "breakfast": 8687,
    "Ġfreer": 23205,
    "Ġgangway": 20157,
    "Ġcoins": 11817,
    "&": 10,
    "Þ": 159,
    "Ġdisease": 14257,
    "Ġavenue": 13620,
    "Ġwindings": 18909,
    "Ġdifferen": 936,
    "Ġcut": 2643,
    "hook": 12051,
    "discredit": 24250,
    "Ġcem": 17823,
    "Ġphotograph": 6302,
    "Ġmeetings": 16531,
    "Ġzig": 18743,
    "days": 7687,
    "âĢĻ,": 14071,
    "Ġshells": 20362,
    "Ġdeeps": 16106,
    "Ġmart": 10779,
    "thin": 14096,
    "Ġsmoked": 10322,
    "Ġliking": 23590,
    "Ġprovince": 24189,
    "Ġquaint": 18465,
    "Ġ48": 24081,
    "phur": 16149,
    "Ġsickle": 24245,
    "Ġmaw": 15538,
    "education": 20300,
    "excellent": 8043,
    "Ġexaggerated": 25650,
    "Ġa": 263,
    "haul": 14765,
    "Ġvales": 21943,
    "ab": 345,
    "Ġholes": 16407,
    "an": 278,
    "uit": 8392,
    "Ġicebergs": 23972,
    "Ġmach": 13856,
    "Ġwert": 12553,
    "Ġtigris": 25759,
    "decided": 13214,
    "Ġheadsmen": 14732,
    "anxious": 15108,
    "anelles": 26434,
    "Ġphilist": 16601,
    "Ġhandfuls": 17209,
    "Ġscant": 22277,
    "Ġsinned": 18950,
    "press": 1732,
    "onstrate": 17768,
    "stumps": 21656,
    "Ġvess": 3299,
    "voyage": 7785,
    "Ġshipwreck": 20444,
    "liking": 22921,
    "Ġreside": 22536,
    "Ġende": 21929,
    "Ġpeleg": 3739,
    "unaccountable": 15777,
    "Ġlambton": 10657,
    "customary": 25895,
    "Ġreverend": 15258,
    "Ġjacobians": 2896,
    "pleasanter": 24047,
    "Ġnecess": 3476,
    "Ġscruple": 25048,
    "Ġjustinian": 22964,
[...]
