{
  "metadata": {
    "vocab_size": 26616,
    "algorithm": "BPE",
    "created_at": "2026-06-07 06:22:39",
    "special_tokens": [
      "<PAD>",
      "<SOS>",
      "<EOS>",
      "<UNK>",
      "<MASK>"
    ]
  },
  "vocab": {
    "ickory": 22669,
    "onstr": 12544,
    "Ġsain": 17751,
    "catherine": 7127,
    "Ġchaos": 17009,
    "post": 6061,
    "Ġskill": 6872,
    "Ġamiable": 4266,
    "Ġmut": 3579,
    "Ġperpet": 7645,
    "Ġallowed": 4054,
    "aco": 12904,
    "Ġaccusations": 22380,
    "insensibility": 23069,
    "Ġ95": 19774,
    "engagement": 14457,
    "Ġunrest": 11712,
    "Ġyourselves": 9028,
    "Ġsavi": 18325,
    "minute": 11273,
    "Ġuntil": 2666,
    "Ġbraved": 23838,
    "cable": 20796,
    "contr": 12056,
    "âĢĶâĢĻâĢĿ": 20064,
    "hess": 4745,
    "Ġadvance": 5484,
    "Ġfeeds": 16433,
    "Ġimbec": 14157,
    "Ġopening": 5046,
    "Ġunreasonably": 17450,
    "Ġinvite": 14563,
    "Ġgeological": 14533,
    "special": 14704,
    "Ġapo": 9630,
    "insist": 23064,
    "herds": 22202,
    "Ġluggage": 25959,
    "Ġoppress": 13172,
    "Ġced": 10783,
    "Ġdromedary": 17438,
    "Ġregulations": 18600,
    "Ġsol": 1101,
    "Ġfoundling": 22973,
    "Ġph": 1546,
    "Ġpremeditated": 22233,
    "Ġostr": 21323,
    "Ġsums": 2902,
    "satisfy": 16892,
    "20": 20752,
    "Ġexercise": 8358,
    "Ġimmediately": 3366,
    "Ġdella": 21442,
    "Ġobservation": 6597,
    "Ġmagnitude": 1944,
    "Ġdespairing": 14773,
    "ities": 1827,
    "Ġreceptacle": 23190,
    "Ġgroom": 13966,
    "Ġwide": 4103,
    "Ġcurved": 18846,
    "Ġimply": 18444,
    "Ġstri": 2800,
    "erve": 12547,
    "Ġextra": 4051,
    "Ġpicked": 6341,
    "Ġregion": 2274,
    "Ġide": 2121,
    "situ": 9621,
    "Ġjabez": 11764,
    "rumours": 23900,
    "Ġprometheus": 15291,
    "Ġdisobey": 18560,
    "Ġcharacteristically": 23689,
    "Ġach": 2620,
    "Ġseries": 7060,
    "disappo": 8984,
    "Ġproport": 2299,
    "Ė": 215,
    "Ġjustice": 5111,
    "Ġvigilance": 12370,
    "pinn": 21025,
    "iour": 4033,
    "describe": 1512,
    "Ġcalves": 13033,
    "Ġ124": 24472,
    "mand": 3891,
    "arranging": 19319,
    "Ġunthinkingly": 26222,
    "Ġforgery": 25979,
    "Ġtatters": 21176,
    "Ġgild": 15667,
    "Ġperf": 12847,
    "Ġsuicide": 12784,
    "Ġsings": 15505,
    "ß": 160,
    "âĢĻ-": 18166,
    "Ġwa": 1752,
    "Ġspangled": 22135,
    "Ġinhuman": 13929,
    "pl": 401,
    "msprop": 2624,
    "Ġfifty": 4622,
    "scar": 9815,
    "Ġconcealed": 7496,
    "intelligence": 5882,
    "matic": 4617,
    "Ġconsecut": 18114,
    "Ġheaviest": 23325,
    "Ġmingling": 20197,
    "Ġegotistical": 26193,
    "Ġstill": 1159,
    "¸": 121,
    "hum": 3776,
    "Ġdispute": 16055,
    "del": 4071,
    "Ġcosmopol": 16456,
    "Ġimpelling": 22385,
    "Ġkicking": 16901,
    "remembered": 17350,
    "eight": 9591,
    "Ġshr": 4221,
    "Ġgraves": 11706,
    "Ġpreviously": 3916,
    "els": 1764,
    "Ġdeline": 16332,
    "Ġdisgusted": 14989,
    "Ġtheory": 5798,
    "Ġspread": 5161,
    "Ġentitled": 8538,
    "fastened": 19326,
    "ago": 14065,
    "ple": 455,
    "Ġdeck": 2136,
    "Ġselves": 21221,
    "Ġmoral": 6579,
    "Ġhot": 4254,
    "Ġforthwith": 16618,
    "ogrand": 26263,
    "search": 8464,
    "Ġenigmatical": 20596,
    "Ġdetection": 3462,
    "Ġdisinclined": 22529,
    "Ġpotent": 12063,
    "draughts": 20386,
    "figures": 20122,
    "hedge": 22499,
    "hig": 12473,
    "Ġra": 815,
    "Ġlightnings": 16352,
    "Ġwhich": 502,
    "cocks": 23563,
    "Ġhandspikes": 12936,
    "ess": 410,
    "Ġdenomin": 12066,
    "Ġdisturbing": 19946,
    "Ġhint": 5017,
    "Ġlists": 11165,
    "non": 9611,
    "Ġadventurous": 16733,
    "acceptable": 25187,
    "Ġberths": 20115,
    "Ġunseasonable": 26522,
    "Ġfoul": 7159,
    "oftener": 23965,
    "bear": 10312,
    "furthermore": 20004,
    "Ġpiling": 17911,
    "inted": 2648,
    "urance": 10856,
    "Ġbol": 6241,
    "Ġunsolved": 22032,
    "Ġdiddled": 22667,
    "yonder": 21143,
    "Ġdeg": 3282,
    "Ġlent": 21544,
    "exactly": 10634,
    "Ġsettling": 11061,
    "slave": 16895,
    "Ġgentleness": 8709,
    "Ġsubsiding": 23435,
    "Ġinterrupting": 19558,
    "Ġhonourable": 10454,
    "believed": 9931,
    "Ġsuperstitions": 17072,
    "salesman": 20670,
    "Ġbias": 1191,
    "lengths": 24850,
    "Ġlomb": 21556,
    "ven": 779,
    "Ġbite": 10796,
    "Ġ183": 13237,
    "Ġdeficient": 18825,
    "Ġ103": 24414,
    "Ġfainting": 16897,
    "scept": 21052,
    "dorff": 15236,
    "police": 10581,
    "Ġconqueror": 25799,
    "Ġheaving": 7601,
    "Ġfrosts": 19803,
    "Ġalt": 18098,
    "fat": 8078,
    "Ġpermanent": 13631,
    "pause": 12499,
    "ection": 4948,
    "Ġmyself": 1452,
    "ure": 357,
    "Ġproperly": 7944,
    "masterly": 24533,
    "plenty": 14088,
    "sunlight": 24855,
    "Ġpendulous": 25957,
    "Ġparc": 10919,
    "professor": 17249,
    "Ġbourgh": 5070,
    "locked": 7678,
    "quite": 4645,
    "Ġoriginally": 7304,
    "dling": 9111,
    "kempt": 20940,
    "Ġcasually": 25097,
    "Ġhad": 443,
    "Ġmutiny": 13258,
    "Ġprevention": 16090,
    "Ġchiselled": 25562,
    "resides": 23670,
    "Ġeffected": 14353,
    "Ġtug": 11550,
    "alone": 10181,
    "ernal": 4309,
    "Ġaudibly": 24774,
    "Ġroutine": 13508,
    "Ġobli": 9315,
    "Ġholiday": 12996,
    "Ġshoving": 23493,
    "Ġinvolves": 1043,
    "Ġmassacre": 20546,
    "Ġduly": 13350,
    "Ġtyros": 26103,
    "Ġadoption": 24952,
    "cient": 4567,
    "Ġitem": 12699,
    "industrious": 26241,
    "explanations": 25237,
    "Ġordinarily": 20648,
    "Ġtapping": 10751,
    "eties": 10836,
    "Ġtimidity": 24690,
    "itions": 4141,
    "Ġsmallest": 6430,
    "Ġbrig": 11046,
    "ivia": 22078,
    "Ġnorthward": 13321,
    "Ġproviding": 1359,
    "admirably": 24948,
    "Ġcontact": 9280,
    "Ġfetched": 24570,
    "resolution": 17767,
    "Ġsize": 1218,
    "Ġpersuade": 5872,
    "Ġhorns": 11122,
    "Ġsigning": 22706,
    "Ġstag": 6148,
    "Ġarrival": 4729,
    "Ġexpanse": 14290,
    "Ġcart": 11582,
    "Ġcured": 21345,
    "Ġsignificance": 13279,
    "delirious": 19506,
    "Ġquivered": 18468,
    "Ġscratching": 20367,
    "volous": 18582,
    "Ġsaturation": 2063,
    "avating": 18606,
    "oot": 13765,
    "Ġunctuous": 10264,
    "excuse": 13381,
    "silent": 9972,
    "Ġobserver": 11988,
    "Ġwitnesses": 9485,
    "neys": 23584,
    "Ġcoburg": 18596,
    "Ġolive": 12563,
    "Ġfritters": 23258,
    "duing": 22411,
    "Ġengagement": 5397,
    "bene": 6112,
    "restored": 18981,
    "Ġwisely": 13271,
    "din": 8373,
    "Ġleaking": 21728,
    "elect": 20845,
    "safie": 20347,
    "Ġanticipatingly": 26104,
    "conclude": 24066,
    "Ġerrand": 11084,
    "Ġexped": 7651,
    "chambers": 25457,
    "transition": 24516,
    "Ġexpeditions": 24958,
    "rift": 11519,
    "Ġvomit": 21947,
    "street": 6495,
    "Ġsaleve": 17390,
    "Ġheartily": 6890,
    "ropol": 10951,
    "rennial": 22344,
    "Ġfra": 1753,
    "Ġspeckled": 14308,
    "Ġslips": 23164,
    "attached": 11933,
    "iv": 433,
    "Ġcolleague": 17159,
    "Ġlust": 9197,
    "Ġkidnapping": 26358,
    "ę": 218,
    "Ġmountainous": 16599,
    "sch": 21049,
    "Ġsy": 490,
    "Ġcachalot": 17835,
    "malicious": 19903,
    "Ġinsignificance": 20456,
    "Ġcompan": 2173,
    "Ġdaugh": 2294,
    "Ġvalues": 2650,
    "ruff": 15894,
    "Ġbowels": 9429,
    "Ġaccusation": 22381,
    "Ġexerting": 21831,
    "embraces": 25808,
    "Ġundeviating": 15216,
    "Ġpremises": 10485,
    "Ġfacial": 10603,
    "usoid": 4765,
    "harpoone": 6107,
    "begged": 18518,
    "Ġpursu": 3241,
    "Ġuplifted": 11646,
    "ache": 8518,
    "Ġholds": 7975,
    "Ġphaeton": 17464,
    "vices": 21115,
    "Ġlanguor": 12845,
    "raise": 18012,
    "Ġhooded": 12405,
    "dle": 3249,
    "Ġaught": 8771,
    "Ġshut": 3938,
    "Ġsecretly": 13270,
    "etymology": 14700,
    "Ġadapted": 11039,
    "woof": 21138,
    "telescope": 26564,
    "Ġnearer": 5301,
    "observing": 25497,
    "Ġshalt": 18230,
    "Ġincor": 2608,
    "Ġuninterrupted": 22045,
    "cus": 3974,
    "Ġmainz": 22653,
    "Ġencl": 16165,
    "gged": 3775,
    "Ġalter": 6542,
    "Ġperiodically": 19495,
    "Ġjackal": 24242,
    "Ġsusp": 2662,
    "S": 55,
    "Ġfre": 1569,
    "Ġlikely": 3594,
    "impud": 23762,
    "painted": 17640,
    "erably": 7574,
    "Ġmainmast": 9778,
    "Ġcister": 13882,
    "Ġglossy": 15226,
    "Ġicy": 10746,
    "gird": 20878,
    "party": 8992,
    "Ġdrinking": 12167,
    "Ġbids": 24648,
    "libr": 22923,
    "Ġrevel": 9214,
    "Ġshuddering": 9051,
    "Ġsatirical": 26281,
    "Ġtrag": 13037,
    "Ġcheers": 16365,
    "loved": 14250,
    "Ġdiving": 12604,
    "epilogue": 22102,
    "Ġrem": 957,
    "Ġprotracted": 19469,
    "voc": 8393,
    "Ġtravel": 5952,
    "Ġpersevering": 20232,
    "Ġwal": 6517,
    "out": 467,
    "half": 4930,
    "heavily": 24537,
    "Ġpatience": 2736,
    "Ġobjective": 3764,
    "boilers": 26299,
    "Ġmonosyllable": 20725,
    "Ġsheltered": 19912,
    "prolong": 23396,
    "Ġfinite": 2326,
    "Ġhastening": 19337,
    "Ġprecise": 7075,
    "Ġdifferent": 1428,
    "Ġhampshire": 15241,
    "Ġtutored": 20127,
    "Ġapplies": 11961,
    "ploy": 2031,
    "lives": 12484,
    "Ġworsh": 12998,
    "heav": 5694,
    "Ġneural": 620,
    "lances": 15382,
    "gue": 12466,
    "Ġdun": 6673,
    "Ġhoist": 11976,
    "avery": 13683,
    "Ġconsented": 11294,
    "halfway": 24314,
    "pike": 11514,
    "contents": 12057,
    "Ġmelted": 19622,
    "Ġpride": 3820,
    "Ç": 136,
    "neighbours": 24885,
    "sion": 8093,
    "Ġcongratulate": 9063,
    "Ġtraitors": 23079,
    "Ġindex": 17049,
    "separation": 25229,
    "Ġimaginations": 16516,
    "urring": 21703,
    "Ġvancouver": 26567,
    "wester": 21137,
    "Ġimputation": 22171,
    "Ġmorocc": 22979,
    "departed": 24797,
    "haven": 20911,
    "hawk": 7121,
    "Ġkent": 6691,
    "Ġmanual": 14197,
    "proved": 11986,
    "Ġvial": 10246,
    "Ġperturbation": 20439,
    ".]": 15297,
    "pict": 8385,
    "Ġsoothingly": 25051,
    "ĉ": 202,
    "Ġtrail": 16281,
    "Ġbrooded": 23104,
    "Ġsembl": 19061,
    "Ġnew": 1196,
    "Ġrealism": 18986,
    "words": 7982,
    "owards": 4592,
    "Ġpearl": 20375,
    "eck": 20843,
    "Ġxxxii": 24974,
    "Ġdesmarest": 22981,
    "verdict": 21727,
    "sleeping": 13454,
    "Ġshorter": 4496,
    "Ġalarm": 4043,
    "Ġtorrent": 17092,
    "gpt": 5355,
    "Ġblessings": 24179,
    "Ġwarrior": 24499,
    "Ġwarmth": 6905,
    "Ġgot": 2282,
    "Ġchanc": 18385,
    "Ġexecute": 7506,
    "Ġconsidering": 4614,
    "Ġeleven": 9389,
    "Ġmeadow": 17151,
    "Ġantiqu": 12143,
    "Ġfeigned": 22209,
    "mortal": 10110,
    "cas": 20793,
    "Ġenticements": 26036,
    "Ġinsignific": 13180,
    "Ġled": 3519,
    ")âĢĶ": 20741,
    "tw": 2809,
    "Ġrecovering": 11861,
    "Ġpoetry": 15079,
    "Ġtwinkled": 14311,
    "Ġwonder": 2116,
    "Ġemotions": 8969,
    "iosity": 2278,
    "rious": 11687,
    "jo": 3749,
    "max": 1686,
    "Ġcomprehens": 8319,
    "mortals": 25412,
    "Ġsulphur": 24937,
    "Ġseverest": 14091,
    "Ġfattened": 25951,
    "abhorred": 17335,
    "Ġpockets": 8895,
    "Ġcontextual": 3740,
    "dation": 2612,
    "Ġdefend": 9339,
    "ĠĠĠĠĠĠĠĠĠĠĠĠĠĠĠĠĠĠĠĠĠĠĠĠĠĠĠĠĠĠĠĠĠĠ": 14613,
    "Ġstrangely": 5677,
    "Ġemper": 9859,
    "Ġshiver": 12765,
    "would": 2353,
    "inguished": 6598,
    "hammered": 19005,
    "{": 95,
    "difficulty": 12389,
    "Ġasi": 12730,
    "means": 9784,
    "heaven": 8052,
    "self": 616,
    "orton": 11754,
    "Ġcus": 21341,
    "Ġprep": 4186,
    "Ġsuccession": 12100,
    "hung": 8380,
    "Ġpermit": 9748,
    "Ġcongregated": 20097,
    "Ġautomatically": 3858,
    "Ġblankness": 24613,
    "Ġfly": 3867,
    "Ġdivinely": 25726,
    "reat": 617,
    "Ġmerits": 13194,
    "Ġfanc": 6743,
    "Ġgraphs": 25466,
    "Ġblend": 14398,
    "Ġjam": 10950,
    "james": 15371,
    "kilt": 4865,
    "Ġbandaged": 16842,
    "Ġdesisted": 22980,
    "Ġagonized": 25374,
    "biqu": 17497,
    "Ġrequired": 7224,
    "fore": 688,
    "Ġqueen": 3214,
    "idav": 18092,
    "Ġdisappo": 4503,
    "izar": 14043,
    "Ġeveryday": 22769,
    "forgotten": 12415,
    "Ġembra": 6578,
    "Ġmeasurement": 19423,
    "Ġesteem": 7532,
    "ienced": 5685,
    "Ġcanaller": 25470,
    "Ġleyden": 21730,
    "onist": 21249,
    "Ġgibe": 25961,
    "Ġfelix": 4846,
    "fering": 17542,
    "Ġgood": 1001,
    "Ġfreshness": 23988,
    "Ġcapric": 14576,
    "Ġhistory": 4003,
    "Ġtahiti": 13619,
    "Ġcompanions": 5865,
    "Ġharvard": 24576,
    "Ġdragging": 14475,
    "Ġgeography": 23373,
    "```": 25895,
    "road": 6677,
    "shroud": 20311,
    "Ġtuck": 10138,
    "Ġincites": 22551,
    "Ġhome": 2028,
    "Ġborn": 5224,
    "Ġhoofs": 14527,
    "surf": 24215,
    "Ġscattered": 6856,
    "needle": 20309,
    "Ġconventional": 25550,
    "masts": 19425,
    "Ġrecogn": 2701,
    "Ġdeem": 18136,
    "Ġtouching": 4679,
    "Ġforswe": 21773,
    "transferred": 24517,
    "Ġside": 1385,
    "Ġreceipt": 20354,
    "Ġ59": 24330,
    "Ġobsole": 22698,
    "Ġpurposed": 23554,
    "entire": 6824,
    "Ġhogarth": 25783,
    "Ġawhile": 13830,
    "mystery": 15154,
    "acid": 11004,
    "Ġfarthest": 23116,
    "Ġvisage": 18791,
    "Ġsweating": 16463,
    "destroyed": 15259,
    "Ġdegra": 2587,
    "title": 17287,
    "Ġpeaking": 22690,
    "Ġpatroness": 13510,
    "orse": 5806,
    "Ġprosper": 10226,
    "Ġbildad": 3779,
    "distinction": 19572,
    "Ġextracted": 16296,
    "Ġspaniards": 25558,
    "acon": 10679,
    "Ġvineyards": 25110,
    "ham": 1703,
    "Ġneighbouring": 12117,
    "Ġchoke": 22249,
    "Ġmaddened": 17244,
    "Ġforg": 3785,
    "Ġparlour": 12320,
    "usion": 3301,
    "remarkable": 13498,
    "deprived": 19899,
    "Ġappe": 1537,
    "Ġhams": 16612,
    "continu": 5501,
    "Ġvesture": 20062,
    "Ġdiscovered": 4409,
    "Ġwrenching": 17322,
    "programming": 10060,
    "arent": 4245,
    "Ġsegment": 12755,
    "ena": 11567,
    "argue": 21422,
    "Ġerie": 20054,
    "dashing": 20835,
    "Ġlion": 9675,
    "Ġpeleg": 3736,
    "cro": 13696,
    "Ġexpectation": 6904,
    "iences": 6957,
    "impatience": 25503,
    "Ġberm": 21381,
    "Ġmincer": 14366,
    "Ġcontemplate": 19893,
    "Ġhorr": 3193,
    "acks": 11786,
    "trad": 21075,
    "exp": 2734,
    "Ġaverse": 11080,
    "pursuit": 20339,
    "admitted": 18091,
    "Ġ44": 16679,
    "Ġske": 4814,
    "Ġcomplete": 4379,
    "Ġcornelius": 13573,
    "Ġflap": 14421,
    "bies": 15311,
    "Ġrhone": 25233,
    "Ġdisco": 3428,
    "Ġbeadle": 26486,
    "Ġhardships": 14450,
    "Ġbattering": 13901,
    "iration": 4538,
    "Ġpods": 17915,
    "interchange": 23739,
    "Ġtid": 8106,
    "Ġconjoined": 21805,
    "Ġmess": 7831,
    "Ġimpudence": 26243,
    "Ġniece": 5712,
    "threw": 21983,
    "Ġassure": 4415,
    "sings": 4248,
    "Ġscept": 15503,
    "Ġrush": 5924,
    "shaken": 16026,
    "wolf": 26411,
    "Ġcomplained": 16998,
    "Ġconsummate": 25313,
    "sofa": 26148,
    "mur": 5428,
    "Ġinfatuation": 25859,
    "disc": 4727,
    "Ġexacted": 23605,
    "Ġsli": 4746,
    "Ġacceptable": 16744,
    "Ġrefused": 6715,
    "rig": 7557,
    "Ġascend": 9958,
    "Ġrags": 18648,
    "pe": 1436,
    "Ġstraight": 3699,
    "Ġwhen": 514,
    "Ġpun": 4585,
    "rons": 21038,
    "Ġsolutions": 1948,
    "Ġpatiently": 19919,
    "Ġlun": 7855,
    "Ġtrappings": 23083,
    "Ġtut": 8768,
    "sheet": 16284,
    "knowing": 10435,
    "Ġgreenhorn": 23770,
    "ferred": 16393,
    "ck": 436,
    "Ġmorose": 18850,
    "condite": 23249,
    "unned": 21877,
    "leader": 25353,
    "±": 114,
    "perch": 18341,
    "Ġpolitical": 19225,
    "aud": 8521,
    "Ġcaved": 21351,
    "Ġfac": 6381,
    "Ġuncivilized": 25501,
    "level": 2652,
    "ree": 873,
    "Ġknock": 9971,
    "oppressed": 24827,
    "iceland": 21563,
    "disgust": 23500,
    "wards": 1277,
    "thoughtfully": 24044,
    "Ġattempts": 10488,
    "Ġcounterpart": 24724,
    "haust": 5777,
    "aint": 2542,
    "Ġlands": 6594,
    "Ġfork": 15730,
    "Ġpurchases": 24759,
    "Ġhuzza": 12631,
    "Ġcringing": 25943,
    "Ġcommission": 6712,
    "Ġmice": 13859,
    "Ġcattle": 12570,
    "================================": 5671,
    "Ġintervening": 17267,
    "Ġbowing": 10473,
    "Ġbehind": 2804,
    "irr": 12735,
    "Ġmirror": 12377,
    "Ġbashaw": 25636,
    "Ġtechniques": 2865,
    "yn": 7819,
    "writes": 4989,
    "Ġsmell": 7216,
    "Ġur": 5540,
    "Ġrocking": 10968,
    "----": 4053,
    "Ġscruple": 25052,
    "looked": 6083,
    "Ġlongest": 18629,
    "ales": 3317,
    "Ġdishes": 16049,
    "Ġadmirals": 20383,
    "Ġdeliverer": 11949,
    "token": 21081,
    "Ġtwit": 12927,
    "Ġpleased": 4059,
    "Ġpresumably": 19625,
    "Ġpages": 15606,
    "Ġmasses": 10501,
    "Ġmalignity": 10554,
    "Ġundu": 15836,
    "horrible": 14600,
    "Ġing": 5283,
    "be": 669,
    "Ġtranque": 14199,
    "onsible": 22561,
    "Ġcabal": 23643,
    "Ġcomfortable": 6094,
    "Ġprecipitous": 24839,
    "Ġthou": 1810,
    "Ġdeny": 7489,
    "Ġsteadfastly": 10649,
    "Ġriggers": 24158,
    "Ġcuriosities": 26290,
    "Ġdrive": 5056,
    "proposal": 18747,
    "aspect": 10191,
    "Ġstaying": 8283,
    "exped": 16524,
    "Ġresolute": 19246,
    "Ġdesired": 4663,
    "onical": 21252,
    "Ġrather": 1493,
    "Ġlast": 1121,
    "ernity": 18616,
    "mitting": 17603,
    "boy": 4736,
    "isen": 10791,
    "Ġeffeminacy": 20717,
    "Ġaccomplishment": 19666,
    "Ġcommunicates": 24550,
    "rael": 21627,
    "Ġsoldier": 16920,
    "icha": 11736,
    "uger": 21102,
    "Ġstoutest": 24631,
    "Ġmajor": 13290,
    "Ġfootman": 8287,
    "rece": 21233,
    "Ġpresum": 4835,
    "instance": 24171,
    "Ġqueerest": 16414,
    "Ġstones": 9223,
    "Ġanimate": 23424,
    "Ġjub": 22295,
    "charles": 14698,
    "Ġdrunken": 12049,
    "Ġignorant": 5343,
    "Ġsanguine": 25930,
    "Ġintervene": 25483,
    "cking": 4262,
    "Ġtreasure": 9558,
    "Ġorchard": 22093,
    "Ġxviii": 23411,
    "Ġfretfully": 25450,
    "Ġsubsisted": 19119,
    "sig": 2872,
    "Ġvital": 9242,
    "Ġits": 706,
    "overfitting": 13100,
    "Ġskirt": 18730,
    "erie": 21269,
    "alvan": 21501,
    "Ġresolving": 9418,
    "Ġprompt": 3192,
    "Ġunfl": 22019,
    "Ġimmens": 9937,
    "Ġmilitary": 11257,
    "Ġtremulous": 14985,
    "Ġtaurus": 21177,
    "Ġsandwich": 19829,
    "considered": 9580,
    "rod": 10830,
    "invisible": 17741,
    "humoredly": 26326,
    "Ġtyphoon": 12388,
    "Ġheadland": 22895,
    "alid": 13935,
    "gal": 15354,
    "Ġpleasurable": 23339,
    "joint": 24009,
    "Ġdeadly": 5405,
    "Ġfel": 1515,
    "Ġregain": 22586,
    "herself": 4889,
    "Ġshilling": 18228,
    "Ġsavory": 23877,
    "Ġenticing": 22748,
    "Ġrippling": 17277,
    "Ġrepel": 23360,
    "rog": 15638,
    "Ġoutsk": 15955,
    "Ġfitzwilliam": 5771,
    "Ġshapeless": 24527,
    "presbyterian": 26370,
    "weather": 7229,
    "musket": 25343,
    "owed": 2272,
    "Ġdripping": 13147,
    "Ġeyford": 10639,
    "Ġhovel": 8253,
    "ically": 863,
    "Ġfoot": 3166,
    "ugal": 19023,
    "gold": 9120,
    "iers": 5990,
    "Ġcomprehen": 5349,
    "nings": 9131,
    ".": 18,
    "Ġneighbourhood": 5126,
    "Ġevery": 926,
    "Ġcleansed": 26295,
    "tic": 8390,
    "bur": 4685,
    "sebastian": 21819,
    "Ġsensational": 16389,
    "reported": 24496,
    "aught": 2678,
    "Ġindependence": 12103,
    "response": 25765,
    "Ġoutside": 5554,
    "Ġfig": 3620,
    "Ġglistened": 20172,
    "veral": 2355,
    "your": 1984,
    "Ġet": 3577,
    "Ġsenate": 25217,
    "Ġcrisp": 12002,
    "Ġemerged": 8684,
    "Ġdrunkard": 20177,
    "fourths": 25512,
    "Ġevolved": 9889,
    "scent": 13019,
    "Ġeuropean": 20046,
    "Ġkeep": 2357,
    "Ġbound": 3516,
    "invested": 17117,
    "mysterious": 26054,
    "men": 1483,
    "Ġpromethe": 14467,
    "ashtego": 4098,
    "Ġcuba": 25099,
    "wake": 11545,
    "Ġsavannah": 17415,
    "Ġroots": 11184,
    "danger": 10087,
    "Ġwafted": 14498,
    "congreg": 25400,
    "Ġwherein": 14292,
    "december": 25561,
    "Ġgeomet": 3194,
    "Ġsockets": 22087,
    "eel": 11483,
    "Ġbackbone": 22639,
    "Ġju": 10284,
    "Ġadjusts": 8980,
    "Ġpadded": 25040,
    "assuming": 22310,
    "Ġbleeds": 24400,
    "Ġconversation": 3330,
    "geor": 15977,
    "Ġdownwards": 8529,
    "Ġimpossible": 3540,
    "Ġchoice": 2166,
    "Ġdisinterested": 16056,
    "Ĥ": 229,
    "Ġcan": 469,
    "Ġred": 3009,
    "Ġconfines": 23305,
    "Ġslugg": 15267,
    "Ġplunged": 8692,
    "god": 4862,
    "Ġearlier": 9086,
    "Ġrelationships": 2925,
    "Ġunqualified": 22060,
    "Ġprovince": 24192,
    "commission": 22818,
    "Ġslop": 23160,
    "nut": 12493,
    "Ġpert": 22395,
    "disagreeable": 11162,
    "sl": 5794,
    "vanished": 15060,
    "Ġstriding": 16092,
    "Ġsubstances": 24168,
    "Ġvoices": 7875,
    "Ġpict": 3497,
    "playing": 19658,
    "Ġenraged": 10242,
    "Ġhindoo": 17175,
    "sembled": 7263,
    "Ġsuckling": 25999,
    "Ġent": 904,
    "Ġdetail": 636,
    "Ġexactly": 2765,
    "dress": 17520,
    "Ġfunctions": 1339,
    "previously": 17207,
    "tarpaul": 21096,
    "Ġcompress": 21848,
    "Ġperpetual": 12302,
    "imony": 12688,
    "Ġbrah": 19357,
    "Ġchecking": 23287,
    "Ġfanatic": 23393,
    "backed": 9864,
    "Ġcraven": 16470,
    "Ġflatt": 16245,
    "Ġwash": 9702,
    "Ġhypocr": 19472,
    "Ġearnestness": 12125,
    "Ġgallied": 19557,
    "Ġmysterious": 7528,
    "Ġmorsel": 20676,
    "Ġrecept": 1521,
    "great": 3514,
    "Ġbrightly": 13223,
    "Ġus": 496,
    "Ġmanned": 9270,
    "Ġvirtue": 4921,
    "Ġmorals": 22977,
    "Ġengrossed": 12995,
    "old": 798,
    "Ġgem": 21591,
    "vate": 21108,
    "prosperity": 20734,
    "Ġunholy": 26220,
    "Ġsugg": 4497,
    "oll": 5456,
    "ad": 337,
    "Ġalice": 1480,
    "Ġreappearance": 21665,
    "Ġspurred": 22138,
    "Ġindist": 14408,
    "iably": 13738,
    "frau": 15088,
    "resentment": 15184,
    "Ġconsoling": 19457,
    "Ġtransport": 11277,
    "Ġwint": 15532,
    "Ġhum": 1095,
    "Ġbeh": 1803,
    "next": 5891,
    "Ġlongbourn": 3506,
    "Ġquaint": 18466,
    "into": 3676,
    "Ġnoticing": 18224,
    "Ġhus": 3098,
    "Ġunwonted": 14125,
    "Ġdiv": 3728,
    "Ġnumber": 1981,
    "Ġket": 18347,
    "Ġtucked": 12391,
    "Ġchann": 15934,
    "aid": 1924,
    "mansion": 20982,
    "Ġpolicy": 10455,
    "Ġfancied": 7326,
    "Ġdivergence": 2725,
    "Ġaverages": 2399,
    "Ġcourage": 4632,
    "macy": 18808,
    "Ġmistress": 8611,
    "Ġmisty": 16539,
    "Ġsurround": 4616,
    "Ġbeautifully": 13266,
    "Ġcontest": 18474,
    "Ġharem": 9708,
    "offered": 14518,
    "Ġsecurity": 8977,
    "bone": 5612,
    "Ġencouraged": 9354,
    "Ġdetermines": 2368,
    "wedged": 24341,
    "Ġcoal": 18592,
    "medical": 23340,
    "Ġquenched": 22417,
    "consol": 9761,
    "Ġimagenet": 19247,
    "Ġlvi": 21550,
    "Ġentertainment": 12221,
    "Ġoutward": 7903,
    "Ġgain": 4944,
    "iated": 5889,
    "Ġelevation": 14898,
    "fall": 5135,
    "hoisting": 23714,
    "osure": 5306,
    "allowed": 5728,
    "ivates": 18281,
    "Ġha": 400,
    "Ġhval": 21484,
    "chess": 16573,
    "Ġdeity": 18137,
    "verb": 10214,
    "otence": 14023,
    "Ġrese": 2159,
    "Ġciv": 3309,
    "imprisonment": 23764,
    "ague": 3903,
    "Ġproceedings": 9905,
    "adamite": 20591,
    "Ġsurface": 5119,
    "sadly": 25529,
    "Ġmeditations": 25017,
    "called": 6292,
    "Ġexisted": 15751,
    "Ġsubstance": 5510,
    "Ġcuring": 21342,
    "Ġwra": 5905,
    "superstitiousness": 25511,
    "handled": 19262,
    "Ġsnugly": 17111,
    "P": 52,
    "neat": 22448,
    "omon": 10204,
    "Ġpend": 15604,
    "Ġheap": 12676,
    "occupations": 24968,
    "grace": 5846,
    "tornadoes": 26155,
    "Ġger": 21588,
    "Ġpenetrated": 13472,
    "Ġsands": 14947,
    "cottage": 9569,
    "nable": 13762,
    "Ġunrecord": 16621,
    "resent": 10768,
    "Ġbarely": 16936,
    "fters": 20860,
    "Ġwinter": 5220,
    "Ġgard": 2190,
    "Ġfrost": 6095,
    "acked": 10972,
    "Ġconj": 8460,
    "Ġgeorgiana": 8625,
    "Ġblock": 2574,
    "Ġcompens": 14263,
    "perpet": 14162,
    "Ġuneasiness": 9483,
    "Ġengineering": 3031,
    "Ġanother": 1737,
    "bourine": 9395,
    "Ġbeards": 21750,
    "Ġcitizens": 25442,
    "Ġmungo": 25634,
    "Ġted": 13812,
    "Ġreminiscences": 26271,
    "Ġperhaps": 1914,
    "Ġmentioned": 4327,
    "eminently": 25109,
    "Ġinland": 11607,
    "steaks": 23961,
    "Ġdro": 2768,
    "riminately": 16483,
    "disappearing": 23506,
    "Ġcable": 11579,
    "Ġdim": 4755,
    "distrustful": 26332,
    "disreputable": 23507,
    "Ġdevils": 7230,
    "commanded": 16988,
    "Ġaccurate": 13303,
    "Ġchoked": 9263,
    "exact": 7909,
    "Ġformidable": 8219,
    "Ġgold": 3279,
    "garet": 9597,
    "Ġfunctional": 3055,
    "Ġcharley": 19007,
    "sleeves": 26111,
    "Ġphysiology": 25335,
    "Ġorphan": 12382,
    "Ġwandered": 6930,
    "Ġbuildings": 24723,
    "Ġcheerfulness": 10514,
    "Ġlords": 14641,
    "clear": 9023,
    "Ġmistake": 6203,
    "Ġmari": 6813,
    "Ġleakage": 23461,
    "Ġknob": 24410,
    "Ġbelief": 5855,
    "Ġconsult": 6056,
    "terr": 8153,
    "Ġessence": 13405,
    "Ġwisdom": 11232,
    "pled": 7891,
    "orses": 6051,
    "legra": 10788,
    "thanking": 24333,
    "Ġnest": 10186,
    "Ġexperiment": 11918,
    "Ġconcealing": 23903,
    "Ġlonging": 14296,
    "hinting": 17570,
    "Ġempt": 5052,
    "Ġintroduction": 8970,
    "Ġhollow": 5648,
    "Ġtell": 1467,
    "Ġriver": 5411,
    "Ġakin": 15495,
    "Ġcandles": 9906,
    "Ġtwitched": 20442,
    "Ġobtained": 7432,
    "Ġyelled": 9693,
    "confirm": 16807,
    "Ġprinces": 23222,
    "orily": 15571,
    "wled": 15454,
    "Ġnightfall": 23130,
    "Ġboneless": 19606,
    "Ġmetaphys": 16382,
    "Ġsimulates": 2737,
    "delights": 19702,
    "maltese": 24798,
    "Ġuniversally": 11999,
    "poling": 12218,
    "Ġscholars": 26114,
    "him": 1940,
    "charmed": 21694,
    "Ġextreme": 2516,
    "aceti": 7111,
    "Ġinquire": 7719,
    "Ġweapon": 7775,
    "acific": 4961,
    "harbor": 13564,
    "Ġther": 17779,
    "Ġsavage": 4006,
    "Ġtrifle": 10599,
    "ignorance": 17161,
    "Ġdelicate": 6480,
    "Ġvig": 5460,
    "Ġvari": 834,
    "oms": 4591,
    "azing": 7704,
    "makers": 20981,
    "soled": 14333,
    "Ġgermany": 25788,
    "enough": 6809,
    "scence": 14418,
    "Ġseeing": 2884,
    "Ġcomposition": 1689,
    "Ġdiameter": 19868,
    "Ġpaste": 23420,
    "Ġprairie": 8712,
    "Ġterribly": 10423,
    "Ġhost": 7068,
    "Ġtune": 17726,
    "through": 4018,
    "Ġstreamed": 14546,
    "cases": 12446,
    "Ġscalding": 16321,
    "Ġplanets": 24056,
    "Ġconsistence": 23357,
    "purposes": 25025,
    "Ġemploys": 19431,
    "Ġsettled": 3739,
    "Ġinve": 17929,
    "Ġcrowding": 13278,
    "Ġamongst": 8959,
    "Ġderives": 16308,
    "Ġchurch": 4709,
    "aste": 4599,
    "Ġmouse": 4692,
    "Ġmatted": 22913,
    "Ġfull": 2178,
    "Ġdecidedly": 9508,
    "Ġworshippers": 25696,
    "isance": 17848,
    "mblies": 24611,
    "oky": 8197,
    "asmuch": 10192,
    "Ġassociations": 14962,
    "Ġcensure": 15094,
    "swear": 16918,
    "fur": 6355,
    "ortunities": 15939,
    "fac": 17541,
    "Ġsubordinate": 18723,
    "queer": 10360,
    "Ġblank": 5950,
    "Ġelated": 18636,
    "Ġforesaw": 19129,
    "us": 531,
    "rat": 8754,
    "Ġsaintsbury": 26374,
    "Ġref": 911,
    "Ġabominate": 20065,
    "Ġfren": 10804,
    "Ġarrogance": 26233,
    "Ġliberties": 19668,
    "rad": 2257,
    "Ġforfeit": 21774,
    "Ġrumpled": 24603,
    "Ġsitu": 3493,
    "Ġmart": 10778,
    "Ġark": 10273,
    "having": 5211,
    "ifference": 5632,
    "Ġlashed": 9198,
    "Ġdoze": 14176,
    "dimensional": 2350,
    "season": 14034,
    "Ġbern": 17859,
    "Ġavail": 11225,
    "Ġprophes": 16348,
    "Ġlegit": 16473,
    "ods": 8835,
    "Ġbarren": 11205,
    "Ġdeeds": 15757,
    "Ġhatty": 19266,
    "Ġaft": 5737,
    "Ġswing": 13034,
    "Ġdemoniacal": 20555,
    "Ġbattle": 5907,
    "Ġproved": 4883,
    "Ġchambers": 16799,
    "Ġboil": 16103,
    "glanced": 19366,
    "Ġconcussion": 26302,
    "Ġearthly": 7989,
    "Ġcalculus": 23983,
    "usation": 18402,
    "Ġattacking": 24468,
    "Ġdisc": 944,
    "ints": 3417,
    "no": 891,
    "Ġmien": 17809,
    "Ġhawk": 15172,
    "condemned": 26062,
    "Ġincom": 9768,
    "tahit": 17693,
    "conqu": 14244,
    "bit": 3928,
    "conceive": 16029,
    "Ġcirculation": 16416,
    "disappeared": 14570,
    "Ġunexpl": 22038,
    "yth": 982,
    "inex": 14092,
    "Ġkiller": 19569,
    "Ġautoregressive": 3431,
    "vul": 15448,
    "Ġmou": 13855,
    "consum": 12869,
    "Ġpanic": 11285,
    "Ġpurposes": 11167,
    "Ġsorrow": 4627,
    "how": 1643,
    "Ġprogra": 1147,
    "Ġunspeak": 8850,
    "Ġbaby": 6636,
    "Ġheedless": 14902,
    "Ġeddies": 23439,
    "desper": 13068,
    "learned": 8590,
    "fellow": 6792,
    "Ġfirmly": 8013,
    "ilations": 21720,
    "Ġpot": 2994,
    "Ġthinnest": 24186,
    "ordered": 8788,
    "Ġquaker": 10970,
    "Ġsenor": 20150,
    "Ġturk": 6603,
    "Ġlick": 21547,
    "cing": 1015,
    "clothes": 9057,
    "Ġeagerly": 4991,
    "Ġanecdote": 26356,
    "Ġmarred": 23032,
    "quis": 7869,
    "Ġindomitableness": 26573,
    "Ġhyster": 16873,
    "Ġderive": 10391,
    "benefit": 24645,
    "Ġtruck": 19512,
    "Ġsale": 14155,
    "Ġearthy": 23710,
    "anxiety": 25158,
    "Ġ75": 19613,
    "Ġwor": 1189,
    "gyric": 19111,
    "Ġevaporate": 26334,
    "tor": 15432,
    "Ġoutskirts": 17456,
    "Ġpresented": 5183,
    "enter": 7857,
    "sub": 4658,
    "stem": 570,
    "Ġernest": 8716,
    "Ġsleeps": 10444,
    "Ġcheered": 16368,
    "Ġcalendar": 18877,
    "Ġ1671": 25009,
    "Ġrecede": 25970,
    "Ġinquis": 19304,
    "bott": 9105,
    "Ġrevenue": 26196,
    "Ġpowder": 11274,
    "Ġprophesy": 26063,
    "Ġaccustomed": 6861,
    "delighted": 10560,
    "Ġwink": 11568,
    "Ġlangsdorff": 15275,
    "rannical": 26403,
    "Ġalfred": 21785,
    "ada": 14011,
    "Ġaval": 15493,
    "Ġgrecian": 26298,
    "west": 10738,
    "Ġsepar": 3994,
    "oury": 22304,
    "Ġdecay": 1014,
    "carry": 19527,
    "Ġmenaces": 23107,
    "Ġdashing": 8794,
    "Ġabode": 7899,
    "Ġduodecimo": 16767,
    "Ġmonstr": 7668,
    "Ġunlikely": 10907,
    "cart": 10686,
    "Ġtrap": 7672,
    "Ġaquiline": 26161,
    "Ġcrawford": 24897,
    "tremble": 17141,
    "interference": 23738,
    "Ġoccupant": 16651,
    "conjectures": 25183,
    "wore": 21123,
    "Ġhandled": 12935,
    "crum": 17511,
    "Ġconsolidation": 5061,
    "Ġservox": 23871,
    "Ġprovidence": 18749,
    "jacket": 12291,
    "Ġpers": 1414,
    "Ġadhering": 14140,
    "Ġlabels": 3288,
    "Ġthigh": 10184,
    "Ġeffects": 7236,
    "?--": 15302,
    "Ġmix": 7577,
    "Ġinter": 727,
    "Ġdecanting": 22443,
    "Ġsending": 8773,
    "Ġparent": 14645,
    "inative": 15483,
    "acher": 6868,
    "cept": 553,
    "worshipping": 16610,
    "abriel": 6950,
    "Ġado": 7627,
    "belais": 24038,
    "amidst": 25655,
    "Ġpatagonia": 25860,
    "outside": 12802,
    "report": 13399,
    "Ġbelong": 3883,
    "âĢĺ": 940,
    "Ġfluctu": 5267,
    "Ġmiguel": 25769,
    "sensations": 20051,
    "protection": 19921,
    "Ġecon": 9677,
    "damp": 15342,
    "car": 4206,
    "Ġlizard": 12652,
    "Ġincantation": 26259,
    "Ġmeridian": 25717,
    "Ġalready": 2710,
    "Ġthrobbing": 16898,
    "Ġelephants": 9862,
    "Ġamused": 11797,
    "Ġemble": 13971,
    "Ġantichronical": 26611,
    "ames": 2880,
    "there": 1424,
    "Ġhopkins": 23129,
    "Ġdeeper": 2084,
    "ÿ": 192,
    "turbaned": 24535,
    "Ġtents": 13818,
    "Ġhare": 5157,
    "iring": 1709,
    "Ġspect": 3549,
    "Ġwhitened": 24871,
    "Ġavast": 9918,
    "olidity": 18132,
    "Ġfortun": 4983,
    "Ġtro": 7356,
    "Ġsplashing": 16550,
    "evenings": 19463,
    "Ġlogits": 3449,
    "Ġwinc": 9642,
    "cceed": 4136,
    "Ġfringed": 17272,
    "Ġequals": 4725,
    "Ġcupidity": 24538,
    "Ġtopmost": 14587,
    "ideas": 18584,
    "Ġdelicately": 24127,
    "Ġconvergence": 972,
    "._]]": 5334,
    "ensibility": 22547,
    "Ġunfeeling": 14119,
    "Ġtot": 4181,
    "Ġphilosoph": 19652,
    "Ġrudeness": 17124,
    "rings": 10721,
    "Ġcatastrophe": 10481,
    "cures": 20804,
    "ft": 910,
    "Ġnapoleon": 20556,
    "Ġweighed": 8710,
    "drawing": 10484,
    "rences": 9271,
    "Ġminor": 12966,
    "Ġpettic": 14840,
    "peculiar": 6886,
    "otent": 8831,
    "Ġunprepared": 22049,
    "Ġredress": 23754,
    "Ġte": 1143,
    "Ġupd": 947,
    "osity": 14185,
    "Ġindoors": 18837,
    "Ġburden": 8607,
    "Ġministers": 22839,
    "Ġfacility": 19851,
    "Ġcontingency": 26246,
    "Ġlucky": 7758,
    "romised": 14112,
    "Ġhotels": 19537,
    "Ġconfirmation": 17210,
    "Ġaisle": 21200,
    "cold": 9589,
    "Ġrope": 4336,
    "key": 5463,
    "rows": 6442,
    "Ġdiligently": 11405,
    "Ġrudimental": 25112,
    "Ġpoets": 11819,
    "Ġseat": 4949,
    "hav": 20896,
    "Ġoscill": 2855,
    "Ġvarious": 3507,
    "Ġdol": 9664,
    "omely": 21637,
    "terror": 18128,
    "feelings": 5674,
    "Ġanimation": 11151,
    "peaceful": 20445,
    "Ġwin": 9641,
    "Ġcatches": 23428,
    "Ġquakers": 22416,
    "Ġwhisker": 23935,
    "Ġintermix": 22577,
    "Ġsaving": 15885,
    "uish": 5431,
    "Ġstash": 18070,
    "Ġreversed": 15695,
    "Ġformations": 18752,
    "sun": 7139,
    "Ġprofund": 13153,
    "beyond": 8882,
    "Ġcondu": 18112,
    "Ġboards": 14297,
    "ķ": 248,
    "causes": 20342,
    "err": 1144,
    "Ġgrandfather": 19422,
    "remonstr": 23189,
    "haz": 17565,
    "ill": 447,
    "Ġple": 1468,
    ".âĢĻâĢĿ": 6739,
    "Ġloathsome": 13528,
    "boo": 16350,
    "Ġmoody": 8200,
    "ĠĠĠĠĠĠĠĠĠĠĠĠĠĠĠĠĠĠĠĠĠĠĠĠĠĠĠĠĠĠĠĠĠĠĠĠĠĠĠĠĠĠĠĠĠ": 9950,
    "Ġpang": 15603,
    "Ġremarking": 13124,
    "Ġton": 15464,
    "Ġelijah": 9099,
    "buttoned": 13632,
    "Ġtranquil": 7310,
    "Ġ126": 24474,
    "Ġmelancholy": 5606,
    "coun": 10684,
    "rip": 9240,
    "Ġslit": 13055,
    "Ġcanvas": 7783,
    "Ġdisplaying": 16966,
    "Ġsacr": 7194,
    "Ġgall": 4349,
    "Ġinvoluntarily": 8544,
    "henomen": 10492,
    "Ġspir": 2429,
    "mentioned": 10621,
    "Ġcott": 3705,
    "varied": 23183,
    "Ġstuck": 9222,
    "Ġfondly": 19617,
    "Ġindignity": 18834,
    "Ġlottery": 19889,
    "Ġdeterm": 1270,
    "Ġcare": 1637,
    "dar": 20823,
    "Ġrequirements": 9793,
    "Ġfifteen": 6947,
    "rapid": 12668,
    "Ġnapkins": 25164,
    "ectual": 21914,
    "ledyard": 22391,
    "Ġproduce": 4364,
    "Ġcorrespond": 6209,
    "Ġtongue": 6347,
    "ober": 15406,
    "Ġtrying": 4836,
    "Ġbackgammon": 22643,
    "active": 16102,
    "orial": 8416,
    "Ġtwin": 12926,
    "repugnance": 16864,
    "Ġglens": 18855,
    "Ġflurry": 18861,
    "bulkington": 19926,
    "ruding": 9723,
    "Ġhull": 5446,
    "Ġwishing": 7830,
    "Ġwilderness": 14839,
    "excepting": 19707,
    "Ġacts": 2296,
    "Ġfollow": 1395,
    "Ġgreenland": 5761,
    "Ġinstability": 3810,
    "africa": 26310,
    "oring": 1862,
    "Ġcomforted": 19391,
    "Ġinput": 611,
    "cool": 19188,
    "quished": 21853,
    "fortunate": 4790,
    "Ġgri": 17988,
    "Ġindolent": 13003,
    "Ġpitiful": 13238,
    "lightning": 16552,
    "Ġvitality": 15171,
    "Ġwhereon": 16100,
    "empt": 2617,
    "Ġreciproc": 20620,
    "Ġtry": 3139,
    "Ġproximity": 3220,
    "sullen": 17670,
    "Ġprivile": 8645,
    "Ġsupreme": 13607,
    "Ġultimate": 12348,
    "ilder": 15711,
    "Ġloves": 10914,
    "á": 162,
    "Ġinnocently": 24028,
    "Ġemployed": 5200,
    "received": 9638,
    "antic": 1601,
    "Ġtraged": 9351,
    "Ġinterest": 2249,
    "ograph": 4796,
    "Ġpunishment": 9954,
    "thern": 4953,
    "Ġwildness": 14603,
    "ô": 181,
    "ible": 1113,
    "lying": 7174,
    "emic": 18184,
    "Ġblinded": 13269,
    "perceived": 8858,
    "Ġignor": 4007,
    "Į": 239,
    "inuating": 16203,
    "Ġengaging": 9335,
    "warmly": 25030,
    "Ġtransom": 22436,
    "rary": 4573,
    "ying": 1367,
    "Ġbosoms": 16795,
    "salis": 25150,
    "Ġomniscient": 20086,
    "Ġbrazen": 23840,
    "Ġsuperlatively": 26077,
    "Ġmaelstrom": 19356,
    "Ġbathing": 20199,
    "Ġredness": 19312,
    "thick": 10258,
    "Ġoptim": 785,
    "not": 908,
    "Ġcashier": 20198,
    "ifully": 13184,
    "Ġdetest": 8500,
    "Ġquadru": 16002,
    "Ġcrawled": 17044,
    "compan": 7301,
    "Ġgibraltar": 25790,
    "Ġso": 434,
    "Ġassisting": 13256,
    "Ġliter": 8810,
    "w": 91,
    "mannered": 22853,
    "Ġscar": 3213,
    "Ġscalable": 1588,
    "Ġhyper": 19740,
    "Ġgrizz": 10350,
    "shoulder": 16583,
    "Ġimage": 3403,
    "Ġroyal": 5602,
    "ustom": 3787,
    "Ġinsensibility": 17110,
    "appear": 13196,
    "Ġjav": 7901,
    "Ġhammer": 6093,
    "clam": 13053,
    "Ġloomings": 24953,
    "Ġrad": 4963,
    "Ġchaise": 9076,
    "velope": 17702,
    "Ġfrowning": 13623,
    "Ġrests": 13093,
    "unders": 13309,
    "Ġarc": 14159,
    "Ġsympathise": 16794,
    "Ġanatomy": 12319,
    "very": 499,
    "Ġlowerings": 23648,
    "Ġprey": 6415,
    "Ġonce": 1489,
    "Ġperplexity": 2752,
    "Ġmerchants": 23733,
    "Ġevidence": 5269,
    "mar": 4333,
    "Ġlodge": 5779,
    "Ġwindibank": 7257,
    "steady": 14708,
    "poverty": 22909,
    "Ġhearse": 10418,
    "Ġbradstreet": 9576,
    "Ġcopper": 7425,
    "Ġbabel": 24429,
    "appo": 3911,
    "Ġspell": 8855,
    "Ġmuttered": 7086,
    "Ġbespe": 19243,
    "Ġregret": 5561,
    "dwelling": 20563,
    "Ġglimmering": 25243,
    "ĠâĢĺ_": 11116,
    "Ġoccasioned": 13226,
    "address": 14880,
    "ela": 21566,
    "uccas": 21105,
    "Ġchron": 19438,
    "Ġhaw": 10249,
    "Ġboarders": 16600,
    "mast": 3598,
    "ridge": 9496,
    "Ġdefect": 8554,
    "benefact": 24644,
    "know": 2320,
    "tails": 21085,
    "hom": 12472,
    "Ġcomputer": 1243,
    "Ġtu": 6968,
    "Ġindependent": 9015,
    "Ġreeling": 18033,
    "stooped": 23822,
    "Ġsolicit": 22884,
    "Ġshelves": 14998,
    "Ġsullen": 9157,
    "ackinaw": 22421,
    "83": 13680,
    "Ġdial": 10812,
    "ppers": 7618,
    "ppings": 18176,
    "throughout": 24088,
    "geese": 22367,
    "Ġantichron": 24184,
    "Ġtrous": 10954,
    "burgh": 6773,
    "Ġbizarre": 17872,
    "recover": 24625,
    "wra": 11541,
    "Ġregarding": 13210,
    "Ġdirection": 1795,
    "Ġmankind": 6698,
    "pal": 9616,
    "Ġsimul": 1808,
    "Ġsentences": 2680,
    "Ġshocking": 10433,
    "itud": 2932,
    "Ġendangered": 16304,
    "Ġturks": 14598,
    "Ġflowers": 8940,
    "roded": 17956,
    "mouth": 9130,
    "Ġp": 289,
    "âĢĶâĢľ": 2973,
    "inclination": 20058,
    "Ġperished": 11782,
    "Ġdelineate": 26059,
    "Ġhenry": 5197,
    "Ġdisput": 14255,
    "carb": 20809,
    "tting": 17681,
    "Ġcopse": 17068,
    "Ġrespectively": 23250,
    "Ġthoroughly": 8347,
    "Ġtears": 4226,
    "ual": 946,
    "game": 11490,
    "Ġcongratulations": 10578,
    "likely": 9022,
    "Ġnumerical": 4240,
    "displayed": 20735,
    "Ġchewing": 23286,
    "bergs": 18684,
    "Ġwonderland": 23426,
    "Ġnation": 12645,
    "Ġmonarchs": 25851,
    "irwin": 8468,
    "recollection": 25350,
    "Ġgratefully": 20443,
    "conjecture": 15121,
    "does": 6194,
    "Ġcanaan": 22165,
    "igms": 3053,
    "heads": 4090,
    ",--âĢľ": 19198,
    "painting": 17046,
    "draul": 9442,
    "appearing": 14637,
    "Ġbi": 919,
    "mble": 1405,
    "Ġirreproachable": 24921,
    "Ġanyhow": 14254,
    "Ġimpro": 897,
    "Ě": 219,
    "Ġnautical": 17385,
    "Ġmajest": 24060,
    "stay": 9680,
    "Ġnose": 4399,
    "Ġmisconduct": 22758,
    "Ġcondem": 6338,
    "Ġconsuming": 22793,
    "Ġbinding": 20417,
    "Ġcatastrophic": 3539,
    "Ġcocoanuts": 26364,
    "Ġpants": 21463,
    "americans": 25046,
    "Ġperchance": 15990,
    "Ġweeks": 4563,
    "Ġattitude": 8903,
    "Ġtapering": 8769,
    "lizzy": 6651,
    "Ġrekindled": 21675,
    "ullo": 12727,
    "lanter": 15386,
    "Ġsustained": 13482,
    "careful": 14865,
    "Ġhazarded": 25657,
    "supp": 4155,
    "Ġlocks": 11722,
    "Ġbecalmed": 18086,
    "deav": 2672,
    "Ġgets": 10838,
    "attachment": 13050,
    "residual": 19263,
    "hint": 12474,
    "throwing": 11701,
    "Ġfilled": 4391,
    "rust": 2579,
    "Ġledge": 19401,
    "Ġmacey": 12561,
    "Ġpursuits": 12075,
    "sory": 17660,
    "belated": 24037,
    "Ġopenshaw": 7954,
    "merely": 16133,
    "Ġ235": 25716,
    "Ġampl": 22480,
    "Ġiteratively": 3065,
    "Ġunnear": 22027,
    "Ġate": 8839,
    "Ġperishing": 22397,
    "Ġvariations": 22666,
    "Ġextremities": 19197,
    "Ġpleases": 16298,
    "Ġfagged": 17883,
    "Ġindians": 14409,
    "comed": 8545,
    "puted": 8845,
    "Ġcurse": 7667,
    "Ġacutely": 14313,
    "Ġtie": 10749,
    "Ġsty": 6251,
    "grown": 10097,
    "Ġtistig": 26415,
    "Ġmarbles": 18873,
    "engaged": 7452,
    "Ġplatform": 17131,
    "Ġdisposed": 7083,
    "cous": 8721,
    "Ġpilgr": 12179,
    "Ġdeceitful": 25736,
    "arking": 16124,
    "Ġenthusiastic": 19966,
    "abil": 2008,
    "Ġfoolish": 5979,
    "Ġblown": 12084,
    "inside": 23065,
    "including": 23592,
    "Ġwaiter": 16359,
    "Ġlet": 1109,
    "Ġhasn": 12925,
    "rels": 6664,
    "Ġreveries": 11346,
    "Ġcoverage": 4284,
    "possesses": 24619,
    "house": 4072,
    "itting": 1154,
    "aph": 10953,
    "Ġ&": 6513,
    "shunned": 22467,
    "Ġforemost": 12004,
    "pires": 13775,
    "stad": 7598,
    "Ġbrix": 12581,
    "Ġtows": 19563,
    "Ġsuccessful": 9921,
    "Ġrule": 1531,
    "bride": 19201,
    "imperturbable": 25793,
    "adequately": 20318,
    "Ġcensured": 25098,
    "phew": 6368,
    "Ġprescribed": 26012,
    "thirds": 25050,
    "Ġgipsies": 12407,
    "Ġequator": 7461,
    "Ġinjunction": 19618,
    "Ġbushes": 16401,
    "Ġfleece": 10612,
    "Ġsublime": 8065,
    "wide": 10135,
    "ack": 609,
    "Ġfailing": 12136,
    "Ġattend": 5036,
    "Ġunfortunate": 5376,
    "Ġhuff": 21487,
    "Ġgospel": 18001,
    "Ġmisanthrop": 22759,
    "Ġbluish": 23651,
    "Ġunfathom": 14789,
    "Ġgrampus": 21992,
    "osis": 18390,
    "cook": 8269,
    "asions": 12649,
    "Ġhammock": 5768,
    "cries": 17510,
    "Ġblaming": 22930,
    "aciously": 12905,
    "Ġalien": 14018,
    "Ġscenarios": 26544,
    "Ġbl": 1190,
    "Ġenergies": 25462,
    "Ġpel": 17905,
    "A": 37,
    "terrible": 8465,
    "ilst": 8143,
    "Ġsullenly": 17172,
    "Ġscore": 9737,
    "miseries": 16757,
    "destro": 13311,
    "phr": 18713,
    "Ġalan": 10868,
    "Ġcloser": 8659,
    "Ġdefray": 22941,
    "posted": 24638,
    "Ġgemini": 26471,
    "Ġwedding": 4856,
    "pres": 16024,
    "Ġright": 1504,
    "Ġinstruction": 14343,
    "Ġencaps": 12960,
    "Ġumb": 11645,
    "reliable": 21239,
    "Ġfelony": 18952,
    "piteous": 21032,
    "anx": 8782,
    "Ġ81": 24460,
    "Ġadmin": 23555,
    "Ġfame": 21404,
    "kin": 7131,
    "mers": 9610,
    "fro": 8732,
    "Ġottoman": 17377,
    "shr": 10980,
    "airing": 16176,
    "weeks": 14315,
    "whatsoever": 18489,
    "Ġpurest": 14938,
    "rals": 21041,
    "Ġunseason": 22051,
    "alty": 17939,
    "Ġpreventing": 883,
    "Ġflattened": 26049,
    "politeness": 16906,
    "!âĢĿâĢĶ": 8532,
    "Ġflorid": 17135,
    "Ġdry": 5624,
    "Ġebony": 18009,
    "wrinkled": 16554,
    "Ġthrills": 24545,
    "Ġbehold": 5050,
    "Ġsuccor": 25665,
    "ixed": 4849,
    "www": 17251,
    "Ġast": 2964,
    "Ġoccurrence": 14381,
    "Ġsubst": 4270,
    "Ġlately": 6387,
    "Ġclever": 7054,
    "Ġmonitors": 3161,
    "Ġfr": 1697,
    "alling": 6036,
    "returned": 7765,
    "Ġtired": 9149,
    "Ġbeacon": 21755,
    "Ġpol": 2575,
    "Ġboyhood": 23757,
    "Ġexile": 12715,
    "Ġquadruped": 17458,
    "Ġdemig": 20355,
    "Ġnerve": 16339,
    "Ġhistorical": 3642,
    "Ġrepeat": 7999,
    "Ġdisturbed": 8671,
    "sufferable": 12175,
    "fem": 17537,
    "dom": 6222,
    "Ġhatch": 7847,
    "operation": 13501,
    "tattoo": 21086,
    "Ġclubs": 25182,
    "fearfully": 25120,
    "Ġwedded": 16674,
    "Ġserved": 8246,
    "Ġchanges": 2288,
    "Ġfron": 14487,
    "odecim": 9831,
    "Ġbrimstone": 25689,
    "Ġbenevolent": 7772,
    "Ġinflu": 4908,
    "covering": 15333,
    "Ġimpending": 22384,
    "speptic": 23946,
    "loss": 22507,
    "Ġori": 8408,
    "Ġhair": 3314,
    "Ġbaggy": 24541,
    "Ġcar": 1418,
    "Ġwick": 2006,
    "Ġintentions": 10605,
    "Ġbridges": 24685,
    "Ġpublisher": 24065,
    "Ġwax": 10775,
    "Ġaround": 3607,
    "Ġconcoct": 19049,
    "/`)": 13660,
    "Ġcannibals": 10585,
    "telesc": 22816,
    "Ġcompetition": 14266,
    "Ġdavy": 25953,
    "Ġtraces": 7945,
    "borough": 20784,
    "ä": 165,
    "Ġdamning": 19141,
    "Ġbeginning": 4238,
    "ison": 3081,
    "arboard": 7266,
    "Ġfundamental": 3018,
    "arched": 10810,
    "achment": 5462,
    "Ġdown": 831,
    "Ġmeas": 1094,
    "recl": 15510,
    "Ġpasses": 2677,
    "Ġraging": 14305,
    "Ġbatch": 890,
    "Ġremote": 8919,
    "Ġtoll": 7851,
    "Ġabrupt": 9735,
    "Ġ[": 6967,
    "Ġinnoc": 3792,
    "Ġconstruction": 9385,
    "believe": 8303,
    "torm": 11530,
    "Ġsquall": 7043,
    "Ġderived": 8238,
    "Ġinfant": 11958,
    "Ġcrowded": 8011,
    "circumspect": 26088,
    "izzy": 3101,
    "mas": 5212,
    "Ġwiser": 14729,
    "rob": 5534,
    "Ġvalleys": 14918,
    "rosc": 17955,
    "ilogue": 21722,
    "plainly": 11088,
    "Ġenjoyments": 24018,
    "Ġbroadened": 23985,
    "rane": 17654,
    "Ġapprovingly": 26247,
    "Ġcherished": 10588,
    "sleepy": 24732,
    "Ġappeared": 2773,
    "sick": 13784,
    "Ġprocedure": 2806,
    "tub": 9143,
    "Ġdetaining": 22240,
    "Ġchink": 15931,
    "Ġboister": 12917,
    "Ġpictured": 16622,
    "Ġ93": 24594,
    "Ġserpents": 13076,
    "Ġroofs": 16985,
    "Ġintended": 5548,
    "Ġtechnique": 2308,
    "Ġunmannerly": 26519,
    "Ġdictating": 20152,
    "Ġscrolled": 22284,
    "Ġcarving": 14442,
    "Ġcivilly": 19604,
    "Ġmates": 4871,
    "ach": 429,
    "Ġchristendom": 16695,
    "Ġcontemplation": 11356,
    "oner": 6124,
    "preading": 18495,
    "Ġflaw": 23010,
    "ede": 21503,
    "erde": 21267,
    "ć": 200,
    "astic": 1869,
    "Ġdeceased": 15006,
    "Ġshrivelled": 19704,
    "fth": 20855,
    "Ġclaps": 22350,
    "Ġmassachusetts": 24022,
    "possessed": 9527,
    "Ġindestruct": 22958,
    "Ġassu": 21896,
    "Ġhartshorn": 26182,
    "piling": 15415,
    "too": 4505,
    "Ġluck": 4879,
    "popular": 26142,
    "Ġid": 1912,
    "Ġpattering": 18652,
    "iscuit": 10596,
    "Ġinsulated": 23678,
    "tried": 13794,
    "Ġexempl": 21829,
    "Ġxiv": 23409,
    "Ġexpressly": 16455,
    "ositions": 10281,
    "robustness": 26340,
    "Ġinconsist": 17936,
    "Ġcome": 1242,
    "Ġsermons": 20194,
    "Ġ41": 24080,
    "ishing": 1146,
    "\"": 6,
    "mysteries": 26053,
    "Ġpower": 1226,
    "pounds": 21024,
    "brilliancy": 26079,
    "Ġdead": 2171,
    "Ġmerited": 23731,
    "Ġphilistines": 26084,
    "Ġrind": 21971,
    "ilities": 6991,
    "embers": 21928,
    "expected": 5780,
    "days": 7688,
    "perpetually": 20511,
    "Ġensl": 19275,
    "attle": 4464,
    "Ġworkmen": 23049,
    "Ġveter": 15810,
    "Ġremarked": 3692,
    "Ġoffers": 12944,
    "Ġshutting": 14758,
    "alloyed": 22200,
    "Ġdecently": 22442,
    "ere": 6789,
    "Ġlantern": 7116,
    "Ġbaleful": 24986,
    "poster": 11055,
    "Ġgilder": 21611,
    "preserving": 25307,
    "Ġor": 437,
    "Ġtore": 6530,
    "hue": 20898,
    "Ġcigarette": 20655,
    "Ġclosing": 11770,
    "Ġservices": 11216,
    "Ġguernsey": 9350,
    "uted": 7593,
    "Ġswear": 6461,
    "Ġwarped": 25039,
    "Ġscent": 10282,
    "Ġeu": 6390,
    "Ġoat": 21321,
    "berish": 22718,
    "bers": 2569,
    "Ġsympathies": 14860,
    "read": 3276,
    "Ġsplitting": 4380,
    "fel": 8733,
    "Ġfeat": 10936,
    "people": 7677,
    "Ġsomehow": 4839,
    "Ġeyebrows": 23519,
    "ides": 2162,
    "zed": 8103,
    "Ġconfound": 23304,
    "ibid": 18841,
    "Ġsuggestive": 11296,
    "imitably": 21709,
    "behold": 12876,
    "on": 267,
    "measured": 19990,
    "Ġlevers": 18065,
    "Ġresemble": 15691,
    "Ġtar": 2563,
    "Ġunfulfilled": 26511,
    "Ġrattling": 11395,
    "inst": 4292,
    "bed": 3290,
    "§": 105,
    "comrade": 20623,
    "occup": 7752,
    "ade": 880,
    "moored": 22704,
    "imely": 13998,
    "tranqu": 14705,
    "Ġdear": 1535,
    "Ġsil": 1799,
    "Ġapt": 9155,
    "Ġislanders": 19502,
    "mons": 17601,
    "Ġjura": 14192,
    "Ġundulates": 24120,
    "Ġarrangement": 2656,
    "Ġinhale": 20299,
    "Ġheeded": 13403,
    "Ġcod": 8411,
    "granting": 23415,
    "ĠĊ": 12521,
    "disappointed": 25194,
    "Ġshine": 12764,
    "announced": 19760,
    "Ġforming": 7042,
    "ologies": 18794,
    "Ġmeals": 12708,
    "Ġchase": 3941,
    "Ġspaulding": 11730,
    "Ġwilliam": 3481,
    "Ġladen": 19178,
    "Ġheaths": 25974,
    "Ġliberality": 24380,
    "?_": 8069,
    "carries": 19528,
    "ively": 1300,
    "Ġpractice": 2949,
    "vain": 15447,
    "Ġconstantinople": 19838,
    "Ġparadigms": 3064,
    "6": 26,
    "Ġprejudices": 13469,
    "iff": 3902,
    "Ġsleepless": 14582,
    "semble": 1522,
    "Ġhumiliating": 22881,
    "Ġevil": 3803,
    "watches": 14946,
    "iliating": 12693,
    "Ġuse": 832,
    "Ġpull": 5152,
    "Ġaccorded": 24090,
    "onents": 8775,
    "Ġyounger": 5252,
    "fluke": 25207,
    "Ġloomed": 12300,
    "Ġ71": 24262,
    "lections": 4750,
    "Ġstupid": 7607,
    "Ġfring": 11126,
    "inqu": 6121,
    "purse": 20025,
    "Ġaccelerate": 23228,
    "Ġamusement": 8055,
    "Ġsounds": 5190,
    "Ġgaze": 6932,
    "harpo": 4804,
    "ergy": 2362,
    "Ġlabors": 23328,
    "oo": 7554,
    "Ġadro": 15866,
    "Ġthink": 986,
    "Ġstared": 8454,
    "Ġpatted": 16371,
    "Ġpreserve": 7530,
    "Ġilluminate": 17192,
    "Ġcivilised": 24247,
    "otle": 21796,
    "Ġleadenhall": 16628,
    "Ġbeds": 14551,
    "lutions": 20949,
    "Ġtragedies": 25244,
    "collins": 6916,
    "Ġcontrary": 5260,
    "Ġspirit": 3721,
    "ely": 623,
    "Ġadversity": 24306,
    "removed": 15516,
    "Ġoptimal": 1857,
    "Ġsag": 6514,
    "ount": 1110,
    "minded": 9037,
    "Ġmean": 743,
    "newsp": 23133,
    "Ġenter": 4025,
    "functions": 11256,
    "Ġblessed": 6931,
    "Ġtowing": 9193,
    "Ġdistraction": 22505,
    "Ġaudible": 19882,
    "Ġsporty": 19891,
    "Ġperpetually": 17071,
    "Ġbegrim": 23015,
    "sink": 11521,
    "Ġprobabilities": 4967,
    "empty": 23636,
    "distrust": 19571,
    "Ġdomains": 6608,
    "Ġsuspicious": 9479,
    "Ġscott": 22281,
    "Ġrestoration": 19030,
    "ember": 1957,
    "Ġphys": 5653,
    "Ġshowed": 4494,
    "raising": 21630,
    "Ġgree": 7595,
    "Ġhorses": 6385,
    "heat": 15497,
    "Ġacknowled": 6350,
    "Ġlowermost": 23243,
    "eds": 6674,
    "eh": 13710,
    "Ġdecrease": 4195,
    "Ġrestrained": 16375,
    "nson": 16086,
    "Ġwhit": 7177,
    "erranean": 9333,
    "ases": 1520,
    "Ġbounty": 26439,
    "Ġdanes": 25159,
    "inction": 6660,
    "ource": 5244,
    "Ġbust": 10165,
    "iop": 20918,
    "erman": 5108,
    "Ġnot": 413,
    "Ġshiny": 14106,
    "screaming": 20324,
    "sweeping": 24621,
    "Ġouthouse": 22314,
    "Ġoccupy": 14730,
    "ú": 187,
    "Ġunforeseen": 22052,
    "Ġdivineness": 25727,
    "Ġsuccessive": 10498,
    "speechless": 25397,
    "Ġtorment": 8673,
    "Ġanonym": 17898,
    "Ġimpress": 6862,
    "Ġpallid": 12298,
    "emberley": 4164,
    "complete": 15034,
    "Ġmenaced": 16292,
    "iantly": 13739,
    "Ġprocured": 8676,
    "Ġunquestion": 18248,
    "Ġwelcome": 5604,
    "Ġtoiled": 12640,
    "inite": 6001,
    "Ġtransplanted": 22439,
    "Ġauger": 21202,
    "15": 12429,
    "Ġappo": 8497,
    "Ġpauper": 26181,
    "Ġemptied": 24350,
    "Ġominous": 12423,
    "Ġinsc": 7586,
    "Ġsphy": 18311,
    "Ġgrapnels": 25554,
    "Ġbachelor": 7786,
    "jewel": 20345,
    "Ġdecision": 2674,
    "Ġendeavoured": 4917,
    "punishment": 15144,
    "Ġgidd": 25786,
    "escaped": 14230,
    "inal": 15480,
    "Ġork": 18284,
    "Ġblasphe": 17406,
    "Ġsearch": 2588,
    "Ġzigzag": 26274,
    "Ġinterpreter": 23214,
    "Ġforesee": 19127,
    "riend": 1186,
    "Ġribbed": 16804,
    "Ġoppose": 16519,
    "'re": 12427,
    "Ġnomine": 26458,
    "Ġstudents": 23213,
    "Ġhuman": 1319,
    "Ġaffability": 14386,
    "Ġclay": 7019,
    "Ġscratch": 25567,
    "Ġdisgracing": 26257,
    "Ġineff": 12632,
    "Ġhorrors": 10477,
    "harb": 9123,
    "tart": 21066,
    "Ġmerciless": 25249,
    "Ġhorsey": 24252,
    "orers": 14103,
    "Ġrecollected": 8310,
    "Ġyale": 21778,
    "Ġaverage": 3144,
    "Ġcoiling": 12903,
    "Ġconsc": 4271,
    "Ġwasting": 12726,
    "Ġrespectful": 16345,
    "Ġembod": 14412,
    "iquette": 26134,
    "batross": 9092,
    "furn": 10089,
    "starbuck": 6018,
    "Ġlock": 5927,
    "Ġfairly": 6325,
    "onel": 3096,
    "vanity": 24978,
    "sand": 21051,
    "Ġmimic": 3148,
    "Ġsettles": 22920,
    "Ġexcl": 3473,
    "approve": 19937,
    "lot": 3209,
    "Ġcomfits": 21851,
    "Ġseating": 18201,
    "edged": 15629,
    "®": 111,
    "Ġcopy": 10161,
    "Ġrivals": 20270,
    "Ġimpud": 18445,
    "Ġseek": 4506,
    "Ġendure": 5955,
    "Ġurging": 24508,
    "customary": 25897,
    "Ġmiseries": 10344,
    "stee": 21649,
    "Ġgn": 8816,
    "Ġuncont": 14116,
    "Ġpreliminary": 10054,
    "Ġlandsc": 11145,
    "Ġlaughs": 24118,
    "Ġcomparison": 7099,
    "Ġgaieties": 24198,
    "morland": 24155,
    "Ġpreserved": 9261,
    "Ġtep": 21160,
    "Ġling": 7377,
    "dischar": 19153,
    "Ġfold": 5531,
    "ĠâĢľâĢĻ": 22254,
    "Ġdeveloped": 16340,
    "Ġclasping": 20209,
    "have": 2059,
    "Ġcakes": 13884,
    "ativeness": 15520,
    "Ġsage": 17753,
    "natural": 2189,
    "ink": 756,
    "Ġgrey": 4510,
    "Ġcampaign": 20660,
    "impress": 18052,
    "Ġcollection": 8221,
    "footsteps": 25202,
    "enhall": 13850,
    "Ġreceptive": 1562,
    "Ġbake": 21380,
    "composed": 14739,
    "Ġmainten": 16112,
    "Ġthoughtfulness": 18773,
    "Ġstript": 23692,
    "Ġarmitage": 23583,
    "handle": 11189,
    "Ġdawn": 6816,
    "urs": 6989,
    "Ġprobed": 18734,
    "Ġant": 4343,
    "conclusions": 25675,
    "Ġproduct": 3531,
    "drew": 7334,
    "Ġsayest": 22773,
    "asets": 2312,
    "Ġtraditions": 11443,
    "Ġmortifying": 13244,
    "Ġextracts": 9360,
    "Ġlivery": 15998,
    "Ġterror": 5123,
    "loom": 18536,
    "Ġsagacious": 14970,
    "Ġarticles": 7108,
    "ret": 1473,
    "heard": 5010,
    "mun": 20961,
    "Ġconstruct": 23343,
    "Ġcrosswise": 18886,
    "Ġflushed": 13025,
    "Ġpartake": 18671,
    "astron": 22168,
    "Ġbone": 4693,
    "Ġworse": 4717,
    "arius": 14248,
    "Ġincommunicable": 26613,
    "Ġuseless": 7037,
    "Ġportrait": 10659,
    "Ġyoun": 1406,
    "Ġ122": 24470,
    "Ġoftentimes": 20155,
    "Ġoutput": 928,
    "erc": 5904,
    "Ġcountrymen": 23597,
    "saw": 5893,
    "bred": 11469,
    "judging": 24204,
    "Ġprofounder": 23571,
    "tallied": 21088,
    "Ġpersu": 3560,
    "Ġcheerless": 16694,
    "Ġthews": 21276,
    "pidation": 18895,
    "Ġspine": 7407,
    "prove": 11146,
    "Ġclasped": 17206,
    "tormented": 13645,
    "steam": 23960,
    "grave": 16093,
    "Ġthistle": 21915,
    "Ġlive": 2732,
    "stamp": 21652,
    "Ġderivative": 3003,
    "Ġbefall": 8827,
    "Ġvowed": 14084,
    "Ġbeer": 10217,
    "Ġindelicacy": 25698,
    "Ġdisturb": 7107,
    "Ġpetulance": 24230,
    "thinks": 16641,
    "Ġdaggoo": 5441,
    "Ġinglorious": 24427,
    "Ġdirecting": 16300,
    "Ġgeneva": 5450,
    "ĠĠĠĠĠĠĠĠĠĠĠĠĠĠĠĠĠĠĠĠĠĠĠĠĠĠĠĠĠĠĠĠĠĠĠĠĠĠ": 16525,
    "Ġeucl": 24712,
    "Ġices": 21153,
    "fier": 9593,
    "Ġirr": 10419,
    "insanity": 23068,
    "Ġfirst": 937,
    "Ġlady": 1583,
    "Ġintu": 12761,
    "ougher": 18280,
    "Ġundone": 24119,
    "solitude": 23298,
    "Ġanything": 2186,
    "polar": 24586,
    "Ġtoes": 10828,
    "lotte": 3331,
    "Ġmodified": 14169,
    "Ġmalicious": 10555,
    "Ġgrow": 2858,
    "Ġheroes": 10574,
    "inclined": 10637,
    "helmsman": 24290,
    "reinforcement": 7826,
    "darkness": 9511,
    "zwilliam": 5075,
    "Ġoaths": 13524,
    "ants": 1389,
    "Ġforegoing": 23451,
    "rossing": 18642,
    "jumping": 20244,
    "Ġwithal": 18109,
    "Ġperv": 15989,
    "Ġwriting": 4666,
    "harm": 13735,
    "Ġke": 1158,
    "bald": 16448,
    "Ġevidently": 6759,
    "ribution": 14306,
    "pos": 15410,
    "mechanical": 25581,
    "Ġautomation": 13264,
    "Ġgifts": 21610,
    "ension": 6569,
    "Ġreturning": 5325,
    "egyptians": 25900,
    "shown": 22456,
    "Ġunravel": 26216,
    "Ġtand": 21159,
    "fatig": 17089,
    "Ġobsolete": 26560,
    "died": 10691,
    "iline": 21719,
    "cring": 20810,
    "sius": 13788,
    "Ġmills": 21310,
    "Ġbanquet": 15239,
    "Ġcrisis": 13126,
    "Ġspear": 9313,
    "Ġway": 1084,
    "Ġprotection": 9460,
    "Ġtrain": 515,
    "Ġexcited": 5580,
    "Ġslackened": 15125,
    "Ġinto": 649,
    "Ġsom": 1275,
    "Ġcaliforn": 14430,
    "in": 262,
    "blister": 24129,
    "Ġarrowy": 25472,
    "Ġalpine": 18105,
    "Ġeven": 1031,
    "Ġunwell": 22016,
    "Ġstanding": 3002,
    "significant": 25086,
    "Ġsyn": 15911,
    "living": 7133,
    "Ġreynolds": 10207,
    "ciousness": 20816,
    "Ġrep": 1938,
    "Ġfav": 1754,
    "Ġsliding": 9363,
    "Ġopened": 3510,
    "Ġeasy": 3451,
    "Ġsundry": 20074,
    "Ġdespaired": 14668,
    "Ġmasterless": 23995,
    "Ġnecessity": 7296,
    "commodore": 20624,
    "Ġbulge": 23858,
    "Ġridge": 14818,
    "pillar": 5619,
    "Ġprivileged": 20113,
    "Ġeager": 3567,
    "Ġconfide": 13098,
    "drawn": 9911,
    "Ġrob": 1283,
    "Ġkilling": 13332,
    "Ġphenomenon": 17917,
    "Ġdelirium": 10403,
    "iant": 5427,
    "Ġloftiest": 16874,
    "Ġblending": 14399,
    "Ġstructural": 2795,
    "bread": 10682,
    "Ġbottomless": 12105,
    "atus": 21259,
    "delivered": 24102,
    "Ġtis": 15465,
    "skill": 24490,
    "Ġwerter": 15238,
    "Ġexertion": 8053,
    "Ġprophetic": 20020,
    "Ġnorthumbria": 24174,
    "Ġunwarrant": 20133,
    "Ġgnashed": 20132,
    "Ġginger": 9210,
    "Ġsmote": 18575,
    "Ġpositives": 4315,
    "Ġprofundities": 20452,
    "Ġnegro": 6447,
    "Ġbeckoning": 20500,
    "undant": 14786,
    "Ġreal": 1632,
    "Ġdoubly": 16386,
    "Ġthickets": 24023,
    "Ġ37": 24078,
    "Ġvor": 15805,
    "Ġorder": 1687,
    "shed": 8094,
    "Åĵuv": 15181,
    "Ġfires": 16472,
    "vius": 23544,
    "Ġaband": 6561,
    "Ġwitness": 4620,
    "rudently": 16710,
    "Ġdownward": 10329,
    "icing": 9200,
    "Ġfret": 10805,
    "Ġtropic": 17065,
    "ineffectual": 26506,
    "beauty": 20104,
    "Ġexceeding": 1578,
    "Ġlift": 8809,
    "Ġblemish": 19680,
    "acquaintance": 6938,
    "Ġdecreasing": 2443,
    "Ġunchanged": 22030,
    "goodbye": 12055,
    "Ġpauses": 14814,
    "Ġsofas": 26226,
    "Ġoptimizers": 18628,
    "Ġthrilling": 19749,
    "confidence": 16808,
    "Ġlike": 668,
    "Ġruddy": 17125,
    "Ġbehooves": 20732,
    "Ġmeta": 3047,
    "fts": 18697,
    "Ġruthless": 15284,
    "Ġsuavely": 26525,
    "Ġpermanently": 25476,
    "Ġacknowledgment": 16957,
    "bolt": 25139,
    "Ġexist": 9231,
    "prise": 7726,
    "asting": 12804,
    "Ġknocked": 9499,
    "Ġhospitable": 17060,
    "Ġturning": 3327,
    "attendants": 25498,
    "Í": 142,
    "Ġagreed": 7028,
    "spe": 3557,
    "tan": 4740,
    "flaming": 23970,
    "Ġcalamity": 17348,
    "oward": 6020,
    "expectation": 14855,
    "eler": 1570,
    "Ġdri": 2364,
    "ency": 3866,
    "Ġscandal": 9081,
    "agers": 5633,
    "Ġambiguous": 20164,
    "Ġhollowly": 24529,
    "Ġspar": 10921,
    "den": 939,
    "Ġwrite": 3818,
    "captain": 4170,
    "roy": 7853,
    "feeling": 6616,
    "remembrance": 25705,
    "Ġvide": 10248,
    "uberance": 25918,
    "ateful": 5926,
    "for": 954,
    "inspect": 11558,
    "Ġdurst": 20351,
    "crossing": 19411,
    "Ġninety": 13601,
    "alogue": 25162,
    "Ġexter": 7397,
    "Ġmoods": 14950,
    "Ġhast": 3155,
    "Ġunbounded": 18259,
    "Ġ62": 24368,
    "omas": 12669,
    "Ġar": 480,
    "club": 26382,
    "ium": 4863,
    "Ġmig": 13856,
    "Ġuneasy": 8661,
    "ich": 470,
    "peace": 13047,
    "interrupted": 11417,
    "tie": 21067,
    "Ġpianoforte": 15272,
    "illa": 12791,
    "Ġcleared": 6074,
    "Ġbroken": 3447,
    "escript": 18472,
    "Ġgrotes": 19564,
    "Ġleeward": 6210,
    "aug": 1213,
    "Ġante": 17897,
    "critters": 14783,
    "Ġkeys": 11996,
    "opotam": 22479,
    "Ġ35": 24077,
    "Ġproportional": 2525,
    "Ġwaggish": 25437,
    "holloa": 19464,
    "feren": 766,
    "fr": 4803,
    "Ġbundle": 13426,
    "Ġvers": 7564,
    "Ġviews": 7290,
    "mercenary": 26317,
    "Ġreluct": 14371,
    "mad": 5280,
    "ural": 503,
    "Ġquickly": 4236,
    "iocr": 20922,
    "Ġyoungster": 23178,
    "Ġabstracted": 17182,
    "_âĢĶâĢĿ": 20762,
    "Ġascending": 14853,
    "Ġcombat": 16181,
    "stretch": 13981,
    "knives": 14912,
    "Ġupward": 9720,
    "Ġerr": 1322,
    "Ġunderstanding": 1834,
    "Ġmocking": 24003,
    "smeer": 26149,
    "Ġpreparation": 13529,
    "Ġwronged": 24250,
    "Ġencamped": 22802,
    "entric": 11618,
    "Ġfiver": 22777,
    "Ġrestricted": 19031,
    "Ġirrespective": 23376,
    "button": 10965,
    "blot": 20782,
    "greeting": 24557,
    "constellation": 24610,
    "ment": 690,
    "Ġsnake": 12060,
    "article": 22392,
    "offic": 7466,
    "cont": 2919,
    "reck": 9636,
    "(-": 2984,
    "Ġdeceived": 6544,
    "huzza": 20912,
    "according": 12027,
    "fee": 12878,
    "Ġnarrations": 24355,
    "Ġmixed": 6974,
    "reeling": 21243,
    "Ġresults": 7308,
    "_).": 5886,
    "mill": 13754,
    "Ġfighting": 12196,
    "boots": 11125,
    "Ġmissing": 6175,
    "roqu": 21531,
    "Ġdolphins": 20394,
    "Ġpersonality": 16477,
    "bl": 4135,
    "Ġpinioned": 21480,
    "ieved": 3232,
    "Ġnin": 10185,
    "rowsers": 8694,
    "Ġdispatched": 23882,
    "Ġtuesday": 9626,
    "repent": 15513,
    "Ġdev": 887,
    "Ġprocesses": 3629,
    "pond": 21012,
    "pencil": 18828,
    "security": 26208,
    "Ġtwig": 11848,
    "ager": 6546,
    "Ġbat": 10794,
    "Ġconsid": 1814,
    "ece": 17531,
    "amore": 21842,
    "Ġsmack": 9299,
    "_.âĢĿ": 5885,
    "Ġrag": 18644,
    "mental": 16047,
    "Ġspr": 4019,
    "fully": 2204,
    "Ġballs": 9014,
    "Ġpalsy": 25781,
    "Ġcontemptible": 16953,
    "Ġcomfor": 14054,
    "Ġassembled": 9235,
    "Ġbulky": 13228,
    "remediable": 26296,
    "Ġhush": 13211,
    "Ġtist": 21161,
    "Ġconsidered": 4610,
    "odox": 21812,
    "table": 5795,
    "Ġspecks": 14307,
    "Ġanticipation": 17058,
    "Ġsideboard": 10383,
    "constantly": 24609,
    "Ġrigid": 16716,
    "Ġble": 5223,
    "pigs": 17140,
    "oration": 2212,
    "conditionally": 24838,
    "Ġclamped": 18427,
    "Ġheightens": 24156,
    "Ġmason": 10155,
    "Ġrefresh": 10343,
    "Ġalph": 9694,
    "Ġindividuals": 24549,
    "Ġglacier": 11433,
    "Ġsnug": 8279,
    "relation": 19447,
    "ver": 331,
    "Ġbrew": 23345,
    "à": 161,
    "Ġineffable": 17331,
    "Ġexamining": 8005,
    "Ġhackluyt": 25658,
    "Ġfiftieth": 24706,
    "threshold": 21986,
    "respectively": 24703,
    "Ġmonosy": 18852,
    "Ġunable": 4951,
    "Ġtarshish": 12028,
    "Ġgravel": 14102,
    "Ġstructured": 2976,
    "squall": 13522,
    "Ġchairs": 12824,
    "stayed": 25293,
    "Ġlikeness": 11178,
    "proceeded": 25193,
    "Ġencourages": 2062,
    "Ġepisode": 26348,
    "Ġholmes": 1309,
    "Ġattached": 5392,
    "Ġresemblance": 7972,
    "bolts": 11420,
    "Ġpunctually": 17138,
    "Ġinte": 2066,
    "law": 6115,
    "Ġbam": 15564,
    "Ġofficers": 4423,
    "Ġsemblance": 20733,
    "slipped": 25532,
    "howling": 18992,
    "Ġtim": 4576,
    "ateg": 1363,
    "troubled": 17112,
    "listener": 24934,
    "Ġperfections": 23610,
    "Ġarchitects": 18738,
    "Ġsymptoms": 8704,
    "rebellum": 26167,
    "Ġbanks": 6814,
    "Ġ20": 8613,
    "Ġ131": 24785,
    "Ġexcept": 3313,
    "allow": 5104,
    "etieth": 21581,
    "Ġowen": 15093,
    "rr": 17651,
    "Ġcobweb": 22584,
    "Ġincisive": 18571,
    "Ġmisery": 3811,
    "Ġtren": 17722,
    "Ġ1846": 26086,
    "adow": 18087,
    "Ġgardener": 19136,
    "Ġantip": 24180,
    "arrival": 15586,
    "Ġcroquet": 9960,
    "Ġbranch": 8331,
    "Ġfacilitate": 26100,
    "Ġviolin": 16428,
    "Ġpulverize": 23394,
    "Ġcl": 554,
    "Ġstabilizing": 3653,
    "Ġpour": 13914,
    "Ġdestructive": 23491,
    "Ġflora": 11416,
    "sensibility": 25027,
    "Ġeducated": 16785,
    "Ġconsume": 12957,
    "smart": 23907,
    "mutually": 26138,
    "ired": 1444,
    "Ġbri": 21376,
    "Ġparac": 12793,
    "myster": 16263,
    ".*": 7331,
    "Ġreverence": 12058,
    "._)": 10478,
    "inno": 10755,
    "Ġsensitivity": 3076,
    "Ġfumbled": 17882,
    "stately": 18022,
    "Ġjuggler": 26368,
    "Ġunallied": 22031,
    "agation": 1197,
    "umblings": 23930,
    "Ġencourag": 1391,
    "Ġtrod": 15026,
    "metallic": 19881,
    "importance": 9987,
    "Ġpromised": 5181,
    "Ġremonstrate": 22796,
    "Ġparched": 11725,
    "conscientious": 19627,
    "slow": 7810,
    "Ġcir": 21339,
    "Ġlikelihood": 16500,
    "Ġinwards": 15619,
    "Ġclaimed": 14202,
    "Ġtremble": 6906,
    "Ġfate": 4752,
    "oors": 17621,
    "resnet": 4065,
    "Ġquiet": 3262,
    "Ġbloodthirst": 23803,
    "raved": 18013,
    "Ġstare": 10863,
    "Ġexclaim": 11220,
    "Ġwise": 6811,
    "warmth": 20053,
    "ulation": 5458,
    "throt": 25662,
    "Ġmayhap": 18710,
    "Ġcollecting": 12285,
    "Ġwoman": 2386,
    "flu": 9117,
    "advantage": 8658,
    "Ġissu": 6253,
    "Ġhug": 6979,
    "Ġcontext": 1707,
    "Ġsqualidness": 25844,
    "Ġattentions": 5877,
    "Ġisles": 8459,
    "Ġalgorithm": 775,
    "Ġemaciated": 20637,
    "Ġsharpen": 13569,
    "Ġforge": 8456,
    "hen": 3515,
    "captains": 12122,
    "solely": 19817,
    "ospit": 22263,
    "Ġblameless": 19860,
    "Ġperch": 10296,
    "Ġjustinian": 22967,
    "Ġshudder": 9050,
    "hatch": 15363,
    "Ġvigorously": 11298,
    "Ġerect": 6143,
    "folio": 10544,
    "Ġnorm": 763,
    "iced": 3897,
    "Ġtypewriter": 19099,
    "Ġmistaking": 23716,
    "Ġastonishment": 4792,
    "Ġfill": 5701,
    "oran": 8787,
    "Õ": 150,
    "eternal": 17983,
    "Ġexcel": 3564,
    "*": 14,
    "loud": 11500,
    "ucket": 2483,
    "Ġveneration": 25048,
    "Ġabutted": 22275,
    "although": 8804,
    "Ġvolcano": 24149,
    "Ġexpand": 9306,
    "Ġandromeda": 21505,
    "Ġembeddings": 2175,
    "assertion": 22311,
    "Ġflail": 23007,
    "Ġjo": 2607,
    "ĠĠĠĠĠĠĠĠĠĠĠĠĠĠĠĠĠ": 22949,
    "Ġdiscovery": 5412,
    "Ġbasis": 16961,
    "Ġothers": 2581,
    "Ġcronies": 23444,
    "Ġtotally": 9470,
    "mond": 20972,
    "founded": 16713,
    "landsmen": 25063,
    "worn": 13806,
    "ize": 771,
    "Ġhitting": 21485,
    "razor": 21635,
    "historical": 20464,
    "Ġpri": 5813,
    "Ġencomp": 12961,
    "oder": 2459,
    "hee": 10759,
    "Ġscr": 11758,
    "Ġdisgra": 18550,
    "Ġcompl": 3757,
    "Ġrepe": 3281,
    "Ġhurrying": 11994,
    "Ġpleas": 1908,
    "Ġaltering": 18102,
    "Ġhaz": 12753,
    "beautiful": 10646,
    "Ġintimacy": 8700,
    "Ġcomplacency": 19448,
    "Ġkneeling": 12141,
    "icted": 5936,
    "Ġmaids": 19692,
    "Ġtol": 6675,
    "Ġgoverned": 23573,
    "Ġwickedness": 9525,
    "Ġtempt": 5565,
    "Ġawoke": 7286,
    "Ġreservoir": 20650,
    "Ġinfluenced": 19633,
    "Ġconsulting": 13429,
    "Ġgliding": 8560,
    "71": 20755,
    "ackled": 22420,
    "Ġcompliment": 5673,
    "comfortableness": 24528,
    "Ġmannish": 26239,
    "Ġenjoined": 18191,
    "Ġinputs": 844,
    "Ġspoil": 17007,
    "Ġtyp": 1132,
    "Ġcovered": 5171,
    "Ġproductions": 22946,
    "boys": 13359,
    "Ġval": 956,
    "Ġdented": 17895,
    "uced": 13800,
    "inquire": 16932,
    "lucas": 15150,
    "Ġmap": 2391,
    "hither": 11492,
    "property": 20000,
    "Ġpiece": 5367,
    "Ġcurtain": 14411,
    "answered": 10271,
    "prison": 14662,
    "Ġmisfortune": 5569,
    "coast": 10447,
    "Ġyawning": 12299,
    "Ġrelev": 1717,
    "itar": 15545,
    "Ġwavering": 23280,
    "Ġdegraded": 19228,
    "longer": 8612,
    "eon": 8729,
    "Ġtail": 3095,
    "Ġunlim": 18253,
    "Ġsingular": 4421,
    "imaux": 21710,
    "found": 4208,
    "Ġ1991": 3020,
    "Ġtranslations": 12051,
    "iloquent": 21723,
    "Ġresource": 10992,
    "imprudent": 14651,
    "Ġbennets": 9805,
    "Ġclimes": 12839,
    "Ġstroke": 6936,
    "warp": 17707,
    "unreasonable": 18162,
    "Ġprecisely": 6466,
    "Ġresnet": 5473,
    "anely": 17837,
    "itancy": 21331,
    "Ġhab": 4213,
    "Ġmariner": 7247,
    "iards": 17575,
    "Ġspent": 3959,
    "beef": 18521,
    "hereabouts": 23608,
    "Ġpervading": 20612,
    "Ġnaturalists": 10361,
    "Ġhalyards": 21491,
    "agged": 9236,
    "Ġsauce": 15888,
    "Ġabsorb": 25116,
    "Ġsnorting": 23741,
    "aks": 8506,
    "Ġknight": 9726,
    "Ġportentous": 15228,
    "Ġ32": 19489,
    "Ġaccompaniments": 24485,
    "Ġeddying": 16435,
    "Ġflourish": 17160,
    "squeezing": 25915,
    "sharks": 14240,
    "Ġsinusoid": 4779,
    "Ġagency": 11803,
    "Ġorganically": 3016,
    "Ġsecre": 5493,
    "disciple": 16778,
    "Ġwelcomed": 9481,
    "Ġduplicity": 25334,
    "Ġency": 21932,
    "Ġmund": 21316,
    "Ġevening": 2651,
    "Ġruefully": 17300,
    "Ġpersonally": 8599,
    "urrection": 12408,
    "ructure": 753,
    "inhabited": 13620,
    "Ġswims": 12118,
    "Ġattempt": 3485,
    "fooled": 24422,
    "zing": 7820,
    "Ġlabel": 14517,
    "Ġretention": 23071,
    "voyage": 7785,
    "Ġgaiety": 16749,
    "Ġformula": 2863,
    "wilful": 25090,
    "Ġmary": 3840,
    "Ġjesty": 18406,
    "Ġmadame": 13150,
    "Ġamidst": 9493,
    "Ġdescription": 7429,
    "Ġirons": 7696,
    "point": 6062,
    "quake": 11679,
    "multiple": 15106,
    "Ġanxiously": 8289,
    "Ġconclusions": 10551,
    "beloved": 19461,
    "Ġostent": 13584,
    "Ġtint": 13817,
    "Ġstem": 15720,
    "Ġsafety": 6339,
    "glances": 23854,
    "Ġmarsh": 9820,
    "tu": 12510,
    "Ġjealous": 9468,
    "Ġ111": 24439,
    "Ġpersistence": 3385,
    "Ġreser": 5170,
    "ier": 1139,
    "Ġby": 383,
    "prep": 9757,
    "Ġharb": 7370,
    "Ġtant": 12523,
    "Ġwhales": 1828,
    "Ġbrim": 12974,
    "ieving": 7031,
    "Ġplanks": 5563,
    "Ġprogram": 12992,
    "qualities": 25047,
    "Ġold": 1056,
    "Ġstur": 15718,
    "Ġfranc": 16351,
    "Ġinclement": 22553,
    "acquired": 24299,
    "Ġrepeatedly": 9020,
    "þ": 191,
    "Ġgesture": 11399,
    "Ġhabitations": 24792,
    "ellative": 21944,
    "Ġmitig": 1335,
    "Ġremnants": 22795,
    "whispered": 20034,
    "Ġembracing": 14979,
    "Ġdrowned": 9551,
    "corrob": 24488,
    "Ġmosses": 20163,
    "twelve": 14622,
    "cooper": 19190,
    "Ġequality": 16358,
    "ribs": 23366,
    "ls": 1291,
    "te": 995,
    "Ġxiii": 25594,
    "vels": 5432,
    "Ġbathe": 25446,
    "arpening": 21421,
    "Ġdeserving": 14752,
    "Ġexposed": 8522,
    "Ġfettered": 24571,
    "Ġgreeting": 18965,
    "Ġaffirmative": 15221,
    "Ġfeel": 1262,
    "Ġexplaining": 15959,
    "Ġkings": 7197,
    "grim": 19108,
    "Ġpolice": 4673,
    "Ġcup": 5697,
    "Ġbiggest": 24569,
    "binder": 17499,
    "Ġdevelop": 1648,
    "Ġflung": 8562,
    "Ġinclination": 6623,
    "Ġwrinkles": 8570,
    "og": 877,
    "Ġmonsters": 11073,
    "Ġcyp": 21343,
    "Ġcongen": 10872,
    "Ġcommunic": 5751,
    "Ġchamber": 6213,
    "Ġserves": 4667,
    "Ġhilariously": 25453,
    "Ġpalmy": 19499,
    "Ġleathern": 15049,
    "Ġpraying": 19555,
    "Ġnewcom": 16221,
    "âĢľâĢĻ": 10219,
    "Ġarchly": 22778,
    "Ġadmitting": 19184,
    "meas": 7434,
    "ace": 718,
    "Ġtransportation": 13642,
    "expectant": 24278,
    "Ġwindows": 4972,
    "specific": 10495,
    "Ġlord": 2969,
    "chel": 11206,
    "Ġwhiskers": 10490,
    "Ġjewel": 9940,
    "Ġcountenance": 3965,
    "Ġlivid": 14988,
    "Ġimprudence": 10295,
    "Ġsmacking": 20165,
    "pher": 11511,
    "Ġassailed": 23176,
    "Ġaffl": 14385,
    "furnished": 20240,
    "inter": 2951,
    "wishing": 21127,
    "inhab": 10756,
    "Ġgurglings": 26467,
    "affect": 13212,
    "canst": 22961,
    "thereby": 14446,
    "Ġfluffy": 19364,
    "Ġdeception": 18142,
    "mist": 5686,
    "echo": 15347,
    "Ġpistol": 7846,
    "Ġrabb": 4157,
    "Ġlofty": 6217,
    "andromeda": 21867,
    "oh": 1575,
    "Ġlunacy": 20028,
    "congenial": 25401,
    "ken": 2798,
    "bad": 12435,
    "whal": 10939,
    "acup": 14277,
    "Ġlid": 6983,
    "ria": 15793,
    "Ġpolished": 11181,
    "Ġtun": 5998,
    "Ġawakened": 10451,
    "Ġimaginary": 11185,
    "compar": 14358,
    "Ġthrough": 603,
    "Ġregression": 4406,
    "oregressive": 3424,
    "Ġspark": 6689,
    "Ġdilatory": 24708,
    "Ġfavourable": 7958,
    "Ġrespective": 16344,
    "Ġdisregarded": 22530,
    "Ġejaculation": 20253,
    "Ġbeloved": 5572,
    "drifting": 19825,
    "Ġpil": 5015,
    "Ġevince": 24296,
    "certain": 3672,
    "Ġprudent": 9185,
    "Ġbolivia": 24670,
    "stalk": 21648,
    "vig": 15446,
    "urday": 13995,
    "atever": 3085,
    "Ġcasts": 19426,
    "Ġjoker": 22298,
    "Ġdocuments": 10020,
    "near": 5843,
    "Ġpickle": 16722,
    "engine": 18927,
    "Ġbringing": 5869,
    "ioneer": 15630,
    "favouring": 24765,
    "oup": 2015,
    "lingly": 9772,
    "lies": 15380,
    "Ġsne": 6372,
    "Ġsalutation": 12396,
    "Ġxxxi": 24970,
    "touch": 8391,
    "Ġlikes": 9407,
    "Ġstern": 4218,
    "Ġsocieties": 20182,
    "p": 84,
    "Ġreeds": 15694,
    "//": 11463,
    "ush": 3628,
    "Ġstranded": 9774,
    "Ġsorrows": 13354,
    "hard": 4688,
    "gratification": 24351,
    "Ġindel": 13002,
    "bent": 15310,
    "Ġlash": 8438,
    "venty": 6427,
    "Ġsilvery": 13094,
    "94": 4802,
    "antucket": 2642,
    "rifice": 12502,
    "consternation": 16912,
    "Ġsam": 7570,
    "Ġannihil": 10172,
    "'s": 2469,
    "presum": 12867,
    "Ġproducing": 11897,
    "Ġbred": 9169,
    "Ġclams": 19989,
    "avenue": 25061,
    "Ġperish": 8874,
    "Ġrug": 16156,
    "Ġrand": 1581,
    "Ġsaw": 1348,
    "trampled": 26335,
    "igen": 4828,
    "Ġallows": 3235,
    "shudder": 26248,
    "Ġromantic": 8030,
    "ma": 1153,
    "precisely": 6917,
    "Ġentail": 9792,
    "pips": 21019,
    "eland": 11619,
    "fearing": 18530,
    "oftentimes": 19421,
    "Ġjollity": 25569,
    "Ġbusily": 9384,
    "Ġscornful": 25000,
    "odings": 4396,
    "_.,": 14562,
    "Ġbackwater": 18631,
    "Ġequin": 14495,
    "Ġtree": 5284,
    "senses": 25026,
    "Ġroman": 8322,
    "violently": 23545,
    "omnipotent": 25966,
    "ole": 9613,
    "Ġbureau": 11589,
    "screen": 22996,
    "outon": 12801,
    "Ġpondering": 17005,
    "Ġnotes": 7189,
    "Ġhaste": 9003,
    "Ġhay": 11604,
    "questioning": 16850,
    "at": 268,
    "discoloured": 23502,
    "Ġanew": 11430,
    "ryder": 18641,
    "Ġneared": 14073,
    "Ġoperations": 2300,
    "Ġentered": 2843,
    "arabian": 26445,
    "Ġmacro": 25941,
    "Ġpap": 8796,
    "Ġnar": 7375,
    "alle": 1294,
    "Ġchain": 1846,
    "ahead": 12433,
    "Ġtongues": 14862,
    "Ġscreams": 24606,
    "Ġimpropri": 14215,
    "obst": 11930,
    "Ġaudacious": 13460,
    "Ġsuperglue": 23459,
    "Ġdeaf": 12719,
    "towing": 17690,
    "iously": 2675,
    "resp": 13839,
    "walk": 5523,
    "izure": 21833,
    "beat": 10985,
    "foam": 24421,
    "Ġhousemaid": 14463,
    "Ġeventually": 8616,
    "Ġfootpaths": 26320,
    "Ġphysiognomical": 25614,
    "idation": 5023,
    "fate": 17539,
    "unch": 14058,
    "Ġchowders": 18387,
    "ded": 2422,
    "Ġunshored": 25816,
    "hering": 12812,
    "nants": 17614,
    "lemagne": 26438,
    "Ġatmosphere": 10896,
    "Ġsaxe": 13628,
    "remote": 23188,
    "Ġcharles": 11955,
    "Ġaccess": 9746,
    "Ġdomestic": 6914,
    "Ġprofane": 13152,
    "Ġuntrodden": 23525,
    "mortar": 25411,
    "Ġchurning": 15936,
    "Ġforeshad": 23454,
    "Ġjeroboam": 10598,
    "Ġjapan": 7640,
    "Ġhelper": 24026,
    "Ġdoors": 6418,
    "Ġpuzzling": 14897,
    "rimshander": 20656,
    "Ġoccasion": 3247,
    "Ġchamp": 18382,
    "Ġobviously": 16810,
    "writhed": 26082,
    "Ġsteering": 10385,
    "Ġundulated": 19517,
    "Ġreturned": 2890,
    "Ġsket": 18729,
    "ishop": 9741,
    "Ġsells": 21222,
    "cele": 21623,
    "Ġdefection": 22942,
    "Ġsheaves": 22157,
    "suspicions": 25393,
    "Ġsolid": 6443,
    "Ġjew": 9467,
    "bat": 8071,
    "Ġsuffers": 2977,
    "anche": 10787,
    "owal": 13993,
    "given": 8376,
    "Ġleviathanic": 12079,
    "Ġimminent": 11243,
    "agues": 8160,
    "Ġbed": 2142,
    "crucible": 24846,
    "Ġbarrier": 16569,
    "contempl": 13189,
    "favourable": 12262,
    "Ġperuvian": 18453,
    "ĠĠĠĠĠĠĠĠĠĠĠĠĠĠĠĠĠĠĠĠĠĠĠĠĠĠĠ": 14885,
    "quet": 6835,
    "grate": 23413,
    "quest": 4536,
    "Ġmummy": 25771,
    "afraid": 10439,
    "Ġjoyfully": 19346,
    "Ġremarks": 7475,
    "ame": 645,
    "flinging": 20867,
    "Ġsmite": 22557,
    "Ġtaffrail": 15476,
    "Ġtyro": 16994,
    "Ġloosened": 26004,
    "Ġdolph": 12379,
    "aways": 15309,
    "Ġreaches": 18032,
    "Ġshifted": 14107,
    "Ġpr": 1596,
    "mag": 6508,
    "iqu": 7802,
    "Ġhospitality": 13513,
    "Ġseems": 2481,
    "unerative": 21895,
    "Ġsuppressing": 23001,
    "Ġincome": 7916,
    "Ġcarted": 21347,
    "Ġdisgu": 8205,
    "Ġbang": 17855,
    "floor": 14935,
    "enet": 10150,
    "bering": 18683,
    "Ġvestige": 20063,
    "Ġtrotting": 19976,
    "Ġprophesied": 26064,
    "Ġcannib": 6035,
    "Ġroot": 2649,
    "ientific": 6547,
    "elastic": 17981,
    "Ġtooth": 9192,
    "Ġintrepid": 11704,
    "Ġder": 1497,
    "Ġstack": 21735,
    "Ġdup": 21430,
    "Ġmarvels": 11083,
    "Ġtum": 5692,
    "Ġplat": 8520,
    "Ġchrysalis": 26540,
    "Ġsub": 951,
    "Ġspite": 4149,
    "hend": 13251,
    "Ġhastily": 5763,
    "savage": 15074,
    "Ġcoron": 4462,
    "itory": 12565,
    "ased": 1268,
    "recognised": 15261,
    "door": 6193,
    "Ġknave": 11271,
    "separated": 20159,
    "uated": 10129,
    "Ġa": 263,
    "Ġtwins": 16119,
    "mccarthy": 15394,
    "Ġrefers": 1564,
    "sperm": 5203,
    "cork": 20795,
    "fa": 7336,
    "Ġstricken": 9775,
    "ivers": 1983,
    "Ġrow": 5309,
    "Ġointment": 21324,
    "coff": 9108,
    "sisters": 13376,
    "Ġtempest": 8212,
    "Ġepic": 15029,
    "Ġviolence": 5962,
    "Ġattract": 11830,
    "Ġmasters": 11574,
    "Ġsly": 9632,
    "¤": 102,
    "Ġimport": 1049,
    "Ġdarted": 4756,
    "Ġregretted": 13400,
    "Ġperennial": 22694,
    "disinterested": 23505,
    "Ġinsurance": 23680,
    "Ġoakshott": 12228,
    "links": 20957,
    "Ġdep": 750,
    "repeating": 20128,
    "Ġresembled": 18034,
    "Ġsubur": 12954,
    "Ġfloundering": 16249,
    "Ġsinking": 7307,
    "embra": 14076,
    "Ġhappiest": 11880,
    "Ġlucerne": 23865,
    "ici": 8439,
    "Ġchristians": 13308,
    "rict": 8092,
    "Ġpronouncing": 16969,
    "Ġtilted": 20411,
    "Ġcoils": 9302,
    "Ġmich": 21304,
    "Ġ83": 24462,
    "Ġende": 21931,
    "greatly": 16623,
    "Ġintrig": 21989,
    "Ġ40": 14767,
    "inks": 6869,
    "Ġfrankness": 16746,
    "Ġunbelief": 22048,
    "Ġfatigue": 8697,
    "Ġfactor": 19014,
    "discrimin": 19609,
    "presume": 25673,
    "extreme": 11028,
    "winter": 10739,
    "Ġpleaded": 16299,
    "understood": 13216,
    "enge": 21279,
    "ied": 942,
    "Ġfarmhouse": 24988,
    "Ġsorely": 17256,
    "F": 42,
    "waiter": 24589,
    "garious": 17559,
    "comput": 1994,
    "Ġimplac": 24878,
    "Ġcrabs": 19175,
    "tisement": 6767,
    "Ġsuav": 22074,
    "Ġspeechless": 13353,
    "itional": 22468,
    "ious": 769,
    "Ġperemptory": 25743,
    "Ġdupl": 9952,
    "Ġodious": 12149,
    "boscombe": 26123,
    "Ġpam": 21452,
    "Ġdesirous": 8942,
    "Ġfuriously": 9801,
    "Ġexample": 5096,
    "becomes": 22496,
    "Ġsurviv": 13435,
    "instant": 8651,
    "ĭ": 238,
    "Ġsilently": 6895,
    "accompl": 9878,
    "Ġlearnt": 7612,
    "Ġpreferred": 14965,
    "Ġgreedy": 3060,
    "rope": 3188,
    "Ġinc": 702,
    "presented": 12990,
    "Ġsplendidly": 25330,
    "ics": 3258,
    "legs": 13182,
    "Ġofficer": 6753,
    "phia": 22776,
    "clouds": 25499,
    "Ġdreary": 10406,
    "Ġprow": 6684,
    "Ġstrategies": 1841,
    "Ġlimits": 3452,
    "Ġ(": 594,
    "://": 11465,
    "ther": 482,
    "Ġletting": 10358,
    "Ġunprofitable": 18267,
    "Ġfur": 991,
    "Ġkindled": 19032,
    "Ġsurpassing": 20466,
    "Ġparticular": 2449,
    "ription": 5676,
    "dipped": 20836,
    "Ġ25": 13192,
    "church": 8139,
    "Ġcluster": 13571,
    "Ġdesirable": 8941,
    "Ġsigh": 10334,
    "Ġjac": 1900,
    "Ġexpectantly": 23528,
    "think": 3605,
    "asleep": 21541,
    "heum": 17748,
    "Ġflower": 16230,
    "Ġsolomon": 11051,
    "Ġantique": 19552,
    "better": 7119,
    "Ġfolio": 11916,
    "Ġshol": 21994,
    "Ġthemselves": 3253,
    "Ġagreeable": 4550,
    "Ġsolved": 8931,
    "Ġoverwhelm": 25056,
    "Ġmermaid": 17814,
    "Ġboarded": 13233,
    "Ġdeploy": 2837,
    "Ġtour": 9147,
    "pass": 4288,
    "Ġappertaining": 26535,
    "Ġelastic": 4359,
    "ged": 1510,
    "Ġsignific": 3825,
    "Ġaunts": 21199,
    "Ġrules": 1921,
    "Ġers": 15460,
    "shaw": 6864,
    "ni": 1618,
    "Ġoverlook": 10959,
    "Ġburst": 4377,
    "Ġcivility": 4786,
    "carried": 16711,
    "Ġdecorated": 22445,
    "Ġtormenting": 15103,
    "magnetic": 20551,
    "Ġloveliness": 13608,
    "Ġrapture": 13496,
    "Q": 53,
    "Ġmult": 1025,
    "Ġforger": 15731,
    "value": 18805,
    "storm": 9681,
    "grained": 20882,
    "Ġdisappears": 18561,
    "Ġsymmetrical": 20365,
    "Ġspecialized": 3917,
    "Ġloggerhead": 13657,
    "Ġleisurely": 24749,
    "enth": 6680,
    "dragging": 16609,
    "ubb": 1649,
    "sounded": 12265,
    "Ġmed": 3981,
    "Ġballarat": 14718,
    "Ġproud": 5654,
    "answering": 26005,
    "thoughts": 9933,
    "Ġgrated": 22804,
    "former": 11746,
    "stone": 5090,
    "Ġpossessed": 5195,
    "nament": 11506,
    "ĠĠĠĠĠĠĠĠĠĠĠĠĠĠĠĠĠĠĠ": 22950,
    "Ġcompose": 12900,
    "Ġcurling": 9340,
    "Ġconfusing": 23307,
    "spout": 7923,
    "those": 4493,
    "laden": 14928,
    "Ġpoll": 12029,
    "Ġinvol": 992,
    "Ġdrops": 9032,
    "Ġaspect": 3102,
    "Ġmultitude": 9324,
    "regular": 3049,
    "Ġrelates": 12978,
    "Ġmodels": 761,
    "intern": 23736,
    "Ġhired": 10175,
    "Ġpool": 5173,
    "Ġbending": 12583,
    "Ġadroit": 26002,
    "vari": 1514,
    "irts": 9237,
    "Ġdependence": 18633,
    "avenza": 17104,
    "tle": 2409,
    "Ġhove": 17923,
    "Ġbeaufort": 13568,
    "Ġdespondency": 16577,
    "yellow": 9624,
    "Ġhill": 5626,
    "Ġsuburban": 17345,
    "romising": 18233,
    "Ġconfided": 19040,
    "Ġquarrel": 7292,
    "Ġwriters": 13543,
    "Ġgestic": 21606,
    "Ġcitations": 25440,
    "Ġlashings": 25101,
    "Ġdifferently": 10386,
    "ech": 4386,
    "Ġnoiselessly": 22863,
    "Ġpartners": 11851,
    "Ġmam": 8404,
    "Ġnumberless": 16415,
    "Ġbrawn": 10479,
    "Ġguidance": 9416,
    "Ġhopes": 4229,
    "Ġwealth": 7621,
    "Ġenlivened": 26209,
    "Ġinvari": 6529,
    "Ġprodigious": 8056,
    "nuee": 17429,
    "Ġjavan": 25001,
    "arer": 3963,
    "Ġscho": 4434,
    "Ġmoses": 21314,
    "Ġcock": 10998,
    "Ġweeping": 11685,
    "Ġbeautiful": 3668,
    "ugl": 23290,
    "Ġbowled": 23771,
    "Ġbacked": 12918,
    "Ġcrimes": 8588,
    "Ġtimorous": 24228,
    ");": 7330,
    "Ġensigns": 23687,
    "Ġalexander": 17423,
    "Ġhours": 2816,
    "Ġfidel": 12594,
    "rolling": 9060,
    "Ġcorpus": 13030,
    "vour": 17700,
    "Ġdreadfully": 7725,
    "Ġum": 10209,
    "Ġgum": 21592,
    "Ġluxury": 20131,
    "Ġscrews": 25180,
    "Ġheightened": 8648,
    "Ġweak": 5098,
    "Ġconce": 3422,
    "Ġintruding": 21990,
    "cherries": 19757,
    "whaleman": 23437,
    "sure": 5522,
    "ected": 7872,
    "Ġaspire": 21899,
    "Ġwig": 9161,
    "Ġdy": 2601,
    "Ġswim": 3817,
    "approach": 24837,
    "Ġdisinclination": 22536,
    "Ġgnawed": 25167,
    "hemat": 3134,
    "Ġscuff": 15941,
    "Ġpane": 21461,
    "Ġseren": 7401,
    "Ġinvitation": 5189,
    "Ġplaces": 5390,
    "seek": 8836,
    "ambition": 13411,
    "nel": 11504,
    "Ġthinkings": 22810,
    "Ġoblong": 14320,
    "Ġwrithed": 17106,
    "anum": 17836,
    "osy": 11756,
    "Ġpresents": 8244,
    "judge": 13336,
    "Ġstomach": 11652,
    "ushion": 14719,
    "Ġeating": 8135,
    "Ġpeevish": 26559,
    "Ġclouds": 5775,
    "ounds": 4150,
    "Ġbee": 21748,
    "fiery": 13581,
    "Ġancho": 15601,
    "Ġprosecut": 9697,
    "Ġbaffled": 12402,
    "Ġunacquainted": 12774,
    "mystical": 25320,
    "Ġfield": 1254,
    "Ġabstraction": 26541,
    "wr": 3033,
    "inkling": 16089,
    "Ġfuel": 13904,
    "effectually": 25132,
    "stands": 22440,
    "oked": 4305,
    "Ġuncovered": 23433,
    "opÃ¦": 12871,
    "Ġshocked": 9400,
    "ignantly": 23266,
    "Ġgore": 17989,
    "Ġfries": 21413,
    "Ġpair": 5706,
    "august": 11070,
    "Ġhistorically": 19378,
    "Ġassurances": 9998,
    "Ġrigger": 19531,
    "Ġrushes": 20506,
    "prepare": 20212,
    "properly": 24922,
    "cl": 1491,
    "affairs": 14656,
    "along": 6012,
    "Ġtelescope": 17347,
    "Ġnapoleons": 25887,
    "Ġspont": 22131,
    "elements": 25206,
    "Ġalco": 21781,
    "Ġpoor": 1711,
    "Ġadmiring": 16480,
    "Ġglist": 9344,
    "Ġsurrounding": 12161,
    "Ġaboriginal": 14188,
    "aren": 10071,
    "Ġgracechurch": 12197,
    "feature": 4000,
    "Ġruskin": 25812,
    "izabeth": 907,
    "Ġwhir": 6393,
    "Ġmiscell": 16148,
    "denial": 18718,
    "enchanted": 26426,
    "Ġensuing": 12308,
    "Ġrepent": 9861,
    "Ġrinal": 21979,
    "Ġhaunt": 18197,
    "anguish": 15982,
    "theast": 21747,
    "Ġmirth": 15543,
    "Ġbackward": 7653,
    "Ġmbpp": 21320,
    "ateur": 22005,
    "oping": 5559,
    "!": 5,
    "Ġpaternal": 16373,
    "rut": 8091,
    "Ġrounded": 14437,
    "Ġsmoking": 6429,
    "Ġfort": 2577,
    "Ġcaptioning": 23022,
    "tis": 4100,
    "Ġintently": 8168,
    "Ġfeather": 8859,
    "Ġ97": 19775,
    "Ġsigmoid": 2462,
    "Ġingen": 9049,
    "Ġthinker": 22809,
    "ittance": 12843,
    "line": 1439,
    "oped": 6046,
    "Ġking": 2306,
    "ulum": 21862,
    "extinguish": 22767,
    "ivery": 17573,
    "Ġstream": 5186,
    "Ġkirwin": 8496,
    "interval": 7990,
    "Ġpotency": 14646,
    "Ġvirginia": 13500,
    "zors": 21146,
    "under": 3137,
    "Ġcongreg": 8462,
    "Ġplant": 8899,
    "pool": 16208,
    "Ġwarm": 2426,
    "sli": 11522,
    "saturday": 14857,
    "autions": 20766,
    "Ġguest": 7249,
    "taller": 26152,
    "Ġsparkling": 11355,
    "Ġobjecting": 18896,
    "Ġgrimes": 11033,
    "Ġdimin": 3869,
    "Ġwanderings": 20143,
    "Ġinvincible": 23484,
    "oforte": 14285,
    "they": 1882,
    "Ġcounsell": 25386,
    "Ġvibration": 17099,
    "Ġable": 3087,
    "Ġorganisation": 23585,
    "Ġcaul": 10786,
    "beam": 16037,
    "lined": 12482,
    "quely": 10229,
    "âĢĶâĢĻ": 8187,
    "gor": 547,
    "Ġprince": 18974,
    "ash": 1991,
    "Ġaver": 1287,
    "Ġidle": 8252,
    "Ġvoyager": 16512,
    "Ġthinks": 6169,
    "Ġreluctant": 20523,
    "xim": 1090,
    "Ġoar": 6236,
    "Ġpell": 21454,
    "Ġsized": 11562,
    "Ġuncles": 23432,
    "devilish": 17082,
    "Ġradiant": 16809,
    "Ġdif": 871,
    "Ġvehemence": 26568,
    "Ġfamous": 5255,
    "Ġjourneying": 25568,
    "member": 20974,
    "Ġaffected": 5577,
    "atical": 10770,
    "sp": 895,
    "savagery": 25029,
    "dam": 7797,
    "tom": 15435,
    "itch": 10158,
    "Ġloath": 7890,
    "Ġhookah": 16970,
    "omited": 21639,
    "Ġbuilt": 8299,
    "shortened": 24751,
    "Ġprendergast": 26539,
    "Ġpurchasing": 19876,
    "Ġuniverse": 14124,
    "Ġcapacity": 10438,
    "necessarily": 19632,
    "Ġclosest": 16763,
    "ractions": 11632,
    "Ġbouquet": 20682,
    "quohog": 21857,
    "scoured": 22993,
    "deemed": 18315,
    "ilated": 18058,
    "ableness": 8148,
    "Ġfoolishly": 19783,
    "heavenly": 20045,
    "Ġentreating": 24210,
    "prick": 19343,
    "injury": 25216,
    "Ġaccumul": 1410,
    "800": 17476,
    "Ġwhose": 2009,
    "Ġcompat": 2940,
    "Æ": 135,
    "ony": 3034,
    "ameter": 2975,
    "dia": 2132,
    "anc": 6379,
    "Ġsad": 3865,
    "Ġcostly": 23586,
    "Ġbridle": 24684,
    "Ġirregular": 9863,
    "Ġsupports": 3057,
    "Ġturtle": 4198,
    "Ġhamp": 12628,
    "pped": 1998,
    "kovoko": 20668,
    "works": 6587,
    "angered": 16180,
    "threadbare": 25991,
    "Ġbreaches": 14521,
    "Ġsupremacy": 20259,
    "offers": 16395,
    "Ġcommend": 10332,
    "ound": 585,
    "Ġdoing": 3657,
    "eting": 7169,
    "Ġrichest": 26213,
    "amouch": 21844,
    "ushes": 22291,
    "Ġappearances": 10449,
    "Ġbennet": 1573,
    "Ġresult": 4458,
    "Ġmiracle": 15092,
    "uits": 21103,
    "Ġdisconsolate": 20718,
    "Ġlanguage": 643,
    "iscre": 17851,
    "Ġwaterloo": 11980,
    "still": 4214,
    "Ġmemories": 14541,
    "Ġbasket": 9572,
    "Ġprevent": 757,
    "Ġdeserts": 10505,
    "Ġloops": 8852,
    "loun": 17589,
    "uation": 17695,
    "fordshire": 4675,
    "Ġupright": 8493,
    "Ġrepaid": 19084,
    "Ġmysteries": 11321,
    "creature": 5346,
    "affair": 14655,
    "Ġdespatched": 23830,
    "Ġbos": 4874,
    "try": 7812,
    "Ġplata": 25121,
    "Ġexalted": 12411,
    "Ġdenoted": 16565,
    "moil": 22703,
    "Ġprevailed": 7777,
    "oin": 17618,
    "ishnoo": 10955,
    "fluttering": 23973,
    "Ġsincer": 13064,
    "Ġbowed": 6242,
    "Ġcampa": 17173,
    "lanterns": 17428,
    "impregn": 21712,
    "Ġsummary": 19403,
    "scr": 16241,
    "Ġpratt": 23219,
    "equally": 19900,
    "Ġtoilet": 13937,
    "erting": 17778,
    "Ġperseverance": 13597,
    "ella": 12747,
    "indirect": 22372,
    "ine": 404,
    "expect": 4767,
    "persons": 24177,
    "rodden": 21532,
    "Ġworks": 5858,
    "Ġungovernable": 20708,
    "ubines": 22959,
    "Ġappeal": 16314,
    "Ġincidents": 9298,
    "esu": 17901,
    "}": 97,
    "Ġprecious": 5760,
    "Ġconstraints": 2738,
    "Ġlav": 13950,
    "Ġrationally": 18213,
    "Ġfemin": 13436,
    "deceptive": 22148,
    "pistol": 17643,
    "Ġwhaleman": 4653,
    "boone": 23255,
    "cowardly": 25752,
    "Ġreader": 11932,
    "Ġglimpse": 6944,
    "Ġott": 13866,
    "Ġchimney": 6497,
    "prot": 6899,
    "Ġexpans": 18623,
    "Ġferrule": 24503,
    "Ġgunw": 6212,
    "poss": 4776,
    "air": 1004,
    "Ġtoil": 6531,
    "kinson": 10023,
    "Ġseer": 21958,
    "Ġtransfer": 2154,
    "igner": 21700,
    "number": 10112,
    "Ġsuperstitious": 13520,
    "Ġacknowledged": 7535,
    "Ġfunny": 7638,
    "Ġproducts": 5198,
    "Ġreserves": 19671,
    "below": 12120,
    "Ġjewell": 19521,
    "Ġoverspread": 14206,
    "Ġbethink": 12378,
    "54": 15298,
    "marching": 25755,
    "Ġdistantly": 18532,
    "Ġaffront": 18788,
    "Ġreputation": 11639,
    "arthly": 8029,
    "Ġskies": 8920,
    "Ġtruth": 3320,
    "apparently": 15203,
    "Ġplump": 14281,
    "ouse": 1192,
    "Ġhandfuls": 17209,
    "âĢĶ.âĢĿ": 22255,
    "Ġtrif": 6268,
    "í": 174,
    "Ġbusks": 23338,
    "Ġhigher": 1821,
    "Ġseated": 4539,
    "Ġlogs": 16346,
    "Ġplanning": 14750,
    "despatched": 19802,
    "Ġpassed": 2011,
    "Ġfrig": 13080,
    "Ġelix": 22649,
    "Ġarrived": 3744,
    "Ġsubset": 9868,
    "Ġdirectors": 18922,
    "image": 9685,
    "Ġsprained": 15883,
    "cheap": 23806,
    "Ġlay": 584,
    "Ġlimb": 9401,
    "Ġkitchen": 8495,
    "Ġexhilar": 19684,
    "Ġoccas": 2700,
    "Ġcounters": 24142,
    "brance": 7284,
    "eray": 21265,
    "Ġcrystals": 20226,
    "Ġpapa": 10654,
    "Ġneed": 2606,
    "Ġexploration": 2338,
    "collecting": 26083,
    "Ġnorthern": 7265,
    "log": 18535,
    "Ġbudge": 15163,
    "Ġdusty": 14924,
    "mount": 9129,
    "englishman": 23675,
    "individual": 18437,
    "Ġlagged": 21555,
    "ational": 5716,
    "summit": 23418,
    "Ġsunshine": 14494,
    "hies": 17561,
    "ester": 11597,
    "Ġentity": 10340,
    "Ġcontrivance": 17183,
    "Ġadmire": 5263,
    "Ġrucastles": 18722,
    "Ġaffectionate": 5585,
    "Ġaboard": 6697,
    "Ġfunere": 22259,
    "Ġleading": 7297,
    "Ġdutch": 6327,
    "Ġlayers": 817,
    ".}": 20744,
    "Ġcountries": 13096,
    "Ġliveliest": 24778,
    "Ġmagic": 8232,
    "jury": 15372,
    "varying": 13804,
    "world": 5059,
    "Ġconst": 1913,
    "snow": 10723,
    "Ġblinding": 14727,
    "Ġstruggled": 9903,
    "crack": 19841,
    "belonged": 25600,
    "Ġextended": 7921,
    "oboam": 9357,
    "aring": 1474,
    "Ġdrowsiness": 26448,
    "Ġpy": 21449,
    "wes": 17704,
    "Ġspade": 9258,
    "Ġuniformly": 19149,
    "fresh": 13392,
    "ats": 4250,
    "Ġbab": 5289,
    "Ġindefinitely": 25224,
    "Ġthreatened": 8329,
    "Ġspinal": 12301,
    "Ġdip": 13908,
    "Ġscheduling": 2351,
    "Ġprobably": 4311,
    "Ġstrangest": 14795,
    "ira": 3952,
    "baked": 20778,
    "umber": 5241,
    "Ġtossings": 25358,
    "Ġbarriers": 23796,
    "ortations": 22258,
    "Ġbarricade": 14660,
    "Ġreckon": 19871,
    "ce": 313,
    "Ġfigures": 8629,
    "Ġunlucky": 10047,
    "Ġprehens": 22230,
    "Ġdiscl": 9796,
    "Ġweapons": 10591,
    "icilian": 20690,
    "advance": 12155,
    "accusations": 23601,
    "skeleton": 17375,
    "Ġbriony": 9328,
    "cri": 17505,
    "Ġlater": 6016,
    "atigable": 15269,
    "Ġarsacides": 17293,
    "Ġolder": 9326,
    "Ġmaiden": 13386,
    "with": 1297,
    "Ġslain": 8953,
    "Ġclair": 6269,
    "Ġrude": 7234,
    "Ġguard": 6178,
    "Ġanne": 1527,
    "Ġturkish": 12260,
    "Ġcheever": 23285,
    "Ġexercised": 24806,
    "Ġrenewal": 12233,
    "Ġnathan": 21523,
    "Ġdangerous": 6613,
    "Ġsticking": 13427,
    "Ġyelling": 18096,
    "asses": 7016,
    "propagation": 1201,
    "Ġsuperfluous": 17413,
    "Ġfrequ": 3328,
    "Ġintensely": 17017,
    "nursery": 26401,
    "sive": 4137,
    "Ġexhibited": 9543,
    "Ġprotesting": 14740,
    "###": 3824,
    "Ġextravag": 11252,
    "Ġclusters": 25235,
    "speps": 14336,
    "renched": 7906,
    "cordiality": 25141,
    "brushing": 20787,
    "uded": 6286,
    "Ġcared": 8781,
    "attempts": 17190,
    "Ġintersect": 22575,
    "âĢĻ,": 14070,
    "Ġincalculable": 17460,
    "Ġaroused": 15898,
    "Ġprogno": 14040,
    "Ġseventeen": 26212,
    "Ġnorth": 4317,
    "tossed": 10995,
    "Ġpiled": 8424,
    "remental": 21246,
    "Ġscrupulous": 20069,
    "Ġadditionally": 1176,
    "Ġspray": 7893,
    "object": 6884,
    "itig": 1331,
    "Ġlye": 21548,
    "¦": 104,
    "Ġacquies": 11096,
    "Ġvisibly": 22893,
    "Ġsi": 21211,
    "Ġvery": 637,
    "pier": 17636,
    "Ġretained": 7173,
    "Ġpurses": 23481,
    "Ġinsolence": 20252,
    "Ġcircumnavigating": 25617,
    "Ġhydraul": 9513,
    "inform": 10141,
    "Ġdiscre": 2416,
    "meantime": 9091,
    "Ġselfish": 7272,
    "autumn": 23344,
    "Ġclosely": 6488,
    "Ġshadow": 5596,
    "persuade": 13533,
    "Ġeastward": 13390,
    "Ġmachinery": 20483,
    "Ġrascal": 11699,
    "Ġjudging": 16595,
    "Ġcurious": 3361,
    "Ġappet": 9729,
    "stars": 18020,
    "clergyman": 20728,
    "belief": 13280,
    "buttons": 22401,
    "Ġiter": 2956,
    "anse": 12573,
    "Ġretarded": 23072,
    "ifled": 14063,
    "Ġbutt": 14126,
    "Ġsupplement": 23002,
    "betrayed": 24643,
    "est": 500,
    "Ġdisappearance": 9296,
    "Ġcapture": 3384,
    "Ġsurvivors": 25735,
    "kitchen": 17586,
    "lar": 4481,
    "Ġretain": 7862,
    "Ġreflection": 6440,
    "Ġabandonment": 25606,
    "Ġpink": 12616,
    "Ġsurveying": 25328,
    "flood": 19807,
    "Ġalteration": 9545,
    "Ġroyalty": 19737,
    "kinder": 24849,
    "knows": 19173,
    "Ġcard": 7363,
    "eat": 11482,
    "Ġcream": 22725,
    "transom": 19736,
    "arial": 5532,
    "Ġavocation": 23953,
    "Ġdirt": 15594,
    "Ġquench": 22419,
    "charm": 13990,
    "!--": 10675,
    "Ġpocket": 4897,
    "Ġexcell": 10415,
    "Ġdestiny": 8983,
    "Ġadduced": 26526,
    "Ġcoinc": 11000,
    "Ġat": 395,
    "erns": 8776,
    "condesc": 18507,
    "Ġexhausting": 24713,
    "ater": 3370,
    "Ġreconciliation": 25295,
    "Ġrobbed": 23016,
    "fedallah": 25525,
    "restoration": 23237,
    "Ġcompliments": 8632,
    "Ġrigged": 16717,
    "Ġcalhoun": 23043,
    "lashed": 20953,
    "Ġhol": 1182,
    "Ġthought": 1091,
    "Ġindisc": 16226,
    "escape": 16006,
    "Ġnails": 12646,
    "formal": 14168,
    "prejudiced": 17296,
    "Ġfiends": 14827,
    "crippled": 26386,
    "described": 18894,
    "Ġwilson": 6629,
    "Ġprolong": 6832,
    "Ġ1839": 20458,
    "web": 18665,
    "Ġwhirled": 14959,
    "naturally": 14559,
    "Ġundisturbed": 19520,
    "Ġinsomuch": 23681,
    "tural": 21065,
    "achable": 14129,
    "Ġshouting": 10520,
    "Ġstall": 12695,
    "cousin": 10650,
    "sterdam": 19091,
    "footman": 17162,
    "dden": 1806,
    "Ġfree": 3375,
    "organic": 25948,
    "Ġcle": 1509,
    "Ġwidth": 16772,
    "Ġcasualties": 25515,
    "Ġrevive": 13479,
    "urred": 8449,
    "Ġinconvenient": 20010,
    "Ġweb": 9239,
    "Ġcrater": 16439,
    "Ġwager": 17793,
    "orted": 4601,
    "otic": 15743,
    "ras": 21035,
    "Ġsurrounded": 5878,
    "Ġcompacted": 23512,
    "convul": 24887,
    "Ġevident": 6612,
    "Ġding": 12602,
    "pressed": 6588,
    "Ġaffords": 16734,
    "Ġextending": 11020,
    "ife": 1028,
    "Ġmerchantmen": 19861,
    "ingale": 21298,
    "Ġstir": 5825,
    "Ġcau": 13881,
    "Ġprot": 3844,
    "liked": 10506,
    "necessity": 13367,
    "Ġpirate": 14996,
    "Ġdefinite": 11068,
    "Ġglimmered": 20171,
    "Ġsingers": 23773,
    "amid": 12722,
    "Ġrewards": 10847,
    "oper": 7347,
    "expose": 23663,
    "Ġknitting": 24221,
    "Ġsill": 10764,
    "Ġperched": 10297,
    "Ġbeliever": 25847,
    "Ġdefiance": 11067,
    "Ġmountains": 4425,
    "Ġavenues": 25432,
    "Ġplaymate": 23639,
    "Ġwithdrawn": 10604,
    "scotch": 25852,
    "uel": 6966,
    "Ġfrigate": 13081,
    "Ġhire": 21482,
    "Ŀ": 256,
    "Ġtwinkling": 12323,
    "Ġsixteen": 8282,
    "Ġlinguistic": 12424,
    "Ġanimated": 7701,
    "Ġdependency": 3486,
    "Ġaw": 2511,
    "horrors": 20540,
    "Ġhuggins": 24831,
    "Ġenters": 11024,
    "t": 88,
    "jure": 20923,
    "Ġwrecks": 16818,
    "Ġspasmodic": 20396,
    "Ġties": 12526,
    "Ġimperilled": 19579,
    "Ġmarines": 16261,
    "train": 2035,
    "Ġly": 2271,
    "divers": 15341,
    "Ġtowards": 1729,
    "Ġsoot": 14133,
    "foremost": 14252,
    "Ġsubstit": 19541,
    "Ġbats": 13900,
    "rus": 5929,
    "Ġantilles": 24182,
    "Ġsole": 3298,
    "christian": 17232,
    "Ġhorizon": 6632,
    "Ġfavoring": 2346,
    "Ġtaste": 5524,
    "black": 6768,
    "whalemen": 10429,
    "aps": 1230,
    "par": 1861,
    "Ġdiscipline": 26563,
    "Ġwant": 1117,
    "Ġslee": 8974,
    "Ġcarav": 18902,
    "Ġimmortal": 8017,
    "Ġal": 342,
    "Ġsap": 18323,
    "Ġagonies": 14251,
    "ersampling": 18216,
    "scale": 3532,
    "Ġtravels": 11925,
    "Ġaccompan": 5513,
    "Ġsurpl": 19134,
    "bowsprit": 16853,
    "ond": 1164,
    "Ġkick": 5837,
    "philosophers": 25255,
    "isson": 23463,
    "Ġtopic": 9405,
    "Ġpatent": 11960,
    "looks": 12017,
    "zening": 21147,
    "sal": 8756,
    "Ġimpregnable": 26025,
    "driver": 14920,
    "Ġshoe": 14567,
    "Ġintimate": 6549,
    "accomplished": 17211,
    "Ġjudiciously": 23879,
    "barn": 17482,
    "irted": 14072,
    "Ġcistern": 17380,
    "Ġstagnant": 24657,
    "Ġslipper": 24268,
    "bestow": 16929,
    "Ġshrill": 12140,
    "Ġforenoon": 19128,
    "Ġbuoyant": 13532,
    "Ġsweat": 13140,
    "Ġappeals": 16315,
    "Ġmans": 15535,
    "pshire": 21023,
    "Ġinvoking": 19147,
    "soever": 11858,
    "Ġstoper": 14461,
    "Ġlap": 8436,
    "deceiving": 22143,
    "Ġornament": 11718,
    "unusual": 21878,
    "Ġbare": 6132,
    "Ġ90": 24591,
    "abouts": 9451,
    "gown": 9596,
    "Ġcordial": 16835,
    "Ġcedars": 20291,
    "precip": 14664,
    "Ġintrusion": 12763,
    "reas": 988,
    "ising": 2255,
    "Ġinstructed": 19285,
    "Ġhogshe": 20490,
    "page": 13771,
    "horizon": 23617,
    "Ġindic": 2886,
    "Ġinterview": 9769,
    "Ġshavings": 14110,
    "owl": 12681,
    "Ġsagacity": 16974,
    "solic": 16379,
    "Ġrollicking": 24454,
    "Ġhor": 1661,
    "Ġenergetic": 15196,
    "jub": 20928,
    "Ġadvantageously": 19546,
    "Ġliar": 22408,
    "sentence": 2941,
    "urpr": 2289,
    "Ġthirds": 16708,
    "²": 115,
    "Ġseamen": 5064,
    "Ġcontinually": 5043,
    "ù": 186,
    "publ": 17639,
    "Ġease": 5629,
    "Ġsighed": 10335,
    "Ġarbitrary": 4734,
    "remarks": 23187,
    "hardly": 6491,
    "attentions": 13574,
    "Ġpaused": 5416,
    "Ġ120": 16858,
    "bular": 15312,
    "Ġvengeance": 5884,
    "thyself": 19298,
    "Ġjungfrau": 15247,
    "Ġblue": 3453,
    "angling": 14141,
    "fates": 20857,
    "Ġassumed": 9465,
    "================================================================": 9988,
    "======": 9832,
    "Ġkentuckian": 26344,
    "Ġundeserving": 18268,
    "Ġresolved": 3795,
    "Ġdeduce": 8336,
    "tranquillity": 20545,
    "rocious": 21536,
    "Ġashore": 5351,
    "Ġpromotion": 23192,
    "Ġwallowing": 24043,
    "Ġcoop": 14269,
    "Ġruns": 8595,
    "Ġwade": 17785,
    "Ġhailing": 11691,
    "Ġsilence": 3269,
    "Ġwithout": 1120,
    "Ġinsufficient": 9672,
    "poured": 17638,
    "Ġviolates": 3169,
    "Ġluckily": 16798,
    "Ġfiercely": 12950,
    "Ġrambled": 20168,
    "Ġgoal": 10299,
    "Ġcharmed": 16762,
    "Ġgarments": 15192,
    "Ġhind": 9188,
    "Ġtrees": 4197,
    "Ġinvested": 7279,
    "Ġeffectively": 2644,
    "Ġabating": 22267,
    "Ġgoverness": 8601,
    "Ġsweetly": 23919,
    "Ġvehicles": 10657,
    "Ġwitnessing": 19599,
    "icide": 11617,
    "wish": 8099,
    "Ġjohn": 5033,
    "Ġcele": 9898,
    "hyp": 15365,
    "Ġsanity": 24983,
    "Ġsolemnity": 9939,
    "march": 13755,
    "Ġembarr": 7446,
    "Ġhouses": 6138,
    "liber": 18814,
    "Ġ119": 24444,
    "peddling": 24699,
    "Ġpatchwork": 24143,
    "gather": 20874,
    "convers": 6567,
    "Ġworn": 6445,
    "nib": 5214,
    "Ġseeks": 14301,
    "Ġpreserving": 19797,
    "allowing": 24361,
    "Ġparticulars": 5754,
    "Ġchina": 8039,
    "Ġze": 8546,
    "Ġbetter": 1175,
    "Ġrephr": 21677,
    "cil": 8720,
    "Ġspilling": 22137,
    "Ġcracking": 14574,
    "Ġcritic": 19126,
    "Ġadequate": 20307,
    "Ġital": 10865,
    "Ġquadrant": 11404,
    "_.âĢĶ": 23477,
    "Ġepo": 21617,
    "gives": 15356,
    "Ġwards": 17790,
    "Ġoffices": 14337,
    "Ġherd": 7887,
    "beries": 22719,
    "Ġships": 3711,
    "vously": 23508,
    "Ġexempt": 21827,
    "combination": 25489,
    "'(": 2983,
    "r": 86,
    "Ġaloof": 21784,
    "Ġbent": 5149,
    "fain": 13715,
    "station": 10843,
    "verd": 21725,
    "enterprise": 24996,
    "Ġcedar": 15187,
    "chains": 9684,
    "Ġimplicit": 19958,
    "Ġcoldly": 14650,
    "isles": 15562,
    "Ġhierarchical": 1929,
    "Ġcop": 7580,
    "made": 4807,
    "cruise": 24845,
    "secre": 18127,
    "Ġhide": 4587,
    "Ġlanes": 19766,
    "Ġvibrating": 13538,
    "Ġintelligence": 558,
    "Ġundersampling": 19519,
    "Ġjot": 11761,
    "Ġmantle": 25277,
    "Ġsemicirc": 16394,
    "contrast": 25597,
    "derbyshire": 18321,
    "Ġdromed": 15597,
    "Ġswe": 2291,
    "Ġfifth": 11255,
    "Ġstealing": 18893,
    "Ġaway": 1246,
    "Ġrampart": 20317,
    "ois": 9134,
    "Ġcanterbury": 22166,
    "Ġdegrees": 7294,
    "Ġpatterns": 1215,
    "Ġbolt": 11333,
    "Ġicebergs": 23975,
    "humored": 19453,
    "Ġrobinson": 17463,
    "renew": 24453,
    "Ġfront": 3450,
    "visual": 24225,
    "blind": 16705,
    "standers": 18482,
    "Ġgarnery": 17386,
    "gover": 10701,
    "trop": 15436,
    "Ġimmutable": 17357,
    "emed": 3380,
    "waste": 21133,
    "Ġgifted": 17997,
    "ripp": 6404,
    "Ġinjection": 3466,
    "Ġgomorrah": 21613,
    "richard": 17286,
    "Ġgodson": 23359,
    "sleepers": 24733,
    "Ġbows": 4078,
    "ilight": 12691,
    "Ġsublimity": 26347,
    "Ġmildness": 9942,
    "transformers": 8714,
    "ger": 1103,
    "Ġgang": 9207,
    "vener": 21110,
    "Ġmortified": 14694,
    "Ġstubb": 1789,
    "iquet": 17576,
    "Ġbehavior": 8001,
    "Ġlengthened": 25960,
    "Ġlamb": 8811,
    "Ġconstru": 19073,
    "ins": 1376,
    "joy": 3335,
    "Ġbridal": 14953,
    "Ġfearful": 6197,
    "wonder": 6371,
    "Ġstaircase": 20096,
    "Ġloft": 5642,
    "utting": 17985,
    "Ĩ": 233,
    "merit": 19282,
    "Ġdescribes": 3127,
    "till": 6965,
    "engineer": 23146,
    "excited": 13380,
    "shot": 2262,
    "Ġunre": 3476,
    "Ġgardiner": 3240,
    "Ġhereford": 22876,
    "Ġlondon": 2835,
    "Ġfibres": 12949,
    "Ġpredicted": 2045,
    "Ġalighted": 18103,
    "Ġefficient": 1061,
    "amongst": 24675,
    "Ġsuspic": 4468,
    "Ġwould": 653,
    "Ġdisputes": 25827,
    "noble": 7922,
    "seized": 14035,
    "Ġmanager": 11767,
    "Ġrattler": 24999,
    "kick": 20935,
    "itzerland": 9993,
    "ropes": 7902,
    "blu": 12439,
    "Ġdying": 2134,
    "Ġargument": 7098,
    "unconquerable": 21890,
    "Ġmaid": 5285,
    "Ġapprehensions": 13404,
    "Ġpeaked": 2297,
    "arts": 6563,
    "Ġ113": 19697,
    "Ġvaliant": 9799,
    "Ġcrash": 12001,
    "Ġaustral": 12171,
    "Ġphant": 7055,
    "Ġwaylaid": 22872,
    "Ġpolynes": 16078,
    "unaccountable": 15777,
    "reserve": 17766,
    "Ä": 133,
    "Ġpouch": 21467,
    "Ġhoarse": 14526,
    "Ġimperial": 9480,
    "Ġany": 689,
    "Ġfright": 3794,
    "aux": 14288,
    "Ġdining": 6977,
    "Ġbass": 17856,
    "Ġbuttoning": 17235,
    "horner": 23616,
    "Ġstore": 8453,
    "Ġtwitch": 22676,
    "send": 15423,
    "Ġwoollen": 12102,
    "Ġcommentators": 25232,
    "Ġcaused": 5049,
    "ately": 1758,
    "complied": 19914,
    "Ġconvenient": 8345,
    "iners": 4936,
    "Ġdread": 3167,
    "Ġgreater": 3043,
    "Ġprotectors": 9070,
    "Ġmantel": 11439,
    "arian": 10313,
    "created": 12449,
    "Ġweep": 7620,
    "cannon": 22962,
    "Ġshops": 22000,
    "cules": 12390,
    "Ġupbraid": 18318,
    "Ġalgorith": 562,
    "Ġblacksmiths": 19874,
    "ary": 987,
    "Ġworms": 25219,
    "ĠĠĠĠĠĠĠ": 7633,
    "Ġfreed": 7267,
    "Ġclenched": 14204,
    "ump": 2286,
    "roll": 9196,
    "cating": 20801,
    "canonical": 22963,
    "Ġsettee": 22921,
    "pent": 3491,
    "Ġcalf": 16266,
    "feeder": 12360,
    "Ġetc": 7084,
    "Ġcotton": 17378,
    "Ġcarpet": 9355,
    "Ġauthoritative": 19562,
    "chanced": 18806,
    "lemag": 21370,
    "Ġthickest": 16654,
    "bottom": 11426,
    "Ġguards": 16268,
    "Ġupp": 13992,
    "scans": 22989,
    "Ġsketches": 26272,
    "Ġbraided": 16581,
    "Ġapprove": 12863,
    "nonsense": 17616,
    "reduc": 5459,
    "Ġglassy": 19561,
    "Ġcorrectly": 9403,
    "swiftly": 20550,
    "Ġwhiteness": 5918,
    "Ġwhitting": 18056,
    "some": 2237,
    "Ġwarbling": 26170,
    "surround": 16758,
    "Ġsex": 8841,
    "Á": 130,
    "Ġsoon": 1229,
    "able": 451,
    "vital": 17701,
    "Ġcoopman": 25829,
    "_).âĢĶ": 8681,
    "Ġstained": 11651,
    "batim": 25020,
    "elizabeth": 1986,
    "mass": 12488,
    "Ġsingularly": 12147,
    "dilig": 17282,
    "Ġsystematically": 4605,
    "Ġreciprocating": 26371,
    "Ġdesperately": 24659,
    "seaman": 25460,
    "Ġcough": 11580,
    "Ġmarriage": 3191,
    "Ġvulture": 17338,
    "ctor": 13960,
    "Ġdepressions": 25801,
    "Ġtreble": 16503,
    "gangway": 20666,
    "Ġlocked": 6034,
    "conven": 6162,
    "passed": 8025,
    "scap": 22990,
    "Ġcomponents": 8892,
    "inable": 11555,
    "cent": 8072,
    "ror": 7351,
    "stirring": 20424,
    "ieth": 10703,
    "Ġingratitude": 17468,
    "Ġfresher": 23209,
    "Ġoverlooking": 22358,
    "Ġwinchester": 10063,
    "Ġgates": 10198,
    "Ġappearing": 9839,
    "Ġdragged": 6889,
    "Ġobscure": 9553,
    "Ġheels": 10849,
    "Ġhauled": 11692,
    "Ġfix": 2509,
    "Ġridiculous": 10627,
    "aloons": 20011,
    "Ġadvancement": 24478,
    "Ġordered": 5832,
    "Ġhalts": 3163,
    "octavo": 11385,
    "Ġvideos": 13606,
    "nns": 1895,
    "request": 21240,
    "Ġtest": 1607,
    "Ġvisiting": 10359,
    "advent": 10218,
    "possibility": 13361,
    "Ġsinners": 18950,
    "traced": 19638,
    "Ġverte": 9440,
    "fury": 17547,
    "Ġkrem": 9725,
    "21": 10069,
    "Ġoverhear": 15975,
    "taught": 17685,
    "ishments": 9272,
    "Ġdrawback": 23990,
    "&": 10,
    "corrupt": 14894,
    "Ġlifts": 25360,
    "Ġmending": 17805,
    "idly": 12698,
    "Ġrepresented": 8938,
    "Ġcredited": 25156,
    "assed": 6421,
    "pow": 10716,
    "Ġhidden": 1374,
    "proves": 23395,
    "falsehood": 25903,
    "empl": 5724,
    "Ġrepublican": 17411,
    "advice": 12156,
    "Ġsolar": 22882,
    "prises": 23814,
    "Ġplowdon": 26449,
    "moor": 22702,
    "Ġthanked": 9457,
    "Ġtomb": 8806,
    "Ġprofile": 16488,
    "tipt": 25087,
    "Ġhandsom": 11123,
    "invari": 21183,
    "Ġdiffident": 23785,
    "Ġcompassion": 6487,
    "Ġtub": 7146,
    "Ġdelayed": 9517,
    "rendered": 22342,
    "thy": 2936,
    "movable": 14323,
    "Ġclad": 12838,
    "flex": 24847,
    "Ġtenement": 23550,
    "mockery": 24381,
    "evening": 7089,
    "Ġimpossibility": 20646,
    "Ġdolphin": 17311,
    "Ġsoften": 23123,
    "Ġrecursive": 4780,
    "coil": 23561,
    "whew": 22868,
    "Ġseptember": 18207,
    "bran": 23576,
    "Ġclouded": 13289,
    "Ġcred": 8779,
    "rowing": 7930,
    "duchess": 18464,
    "Ġponderous": 8354,
    "Ġduty": 4066,
    "spersed": 22737,
    "balls": 12304,
    "ies": 583,
    "mud": 20970,
    "Ġslaughtered": 26586,
    "Ġsundering": 23275,
    "rically": 15417,
    "fashioned": 9570,
    "Ġapiece": 16813,
    "renadier": 18421,
    "Ġgloomily": 14800,
    "Ġpreser": 6040,
    "leag": 21364,
    "Ġrepenting": 25325,
    "Ġadmirer": 16838,
    "Ġdeser": 3884,
    "Ġblight": 18818,
    "other": 1315,
    "Ġverd": 6919,
    "Ġunsophisticated": 25994,
    "Ġtoss": 10182,
    "Ġunfolding": 17086,
    "Ġmagnificence": 20631,
    "Ġbanking": 19631,
    "Ġdel": 1611,
    "Ġfavourably": 16361,
    "ü": 189,
    "Ġwrung": 14469,
    "Ġprivately": 19524,
    "Ġconvenience": 11330,
    "so": 892,
    "Ġwrought": 11943,
    "observed": 7675,
    "Ġeyed": 12665,
    "Ġsteward": 6584,
    "solemn": 19818,
    "repid": 11564,
    "Ġwo": 3647,
    "precise": 19351,
    "Ġheave": 7600,
    "Ġroasted": 18460,
    "Ġprob": 970,
    "Ġdealing": 14047,
    "Ġsentry": 19029,
    "Ġdoomed": 11341,
    "iful": 2881,
    "sis": 1843,
    "apped": 5395,
    "Ġpersuading": 19410,
    "Ġslaves": 23167,
    "sincere": 16907,
    "Ġperceiving": 8875,
    "eed": 20840,
    "fi": 12460,
    "clergy": 18934,
    "aract": 17888,
    "amiable": 14053,
    "Ġsensitive": 13197,
    "Ġdispositions": 13232,
    "Ġmisgivings": 15290,
    "Ġjackets": 19603,
    "Ġfalsehood": 10521,
    "Ġgasp": 7172,
    "Ġwearily": 18177,
    "Ġleatherhead": 20014,
    "Ġbidden": 24649,
    "nantucketer": 24976,
    "Ġinboard": 17933,
    "Ġhalting": 16273,
    "Ġbreeding": 14522,
    "Ġdelightfully": 13158,
    "Ġshoulders": 5566,
    "ially": 9245,
    "Ġspas": 10922,
    "wall": 10134,
    "Ġensu": 7874,
    "Ġafghan": 22629,
    "idually": 21768,
    "Ġcontinuous": 1561,
    "Ġclearness": 23182,
    "Ġfam": 1582,
    "Ġjoyous": 14663,
    "Ġobtain": 8914,
    "Ġbloss": 19257,
    "unfortunate": 15775,
    "Ġdyspepsia": 20642,
    "shell": 16285,
    "Ġpau": 17909,
    "athed": 7828,
    "Ġslipped": 6492,
    "Ġglanced": 5951,
    "Ġwit": 3838,
    "Ġinconveniences": 24943,
    "isive": 10792,
    "Ġiroqu": 21622,
    "Ġcurios": 18847,
    "Ġflooring": 23625,
    "ning": 950,
    "ples": 6845,
    "Ġgouldings": 26189,
    "Ġsurmise": 12294,
    "Ġperceptibly": 25823,
    "Ġmeanness": 22597,
    "screw": 9346,
    "Ġgathers": 24746,
    "zy": 2668,
    "imag": 6990,
    "Ġpredecessor": 26255,
    "forehead": 8515,
    "dev": 7632,
    "Ġspo": 6846,
    "Ġduc": 4696,
    "chop": 21686,
    "Ġentry": 11025,
    "Ġfreely": 7056,
    "W": 59,
    "hyme": 19610,
    "Ġdeparted": 5564,
    "aware": 16294,
    "feared": 11800,
    "Ġhan": 15616,
    "Ġstables": 23656,
    "Ġsucked": 14132,
    "Ġcontinu": 1168,
    "Ġpostscript": 14807,
    "disputed": 23504,
    "Ġbattery": 21392,
    "pire": 9135,
    "appro": 7044,
    "Ġunp": 12770,
    "ĠĠĠĠĠĠĠĠĠĠĠĠĠĠĠĠĠĠĠĠĠĠ": 16225,
    "unwilling": 14061,
    "pronounce": 25195,
    "Ġvaguely": 17365,
    "Ġill": 2194,
    "Ġcigar": 9544,
    "Ġaffair": 4461,
    "Ġmichigan": 26428,
    "Ġpilgrimage": 17307,
    "Ġpriority": 19763,
    "Ġtinted": 13822,
    "umnal": 18300,
    "Ġbeamed": 23719,
    "Ġpalsied": 25782,
    "itime": 15546,
    "Ġsiamese": 20481,
    "ĠdÃ¦mon": 7844,
    "Ġhappens": 2188,
    "ured": 1654,
    "Ġform": 1027,
    "Ġdataset": 12818,
    "ricity": 23063,
    "second": 6543,
    "Ġdamn": 11157,
    "swiss": 24258,
    "cooee": 12417,
    "apothecary": 26547,
    "sign": 8387,
    "ationally": 15703,
    "slightest": 25419,
    "Ġgrasping": 12164,
    "Ġdisrespect": 18554,
    "Ġisolation": 17150,
    "atics": 15522,
    "touching": 15090,
    "Ġrecurrent": 1805,
    "thanked": 24334,
    "inquiry": 15141,
    "Ġnimble": 21525,
    "Ġextract": 1466,
    "Ġloathing": 15066,
    "Ġremedy": 18726,
    "nephew": 26399,
    "gre": 5788,
    "inav": 15484,
    "ccas": 15889,
    "ravelled": 18015,
    "Ġabundant": 17154,
    "andes": 18151,
    "agger": 7871,
    "Ġthroats": 24578,
    "resemblance": 25935,
    "nical": 20990,
    "Ġscre": 9736,
    "univers": 15770,
    "Ġtransc": 12861,
    "Ġsulky": 13515,
    "Ġscreaming": 13423,
    "Ġlowest": 11121,
    "Ġgait": 13330,
    "Ġignorance": 6618,
    "rear": 21231,
    "Ġfaulty": 14906,
    "usive": 8191,
    "allest": 5485,
    "umbria": 23931,
    "commod": 16172,
    "Ġexcess": 3342,
    "Ġvessel": 3796,
    "Ġsurv": 6081,
    "Ġded": 2444,
    "Ġpetty": 19596,
    "Ġexplore": 15907,
    "Ġmust": 845,
    "taste": 10127,
    "Ġisle": 8832,
    "Ġreeled": 13986,
    "Ġtusk": 25428,
    "encoura": 15048,
    "worm": 15453,
    "Ġsat": 1133,
    "Ġsemicircular": 26071,
    "bildad": 9586,
    "usual": 5841,
    "ur": 326,
    "Ġtelescopes": 25693,
    "icular": 2023,
    "Ġsolitude": 6876,
    "Ġqueer": 4476,
    "Ġmists": 14630,
    "Ġspeaker": 19150,
    "Ġaudits": 24773,
    "Ġcad": 12566,
    "Ġdevotees": 25378,
    "ear": 8730,
    "class": 4091,
    "Ġtroubles": 19439,
    "meditation": 19068,
    "Ġmccarthy": 5145,
    "washed": 13044,
    "loo": 10317,
    "Ġfortresses": 23623,
    "Ġunjust": 8483,
    "begone": 12877,
    "deliber": 17425,
    "Ġspitz": 14149,
    "Ġunexplored": 26520,
    "Ġassign": 11109,
    "Ġfeatureless": 22613,
    "?âĢĿâĢĶ": 12893,
    "slack": 16894,
    "Ġdescends": 14286,
    "axen": 22521,
    "istan": 22107,
    "Ġwilt": 9643,
    "Ġdoll": 10815,
    "articulate": 17397,
    "Ġmaker": 15541,
    "alongside": 19790,
    "Ġvindictiveness": 25741,
    "Ġcounsel": 13615,
    "Ġguilty": 7250,
    "its": 1152,
    "Ġmade": 1051,
    "Ġunmolested": 15244,
    "tend": 17675,
    "tering": 3804,
    "Ġglim": 9343,
    "Ġcomment": 9232,
    "Ġimpatient": 5603,
    "Ġindulge": 10580,
    "Ġexpecting": 10434,
    "recol": 10148,
    "Ġfisherman": 12074,
    "Ġsalisbury": 24063,
    "Ġperiodical": 14771,
    "Ġremaining": 6188,
    "arled": 21420,
    "Ġtrained": 8502,
    "Ġstring": 11825,
    "Ġcovari": 2340,
    "Ġconverse": 11842,
    "Ġsalut": 10507,
    "ojo": 7349,
    "fanc": 20863,
    "prodig": 16426,
    "voice": 7816,
    "Ġappropriate": 2250,
    "Ġglances": 10370,
    "Ġslink": 23161,
    "Ġalways": 1698,
    "Ġshoved": 23494,
    "Ġconcentrate": 25067,
    "Ġincognit": 22554,
    "Ġbrings": 11878,
    "Ġadored": 18291,
    "Ġreplete": 15696,
    "inev": 21964,
    "oriously": 17875,
    "ms": 540,
    "spin": 22733,
    "Ġfervently": 25879,
    "Ġweltering": 19586,
    "Ġlectures": 17178,
    "Ġrecollections": 10510,
    "Ġbloody": 9886,
    "yield": 13809,
    "lads": 20954,
    "oriental": 23718,
    "Ġbrit": 6289,
    "Ġterrier": 23400,
    "frequent": 15352,
    "Ġrector": 21674,
    "Ġmet": 1812,
    "Ġnail": 9195,
    "iture": 5696,
    "Ġidleness": 11143,
    "Ġdarkly": 19116,
    "Ġremove": 7500,
    "Ġunknown": 4451,
    "iries": 18169,
    "icked": 10330,
    "Ġsultan": 15183,
    "Ġsp": 458,
    "Ġcurv": 3509,
    "quently": 9701,
    "Ġplanet": 14749,
    "Ġleaks": 16449,
    "perquisites": 26533,
    "Ġidentify": 12013,
    "Ġcastor": 19427,
    "Ġcolle": 8923,
    "Ġaccompanied": 6780,
    "Ġcalam": 13032,
    "Ġimmemorial": 10508,
    "Ġsupposed": 4556,
    "Ġjavelin": 26106,
    "carpet": 25205,
    "Ġhob": 12627,
    "up": 1284,
    "Ġeffectual": 18733,
    "longing": 23726,
    "rets": 12539,
    "glancing": 11213,
    "Ġmizen": 17258,
    "wonders": 17143,
    "str": 2576,
    "aurus": 20559,
    "Ġdiscomposed": 25583,
    "Ġelij": 8908,
    "Ġpenn": 11111,
    "Ġvis": 1118,
    "Ġcork": 12567,
    "Ġdere": 21834,
    "atiate": 12546,
    "Ġconfined": 7465,
    "Ġcrew": 2497,
    "Ġcurves": 18845,
    "Ġprodu": 1206,
    "Ġquadr": 8199,
    "nearly": 8680,
    "Ī": 235,
    "Ġlonged": 6436,
    "Ġpartner": 6714,
    "Ġones": 3024,
    "left": 6975,
    "Ġblanket": 8342,
    "silenced": 24426,
    "Ġdrives": 14578,
    "Ġbinnacle": 8118,
    "Ġgeneral": 1863,
    "Ġinfallible": 15069,
    "close": 9984,
    "Ġmercifully": 20178,
    "Ġresembles": 25971,
    "ultaneously": 4188,
    "behaved": 24466,
    "Ġfortitude": 9883,
    "Ġrue": 11865,
    "dost": 14535,
    "Ġduties": 6610,
    "Ġbutcher": 18271,
    "Ġdams": 16457,
    "bury": 9106,
    "Ġreplenished": 13636,
    "Ġpresenting": 18990,
    "happiness": 6469,
    "Ġalley": 15734,
    "Ġvelv": 10617,
    "ladies": 9528,
    "Ġclerical": 25571,
    "Ġfourth": 7706,
    "Ġobst": 6284,
    "sequent": 6831,
    "Ġgour": 21595,
    "itt": 571,
    "oldened": 22644,
    "manner": 6170,
    "Ġsighing": 18674,
    "iciously": 17974,
    "Ġvigour": 24465,
    "Ġshrieking": 24761,
    "Ġmildly": 9029,
    "uteness": 17986,
    "presbyter": 20616,
    "Ġapparition": 8066,
    "ished": 1427,
    "Ġfishe": 15584,
    "Ġsaying": 3245,
    "Ġmark": 2333,
    "bel": 3832,
    "Ġtorpor": 25035,
    "Ġclaws": 15969,
    "Ġbrushed": 15569,
    "Ġeternally": 11369,
    "Ġmusty": 22680,
    "Ġremotest": 10049,
    "Ġpeels": 22691,
    "Ġcoward": 7155,
    "ensical": 18568,
    "Ġinvestigations": 17246,
    "Ġplunge": 13443,
    "iew": 2447,
    "Ġstandpoint": 23278,
    "Ġjewels": 12368,
    "albatross": 15628,
    "Ġmutineer": 19418,
    "impression": 15709,
    "Ġasser": 6257,
    "pattern": 4286,
    "Ġsally": 15502,
    "Ġtwink": 8215,
    "elius": 13286,
    "tuning": 1579,
    "Ġbanish": 15568,
    "Ġproflig": 23569,
    "Ġwind": 1433,
    "Ġfurn": 3706,
    "Ġdavis": 25954,
    "Ġdecreed": 18485,
    "Ġminute": 4275,
    "Ġdiscredit": 22783,
    "umed": 6554,
    "q": 85,
    "happ": 3110,
    "Ġprovoked": 13325,
    "peculiarities": 13471,
    "ume": 4833,
    "somehow": 12011,
    "Ġunch": 18239,
    "Ġpuff": 6526,
    "ever": 1076,
    "ications": 4443,
    "inion": 2873,
    "Ġdiverted": 14592,
    "Ġcrags": 23531,
    "Ġnlp": 3069,
    "Ġdownstream": 3773,
    "Ġforesight": 13127,
    "hailed": 17566,
    "Ġunaccountable": 7886,
    "Ġaccommod": 14212,
    "Ġtransl": 2826,
    "Ġkept": 3346,
    "Ġmonster": 3791,
    "ald": 15623,
    "Ġcane": 10926,
    "mother": 5480,
    "Ġlees": 18063,
    "Ġhardihood": 23112,
    "Ġeconomical": 25290,
    "asional": 17960,
    "Ġangelic": 19628,
    "nue": 15396,
    "laying": 19773,
    "Ġpurplish": 19142,
    "Ġranges": 2882,
    "Ġpuppy": 12404,
    "Ġherein": 16190,
    "seemed": 4301,
    "heim": 17747,
    "ĠĠĠĠĠĠĠĠĠĠĠĠĠĠĠĠĠĠĠĠĠĠĠĠĠĠĠĠĠĠĠ": 19701,
    "Ġhimmalehs": 26232,
    "Ġprotect": 6337,
    "Ġwood": 2293,
    "ert": 2631,
    "cheeks": 23809,
    "Ġexpl": 487,
    "eness": 2292,
    "Ġramadan": 9575,
    "Ġreporting": 24660,
    "Ġscope": 15942,
    "Ġsquid": 11876,
    "cho": 2757,
    "========": 2314,
    "room": 2179,
    "Ġchace": 14178,
    "tempestuous": 26099,
    "enormous": 26168,
    "jerked": 25621,
    "theories": 18078,
    "Ġsentimental": 24757,
    "Ġstriving": 8996,
    "Ġfairer": 20460,
    "Ġpudding": 17916,
    "ble": 542,
    "Ġrhine": 12355,
    "Ġmajority": 13291,
    "Ġlaud": 17968,
    "isol": 17847,
    "Ġaccomplice": 24379,
    "ered": 1685,
    "emorial": 10241,
    "Ġbasement": 24705,
    "Ġrevenge": 5452,
    "Ġrobert": 10969,
    "Ġsallow": 12534,
    "Ġparm": 15876,
    "Ġmixing": 24938,
    "Ġalabama": 14019,
    "hecy": 21205,
    "Ġarch": 938,
    "isc": 6239,
    "Ġreplied": 2267,
    "intellig": 5320,
    "omist": 21636,
    "Ġspot": 4148,
    "Ġprev": 6264,
    "Ġtashtego": 4484,
    "Ġdefault": 3044,
    "appearance": 5333,
    "Ġivory": 4474,
    "banish": 20781,
    "Ġsingled": 23774,
    "Ġadvertised": 17247,
    "Ġaug": 6234,
    "hereafter": 19218,
    "Ġdegener": 14050,
    "Ġswears": 16464,
    "ribut": 816,
    "eration": 10771,
    "Ġoccupies": 24008,
    "Ġdestabilizing": 5054,
    "Ġcolonnades": 26277,
    "Ġlovel": 10269,
    "Ġunequal": 14841,
    "Ġrick": 21972,
    "Ġjustly": 11901,
    "related": 24012,
    "Ġdances": 10814,
    "mayhew": 23992,
    "rength": 4097,
    "Ġwoof": 14720,
    "Ġawa": 7713,
    "Ġsobbing": 14137,
    "ica": 10196,
    "finer": 17546,
    "gon": 17552,
    "bib": 17491,
    "lement": 10164,
    "12": 20748,
    "Ġjapanese": 10631,
    "Ġwarning": 9058,
    "Ġcomprising": 16067,
    "Ġjoin": 4851,
    "delight": 5344,
    "Ġsystematic": 5245,
    "Ġcomfortably": 16615,
    "Ġpunctilious": 26354,
    "wherein": 19109,
    "Ġcareer": 11117,
    "closing": 23154,
    "Ġtriumphantly": 11286,
    "greater": 13250,
    "Ġplease": 4721,
    "Ġpleadings": 25854,
    "Ġtugged": 17288,
    "Ġmanagement": 8192,
    "Ġredu": 1352,
    "Ġdocument": 15018,
    "conced": 22470,
    "Ġcurric": 22970,
    "storied": 18025,
    "Ġlaure": 16909,
    "ommod": 13977,
    "eag": 20841,
    "Ġhistories": 14687,
    "Ġdare": 3542,
    "wound": 21125,
    "Ġsurvivor": 17362,
    "extending": 22766,
    "Ġwhoever": 10974,
    "Ġcopying": 17069,
    "Ġsharpened": 17364,
    "ornamented": 26597,
    "unctuous": 21881,
    "Ġphrenologically": 20392,
    "Ġintercept": 14268,
    "Ġenhance": 3007,
    "Ġknees": 6928,
    "ull": 1431,
    "varieties": 23185,
    "fair": 10090,
    "Ġostlers": 25279,
    "imet": 21704,
    "Ġluxur": 12340,
    "Ġentries": 22747,
    "urer": 18122,
    "Ġpropriety": 10008,
    "icherry": 15134,
    "Ġluc": 3311,
    "oqu": 7556,
    "Ġcaprice": 14577,
    "doing": 8584,
    "dra": 3413,
    "elev": 12457,
    "ached": 2323,
    "er": 269,
    "buckets": 26125,
    "Ġcomplying": 18587,
    "belled": 24036,
    "decided": 13215,
    "Ġwarmly": 8987,
    "seam": 10873,
    "Ġrever": 6536,
    "Ġpolitely": 8993,
    "Ġkeeled": 18810,
    "concealed": 25119,
    "urning": 12915,
    "Ġfortunate": 6214,
    "Ġcrozetts": 19630,
    "Ġevid": 3498,
    "terday": 4703,
    "Ġreturns": 11924,
    "Ġcausing": 16357,
    "Ġmar": 1312,
    "Ġcorresponding": 13438,
    "abst": 21787,
    "Ġaggreg": 12882,
    "mare": 17600,
    "Ġlunch": 13526,
    "ckery": 22089,
    "blows": 17165,
    "Ġsaddest": 16662,
    "tube": 20409,
    "Ġav": 3578,
    "Ġsmiled": 5940,
    "illum": 15868,
    "Ġchalk": 15932,
    "Ġinfer": 7684,
    "steel": 8297,
    "Ġhoary": 23355,
    "Ġquicker": 16507,
    "hat": 6956,
    "Ġobliv": 16132,
    "esteem": 26010,
    "Ġsiber": 17756,
    "Ġign": 8293,
    "Ġcoolness": 16886,
    "represent": 9637,
    "thirst": 15824,
    "Ġmisgiv": 14344,
    "Ġdevouring": 11857,
    "Ġteeth": 4160,
    "Ġprincipal": 6496,
    "Ġsisters": 3636,
    "Ġmounting": 19977,
    "Ġcasualty": 20340,
    "Ġflying": 5413,
    "Ġbul": 3294,
    "icions": 21560,
    "Ġtaller": 16688,
    "Ġdomes": 23723,
    "quimaux": 21858,
    "tired": 21071,
    "Ġjurors": 17343,
    "Ġtransition": 14232,
    "Ġ45": 14769,
    "Ġbanners": 24862,
    "Ġappar": 7411,
    "Ġextremest": 19196,
    "equ": 6790,
    "Ġscimet": 22288,
    "Ġseem": 915,
    "Ġspeeches": 22663,
    "con": 655,
    "Ġunidirectional": 3425,
    "imp": 3038,
    "Ġescorted": 23510,
    "Ġluff": 15651,
    "Ġshad": 3846,
    "tenham": 16320,
    "figured": 20123,
    "opence": 18509,
    "Ġpills": 21464,
    "Ġprofessors": 14724,
    "Ġcurve": 22968,
    "Ġgrassy": 24382,
    "Ġchival": 14182,
    "Ġemboldened": 22975,
    "Ġpours": 17912,
    "absurd": 21794,
    "agree": 14067,
    "Ġbowsman": 11253,
    "gences": 20876,
    "Ġankles": 17900,
    "alo": 7588,
    "flutter": 23971,
    "Ġacting": 10990,
    "ulties": 12899,
    "Ġpossessing": 16575,
    "Ġconsole": 8150,
    "ie": 729,
    "Ġhuge": 4698,
    "Ġblooming": 17212,
    "Ġmichael": 20678,
    "Ġbehav": 3537,
    "Ġsanely": 24984,
    "produ": 10719,
    "Ġ_": 841,
    "Ġsob": 12786,
    "enthus": 17978,
    "Ġfresh": 3666,
    "smoke": 17222,
    "ertain": 1208,
    "commanding": 24755,
    "Ġannoyance": 20661,
    "morn": 20975,
    "orously": 8418,
    "unvarying": 21886,
    "Ġblanc": 11064,
    "Ġvale": 14082,
    "Ġreally": 2160,
    "Ġlingered": 13505,
    "Ġgranted": 22807,
    "ability": 717,
    "Ġwatery": 6296,
    "poky": 17645,
    "Ġconnections": 971,
    "Ġmerry": 5868,
    "hurried": 11352,
    "Ġdeserved": 7736,
    "Ġjuicy": 25372,
    "iloqu": 11647,
    "Ġsnapping": 19301,
    "Ġrecumbent": 22744,
    "Ġduplicate": 17215,
    "Ġirrevocably": 15296,
    "entiful": 10835,
    "Ġactions": 6278,
    "Ġweigh": 10892,
    "Ġconcepts": 4549,
    "mouse": 15391,
    "astern": 8581,
    "Ġdeserve": 8308,
    "Ġstrategy": 2419,
    "lower": 8880,
    "quiet": 6154,
    "Ġjenkinson": 11431,
    "ep": 442,
    "Ġregular": 941,
    "Ġconsec": 21804,
    "cess": 536,
    "Ġcontour": 18475,
    "ernally": 22619,
    "ices": 2135,
    "adventures": 20255,
    "Ġletter": 2198,
    "urable": 8924,
    "Ġvivid": 8057,
    "Ġchanced": 8186,
    "Ġstuffed": 13409,
    "Ġmatlock": 18804,
    "Ġeloquence": 11840,
    "_),": 7125,
    "Ġput": 1800,
    "Ġtract": 21164,
    "Ġcustomary": 8669,
    "Ġresponded": 13638,
    "itation": 1782,
    "Ġrecoil": 18693,
    "wonderful": 16960,
    "stern": 8444,
    "tha": 15822,
    "aphs": 22335,
    "concluded": 11241,
    "years": 6883,
    "Ġsinful": 18949,
    "ordinate": 12874,
    "preservation": 25308,
    "Ġsling": 21219,
    "Ġtouch": 3396,
    "shop": 14238,
    "ulated": 6029,
    "Ġvillains": 14748,
    "Ġbelted": 22948,
    "Ġabound": 8863,
    "phil": 7924,
    "weed": 14314,
    "ustomed": 6098,
    "considering": 12173,
    "directed": 20403,
    "iability": 20919,
    "Ġinforming": 18744,
    "evid": 11484,
    "av": 740,
    "Ġimbedded": 18332,
    "Ġguardianship": 17419,
    "ī": 236,
    "Ġabandoned": 8351,
    "illar": 5101,
    "Ġmasoned": 20250,
    "Ġemac": 16407,
    "nights": 16450,
    "Ġespecially": 3932,
    "Ġbottom": 3670,
    "don": 3541,
    "Ġsupplies": 20325,
    "forever": 22519,
    "Ġlouisa": 13546,
    "australian": 20560,
    "Ġyounge": 16286,
    "Ġenormity": 19696,
    "Đ": 209,
    "Ġwrists": 11112,
    "Ġtallow": 14777,
    "reflection": 13455,
    "Ġsunken": 14493,
    "Ġgord": 21597,
    "Ġneighbors": 25807,
    "Ġrib": 4935,
    "sheep": 23087,
    "Ġcapable": 5055,
    "Ġcharming": 6628,
    "Ġcumberland": 21353,
    "Ġdecline": 9286,
    "Ġpoints": 5248,
    "knew": 9126,
    "Ġfrolic": 23924,
    "Ġflight": 6580,
    "Ġshattered": 7883,
    "lock": 1469,
    "jewell": 25526,
    "spending": 18692,
    "Ġeel": 18002,
    "Ġincluded": 8930,
    "Ġregiment": 6432,
    "Ġsmelling": 16065,
    "Ġinsip": 19268,
    "Ġtwo": 1045,
    "Ġassociate": 13450,
    "Ġtouched": 6000,
    "Ġdiverged": 23596,
    "plan": 15813,
    "Ġretrogress": 23073,
    "Ġantelope": 24183,
    "Ġboldly": 9500,
    "attempt": 9359,
    "Ġfainted": 8790,
    "kindled": 16660,
    "Ġmagistrate": 8233,
    "Ġunwound": 25172,
    "Ġthirt": 13939,
    "indifference": 15981,
    "Ġnavigators": 19764,
    "Ġinscriptions": 20009,
    "ren": 550,
    "garn": 20869,
    "Ġloafer": 18299,
    "Ġfollies": 16257,
    "Ġnowhere": 12884,
    "Ġbast": 21377,
    "crier": 20819,
    "cake": 20803,
    "Ġnobody": 6158,
    "det": 5207,
    "Ġcorresponds": 19822,
    "fleece": 19948,
    "Ġjoining": 13164,
    "Ġcontinents": 16849,
    "ł": 259,
    "Ġpyramids": 15113,
    "Ġlimited": 23547,
    "Ġfilm": 23925,
    "once": 5903,
    "Ġslapped": 23169,
    "Ġgills": 17993,
    "Ġlatitudes": 9495,
    "lipped": 16216,
    "umul": 1290,
    "consider": 6348,
    "Ġdispleased": 18556,
    "ia": 1259,
    "Ġinhabitants": 7525,
    "I": 45,
    "Ġexasper": 8466,
    "itage": 17817,
    "Ġcaptiv": 16258,
    "Ġmoment": 990,
    "Ġpaw": 12618,
    "elihood": 4621,
    "Ġdisplay": 6428,
    "Ġdodo": 9072,
    "Ġrapt": 7226,
    "Ġeggs": 12341,
    "luded": 4223,
    "drop": 15336,
    "Ġappropriated": 23489,
    "inople": 13829,
    "Ġjacket": 6489,
    "Ġxxx": 7766,
    "âĢĻ!âĢĿ": 18167,
    "Ġcargo": 16289,
    "Ġnut": 12644,
    "Ġsche": 1706,
    "occur": 19576,
    "Ġtrough": 15962,
    "Ġdays": 2078,
    "ic": 304,
    "Ġworked": 6583,
    "Ġpsal": 15614,
    "Ġceremonious": 24841,
    "Ġscholar": 26113,
    "Ġapart": 4744,
    "Ġinfamy": 14502,
    "Ġsymmetry": 20364,
    "Ġplot": 14279,
    "Ġsomeone": 6703,
    "Ġloitering": 22115,
    "rove": 21530,
    "alth": 3257,
    "afforded": 25867,
    "Ġserviceable": 24721,
    "Ġdiversion": 17197,
    "Ġheavily": 6740,
    "resembled": 21245,
    "Ġconsequent": 18113,
    "Ġworthy": 7241,
    "vishnoo": 21118,
    "french": 9119,
    "scissors": 20726,
    "Ġcomplex": 747,
    "Ġtwilight": 16120,
    "trap": 24316,
    "Ġhelter": 24025,
    "Ġpointed": 4771,
    "Ġinfirm": 19021,
    "dler": 13706,
    "Ġprocopius": 19732,
    "atmospheric": 17777,
    "Ġguitar": 16269,
    "resh": 8403,
    "embarrassed": 20595,
    "takes": 21074,
    "Ġcamberwell": 25352,
    "lacings": 26136,
    "Ġdost": 7637,
    "hos": 15362,
    "Ġpersian": 11095,
    "Ġcet": 6669,
    "Ġgreek": 10629,
    "ense": 2052,
    "Ġlazily": 11380,
    "joined": 13274,
    "orious": 6007,
    "Ġfingertips": 24017,
    "Ġhyena": 24522,
    "Ġintent": 6409,
    "Ġsanctified": 25885,
    "qual": 8156,
    "alterable": 13624,
    "Ġpeeping": 16126,
    "possess": 5983,
    "Ġadjacent": 20710,
    "europe": 20664,
    "Ġlivelihood": 24777,
    "Ġcoopers": 20520,
    "Ġgpt": 4348,
    "Ġslighted": 16567,
    "erce": 6126,
    "Ġpeter": 10533,
    "ĠâĢĶ_": 3457,
    "oise": 15404,
    "operations": 19975,
    "mingled": 14712,
    "Ġsiam": 13838,
    "Ġaltern": 7394,
    "Ġcal": 1326,
    "Ġmortally": 23917,
    "Ġpreliminaries": 25179,
    "aston": 7408,
    "Ġallegor": 25548,
    "entiating": 3437,
    "Ġbreaths": 14856,
    "Ġreign": 13985,
    "Ġsentiments": 7960,
    "Ġcondense": 21807,
    "Ġgrandeur": 8627,
    "Ġunheeded": 18261,
    "Ġpig": 5705,
    "Ġ\"": 6119,
    "Ġinoffensive": 21495,
    "kes": 3674,
    "mm": 675,
    "Ġlass": 15646,
    "Ġgrasshopper": 24383,
    "Ġawaiting": 11390,
    "names": 15397,
    "Ġconnex": 10663,
    "partner": 19223,
    "Ġ130": 24784,
    "Ġbuzz": 23997,
    "none": 6962,
    "ii": 4009,
    "ah": 1835,
    "pot": 10115,
    "Ġgrooves": 16741,
    "Ġtreating": 4280,
    "Ġmagnifying": 16319,
    "Ġbraw": 23835,
    "Ġabused": 22269,
    "Ġwrong": 4722,
    "Ġstraps": 19310,
    "Ġrepeating": 11212,
    "ized": 1526,
    ")(": 2985,
    "Ġempires": 19077,
    "Ġchry": 22246,
    "rief": 6202,
    "Ġaugmentation": 20116,
    "remind": 23186,
    "Ġendeavor": 16545,
    "within": 6730,
    "ign": 1704,
    "Ġtidings": 11397,
    "Ġclapping": 14203,
    "wn": 721,
    "ċ": 204,
    "Ġburg": 23653,
    "Ġwont": 9850,
    "Ġmultitud": 18750,
    "nes": 6961,
    "Ġmayhew": 12948,
    "Ġfrighten": 13277,
    "Ġmouldings": 24740,
    "Ġont": 18118,
    "Ġnational": 13942,
    "Ġwish": 2097,
    "Ġviciss": 11291,
    "Ġknows": 4153,
    "reputation": 15515,
    "Ġgrinned": 16857,
    "looking": 4029,
    "Ġmeanwhile": 5736,
    "Ġpredomin": 16040,
    "Ġjoll": 11763,
    "Ġcorpor": 23039,
    "Ġdeceit": 13481,
    "Ġunsc": 22013,
    "Ġgovernor": 16490,
    "teeth": 10353,
    "Ġdizzy": 21435,
    "coffin": 10660,
    "Ġembodied": 25848,
    "Ġsundial": 15081,
    "Ġessential": 7524,
    "Ġubiqu": 18047,
    "Ġswept": 7977,
    "contracting": 19294,
    "Ġjelly": 22300,
    "Ġverses": 17064,
    "Ġestab": 6315,
    "olerably": 11672,
    "hearted": 6970,
    "Ġmamma": 10045,
    "sufficiently": 14980,
    "the": 334,
    "circumstances": 8046,
    "unsuitable": 21892,
    "Ġwarn": 5695,
    "Ġminus": 18753,
    "Ġreminds": 13431,
    "invincible": 25093,
    "Ġenrapt": 21938,
    "Ġhoops": 9388,
    "Ġrecklessness": 24748,
    "Ġvindictive": 20468,
    "Ġpercept": 14223,
    "bale": 20773,
    "Ġmetropol": 11136,
    "Ġholy": 6591,
    "guilt": 24069,
    "Ġchallenges": 13630,
    "trees": 10730,
    "assured": 10952,
    "Ġrhyme": 21980,
    "Ġr": 405,
    "Ġsprings": 16687,
    "Ġplantation": 11423,
    "Ġconsisting": 8971,
    "upon": 2719,
    "Ġopportunity": 4784,
    "Ġinfinite": 8576,
    "vag": 8763,
    "Ġcalculated": 4473,
    "min": 4569,
    "Ġfacing": 10169,
    "Ġwretchedly": 19507,
    "Ġindomit": 22955,
    "Ġbutchers": 18272,
    "Ġnewly": 9337,
    "supplementary": 20548,
    "Ġcontempl": 6701,
    "Ġpoignant": 22593,
    "Ġtorture": 9064,
    "Ġdeposited": 25487,
    "arken": 18668,
    "Ġdressed": 5082,
    "ol": 363,
    "accepted": 20136,
    "ario": 14247,
    "Ġhearing": 4759,
    "umer": 9257,
    "Ġtranqu": 4602,
    "Ġjur": 12832,
    "Ġcovers": 18593,
    "Ġdimensions": 16571,
    "solving": 3105,
    "Ġamours": 22481,
    "Ġchestnut": 19673,
    "Ġlimping": 23548,
    "cious": 6643,
    "Ġwhe": 439,
    "Ġsensibility": 14513,
    "Ġfatigued": 13465,
    "avier": 2827,
    "Ġtying": 15473,
    "responsible": 25766,
    "lesome": 12963,
    "Ġown": 1008,
    "Ġorganize": 8991,
    "eastward": 15128,
    "rote": 4590,
    "Ġvint": 18194,
    "Ġupdating": 2688,
    "secret": 12235,
    "Ġaz": 9629,
    "Ġgone": 2106,
    "Ġcorn": 9349,
    "Ġbask": 8116,
    "Ġfastened": 7065,
    "Ġpresent": 1640,
    "omach": 11633,
    "thest": 11653,
    "Ġsymbols": 2793,
    "Ġbehaviour": 4381,
    "rather": 5430,
    "Ġniag": 21527,
    "Ġinsurg": 23679,
    "Ġpoltroon": 26600,
    "Ġharbors": 24905,
    "Ġcraw": 7282,
    "Ġaccidentally": 9504,
    "Ġmorphology": 3015,
    "etent": 10197,
    "Ġdenote": 19334,
    "Ġcaress": 16338,
    "appetite": 22851,
    "Ġfathers": 16295,
    "Ġappears": 5402,
    "cause": 7795,
    "Ġpondicherry": 20489,
    "Ġcourtesy": 9943,
    "Ġpikes": 21476,
    "Ġsuccess": 3606,
    "Ġloadstone": 25819,
    "Ġcries": 7154,
    "Ġclimb": 15078,
    "Ġcharm": 4546,
    "Ġtufted": 17014,
    "Ġ36": 14766,
    "Ġwarden": 17224,
    "Ę": 217,
    "Ġimprove": 1784,
    "Ġpoltro": 23621,
    "Ġfists": 15581,
    "Ġaffectionately": 13168,
    "Ġ550": 19642,
    "Ġadam": 2125,
    "Ġsupport": 6728,
    "Ġcanals": 22163,
    "urously": 18051,
    "as": 302,
    "Ġcarr": 23091,
    "Ġfriesland": 26444,
    "Ġdem": 11673,
    "Ġmathematics": 12072,
    "Ġrepetition": 8972,
    "Ġindiam": 22953,
    "Ġnegatived": 23046,
    "fact": 6358,
    "Ġemployments": 12101,
    "Ġpenalizing": 13091,
    "based": 2962,
    "Ġpian": 13917,
    "ļ": 253,
    "descending": 16283,
    "Ġunfolded": 10636,
    "Ġblaze": 16219,
    "Ġfishing": 9662,
    "Ġmouths": 7492,
    "Ġsadder": 24051,
    "Ġwh": 328,
    "gay": 11488,
    "imate": 4216,
    "rapt": 13973,
    "draw": 23899,
    "suggested": 17298,
    "Ġhenceforth": 19648,
    "Ġshuddered": 11299,
    "degree": 12799,
    "hement": 13832,
    "Ġfishy": 16523,
    "Ġgu": 1328,
    "Ġfathoms": 9083,
    "Ġemerge": 14927,
    "Ġtow": 4392,
    "burning": 25082,
    "Ġupwards": 7634,
    "Ġherbage": 25998,
    "larking": 17595,
    "goose": 19103,
    "william": 4560,
    "Ġpled": 17908,
    "Ġinjuries": 11276,
    "often": 6165,
    "omitted": 18017,
    "farewell": 12305,
    "Ġensued": 11394,
    "Ġportra": 9008,
    "Ġelimin": 16107,
    "Ġcrests": 25688,
    "splinter": 25213,
    "atious": 10149,
    "Ġconsternation": 9857,
    "elopement": 23175,
    "Ġrover": 18456,
    "upset": 23019,
    "Ġnavigation": 9991,
    "crane": 24100,
    "Ġparagraph": 17453,
    "ppery": 10891,
    "Ġlocker": 16911,
    "Ġdish": 6136,
    "won": 7144,
    "Ġreigning": 15699,
    "hon": 6793,
    "Ġwhitish": 24870,
    "Ġsadly": 7302,
    "Ġdews": 21838,
    "Ġstockings": 19997,
    "unmistakable": 21894,
    "Ġsucceeding": 16761,
    "etus": 21575,
    "person": 7745,
    "Ġmcc": 21305,
    "Ġpretended": 19315,
    "Ġincorpor": 13165,
    "Ġindications": 14632,
    "Ġdriving": 3613,
    "Ġtimber": 13349,
    "inf": 6232,
    "Ġcoleridge": 18767,
    "ding": 1233,
    "Ġmasterly": 23994,
    "ugues": 19024,
    "Ġmathemat": 3205,
    "Ġmechanisms": 1574,
    "Ġdeact": 18138,
    "scarcely": 12385,
    "Ġdirest": 22705,
    "Ġabsence": 4893,
    "Ġhumour": 7931,
    "menced": 23144,
    "Ġairy": 23318,
    "Ġmanifested": 17157,
    "buck": 17490,
    "Ġallude": 12769,
    "Ġcheerily": 13307,
    "Ġriverside": 25250,
    "Ġgrave": 5100,
    "walls": 25347,
    "Ġdebts": 8035,
    "Ġencounters": 19581,
    "witted": 17708,
    "Ġreceives": 20353,
    "approaching": 15011,
    "Ġquartered": 20371,
    "Ġroarings": 25305,
    "Ġglory": 6064,
    "Ġconcent": 8249,
    "Ġstands": 5258,
    "Ġgreedily": 18967,
    "ean": 20839,
    "Ġopens": 23628,
    "tables": 19758,
    "Ġlirra": 21557,
    "Ġsacri": 18328,
    "subjects": 19877,
    "philips": 20035,
    "angel": 5726,
    "uiperai": 10661,
    "Ġvectors": 1773,
    "mal": 6794,
    "gard": 7339,
    "butt": 15993,
    "Ġincarn": 11812,
    "Ġparcels": 25468,
    "Ġproduces": 2093,
    "first": 3930,
    "Ġrequisition": 22652,
    "Ġendurance": 23143,
    "examine": 25480,
    "vard": 21109,
    "by": 1161,
    "Ġendeavouring": 8034,
    "Ġirreducible": 5519,
    "Ġhack": 12754,
    "Ġim": 475,
    "Ġseasons": 9430,
    "Ġprecision": 13187,
    "Ġperpendicularly": 11374,
    "unwillingness": 25805,
    "Ġheavier": 13101,
    "Ġjoosy": 23633,
    "Ġshrine": 19532,
    "Ġdrunk": 9423,
    "Ġmetaphysical": 26068,
    "Ġfidget": 15188,
    "Ġprofuse": 23568,
    "Ġtheore": 1831,
    "pute": 8844,
    "Ġvague": 6406,
    "Ġjoints": 12034,
    "tent": 21063,
    "Ġdoubling": 23320,
    "headsman": 16700,
    "attracted": 13049,
    "Ġdreadful": 4919,
    "my": 1316,
    "aven": 8208,
    "Ġelbow": 12921,
    "reement": 15511,
    "ifer": 11683,
    "Ġshivered": 14108,
    "widely": 25345,
    "ark": 851,
    "Ġcastaway": 16640,
    "onse": 21248,
    "itaries": 21334,
    "-------": 20387,
    "Ġgoblets": 20517,
    "Ġquaff": 22414,
    "Ġbehaviors": 13253,
    "fred": 20854,
    "swing": 15429,
    "Ġunfathomably": 25875,
    "entrance": 12655,
    "Ġsolicited": 20037,
    "Ġdocile": 19959,
    "Ġroast": 18457,
    "Ġsheeted": 19832,
    "Ġheartless": 13072,
    "stepfather": 19192,
    "Ġphantom": 8706,
    "_âĢĶâĢĻâĢĿ": 25744,
    "Ġskirts": 14352,
    "Ġexecutioner": 12270,
    "declined": 25177,
    "Ġdiffusion": 23784,
    "Ġundet": 16704,
    "ob": 1419,
    "ib": 1236,
    "stupid": 12674,
    "Ġming": 9645,
    "Ġoutstanding": 22316,
    "lid": 20944,
    "gratulation": 24352,
    "Ġann": 4487,
    "long": 2911,
    "written": 7994,
    "Ġemblematical": 25791,
    "was": 1421,
    "Ġneatly": 17016,
    "Ġowners": 7663,
    "Ġmis": 917,
    "confid": 14866,
    "acy": 3949,
    "grandfather": 25013,
    "Ġcreat": 1420,
    "Ġmarching": 16699,
    "Ġnooks": 26013,
    "Ġhorrible": 4904,
    "osop": 4401,
    "enses": 10993,
    "Ġsine": 10762,
    "learning": 2390,
    "Ġdedicated": 19191,
    "Ġadmit": 7710,
    "Ġequival": 4781,
    "Ġsurprising": 14597,
    "whale": 2138,
    "intimate": 22937,
    "persecutor": 26532,
    "raid": 3280,
    "Ġwoes": 23986,
    "Ġstrang": 4154,
    "Ġhudson": 15190,
    "Ġsitting": 3601,
    "Ġgould": 17990,
    "Ġbehave": 23300,
    "Ġstamped": 13527,
    "Ġpenet": 6888,
    "Ġche": 1763,
    "Ġemotion": 7690,
    "Ġdelic": 4128,
    "seeking": 17152,
    "wishes": 13807,
    "Ġimpulsive": 19963,
    "hind": 20893,
    "leave": 7837,
    "Ġpaintings": 15055,
    "Ġburgl": 13173,
    "existence": 16013,
    "ocity": 8277,
    "Ġregularization": 1183,
    "Ġsnowy": 9017,
    "Ġseaport": 20598,
    "Ġunmingled": 18263,
    "Ġglobal": 2370,
    "maul": 11890,
    "Ġtram": 11090,
    "Ġprevailing": 24676,
    "sec": 6152,
    "Ġoverpow": 14207,
    "blast": 9587,
    "Ġdocks": 14177,
    "moderate": 22862,
    "Ġgrammar": 1062,
    "Ġcrosses": 23062,
    "Ġovers": 14205,
    "Ġenvironments": 24141,
    "Ġcoals": 16072,
    "trip": 21090,
    "Ġmilitia": 13317,
    "Ġintroduce": 3207,
    "Ġwonders": 7501,
    "Ġrev": 6988,
    "Ġasiatics": 20429,
    "liter": 11501,
    "Ġcoats": 16073,
    "Ġtill": 1825,
    "extra": 8218,
    "Ġparties": 7038,
    "ital": 4816,
    "Ġlamentations": 17076,
    "jer": 12479,
    "Ġtravelling": 11306,
    "Ġspeech": 4609,
    "Ġtars": 21163,
    "ory": 1080,
    "Ġcolourless": 19570,
    "Ġfisheries": 17437,
    "Ġaccord": 4021,
    "Ġemm": 18003,
    "Ġ52": 24324,
    "Ġhisself": 21913,
    "conv": 7213,
    "Ġhier": 1896,
    "fulfilment": 26027,
    "Ġorders": 5340,
    "Ġfluke": 14673,
    "Ġgangway": 20158,
    "È": 137,
    "Ġbroom": 18907,
    "Ġmarshy": 20218,
    "ination": 2912,
    "necessities": 24309,
    "Ġvultures": 25656,
    "Ġsink": 4338,
    "esteemed": 26011,
    "Ġlip": 6532,
    "uv": 6229,
    "Ġpersonified": 19179,
    "Ġtalents": 15044,
    "mbles": 23089,
    "Ġergo": 25033,
    "Ġwars": 17786,
    "Ġimplements": 2486,
    "come": 2377,
    "Ġstruggle": 3671,
    "Ġpads": 21472,
    "Ġunconsciously": 10003,
    "hog": 8379,
    "Ġaristocratic": 20510,
    "outh": 2685,
    "Ġnetherfield": 3927,
    "Ġhud": 10821,
    "disposed": 25014,
    "glorious": 19367,
    "Ġlakes": 8130,
    "Ġdesires": 9455,
    "meaning": 2907,
    "unte": 21872,
    "Ġbarbaric": 10012,
    "Ġcult": 8780,
    "gee": 15976,
    "Ġleviathan": 3289,
    "twenty": 6607,
    "wic": 21119,
    "sle": 9138,
    "hastily": 19703,
    "Ġbellies": 13355,
    "Ġdata": 518,
    "Ġ49": 24082,
    "Ġfedallah": 6108,
    "Ġexplanations": 15909,
    "Ġsubproblems": 12955,
    "Ġlabrador": 23330,
    "plac": 15815,
    "Ġsandwic": 24667,
    "atived": 21261,
    "Ġplanisphere": 26609,
    "outer": 9668,
    "ified": 3228,
    "sters": 6391,
    "sister": 5139,
    "ipelagoes": 13671,
    "Ġhurst": 5582,
    "Ġpicturesque": 14893,
    "iscreet": 20681,
    "4": 24,
    "Ġidly": 16405,
    "Ġtoler": 7589,
    "Ġnay": 5711,
    "ional": 1082,
    "Ġpresto": 22229,
    "inence": 15481,
    "Ġbenignity": 18781,
    "Ġstiffest": 24832,
    "school": 10052,
    "Ġcolon": 18765,
    "Ġlean": 7603,
    "Ġjuggl": 20436,
    "Ġcrowds": 14738,
    "Ġdespised": 14666,
    "Ġburned": 8630,
    "Ġpop": 5151,
    "Ġkelson": 18350,
    "Ġbarber": 23791,
    "Ġconcealment": 16914,
    "istically": 14144,
    "Ġglow": 7170,
    "Ġsmith": 16063,
    "Ġgunwales": 12239,
    "Ġdr": 2821,
    "ruck": 6848,
    "impatient": 13640,
    "Ġvill": 3875,
    "Ġscramble": 24581,
    "desp": 6075,
    "Ġconsideration": 5191,
    "violent": 14580,
    "ket": 17583,
    "Ġaries": 21196,
    "Ġsulk": 15045,
    "ferent": 4189,
    "bowing": 24457,
    "model": 4313,
    "Ġunembarrassed": 22068,
    "georgiana": 26022,
    "Ġpledge": 11600,
    "Ġactive": 7914,
    "higher": 20405,
    "gar": 5615,
    "urities": 18050,
    "Ġfulfil": 9550,
    "Ġbagging": 24542,
    "Ġaccomplishments": 13379,
    "Ġamusements": 16913,
    "pocket": 9810,
    "ansion": 10920,
    "Ġchest": 5185,
    "ppered": 15789,
    "beh": 5472,
    "Ġsafe": 5103,
    "Ġflashes": 11913,
    "Ġboys": 5194,
    "Ġrising": 4353,
    "Ġchaldee": 26236,
    "particulars": 11314,
    "Ġtroops": 24902,
    "achines": 1724,
    "atha": 6572,
    "Ġmultiple": 1187,
    "except": 5383,
    "complacency": 19915,
    "itarian": 21335,
    "Ġdiet": 13911,
    "Ġaverred": 18865,
    "Ġunmindful": 22065,
    "Ġnostrils": 10942,
    "ky": 4518,
    "Ġprimal": 17107,
    "anke": 15559,
    "Ġstabbing": 20302,
    "Ġpractical": 3168,
    "professional": 20274,
    "Ġhieroglyphics": 17302,
    "Ġturbul": 23614,
    "instinctively": 26329,
    "Ġhardened": 14449,
    "Ġdinn": 23981,
    "Ġadjust": 2153,
    "Ġtrick": 7018,
    "Ġsimpleton": 16334,
    "twig": 23697,
    "Ġsprinkled": 19497,
    "Ġmoney": 3418,
    "occurred": 13337,
    "Ġanalysis": 1915,
    "Ġcretan": 22728,
    "Ġbarred": 9002,
    "Ġspool": 24809,
    "Ġdiary": 24742,
    "Ġdisappointed": 7097,
    "Ġlaughter": 9027,
    "Ġmalays": 19678,
    "Ġpleasanter": 19067,
    "fortunately": 9449,
    "Ġalche": 21782,
    "laborers": 23916,
    "straw": 24096,
    "walks": 19722,
    "Ġsister": 1472,
    "weaknesses": 26032,
    "Ġenable": 687,
    "Ġincredulous": 9985,
    "whence": 23215,
    "Ġaloft": 4300,
    "off": 1888,
    "executed": 25742,
    "Ġirresolution": 24919,
    "Ġannounced": 9034,
    "embed": 18187,
    "Ġhow": 598,
    "Ġimpatiently": 8337,
    "Ġgle": 7858,
    "Ġunstructure": 2998,
    "ij": 7801,
    "Ġstra": 2995,
    "Ġspans": 18304,
    "Ġreserved": 7516,
    "dest": 4099,
    "Ġinflict": 15001,
    "Ġreport": 6191,
    "ifferent": 4259,
    "R": 54,
    "Ġpanegyric": 26451,
    "Ġrel": 1093,
    "Ġaccept": 4407,
    "Ġoccupation": 9929,
    "hed": 670,
    "holmes": 4429,
    "Ġberth": 8679,
    "Ġstepfather": 7221,
    "schoolmaster": 15160,
    "Ġstarbuck": 2195,
    "Ġinfirmity": 26300,
    "doubtful": 24794,
    "Ġnewspapers": 17186,
    "ict": 596,
    "Ġsomnambul": 26578,
    "Ġmanufactured": 22330,
    "surface": 10528,
    "Ġlux": 8812,
    "Ġbrimming": 22866,
    "rawling": 21634,
    "faced": 8079,
    "served": 5044,
    "placidity": 25990,
    "Ġretirement": 25380,
    "Ġvertically": 19380,
    "gle": 20868,
    "religion": 20574,
    "paper": 9136,
    "Ġyouthful": 16723,
    "mod": 1068,
    "later": 20952,
    "since": 5894,
    "Ġfruit": 12325,
    "Ġinvented": 17037,
    "aby": 18106,
    "Ġrebellion": 26477,
    "Ġineffect": 13930,
    "blooded": 20023,
    "Ġdoubting": 13099,
    "accessible": 13639,
    "gainst": 25405,
    "ashion": 3855,
    "Ġreigns": 21669,
    "extric": 22765,
    "Ġcalled": 1973,
    "Ġroyals": 19533,
    "intolerable": 22938,
    "Ġfoes": 11951,
    "Ġformed": 3881,
    "Ġtorch": 25034,
    "Ġemerging": 24615,
    "pour": 17631,
    "Ġfaint": 5811,
    "Ġbetokened": 18797,
    "Ġsweetest": 13246,
    "Ġconsummation": 17424,
    "ana": 15557,
    "hearth": 15499,
    "Ġxliv": 23410,
    "Ġdaunt": 19665,
    "berg": 11856,
    "angels": 22105,
    "ruct": 684,
    "dishonourable": 26367,
    "Ġsales": 12805,
    "Ġasyl": 12732,
    "beholding": 16039,
    "clean": 14759,
    "Ġsmoky": 22558,
    "Ġalbertus": 25651,
    "Ġsomewhere": 5384,
    "Ġxxv": 19718,
    "writ": 16553,
    "Ġexpedite": 24957,
    "precious": 12071,
    "Ġdevoutly": 25834,
    "Ġpar": 456,
    "Ġtyph": 10006,
    "Ġturns": 4982,
    "Ġsound": 2243,
    "cano": 18840,
    "Ġhist": 2445,
    "Ġlights": 8960,
    "Ġeasier": 11164,
    "Ġdegree": 3700,
    "Ġcautiousness": 19867,
    "loat": 8886,
    "Ġhanging": 5447,
    "Ġcook": 3708,
    "Ġgeometric": 3219,
    "Ġtoma": 7373,
    "Ġenlarge": 21934,
    "Ġclean": 5652,
    "circumstance": 7763,
    "mediate": 16513,
    "Ġbohem": 8526,
    "Ġsple": 21214,
    "invariably": 26418,
    "Ġhues": 21486,
    "withstand": 23026,
    "Ġelevating": 19730,
    "Ġtoken": 2039,
    "motives": 26139,
    "Ġvalidation": 2358,
    "Ġquies": 18465,
    "Ġnormalization": 1245,
    "Ġveins": 8932,
    "Ġstraw": 9428,
    "Ġsquatted": 25843,
    "indisc": 22373,
    "Ġnam": 17949,
    "Ġundo": 15839,
    "woman": 5898,
    "mmet": 10987,
    "Ġpropose": 9851,
    "Ġunwinding": 22059,
    "Ġpresumption": 10543,
    "Ġreturn": 1712,
    "Ġboldness": 24431,
    "Ġdevout": 14329,
    "Ġlinear": 3432,
    "Ġquick": 2580,
    "âĢĿ;": 11669,
    "unworthy": 18161,
    "Ġoffered": 5816,
    "brimmed": 14588,
    "Ġhandkerchief": 8913,
    "Ġstoried": 18075,
    "undoubtedly": 13310,
    "Ġwon": 1664,
    "pig": 8751,
    "verbally": 25362,
    "who": 2446,
    "derstand": 652,
    "accounted": 16501,
    "ė": 216,
    "fra": 8374,
    "unknown": 10889,
    "Ġtear": 6722,
    "spond": 5567,
    "rative": 17653,
    "oct": 7555,
    "Ġspinning": 15052,
    "disgrace": 16459,
    "Ġfilthy": 13247,
    "Ġexploring": 4302,
    "Ġillustrious": 17109,
    "repro": 10769,
    "Ġpoured": 8799,
    "Ġnerves": 2626,
    "nowadays": 22338,
    "Ġprocuring": 16870,
    "Ġparaphrasing": 26528,
    "Ġgrudge": 20692,
    "Ġfreshets": 25708,
    "thes": 7391,
    "Ġworthless": 19566,
    "Ġperformance": 1308,
    "ividual": 5464,
    "battering": 20785,
    "Ġmajestic": 8639,
    "cleanliness": 25873,
    "Ġsignature": 16493,
    "Ġsemantics": 2893,
    "Ġwillingly": 8884,
    "Ġsqueeze": 10036,
    "icious": 7380,
    "Ġtended": 21165,
    "Ġineffectual": 17383,
    "Ġcordage": 19679,
    "barbaric": 26360,
    "elstrom": 17982,
    "revealed": 20414,
    "Ġnearest": 8469,
    "outre": 18320,
    "Ġwond": 3935,
    "Ġdisconsol": 18558,
    "ashes": 6015,
    "reast": 17759,
    "Ġisrael": 21802,
    "Ġvia": 2382,
    "tribute": 21087,
    "ent": 305,
    "Ġpand": 21453,
    "unbe": 21871,
    "Ġind": 1222,
    "face": 3673,
    "everything": 6324,
    "Ġspl": 2988,
    "ceiving": 3899,
    "fic": 20851,
    "Ġbit": 2967,
    "pudding": 17648,
    "Ġafloat": 9307,
    "Ġunhappiness": 14118,
    "efficient": 2868,
    "ccarthy": 4888,
    "Ġbeckoned": 25796,
    "organ": 15572,
    "fierce": 25258,
    "Ġcorrupt": 11921,
    "Ġgrimly": 17052,
    "negro": 18491,
    "civility": 17513,
    "breckinridge": 24075,
    "Ġdragon": 14943,
    "Ġexaggerate": 25652,
    "Ġdemeanour": 17336,
    "Ġpea": 14316,
    "Ġbegat": 18863,
    "xology": 21140,
    "changed": 7175,
    "Ġhip": 17921,
    "amplified": 26496,
    "afterwards": 7485,
    "gies": 13726,
    "despair": 8343,
    "Ġarchitectures": 2909,
    "Ġdevoid": 18685,
    "acrity": 14278,
    "Ġlod": 4038,
    "arth": 4440,
    "suitable": 18635,
    "umbers": 10917,
    "courage": 17509,
    "wives": 15455,
    "Ġtarn": 21157,
    "Ġimpenit": 22388,
    "makes": 10710,
    "Ġmanly": 22324,
    "Ġregimentals": 19859,
    "Ġplun": 6281,
    "Ġcondescension": 10616,
    "Ġviewed": 10460,
    "subst": 12163,
    "startled": 24945,
    "Ġbernard": 20683,
    "Ġemergencies": 17361,
    "material": 13130,
    "Ġdesertion": 24790,
    "hound": 20894,
    "Ġfevers": 22208,
    "Ġbet": 1138,
    "tiest": 21080,
    "Ġcloset": 19592,
    "astrop": 3316,
    "oting": 2742,
    "Ġhar": 5814,
    "Ġconfl": 11137,
    "visited": 13347,
    "harpooned": 24289,
    "Ġgoodge": 22823,
    "Ġrect": 18026,
    "comfortable": 7320,
    "ours": 3427,
    "Ġshakes": 10903,
    "Ġinvolving": 18741,
    "ove": 1742,
    "Ġinvulnerable": 19148,
    "Ġenvironment": 4243,
    "Ġnav": 5818,
    "Ġnoises": 18375,
    "trem": 17682,
    "phant": 6287,
    "Ġunh": 9252,
    "Ġindistinct": 17407,
    "mend": 20965,
    "Ġslender": 11938,
    "county": 25398,
    "arb": 1563,
    "Ġbus": 1906,
    "Ġ1883": 23897,
    "onder": 3777,
    "sailor": 14714,
    "Ġnug": 21522,
    "Ġmighty": 4225,
    "Ġimbib": 22174,
    "\"]": 17470,
    "Ġframe": 1878,
    "Ġhunting": 7259,
    "Ġtil": 12522,
    "sleep": 6511,
    "Ġlithe": 24671,
    "Ġtransparen": 10539,
    "Ġcountess": 11963,
    "erland": 9640,
    "Ġbordering": 17228,
    "oke": 1860,
    "**": 4684,
    "akin": 11765,
    "Ġdepressed": 10882,
    "alarmed": 21500,
    "super": 5943,
    "chor": 6146,
    "Ġcomplaisance": 19449,
    "Ġround": 1369,
    "tears": 11036,
    "Ġallusions": 10905,
    "imens": 1745,
    "brothers": 17024,
    "Ġrelaps": 18775,
    "suitableness": 26262,
    "Ġnominal": 15167,
    "Ġcosmopolitan": 20640,
    "isbury": 21375,
    "Ġpartiality": 9397,
    "Ġfelt": 1744,
    "Ġwrapped": 8341,
    "pro": 2050,
    "Ġrecently": 11860,
    "commun": 15033,
    "Ġspout": 3283,
    "Ġber": 5698,
    "ö": 183,
    "Ġsigma": 1538,
    "Ġsurve": 9872,
    "Ġvictims": 19805,
    "Ġanalogy": 25642,
    "vitiated": 25757,
    "gement": 13729,
    "Ġkeenest": 12160,
    "orte": 14184,
    "Ġcheshire": 13090,
    "Ġcircumspection": 25886,
    "mn": 3573,
    "Ġrudder": 25111,
    "Ġsoftly": 7947,
    "endom": 15922,
    "Ġtwenty": 3945,
    "Ġvariously": 18654,
    "Ġfourteen": 12009,
    "Ġyears": 1894,
    "milk": 20475,
    "Ġtons": 11549,
    "Ĝ": 221,
    "mology": 12490,
    "angled": 6844,
    "Ġgentlemanly": 19317,
    "mont": 19170,
    "Ġbump": 9659,
    "Ġmisanthropic": 26562,
    "Ġlisten": 4672,
    "Ġwail": 21285,
    "Ġhatherley": 7848,
    "getting": 12965,
    "Ġdidst": 11847,
    "Ġpitched": 9443,
    "illation": 14142,
    "Ġhunger": 8566,
    "Ġbetake": 22907,
    "consolation": 15151,
    "Ġsore": 10763,
    "venge": 4657,
    "Ġlandlord": 5581,
    "Ġexe": 3989,
    "zealand": 26051,
    "Ġdirected": 5579,
    "!âĢĻ": 3332,
    "Ġorph": 9716,
    "Ġassigned": 16311,
    "Ġdishonoured": 20389,
    "Ġwhoa": 22422,
    "asp": 3340,
    "Ġgrows": 4986,
    "boast": 23254,
    "leaned": 21367,
    "Ġhiss": 15786,
    "Ġrevellers": 21676,
    "Ġstrides": 22617,
    "faces": 13720,
    "Ġlob": 7628,
    "gs": 7338,
    "Ġviolently": 6456,
    "Ġless": 1939,
    "habit": 16189,
    "liberal": 26283,
    "Ġeditions": 19122,
    "erted": 7361,
    "Ġjones": 7204,
    "uring": 820,
    "Ġtenderly": 11313,
    "hetic": 12202,
    "Ġwings": 9163,
    "Ġcabinets": 23863,
    "bar": 7542,
    "Ġwaved": 9644,
    "gain": 10697,
    "assisted": 22307,
    "Ġallowance": 14388,
    "Ġutilize": 4797,
    "acknowledge": 18469,
    "Ġdelightful": 6320,
    "Ġtoils": 10183,
    "Ġflask": 3045,
    "Ġunmethodically": 22070,
    "blog": 19840,
    "Ġcho": 4545,
    "Ġinclusive": 24166,
    "atum": 21258,
    "Ġ64": 24370,
    "swim": 16779,
    "Ġachieve": 3669,
    "Ġlevelled": 11283,
    "intim": 22934,
    "latin": 25261,
    "Ġhousings": 21490,
    "ocris": 23706,
    "Ġtoday": 12641,
    "Ñ": 146,
    "science": 11907,
    "expressed": 9041,
    "mered": 8217,
    "Ġcharcoal": 19008,
    "ram": 13972,
    "Ġconcerns": 11967,
    "Ġpanther": 16819,
    "Ġsovereign": 10059,
    "Ġrussia": 26269,
    "Ġsuitable": 18279,
    "pread": 7419,
    "Ġaut": 1830,
    "inkles": 7426,
    "formality": 22218,
    "Ġambergris": 8705,
    "yards": 9623,
    "rodu": 1819,
    "rem": 1518,
    "Ġinfinity": 23283,
    "Ġadmon": 15867,
    "Ġmere": 2711,
    "shook": 19857,
    "Ġhunters": 6300,
    "Ġflies": 13023,
    "Ġmurdering": 14810,
    "Ġmanhandle": 22329,
    "pid": 1393,
    "Ġventured": 7502,
    "tell": 1378,
    "Ġadding": 2403,
    "caterpillar": 26385,
    "july": 20473,
    "trimmed": 23949,
    "Ġintensified": 17018,
    "whenever": 11879,
    "pth": 2381,
    "Ġglaciers": 20173,
    "oura": 1059,
    "):": 11461,
    "least": 8783,
    "naturalist": 23470,
    "Ġample": 11796,
    "rudent": 6482,
    "Ġ82": 24461,
    "Ġdre": 1743,
    "Ġrainy": 24344,
    "barrel": 17061,
    "Ġrecre": 22741,
    "bow": 5424,
    "Ġcivilities": 14847,
    "eronomy": 15524,
    "occasion": 7753,
    "circum": 16737,
    "pents": 11512,
    "Ġlegal": 10437,
    "Ġamusing": 11798,
    "Ġandrew": 21504,
    "Ġrevolving": 9981,
    "Ġhearty": 9844,
    "Ġearnestly": 5978,
    "Ġsilken": 16381,
    ";--": 8068,
    "trial": 20349,
    "disgraceful": 26078,
    "prevent": 11791,
    "Ġcomprehended": 11293,
    "Ġsufferable": 16259,
    "Ġrays": 10328,
    "steak": 14707,
    "Ġacquiescence": 20329,
    "roof": 17954,
    "receiving": 12541,
    "Ġdestined": 7974,
    "eping": 5833,
    "drawers": 19386,
    "afflicted": 23780,
    "rop": 538,
    "Ġdiscoursing": 26268,
    "ternatural": 12713,
    "Ġrubber": 22787,
    "Ġcatch": 4439,
    "Ġprosperous": 15169,
    "Ġpropriet": 9549,
    "affection": 7488,
    "Ġappl": 1788,
    "compass": 9458,
    "Ġcorpusants": 13677,
    "Ġreminding": 19798,
    "Ġcontinuing": 14396,
    "Ġtech": 1642,
    "ulged": 12728,
    "Ġbeaut": 2393,
    "Ġsituated": 9446,
    "Ġdiscourse": 9797,
    "icking": 8910,
    "Ġwindigate": 18911,
    "Ġvanish": 8927,
    "ulls": 8837,
    "Ġ39": 19490,
    "sad": 11520,
    "Ġrequire": 909,
    "wholly": 10940,
    "Ġunt": 2295,
    "ohog": 9841,
    "Ġneg": 1332,
    "Ġparamore": 22121,
    "Ġserpentine": 11359,
    "deserving": 17241,
    "Ġmounttop": 19978,
    "Ġdeliciousness": 24128,
    "Ħ": 231,
    "Ġglowing": 12281,
    "Ġdowncast": 18653,
    "Ġluckless": 16797,
    "Ġmont": 8558,
    "cheerful": 13575,
    "Ġbegin": 3104,
    "Ġweaving": 12738,
    "Ġlament": 7856,
    "Ġprophe": 13078,
    "Ġtranslation": 3093,
    "Ġreducing": 1958,
    "Ġflowery": 16231,
    "oam": 8750,
    "ements": 11107,
    "rab": 7597,
    "Ġscoresby": 10459,
    "Ġro": 599,
    "Ġdepl": 14046,
    "passing": 14811,
    "atory": 6125,
    "Ġshade": 6550,
    "message": 17371,
    "known": 3565,
    "Ġunusual": 6553,
    "ware": 3931,
    "Ġwrath": 16316,
    "athom": 12937,
    "Ġgeneralization": 984,
    "compassion": 12367,
    "Ġceaseless": 13488,
    "Ġsn": 2953,
    "Ġparametric": 2395,
    "Ġswan": 23051,
    "riot": 18180,
    "eze": 20846,
    "Ġsplend": 9896,
    "nurs": 20998,
    "Ġspeeding": 23566,
    "assault": 22306,
    "urch": 3988,
    "Ġdisown": 22524,
    "helpless": 16790,
    "asted": 4648,
    "Ġglu": 15666,
    "lands": 8240,
    "Ġincorruption": 26311,
    "Ġflitting": 13024,
    "bid": 5611,
    "Ġporter": 15609,
    "Ġsocial": 7007,
    "Ġdagger": 21440,
    "Ġbracelets": 25505,
    "Ġexpression": 4513,
    "Ġconsequences": 11334,
    "official": 24918,
    "Ġtwice": 4660,
    "spouting": 25004,
    "progress": 11987,
    "Ġthoroughfare": 16944,
    "Ġglance": 4228,
    "ceive": 3071,
    "ato": 17770,
    "Ġreasonable": 7253,
    "Ġwaif": 9374,
    "pus": 3414,
    "seventh": 12712,
    "Ġwhitt": 18055,
    "99": 1897,
    "Ġliked": 5264,
    "Ġaghast": 16046,
    "Ġexposure": 16098,
    "Ġhandspike": 22696,
    "Ġaccomplish": 14875,
    "Ġarmada": 23582,
    "Ġavoid": 5199,
    "bearer": 18519,
    "Ġcrucial": 9890,
    "Ġindulging": 16904,
    "Ġwarmer": 19186,
    "Ġcomo": 21846,
    "objection": 19916,
    "broken": 8020,
    "Ġpo": 737,
    "Ġutterly": 6100,
    "Ġcreations": 18686,
    "Ġcanted": 17832,
    "Ġgazing": 5875,
    "Ġspermaceti": 8967,
    "Ġga": 4444,
    "Ġrequires": 1034,
    "?âĢĻâĢĿ": 23644,
    "Ġwrap": 24597,
    "frisco": 16787,
    "narrative": 17318,
    "sip": 10724,
    "Ġviv": 6156,
    "Ġexpensive": 12916,
    "Ġconcept": 674,
    "Ġdashed": 6009,
    "Ġforwards": 12701,
    "Ġexpenses": 11833,
    "Ġfancying": 12111,
    "Ġrichness": 19311,
    "Ġmal": 5221,
    "Ġalleys": 25980,
    "bellies": 19974,
    "Ġwearisome": 19796,
    "Ġmember": 8585,
    "Ġweig": 7619,
    "Ġbounded": 16626,
    "Ġbackground": 18630,
    "hoped": 20909,
    "Ġprediction": 2264,
    "Ġbreathless": 12168,
    "Ġgardens": 16454,
    "sustained": 20567,
    "Ġexploding": 2108,
    "Ġpassion": 4555,
    "Ġcha": 6853,
    "Ġrnns": 2394,
    "Ġrally": 21970,
    "conscience": 14859,
    "racts": 14354,
    "Ġhatches": 12044,
    "Ġthundering": 24294,
    "Ġbuilded": 24722,
    "_âĢĶâĢĻ": 13682,
    "Ġhysterics": 26095,
    "Ġcaptured": 7245,
    "Ġarrangements": 16515,
    "bears": 22490,
    "Ġcutting": 4984,
    "Ġsultry": 20287,
    "Ġgloried": 22987,
    "50": 6784,
    "Ġan": 286,
    "parm": 21013,
    "Ġvengeful": 14889,
    "wrapped": 15208,
    "Ġescapes": 23511,
    "done": 6500,
    "Ġcaulking": 20292,
    "Ġmon": 1253,
    "Ġburn": 3679,
    "Ġhealth": 3900,
    "arrange": 23768,
    "Ġnonsensical": 21526,
    "Ġcrocodile": 20739,
    "Ġtusked": 25429,
    "Ġsatisfying": 23695,
    "drive": 8682,
    "inisc": 15488,
    "vings": 9750,
    "jack": 7344,
    "sudden": 5315,
    "sar": 12503,
    "gers": 8375,
    "wonted": 13493,
    "Ġoper": 2119,
    "icient": 790,
    "altogether": 12637,
    "Ġhate": 5445,
    "itying": 21993,
    "Ġfirm": 3868,
    "Ġtroubled": 6615,
    "Ġrecklessly": 16983,
    "Ġsubstituting": 26328,
    "Ġflank": 8228,
    "Ġtimbers": 14838,
    "Ġstab": 10861,
    "Ġlangs": 13954,
    "kindred": 24049,
    "Ġheedfully": 24524,
    "Ġoarsman": 8637,
    "Ġwashing": 9704,
    "Ġfearfulness": 23516,
    "Ġproduced": 2452,
    "Ġskewer": 19621,
    "mankind": 14373,
    "Ġwalled": 15534,
    "injustice": 17738,
    "Ġcemeteries": 26377,
    "icken": 6711,
    "taining": 7206,
    "contriv": 19293,
    "Ġemploy": 3611,
    "calm": 8934,
    "Ġsympathetic": 17358,
    "Ġimmaculate": 19486,
    "Ġport": 3310,
    "lit": 9605,
    "warmest": 25031,
    "Ġshovel": 23495,
    "Ġassisted": 11110,
    "Ġhandle": 3142,
    "Ġpublicly": 13322,
    "Ġvaults": 17153,
    "Ġwandering": 8653,
    "Ġoffending": 22745,
    "Ġbowl": 11203,
    "Ġelig": 9777,
    "Ġharmony": 16814,
    "Ġdejection": 15195,
    "Ġdeposition": 18613,
    "Ġlanterns": 24580,
    "Ġcheese": 9376,
    "Ġmidnight": 5265,
    "Ġforging": 18093,
    "Ġcharitable": 23270,
    "bask": 20775,
    "Ġinvective": 26183,
    "marrying": 19548,
    "iferous": 17291,
    "crat": 24099,
    "Ġpallidness": 25607,
    "abez": 10220,
    "ved": 868,
    "Ġmuseum": 15270,
    "J": 46,
    "ral": 4626,
    "istence": 2619,
    "Ġnext": 2137,
    "elter": 21568,
    "Ġunimpeachable": 26524,
    "Ġimpediments": 26242,
    "Ġlastly": 16205,
    "Ġpolynesian": 26028,
    "Ġelab": 22647,
    "Ġmeantime": 6206,
    "aths": 22699,
    "Ġindistinctly": 26119,
    "diversity": 25899,
    "Ġtho": 21511,
    "falling": 24364,
    "Ġshape": 5639,
    "serious": 14447,
    "Ġbr": 1072,
    "Ġcrippled": 25281,
    "Ġemerg": 13424,
    "aled": 3940,
    "Ġatone": 15801,
    "Ġblotting": 25316,
    "extent": 22764,
    "mil": 13752,
    "appropri": 22847,
    "Ġvanquished": 22875,
    "Ġphase": 14470,
    "wearing": 22687,
    "Ġdevilish": 11227,
    "shri": 14236,
    "Ġknitted": 19590,
    "retirement": 23137,
    "Ġdivided": 8631,
    "Ġaromatic": 25927,
    "Ġquest": 2001,
    "Ġflog": 23624,
    "Ġdepart": 4655,
    "Ġmaternal": 11058,
    "locks": 14455,
    "Ġpriv": 4178,
    "Ġpawn": 12062,
    "Ġshores": 8847,
    "Ġdenial": 13214,
    "Ġpairs": 4177,
    "Ġelixir": 26557,
    "Ġberries": 13407,
    "beheld": 11799,
    "Ġowest": 25095,
    "Ġcompiled": 22570,
    "Ġbur": 2695,
    "Ġfounder": 17884,
    "pred": 2799,
    "Ġkeepers": 23541,
    "Ġarter": 22181,
    "sor": 7352,
    "Ġimmured": 24072,
    "Ġtenderness": 12214,
    "Ĉ": 201,
    "follow": 5680,
    "Ġoctober": 17226,
    "Ġvalue": 2085,
    "04": 10677,
    "Ġintermission": 18590,
    "yl": 7818,
    "Ġimposing": 11779,
    "Ġpreferment": 19854,
    "Ġdimension": 3242,
    "Ġunprotected": 22066,
    "rocket": 13944,
    "Ġarthur": 7196,
    "Ġholes": 16408,
    "Ġang": 2512,
    "Ġreconc": 9682,
    "Ġstepdaughter": 22612,
    "Ġabstra": 22271,
    "lord": 3862,
    "Ġcap": 2363,
    "Ġwitt": 17784,
    "Ġscaled": 2105,
    "Ġounce": 15271,
    "cle": 3950,
    "lacing": 17591,
    "Ġrain": 5006,
    "Ġmicha": 17812,
    "Ġearl": 7676,
    "Ġgo": 614,
    "Ġ115": 24442,
    "Ġmournfully": 20117,
    "Ġclub": 8873,
    "Ġbrightness": 16576,
    "Ġtemptation": 8677,
    "score": 18857,
    "Ġwhaler": 7521,
    "Ġerecting": 24655,
    "uerus": 26408,
    "Ġlombardy": 26465,
    "ulence": 15764,
    "Ġwore": 6377,
    "Ġunsupervised": 2491,
    "Ġorbs": 22091,
    "ortment": 22257,
    "ampl": 21841,
    "Ġbills": 17861,
    "liness": 8745,
    "Ġhusbands": 16642,
    "Ġtales": 10139,
    "Ġhither": 4757,
    "thar": 18217,
    "Ġstairs": 5541,
    "Ġsecretary": 19442,
    "Ġwill": 678,
    "precedented": 15173,
    "Ġjokes": 18409,
    "Ġaudio": 24775,
    "Ú": 155,
    "john": 11497,
    "addressed": 13385,
    "Ġelusive": 22651,
    "Ġtransitory": 16017,
    "rival": 12740,
    "prisoner": 20542,
    "sleet": 20149,
    "Ġphysical": 7523,
    "Ġcocaine": 20720,
    "overspreading": 26141,
    "oir": 21001,
    "Ġripe": 13234,
    "places": 7876,
    "Ġshirt": 8848,
    "christmas": 20254,
    "you": 1007,
    "single": 10124,
    "Ġinev": 10179,
    "Ġessays": 19745,
    "Ġinfiltrated": 23284,
    "masters": 16834,
    "nur": 11505,
    "iastic": 12478,
    "Ġart": 746,
    "Ġimplicate": 24880,
    "week": 12929,
    "Ġcase": 1941,
    "wife": 8100,
    "ulates": 14055,
    "Ġobedient": 20105,
    "Ġscant": 22280,
    "Ġtorrents": 20056,
    "ots": 3295,
    "Ġpipe": 4319,
    "Ġhis": 380,
    "Ġcorporeally": 25732,
    "Ġrent": 11638,
    "Ġdismay": 11807,
    "irement": 18358,
    "ulpt": 10884,
    "reduced": 15804,
    "Ġwatch": 2741,
    "Ġannesley": 19578,
    "Ġsepulch": 15283,
    "Ġfavoured": 16360,
    "confidential": 25878,
    "Ġobvious": 4965,
    "ress": 929,
    "Ġsyllable": 9728,
    "atiable": 17775,
    "bird": 9585,
    "Ġexplain": 545,
    "Ġnarrative": 6215,
    "Ġpenetrating": 17011,
    "Ġbeak": 18079,
    "Ġconclusion": 5985,
    "Ġlingering": 11379,
    "save": 13785,
    "Ġsuspended": 5665,
    "_?âĢĿ": 15304,
    "Ġburial": 16521,
    "Ġapr": 12530,
    "Ġpark": 5465,
    "Ġtriumph": 5143,
    "rushing": 10015,
    "physiogn": 26266,
    "Ġbold": 5291,
    "Ġhandwriting": 14318,
    "Ġarrows": 18338,
    "Ġmoves": 14231,
    "Ġrelics": 16195,
    "Ġdesperation": 19819,
    "Ġrank": 6258,
    "Ġdelineations": 26060,
    "Ġthrows": 14736,
    "unity": 4145,
    "ly": 319,
    "Ġcastors": 23976,
    "ture": 7559,
    "Ġflock": 21409,
    "Ġrejecting": 17051,
    "isa": 17846,
    "ets": 1163,
    "Ġpreposter": 12820,
    "Ġgaff": 17994,
    "marvell": 24175,
    "U": 57,
    "ity": 417,
    "Ġexert": 5722,
    "lowering": 16032,
    "Ġpositions": 2057,
    "Ġbespeaking": 26312,
    "Ġgracefully": 13391,
    "Ġmat": 1149,
    "Ġma": 3254,
    "Ġsedentary": 25433,
    "Ġlooked": 1804,
    "Ġnever": 1022,
    "Ġsherry": 19451,
    "late": 11498,
    "Ġbackpropagation": 1214,
    "Ġsashes": 21224,
    "action": 3723,
    "Ġcoloss": 11045,
    "Ġdisse": 18549,
    "Ġjury": 5378,
    "nal": 1904,
    "Ġdelights": 14596,
    "Ġbuffalo": 11429,
    "Ĭ": 237,
    "Ġglancing": 5399,
    "oa": 9612,
    "speckled": 23945,
    "olog": 1123,
    "Ġhesitation": 13441,
    "Ġstrokes": 16769,
    "Ġunlab": 3786,
    "Ġfierc": 18715,
    "Ġuttering": 16462,
    "Ġencounter": 6627,
    "Ġtreat": 3179,
    "overs": 17622,
    "ological": 1886,
    "Ġincul": 22549,
    "Ġlie": 4403,
    "performed": 18344,
    "dripping": 16905,
    "Ġingrat": 16840,
    "Ġhut": 15617,
    "astes": 11737,
    "Ġassumptions": 5517,
    "announcement": 24565,
    "Ġharrow": 17926,
    "artic": 14221,
    "Ġvicious": 24406,
    "conquerable": 17398,
    "Ġacqu": 1416,
    "ignified": 14490,
    "Ġblind": 3713,
    "Ġperches": 18449,
    "sprang": 19991,
    "Ġbride": 6291,
    "Ġwrit": 8241,
    "Ġforeign": 9870,
    "unciation": 25984,
    "Ġdepose": 22609,
    "shelf": 20379,
    "Ġgerm": 13964,
    "elfth": 22369,
    "Ġmonomaniac": 9568,
    "Ġdistingu": 2515,
    "Ġprov": 4397,
    "uzz": 4522,
    "deliver": 19505,
    "aret": 7417,
    "Ġchronicled": 25331,
    "Ġruled": 22786,
    "plex": 708,
    "assin": 22305,
    "wear": 22683,
    "liv": 9607,
    "Ġfabulous": 25950,
    "capting": 24039,
    "Ġzone": 14361,
    "Ġgrowl": 16537,
    "Ġspanish": 2824,
    "promontory": 24731,
    "Ġapplications": 4782,
    "Ġo": 275,
    "aution": 9387,
    "Ġpastures": 23421,
    "Ġpractically": 13105,
    "drovand": 24763,
    "Ġimages": 1597,
    "Ġcircumstantial": 14643,
    "astonishment": 10027,
    "Ġposit": 1307,
    "Ġsabbee": 17255,
    "Ġknee": 7093,
    "Ġkith": 22191,
    "rough": 589,
    "Ġretrogression": 26583,
    "wick": 5362,
    "eteenth": 20157,
    "Ġlabyrin": 13103,
    "+": 15,
    "Ġpreacher": 18369,
    "oro": 21393,
    "bowed": 10681,
    "ior": 2040,
    "Ġpreternatural": 12821,
    "Ġhemisphere": 26480,
    "Ġmiz": 10776,
    "Ġspeculations": 22998,
    "Ġcooking": 16646,
    ".âĢĶâĢľ": 20746,
    "ibly": 2999,
    "Ġexecuted": 9471,
    "Ġhelmet": 19688,
    "ood": 963,
    "Ġtrack": 7450,
    "Ġprogress": 5024,
    "Ġdimens": 3154,
    "ials": 11702,
    "Ġaye": 3353,
    "sharp": 10305,
    "Ġremoving": 12115,
    "pag": 11510,
    "Ġloungers": 24866,
    "swe": 5995,
    "ay": 355,
    "mort": 10709,
    "Ġcircumstance": 4988,
    "Ġeloped": 22650,
    "elling": 5830,
    "Ġsleep": 2400,
    "dropped": 12261,
    "wis": 12517,
    "Ġoccupations": 9456,
    "rence": 5555,
    "Ġ156": 20170,
    "Ġshall": 1145,
    "spirited": 19754,
    "principle": 10648,
    "rep": 5525,
    "notwithstanding": 22753,
    "Ġverily": 16603,
    "Ġdeed": 7867,
    "Ġtelesc": 12991,
    "Ġalso": 1342,
    "Ġaccordingly": 6619,
    "Ġimprovement": 7962,
    "Ġclumsy": 9579,
    "Ġtur": 2564,
    "Ġsuspense": 9417,
    "Ġcongrat": 5827,
    "Ġunlike": 7004,
    "Ġtranquillity": 7537,
    "oug": 432,
    "Ġexperience": 1388,
    "âĢĶ_": 3203,
    "plish": 18200,
    "Ġportent": 12080,
    "Ġnodding": 23334,
    "neg": 12864,
    "crazy": 24694,
    "Ġmoderate": 10937,
    "script": 11076,
    "bantering": 25256,
    "Ġinstigated": 18703,
    "Ġsepulchral": 25894,
    "Ġgripping": 26188,
    "Ġrecovery": 11441,
    "Ġindication": 22952,
    "Ġdegenerated": 20504,
    "Ġsim": 734,
    "wrath": 23758,
    "Ġspeaking": 4022,
    "Ġdestroyed": 5271,
    "Ġdesigns": 13014,
    "Ġappointed": 20103,
    "Ġpatch": 4176,
    "infidel": 24666,
    "Ġabund": 8864,
    "Ġpork": 21455,
    "Ġratt": 7880,
    "Ġpiteous": 17918,
    "Ġclaims": 13373,
    "Ġshoes": 7071,
    "izer": 2030,
    "height": 21204,
    "Ġinconstant": 21493,
    "atter": 648,
    "Ġsounding": 8264,
    "Ġostentatiously": 20467,
    "Ġsentin": 16374,
    "Ġtried": 3644,
    "Ġconn": 9229,
    "ipt": 12477,
    "Ġ117": 19698,
    "Ġlabor": 10416,
    "Ġvind": 10247,
    "Ġquieted": 23843,
    "isp": 5528,
    "Ġmiller": 19884,
    "·": 120,
    "Ġade": 22099,
    "Ġyielding": 12185,
    "Ġtormented": 8674,
    "new": 1464,
    "Ġlivelong": 25514,
    "Ġfamiliarity": 16729,
    "apologizing": 26546,
    "Ġnatural": 1127,
    "pair": 21011,
    "py": 17625,
    "enance": 3371,
    "mant": 20964,
    "suspected": 12371,
    "convinced": 10620,
    "lucky": 24548,
    "Ġreligious": 25125,
    "ety": 3518,
    "iver": 2049,
    "Ġinclosed": 19539,
    "Ġlocal": 1200,
    "ino": 15479,
    "rimin": 2424,
    "heartedness": 24830,
    "Ġcelebrate": 26359,
    "Ġvict": 3761,
    "Ġsw": 1355,
    "Ġbanker": 8666,
    "experience": 17158,
    "ruction": 4355,
    "Ġvult": 12750,
    "Ġunwaning": 25173,
    "Ġpasseng": 12969,
    "sphere": 22735,
    "Ġupbraiding": 26228,
    "iday": 8828,
    "Ġadieus": 25114,
    "Ġsemantic": 1959,
    "Ġoutfits": 22321,
    "Ġunhappy": 5640,
    "Ġconcise": 23323,
    "Ġdiffered": 22711,
    "Ġsquee": 7928,
    "Ġsplinters": 15101,
    "Ġcareless": 11118,
    "gazed": 15360,
    "Ġseemed": 1279,
    "Ġfoundations": 11072,
    "Ġhapless": 15811,
    "Ġcompasses": 11266,
    "jur": 17579,
    "Ġiterate": 13199,
    "torn": 17683,
    "tracks": 19639,
    "ghost": 20886,
    "Ġhunch": 18935,
    "Ġjames": 6419,
    "Ġcertainty": 6734,
    "Ġcannot": 1665,
    "Ġidentity": 2524,
    "Ġunluck": 8484,
    "Ġconstructed": 9386,
    "caught": 8726,
    "Ġsuspend": 14608,
    "Ġcompare": 9301,
    "Ġpotential": 3615,
    "Ġed": 2141,
    "Ġdefer": 18823,
    "cible": 20805,
    "phants": 9319,
    "hug": 17564,
    "ais": 8070,
    "Ġheidelburgh": 11642,
    "Ġostrich": 26432,
    "aves": 3595,
    "Ġlearnable": 3990,
    "Ġrepay": 19083,
    "kine": 15374,
    "Ġthomson": 26456,
    "friends": 8305,
    "coo": 11169,
    "Ġmend": 8405,
    "drown": 13704,
    "Ġposter": 14274,
    "Ġclinging": 10289,
    "comes": 5394,
    "Ġ47": 14770,
    "gaining": 17557,
    "¿": 128,
    "ulled": 14056,
    "acle": 4714,
    "centre": 17087,
    "Ġcripp": 9653,
    "lust": 15378,
    "Ġperformer": 18758,
    "Ġrouse": 15821,
    "Ġack": 5622,
    "truth": 9917,
    "antee": 22096,
    "Ġactiv": 835,
    "unt": 2044,
    "Ġbashee": 19850,
    "concerted": 16671,
    "Ġetern": 7085,
    "Ġcontrast": 2117,
    "Ġscraped": 16903,
    "Ġwel": 4525,
    "unhesitatingly": 26498,
    "clim": 18930,
    "Ġstray": 18072,
    "Ġsinging": 7723,
    "standing": 5558,
    "Ġwidest": 24237,
    "Ġsnow": 3703,
    "urean": 18123,
    "Ġcig": 6520,
    "Ġbrewed": 23347,
    "leather": 13890,
    "Ġprobable": 5570,
    "Ġamuse": 5939,
    "Ġankers": 21443,
    "degrees": 22149,
    "ik": 17572,
    "Ġpraise": 6486,
    "Ġhat": 2769,
    "Ġabject": 18392,
    "Ġnations": 8808,
    "Ġaffrighted": 13572,
    "Ġlawy": 9453,
    "Ġresounded": 22544,
    "pleasanter": 24047,
    "uling": 2258,
    "Ġconve": 5455,
    "Ġstride": 22616,
    "serv": 7451,
    "Ġprints": 16330,
    "Ġunfailing": 24113,
    "Ġfaults": 12211,
    "Ġepoch": 26473,
    "Ġmomentary": 11034,
    "Ġprivileges": 25136,
    "Ġprogen": 14039,
    "ete": 9203,
    "Ġundeceive": 25555,
    "control": 16543,
    "Ġgrateful": 7660,
    "anced": 1276,
    "uously": 7353,
    "apping": 5851,
    "ow": 325,
    "Ġray": 18645,
    "ordinary": 4404,
    "seat": 18125,
    "bourne": 19104,
    "algorithm": 4096,
    "Ġnote": 4260,
    "Ġbalance": 2021,
    "dman": 10086,
    "Ġnovelty": 13463,
    "Ġnoble": 3439,
    "Ġexh": 5232,
    "Ġdescent": 1002,
    "Ġunchanging": 22044,
    "Ġban": 7156,
    "ss": 396,
    "lab": 3455,
    "faith": 15024,
    "tuesday": 17691,
    "Ġsalt": 8016,
    "mit": 4932,
    "Ġgained": 4533,
    "Ġlegendary": 20536,
    "Ġpeering": 8534,
    "Ġ109": 24419,
    "erm": 786,
    "anish": 2615,
    "Ġmiddle": 4132,
    "wel": 6117,
    "Ġdifferences": 18712,
    "Ġapolog": 9043,
    "indeed": 4485,
    "vinegar": 25423,
    "Ġsidelong": 11438,
    "Ġsuspecting": 14909,
    "Ġexposing": 11832,
    "Ġwed": 3955,
    "Ġmeryton": 4436,
    "Ġleaf": 15715,
    "Ġweedy": 15790,
    "Ġadventures": 7747,
    "cheerfulness": 20180,
    "pleasant": 5874,
    "twice": 14621,
    "Ġhark": 8427,
    "Ġbecome": 3162,
    "Ġlocket": 22112,
    "Ġadmired": 7981,
    "Ġdemo": 10879,
    "ighbour": 3389,
    "Ġbuck": 7157,
    "Ġinasmuch": 10824,
    "Ġinvention": 19953,
    "Ġstation": 5297,
    "anqu": 4105,
    "Ġsuperiors": 23457,
    "Ġinfants": 16363,
    "arness": 11670,
    "queen": 12725,
    "Ġfaces": 6008,
    "giana": 7800,
    "Ġcriminal": 7538,
    "Ġalliance": 18235,
    "Ġegyptian": 13586,
    "mix": 20973,
    "/`": 12428,
    "antarctic": 22098,
    "Ġshifting": 12766,
    "Ġlaid": 3937,
    "Ġconfeder": 25711,
    "Ġdebt": 12166,
    "onze": 21254,
    "Ġcrimin": 6901,
    "Ġagricultural": 26552,
    "Ġstick": 6025,
    "Ġanointing": 25542,
    "Ġmask": 1867,
    "toss": 22566,
    "Ķ": 247,
    "Ġbeneath": 3239,
    "Ġarrow": 10930,
    "Ġvehicle": 20138,
    "sim": 6510,
    "Ġcorrespondence": 10592,
    "Ġannouncement": 14832,
    "Ġbacking": 16106,
    "meetings": 20376,
    "Ġwake": 4747,
    "Ġplatonian": 25122,
    "than": 4084,
    "Ġire": 12667,
    "Ġsailor": 3533,
    "Ġsamuel": 10030,
    "Ġstormy": 16728,
    "Ġsample": 3181,
    "Ġheadlands": 22896,
    "Ġxv": 23408,
    "unable": 14059,
    "breeding": 16675,
    "Ġentit": 22746,
    "investigations": 25536,
    "end": 505,
    "execut": 13655,
    "Ġwhereof": 16101,
    "task": 13793,
    "Ġinterven": 10996,
    "Ġhyperborean": 26341,
    "Ġcou": 5286,
    "doms": 20834,
    "possible": 5743,
    "Ġspeedy": 11171,
    "Ġtransformed": 22594,
    "jah": 17582,
    "Ġfugitives": 25637,
    "strength": 13980,
    "followed": 8338,
    "rugg": 15895,
    "loaded": 22511,
    "Ġharpooneers": 4730,
    "Ġstun": 11649,
    "Ġbruised": 25775,
    "51": 12430,
    "Ġplaited": 14282,
    "Ġtimely": 19595,
    "Ġcasement": 25096,
    "quickly": 14961,
    "caus": 11476,
    "assistant": 25570,
    "specul": 23943,
    "Ġcetacea": 20552,
    "Ġturing": 7567,
    "Ġdumb": 7843,
    "Ġexquisitely": 20202,
    "Ġattendant": 11284,
    "Ġvoluntarily": 12139,
    "cun": 20794,
    "Ġobeisance": 19759,
    "Ġassociates": 24715,
    "Ġlobster": 11389,
    "Ġdireful": 11016,
    "ibule": 13005,
    "Ġsunday": 7270,
    "Ġsuppressed": 11909,
    "atters": 18492,
    "olet": 13766,
    "Ġmetrics": 19039,
    "aside": 10189,
    "fe": 676,
    "Ġcave": 10784,
    "fold": 7547,
    "Ġknew": 2055,
    "Ġbert": 4580,
    "rusion": 11322,
    "Ġmanoir": 22331,
    "Ġsatin": 12988,
    "Ġmer": 2931,
    "arians": 18524,
    "Ġgreatness": 12942,
    "Ġthine": 7374,
    "icated": 7591,
    "Ġyard": 5920,
    "Ġarose": 7360,
    "rud": 4185,
    "pagans": 25528,
    "Ġplush": 18610,
    "Ġmystery": 5509,
    "Ġoutrages": 18416,
    "anct": 21356,
    "Ġarched": 10931,
    "Ġverge": 23888,
    "Ġcharging": 23268,
    "Ġserenity": 10025,
    "Ġcreated": 2705,
    "blades": 24132,
    "ery": 1269,
    "unaffected": 21882,
    "Ġmyth": 18220,
    "Ġresid": 22538,
    "clifford": 23155,
    "Ġgroves": 16740,
    "Č": 205,
    "Ġunbroken": 18250,
    "Ġjon": 15947,
    "Ġlest": 6395,
    "process": 11147,
    "Ġbambooz": 26121,
    "remorse": 14466,
    "7": 27,
    "jour": 20926,
    "scot": 14417,
    "pursue": 24977,
    "Ġab": 528,
    "Ġloud": 4699,
    "Ġlives": 4825,
    "Ġsays": 3558,
    "Ġtraversed": 18892,
    "Ġcheek": 8577,
    "situation": 11437,
    "Ġlieutenant": 15260,
    "apply": 18762,
    "âĢĶ(": 15937,
    "couldn": 23715,
    "Ġgraces": 18225,
    "Ġtiar": 21166,
    "copyright": 5277,
    "vigorous": 25919,
    "Ġquarrels": 16566,
    "Ġlig": 21545,
    "Ġname": 2083,
    "Ġpreference": 9732,
    "Ġassur": 6073,
    "public": 17647,
    "gust": 6360,
    "Ġsavagely": 26325,
    "Ġravings": 18649,
    "Ġjar": 15949,
    "Ġweighing": 20016,
    "Ġenchantment": 24873,
    "Ġdeaths": 14537,
    "Ġattended": 5391,
    "Ġresponsible": 9884,
    "cket": 3684,
    "Ġbeard": 11654,
    "Ġgown": 10199,
    "Ġrevelation": 25225,
    "Ġundoubted": 19515,
    "love": 9293,
    "Ġprematurely": 24006,
    "Ġinvent": 7164,
    "Ġshocks": 16458,
    "fuller": 22486,
    "Ġlizzie": 26464,
    "ems": 5236,
    "oman": 2018,
    "Ġdisconcerted": 18563,
    "Ġstraggling": 23752,
    "fted": 9118,
    "Ġlittle": 866,
    "@": 36,
    "aiian": 23594,
    "âĢľ": 344,
    "Ġscreening": 25303,
    "smiles": 14692,
    "Ġhorsham": 10404,
    "ula": 2822,
    "Ġregrets": 18601,
    "sugg": 11839,
    ":--": 5784,
    "fishers": 24932,
    "Ġmeanest": 12908,
    "Ġoverpower": 12840,
    "breast": 11244,
    "whereby": 23419,
    "Ġdeuteronomy": 15758,
    "Ġpostpone": 17306,
    "ometer": 19327,
    "isturbed": 18297,
    "Ġbubble": 13535,
    "Ġappal": 18355,
    "Ġrash": 10897,
    "plain": 1357,
    "Ġardour": 8042,
    "lessly": 4554,
    "reject": 21235,
    "Ġbolts": 16943,
    "Ë": 140,
    "mis": 4519,
    "beds": 16586,
    "harpoons": 24288,
    "Ġhearts": 4973,
    "ulgent": 18149,
    "Ġmothers": 14540,
    "Ġnarr": 5086,
    "Ġfuller": 11155,
    "Ġconcer": 23321,
    "Ġpresentation": 14480,
    "Ġlengths": 19207,
    "erpillar": 5797,
    "hob": 20899,
    "actions": 8906,
    "Ġdumplings": 15189,
    "Ġstructures": 2717,
    "Ġcolour": 4459,
    "Ġprovoking": 16743,
    "vember": 10854,
    "bour": 2073,
    "remem": 13065,
    "Ġhills": 6527,
    "reng": 3997,
    "Ġdollar": 25286,
    "Ġrefres": 14341,
    "thou": 4707,
    "Ġpal": 4037,
    "Ġ": 225,
    "Ġacid": 22682,
    "Ġinnovative": 1603,
    "Ġrocky": 13387,
    "women": 15456,
    "Ġdomineer": 23724,
    "Ġundeniable": 26512,
    "barrow": 15320,
    "Ġrecip": 16140,
    "izers": 18134,
    "lleg": 20950,
    "Ġfin": 1458,
    "Ġinstantaneous": 14611,
    "Ġdisregard": 22528,
    "leo": 21362,
    "Ġaccelerating": 1614,
    "Ġduncan": 13461,
    "Ġwithheld": 18110,
    "Ġcrotch": 9961,
    "Ġmassa": 19454,
    "Ġpals": 13918,
    "Ġspokes": 18313,
    "Ġdegenerating": 25802,
    "Ġgrease": 26191,
    "murder": 10562,
    "Ġagent": 6277,
    "Ġmeditating": 20043,
    "Ġcommit": 18656,
    "Ġblotches": 25317,
    "Ġfun": 523,
    "Ġdepression": 21840,
    "Ġinduced": 8670,
    "Ġclimbing": 20070,
    "iel": 11493,
    "Ġdangerously": 23937,
    "field": 3078,
    "glance": 16587,
    "ax": 695,
    "apside": 22960,
    "Ġpul": 2041,
    "thrust": 10259,
    "recklessly": 25272,
    "Ġprovinc": 16742,
    "Ġnarrowed": 24358,
    "Ġshock": 6082,
    "generous": 16568,
    "Ġobedience": 11413,
    "Ġeligible": 10668,
    "sm": 3435,
    "Ġoptimizer": 5037,
    "Ġliterature": 17148,
    "Ġoverflow": 10290,
    "ard": 465,
    "Ġmode": 8499,
    "corrid": 24487,
    "Ġcushion": 17834,
    "Ġmightiest": 12959,
    "Ġreceive": 4702,
    "Ġsavesoul": 26229,
    "ı": 242,
    "Ġdisquiet": 18553,
    "Ġdotted": 16792,
    "sneezes": 11446,
    "Ġsurpr": 2550,
    "Ġvapory": 17006,
    "Ġcheer": 4062,
    "Ġstudy": 1747,
    "burned": 25083,
    "Ġparacels": 13667,
    "Ġarrang": 2468,
    "Ġaccompl": 5167,
    "Ġbeget": 9225,
    "Ġstooping": 13060,
    "Ġleather": 7604,
    "ography": 13362,
    "Ġrocks": 6863,
    "ilib": 4112,
    "Ġages": 7027,
    "Ġpred": 673,
    "Ġartistic": 18612,
    "Ġthanks": 6707,
    "Ġpew": 9314,
    "Ġwindlass": 7256,
    "earn": 10694,
    "putation": 7625,
    "Ġimagination": 5759,
    "andering": 21866,
    "Ġgroaned": 11265,
    "Ġhawaiian": 25368,
    "Ġcanopy": 18322,
    "Ġren": 3842,
    "Ġpays": 13295,
    "Ġplutarch": 22604,
    "Ġbro": 1430,
    "Ġtrappers": 23082,
    "Ġworldly": 16329,
    "Ġspectrum": 4472,
    "ivities": 22079,
    "Ġpott": 21466,
    "ith": 330,
    "Ġrobe": 18458,
    "Ġnonce": 23235,
    "Ġlegend": 14575,
    "Ġfee": 7199,
    "pun": 9617,
    "Ġstupidity": 15050,
    "Ġcurrent": 13009,
    "rupt": 3212,
    "Ġhem": 8445,
    "Ġchapters": 10471,
    "irations": 18170,
    "enesis": 24391,
    "oubted": 5859,
    "prevented": 20372,
    "Ġbefriend": 18081,
    "Ġhousehold": 8567,
    "Ġungenerous": 18266,
    "inu": 1115,
    "gradually": 12913,
    "Ġspoilt": 24810,
    "Ġbethinking": 25282,
    "Ġtamely": 24981,
    "Ġlaws": 8002,
    "Ġpavement": 9577,
    "Ġborne": 6351,
    "Ġenjoy": 3759,
    "kov": 17587,
    "Ġraved": 22656,
    "Ġdischarge": 18557,
    "el": 306,
    "Ġrept": 13983,
    "antically": 22095,
    "Ġcrashes": 13125,
    "Ġdiminishing": 4203,
    "Ġsig": 867,
    "Ġcarriages": 11097,
    "minutes": 7513,
    "fri": 20853,
    "Ġunthink": 18247,
    "Ġdiscernible": 15068,
    "Ġbars": 13897,
    "Ġdistricts": 20262,
    "Ġjoist": 19233,
    "izing": 1067,
    "Ġkettle": 26234,
    "gen": 6503,
    "generosity": 23788,
    "Ġshipped": 9714,
    "Ġlabours": 8582,
    "Ġdestination": 19151,
    "Ġwidow": 8662,
    "Ġherb": 15855,
    "Ġbriskly": 25314,
    "Ġwedge": 24070,
    "Ġgleamed": 17077,
    "beaut": 8512,
    "Ġhelen": 16655,
    "Ġparad": 2840,
    "Ġbags": 24540,
    "incing": 15485,
    "itories": 15547,
    "dances": 17521,
    "Ġfad": 17877,
    "abode": 21790,
    "Ġspiritual": 9928,
    "oled": 17620,
    "Ġfaithfulness": 24449,
    "gus": 13725,
    "Ġsearching": 13162,
    "Ġpresentiment": 18991,
    "Ġunmanner": 22028,
    "nine": 13761,
    "girdling": 26391,
    "prop": 1006,
    "Ġdependent": 14299,
    "eers": 20842,
    "Ġresentment": 7531,
    "Ġrejoicing": 13421,
    "Ġpitiless": 19388,
    "Ġcourtship": 24137,
    "flight": 15351,
    "Ġmonogram": 26576,
    "occasional": 19577,
    "Ġlivers": 18462,
    "Ġindelible": 25697,
    "olent": 8154,
    "reclining": 20573,
    "Ġsparkled": 13462,
    "idirectional": 2421,
    "Ġspermacetti": 19053,
    "sales": 17668,
    "Ġconvalescence": 23747,
    "Ġsuperb": 16445,
    "Ġtipped": 17729,
    "placed": 7877,
    "entitled": 21565,
    "Ġconsists": 11977,
    "Ġpenalty": 1842,
    "gradu": 18617,
    "Ġbored": 16104,
    "umes": 10916,
    "Ġignorantly": 19496,
    "Ġropes": 10747,
    "justified": 19004,
    "Ġunsocial": 18256,
    "Ġyonder": 7392,
    "Ġlar": 765,
    "get": 1024,
    "ouring": 6420,
    "Ġbeach": 6541,
    "Ġinstinctively": 13459,
    "hearty": 14833,
    "Ġbarbary": 24219,
    "Ġaccordance": 19498,
    "bedded": 13227,
    "Ġbody": 2436,
    "Ġmuttering": 10497,
    "Ġcash": 9652,
    "Ġlargest": 6282,
    "Ġlandsmen": 11350,
    "Ġcountryside": 23598,
    "prudently": 21033,
    "Ġcontentment": 14869,
    "Ġkra": 18348,
    "laughed": 20280,
    "Ġtemporary": 7980,
    "Ġarmed": 9259,
    "shold": 2771,
    "Ġinflexibly": 26372,
    "mistress": 14904,
    "iving": 1726,
    "Ġepidemic": 20694,
    "Ġperfume": 25668,
    "Ġer": 8104,
    "insurance": 18888,
    "ifle": 10890,
    "Ġobserv": 8586,
    "Ġbug": 11588,
    "achel": 7032,
    "confess": 12174,
    "Ġelephant": 8255,
    "Ġrefrain": 12945,
    "Ġdefects": 12332,
    "Ġchat": 6560,
    "Ġroy": 4224,
    "handkerchief": 14617,
    "Ġinfluence": 5515,
    "Ġpoint": 2056,
    "Ġclanking": 20610,
    "deception": 22144,
    "Ġswerve": 14436,
    "planted": 11694,
    "Ġobligations": 12090,
    "Ġsail": 1673,
    "spermaceti": 12192,
    "streamed": 25968,
    "Ġbiological": 1934,
    "Ġezekiel": 26194,
    "iety": 2815,
    "Ġtrunks": 15963,
    "Ġlaudanum": 20689,
    "Ġeasterly": 25964,
    "unhes": 21874,
    "Ġearned": 19405,
    "Ġmanage": 7641,
    "Ġnarratives": 24356,
    "Ġroughly": 17040,
    "Ġforcing": 3226,
    "idity": 8829,
    "Ġconscience": 6929,
    "Ġ19": 6719,
    "rarely": 21632,
    "Ġspasmod": 12413,
    "relics": 24015,
    "Ġparting": 9782,
    "humanity": 24843,
    "Ġbount": 15566,
    "Ġensuring": 11190,
    "Ġrecorded": 11292,
    "adequate": 15202,
    "Ġarranged": 9875,
    "subs": 14300,
    "batch": 1982,
    "persuasion": 20044,
    "order": 1960,
    "commander": 16987,
    "Ġdetain": 18372,
    "Ġslept": 8258,
    "osing": 3686,
    "Ġdeposed": 16087,
    "Ġmuffled": 10638,
    "tained": 4402,
    "Ġdissect": 16052,
    "Ġtext": 2270,
    "Ġdiscipl": 22785,
    "Ġburgled": 23655,
    "Ġneville": 7399,
    "Ġfar": 1448,
    "penet": 11069,
    "Ġdough": 8420,
    "Ġimpulse": 10021,
    "Ġstatements": 7517,
    "Ġemperors": 15158,
    "Ġyojo": 7611,
    "agery": 21906,
    "university": 25985,
    "<MASK>": 4,
    "nurtured": 25527,
    "Ġwakes": 11571,
    "Ġhandful": 9781,
    "Ġriding": 14095,
    "Ġfairest": 20461,
    "meet": 11854,
    "Ġwooden": 4728,
    "uncontrollable": 20594,
    "iod": 3836,
    "Ġgales": 12663,
    "Ġreck": 6537,
    "Ġmexico": 15279,
    "Ġdo": 512,
    "gether": 1592,
    "Ġlessened": 19089,
    "Ġgulf": 10633,
    "fl": 3596,
    "Ġblan": 18817,
    "Ġvehic": 8933,
    "japan": 15373,
    "furthest": 19842,
    "direful": 25898,
    "anesc": 21358,
    "ate": 421,
    "ighted": 8476,
    "ar": 284,
    "cong": 10685,
    "Ġshelter": 17008,
    "Ġboisterous": 20441,
    "Ġdevotion": 22724,
    "flow": 2330,
    "ivory": 10267,
    "ion": 296,
    "worked": 19011,
    "arrant": 10472,
    "Ġhelps": 9366,
    "Ġrespond": 11175,
    "Ġoutlaws": 22323,
    "wing": 2520,
    "races": 21628,
    "Ġacres": 14312,
    "Ġdoesn": 7438,
    "geons": 15978,
    "alk": 1156,
    "Ġparticle": 18672,
    "evinced": 19927,
    "Ġpry": 11599,
    "evident": 25523,
    "Ġinvade": 19144,
    "Ġhypocritical": 20737,
    "Ġofficious": 19348,
    "Ġrealising": 18985,
    "indifferent": 14208,
    "Ġtrust": 4074,
    "Ġethere": 23951,
    "rrh": 26146,
    "onent": 21247,
    "Ġburying": 19253,
    "Ġlic": 8435,
    "Ġbitten": 21388,
    "Ġharness": 17928,
    "day": 1859,
    "Ġvolume": 6769,
    "ground": 4670,
    "Ġangles": 23590,
    "Ġcatching": 9477,
    "iger": 8446,
    "Ġsign": 2496,
    "Ġcope": 17831,
    "Ġconfusion": 7273,
    "welcomed": 24647,
    "meant": 7920,
    "Ġcommence": 6167,
    "clusion": 16305,
    "Ġillust": 8262,
    "Ð": 145,
    "allies": 14166,
    "Ġcraft": 4373,
    "future": 13717,
    "Ġcontemptuous": 24679,
    "Ġdelivered": 11115,
    "Ġoarsmen": 7737,
    "ĠĠĠĠĠĠĠĠĠĠĠĠĠĠĠĠĠĠĠĠĠĠĠĠĠĠĠĠĠĠĠĠĠĠĠĠĠĠĠĠĠĠĠĠ": 12152,
    "ppo": 18175,
    "inc": 2521,
    "Ġtold": 2185,
    "Ġhopelessly": 16378,
    "Ġglimp": 6065,
    "Ġarithmetic": 18340,
    "Ġbells": 19602,
    "Ġaddresses": 3767,
    "Ġalbino": 20501,
    "Ġmansion": 17810,
    "altern": 17942,
    "Ġwashes": 21860,
    "pets": 17637,
    "O": 51,
    "Ġdependen": 1829,
    "Ġutensils": 23518,
    "Ġtied": 7357,
    "Ġsurrounds": 24234,
    "bearing": 9764,
    "Ġrecol": 4024,
    "Ġalternate": 19986,
    "Ġestablish": 9542,
    "Ġpredictions": 1453,
    "ikes": 8086,
    "Ġfinds": 6299,
    "Ġresidence": 8206,
    "Ġattics": 22621,
    "after": 2895,
    "Ġdoctor": 5068,
    "Ġxi": 16429,
    "cost": 19187,
    "clu": 20798,
    "Ġtr": 549,
    "umpled": 15875,
    "Ġlistened": 4467,
    "Ġzeros": 3325,
    "Ġbarbar": 6935,
    "Ġzoned": 22820,
    "Ġsaf": 3996,
    "Ġconfidently": 24959,
    "Ġattractions": 12914,
    "tempt": 21078,
    "Ġcetacean": 25880,
    "Ġespecial": 26412,
    "sed": 4171,
    "Ġcannon": 14154,
    "Ġmould": 6519,
    "Ġsuited": 12782,
    "says": 13298,
    "vell": 3953,
    "Ġthrusting": 10550,
    "unwillingly": 21883,
    "iber": 6506,
    "sweet": 8685,
    "honorable": 19902,
    "glow": 20873,
    "Ġmechanical": 7936,
    "Ġmeddle": 19492,
    "Ġwarrant": 17795,
    "repe": 8774,
    "Ġembrace": 16990,
    "Ġobe": 5800,
    "correct": 24486,
    "paralleled": 14516,
    "Ġstepmother": 16088,
    "Ġmeant": 3547,
    "Ġcontribute": 12859,
    "Ġmortar": 19393,
    "pression": 10405,
    "Ġaccumulating": 2720,
    "Ġacquainted": 5179,
    "Ġabstract": 17181,
    "noted": 22751,
    "Ġimmersed": 19485,
    "iveness": 2467,
    "Ġinadequate": 17937,
    "employ": 10894,
    "Ġattacked": 10565,
    "eaten": 20343,
    "Ġunfitted": 24110,
    "feet": 6568,
    "Ġunparalleled": 15852,
    "vation": 4742,
    "Ġnoisier": 4623,
    "Ġharpo": 1943,
    "Ġhesitating": 16947,
    "ensions": 14258,
    "Ġprepare": 8646,
    "Ġfacts": 2290,
    "Ġinsolent": 13600,
    "Ġnervously": 19185,
    "!âĢĻâĢĿ": 16592,
    "Ġnarrower": 24357,
    "uttural": 21586,
    "gorge": 22337,
    "Ġcommunicate": 10575,
    "versed": 9824,
    "Ġcongealed": 25983,
    "Ġdeprived": 8210,
    "Ġdrowsy": 26447,
    "prehensible": 12359,
    "Ġjane": 1757,
    "stolen": 13982,
    "quod": 2165,
    "Ġexcluded": 16385,
    "Ġdin": 3621,
    "scru": 16242,
    "impulse": 20644,
    "Ġstartling": 14670,
    "Ġarab": 7823,
    "Ġmartin": 25439,
    "Ġconfederate": 17353,
    "mistak": 16878,
    "Ġdormouse": 4924,
    "elve": 4640,
    "Ġblazing": 11894,
    "Ġenvelop": 5587,
    "Ġsang": 12533,
    "rell": 11563,
    "Ġinmates": 15621,
    "Ġoverjoyed": 17457,
    "histicated": 20900,
    "Ġbelike": 18830,
    "Ġsimple": 1616,
    "Ġedition": 16434,
    "ject": 874,
    "ĠâĢľ": 516,
    "Ġ1828": 25723,
    "animated": 14974,
    "Ġfascinated": 25638,
    "aces": 2069,
    "Ġdate": 7841,
    "Ġmoving": 1680,
    "good": 2898,
    "Ġexcavating": 23316,
    "Ġhonour": 3919,
    "solut": 3364,
    "Ġarrant": 23299,
    "Ġregent": 18598,
    "Ġrendering": 16657,
    "Ġcaterpillar": 5864,
    "Ġguid": 2637,
    "capital": 15087,
    "Ġcontemptuously": 19834,
    "portent": 25415,
    "Ġexpansion": 22626,
    "remarked": 12287,
    "officers": 10625,
    "abilities": 3238,
    "lover": 18537,
    "Ġcrony": 23442,
    "iet": 1776,
    "reel": 21232,
    "Ġoutwardly": 25002,
    "Ġdir": 21424,
    "Ġfanciful": 24791,
    "ley": 1817,
    "Ġdub": 13910,
    "write": 14647,
    "Ġsa": 473,
    "Ġsir": 1568,
    "Ġeste": 6084,
    "Ġpompous": 20421,
    "resembling": 25934,
    "Ġcasks": 7522,
    "paws": 21028,
    "oda": 15747,
    "Ġpressed": 6041,
    "Ġunwritten": 22033,
    "Ġannals": 17899,
    "rating": 7808,
    "Ġbrood": 23101,
    "claimed": 9835,
    "Ġ86": 24464,
    "kne": 20934,
    "Ġpracticable": 19071,
    "Ġxx": 5492,
    "Ġtemporal": 2611,
    "Ġsinusoidal": 4800,
    "claps": 23151,
    "Ġflannel": 26579,
    "Ġkindliness": 23296,
    "Ġassoc": 6402,
    "Ġdespondence": 25871,
    "Ġspecimens": 18859,
    "Ġslighter": 18940,
    "Ġdeeps": 16113,
    "Ġmove": 5107,
    "Ġbrick": 8925,
    "Ġfasten": 11131,
    "Ġedged": 23438,
    "Ġmischie": 22760,
    "Ġquestioning": 10461,
    "Ġmuzzle": 21319,
    "Ġintentionally": 24526,
    "bra": 6219,
    "Ġsebastian": 11696,
    "assembled": 21542,
    "strained": 21656,
    "infernal": 24665,
    "Ġoccup": 3737,
    "instantly": 7507,
    "Ġpersecut": 16952,
    "Ġliber": 5168,
    "prevailed": 17344,
    "Ġsnarled": 25719,
    "itable": 5437,
    "Ġgenealogies": 25963,
    "stud": 8818,
    "Ġaddressing": 11163,
    "Ġcredulous": 17144,
    "hullo": 17571,
    "osoever": 17342,
    "preserver": 20213,
    "Ġallured": 14113,
    "acency": 12906,
    "Ġloved": 4597,
    "Ġcommencement": 12237,
    "ildad": 3529,
    "Ġindefinite": 17176,
    "Ġimparted": 15987,
    "Ġchimneys": 16972,
    "harbors": 20148,
    "Ġrome": 12154,
    "path": 10116,
    "Ġare": 526,
    "word": 2488,
    "unforeseen": 21887,
    "Ġheroines": 19752,
    "Ġcruises": 23703,
    "Ġscorched": 17101,
    "amusement": 15281,
    "Ġfaintest": 24572,
    "urre": 10855,
    "Ġfuture": 1136,
    "N": 50,
    "Ġcorporeal": 17359,
    "Ġevap": 19624,
    "Ġcontin": 5382,
    "shott": 11794,
    "ben": 4925,
    "Ġinj": 4758,
    "valu": 1659,
    "Ġthrew": 3968,
    "globe": 25145,
    "Ġsubterranean": 13611,
    "antage": 3876,
    "Ġguarded": 9825,
    "Ġrelieved": 7666,
    "imes": 1303,
    "Ġlabourers": 23331,
    "Ġmitigates": 3058,
    "Ġsensations": 5259,
    "Ġpigs": 19748,
    "Ġpecks": 18670,
    "Ġesq": 15107,
    "Ġpale": 4530,
    "swallow": 24260,
    "Ġcolleg": 22855,
    "Ġoccasional": 7289,
    "Ġdegradation": 2630,
    "gallery": 24696,
    "Ġpicturesqueness": 24483,
    "Ġquit": 5246,
    "Ġcondescend": 19955,
    "Ġopposed": 11187,
    "Ġviolent": 5117,
    "Ġblasphemer": 26118,
    "Ġlashes": 17967,
    "Ġagreement": 18540,
    "Ġintention": 5638,
    "Ġflexible": 23777,
    "Ġunassuming": 20507,
    "Ġspecially": 11997,
    "Ġparmacetti": 20603,
    "Ġsubjects": 7072,
    "Ġdiscoverers": 26038,
    "shore": 10304,
    "Ġpe": 853,
    "Ġpensive": 21473,
    "Ġfriday": 14488,
    "Ġscrutin": 26016,
    "Ġaffright": 9331,
    "Ġconceited": 12089,
    "Ġportable": 19370,
    "Ġhighest": 3526,
    "itu": 1228,
    "shabb": 18502,
    "wit": 7817,
    "Ġtransp": 4768,
    "Ġrelinqu": 12980,
    "notches": 22752,
    "fab": 13716,
    "Ġmoon": 4607,
    "obed": 14445,
    "Ġdick": 3495,
    "Ġwitnessed": 14843,
    "Ġsuperst": 7703,
    "Ġlandlessness": 23381,
    "Ġnightgown": 23131,
    "Ġtepid": 26414,
    "Ġdoub": 1838,
    "vis": 4575,
    "Ġoppressed": 11188,
    "Ġstripping": 23694,
    "act": 784,
    "abb": 15737,
    "Ġagony": 5388,
    "inois": 17739,
    "warnings": 20350,
    "Ġsnuffing": 25016,
    "Ġendwise": 23142,
    "burn": 8370,
    "Ġintelligently": 4957,
    "Ġappre": 5165,
    "Ġsplashed": 23749,
    "Ġadmiral": 17304,
    "bourgh": 19105,
    "Ġdefy": 11895,
    "bethink": 25747,
    "nobody": 16136,
    "Ġeyeing": 6460,
    "Ġfro": 3470,
    "Ġholidays": 22922,
    "Ġpush": 9184,
    "Ġlump": 21549,
    "Ġinjurious": 24273,
    "Ġverdant": 15002,
    "Ġstaid": 21737,
    "mature": 20966,
    "anque": 13888,
    "buncle": 13692,
    "Ġpressure": 13422,
    "Ġuncommonly": 7759,
    "Ġpoem": 22589,
    "Ġneedle": 8274,
    "Ġishmael": 7395,
    "distinctive": 25729,
    "Ġsuperhuman": 23455,
    "Ġphenomena": 21481,
    "Ġcabman": 14605,
    "Ġholding": 4980,
    "Ġbirch": 26176,
    "lic": 17588,
    "fugitive": 26133,
    "landlord": 9838,
    "Ġinspecting": 24616,
    "personal": 24967,
    "Ġspectators": 19407,
    "gently": 13728,
    "look": 2263,
    "Ġcongratulatory": 19768,
    "Ġrelative": 11881,
    "detached": 19675,
    "Ġinsulted": 14991,
    "Ġclaw": 22351,
    "Ġmiss": 1231,
    "points": 14392,
    "ezes": 9989,
    "scornful": 26577,
    "Ġplenty": 6708,
    "ara": 12597,
    "foreign": 18545,
    "Ġabide": 14187,
    "Ġrokovoko": 22406,
    "Ġter": 2051,
    "ived": 1530,
    "Ġroar": 9752,
    "favourite": 15142,
    "Ġcrouching": 23445,
    "Ġlunging": 24993,
    "Ġexord": 21826,
    "earth": 6502,
    "Ġimpreg": 15986,
    "Ġtapped": 11553,
    "mechanically": 17299,
    "ĠĠĠĠĠĠĠĠĠĠĠĠĠ": 22562,
    "Ġdreaming": 11222,
    "Ġwigwam": 11428,
    "culine": 19065,
    "madly": 24423,
    "Ġexpanding": 25241,
    "sets": 17661,
    "horror": 13159,
    "ruded": 15896,
    "weep": 22684,
    "Ġgourmand": 26468,
    "important": 7112,
    "Ġusages": 15917,
    "dig": 4928,
    "nowhere": 18419,
    "Ġbrazier": 26322,
    "Ġpeered": 18669,
    "Ġunspeakably": 25175,
    "ingu": 2118,
    "Ġcounting": 13095,
    "reasoning": 9475,
    "venerable": 26410,
    "Ġcentrally": 23832,
    "Ġtreading": 16504,
    "Ġerudite": 26352,
    "Ġaddison": 14233,
    "Ġcoast": 4654,
    "Ġcool": 5734,
    "anyth": 5438,
    "Ġadvis": 9806,
    "Ġunlocking": 20705,
    "inations": 7568,
    "shout": 22454,
    "Ġabusing": 18394,
    "Ġteaches": 18803,
    "Ġalone": 2566,
    "Ġearnest": 3926,
    "Ġunlimited": 26224,
    "Ġhunts": 23156,
    "Ġunpardonable": 22061,
    "Ġexagger": 12717,
    "Ġfry": 17880,
    "herald": 22204,
    "Ġalternately": 15031,
    "Ġinequalities": 26455,
    "Ġcrazy": 8593,
    "latter": 15381,
    "Ġskull": 6288,
    "Ġsharks": 4495,
    "Ġrus": 14093,
    "Ġenraptured": 26502,
    "Ġcylinders": 25945,
    "Ġputs": 19036,
    "concern": 6099,
    "Ġfestival": 25448,
    "Ġcrutch": 23448,
    "Ġpeaceful": 9454,
    "Ġequal": 4129,
    "Ġcomprehending": 24448,
    "Ġapprehens": 5682,
    "Ġmaketh": 15186,
    "Ġtradeoff": 2657,
    "suspect": 9539,
    "sher": 5217,
    "Ġsoar": 18283,
    "Ġgret": 21598,
    "Ġabsor": 8504,
    "eryton": 4089,
    "Ġarms": 3961,
    "Ġowes": 20085,
    "Ġmisunderstood": 18706,
    "Ġreg": 732,
    "pushed": 21022,
    "regulated": 23469,
    "umst": 2504,
    "Ġgloomy": 7505,
    "irements": 22216,
    "Ġclung": 10958,
    "Ġrestore": 9379,
    "Ġinterconnected": 1337,
    "waited": 24588,
    "Ġactual": 3735,
    "Ġconse": 21803,
    "Ġ0": 1905,
    "clo": 5613,
    "way": 764,
    "iature": 8740,
    "Ġfugitive": 17326,
    "ports": 13774,
    "Ġprovincial": 20649,
    "small": 6472,
    "ĠĠĠĠĠĠĠĠĠĠĠĠĠĠĠĠĠĠĠĠĠĠĠĠĠĠĠĠĠĠĠĠĠĠĠĠĠĠĠĠĠĠĠĠĠĠĠ": 16755,
    "Ġmilk": 6485,
    "atered": 22006,
    "Ġlargely": 14284,
    "Ġclum": 8872,
    "Ġmuskets": 17057,
    "Ġwharf": 9559,
    "Ġtides": 13821,
    "Ġincensed": 18572,
    "servants": 15037,
    "Ġcontented": 9755,
    "Ġord": 3733,
    "Ġevaluation": 16536,
    "Ġeliminating": 20618,
    "Ġho": 1933,
    "Ġuniformity": 23488,
    "Ġfarthing": 14453,
    "Ġtubs": 11370,
    "Ġspatial": 2727,
    "awe": 20764,
    "Ġforbearance": 12327,
    "Ġlayer": 1013,
    "Ġassures": 14465,
    "Ġutmost": 5496,
    "Ġreject": 7386,
    "Ġsnail": 19300,
    "quaker": 15761,
    "Ġsnatch": 14639,
    "Ġrival": 10483,
    "Ģ": 227,
    "simple": 13452,
    "ging": 2598,
    "roads": 17958,
    "veh": 12677,
    "Ġjinglers": 26020,
    "ogy": 22714,
    "Ġfamiliarly": 11302,
    "withdrawn": 23027,
    "achus": 18273,
    "ician": 21562,
    "dually": 3284,
    "base": 20776,
    "worth": 8626,
    "Ġinward": 11606,
    "Ġtiny": 11552,
    "Ġexhibit": 14955,
    "Ġpaced": 7584,
    "aping": 8193,
    "Ġrings": 11698,
    "Ġdecipher": 22446,
    "entimes": 12654,
    "Ġstabbed": 25459,
    "Ġremainder": 9856,
    "Ġissues": 9541,
    "Ġscare": 18397,
    "Ġforgetting": 3434,
    "give": 4687,
    "Ġseparated": 9463,
    "Ġlory": 12650,
    "inities": 21184,
    "acquainted": 7313,
    "forest": 22518,
    "across": 10322,
    "Ġtreachery": 15100,
    "urons": 3136,
    "Ġmax": 2007,
    "Ġstiggs": 25795,
    "fleet": 15013,
    "Ġpassive": 22845,
    "ornament": 23492,
    "Ġbreath": 4789,
    "Ġashamed": 6403,
    "Ġcelest": 9899,
    "remark": 7261,
    "Ġpertur": 12848,
    "Ġbe": 336,
    "Ġhorn": 6185,
    "Ġhoot": 19078,
    "Ġwearer": 21921,
    "oce": 10713,
    "Ġcavity": 20486,
    "Ġmidway": 14604,
    "nlp": 8749,
    "Ġproperty": 6450,
    "Ġunwearied": 20601,
    "Ġconfirming": 25324,
    "strade": 5066,
    "Ġmeridians": 17355,
    "Ġbachel": 7158,
    "seven": 8463,
    "Ġthyself": 6602,
    "Ġsunlight": 13084,
    "morrow": 4570,
    "Ġspectacle": 10494,
    "reme": 2425,
    "magn": 10608,
    "Ġstr": 759,
    "Ġfronts": 20530,
    "replied": 11565,
    "Ġsweeping": 8985,
    "ring": 1751,
    "plings": 11693,
    "fingers": 17369,
    "pumps": 21026,
    "77": 15299,
    "Ġshank": 21996,
    "Ġbliss": 12999,
    "Ġidol": 7467,
    "_.âĢĻâĢĿ": 17479,
    "Ġhaving": 1883,
[...]
