{
  "metadata": {
    "vocab_size": 26616,
    "algorithm": "BPE",
    "created_at": "2026-06-18 06:50:35",
    "special_tokens": [
      "<PAD>",
      "<SOS>",
      "<EOS>",
      "<UNK>",
      "<MASK>"
    ]
  },
  "vocab": {
    "Ġvishnoo": 12758,
    "data": 2190,
    "except": 5383,
    "Ġhappen": 5571,
    "Ġglut": 18855,
    "Ġsurvived": 14937,
    "Ġcabin": 3303,
    "Ġsimpler": 2046,
    "onym": 14651,
    "Ġslight": 3118,
    "Ġped": 7845,
    "Ġprivate": 5346,
    "Ġcoincidences": 26365,
    "Ġsolutions": 1946,
    "Ġyer": 15738,
    "Ġpreprocess": 22237,
    "Ġsuicide": 12792,
    "Ġpoetic": 17105,
    "Ġnaut": 13944,
    "moored": 22709,
    "stairs": 5155,
    "irium": 8162,
    "Ġmarvels": 11086,
    "iv": 431,
    "ingly": 2134,
    "Ġwillow": 18534,
    "Ġslumber": 13065,
    "ringle": 21043,
    "robotics": 11308,
    "Ġsickbed": 24249,
    "disciple": 16780,
    "Ġhoping": 11104,
    "ordinary": 4410,
    "Ġclank": 15977,
    "Ġ56": 24320,
    "ula": 2825,
    "Ġpell": 21458,
    "ratches": 20128,
    "Ġlids": 12280,
    "Ġgigantic": 5916,
    "Ġtorrid": 25035,
    "oology": 21008,
    "Ġpled": 17907,
    "local": 22514,
    "ency": 3872,
    "Ġ25": 13198,
    "Ġdoubtful": 19143,
    "Ġabst": 9269,
    "Ġhumming": 12991,
    "rose": 6015,
    "mushroom": 26397,
    "Ġgur": 21595,
    "Ġcreative": 9833,
    "dependence": 17170,
    "Ġcandour": 14675,
    "Ġqual": 6276,
    "Ġwollstonecraft": 26427,
    "Ġobjective": 3767,
    "adequate": 15207,
    "Ġvengeance": 5886,
    "Ġisolated": 13563,
    "Ġgovernor": 16492,
    "obscure": 23101,
    "Ġcloud": 3915,
    "ario": 14250,
    "jur": 17580,
    "Ġdancing": 5703,
    "omely": 21662,
    "simon": 16975,
    "Ġpeasants": 12336,
    "inordinate": 21197,
    "Ġdevices": 2939,
    "Ġkra": 18349,
    "spirit": 11315,
    "Ġtravellers": 11310,
    "forward": 2186,
    "Ġclang": 15975,
    "Ġsoc": 3531,
    "Ġarranged": 9880,
    "relics": 24018,
    "Ġinclosed": 19541,
    "Ġvincent": 15287,
    "Ġwax": 10778,
    "mission": 5971,
    "strils": 10460,
    "ready": 2361,
    "produced": 25415,
    "Ġmuteness": 19420,
    "Ġpromontory": 11945,
    "ours": 3428,
    "mblies": 24609,
    "Ġscept": 15506,
    "acled": 16067,
    "Ġcomprehens": 8320,
    "Ġventilator": 8717,
    "omical": 9685,
    "determination": 19948,
    "Ġexceptional": 19374,
    "engaged": 7452,
    "Ġlegal": 10441,
    "Ġkindliness": 23298,
    "Ġinfant": 11964,
    "ilations": 21725,
    "Ġpassage": 3888,
    "Ġviewed": 10465,
    "Ġneglecting": 25010,
    "Ġpartiality": 9401,
    "Ġascertained": 25297,
    "Ġredundant": 16554,
    "Ġsuccession": 12106,
    "usive": 8192,
    "Ġhandful": 9785,
    "Ġsized": 11565,
    "Ġsash": 17756,
    "Ġrelaxed": 12989,
    "exceed": 7911,
    "lott": 6653,
    "Ġallegro": 25795,
    "mosphere": 10046,
    "intending": 22938,
    "Ġplainpal": 19279,
    "Ġreceipt": 20358,
    "Ġmales": 17807,
    "Ġsituated": 9450,
    "Ġguessed": 11284,
    "Ġcurric": 22966,
    "waiter": 24587,
    "Ġreplenished": 13640,
    "alizing": 17942,
    "Ġbeing": 1162,
    "Ġfavoured": 16363,
    "Ġworried": 22929,
    "Ġdock": 15934,
    "Ġcliffs": 15980,
    "Ġus": 494,
    "Ġdecoyed": 18485,
    "fights": 20867,
    "describe": 1512,
    "Ġexhibiting": 19841,
    "Ġgib": 13968,
    "Ġhospital": 15042,
    "Ġexertion": 8054,
    "Ġamsterdam": 22488,
    "Ġmoulded": 16977,
    "Ġdelight": 2549,
    "Ġservants": 6612,
    "Ġwaxed": 21300,
    "Ġshaft": 18230,
    "istence": 2404,
    "Ġemploying": 23981,
    "sal": 8761,
    "Ġbarricade": 14662,
    "Ġfastening": 16360,
    "header": 11937,
    "village": 25423,
    "Ġmaybe": 12954,
    "Ġcircum": 8258,
    "Ġexpectantly": 23528,
    "Ġsource": 6806,
    "advance": 12161,
    "Ġfiss": 21415,
    "buttoned": 13636,
    "arled": 21445,
    "Ġdoleful": 18377,
    "covered": 11479,
    "Ġoutlined": 22324,
    "Ġboasted": 16110,
    "Ġplaited": 14286,
    "itable": 5437,
    "Ġhonourable": 10458,
    "Ġapply": 1776,
    "Ġglide": 22991,
    "pun": 9620,
    "Ġabandoned": 8352,
    "Ġcheers": 16371,
    "moon": 10338,
    "Ġpaw": 12625,
    "Ġeasiness": 23539,
    "onement": 21259,
    "accomplished": 17214,
    "dering": 5307,
    "Ġappeased": 23199,
    "oking": 4607,
    "gi": 17553,
    "Ġlanded": 7469,
    "irited": 15791,
    "brit": 19199,
    "Ġcircumstances": 3928,
    "Ġdissolved": 18555,
    "Ġentic": 16150,
    "unguarded": 23671,
    "Ġrecollecting": 17114,
    "¿": 128,
    "Ġendow": 23139,
    "Ġbridge": 8349,
    "whaling": 7899,
    "Ġhun": 1494,
    "Ġopal": 23627,
    "pow": 10719,
    "Ġfrankly": 16747,
    "Ġcrouched": 23441,
    "fabulous": 20477,
    "bred": 11471,
    "Ġobstructed": 24678,
    "Ġheaped": 18040,
    "completed": 19997,
    "Ġhaggard": 17333,
    "Ġcrowder": 19459,
    "undoubtedly": 13316,
    "complained": 25840,
    "Ġpotency": 14647,
    "aits": 20768,
    "Ġyork": 11668,
    "bar": 7541,
    "Ġirritation": 20269,
    "loops": 12887,
    "Ġtoll": 7852,
    "Ġapprovingly": 26254,
    "coiled": 16488,
    "Ġhos": 4942,
    "Ġgrosvenor": 17421,
    "ensive": 6281,
    "thunder": 10265,
    "Ġgrave": 5100,
    "enesis": 24388,
    "Ġfugitives": 25635,
    "Ġbrisk": 9806,
    "Ġrecommence": 16814,
    "Ġwonderland": 23427,
    "Ġrivers": 9445,
    "seriously": 18906,
    "Ġlow": 1646,
    "Ġel": 801,
    "years": 6883,
    "trouble": 8296,
    "Ġdinnertime": 16721,
    "material": 13134,
    "spouting": 25003,
    "Ġsquall": 7045,
    "Ġwrig": 13073,
    "Ġpolitic": 23620,
    "Ġcargo": 16293,
    "compassion": 12372,
    "invisible": 17742,
    "Ġminiatures": 20324,
    "Ġdeck": 2137,
    "appalled": 18761,
    "creature": 5347,
    "Ġward": 10158,
    "orious": 6009,
    "ptic": 21922,
    "Ġhesitating": 16949,
    "sciss": 18859,
    "Ġretarded": 23075,
    "deeply": 16181,
    "heart": 4527,
    "ersed": 10262,
    "Ġpeddling": 21484,
    "itch": 10163,
    "Ġbelly": 10372,
    "Ġvest": 8163,
    "mews": 22718,
    "Ġtelegraph": 25584,
    "Ġvine": 8474,
    "Ġsecurity": 8980,
    "Ġsorrows": 13359,
    "Ġstrongly": 5657,
    "arken": 18668,
    "Ġdemanded": 8327,
    "contained": 22476,
    "Ġjenkinson": 11433,
    "ss": 396,
    "Ġgrown": 5628,
    "Ġhide": 4590,
    "wis": 12523,
    "ager": 6548,
    "Ġinsignificant": 20459,
    "Ġsatirical": 26281,
    "Ġbouton": 17870,
    "Ġcracked": 8597,
    "Ġrefined": 18699,
    "Ġimpertinent": 9080,
    "promote": 24726,
    "Ġflinging": 13589,
    "appe": 2943,
    "Ġtreasures": 17048,
    "Ġsecurely": 16804,
    "inquiries": 13581,
    "Ġsurpl": 19134,
    "Ġpersonally": 8602,
    "Ġfist": 21407,
    "I": 45,
    "Ġknocking": 10562,
    "Ġprone": 18969,
    "Ġcrawled": 17045,
    "Ġhonestly": 19975,
    "Ġwhilst": 9221,
    "Ġdisgu": 8206,
    "Ġaccosted": 13676,
    "xt": 2078,
    "Ġexecution": 6927,
    "lesc": 11040,
    "welcome": 10004,
    "Ġevanesc": 24296,
    "Ġspan": 11732,
    "Ġeye": 2281,
    "kily": 20939,
    "Ġarid": 22185,
    "ultural": 22574,
    "Ġunreliable": 3931,
    "its": 1149,
    "Â": 131,
    "Ġcollections": 22858,
    "Ġrests": 13098,
    "Ġbare": 6134,
    "Ġinsens": 8277,
    "Ġzone": 14361,
    "Ġvon": 14084,
    "Ġcongratulatory": 19770,
    "Ġroute": 11383,
    "tears": 11038,
    "introduce": 25187,
    "Ġdesperado": 19822,
    "Ġcables": 15562,
    "mystical": 25318,
    "Ġboarders": 16602,
    "Ġlumps": 21559,
    "Ġtart": 12533,
    "Ġover": 553,
    "Ġrows": 10563,
    "?_âĢĿ": 12320,
    "Ġbill": 4044,
    "arned": 21821,
    "thousands": 16874,
    "Ġharbors": 24902,
    "vius": 23544,
    "Ġapprove": 12880,
    "pretend": 24883,
    "conjecture": 15126,
    "Ġchann": 15939,
    "court": 7511,
    "Ġugly": 8719,
    "Ġtrembled": 8705,
    "Ġgaze": 6932,
    "Ġcomplicated": 14738,
    "Ġcorrupt": 11927,
    "tube": 20414,
    "Ġevil": 3807,
    "atible": 17774,
    "Ġmutual": 8297,
    "Ġweeks": 4566,
    "pless": 6262,
    "Ġdiving": 12606,
    "queen": 12732,
    "Ġmichaelmas": 26376,
    "Ġhates": 21489,
    "Ġrelations": 5854,
    "Ġp": 288,
    "Ġsleeping": 6321,
    "================": 3726,
    "Ġbarbar": 6935,
    "Ġcottage": 4734,
    "terrors": 25044,
    "unicorn": 21893,
    "Ġjoosy": 23633,
    "Ġrepro": 7275,
    "Ġpreposter": 12827,
    "://": 11467,
    "Ġoverwhelm": 25053,
    "))": 1513,
    "elijah": 19476,
    "vacancies": 25920,
    "Ġshakes": 10906,
    "Ġstormy": 16730,
    "Ġtransported": 11281,
    "Ġdetermining": 14424,
    "bow": 5424,
    "Ġdisreputable": 22538,
    "Ġtambourine": 9567,
    "pendicular": 6500,
    "ĠĠĠĠĠĠĠĠĠĠĠĠĠĠĠĠĠĠĠĠĠĠĠĠ": 5322,
    "egypt": 15353,
    "Ġ61": 24364,
    "op": 659,
    "Ġdazz": 11597,
    "Ġbored": 16109,
    "Ġinstantaneously": 23659,
    "Ġcaval": 25770,
    "bons": 17489,
    "soled": 14332,
    "threadbare": 25990,
    "Ġworms": 25217,
    "Ġprogrammed": 11060,
    "Ġatmosphere": 10899,
    "Ġbeaches": 18087,
    "Ġref": 906,
    "Ġmirth": 15549,
    "Ġdoctor": 5067,
    "ishment": 3509,
    "Ġavocation": 23956,
    "Ġdespite": 19356,
    "Ġbestirred": 20454,
    "Ġappearing": 9844,
    "fred": 20857,
    "Ġpainting": 13145,
    "fa": 7336,
    "Ġalice": 1482,
    "fear": 8516,
    ",âĢĻ": 2330,
    "Ġlessen": 14533,
    "Ġlonely": 6823,
    "Ġfet": 5808,
    "judges": 19576,
    "Ġslim": 18939,
    "ach": 435,
    "Ġbenevolent": 7773,
    "replied": 11568,
    "terrific": 25043,
    "sold": 15429,
    "000": 2561,
    "jack": 7344,
    "Ġgums": 21614,
    "Ġunho": 18246,
    "Ġbelted": 22951,
    "Ġutmost": 5496,
    "Ġsteelkilt": 5675,
    "Ġprofits": 16491,
    "Ġself": 1778,
    "addition": 13388,
    "Ġrevelry": 15140,
    "ubbub": 23246,
    "Ġgirls": 4282,
    "Ġdem": 11677,
    "Ġregain": 22580,
    "Ġspear": 9315,
    "introduced": 15128,
    "Ġrendered": 5773,
    "Ġimpute": 18326,
    "Ģ": 227,
    "Ġdeliberate": 15025,
    "captain": 3957,
    "finally": 9502,
    "Ġushered": 18358,
    "distinctive": 25726,
    "Ġmir": 9649,
    "urring": 21708,
    "Ġtrusted": 10520,
    "Ġsunrise": 9376,
    "Ġundertaken": 18988,
    "Ġsingers": 23773,
    "Ġmentioned": 4332,
    "Ġbloodshed": 23802,
    "Ġowe": 8115,
    "Ġdrunken": 12054,
    "breaths": 25337,
    "kitty": 10108,
    "Ġchallenge": 25472,
    "uding": 16153,
    "Ġguar": 23047,
    "erne": 21272,
    "Ġconfident": 11140,
    "Ġchannel": 26013,
    "Ġmore": 675,
    "Ġon": 350,
    "hmael": 7342,
    "Ġcoaxing": 18602,
    "Ġtemper": 954,
    "Ġbashful": 20423,
    "Ġsymphony": 26534,
    "Ġclever": 7056,
    "fill": 15354,
    "wherefore": 19110,
    "Ġarter": 22186,
    "Ġresided": 11815,
    "Ġmeant": 3555,
    "Ġcomple": 2841,
    "Ġdisease": 14260,
    "haut": 20904,
    "Ġfronts": 19003,
    "Ġreminisc": 18724,
    "horr": 14601,
    "Ġindifferent": 6176,
    "Ġroods": 22407,
    "dishonourable": 26367,
    "gang": 17555,
    "ulls": 8842,
    "Ġquite": 1739,
    "condescended": 26250,
    "engines": 18930,
    "Ġtrod": 15029,
    "Ġinterfere": 11821,
    "ptember": 10895,
    "Ġbronze": 22869,
    "station": 10846,
    "Ġcharacter": 2794,
    "ok": 573,
    "Ġresemble": 15697,
    "Ġonly": 790,
    "Ġmovement": 9971,
    "Ġspeed": 2449,
    "Ġagony": 5388,
    "Ġshrieking": 24757,
    "Ġweather": 3999,
    "ib": 1234,
    "sensible": 20055,
    "Ġubiquitous": 26197,
    "þ": 191,
    "Ġhermits": 22078,
    "rece": 21237,
    "Ġwoeful": 19622,
    "faces": 13723,
    "rd": 17651,
    "minds": 24235,
    "Ġlike": 667,
    "chanced": 18812,
    "bab": 11470,
    "Ġsoph": 1705,
    "fishing": 20861,
    "ste": 3589,
    "Ġirregularity": 25325,
    "Ġnin": 10190,
    "Ġther": 17780,
    "Ġconfined": 7465,
    "icted": 5938,
    "Ġnewly": 9341,
    "Ġbehaves": 23303,
    "Ġreappeared": 21668,
    "ography": 13367,
    "Ġcopies": 24938,
    "pt": 386,
    "esu": 17921,
    "Ġrequested": 14302,
    "Ġvirgin": 7328,
    "jud": 4483,
    "Ġ69": 19664,
    "Ġwarning": 9061,
    "iter": 4394,
    "Ġegg": 8823,
    "Ġemblazonings": 26044,
    "Ġfed": 5530,
    "flagged": 23975,
    "Ġfishy": 16525,
    "Ġtight": 8108,
    "Ġsupremacy": 20263,
    "Ġfilial": 16622,
    "Ġmining": 22833,
    "Ġrent": 11642,
    "Ġindulged": 13421,
    "ruit": 22181,
    "Ġsheaves": 22162,
    "ator": 1923,
    "increasing": 20272,
    "Ġmishap": 20579,
    "idity": 8835,
    "Ġpacing": 8427,
    ".âĢĻ": 1717,
    "itious": 8784,
    "impenet": 18056,
    "Ġsupernatural": 9876,
    "Ġframed": 19062,
    "Ġbegged": 8231,
    "Ġunfulfilled": 26511,
    "Ġcuff": 17831,
    "swaying": 25911,
    "Ġheath": 15706,
    "Ġprovide": 7750,
    "sav": 8096,
    "humoredly": 26326,
    "Ġremonstrance": 20626,
    "Ġdecrease": 4203,
    "Ġantiquities": 25599,
    "Ġmaketh": 15191,
    "mightily": 24105,
    "worm": 15456,
    "rador": 19129,
    "fixedly": 24930,
    "olera": 21837,
    "Ġishmael": 7395,
    "Ġarabic": 24981,
    "Ġemm": 18005,
    "Ġbankers": 24304,
    "Ġgable": 15671,
    "Ġcircumn": 11988,
    "Ġliar": 22412,
    "present": 1139,
    "Ġsequ": 982,
    "happily": 14659,
    "Ġexplored": 23519,
    "Ġwhiff": 21721,
    "Ġbefitting": 15730,
    "Ġbrooks": 25701,
    "Ġinexpress": 12640,
    "Ġnarrowed": 24355,
    "glimmer": 26323,
    "Ġhandspikes": 12943,
    "rations": 10725,
    "Ġlie": 4409,
    "Ġtrade": 2548,
    "steering": 16638,
    "Ġmastiff": 23727,
    "âĢĶ.": 11761,
    "shake": 22459,
    "ece": 17533,
    "weekly": 25685,
    "Ġpulled": 5660,
    "representing": 25272,
    "Ġindividual": 5744,
    "Ġfancy": 3748,
    "Ġtowards": 1727,
    "situation": 11439,
    "Ġcrosses": 23065,
    "ding": 3024,
    "Ġmislead": 22759,
    "Ġrocks": 6863,
    "Ġlikelihood": 16502,
    "Ġsauce": 15896,
    "Ġpeeping": 16131,
    "Ġspots": 11733,
    "Ġswash": 23058,
    "ertain": 1206,
    "ĠâĢĶ": 13814,
    "Ġrewarding": 13441,
    "countryman": 24640,
    "Ġmildness": 9947,
    "safie": 20351,
    "Ġecc": 11631,
    "Ġpitches": 23905,
    "Ġfict": 21408,
    "theless": 4263,
    "Ġpressed": 6043,
    "Ġravings": 18647,
    "Ġjing": 15953,
    "Ġstroll": 13357,
    "Ġweakened": 16825,
    "Ġbenchmarks": 15024,
    "Ġmastery": 23996,
    "pire": 9138,
    "Ġmug": 21315,
    "...": 24549,
    "Ġduncan": 13465,
    "Ġquarrels": 16569,
    "renewed": 19707,
    "Ġcasualties": 25513,
    "ius": 5789,
    "Ġoutside": 5554,
    "abominable": 20597,
    "Ġweap": 6157,
    "tese": 21086,
    "Ġkills": 15910,
    "Ġquarter": 3981,
    "started": 10847,
    "mody": 16188,
    "Ġamount": 8514,
    "ption": 7398,
    "ks": 3143,
    "Ġbreathes": 13251,
    "Ġstyle": 6946,
    "Ġinexorable": 12260,
    "Ġkitty": 3913,
    "Ġpest": 13916,
    "Ġ1846": 26085,
    "remote": 23192,
    "Ġexposed": 8525,
    "Ġhus": 3092,
    "_),": 7127,
    "aying": 15754,
    "Ġgrotes": 19566,
    "dances": 17523,
    "Ġactively": 18655,
    "cies": 1813,
    "married": 9952,
    "kin": 7133,
    "appearing": 14639,
    "Ġobstacles": 19838,
    "gledy": 25404,
    "Ġwaist": 6899,
    "Ġtantalizing": 20417,
    "Ġcapstan": 9102,
    "Ġbrightness": 16579,
    "alt": 12643,
    "Ġgrievances": 20650,
    "resembling": 25933,
    "Ġpint": 17909,
    "Ġlexicon": 25975,
    "Ġsuspending": 19246,
    "Ġsustain": 10020,
    "Ġroy": 4231,
    "Ġconcentrated": 15087,
    "tap": 17678,
    "Ġtalks": 23371,
    "gradually": 12920,
    "Ġpanic": 11288,
    "anter": 9169,
    "Ġturnkeys": 23033,
    "Ġnonsensical": 21532,
    "Ġurged": 6782,
    "ispiece": 19728,
    "Ġquadrant": 11406,
    "Ġstirred": 12222,
    "Ġtoiled": 12647,
    "Ġopt": 781,
    "Ġdespond": 14670,
    "Ġarab": 7823,
    "Ġremonstrate": 22794,
    "Ġretired": 6072,
    "Ġrings": 11704,
    "Ġcousins": 9918,
    "ĺ": 251,
    "heard": 5009,
    "Ġregulate": 22581,
    "shortly": 12263,
    "Ġnormalization": 1243,
    "impregn": 21717,
    "dock": 16421,
    "Ġborders": 15576,
    "Ġsuspecting": 14913,
    "Ġmorality": 22981,
    "eprints": 12796,
    "Ġunnatural": 7190,
    "loa": 18537,
    "Ġamid": 4959,
    "Ġarising": 10935,
    "rusion": 11325,
    "Ġtrem": 6662,
    "Ġunwillingness": 20035,
    "Ġunaffected": 14125,
    "tempt": 21082,
    "throt": 25660,
    "Ġyea": 8919,
    "Ġdoom": 6418,
    "inished": 17736,
    "crowded": 20193,
    "Ġslang": 23162,
    "sombre": 23857,
    "resc": 21241,
    "Ġcatherine": 2812,
    "acit": 16066,
    "Ġsimilar": 4917,
    "Ġturk": 6605,
    "Ġanswers": 7072,
    "peculiarities": 13475,
    "Ġcath": 17828,
    "trembling": 17145,
    "happiest": 19334,
    "Ġsecuring": 11996,
    "must": 3582,
    "Ġdum": 10813,
    "helm": 12176,
    "Ĥ": 229,
    "Ġnews": 3820,
    "Ġtour": 9150,
    "Ġdesc": 773,
    "cried": 8728,
    "cou": 13699,
    "Ġpleased": 4067,
    "Ġgreenwich": 19323,
    "phere": 21021,
    "ashing": 4825,
    "Ġthrust": 5084,
    "langu": 4807,
    "Ġethics": 15465,
    "Ġnecessitated": 23932,
    "Ġunable": 4951,
    "Ġpedest": 15067,
    "icial": 12660,
    "erxes": 21278,
    "Ġtendinous": 16933,
    "Ġprecipices": 12282,
    "Ġinvolves": 1137,
    "Ġtrousers": 12419,
    "Ġfocused": 16344,
    "Ġtahiti": 13623,
    "Ġtreacle": 14597,
    "Ġhaughty": 11451,
    "Ġcub": 8415,
    "strate": 12678,
    "ww": 10739,
    "affold": 16565,
    "Ġhailed": 6408,
    "Ġyield": 5093,
    "Ġbuckler": 24860,
    "iloquent": 21729,
    "bucket": 17496,
    "board": 3570,
    "Ġrestlessness": 23296,
    "«": 109,
    "rating": 7808,
    "ked": 5616,
    "Ġimprove": 1837,
    "Ġresume": 18566,
    "spass": 18687,
    "Ġbinding": 20422,
    "Ġscaled": 2103,
    "Ġerect": 6145,
    "deficient": 23120,
    "aths": 22704,
    "Ġstraightened": 12113,
    "Ġtemperate": 16164,
    "Ġwarped": 25038,
    "Ġmacy": 19358,
    "like": 1884,
    "13": 20752,
    "Ġswung": 6450,
    "dogs": 25403,
    "surprising": 16921,
    "Ġinnocently": 24031,
    "Ġarchitectures": 2908,
    "infl": 15490,
    "Ġsevent": 18203,
    "arbuck": 2024,
    "Ġexplaining": 15964,
    "Ġrather": 1493,
    "Ġdeceived": 6546,
    "Ġblown": 12090,
    "lighted": 23756,
    "Ġsent": 1774,
    "Ġjapan": 7640,
    "Ġpositional": 2598,
    "Ġinvested": 7279,
    "Ġretrogress": 23076,
    "Ġreserve": 9974,
    "constit": 24605,
    "Ġtransaction": 22448,
    "hog": 8380,
    "Ġarsac": 11746,
    "Ġswelled": 11089,
    "ckles": 22093,
    "apidated": 22340,
    "Ġegypt": 9681,
    "Ġroll": 5381,
    "Ġshared": 10266,
    "Ġperturbed": 20443,
    "concerned": 24639,
    "ipp": 10105,
    "Ġaim": 10148,
    "Ġsurmised": 24920,
    "Ġexecuted": 9475,
    "Ġwhitting": 18058,
    "know": 2321,
    "Ġdiscount": 22782,
    "Ġeighteenth": 14757,
    "Ġcrocod": 19631,
    "ix": 1800,
    "itement": 7835,
    "Ġfetching": 16898,
    "Ġminimum": 23043,
    "Ġwarmly": 8990,
    "Ġgreatest": 4096,
    "Ġnovels": 15933,
    "Ġstave": 11654,
    "Ġseemed": 1278,
    "allions": 22202,
    "Ġluxuries": 25167,
    "Ġconcluded": 5658,
    "Ġriveted": 13622,
    "contin": 16544,
    "Ġwhe": 439,
    "icilian": 20694,
    "clergyman": 20731,
    "Ġcomforts": 14696,
    "wandering": 20287,
    "ensation": 22551,
    "Ġscandinavian": 26347,
    "card": 11477,
    "Ġpam": 21456,
    "Ġhelps": 9371,
    "Ġexhilar": 19686,
    "balls": 12309,
    "Ġstill": 1155,
    "Ġscreaming": 13427,
    ":âĢĶâĢĺ": 24196,
    "Ġrapt": 7227,
    "Ġconsist": 1933,
    "majesty": 26282,
    "Ġconscientious": 16729,
    "onely": 6517,
    "Ġtwo": 1044,
    "forgive": 18732,
    "plutarch": 21961,
    "Ġchoosing": 19593,
    "Ġshoot": 11163,
    "desperate": 17360,
    "Ġbuttons": 12786,
    "Ġsmooth": 2779,
    "Ġunfortunate": 5376,
    "Ġmouthfuls": 20648,
    "Ġlead": 3528,
    "nson": 16092,
    "Ġextra": 4059,
    "roc": 9677,
    "bouton": 17504,
    "Ġaccumulation": 2693,
    "Ġcontact": 9284,
    "Ġtumbled": 13410,
    "Ġboneless": 19608,
    "Ġ9": 5902,
    "Ġphilipses": 24452,
    "sway": 15428,
    "Ġcondu": 18112,
    "best": 6113,
    "marry": 13328,
    "Ġbanquet": 15244,
    "sive": 4147,
    "Ġsoup": 7069,
    "Ġreverse": 16984,
    "Ġprejudices": 13473,
    "Ġsociet": 9452,
    "diversity": 25898,
    "orated": 12596,
    "carte": 25401,
    "Ġtimorous": 24228,
    "Ġmonstrous": 7790,
    "Ġinstruction": 14347,
    "Ġchall": 10946,
    "Ġwealth": 7621,
    "Ġresignation": 18567,
    "----": 4061,
    "Ġquoin": 22422,
    "broke": 14781,
    "afterwards": 7484,
    "inj": 9154,
    "Ġturkey": 19221,
    "susceptible": 24662,
    "mis": 4522,
    "wow": 21124,
    "Ġhabit": 6772,
    "Ġbattalions": 25777,
    "Ġbake": 21385,
    "Ġintercept": 14276,
    "Ġshadow": 5596,
    "tal": 17672,
    "ython": 1030,
    "fears": 18532,
    "Ġseethings": 26505,
    "Ġwriters": 13546,
    "you": 1006,
    "Ġmediocr": 24142,
    "Ġum": 10214,
    "±": 114,
    "Ġleads": 12101,
    "Ġattached": 5392,
    "Ġsatisfy": 6912,
    "industrious": 26241,
    "Ġstren": 15724,
    "collect": 16566,
    "Ġportcullis": 26605,
    "Ġcuriously": 13013,
    "alarm": 15631,
    "Ġbeen": 626,
    "Ġfluctuations": 5516,
    "load": 12885,
    "Ġsingularly": 12153,
    "Ġprocessing": 885,
    "usually": 10288,
    "nowled": 5470,
    "Ġacquies": 11099,
    "Ġretained": 7174,
    "Ġyawning": 12304,
    "ele": 9117,
    "Ġtre": 2537,
    "Ġrec": 899,
    "Ġcounting": 13100,
    "Ġcollateral": 20075,
    "prophecy": 22850,
    "Ġzigzag": 26274,
    "Ġenticements": 26035,
    "Ġvouch": 15813,
    "Ġconveyed": 8335,
    "Ġbitten": 21393,
    "windibank": 24164,
    "Ġgentleness": 8713,
    "national": 21000,
    "Ġconcrete": 20639,
    "joke": 20932,
    "Ġphiladelphia": 26606,
    "Ġshoes": 7073,
    "atching": 8202,
    "robust": 19731,
    "frequently": 9982,
    "meetings": 20381,
    "Ġthick": 3784,
    "Ġnick": 21526,
    "Ġpromising": 10402,
    "Ġwashed": 15769,
    "otograph": 5827,
    "Ġquaff": 22418,
    "Ġbowls": 23772,
    "topp": 22571,
    "whatsoever": 18488,
    "Ġstrasburgh": 18615,
    "Ġpeep": 6870,
    "ocations": 23710,
    "aloons": 20014,
    "bil": 20773,
    "devilish": 17083,
    "Ġdut": 2986,
    "ograph": 4797,
    "Ġfood": 5080,
    "Ġbrad": 8791,
    "bench": 16805,
    "measure": 10034,
    "Ġbillows": 7502,
    "Ġlogic": 13082,
    "Ġapple": 14171,
    "vii": 13152,
    "Ġcontrasting": 11156,
    "Ġrepented": 23363,
    "Ġsal": 3942,
    "gallery": 24694,
    "Ġrods": 9756,
    "Ġencouraged": 9358,
    "brance": 7284,
    "Ġcountenance": 3974,
    "Ġshift": 2282,
    "othe": 2616,
    "Ġjoyfully": 19349,
    "Ġhoof": 23354,
    "Ġwholesome": 16009,
    "Ġ0": 1901,
    "Ġaffections": 10387,
    "Ġhanding": 16134,
    "wants": 21133,
    "scand": 18857,
    "Ġcopied": 20011,
    "Ġmacro": 25940,
    "asked": 8915,
    "iquet": 17577,
    "Ġcorruption": 15229,
    "umb": 3404,
    "Ġindestruct": 22961,
    "ude": 7562,
    "Ġelevating": 19732,
    "Ġchanc": 18385,
    "Ġforefinger": 16443,
    "Ġpeels": 22694,
    "Ġ1671": 25008,
    "preserve": 25304,
    "Ġjacobians": 2892,
    "Ġlifting": 10199,
    "Ġdiverted": 14594,
    "Ġsolid": 6444,
    "imodal": 17450,
    "ural": 505,
    "Ġadhes": 22110,
    "Ġgrin": 5482,
    "define": 1523,
    "ellations": 21948,
    "nants": 17615,
    "Ġcalamities": 25700,
    "Ġvineyards": 25109,
    "Ġblinding": 14731,
    "Ġinputs": 844,
    "Ġlost": 2636,
    "thoughts": 9938,
    "Ġdais": 24372,
    "Ġcatches": 23429,
    "Ġpend": 15610,
    "Ġprivile": 8649,
    "Ġclutch": 15056,
    "Ġmanhat": 22331,
    "Ġvariations": 22669,
    "Ġcod": 8413,
    "Ġsoo": 15865,
    "god": 4863,
    "Ġdispirited": 23885,
    "commander": 16989,
    "injustice": 17739,
    "Ġboards": 14304,
    "Ġunintelligible": 26516,
    "ason": 1280,
    "Ġcapricious": 20541,
    "rate": 2424,
    "odecim": 9835,
    "Ġcivilly": 19606,
    "Ġtwinkle": 12327,
    "Ġspeckled": 14309,
    "Ġacknowledged": 7534,
    "manner": 6172,
    "ruding": 9727,
    "alter": 10828,
    "Ġfringed": 17275,
    "Ġrucastle": 5176,
    "Ġtok": 1245,
    "Ġruffled": 25837,
    "stalk": 21647,
    "secure": 12240,
    "Ġacres": 14316,
    "Ġbeaufort": 13572,
    "learnt": 23554,
    "Ġalgorithms": 857,
    "beer": 22491,
    "Ġ(`": 12857,
    "specim": 23947,
    "Ġtantamount": 25626,
    "anned": 17841,
    "Ġartificial": 785,
    "Ġsquatted": 25843,
    "acted": 11012,
    "hammock": 16357,
    "Ġbowsprit": 16563,
    "upid": 6583,
    "Ġadored": 18294,
    "Ġblacksmiths": 19875,
    "Ġfiends": 14831,
    "Ġunwritten": 22038,
    "zing": 7820,
    "Ġgam": 11627,
    "Ġreference": 2567,
    "Ġcandelabra": 26604,
    "erval": 4022,
    "wicked": 24449,
    "Ġsurrounds": 24234,
    "terday": 4705,
    "Ġillustrative": 25069,
    "swiftly": 20554,
    "Ġavenues": 25430,
    "onstr": 12551,
    "Ġdependen": 1828,
    "Ġinfl": 6892,
    "Ġsquares": 11171,
    "Ġwis": 3731,
    "Ġtoken": 2037,
    "Ġsenior": 17174,
    "obey": 11512,
    "Ġsolicited": 20040,
    "scruple": 26046,
    "Ġtwins": 16124,
    "fatigue": 20660,
    "bitterly": 20340,
    "mortals": 25410,
    "Ġdenied": 9003,
    "sleepy": 24728,
    "Ġintimately": 24801,
    "Ġdeceased": 15008,
    "direful": 25897,
    "light": 3014,
    "contents": 12062,
    "deed": 1516,
    "notice": 16151,
    "appointment": 24063,
    "Ġwre": 5077,
    "Ġcurb": 16233,
    "inion": 2875,
    "uesday": 8590,
    "grad": 2569,
    "Ġindoors": 18837,
    "reat": 617,
    "appropri": 22844,
    "âĢĶ_": 3200,
    "match": 15394,
    "Ġ*/": 10376,
    "Ġcring": 15556,
    "angel": 5726,
    "Ġgained": 4536,
    "Ġseedy": 21966,
    "Ġnephews": 24713,
    "Ġquietude": 19363,
    "Ġenjoy": 3762,
    "Ġcrawling": 17046,
    "Ġsqueeze": 10042,
    "Ġwal": 6518,
    "mospheric": 17092,
    "fleet": 15016,
    "Ġmarred": 23035,
    "Ġindecision": 25782,
    "ouncing": 8497,
    "Ġnaught": 8128,
    "bond": 17492,
    "Ġfactory": 23279,
    "Ġcasts": 19429,
    "Ġoccupations": 9460,
    "Ġfibres": 12956,
    "Ġpersecut": 16954,
    "Ġordered": 5833,
    "Ġpeg": 22692,
    "Ġrinal": 21984,
    "idually": 21773,
    "Ġmolasses": 25629,
    "Ġphilosoph": 19654,
    "Ġsatisfactory": 11194,
    "curiosity": 8627,
    "Ġindu": 5295,
    "nment": 20992,
    "eyed": 11489,
    "Ġnext": 2138,
    "Ġ{": 21155,
    "thin": 14100,
    "interview": 19301,
    "Ġgardens": 16453,
    "Ġembalmed": 13660,
    "Ġhuff": 21493,
    "knell": 24555,
    "insanity": 23071,
    "Ġextraction": 11254,
    "untering": 15780,
    "Ġgent": 7383,
    "Ġeduc": 4785,
    "Ġwithered": 19468,
    "iating": 3205,
    "Ġklux": 22199,
    "etieth": 21587,
    "snap": 24849,
    "iage": 17575,
    "erate": 7150,
    "ansion": 10927,
    "Ġwrinkles": 8574,
    "natured": 7112,
    "Ġnooks": 26012,
    "Ġmounting": 19980,
    "trucks": 25420,
    "repaid": 24491,
    "Ġinfiltrated": 23285,
    "Ġfools": 14484,
    "Ġencounter": 6630,
    "viv": 17700,
    "Ġcreates": 2006,
    "Ġperceiving": 8879,
    "Ġbre": 1912,
    "vers": 1326,
    "feels": 22507,
    "Ġvessels": 6757,
    "Ġstuff": 5717,
    "._]]": 5335,
    "Ġstead": 5650,
    "engineer": 23151,
    "law": 6117,
    "Ġspence": 22130,
    "Ġevenings": 18755,
    "compar": 14363,
    "Ġsnake": 12065,
    "Ġbore": 5079,
    "Ġraptures": 13500,
    "itiously": 13874,
    "Ġodious": 12155,
    "Ġunbroken": 18251,
    "Ġimitated": 18324,
    "frantic": 24285,
    "Ġgurgling": 17449,
    "Ġobliterated": 17408,
    "heaven": 8053,
    "Ġpumps": 8428,
    "Ġunexpl": 22043,
    "Ġver": 3395,
    "Ġcouple": 5423,
    "raising": 21635,
    "Ġdine": 7366,
    "Ġprefers": 20517,
    "toed": 18582,
    "Ġmounts": 17808,
    "ied": 941,
    "Ġknitted": 19592,
    "Ġbattery": 21397,
    "Ġbounty": 26439,
    "pursu": 11394,
    "damp": 15347,
    "Ġbouquet": 20686,
    "amouch": 21849,
    "Ġn": 300,
    "Ġhypothe": 4077,
    "Ġmakes": 3655,
    "upright": 23021,
    "Ġaright": 11744,
    "Ġgidd": 25784,
    "Ġineffable": 17335,
    "Ġamber": 7028,
    "Ġstarvation": 19794,
    "Ġdaintiest": 25954,
    "onds": 12999,
    "Ġbarbaric": 10017,
    "Ġbab": 5291,
    "Ġinflu": 4907,
    "Ġmemoirs": 26207,
    "Ġwindigate": 18912,
    "Ġdisagree": 22536,
    "stove": 21649,
    "Ġarchipelagoes": 14351,
    "Ġextremely": 2669,
    "Ġinvaluable": 10185,
    "Ġfaces": 6010,
    "Ġclearness": 23186,
    "Ġcorroboration": 26053,
    "Ġcoppers": 22590,
    "Ġdiscontented": 16062,
    "Ġinnocence": 6478,
    "Ġcas": 8412,
    "ufactured": 15185,
    "Ġwindings": 18911,
    "Ġdamning": 19141,
    "B": 38,
    "beauty": 20107,
    "wled": 15457,
    "rice": 13780,
    "woods": 13423,
    "Ġspectrum": 4476,
    "parad": 16392,
    "Ġinput": 609,
    "Ġidentify": 12018,
    "Ġxviii": 23412,
    "finished": 10557,
    "awned": 19463,
    "august": 11073,
    "althy": 8433,
    "Ġcogent": 14280,
    "Ġdeportment": 22611,
    "Ġcrackling": 24961,
    "ster": 1951,
    "cuniary": 26381,
    "Ġupbraid": 18319,
    "Ġequatorial": 13512,
    "Ġjost": 23632,
    "Ġgoble": 14232,
    "mock": 5174,
    "Ġdollar": 25284,
    "W": 59,
    "urpation": 16304,
    "stri": 6250,
    "Ġtopic": 9409,
    "Ġrepulsive": 14531,
    "kne": 20937,
    "Ġprinciple": 6771,
    "innocence": 15187,
    "Ġprincess": 23222,
    "Ġsickened": 16777,
    "Ġdiligently": 11407,
    "Ġtangles": 25762,
    "Ġpun": 4588,
    "allers": 22201,
    "impress": 18054,
    "Ġlik": 2524,
    "Ġascertaining": 17206,
    "cred": 9111,
    "..": 5783,
    "rals": 21045,
    "casks": 20406,
    "Ġmoderately": 22219,
    "Ġloitering": 22120,
    "Ġbulls": 23861,
    "Ġreco": 9794,
    "Ġsuits": 22087,
    "Ġforgetting": 3435,
    "Ġended": 7950,
    "Ġmalady": 24392,
    "commanding": 24751,
    "cul": 1898,
    "Ġbraided": 16584,
    "encouragement": 17426,
    "holder": 13286,
    "Ġuncomfortable": 8488,
    "impetuous": 23765,
    "Ġ8": 5433,
    "Ġopen": 1550,
    "Ġswiftly": 5670,
    "rab": 7597,
    "Ġmother": 2066,
    "ves": 740,
    "islanders": 25443,
    "Ġcedars": 20295,
    "Ġannot": 15606,
    "Ġours": 4613,
    "Ġdis": 693,
    "Ġiterate": 13205,
    "Ġharpo": 1941,
    "ounix": 14166,
    "Ġjogged": 26238,
    "Ġassid": 18947,
    "Ġschoolmaster": 16864,
    "sometimes": 5973,
    "transp": 24512,
    "Ġpsych": 10179,
    "harrow": 20910,
    "th": 407,
    "Ġbu": 3685,
    "okingly": 22391,
    "windlass": 16723,
    "Ġlethar": 21750,
    "Ġbeckoned": 25794,
    "cur": 3270,
    "disappointment": 11427,
    "Ġcells": 13888,
    "aried": 10989,
    "spent": 12948,
    "Ġrearing": 12682,
    "Ġgeomet": 3190,
    "Ġcompan": 2172,
    "Ġprejudiced": 24806,
    "Ġlinked": 15081,
    "Ġgradually": 3402,
    "Ġartful": 22612,
    "Ġrevenue": 26196,
    "Ġelsewhere": 7713,
    "Ġphilistines": 26083,
    "Ġmim": 3105,
    "Ġabode": 7900,
    "Î": 143,
    "mates": 5073,
    "ig": 323,
    "Ġscales": 4850,
    "Ġgunwales": 12245,
    "Ġcivilized": 8668,
    "Ġimpressive": 15001,
    "Ġmonsieur": 12425,
    "acet": 5474,
    "azz": 8262,
    "Ġreddening": 25971,
    "ent": 305,
    "swear": 16920,
    "Ġopposition": 16522,
    "Ġhatty": 19267,
    "Ġdesponding": 25869,
    "Ġpictures": 5503,
    "included": 19210,
    "Ġreminiscences": 26270,
    "Ġkneel": 14810,
    "Ġancho": 15607,
    "Ġlat": 5087,
    "Ġinvitation": 5188,
    "Ġsim": 732,
    "Ġscan": 22283,
    "higher": 20410,
    "Ġvancouver": 26567,
    "Ġcollege": 11426,
    "reen": 21234,
    "Ġlists": 11168,
    "Ġgates": 10203,
    "pher": 11514,
    "Ġwipe": 25765,
    "Ġspoiled": 11365,
    "asions": 12656,
    "cheered": 23807,
    "Ġprofanely": 23572,
    "Ġobedient": 20108,
    "allen": 22200,
    "vul": 15451,
    "Ġhitting": 21490,
    "Ġrescales": 5068,
    "Ġmariner": 7247,
    "Ç": 136,
    "Ġfoster": 18992,
    "Ġelijah": 9103,
    "Ġgiving": 4088,
    "Ġsurrounding": 12167,
    "Ġlets": 18079,
    "Ġscholar": 26112,
    "Ġlucas": 3833,
    "Ġdenoted": 16568,
    "Ġinterrupted": 6345,
    "Ġcondition": 6765,
    "Ġrecent": 7436,
    "Ġmyself": 1454,
    "Ġaboard": 6699,
    "Ġhangs": 11609,
    "Ġduration": 20356,
    "Ġpoor": 1707,
    "Ġill": 2192,
    "onged": 18411,
    "Ġseaman": 8642,
    "$": 8,
    "curious": 10485,
    "brevi": 24077,
    "Ġu": 324,
    "Ġdefined": 11902,
    "bes": 6644,
    "charm": 13993,
    "Ġsolemnly": 8023,
    "inction": 6663,
    "Ġpile": 8425,
    "icions": 21566,
    "illes": 12699,
    "Ġcanv": 7011,
    "Ġwarned": 16882,
    "arest": 4007,
    "Ġbest": 1972,
    "Ġirrad": 19095,
    "infallibly": 26419,
    "Ġtransplanted": 22450,
    "Ġconnection": 5479,
    "circ": 4391,
    "windows": 19537,
    "sus": 6230,
    "Ġhinted": 6013,
    "tt": 13793,
    "spout": 7924,
    "Ġadoration": 18293,
    "ried": 925,
    "famous": 16918,
    "Ġstables": 23656,
    "Ġhurried": 4036,
    "sperm": 5203,
    "Ġgene": 15676,
    "Ġfifth": 11259,
    "Ġdisd": 7032,
    "kitchen": 17587,
    "Ġtravell": 5576,
    "nowadays": 22341,
    "cy": 640,
    "el": 306,
    "Ġstopped": 5958,
    "Ġdishonoured": 20394,
    "Ġreject": 7386,
    "Ġsquid": 11882,
    "umed": 6556,
    "otam": 21802,
    "Ġcred": 8785,
    "Ġdivinest": 25722,
    "salis": 25150,
    "behaved": 24463,
    "Ġponies": 21478,
    "Ġresolves": 23649,
    "Ġdifferently": 10391,
    "urned": 9309,
    "Ġ97": 19777,
    "queer": 10365,
    "Ġtongues": 14866,
    "cabin": 8363,
    "Ġjupiter": 17459,
    "Ġlowest": 11124,
    "Ġrushed": 4090,
    "Ġtuileries": 24824,
    "pat": 10119,
    "Ġenvelopes": 24510,
    "Ġstreat": 15725,
    "Ġsitting": 3609,
    "ä": 165,
    "ickory": 22672,
    "Ġundertone": 23242,
    "Ġdearer": 14054,
    "specul": 23946,
    "Ġlangsdorff": 15280,
    "Ġbleak": 10561,
    "Ġoutstanding": 22320,
    "Ġanchor": 7368,
    "Ġcushion": 17835,
    "Ġcommendation": 13614,
    "ben": 4927,
    "appetite": 22848,
    "Ġcorners": 18877,
    "tem": 6370,
    "vari": 1514,
    "Ġconceivable": 16615,
    "Ġships": 3717,
    "Ġwhose": 2005,
    "arling": 10816,
    "Ġmornings": 16241,
    "Ġloft": 5642,
    "Ġcoffins": 13255,
    "Ġmiserably": 12953,
    "ody": 1478,
    "ercely": 12555,
    "Ġconvul": 13207,
    "Ġm": 274,
    "Ġbathe": 25444,
    "Ġcandidates": 4336,
    "minutely": 19596,
    "Ġpropriety": 10013,
    "every": 2810,
    "Ġprodigiously": 14935,
    "ought": 830,
    "Ġpondicherry": 20494,
    "Ġherring": 14129,
    "ladies": 9532,
    "Ġfeet": 2257,
    "indignation": 18439,
    "detached": 19677,
    "Ġtunes": 24620,
    "Ġspasmodically": 17317,
    "Ġbounds": 9921,
    "Ġsingular": 4426,
    "Ġ221": 25071,
    "Ġcoffee": 6761,
    "tub": 9146,
    "abiding": 21797,
    "furnish": 25339,
    "mell": 20966,
    "=": 33,
    "Ġup": 463,
    "Ġnominally": 17234,
    "Ġlovel": 10274,
    "front": 12175,
    "Ġnimble": 21531,
    "otic": 15749,
    "Ġmel": 4817,
    "Ġmeat": 8152,
    "Ġsouls": 6310,
    "Ġsensibility": 14513,
    "Ġintently": 8169,
    "Ġwip": 13856,
    "Ġjoined": 4565,
    "Ġebb": 21627,
    "Ġinvulnerable": 19148,
    "leness": 4691,
    "Ġnearly": 3364,
    "Ġflourishing": 25188,
    "satisfaction": 9995,
    "Ġfleets": 23776,
    "Ġbert": 4583,
    "Ġrussian": 14353,
    "Ġreaches": 18034,
    "Ġtemporarily": 11169,
    "pour": 17632,
    "50": 6785,
    "Ġformal": 2941,
    "Ġgenerator": 3383,
    "Ġcanaan": 22170,
    "Ġship": 1092,
    "Ġdescending": 8906,
    "Ġfel": 1515,
    "Ġgoblet": 25824,
    "Ġrecurring": 23233,
    "bolts": 11422,
    "overed": 2853,
    "ö": 183,
    "Ġlimber": 16481,
    "germans": 20568,
    "ssip": 14082,
    "Ġwindsor": 16889,
    "eding": 7166,
    "Ġconsequ": 6256,
    "osely": 9268,
    "Ġdel": 1614,
    "bare": 12445,
    "Ġeat": 4644,
    "aire": 10683,
    "Ġfascinated": 25636,
    "Ġhum": 1101,
    "Ġdiabolism": 25515,
    "Ġharry": 24572,
    "ulous": 4452,
    "Ġprocopius": 19734,
    "Ġshriek": 6640,
    "Ġsundry": 20077,
    "Ġeccentric": 13653,
    "Ġbelonged": 6922,
    "irresistible": 18176,
    "Ġscent": 10287,
    "agonies": 21913,
    "Ġheaps": 11645,
    "Ġtwine": 14314,
    "ook": 21006,
    "Ġbubbles": 11400,
    "Ġgoodly": 22823,
    "Ġunwarrant": 19936,
    "Ġbrawny": 13617,
    "recklessly": 25270,
    "Ġrespective": 16347,
    "cracy": 24691,
    "Ġprobabilities": 4966,
    "Ġremained": 3139,
    "Ġgreyish": 24211,
    "Ġkiller": 19571,
    "Ġhardened": 14453,
    "Ġsoft": 1458,
    "Ġappointment": 10649,
    "Ġlestrade": 5826,
    "yielded": 25757,
    "Ġasia": 11686,
    "Ġanimating": 23426,
    "ĠĠĠĠĠĠĠĠĠĠĠĠĠĠĠĠĠĠĠĠĠĠĠĠĠĠĠĠĠĠĠĠĠĠĠĠĠĠĠĠĠĠĠĠĠĠĠĠĠĠĠĠĠĠĠĠĠĠĠĠ": 19262,
    "Ġreven": 18031,
    "Ġneg": 1331,
    "Ġmeditating": 20046,
    "ap": 546,
    "Ġrare": 7038,
    "Ġsystematic": 5245,
    "little": 3352,
    "pray": 5429,
    "Ġinsects": 25647,
    "Ġungovernable": 20711,
    "Ġirreproachable": 24918,
    "Ġtro": 7356,
    "Ġfob": 21412,
    "Ġbidden": 24647,
    "tier": 12519,
    "cain": 15329,
    "Ġauthent": 14506,
    "Ġsombre": 18861,
    "cely": 3579,
    "Ġpri": 5814,
    "Ġhopeful": 19034,
    "Ġfrayed": 23336,
    "Ġstair": 8457,
    "Ġjeer": 24125,
    "Ġneur": 813,
    "Ġmosses": 20166,
    "Ġimpudence": 26243,
    "sincerely": 24585,
    "poverty": 22912,
    "Ġdeified": 18143,
    "Ġwhitney": 11375,
    "Ġshillings": 15839,
    "Ġconquest": 15752,
    "Ġhard": 1442,
    "Ġkuiperai": 10937,
    "Ġplunging": 14955,
    "Ġsavesoul": 26230,
    "Ġcardboard": 19982,
    "Ġpom": 21454,
    "fright": 9598,
    "Ġgracious": 8851,
    "quest": 4539,
    "public": 17648,
    "hoisted": 19284,
    "Ġproportionate": 17044,
    "Ġcontemptuous": 24677,
    "Ġenrolled": 21941,
    "furniture": 20245,
    "ultaneously": 4196,
    "Ġcrews": 8993,
    "anyth": 5438,
    "ippers": 17578,
    "Ġpretend": 7722,
    "Ġexceeding": 1578,
    "cceed": 4146,
    "Ġdirected": 5579,
    "Ġcrutch": 23446,
    "Ġimposed": 14213,
    "weather": 7229,
    "Ġparr": 22123,
    "Ġcausing": 16361,
    "Ġunp": 12777,
    "Ġpredictions": 1455,
    "ascended": 24705,
    "jo": 3753,
    "Ġcommenting": 25229,
    "Ġmonarch": 14419,
    "Ġfinite": 2327,
    "urable": 8926,
    "uncomfortable": 18163,
    "!_âĢĶ": 19976,
    "Ġunrivalled": 26521,
    "Ġpythag": 26450,
    "olidity": 18135,
    "want": 8770,
    "Ġunt": 2295,
    "apering": 8041,
    "Ġmildly": 9032,
    "cask": 12451,
    "Ġpoverty": 9308,
    "representativeness": 25273,
    "Ġcelest": 9904,
    "ceremony": 20593,
    "lit": 9608,
    "Ġschool": 5512,
    "Ġmahogany": 20581,
    "Ġsocieties": 20185,
    "Ġoperated": 14548,
    "leaned": 21372,
    "Ġremoval": 12122,
    "Ġkeeled": 18809,
    "Ġrepeated": 3832,
    "longer": 8616,
    "Ġshed": 8181,
    "ions": 448,
    "Ġholiday": 13003,
    "Ġimpud": 18442,
    "gravel": 22623,
    "Ġwhale": 627,
    "Ġfoam": 6891,
    "Ġstructure": 835,
    "Ġtrepidation": 19217,
    "Ġpromethe": 14470,
    "feared": 11807,
    "Ġgaieties": 24198,
    "heim": 17748,
    "muring": 17603,
    "oment": 919,
    "speaks": 19722,
    "Ġblaming": 22933,
    "Ġhed": 7387,
    "Ġabridged": 26542,
    "Ġ118": 19701,
    "Ġinexperience": 26100,
    "Ġneeded": 7718,
    "Ġsmall": 894,
    "Ġrun": 2356,
    "Ġdiffused": 12073,
    "Ġrel": 1099,
    "Ġalluded": 7885,
    "place": 4157,
    "darkened": 24517,
    "Ġconnected": 5393,
    "myst": 9825,
    "greg": 6650,
    "Ġinformation": 1048,
    "Ġrevealing": 3927,
    "dawson": 26129,
    "Ġpremeditated": 22238,
    "Ġhurtling": 24960,
    "Ġeclipsed": 26378,
    "Ġslay": 16309,
    "Ġhovers": 19080,
    "Ġorph": 9720,
    "Ġevangelists": 20342,
    "Ġpalpit": 16692,
    "Ġmanaged": 7906,
    "agery": 21911,
    "Ġissue": 2312,
    "entle": 1737,
    "Ġcounters": 24143,
    "Ġwhalers": 8048,
    "Ġdisaster": 12892,
    "Ġvines": 12756,
    "places": 7877,
    "Ġfettered": 24569,
    "Ġjabez": 11770,
    "compose": 24035,
    "rucastle": 22182,
    "swells": 26149,
    "Ġaids": 12233,
    "itions": 4151,
    "t": 88,
    "Ġhundreds": 4331,
    "'re": 12432,
    "Ġblanc": 11067,
    "farm": 15355,
    "suspected": 12376,
    "ingale": 21302,
    "Ġreadiness": 13055,
    "Ġcanoe": 9726,
    "ow": 325,
    "yonder": 21147,
    "Ġjackal": 24242,
    "icity": 2540,
    "Ġlengths": 19208,
    "Ġfoliage": 18869,
    "Ġtranquil": 7310,
    "Ġporter": 15615,
    "Ġgoest": 22427,
    "Ġwoodcock": 19165,
    "amiable": 14056,
    "Ġskiff": 16167,
    "cstasy": 11447,
    "Ġgrammatical": 13542,
    "Ġ122": 24467,
    "ojo": 7349,
    "Ġprevented": 5943,
    "Ġjealousy": 13580,
    "Ġgenerates": 3667,
    "Ġtreats": 19347,
    "chant": 4261,
    "Ġsentin": 16377,
    "Ġinsert": 19907,
    "illed": 2625,
    "Ġsenor": 20153,
    "Ġacceler": 1609,
    "Ġdupl": 9957,
    "Ġrhine": 12360,
    "Ġguilt": 6181,
    "Ġ130": 24780,
    "Ġalmighty": 18107,
    "verize": 21732,
    "Ġcracks": 12024,
    "claps": 23156,
    "Ġboone": 11843,
    "Ġratio": 5066,
    "Ġrights": 10399,
    "Ġsymptom": 13487,
    "Ġfigure": 4209,
    "Ġamerica": 6764,
    "Ġbob": 22639,
    "Ġdearest": 5457,
    "Ġimagine": 3926,
    "worth": 8630,
    "lydia": 6826,
    "kings": 17585,
    "isf": 2437,
    "Ġphaeton": 17467,
    "commission": 22826,
    "follow": 5680,
    "Ġsupported": 9821,
    "tinted": 17685,
    "Ġintrusted": 21996,
    "patter": 3868,
    "confirmed": 19643,
    "appearance": 5334,
    "Ġloaded": 8493,
    "bantering": 25254,
    "Ġdetested": 14180,
    "Ġdictionary": 15116,
    "Ġveracity": 23892,
    "Ġfinancier": 26585,
    "Ġtroublesome": 24005,
    "Ġgibraltar": 25788,
    "Ġdisc": 943,
    "ength": 2315,
    "Ġdamp": 8264,
    "bitious": 16672,
    "Ġape": 21199,
    "Ġinsular": 19270,
    "knife": 6942,
    "Ġnotions": 14102,
    "Ġdismast": 12893,
    "comed": 8548,
    "ethe": 9679,
    "Ġwhether": 1996,
    "penetrating": 25491,
    "Ġrelish": 14387,
    "spread": 8389,
    "Ġstrained": 10221,
    "Ġslabs": 13066,
    "aret": 7417,
    "atter": 642,
    "Ġexpansion": 22629,
    "amount": 10886,
    "Ġglobular": 19011,
    "Ġproductions": 22949,
    "Ġinterval": 4057,
    "pede": 19932,
    "Ġcomputing": 2219,
    "convolutional": 4958,
    "Ġobey": 9522,
    "wake": 11548,
    "Ġinquire": 7720,
    "system": 3979,
    "Ġfeelings": 2454,
    "Ġconge": 15750,
    "Ġinitialization": 1254,
    "anc": 6380,
    "Ġinterposed": 20622,
    "Ġrattled": 15070,
    "Ġpallet": 21483,
    "eon": 8733,
    "arthly": 8030,
    "Ġsubsets": 2347,
    "battle": 12446,
    "Ġrefill": 18698,
    "Ġtepid": 26414,
    "Ġredeem": 20503,
    "Ġaffidav": 18791,
    "Ġstretch": 6994,
    "heum": 17749,
    "st": 315,
    "Ġpassive": 22842,
    "semic": 21825,
    "blown": 25202,
    "Ġhardest": 18914,
    "Ġfloated": 7288,
    "forecastle": 10992,
    "Ġbread": 5404,
    "Ġinstructed": 19287,
    "Ġsinners": 18952,
    "slee": 17171,
    "lock": 1470,
    "Ġsubstant": 14812,
    "Ġlbs": 11618,
    "Ġfacial": 10608,
    "Ġarrangements": 16517,
    "Ġlong": 795,
    "Ġbenediction": 18785,
    "+": 15,
    "mountain": 10715,
    "ause": 1311,
    "Ġteaches": 18799,
    "Ġemir": 23351,
    "Ġtraverse": 18893,
    "Ġlitter": 19832,
    "Ġlocations": 12417,
    "Ġassistants": 9454,
    "attoo": 6808,
    "Ġeddies": 25089,
    "Ġsemantic": 1957,
    "spite": 16141,
    "Ġarrog": 18340,
    "Ġused": 2058,
    "Ġwonderfully": 10432,
    "itigated": 23048,
    "declared": 15122,
    "phia": 22797,
    "Ġdart": 4586,
    "Ġthigh": 10189,
    "Ġmutable": 23958,
    "Ġobserv": 8589,
    "Ġconfess": 3768,
    "Ġassertion": 13493,
    "Ġincessantly": 11413,
    "Ġwhipping": 21719,
    "disappo": 8987,
    "whalemen": 10433,
    "Ġbus": 1902,
    "Ġetern": 7087,
    "Ġadorned": 15251,
    "acrity": 14263,
    "ellow": 3879,
    "honorable": 19903,
    "ructive": 18544,
    "Ġpour": 13917,
    "Ġexact": 2543,
    "ilst": 8144,
    "Ġsharpen": 13573,
    "Ġbarber": 23791,
    "clock": 3937,
    "Ġchapters": 10475,
    "Ġdad": 12605,
    "Ġdistinguishing": 16498,
    "nesday": 8706,
    "Ġprime": 10406,
    "atched": 6376,
    "Ġpage": 6979,
    "Ġsave": 4055,
    "reached": 13844,
    "birds": 15148,
    "Ġphilipp": 23887,
    "Ġcomment": 9235,
    "als": 2040,
    "Ġkicked": 10584,
    "opes": 10314,
    "Ġsimon": 5172,
    "Ġgrant": 11877,
    "Ġcorporeal": 17363,
    "Ġburly": 19252,
    "prise": 7727,
    "onden": 13847,
    "Ġperiodically": 19497,
    "Ġlayer": 1011,
    "irm": 3107,
    "tiness": 21074,
    "smug": 23911,
    "Ġsurgeon": 8984,
    "Ġdrawn": 4278,
    "knowledge": 7478,
    "}": 97,
    "Ġattic": 16099,
    "Ġneed": 2610,
    "Ġ**": 4721,
    "Ġstrip": 9424,
    "Ġknights": 15153,
    "Ġcoburg": 18601,
    "Ġmills": 21314,
    "Ġdiscerned": 25006,
    "Ġrepine": 16413,
    "Ġresponsible": 9890,
    "browed": 25895,
    "Ġredoubled": 23755,
    "Ġtowed": 11267,
    "Ġdank": 21431,
    "Ġexpression": 4517,
    "Ġperson": 2369,
    "Ġmeddle": 20580,
    "Ġalbert": 12711,
    "Ġfortunately": 12184,
    "Ġberyl": 20493,
    "also": 7851,
    "philips": 20038,
    "Ġearls": 18905,
    "inarticulate": 21198,
    "handkerchief": 14620,
    "sembled": 7263,
    "Ġexhaustion": 14964,
    "shrugged": 22464,
    "red": 398,
    "Ġpractical": 3161,
    "Ġtranque": 14206,
    "Ġcopy": 10166,
    "Ġtragedy": 10670,
    "Ġcordiality": 24395,
    "scans": 22994,
    "Ġtroub": 22358,
    "Ġeverlasting": 9340,
    "Ġdocile": 19962,
    "Ġprudence": 13923,
    "Ġslam": 13063,
    "Ġyour": 634,
    "Ġembraces": 19874,
    "alarmed": 21506,
    "Ġalche": 21787,
    "gems": 20886,
    "Ġicebergs": 23978,
    "Ġimages": 1597,
    "izer": 2029,
    "Ġbursting": 8659,
    "kicked": 20945,
    "Ġmorocco": 26575,
    "instant": 8655,
    "Ġbliss": 13006,
    "tallow": 21088,
    "rians": 21934,
    "ot": 346,
    "Ġpoles": 11007,
    "Ġg": 310,
    "Ġtender": 5753,
    "Ġemploy": 3619,
    "Ġchestnuts": 24381,
    "Ġiii": 7861,
    "Ġlent": 21550,
    "Ġcountenances": 11969,
    "guard": 12133,
    "Ġinsolent": 13604,
    "mother": 5480,
    "Ġspar": 10923,
    "over": 1845,
    "Ġwatching": 4855,
    "Ġplain": 2816,
    "Ġnantucketer": 6914,
    "Ġswiss": 18883,
    "Ġposition": 1953,
    "quin": 21851,
    "blazing": 24134,
    "Ġfattened": 25950,
    "Ġchaplain": 19914,
    "Ġsecure": 4912,
    "Ġstrands": 25575,
    "Ġcovariate": 2352,
    "narrow": 11510,
    "Ġparac": 12800,
    "Ġchoked": 9267,
    "gg": 1992,
    "Ġconsc": 4277,
    "acies": 14261,
    "Ġno": 509,
    "per": 481,
    "Ġribbons": 24325,
    "Ġroads": 13292,
    "Ġowner": 8925,
    "Ġmer": 2928,
    "Ġforced": 4355,
    "rule": 15898,
    "Ġstung": 21743,
    "rowing": 7931,
    "Ġbart": 17859,
    "Ġvolley": 24148,
    "Ġdespairing": 14776,
    "Ġendeav": 2953,
    "Ġhumbled": 16200,
    "magn": 10613,
    "Ġbitterness": 8024,
    "Ġdemeanour": 17340,
    "Ġalgorith": 569,
    "Ġapparent": 5466,
    "Ġjumbled": 22301,
    "modesty": 22853,
    "inated": 6805,
    "uning": 1310,
    "mount": 9132,
    "Ġviolence": 5964,
    "Ġswiftness": 9930,
    "Ġprocedures": 9415,
    "asets": 2311,
    "Ġstri": 2803,
    "Ġmace": 21312,
    "Ġaccorded": 24093,
    "Ġexter": 7397,
    "fold": 7546,
    "enderby": 25216,
    "Ġpantry": 20298,
    "bits": 17491,
    "voc": 8394,
    "Ġmach": 13860,
    "Ġconveniently": 20082,
    "Ġbearing": 5300,
    "Ġgayer": 24501,
    "Ġhatter": 4115,
    "hour": 7340,
    "vices": 21119,
    "Ġfamiliarity": 16731,
    "continued": 8679,
    "Ġaghast": 16051,
    "Ġmurky": 19203,
    "Ġadviser": 25313,
    "Ġloafer": 18300,
    "oriented": 2946,
    "Ġdeductions": 19736,
    "Ġscheduling": 2351,
    "approached": 13489,
    "gather": 20877,
    "erial": 4632,
    "Ġhieroglyph": 11975,
    "Ġabject": 18392,
    "accepting": 20138,
    "ignity": 4377,
    "monsters": 19173,
    "Ġclean": 5652,
    "Ġfidget": 15193,
    "Ġstudents": 23237,
    "Ġbeneficial": 23934,
    "Ġbison": 21391,
    "Ġsilent": 3413,
    "Ġjung": 12841,
    "Ġreservo": 16833,
    "Ġincul": 22555,
    "Ġgrapes": 15219,
    "solut": 3365,
    "Ġmentioning": 9902,
    "sleepers": 24729,
    "Ġpar": 456,
    "savor": 25025,
    "Ġansw": 2205,
    "elev": 12463,
    "Ġpoul": 15617,
    "person": 7746,
    "stre": 5451,
    "Ġmile": 7152,
    "itted": 2443,
    "faint": 17547,
    "Ġlin": 10835,
    "een": 725,
    "Ġhooks": 14971,
    "Ġchuckled": 10650,
    "Ġpierced": 12286,
    "Ġhedgehogs": 25395,
    "Ġinter": 727,
    "eral": 9162,
    "pression": 10409,
    ".)": 6784,
    "constable": 24606,
    "Ġrand": 1581,
    "companion": 9560,
    "Ġdisappearing": 22537,
    "Ġgrapp": 14104,
    "Ġblew": 9048,
    "Ġrole": 16000,
    "Ġcares": 9370,
    "Ġtransparency": 10679,
    "thro": 12766,
    "Ġfaint": 5812,
    "o": 83,
    "Ġshudder": 9053,
    "Ġimped": 18440,
    "Ġsaintsbury": 26374,
    "proceed": 8979,
    "tor": 15435,
    "ipelag": 12844,
    "Ġhier": 1893,
    "Ġsuppress": 13029,
    "ustom": 3791,
    "Ġangles": 23590,
    "frozen": 25142,
    "redit": 3880,
    "formation": 22220,
    "Ġpredef": 18529,
    "Ġavowal": 19418,
    "standard": 22435,
    "akin": 11771,
    "h": 76,
    "Ġopportunity": 4786,
    "Ġfeature": 748,
    "Ġswelling": 11929,
    "Ġket": 18348,
    "itic": 11581,
    "Ġ49": 24085,
    "gl": 3291,
    "Ġcrescent": 16140,
    "Ġserviceable": 24717,
    "Ġrecl": 16144,
    "idered": 4554,
    "Ġaware": 5756,
    "Ġbook": 2702,
    "Ġhilariously": 25451,
    "Ġselfishness": 12293,
    "Ġsequence": 1973,
    "Ġdozen": 8186,
    "hed": 669,
    "Ġassault": 9840,
    "lifeless": 24314,
    "might": 4081,
    "goodbye": 12060,
    "obvious": 9360,
    "Ġworld": 1594,
    "Ġsqualidness": 25844,
    "Ġslaughtered": 26586,
    "lorn": 12492,
    "shipped": 18496,
    "Ġunsupplied": 22047,
    "riors": 18188,
    "generative": 4333,
    "Ġcritical": 7474,
    "Ġadditional": 7935,
    "Ġexercise": 8359,
    "cr": 4015,
    "Ġsubsided": 14551,
    "ual": 945,
    "Ġvillainous": 25134,
    "Ġcleaned": 23185,
    "Ġrealise": 16340,
    "Ġglobu": 23274,
    "ego": 4039,
    "blot": 20785,
    "Ġdrifting": 19281,
    "less": 927,
    "Ġtempted": 9059,
    "Ġinterruptions": 24189,
    "Ġspurn": 18310,
    "Ġtram": 11093,
    "ipagos": 22350,
    "Ġwholly": 4449,
    "Ġmitt": 21310,
    "ang": 444,
    "Ġopened": 3517,
    "Ġinjuries": 11279,
    "Ġpronounced": 8351,
    "Ġspinal": 12306,
    "Ġprofessional": 7299,
    "Ġmonarchs": 25851,
    "Ġpreposterous": 13673,
    "Ġarray": 12815,
    "Ġsab": 10764,
    "||": 4869,
    "returning": 12210,
    "Ġcommentators": 25230,
    "Ġbulkhead": 24511,
    "Ġunconcern": 14120,
    "Ġspoils": 24805,
    "Ġbreaks": 13189,
    "Ġhig": 754,
    "Ġpredicted": 2043,
    "gener": 3124,
    "Ġfainter": 14917,
    "Ġwire": 13855,
    "forth": 9325,
    "Ġvoluntarily": 12145,
    "fixed": 7548,
    "Ġarch": 937,
    "distrustful": 26332,
    "Ġpalp": 11252,
    "Ġprotesting": 14744,
    "ulgences": 21869,
    "Ġdon": 1613,
    "Ġjudges": 14687,
    "honor": 19902,
    "Ġpill": 7846,
    "Ġformidable": 8220,
    "Ġscratching": 20372,
    "Ġwhen": 513,
    "Ġgreatness": 12949,
    "bent": 15315,
    "ela": 21572,
    "Ġdissipate": 13637,
    "dashing": 20838,
    "marvell": 24175,
    ")": 13,
    "inder": 9155,
    "absolut": 8460,
    "Ġdollars": 11457,
    "Ġimmortal": 8018,
    "Ġtranspired": 16786,
    "inferiors": 25347,
    "Ġsketch": 16168,
    "tisement": 6768,
    "itia": 11582,
    "therly": 18347,
    "concern": 6101,
    "Ġesteemed": 10591,
    "Ġmistress": 8615,
    "ination": 2911,
    "Ġsneer": 13451,
    "Ġoars": 3901,
    "Ġcorpor": 23042,
    "Ġdolph": 12384,
    "Ġdarts": 16770,
    "Ġpop": 5151,
    "Ġgordon": 26469,
    "Ġblankness": 24611,
    "odious": 21816,
    "instance": 24171,
    "Ġloved": 4600,
    "Ġdigging": 14941,
    "hunted": 16834,
    "chance": 6827,
    "Ġbaffled": 12407,
    "Ġbland": 11066,
    "Ġvult": 12757,
    "Ġdames": 23475,
    "Ġentities": 11867,
    "ick": 838,
    "Ġexasper": 8469,
    "Ġcomputes": 4768,
    "Ġspend": 5306,
    "orph": 21402,
    "Ġimaginary": 11188,
    "Ġwounded": 8661,
    "liking": 22927,
    "Ġpossessions": 23827,
    "ener": 562,
    "Ġblind": 3719,
    "Ġcounty": 9033,
    "Ġmerit": 9430,
    "cook": 8270,
    "gratitude": 16818,
    "Ġrud": 8480,
    "belief": 13285,
    "hole": 5586,
    "metic": 14987,
    "Ġhissing": 15794,
    "doublo": 24661,
    "Ġtemperature": 1005,
    "Ġdoesn": 7438,
    "wor": 3417,
    "Ġ]": 15462,
    "Ġcart": 11586,
    "fluttering": 23976,
    "Ġmuhammad": 26170,
    "Ġdemi": 25549,
    "icable": 6389,
    ",_": 11464,
    "Ġspine": 7407,
    "Ġrecollect": 8310,
    "Ġdiana": 21439,
    "Ġflea": 23775,
    "inno": 10758,
    "Ġlouder": 13472,
    "Ġcell": 6239,
    "hauled": 20671,
    "Ġpott": 21470,
    "scure": 22993,
    "happy": 4427,
    "iful": 2881,
    "Ġbegging": 11082,
    "revolver": 25628,
    "Ġwarmest": 16486,
    "atoes": 17777,
    "answer": 11736,
    "Ġsurp": 9637,
    "egyptians": 25899,
    "Ġwraps": 19779,
    "õ": 182,
    "slanting": 24558,
    "pped": 1994,
    "Ġliberated": 19669,
    "Ġcaved": 21356,
    "Ġinfluence": 5515,
    "sticks": 25965,
    "Ġfuss": 13908,
    "Ġvancou": 22880,
    "Ġforegoing": 23450,
    "itory": 12572,
    "Ġstruggle": 3678,
    "derbyshire": 18322,
    "400": 20757,
    "makers": 20984,
    "Ġboomer": 20170,
    "stud": 8824,
    "Ġtrades": 8232,
    "smitten": 23912,
    "Ġrejecting": 17052,
    "Ġcaulk": 25441,
    "ado": 11661,
    "Ġpatagonia": 25858,
    "eled": 2359,
    "games": 20882,
    "Ġresumed": 11816,
    "bud": 10686,
    "Ġplenty": 6710,
    "Ġsadness": 13290,
    "Ġstole": 7953,
    "Ġfail": 4152,
    "bb": 2800,
    "stige": 21658,
    "usage": 12838,
    "Ġcalculates": 13269,
    "deception": 22149,
    "Ġ109": 24416,
    "known": 3573,
    "Ġobscure": 9557,
    "ceive": 3065,
    "Ġhauled": 11698,
    "humour": 7498,
    "ness": 852,
    "ª": 108,
    "indifferent": 14211,
    "Ġarmy": 11745,
    "Ġdespise": 14668,
    "Ġears": 4492,
    "ullen": 8235,
    "gent": 7131,
    "Ġbusks": 23340,
    "lessly": 4557,
    "contemplated": 20461,
    "Ġdra": 1590,
    "Ġcar": 1419,
    "ortions": 10950,
    "Ġentries": 22744,
    "Ġaccumulating": 2723,
    "Ġoperations": 2300,
    "Ġdri": 2364,
    "racted": 4774,
    "spot": 9793,
    "flowing": 14572,
    "il": 329,
    "Ġmagnet": 10392,
    "Ġmaterials": 11290,
    "ophisticated": 22482,
    "Ġseeking": 7037,
    "Ġimagination": 5759,
    "Ġantichronical": 26611,
    "Ġwaterward": 23368,
    "wed": 5796,
    "Ġpresided": 20210,
    "ĠĠĠĠĠĠĠĠĠĠĠĠĠĠĠĠĠĠĠĠĠĠĠĠĠĠĠĠĠĠĠĠĠĠĠĠĠĠĠĠĠĠĠĠĠ": 9955,
    "isis": 12584,
    "umbent": 12094,
    "evil": 11488,
    "Ġchill": 11756,
    "Ġhues": 21492,
    "Ġscrupled": 25052,
    "Ġmightier": 18730,
    "comrade": 18745,
    "terdam": 18132,
    "Ġundeceive": 25553,
    "Ġtying": 15476,
    "threaten": 25462,
    "Ġamph": 18511,
    "coun": 10690,
    "reeable": 3616,
    "unct": 18157,
    "answers": 22144,
    "Ġsubtile": 20383,
    "ense": 2050,
    "Ġdrowned": 9555,
    "Ġconsumed": 10352,
    "Ġemble": 13974,
    "overcome": 19051,
    "Ġvindict": 13609,
    "presented": 12996,
    "Ġcasement": 25095,
    "Ġsinks": 19552,
    "Ġmainz": 22651,
    "Ġcreases": 22722,
    "Ġfer": 5529,
    "consult": 24172,
    "Ġantarctic": 19555,
    "Ġ550": 19639,
    "hens": 3941,
    "Ġconsulted": 13434,
    "departed": 24793,
    "Ġchapter": 2954,
    "Ġdespaired": 14671,
    "Ġspe": 820,
    "Ġepis": 19985,
    "Ġjudged": 12088,
    "Ġwheeling": 18289,
    "Ġrelaps": 18777,
    "ceptive": 15966,
    "willing": 6594,
    "rah": 8137,
    "Ġviciss": 11294,
    "gale": 13727,
    "Ġuncertain": 4071,
    "seas": 14036,
    "Ġsayest": 22777,
    "Ġthundering": 24293,
    "lad": 5993,
    "Ġexploit": 19164,
    "Ġdr": 2823,
    "Ġprofessors": 14728,
    "Ġcling": 11777,
    "Ġcondesc": 7182,
    "Ġberth": 8683,
    "iled": 1762,
    "Ġsem": 1876,
    "Ġsilk": 11967,
    "footsteps": 25200,
    "bation": 9106,
    "Ġgrecian": 26297,
    "Ġhams": 16614,
    "viii": 12025,
    "Ġdons": 17890,
    "Ġsolitudes": 22889,
    "Ġunflinching": 26514,
    "vid": 915,
    "Ġcarelessness": 13080,
    "Ġchatting": 24746,
    "aks": 8509,
    "oldened": 22643,
    "Ġnigh": 4878,
    "desp": 6094,
    "Ġindependent": 9019,
    "Â£": 4812,
    "Ġreplete": 15702,
    "pole": 9336,
    "Ġcarav": 18903,
    "Ġcupidity": 24535,
    "apsed": 6297,
    "Ġcostume": 16497,
    "prot": 6898,
    "ice": 582,
    "Ġcocksure": 26260,
    "perhaps": 4125,
    "Ġrambled": 20171,
    "Ġthirteen": 15278,
    "Ġcomprises": 22578,
    "levelled": 23645,
    "ention": 854,
    "Ġhem": 8447,
    "romising": 18234,
    "thomas": 18220,
    "seldom": 13790,
    "Ġhunting": 7259,
    "Ġcook": 3715,
    "divers": 15346,
    "hoisting": 23719,
    "Ġdarting": 7757,
    "Ġclosely": 6489,
    "rants": 13781,
    "miserable": 8660,
    "Ġcertainly": 2500,
    "dwelling": 20567,
    "aways": 15314,
    "Ġoverladen": 22356,
    "Ġheading": 8938,
    "Ġdoctors": 12156,
    "Ġhappening": 14386,
    "ognit": 19204,
    "Ġmonica": 22988,
    "Ġstirring": 10582,
    "acious": 5561,
    "Ġbelong": 3889,
    "Ġapologies": 25197,
    "Ġexplain": 545,
    "dissatisf": 26130,
    "Ġannouncing": 16756,
    "arded": 5029,
    "Ġglories": 16246,
    "Ġthoughtfully": 12985,
    "Ġsolitude": 6876,
    "urements": 18126,
    "ĭ": 238,
    "Ġhigher": 1819,
    "Ġdeploy": 2824,
    "Ġamput": 16037,
    "echo": 15352,
    "Ġalpha": 13592,
    "Ġresearch": 3163,
    "hee": 10762,
    "Ġunquestion": 18249,
    "Ġcontinually": 5042,
    "Ġarrested": 9563,
    "Ġbloss": 19258,
    "fore": 687,
    "Ġlect": 9225,
    "Ġ1869": 19387,
    "scr": 16247,
    "Ġadvantageously": 19548,
    "Ġunallied": 22036,
    "Ġemerged": 8688,
    "Ġensuring": 11193,
    "Ġbravely": 23842,
    "Ġord": 3738,
    "Ġvulture": 17342,
    "Ġobserve": 4671,
    "Ġfundamentals": 14637,
    "photograph": 16166,
    "Ġshaggy": 13574,
    "posterity": 25489,
    "Ġiv": 4048,
    "attentions": 13578,
    "Ġabominably": 20069,
    "unavoidable": 17393,
    "fearing": 18533,
    "Ġrestraint": 15131,
    "cerem": 15682,
    "affairs": 14658,
    "Ġserpents": 13081,
    "Ġskills": 1838,
    "tain": 558,
    "varying": 13807,
    "Ġenthusiasm": 8065,
    "cruise": 24842,
    "Ġtrucks": 19515,
    "Ġgrie": 3588,
    "bee": 16040,
    "wheeling": 22872,
    "Ġwindows": 4971,
    "Ġmelbourne": 24291,
    "Ġdisgracing": 26257,
    "Ù": 154,
    "Ġimpressions": 9556,
    "Ġbrave": 6331,
    "silence": 8045,
    "Ġboats": 2638,
    "Ġgeneva": 5450,
    "Ġimbec": 14157,
    "Ġradiance": 13375,
    "Ġincess": 8432,
    "inative": 15487,
    "Ġinmost": 17933,
    "allingly": 22203,
    "Ġtotally": 9474,
    "resting": 23238,
    "Ġfemales": 14940,
    "suddenly": 6494,
    "ousand": 2431,
    "Ġactiv": 834,
    "Ġsummoning": 23877,
    "#": 7,
    "Ġregardless": 19326,
    "ction": 495,
    "Ġwrote": 5011,
    "Ġeyelashes": 26107,
    "Ġentry": 11028,
    "hement": 13835,
    "Ġatrocious": 21947,
    "Ġblushed": 13007,
    "Ġwinc": 9645,
    "moreover": 12974,
    "lude": 6163,
    "Ġincurable": 22558,
    "Ġintolerable": 8484,
    "--": 1042,
    "Ġdong": 17889,
    "Ġdents": 13914,
    "lift": 15388,
    "Ġtinged": 20086,
    "Ġgolden": 5337,
    "veral": 2355,
    "Ġcapital": 7980,
    "Ġgift": 10842,
    "Ġcrater": 16438,
    "Ġsymp": 4504,
    "Ġred": 3003,
    "Ġstandards": 19017,
    "ssible": 2990,
    "belled": 24039,
    "Ġshown": 5159,
    "Ġrowing": 10303,
    "knot": 13748,
    "Ġtrag": 13045,
    "µ": 118,
    "excepting": 19709,
    "Ġplayers": 12042,
    "Ġjurymen": 16849,
    "infliction": 25925,
    "son": 2331,
    "Ġpry": 11602,
    "Ġrequirements": 9792,
    "Ġsand": 6237,
    "Ġsciences": 15948,
    "Ġasc": 4765,
    "adjust": 21763,
    "Ġmeddling": 21323,
    "Ġtire": 17722,
    "Ġnibbling": 17388,
    "heric": 15915,
    "Ġpresents": 8245,
    "cious": 6646,
    "Ġmasts": 6466,
    "Ġpursued": 6330,
    "cc": 474,
    "Ġnative": 4641,
    "Ġearnestness": 12130,
    "fif": 9119,
    "Ġradiating": 24331,
    "Ġfranc": 16354,
    "Ġsponge": 26004,
    "mering": 12495,
    "datasets": 11955,
    "Ġstructures": 2721,
    "Ġsnatches": 16546,
    "ĠÂ£": 5006,
    "Ġcalmer": 23045,
    "receiving": 12548,
    "rusted": 16509,
    "itching": 21338,
    "Ġfowl": 11332,
    "inter": 2947,
    "Ġlooking": 2475,
    "stands": 22434,
    "Ġindisposed": 26289,
    "Ġfonder": 17882,
    "Ġwants": 5742,
    "yder": 10141,
    "desolation": 20462,
    "Ġzero": 1201,
    "elizabeth": 1983,
    "Ġinfatuated": 20536,
    "Ġlif": 10198,
    "recogn": 13429,
    "Ġknotted": 17021,
    "Ġlanterns": 24578,
    "Ġflows": 13019,
    "canst": 22971,
    "Ġunfavourable": 17420,
    "Ġconsisted": 10421,
    "Ġtreated": 7082,
    "Ġsympathetic": 17362,
    "Ġ55": 24319,
    "lied": 6508,
    "kins": 7345,
    "Ġprotectors": 9073,
    "Ġcoer": 22586,
    "repeated": 12343,
    "ā": 194,
    "Ġscrape": 14921,
    "wandered": 20288,
    "Ġimminent": 11247,
    "Ġrecklessly": 16985,
    "Ġplump": 14285,
    "due": 22414,
    "Ġenjoyment": 7300,
    "Ġdetermine": 3244,
    "Ġrecommendation": 17027,
    "Ġlucases": 9013,
    "reas": 988,
    "Ġcrusad": 23708,
    "Ġsoldiers": 8690,
    "Ġincorporated": 25710,
    "Ġdeg": 3281,
    "Ġrattle": 10901,
    "rage": 10845,
    "Ġunwaning": 24830,
    "Ġcontract": 18476,
    "Ġwreck": 7314,
    "Ġjoints": 12039,
    "beside": 19879,
    "Ġbeams": 14633,
    "ccess": 3182,
    "Ġprompt": 3188,
    "Ġcompose": 12910,
    "Ġinquirer": 24964,
    "Ġbarred": 9005,
    "Ġattended": 5391,
    "ston": 15686,
    "ales": 3317,
    "Ġst": 332,
    "Ġconvincing": 19310,
    "banked": 25338,
    "Ġeloquent": 16114,
    "Ġsou": 1886,
    "Ġoccurs": 1856,
    "manned": 18763,
    "Ġattendant": 11287,
    "Ġprospects": 9962,
    "Ġshadows": 8013,
    "Ġgreatly": 5851,
    "Ġenable": 686,
    "Ġesc": 2252,
    "lemagne": 26438,
    "Ġhearth": 11986,
    "Ġsettles": 22922,
    "Ġwings": 9166,
    "Ġobstinate": 11338,
    "Ġvirtuous": 14758,
    "rising": 7557,
    "goes": 10428,
    "Ġpreside": 18366,
    "resp": 13842,
    "Ġfathers": 16299,
    "Ġanger": 5442,
    "Ġcomprehended": 11296,
    "Ġbutter": 6842,
    "Ġmurderer": 4980,
    "Ġwil": 4581,
    "influence": 13582,
    "Ġpeaceful": 9458,
    "mot": 17598,
    "etah": 12666,
    "Ġryder": 10261,
    "wait": 11322,
    "astes": 11743,
    "homage": 25617,
    "Ġperse": 6273,
    "Ġmoonlight": 9961,
    "Ġsphy": 18312,
    "discover": 10542,
    "Ġunconquerable": 22067,
    "Ġintolerably": 15833,
    "greater": 13256,
    "cription": 20820,
    "co": 2436,
    "Ġalarmed": 6923,
    "pin": 13770,
    "Ġellenborough": 26155,
    "Ġbund": 17865,
    "out": 467,
    "Ġone": 568,
    "Ġfree": 3376,
    "Ġchivalry": 25820,
    "twelve": 14624,
    "Ġaqu": 17744,
    "Ġvii": 13113,
    "inform": 10146,
    "skylight": 25624,
    "Ġwestward": 24389,
    "direct": 12461,
    "reader": 23850,
    "Ġoutlast": 22317,
    "Ġthrees": 23402,
    "bastian": 10676,
    "Ġpython": 1066,
    "Ġbecome": 3155,
    "perth": 22189,
    "went": 6513,
    "Ġeconomy": 17203,
    "Ġsec": 2073,
    "shavings": 22467,
    "Ġwarbling": 26169,
    "Ġseize": 8166,
    "Ġterr": 3273,
    "Ġpair": 5706,
    "allest": 5485,
    "Ġpitch": 5767,
    "Ġcircumspect": 15088,
    "Ġacquired": 13049,
    "Ġmeryton": 4440,
    "Ġfowler": 16939,
    "Ġthink": 985,
    "surrounded": 26089,
    "Ġdecay": 1012,
    "aintance": 3574,
    "ation": 320,
    "Ġdetestable": 15102,
    "daugh": 6789,
    "Ġquote": 18467,
    "Ġheadlands": 22902,
    "Ġblocks": 6323,
    "Ġdolphin": 17315,
    "ax": 692,
    "attacked": 23126,
    "Ġexistence": 4707,
    "Ġpollard": 20389,
    "Ġmomentary": 11037,
    "Ġreproached": 24892,
    "rossing": 18641,
    "Ġpouch": 21471,
    "imental": 16535,
    "pest": 6965,
    "Ġfainting": 16899,
    "generations": 23787,
    "Ġimmured": 24075,
    "contrary": 23731,
    "Ġespe": 21158,
    "Ġstubbs": 23299,
    "Ġneck": 4885,
    "Ġpantaloons": 20299,
    "erest": 10699,
    "shop": 14240,
    "medium": 23640,
    "Ġirresistible": 13117,
    "Ġachieve": 3676,
    "Ġwindibank": 7257,
    "Ġrick": 21977,
    "Ġcubic": 20091,
    "Ġpin": 7162,
    "orns": 12597,
    "Ġmeasuring": 22885,
    "Ġfleet": 9435,
    "Ġrecords": 12200,
    "deal": 12804,
    "Ġfuller": 11158,
    "Ġwoll": 21296,
    "profound": 16428,
    "prosper": 19102,
    "sets": 17662,
    "Ġstray": 18072,
    "Ġ5": 4935,
    "missed": 11211,
    "ref": 6516,
    "Ġwondered": 11127,
    "Ġad": 446,
    "Ġwant": 1118,
    "Ġtears": 4234,
    "reasoning": 9479,
    "est": 501,
    "Ġembrace": 16992,
    "madly": 24420,
    "slowly": 9092,
    "Ġconvolutions": 21811,
    "Ġlean": 7606,
    "Ġbrooding": 18909,
    "ascertaining": 26462,
    "Ġstress": 18069,
    "ulged": 12735,
    "Ġmalacca": 24393,
    "dripping": 16907,
    "loo": 10322,
    "Ġrespectable": 6738,
    "Ġstrategy": 2400,
    "Ġweary": 5635,
    "anywhere": 14684,
    "angible": 22106,
    "\":": 9584,
    "Ġmenaces": 23110,
    "Ġkramm": 26235,
    "Ġunsh": 14118,
    "Ġsocks": 14136,
    "Ġmaster": 3684,
    "Ġapp": 500,
    "coffin": 10665,
    "Ġobsolete": 26560,
    "tumult": 12427,
    "Ġgul": 7860,
    "Ġjones": 7204,
    "Ġacquit": 18899,
    "charmed": 21699,
    "inces": 13831,
    "nib": 5214,
    "quely": 10234,
    "leaped": 17845,
    "her": 489,
    "Ġcomparative": 10545,
    "nantucket": 7804,
    "Ġimportance": 4900,
    "owal": 13996,
    "Ġdeigned": 18144,
    "Ġvisual": 5741,
    "Ġsunk": 5752,
    "Ġplanisphere": 26609,
    "instead": 14816,
    "abond": 15745,
    "Ġre": 317,
    "?âĢĶ": 3469,
    "sue": 2074,
    "Ġtwisting": 18659,
    "Ġpiece": 5367,
    "itan": 10162,
    "Ġfret": 10808,
    "Ġattendance": 12186,
    "Ġplumber": 16088,
    "Ġexpectations": 13147,
    "Ġhealthful": 24062,
    "Ġmanoir": 22335,
    "Ġoverflowed": 20265,
    "mine": 5618,
    "Ġork": 18287,
    "Ġsi": 21215,
    "Ġadmiral": 17308,
    "Ġengine": 1919,
    "convalescence": 24885,
    "slow": 7810,
    "Ġburst": 4383,
    "apter": 1194,
    "Ġgilt": 21609,
    "Ġseclusion": 18209,
    "Ġimbued": 17458,
    "er": 269,
    "Ġdenial": 13218,
    "Ġinve": 17931,
    "showed": 16031,
    "ortment": 22259,
    "sound": 6800,
    "Ġdundee": 16999,
    "Ġcompany": 3724,
    "Ġfashion": 4301,
    "Ġsour": 21219,
    "Ġspin": 7630,
    "Ľ": 254,
    "ropes": 7903,
    "Ġfurrow": 22816,
    "Ġglaring": 11913,
    "Ġargument": 7100,
    "Ġgoverned": 23573,
    "Ġgross": 11628,
    "Ġsurgeons": 23466,
    "tawny": 26406,
    "pike": 11517,
    "oquent": 12504,
    "Ġwhistled": 24624,
    "cooks": 25070,
    "librarian": 26570,
    "Ġcat": 2120,
    "renew": 24450,
    "mens": 20971,
    "Ġdropping": 7483,
    "oran": 8793,
    "species": 13261,
    "Ġresounded": 22548,
    "č": 206,
    "dear": 6557,
    "Ġmeridians": 17358,
    "Ġcharing": 14183,
    "Ġ\"": 6121,
    "Ġrefreshed": 15294,
    "account": 5330,
    "existence": 16018,
    "Ġrevel": 9217,
    "war": 6803,
    "Ġprofundity": 20455,
    "Ġcrop": 10165,
    "Ġthrew": 3977,
    "Ġtempor": 2367,
    "ificant": 22207,
    "Ġcem": 17825,
    "Ġgash": 15675,
    "Ġultimate": 12353,
    "Ġreplay": 5047,
    "Ġlearnt": 7614,
    "Ġincor": 2612,
    "Ġtents": 13821,
    "Ġfinery": 23130,
    "Ġwithstand": 10228,
    "happening": 16567,
    "Ġmurdered": 6465,
    "Ġmainmast": 9782,
    "ouses": 5163,
    "Ġwards": 17791,
    "elope": 14472,
    "Ġthanking": 18604,
    "bonnet": 25743,
    "unwillingly": 21888,
    "Ġfiles": 21416,
    "classification": 4390,
    "simp": 17667,
    "inite": 6003,
    "Ġaw": 2512,
    "Ġgallon": 24187,
    "Ġ95": 19776,
    "Ġbales": 21392,
    "onday": 6065,
    "Ġexcluded": 16387,
    "Ġabandon": 12262,
    "Ġemper": 9864,
    "Ġgir": 2255,
    "stand": 624,
    "Ġloving": 8176,
    "illa": 12798,
    "shabb": 18498,
    "Ġriverside": 25248,
    "Ġclassifies": 11844,
    "Ġdrawer": 13270,
    "Ġgouge": 26190,
    "Ġholmes": 1306,
    "det": 5207,
    "twelvemonth": 25863,
    "Ġimportant": 1029,
    "Ġsurvivors": 25732,
    "Ġhavoc": 15817,
    "Ġridicule": 13515,
    "Ġprev": 6266,
    "od": 353,
    "ppers": 7618,
    "Ġabsorbed": 12335,
    "Ġminimizes": 2045,
    "Ġanswering": 7477,
    "frame": 17117,
    "conda": 18994,
    "Ġmagic": 8233,
    "Ġjest": 18404,
    "fier": 9596,
    "Ġkeeping": 7283,
    "Ġhorr": 3189,
    "ck": 436,
    "ional": 1083,
    "Ġguns": 16778,
    "Ġyoun": 1408,
    "james": 15376,
    "Ġbarbarous": 13480,
    "moonlight": 25376,
    "Ġrear": 6537,
    "uge": 4019,
    "bly": 6112,
    "Ġhalls": 19528,
    "Ġwithdrawn": 10609,
    "Ġfaintest": 24570,
    "Ġreceptive": 1562,
    "Ġrejoicing": 13425,
    "hereditary": 26421,
    "Ġkins": 22198,
    "non": 9614,
    "Ġoverpower": 12845,
    "Ġbefall": 8833,
    "ilogue": 21728,
    "ralian": 19603,
    "Ġstarts": 16585,
    "aye": 3663,
    "Ġenlist": 21940,
    "Ġbegat": 18864,
    "Ġdisgrace": 7214,
    "Ġcountess": 11968,
    "Ġsuggest": 5417,
    "Ġsixpence": 19319,
    "Ġcur": 1229,
    "estations": 22228,
    "Ġnantucket": 2838,
    "Ġundulating": 19520,
    "Ġtorment": 8677,
    "Ġleather": 7607,
    "expressed": 9044,
    "Ġanatomical": 15080,
    "surface": 10533,
    "Ġindulge": 10585,
    "Ġoblivious": 26033,
    "Ġenvy": 13187,
    "wharf": 20609,
    "journey": 8748,
    "rix": 1572,
    "Ġstared": 8456,
    "Ġmonosy": 18853,
    "Ġpenet": 6888,
    "Ġ7": 4745,
    "extric": 22768,
    "Ġsick": 4693,
    "Ġrolled": 4432,
    "pard": 9621,
    "Ġinstances": 5568,
    "Ġconfided": 19037,
    "Ġconceal": 5975,
    "Ġwoof": 14724,
    "thousand": 5547,
    "Ġsluggishly": 25892,
    "appre": 14373,
    "below": 12126,
    "Ġdistantly": 18535,
    "Ġsobs": 14137,
    "Ġimpelled": 11786,
    "Ġmarbles": 18874,
    "Ġgap": 21602,
    "Ġhath": 12633,
    "Ġinscrut": 10037,
    "benevolently": 25601,
    "Ġappre": 5165,
    "Ġdiscourage": 3115,
    "Ġfra": 1887,
    "Ġmoon": 4609,
    "Ġdecide": 9289,
    "Ġnoise": 1067,
    "luyt": 18460,
    "merged": 11196,
    "ribute": 7225,
    "Ġthumb": 6982,
    "atever": 3079,
    "Ġrapidly": 3449,
    "shine": 9291,
    "company": 9463,
    "Ġaltern": 7394,
    "Ġcontained": 7679,
    "Ġdecency": 18482,
    "Ġaltogether": 4832,
    "igin": 3659,
    "warks": 5004,
    "Ġwrenching": 17326,
    "Ġwrest": 11574,
    "groom": 8743,
    "max": 1681,
    "mccarthy": 15398,
    "Ġpallidness": 25605,
    "Ġdelay": 5748,
    "Ġraise": 6168,
    "penn": 18828,
    "Ġidentified": 19152,
    "ads": 5718,
    "fancy": 7337,
    "inquir": 9539,
    "Ġundiscernible": 22072,
    "signed": 21064,
    "jumping": 20248,
    "Ġscratch": 25565,
    "Ġcrown": 5289,
    "Ġsigns": 2444,
    "Ġhealth": 3907,
    "Ġremote": 8923,
    "Ġpresentiment": 18990,
    "eked": 16404,
    "Ġkidn": 20208,
    "Ġnav": 5819,
    "Ġcrowds": 14742,
    "Ġconvolutional": 2161,
    "Ġinsect": 12641,
    "connections": 14431,
    "southern": 20412,
    "Ġreverie": 13461,
    "laughing": 15183,
    "sea": 4763,
    "latin": 25259,
    "Ġadversarial": 5607,
    "professional": 20278,
    "Ġhooded": 12410,
    "Ġeffectually": 16172,
    "Ġdevoutly": 25834,
    "Ġmarchant": 14788,
    "Ġcuba": 25098,
    "investigations": 25534,
    "ript": 4156,
    "itive": 6671,
    "Ġcopestone": 24939,
    "Ġsenseless": 12083,
    "dirty": 20836,
    "Ġrag": 18642,
    "Ġmissed": 8559,
    "acters": 9312,
    "Ġwhirlwinds": 20468,
    "ē": 212,
    ",âĢĻâĢĶ": 23530,
    "Ġsavor": 23878,
    "numer": 15402,
    "Ġenhance": 3246,
    "speechless": 25396,
    "anything": 5518,
    "Ġwint": 15536,
    "Ġsalutation": 12401,
    "Ġyear": 3285,
    "Ġpresto": 22234,
    "din": 8374,
    "Ġlip": 6534,
    "Ġsoftly": 7948,
    "Ġkidnapping": 26358,
    "pute": 8849,
    "Ġpurchases": 24755,
    "nav": 17612,
    "inspector": 13650,
    "caused": 25520,
    "likely": 9026,
    "Ġouthouse": 22318,
    "isl": 21378,
    "Ġterti": 14539,
    "Ġravine": 18648,
    "Ġencouraging": 2262,
    "Ġcongenial": 12415,
    "Ġglo": 1712,
    "Ġrifled": 21983,
    "Ġsay": 932,
    "Ġrates": 1404,
    "zz": 4296,
    "cheer": 9440,
    "Ġsplashed": 23750,
    "Ġduplicates": 17219,
    "Ġwhenever": 5166,
    "Ġwhipcord": 20098,
    "Ġvote": 21951,
    "itty": 3559,
    "Ġthose": 1171,
    "Ġreputed": 18038,
    "Ġ54": 24318,
    "Ġjog": 18405,
    "commer": 22825,
    "Ġwelcome": 5604,
    "Ġadmire": 5264,
    "Ġsafe": 5103,
    "Ġrides": 21978,
    "Ġdir": 21424,
    "effort": 19216,
    "Ġtolerable": 6949,
    "Ġknow": 632,
    "rippling": 24712,
    "Ġwaldman": 11347,
    "Ġnetworks": 598,
    "on": 267,
    "Ġloungers": 24863,
    "Ġextant": 18685,
    "throughout": 24091,
    "ateful": 5928,
    "compasses": 19461,
    "Ġstandard": 14498,
    "squall": 13525,
    "Ġdone": 1816,
    "Ġhorrors": 10482,
    "Ġsearching": 13166,
    "Ġreaching": 7303,
    "Ġbeggar": 9352,
    "Ġcorrection": 5062,
    "Ī": 235,
    "ement": 1499,
    "Ġsocially": 22091,
    "romed": 10907,
    "Ġunfitted": 24110,
    "intelligence": 5884,
    "Ġrashness": 25461,
    "ented": 4351,
    "comparatively": 25841,
    "Ġvoice": 2189,
    "Ġwig": 9164,
    "died": 11482,
    "Ġante": 17898,
    "trees": 10733,
    "hitherto": 17286,
    "examination": 25479,
    "iciency": 9577,
    "Ġhandled": 12942,
    "ancial": 21365,
    "ibles": 18788,
    "gabriel": 15364,
    "soever": 11862,
    "Ġhumorously": 18780,
    "eternal": 17985,
    "Ġcongrat": 5828,
    "Ġlucifers": 16590,
    "Ġdemoniacal": 20559,
    "Ġaffirmative": 15226,
    "Ġcommonest": 23093,
    "Ġperish": 8878,
    "Ġsurprising": 14599,
    "Ġpaved": 17913,
    "Ġlizzy": 3551,
    "masterly": 24530,
    "Ġwestmorland": 24390,
    "Ġadopt": 10634,
    "Ġpoet": 8209,
    "sure": 5522,
    "ounders": 22398,
    "speckled": 23948,
    "Ġmississ": 18839,
    "Ġbri": 21381,
    "Ġdesmarest": 22984,
    "archbishop": 22895,
    "avenue": 25059,
    "Ġpostp": 12148,
    "Ġconver": 804,
    "an": 278,
    "Ġconfid": 7687,
    "Ġprescribed": 26011,
    "avings": 12027,
    "bermaid": 20792,
    "Ġhoisting": 9865,
    "erm": 789,
    "Ġinsure": 13182,
    "Ġgenerate": 1491,
    "Ġamendment": 26025,
    "Ġtenderly": 11316,
    "Ġfries": 21418,
    "Ġhousemaid": 14467,
    "quarters": 24949,
    "Ġincline": 18573,
    "Ġauthorities": 11266,
    "Ġstruck": 3391,
    "Ġundec": 22023,
    "bread": 10688,
    "Ġcontro": 1683,
    "Ġpequod": 2325,
    "drown": 13708,
    "ulating": 10889,
    "Ġcredulous": 17147,
    "oh": 1575,
    "Ġsentry": 19028,
    "Ġmechanisms": 1574,
    "Ġdisturbing": 19949,
    "incidentally": 20542,
    "henomenon": 13618,
    "Ġscenari": 22291,
    "Ġemperors": 15163,
    "Ġexpeditions": 24957,
    "extra": 8219,
    "causing": 25519,
    "isure": 6242,
    "Ġblotted": 20220,
    "Ġpuzzled": 7317,
    "ě": 220,
    "sey": 5543,
    "fl": 3604,
    "Ġlunging": 24992,
    "Ġsexes": 25172,
    "Ġhandsomest": 20337,
    "scho": 8763,
    "Ġsummer": 4790,
    "Ġtrading": 23081,
    "Ġ1836": 25721,
    "Ġbarbara": 24815,
    "Ġsickly": 16776,
    "cake": 20806,
    "Ġshrubbery": 18233,
    "Ġdocumentation": 20557,
    "ors": 853,
    "Ġprinted": 11953,
    "Ġswell": 8952,
    "Ġstorms": 11264,
    "Ġfishery": 4178,
    "scarcely": 12390,
    "Ġdiscriminator": 3393,
    "Ġtint": 13820,
    "Ġaccomplish": 14879,
    "guess": 14764,
    "Ġrelative": 11887,
    "Ġcircles": 7967,
    "although": 8810,
    "ases": 1520,
    "Ġimprecate": 20520,
    "Ġmultitudinous": 26275,
    "Ġhorizontal": 7783,
    "Ġreap": 18029,
    "Ġabusing": 18394,
    "prehensible": 12364,
    "Ġarc": 14161,
    "Ġsuccessfully": 19432,
    "Ġcontracting": 16015,
    "Ġtake": 1576,
    "Ġmarked": 4620,
    "dance": 17521,
    "Ġnorthumbria": 24174,
    "illum": 15873,
    "Ġcheered": 16374,
    "Ġlanding": 11989,
    "shadows": 25480,
    "Ġancest": 12619,
    "Ġembarrassed": 11386,
    "Ġobscurely": 20191,
    "Ġskrimshander": 22801,
    "Ġcarbuncle": 14448,
    "Ġcarriage": 3954,
    ".]": 15302,
    "Ġconviction": 6328,
    "Ġcircumstantial": 14645,
    "Ġlandsman": 11352,
    "Ġreal": 1634,
    "Ġmyth": 18221,
    "cas": 20796,
    "Ġlabor": 10420,
    "Ġremnants": 22793,
    "breckinridge": 24078,
    "train": 2033,
    "dangerous": 20243,
    "Ġsharks": 4499,
    "Ġclay": 7021,
    "pit": 3987,
    "Ġhist": 2446,
    "Ġmended": 21316,
    "urous": 10215,
    "ribbed": 16415,
    "Ġriddles": 16734,
    "door": 6195,
    "Ġsimultaneously": 4314,
    "bit": 3936,
    "iality": 8848,
    "Ġtim": 4579,
    "hies": 17562,
    "Ġdelightfully": 13162,
    "Ġunrival": 22051,
    "Ġrobbery": 11912,
    "Ġdeposited": 25485,
    "Ġadaptively": 4035,
    "Ġperplexity": 2755,
    "Ġembellished": 25850,
    "Ġpetrified": 19599,
    "ean": 20842,
    "Ġ123": 24468,
    "ĠĠĠĠĠĠĠĠĠĠĠĠĠĠĠĠĠĠĠĠĠĠĠĠĠĠĠĠĠĠĠĠĠĠĠĠĠĠĠĠĠĠĠĠĠĠĠĠĠ": 20041,
    "Ġumbrella": 15269,
    "ulance": 15771,
    "acles": 8521,
    "Ġbuckskin": 19955,
    "Ġinsist": 9893,
    "ench": 21282,
    "ners": 3271,
    "87": 20759,
    "gay": 11491,
    "Ġdecisive": 18484,
    "chapter": 1403,
    "carries": 19530,
    "Ġunconcerned": 20513,
    "Ġallies": 18235,
    "Ġspurned": 12802,
    "rush": 7012,
    "-------": 20392,
    "Ġabraham": 18396,
    "Ġballs": 9018,
    "usable": 22293,
    "Ġtried": 3651,
    "untarily": 6314,
    "ĠĠĠĠĠĠĠĠĠĠĠĠĠĠĠĠĠĠĠĠĠĠĠĠĠĠĠĠĠĠĠĠĠĠĠĠ": 23665,
    "Ġhowling": 8512,
    "Ġvarious": 3513,
    "Ġdisco": 3429,
    "Ġourselves": 5127,
    "Ġgovern": 10452,
    "Ġobliged": 4289,
    "shore": 10308,
    "ieves": 4008,
    "Ġstarboard": 7605,
    "inition": 11559,
    "Ġsights": 7472,
    "Ġparticularly": 5056,
    "Ġsolved": 8934,
    "Ġhers": 7889,
    "aulding": 11341,
    "Ġeyelids": 26108,
    "ogra": 4574,
    "Ġminority": 18754,
    "ighb": 10425,
    "Ġache": 18664,
    "Ġextort": 22727,
    "Ġlungs": 8362,
    "Ġlaughing": 5339,
    "Ġbidding": 9540,
    "Ġviv": 6158,
    "Ġdepress": 14051,
    "pressed": 6589,
    "Ġteacher": 22909,
    "Ġhammock": 5768,
    "Ġdoubted": 7965,
    "dles": 11483,
    "Ġgamming": 25543,
    "Ġsaws": 23052,
    "Ġpersuading": 19413,
    "msman": 9273,
    "Ġtraversed": 18894,
    "papers": 12506,
    "Ġmeasurement": 19426,
    "ousings": 18336,
    "Ġsouthern": 7689,
    "Ġsends": 14792,
    "Ġseemingly": 9321,
    "performed": 18345,
    ")(": 2979,
    "Ġservant": 5764,
    "Ġmethod": 1451,
    "Ġgases": 21605,
    "ieties": 19027,
    "blasted": 20192,
    "ĠĠĠĠĠĠĠĠĠĠĠĠĠĠĠĠĠĠĠĠĠĠĠĠĠĠĠĠĠĠĠ": 19703,
    "Ġmilitia": 13322,
    "Ġaffidavit": 20726,
    "ep": 441,
    "daggoo": 13710,
    "Ġrevelation": 25223,
    "Ġwaterloo": 11985,
    "Ġmax": 2003,
    "Ġtypewriter": 19099,
    "dancing": 12459,
    "Ġslewed": 23386,
    "esteemed": 26010,
    "rudently": 16712,
    "Ġbubb": 12589,
    "Ġriddle": 14823,
    "Ġhop": 1460,
    "Ġpossibility": 7458,
    "Ġfleece": 10617,
    "Ġhysterical": 26093,
    "Ġclasped": 17209,
    "Ġfestoon": 20297,
    "Ġintelligent": 1622,
    "Ġdough": 8422,
    "Ġfluid": 11214,
    "Ġdanger": 3525,
    "Ġmanipulated": 25179,
    "Ġhumorous": 10363,
    "asis": 12655,
    "Ġvalues": 2652,
    "Ġenv": 2860,
    "Ġrede": 13987,
    "Ġbehold": 5049,
    "circumst": 5349,
    "Ġcode": 1719,
    "sor": 7352,
    "Ġbunger": 9999,
    "Ġnoteworthy": 24165,
    "Ġoccurring": 2792,
    "tomb": 21096,
    "Ġdidn": 4365,
    "Į": 239,
    "just": 1696,
    "cturn": 17989,
    "spike": 16142,
    "Ġlieuten": 13331,
    "master": 5687,
    "surround": 16760,
    "Ġdiscern": 7925,
    "Ġjobs": 24833,
    "harpoon": 9494,
    "Ġtoil": 6533,
    "Ġfilthy": 13253,
    "distinction": 19574,
    "hope": 5991,
    "box": 5749,
    "next": 5893,
    "Ġunacquainted": 12781,
    "achusetts": 20712,
    "Ġmis": 916,
    "Ġcowardice": 17033,
    "Ġthroes": 24575,
    "Ġisrael": 21807,
    "Ġhumor": 11053,
    "unting": 21878,
    "Ġvaliantly": 22806,
    "Ġconveys": 16857,
    "Ġwhereupon": 14299,
    "Ġclimbing": 20073,
    "Ġtimes": 2303,
    "Ġregard": 3068,
    "hearty": 14837,
    "Ġdism": 9770,
    "Ġfeasts": 25370,
    "rer": 3626,
    "Ġtyphoons": 20237,
    "ful": 671,
    "Ġdeeps": 16117,
    "Ġpursue": 6316,
    "Ġsplin": 8622,
    "e": 73,
    "consciously": 19628,
    "quake": 11682,
    "dissatisfied": 26614,
    "omnipotent": 25967,
    "âĢĻ": 378,
    "Ġimplicate": 24876,
    "shook": 19858,
    "Ġlot": 6680,
    "Ġextract": 1508,
    "Ġbags": 24537,
    "Ġelastic": 4364,
    "Ġdevoted": 6575,
    "Ġresp": 2496,
    "Ġcounsel": 13619,
    "Ġfill": 5701,
    "Ġrobinson": 17466,
    "perpetually": 20516,
    "goin": 23404,
    "Ġdoublo": 6079,
    "04": 10682,
    "berish": 22747,
    "Ġlicence": 25099,
    "Ġhoist": 11981,
    "Ġcoleridge": 18766,
    "Ġsensit": 2945,
    "Ġpray": 3903,
    "Ġdiscovering": 13362,
    "Ġvague": 6407,
    "neighbours": 24882,
    "rolling": 9063,
    "Ġcotton": 17382,
    "Ġmagical": 23102,
    "Ġfanciful": 24787,
    "successfully": 14994,
    "Ġconstruct": 23342,
    "Ġbeseeching": 26312,
    "utely": 8132,
    "Ġadversary": 12178,
    "Ġsleeps": 10448,
    "Ġprices": 15616,
    "Ġcanes": 22167,
    "gaz": 20880,
    "Ġclimb": 15083,
    "inhabited": 13624,
    "Ġthing": 1639,
    "Ġmccarthys": 19665,
    "Ġattacks": 12209,
    "urpr": 2288,
    "Ġbrazen": 23843,
    "Ġdevoured": 16143,
    "Ġbecomes": 6397,
    "uctive": 17698,
    "Ġcage": 17827,
    "declaration": 25176,
    "few": 8204,
    "Ġearliest": 9834,
    "plish": 18201,
    "Ġpeculiarity": 12938,
    "Ġdisliked": 12896,
    "Ġstaves": 21742,
    "Ġhud": 10824,
    "trifling": 19417,
    "Ġassuredly": 14825,
    "Ġrelics": 16199,
    "ĠĠĠĠĠĠĠĠĠĠĠĠĠĠĠĠĠĠĠĠĠĠĠĠĠĠĠĠĠĠĠĠĠĠĠĠĠĠĠĠĠĠĠ": 12159,
    "hs": 8378,
    "eted": 7592,
    "Ġcontest": 18474,
    "marks": 7346,
    "Ġbiography": 22764,
    "sample": 12511,
    "beryls": 25310,
    "Ġfootpaths": 26319,
    "ounding": 22397,
    "Ġfretfulness": 25449,
    "Ġy": 341,
    "Ġperform": 1036,
    "Ġgar": 10840,
    "Ġs": 265,
    "saved": 15434,
    "Ġopenly": 8576,
    "preservation": 25306,
    "Ġsashes": 21228,
    "tail": 8765,
    "bring": 9108,
    "Ġcass": 13882,
    "Ġhated": 7585,
    "Ġaffronted": 22896,
    "mad": 5281,
    "Ġrequest": 6052,
    "Ġpropagating": 20636,
    "Ġconfidently": 24958,
    "Ġcourt": 4172,
    "gradient": 2273,
    "ament": 2441,
    "Ġchas": 18380,
    "Ġwhile": 608,
    "Ġturbid": 23613,
    "connected": 1307,
    "through": 4027,
    "Ġunmingled": 18264,
    "cre": 4253,
    "_,": 2799,
    "ocr": 10470,
    "Ġmists": 14632,
    "Ġjen": 9270,
    "Ġdisabled": 18562,
    "Ġblanche": 18821,
    "terms": 15755,
    "Ġauxiliary": 26420,
    "Ġslipper": 24268,
    "Ġmowers": 17814,
    "Ġrunning": 3955,
    "Ġbusy": 6191,
    "sake": 13786,
    "Ġvinc": 14088,
    "Ġbuzz": 24000,
    "dis": 2250,
    "Ġfragrant": 13110,
    "Ġpredefined": 20720,
    "thr": 12765,
    "man": 1054,
    "Ġhuman": 1315,
    "ged": 1510,
    "Ġparametric": 2396,
    "Ġemblaz": 16235,
    "Ġmoby": 3668,
    "Ġsnows": 14729,
    "Ġpsalmody": 20588,
    "Ġnail": 9198,
    "Ġfig": 3628,
    "gyric": 19111,
    "rote": 4593,
    "Ġabomin": 8189,
    "between": 5071,
    "Ġuser": 15919,
    "ible": 1115,
    "Ġtawny": 20485,
    "Ġgentlemen": 3646,
    "ivorous": 22084,
    "iriously": 18174,
    "Ġyields": 19659,
    "Ġceremonies": 24837,
    "oring": 1860,
    "Ġrecklessness": 24744,
    "Ġsandwich": 19831,
    "Ġbusily": 9386,
    "sli": 11525,
    "bride": 19201,
    "itous": 13870,
    "pag": 11513,
    "Ġarchangel": 8545,
    "Ġgid": 13965,
    "embra": 14077,
    "Ġfav": 1751,
    "Ġguards": 16270,
    "Ġcomparable": 24281,
    "Ġcrumpled": 16440,
    "obtained": 23099,
    "Ġpremium": 23908,
    "Ġseats": 14092,
    "Ġdives": 17892,
    "mitting": 20975,
    "Ġtail": 3089,
    "phology": 3006,
    "onet": 12550,
    "augment": 18830,
    "Ġvul": 10250,
    "Ġneglect": 7942,
    "earthly": 24723,
    "adequ": 11021,
    "alive": 10829,
    "Ġalive": 4401,
    "Ġlate": 3378,
    "Ġcoco": 11004,
    "Ġdeserved": 7737,
    "Ġrelig": 8553,
    "accusations": 23601,
    "conclude": 24071,
    "Ġmathematics": 12078,
    "Ġvint": 18195,
    "scores": 22997,
    "ails": 6162,
    "output": 4404,
    "favouring": 24761,
    "ality": 2514,
    "Ġsevered": 18206,
    "Ġswarm": 23057,
    "force": 12968,
    "Ġeager": 3575,
    "captains": 12132,
    "intentions": 22942,
    "inburgh": 15493,
    "bug": 17495,
    "Ġbumpkins": 25282,
    "Ġtrim": 15972,
    "illing": 8175,
    "qualified": 17099,
    "Ġsulk": 15048,
    "mush": 20979,
    "Ġtinge": 25090,
    "aciously": 12901,
    "Ġxiv": 23410,
    "Ġidol": 7467,
    "Ġanimal": 2501,
    "Ġprincely": 24151,
    "Ġark": 10278,
    "Ġhut": 15623,
    "there": 1423,
    "Ġwondrous": 4735,
    "Ġsees": 8847,
    "Ġostentatiously": 20472,
    "ail": 565,
    "kye": 20940,
    "prov": 16425,
    "Ġhorrible": 4905,
    "usations": 15951,
    "Ġcloser": 8663,
    "Ġseverely": 14936,
    "Ġsubtle": 6718,
    "Ġboarded": 13239,
    "asable": 21544,
    "Ġgloom": 4204,
    "É": 138,
    "Ġmatters": 4974,
    "Ġperilous": 7769,
    "sign": 8388,
    "&": 10,
    "two": 3862,
    "Ġreconsidered": 21676,
    "makes": 10713,
    "Ġcase": 1939,
    "Ġwild": 2603,
    "bingleys": 19637,
    "Ġrepent": 9866,
    "Ġvenerable": 9097,
    "Ġquality": 3533,
    "Ġcons": 952,
    "restoration": 23239,
    "Ġreducing": 1956,
    "Ġconstitution": 20112,
    "Ġenthr": 22746,
    "bald": 16446,
    "grie": 12475,
    "Ġchart": 10947,
    "Ġsimulation": 2752,
    "drawn": 9916,
    "ints": 3418,
    "Ġpelt": 15614,
    "Ġrumors": 11323,
    "Ġpermitting": 22403,
    "Ġanecdote": 26356,
    "Ġbordering": 17231,
    "Ġjail": 22298,
    "studied": 17152,
    "conviction": 19968,
    "Ġarithmetic": 18341,
    "Ġelbows": 18637,
    "Ġfearful": 6199,
    "Ġprolong": 6832,
    "Ġcraft": 4379,
    "Ġforbear": 17124,
    "antucket": 2644,
    "painful": 13505,
    "Ġele": 1961,
    "Ġmour": 6974,
    "Ġshining": 8172,
    "Ġcurbstone": 26043,
    "Ġrem": 953,
    "Ġoffice": 4965,
    "Ġfriend": 1295,
    "Ġdella": 21442,
    "Ġind": 1220,
    "Ġsubstance": 5510,
    "crews": 15045,
    "Ġuntouched": 16468,
    "reserved": 13846,
    "Ġjoll": 11769,
    "Ġlightly": 13088,
    "omit": 13981,
    "Ġprosperity": 20260,
    "repent": 15516,
    "Ġweighted": 2087,
    "Ġthrow": 3785,
    "Ġchimer": 24603,
    "Ġspray": 7894,
    "bered": 4506,
    "about": 3592,
    "Ġoctavo": 15167,
    "accur": 14595,
    "âĢĶâĢĺ_": 24832,
    "gal": 15359,
    "ictions": 14229,
    "form": 498,
    "Ġearnestly": 5980,
    "Ġcorre": 3891,
    "dozen": 23379,
    "Ġforthwith": 16620,
    "icket": 22671,
    "unwholesome": 26499,
    "Ġendued": 14080,
    "achine": 603,
    "younger": 11314,
    "Ġbiological": 1932,
    "Ġspinning": 15055,
    "Ġ86": 24461,
    "acute": 22549,
    "Ġconfusing": 23309,
    "(-": 2978,
    "tin": 6118,
    "Ġconjunction": 25103,
    "worship": 19390,
    "Ġlaz": 7378,
    "Ġassurances": 10003,
    "Ü": 157,
    "ifled": 14066,
    "Ġeasier": 11167,
    "Ġderiv": 1735,
    "erce": 6128,
    "Ġabuse": 18393,
    "Ġbanks": 6815,
    "Ġstumbling": 21746,
    "Ġproblem": 1271,
    "Ġexerc": 6833,
    "othic": 16219,
    "Ġ1894": 5196,
    "Ġency": 21937,
    "mult": 8751,
    "Ġprodigy": 19795,
    "Ġfrigid": 17355,
    "eminently": 25108,
    "ollion": 19718,
    "mediterranean": 16407,
    "Ġhiding": 9826,
    "ul": 371,
    "Ġmatrimony": 13639,
    "Ġwatchman": 23667,
    "Ġacquaint": 13050,
    "ayed": 12717,
    "wholly": 10943,
    "dev": 7632,
    "Ġfiver": 22778,
    "Ġautom": 3347,
    "Ġinstant": 2704,
    "permission": 15907,
    "Ġminima": 3465,
    "Ġwouldst": 18502,
    "Ġtraged": 9355,
    "Ġhelmeted": 19691,
    "Ġwinds": 5746,
    "Ġrind": 21976,
    "Ġnewspapers": 17189,
    "significant": 25085,
    "ron": 5216,
    "Ġaffl": 14389,
    "iments": 4945,
    "meditation": 19071,
    "Ġentertained": 10001,
    "Ġhoe": 23352,
    "Ġformed": 3887,
    "atives": 2235,
    "Ġchecking": 23289,
    "!âĢĶâĢĻ": 23567,
    "Ġart": 746,
    "Ġpressure": 13426,
    "unch": 14061,
    "Ġscot": 5643,
    "Ĩ": 233,
    "Ġabominable": 12326,
    "Ġmaimed": 21319,
    "animals": 24737,
    "Ġrumbling": 18212,
    "Ġsummit": 7731,
    "fiercely": 25257,
    "Ġbureau": 11593,
    "Ġintervened": 25482,
    "desc": 1392,
    "ard": 465,
    "conquerable": 17402,
    "Ġworth": 4419,
    "Ġaround": 3615,
    "Ġsinging": 7724,
    "Ġflapped": 23016,
    "lers": 10109,
    "Ġtiara": 26417,
    "Ġsympt": 7014,
    "Ġvanish": 8931,
    "ica": 10201,
    "ÿ": 192,
    "Ġscotland": 6642,
    "wore": 21127,
    "Ġburns": 16524,
    "incom": 21184,
    "fisher": 7547,
    "Ġtow": 4398,
    "hastening": 24448,
    "desirable": 23812,
    "Ġclaws": 15979,
    "Ġbells": 19604,
    "Ġcontrary": 5261,
    "slightest": 25417,
    "Ġbird": 3758,
    "Ġmoodily": 19837,
    "Ġdetermined": 2221,
    "Ġdiversion": 17200,
    "ĠâĢĶâĢĶ": 25758,
    "Ġintrusion": 12770,
    "brave": 19826,
    "joining": 19449,
    "dered": 2474,
    "Ġpreacher": 18370,
    "Ġrelieve": 8224,
    "Ġtrappings": 23085,
    "Ġsounds": 5190,
    "Ġhaving": 1879,
    "aven": 8208,
    "Ġfailing": 12142,
    "Ġconducting": 16652,
    "Ġball": 3627,
    "Ġterrify": 19364,
    "Ġjerked": 19835,
    "tooth": 18583,
    "inridge": 11563,
    "Ġsmiled": 5942,
    "Ġwides": 17790,
    "tit": 11530,
    "quitted": 21855,
    "Ġes": 8773,
    "Ġenduring": 16305,
    "Ġbeaver": 18088,
    "Ġhumiliating": 22887,
    "breath": 15166,
    "Ġkneeling": 12147,
    "Ġmagnificent": 9845,
    "Ġblanket": 8343,
    "enances": 10156,
    "warn": 11545,
    "Ġholder": 6726,
    "Ġdrawling": 19440,
    "Ġmanifold": 13564,
    "exped": 16526,
    "Ġunheard": 22029,
    "Ġfortun": 4982,
    "ev": 6952,
    "iop": 20921,
    "Ġpencil": 11947,
    "hip": 8744,
    "Ġintroduction": 8973,
    "nnight": 20995,
    "Ġeyed": 12674,
    "Ġhovered": 12636,
    "Ġmajor": 13295,
    "weaving": 18667,
    "Ġnavies": 16902,
    "strange": 6087,
    "Ġphrase": 11189,
    "rawling": 21639,
    "Ġmantle": 25275,
    "Ġblooming": 17215,
    "Ġblood": 3167,
    "Ġclamped": 18433,
    "creatures": 7517,
    "orus": 10803,
    "spoke": 11026,
    "Ġshag": 9254,
    "Ġdiscussion": 17197,
    "Ġsnar": 13204,
    "Ġeventually": 8620,
    "Ġrector": 21679,
    "Ġrevellers": 21681,
    "Ġslice": 23163,
    "Ġinstance": 2546,
    "certainly": 5340,
    "Ġinoffensive": 21501,
    "Ġclout": 22360,
    "Ġmachinations": 25768,
    "Ġstaggered": 9542,
    "factories": 19846,
    "umbria": 23898,
    "Ġsteed": 13046,
    "arers": 12134,
    "Ġunpleasing": 22059,
    "ower": 1049,
    "eches": 8078,
    "1": 21,
    "planks": 21958,
    "sh": 649,
    "bbles": 13695,
    "Ġexpon": 966,
    "Ġchilly": 25563,
    "Ġreus": 8826,
    "Ġfug": 12600,
    "Ġbackward": 7655,
    "Ġdiscreet": 16484,
    "wing": 2521,
    "Ġdiscovery": 5412,
    "Ġlicense": 20094,
    "Ġmatches": 14399,
    "ject": 874,
    "Ġninety": 13605,
    "considerably": 13449,
    "crowning": 25749,
    "Ġunfrequently": 20741,
    "osop": 4407,
    "oda": 15753,
    "threshold": 21991,
    "Ġrestoration": 19030,
    "Ġaggreg": 12889,
    "Ġdelivery": 18976,
    "Ġfeigned": 22214,
    "Ġoutlandish": 12843,
    "Ġcircle": 4977,
    "ĠĠĠĠĠĠĠĠĠĠĠĠĠĠĠĠĠĠĠĠĠĠĠĠĠĠĠĠĠĠĠĠĠĠĠĠĠĠĠĠ": 4518,
    "what": 643,
    "Ġpantheistic": 26337,
    "Ġxxxii": 24973,
    "Ġunrelieved": 20548,
    "crucible": 24843,
    "hist": 7132,
    "Ġsecrets": 9057,
    "Ġextremity": 8991,
    "Ġmarlings": 23039,
    "shells": 26057,
    "Ġwide": 4111,
    "Ġpenn": 11114,
    "Ġgraphs": 25464,
    "Ġdeparture": 6491,
    "Ġplaint": 10328,
    "triumph": 15443,
    "Ġviewing": 19266,
    "Ġbennet": 1573,
    "Ġbeyond": 2459,
    "Ġexhausted": 8697,
    "coast": 10451,
    "Ġmermaids": 26171,
    "Ġtimid": 6347,
    "Ġglided": 7447,
    "thesize": 24907,
    "Ġrust": 6409,
    "Ġrails": 22657,
    "Ġspilled": 10926,
    "chooses": 23676,
    "Ġhot": 4260,
    "sympathy": 20545,
    "Ġspouter": 12803,
    "Ġpermitted": 9281,
    "Ġcomplained": 17000,
    "Ġcrazy": 8596,
    "Ġwrapt": 24596,
    "Ġcompatibility": 2957,
    "Ġtemporal": 2615,
    "Ġaback": 22270,
    "Ġfaded": 10811,
    "Ġresponses": 23650,
    "Ġcurv": 3516,
    "Ġglen": 18854,
    "sory": 17661,
    "Ġshine": 12771,
    "Ġromans": 16761,
    "Ġworker": 23050,
    "Ġcoarse": 14281,
    "Ġconfirmed": 11141,
    "Ġdepartment": 24244,
    "Ġassisted": 11112,
    "sprit": 11384,
    "Ġinsists": 23680,
    "fow": 20855,
    "Ġflitting": 13031,
    "tried": 13797,
    "particular": 5757,
    "equally": 19901,
    "Ġlining": 13954,
    "Ġspikes": 22140,
    "Ġabsurdly": 19963,
    "Ġdespondency": 16580,
    "Ġvilest": 20104,
    "Ġoffences": 18692,
    "Ġpoultry": 17444,
    "Ġspoutings": 14678,
    "turbaned": 24532,
    "Ġidler": 16406,
    "uneasy": 23688,
    "proble": 9396,
    "oak": 21005,
    "Ġcocoa": 25483,
    "Ġtransactions": 18490,
    "Ġchowder": 10283,
    "//": 11465,
    "Ġineffect": 13933,
    "nonsense": 17617,
    "atered": 22013,
    "Ġform": 1024,
    "thither": 21987,
    "rossed": 11014,
    "ogene": 18674,
    "Ġsubdivisions": 26038,
    "intelligent": 16846,
    "Ġrefreshment": 17242,
    "fatal": 17089,
    "Ġplaymate": 23639,
    "ipped": 5790,
    "blooded": 20026,
    "Ġdefer": 18824,
    "keen": 12787,
    "later": 20955,
    "likewise": 13109,
    "helping": 23146,
    "Ġhimmale": 18335,
    "Ġpious": 11601,
    "Ġcurling": 9344,
    "iring": 1704,
    "Ġpredomin": 16045,
    "Ġinterview": 9773,
    "Ġmaze": 23834,
    "magnitude": 17251,
    "masculine": 24387,
    "Ġgnawed": 25168,
    "Ġbanish": 15574,
    "abode": 21795,
    "Ġpickle": 16724,
    "Ġfloating": 6606,
    "Ġep": 7385,
    "Ġvelvet": 12402,
    "recursion": 13333,
    "Ġchis": 11754,
    "Ġperfume": 25666,
    "yn": 7819,
    "Ġunclasp": 26513,
    "Ġribbed": 16806,
    "arle": 21443,
    "Ġstatistical": 11106,
    "Ġringing": 13336,
    "Ġscornful": 24999,
    "Ġinboard": 17935,
    "wam": 10138,
    "Ġthreshold": 2808,
    "Ġeyebrows": 23517,
    "Ġcolleague": 17162,
    "Ġtwitching": 25684,
    "Ġimmort": 19487,
    "Ġlashing": 11619,
    "Ġneighb": 14079,
    "Ġstruggling": 12079,
    "Ġsalmon": 24066,
    "Ġoriginate": 24123,
    "Ġhurt": 7701,
    "Ġnearest": 8473,
    "Ġbarrels": 9439,
    "Ġregulations": 18592,
    "Ġexample": 5096,
    "lotte": 3331,
    "crossed": 16635,
    "Ġmuttering": 10502,
    "Ġsustenance": 19937,
    "gration": 9124,
    "Ġportcull": 23866,
    "59": 17476,
    "ult": 722,
    "Ġtints": 17729,
    "Ġoverpow": 14205,
    "Ġpurchas": 19876,
    "Ġaccompanied": 6781,
    "Ġfavoring": 2346,
    "Ġswe": 2291,
    "shiver": 16030,
    "ditch": 17530,
    "¾": 127,
    "Ġtrapped": 23079,
    "Ġdirt": 15598,
    "apart": 15965,
    "Ġroarings": 25302,
    "Ġswitching": 23060,
    "jeroboam": 25620,
    "Ġsuns": 23276,
    "Ġdesolation": 12273,
    "Ġnewsp": 9342,
    "itect": 973,
    "Ġunh": 9256,
    "Ġrudimental": 25111,
    "domestic": 19828,
    "deli": 15348,
    "Ġshaster": 22002,
    "ableness": 8149,
    "rot": 21535,
    "Ġshoving": 23491,
    "Ġvulgar": 13608,
    "Ġbeautiful": 3675,
    "anchor": 13892,
    "Ġinvariable": 13460,
    "fight": 17540,
    "Ġhomeward": 9394,
    "Ġmajestic": 8643,
    "Ġmachines": 1775,
    "Ġdemand": 4947,
    "mal": 6795,
    "tout": 21068,
    "20": 20755,
    "Ġpeterson": 9486,
    "boy": 4738,
    "ascribed": 24707,
    "Ġsparing": 22133,
    "Ġjust": 1240,
    "Ġnoting": 18222,
    "assault": 22310,
    "act": 788,
    "Ġwinking": 17795,
    "herfield": 3634,
    "Ġexquisitely": 20205,
    "displayed": 20738,
    "Ġexpressing": 12013,
    "aract": 17896,
    "Ġpains": 5966,
    "vessel": 11379,
    "Ġcomprise": 18587,
    "Ġsauntering": 18333,
    "Ġheroine": 24543,
    "mistaken": 12215,
    "Ġgenerous": 6275,
    "£": 101,
    "Ġmagnificence": 20635,
    "Ġconven": 6153,
    "lone": 11502,
    "confusion": 13374,
    "intention": 10370,
    "Ġattorney": 18622,
    "rebell": 17765,
    "Ġremarkable": 4915,
    "antically": 22095,
    "Ġevident": 6615,
    "Ġpr": 1596,
    "Ġblending": 14402,
    "Ġsnapping": 19303,
    "Ġxii": 11995,
    "paused": 17377,
    "etrics": 21588,
    "gentleman": 7518,
    "Ġcultured": 25158,
    "unknown": 10892,
    "Ġglue": 15678,
    "Ġmost": 1021,
    "Ġhimself": 1350,
    "tled": 3458,
    "Ġrevived": 11370,
    "churning": 21700,
    "Ġforging": 18096,
    "rol": 5713,
    "Ġapprised": 18362,
    "frau": 15093,
    "era": 13850,
    "bl": 4145,
    "Ġclinch": 18432,
    "Ġentangled": 10346,
    "Ġpay": 3966,
    "Ġjub": 22299,
    "icious": 7380,
    "Ġgiants": 25961,
    "avo": 8522,
    "ura": 1052,
    "Ġcontention": 22430,
    "smooth": 20251,
    "type": 16179,
    "Ġrhone": 25231,
    "if": 376,
    "Ġprecise": 7077,
    "mile": 17599,
    "aster": 1866,
    "Ġgangs": 21612,
    "Ġindividually": 22960,
    "Ġvel": 7186,
    "hand": 2758,
    "Ġmeditate": 16709,
    "him": 1938,
    "opard": 9294,
    "Ġproject": 5546,
    "Ġextrem": 2476,
    "Ġconfed": 13102,
    "Ġfanc": 6745,
    "range": 3497,
    "Ġ99": 10747,
    "now": 547,
    ",--": 2478,
    "consc": 4841,
    "vag": 8768,
    "Ġliberally": 16832,
    "Ġeluded": 12927,
    "brous": 19200,
    "Ġtennes": 23551,
    "Ġunfold": 8022,
    "Ġtep": 21164,
    "Ġbrown": 6300,
    "Ġblotches": 25315,
    "ems": 5236,
    "fle": 7130,
    "ating": 663,
    "embow": 21933,
    "Ġporpoise": 7108,
    "kee": 18274,
    "iac": 6227,
    "Ġ81": 24457,
    "Ġarriving": 19219,
    "Ġtakes": 5007,
    "duodecimo": 16006,
    "noise": 14329,
    "Ġemployer": 19435,
    "Ġecho": 12673,
    "icorn": 15661,
    "anged": 3593,
    "Ġtradesman": 20076,
    "Ġglobe": 6077,
    "Ġspirit": 3727,
    "clopÃ¦dia": 15260,
    "Ġbery": 13901,
    "Ġnorthwards": 19549,
    "Ġfeasible": 22215,
    "Ġtimor": 24227,
    "Ġcocks": 18599,
    "Ġpound": 12621,
    "Ġthrowing": 6337,
    "Ġaltered": 7393,
    "Ġcrozetts": 19632,
    "Ġtablets": 13159,
    "cloudless": 20335,
    "venge": 4659,
    "guessed": 25873,
    "Ġpitching": 16613,
    "Ġimpartial": 15223,
    "Ġanon": 9669,
    "ardy": 22160,
    "Ġslew": 23384,
    "Ġwitt": 17785,
    "Ġomens": 21331,
    "Ġorgans": 15869,
    "rip": 9244,
    "uous": 4148,
    "Ġintentions": 10610,
    "Ġimpression": 5732,
    "Ġprocedural": 12035,
    "memory": 13621,
    "iably": 13741,
    "Ġrevolver": 14903,
    "Ġrival": 10488,
    "Ġinspired": 2520,
    "Ġking": 2306,
    "Ġangelic": 19630,
    "atical": 10773,
    "Ġowed": 10782,
    "Ġagent": 6279,
    "¡": 99,
    "Ġfundament": 2925,
    "Ġsorts": 6887,
    "Ġpreceding": 7528,
    "Ġsockets": 22092,
    "Ġbrand": 16189,
    "Ġremind": 6059,
    "Ġplate": 8902,
    "thrill": 25657,
    "Ġthreads": 13122,
    "Ġsame": 1341,
    "bling": 10685,
    "oundering": 11750,
    "erably": 7573,
    "protection": 19922,
    "Ġsc": 530,
    "olds": 9314,
    "otion": 4946,
    "Ġexamined": 6336,
    "br": 2479,
    "30": 20756,
    "ears": 20847,
    "infernal": 24663,
    "Ġascent": 19621,
    "Ġoccupy": 14734,
    "Ġchosen": 7201,
    "âĢĶâĢĶâĢĿ": 15944,
    "americ": 8156,
    "Ġloathed": 15879,
    "Ġdefects": 12337,
    "Ġintrodu": 1925,
    "eminence": 20102,
    "Ġrele": 2915,
    "Ġhur": 2097,
    "gress": 2213,
    "Ġelevated": 7318,
    "Ġrode": 16001,
    "Ġannihilation": 15169,
    "Ġthews": 21280,
    "Ġassembled": 9239,
    "raint": 18318,
    "Ġblowing": 10487,
    "Ġsenses": 8252,
    "Ġsnuff": 7992,
    "ssian": 3401,
    "directed": 20408,
    "flukes": 25206,
    "instr": 12536,
    "Ġencoder": 3639,
    "Ġrim": 21972,
    "Ġfab": 15580,
    "irra": 15789,
    "Ġoverheard": 11775,
    "osque": 22266,
    "Ġvintage": 26211,
    "aul": 6354,
    "flinging": 20870,
    "brimmed": 14590,
    "Ġhanded": 8217,
    "Ġsins": 13840,
    "Ġreplacing": 3450,
    "Ġmexic": 14034,
    "Ġcame": 1299,
    "stop": 11637,
    "ous": 477,
    "Ġnewcom": 16225,
    "Ġby": 383,
    "name": 6796,
    "Ġpatroness": 13513,
    "Ġbuying": 23999,
    "Ġdegrad": 2590,
    "Ġsaville": 15895,
    "osp": 6854,
    "Ġbashaw": 25634,
    "Ġchurned": 18386,
    "possible": 5743,
    "Ġmasters": 11578,
    "bold": 17490,
    "abouts": 9455,
    "Ġjot": 11767,
    "ute": 4643,
    "figure": 13559,
    "Ġsucking": 12791,
    "),": 1346,
    "Ġconsuming": 22792,
    "epend": 3315,
    "Ġunaccountable": 7887,
    "Ġott": 13869,
    "Ġsaxon": 25469,
    "oper": 7347,
    "horrible": 14602,
    "companies": 24895,
    "ago": 14068,
    "Ġdistinctly": 7311,
    "Ġheadache": 22903,
    "verse": 9691,
    "these": 3241,
    "leaning": 10792,
    "pr": 3174,
    "Ġseamen": 5063,
    "vine": 10736,
    "Ġmanual": 14200,
    "Ġfiercely": 12957,
    "exe": 11793,
    "Ġelasticity": 19561,
    "gown": 9599,
    "love": 9297,
    "Ġmcc": 21309,
    "Ġwiser": 14733,
    "Ġopenshaw": 7955,
    "onian": 17769,
    "Ġconstitutional": 25128,
    "Ġwoods": 5406,
    "begin": 8887,
    "used": 3259,
    "mblance": 7323,
    "scorn": 22996,
    "athans": 7433,
    "ored": 3898,
    "Ġfitting": 21411,
    "Ġmeadows": 11424,
    "Ġbanqu": 12593,
    "Ġvanished": 6874,
    "Ġpunctilious": 26355,
    "lesson": 22773,
    "Ġdeline": 16336,
    "Ġembodied": 25848,
    "desponding": 26343,
    "dispositions": 25014,
    "Ġtreading": 16506,
    "Ġoriginated": 24124,
    "secondly": 16986,
    "Ġwayward": 22873,
    "Ġlamentations": 17077,
    "Ġforbearing": 25101,
    "Ġcorrob": 16267,
    "rons": 21042,
    "horror": 13163,
    "Ġdominant": 12400,
    "Ġgrunt": 18735,
    "geese": 22371,
    "Ġevery": 926,
    "ulled": 14059,
    "Ġsinew": 25432,
    "manners": 16187,
    "Ġimpatiently": 8338,
    "Ġshaken": 10267,
    "Ġtex": 15475,
    "Ġsworn": 14438,
    "Ġthr": 5709,
    "tranquillity": 20549,
    "Ġeverything": 3152,
    "Ġrescue": 13347,
    "Ġstrings": 11833,
    "slo": 17658,
    "Ġthursday": 12649,
    "Ġtrace": 6183,
    "Ġmisery": 3815,
    "Ġdesired": 4665,
    "Ġrequiring": 2919,
    "trust": 21081,
    "la": 10707,
    "Ġlordly": 23746,
    "ourney": 3558,
    "lo": 680,
    "burg": 16775,
    "Ġcandelab": 23852,
    "Ġcruisers": 25864,
    "Ġacross": 1329,
    "Ġsangu": 15507,
    "Ġstup": 14008,
    "Ġdistrusted": 13545,
    "Ġcasting": 12105,
    "Ġjuncture": 17132,
    "Ġwaning": 15537,
    "heredit": 21212,
    "Ġworshippers": 25694,
    "yed": 3272,
    "hammer": 14491,
    "Ġdebts": 8036,
    "uttural": 21592,
    "stock": 13227,
    "mical": 9131,
    "Ġtren": 17723,
    "Ġdrown": 6816,
    "family": 7324,
    "Ġintellect": 8170,
    "Ġrepel": 23360,
    "Ġabstract": 17184,
    "Ġprepar": 7897,
    "Ġstride": 22619,
    "]]": 5205,
    "Ġframe": 2020,
    "Ġabased": 22272,
    "Ġrecre": 22738,
    "azed": 9402,
    "splash": 25210,
    "Ġperceptibly": 25822,
    "Ġpanegyric": 26451,
    "Ġbite": 10799,
    "Ġsake": 4094,
    "arboard": 7266,
    "Ġcirculation": 16419,
    "Ġevid": 3504,
    "extinguished": 16154,
    "reflect": 19867,
    "positive": 20570,
    "Ġwires": 21298,
    "ters": 1571,
    "Ġgunw": 6214,
    "Ġdealer": 23980,
    "Ġbiting": 17863,
    "eye": 6226,
    "Ġfruit": 12330,
    "Ġsweetly": 23922,
    "bun": 12442,
    "Ġproducing": 11903,
    "Ġpeninsula": 23198,
    "oura": 1060,
    "Ġregards": 16077,
    "Ġbul": 3294,
    "perform": 15905,
    "Ġpricking": 23220,
    "Ġacquire": 2724,
    "Ġincorrect": 2729,
    "Ġforeman": 23448,
    "Ġtract": 21168,
    "Ġpolitics": 19226,
    "Ġcomplimented": 14907,
    "properly": 24919,
    "Ġcarriages": 11100,
    "Ġcustody": 13651,
    "igh": 2028,
    "anche": 10790,
    "Ġjoky": 18407,
    "Ġboat": 1277,
    "lies": 15385,
    "tubs": 15134,
    "/": 19,
    "Ġplanets": 24060,
    "Ġstating": 15726,
    "isions": 6132,
    "wall": 10139,
    "phew": 6369,
    "pall": 17630,
    "Ġconnivance": 25226,
    "requirements": 24858,
    "Ġbrother": 2749,
    "Ġstocks": 23179,
    "Ġhal": 1360,
    "Ġmannish": 26239,
    "Ġdrawled": 23992,
    "but": 592,
    "naturalist": 23520,
    "Ġcom": 369,
    "puted": 8850,
    "Ġbl": 1190,
    "Ġlaud": 17970,
    "Ġcakes": 13887,
    "Ġstow": 21734,
    "Ġcurves": 18842,
    "lab": 3457,
    "Ġpersever": 10006,
    "iz": 363,
    "Ġthree": 1369,
    "sir": 5001,
    "Ġjeopardy": 13600,
    "Ġrock": 5311,
    "health": 13836,
    "Ġmanifested": 17160,
    "Ġnightmare": 18921,
    "Ġcronies": 23442,
    "Ġintersect": 22583,
    "Ġshaking": 6553,
    "Ġquest": 1997,
    "Ġpossession": 5589,
    "turkish": 24533,
    "Ġconflict": 17276,
    "mathemat": 19139,
    "Ġpermanent": 13635,
    "ear": 8734,
    "Ġgen": 5298,
    "ohnson": 16329,
    "Ġuncont": 14119,
    "Ġkindled": 19032,
    "Ġcrack": 7710,
    "Ġcran": 12005,
    "Ġdeeds": 15763,
    "ument": 5240,
    "values": 4973,
    "Ġencouragement": 13048,
    "Ġbreaths": 14860,
    "sharpening": 22468,
    "Ġaloud": 6254,
    "Ġparts": 4168,
    "Ġthickets": 24026,
    "Ġsands": 14951,
    "Ġpeace": 3695,
    "Ġlife": 1351,
    "Ġweave": 21925,
    "Ġwhalebone": 10979,
    "expedition": 26079,
    "whispered": 20037,
    "Ġdescends": 14290,
    "Ġceler": 15555,
    "Ġduring": 872,
    "bell": 7332,
    "Ġhappiest": 11886,
    "Ġsuddenly": 2646,
    "offices": 19060,
    "Ġgladstone": 23872,
    "Ġpeleg": 3741,
    "È": 137,
    "Ġdire": 865,
    "Ġconvergence": 971,
    "dishon": 20407,
    "much": 3708,
    "Ġconquer": 14030,
    "frisco": 16789,
    "rival": 12747,
    "Ġjetted": 24431,
    "Ġconsideration": 5191,
    "Ġarrogance": 26233,
    "Ġcop": 7580,
    "Ġhorseback": 14853,
    "Ġclosing": 11778,
    "Ġrus": 14096,
    "edded": 8558,
    "Ġaromatic": 25926,
    "Ġadvance": 5484,
    "rat": 8759,
    "Ġcomposing": 16074,
    "Ġcoronation": 13338,
    "Ġplaster": 16087,
    "author": 9863,
    "Ġende": 21936,
    "Ġhearers": 15707,
    "Ġjuicy": 25371,
    "Ġcomplacency": 19451,
    "Ġloosened": 26003,
    "harbors": 20151,
    "Ġtraces": 7946,
    "sand": 21055,
    "tumbled": 21093,
    "Ġmelting": 24290,
    "Ġwhirled": 14963,
    "Ġjamming": 17267,
    "dragging": 16611,
    "umblings": 23897,
    "ht": 375,
    "Ġconting": 18473,
    "laug": 10709,
    "Ġelimin": 16111,
    "Ġquar": 3112,
    "sery": 17663,
    "pulling": 25149,
    "intolerable": 22941,
    "Ġhairy": 23868,
    "Ġmoustache": 20487,
    "mason": 17604,
    "ropol": 10955,
    "Ġhereabouts": 12983,
    "Ġbegone": 11921,
    "Ġdefines": 1740,
    "erred": 6377,
    "apside": 22963,
    "detective": 24383,
    "onted": 11570,
    "accepted": 20139,
    "odecimoes": 25319,
    "cture": 15669,
    "Ġshells": 20367,
    "igned": 5656,
    "Ġmultipl": 2791,
    "dreadful": 11423,
    "ital": 4818,
    "impatient": 13644,
    "olstadt": 7789,
    "aren": 10077,
    "australian": 20564,
    "Ġdelineations": 26059,
    "Ġtoilings": 24741,
    "ĠĠĠĠĠĠĠĠĠĠĠĠĠĠĠĠĠĠĠĠĠĠĠĠĠĠĠĠĠĠĠĠĠĠ": 14616,
    "Ġvesuvius": 26503,
    "Ġaddress": 2270,
    "Ġperennial": 22697,
    "orn": 2242,
    "longbourn": 9899,
    "Ġdiscu": 4366,
    "Ġhereford": 22882,
    "swallowed": 14856,
    "Ġunobstructed": 18265,
    "Ġprefer": 6417,
    "straight": 9943,
    "fifth": 20149,
    "Ġshades": 9465,
    "anging": 3556,
    "Ġremainder": 9861,
    "Ġfate": 4754,
    "Ġz": 999,
    "Ġshell": 11740,
    "Ġgreece": 17070,
    "narwhale": 17321,
    "Ġhumiliation": 16202,
    "Ġstreaming": 19676,
    "Ġhere": 1089,
    "affection": 7487,
    "olic": 14045,
    ").âĢĿ": 20743,
    "meal": 22717,
    "Ġallusions": 10908,
    "Ġpointing": 5661,
    "Ġstolen": 14010,
    "Ġprobable": 5570,
    "ė": 216,
    "Ġvultures": 25654,
    "Ġsalt": 8017,
    "unned": 21882,
    "Ġsovere": 9259,
    "keel": 14131,
    "Ġbinnacle": 8119,
    "bo": 1687,
    "Ġhaste": 9006,
    "Ġfailed": 6674,
    "Ġdepicting": 22610,
    "Ġsite": 17755,
    "especially": 3577,
    "Ġtumbling": 13828,
    "orily": 15577,
    "Ġbottom": 3677,
    "Ġadjacent": 20713,
    "Ġcaution": 11348,
    "Ġclanking": 20614,
    "ameter": 2970,
    "shone": 22457,
    "Ġencamped": 22804,
    "Ġrigger": 19533,
    "liament": 16221,
    "Ġclattered": 22366,
    "Ġcarved": 7947,
    "Ġbaron": 19336,
    "Ġindefinitely": 25222,
    "Ġrobert": 10972,
    "amusement": 15286,
    "Ġharvard": 24574,
    "Ġtriangular": 14862,
    "pth": 2382,
    "mped": 16650,
    "regulated": 23469,
    "Ġmeans": 698,
    "def": 1450,
    "Ġsails": 5257,
    "hampshire": 23267,
    "Ġapprehensions": 13408,
    "ato": 17771,
    "Ġhave": 443,
    "Ġgazes": 24098,
    "yingly": 23063,
    "Ġstum": 21735,
    "Ġmechanism": 2433,
    "aco": 12900,
    "Ġdial": 10812,
    "_âĢĶâĢĻ": 13686,
    "Ġgild": 15673,
    "Ġrepresents": 4902,
    "Ġren": 3848,
    "Ġnotice": 4544,
    "Ġrubbing": 9323,
    "Ġvalidation": 2358,
    "lish": 1950,
    "Ġvir": 7002,
    "Ġgrievous": 13265,
    "Ġcommodore": 12399,
    "Ġincomplete": 17211,
    "augmented": 26288,
    "Ġcombined": 8552,
    "tured": 13798,
    "burn": 8371,
    "Ġpaddles": 15151,
    "Ġunanswerable": 26523,
    "Ġqu": 606,
    "everywhere": 23700,
    "Ġdisposed": 7085,
    "col": 3102,
    "Ġeaglet": 19307,
    "Ġfidgeted": 25890,
    "atig": 13848,
    "Ġlace": 13953,
    "Ġcassock": 20490,
    "unnecessary": 21884,
    "consider": 6350,
    "Ġsavage": 4013,
    "thought": 3851,
    "Ġbellies": 13360,
    "Ġfond": 4755,
    "Ġannals": 17900,
    "market": 16841,
    "Ġflaming": 8567,
    "Ġearth": 2849,
    "jointed": 24013,
    "Ġparaphrasing": 26528,
    "Ġpanting": 11605,
    "Ġfacility": 19852,
    "Ġretrieval": 10677,
    "formed": 2555,
    "rimsh": 17029,
    "Ġvaults": 17156,
    "Ġallude": 12776,
    "Ġungenerous": 18267,
    "Ġlogical": 14489,
    "Ġcannib": 6037,
    "ection": 4948,
    "recollection": 25349,
    "endeavouring": 15018,
    "consideration": 14958,
    "Ġassisting": 13262,
    "rely": 6125,
    "Ġmoment": 991,
    "Ġgle": 7859,
    "attend": 11102,
    "ester": 11606,
    "Ġselecting": 16683,
    "Ġtill": 1824,
    "Ġpedestrian": 25884,
    "Ġerr": 1321,
    "nervous": 16281,
    "Ġslightly": 7293,
    "Ġreck": 6539,
    "march": 13758,
    "Ġcondemned": 7779,
    "nurtured": 25525,
    "Ġignor": 4014,
    "Ġdivers": 9668,
    "Ġshocked": 9404,
    "Ġintent": 6410,
    "Ġflail": 23012,
    "Ġknee": 7095,
    "Ġspectacle": 10499,
    "Ġfierc": 18712,
    "Ġincantation": 26259,
    "Ġobst": 6285,
    "prit": 19345,
    "Ġdistributing": 22682,
    "Ġsmite": 22563,
    "Ġunshored": 25814,
    "Ġscoresby": 10463,
    "again": 3400,
    "Ġcommunic": 5751,
    "Ġstochastic": 3265,
    "Ġsimilarity": 3165,
    "Ġsant": 21217,
    "lances": 15387,
    "Ġenraptured": 26502,
    "ivation": 3109,
    "ivery": 17574,
    "Ġeastern": 11632,
    "Ġunharmed": 15143,
    "Ġwatches": 11084,
    "Ġshouts": 19540,
    "Ġprec": 2917,
    "arat": 9183,
    "Ġamusements": 16915,
    "Ġmetallic": 19073,
    "Ġrelent": 18776,
    "Ġmoral": 6581,
    "Ġprovince": 24192,
    "voices": 21120,
    "Ġdesist": 16242,
    "Ġrider": 24188,
    "iver": 2047,
    "Ġnod": 1888,
    "Ġpolynesian": 26027,
    "until": 6598,
    "asible": 21545,
    "Ġundulations": 19518,
    "Ġcolossal": 11461,
    "wretch": 17710,
    "skeleton": 17379,
    "encing": 21285,
    "Ġhump": 5855,
    "agatha": 21912,
    "Ġrevolutions": 23845,
    "ĠĠĠĠĠĠĠĠĠĠĠĠĠĠĠĠĠĠĠĠĠĠĠĠĠĠĠĠĠĠĠĠ": 2738,
    "work": 1823,
    "Ġchiswick": 25561,
    "Ġdisordered": 16058,
    "wh": 508,
    "bulk": 19926,
    "Ġol": 17816,
    "Ġindul": 5858,
    "odd": 21815,
    "Ġow": 8409,
    "bu": 5132,
    "Ġparlour": 12325,
    "useness": 22296,
    "Ġblameless": 19861,
    "unching": 18161,
    "joint": 24012,
    "Ġtransp": 4770,
    "fedallah": 25523,
    "Ġencapsulate": 13678,
    "Ġenormous": 5609,
    "Ġsect": 17753,
    "Ġwhelmed": 26000,
    "Ġconstables": 19070,
    "vapor": 25756,
    "compass": 9462,
    "Ġflo": 2589,
    "Ġpolite": 9885,
    "Ġbreathless": 12174,
    "Ġcyn": 13889,
    "Ġfleeting": 19329,
    "provid": 11151,
    "pertaining": 22192,
    "Ġpastures": 23422,
    "ization": 486,
    "Ġhad": 442,
    "Ġperempt": 13677,
    "Ġverdant": 15004,
    "hab": 1077,
    "continual": 20646,
    "figured": 20126,
    "flu": 9120,
    "Ġattent": 4363,
    "Ġnib": 13943,
    "Ġcompact": 2261,
    "Ġwithhold": 18118,
    "breathing": 25336,
    "Ġmotion": 4567,
    "aned": 5147,
    "reds": 12755,
    "ker": 5792,
    "Ġmustering": 18663,
    "rig": 7556,
    "Ġstroke": 6936,
    "attached": 11939,
    "accurately": 25862,
    "Ġgliding": 8564,
    "Ġeaves": 15680,
    "single": 10129,
    "Ġoct": 10161,
    "brated": 12031,
    "Ġferocious": 17422,
    "Ġsmaller": 1882,
    "Ġlocked": 6036,
    "Ġgames": 11629,
    "Ġwalker": 23312,
    "Ġinquiry": 6485,
    "Ġdrowsiness": 26447,
    "Ġliter": 8816,
    "Ġfid": 10805,
    "procure": 23398,
    "Ġcircumnavigation": 20403,
    "ractions": 11636,
    "headed": 4321,
    "Ġtut": 8774,
    "Ġfro": 3473,
    "clump": 23158,
    "Ġdivin": 13277,
    "entric": 11622,
    "Ġmutually": 23960,
    "Ġensue": 18191,
    "Ġdowry": 20688,
    "ctions": 950,
    "Ġsegmentation": 17343,
    "Ġcommunicative": 24548,
    "circuit": 24191,
    "Ġvertical": 16606,
    "Ġneedless": 19232,
    "Ġprehensile": 26536,
    "Ġtranquillize": 24756,
    "Ġrealism": 18985,
    "til": 17673,
    "Ġstrikes": 13185,
    "Ġfly": 3873,
    "handedness": 24921,
    "Ġpivot": 13926,
    "Ġcanst": 8861,
    "Ġfunction": 585,
    "declare": 25174,
    "Ġrestore": 9382,
    "umberland": 16839,
    "agrad": 2747,
    "lever": 2930,
    "Ġkick": 5838,
    "rifice": 12508,
    "luxur": 25823,
    "rimin": 2425,
    "Ġjustly": 11908,
    "unbounded": 21889,
    "Ġquiver": 16007,
    "lp": 900,
    "Ġconfl": 11139,
    "Ġdanes": 25160,
    "Ġextinguished": 10341,
    "without": 4847,
    "Ġpreventing": 882,
    "chancing": 22924,
    "Ġtraveller": 8049,
    "Ġscraggy": 24580,
    "Ġinterrupt": 4362,
    "Ġrenewing": 19813,
    "tahit": 17694,
    "anced": 1373,
    "aving": 2408,
    "Ġplace": 1652,
    "Ġanytime": 12890,
    "Ġbewit": 15732,
    "Ġirre": 7468,
    "Ġcontrari": 23350,
    "Ġhill": 5626,
    "Ġstops": 3164,
    "Ġbanners": 24859,
    "Ġheathen": 10568,
    "Ġscal": 1526,
    "_?âĢĿ": 15309,
    "immediately": 10052,
    "Ġpod": 15608,
    "Ġcount": 1814,
    "Ġconnex": 10668,
    "Ġselves": 21225,
    "Ġbreath": 4791,
    "conjectured": 25182,
    "footman": 17165,
    "whosoever": 22244,
    "Ġslides": 18941,
    "Ġfir": 17879,
    "ignified": 14492,
    "Ġcorrespondence": 10597,
    "follows": 24528,
    "Ġrespond": 11178,
    "Ġworry": 18817,
    "Ġstarted": 4153,
    "Ġswore": 10381,
    "crawling": 16960,
    "Ġrover": 18455,
    "regarded": 12012,
    "Ġdodge": 19888,
    "Ġmonotonous": 13267,
    "Ġgoat": 16010,
    "Ġwed": 7575,
    "Ġforts": 21776,
    "Ġmischief": 8544,
    "Ġbrutality": 26278,
    "sof": 17659,
    "Ġloadstone": 25817,
    "Ġunderstanding": 1802,
    "Ġdeliciousness": 24129,
    "pos": 15413,
    "Ġinherited": 25354,
    "Ġphantoms": 13490,
    "proceeded": 25191,
    "Ġtink": 9151,
    "Ġleaders": 16630,
    "ancholy": 5070,
    "glancing": 11216,
    "Ġrobes": 16244,
    "Ġbrixton": 13667,
    "_)": 9105,
    "ĠâĢľâĢĺ": 8506,
    "Ġunrecorded": 17470,
    "critters": 14778,
    "sw": 4741,
    "carb": 20812,
    "Ġwonderful": 4564,
    "Ġspaniard": 20366,
    "Ġcul": 17824,
    "trip": 21094,
    "Ġvolcano": 24150,
    "Ġspeaker": 19150,
    "Ġhagger": 21494,
    "Ġjo": 2611,
    "Ġcatastrop": 3348,
    "lin": 9606,
    "cer": 6645,
    "hastily": 19705,
    "Ġgrampus": 21997,
    "seals": 21822,
    "lantern": 17431,
    "Ġteeth": 4170,
    "ution": 4352,
    "Ġbelow": 4065,
    "Ġconsecrate": 26491,
    "Ġstalked": 20432,
    "Ġconfine": 14510,
    "Ġgregarious": 18964,
    "Ġweigh": 10896,
    "Ġpenalizing": 13096,
    "Ġfre": 1569,
    "Ġspace": 1518,
    "Ġchrist": 4076,
    "jephro": 26394,
    "Ġsplinter": 23749,
    "Ġrelapses": 26280,
    "weakness": 16128,
    "Ġorlop": 22101,
    "ella": 12753,
    "?âĢĻ": 2641,
    "Ġgrope": 17997,
    "Ġsplendour": 20227,
    "ribes": 23367,
    "Ġweld": 8112,
    "proachable": 23399,
    "Ġredness": 19314,
    "Ġtrait": 23077,
    "Ġhurts": 19113,
    "Ġneedn": 19231,
    "Ġknows": 4163,
    "Ġpunctual": 17140,
    "atches": 13849,
    "Ġunless": 4093,
    "azing": 7705,
    "tornadoes": 26154,
    "began": 6427,
    "dire": 15339,
    "Ġaven": 10761,
    "Ġarrives": 23609,
    "humorously": 24023,
    "Ġriv": 10748,
    "settled": 10509,
    "paddington": 20481,
    "Ġdiscrimin": 2547,
    "disc": 4729,
    "addressed": 13389,
    "Ġsow": 17751,
    "singular": 12193,
    "Ġpump": 12626,
    "Ġsutherland": 10151,
    "meat": 18679,
    "Ġdownstream": 3776,
    "active": 16107,
    "Ġinqu": 2963,
    "oled": 17621,
    "Ġbroken": 3448,
    "Ġvess": 3296,
    "Ġignoble": 19402,
    "Ġaltitude": 26204,
    "Ġserpentine": 11362,
    "ie": 728,
    "fic": 20854,
    "smith": 5669,
    "Ġcircumspection": 25885,
    "Ġhomely": 25220,
    "Ġleaves": 5021,
    "pots": 11516,
    "orum": 12595,
    "hetic": 12208,
    "rudent": 6483,
    "Ġprophe": 13083,
    "Ġbamboo": 17440,
    "Ġresid": 22542,
    "Ġpromptly": 23820,
    "Ġshuddering": 9054,
    "simple": 13456,
    "Ġsupport": 6730,
    "Ġspurred": 22142,
    "balance": 12011,
    "english": 2775,
    "Ġclock": 9536,
    "Ġconvivial": 16550,
    "Ġpartner": 6716,
    "Ġending": 18924,
    "Ġplaning": 22604,
    "Ġsticks": 14934,
    "Ġgirdled": 19161,
    "concerns": 24072,
    "Ġsuffering": 8949,
    "ĠâĢĺ_": 11119,
    "unfearing": 21896,
    "Ġcomplete": 4385,
    "Ġsultanism": 25889,
    "Ġthemselves": 3251,
    "Ġcau": 13884,
    "ckinridge": 11723,
    "gentle": 5357,
    "month": 6464,
    "Ġtracks": 18892,
    "other": 1312,
    "Ġwhispers": 14703,
    "ulates": 14058,
    "Ġbulb": 23858,
    "respectable": 19849,
    "erer": 8735,
    "Ġthither": 6821,
    "convinced": 10625,
    "Ġguise": 14435,
    "Ġmaled": 21317,
    "forming": 15922,
    "Ġbrazier": 26322,
    "Ġcommand": 3322,
    "sa": 8760,
    "Ġeffort": 8203,
    "Ġprior": 11320,
    "oting": 2745,
    "Ġmaw": 15544,
    "roll": 9199,
    "Ġafforded": 8029,
    "Ġconcisely": 19045,
    "Ġappeals": 16320,
    "Ġauthors": 10416,
    "ividual": 5463,
    "Ġshyness": 20309,
    "talk": 6659,
    "dition": 15342,
    "squeezing": 25914,
    "addressing": 24401,
    "neighbourhood": 10028,
    "Ġintrospect": 15832,
    "Ġchamber": 6215,
    "atiate": 12553,
    "aggra": 21910,
    "may": 3682,
    "conveyed": 20524,
    "Ġthickness": 13281,
    "Ġdisappeared": 5645,
    "Ġvisibly": 22865,
    "Ġprizes": 13078,
    "Ġawaiting": 11392,
    "inders": 15984,
    "reck": 9639,
    "Ġcalls": 6746,
    "governed": 25406,
    "»": 124,
    "Ġirregularly": 25324,
    "Ġer": 8105,
    "apologizing": 26546,
    "Ġwharf": 9562,
    "Ġinto": 650,
    "dragged": 16610,
    "feather": 16047,
    "Ġdivide": 12115,
    "covenant": 23564,
    "Ġnote": 4266,
    "Ġprodig": 6029,
    "heeded": 13837,
    "Ġunintermitted": 26221,
    "manif": 14376,
    "Ġ73": 24263,
    "Ġsprain": 18306,
    "Ġflit": 23011,
    "Ġdepl": 14049,
    "Ġspires": 11734,
    "Ġadmin": 23556,
    "within": 6732,
    "necessities": 24308,
    "ames": 2952,
    "Ġraised": 4661,
    "Ġyounge": 16291,
    "along": 6014,
    "misrepresented": 24214,
    "Ġcautiously": 16979,
    "skelter": 24490,
    "Ġexpanded": 14293,
    "Ġafter": 870,
    "Ġoffer": 4844,
    "Ġwear": 6032,
    "jackets": 24896,
    "create": 24162,
    "shattered": 22463,
    "Ġoutputs": 2885,
    "Ġsequentially": 4914,
    "Ġstumped": 24945,
    "ast": 473,
    "Ġstreaked": 19115,
    "Ġbrooded": 23107,
    "aming": 5829,
    "formal": 14170,
    "Ġconject": 6028,
    "stays": 15692,
    "Ġmuff": 8114,
    "Ġalleghan": 25796,
    "Ġwept": 7184,
    "Ġbit": 2962,
    "pennies": 26287,
    "Ġtreat": 3175,
    "Ġbridges": 24683,
    "Ġwe": 388,
    "Ġflourished": 15129,
    "Ġmister": 22757,
    "Ġmiser": 18704,
    "advent": 10223,
    "Ġstre": 2106,
    "ince": 4342,
    "ĠâĢĺ": 1631,
    "moments": 19415,
    "Ġ115": 24439,
    "fresh": 13396,
    "Ġph": 1548,
    "Ġfiner": 13058,
    "anity": 9657,
    "dataset": 23243,
    "Ġimpact": 10296,
    "swing": 15432,
    "Ġport": 3310,
    "pure": 17628,
    "hedge": 22502,
    "capable": 13705,
    "cottage": 9572,
    "Ġcontrolled": 23252,
    "Ġblan": 18818,
    "gu": 3960,
    "Ġlady": 1583,
    "lue": 8511,
    "Ġprospect": 4706,
    "angles": 18291,
    "Ġexplicit": 3594,
    "Ġstrung": 22621,
    "icle": 10836,
    "Ġshop": 9255,
    "Ġfailure": 13319,
    "proposal": 18762,
    "fugitive": 26132,
    "Ġcoat": 4555,
    "ist": 450,
    "Ġdeformity": 11679,
    "Ġcovering": 13260,
    "Ġerie": 20057,
    "ler": 3494,
    "Ġdot": 4821,
    "insufferable": 21195,
    "power": 7138,
    "forgotten": 12420,
    "occupations": 24967,
    "tribute": 21091,
    "Ġconcentrate": 25066,
    "Ġsanctified": 25883,
    "gradu": 18617,
    "Ġwrecked": 9969,
    "Ġamusement": 8056,
    "stained": 21652,
    "Ġmizzen": 20292,
    "itime": 15552,
    "Ġhighway": 14349,
    "Ġzer": 1096,
    "Ġproceedings": 9910,
    "Ġsacrificed": 17425,
    "M": 49,
    "Ġneedles": 11186,
    "Ġamours": 22485,
    "Ġsuspense": 9421,
    "Ġcocoanuts": 26364,
    "Ġindignity": 18834,
    "aan": 20766,
    "Ġdetailed": 12829,
    "ision": 1853,
    "ham": 1698,
    "mouth": 9133,
    "Ġbring": 3324,
    "Ġinvestment": 24332,
    "Ġimperilled": 19581,
    "Ġ80": 24456,
    "sofa": 26147,
    "Ġexclamation": 8702,
    "Ġcorrespondent": 19825,
    "etition": 7382,
    "Ġmouldings": 24736,
    "Ġrecognition": 3041,
    "pict": 8386,
    "cano": 18847,
    "wheel": 22871,
    "stochastic": 3775,
    "Ġval": 974,
    "Ġplease": 4723,
    "Ġremotest": 10055,
    "agreeable": 5830,
    "Ġeaten": 14848,
    "neys": 23584,
    "Ġimpose": 22380,
    "ituted": 13876,
    "Ġsuspic": 4472,
    "ishop": 9745,
    "Ġmund": 21321,
    "uish": 5431,
    "N": 50,
    "Ġcategories": 4479,
    "widely": 25344,
    "Ġ1807": 26084,
    "Ġostr": 21328,
    "Ġboys": 5194,
    "Ġcountryside": 23598,
    "Ġregal": 16076,
    "Ġones": 3017,
    "poster": 11058,
    "Ġsurpass": 13587,
    "Ġexpedition": 10636,
    "sentiment": 12919,
    "Ġmethinks": 10393,
    "Ġfrightens": 24033,
    "superstitious": 17283,
    "Ġmillar": 13864,
    "readers": 23851,
    "Ġprosecuted": 25294,
    "Ġfinish": 7949,
    "Ġhey": 11644,
    "Ġcounteracted": 19864,
    "ract": 959,
    "Ġcomb": 1087,
    "Ġtransport": 11280,
    "thrusting": 20262,
    "conclusion": 25672,
    "Ġafghan": 22632,
    "Ġfiendish": 13332,
    "imaux": 21715,
    "Ġtinted": 13825,
    "ahit": 9384,
    "vity": 7815,
    "Ġinclud": 1509,
    "pitch": 13302,
    "¯": 112,
    "Ġscrawled": 24581,
    "Ġupward": 9724,
    "bing": 7792,
    "Ġdiscoveries": 13363,
    "ension": 6572,
    "shunned": 22469,
    "waistcoat": 17364,
    "ident": 3380,
    "Ġcreditors": 20133,
    "Ġwearisome": 19798,
    "gaff": 20884,
    "ux": 7813,
    "Ġnarrower": 24354,
    "felix": 10656,
    "Ġproprietor": 12377,
    "plate": 18200,
    "remarks": 23191,
    "magistrate": 19865,
    "iancy": 13018,
    "Ġquick": 2583,
    "disgu": 19157,
    "Ġmisunderstood": 18706,
    "Ġsoften": 23128,
    "Ġshr": 4228,
    "ian": 1237,
    "Ġwound": 4529,
    "japan": 15378,
    "owders": 18050,
    "Ġdaugh": 2294,
    "Ġprob": 969,
    "Ġneural": 621,
    "Ġevalu": 2988,
    "Ġexceptions": 13234,
    "Ġbat": 10797,
    "Ġoccur": 1082,
    "beheaded": 22496,
    "bone": 5612,
    "================================================================": 9993,
    "Ġpads": 21476,
    "Ġyawn": 7610,
    "orange": 21403,
    "Ġconstantly": 11977,
    "Ġindividuality": 14912,
    "Ġsan": 7824,
    "Ġretribution": 16285,
    "Ġspades": 12801,
    "Ġgardiner": 3237,
    "Ġexperiment": 11922,
    "Ġskilfully": 20527,
    "Ġillustrations": 17109,
    "alleled": 14432,
    "insurance": 18890,
    "Ġpant": 10819,
    "setting": 13289,
    "Ġindebted": 8711,
    "ignor": 8964,
    "advantage": 8662,
    "Ġropes": 10750,
    "barbar": 20241,
    "Ġunwe": 15842,
    "Ġalternate": 19989,
    "iform": 2201,
    "poor": 6062,
    "Ġreposing": 23362,
    "Ġyouth": 4264,
    "source": 11528,
    "Ġtreachery": 15105,
    "Ġuninjured": 22060,
    "Ġestim": 3349,
    "Ġpoison": 7219,
    "octial": 20008,
    "sulphur": 25910,
    "Ġ20": 8617,
    "countenances": 24154,
    "laugh": 10111,
    "Ġcouples": 16854,
    "Ġabsolutely": 4858,
    "Ġdecks": 6900,
    "Ġorphan": 12387,
    "oot": 13768,
    "turner": 19544,
    "Ġdescribing": 19256,
    "ott": 1871,
    "Ġmerryweather": 9525,
    "hurt": 19880,
    "ibly": 2993,
    "Ġperilously": 24507,
    "Ġclut": 7642,
    "amuse": 14055,
    "Ġisle": 8837,
    "Ġfiend": 4414,
    "Ġcracking": 14576,
    "Ġwan": 15531,
    "irwin": 8471,
    "showing": 22465,
    "Ġtrains": 10949,
    "tenham": 16325,
    "Ġtwenty": 3953,
    "Ġprovoking": 16745,
    "Ġreigning": 15705,
    "move": 11858,
    "Ġ156": 20173,
    "ises": 3657,
    "nes": 6961,
    "Ġcomplexity": 1691,
    "yth": 981,
    "Ġequally": 5258,
    "Ġentailed": 11029,
    "Ġabundance": 17158,
    "Ġinflict": 15003,
    "Ġboundless": 10498,
    "Ġbrightened": 23831,
    "Ġopium": 8997,
    "Ġperceptible": 18452,
    "steel": 8299,
    "Ġpul": 2039,
    "Ġspecially": 12002,
    "Ġdebar": 24274,
    "Ġcoachman": 15002,
    "wrath": 23758,
    "Ġhesitation": 13445,
    "Ġcalculate": 13268,
    "Ġcanals": 22168,
    "batt": 20780,
    "Ġwalks": 8969,
    "Ġlacepede": 20499,
    "Ġtreating": 4286,
    "Ġartic": 5315,
    "Ġdisgra": 18550,
    "lads": 20957,
    "Ġ101": 24409,
    "Ġcommence": 6169,
    "Ġconsec": 21809,
    "Ġmeta": 3388,
    "Ġniag": 21533,
    "ich": 470,
    "Ġadmon": 15872,
    "quadrille": 20598,
    "Ġrazors": 22661,
    "Ġsize": 1215,
    "Ġdesperately": 24657,
    "ancies": 11587,
    "Ġce": 3029,
    "ĠĠĠĠĠĠĠĠĠĠĠĠĠĠĠĠĠĠĠĠĠĠĠĠĠĠĠĠĠĠĠĠĠĠĠĠĠĠĠĠĠĠĠĠĠĠĠ": 16757,
    "Ġfortnight": 6202,
    "thickness": 25368,
    "doors": 19096,
    "ribly": 8255,
    "Ġapiece": 16815,
    "Ġwhoa": 22424,
    "Ġsharp": 2416,
    "Ġsheepfold": 25467,
    "Ġinjured": 9042,
    "Ġruined": 12959,
    "Ġmagnified": 23206,
    "Ġdes": 1250,
    "bourn": 3302,
    "hot": 8084,
    "Ġaccuse": 14220,
    "Ġclerval": 4654,
    "Ġ2": 2927,
    "Ġpopulation": 16829,
    "Ġsweetest": 13252,
    "fug": 17545,
    "Ġdelicacy": 6342,
    "Ġriver": 5411,
    "rippa": 11343,
    "Ġbohemia": 10652,
    "biting": 20783,
    "Ġadds": 1806,
    "Ġduchess": 4799,
    "ashed": 3786,
    "Ġpaternal": 16370,
    "Ġemerging": 24613,
    "fur": 6357,
    "Ġmason": 10160,
    "Ġgoverness": 8605,
    "orts": 2556,
    "Ġscrut": 15949,
    "Ġlectures": 17181,
    "Ġnind": 17952,
    "Ġspeeches": 22654,
    "Ġcomfits": 21863,
    "Ġoaks": 16935,
    "vill": 10737,
    "deepest": 22830,
    "seemingly": 25363,
    "Ġall": 421,
    "Ġcarefully": 6306,
    "Ġblundering": 26285,
    "Ġrepair": 11983,
    "Ġdragg": 23215,
    "derer": 4601,
    "Ġwager": 17794,
    "imper": 14000,
    "Ġregular": 930,
    "Ġproportion": 7281,
    "tied": 21073,
    "Ġlunacy": 20031,
    "Ġare": 527,
    "Ġinevitably": 17233,
    "despairing": 25077,
    "Ġprevention": 16095,
    "Ġprophets": 20453,
    "Ġends": 8238,
    "Ġoutrage": 15962,
    "inkling": 16094,
    "beam": 16041,
    "Ġparm": 15881,
    "Ġsparsity": 4210,
    "Ġwedding": 4816,
    "Ġdavis": 25953,
    "Ġreckoned": 24743,
    "Ġdriving": 3621,
    "reproach": 15190,
    "Ġsolemn": 4103,
    "sip": 10727,
    "Ġpolluted": 25594,
    "bask": 20778,
    "Ġweltering": 19588,
    "Ġconfusion": 7273,
    "solely": 19819,
    "Ġcontingency": 26246,
    "play": 5099,
    "Ġfamine": 16331,
    "itt": 572,
    "Ġheeded": 13407,
    "esc": 618,
    "desk": 23811,
    "Ġtook": 1854,
    "Ġsatisfaction": 5667,
    "Ġpasses": 2679,
    "experienced": 15125,
    "Ġassent": 12738,
    "Ġfriendship": 7246,
    "Ġdispleased": 18556,
    "Ġtransformed": 22616,
    "Ġindelicacy": 25696,
    "Ġoutward": 7904,
    "Ġhap": 18196,
    "sooner": 14780,
    "bowsprit": 16855,
    "gon": 17554,
    "Ġpaul": 12067,
    "Ġmilk": 6486,
    "emph": 21930,
    "Ġsleeve": 20143,
    "Ġthoroughfares": 26096,
    "Ġwisest": 11235,
    "Ġactor": 16052,
    "Ġannouncement": 14836,
    "calmly": 20142,
    "Ġboyhood": 23757,
    "Ġpacific": 5153,
    "Ġbelie": 14409,
    "Ġwhelm": 25999,
    "================================": 5671,
    "Ġsurging": 19135,
    "sartain": 25623,
    "Ġinconven": 7587,
    "athies": 22705,
    "**": 4686,
    "Ġstout": 6026,
    "fowl": 17551,
    "Ġtener": 21166,
    "Ġmode": 8500,
    "Ġcum": 21345,
    "bern": 20777,
    "Ġdisturbance": 15015,
    "Ġannual": 14835,
    "Ġsm": 704,
    "iors": 9128,
    "deemed": 18316,
    "Ġnorms": 3669,
    "angular": 11726,
    "Ġinexperienced": 26101,
    "Ġbrows": 13304,
    "Ġprofession": 6209,
    "Ġdeuteronomy": 15764,
    "Ġunderneath": 16341,
    "Ġwounds": 17792,
    "avoiding": 25237,
    "Ġemblematical": 25789,
    "Ġunnear": 22032,
    "currents": 23848,
    "Ġlocker": 16913,
    "Ġsavann": 14686,
    "ufact": 10735,
    "Ġstomach": 11656,
    "Ġattitudes": 16100,
    "jewel": 20349,
    "brad": 20782,
    "Ġcommerce": 11017,
    "Ġaccording": 5508,
    "Ġacknowled": 6352,
    "Ġgouldings": 26189,
    "Ġdepicted": 14287,
    "Ġtrotting": 19979,
    "doubtless": 17004,
    "fab": 13719,
    "Ġgripping": 26188,
    "discoveries": 25386,
    "lighter": 20961,
    "northern": 23666,
    "Ġhelpless": 8302,
    "Ġstove": 6735,
    "Ġincarnation": 25574,
    "desol": 13222,
    "Ġpreparation": 13532,
    "Ġconverse": 11848,
    "Ġfalse": 4346,
    "nigh": 13766,
    "Ġpasture": 14544,
    "Ġmince": 22834,
    "Ġgarments": 15197,
    "Ġauthor": 4378,
    "ilted": 21726,
    "Ġsnug": 8280,
    "Ġruth": 14097,
    "Ġcounterpart": 24720,
    "Ġfriendless": 23029,
    "Ġrally": 21975,
    "Ġfulfilled": 11364,
    "immedi": 8452,
    "asy": 5296,
    "Ġhazarded": 25655,
    "request": 21244,
    "path": 10121,
    "lob": 22511,
    "Ġadler": 8174,
    "Ġtones": 8401,
    "Ġgramm": 8171,
    "ł": 259,
    "Ġenlar": 15804,
    "omed": 13982,
    "Ġplunge": 13447,
    "Ġsurmises": 17056,
    "Ġsuccor": 25663,
    "Ġbravest": 23844,
    "vour": 17701,
    "lar": 4485,
    "urred": 8451,
    "oqu": 7555,
    "vit": 13804,
    "Ġportents": 14681,
    "outh": 2687,
    "Ġpharaoh": 26587,
    "Ġring": 4454,
    "Ġtangle": 25761,
    "erity": 21270,
    "Ġexquisite": 12386,
    "goose": 19103,
    "wedged": 24559,
    "ertion": 12043,
    "Ġhalf": 1667,
    "raham": 18016,
    "Ġdivulged": 16651,
    "barb": 10083,
    "tree": 11536,
    "spell": 22730,
    "Ġknew": 2053,
    "Ġpeev": 22696,
    "mer": 2832,
    "Ġbe": 336,
    "Ġif": 696,
    "rop": 540,
    "appear": 13202,
    "Ġdistribut": 843,
    "Ġreflection": 6441,
    "Ġglow": 7171,
    "Ġthen": 664,
    "Ġbedside": 19125,
    "Ġconstrued": 26302,
    "fly": 13717,
    "Ġimpregnable": 26024,
    "ect": 381,
    "stool": 23822,
    "schoolmaster": 15165,
    "fairly": 17222,
    "rised": 10126,
    "Ġconsistence": 23357,
    "time": 3144,
    "Ġfle": 3091,
    "Ġgabriel": 7596,
    "Ġfact": 1726,
    "Ġgrapple": 25812,
    "Ġbaked": 21389,
    "main": 8088,
    "Ġcanvas": 7784,
    "Ġdazzling": 15215,
    "ishly": 14202,
    "bott": 9109,
    "grey": 14915,
    "edily": 17946,
    "opportunity": 12279,
    "Ġstepfather": 7221,
    "Ġbenefited": 19401,
    "waters": 11335,
    "Ġspy": 22127,
    "Ġunfor": 15843,
    "Ġgin": 13964,
    "Ġbruited": 25774,
    "Ġsettlement": 19839,
    "ms": 541,
    "diff": 9116,
    "inary": 3274,
    "Ġmock": 3694,
    "bunger": 20405,
    "Ġpale": 4533,
    "Ġbonds": 17871,
    "Ġbrotherhood": 23672,
    "kept": 11721,
    "Ġconsider": 2570,
    "Ġju": 10289,
    "Ġprinciples": 10014,
    "Ġbapt": 13899,
    "Ġphilosophical": 26336,
    "ĠcÃ¦": 15559,
    "Ġsuffice": 18871,
    "Ġvain": 3633,
    "Ġheighten": 19532,
    "Ġkeels": 11063,
    "Ġsigned": 11179,
    "Ġconstru": 19069,
    "Ġdiscredit": 22783,
    "insula": 23069,
    "bedded": 12447,
    "safe": 10057,
    "perquisites": 26533,
    "Ġwisdom": 11236,
    "dying": 15344,
    "ruct": 685,
    "nor": 2741,
    "Ġay": 15494,
    "discrimin": 19611,
    "Ġwhittling": 20702,
    "supposed": 13320,
    "metals": 24765,
    "Ġskirting": 22799,
    "antled": 18285,
    "battering": 20788,
    "Ġtyrant": 24766,
    "Ġbeheading": 21758,
    "Ġbuoyancy": 20045,
    "._": 3219,
    "Ġproflig": 23569,
    "Ġanalogy": 25640,
    "driven": 19774,
    "Ġfrogs": 23927,
    "Ġcapable": 5054,
    "Ġbubblingly": 25633,
    "bringing": 17169,
    "Ġsugg": 4501,
    "haz": 17566,
    "warnings": 20354,
    "Ġmodels": 759,
    "Ġdepressed": 10885,
    "Ġcasual": 11411,
    "Ġboldness": 24428,
    "Ġwhisky": 23937,
    "ley": 1815,
    "Ġrounds": 18887,
    "Ġvehic": 8936,
    "luded": 4232,
    "mut": 17597,
    "Ġirrevoc": 15041,
    "Ġdelicious": 14796,
    "mits": 13759,
    "Ġbumping": 25281,
    "Ġhurling": 19112,
    "narr": 12501,
    "rief": 6204,
    "riot": 18186,
    "Ġwarring": 16867,
    "why": 2828,
    "Ġrecovering": 11866,
    "Ġinaudible": 21502,
    "Ġseen": 1367,
    "Ġconstantinople": 19840,
    "ermost": 7430,
    "Ġexerted": 15759,
    "Ġside": 1386,
    "fanning": 20868,
    "Ġmann": 18417,
    "Ġpreaching": 15930,
    "erting": 17779,
    "_,âĢĿ": 6220,
    "Ġunav": 18241,
    "Ġfainted": 8796,
    "icked": 10335,
    "Ġuninter": 18247,
    "reflections": 24734,
    "Ġhorrify": 23821,
    "gard": 7339,
    "Ġfetch": 7770,
    "Ġreflect": 6576,
    "Ġmouth": 3179,
    "Ġperched": 10302,
    "**:": 4737,
    "Ġmountainous": 16601,
    "Ġluckily": 16800,
    "folding": 24928,
    "Ġseparately": 13306,
    "Ġdawned": 14997,
    "Ġpioneer": 17919,
    "Ġfilters": 3930,
    "Ġast": 2959,
    "Ġplants": 22601,
    "beautiful": 10651,
    "ignorantly": 25190,
    "blood": 7780,
    "Ġsmallest": 6431,
    "flakes": 23971,
    "Ġplacing": 8904,
    "ications": 4447,
    "Ġtwinkling": 12328,
    "suspect": 9543,
    "prepared": 13594,
    "vanity": 24977,
    "Ġch": 512,
    "Ġdisquis": 22531,
    "almost": 4943,
    "q": 85,
    "Ġholiest": 18814,
    "Ġprophecy": 25706,
    "Ġrejoinder": 24598,
    "gracious": 11835,
    "Ġindulging": 16906,
    "ostent": 16848,
    "Ġgrimes": 11036,
    "Ġaccompaniments": 24482,
    "Ġpalaces": 24095,
    "particularly": 8340,
    "Ġasking": 5651,
    "Ġenergetic": 15201,
    "thinking": 9017,
    "softened": 20413,
    "Ġdespondence": 25870,
    "cross": 3580,
    "Ġleast": 2063,
    "Ġsincerely": 7963,
    "Ġdisplay": 6429,
    "Ġneskye": 21534,
    "Ġportions": 19372,
    "Ġdistance": 3484,
    "Ġinterment": 22582,
    "Ġdisposing": 19378,
    "Ġoccasionally": 5590,
    "Ġmoreover": 6165,
    "Ġnorthward": 13326,
    "torn": 17684,
    "177": 20754,
    "Ġphilist": 16603,
    "Ġpitied": 14694,
    "Ġnotion": 7882,
    "Ġstruct": 2784,
    "alleging": 23028,
    "Ġinconsist": 17938,
    "Ġapprehen": 16831,
    "unavoid": 14065,
    "drovand": 24759,
    "Ġeucl": 24708,
    "peril": 18343,
    "Ġheaviest": 23326,
    "gest": 5426,
    "Ġtrad": 9831,
    "Ġcontrive": 16014,
    "Ġpropontis": 17468,
    "Ġwheel": 9721,
    "Ġstands": 5259,
    "adow": 18090,
    "Ġane": 9184,
    "Ġknowest": 12868,
    "outre": 18321,
    "Ġevermore": 18813,
    "transition": 24513,
    "Ġaudacious": 13464,
    "Ġ103": 24411,
    "Ġisinglass": 21806,
    "nt": 920,
    "Ġnautical": 17389,
    "Ġassistant": 7298,
    "Ġigniting": 25073,
    "oregressive": 3425,
    "precious": 12077,
    "ame": 645,
    "Ġcannot": 1664,
    "Ġleaks": 16447,
    "utional": 17986,
    "ences": 1264,
    "Ġvictim": 6099,
    "div": 8076,
    "Ġroyal": 5602,
    "oms": 4594,
    "lanterns": 17432,
    "Ġunpardonable": 22066,
    "Ġtusked": 25427,
    "apply": 18760,
    "Ã¦": 4340,
    "stoke": 18022,
    "Ġbeg": 1282,
    "Ġacting": 10993,
    "aunted": 20772,
    "ļ": 253,
    "sl": 5794,
    "spee": 9320,
    "destiny": 16701,
    "ording": 9767,
    "gall": 6361,
    "Ġaffront": 18790,
    "?âĢĿ": 699,
    "Ġwondering": 7971,
    "exercise": 17462,
    "Ġlothario": 26186,
    "Ġgloves": 8578,
    "Ġhellaswag": 24343,
    "Ġnorth": 4322,
    "Ġmanor": 14199,
    "iftings": 23224,
    "cing": 1013,
    "Ġpreface": 18368,
    "anting": 6413,
    "Ġeffemin": 18528,
    "Ġtort": 5903,
    "meantime": 9095,
    "Ġperu": 14225,
    "will": 1966,
    "ignorance": 17164,
    "Ġindignant": 12244,
    "ceed": 1075,
    "either": 6792,
    "Ġplayful": 19239,
    "epilogue": 22104,
    "aping": 8194,
    "ourers": 21452,
    "arpening": 21446,
    "hill": 15366,
    "Ġsituations": 10494,
    "Ġthunders": 15642,
    "unteered": 26497,
    "Ġagonising": 25374,
    "frost": 15110,
    "Ġupper": 5090,
    "russian": 22183,
    "Ġchasing": 11758,
    "Ġlaid": 3945,
    "Ġbark": 10800,
    "Ġunlike": 7006,
    "activation": 3230,
    "ackled": 22425,
    "Ġrecollection": 6623,
    "Ġhug": 6980,
    "Ġdaniel": 15115,
    "osed": 1959,
    "cutting": 23786,
    "Ġparasol": 22125,
    "honey": 20907,
    "Ġbewil": 11660,
    "Ġbalmy": 22908,
    "eenth": 12465,
    "Ġmans": 15540,
    "Ġenglishman": 11232,
    "Ġprevail": 13446,
    "Ġenormity": 19698,
    "Ġillinois": 19138,
    "eration": 10774,
    "strongly": 24685,
    "Ġfr": 1692,
    "Ġexp": 779,
    "benevolent": 15237,
    "Ġfeeds": 16436,
    "Ġskull": 6290,
    "Ġemails": 13111,
    "Ġgods": 6455,
    "Ġnarrated": 14874,
    "Ġunsc": 22018,
    "Ġunlock": 18244,
    "expectation": 14859,
    "Ġtester": 21175,
    "Ġquee": 1977,
    "irons": 10241,
    "yarn": 15460,
    "Ġwight": 12558,
    "Ġpumping": 25644,
    "Ġ121": 24466,
    "Ġfunctional": 3048,
    "Ġbachelors": 24861,
    "ĠdÃ¦mon": 7844,
    "etime": 12664,
    "Ġcalam": 13039,
    "comfortable": 7320,
    "Ġinference": 9674,
    "Ġfrozen": 9016,
    "Ġjingling": 26018,
    "Ġlinguistic": 12429,
    "abulary": 4800,
    "Ġselected": 9714,
    "Ġintrospective": 20603,
    "success": 6712,
    "tumultuous": 20402,
    "Ġcheering": 11135,
    "ompl": 4537,
    "vain": 15450,
    "orrow": 2913,
    "Ġforeboding": 20387,
    "chains": 9688,
    "conjectures": 25181,
    "persuaded": 15077,
    "Ġhieroglyphic": 25588,
    "Ġconsumm": 15158,
    "Ġdeduced": 12212,
    "Ġcaroline": 7255,
    "Ġlucky": 7759,
    "Ġtemples": 18639,
    "madness": 14885,
    "Ġsuspended": 5665,
    "Ġchristian": 6480,
    "ression": 3407,
    "Ġchoke": 22253,
    "Ġbow": 3062,
    "Ġcompute": 2904,
    "uries": 6149,
    "Ġfam": 1582,
    "Ġexceptionable": 25504,
    "Ġpurplish": 19142,
    "ugging": 23293,
    "lect": 1221,
    "Ġturnpike": 23032,
    "Ġbrimstone": 25687,
    "perse": 15904,
    "Ġinterference": 8899,
    "Ġmarine": 23036,
    "Ġeleventh": 23370,
    "Ġsporty": 19892,
    "Ġrogue": 22408,
    "Ġc": 277,
    "Ġpredecessor": 26255,
    "Ġpoetry": 15084,
    "pl": 401,
    "Ġtheorem": 2328,
    "istan": 22112,
    "pierced": 26142,
    "assuming": 22314,
    "rance": 5995,
    "ire": 492,
    "Ġshutting": 14762,
    "Ġevenly": 4133,
    "tish": 17679,
    "Ġmiseries": 10349,
    "was": 1421,
    "irene": 15918,
    "à": 161,
    "Ġgardiners": 11159,
    "Ġannihil": 10177,
    "Ġexempt": 21832,
    "Ġtransparen": 10544,
    "Ġsqualls": 17022,
    "ortion": 11760,
    "Ġexcurs": 23316,
    "Ġ125": 24470,
    "ondescript": 22919,
    "allah": 5839,
    "unk": 4540,
    "Ġadding": 2405,
    "attempts": 17193,
    "Ġreporting": 24658,
    "dz": 4739,
    "Ġbran": 5252,
    "Ġargosy": 24276,
    "dra": 3415,
    "ived": 1530,
    "nelson": 25621,
    "Ġguarded": 9829,
    "Ġkno": 5242,
    "Ġcontrived": 10306,
    "hence": 16627,
    "Ġpunish": 12164,
    "city": 15330,
    "Ġjustinian": 22977,
    "Ġinjunctions": 24272,
    "Ġdre": 1742,
    "Ġcontin": 5382,
    "oard": 4809,
    "ieth": 10706,
    "Ġ31": 12135,
    "scar": 9819,
    "Ġdeem": 18139,
    "command": 6578,
    "idents": 6152,
    "Ġreinforcement": 3590,
    "necessary": 5883,
    "Ġconfines": 23307,
    "poled": 22911,
    "Ġdarling": 12609,
    "Ġclimes": 12849,
    "Ġleague": 6540,
    "omas": 12681,
    "magnet": 14973,
    "Ġimmemorial": 10513,
    "Ġnursery": 19753,
    "Ġpract": 1743,
    "Ġflorida": 20661,
    "mansion": 20985,
    "urious": 21706,
    "Ġvillains": 14752,
    "Ġplaintiffs": 13613,
    "Ġdates": 6695,
    "threat": 10902,
    "whales": 5187,
    "Ġyielded": 14875,
    "Ġhosts": 19942,
    "Ġendless": 7055,
    "Ġfelix": 4849,
    "Ġenabled": 9299,
    "Ġcommunicating": 16891,
    "lu": 596,
    "Ġgrind": 18734,
    "blue": 13697,
    "ential": 826,
    "Ġlonger": 3361,
    "Ġriots": 23895,
    "Ġheroines": 19754,
    "Ġgettest": 23234,
    "Ġdoings": 18376,
    "Ġfeared": 5932,
    "Ġrelates": 12986,
    "Ġjet": 5309,
    "rarely": 21637,
    "wick": 5363,
    "achment": 5464,
    "seaman": 25458,
    "Ġdried": 7367,
    "order": 1958,
    "nlp": 8754,
    "Ġling": 7377,
    "anelles": 26436,
    "onness": 21257,
    "âĢĻâĢĶ": 12741,
    "msgate": 18413,
    "readily": 19365,
    "rock": 15645,
    "Ġgenerally": 4161,
    "adopt": 25545,
    "Ġinvade": 19144,
    "scythes": 26404,
    "Ġobservable": 25129,
    "Ġivory": 4478,
    "cro": 13700,
    "shabbily": 26248,
    "Ġreassure": 21675,
    "Ġidolator": 20001,
    "hogs": 20085,
    "Ġhate": 5445,
    "sch": 21053,
    "Ġbritish": 11339,
    "bulkington": 19927,
    "Ġstrictly": 12289,
    "Ġquies": 18465,
    "Ġmischie": 22762,
    "rints": 12507,
    "Ġshiver": 12772,
    "cooper": 19191,
    "lutions": 20952,
    "elze": 21576,
    "Ġinequalities": 26455,
    "Ġwarb": 17789,
    "Ġallegor": 25546,
    "Ġgenerative": 5644,
    "Ġimmutable": 17361,
    "Ġbehooves": 20735,
    "vert": 15719,
    "Ġimbu": 15889,
    "Ġslacked": 25189,
    "@": 36,
    "unalterable": 21890,
    "inked": 12918,
    "fingers": 17373,
    "mish": 17600,
    "entering": 17979,
    "tram": 19646,
    "interval": 7991,
    "Ġmanipulation": 10661,
    "Ġcomparison": 7101,
    "grampus": 18618,
    "Ġawful": 6201,
    "Ġpovelson": 26554,
    "friendship": 24052,
    "Ġ1": 1016,
    "Ġteased": 18798,
    "Ġagrippa": 11811,
    "Ġfanatic": 23393,
    "izar": 14046,
    "Ġchaise": 9079,
    "swell": 17665,
    "Ġchancery": 20718,
    "Ġczar": 12579,
    "Ġresolute": 19247,
    "chorus": 19814,
    "Ġattributed": 11837,
    "rived": 5373,
    "ambition": 13415,
    "run": 10723,
    "Ġfoolscap": 24161,
    "rable": 11635,
    "lotts": 23828,
    "kov": 17588,
    "Ġcalendar": 18879,
    "spiracle": 22734,
    "glance": 16589,
    "Ġowners": 7663,
    "Ġpervers": 11787,
    "Ġinf": 1753,
    "Ġicy": 10749,
    "ulpt": 10887,
    "sorts": 21063,
    "foreign": 18545,
    "Ġrecalled": 8540,
    "independent": 26022,
    "com": 1001,
    "Ġpattern": 1317,
    "into": 3683,
    "Ġtechnique": 2264,
    "Ġfalls": 14646,
    "Ġmorrow": 9346,
    "Ġglistening": 12369,
    "Ġhackluyt": 25656,
    "Ġhasten": 10480,
    "itters": 10783,
    "Ġchaos": 17011,
    "floor": 14939,
    "Ġcongregational": 25105,
    "Ġinstinct": 6577,
    "Ġfitzwilliam": 5771,
    "arthur": 14833,
    "Ġhow": 597,
    "imately": 12693,
    "Ġsketches": 26272,
    "Ġdeserve": 8309,
    "Ġgrappling": 25813,
    "harpooneers": 8693,
    "Ġbandaged": 16844,
    "Ġapproach": 869,
    "Ġmonosyllable": 20728,
    "Ġgrunted": 16171,
    "atement": 17775,
    "Ġreleased": 2976,
    "excuse": 13385,
    "fleece": 19951,
    "Ġwakeful": 24269,
    "Ġoughts": 23904,
    "roded": 17958,
    "awed": 10394,
    "Ġhole": 6080,
    "Ġswings": 11088,
    "Ġinfrequent": 3825,
    "Ġsche": 1701,
    "iance": 5280,
    "Ġreached": 4026,
    "Ġagreeing": 20022,
    "Ġancles": 21449,
    "Ġerecting": 24653,
    "Ġalternately": 15034,
    "Ġsufferable": 16261,
    "/*": 10074,
    "Ġtoma": 7373,
    "commencement": 26350,
    "Ġple": 1469,
    "Ġoverbearing": 12846,
    "icha": 11742,
    "rics": 13043,
    "Ġyounger": 5253,
    "interchange": 23741,
    "Ġaffright": 9335,
    "sixteen": 24854,
    "Ġinstincts": 16988,
    "built": 16827,
    "olets": 21010,
    "stonecraft": 24356,
    "Ġdismasted": 15255,
    "Ġepsom": 19986,
    "Ġsystematically": 3714,
    "ket": 17584,
    "Ġmeanest": 12915,
    "stretching": 20502,
    "wear": 22686,
    "Ġexercising": 19909,
    "slight": 10729,
    "Ġmin": 1026,
    "Ġunwinding": 22064,
    "Ġlying": 4826,
    "flour": 23969,
    "remembrance": 25703,
    "Ġinduce": 7763,
    "Ġcalculating": 9928,
    "Ġplentiful": 12916,
    "Ġmoods": 14954,
    "exclaimed": 11794,
    "Ġbaff": 10801,
    "Ġroughs": 19960,
    "Ġpainted": 7979,
    "Ġaffliction": 25846,
    "Ġbarely": 16938,
    "Ġstand": 1733,
    "Ġxxxiv": 24970,
    "Ġcaliforn": 14434,
    "ecess": 17534,
    "n": 82,
    "contact": 23730,
    "isa": 17847,
    "Ġpossess": 3203,
    "Ġkicking": 16903,
    "Ġrivals": 20274,
    "Ġinfants": 16366,
    "Ġcam": 10164,
    "Ġprevailing": 24674,
    "Ġphenomenon": 17917,
    "Ġwithal": 18116,
    "Ġsystems": 805,
    "Ġslo": 15509,
    "Ġsupers": 18280,
    "Ġcolonel": 3409,
    "Ġelated": 18635,
    "Ġrucastles": 18720,
    "Ġnocturnal": 20717,
    "ureau": 10229,
    "Ġcruel": 5121,
    "Ġruefully": 17304,
    "inhab": 10759,
    "Ġcivil": 4679,
    "Ġtallest": 15477,
    "hard": 4690,
    "prodig": 16429,
    "raved": 18015,
    "otence": 14026,
    "Ġcorresponds": 19824,
    "Ġmill": 6669,
    "Ġcoleman": 22592,
    "Ġdiscomp": 11870,
    "Ġ65": 24368,
    "mouthed": 12404,
    "Ġpeeled": 14321,
    "Ġcompens": 14270,
    "Ġilliterate": 26596,
    "Ġamel": 18510,
    "nant": 17611,
    "Ġconflag": 20338,
    "Ġnom": 21522,
    "Ġgallant": 8658,
    "Ġprovinces": 24193,
    "Ġpreliminaries": 25177,
    "wat": 6233,
    "smoke": 17225,
    "aped": 3766,
    "Ġsays": 3566,
    "Ġbrandy": 11050,
    "Ġhabitations": 24788,
    "Ġunjust": 8486,
    "retreat": 23142,
    "concent": 19483,
    "Ġcomplet": 4425,
    "Ġcombining": 22877,
    "Ġletting": 10364,
    "Ġridge": 14822,
    "Ġdoubly": 16388,
    "Ġclamorous": 24910,
    "Ġcollinses": 19131,
    "Ġdrawback": 23993,
    "Ġclutches": 20021,
    "ilent": 21723,
    "Ġpaintings": 15058,
    "liber": 18815,
    "acknowled": 10977,
    "Ġtrustees": 24109,
    "Ġremember": 2678,
    "principle": 10653,
    "Ġassail": 13068,
    "Ġimbedded": 18327,
    "fer": 1922,
    "Ġmitigates": 3051,
    "Ġswift": 3672,
    "Ġshield": 22003,
    "Ġutterly": 6102,
    "tick": 17680,
    "Ġinjection": 3468,
    "ascar": 8436,
    "Ġinv": 2223,
    "control": 16545,
    "Ġshocking": 10437,
    "aution": 9389,
    "movable": 14327,
    "Ġinexplicable": 12261,
    "scrape": 25699,
    "Ġinconveniences": 24942,
    "umnal": 18301,
    "oop": 10717,
    "Ġredeemed": 25790,
    "Ġscrupulous": 20072,
    "Ġglowing": 12287,
    "Ġsky": 3972,
    "Ġunderstand": 832,
    "Ġfoundation": 4235,
    "ub": 1224,
    "Ġframework": 2132,
    "Ġrickety": 26508,
    "eties": 10839,
    "okes": 9280,
    "shuff": 18494,
    "Ġmira": 8408,
    "Ġcher": 6131,
    "Ġenthusiastic": 19969,
    "incredible": 16500,
    "Ġcharcoal": 19008,
    "izes": 884,
    "intended": 11068,
    "Ġlurch": 21558,
    "Ġstoried": 18075,
    "Ġsolic": 7933,
    "ool": 17620,
    "Ġgratify": 19506,
    "Ġder": 1496,
    "seek": 8841,
    "Ġmid": 2617,
    "Ġbowl": 11206,
    "Ġegyptians": 25290,
    "africa": 26309,
    "uss": 8767,
    "Ġtarshish": 12033,
    "shire": 3018,
    "cruet": 17028,
    "Ġcondemn": 13448,
    "onstrate": 17770,
    "Ġfatt": 15583,
    "stood": 4119,
    "Ġrotterdam": 25476,
    "loss": 22512,
    "Ġetc": 7086,
    "Ġfaithfulness": 24446,
    "ĠĠĠĠĠĠĠĠĠĠĠĠĠĠ": 22569,
    "calabash": 22900,
    "Ġflock": 21414,
    "Ġpredicting": 2417,
    "Ġsurve": 9877,
    "Ġleaf": 15727,
    "Ġstay": 3094,
    "Ġdiscussed": 19562,
    "Ġgive": 1710,
    "Ġguess": 4903,
    "Ġresistance": 13533,
    "Ġsensibly": 14514,
    "ourably": 14380,
    "Ġdisputing": 25825,
    "ish": 550,
    "*": 14,
    "uniform": 18160,
    "iii": 14779,
    "Ġandrew": 21510,
    "Ġladder": 8601,
    "Ġyarman": 12710,
    "Ġshall": 1144,
    "Ġwaste": 9237,
    "Ġcigars": 12257,
    "Ġoutbreak": 22321,
    "engagements": 25855,
    "Ġsod": 11564,
    "Ġupon": 719,
    "unbe": 21876,
    "judge": 13341,
    "affa": 23778,
    "Ġprison": 5403,
    "Ġaverse": 11083,
    "generally": 9438,
    "riage": 2122,
    "promising": 24725,
    "ble": 542,
    "lingly": 9776,
    "Ġbrougham": 17872,
    "Ġvengeful": 14893,
    "ining": 3220,
    "compliments": 24807,
    "Ġadventures": 7748,
    "acific": 4960,
    "insult": 16283,
    "itoring": 21335,
    "ã": 164,
    "utored": 15667,
    "opening": 10316,
    "opolising": 25677,
    "avor": 14264,
    "Ġmedic": 11258,
    "favourite": 15147,
    "Ġvolumes": 14803,
    "Ġproperly": 7945,
    "plifted": 9713,
    "ă": 196,
    "Ġstarbuck": 2193,
    "Ġstore": 8455,
    "ŀ": 257,
    "Ġfollow": 1394,
    "Ġsometimes": 2166,
    "Ġpenny": 16318,
    "Ġwreath": 25937,
    "Ġmate": 3710,
    "Ġseeing": 2884,
    "oked": 4311,
    "Ġzodiac": 16176,
    "ord": 665,
    "bler": 11474,
    "address": 14884,
    "with": 1296,
    "Ġmines": 21311,
    "Ġchag": 15935,
    "Ġabated": 18391,
    "matical": 13133,
    "parlour": 16394,
    "Ġbolivia": 24668,
    "dia": 2133,
    "Ġbanking": 19633,
    "Ġconjectures": 16927,
    "Ġgiven": 1626,
    "Ġshares": 23248,
    "untary": 9870,
    "Ġadvise": 7936,
    "Ġdisobey": 18560,
    "ĠâĢľâĢĺ_": 25114,
    "Ġostrich": 26432,
    "Ġsuspected": 9065,
    "Ġstrata": 26028,
    "Ē": 211,
    "Ġacutely": 14317,
    "entered": 8819,
    "pursuit": 20343,
    "Ġfring": 11129,
    "Ġentrances": 25835,
    "Ġquarrel": 7292,
    "İ": 241,
    "Ġindign": 6175,
    "yp": 1046,
    "Ġcovered": 5171,
    "Ġlingo": 24904,
    "destroyed": 15264,
    "unciation": 25983,
    "Ġguests": 12291,
    "Ġprecipitous": 24836,
    "Ġapr": 12537,
    "Ġshrill": 12146,
    "passing": 14815,
    "Ġupd": 946,
    "tips": 13799,
    "baden": 25616,
    "Ġcrawl": 11377,
    "Ġwrapping": 19778,
    "Ġnobler": 14176,
    "Ġsucc": 12789,
    "otle": 21801,
    "access": 11182,
    "Ġunsur": 22026,
    "ont": 2623,
    "Ġunresting": 25554,
    "Ġoccupant": 16654,
    "ulatory": 15772,
    "Ġpl": 743,
    "compliment": 11366,
    "Ġlabelled": 23330,
    "Ġlips": 3995,
    "killer": 20479,
    "Ġjustify": 11074,
    "istic": 1031,
    "Ġtwig": 11854,
    "Ġdelusion": 18975,
    "breadth": 20279,
    "erick": 13851,
    "born": 7543,
    "pervading": 18966,
    "Ġhark": 8429,
    "Ġcharacters": 9375,
    "Ġest": 2265,
    "Ġinjuring": 24271,
    "Ġassert": 7122,
    "ubb": 1648,
    "shark": 14241,
    "Ġjane": 1754,
    "Ġdisgraceful": 15022,
    "umbrance": 22122,
    "mit": 4934,
    "aly": 1114,
    "ceptible": 10957,
    "Ġmagnitudes": 3823,
    "Ġkissed": 10048,
    "devils": 20036,
    "Ġsomething": 1793,
    "Ġfavourably": 16364,
    "Ġoarsmen": 7738,
    "Ġdata": 519,
    "shoulder": 16586,
    "seventy": 10878,
    "Ġbead": 21754,
    "âĢĺ": 940,
    "ability": 716,
    "Ġwearied": 15798,
    "Ġrespect": 1666,
    "Ġstile": 21736,
    "Ġscript": 18399,
    "Ġlakeman": 6987,
    "urches": 12690,
    "food": 12468,
    "encoun": 12302,
    "Ġthat": 335,
    "Ġpawn": 12068,
    "Ġnetwork": 454,
    "Ġfooting": 14485,
    "Ġdepart": 4657,
    "iliation": 10862,
    "Ġlaughed": 5059,
    "Ġemail": 19076,
    "Ġcho": 4548,
    "Ġwrite": 3822,
    "Ġstudent": 14481,
    "Ġforest": 9874,
    "Ġlasting": 18793,
    "deceptive": 22153,
    "Ġeu": 6391,
    "Ġhar": 5815,
    "Ġmarching": 16698,
    "Ġsearch": 2591,
    "Ġchimney": 6498,
    "Ġdoubt": 2222,
    "cra": 6356,
    "lucifer": 25303,
    "Ġtucked": 12396,
    "Ġaccordance": 19501,
    "Ġcalmed": 16269,
    "Ġjoint": 12038,
    "Ġdear": 1536,
    "icult": 3341,
    "Ġcontemptuously": 19836,
    "token": 21085,
    "Ġezek": 18012,
    "Ġasks": 5115,
    "Ġgrieve": 14710,
    "Ġlustre": 15138,
    "cream": 15334,
    "Ġmundane": 26431,
    "Ġdimens": 3147,
    "plicable": 10258,
    "Ġunprofitable": 18268,
    "ira": 3961,
    "Ġtrampled": 20331,
    "ister": 1294,
    "Ġconsidering": 4616,
    "bloom": 24690,
    "Ġenriched": 26501,
    "Ġlooked": 1803,
    "Ġathirst": 20601,
    ">": 34,
    "classes": 12140,
    "mic": 12493,
    "Ġemb": 1231,
    "shapes": 22466,
    "ape": 1903,
    "Ġdevils": 7231,
    "Ġappears": 5402,
    "motion": 17608,
    "tes": 11531,
    "operation": 13504,
    "igns": 8449,
    "penet": 11072,
    "Ġlamps": 14793,
    "Ġtumble": 16881,
    "Ġchace": 14181,
    "fashioned": 9573,
    "Ġsail": 1670,
    "marching": 25753,
    "destro": 13314,
    "clay": 18933,
    "Ġpaints": 23527,
    "Ġproduct": 3539,
    "Ġdelightful": 6322,
    "Ġpoltro": 23621,
    "rise": 6228,
    "Ġgirl": 3086,
    "elf": 564,
    "ectual": 21919,
    "Ġenem": 4708,
    "sequ": 2402,
    "Ġstrike": 4856,
    "eling": 6683,
    "Ġchained": 16390,
    "Ġdisappearance": 9300,
    "Ġlearning": 387,
    "Ġcautious": 12258,
    "Ġfasten": 11134,
    "Ġafloat": 9311,
    "Ġinjury": 10543,
    "irs": 14074,
    "ronted": 14880,
    "news": 23137,
    "neglected": 25670,
    "Ġundeniable": 26512,
    "Ġmaintenance": 17464,
    "Ġdeny": 7488,
    "coward": 13704,
    "Ġunreasoning": 15849,
    "Ġyou": 366,
    "imprudent": 14653,
    "Ġstature": 10865,
    "Ġaudio": 24771,
    "establish": 17396,
    "Ġeven": 1027,
    "autions": 20769,
    "Ġlab": 1870,
    "Ġquestionable": 19268,
    "daring": 20831,
    "Ġridges": 16733,
    "Ġmutters": 23959,
    "Ġdisse": 18549,
    "Ġfury": 7661,
    "Ġreversed": 15701,
    "Ġmisty": 16542,
    "Ġflourish": 17163,
    "hardly": 6492,
    "_.âĢĿ": 5887,
    "gust": 6362,
    "Ġangrily": 9410,
    "Ġprimal": 17108,
    "advise": 24220,
    "Ġembracing": 14983,
    "Ġvaliant": 9803,
    "Ġswallowed": 7944,
    "gorge": 22347,
    "vitality": 20482,
    "Ġdilatory": 24704,
    "Ġconjoined": 21810,
    "Ġimmensely": 13599,
    "rences": 9275,
    "Ġrenewed": 9541,
    "Ġreside": 22543,
    "stains": 11639,
    "vable": 10135,
    "Ġcharger": 19006,
    "grinder": 23417,
    "Ġaustral": 12177,
    "Ġfifty": 4624,
    "Ġspile": 22131,
    "Ġbrill": 8550,
    "blu": 12444,
    "hawks": 24695,
    "ification": 990,
    "Ġpredict": 683,
    "ician": 21568,
    "ichron": 22172,
    "afer": 17484,
    "world": 5058,
    "oices": 7348,
    "Ġutensils": 23516,
    "Ġdivined": 19446,
    "Ġdestiny": 8986,
    "ynolds": 10039,
    "ologically": 22864,
    "frightened": 17198,
    "Ġdeity": 18140,
    "Ġnovelty": 13467,
    "Ġjob": 7017,
    "barn": 17485,
    "published": 26143,
    "peculiar": 6886,
    "Ġchronicled": 25329,
    "cence": 9591,
    "sounding": 24795,
    "Ġlogits": 3451,
    "Ġequilibrium": 4144,
    "ominy": 13985,
    "lowering": 16035,
    "ical": 753,
    "Ġsince": 1794,
    "Ġaccounting": 14575,
    "Ġhammer": 6095,
    "uten": 11625,
    "C": 39,
    "ris": 9140,
    "Ġdemanding": 16807,
    "Ġunprejudiced": 18270,
    "Ġfirmness": 11240,
    "Ġdelicately": 24128,
    "ibid": 18848,
    "analysis": 26174,
    "Ġmoritz": 11910,
    "telescope": 26564,
    "mouse": 15396,
    "Ġramadans": 25122,
    "fri": 20856,
    "listen": 13517,
    "Ġbracelets": 25503,
    "Ġflurry": 18862,
    "Ġcompasses": 11269,
    "itably": 10784,
    "Ġresented": 22547,
    "Ġpleas": 1904,
    "ounds": 4160,
    "aft": 9586,
    "izens": 18138,
    "och": 21003,
    "g": 75,
    "Ġquito": 24408,
    "felicity": 25143,
    "atmosphere": 21267,
    "Ġdented": 17893,
    "Ġausten": 5882,
    "sounded": 12271,
    "Ġtalking": 3860,
    "arness": 11674,
    "Ġantique": 19554,
    "Ġcraven": 16472,
    "Ġfinanc": 23132,
    "swift": 14855,
    "Ġmonth": 2848,
    "Ġhearse": 10422,
    "Ġinvoluntary": 18774,
    "contrast": 25595,
    "featured": 24127,
    "Ġunf": 4092,
    "Ġshipwrecked": 25688,
    "Ġdeliver": 9852,
    "Ġstage": 7389,
    "Ġinjure": 16783,
    "Ġlightness": 23263,
    "oy": 1014,
    "Ġsomewhat": 4897,
    "99": 1894,
    "tarpaulins": 26407,
    "bethink": 25745,
    "Ġsnuffed": 15076,
    "Ġdiffers": 23783,
    "strangers": 20339,
    "riptions": 14798,
    "holes": 12058,
    "Ġaddison": 14235,
    "ĠarchÃ¦": 22780,
    "Ġumbrell": 13654,
    "Ġskill": 6872,
    "Ġnaked": 8127,
    "Ġrudder": 25110,
    "inching": 21192,
    "Ġgnarled": 25169,
    "Ġwaylaid": 22874,
    "Ġendeavor": 16547,
    "Ġelement": 6897,
    "00": 1611,
    "Ġcharms": 11132,
    "endering": 21287,
    "Ġzoology": 22822,
    "tempted": 26405,
    "Ġsilly": 7686,
    "Ġevaporate": 26334,
    "Ġbeacon": 21760,
    "Ġlatterly": 24086,
    "Ġserves": 4669,
    "Ġdiscompose": 25580,
    "Ġprying": 15613,
    "ullo": 12734,
    "--------": 14785,
    "prophet": 16185,
    "T": 56,
    "Ġalbertus": 25649,
    "stopping": 19353,
    "Ġheedfulness": 24522,
    "Ġany": 688,
    "unusual": 21883,
    "Ġneatly": 17018,
    "always": 5708,
    "haust": 5777,
    "Ġpained": 19169,
    "Ġeurope": 8062,
    "½": 126,
    "Ġjustine": 4970,
    "Ġspleen": 26423,
    "Ġexcavating": 23317,
    "Ġpebbles": 16133,
    "Ġtumult": 7116,
    "perishing": 22190,
    "Ġperfidious": 25667,
    "Ġbackwoods": 22664,
    "Ġhold": 2243,
    "Ġapologize": 15132,
    "ilet": 12834,
    "idate": 21771,
    "expressive": 24307,
    "Ġdimensions": 16574,
    "Ġbethinking": 25280,
    "Ġversion": 10632,
    "brim": 23577,
    "Ġunprotected": 22071,
    "outs": 7010,
    "unt": 2042,
    "propriety": 14374,
    "ret": 1475,
    "oted": 4598,
    "reputation": 15518,
    "Ġacknowledge": 13406,
    "romang": 22009,
    "Ġpack": 5444,
    "Ġcrest": 12946,
    "Ġbuckle": 17034,
    "retion": 9365,
    "mysterious": 26052,
    "Ġpicturesqueness": 24480,
    "ancient": 9658,
    "Ġconvinced": 4208,
    "Ġresigned": 9771,
    "Ġpurch": 6601,
    "Ġsurm": 7476,
    "Ġbos": 4875,
    "vap": 13806,
    "Ġstranger": 3486,
    "hullo": 17572,
    "Ġtwelfth": 22681,
    "Ġidea": 2488,
    "arthy": 4823,
    "Ġessex": 20130,
    "Ġpushing": 10821,
    "ĠĠĠĠĠĠĠĠ": 712,
    "powerful": 24848,
    "Ġanxious": 4519,
    "wit": 7817,
    "Ġpiping": 23223,
    "Ġgreenhorn": 23770,
    "successively": 24778,
    "rically": 15420,
    "refusal": 24735,
    "Ġcontinuing": 14400,
    "Ġdoing": 3664,
    "Ġ78": 19616,
    "Ġvehement": 16205,
    "admitted": 18094,
    "Ġdreadful": 4920,
    "Ġsentiment": 6590,
    "Ġdamps": 23476,
    "Ġdrow": 21429,
    "~": 98,
    "Ġfoolishly": 19785,
    "Ġtogether": 1877,
    "results": 20390,
    "knowing": 10439,
    "Ġsteals": 23087,
    "Ġpaddock": 25040,
    "Ġparagra": 15883,
    "Ġundeserving": 18269,
    "Ġfoot": 3159,
    "Ġscrewed": 15124,
    "ander": 6402,
    "Ġefforts": 11806,
    "miseries": 16759,
    "Ġgain": 4828,
    "breakfast": 8691,
    "Ġconsidered": 4612,
    "Ġfolds": 12211,
    "kindness": 10508,
    "Ġassembl": 20064,
    "Ġconditions": 8307,
    "break": 6103,
    "isely": 4490,
    "Ġaccomplice": 24376,
    "Ġdistant": 5387,
    "mund": 13761,
    "Ġfitted": 6245,
    "uring": 818,
    "soul": 9143,
    "troubled": 17113,
    "soup": 21061,
    "humiliation": 24024,
    "Ġmanners": 3792,
    "fair": 10095,
    "Ġtunnels": 24621,
    "gpt": 5356,
    "Ġdefendants": 15144,
    "Ġparish": 8858,
    "guinea": 16675,
    "subst": 12169,
    "Ġhats": 14621,
    "cham": 10855,
    "Ġmoored": 11796,
    "Ġdocument": 15021,
    "Ġcomposure": 7217,
    "things": 6034,
    "Ġburton": 23654,
    "Ġtransports": 24280,
    "historical": 20469,
    "Ġstrateg": 1358,
    "Ġrage": 5110,
    "miniature": 16767,
    "Ġgestures": 13539,
    "Ġsympathy": 6348,
    "Ġfirmest": 16667,
    "Ġchorus": 10948,
    "Ġfounder": 17885,
    "Ġodor": 12154,
    "based": 2958,
    "liter": 11504,
    "Ġstream": 5186,
    "Ġunqualified": 22065,
    "Ġbedroom": 7277,
    "meas": 7434,
    "computer": 2010,
    "utch": 21589,
    "murderers": 25728,
    "_.âĢĻâĢĿ": 17482,
    "centred": 25020,
    "mention": 7215,
    "Ġperpet": 7645,
    "!âĢĿ": 847,
    "Ġaffection": 2640,
    "Ġbestir": 13114,
    "Ġbride": 6293,
    "Ġsteer": 10389,
    "Ġblast": 7445,
    "whence": 23214,
    "acquaintance": 6938,
    "Ġcrazed": 19177,
    "Ġquadru": 16008,
    "Ġtwink": 8216,
    "Ġaddressed": 5263,
    "Ġconceit": 7295,
    "ming": 3605,
    "lun": 20948,
    "Ġburn": 3686,
    "whale": 2139,
    "Ġcatholic": 20684,
    "Ġapologized": 25199,
    "Ġbelt": 13008,
    "coil": 23561,
    "precedented": 15178,
    "Ġbetokened": 18800,
    "ath": 862,
    "relate": 24014,
    "Ġattract": 11836,
    "itying": 21998,
    "rue": 1130,
    "Ġbabies": 19695,
    "sweetly": 25137,
    "Ġbackgammon": 22666,
    "sink": 11524,
    "Ġhumans": 8933,
    "acon": 10684,
    "Ġheads": 3743,
    "Ġcompares": 20169,
    "neural": 3067,
    "##": 2319,
    "ching": 5156,
    "seated": 11675,
    "Ġable": 3081,
    "Ġround": 1368,
    "Ġfat": 3462,
    "Ġhospitable": 17060,
    "acher": 6867,
    "Ġconcise": 23324,
    "Ġsignify": 16496,
    "Ġfobbing": 26443,
    "Ġacquisition": 18901,
    "doom": 23378,
    "Ġsolicit": 22890,
    "together": 3561,
    "drifting": 19827,
    "Ġterra": 13121,
    "iah": 14420,
    "Ġevidently": 6760,
    "che": 3170,
    "medical": 23344,
    "Ġhyena": 24519,
    "Ġsqu": 1037,
    "ruction": 4360,
    "Ġaudits": 24769,
    "torm": 11533,
    "Ġconsistent": 14529,
    "future": 13720,
    "Ġsandwic": 24665,
    "Ġreynolds": 10212,
    "Ġprevents": 2558,
    "Ġbelongs": 8015,
    "Ġliked": 5265,
    "Ġcontinent": 14891,
    "Ġobsole": 22703,
    "whiteness": 18371,
    "Ġpanthe": 19656,
    "conceive": 16033,
    "Ġgrasp": 4664,
    "Ġpilgrim": 25600,
    "mur": 5428,
    "Ġallev": 18103,
    "Ġgarnery": 17390,
    "Ġpa": 3002,
    "etical": 13961,
    "Ġprints": 16334,
    "Ġprocess": 561,
    "Ġjib": 14196,
    "Ġpenalties": 10414,
    "Ġprotruding": 16661,
    "sustained": 20571,
    "Ġdifficulties": 11228,
    "Ġcapst": 8599,
    "ilated": 18060,
    "sided": 17666,
    "Ġmeantime": 6208,
    "Ġthy": 2515,
    "sideways": 14574,
    "Ġgravity": 9251,
    "Ġsmilingly": 22566,
    "zers": 21149,
    "priv": 9622,
    "yield": 13812,
    "Ġgoug": 17993,
    "piled": 21017,
    "Ġtone": 4043,
    "Ġindestructible": 26574,
    "matter": 5136,
    "society": 9975,
    "Ġruskin": 25810,
    "Ġpreferment": 19855,
    "Ġspain": 15884,
    "Ġpostponed": 20393,
    "Ġwhales": 1827,
    "Ġstatue": 23152,
    "Ġdestroyer": 13417,
    "Ġdismantled": 20219,
    "responsible": 25764,
    "genteel": 19952,
    "Ġtreas": 7358,
    "Ġbath": 9661,
    "establishment": 26114,
    "descending": 16288,
    "Ġswap": 23055,
    "Ġhue": 8430,
    "Ġomen": 11579,
    "Ġprudent": 9187,
    "pleased": 8857,
    "Ġ1820": 25718,
    "Ġhosea": 17334,
    "rist": 10125,
    "Ġrustling": 24714,
    "Ġplat": 8523,
    "icism": 13959,
    "contented": 14636,
    "Ġunite": 9257,
    "Ġpausing": 8656,
    "Ġlabors": 23329,
    "Ġstrove": 9960,
    "Ġsettled": 3744,
    "Ġbell": 4636,
    "Ġstrict": 7222,
    "Ġnine": 5369,
    "Ġunembarrassed": 22075,
    "dening": 22781,
    "Ġsit": 4218,
    "savage": 15079,
    "iting": 2156,
    "vel": 2385,
    "osis": 18390,
    "Ġtease": 18797,
    "obtain": 23097,
    "ner": 1371,
    "illity": 18297,
    "handle": 11192,
    "Ġfishermen": 5972,
    "Ġsupple": 23004,
    "Ġbulkington": 14679,
    "abern": 21794,
    "Ġhypocritical": 20740,
    "luc": 9757,
    "Ġdriver": 16476,
    "Ġhyp": 3876,
    "Ġcumul": 4182,
    "Ġsurprise": 3830,
    "Ġtough": 13818,
    "Ġtang": 13817,
    "Ġpoliceman": 15262,
    "ibilities": 13017,
    "Ġresol": 2666,
    "Ġdeliverer": 11954,
    "wered": 2689,
    "Ġnonsense": 6983,
    "remark": 7261,
    "onings": 21255,
    "Ġexordium": 26494,
    "leaves": 12583,
    "Ġross": 2765,
    "Ġconvenient": 8346,
    "Ġoriginal": 6104,
    "youth": 11879,
    "fare": 7799,
    "ilburn": 18062,
    "Ġcompletion": 12152,
    "gain": 8740,
    "Ġpiercing": 13497,
    "Ġrecip": 16145,
    "heartedness": 24825,
    "Ġwitnesses": 9489,
    "umerable": 11729,
    "waist": 13422,
    "hatchway": 25905,
    "Ġgriff": 22809,
    "Ġsusp": 2664,
    "arp": 2026,
    "ids": 21767,
    "befall": 22498,
    "visited": 13352,
    "Ġcorps": 13038,
    "Ġinferior": 8366,
    "helped": 18927,
    "Ġthreatens": 24375,
    "Ġankles": 17901,
    "oko": 18446,
    "Ġwishing": 7830,
    "Ġdominion": 16529,
    "Ġembell": 14415,
    "warrant": 21140,
    "foot": 9049,
    "Ġrapturously": 24889,
    "ipotence": 22349,
    "tle": 2410,
    "Ġchili": 25562,
    "Ġinsc": 7586,
    "res": 2760,
    "darted": 20834,
    "Ġunique": 12783,
    "Ġdestruction": 6602,
    "Ġrevol": 5537,
    "Ġtougher": 21179,
    "Ġmant": 9650,
    "gh": 3802,
    "accident": 11183,
    "Ġoccasioned": 13232,
    "Ġgust": 21600,
    "Ġcheerfulness": 10519,
    "grass": 23415,
    "Ġresiding": 16065,
    "Ġacquiescence": 20333,
    "prep": 9762,
    "Ġthank": 3793,
    "Ġmeditative": 25017,
    "Ġwra": 5907,
    "Ġdistingu": 2516,
    "gement": 13732,
    "Ġarabian": 9093,
    "value": 18810,
    "pause": 12505,
    "hunsford": 24386,
    "embarrassed": 20667,
    "stars": 18019,
    "Ġnodes": 1965,
    "promontory": 24727,
    "Ġhull": 5446,
    "offic": 7466,
    "lung": 17593,
    "tered": 2230,
    "Ġleyden": 21751,
    "Ġnearer": 5303,
    "aside": 10194,
    "Ġperry": 22400,
    "Ġstaving": 21741,
    "Ġholland": 10368,
    "Ġtransferred": 16457,
    "Ġweighed": 8714,
    "Ġreturn": 1708,
    "Ġadmired": 7982,
    "Ġprey": 6416,
    "Ġpresented": 5183,
    "Ġdecomposes": 5506,
    "brought": 7285,
    "Ġair": 1834,
    "Ġloaf": 15876,
    "Ġexcursion": 26591,
    "enc": 7574,
    "visitors": 13353,
    "Ġspacious": 18313,
    "Ġtearless": 24785,
    "Ġ75": 19615,
    "fury": 17549,
    "Ġdanced": 7842,
    "Ġimaginations": 16518,
    "Ġlasted": 11056,
    "Ġperseverance": 13601,
    "Ġegot": 18010,
    "Ġbehave": 23302,
    "aurs": 20771,
    "wreat": 21130,
    "phil": 7926,
    "omet": 3076,
    "beneath": 9538,
    "mutually": 26137,
    "Ġpostpone": 17310,
    "Ġarticulate": 24432,
    "Ġcontinents": 16851,
    "Ġmarvelled": 18875,
    "Ġcommanding": 16592,
    "uteronomy": 15668,
    "Ġhinting": 19652,
    "Ġchurchyard": 16779,
    "Ġbraces": 14672,
    "Ġcries": 7155,
    "Ġutil": 4673,
    "Ġunfav": 14790,
    "estic": 4956,
    "saf": 11527,
    "ze": 1340,
    "adru": 15735,
    "rest": 1632,
    "Ġsmoothed": 23658,
    "Ġsult": 10769,
    "Ġplum": 11826,
    "Ġcriminal": 7537,
    "ricted": 15423,
    "cring": 20813,
    "tattoo": 21090,
    "Ġfocuses": 8653,
    "Ġcane": 10929,
    "Ġaries": 21200,
    "Ġapprobation": 10987,
    "Ġconfession": 11238,
    "Ġpresum": 4838,
    "isance": 17849,
    "ostentatious": 20654,
    "irably": 13299,
    "evident": 25521,
    "daughters": 13470,
    "profitable": 17072,
    "Ġirritated": 17244,
    "deduction": 23673,
    "behaviour": 11303,
    "Ġmitig": 1335,
    "prow": 15414,
    "Ġsucceed": 4546,
    "ues": 2077,
    "Ġordained": 19448,
    "Ġscanning": 18400,
    "Ġunhe": 22014,
    "Ġforget": 2635,
    "Ġwithout": 1122,
    "Ġmemorand": 23461,
    "Ġunbecoming": 22068,
    "irts": 9241,
    "Ġplague": 11828,
    "Ġcountries": 13101,
    "superstitiousness": 25509,
    "Ġmanaging": 22329,
    "Ġeclips": 20699,
    "aste": 4602,
    "Ġnecessitates": 23933,
    "Ġconducted": 10505,
    "irous": 8843,
    "Ġgate": 6825,
    "Ġcurtain": 14413,
    "Ġcake": 12575,
    "Ġtopsails": 19195,
    "Ġdirecting": 16303,
    "Ġdru": 8423,
    "hyme": 19612,
    "Ġ50": 24315,
    "ye": 1406,
    "Ġchristians": 13312,
    "Ġmysteries": 11324,
    "Ġsnowy": 9021,
    "Ġimage": 3405,
    "Ġinject": 2712,
    "Ġfullest": 14817,
    "bres": 11473,
    "Ġlengthen": 15658,
    "û": 188,
    "Ġeuroc": 14962,
    "cent": 8073,
    "Ġunremitting": 26219,
    "Ġtechnical": 17194,
    "anger": 2171,
    "sy": 2649,
    "Ġrooms": 5180,
    "Ġsmelt": 16072,
    "mechanically": 17303,
    "Ġsurplus": 26304,
    "ĠĠĠĠĠĠĠĠĠĠĠĠĠĠĠĠĠĠĠĠĠĠĠĠĠĠĠĠĠĠĠĠĠĠĠĠĠĠ": 16527,
    "Ġproducts": 5198,
    "landed": 18957,
    "Ġcoffin": 4431,
    "Ġpreserving": 19799,
    "disaster": 23495,
    "Ġclenched": 14210,
    "liable": 3819,
    "Ġhereby": 10361,
    "Ġsteadfastly": 10654,
    "Ġshot": 4545,
    "possibly": 10546,
    "Ġshrinking": 14808,
    "Ġtheore": 1829,
    "rocket": 13947,
    "Ġphysiognomical": 25612,
    "Ġremaining": 6190,
    "Ġintroduces": 3268,
    "reflection": 13459,
    "nobody": 16139,
    "Ġendeavoured": 4918,
    "Ġsimul": 1807,
    "Ġgoney": 14546,
    "Ġstil": 15722,
    "Ġeagerly": 4990,
    "Ġunfelt": 24112,
    "determined": 9082,
    "Ġvary": 15811,
    "accomplishment": 20226,
    "imperturbable": 25791,
    "tastes": 21099,
    "Ġsnaky": 23744,
    "scotland": 20532,
    "boiling": 19001,
    "direction": 17526,
    "Ġdigest": 24648,
    "bol": 8721,
    "Ġmediterranean": 12319,
    "Ġjon": 15952,
    "Ġlodging": 24097,
    "supportable": 12374,
    "bony": 15323,
    "overhearing": 19053,
    "Ġcrowd": 6338,
    "Ġsalvation": 14760,
    "Ġindelible": 25695,
    "Ġsog": 22088,
    "Ġheadsman": 13278,
    "sank": 17664,
    "Ġanalogical": 25641,
    "draul": 9446,
    "neighbour": 7211,
    "Ġgallop": 19558,
    "dost": 14536,
    "Ġgrew": 5182,
    "Ġcooking": 16649,
    "Ġstreatham": 17452,
    "Ġpause": 5707,
    "Ġhardihood": 23115,
    "Ġinaccessible": 13937,
    "closing": 23159,
    "holland": 24044,
    "Ġidiotic": 25589,
    "nets": 9135,
    "Ġpaces": 13922,
    "Ġcorpus": 13037,
    "Ġcentaurs": 23836,
    "Ġpang": 15609,
    "Ġattempted": 8001,
    "countenance": 6925,
    "ence": 392,
    "Ġunsocial": 18257,
    "og": 860,
    "Ġpovels": 22597,
    "code": 15332,
    "Ġdauntless": 26338,
    "Ġalleviated": 26205,
    "Ġtamely": 24980,
    "Ġincognita": 26553,
    "extremely": 26265,
    "Ġshelf": 12272,
    "Ġmagnanim": 14475,
    "Ġseething": 18204,
    "Ġunthinkingly": 26222,
    "Ġcro": 4873,
    "extensive": 18710,
    "imens": 1745,
    "Ġstrategies": 1839,
    "Ġsoundings": 13137,
    "{": 95,
    "Ġindignantly": 16941,
    "Ġsallied": 12542,
    "Ġexpanse": 14294,
    "teenth": 11878,
    "Ġshame": 6411,
    "Ġdelicate": 6481,
    "ps": 4575,
    "ridge": 9500,
    "ushing": 5731,
    "Ġcitations": 25438,
    "Ġslid": 7952,
    "Ġcool": 5735,
    "Ġcompression": 18150,
    "Ġtaking": 3249,
    "adders": 24400,
    "adequately": 20322,
    "Ġender": 11694,
    "Ġcler": 11776,
    "Ġtenderest": 23552,
    "Ġfrank": 4422,
    "Ġbedford": 7475,
    "Ġcivilised": 24247,
    "Ġunceasing": 20361,
    "Ġdropout": 1558,
    "Ġcausal": 3412,
    "Ġwhal": 5454,
    "Ġarrows": 18339,
    "Ġ88": 19714,
    "Ġknight": 9730,
    "Ġwishes": 4795,
    "usions": 6161,
    "allows": 15911,
    "Ġcheerless": 16695,
    "unquiet": 21885,
    "itate": 6670,
    "Ġinnumerable": 13356,
    "Ġcaprice": 14579,
    "Ġpleaded": 16302,
    "Ġpractices": 19018,
    "aguy": 21914,
    "innocent": 20289,
    "anish": 2618,
    "Ġsurface": 5119,
    "urried": 21707,
    "Ġsteward": 6586,
    "Ġsets": 8778,
    "tern": 4226,
    "acca": 23599,
    "treasures": 26153,
    "stall": 21643,
    "rack": 18013,
    "angle": 22105,
    "Ġdecreases": 3411,
    "Ġsinned": 18953,
    "meeting": 11022,
    "prejudice": 25572,
    "Ġcathedral": 17416,
    "harmony": 25751,
    "Ġmaternal": 11061,
    "hello": 13368,
    "draw": 23903,
    "mas": 5212,
    "Ġobser": 2068,
    "Ġinferences": 17937,
    "Ġensemble": 1606,
    "Ġflukes": 5267,
    "sit": 13783,
    "Ġaimed": 20253,
    "Ġshorter": 4500,
    "Ġcarpenter": 4685,
    "leap": 21370,
    "Ġix": 12671,
    "Ġfusion": 21417,
    "fanc": 20866,
    "piece": 6658,
    "comes": 5394,
    "Ġnoted": 15834,
    "onial": 11569,
    "Ġconjured": 25102,
    "Ġaccompan": 5513,
    "Ġsafely": 9028,
    "Ġconnecting": 18632,
    "oin": 17619,
    "itten": 3442,
    "aston": 7408,
    "stream": 15690,
    "Ġdischarge": 18557,
    "Ġchim": 5934,
    "Ġposter": 14282,
    "endous": 6850,
    "Ġhandfuls": 17212,
    "Ġtheoretically": 3571,
    "however": 4376,
    "fishers": 24929,
    "Ġfrederick": 15591,
    "Ġscener": 10951,
    "Ġdeliberation": 19972,
    "cord": 8727,
    "Ġprobability": 1128,
    "Ġelse": 2481,
    "Ġbid": 6133,
    "Ġaffinity": 18789,
    "Ġsolace": 16203,
    "Ġnovelist": 24776,
    "bag": 7542,
    "Ġvor": 15810,
    "Ġwretchedness": 9029,
    "Ġbetrayed": 9564,
    "humor": 19455,
    "Ġhummed": 18779,
    "ances": 1336,
    "Ġact": 690,
    "inctions": 17734,
    "Ġsepul": 14093,
    "Ġmeals": 12716,
    "paint": 21020,
    "kes": 3681,
    "Ġbumps": 21395,
    "orative": 21401,
    "Ġstation": 5299,
    "Ġcottages": 14730,
    "Ġslaughter": 20732,
    "Ġsheath": 14154,
    "Ġstirs": 14920,
    "whew": 22870,
    "Ġprotruded": 19473,
    "Ġthre": 2057,
    "berries": 22750,
    ".": 18,
    "note": 14345,
    "Ġbrace": 11213,
    "Ġoldest": 12978,
    "ainty": 21791,
    "steady": 14712,
    "Ġstone": 4646,
    "wl": 17704,
    "Ġfeatures": 1433,
    "izzy": 3095,
    "Ġpositive": 2298,
    "ught": 2751,
    "familiar": 19786,
    "Ġdescended": 7428,
    "Ġplay": 2627,
    "anch": 15564,
    "ounted": 5030,
    "Ġwaiting": 4327,
    "retaining": 21248,
    "Ġshrivelled": 19706,
    "Ġmar": 1309,
    "Ġpeaking": 22693,
    "Ġsuggestive": 11299,
    "ugnance": 12371,
    "Ġderives": 16311,
    "thrown": 8483,
    "linked": 17595,
    "Ġsinusoid": 4781,
    "iluvian": 18063,
    "und": 4121,
    "ah": 1832,
    "Ġbier": 22763,
    "Ġterritories": 23849,
    "directly": 13712,
    "Ġrebounds": 25968,
    "Ġassemblage": 26354,
    "impenetrable": 26198,
    "king": 3061,
    "Ġafric": 8909,
    "Ġcruellest": 19661,
    "Ġtremble": 6906,
    "Ġseven": 4543,
    "Ġgrenadier": 21619,
    "Ġhandkerchief": 8917,
    "Ġbuoyant": 13535,
    "Ġinvest": 4978,
    "X": 60,
    "Ġparted": 5930,
    "Ġsighs": 22712,
    "Ġchecked": 9378,
    "probably": 10023,
    "Ġbitterest": 12406,
    "Ġilluminated": 20178,
    "repeat": 25155,
    "Ġbrigandish": 25488,
    "Ġsupreme": 13611,
    "Ġwoody": 23522,
    "pedest": 24823,
    "barbaric": 26360,
    "nest": 10116,
    "ox": 9136,
    "i": 77,
    "despair": 8344,
    "gryphon": 15362,
    "acency": 12902,
    "Ġsparkling": 11358,
    "Ġsummers": 23876,
    "Ġeggs": 12346,
    "Ġulster": 14999,
    "Ġcarries": 7674,
    "Ġmockery": 12112,
    "prev": 12872,
    "Ġpractice": 2469,
    "Ġstained": 11655,
    "satisfy": 16894,
    "tormented": 13649,
    "unworthy": 18164,
    "Ġuncounted": 19118,
    "frank": 7758,
    "Ġintelligible": 15945,
    "Ġpost": 4275,
    "Ġ177": 13416,
    "Ġentitled": 8541,
    "Ġmechanis": 1230,
    "Ġexclamations": 11363,
    "azine": 19132,
    "Ġapt": 9158,
    "Ġdusting": 24597,
    "Ġabsolute": 6766,
    "oup": 2012,
    "ĠĠĠĠĠĠĠĠĠĠĠĠĠĠĠĠĠĠĠĠĠĠĠĠĠĠĠĠĠĠĠĠĠĠĠĠĠĠĠĠĠĠĠĠ": 12158,
    "Ą": 197,
    "flung": 16641,
    "Ġbesides": 3518,
    "Ġblasp": 14403,
    "Ġwhirlp": 16965,
    "Ġyellowish": 24430,
    "ravelled": 18017,
    "Ġenhancement": 23833,
    "Ĉ": 201,
    "batim": 25019,
    "dry": 13707,
    "wart": 17707,
    "Ġpersevering": 20236,
    "Ġcomparatively": 9493,
    "Ġvelvets": 25394,
    "turning": 8317,
    "Ġfling": 9663,
    "Ġdecap": 16023,
    "haw": 6363,
    "Ġstraggling": 23752,
    "Ġunparalleled": 15857,
    "Ġintens": 7004,
    "Ġurging": 24505,
    "Ġhonor": 5664,
    "inconsiderable": 21194,
    "Ġupbraided": 26530,
    "utions": 1889,
    "aculate": 16068,
    "Ġsemblance": 20736,
    "approbation": 11460,
    "Ġvainly": 9927,
    "Ġbeauties": 10447,
    "bearded": 18520,
    "scence": 14422,
    "Ñ": 146,
    "Ġstro": 4596,
    "Ġcruelty": 9972,
    "attery": 18487,
    "Ġcheerful": 6624,
    "Ġcalled": 1970,
    "Ġprojecting": 9988,
    "Ġding": 12604,
    "Ġemperor": 15162,
    "Ġspreading": 13382,
    "Ġpurpose": 2709,
    "bles": 7019,
    "Ġvirtue": 4922,
    "Ġchest": 5185,
    "Ġsuspicious": 9483,
    "correct": 24483,
    "soc": 5175,
    "Ġherb": 15860,
    "Ġtoes": 10831,
    "Ġoptimization": 1425,
    "Ġsharper": 17182,
    "Ġlove": 2052,
    "Ġfumbling": 21420,
    "Ġpreserved": 9265,
    "Ġcastor": 19430,
    "Ġbough": 13897,
    "incible": 16499,
    "imony": 12695,
    "Ġgout": 21599,
    "his": 1413,
    "Ġcave": 10787,
    "bearings": 25372,
    "Ġoutlaws": 22327,
    "Ġprofund": 13157,
    "Ġadvertising": 25390,
    "ides": 2160,
    "wild": 8771,
    "Ġconfirming": 25322,
    "business": 5610,
    "Ġawake": 8272,
    "infor": 3240,
    "Ġsealed": 15822,
    "taffrail": 15445,
    "Ġpills": 21468,
    "Ġappointed": 20106,
    "derness": 11741,
    "Ġrelied": 16198,
    "Ġvaried": 11852,
    "hawk": 7123,
    "âĢĻ-": 18169,
    "Ġassented": 17341,
    "Ġdisappointment": 6629,
    "officer": 17055,
    "Ġinestim": 15628,
    "beries": 22748,
    "frock": 20124,
    "Ġwarden": 17227,
    "turtle": 12216,
    "Ġach": 2622,
    "Ġabruptness": 25300,
    "rep": 5525,
    "Ġburgled": 23655,
    "Ġbreaking": 6312,
    "Ġrepay": 19083,
    "chors": 11647,
    "Ġhaven": 8476,
    "Ġhighness": 22775,
    "pleasantness": 19773,
    "Ġankers": 21448,
    "Ġost": 9652,
    "erpillar": 5798,
    "Ġhideousness": 16917,
    "Ġtravelled": 7772,
    "oun": 483,
    "ingham": 21303,
    "Ġstudded": 18979,
    "Ġglaciers": 20176,
    "disp": 7977,
    "eers": 20845,
    "eks": 4728,
    "Ġcharging": 23270,
    "leton": 5148,
    "enched": 10157,
    "rooms": 10434,
    "Ġvow": 10249,
    "thrust": 10264,
    "Ġalacrity": 15741,
    "Ġunlimited": 26224,
    "plun": 15819,
    "Ġroving": 22406,
    "Ġpeak": 16130,
    "occasion": 7754,
    "Ġorganisation": 23585,
    "Ġgrinning": 9056,
    "civil": 7797,
    "Ġextinct": 14333,
    "evinced": 19928,
    "Ġlesson": 7276,
    "solving": 3099,
    "Ġwind": 1434,
    "Ġhabits": 6926,
    "sar": 12509,
    "Ġhorse": 4725,
    "vy": 21110,
    "Ġviolet": 19092,
    "Ġdeposit": 17271,
    "Ġinj": 4760,
    "Ġbelfry": 26440,
    "bul": 6951,
    "Ġungrateful": 14124,
    "Ġdiary": 24738,
    "Ġanatomy": 12324,
    "Ġprep": 4194,
    "gether": 1593,
    "Ġvapory": 17008,
    "agra": 14069,
    "flutter": 23974,
    "bennet": 5353,
    "george": 26020,
    "Ġparade": 18302,
    "Ġopp": 2697,
    "blast": 9590,
    "Ġbarnacled": 25537,
    "Ġafraid": 3535,
    "affording": 23779,
    "Ġpra": 4349,
    "Ġcottagers": 6762,
    "Ġuneasily": 24233,
    "Ġunimpeachable": 26524,
    "Ġsolar": 22888,
    "Ġtid": 8107,
    "Ġclassify": 1734,
    "Ġconcocted": 26300,
    "Ġofficers": 4428,
    "ugal": 19024,
    "Ġparlor": 13543,
    "Ġfatig": 6758,
    "======================================================================": 10071,
    "Ġxvi": 19106,
    "Ġ275": 20114,
    "spade": 10342,
    "nuts": 15401,
    "Ġthoughtfulness": 18775,
    "remem": 13072,
    "Ġseating": 18202,
    "Ġstaid": 21739,
    "content": 11200,
    "Ġmysticetus": 24923,
    "Ġriding": 14098,
    "Ġfarewell": 9523,
    "Ġboon": 22640,
    "Ġagile": 22517,
    "Ġundone": 24119,
    "Ġrusty": 14967,
    "Ġsixteen": 8283,
    "Ġarrayed": 25665,
    "----âĢĻ": 24101,
    "Ġlight": 1697,
    "Ġat": 395,
    "called": 6294,
    "Ġemptied": 24347,
    "Ġstem": 15723,
    "Ġwrenched": 12563,
    "semicirc": 26493,
    "Ġshook": 4470,
    "Ġterrified": 14674,
    "boast": 23254,
    "Ġholidays": 22925,
    "Ġheaven": 3366,
    "consequence": 9766,
    "Ġfield": 1239,
    "artic": 14224,
    "Ġexist": 9234,
    "stra": 4049,
    "ats": 4256,
    "Ġpondering": 17007,
    "Ġsteps": 2863,
    "inlaid": 21193,
    "Ġgull": 15674,
    "undant": 14794,
    "Ġcapacity": 10442,
    "indispensable": 14212,
    "Ġmanilla": 15963,
    "remain": 9841,
    "Ġinfirmity": 26299,
    "ensed": 10999,
    "Ġjelly": 22304,
    "Ġprynne": 25541,
    "Ġemac": 16410,
    "berwell": 22749,
    "Ġinhabitant": 19758,
    "Ġtrump": 8196,
    "Ġamidst": 9497,
    "Ġrot": 10969,
    "Ġslowly": 3622,
    "Ġthrills": 24542,
    "itates": 13872,
    "brÃ¦": 11177,
    "Ġhunter": 5401,
    "Ġveteran": 17453,
    "outon": 12808,
    "Ġchowders": 18387,
    "mpus": 13760,
    "Ġhaunted": 10256,
    "Ġdeaths": 14538,
    "Ġslink": 23166,
    "Ġsilence": 3267,
    "figures": 20125,
    "Ġliver": 14230,
    "table": 5795,
    "Ġextremities": 19197,
    "far": 5787,
    "Ġmasks": 23328,
    "Ġkink": 22197,
    "Ġale": 9157,
    "Ġnarwhale": 12297,
    "Ġmerely": 3772,
    "Ġhopkins": 23134,
    "Ġboscombe": 8326,
    "Ġremembered": 5277,
    "Ġscope": 15947,
    "Ġdisappears": 18561,
    "pile": 17631,
    "Ġbright": 3212,
    "Ġobtruded": 20724,
    "Ġsebastian": 11702,
    "asiness": 8129,
    "contr": 12061,
    "screaming": 20328,
    "welcomed": 24645,
    "Ġampl": 22484,
    "Ġredress": 23754,
    "staff": 21653,
    "Ġcanallers": 13631,
    "Ġimmersed": 19488,
    "relations": 14736,
    "Ġsocket": 12794,
    "Ġregret": 5562,
    "yea": 23091,
    "and": 372,
    "Ġbrix": 12588,
    "Ġcomfort": 3439,
    "solid": 16383,
    "inquire": 16934,
    "Ġcasc": 15560,
    "Ġconjugal": 25104,
    "etency": 21585,
    "privilege": 25264,
    "unities": 15775,
    "!_": 7329,
    "Ġge": 1975,
    "pieces": 8758,
    "foam": 24418,
    "anim": 6523,
    "quet": 6835,
    "rapidly": 15247,
    "Ġwhit": 7178,
    "Ġretreating": 19802,
    "Ġghost": 6144,
    "boil": 19000,
    "Ġsettle": 6295,
    "Ġ47": 14774,
    "tossing": 18584,
    "Ġjav": 7902,
    "Ġperth": 7024,
    "Ġsens": 1852,
    "loving": 18541,
    "afforded": 25866,
    "Ġsnow": 3709,
    "partiality": 13164,
    "Ġdismay": 11813,
    "Ġharpooned": 13266,
    "Ġprophesied": 26063,
    "ß": 160,
    "Ġinhaled": 25452,
    "unhappy": 10240,
    "fortun": 3544,
    "Ġreasons": 6021,
    "Ġhaw": 10254,
    "Ġpassages": 12975,
    "ight": 403,
    "Ġexultation": 15175,
    "happiness": 6470,
    "cnns": 3625,
    "Ġbecalmed": 18089,
    "Ġenslaved": 26315,
    "Ġelab": 22646,
    "Ġincommun": 25309,
    "pul": 8757,
    "Ġreceive": 4704,
    "Ġexcitement": 9383,
    "Ġdecomp": 3812,
    "Ġhoarse": 14527,
    "Ġfuriously": 9805,
    "Ġinsensibility": 17111,
    "Ġrosy": 18458,
    "execution": 20475,
    "ribution": 14307,
    "Ġmorcar": 13020,
    "Ġseap": 15821,
    "Ġencodings": 4776,
    "bright": 8992,
    "Ġobtain": 8918,
    "ores": 2415,
    "Ġsemicircle": 26068,
    "Ġroad": 3884,
    "Ġmarlingspike": 26581,
    "Ġuniverse": 14127,
    "Ġreader": 11938,
    "bable": 8722,
    "Ġpronouncing": 16971,
    "Ġparallel": 1415,
    "Ġpresumably": 19627,
    "isition": 11589,
    "washed": 13051,
    "Ġthickly": 12120,
    "Ġfamily": 1964,
    "itud": 2929,
    "Ġanecd": 20157,
    "Ġindex": 17050,
    "fork": 20859,
    "chard": 21690,
    "nurse": 15212,
    "flame": 16640,
    "embedding": 20360,
    "Ġflanks": 11919,
    "Ġhowl": 12859,
    "Ġinclined": 6625,
    "Ġprophetic": 20023,
    "Ġloathing": 15071,
    "Ġyelled": 9697,
    "Ġoftentimes": 20158,
    "shooting": 16967,
    "Ġleg": 2337,
    "cigar": 26125,
    "(": 12,
    "Ġentreaties": 9038,
    "social": 11024,
    "Ġdated": 10940,
    "Ġsarat": 21230,
    "ree": 873,
    "designated": 26320,
    "Ġwand": 4344,
    "Ġshipmates": 6722,
    "Ġreturned": 2890,
    "Ġpersisting": 18886,
    "reposed": 24492,
    "Ġleaky": 2348,
    "poison": 14396,
    "Ġspaniards": 25556,
    "itu": 1225,
    "astic": 1867,
    "rayed": 23565,
    "Ġaffrighted": 13576,
    "jer": 12485,
    "Ġsmut": 22562,
    "bad": 12440,
    "Ġelbow": 12926,
    "dead": 8180,
    "Ġbreast": 8971,
    "Ġroots": 11187,
    "Ġobscured": 15013,
    "Ġsubsiding": 23436,
    "clo": 5613,
    "Ġcontent": 5034,
    "childhood": 16870,
    "Ġexulting": 20261,
    "Ġmidday": 23634,
    "Ġcouldn": 7649,
    "ount": 1113,
    "Ġfisheries": 17441,
    "Ġconsent": 5372,
    "beh": 5472,
    "aze": 10078,
    "Ġstruggled": 9908,
    "Ġages": 7029,
    "Ġmillion": 14990,
    "Ġabsor": 8507,
    "field": 3072,
    "Ġpreser": 6042,
    "maker": 12497,
    "Ġstript": 23696,
    "Ġvi": 1952,
    "Ġfollies": 16259,
    "Ġmoluccas": 25630,
    "adv": 4538,
    "Ġpolitely": 8996,
    "banish": 20784,
    "isome": 17850,
    "Ġhints": 8431,
    "thence": 23401,
    "virt": 15454,
    "alescence": 15928,
    "Ġstim": 18066,
    "compan": 7301,
    "Ġtiger": 11557,
    "Ġere": 3688,
    "rigging": 20009,
    "Ġdescried": 7919,
    "redible": 15808,
    "Ġvexatious": 19784,
    "Ġlurk": 13387,
    "Ġwhereby": 11840,
    "represented": 20198,
    "Ġcorroded": 18878,
    "Ġblack": 2032,
    "silly": 24422,
    "deceiving": 22148,
    "ally": 529,
    "Ġtass": 15473,
    "iard": 9604,
    "Ġattentive": 9036,
    "Ġenig": 15803,
    "Ġclinging": 10295,
    "objection": 19917,
    "parable": 16393,
    "Ġwish": 2095,
    "Ġranged": 10260,
    "Ġconception": 10313,
    "Ġplunder": 22605,
    "Ġsending": 8779,
    "ates": 520,
    "Ġprender": 22239,
    "Ġexcuses": 19043,
    "Ġkiss": 8183,
    "Ġcaulking": 20296,
    "albatross": 15634,
    "culiarity": 11143,
    "Ġlatest": 16824,
    "Ġscarcely": 4011,
    "Ġdeception": 18145,
    "houses": 9602,
    "Ġraft": 16120,
    "Ġbristol": 14383,
    "Ġperceived": 4714,
    "bill": 10079,
    "leave": 7837,
    "venison": 22631,
    "Ġjutting": 22305,
    "Ġirregular": 9868,
    "ustomed": 6100,
    "Ġmilan": 19538,
    "etus": 21581,
    "justice": 7958,
    "passenger": 24169,
    "fulfil": 16044,
    "Ġwindpipe": 23109,
    "Ġmuffled": 10643,
    "bbings": 19278,
    "moby": 8539,
    "Ġprair": 7747,
    "Ġusurpation": 18359,
    "iate": 6506,
    "Ġsheep": 10928,
    "Ġshilling": 18229,
    "Ġhandsome": 4906,
    "Ġrephrased": 26479,
    "Ġcurse": 7667,
    "uted": 7593,
    "Ġdispleasure": 16055,
    "west": 10741,
    "Ġhollows": 19744,
    "Ġcompliance": 12119,
    "Ġroughly": 17041,
    "Ġundue": 25994,
    "asleep": 21547,
    "Ġl": 303,
    "oat": 13767,
    "hearted": 6971,
    "utmost": 21591,
    "Ġportable": 19373,
    "anders": 18155,
    "itiousness": 21337,
    "Ġtattooed": 11380,
    "Ġtapers": 11554,
    "Ġrenew": 6147,
    "Ġanomalously": 25639,
    "Ġgeneric": 18454,
    "ierce": 14395,
    "precaution": 23825,
    "Ġquohog": 10974,
    "sailor": 14718,
    "grace": 5847,
    "Ġscrolled": 22288,
    "Ġinviting": 19145,
    "sutherland": 21065,
    "Ġseren": 7401,
    "withstand": 23030,
    "Ġcontextually": 11962,
    "wearing": 22690,
    "repro": 10772,
    "pet": 4867,
    "Ġshol": 21999,
    "Ġpreservative": 24630,
    "summon": 23418,
    "Ġunreserved": 19400,
    "Ġminiature": 11041,
    "Ġdeeply": 4717,
    "Ġheels": 10852,
    "Ġ270": 25133,
    "brandy": 19202,
    "Ġhumble": 8554,
    "Ġchambermaid": 24306,
    "understanding": 1127,
    "Ġprocured": 8680,
    "Ġnasty": 17446,
    "atively": 2696,
    "evidently": 20348,
    "Ġbelieve": 2145,
    "Ġswing": 13041,
    "Ġwhitt": 18057,
    "Ġdeplored": 20508,
    "Ġinterpreter": 23213,
    "Ġpetersburgh": 24231,
    "Ġslipping": 13365,
    "joy": 3335,
    "Ġsnatched": 10473,
    "Ġbegrim": 23020,
    "ils": 3181,
    "trem": 17683,
    "Ġcorn": 9353,
    "pooh": 18803,
    "apprec": 22845,
    "Ġed": 2240,
    "Ġperadventure": 22402,
    "Ġrob": 1253,
    "kindred": 24053,
    "Ġmen": 1435,
    "Ġtreatment": 12076,
    "Ġplaid": 22603,
    "Ġdeprived": 8211,
    "Ġexpands": 25238,
    "Ġwriting": 4668,
    "Ġpulpit": 7470,
    "Ġsuccessful": 9926,
    "judgment": 16755,
    "Ġrepeating": 11215,
    "Ġthine": 7374,
    "outside": 12809,
    "marrying": 19550,
    "Ġclanging": 18430,
    "limin": 8384,
    "plans": 21956,
    "chat": 21689,
    "Ġborrow": 10173,
    "Ġinsurg": 23683,
    "Ġuniformly": 19149,
    "wickham": 5885,
    "Ġcompre": 4451,
    "Ġdissatisfied": 14259,
    "tipt": 25086,
    "ĠĠĠĠĠĠĠĠĠĠĠĠĠĠĠĠĠĠĠĠĠĠĠĠĠĠĠĠĠĠĠĠĠĠĠĠĠĠĠĠĠĠĠĠĠĠĠĠ": 7989,
    "oquence": 11388,
    "agre": 18167,
    "Ġreverence": 12063,
    "bears": 22493,
    "Ġdrink": 4787,
    "deep": 1018,
    "Ġdoubling": 23321,
    "Ġobliv": 16137,
    "Ġscale": 1549,
    "Ġharder": 14452,
    "ď": 208,
    "coal": 12029,
    "teeth": 10358,
    "ided": 2785,
    "Ġinterpretation": 19719,
    "Ġinfatuation": 25857,
    "Ġdecidedly": 9512,
    "Ġinglorious": 24424,
    "Ġundertaking": 8577,
    "burned": 25082,
    "licted": 20958,
    "ipper": 13743,
    "Ġhorribly": 16345,
    "Ġcategor": 4143,
    "nical": 20993,
    "Ġmab": 12565,
    "Ġindustry": 18838,
    "Ġregression": 4412,
    "Ġcautiousness": 19868,
    "caterpillar": 26385,
    "Ġmaintainable": 12940,
    "Ġrecollected": 8311,
    "Ġforgive": 8010,
    "Ġtimidity": 24688,
    "perceived": 8862,
    "mber": 5850,
    "Ġprecision": 13193,
    "ittleness": 22389,
    "conside": 9293,
    "Ġaut": 1777,
    "Ġ111": 24436,
    "Ġhunted": 7453,
    "Ġparent": 14648,
    "Ġwriter": 11949,
    "Ġeas": 2354,
    "Ġdarkly": 19116,
    "Ġmimic": 3141,
    "angs": 5835,
    "queness": 18149,
    "Ġphilosophers": 10554,
    "Ġinformed": 6719,
    "Ġstick": 6027,
    "Ġhardship": 18915,
    "urs": 6990,
    "Ġastonished": 7089,
    "Ġsymmetry": 20369,
    "Ġunworth": 22040,
    "inities": 21188,
    "Ġembedd": 1405,
    "stepfather": 19192,
    "oglyph": 11018,
    "croquet": 25748,
    "Ġglac": 9349,
    "Ġplunged": 8696,
    "Ġ110": 24435,
    "Ġfocus": 4239,
    "glasses": 11217,
    "Ġdistur": 5313,
    "unc": 15773,
    "poss": 4778,
    "Ġmu": 17797,
    "practised": 20250,
    "absence": 12713,
    "Ġdepths": 4329,
    "Ġdisquiet": 18553,
    "Ġsignificant": 8637,
    "ineff": 21970,
    "Ġunprincipled": 20710,
    "Ġproviding": 1359,
    "Ġdisregarded": 22534,
    "Ġhurst": 5582,
    "Ġexertions": 13414,
    "Ġexisting": 12723,
    "umbled": 8495,
    "ure": 356,
    "Ġrich": 2991,
    "Ġignited": 25072,
    "Ġhoarsely": 26303,
    "oke": 1858,
    "Ġdevilish": 11231,
    "Ġperished": 11788,
    "gainst": 25144,
    "pursued": 17284,
    "parm": 21016,
    "Ġappro": 666,
    "ras": 21039,
    "Ġunperceived": 22041,
    "occurrences": 26333,
    "pleas": 3854,
    "naught": 20996,
    "sufferable": 12181,
    "Ġescape": 2647,
    "Ġdeferred": 18827,
    "Ġwherefore": 8527,
    "Ġfloundered": 18863,
    "Ġwhine": 21718,
    "Ġhorrid": 7999,
    "Ġnature": 2539,
    "Ġcollection": 8222,
    "discoloured": 23500,
    "nature": 5360,
    "Ġstreng": 18073,
    "Ġindifference": 6727,
    "Ġconverts": 2805,
    "Ġfragment": 14520,
    "Ġinvention": 19956,
    "ishness": 22346,
    "Ġ92": 24591,
    "Ġclothe": 4712,
    "Ġdisenc": 22530,
    "Ġoverflowing": 17240,
    "fits": 13721,
    "propagation": 1251,
    "loud": 11503,
    "insulting": 26056,
    "oubtedly": 6943,
    "forced": 11033,
    "Ġneuron": 1808,
    "Ġimpotent": 18444,
    "ility": 623,
    "vard": 21113,
    "Ġcoats": 16083,
    "exper": 8882,
    "Ġposture": 24167,
    "omy": 6251,
    "oftener": 23968,
    "borough": 20787,
    "nal": 1900,
    "north": 14618,
    "pen": 1203,
    "regards": 23468,
    "Ġmisunderstand": 18705,
    "hatch": 15368,
    "poise": 6173,
    "Ġcurrents": 13015,
    "Ġgrain": 15835,
    "Ġmagg": 18907,
    "Ġchatbots": 11351,
    "Ġaristocratic": 20515,
    "ribed": 7693,
    "Ġstool": 14464,
    "Ġcontradictory": 20400,
    "fuller": 22503,
    "Ġmusic": 5269,
    "Ġshun": 11713,
    "Ġvaluable": 5608,
    "Ġfootmarks": 19339,
    "Ġabomination": 22282,
    "ohn": 4562,
    "apse": 14201,
    "mangled": 20983,
    "asserted": 22313,
    "Ġmum": 13861,
    "Ġtravelling": 11309,
    "Ġvisited": 5949,
    "Ġtw": 842,
    "Ġlearnable": 3998,
    "Ġhighlands": 22776,
    "Ġattractions": 12922,
    "Ġreally": 2158,
    "Ġthe": 270,
    "ette": 15663,
    "umes": 10919,
    "vac": 15453,
    "Ġmerciless": 25247,
    "ald": 15629,
    "Ġperfection": 19220,
    "Ġdigesting": 19812,
    "Ġassume": 10518,
    "Ġoptimizer": 5036,
    "Ė": 215,
    "Ġ79": 24267,
    "Ġmol": 12566,
    "Ġsy": 490,
    "hibited": 17430,
    "Ġconcern": 2657,
    "Ġaffectation": 14443,
    "Ġbigot": 24566,
    "boom": 18999,
    "Ġsperm": 1842,
    "Ġcauldron": 25442,
    "Ġties": 12532,
    "Ġdescent": 998,
    "Ġfergus": 16869,
    "lemency": 21377,
    "Ġtrailing": 23082,
    "Ġmamm": 25093,
    "arnel": 18127,
    "Ġintervene": 25481,
    "isters": 11924,
    "Ġcompressed": 21861,
    "Ġlatter": 3993,
    "thinness": 25811,
    "Ġledge": 19404,
    "Ġjavelin": 26105,
    "Ġreceived": 2950,
    "Ġbarbed": 14838,
    "Ġflew": 5588,
    "collinses": 19925,
    "Ġoftener": 13569,
    "istrate": 7406,
    "Ġimprudently": 22384,
    "dr": 6223,
    "gged": 3779,
    "Ġadmitted": 8989,
    "Ġhis": 380,
    "Ġgould": 17992,
    "ifer": 11688,
    "Ġreceiving": 4882,
    "Ġmodular": 12822,
    "Ġrounded": 14441,
    "Ġimpul": 7207,
    "sper": 4437,
    "Ġrecognise": 12044,
    "Ġcope": 17832,
    "Ĕ": 213,
    "iceland": 21569,
    "Ġwave": 7576,
    "Ġmedicine": 15210,
    "Ġbefell": 14013,
    "Ġhasn": 12932,
    "Ġpurest": 14942,
    "Ġcrate": 19121,
    "Ġhovel": 8254,
    "stayed": 25291,
    "âĢĶâĢľ_": 13208,
    "Ġoppressive": 20458,
    "Ġabaft": 22278,
    "Ġpurchasing": 19877,
    "bidden": 19740,
    "farintosh": 24553,
    "Ġferrule": 24500,
    "Ġbites": 23745,
    "stay": 9683,
    "wretched": 10744,
    "Ġarranging": 11176,
    "Ġscarlet": 13228,
    "irations": 18173,
    "gument": 20887,
    "Ġsentiments": 7961,
    "Ġpromises": 10403,
    "let": 2733,
    "Ġsynd": 22211,
    "bran": 23576,
    "Ġproxim": 3198,
    "Ġsuperstitions": 17073,
    "Ġink": 8807,
    "Ġincredulity": 11313,
    "impul": 16559,
    "Ġgasfitters": 25041,
    "Ġfeeble": 12288,
    "answ": 15888,
    "lection": 3656,
    "Ġgracechurch": 12203,
    "descend": 23088,
    "Ġbusied": 19066,
    "hers": 7636,
    "arising": 17897,
    "indul": 22374,
    "Ġsword": 6734,
    "Ġ1828": 25720,
    "Ġabhorrence": 9055,
    "Ġunderstood": 5655,
    "Ġallowance": 14392,
    "mockery": 24378,
    "boo": 16353,
    "Ġche": 1760,
    "Ġempt": 5051,
    "Ġdestructive": 23488,
    "Ġinterior": 8900,
    "Ġasked": 2277,
    "eel": 11486,
    "Ġpoets": 11825,
    "fail": 17542,
    "caroline": 24152,
    "Ġconc": 1841,
    "Ġfirmly": 8014,
    "Ġpew": 9318,
    "rudential": 16711,
    "Ġjerking": 12250,
    "Ġslow": 2380,
    "Ġvicinity": 7315,
    "Ġcharged": 9857,
    "Ġmatted": 22916,
    "placidity": 25989,
    "Ġhails": 21954,
    "dham": 20832,
    "Ġspecialized": 3923,
    "gloomy": 25147,
    "Ġlye": 21554,
    "hes": 1396,
    "Ġdiscussing": 5202,
    "Ġgroping": 13669,
    "Ġaugment": 8695,
    "Ġseparating": 16684,
    "plunging": 25988,
    "Ġprivacy": 19527,
    "cong": 10691,
    "Ġlengthened": 25959,
    "hunting": 24385,
    "as": 302,
    "Ġ48": 24084,
    "Ġnames": 4534,
    "Ġpatagonian": 20537,
    "Ġtouch": 3397,
    "Ġstagnant": 24655,
    "Ġleaped": 8830,
    "Ġconvert": 11847,
    "Ġpallid": 12303,
    "lonely": 20959,
    "Ġugl": 12687,
    "Ġilluminate": 17195,
    "Ġworthy": 7241,
    "Ġlimited": 23547,
    "Ġoverlook": 10960,
    "Ġdefici": 22946,
    "lished": 8383,
    "Ġwhaling": 2783,
    "Ġanguish": 5583,
    "cape": 13701,
    "Ġonto": 14031,
    "private": 13586,
    "Ġsl": 1495,
    "Ġbigness": 19763,
    "ism": 4874,
    "Ġbreak": 2868,
    "apparat": 22847,
    ":": 30,
    "scornful": 26577,
    "tracks": 19649,
    "Ġmeasures": 1205,
    "Ġamends": 14248,
    "fearfully": 25119,
    "Ġthey": 577,
    "ert": 2633,
    "Ġtertiary": 15298,
    "Ġmadden": 10449,
    "Ġherein": 16194,
    "Ġtallow": 14782,
    "Ġyojo": 7611,
    "Ġcurve": 22964,
    "Ġstooping": 13067,
    "Ġnavigation": 9996,
    "Ġproved": 4884,
    "itheat": 21341,
    "aches": 6571,
    "prudently": 21037,
    "Ġseasons": 9434,
    "Ġsuspend": 14611,
    "olence": 10233,
    "point": 6064,
    "Ġslashing": 23173,
    "Ġfish": 2711,
    "Ġalternative": 19990,
    "provoke": 26072,
    "shining": 18495,
    "allet": 11085,
    "stealthily": 23965,
    "amped": 12037,
    "Ġintact": 21993,
    "Ġslaught": 23171,
    "Ġbulwarks": 5592,
    "Ġimpossible": 3548,
    "Ġsitu": 3498,
    "Ġgaunt": 11270,
    "Ġseriously": 7062,
    "eliest": 14749,
    "rougham": 15997,
    "Ġsettling": 11064,
    "Ġpartially": 13127,
    "Ġcircumference": 13548,
    "playing": 19660,
    "Ġheavily": 6742,
    "Ġheeds": 24520,
    "urities": 18052,
    "Ġsuperhuman": 23454,
    "Ġdyspepsia": 20645,
    "Ġbarrier": 16572,
    "Ġtottenham": 24145,
    "owers": 12689,
    "Ġdood": 22246,
    "Ġhanged": 17927,
    "Ġdisregard": 22532,
    "cus": 3984,
    "Ġunlab": 3790,
    "Ġcooper": 16084,
    "Ġresolve": 13174,
    "Ġradney": 6776,
    "Ġfoundering": 21422,
    "iom": 20917,
    "mentioned": 10626,
    "so": 891,
    "ensibility": 22553,
    "Ġsubmitted": 11875,
    "Ġmerchantmen": 19862,
    "Ġuseless": 7039,
    "ia": 1258,
    "Ġcocked": 12912,
    "rential": 22921,
    "wander": 17711,
    "regularly": 13212,
    "Ġpress": 5933,
    "Ġbusiness": 2232,
    "Ġrefer": 18697,
    "outward": 22164,
    "Ġtingling": 15096,
    ",âĢĿ": 580,
    "Ġodds": 13334,
    "Ġadieus": 25113,
    "Ġtoward": 17949,
    "Ġdolphins": 20399,
    "Ġinconvenient": 20013,
    "posture": 16929,
    "Ġdiscomposure": 20382,
    "Ġmechanical": 7938,
    "Ġpursuits": 12081,
    "Ġretreats": 16930,
    "coloured": 7291,
    "Ġlam": 21552,
    "Ġexactly": 2768,
    "Ġelaborate": 18638,
    "Ġtis": 15468,
    "Ġshy": 10905,
    "town": 7144,
    "Ġdies": 11596,
    "Ġpoints": 5249,
    "Ġswept": 7978,
    "Ġdistinguish": 2727,
    "Ġprecipitate": 19945,
    "Ġmiles": 3805,
    "Ġhopes": 4237,
    "bourgh": 19105,
    "Ġdemon": 7869,
    "Ġmil": 4257,
    "Ġbreckinridge": 14524,
    "Ġthrob": 21521,
    "voyages": 24856,
    "publ": 17640,
    "inity": 5693,
    "anite": 17839,
    "Ġemer": 5960,
    "urmountable": 15283,
    "Ġginger": 9213,
    "Ġcomstock": 21862,
    "gods": 13371,
    "alk": 1152,
    "Ġunsolved": 22037,
    "Ġshrieks": 12204,
    "Ġmenaced": 16296,
    "Ġ14": 9326,
    "Ġearning": 23944,
    "Ġwomen": 4750,
    "iscuit": 10601,
    "Ġaslant": 21905,
    "Ġoverjoy": 15967,
    "half": 4932,
    "Ġguiltless": 16942,
    "castles": 14638,
    "Ġblessing": 11265,
    "Ġstur": 15721,
    "entiating": 3438,
    "Ġsuperstition": 15057,
    "ices": 2136,
    "learned": 8603,
    "odox": 21817,
    "complain": 14362,
    "Ġpubl": 3944,
    "Ġnumbers": 2887,
    "ank": 1363,
    "log": 18538,
    "Ġhedgehog": 10647,
    "Ġother": 760,
    "Ġcaptains": 7457,
    "Ġcomforted": 19394,
    "Ġfighting": 12202,
    "ourselves": 9014,
    "Ġheinous": 18041,
    "plendent": 21962,
    "ivates": 18277,
    "Ġ16": 7927,
    "Ġdoubled": 19640,
    "Ġpromised": 5181,
    "Ġmeanly": 12914,
    "Ġmethodology": 2370,
    "Ġintermix": 25827,
    "puzzling": 26144,
    "Ġastern": 6091,
    "Ġfear": 2276,
    "Ġsolution": 9808,
    "Ġbalancing": 2432,
    "nuee": 17433,
    "big": 13689,
    "occurred": 13342,
    "Ġsuppose": 2866,
    "Ġpowdered": 24240,
    "Ġcommunicated": 9064,
    "Ġaz": 9632,
    "Ġtent": 15470,
    "Ġwrists": 11115,
    "Ġnameless": 7700,
    "Ġpipeline": 2316,
    "bene": 6114,
    "Ġstraighten": 24007,
    "Ġprepare": 8650,
    "adieu": 26202,
    "Ġuneasiness": 9487,
    "ogn": 2497,
    "boxes": 16890,
    "enses": 10998,
    "minded": 9040,
    "Ġhandsom": 11126,
    "Ġriotous": 20547,
    "Ġsorting": 3233,
    "Ġsmote": 18578,
    "definition": 23121,
    "Ġhood": 10825,
    "Ġtags": 20574,
    "difference": 13711,
    "sc": 1259,
    "Ġalgorithm": 782,
    "mm": 673,
    "Ġgrammars": 11404,
    "Ġlonging": 14303,
    "Ġorigin": 4123,
    "Ġpartners": 11857,
    "Ġcontemporary": 16016,
    "Ġever": 1180,
    "Ġpen": 1529,
    "Ġfugitive": 17330,
    "Ġpictured": 16625,
    "Ġevian": 24294,
    "Ġlakes": 8131,
    "Ġinconstant": 21499,
    "doing": 8587,
    "Ġtissu": 25921,
    "sleeping": 13458,
    "ois": 9137,
    "Ġcredited": 25157,
    "orate": 10802,
    "estone": 18364,
    "Ġuninhabited": 22055,
    "Ġunrolled": 22042,
    "Ġplush": 18610,
    "vicinity": 20483,
    "Ġstun": 11653,
    "example": 16017,
    "Ġstores": 18071,
    "intervals": 10640,
    "Ġright": 1502,
    "Ġgallantry": 15107,
    "Ġfleshy": 24615,
    "Ġbraved": 23841,
    "Ġwrought": 11948,
    "H": 44,
    "Ġremo": 3787,
    "Ġincreasing": 8248,
    "Ġjets": 10290,
    "Ġcal": 1325,
    "Ġfuneral": 10285,
    "Ġfive": 2836,
    "Ġmonomania": 17086,
    "Ġsmoke": 4716,
    "empt": 2620,
    "fetch": 12469,
    "naturalists": 23521,
    "Ġwent": 1534,
    "Ġdo": 510,
    "Ġstag": 6150,
    "block": 11472,
    "Ġlull": 15655,
    "Ġiroquois": 26472,
    "Ġalter": 6544,
    "Ġmustard": 12935,
    "iamond": 14592,
    "emic": 18182,
    "Ġcobb": 14279,
    "Ġcin": 13878,
    "Ġauger": 21206,
    "expected": 5780,
    "Ġgeography": 23373,
    "Ġindistinctly": 26118,
    "Ġviews": 7290,
    "Ġburial": 16523,
    "Ġskip": 1844,
    "Ġimpenet": 14218,
    "Ġbundle": 13430,
    "gor": 551,
    "Ġissues": 9545,
    "Ġgaped": 13970,
    "asse": 15649,
    "living": 7135,
    "ellig": 524,
    "100": 11466,
    "Ġexpect": 2307,
    "quality": 10235,
    "Ġessence": 13409,
    "Ġtorpor": 25034,
    "Ġchagrin": 20610,
    "Ġveget": 11890,
    "itories": 15553,
    "Ġshrew": 22004,
    "orders": 12878,
    "id": 338,
    "Ġcommissioned": 19897,
    "Ġplanted": 9777,
    "summoned": 26593,
    "unfortunate": 15781,
    "vi": 2376,
    "neath": 12871,
    "nostril": 26561,
    "Ġwhisker": 23938,
    "Ġlest": 6396,
    "deserts": 25382,
    "Ġdreadfully": 7726,
    "hug": 17565,
    "Ġtwinkled": 14315,
    "Ġ&": 6514,
    "thankful": 16808,
[...]
