{
  "metadata": {
    "vocab_size": 26614,
    "algorithm": "BPE",
    "created_at": "2026-09-19 06:59:57",
    "special_tokens": [
      "<PAD>",
      "<SOS>",
      "<EOS>",
      "<UNK>",
      "<MASK>"
    ]
  },
  "vocab": {
    "Ġpreposterous": 13668,
    "Ġintense": 6157,
    "Ġtake": 1581,
    "Ġinequal": 21494,
    "Ġpraised": 19552,
    "pit": 3984,
    "Ġfeared": 5930,
    "Ġsumatra": 15285,
    "Ġilluminate": 17192,
    "valuable": 8247,
    "cele": 21622,
    "onial": 11566,
    "friend": 3865,
    "promontory": 24728,
    "Ġschol": 17376,
    "Ġsequel": 14355,
    "Ġcompact": 2258,
    "Ġglu": 15666,
    "Ġopium": 8994,
    "wic": 21119,
    "Ġassembl": 20059,
    "archical": 1924,
    "Ġbids": 24645,
    "ributed": 8214,
    "Ġattached": 5392,
    "feren": 766,
    "Ġripples": 25505,
    "ommod": 13976,
    "Ġcompletely": 4860,
    "pervised": 1646,
    "Ļ": 252,
    "Ġspacious": 18312,
    "Ġ114": 24438,
    "summon": 23414,
    "Ġflurry": 18854,
    "oppressed": 24824,
    "Ġglitter": 25122,
    "Ġexceedingly": 4615,
    "riving": 21923,
    "eers": 20842,
    "Ġsticking": 13426,
    "Ġantichronical": 26609,
    "Ġ183": 13236,
    "fortunate": 4792,
    "Ġheidelburgh": 11642,
    "oric": 21394,
    "Ġcheerfulness": 10516,
    "ryder": 18636,
    "Ġimmemorial": 10510,
    "ppers": 7617,
    "Ġearlier": 9086,
    "Ġastronomy": 25926,
    "Ġfright": 3799,
    "Ġnigh": 4878,
    "per": 483,
    "icant": 21559,
    "tt": 13789,
    "calabash": 22890,
    "illar": 5101,
    "Ġbewitched": 25975,
    "addressed": 13384,
    "shine": 9285,
    "Ġsepulch": 15283,
    "Ġbroadway": 23981,
    "Ġgradient": 450,
    "Ġswimming": 5507,
    "ustry": 18358,
    "Ġprocopius": 19730,
    "Ġstained": 11651,
    "Ġcollecting": 12284,
    "Ġargosy": 24273,
    "Ġcalculus": 23980,
    "eluded": 21572,
    "Ġinches": 5845,
    "Ġundiscovered": 18255,
    "Ġsombre": 18853,
    "ò": 179,
    "etween": 775,
    "Ġopened": 3513,
    "Ġunmingled": 18266,
    "(-": 2978,
    "Ġhap": 18195,
    "Ġruefully": 17300,
    "vent": 683,
    "aneous": 7240,
    "Ġsmilingly": 22557,
    "Ġcarry": 4779,
    "Ġmoonlight": 9957,
    "Ġgri": 17987,
    "e": 73,
    "Ġpaul": 12060,
    "Ġcaucus": 17379,
    "Ġsteadfast": 8678,
    "concluded": 11243,
    "ulating": 10887,
    "Ġquantity": 6948,
    "Ġnapkins": 25161,
    "Ġmodeling": 2094,
    "rece": 21233,
    "relations": 14732,
    "Ġrequest": 6050,
    "rifice": 12501,
    "Ġmovable": 22430,
    "simp": 17665,
    "Ġphilipses": 24452,
    "Ġpersonal": 7479,
    "Ġsupports": 3051,
    "Ġtophet": 23572,
    "cture": 15663,
    "Ġ91": 24589,
    "Ġtending": 17724,
    "Ġpredef": 18519,
    "Ġgesture": 11399,
    "arp": 2026,
    "Â·": 21148,
    "Ġconsidering": 4616,
    "Ġpips": 9847,
    "Ġacc": 570,
    "az": 2180,
    "Ġtheorem": 2322,
    "beer": 22485,
    "steam": 23957,
    "Ġforeshad": 23451,
    "fered": 5560,
    "Ġfancies": 10424,
    "Ġcheerily": 13306,
    "Ġhighly": 4844,
    "Ġmonosyllable": 20725,
    "Ġsembl": 19057,
    "Ġterminating": 23510,
    "omas": 12668,
    "Ġsunk": 5752,
    "eridge": 15525,
    "Ġclung": 10961,
    "kick": 20935,
    "context": 3404,
    "Ġadam": 2126,
    "Ġfishy": 16523,
    "scor": 13013,
    "rocket": 13943,
    "precaution": 23820,
    "pain": 7350,
    "told": 7811,
    "Ġtenderness": 12213,
    "finish": 24384,
    "Ġdesires": 9456,
    "Ġvertu": 23888,
    "Ġadvent": 4356,
    "Ġexpert": 18870,
    "opard": 9290,
    "Ġbriefly": 11367,
    "Ġamateur": 22482,
    "Ġvideo": 25365,
    "Ġsalary": 13292,
    "Ġenough": 1762,
    "Ġuncertain": 4067,
    "Ġsupplied": 8943,
    "Ġpenn": 11112,
    "Ġdeaths": 14537,
    "Ġglimmering": 25240,
    "Ġejac": 10203,
    "Ġinvaluable": 10182,
    "Ġdriver": 16474,
    "?--": 15302,
    "ositories": 22261,
    "here": 2546,
    "fat": 8078,
    "Ġstocks": 23174,
    "accessible": 13638,
    "Ġports": 10818,
    "Ġaccommod": 14212,
    "Ġafternoon": 6052,
    "Ġgrud": 17995,
    "Ġnotable": 18222,
    "rosings": 15642,
    "Ġgrown": 5628,
    "iling": 3093,
    "oried": 10802,
    "Ġpeculiarly": 8286,
    "Ġfancied": 7326,
    "Ġgranite": 22805,
    "Ġbar": 3147,
    "france": 24282,
    "suit": 18638,
    "Ġclaims": 13372,
    "Ġhall": 4186,
    "vanished": 15060,
    "ould": 428,
    "osition": 1372,
    "Ġcontext": 1676,
    "Ġvit": 10245,
    "Ġrearing": 12674,
    "Ġhierarchical": 1925,
    "opence": 18507,
    "recogn": 13424,
    "allions": 22195,
    "canoes": 16230,
    "par": 1845,
    "clearly": 25195,
    "Ġweaken": 21919,
    "crop": 20797,
    "ravity": 21632,
    "Ġbleeds": 24397,
    "Ġshad": 3852,
    "Ġperiodical": 14771,
    "Ġsuperiority": 14616,
    "Ġobtained": 7432,
    "Ġg": 310,
    "Ġlimber": 16479,
    "Ġorgans": 15864,
    "shame": 16019,
    "Ġappend": 18362,
    "ĠĠĠĠĠĠĠĠĠĠĠĠ": 12897,
    "sorrow": 12506,
    "strip": 19829,
    "onness": 21253,
    "Ġrats": 21973,
    "Ġdishes": 16048,
    "Ġgracechurch": 12196,
    "Ġsubstantiated": 25875,
    "add": 5229,
    "Ġital": 10866,
    "Ġgenial": 12192,
    "phys": 18705,
    "Ġfuss": 13904,
    "Ġsmith": 16063,
    "Ġjunk": 15952,
    "Ġscratches": 22283,
    "Ġgales": 12662,
    "lizzy": 6651,
    "Ġdiscoveries": 13357,
    "Ġincor": 2608,
    "triumph": 15440,
    "Ġcorpus": 13029,
    "azz": 8261,
    "Ġsqueaking": 26274,
    "display": 19154,
    "Ġpondicherry": 20489,
    "Ġgaff": 17993,
    "Ġostentatiously": 20467,
    "Ġpurposes": 11168,
    "Ġaccount": 2317,
    "Ġdecomposes": 5506,
    "magnetic": 20551,
    "raged": 9211,
    "kings": 17583,
    "Ġresponsiveness": 2897,
    "Ġbeadle": 26484,
    "Ġcerem": 7077,
    "dem": 10691,
    "Ġcar": 1418,
    "Ġretains": 20028,
    "Ġdungeon": 16996,
    "whisper": 17083,
    "Á": 130,
    "rue": 1127,
    "inously": 21185,
    "Ġtarshish": 12027,
    "imod": 15708,
    "deserving": 17241,
    "Ġbitterest": 12400,
    "quietude": 24655,
    "Ġtufted": 17014,
    "Ġfortun": 4982,
    "storied": 18024,
    "Ġsynd": 22204,
    "Ġstabilizing": 3657,
    "Ġsummoned": 9910,
    "and": 372,
    "Ġdivergence": 2726,
    "Ġmagnanimous": 17410,
    "paying": 25411,
    "Ġyield": 5092,
    "Ġresearch": 3040,
    "inordinate": 21193,
    "Ġyourselves": 9028,
    "richard": 17286,
    "Ġdazzling": 15210,
    "wondering": 19844,
    "Ġgin": 13960,
    "Ġkno": 5242,
    "Ġnarrowly": 16820,
    "Ġconflict": 17273,
    "overfitting": 13098,
    "Ġleaps": 14001,
    "Ġhunsford": 6301,
    "Ġresume": 18565,
    "Ġengland": 3859,
    "Ġencamp": 22799,
    "dan": 17515,
    "Ġinser": 6820,
    "ered": 1685,
    "Ġscrupulous": 20067,
    "hard": 4690,
    "ampl": 21839,
    "Ġaccomplished": 7104,
    "Ġsolic": 7932,
    "evidently": 20344,
    "Ġeyelashes": 26106,
    "Ġunb": 10907,
    "Ġbottles": 16570,
    "Ġobserv": 8586,
    "coburg": 13597,
    "Ġwantonly": 22889,
    "enchant": 21282,
    "Ġhaunted": 10253,
    "Ġtumult": 7114,
    "Ġwhalebone": 10977,
    "Ġfrederick": 15585,
    "Ġconceive": 8461,
    "Ġcosmopolitan": 20640,
    "Ġbathe": 25443,
    "iii": 14773,
    "friendly": 13283,
    "Ġpolitely": 8993,
    "Ġcum": 21340,
    "Ġheadland": 22892,
    "verd": 21724,
    "Ġscru": 8190,
    "Ġexclusiveness": 23924,
    "Ġspinal": 12300,
    "violent": 14580,
    "Ġspecial": 2103,
    "Ġaval": 15493,
    "Ġwildly": 9413,
    "spread": 8388,
    "iation": 7343,
    "else": 6533,
    "Ġheav": 1847,
    "Ġawhile": 13829,
    "Ġsupplement": 22992,
    "Ġwarden": 17224,
    "queness": 18146,
    "Ġlabyrin": 13102,
    "enchanted": 26424,
    "ghost": 20886,
    "raction": 8137,
    "Ġburly": 19249,
    "suggest": 20374,
    "cial": 2648,
    "Ġvouch": 15808,
    "Ġshow": 3402,
    "istol": 6259,
    "Ġbrazier": 26320,
    "Ġseap": 15813,
    "Ġbrides": 22860,
    "key": 5463,
    "Ġconflagration": 26364,
    "Ġcoaxing": 18594,
    "Ġneighbor": 25803,
    "Ġtalker": 23369,
    "Ġpictured": 16622,
    "Ġmaintain": 855,
    "Ġcaptivating": 26049,
    "Ġinstability": 3815,
    "ross": 806,
    "Ġvolley": 24144,
    "reported": 24493,
    "measure": 10030,
    "Ġpossess": 3203,
    "ressed": 3022,
    "glances": 23851,
    "Ġasser": 6257,
    "Ġcogn": 11002,
    "Ġlug": 15650,
    "Ġsubsets": 2342,
    "Ġinjunctions": 24269,
    "head": 1436,
    "Ġste": 1390,
    "Ġtorn": 5999,
    "Ġcharnel": 22249,
    "Ġprofessor": 11230,
    "pe": 1437,
    "Ġhumiliating": 22878,
    "ification": 1019,
    "Ġforesaw": 19127,
    "Ġfireboard": 23531,
    "Ġannoyed": 17199,
    "Ġundergo": 23237,
    "en": 271,
    "Ġdirt": 15592,
    "Ġatone": 15801,
    "Ġfires": 16472,
    "50": 6784,
    "waves": 10742,
    "Ġgret": 21598,
    "Ġquakers": 22413,
    "Ġcause": 2407,
    "Ġcarbuncle": 14444,
    "Ġhatter": 4113,
    "dropout": 3195,
    "Ġpage": 6978,
    "Ġlashing": 11615,
    "Ġperpetual": 12301,
    "Ġcomforter": 20505,
    "Ġpatagonian": 20533,
    "Ġdiscours": 18718,
    "Ġundertaken": 18987,
    "Ġmutters": 23953,
    "Ġfrequented": 16585,
    "Ġinfluence": 5515,
    "Ġprocedure": 2809,
    "travellers": 24318,
    "shirt": 22445,
    "hunted": 16832,
    "furthermore": 20002,
    "vac": 15450,
    "Ġstubborn": 10414,
    "Ġsometimes": 2166,
    "Ġdelusion": 18973,
    "Ġgene": 15670,
    "rep": 5525,
    "cost": 19185,
    "knowledge": 7478,
    "Ġmorsel": 20676,
    "rey": 12535,
    "Ġresearches": 13122,
    "Ġparticip": 16130,
    "ace": 717,
    "Ġpres": 9731,
    "Ġstreaming": 19672,
    "Ġcontinuously": 23205,
    "Ġtand": 21159,
    "Ġrepentance": 15159,
    "qu": 368,
    "walks": 19720,
    "Ġjumped": 7096,
    "Ġtepid": 26412,
    "Ġissu": 6253,
    "Ä": 133,
    "Ġbeauty": 3771,
    "Ġlouisiana": 25076,
    "Ġprophes": 16348,
    "Ġabruptness": 25299,
    "Ġcommenting": 25228,
    "ĠĠ": 352,
    "dman": 10088,
    "Ġmoluccas": 25629,
    "shown": 22441,
    "headers": 23106,
    "Ġdepos": 11008,
    "Ġandes": 12638,
    "izer": 2029,
    "sl": 5794,
    "Ġken": 22188,
    "Ġphaeton": 17464,
    "mean": 6438,
    "Ġwarnings": 16881,
    "temper": 10003,
    "Ġcurrent": 13023,
    "Ġfavoring": 2341,
    "msgate": 18410,
    "Ġphenomena": 21481,
    "tent": 21063,
    "rew": 3649,
    "Ġtheoretically": 3568,
    "ident": 3378,
    "Ġdiana": 21434,
    "Ġdegrees": 7294,
    "dutch": 17218,
    "es": 288,
    "Ġinhabit": 5782,
    "fabulous": 20472,
    "Ġdisc": 945,
    "Ġcompressed": 21854,
    "olent": 8154,
    "tis": 4106,
    "Ġmechanisms": 1578,
    "cork": 20795,
    "ething": 1602,
    "Ġforge": 8456,
    "Ġlost": 2636,
    "Ġfalsely": 20580,
    "Ġledge": 19399,
    "Ġoutside": 5554,
    "Ġwhiting": 10859,
    "Ġmenaced": 16292,
    "====": 1481,
    "Ġcalmer": 23039,
    "Ġbullion": 24983,
    "Ġab": 528,
    "Ġcreates": 2009,
    "Ġtoilings": 24742,
    "Ġplaid": 22597,
    "Ġtails": 9901,
    "Ġmogul": 12859,
    "arus": 13911,
    "Ġtrifling": 10602,
    "ab": 345,
    "akeman": 6267,
    "Ġflooded": 24959,
    "Ġexcluded": 16384,
    "Ġbackbones": 22656,
    "Ġhopelessly": 16378,
    "Ġfooted": 23795,
    "Ġroods": 22401,
    "Ġroman": 8322,
    "Ġborders": 15570,
    "Ġ8": 5433,
    "Ġpol": 2574,
    "Ġprotesting": 14740,
    "agers": 5633,
    "Ġfaithfulness": 24446,
    "Ġload": 14145,
    "400": 20754,
    "jets": 20927,
    "Ē": 211,
    "Ġeloquent": 16110,
    "oin": 17617,
    "Ġpropriety": 10009,
    "Ġbuck": 7157,
    "Ġstands": 5258,
    "Ġcous": 3437,
    "weaknesses": 26030,
    "Ġrequirements": 9793,
    "Ġaddison": 14232,
    "machines": 8384,
    "avast": 8896,
    "Ġconfine": 14509,
    "Ġclutching": 24951,
    "Ġcongeal": 25980,
    "Ġhelmeted": 19687,
    "Ġsignification": 19201,
    "Ġresist": 7915,
    "clump": 23153,
    "Ġfabulous": 25948,
    "Ġobtaining": 16131,
    "Ġevinced": 7100,
    "arms": 10173,
    "squee": 15430,
    "Ġconcentration": 25062,
    "Ġindefinite": 17176,
    "Ġfire": 2329,
    "hunters": 16833,
    "Ġcrop": 10162,
    "ilogue": 21721,
    "Ġbricks": 13561,
    "Ġdrow": 21424,
    "Ġoriginate": 24121,
    "Ġattentively": 9949,
    "Ġflowing": 14410,
    "Ġmeal": 9696,
    "Ġcrests": 25685,
    "Ġinnumerable": 13350,
    "Ġzig": 18743,
    "Ġalleviated": 26203,
    "hall": 8084,
    "Ġcauldron": 25441,
    "Ġvirgin": 7328,
    "Ġsensationalism": 26066,
    "Ġsubterr": 10348,
    "Ġkate": 15904,
    "Ġcolour": 4461,
    "Ġvile": 8472,
    "furnish": 25338,
    "]]": 5205,
    "Ġattaining": 15802,
    "Ġrespectfully": 18994,
    "Ġmoulded": 16975,
    "Ġfinishing": 23121,
    "Ġsinister": 8568,
    "iquet": 17575,
    "Ġshocked": 9400,
    "susp": 10596,
    "Ġardently": 9497,
    "storm": 9681,
    "gentle": 5356,
    "streamed": 25966,
    "se": 358,
    "Ġirrevocably": 15296,
    "Ġdividing": 12109,
    "scure": 22978,
    "Ġsports": 18310,
    "ades": 5631,
    "andes": 18151,
    "justice": 7957,
    "Ġkne": 4267,
    "organic": 25946,
    "Ġkicked": 10581,
    "Ġbattered": 17862,
    "Ġblunt": 11892,
    "Ġdesisted": 22970,
    "Ġspirit": 3724,
    "dham": 20829,
    "saw": 5893,
    "Ġinsurgents": 26600,
    "pudding": 17647,
    "Ġcruelty": 9968,
    "Ġexacted": 23602,
    "Ġgentlemanlike": 12064,
    "Ġremedy": 18725,
    "Ġbecause": 2208,
    "Ġqualifications": 24675,
    "stepfather": 19189,
    "Ġcosine": 2368,
    "Ġinfirm": 19016,
    "Ġdrown": 6815,
    "Ġexc": 1829,
    "Ġhoping": 11103,
    "\",": 10678,
    "Ġnetworks": 595,
    "Ġmacro": 25939,
    "Ġworthy": 7241,
    "Ġ54": 24322,
    "Ġtertiary": 15293,
    "Ġtit": 8398,
    "narrow": 11507,
    "gree": 10701,
    "rack": 18010,
    "Ġstoutest": 24628,
    "Ġdisobey": 18559,
    "Ġrudder": 25107,
    "whiteness": 18370,
    "ual": 947,
    "oked": 4308,
    "phant": 6287,
    "ked": 5616,
    "scrape": 25698,
    "Ġsubstantial": 14808,
    "Ġradney": 6775,
    "assisted": 22304,
    "Ġdispleasure": 16050,
    "pul": 8753,
    "ellation": 12746,
    "Ġcedars": 20291,
    "chan": 1155,
    "izzy": 3095,
    "c": 71,
    "Ġornaments": 17451,
    "Ġfrequently": 4680,
    "Ġembell": 14419,
    "super": 5943,
    "Ġdeserved": 7736,
    "Ġjiff": 22293,
    "Ġgeorge": 3749,
    "Ġrelating": 2703,
    "Ġpigs": 19746,
    "Ġindignity": 18833,
    "otherwise": 7670,
    "Ġran": 3341,
    "Ġwhirled": 14959,
    "enger": 10773,
    "lesson": 22771,
    "Ġoakshott": 12227,
    "trembling": 17142,
    "Ġclusters": 25232,
    "Ġmaimed": 21315,
    "Ġminim": 1324,
    "Ġprofoundest": 16860,
    "Ġintervening": 17267,
    "eleg": 20848,
    "Ġpapa": 10656,
    "emone": 21924,
    "Ġeffects": 7236,
    "Ġanxiety": 5408,
    "Ġfearfully": 23511,
    "Ġstreatham": 17448,
    "Ġunfor": 15839,
    "Ġunit": 1844,
    "Ġharshly": 25249,
    "å": 166,
    "uting": 15658,
    "Ġinte": 2063,
    "Ġflew": 5588,
    "strils": 10458,
    "Ġcrack": 7709,
    "cher": 5786,
    "linked": 17593,
    "Ġadorned": 15246,
    "zza": 24166,
    "designated": 26295,
    "Ġrudimental": 25108,
    "ope": 4126,
    "shri": 14234,
    "Ġchewed": 16372,
    "Ġsingle": 1694,
    "Ġsubfield": 11867,
    "Ġdependency": 3489,
    "produ": 10720,
    "reeling": 21243,
    "disgraceful": 26076,
    "preservation": 25305,
    "angu": 568,
    "family": 7324,
    "Ġdist": 680,
    "Ġgossip": 18470,
    ":": 30,
    "Ġmemories": 14541,
    "Ġhearken": 21682,
    "Ġlamp": 4115,
    "Ġbrings": 11878,
    "Ġay": 15491,
    "Ġgobern": 22422,
    "ppery": 10892,
    "Ġdeplored": 20503,
    "Ġdebar": 24271,
    "barr": 15319,
    "mile": 17597,
    "Ġpondering": 17005,
    "liking": 22921,
    "Ġquadruped": 17458,
    "Ġswiftly": 5670,
    "Ġunful": 22008,
    "Ġlens": 8437,
    "Ġpropos": 7062,
    "olets": 21007,
    "izens": 18135,
    "woes": 21132,
    "wolf": 26409,
    "Ġxavier": 2853,
    "aders": 21755,
    "yours": 7694,
    "eng": 1487,
    "topp": 22562,
    "Ġbalm": 22899,
    "Ġfaith": 5350,
    "spouting": 25000,
    "Ġprogress": 5023,
    "Ġbridges": 24682,
    "ven": 782,
    "Ġadjusts": 8980,
    "Ġtaste": 5524,
    "Ġdrinks": 24279,
    "imet": 21703,
    "Ġupper": 5090,
    "Ġlibr": 15999,
    "eric": 3471,
    "Ġserpents": 13075,
    "metals": 24766,
    "leap": 21365,
    "Ġreports": 19084,
    "isure": 6240,
    "string": 15684,
    "judgment": 16753,
    "tails": 21085,
    "fanning": 20865,
    "Ġsl": 1496,
    "fourth": 11328,
    "riers": 18182,
    "Ġforc": 9227,
    "ext": 913,
    "Ġbewit": 15726,
    "frozen": 25139,
    "woe": 21134,
    "Ġgrie": 3585,
    "Ġcarved": 7946,
    "Ġlifetime": 13601,
    "Ġentrapped": 26262,
    "tell": 1379,
    "ination": 2912,
    "Ġhun": 1495,
    "station": 10844,
    "Ġtol": 6675,
    "Ġblasted": 7937,
    "agre": 18164,
    "Ġundo": 15840,
    "Ġassembly": 10642,
    "sensible": 20050,
    "Ġdepended": 9776,
    "ward": 705,
    "ister": 1294,
    "Ġcharles": 11955,
    "Ġscuff": 15941,
    "Ġutility": 23513,
    "Ġfleetness": 20178,
    "stones": 11635,
    "illings": 14142,
    "Ġliked": 5264,
    "squ": 7809,
    "european": 26371,
    "--âĢĺ": 22845,
    "Ġloitering": 22113,
    "Ġrecently": 11860,
    "Ġgrateful": 7659,
    "recover": 24622,
    "million": 25751,
    "Ġkid": 9724,
    "merchant": 10467,
    "Ġwhirlp": 16963,
    "Ġwomen": 4750,
    "Ġtremble": 6906,
    "Ġcares": 9365,
    ",âĢĿâĢĶ": 14214,
    "Ġslanting": 23170,
    "rons": 21038,
    "Ġstony": 21739,
    "Ġplight": 14280,
    "Ġdictionary": 15111,
    "Ġsurmise": 12293,
    "Ġresigned": 9767,
    "Ġinspector": 6498,
    "Ġwhereon": 16100,
    "Ġmultitude": 9324,
    "honey": 20904,
    "enderby": 25215,
    "Ġkindliness": 23292,
    "Ġsolicit": 22881,
    "ink": 756,
    "Ġmoose": 22428,
    "Ġloosed": 22109,
    "Ġgrizz": 10351,
    "inence": 15481,
    "repaid": 24491,
    "promise": 12248,
    "gloomy": 25144,
    "Ġexter": 7397,
    "Ġtrip": 16788,
    "haul": 14764,
    "Ġunclasp": 26511,
    "thesize": 24906,
    "Ġdeprec": 15756,
    "ivities": 22074,
    "udding": 11863,
    "Ġcontour": 18474,
    "Ġring": 4452,
    "continued": 8675,
    "Ġevening": 2652,
    "Ġlodging": 24092,
    "Ġlatent": 19654,
    "superst": 11325,
    "Ġapply": 1777,
    "Ġenormity": 19694,
    "Ġgleam": 12306,
    "Ġkramm": 26233,
    "Ġinno": 1423,
    "banish": 20781,
    "anning": 10164,
    "Ġloaded": 8490,
    "pect": 1252,
    "_âĢĶ": 11467,
    "ornamented": 26595,
    "mediterranean": 16402,
    "Ġstaring": 8825,
    "Ġbuffalo": 11429,
    "neat": 22459,
    "Ġduplicate": 17215,
    "Ġdon": 1612,
    "Ġuncle": 3191,
    "opement": 10311,
    "Ġembodiment": 20527,
    "Ġexpiring": 16097,
    "young": 7321,
    "piece": 6655,
    "Ġfleeting": 19326,
    "Ġplaint": 10325,
    "ompl": 4536,
    "Ġcruis": 14624,
    "Ġindignant": 12237,
    "Ġvoyage": 3055,
    "pennies": 26285,
    "Ġravine": 18646,
    "aked": 2015,
    "contained": 22467,
    "Ġ120": 16858,
    "caus": 11476,
    "respect": 6374,
    "Ġsurp": 9634,
    "Ġtravels": 11925,
    "isons": 17849,
    "Ġsoapstone": 20509,
    "Ġcuring": 21342,
    "Ġflap": 14420,
    "Ġtrifles": 16951,
    "con": 651,
    "Ġwedged": 24070,
    "attributed": 23117,
    "Ġrecollections": 10512,
    "wise": 2572,
    "Ġbrahma": 26319,
    "Ġelse": 2479,
    "Ġsnaky": 23739,
    "Ġtrepidation": 19213,
    "Ġtener": 21162,
    "Ġoblivious": 26032,
    "Ġbay": 9168,
    "Ġacting": 10991,
    "vel": 2382,
    "mm": 676,
    "Ġwarmed": 12022,
    "housekeeping": 24102,
    "Ġdin": 3626,
    "axing": 18547,
    "Ġexcuses": 19039,
    "Ġsuffice": 18868,
    "Ġexpected": 3697,
    "Ġwight": 12550,
    "Ġserpent": 6737,
    "Ġjacob": 1896,
    "Ġnum": 1346,
    "Ġopportunities": 19248,
    "ological": 1881,
    "iple": 4806,
    "Ġcomplying": 18584,
    "hem": 6663,
    "income": 15486,
    "Ġnic": 7376,
    "chie": 21687,
    "Ġamb": 9291,
    "fitters": 24761,
    "wand": 10738,
    "Ġrubbing": 9320,
    "Ġremote": 8919,
    "Ġnocturnal": 20714,
    "Ġinjection": 3467,
    "pillar": 5619,
    "Ġimportance": 4900,
    "Ġincreasing": 8246,
    "road": 6677,
    "Ġdeposed": 16086,
    "bordered": 17498,
    "determined": 9079,
    "Ġtwit": 12926,
    "orum": 12587,
    "els": 1764,
    "Ġcoppers": 22580,
    "Ġregularly": 7657,
    "Ġquestions": 3974,
    "Ġwrongfully": 24248,
    "Ġreynolds": 10209,
    "Ġpleasantly": 14520,
    "Ġuncivil": 11155,
    "Ġpray": 3902,
    "protected": 19920,
    "Ġproposal": 10018,
    "Ġcloud": 3914,
    "Ġdancing": 5703,
    "Ġunappalled": 22062,
    "Ġreturns": 11924,
    "soon": 4028,
    "Ġpapers": 4022,
    "Ġexposing": 11832,
    "Ġpist": 12612,
    "Ġsingled": 23771,
    "Ġglasses": 9474,
    "Ġrainbows": 19647,
    "utter": 7593,
    "Ġferrule": 24500,
    "bru": 12437,
    "successively": 24779,
    "Ġenig": 15798,
    "ory": 1078,
    "Ġenthr": 22744,
    "fifth": 20145,
    "ange": 1017,
    "cross": 3577,
    "Ġtable": 2497,
    "Ġclue": 7020,
    "usage": 12830,
    "labours": 16617,
    "Ġharb": 7370,
    "began": 6426,
    "Ġunbecoming": 22061,
    "uberance": 25916,
    "Ġunhappiness": 14118,
    "Ġdrink": 4787,
    "Ġpint": 17909,
    "ckery": 22087,
    "Ġshapes": 14108,
    "merc": 19279,
    "Ġhipp": 21489,
    "Ġbegrim": 23009,
    "halfway": 24311,
    "iocr": 20922,
    "december": 25558,
    "Ġdeserve": 8308,
    "hement": 13831,
    "ui": 9144,
    "inian": 21181,
    "Ġnervously": 19183,
    "iable": 3331,
    "Ġnightfall": 23127,
    "unmistakable": 21892,
    "sitting": 8386,
    "roc": 9674,
    "Ġoverflow": 10291,
    "Ġmiraculous": 13546,
    "Ġusefulness": 19406,
    "Ġknowing": 4457,
    "Ġslim": 18936,
    "Ġquitting": 7645,
    "Ġmended": 21312,
    "Ġsnuffing": 25012,
    "tempestuous": 26097,
    "Ġbuttoned": 25368,
    "phia": 22765,
    "Ġchatbots": 11349,
    "Ġsomeone": 6703,
    "Ġcrew": 2494,
    "Ġportions": 19367,
    "iscre": 17850,
    "arman": 11594,
    "Ġjollity": 25566,
    "umbled": 8492,
    "handled": 19260,
    "analysis": 26173,
    "Ġdexter": 9700,
    "shout": 22439,
    "ienced": 5685,
    "half": 4931,
    "Ġmistake": 6203,
    "compass": 9459,
    "Ġinscribed": 24938,
    "educated": 17259,
    "Ġhitting": 21484,
    "compasses": 19456,
    "achment": 5464,
    "Ġharem": 9708,
    "Ġproduces": 2092,
    "insist": 23061,
    "Ġsternly": 16715,
    "Ġempire": 11145,
    "Ġmeet": 2804,
    "Ġchanges": 2282,
    "dÃ¦mon": 17527,
    "Ġcommands": 16589,
    "Ġinsensible": 12323,
    "Ġpervading": 20612,
    "Ġglanced": 5951,
    "Ġconsequent": 18110,
    "Ġfiend": 4412,
    "shooting": 16965,
    "Ġshrieking": 24758,
    "Ġpitched": 9443,
    "Ġours": 4612,
    "Ġstrife": 18613,
    "Ġpromise": 4200,
    "Ġchemical": 10410,
    "Ġbigger": 19760,
    "itably": 10782,
    "nostril": 26559,
    "iled": 1765,
    "Ġdays": 2077,
    "Ġtubs": 11370,
    "Ġassigned": 16311,
    "Ġinsane": 19268,
    "Ġavail": 11226,
    "Ġsplendour": 20223,
    "at": 268,
    "Ġbreathlessly": 24280,
    "Ġlose": 5028,
    "Ġstrictly": 12283,
    "Ġpersist": 16274,
    "Ġsymbol": 7716,
    "ays": 6683,
    "amid": 12721,
    "Ġprecautions": 23724,
    "Ġphilistines": 26082,
    "passenger": 24165,
    "Ġlonely": 6823,
    "Ġholiday": 12995,
    "Ġcoleman": 22582,
    "Ġ}": 21152,
    "venerable": 26408,
    "Ġproficiency": 19191,
    "Ġedition": 16434,
    "Ġalan": 10869,
    "Ġsuspicious": 9479,
    "ishop": 9741,
    "Ġexploding": 2109,
    "obliv": 23094,
    "uzz": 4524,
    "Ġevenly": 4131,
    "surface": 10530,
    "Ġresponsible": 9885,
    "arking": 16124,
    "Ġcomposedly": 25183,
    "gracechurch": 24581,
    "Ġassaulted": 25320,
    "Ġimprovements": 14516,
    "proble": 9393,
    "yes": 984,
    "Ġiroqu": 21621,
    "ingle": 1039,
    "Ġchanging": 11751,
    "pered": 4199,
    "shuff": 18484,
    "Ġshowers": 16605,
    "Ġphil": 3385,
    "Ġable": 3081,
    "Ġbeasts": 10617,
    "Ġbite": 10797,
    "Ġparagraph": 17453,
    "Ġpersever": 10002,
    "Ġprodu": 1205,
    "Ġpsych": 10176,
    "thinness": 25810,
    "Ġinhab": 5083,
    "quee": 4132,
    "Ġcompanies": 14557,
    "Ġpretence": 13206,
    "Ġsingers": 23770,
    "Ġunreasoning": 15845,
    "Ġprosecut": 9697,
    "contents": 12056,
    "imag": 6990,
    "Ġnumerical": 4246,
    "Ġork": 18284,
    "Ġrelated": 3715,
    "Ġstanding": 2998,
    "Ġascertained": 25296,
    "Ġcivilly": 19602,
    "might": 4077,
    "Ġlivelihood": 24774,
    "ihood": 20921,
    "obvious": 9356,
    "Ġdisaster": 12884,
    "Ġobliterated": 17404,
    "Ġhappiest": 11880,
    "ansion": 10925,
    "Ġolive": 12562,
    "Ġhoofs": 14527,
    "ĠĠĠĠĠĠĠĠĠĠĠĠĠĠĠĠĠĠĠĠĠĠĠĠĠĠĠĠĠĠĠĠĠĠĠĠĠĠĠĠ": 4517,
    "Ġgidd": 25783,
    "Ġshovel": 23491,
    "Ġactivation": 917,
    "dipped": 20836,
    "Ġsubsisted": 19117,
    "Ġyankees": 26201,
    "kes": 3679,
    "Ġboat": 1277,
    "crier": 20819,
    "Ġintellectual": 11401,
    "alcul": 15626,
    "Ġsecret": 3720,
    "fall": 5135,
    "Ġeye": 2277,
    "!âĢĻâĢĿ": 16592,
    "Ġretarded": 23069,
    "action": 3726,
    "Ī": 235,
    "Ġerected": 12231,
    "luxur": 25822,
    "amb": 5723,
    "Ġenem": 4708,
    "hurst": 19878,
    "Ġsibbald": 21229,
    "Ġstrict": 7222,
    "Ġcrews": 8990,
    "seemed": 4304,
    "Ġhardship": 18913,
    "abez": 10222,
    "Ġcop": 7579,
    "Ġinst": 911,
    "Ġpile": 8423,
    "intern": 23733,
    "Ġwhat": 600,
    "Ġegotistical": 26191,
    "Ġnice": 6676,
    "Ġconversation": 3327,
    "Ġbohem": 8526,
    "formal": 14167,
    "portuguese": 25413,
    "Ġjurors": 17343,
    "Ġapparent": 5466,
    "Ġwhine": 21712,
    "Ġnovels": 15928,
    "Ġincantation": 26257,
    "alog": 8804,
    "Ġgrief": 4621,
    "out": 467,
    "Ġcondescension": 10618,
    "Ġfil": 3473,
    "Ġsmacking": 20164,
    "Ġarguments": 8036,
    "Ġlake": 5227,
    "Ġden": 3106,
    "Ġmembrane": 20502,
    "Ġcontemporary": 16011,
    "Ġgods": 6454,
    "Ġboarding": 12084,
    "ague": 3909,
    "Ġejaculation": 20253,
    "Ġconfessed": 8008,
    "Ġhans": 12623,
    "Ġtransition": 14233,
    "Ġnewfoundland": 26569,
    "ifling": 15781,
    "Ġmeasures": 1206,
    "Ġselect": 4000,
    "Ġceaseless": 13487,
    "iloquent": 21722,
    "Ġlate": 3376,
    "Ġmushroom": 13234,
    "evil": 11485,
    "Ġaccess": 9746,
    "Ġrelent": 18773,
    "Ġintentions": 10607,
    "pherd": 13643,
    "Ġuneasily": 24230,
    "Ġarab": 7823,
    "nurse": 15207,
    "looks": 12016,
    "Ġstreat": 15722,
    "etrics": 21582,
    "Ġconverted": 16111,
    "Ġvineyards": 25106,
    "Ġrenowned": 26193,
    "seat": 18125,
    "Ġpack": 5444,
    "Ġnumer": 3639,
    "introduced": 15123,
    "Ġpainful": 6462,
    "Ġconsecutive": 20701,
    "cellar": 20276,
    "Ġdemig": 20355,
    "comfort": 5647,
    "rinted": 21042,
    "Ġbarn": 11586,
    "ractions": 11632,
    "Ġincreasingly": 9370,
    "onah": 3334,
    "²": 115,
    "Ġpunctilious": 26352,
    "Ġfathom": 17048,
    "Ġperson": 2364,
    "Ġdeceived": 6544,
    "Ġgans": 5821,
    "choice": 21688,
    "Ġsubdiv": 16158,
    "Ġattitude": 8902,
    "Ġsuperstitious": 13519,
    "Ġdelight": 2545,
    "ingly": 2135,
    "chambers": 25454,
    "Ġharpooning": 23976,
    "Ġdeposition": 18612,
    "onely": 6516,
    "Ġobsc": 7039,
    "rifled": 21046,
    "Ġslightest": 6092,
    "Ġfascinated": 25635,
    "transferred": 24514,
    "Ġlikely": 3599,
    "arbuck": 2024,
    "repent": 15513,
    "Ġspeed": 2446,
    "rooms": 10432,
    "Ġslee": 8974,
    "Ġentitled": 8538,
    "example": 16012,
    "breadth": 20275,
    "bar": 7541,
    "Ġlucas": 3835,
    "Ġfetched": 24567,
    "Ġwicked": 5960,
    "Ġodor": 12147,
    "Ġagricultural": 26550,
    "shadows": 25479,
    "Ġinnocent": 4921,
    "Ġchambermaid": 24304,
    "Ġcompar": 4771,
    "Ġcurv": 3512,
    "ayed": 12709,
    "Ġdum": 10811,
    "usable": 22286,
    "evidence": 25521,
    "penny": 22942,
    "Ġexternal": 8364,
    "Ġcounter": 6481,
    "Ġoverall": 4358,
    "Ġdespite": 19351,
    "iard": 9601,
    "Ġsocks": 14131,
    "decease": 25557,
    "reve": 12536,
    "Ġwreck": 7314,
    "Ġtick": 8108,
    "datasets": 11949,
    "Ġfury": 7660,
    "forbid": 14351,
    "Ġstrata": 26027,
    "inserted": 18887,
    "apside": 22957,
    "Ġaffecting": 2320,
    "south": 8758,
    "Ġcharmed": 16762,
    "Ġbroods": 23100,
    "Ġblooming": 17212,
    "Ġpatent": 11960,
    "Ġjerked": 19831,
    "fore": 686,
    "Ġpreference": 9732,
    "peril": 18343,
    "smiled": 16614,
    "gies": 13725,
    "Ġduplicates": 17216,
    "asleep": 21541,
    "Ġtoe": 13935,
    "Ġbrisk": 9802,
    "Ġpremium": 23902,
    "comm": 7440,
    "Ġpenalizing": 13089,
    "Ġtraitors": 23075,
    "Ġdrawback": 23987,
    "estim": 14168,
    "Ġreveren": 13196,
    "ten": 1557,
    "Ġdrunkard": 20176,
    "imagine": 19930,
    "eman": 5636,
    "Ġdistur": 5312,
    "Ġflesh": 5968,
    "Ġimputation": 22169,
    "discover": 10539,
    "Ġvag": 9707,
    "Ġdistinguish": 2725,
    "Ġscotch": 12207,
    "Ġdan": 8792,
    "Ġdeigned": 18141,
    "Ġapparently": 6778,
    "perquis": 22187,
    "Ġbowled": 23768,
    "Ġdevoid": 18680,
    "clergy": 18933,
    "Ġinherited": 25353,
    "frantic": 24283,
    "Ġsurprising": 14597,
    "precedented": 15173,
    "isen": 10792,
    "Ġdanger": 3520,
    "Ġlizz": 21554,
    "tier": 12512,
    "igner": 21699,
    "owing": 7601,
    "mph": 20971,
    "Ġunfitted": 24108,
    "advancing": 14835,
    "Ġbeck": 14008,
    "ucy": 15444,
    "Ġdelivery": 18974,
    "Ġscriptures": 26235,
    "ologically": 22867,
    "Ġemails": 13105,
    "Ġbarbarous": 13475,
    "Ġresulting": 24198,
    "Ġreaders": 18914,
    "Ġdirection": 1791,
    "Ġruth": 14093,
    "Ġinquired": 7485,
    "Ġfastening": 16356,
    "Ġunhappy": 5640,
    "comed": 8544,
    "snapping": 24849,
    "Ġveget": 11884,
    "aurus": 20559,
    "Ġdistended": 16041,
    "Ġvelvets": 25393,
    "Ġencoun": 4512,
    "art": 585,
    "enthusiastic": 20691,
    "joy": 3332,
    "Ġstirred": 12215,
    "inquir": 9535,
    "Ġpope": 11601,
    "Ġanaly": 1132,
    "Ġcalifornia": 20528,
    "Ġknotted": 17019,
    "Ġtempted": 9056,
    "inu": 1114,
    "Ġunthink": 18250,
    "aco": 12903,
    "Ġcorrespond": 6209,
    "hued": 20910,
    "Ġreflection": 6440,
    "Ġdeep": 800,
    "conside": 9289,
    "³": 116,
    "Ġclum": 8872,
    "Ġbutts": 15835,
    "Ā": 193,
    "Ġarist": 14159,
    ".": 18,
    "Ġ----": 7145,
    "rage": 10843,
    "Ġstealing": 18894,
    "cooks": 25067,
    "Ġhunt": 6183,
    "Ġseasons": 9430,
    "complete": 15034,
    "ructive": 18545,
    "neighbouring": 19962,
    "Ġowen": 15093,
    "Ġoccasionally": 5590,
    "Ġrejo": 5915,
    "Ġabominable": 12320,
    "cannib": 11900,
    "oundered": 14162,
    "blasted": 20188,
    "haust": 5777,
    "petulance": 24299,
    "Ġtars": 21163,
    "reduc": 5459,
    "Ġepid": 18004,
    "Ġconvolutions": 21804,
    "Ġampl": 22477,
    "É": 138,
    "soever": 11858,
    "Ġtranqu": 4604,
    "xology": 21140,
    "Ġinch": 7849,
    "original": 9084,
    "ham": 1703,
    "Ġdood": 22239,
    "evident": 25520,
    "Ġincrease": 9369,
    "oriously": 17874,
    "bulkington": 19924,
    "Ġsix": 3045,
    "writer": 14648,
    "Ġrobbed": 23007,
    "vil": 2730,
    "sounded": 12264,
    "Ġtoo": 1164,
    "blown": 25201,
    "Ġabide": 14187,
    "Ġhandspikes": 12935,
    "intending": 22932,
    "Ġagonizing": 17238,
    "Ġrenewed": 9537,
    "Ġidea": 2485,
    "Ġowns": 22822,
    "sal": 8757,
    "Ġfloundered": 18855,
    "catherine": 7127,
    "Ġobviously": 16810,
    "impressed": 12688,
    "Ġsqualid": 14368,
    "wes": 17703,
    "Ġcrushed": 9422,
    "Ġenvelop": 5586,
    "Ġadvertise": 25388,
    "northern": 23666,
    "sir": 5001,
    "gainst": 25141,
    "Ġinfamous": 16364,
    "going": 6313,
    "ï": 176,
    "Ġshortly": 6196,
    "Ġaught": 8772,
    "Ġbeach": 6541,
    "Ġmanip": 8871,
    "full": 7420,
    "Ġquaker": 10971,
    "Ġformations": 18748,
    "break": 6101,
    "ologist": 22866,
    "scra": 13015,
    "jolly": 20930,
    "vers": 1327,
    "Ġpython": 1067,
    "Ġgasping": 17038,
    "pilot": 25908,
    "Ġexpose": 10327,
    ",âĢĶâĢľ": 10069,
    "acknowled": 10974,
    "insult": 16279,
    "Ġag": 684,
    "ront": 15418,
    "Ġbachel": 7158,
    "Ġfaster": 3196,
    "Ġconvergence": 973,
    "countryman": 24639,
    "ushes": 22288,
    "mon": 2304,
    "Ġsimple": 1621,
    "Ġph": 1547,
    "ouring": 6420,
    "arers": 12127,
    "Ġponderous": 8354,
    "Ġbequest": 21750,
    "co": 2433,
    "ites": 3901,
    "Ġinsurance": 23680,
    "journey": 8744,
    "Ġfearlessness": 19160,
    "inks": 6869,
    "Ġ-": 1943,
    "Ġforts": 21772,
    "Ġpam": 21452,
    "Ġand": 295,
    "country": 6103,
    "Ġinterment": 22571,
    "opotam": 22476,
    "Ġhansom": 13663,
    "proachable": 23396,
    "Ġgree": 7594,
    "Ġlibraries": 20613,
    "Ġtorrid": 25032,
    "Ġbox": 5109,
    "pend": 6367,
    "confidence": 16808,
    "itor": 12563,
    "Ġarcher": 22176,
    "ficial": 17548,
    "Ġproperties": 3117,
    "Ġwake": 4749,
    "Ġsket": 18729,
    "icorn": 15655,
    "Ġclinch": 18431,
    "oftener": 23962,
    "Ġdescending": 8901,
    "Ġyoungster": 23177,
    "Ġfrosty": 14934,
    "Ġfearing": 12812,
    "eted": 7591,
    "Ġvision": 1683,
    "contriv": 19292,
    "task": 13792,
    "Ġpup": 12616,
    "Ġdisgusting": 19893,
    "Ġwarmest": 16484,
    "Ġscr": 11758,
    "Ġlocal": 1199,
    "ot": 346,
    "Ġfrightened": 5341,
    "Ġdinnertime": 16719,
    "mber": 7803,
    "removing": 17764,
    "Ġha": 400,
    "Ġperem": 12929,
    "Ġlabyrinth": 13678,
    "Ġbrim": 12973,
    "borean": 25743,
    "Ġmoody": 8200,
    "het": 5435,
    "relatively": 24011,
    "Ġinterlacing": 22573,
    "Ġsyllables": 25298,
    "eastern": 17533,
    "imen": 12683,
    "ateur": 22003,
    "propagation": 1244,
    "Ġdepart": 4657,
    "Ġunravel": 26214,
    "Ġassid": 18944,
    "Ġrevelry": 15135,
    "Ġthyself": 6602,
    "Ġflail": 22999,
    "Ġspin": 7629,
    "Ġgodfre": 14529,
    "Ġessentials": 20001,
    "support": 9469,
    "icult": 3338,
    "Ġapartment": 6633,
    "pagans": 25525,
    "inferior": 12392,
    "Ġmournful": 12334,
    "Ġfol": 1287,
    "Ġcrocodile": 20739,
    "umbria": 23928,
    "Ġheroines": 19750,
    "Ġserv": 3325,
    "Ġemig": 14524,
    "data": 2195,
    "-": 17,
    "quadrille": 20593,
    "Ġwallow": 19464,
    "Ġpioneer": 17918,
    "mid": 5617,
    "imodal": 17446,
    "Ġ1828": 25720,
    "Ġsword": 6732,
    "Ġthick": 3784,
    "Ġsemicirc": 16392,
    "writes": 4988,
    "atherine": 2593,
    "ells": 5303,
    "feel": 3814,
    "clair": 18932,
    "Ġsavesoul": 26227,
    "Ġempt": 5051,
    "straw": 24094,
    "Ġsammy": 24932,
    "oes": 4434,
    "Ġfootmen": 23796,
    "Ġdamned": 13131,
    "Ġpermitted": 9277,
    "themselves": 6540,
    "dl": 20822,
    "Ġforebodings": 17303,
    "Ġspurred": 22135,
    "Ġbetokened": 18796,
    "Ġlimb": 9401,
    "Ġnon": 1625,
    "Ġcoarse": 14273,
    "Ġplaced": 3444,
    "Ġstamping": 20029,
    "Ġimpl": 7195,
    "hot": 8083,
    "Ġmelbourne": 24289,
    "wore": 21123,
    "Ġharpooned": 13260,
    "endeavour": 17031,
    "Ġsentimental": 24754,
    "ibbald": 18841,
    "Ġseat": 4949,
    "Ġimm": 3967,
    "Ġfriesland": 26442,
    "Ġgreen": 3053,
    "Ã¦st": 24174,
    "calculating": 25689,
    "kovoko": 20668,
    "Ġmarines": 16261,
    "romang": 22002,
    "sembled": 7263,
    "dismay": 19152,
    "bowsprit": 16853,
    "summoned": 26591,
    "Ġsustained": 13481,
    "Ġtide": 6658,
    "Ġrashness": 25460,
    "Ġsculpt": 15945,
    "Ġmask": 1864,
    "brilliancy": 26077,
    "asper": 7854,
    "note": 14339,
    "Ġexertion": 8053,
    "min": 4571,
    "Ġappal": 18361,
    "Ġcalves": 13032,
    "Ġintegration": 9867,
    "Ġtall": 4038,
    "Ġbreaches": 14521,
    "shelf": 20379,
    "Ġmultipl": 2790,
    "far": 5787,
    "promising": 24726,
    "society": 9971,
    "Ġblotted": 20216,
    "Ġdisrespect": 18553,
    "Ġubiquitous": 26195,
    "eteenth": 20156,
    "Ġcommonplaces": 16288,
    "intments": 18821,
    "coloured": 7291,
    "Ġfra": 1851,
    "Ġcentrally": 23829,
    "Ġmanaged": 7905,
    "Ġpilgr": 12178,
    "Ġarabic": 24978,
    "worship": 19385,
    "rist": 10122,
    "newsp": 23130,
    "grave": 16093,
    "older": 15754,
    "Ġbrighton": 6470,
    "Ġcommendation": 13609,
    "invol": 12527,
    "cain": 15325,
    "Ġgossiping": 26243,
    "Ġvac": 5025,
    "Ġrucastles": 18721,
    "ishment": 3506,
    "ķ": 248,
    "Ġprosecution": 12379,
    "resnet": 4069,
    "ffic": 22148,
    "monograph": 23525,
    "Ġtangle": 25760,
    "Ġsway": 7571,
    "officer": 17054,
    "time": 3146,
    "ev": 6952,
    "Ġstated": 9688,
    "distinctive": 25726,
    "Ġstarts": 16582,
    "Ġafforded": 8028,
    "necessities": 24306,
    "Ġsupplication": 25491,
    "Ġpiercing": 13493,
    "Ġty": 6657,
    "upt": 13797,
    "faith": 15024,
    "admon": 21758,
    "jump": 10103,
    "Ġvicinity": 7315,
    "Ġbuoy": 8003,
    "Ġcarpet": 9355,
    "weeks": 14315,
    "cano": 18839,
    "ojo": 7349,
    "Ġdidn": 4363,
    "\"": 6,
    "Ġlandlady": 10422,
    "crimin": 17508,
    "Ġunce": 11709,
    "Ġmixed": 6974,
    "Ġepistle": 24904,
    "become": 14246,
    "ration": 2004,
    "Ġtailed": 21167,
    "Ġpurchased": 12258,
    "clock": 3935,
    "Ġroad": 3883,
    "Ġsmoothed": 23655,
    "bres": 11471,
    "running": 6797,
    "cri": 17505,
    "health": 13832,
    "Ġwestmorland": 24390,
    "Ġdeeply": 4717,
    "Ġtransmit": 10304,
    "Ġsecured": 6745,
    "Ġlies": 5295,
    "yl": 7818,
    "Ġwestward": 24389,
    "urements": 18124,
    "izing": 1066,
    "iteous": 14261,
    "hosmer": 25902,
    "Ġtweezers": 26556,
    "Ġafar": 14291,
    "wishing": 21127,
    "Ġsluggish": 25890,
    "Ġswaying": 15046,
    "riages": 10242,
    "Ġkindred": 16377,
    "Ġlongest": 18629,
    "announce": 24560,
    "glanced": 19364,
    "Ġsparkled": 13461,
    "returns": 23134,
    "Ġminister": 18751,
    "system": 4381,
    "Ġarbit": 4651,
    "Ġcapabilities": 4377,
    "Ġcomple": 2839,
    "loveliness": 26549,
    "sideways": 14571,
    "Ġdiscredit": 22780,
    "hopeless": 16917,
    "Ġbugs": 13647,
    "ableness": 8148,
    "aud": 8521,
    "Ġoverbearing": 12839,
    "madly": 24420,
    "pivot": 21030,
    "jure": 20923,
    "Ġrekindled": 21674,
    "Ġsincer": 13063,
    "coiled": 16486,
    "Ġlistened": 4469,
    "Ġslipping": 13359,
    "Ġharry": 24571,
    "attempted": 20173,
    "Ġtheatre": 21277,
    "Ġdegenerating": 25799,
    "Ġpoison": 7219,
    "Ġfrenzy": 13621,
    "Ġmidships": 23632,
    "Ġbill": 4040,
    "Ġwild": 2599,
    "Ġhut": 15617,
    "Ġus": 493,
    "Ġapprehen": 16829,
    "Ġcompatibility": 2957,
    "Ġdelayed": 9517,
    "Ġdestructive": 23487,
    "Ġdiscrimin": 2543,
    "Ġtoller": 9090,
    "actions": 8906,
    "lied": 6507,
    "Ġpour": 13913,
    "Ġslugg": 15267,
    "hurt": 19877,
    "Ġantip": 24176,
    "ago": 14064,
    "python": 4692,
    "ampling": 12723,
    "Ġsore": 10764,
    "oded": 11668,
    "Ġblueprints": 13170,
    "Ġsuffering": 8946,
    "Ġhorner": 8958,
    "lifeless": 24312,
    "Ġsmack": 9299,
    "wil": 8395,
    "Ġrendering": 16657,
    "determ": 7105,
    "Ġemphasis": 20535,
    "Ġidentifies": 12013,
    "fortunes": 6332,
    "Ġoutputs": 2886,
    "Ġasylum": 13665,
    "Ġcrockery": 24301,
    "disc": 4729,
    "Ġreserve": 9970,
    "Ġwitt": 17783,
    "Ġintended": 5548,
    "telling": 14438,
    "Ġnoise": 1069,
    "Ġpractically": 13104,
    "Ġcongen": 10873,
    "Ġdictating": 20151,
    "Ġquaff": 22411,
    "Ġrejoiced": 8683,
    "Ġupdates": 1300,
    "arat": 9180,
    "itic": 11577,
    "Ġearn": 3548,
    "answer": 11733,
    "Ġklan": 23661,
    "Ġwere": 557,
    "¡": 99,
    "fanc": 20863,
    "Ġbeg": 1282,
    "Ġdecisions": 6702,
    "Ġpretensions": 16557,
    "Ġcirc": 1984,
    "dling": 9111,
    "cused": 15331,
    "proposal": 18755,
    "Ġboldly": 9500,
    "Ġburtons": 19252,
    "Ġmel": 4816,
    "Ġjen": 9266,
    "houn": 20892,
    "eyes": 5684,
    "Ġhoped": 5488,
    "restoration": 23236,
    "popular": 26140,
    "Ġnourishment": 15191,
    "Ġpossibly": 4514,
    "Ġforeheads": 23447,
    "Ġdisput": 14255,
    "nostr": 22735,
    "Ġaccidents": 10295,
    "conjecturing": 20133,
    "&": 10,
    "omitted": 18016,
    "tend": 17674,
    "Ġnarrated": 14870,
    "Ġinstrum": 6054,
    "Ġnavigators": 19762,
    "Ġwhe": 439,
    "Ġgard": 2187,
    "Ġreceptive": 1564,
    "Ġinnoc": 3797,
    "arrangement": 17414,
    "Ġtarquin": 23609,
    "Ġschoolboys": 24481,
    "apparently": 15203,
    "Ġkidnapping": 26356,
    "linearity": 1653,
    "Ġunra": 18240,
    "elson": 16373,
    "pacing": 21020,
    "Ġcalam": 13031,
    "),": 1345,
    "Ġornamented": 20360,
    "Ġtwinkling": 12322,
    "fr": 4804,
    "remaining": 20219,
    "Ġability": 2761,
    "Ġbarbar": 6935,
    "Ġhoky": 17926,
    "Ġsetbacks": 11063,
    "ortunities": 15939,
    "Ġbes": 2660,
    "Ġcomplimented": 14903,
    "request": 21240,
    "lemag": 21370,
    "Ġworking": 5575,
    "Ġwakeful": 24266,
    "blo": 6353,
    "Ġpostmark": 16725,
    "ilst": 8143,
    "Ġaided": 17745,
    "Ġdiscern": 7925,
    "pan": 10716,
    "persuasion": 20042,
    "idirectional": 2418,
    "Ġemer": 5958,
    "_.âĢĶ": 23473,
    "Ġentire": 2557,
    "Ġsick": 4693,
    "Ġdisreputable": 22531,
    "Ġfusion": 21412,
    "men": 1485,
    "Ġsparing": 22126,
    "rudent": 6482,
    "adventures": 20255,
    "Ġprovoke": 14825,
    "Ġglobu": 23269,
    "Ġthread": 14539,
    "sight": 5994,
    "Ġlance": 4879,
    "Ġmotions": 8280,
    "Ġvaulted": 25167,
    "binary": 20783,
    "Ġdecline": 9287,
    "Ġmisconduct": 22760,
    "accusations": 23598,
    "Ġfaire": 13363,
    "calm": 8934,
    "Ġme": 350,
    "Ġhey": 11640,
    "horner": 23613,
    "landsmen": 25059,
    "Ġoverpow": 14203,
    "Ġclimax": 25052,
    "Ġexcessive": 3894,
    "Ġsubt": 11866,
    "Ġleg": 2331,
    "Ġancestors": 25642,
    "Ġcranial": 25592,
    "reporting": 24494,
    "Ġsally": 15502,
    "Ġmidst": 7985,
    "Ġfrozen": 9012,
    "clo": 5613,
    "Ġexecution": 6927,
    "Ġwer": 12549,
    "Ġgarments": 15192,
    "knight": 20939,
    "Ġhackney": 20431,
    "farmer": 25899,
    "Ġdegener": 14049,
    "anth": 13886,
    "around": 12605,
    "apart": 15960,
    "Ġaffording": 14820,
    "jaw": 13742,
    "Ġtints": 17727,
    "rote": 4592,
    "Ġmature": 17799,
    "ieving": 7031,
    "Ġeuroc": 14958,
    "deaux": 22144,
    "Ġrow": 5309,
    "paus": 13772,
    "apprehens": 17405,
    "rabb": 15678,
    "Ġactuated": 18544,
    "aste": 4601,
    "Ġfron": 14487,
    "lings": 8745,
    "Ġmirth": 15543,
    "Ġmonuments": 22974,
    "icher": 9202,
    "hawks": 24694,
    "importance": 9988,
    "Ġdrugg": 17119,
    "ronted": 14876,
    "Ġsuffusing": 23027,
    "ist": 448,
    "Ġrecognition": 3121,
    "anelles": 26434,
    "mantel": 26394,
    "Ġdegree": 3704,
    "depth": 12797,
    "Ġfiddle": 25444,
    "Ġcrept": 11021,
    "acency": 12905,
    "Ġexclamations": 11361,
    "Ġticking": 25033,
    "Ġexcavating": 23312,
    "urg": 8141,
    "Ġdecorum": 16024,
    "hypothe": 25905,
    "Ġpassion": 4557,
    "Ġhas": 824,
    "Ġspouting": 9438,
    "succeed": 10329,
    "Ġthank": 3794,
    "resh": 8403,
    "Ġmari": 6813,
    "Ġinfallibly": 10040,
    "Ġrefusal": 10345,
    "ladyship": 14828,
    "fainting": 20471,
    "Ġtransformer": 2637,
    "strongly": 24684,
    "Ġbeggars": 20628,
    "Ġreliability": 22875,
    "Ġshops": 21998,
    "Ġdisk": 22519,
    "Ġroving": 22400,
    "Ġsakes": 18326,
    "bler": 11472,
    "Ġcity": 4530,
    "Ġcomprises": 22569,
    "entions": 17974,
    "Ġlancaster": 26340,
    "mad": 5280,
    "Ġgranting": 18736,
    "mere": 11853,
    "Ġimmortality": 26325,
    "Ġimag": 2674,
    "ult": 724,
    "ogue": 9784,
    "wrinkles": 16554,
    "Ġswim": 3822,
    "Ġmiss": 1228,
    "substance": 15230,
    "interference": 23735,
    "Ġdisgusted": 14989,
    "bellies": 19972,
    "Ġentra": 18695,
    "Ġwedding": 4858,
    "find": 6954,
    "âĢĶâĢĶâĢĿ": 15938,
    "ampton": 18144,
    "Ġproudly": 19741,
    "conqu": 14244,
    "retch": 4371,
    "Ġpurring": 23476,
    "Ġeels": 21617,
    "somerset": 26322,
    "tribute": 21087,
    "Ġcet": 6669,
    "ertain": 1207,
    "Ġbene": 2031,
    "Ġreturned": 2891,
    "Ġvigorously": 11299,
    "resting": 23235,
    "waiter": 24586,
    "Ġdear": 1538,
    "Ġbruised": 25772,
    "bber": 4568,
    "Ġswish": 23050,
    "Ġpikes": 21476,
    "Ġ101": 24409,
    "Ġdenied": 9000,
    "Ġwonderland": 23423,
    "ave": 977,
    "Ġderision": 16308,
    "Ġchemistry": 11460,
    "shud": 18483,
    "treat": 12511,
    "Ġenriched": 26499,
    "Ġapparatus": 24908,
    "Ġordained": 19443,
    "Ġfoster": 18991,
    "Ġgouge": 26188,
    "Ġburial": 16521,
    "ines": 679,
    "Ġperil": 5557,
    "guess": 14760,
    "legra": 10789,
    "Ġball": 3624,
    "Ġinterpreted": 1712,
    "Ġimmediate": 6089,
    "Ġfort": 2576,
    "Ġdiffident": 23782,
    "sex": 12710,
    "erably": 7573,
    "terrors": 25041,
    "Ġprescribed": 26010,
    "Ġmerid": 13194,
    "mn": 3578,
    "united": 14059,
    "idly": 12697,
    "Ġzoned": 22818,
    "Ġbeamed": 23719,
    "ts": 961,
    "Ġaims": 15496,
    "Ġinscriptions": 20007,
    "traces": 24315,
    "Ġapproxim": 1217,
    "aintance": 3571,
    "thoughts": 9934,
    "Ġexecut": 4248,
    "oves": 15403,
    "Ġsubur": 12953,
    "Ġuseless": 7037,
    "Ġcure": 21338,
    "Ġabutted": 22272,
    "Ġjing": 15948,
    "Ġ92": 24590,
    "Ġcapacious": 19175,
    "Ġimpotent": 18447,
    "march": 13754,
    "ject": 874,
    "Ġconversing": 14633,
    "Ġimproves": 22750,
    "Ġfrogs": 23920,
    "Ġspirits": 3698,
    "Ġillum": 9399,
    "Ġstress": 18069,
    "Ġalleged": 17290,
    "ame": 646,
    "fields": 14653,
    "æ": 167,
    "influence": 13577,
    "interview": 19298,
    "Ġgenealogies": 25961,
    "Ġuncontrollable": 25814,
    "Ġimpending": 22381,
    "Ġhovering": 10178,
    "Ġalmanac": 26485,
    "Ġslammed": 20446,
    "ige": 12677,
    "Ġblock": 2573,
    "Ġhorses": 6385,
    "Ġporus": 24398,
    "Ġmyster": 5925,
    "Ġministers": 22830,
    "sof": 17657,
    "coronet": 16863,
    "Ġinterchange": 16070,
    "Ġslippers": 19614,
    "Ġstormy": 16728,
    "Ġinh": 10824,
    "whaling": 7898,
    "started": 10845,
    "Ġrose": 3443,
    "Ġregions": 10323,
    "Ġgangway": 20157,
    "Ġnorris": 23198,
    "han": 12470,
    "idual": 1560,
    "abhorred": 17335,
    "nonsense": 17615,
    "Ġcomplete": 4383,
    "Ġcomplexion": 8209,
    "Ġhardships": 14450,
    "Ġhonest": 7287,
    "Ġwithered": 19463,
    "hip": 8740,
    "Ġeigen": 4881,
    "Ġmay": 924,
    "Ġdaughters": 4422,
    "Ġisle": 8832,
    "reduced": 15804,
    "Ġsooty": 25815,
    "fine": 10090,
    "accompan": 11452,
    "Ġgrunt": 18735,
    "Ġsc": 529,
    "Ġjavelins": 26105,
    "lotts": 23823,
    "Ġsoothingly": 25047,
    "heeded": 13833,
    "Ġfif": 4218,
    "Ġreply": 4515,
    "Ġhusbands": 16642,
    "Ġamph": 18510,
    "Ġsteeply": 23721,
    "Ġengineer": 11973,
    "supposing": 24134,
    "iftings": 23224,
    "Ġgardeners": 12118,
    "Ġdestroying": 14728,
    "astrous": 15885,
    "Ġtranslations": 12050,
    "perishing": 22183,
    "photograph": 16151,
    "Ġrooms": 5180,
    "Ġparalle": 1410,
    "intellect": 18822,
    "Ġpict": 3500,
    "lestrade": 9656,
    "Ġstructure": 846,
    "picture": 11407,
    "Ġvibration": 17099,
    "Ġmanhat": 22324,
    "anybody": 12080,
    "Ġdiscomposed": 25580,
    "Ġjudiciously": 23876,
    "haired": 14765,
    "jacket": 12290,
    "Ġseized": 4833,
    "Ġnom": 21516,
    "ama": 11676,
    "Ġthorough": 6245,
    "Ġhast": 3150,
    "Ġbats": 13899,
    "Ġmarrying": 6177,
    "_,âĢĿ": 6218,
    "Ġpetty": 19594,
    "Ġsaintsbury": 26372,
    "profound": 16425,
    "infer": 10144,
    "Ġimpetuously": 20370,
    "Ġswayed": 15047,
    "Ġstumped": 24942,
    "Ġroughly": 17040,
    "Ġur": 5540,
    "batross": 9092,
    "?âĢĿ": 700,
    "flow": 2370,
    "prolong": 23393,
    "pass": 4291,
    "aug": 1212,
    "Ġrails": 22646,
    "nothing": 3153,
    "Ġvagu": 13588,
    "shel": 11928,
    "questioning": 16850,
    "Ġfob": 21407,
    "Ġslices": 23163,
    "Ġtimely": 19593,
    "tom": 15435,
    "Ġconcre": 16386,
    "Ġswart": 14433,
    "Ġbeing": 1162,
    "isters": 11917,
    "Ġrans": 21966,
    "Ġprofit": 14585,
    "iancy": 13006,
    "Ġsuperlatively": 26075,
    "Ġdemoniac": 15063,
    "Ġliking": 23590,
    "Ġenumer": 12742,
    "Ġphilosopher": 12181,
    "yth": 980,
    "darker": 24516,
    "rely": 6123,
    "Ġsink": 4340,
    "Ġdining": 6977,
    "Ġmaria": 7124,
    "Ġqueer": 4479,
    "Ġcruisers": 25863,
    "Ġeffectively": 2463,
    "Ġimplicit": 19956,
    "prehend": 14242,
    "owner": 18610,
    "rably": 21630,
    "lorious": 17592,
    "Ġsched": 2333,
    "Ġvent": 3999,
    "Ġthinner": 24181,
    "Ġsighing": 18676,
    "Ġhasn": 12924,
    "ivided": 22075,
    "marriage": 7744,
    "Ġmantel": 11439,
    "Ġenvelope": 7319,
    "Ġxli": 14542,
    "worn": 13805,
    "quent": 2093,
    "stands": 22432,
    "Ġmathematical": 3348,
    "faced": 8079,
    "Ġrobins": 16250,
    "numer": 15399,
    "Ġflows": 13007,
    "Ġsinners": 18949,
    "Ġcompanion": 3644,
    "Ġbirth": 6524,
    "Ġknots": 15008,
    "Ġproportionate": 17043,
    "Ġtot": 4188,
    "Ġensures": 3056,
    "Ġplaying": 6909,
    "Ġmartial": 20290,
    "Ġblessing": 11263,
    "Ġcarpets": 18902,
    "flex": 24843,
    "d": 72,
    "Ġentertained": 9997,
    "Ġservant": 5764,
    "Ġstro": 4595,
    "intelligence": 5882,
    "Ġreverse": 16982,
    "Ġheading": 8935,
    "Ġis": 347,
    "crimson": 24099,
    "Ġrights": 10396,
    "Ġdispleased": 18555,
    "self": 617,
    "entirely": 7781,
    "derick": 22165,
    "invincible": 25089,
    "supper": 12920,
    "Ġconfession": 11236,
    "Ġdeified": 18140,
    "Ġapprehensions": 13403,
    "Ġlothario": 26184,
    "Ġrespectful": 16345,
    "Ġmuster": 16121,
    "idays": 21767,
    "Ġtinge": 25087,
    "Ġredress": 23750,
    "Ġcho": 4547,
    "Ġfrancis": 26063,
    "Ġpilgrim": 25599,
    "laug": 10707,
    "watson": 12241,
    "Ġappearances": 10451,
    "larking": 17594,
    "accur": 14593,
    "tumult": 12421,
    "answ": 15883,
    "scotch": 25847,
    "Ġoakum": 16934,
    "fit": 6645,
    "Ġwo": 3651,
    "arranged": 19318,
    "hint": 12473,
    "orient": 2878,
    "particulars": 11315,
    "Ġacknowledge": 13401,
    "Ġeffected": 14350,
    "Ġfaculties": 14957,
    "ush": 3633,
    "pow": 10717,
    "Ġglac": 9344,
    "front": 12168,
    "Ġted": 13811,
    "Ġseparating": 16685,
    "dom": 6222,
    "Ġsilly": 7685,
    "Ġpledged": 20686,
    "Ġwoven": 9925,
    "Ġmuscle": 14689,
    "Ġincalculable": 17460,
    "Ġemm": 18002,
    "crew": 7544,
    "Ġcared": 8782,
    "Ġgardiner": 3237,
    "Ġfanning": 23388,
    "sound": 6799,
    "Ġlombardy": 26463,
    "hearted": 6970,
    "oury": 22301,
    "Ġtowns": 11173,
    "liked": 10508,
    "Ġconcocted": 26299,
    "Ġexample": 5096,
    "ient": 394,
    "sit": 13779,
    "Ġyoun": 1408,
    "Ġyouthful": 16723,
    "Ġcongratulated": 19765,
    "Ġdecide": 9286,
    "Ġannoyance": 20661,
    "Ġboast": 7034,
    "rap": 21625,
    "dinner": 11406,
    "specific": 10497,
    "Ġembraced": 10005,
    "inctions": 17732,
    "Ġowners": 7662,
    "Ġdiscipline": 26561,
    "Ġsteadfastly": 10651,
    "Ġinstruments": 12221,
    "cred": 9107,
    "Ġbackwater": 18650,
    "allows": 15906,
    "my": 1317,
    "crawling": 16958,
    "ality": 2509,
    "belt": 24033,
    "Ġinspection": 14544,
    "Ġhuddled": 20298,
    "Ġdragg": 23216,
    "Ġcurve": 23022,
    "Ġimbalanced": 18334,
    "mic": 12486,
    "Ġgulp": 20027,
    "Ġscientific": 6857,
    "suspended": 15176,
    "Ġledgers": 23935,
    "Ġwhirl": 13448,
    "Ġunprinciple": 18257,
    "Ġaction": 5796,
    "successful": 11358,
    "Ġcontrols": 1732,
    "custom": 15332,
    "Ġbulwarks": 5592,
    "libr": 22920,
    "Ġvault": 8840,
    "Ġshifted": 14106,
    "Ġstomach": 11652,
    "Ġrolls": 8333,
    "Ġpromised": 5181,
    "Ġfortnight": 6200,
    "Ġmelt": 21316,
    "Ġreception": 9838,
    "ass": 539,
    "uber": 15445,
    "ino": 15479,
    "Ġturnpike": 23020,
    "Ġplatform": 17131,
    "Ġprofounder": 23568,
    "Ġbroadened": 23982,
    "oner": 6124,
    "hereabouts": 23605,
    "Ġalone": 2564,
    "Ġbedford": 7473,
    "Ġweighing": 20014,
    "aside": 10191,
    "school": 10054,
    "Ġadd": 629,
    "Ġwidth": 16772,
    "Ġharder": 14448,
    "Ġbranch": 8331,
    "Ġinitials": 11014,
    "Ġpoured": 8800,
    "cases": 12445,
    "ifference": 5632,
    "Ġaloysius": 15736,
    "ent": 305,
    "Ġcircumspect": 15083,
    "dared": 13701,
    "Ġmultiplicity": 19274,
    "Ġacquaintance": 4135,
    "Ġhabitu": 19527,
    "charlotte": 6473,
    "Ġexist": 9231,
    "extra": 8218,
    "Ġrepresents": 4902,
    "Ġaugmentation": 20114,
    "Ġbelieved": 4368,
    "Ġworsted": 19993,
    "asing": 5911,
    "Ġtribe": 10751,
    "Ġsurest": 19054,
    "appin": 18758,
    "ep": 440,
    "leave": 7837,
    "Ġheavily": 6740,
    "Ġinstantaneous": 14611,
    "Ġpremeditated": 22231,
    "oid": 3126,
    "Ġrelease": 19290,
    "onement": 21255,
    "ees": 13710,
    "avenza": 17104,
    "drunk": 24659,
    "isite": 15561,
    "ĠĠĠĠĠĠĠĠĠĠĠĠĠĠĠĠĠĠĠĠĠĠĠĠĠĠĠĠĠĠ": 24443,
    "Ġkrem": 9725,
    "Ġgrinned": 16857,
    "Ġadroit": 26000,
    "Ġguiltless": 16940,
    "Ġsaith": 14155,
    "Ġcautious": 12251,
    "Ġdemand": 4947,
    "increased": 20269,
    "Ġenviron": 3833,
    "wheel": 22864,
    "Ġcharacters": 9371,
    "Ġpremature": 3725,
    "Ġcontributed": 16008,
    "isc": 6239,
    "Ġestab": 6315,
    "Ġsucc": 12783,
    "truth": 9918,
    "forced": 11031,
    "Ġpunch": 9954,
    "whenever": 11879,
    "Ġrecorded": 11293,
    "buck": 17490,
    "Ġonce": 1491,
    "..": 5783,
    "surrounded": 26088,
    "Ġpositional": 2595,
    "Ġsequential": 2132,
    "nowledge": 10289,
    "onel": 3090,
    "Ġvocation": 10525,
    "Ġaltogether": 4831,
    "tick": 17678,
    "Ġaway": 1242,
    "Ġarsacidean": 20363,
    "salesman": 20670,
    "Ġenlarged": 25985,
    "Ġbronze": 22862,
    "Ġlook": 880,
    "Ġstory": 2901,
    "Ġknives": 14836,
    "ribs": 23363,
    "Ġinexorable": 12253,
    "Ġvoyagings": 19235,
    "Ġtemptation": 8677,
    "Ġencircling": 26271,
    "Ġopenly": 8572,
    "Ġshift": 2278,
    "persu": 8027,
    "rador": 19158,
    "pleasure": 5977,
    "Ġgather": 6534,
    "Ġmonotonically": 3836,
    "Ġincidents": 9298,
    "Ġ(_": 3737,
    "ces": 578,
    "Ġenslaved": 26314,
    "Ġcovent": 16071,
    "Ġdomin": 10462,
    "lorn": 12485,
    "Ġirregularly": 25323,
    "Ġhowled": 12852,
    "Ġgamb": 17997,
    "Ġargemone": 24274,
    "Ġcombines": 1177,
    "mingled": 14712,
    "balanced": 14555,
    "vii": 13147,
    "ñ": 178,
    "Ġtransp": 4770,
    "Ġcirculating": 23371,
    "Ġprofession": 6207,
    "Ġquadru": 16002,
    "hew": 5364,
    "Ġsnap": 11200,
    "waited": 24585,
    "enhall": 13849,
    "pled": 7891,
    "Ġcol": 1059,
    "eager": 12457,
    "nursery": 26399,
    "Ġsponge": 26003,
    "Ġhy": 5625,
    "Ġvacancy": 9044,
    "amped": 12031,
    "Ġphysi": 9987,
    "clouded": 20330,
    "holding": 7738,
    "de": 458,
    "Ġrecess": 10847,
    "Ġmid": 2614,
    "iring": 1708,
    "anity": 9654,
    "ires": 6037,
    "Ġwronged": 24247,
    "learn": 2425,
    "Ġrepressed": 21665,
    "Ġdusty": 14924,
    "Ġdownst": 3559,
    "rin": 10121,
    "Ġfiends": 14827,
    "guinea": 16672,
    "Ġsevent": 18200,
    "subs": 14301,
    "Ġyard": 5920,
    "istic": 972,
    "Ġsnodhead": 19301,
    "regularization": 3515,
    "Ġdra": 1594,
    "Ġpatience": 2706,
    "Ġwhom": 1828,
    "Ġitem": 12698,
    "Ġhospitals": 24923,
    "Ġwildest": 16509,
    "Ġferoc": 14896,
    "stains": 11636,
    "specim": 23941,
    "Ġameric": 3856,
    "Ġmiseries": 10344,
    "Ġthickets": 24020,
    "wouldn": 23534,
    "Ġaccomplish": 14875,
    "Ġbesee": 19242,
    "Ġeyel": 17096,
    "explaining": 23138,
    "âĢľ_": 5720,
    "Ġtrap": 7671,
    "asingly": 17960,
    "irst": 878,
    "ĠâĢĺ_": 11117,
    "Ġprotect": 6337,
    "Ġdearest": 5457,
    "compliment": 11364,
    "entreaties": 26185,
    "Ġattach": 14287,
    "Ġaft": 5737,
    "ome": 536,
    "Ġspout": 3280,
    "Ġmedic": 11247,
    "Ġdescried": 7918,
    "Ġpork": 21455,
    "Ġhorror": 3774,
    "Ġadoption": 24948,
    "Ġresources": 2937,
    "Ġclear": 1947,
    "wrath": 23754,
    "consc": 4840,
    "Ġsparkling": 11356,
    "Ġengraving": 17080,
    "Ġlandsmen": 11351,
    "Ġ43": 14768,
    "\":": 9581,
    "terbury": 21821,
    "Ġdestination": 19149,
    "Ġvineyarder": 25606,
    "Ġice": 3605,
    "Ġabstraction": 26539,
    "Ġaccustomed": 6861,
    "Ġsuckling": 25997,
    "weight": 2940,
    "Ġdoor": 1739,
    "Ġmeek": 21806,
    "Ġpeeping": 16126,
    "Ġhides": 16264,
    "ieth": 10704,
    "n": 82,
    "Ġconsiderably": 7714,
    "Ġarrest": 7409,
    "Ġdup": 21425,
    "Ġbodies": 8031,
    "Ġcapital": 7979,
    "mises": 20977,
    "nameless": 19902,
    "Ġvalues": 2651,
    "Ġfrosts": 19801,
    "Ġworst": 7444,
    "avish": 22591,
    "distrustful": 26330,
    "Ġclin": 14204,
    "looked": 6083,
    "elop": 1488,
    "Ġtry": 3134,
    "Ġpistols": 17328,
    "Ġind": 1219,
    "alogue": 25159,
    "Ġtendons": 19807,
    "nals": 16398,
    "gged": 3779,
    "Ġcell": 6237,
    "night": 2167,
    "oup": 2014,
    "Ġembed": 1467,
    "blocks": 25517,
    "solitary": 14505,
    "tered": 2227,
    "Ġinsupportable": 13931,
    "Ġwrench": 12554,
    "hammered": 19003,
    "Ġcorp": 5574,
    "=": 33,
    "´": 117,
    "a": 69,
    "itan": 10159,
    "Ġovers": 14201,
    "recognised": 15261,
    "Ġparmacetti": 20603,
    "collecting": 26081,
    "ulia": 18148,
    "Ġdiffer": 18677,
    "Ġtack": 5621,
    "Ġaback": 22263,
    "Ġdesignated": 19520,
    "Ġblack": 2032,
    "Ġconstitution": 20107,
    "Ġarmies": 16492,
    "intentions": 22936,
    "Ġdoxology": 22241,
    "Ġuniformly": 19147,
    "ourage": 2449,
    "Ġinfl": 6893,
    "Ġgross": 11624,
    "mped": 16647,
    "Ġtrifled": 24674,
    "Ġtwinkle": 12321,
    "Ġunconcerned": 20508,
    "Ġspell": 8855,
    "Ġhear": 1962,
    "history": 15014,
    "Ġcrabs": 19173,
    "Ġjav": 7901,
    "Ġbehaved": 13251,
    "Ġsufferer": 16260,
    "Ġpovels": 22589,
    "Ġspaniard": 20361,
    "Ġwalrus": 14972,
    "Ġhempen": 13549,
    "smile": 23903,
    "Ġcoleridge": 18764,
    "Ġway": 1083,
    "Ġbathing": 20198,
    "horror": 13158,
    "Ġmechanism": 2259,
    "Ġpropri": 6738,
    "Ġeastern": 11628,
    "ene": 2168,
    "earn": 10696,
    "Ġflat": 8226,
    "versed": 9824,
    "uits": 21103,
    "Ġshake": 6033,
    "omy": 6248,
    "Ġsuccessive": 10500,
    "principle": 10650,
    "step": 2454,
    "impul": 16555,
    "Ġcheese": 9376,
    "iantly": 13738,
    "Ġmemorable": 16427,
    "Ġcassock": 20485,
    "Ġcister": 13881,
    "Ġegyptian": 13585,
    "Ġsecuring": 11990,
    "Ġlassitude": 20585,
    "ast": 473,
    "shall": 4550,
    "ricade": 13036,
    "dress": 17520,
    "Ġmotives": 7486,
    "Ġtrembling": 7481,
    "Ġgrope": 17994,
    "Ġstreamed": 14546,
    "Ġeggs": 12340,
    "culiar": 2819,
    "Ġsilk": 11961,
    "Ġlegible": 23532,
    "Ġtink": 9148,
    "ooped": 17623,
    "Ġhushed": 13924,
    "Ġ0": 1900,
    "Ġdejection": 15195,
    "Ġidolator": 19996,
    "Ġagree": 7646,
    "Ġhumming": 12982,
    "orious": 6007,
    "Ġcachalot": 17834,
    "osc": 18387,
    "Ġincommun": 25308,
    "Ġugliness": 20425,
    "Ġdiffers": 23780,
    "encounter": 20390,
    "Ġbattering": 13900,
    "Ġtuck": 10140,
    "Ġbeings": 2488,
    "Ġchained": 16387,
    "Ġmomentum": 1603,
    "dred": 2523,
    "Ġplunge": 13442,
    "kins": 7345,
    "Ġwhir": 6393,
    "swe": 5995,
    "Ġimp": 580,
    "pate": 21009,
    "Ġthickly": 12113,
    "Ġexamining": 8005,
    "Ġcoincidence": 25483,
    "joining": 19444,
    "Ġcordiality": 24395,
    "take": 4576,
    "Ġstroll": 13351,
    "anche": 10788,
    "Ġcanvas": 7783,
    "Ġamerican": 5061,
    "Ġelapsed": 7652,
    "Ġheadache": 22894,
    "Ġgent": 7383,
    "Ġhatchway": 13524,
    "Ġsiberia": 26161,
    "accomp": 10455,
    "aset": 10832,
    "Ġweighed": 8710,
    "rises": 17655,
    "Ġnominal": 15167,
    "Ġexasper": 8466,
    "Ġven": 4648,
    "Ġrequiring": 2920,
    "Ġbizarre": 17871,
    "Ġfarther": 5954,
    "last": 3805,
    "Ġcost": 2503,
    "Ġprophesy": 26061,
    "tremendous": 20672,
    "Ġjove": 9267,
    "sper": 4435,
    "Ġgrandeur": 8627,
    "Ġshaggy": 13569,
    "Ġexpressed": 4467,
    "exp": 2736,
    "Ġwhittingham": 26197,
    "Ġimitated": 18330,
    "Ġshillings": 15834,
    "aboard": 21791,
    "\"],": 26120,
    "penet": 11070,
    "succeeded": 15174,
    "Ġrad": 4962,
    "patched": 17643,
    "Ġbrut": 18767,
    "unction": 10234,
    "stayed": 25290,
    "Ġorgies": 18285,
    "Ġdav": 15588,
    "Ġangry": 5498,
    "izers": 18134,
    "Ġashamed": 6403,
    "Ġclock": 9532,
    "Ġfading": 15582,
    "usation": 18401,
    "ens": 701,
    "asis": 12647,
    "Ġhats": 14618,
    "Ġbuilded": 24719,
    "Ġdeployment": 11201,
    "Ġclaim": 5106,
    "Ġcapric": 14575,
    "ge": 561,
    "oarsman": 25261,
    "also": 7850,
    "rown": 2189,
    "anation": 5803,
    "Ġmedium": 16681,
    "Ġmallet": 17810,
    "Ġrequisition": 22654,
    "ctu": 5088,
    "ally": 531,
    "Ġmills": 21310,
    "flakes": 23965,
    "Ġrowing": 10300,
    "fully": 2201,
    "aurs": 20768,
    "hit": 20888,
    "ain": 343,
    "ig": 323,
    "##": 2313,
    "Ġlands": 6594,
    "youth": 11873,
    "Ġsyrian": 18353,
    "rann": 21043,
    "mental": 16059,
    "Ġseren": 7401,
    "Ġrising": 4355,
    "Ġunquestion": 18251,
    "Ġdefilements": 26284,
    "Ġretirement": 25378,
    "Ġcomfortless": 23910,
    "Ġindication": 22949,
    "minute": 11274,
    "unciation": 25982,
    "Ġpious": 11598,
    "ater": 3369,
    "Ġrosy": 18458,
    "bearings": 25371,
    "Ġsneezes": 24698,
    "relu": 17759,
    "gained": 20880,
    "Ġeconomical": 25287,
    "ur": 326,
    "Ġcul": 17822,
    "sa": 8756,
    "Ġpy": 21449,
    "Ġashen": 21896,
    "Ġskirting": 22796,
    "Ġstrain": 6023,
    "possesses": 24616,
    "Ġfru": 8419,
    "Ġindisposed": 26287,
    "Ġsounded": 8590,
    "execution": 20470,
    "Ġhotels": 19535,
    "Ġmonomania": 17085,
    "Ġinvariably": 8063,
    "Ġshudderings": 25200,
    "sad": 11520,
    "Ġincognit": 22551,
    "Ġbrotherhood": 23669,
    "Ġpaced": 7583,
    "Ġsuperflu": 14554,
    "Ġconcentrate": 25063,
    "Ġploughed": 22602,
    "Ġsecondary": 23334,
    "leful": 17842,
    "Ġchosen": 7201,
    "Ġnought": 21519,
    "Ġbas": 6380,
    "renew": 24450,
    "urity": 8142,
    "pacific": 17641,
    "stead": 10846,
    "Ġepo": 21616,
    "consent": 18501,
    "Ġclanging": 18429,
    "Ġdescribe": 2763,
    "Ġcod": 8411,
    "Ġdur": 11591,
    "Ġneskye": 21528,
    "cheerfulness": 20179,
    "Ġages": 7027,
    "Ġirish": 14534,
    "Ġsusp": 2663,
    "Ġvote": 21944,
    "Ġremarkably": 7702,
    "chest": 11208,
    "Ġheroine": 24543,
    "Ġstreaked": 19113,
    "Ġobli": 9315,
    "neurons": 3135,
    "dee": 11730,
    "Ġoscillations": 2898,
    "vessel": 11377,
    "moran": 24151,
    "Ġstain": 18067,
    "Ġdefinitions": 22941,
    "swim": 16779,
    "ment": 694,
    "ull": 1431,
    "Ġbrilliant": 11414,
    "Ġpreaching": 15925,
    "Ġblasphe": 17406,
    "Ġblacksmith": 6595,
    "raid": 3277,
    "Ġwrest": 11570,
    "Ġrecogn": 2764,
    "Ġdistraction": 22501,
    "Ġgazed": 6478,
    "hateful": 20908,
    "Ġmalignant": 14877,
    "sailed": 17666,
    "Ġwhitt": 18054,
    "Ġmamma": 10047,
    "Ġgeneric": 18448,
    "Ġpreced": 6039,
    "Ġthousandth": 23682,
    "Ġbloodshed": 23799,
    "atherley": 7220,
    "serious": 14447,
    "Ġdescrying": 18618,
    "Ġapples": 22217,
    "fred": 20854,
    "may": 3680,
    "Ġapo": 9630,
    "Ġlately": 6387,
    "Ġassuming": 16693,
    "ulsive": 10233,
    "Ġcustody": 13646,
    "exagger": 22425,
    "featured": 24185,
    "strugg": 21659,
    "linen": 25257,
    "Ġunfulfilled": 26509,
    "Ġaloft": 4303,
    "Ġdangerously": 23934,
    "Ġkitty": 3912,
    "Ġreceipt": 20354,
    "Ġsearch": 2587,
    "Ġsplit": 7992,
    "ationally": 15703,
    "thanked": 24331,
    "Ġunre": 3479,
    "uc": 1874,
    "Ġgerman": 6141,
    "Ġenv": 2840,
    "Ġ1991": 3015,
    "Ġopen": 1549,
    "Ġcour": 1768,
    "Ġjail": 22291,
    "itering": 17818,
    "Ġanat": 8123,
    "Ġalgorith": 558,
    "client": 18931,
    "rians": 21922,
    "uth": 3017,
    "Ġtax": 13815,
    "Ġshaken": 10264,
    "Ġris": 4886,
    "include": 23588,
    "accident": 11181,
    "Ġbuying": 23993,
    "roof": 17953,
    "Ġcrescent": 16135,
    "Ġcoincid": 20316,
    "Ġshut": 3944,
    "umn": 5835,
    "Ġvolat": 24143,
    "Ġate": 8839,
    "Ġfingers": 5672,
    "moderate": 22904,
    "Ġreceived": 2951,
    "Ġscore": 9737,
    "Ġanx": 3180,
    "clings": 23150,
    "Ġscales": 4849,
    "Ġrivers": 9441,
    "obviously": 25242,
    "Ġprofundities": 20452,
    "Ġguests": 12285,
    "peculiar": 6886,
    "Ġconfed": 13095,
    "Ġtantamount": 25625,
    "ities": 1824,
    "Ġprepare": 8646,
    "Ġtraged": 9351,
    "Ġmate": 3708,
    "Ġwatch": 2742,
    "Ġgrooves": 16741,
    "miserable": 8656,
    "emper": 18185,
    "Ġdistricts": 20262,
    "varying": 13803,
    "lement": 10166,
    "Ġconclusions": 10553,
    "bride": 19198,
    "Ġgaz": 4043,
    "Ġtrim": 15962,
    "jewell": 25523,
    "Ġhumorousness": 25377,
    "bun": 12436,
    "Ġdepose": 22605,
    "Ġnecessarily": 13247,
    "Ġtherefore": 2235,
    "bering": 18681,
    "Ġ82": 24458,
    "ow": 325,
    "treated": 21093,
    "distant": 13333,
    "rapid": 12667,
    "Ġloafer": 18299,
    "Ġchaplain": 19911,
    "Ġapproaching": 6284,
    "Ã¦mon": 7094,
    "Ġclothes": 4997,
    "ock": 15402,
    "leagued": 26435,
    "Ġclaps": 22356,
    "introdu": 8937,
    "Ġconceit": 7295,
    "vius": 23540,
    "idol": 21763,
    "Ġneeded": 7717,
    "Ġhears": 8138,
    "inite": 6001,
    "credit": 12446,
    "Ġnevertheless": 5040,
    "drop": 15336,
    "renadier": 18419,
    "Ġbull": 7839,
    "Ġdaylight": 10350,
    "things": 6032,
    "Ġakin": 15495,
    "umul": 1288,
    "Ġbower": 15565,
    "starbuck": 6018,
    "Ġperished": 11782,
    "Ġclassify": 1641,
    "Ġinstincts": 16986,
    "mystical": 25317,
    "Ġagain": 813,
    "approve": 19935,
    "completed": 19992,
    "agreeable": 5829,
    "Ġduchess": 4799,
    "pract": 10119,
    "Ġengineering": 3024,
    "Ġgazette": 19499,
    "Ġremorseless": 13450,
    "backpropagation": 11984,
    "pid": 1378,
    "Ġscheduling": 2346,
    "ations": 711,
    "Ġmaker": 15541,
    "Ġmab": 12557,
    "Ġbusier": 23336,
    "Ġcent": 3252,
    "moid": 2448,
    "Ġpine": 8796,
    "Ġprejudice": 9075,
    "Ġlocations": 12411,
    "squall": 13521,
    "Ġtreasures": 17047,
    "archbishop": 22883,
    "Ġhunch": 18934,
    "connected": 1310,
    "Ġreadily": 5253,
    "lays": 14921,
    "where": 2091,
    "Ġminimax": 5857,
    "Ġlandless": 23377,
    "Ġnoteworthy": 24161,
    "Ġpermit": 9748,
    "desolate": 25703,
    "approached": 13484,
    "wers": 12517,
    "Ġincapable": 7423,
    "stri": 6249,
    "Ġdeaf": 12718,
    "rief": 6202,
    "lion": 20943,
    "Ġcompacted": 23508,
    "Ġfrankness": 16746,
    "Ġclicked": 22362,
    "Ġdraw": 3672,
    "ber": 885,
    "aulets": 18621,
    "rints": 12500,
    "quiet": 6154,
    "Ġmed": 3988,
    "Ġenhancement": 23764,
    "Ġfiltering": 23923,
    "Ġfrequent": 3284,
    "baked": 20778,
    "Ġdro": 2770,
    "allowance": 16824,
    "sinking": 17668,
    "ckinridge": 11717,
    "Ġinvolves": 1119,
    "Ġdevoured": 16134,
    "dry": 13702,
    "Ġaristotle": 25817,
    "Ġsagacious": 14970,
    "Ġbundle": 13425,
    "Ġimpressed": 8198,
    "plied": 10255,
    "mysteries": 26051,
    "unimportant": 18159,
    "Ġwhale": 627,
    "Ġparac": 12792,
    "Ġknob": 24407,
    "Ġultimate": 12347,
    "Ġtwenty": 3951,
    "meetings": 20376,
    "Ġinstructions": 11195,
    "Ġsmiling": 5474,
    "Ġpoltro": 23618,
    "Ġmetropolitan": 17275,
    "Ġformality": 22826,
    "Ġpictures": 5503,
    "Ġnervousness": 23554,
    "Ġcream": 22720,
    "said": 4105,
    "Ġannouncement": 14832,
    "Ġrelationship": 2312,
    "Ġawkwardness": 13486,
    "aisance": 15073,
    "combe": 7661,
    "azore": 23461,
    "introduce": 25186,
    "Ġdrove": 4984,
    "plentiful": 21959,
    "Ġfantastic": 10058,
    "slipped": 25529,
    "Ġbristling": 20525,
    "Ġbrilliantly": 25120,
    "thing": 1479,
    "define": 1525,
    "Ġap": 5008,
    "Ġminority": 18752,
    "aunted": 20769,
    "Ġasiatic": 20428,
    "Ġswept": 7977,
    "_;": 6640,
    "Ġtraining": 530,
    "Ġbefallen": 12341,
    "fare": 7798,
    "Ġreliable": 18775,
    "ivering": 7697,
    "ricted": 15420,
    "Ġstam": 18068,
    "Ġexpeditions": 24954,
    "Ġwhittling": 20698,
    "tomb": 21092,
    "Ġstay": 3094,
    "Ġnovelties": 24778,
    "fatigue": 20657,
    "obliged": 20630,
    "Ġvices": 14082,
    "Ġstepfather": 7221,
    "malicious": 19901,
    "Ġelud": 22638,
    "terms": 15749,
    "pshaw": 21027,
    "Ġdire": 864,
    "Ġlatter": 3991,
    "Ġrecl": 16139,
    "Ġdie": 3964,
    "Ġframework": 2096,
    "willingness": 24755,
    "Ġmelting": 24288,
    "Ġexhilarating": 26337,
    "Ġcompan": 2172,
    "Ġelevating": 19728,
    "Ġliberal": 12188,
    "Ġofficer": 6753,
    "Ġdescribed": 6606,
    "ĠâĢľ_": 6696,
    "Ġfin": 1459,
    "sciss": 18850,
    "draul": 9442,
    "Ġfigured": 16643,
    "Ġstartled": 7082,
    "Ġemerge": 14927,
    "Ġchili": 25561,
    "distinguished": 10526,
    "Ġpreluding": 18368,
    "Ġneurons": 975,
    "Ġthackeray": 26455,
    "consternation": 16912,
    "Ġvengeance": 5884,
    "Ġlexic": 15716,
    "Ġmean": 742,
    "reserve": 17765,
    "disapprobation": 19155,
    "Ġclients": 19731,
    "Ġ4": 3987,
    "Ġproofs": 19813,
    "Ġsin": 1513,
    "Ġfing": 3759,
    "Ġcovers": 18590,
    "rior": 12739,
    "Ġgloves": 8574,
    "ĠâĢĶâĢĶ": 25757,
    "Ġmerit": 9426,
    "ator": 1920,
    "Ġpetrified": 19595,
    "Ġinsisted": 12044,
    "Ġunchanging": 22042,
    "eon": 8729,
    "Ġweeds": 21921,
    "Ġrelates": 12977,
    "Ġem": 1922,
    "Ġadding": 2400,
    "Ġdemanded": 8326,
    "Ġgeneralize": 3100,
    "icide": 11617,
    "Ġfeathers": 15118,
    "Ġcooking": 16646,
    "nowled": 5470,
    "impregnable": 26481,
    "dispositions": 25011,
    "Ġannihilated": 20251,
    "insupportable": 21192,
    "Ġart": 746,
    "Ġdeliber": 7268,
    "mont": 19168,
    "Ġlargely": 14284,
    "ĭ": 238,
    "either": 6791,
    "umb": 3480,
    "Ġbohemian": 17133,
    "Ġkeenest": 12159,
    "ency": 3871,
    "Ġbrooded": 23101,
    "estruct": 22215,
    "Ġhearing": 4761,
    "Ġabstracted": 17182,
    "Ġstalked": 20427,
    "Ġfri": 17878,
    "Ġstand": 1735,
    "Ġstig": 14002,
    "Ġremnants": 22790,
    "idated": 11660,
    "wonders": 17143,
    "Ġroof": 6564,
    "Ġpout": 17906,
    "aping": 8193,
    "ouses": 5163,
    "Ġflow": 1236,
    "Ġstructures": 2719,
    "Ġgeneration": 2267,
    "Ġrefined": 18710,
    "Ġincome": 7916,
    "t": 88,
    "matical": 13128,
    "Ġhanding": 16129,
    "Ġnodes": 1964,
    "Ġdrives": 14577,
    "Ġfloats": 9412,
    "ometer": 19325,
    "Ġmisunderstood": 18703,
    "loat": 8886,
    "Ġsavoury": 23875,
    "Ġanticipation": 17057,
    "Ġflinging": 13584,
    "Ġextended": 7921,
    "Ġreckon": 19869,
    "Ġamiable": 4270,
    "Ġflourished": 15124,
    "Ġeyebrows": 23515,
    "Ġcomparable": 24278,
    "Ġix": 12665,
    "barrow": 15320,
    "Ġlengthen": 15652,
    "sol": 1789,
    "Ġanalytical": 22901,
    "studies": 25166,
    "capable": 13700,
    "Ġante": 17896,
    "quadr": 15762,
    "ve": 322,
    "bodily": 17314,
    "histor": 13490,
    "stop": 11634,
    "Ġless": 1937,
    "unch": 14057,
    "Ġconscious": 7743,
    "writhed": 26080,
    "Ġvest": 8162,
    "inions": 8401,
    "Ġurgent": 16869,
    "declare": 25173,
    "Ġenthus": 7232,
    "iforn": 14063,
    "Ġdick": 3498,
    "Ġalarm": 4047,
    "Ġleadenhall": 16628,
    "Ġturtle": 4205,
    "Ġunlike": 7004,
    "Ġstat": 1490,
    "Ġcondem": 6338,
    "eur": 7545,
    "Ġtempered": 12919,
    "Ġsouthampton": 24307,
    "ceive": 3064,
    "Ġinvolving": 18765,
    "Ġriding": 14094,
    "Ġmeanwhile": 5736,
    "urous": 10212,
    "Ġperempt": 13672,
    "Ġli": 601,
    "Ġlandowner": 23379,
    "Ġcoins": 11817,
    "Ġundivided": 24120,
    "Ġwardrobe": 17225,
    "Ġdiscovery": 5412,
    "Ġmagg": 18905,
    "Ġconnection": 5479,
    "zek": 16254,
    "<UNK>": 3,
    "Ġrocks": 6863,
    "Ġmounting": 19975,
    "Ġfab": 15574,
    "Ġprofuse": 23565,
    "Ġfault": 5702,
    "Ġbitterness": 8024,
    "farewell": 12304,
    "legs": 13181,
    "ought": 828,
    "Ġmodern": 3227,
    "employ": 10895,
    "these": 3240,
    "Ġhoarsely": 26302,
    "james": 15371,
    "attention": 2110,
    "Ġunsolved": 22030,
    "Ġfork": 15732,
    "Ġnine": 5369,
    "flesh": 13489,
    "angs": 5834,
    "Ġwounding": 19585,
    "scale": 3536,
    "Ġemblaz": 16242,
    "Ġreceives": 20353,
    "Ġminiatures": 20320,
    "quaker": 15761,
    "prehensible": 12358,
    "Ġauto": 23298,
    "Ġconstitutes": 13551,
    "olet": 13765,
    "Ġrestrained": 16375,
    "Ġmungo": 25631,
    "ption": 7398,
    "Ġblue": 3455,
    "Ġduck": 8793,
    "actory": 8907,
    "Ġpercept": 14223,
    "Ġnerves": 2627,
    "attest": 23116,
    "Ġcircumference": 13544,
    "Ġseize": 8165,
    "Ġoffending": 22740,
    "Ġcl": 556,
    "weary": 22683,
    "Ġoat": 21321,
    "Ġstaid": 21735,
    "alleging": 23016,
    "behaved": 24463,
    "Ġconjured": 25099,
    "Ġproceeded": 5335,
    "Ġsingular": 4424,
    "Ġrally": 21968,
    "Ġspir": 2427,
    "quet": 6835,
    "inarticulate": 21194,
    "opp": 6963,
    "Ġingenious": 12346,
    "Ġshroud": 6483,
    "Ġroy": 4230,
    "Ġmanoir": 22328,
    "Ġ1807": 26083,
    "crucible": 24842,
    "atic": 4018,
    "Ġpat": 1759,
    "Ġstream": 5186,
    "Ġstaple": 26198,
    "Ġcaves": 15552,
    "Ġhams": 16612,
    "Ġgasp": 7172,
    "baden": 25615,
    "upon": 2720,
    "Ġbushy": 16400,
    "Ġforetold": 23450,
    "contented": 14634,
    "Ġelusive": 22641,
    "Ġexceptionable": 25503,
    "ppings": 18176,
    "Ġescapes": 23507,
    "arding": 22154,
    "Ġgrasped": 8033,
    "Ġvalue": 2084,
    "Ġimpulse": 10023,
    "misfortunes": 16756,
    "east": 9115,
    "Ġpacing": 8425,
    "frock": 20119,
    "Ġsake": 4091,
    "Ġinformed": 6717,
    "whal": 10940,
    "Ġtou": 15466,
    "Ġjabez": 11764,
    "Ġclean": 5652,
    "Ġlulled": 17968,
    "Ġtrait": 23071,
    "Ġinsignific": 13179,
    "gladness": 25194,
    "Ġreceive": 4704,
    "Ġjoined": 4564,
    "listen": 13513,
    "rawling": 21633,
    "Ġphr": 2680,
    "Ġordered": 5832,
    "ends": 6038,
    "europe": 20664,
    "Ġitems": 9691,
    "sory": 17659,
    "Ġinjury": 10540,
    "Ġearthquake": 14628,
    "oubtedly": 6943,
    "ral": 4628,
    "Ġcreases": 22722,
    "Ġmilky": 9946,
    "Ġmiriam": 25273,
    "Ġ36": 14766,
    "Ġaccurate": 13264,
    "contains": 16029,
    "oysius": 14364,
    "Ġpractical": 3163,
    "ura": 1029,
    "aution": 9386,
    "offer": 19058,
    "mology": 12489,
    "Ġslay": 16305,
    "mature": 20966,
    "Ġpract": 1885,
    "Ġrepresent": 1211,
    "Ġhasty": 10477,
    "Ġsymmetry": 20364,
    "Ġreplay": 5047,
    "Ġindifference": 6725,
    "proper": 7471,
    "Ġ182": 13235,
    "hearth": 15499,
    "Ġdestroy": 5772,
    "Ġpicking": 11259,
    "Ġsofa": 10269,
    "Ġbut": 423,
    "squeezing": 25913,
    "Ġbachelor": 7786,
    "Ġscaffold": 18400,
    "Ġincorrect": 2727,
    "Ġtie": 10750,
    "E": 41,
    "mag": 6508,
    "Ġrelinqu": 12979,
    "counters": 25397,
    "Ġcascade": 20579,
    "Ġbells": 19600,
    "Ġprejud": 6851,
    "Ġutter": 3976,
    "Ġspring": 4122,
    "xter": 9146,
    "Ġsloping": 11937,
    "tured": 13794,
    "Ġchocks": 13344,
    "ho": 2856,
    "Ġfirm": 3873,
    "Ġlip": 6532,
    "ittance": 12843,
    "Ġinner": 9670,
    "Ġoutrid": 22312,
    "mild": 15390,
    "Ġmeantime": 6206,
    "Ġwedge": 24069,
    "shold": 2772,
    "imately": 12685,
    "passed": 8025,
    "Ġtwisted": 7228,
    "Ġcheered": 16371,
    "Ġexhib": 6349,
    "Ġfeasts": 25369,
    "Ġfalse": 4343,
    "Ġadie": 8488,
    "Ġjet": 5307,
    "ti": 8389,
    "occasionally": 13520,
    "sets": 17660,
    "thither": 21980,
    "llable": 6879,
    "Ġfit": 3685,
    "Ġklux": 22192,
    "Ġund": 4120,
    "significant": 25082,
    "Ġdismissed": 12889,
    "Ġalche": 21780,
    "Ġhamp": 12627,
    "Ġunderstanding": 1903,
    "Ġcomparatively": 9489,
    "collected": 13212,
    "algorithm": 3750,
    "ober": 15406,
    "Ġpin": 7161,
    "Ġrepel": 23357,
    "Ġdevout": 14325,
    "uteronomy": 15662,
    "ug": 1767,
    "Ġmo": 628,
    "acters": 9308,
    "Ġpurchasing": 19874,
    "Ġtiar": 21166,
    "Ġcattle": 12569,
    "Ġpond": 13915,
    "ilities": 6991,
    "leisure": 21369,
    "Ġsorrows": 13353,
    "remental": 21246,
    "ru": 481,
    "Ġpanegyric": 26449,
    "Ġappetites": 20205,
    "Ġjeopardized": 20229,
    "Ġofficers": 4426,
    "Ġreposing": 23359,
    "separated": 20158,
    "Ġow": 8407,
    "vity": 7815,
    "unfort": 21873,
    "Ġevaluation": 16568,
    "mai": 22911,
    "Ġignited": 25069,
    "ulations": 6028,
    "Ġbawling": 25945,
    "Ġperilously": 24507,
    "Ġproject": 5546,
    "Ġhill": 5626,
    "Ġornam": 15863,
    "eaten": 20343,
    "Ġavoid": 5199,
    "feeling": 6616,
    "ulance": 15765,
    "Ġlurks": 11290,
    "amplified": 26494,
    "queg": 1770,
    "abases": 3006,
    "Ġemper": 9860,
    "Ġfears": 5729,
    "Ġscrews": 25177,
    "Ġsunken": 14493,
    "Ġboun": 21378,
    "Ġgunw": 6212,
    "Ġdollars": 11455,
    "Ġcou": 5286,
    "Ġhazard": 20430,
    "between": 5071,
    "usually": 10285,
    "Ġpasses": 2678,
    "Ġclasping": 20208,
    "eding": 7165,
    "battering": 20785,
    "Ġarticle": 9501,
    "Ġforemast": 12004,
    "Ġchicha": 15935,
    "remote": 23187,
    "forget": 11032,
    "Ġsolace": 16198,
    "Ġox": 7153,
    "mis": 4521,
    "Ġobligations": 12089,
    "Ġthom": 21513,
    "Ġcommentaries": 20159,
    "Ġidiotic": 25588,
    "disappeared": 14570,
    "uced": 13799,
    "avoiding": 25236,
    "Ġisa": 14024,
    "Ġapex": 24342,
    "Ġgle": 7858,
    "Ġinsinuating": 19270,
    "Ġchry": 22243,
    "married": 9948,
    "order": 1957,
    "Ġpositions": 2055,
    "Ġavenue": 13620,
    "Ġsuccessfully": 19427,
    "Ġthrice": 10575,
    "pointing": 12222,
    "sim": 6510,
    "ecess": 17532,
    "Ġze": 8545,
    "Ġtop": 2469,
    "Ġsuddenness": 23380,
    "ob": 1419,
    "ience": 799,
    "Ġdiabolically": 25513,
    "Ġbolt": 11334,
    "levelled": 23642,
    "Ġtraps": 23077,
    "investments": 25532,
    "Ġsupplies": 20325,
    "Ġthames": 13937,
    "Ġplanks": 5563,
    "Ġbuckets": 17034,
    "Ġmechanically": 14397,
    "archangel": 18780,
    "borrowed": 20791,
    "]": 65,
    "Ġirritated": 17242,
    "abashed": 21789,
    "Ġsciences": 15943,
    "abular": 4762,
    "Ġsurmisings": 26593,
    "Ġturnkeys": 23021,
    "beholding": 16039,
    "Ġegypt": 9678,
    "Ġblacks": 23386,
    "Ġpains": 5964,
    "ighbour": 3388,
    "Ġtravellers": 11308,
    "odes": 18119,
    "Ġabroad": 8865,
    "Ġsent": 1775,
    "wled": 15454,
    "Ġredundant": 16550,
    "Ġtaken": 2525,
    "Ġaltar": 9228,
    "oline": 6834,
    "Ġmayhew": 12946,
    "Ġthrust": 5084,
    "affection": 7487,
    "Ġbid": 6131,
    "nephew": 26397,
    "Ġfiled": 15578,
    "Ġwish": 2098,
    "Ġprocedural": 12029,
    "alously": 15627,
    "gardiner": 12289,
    "Ġlined": 15648,
    "Ġic": 9625,
    "Ġreb": 15689,
    "Ġphenomenon": 17916,
    "Ġscraps": 16902,
    "ĠĠĠĠĠĠĠĠĠĠĠĠĠĠĠĠĠĠĠĠĠĠĠĠĠĠĠĠĠĠĠĠĠĠĠĠĠĠĠĠĠĠĠĠĠĠĠĠĠĠĠĠĠ": 20038,
    "Ġmatches": 14395,
    "za": 13809,
    "Ġmusty": 22677,
    "Ġblinded": 13269,
    "compar": 14358,
    "omited": 21638,
    "Ġadvancement": 24475,
    "Ġrepining": 23358,
    "Ġdisputing": 25824,
    "trial": 20349,
    "Ġjac": 1895,
    "afflicted": 23777,
    "Ġfrolic": 23921,
    "abond": 15739,
    "ividual": 5462,
    "Ġlandlord": 5581,
    "Ġinsulted": 14991,
    "grand": 7969,
    "hammer": 14489,
    "Ġsecrets": 9054,
    "Ġfurlongs": 20722,
    "Ġreduce": 7942,
    "Ġcrushing": 20175,
    "iger": 8446,
    "aren": 10073,
    "pleasures": 24044,
    "Ġembellished": 25850,
    "Ã¦us": 14815,
    "Ġprogram": 12991,
    "Ġgallop": 19554,
    "Ġdivide": 12108,
    "content": 11197,
    "Ġrecent": 7436,
    "Ġtyros": 26101,
    "Ġinasmuch": 10825,
    "Ġglories": 16237,
    "Ġsuffocated": 20727,
    "ording": 9763,
    "punctual": 26355,
    "Ġoptimizer": 5035,
    "Ġcheapside": 23286,
    "sing": 5138,
    "Ġdistances": 22499,
    "third": 8167,
    "Ġwire": 13851,
    "Ġjudgment": 5765,
    "rength": 4102,
    "Ġoffended": 7040,
    "Ġwondrously": 24063,
    "ative": 741,
    "start": 7598,
    "ple": 455,
    "Ġlucky": 7758,
    "rels": 6664,
    "Ġconqueror": 25796,
    "repairing": 24495,
    "Ġfloor": 4378,
    "battle": 12440,
    "Ġdest": 2233,
    "Ġkissed": 10044,
    "Ġaccident": 5380,
    "Ġstabbing": 20302,
    "Ġloo": 22107,
    "him": 1938,
    "Ġopposed": 11188,
    "Ġbody": 2435,
    "expressing": 16801,
    "alarmed": 21500,
    "persecutor": 26530,
    "Ġaunts": 21199,
    "Ġtem": 803,
    "Ġinher": 10179,
    "Ġjets": 10287,
    "objection": 19914,
    "Ġfaltering": 17884,
    "](": 11466,
    "brad": 20780,
    "Ġalcoves": 26486,
    "Ġupwards": 7633,
    "Ġrounding": 16275,
    "deliberated": 26118,
    "ror": 7351,
    "Ġmock": 3692,
    "Ġassure": 4419,
    "fears": 18534,
    "Ġhus": 3092,
    "Ġsame": 1340,
    "Ġfrightful": 7735,
    "Ġdash": 8121,
    "Ġstruggles": 16578,
    "Ġoverseeing": 22350,
    "zed": 8103,
    "Ġbiases": 2394,
    "Ġflirting": 16246,
    "Ġcurled": 8230,
    "Ġprovides": 1929,
    "Ġcate": 4110,
    "disappointment": 11425,
    "grace": 5846,
    "Ġstructured": 2971,
    "Ġdestined": 7974,
    "agation": 1240,
    "Ġinvoluntary": 18766,
    "employed": 17261,
    "Ġconsuming": 22789,
    "Ġrambling": 18643,
    "ĠĠĠĠĠĠĠĠĠĠĠĠĠĠĠĠĠĠĠĠĠĠĠĠĠĠĠĠĠĠĠĠĠĠĠĠĠĠĠĠĠĠĠĠĠĠĠ": 16755,
    "Ġmusk": 7494,
    "Ġsordid": 26422,
    "Ġpink": 12615,
    "Ġconst": 1908,
    "Ġdarling": 12601,
    "virtue": 20568,
    "Ġthree": 1368,
    "olidity": 18132,
    "tle": 2406,
    "narr": 12494,
    "Ġpiteous": 17917,
    "Ġmill": 6666,
    "Ġuncont": 14116,
    "Ġbegin": 3098,
    "lived": 12484,
    "iferous": 17291,
    "side": 2297,
    "althy": 8431,
    "headed": 4318,
    "omen": 4086,
    "Ġnecess": 3477,
    "Ġscraggy": 24579,
    "Ġtemporarily": 11167,
    "ceived": 1961,
    "Ġsteam": 9352,
    "Ġclo": 6044,
    "Ġrecur": 1622,
    "Ġanimals": 8978,
    "Ġhoarse": 14526,
    "Ġlasting": 18791,
    "Ġconversed": 13187,
    "Ġprotectors": 9070,
    "Ġemblazonings": 26045,
    "Ġlimits": 3454,
    "Ġsullen": 9157,
    "Ġdropt": 23674,
    "Ġocc": 887,
    "dressing": 11481,
    "Ġexamples": 2603,
    "naturalists": 23470,
    "bond": 17489,
    "itage": 17816,
    "Ġalthough": 4153,
    "Ġunw": 8849,
    "Ġ166": 25004,
    "Ġapartments": 19613,
    "Ġsanity": 24979,
    "cong": 10687,
    "Ġlaunched": 14925,
    "pursu": 11392,
    "wag": 21122,
    "Ġbled": 17856,
    "Ġfowls": 8690,
    "Ġfactor": 19011,
    "butter": 11783,
    "forever": 22516,
    "Ġcroquet": 9961,
    "Ġneedles": 11184,
    "Ġcaresses": 26059,
    "utted": 15659,
    "Ġpennies": 17270,
    "Ġnatives": 17950,
    "Ġpresumably": 19623,
    "Ġcrevice": 22724,
    "pon": 17625,
    "Ġconsoled": 18112,
    "Ġmalicious": 10557,
    "Ġwarmup": 3924,
    "Ġtolerably": 8067,
    "Ġcurric": 23024,
    "Ġbreat": 3461,
    "Ġavocation": 23950,
    "gradu": 18615,
    "umes": 10917,
    "neural": 3066,
    "Ġcrucifix": 26079,
    "ancies": 11583,
    "rendered": 22336,
    "Ġcross": 1371,
    "Ġforg": 3789,
    "comfortableness": 24525,
    "hastened": 16845,
    "Ġfam": 1587,
    "Ġweave": 21918,
    "itancy": 21331,
    "deduction": 23555,
    "arnel": 18121,
    "cheerful": 13574,
    "ule": 6800,
    "Ġprofessed": 14723,
    "acetty": 24464,
    "Ġcomprise": 18583,
    "middle": 11310,
    "Ġrocking": 10969,
    "limin": 8383,
    "ĠĠĠĠĠĠĠĠĠĠĠĠĠĠĠĠĠĠĠĠĠĠĠĠĠĠĠĠĠĠĠĠĠĠĠĠĠĠĠĠĠĠĠĠĠĠĠĠĠĠĠ": 20037,
    "erc": 5904,
    "hog": 8379,
    "distinction": 19570,
    "Ġcheever": 23282,
    "Ġliberally": 16830,
    "Ġimputed": 12805,
    "Ġsimilarity": 3166,
    "Ġhuzza": 12630,
    "Ġevenness": 22831,
    "Ġbildad": 3783,
    "cruet": 17026,
    "Ġseal": 10254,
    "Ġhimmale": 18329,
    "Ġanger": 5442,
    "Ġcetology": 10008,
    "Ġstray": 18072,
    "inst": 4295,
    "Ġinclemency": 22552,
    "Ġplow": 21457,
    "joke": 20929,
    "Ġalluded": 7884,
    "Ġrewarded": 14939,
    "Ġblade": 11891,
    "Ġaccidental": 16848,
    "Ġroses": 11784,
    "Ġvenetian": 14846,
    "renewed": 19703,
    "Ġbountiful": 25944,
    "tossing": 18580,
    "Ġseparate": 5778,
    "Ġintrepidity": 25550,
    ";âĢĶ": 3751,
    "Ġstreng": 18073,
    "Ġmainly": 22652,
    "Ġangles": 23587,
    "Ġshort": 2222,
    "gentleman": 7518,
    "ighter": 7967,
    "Ġembarrassment": 10626,
    "Ġhampshire": 15241,
    "Ġnorms": 3667,
    "Ġerection": 23998,
    "Ġcommons": 22669,
    "Ġallow": 1126,
    "Ġbuzz": 23994,
    "20": 20752,
    "op": 655,
    "atter": 654,
    "Ġdis": 693,
    "Ġexe": 3996,
    "Ġunjust": 8483,
    "Ġevangelists": 20338,
    "deli": 15343,
    "Ġarise": 7895,
    "bod": 12435,
    "Ġfools": 14481,
    "mody": 16206,
    "oney": 3050,
    "Ġrecompense": 14837,
    "Ġplainer": 23702,
    "atched": 6375,
    "riptions": 14793,
    "Ġretained": 7173,
    "Ġwandering": 8653,
    "Ġactivity": 7919,
    "Ġpettic": 14840,
    "Ġteased": 18801,
    "dev": 7631,
    "ucket": 2482,
    "Ġcoll": 8220,
    "Ġshyness": 20305,
    "ĠĠĠĠĠĠĠĠ": 712,
    "Ġceiling": 7996,
    "Ġintending": 11702,
    "Ġbitterly": 8314,
    "Ġkeel": 6444,
    "Ġfrench": 4939,
    "drawers": 19384,
    "Ġrepine": 16410,
    "Ġallows": 3232,
    "Ġpolitic": 23617,
    "Ġromans": 16759,
    "Ġrelative": 11881,
    "tan": 4742,
    "Ġneighbors": 25804,
    "Ġtokens": 1772,
    "rs": 7807,
    "acked": 10973,
    "vedale": 22707,
    "Ġprayers": 12121,
    "Ġben": 1105,
    "terror": 18128,
    "Ġamours": 22478,
    "Ġweig": 7618,
    "Ġredeem": 20498,
    "Ġmake": 1284,
    "Ġenjoys": 19448,
    "Ġearning": 23938,
    "Ġcircumn": 11982,
    "Ġstarbuck": 2191,
    "Ġheedful": 19739,
    "Ġhail": 7400,
    "Ġheavy": 3744,
    "octavo": 11385,
    "yourselves": 24956,
    "Ġpride": 3825,
    "spiracle": 22734,
    "Ġungenerous": 18269,
    "Ġpowder": 11275,
    "Ġconnect": 796,
    "memory": 13616,
    "Ġoxen": 19949,
    "daw": 17522,
    "presented": 12987,
    "sacrifice": 13491,
    "fearfully": 25116,
    "ultaneous": 18582,
    "both": 5785,
    "Ġsled": 21217,
    "neighb": 16026,
    "pread": 7418,
    "Ġottoman": 17377,
    "Ġ112": 24437,
    "tenham": 16321,
    "Ġstiffness": 24830,
    "remonstr": 23188,
    "concluding": 19479,
    "Ġperth": 7022,
    "mastod": 23971,
    "adier": 18089,
    "Ġmorbid": 16233,
    "uctive": 17696,
    "Ġhorsham": 10406,
    "senses": 25022,
    "reasoning": 9475,
    "Ġdiscussed": 19558,
    "Ġoath": 7833,
    "Ġforswe": 21774,
    "ont": 2622,
    "bourgh": 19103,
    "Ġbarbaric": 10013,
    "iably": 13737,
    "Ġsurrounding": 12160,
    "Ġchased": 8861,
    "Ġlunacy": 20026,
    "Ġunmindful": 22063,
    "Ġstrongly": 5657,
    "Ġdivulged": 16648,
    "lemency": 21372,
    "supplemental": 25874,
    "elze": 21570,
    "Ġkeener": 22912,
    "Ġrick": 21970,
    "ffy": 18316,
    "Ġbulk": 5591,
    "Ġcurling": 9348,
    "prov": 16422,
    "ispensable": 9095,
    "Ġsprang": 5064,
    "Ġvon": 14080,
    "frequently": 9978,
    "Ġeach": 892,
    "ertips": 23638,
    "Ġencoder": 3636,
    "Ġbraz": 19356,
    "Ġlayers": 815,
    "Ġalbatross": 10871,
    "Ġforgetfulness": 14606,
    "lung": 17591,
    "Ġdetermined": 2219,
    "Ġhooked": 19079,
    "Ġinterruption": 9472,
    "ignor": 8961,
    "Ġextort": 22725,
    "Ġfad": 17876,
    "Ġseas": 3078,
    "Ġstrang": 4163,
    "Ġobscure": 9553,
    "nav": 17611,
    "ode": 1453,
    "Ġslice": 23158,
    "Ġchilian": 25563,
    "unsupervised": 10889,
    "Ġsemicircular": 26068,
    "lower": 8880,
    "dition": 15339,
    "Ġlunging": 24989,
    "darkness": 9511,
    "Ġremembering": 14610,
    "Ġtempor": 2362,
    "Ġswain": 18880,
    "Ġindistinctly": 26117,
    "Ġsyllable": 9728,
    "det": 5207,
    "Ġunmannerly": 26517,
    "Ġemployed": 5200,
    "eled": 2354,
    "ides": 2161,
    "addressing": 24401,
    "Ġobstinacy": 17420,
    "Ġstrengthen": 20699,
    "exertion": 16015,
    "Ġdictated": 25218,
    "built": 16825,
    "Ġgrazed": 15832,
    "met": 6652,
    "swells": 26148,
    "ineas": 15820,
    "Ġtor": 8105,
    "warmest": 25027,
    "Ġgrind": 18734,
    "enorm": 17781,
    "Ġcontentment": 14869,
    "duing": 22408,
    "ington": 21300,
    "Ġensemble": 1608,
    "Ġunlab": 3790,
    "atives": 2232,
    "eration": 10772,
    "Ġfun": 524,
    "ix": 1798,
    "elter": 21568,
    "rell": 11563,
    "ource": 5244,
    "Ġscarcely": 4010,
    "Ġadmitting": 19182,
    "Ġascent": 19617,
    "gs": 7338,
    "slee": 17168,
    "Ġplains": 14623,
    "Ġvillanous": 24052,
    "Ġshorter": 4499,
    "Ġskiff": 16164,
    "Ġchron": 19436,
    "sadly": 25526,
    "Ġtrained": 8502,
    "comprehend": 14359,
    "Ġvehicle": 20137,
    "unbounded": 21882,
    "Ġnuts": 17951,
    "Ġ550": 19640,
    "177": 20751,
    "Ġbarrel": 23790,
    "Ġinglorious": 24424,
    ":âĢĶâĢĺ": 24193,
    "regard": 7973,
    "ensibility": 22544,
    "Ġdismantled": 20215,
    "Ġuncl": 22013,
    "Ġeducated": 16785,
    "Ġspan": 11726,
    "rob": 5534,
    "Ġwisdom": 11234,
    "Ġbaling": 17859,
    "Ġcovari": 2334,
    "share": 14235,
    "engineer": 23145,
    "Ġplush": 18609,
    "Ġnind": 17949,
    "Ġsignific": 3830,
    "Ġchristian": 6479,
    "Ġhag": 12622,
    "Ġrabb": 4166,
    "Ġut": 2275,
    "Ġendless": 7053,
    "Ġreflections": 5946,
    "Ġpolicy": 10457,
    "Ġcrescentic": 20619,
    "Ġought": 3419,
    "Ġhoary": 23352,
    "emy": 14074,
    "anqu": 4111,
    "Ġethiop": 26155,
    "Ġsweating": 16463,
    "inities": 21184,
    "receiving": 12540,
    "Ġfragmentary": 25858,
    "pay": 10718,
    "Ġdozen": 8185,
    "Ġhospitality": 13512,
    "Ġpeace": 3693,
    "Ġidentity": 2520,
    "spell": 22730,
    "Ġeverywhere": 9795,
    "superior": 9524,
    "Ġguns": 16776,
    "Ġarchitecture": 1124,
    "venison": 22625,
    "strom": 15682,
    "Ġcravat": 26307,
    "igms": 3047,
    "'": 11,
    "opposition": 24823,
    "Ġhandspike": 22693,
    "Ġburied": 7718,
    "Ġfled": 6670,
    "é": 170,
    "Ġthough": 993,
    "forty": 9373,
    "sax": 21055,
    "fol": 4862,
    "rive": 9706,
    "ferences": 10326,
    "Ġfowl": 11330,
    "ilated": 18057,
    "Ġstoried": 18075,
    "ancho": 4938,
    "Ġsurmised": 24919,
    "Ġplane": 11821,
    "Ġpoliteness": 8273,
    "Ġsights": 7472,
    "Ġwomanly": 23549,
    "osed": 1958,
    "skinned": 25387,
    "Ġpursuits": 12074,
    "Ġautomation": 13256,
    "hav": 20896,
    "Ġgilder": 21610,
    "Ġleading": 7297,
    "dw": 3330,
    "Ġgrimesby": 11457,
    "Ġboom": 9309,
    "Ġkicks": 19767,
    "Ġkith": 22189,
    "Ġ84": 19708,
    "prophecy": 22833,
    "Ġconf": 1817,
    "Ġmajority": 13291,
    "arth": 4443,
    "Ġintrig": 21987,
    "accepted": 20135,
    "Ġanguish": 5583,
    "ĠcÃ¦sar": 20578,
    "Ġfreed": 7267,
    "helping": 23137,
    "Ġmoisture": 12357,
    "hyena": 24252,
    "without": 4846,
    "Ġappl": 1744,
    "ren": 550,
    "pardon": 10064,
    "Ġbambooz": 26119,
    "Ġwhisker": 23932,
    "Ġbroad": 3640,
    "Ġquartered": 20371,
    "Ġaimed": 20249,
    "Ġmurderous": 8315,
    "Ġaries": 21196,
    "Ġprehensile": 26534,
    "inery": 17733,
    "acing": 2716,
    "distressed": 24199,
    "think": 3610,
    "Ġpeev": 22690,
    "Ġbrowne": 13300,
    "Ġstudying": 9843,
    "Ġardour": 8042,
    "Ġenraged": 10244,
    "Ġsuperst": 7703,
    "Ġbordered": 24563,
    "tot": 10728,
    "breeze": 20561,
    "Ġdank": 21426,
    "Ġdisappearance": 9296,
    "ete": 9203,
    "awake": 14451,
    "Ġundoubtedly": 8312,
    "Ġbanks": 6814,
    "Ġfondly": 19615,
    "Ġdisconnected": 22522,
    "strate": 12671,
    "ief": 2044,
    "evinced": 19925,
    "Ġthirty": 4944,
    "Ġlanded": 7469,
    "Ġmacy": 19353,
    "Ġskirts": 14353,
    "Ġpurple": 10433,
    "ounce": 6557,
    "Ġunobstructed": 18267,
    "Ġinde": 7371,
    "sho": 6425,
    "Ġpun": 4587,
    "Ġimpressive": 14999,
    "Ġattacking": 24465,
    "drove": 16993,
    "Ġoccupied": 5272,
    "Ġslily": 23162,
    "Ġby": 383,
    "Ġscattered": 6856,
    "Ġobstinate": 11336,
    "Ġastonished": 7087,
    "ificant": 22203,
    "Ġcompanionship": 14919,
    "Ġkn": 4546,
    "iqu": 7802,
    "Ġholds": 7975,
    "asily": 13945,
    "Ġdoub": 1833,
    "Ġchristianity": 19860,
    "Ġinstruct": 2863,
    "Ġpeninsula": 23193,
    "prim": 23808,
    "seamen": 13625,
    "anter": 9166,
    "Ġvilest": 20099,
    "Ġsubst": 4274,
    "Ġrue": 11865,
    "Ġfragment": 14515,
    "hers": 7635,
    "favour": 9548,
    "scarcely": 12384,
    "doubtful": 24791,
    "ounder": 11742,
    "Ġdev": 882,
    "aciously": 12904,
    "enit": 17779,
    "forks": 26387,
    "Ġchimneys": 16972,
    "Ġwhel": 15865,
    "gement": 13727,
    "itying": 21991,
    "cursed": 23841,
    "pl": 402,
    "Ġwatches": 11082,
    "Ġesquimaux": 25150,
    "Ġprofoundly": 16859,
    "alle": 1293,
    "wreck": 21135,
    "Ġinspire": 11994,
    "thickness": 25367,
    "Ġquietude": 19358,
    "Ġrent": 11638,
    "patient": 25342,
    "ocris": 23706,
    "Ġemptied": 24347,
    "==": 946,
    "Ġsnorting": 23738,
    "Ġmatrim": 11060,
    "Ġhurled": 10429,
    "mole": 22698,
    "Ġoun": 13862,
    "Ġboone": 11838,
    "Ġsmiled": 5940,
    "Ġ67": 19659,
    "Ġbang": 17854,
    "Ġcord": 5222,
    "inary": 3272,
    "Ġtragic": 15254,
    "Ġlengths": 19204,
    "shop": 14236,
    "Ġlaughing": 5338,
    "Ġvine": 8471,
    "Ġshoving": 23489,
    "ild": 1153,
    "Ġhoisting": 9861,
    "Ġceremonies": 24836,
    "cstasy": 11445,
    "Ġdischarged": 15219,
    "Ġpace": 9183,
    "Ġseamen": 5063,
    "Ġairs": 14510,
    "Ġbearded": 15725,
    "conve": 14243,
    "Ġornament": 11718,
    "tiness": 21070,
    "prejud": 11794,
    "Ġemigrant": 25859,
    "Ġexpatiate": 18626,
    "Ġcontinuing": 14396,
    "sigma": 3003,
    "thus": 5158,
    "Ġtrough": 15963,
    "intosh": 22937,
    "Ġcobweb": 22581,
    "Ġcease": 7076,
    "Ġattested": 22618,
    "itoring": 21330,
    "Ġmerchant": 6467,
    "ucumber": 19056,
    "igh": 2028,
    "Ġincumbent": 16061,
    "pse": 21008,
    "Ġempires": 19075,
    "Ġsunday": 7270,
    "properly": 24918,
    "Ġstood": 2549,
    "Ġoffic": 3186,
    "ldog": 21914,
    "inquiries": 13576,
    "Ġbi": 919,
    "Ġstrings": 11827,
    "doubted": 17526,
    "Ġseverest": 14089,
    "Ġmidnight": 5265,
    "header": 11931,
    "ideas": 18581,
    "Ġdiscompose": 25579,
    "expected": 5780,
    "oology": 21005,
    "Ġdown": 829,
    "asmuch": 10194,
    "Ġintroducing": 11974,
    "Ġunmanufactured": 20432,
    "deficient": 23114,
    "Ġscrewed": 15119,
    "Ġcaul": 10787,
    "Ġroast": 18456,
    "Ġshivering": 10265,
    "sharpening": 22451,
    "Ġwilds": 16508,
    "Ġwre": 5077,
    "Ġregion": 2269,
    "Ġpursu": 3238,
    "Ġoutdone": 22315,
    "Ġexplained": 5935,
    "apolog": 22330,
    "Ġapplicable": 19015,
    "Ġrejoined": 14926,
    "Ġwinc": 9642,
    "Ġrequired": 7227,
    "Ġdrags": 16941,
    "twain": 23698,
    "Ġdigest": 24647,
    "Ġoffered": 5816,
    "detective": 24383,
    "Ġstiffest": 24829,
    "Ġvacant": 9494,
    "ran": 11515,
    "Ġ115": 24439,
    "Ġgul": 7859,
    "Ġsunda": 13543,
    "Ġnoses": 18373,
    "finished": 10554,
    "ancial": 21360,
    "Ġtar": 2561,
    "Ġencapsulate": 13673,
    "gal": 15354,
    "Ġsleet": 8975,
    "prisoner": 20542,
    "Ġinsurg": 23679,
    "Ġglens": 18847,
    "Ġcharts": 12824,
    "semic": 21818,
    "Ġdynamic": 5124,
    "guilty": 19481,
    "turner": 19540,
    "done": 6500,
    "Ġwhere": 784,
    "Ġlight": 1701,
    "Ġsherlock": 3895,
    "Ġcave": 10785,
    "reng": 4004,
    "Ġacknowledges": 24688,
    "hy": 4740,
    "ors": 854,
    "Ġcharacteristic": 12046,
    "ib": 1232,
    "Ġcreature": 2380,
    "Ġ[": 6967,
    "embed": 18187,
    "âĢĶ(": 15937,
    "Ġgu": 1328,
    "Ġoverlapping": 26238,
    "latitudes": 17196,
    "daughters": 13465,
    "Ġst": 333,
    "Ġbent": 5149,
    "few": 8204,
    "rospect": 11611,
    "Ġpleasant": 4172,
    "adler": 21759,
    "Ġgestic": 21605,
    "Ġsaloon": 24061,
    "Ġchival": 14182,
    "Ġsympathising": 24297,
    "Ġexperiments": 23028,
    "Ġmountains": 4427,
    "Ġdownstream": 3776,
    "ivation": 3109,
    "prudently": 21033,
    "alloyed": 22198,
    "Ġarithmetic": 18338,
    "Ġsavag": 19372,
    "death": 6261,
    "cooee": 12416,
    "Ġspind": 18307,
    "bing": 7791,
    "aried": 10987,
    "ta": 13788,
    "Ġdauntless": 26336,
    "Ġspoiled": 11363,
    "wandered": 20284,
    "Ġeleventh": 23367,
    "Ġconting": 18472,
    "Ġmetaphysical": 26069,
    "genteel": 19947,
    "Ġmanifested": 17157,
    "omist": 21635,
    "artic": 14221,
    "procure": 23395,
    "Ġtools": 11608,
    "ĩ": 234,
    "barbs": 20236,
    "exercise": 17459,
    "Ġheroic": 14907,
    "Ġindomit": 22952,
    "Ġrelationships": 2925,
    "Ġsharper": 17179,
    "arks": 2843,
    "Ġtender": 5753,
    "!âĢĿâĢĶ": 8532,
    "Ġexecutioner": 12269,
    "Ġcarpenters": 16752,
    "difficult": 10057,
    "Ġinitialization": 1251,
    "hours": 9124,
    "venty": 6427,
    "hast": 5357,
    "Ġreappearance": 21664,
    "Ġindul": 5856,
    "Ġexec": 19491,
    "Ġenrolled": 21934,
    "dish": 12450,
    "Ġhaw": 10251,
    "Ġsandwiched": 26610,
    "Ġevery": 928,
    "Ġconstructed": 9385,
    "abash": 18107,
    "Ġtoy": 15632,
    "Ġatom": 18192,
    "droppers": 24759,
    "ove": 1742,
    "Ġperils": 6273,
    "Ġeyford": 10641,
    "Ġremoval": 12115,
    "Ġhesitation": 13440,
    "Ġsig": 868,
    "Ġshallow": 14393,
    "fowl": 17549,
    "Ġflea": 23772,
    "commander": 16987,
    "Ġstaves": 21740,
    "Ġunprincipled": 20707,
    "ilent": 21717,
    "liter": 11501,
    "Ġsheepfold": 25466,
    "Ġutensils": 23514,
    "V": 58,
    "Ġpeeled": 14317,
    "Ġwashes": 21858,
    "vere": 4883,
    "danish": 20832,
    "within": 6729,
    "Ġrece": 11637,
    "Ġcabaco": 13166,
    "Ġwid": 4633,
    "intended": 11066,
    "Ġsmo": 2699,
    "sutherland": 21061,
    "Ġshared": 10263,
    "Ġsailed": 4889,
    "Ġneville": 7399,
    "Ġwhatever": 3474,
    "excited": 13379,
    "ij": 7801,
    "Ġmannish": 26237,
    "Ġconsummation": 17424,
    "Ġexert": 5722,
    "Ġnursed": 16885,
    "ouching": 13176,
    "kitty": 10105,
    "Ġcolourless": 19568,
    "Ġpeevish": 26557,
    "thouse": 21979,
    "nur": 11505,
    "decor": 23779,
    "Ġaccommodate": 20515,
    "Ġbutter": 6839,
    "Ġdenial": 13213,
    "Ġopenshaw": 7954,
    "Ġwr": 1542,
    "Ġautoregressive": 3432,
    "Ġlicense": 20089,
    "Ġcollectively": 19966,
    "Ġrelapses": 26278,
    "Ġwhelmed": 25999,
    "Ġresuming": 12890,
    "Ġferry": 24498,
    "swear": 16918,
    "ired": 1444,
    "Ġender": 11688,
    "Ġuniversal": 2230,
    "Ġexcited": 5580,
    "hook": 12051,
    "Ġmildness": 9943,
    "Ġsummons": 13230,
    "counter": 20277,
    "Ġori": 8408,
    "Ġphyset": 23197,
    "supposed": 13314,
    "Ġfisher": 3221,
    "Ġnation": 12644,
    "Ġglass": 4369,
    "independ": 15980,
    "Ġkingdom": 12017,
    "Ġdeliverance": 15156,
    "unt": 2042,
    "Ġgreat": 896,
    "bs": 3752,
    "ĉ": 202,
    "Ġspur": 18303,
    "Ġsaleve": 17390,
    "clouds": 25496,
    "Ġasse": 8159,
    "Ġeternally": 11369,
    "supplement": 14795,
    "Ġinvest": 4978,
    "anging": 3552,
    "Ġpest": 13912,
    "Ġdespond": 14667,
    "orne": 17872,
    "Ġaudacious": 13459,
    "Ġgracefully": 13390,
    "hue": 20898,
    "Ġcontriv": 9281,
    "Ġproposition": 23248,
    "innocent": 20285,
    "shortly": 12256,
    "Ġmaledictions": 26428,
    "Ġ=": 1072,
    "Ġfant": 9173,
    "Ġproprietor": 12371,
    "Ġmartin": 25436,
    "absolut": 8458,
    "Ġmitigating": 1616,
    "belief": 13280,
    "Ġbeheld": 4493,
    "Ġshape": 5639,
    "Ġforgotten": 5679,
    "fool": 9047,
    "attle": 4466,
    "hed": 671,
    "Ġcomplaisance": 19447,
    "Ġpratt": 23219,
    "Ġultimately": 17164,
    "Ġunt": 2289,
    "Ġplacing": 8900,
    "Ġobscurely": 20187,
    "Ġsteak": 9829,
    "Ġspeaks": 11159,
    "Ġorigin": 4121,
    "Ġsoothe": 7405,
    "Ġscal": 1561,
    "Ġwoollen": 12101,
    "Ġvocabulary": 4995,
    "deliber": 17425,
    "meditated": 19067,
    "Ġgeorgiana": 8625,
    "83": 13679,
    "Ġstrength": 4260,
    "odox": 21810,
    "Ġgenius": 8045,
    "pattern": 4141,
    "giv": 13721,
    "Ġpoor": 1710,
    "aggra": 21903,
    "origin": 7581,
    "Ġmending": 17804,
    "Ġproportionably": 19969,
    "Ġcourtesy": 9944,
    "Ġwin": 9641,
    "Ġabsolute": 6765,
    "arrived": 12606,
    "les": 1016,
    "Ġcamel": 25349,
    "rushed": 10584,
    "Ġfootman": 8287,
    "bouton": 17501,
    "Ġfalls": 14644,
    "powerful": 24847,
    "Ġawake": 8271,
    "Ġdownwards": 8529,
    "Ġdisco": 3429,
    "Ġinstead": 2789,
    "Ġchests": 19670,
    "Ġtrades": 8231,
    "Ġmors": 17801,
    "presently": 9806,
    "Ġdreamy": 14702,
    "Ġboneless": 19604,
    "sed": 4179,
    "Ġlangs": 13953,
    "che": 3171,
    "jabez": 20932,
    "etah": 12658,
    "sails": 7497,
    "itively": 21329,
    "Ġcompetition": 14266,
    "ball": 7792,
    "Ġknocked": 9499,
    "strade": 5065,
    "Ġargued": 13628,
    "Ġconsequ": 6254,
    "Ġflask": 3037,
    "judged": 14830,
    "Ġdirecting": 16299,
    "Ġalternative": 19985,
    "blacksmith": 17001,
    "somewhat": 11160,
    "Ġabased": 22265,
    "Ġsphere": 15881,
    "urn": 777,
    "Ġsteer": 10386,
    "Ġcanada": 22160,
    "exe": 11787,
    "figure": 13554,
    "Ġendeav": 2953,
    "Ġoutrage": 15957,
    "quickness": 19850,
    "Ġfierc": 18712,
    "Ġtenement": 23546,
    "Ġrelations": 5852,
    "Ġdiffered": 22708,
    "indignation": 18438,
    "Ġguiding": 19240,
    "comes": 5394,
    "Ġrnns": 2391,
    "examined": 17266,
    "Ġprovoked": 13324,
    "Ġdisenc": 22523,
    "ourney": 3554,
    "Ġhead": 1122,
    "vib": 21114,
    "Ġwear": 6030,
    "fif": 9116,
    "geor": 15977,
    "iries": 18169,
    "Ġstately": 9833,
    "myster": 16263,
    "begone": 12875,
    "glow": 20873,
    "Ġnavigation": 9992,
    "arched": 10815,
    "engthen": 14456,
    "Ġpecks": 18669,
    "assumed": 22305,
    "Ġstump": 7605,
    "Ġkirwin": 8496,
    "Ġrise": 5637,
    "Ġ235": 25713,
    "Ġsust": 7007,
    "flag": 14710,
    "Ġinside": 5448,
    "Ġpal": 4041,
    "Į": 239,
    "coun": 10686,
    "Ġstarry": 16923,
    "Ġlustrous": 20155,
    "Ġassociations": 14962,
    "Ġxiii": 25591,
    "affa": 23775,
    "icle": 10834,
    "Ġthereupon": 18433,
    "Ġshoal": 12014,
    "chamber": 13624,
    "ember": 1954,
    "Ġcourses": 10411,
    "Ġshutter": 16670,
    "appalled": 18760,
    "Ġslam": 13055,
    "Ġineff": 12631,
    "Ġsor": 4148,
    "Ġreferences": 21671,
    "Ġefficiently": 3532,
    "Ġintelligences": 12827,
    "activation": 3230,
    "Ġvoices": 7875,
    "uger": 21102,
    "Ġdelineations": 26058,
    "enter": 7857,
    "nant": 17609,
    "abri": 6682,
    "asional": 17959,
    "according": 12026,
    "Ġwondered": 11125,
    "Ġstairs": 5541,
    "Ġdisturb": 7107,
    "Ġstores": 18071,
    "look": 2257,
    "Ġglaring": 11905,
    "develop": 13517,
    "Ġaug": 6234,
    "Ġbulky": 13227,
    "Ġspurned": 12794,
    "Ġevol": 2814,
    "oice": 1384,
    "formality": 22214,
    "sings": 4252,
    "mechanically": 17299,
    "otam": 21795,
    "Ġadmirer": 16838,
    "odious": 21809,
    "Ġrely": 8820,
    "Ġnetwork": 451,
    "gentlemen": 9503,
    "Ġshifting": 12765,
    "Ġtail": 3089,
    "quality": 10232,
    "Ġfake": 5810,
    "Ġpersisting": 18884,
    "Ġviciss": 11292,
    "fthand": 26386,
    "heads": 4095,
    "Ġshade": 6550,
    "ll": 1139,
    "Ġcathed": 14548,
    "Ġconnected": 5393,
    "irited": 15785,
    ":âĢĶ": 4432,
    "scept": 21052,
    "Ġfurther": 1056,
    "length": 7134,
    "Ġparacels": 13666,
    "Ġoverheard": 11769,
    "anks": 3919,
    "lur": 13746,
    "Ġseaport": 20598,
    "Ġthack": 21514,
    "Ġmagnanim": 14472,
    "Ġhospitable": 17059,
    "Ġcracked": 8593,
    "Ġgaiters": 20459,
    "Ġfoam": 6891,
    "Ġcanterbury": 22162,
    "Ġoriginally": 7304,
    "Ġtanning": 17729,
    "Ġblameless": 19858,
    "perplex": 18344,
    "erick": 13847,
    "een": 727,
    "Ġevanesc": 24294,
    "Ġcrows": 24028,
    "Ġcompens": 14263,
    "igned": 5656,
    "compassion": 12366,
    "ruded": 15898,
    "Ġdesirable": 8941,
    "Ġminimize": 7050,
    "Ġengage": 9334,
    "Ġweeps": 24947,
    "Ġnarrowed": 24355,
    "consp": 18502,
    "Ġrepaired": 13106,
    "Ġtransactions": 18482,
    "Ġlantern": 7116,
    "Ġdumbly": 24985,
    "perceive": 12809,
    "Ġpaddington": 17095,
    "Ġripe": 13233,
    "Ġceremonious": 24837,
    "Ġspar": 10921,
    "etical": 13957,
    "Ġintegrated": 13530,
    "asiness": 8128,
    "confidential": 25876,
    "Ġdarted": 4758,
    "Ġseveral": 2672,
    "Ġzer": 1091,
    "necessary": 5881,
    "Ġupheld": 22149,
    "char": 3504,
    "rised": 10123,
    "Ġdevoting": 22714,
    "Ġmonoman": 7938,
    "Ġunreliable": 3931,
    "Ġissue": 2306,
    "confusion": 13368,
    "Ġvex": 5947,
    "Ġende": 21929,
    "Ġeffect": 954,
    "Ġencountering": 11269,
    "gathered": 13731,
    "esting": 7411,
    "conceive": 16028,
    "armon": 23056,
    "Ġed": 2144,
    "cil": 8720,
    "Ġmelted": 19620,
    "Ġranging": 8478,
    "Ġascending": 14853,
    "Ġemotion": 7689,
    "Ġfriendly": 9819,
    "Ġcouples": 16852,
    "Ġbarrier": 16569,
    "Ġjackal": 24239,
    "Ġmisfortune": 5569,
    "Ġprocessions": 18434,
    "Ġimport": 1034,
    "Ġhorseman": 19606,
    "Ġexquis": 9698,
    "Ġadjacent": 20710,
    "officers": 10627,
    "revol": 12537,
    "razor": 21634,
    "Ġmercifully": 20177,
    "Ġmischief": 8540,
    "Ġnumbers": 2888,
    "ounders": 22391,
    "Ġancho": 15601,
    "Ġhidden": 1373,
    "Ġsubterraneous": 20264,
    "Ġlab": 1869,
    "Ġvehicles": 10659,
    "Ġhonorable": 16876,
    "ville": 6087,
    "ooping": 21006,
    "Ġdetail": 635,
    "planted": 11696,
    "ship": 1392,
    "Ġdeaden": 23459,
    "wants": 21129,
    "cruise": 24841,
    "Ġimpropriety": 17394,
    "filled": 9594,
    "true": 2583,
    "Ġbounds": 9917,
    "Ġinheriting": 25354,
    "Ġreverber": 19868,
    "Ġcanopy": 18321,
    "Ġarrowy": 25469,
    "earthly": 24724,
    "Ġhemis": 21681,
    "Ġcords": 14878,
    "Ġimmensities": 25330,
    "Ġenvy": 13182,
    "Ġbottled": 23794,
    "Ġcherished": 10590,
    "Ġstead": 5650,
    "sailing": 14713,
    "cru": 7126,
    "Ġcomparing": 14264,
    "impetuous": 23761,
    "iful": 2882,
    "Ġintact": 21986,
    "Ġvehement": 16200,
    "Ġsine": 10763,
    "chet": 13216,
    "Ġoarsmen": 7737,
    "Ġremotest": 10051,
    "aving": 2403,
    "Ġopal": 23624,
    "Ġwheel": 9717,
    "Ġmiz": 10777,
    "Ġsphynx": 20711,
    "Ġheaved": 9382,
    "Ġancles": 21444,
    "voyage": 7785,
    "Ġadmission": 23553,
    "Ġmost": 1020,
    "oriental": 23718,
    "aks": 8506,
    "vol": 733,
    "quarried": 24945,
    "Ġhint": 5016,
    "Ġmanagement": 8192,
    "phon": 4128,
    "generous": 16567,
    "Ġlaughed": 5059,
    "Ġforbear": 17121,
    "Ġpersuading": 19408,
    "Ġdying": 2136,
    "Ġskirt": 18730,
    "retrospect": 23135,
    "auley": 22619,
    "Ġcondense": 21805,
    "Ġwherefore": 8524,
    "answers": 22147,
    "Ġ17": 5740,
    "hercules": 22201,
    "Ġconfounded": 16383,
    "Ġinvis": 6902,
    "Ġmic": 17797,
    "į": 240,
    "lucas": 15150,
    "Ġlanc": 19763,
    "Ġscenery": 11456,
    "du": 604,
    "Ġ181": 23892,
    "ouncement": 11743,
    "maker": 12490,
    "Ġcentre": 5122,
    "Ġtying": 15473,
    "Ġberyls": 25775,
    "Ġmadman": 13150,
    "Ġpurchas": 19873,
    "conjecture": 15121,
    "Ġinfants": 16363,
    "affrail": 11205,
    "Ġdivinest": 25722,
    "Ġtrials": 16789,
    "Ġbakers": 17866,
    "Ġhuge": 4700,
    "ye": 1406,
    "oat": 13763,
    "unworthy": 18161,
    "ellow": 3878,
    "Ġrender": 8304,
    "Ġtelesc": 12990,
    "Ġgradients": 611,
    "Ġspoon": 22131,
    "afer": 17481,
    "Ġfisheries": 17437,
    "Ġfog": 9661,
    "Ġdecreases": 3409,
    "Ġlazarus": 15028,
    "Ġexplain": 546,
    "Ġgaped": 13966,
    "Ġdetected": 18820,
    "Ġcompass": 4409,
    "Ġwood": 2287,
    "Ġdwelt": 12602,
    "Ġpublic": 4332,
    "Ġpalaces": 24090,
    "Ġbreaching": 23345,
    "amiable": 14052,
    "Ġsisters": 3641,
    "akes": 2216,
    "Ġguineas": 16270,
    "Ġtimor": 24224,
    "model": 4613,
    "zealand": 26048,
    "jub": 20928,
    "Ġdreamt": 23936,
    "Ġalterations": 19870,
    "earliest": 20118,
    "Ġdrew": 3538,
    "Ġtattooing": 15027,
    "Ġglaciers": 20172,
    "irksome": 18172,
    "A": 37,
    "Ġappearance": 3700,
    "Ġfriend": 1295,
    "â": 163,
    "chess": 16573,
    "frequent": 15352,
    "ske": 13781,
    "Ġbunger": 9995,
    "Ġflourish": 17160,
    "Ġfurnishes": 19439,
    "Ġranges": 2883,
    "Ġcapable": 5054,
    "Ġlie": 4407,
    "nuts": 15398,
    "Ġproverb": 12713,
    "surprising": 16919,
    "Ġfervent": 14895,
    "Ġfollowed": 1792,
    "Ġabrid": 22269,
    "Ġpaths": 2567,
    "Ġdifferent": 1428,
    "Ġhugh": 15004,
    "Ġsale": 14154,
    "Ġthirteen": 15273,
    "cracy": 24690,
    "speps": 14335,
    "Ġdrawn": 4276,
    "Ġtrout": 22341,
    "alter": 10826,
    "Ġdrug": 11410,
    "ops": 5247,
    "Ġorange": 8486,
    "abb": 15737,
    "bingley": 4927,
    "Ġunjustly": 17126,
    "Ġcoarsely": 25828,
    "unctions": 18155,
    "Ġrazor": 22648,
    "Ġseats": 14087,
    "Ġincompatible": 25680,
    "rael": 21626,
    "fever": 22502,
    "luck": 5733,
    "Ġscaling": 3632,
    "Ġlaid": 3943,
    "Ġclimb": 15078,
    "velling": 14761,
    "Ġsigns": 2441,
    "icilian": 20690,
    "omin": 4703,
    "playing": 19656,
    "Ġparamore": 22119,
    "rd": 17649,
    "condition": 7059,
    "idy": 21761,
    "Ġamends": 14245,
    "ume": 4835,
    "iations": 11494,
    "Ġembra": 6579,
    "Ġtrading": 23073,
    "Ġassociation": 24711,
    "Ġaskance": 23148,
    "Ġdescent": 998,
    "idation": 5022,
    "Ġguar": 23041,
    "Ġrafters": 22649,
    "accurately": 25861,
    "Ġmathematics": 12071,
    "Ġassemblage": 26351,
    "Ġsomehow": 4841,
    "Ġanne": 1528,
    "mical": 9128,
    "Ġscan": 22276,
    "isol": 17846,
    "Ġcoolly": 9771,
    "dum": 17518,
    "Ġsympathise": 16794,
    "Ġwhaler": 7520,
    "Ġgrand": 3594,
    "igan": 21696,
    "raham": 18013,
    "Ġtwee": 22672,
    "Ġmassa": 19452,
    "Ġindolence": 16228,
    "Ġunseasonable": 26520,
    "Ġscent": 10284,
    "Ġoffer": 4843,
    "Ġappeals": 16315,
    "andromeda": 21865,
    "grandfather": 25009,
    "Ġunerring": 15847,
    "cod": 12441,
    "Ġboston": 22635,
    "elf": 564,
    "Ġmouthful": 16574,
    "whispering": 26103,
    "Ġshaft": 18229,
    "befriend": 22489,
    "thin": 14096,
    "Ġacre": 22678,
    "Ġdivinely": 25723,
    "games": 20879,
    "valu": 1719,
    "Ġsp": 457,
    "angles": 18295,
    "Ġshrink": 14802,
    "from": 1991,
    "'m": 9582,
    "abern": 21787,
    "Ġdevoted": 6573,
    "Ġpreser": 6040,
    "Ġrepresenting": 4060,
    "Ġfrock": 10489,
    "Ġbeque": 18080,
    "Ġchief": 3380,
    "Ġfinancial": 23125,
    "anders": 18152,
    "Ġrazors": 22650,
    "exceeded": 24999,
    "Ġerad": 25028,
    "wr": 3026,
    "Ġkeeping": 7283,
    "Ġfound": 1246,
    "Ġsurviving": 24637,
    "Ġaffections": 10384,
    "Ġtortured": 14923,
    "Ġkeenly": 9484,
    "Ġbacking": 16116,
    "Ġwarbling": 26168,
    "Ġestimation": 11218,
    "Ġhelplessly": 20076,
    "secondly": 16984,
    "allies": 14165,
    "yramid": 8367,
    "Ġvenerable": 9093,
    "Ġalong": 1977,
    "Ġnovember": 11747,
    "inexplicable": 25808,
    "Ġdepend": 791,
    "Ġmax": 2006,
    "Ġinverted": 12634,
    "honorable": 19900,
    "Ġadmiral": 17304,
    "clifford": 23155,
    "Ġinstantly": 3593,
    "Ġtantalizing": 20412,
    "rene": 5379,
    "Ġpivot": 13922,
    "Ġjunks": 25113,
    "travel": 24316,
    "pursuit": 20339,
    "noted": 22746,
    "Ġearnestly": 5978,
    "Ġgiver": 21602,
    "bra": 6219,
    "ly": 319,
    ".)": 6783,
    "Ġinqu": 2963,
    "Ġreckless": 13457,
    "Ġtemper": 958,
    "salis": 25147,
    "Ġcaravan": 26290,
    "Ġsidel": 9635,
    "Ġcasement": 25092,
    "Ġfellows": 8256,
    "Ġbackwoods": 22657,
    "irectly": 6940,
    "Ġreligion": 11415,
    "Ġinflict": 15001,
    "Ġadvertised": 17247,
    "Ġcomputer": 1238,
    "Ġswandam": 11088,
    "Ġwails": 21295,
    "Ġpractices": 19060,
    "smith": 5669,
    "Ġtong": 4870,
    "Ġinferred": 14500,
    "billows": 20235,
    "missionary": 24615,
    "wer": 8394,
    "Ġfairy": 14627,
    "Ġbustle": 17227,
    "pretty": 10621,
    "Ġsurve": 9873,
    "intelligent": 16844,
    "pursued": 17281,
    "ivility": 12779,
    "Ġswap": 23049,
    "Ġunlocked": 14120,
    "greek": 25404,
    "oquence": 11386,
    "Ġperformed": 8546,
    "Ġmisled": 22758,
    "Ġdimens": 3149,
    "Ġallen": 5160,
    "Ġopine": 19226,
    "ict": 593,
    "Ġoccup": 3740,
    "Ġsquatted": 25841,
    "Ġmob": 16016,
    "Ġpanel": 13371,
    "chers": 11317,
    "Ġ97": 19773,
    "Ġwest": 5219,
    "Ġconstables": 19070,
    "originally": 24937,
    "office": 16394,
    "inj": 9151,
    "Ġdiscl": 9796,
    "helmsman": 24287,
    "Ġamount": 8511,
    "Ġcanted": 17831,
    "Ġrevellers": 21675,
    "Ġsultan": 15183,
    "rowing": 7930,
    "Ġexhilar": 19682,
    "Ġspies": 22125,
    "wet": 15452,
    "Ġgardener": 19134,
    "Ġwrites": 23195,
    "shark": 14237,
    "console": 22468,
    "Ġswitzerland": 10379,
    "Ġhardest": 18912,
    "Ġislanders": 19500,
    "elope": 14458,
    "Ġissues": 9541,
    "Ġglades": 19370,
    "principal": 20659,
    "Ġfainted": 8791,
    "Ġlabel": 14517,
    "Ġsign": 2493,
    "allowing": 24358,
    "Ġdebility": 24272,
    "Ġvalid": 1690,
    "Ġtwine": 14310,
    "Ġdece": 6996,
    "Ġcringing": 25941,
    "Ġundeviating": 15216,
    "Ġfathoms": 9083,
    "Ġrosings": 4607,
    "pression": 10407,
    "ible": 1113,
    "rop": 540,
    "consequ": 18504,
    "Ġoscill": 2855,
    "grounds": 11151,
    "ifice": 7198,
    "Ġvelvet": 12396,
    "lighter": 20958,
    "Ġshaster": 21995,
    "Ġstudious": 23212,
    "tish": 17677,
    "Ġobed": 8535,
    "Ġtougher": 21175,
    "ô": 181,
    "Ġretreats": 16928,
    "Ġrequesting": 24632,
    "Ġbowed": 6242,
    "Ġsummarization": 3647,
    "Ġspaces": 3110,
    "emotion": 21927,
    "Ġmemory": 2272,
    "umber": 5241,
    "Ġdebated": 9040,
    "Ġnational": 13941,
    "names": 15397,
    "remes": 21236,
    "Ġintimately": 24804,
    "fac": 17541,
    "Ġfret": 10806,
    "Ġrussian": 14349,
    "Ġscho": 4436,
    "bank": 10079,
    "Ġelig": 9777,
    "Ġdolphins": 20394,
    "Ġdesign": 4134,
    "Ġleakage": 23458,
    "Ġsemi": 11967,
    "Ġmiscell": 16149,
    "folding": 24927,
    "Ġsing": 3074,
    "Ġkind": 1784,
    "Ġmethodically": 23132,
    "impl": 21704,
    "aternity": 21264,
    "Ġabove": 2935,
    "resembled": 21245,
    "ess": 413,
    "inted": 2649,
    "Ġabode": 7899,
    "eli": 3876,
    "Ġserm": 9633,
    "ivable": 10910,
    "avier": 2829,
    "aswag": 21543,
    "ential": 825,
    "Ġauxiliary": 26418,
    "astern": 8581,
    "Ġcomparison": 7099,
    "Ġwide": 4109,
    "Ġstud": 1590,
    "Ġforefinger": 16444,
    "netherfield": 9812,
    "Ġowning": 18744,
    "Ġcolle": 8923,
    "calmly": 20138,
    "dued": 7908,
    "Ġkilling": 13331,
    "fireside": 24692,
    "Ġtype": 2019,
    "Ġgangs": 21606,
    "Ġinquiry": 6484,
    "tenderly": 20529,
    "Ġformer": 3319,
    "Ġafterwards": 3531,
    "Ġindel": 13001,
    "endom": 15922,
    "Ġanatomical": 15075,
    "Ġpropriet": 9549,
    "kitchen": 17585,
    "Ġfamine": 16328,
    "lotte": 3328,
    "Ġseeing": 2885,
    "usal": 7638,
    "Ġunwillingness": 20030,
    "azing": 7704,
    "Ġbenjam": 22886,
    "stick": 15683,
    "ze": 1289,
    "impat": 11202,
    "erie": 21270,
    "Ġpassionate": 11273,
    "Ġheadsmen": 14731,
    "ured": 1656,
    "Ġperforming": 7927,
    "ĠĠĠĠĠĠĠĠĠĠĠĠĠĠĠĠĠĠĠĠĠĠĠĠĠĠĠĠĠĠĠĠĠĠĠĠĠĠĠĠĠĠĠĠĠĠĠĠĠ": 20036,
    "Ġedinburgh": 16436,
    "oard": 4809,
    "Ġswaths": 23055,
    "wal": 10133,
    "Ġbrooks": 25700,
    "extensive": 18700,
    "civil": 7796,
    "Ġevident": 6612,
    "Ġvirtues": 9935,
    "Ġinj": 4760,
    "Ġlieuten": 13325,
    "Ġeurope": 8061,
    "Ġaccurately": 4178,
    "Ġrefrain": 12947,
    "establish": 17392,
    "soft": 12507,
    "Ġfever": 6558,
    "Ġmead": 8834,
    "Ġwantest": 18790,
    "Ġupdate": 2461,
    "Ġcompared": 2225,
    "ospit": 22260,
    "Ġfritters": 23255,
    "Ġquohog": 10972,
    "Ġadversary": 12171,
    "liament": 16217,
    "thr": 12757,
    "ineer": 11697,
    "iments": 4945,
    "executed": 25739,
    "Ġbreaks": 13184,
    "lively": 12482,
    "lighted": 23752,
    "Ġcreaking": 14327,
    "#": 7,
    "compose": 24029,
    "Ġmagnetic": 17240,
    "Ġrigger": 19529,
    "Ġends": 8237,
    "pitch": 13297,
    "Ġmoth": 17802,
    "Ġwithhold": 18115,
    "Ġsoothed": 10028,
    "Ġser": 1673,
    "Ġtwin": 12925,
    "Ġpledge": 11600,
    "organ": 15572,
    "Ġunderstand": 848,
    "ĠĠĠĠĠĠĠĠĠĠĠĠĠĠĠĠĠ": 22946,
    "Ġnecessitates": 23926,
    "Ã": 132,
    "Ġheath": 15700,
    "Ġsatisfy": 6912,
    "amaz": 21841,
    "Ġestate": 6316,
    "ispens": 8335,
    "Ġsystematic": 5245,
    "Ġcompromised": 22568,
    "Ġbehaviour": 4385,
    "Ġheire": 18036,
    "Ġjoists": 19232,
    "Ġminimizing": 3465,
    "infall": 21187,
    "poles": 16208,
    "urring": 21702,
    "tri": 11529,
    "Ġ_": 838,
    "ptember": 10893,
    "Ġscandinav": 19959,
    "Ġrides": 21971,
    "Ġprow": 6684,
    "Ġtattered": 21170,
    "Ġflog": 23621,
    "Ġpurchases": 24756,
    "Ġembracing": 14979,
    "Ġsmoke": 4715,
    "Ġminiature": 11040,
    "matters": 14873,
    "oring": 1858,
    "Ġcontents": 7210,
    "kn": 5791,
    "rict": 8092,
    "Ġquadr": 8199,
    "machine": 942,
    "Ġseems": 2480,
    "Ġspace": 1532,
    "Ġsucked": 14136,
    "Ġtransparen": 10541,
    "Ġlash": 8438,
    "Ġimpud": 18445,
    "achine": 602,
    "Ġdearer": 14050,
    "Ġfore": 2153,
    "Ġoutright": 18413,
    "Ġprovince": 24189,
    "stealthily": 23959,
    "Ġencouraged": 9354,
    "Ġskilfully": 20522,
    "studied": 17149,
    "taken": 7560,
    "Ġclimates": 25051,
    "leeward": 15209,
    "visible": 10533,
    "inal": 15480,
    "Ġ74": 24261,
    "Ġelbows": 18633,
    "Ġannesley": 19576,
    "Ġvener": 8163,
    "Ġforeseen": 16443,
    "Ġpronouncing": 16969,
    "coff": 9108,
    "Ġknights": 15148,
    "Ġuncomfortable": 8485,
    "Ġtriumphal": 24371,
    "gd": 3124,
    "Ġflexible": 23774,
    "Ġuncomp": 15841,
    "Ġsurvivor": 17362,
    "occupations": 24964,
    "Ġxx": 5492,
    "Ġcask": 5527,
    "Ġspat": 2664,
    "refusal": 24736,
    "Ġrepro": 7275,
    "hoist": 23711,
    "Ġresemblance": 7972,
    "wedded": 24339,
    "other": 1316,
    "Ġfe": 491,
    "Ġplaymate": 23636,
    "despatched": 19800,
    "Ġlirra": 21557,
    "Ġfacts": 2284,
    "chancing": 22913,
    "paradise": 20636,
    "repeat": 25151,
    "Ġdisconcerted": 18562,
    "Ġref": 925,
    "###": 3829,
    "Ġlo": 453,
    "Ġmig": 13855,
    "Ġmeanly": 12906,
    "Ġknitting": 24218,
    "programming": 10062,
    "Ġpatient": 6894,
    "cho": 2758,
    "Ġeven": 1027,
    "Ġacid": 22679,
    "Ġunfailing": 24111,
    "Ġfrankly": 16745,
    "Ġeasterly": 25962,
    "Ġbunch": 11326,
    "Ġcongratulatory": 19766,
    "Ġambition": 11432,
    "Ġbermud": 26439,
    "Ġalex": 15132,
    "Ġrum": 5923,
    "Ġpresentiment": 18989,
    "Ġhymn": 24518,
    "Ġminut": 2202,
    "!âĢĶâĢĻ": 23564,
    "Ġrelief": 6059,
    "Ġsignals": 10585,
    "Ġretention": 23068,
    "boone": 23252,
    "Ġallev": 18100,
    "Ġrenewing": 19809,
    "Ġchina": 8039,
    "thrill": 25656,
    "Ġtravelling": 11307,
    "Ġpell": 21454,
    "warm": 8101,
    "Ġreasons": 6019,
    "Ġpunctual": 17137,
    "Ġstaircase": 20094,
    "founded": 16713,
    "Ġappeased": 23194,
    "Ġcrumbs": 20639,
    "study": 15116,
    "Ġsk": 964,
    "ctive": 11622,
    "Ġstingy": 25455,
    "Ġworth": 4417,
    "searching": 25103,
    "Ġmarking": 16469,
    "Ġdinn": 23978,
    "Ġjug": 12832,
    "Ġrestore": 9379,
    "Ġwa": 1753,
    "hum": 3780,
    "asant": 17958,
    "Ġhove": 17922,
    "Ġcharacteristics": 8609,
    "Ġsavages": 9911,
    "language": 5129,
    "Ġpause": 5707,
    "ket": 17582,
    "ĠĠĠĠĠĠĠĠĠĠĠĠĠĠĠĠĠĠĠĠĠĠĠĠĠĠĠĠĠĠĠĠĠĠĠĠĠĠĠĠĠĠ": 24209,
    "Ġleaped": 8824,
    "wn": 721,
    "windows": 19533,
    "Ġevil": 3808,
    "Ġinhospit": 25452,
    "Ġreigning": 15699,
    "rent": 1170,
    "Ġwhy": 1760,
    "vard": 21109,
    "ilburn": 18059,
    "Ġrecollection": 6620,
    "itiously": 13870,
    "iction": 4269,
    "Ġoverflowed": 20261,
    "Ġenjoined": 18191,
    "Ġslightly": 7293,
    "Ġunfinished": 19508,
    "Ġlooked": 1800,
    "Ġreplying": 19580,
    "wont": 21131,
    "Ġdrop": 4344,
    "intim": 22931,
    "Ġstash": 18070,
    "Ġbuilding": 8062,
    "displeasure": 23495,
    "Ġsaintly": 25931,
    "Ġhatch": 7847,
    "tha": 15822,
    "page": 13770,
    "hound": 20894,
    "Ġnovelist": 24777,
    "wooden": 24587,
    "Ġmaterial": 5178,
    "Ġamounted": 18512,
    "befall": 22492,
    "Ġspr": 4025,
    "Ġsperm": 1839,
    "Ġword": 1053,
    "iluvian": 18060,
    "mayhew": 23989,
    "Ġforehead": 5261,
    "Ġrepose": 6741,
    "nikin": 23234,
    "Ġloud": 4701,
    "Ġsalesman": 13667,
    "Ġhookah": 16970,
    "Ġgrapp": 14100,
    "Ġfundamentals": 14635,
    "Ġcensure": 15094,
    "encouragement": 17422,
    "Ġoftener": 13564,
    "ativeness": 15520,
    "Ġrept": 13982,
    ",âĢĻâĢĶ": 23526,
    "perpet": 14163,
    "Ġglove": 14491,
    "usive": 8191,
    "Ġrapture": 13495,
    "Ġnavies": 16900,
    "ittleness": 22376,
    "Ġcourting": 23289,
    "Ġrat": 4353,
    "hammock": 16353,
    "Ġsuch": 792,
    "Ġsult": 10767,
    "Ġinjured": 9039,
    "Ġdipped": 15593,
    "Ġungracious": 18261,
    "Ĥ": 229,
    "inement": 11557,
    "Ġnightgown": 23128,
    "fee": 12877,
    "Ġpacket": 14892,
    "Ġveritable": 19379,
    "alliance": 22197,
    "Ġpitches": 23899,
    "Ġwhist": 6021,
    "Ġdri": 2359,
    "abil": 2007,
    "Ġweigh": 10894,
    "Ġscramble": 24578,
    "Ġdevouring": 11856,
    "afford": 14654,
    "Ġlatitude": 8328,
    "Ġgoblets": 20517,
    "Ġlivid": 14988,
    "omet": 3076,
    "Ġshakes": 10904,
    ",)": 9100,
    "Ġwithdrew": 9695,
    "Ġicy": 10747,
    "ersampling": 18216,
    "Ġcounties": 23300,
    "Ġperiod": 4005,
    "prevent": 11793,
    "Ġperadventure": 22396,
    "Ġard": 5164,
    "found": 4215,
    "ingu": 2119,
    "Ġchips": 14181,
    "ufact": 10733,
    "Ġintently": 8168,
    "ula": 2824,
    "cream": 15330,
    "eld": 957,
    "mare": 17599,
    "Ġtweed": 22674,
    "Ġliar": 22405,
    "Ġcooped": 22578,
    "Ġrepulses": 26070,
    "rents": 5308,
    "Ġthinker": 22806,
    "gener": 3125,
    "means": 9785,
    "Ġchain": 1840,
    "on": 267,
    "consult": 24168,
    "Ġremained": 3141,
    "endeavoured": 12278,
    "Ġnatural": 1120,
    "oting": 2743,
    "pton": 15790,
    "nt": 921,
    "ital": 4817,
    "finger": 10093,
    "ire": 495,
    "Ġsnowy": 9017,
    "Ġfoolish": 5979,
    "occupied": 12302,
    "Ġdespatched": 23827,
    "private": 13581,
    "Ġtowards": 1729,
    "somebody": 14565,
    "derbyshire": 18322,
    "Ġsow": 17749,
    "omnipotent": 25964,
    "Ġexcurs": 23311,
    "hind": 20893,
    "Ġheaped": 18037,
    "Ġnations": 8809,
    "Ġintrodu": 1923,
    "Ġprison": 5403,
    "Ġtreats": 19342,
    "Ġii": 7385,
    "Ġgripping": 26186,
    "Ġlid": 6983,
    "ras": 21035,
    "riend": 1185,
    "Ġstrasburgh": 18614,
    "cous": 8721,
    "match": 15389,
    "Ġfoe": 7679,
    "ved": 869,
    "Ġbeliefs": 24582,
    "Ġprecipices": 12275,
    "Ġeight": 3904,
    "influ": 9540,
    "Ġach": 2621,
    "Ġbald": 16204,
    "Ġcurious": 3359,
    "politeness": 16906,
    "Ġfrightens": 24027,
    "vings": 9750,
    "Ġpertin": 18450,
    "Ġinvisibly": 24817,
    "Ġoffers": 12943,
    "Ġhalls": 19524,
    "convenient": 12235,
    "Ġcynicism": 25771,
    "Ġroughs": 19955,
    "thrasher": 25658,
    "threw": 21981,
    "Ġquarrels": 16565,
    "Ġgrave": 5100,
    "abama": 12706,
    "plac": 15819,
    "hmael": 7342,
    "Ġsituated": 9446,
    "Ġstiffly": 15005,
    "Ġindications": 14632,
    "Ġbeams": 14631,
    "oration": 2207,
    "Ġassociates": 24712,
    "Ġknocking": 10559,
    "Ġdissol": 18551,
    "q": 85,
    "Ġpostscript": 14806,
    "Ġignorant": 5343,
    "Ġpence": 17905,
    "Ġoozy": 21325,
    "Ġwaned": 17791,
    "Ġcourtiers": 24136,
    "Ġholder": 6724,
    "porary": 14552,
    "Ġsymphony": 26532,
    "Ġlisten": 4674,
    "Ġdisgrace": 7214,
    "Ġunparalleled": 15853,
    "Ġappre": 5165,
    "hetically": 21207,
    "Ġanomalously": 25638,
    "Ĳ": 243,
    "rant": 11516,
    "ŀ": 257,
    "drive": 8682,
    "Ġcommunic": 5751,
    "Ġsubproblems": 12954,
    "Ġmour": 6973,
    "Ġprovincial": 20649,
    "orter": 4256,
    "Ġache": 18663,
    "gument": 20884,
    "advice": 12155,
    "Ġcannibals": 10587,
    "Ġapologizing": 25197,
    "J": 46,
    "Ġoccasions": 7987,
    "Ġclasses": 4054,
    "uten": 11621,
    "Ġflowery": 16232,
    "enemy": 15526,
    "Ġcorpore": 13400,
    "casks": 20401,
    "Ġincites": 22548,
    "Ġremarkable": 4915,
    "vocation": 25084,
    "Ġpositively": 13028,
    "Ġdissimilar": 22528,
    "Ġjoys": 13218,
    "Ġpail": 15605,
    "prodigious": 17466,
    "foreseen": 14253,
    "Ġissued": 10599,
    "Ł": 258,
    "Ġgilded": 17444,
    "Ġcolouring": 16751,
    "Ġfuneral": 10282,
    "breeding": 16675,
    "Ġwhole": 1664,
    "Ġexploit": 19161,
    "thro": 12758,
    "Ġmagician": 25058,
    "Ġbub": 8117,
    "Ġtal": 7564,
    "Ġalms": 21777,
    "Ġblackest": 19098,
    "ork": 416,
    "Ġdi": 6525,
    "corn": 13698,
    "Ġperpet": 7644,
    "Ġqual": 6274,
    "Ġtales": 10141,
    "Ġshud": 5461,
    "itled": 7577,
    "Ġample": 11796,
    "slouched": 24557,
    "Ġmidday": 23631,
    "Ġhostile": 19938,
    "Ġcovered": 5171,
    "Ġgodson": 23356,
    "Ġledger": 19400,
    "Ġhypocritical": 20737,
    "Ġdischarge": 18556,
    "Ġbuttoning": 17234,
    "Ġphysiognomically": 25612,
    "Ġslack": 8955,
    "Ġconve": 5455,
    "Ġawfulness": 23586,
    "ribute": 7226,
    "Ġspent": 3966,
    "clinging": 20821,
    "Ġperplexed": 23657,
    "Ġabsorb": 25112,
    "shazz": 14240,
    "Ġselecting": 16684,
    "Ġjogged": 26236,
    "feelings": 5674,
    "Ġjoking": 12834,
    "Ġvale": 14081,
    "Ġequalled": 13311,
    "impart": 21706,
    "Ġeaten": 14844,
    "Ġbour": 4876,
    "ā": 194,
    "Ġdizzy": 21430,
    "Ġbarbary": 24216,
    "charm": 13989,
    "club": 26380,
    "pper": 3208,
    "Ġhist": 2443,
    "Ġscared": 14189,
    "Ġindef": 9189,
    "Ġembark": 8560,
    "Ġhammer": 6093,
    "Ġwent": 1536,
    "unwilling": 14060,
    "Ġhypotheses": 4387,
    "Ġdreamed": 16629,
    "comb": 11038,
    "vex": 21695,
    "Ġcrowding": 13278,
    "Ġenchant": 7185,
    "minutes": 7512,
    "Ġstole": 7952,
    "Ġwash": 9702,
    "Ġallegro": 25794,
    "Ġfa": 4819,
    "eler": 1573,
    "Ġcouple": 5423,
    "ii": 4015,
    "Ġaforethought": 25428,
    "Ġhieroglyphics": 17302,
    "Ġsn": 2949,
    "Ġinevitably": 17230,
    "Ġsolved": 8931,
    "ppered": 15789,
    "Ġargument": 7098,
    "Ġexpl": 487,
    "Ġ85": 24460,
    "rence": 5555,
    "japan": 15373,
    "furn": 10091,
    "Ġcuff": 17829,
    "event": 8076,
    "Ġturk": 6603,
    "Ġdeputation": 21837,
    "Ġtogether": 1876,
    "Ġ62": 24365,
    "Ġperch": 10298,
    "perhaps": 4123,
    "Ġ133": 24783,
    "Ġspecialized": 3923,
    "ker": 5792,
    "Ġeber": 18003,
    "Ġpetersburgh": 24228,
    "Ġenable": 685,
    "accustomed": 13156,
    "Ġjava": 12310,
    "Ġthimble": 15635,
    "Ġhalyards": 21491,
    "Ġlodgings": 8311,
    "Ġplanting": 16084,
    "fts": 18696,
    "Ġ(": 596,
    "Ġincorporate": 20453,
    "Ġwearily": 18177,
    "Ġexclaiming": 13640,
    "Ġunconnected": 18245,
    "Ġrule": 1533,
    "Ġromish": 19583,
    "crossing": 19409,
    "Ġmah": 15539,
    "Ġprogen": 14038,
    "sincerely": 24584,
    "Ġqueens": 16706,
    "butt": 15993,
    "pin": 13766,
    "Ġcrutch": 23445,
    "Ġado": 7626,
    "Ġlog": 1678,
    "ĠâĢľâĢĺ_": 25111,
    "lucky": 24545,
    "Ġcomplaints": 12262,
    "Ġunhing": 18244,
    "Ġfarewell": 9519,
    "Ġgo": 615,
    "continue": 16861,
    "Ġdents": 13910,
    "Ġexpressive": 8982,
    "och": 21000,
    "aky": 18412,
    "Ġpromising": 10399,
    "Ġthrilling": 19747,
    "Ġindist": 14408,
    "Ġdig": 6135,
    "Ġhundred": 2692,
    "Ġrugged": 18720,
    "treasures": 26152,
    "Ġsignal": 5944,
    "irresistible": 18173,
    "Ġdiscontented": 16057,
    "Ġdrawling": 19435,
    "lat": 9604,
    "hon": 6793,
    "nantucket": 7804,
    "idered": 4553,
    "ª": 108,
    "rope": 3184,
    "heavens": 19744,
    "likelihood": 4992,
    "inople": 13828,
    "goose": 19101,
    "Ġpr": 1600,
    "Ġunprepared": 22047,
    "Ġassociated": 12247,
    "diff": 9113,
    "Ġperform": 1036,
    "Ġswallows": 18882,
    "Ġsimulates": 2738,
    "Ġfeeding": 7971,
    "Ġseventeen": 26210,
    "Ġanimal": 2496,
    "Ġheaths": 25972,
    "vo": 11539,
    "Ġgeneva": 5450,
    "oles": 21004,
    "Ġabandonment": 25603,
    "Ġkey": 2102,
    "Ġtrappers": 23078,
    "lord": 3867,
    "produced": 25414,
    "Ġawful": 6199,
    "declared": 15117,
    "Ġverdict": 13474,
    "Ġswiss": 18881,
    "bottle": 20144,
    "Ġuncouth": 14549,
    "Ġmotive": 6091,
    "Ġenvirons": 13183,
    "Ġvertebra": 20180,
    "âĢĿ--": 21813,
    "Ġankles": 17899,
    "Ġcontemplate": 19891,
    "izure": 21831,
    "made": 4808,
    "Ġfishes": 11590,
    "penn": 18827,
    "not": 907,
    "Ġpolice": 4675,
    "....": 11316,
    "moby": 8536,
    "examine": 25477,
    "Ġerskine": 17431,
    "Ġunfathomable": 20547,
    "Ġbott": 3148,
    "Ġmarvell": 7248,
    "igns": 8447,
    "Ġcannib": 6035,
    "quick": 6400,
    "Ġyellowish": 24430,
    "Ġstraps": 19309,
    "Ġjob": 7015,
    "discredit": 24250,
    "Ġcomputes": 4768,
    "Ġebony": 18008,
    "Ġsweatings": 25710,
    "apology": 22331,
    "Ġdoubtless": 6195,
    "Ġvisitor": 5330,
    "orange": 21398,
    "Ġpoignant": 22590,
    "Ġasiatics": 20429,
    "Ġcurse": 7667,
    "gorith": 548,
    "Ġwhalemen": 3915,
    "adequately": 20318,
    "Ġginger": 9210,
    "Ġscreening": 25300,
    "Ġkelson": 18350,
    "sterdam": 19089,
    "level": 2653,
    "very": 500,
    "Ġdetermining": 14417,
    "Ġpracticable": 19061,
    "Ġcatastrop": 3345,
    "Ġquenched": 22414,
    "owners": 16085,
    "zes": 11548,
    "Ġinquir": 4243,
    "Ġsant": 21213,
    "Ġbond": 21382,
    "Ġplanned": 14751,
    "Ġtidy": 17093,
    "Ġspasmodic": 20396,
    "Ġtw": 839,
    "new": 1465,
    "Ġpropont": 16349,
    "Ġforced": 4352,
    "Ġresisted": 22538,
    "planks": 21957,
    "Ġerrone": 14429,
    "ulum": 21860,
    "ceed": 1073,
    "vously": 23504,
    "Ġanimate": 23421,
    "emason": 18186,
    "Ġtravel": 5952,
    "Ġblessings": 24175,
    "steps": 9404,
    "trap": 24313,
    "Ġtrinity": 22343,
    "Ġje": 4124,
    "Ġcrowded": 8011,
    "Ġlandscape": 12415,
    "Ġresent": 6048,
    "iverer": 11714,
    "Ġsmitten": 12896,
    "Ġslopes": 18940,
    "irect": 5553,
    "stars": 18019,
    "Ġdaggoo": 5441,
    "Ġcrimes": 8588,
    "chanced": 18808,
    "Ġfootpaths": 26318,
    "increasing": 20268,
    "Ġ20": 8613,
    "Ġequality": 16358,
    "uming": 8491,
    "Ġdeclines": 23960,
    "Ġsneering": 24697,
    "Ġelijah": 9099,
    "Ġconspicuous": 13602,
    "painting": 17046,
    "Ġbased": 3336,
    "Ġhardly": 2431,
    "Ġshower": 11708,
    "Ġhull": 5446,
    "lott": 6650,
    "Ġsimpler": 2046,
    "vishnoo": 21118,
    "Ġav": 3583,
    "aret": 7417,
    "perfectly": 9085,
    "obscure": 23095,
    "impud": 23758,
    "Ġpurporting": 19181,
    "ifting": 6545,
    "charles": 14698,
    "ð": 177,
    "Ġrendered": 5773,
    "until": 6596,
    "Ġgathered": 8442,
    "taste": 10129,
    "money": 8749,
    "orts": 2553,
    "Ġfortifications": 23619,
    "Ġfundamental": 3013,
    "lives": 12483,
    "divided": 25018,
    "Ġtahitian": 25427,
    "Ġcold": 3030,
    "comparatively": 25839,
    "saving": 21058,
    "maintained": 25020,
    "encountered": 20391,
    "innocence": 15182,
    "Ġsir": 1571,
    "Ġpunctually": 17138,
    "Ġsheltered": 19910,
    "consequential": 26249,
    "Ġattracted": 8903,
    "vely": 3869,
    "Ġlabelled": 23326,
    "Ġinseparable": 20687,
    "circumspect": 26086,
    "value": 18810,
    "Ġstone": 4646,
    "Ġwars": 17785,
    "arian": 10316,
    "Ġinnermost": 12158,
    "Ġbrawny": 13612,
    "Ġcap": 2358,
    "Ġinfirmity": 26298,
    "ss": 396,
    "male": 15387,
    "lamp": 9608,
    "prosperity": 20734,
    "Ġ78": 19612,
    "bell": 7332,
    "direction": 17524,
    "iber": 6506,
    "«": 109,
    "bearer": 18524,
    "Ġcommanding": 16590,
    "Ġintercepted": 25826,
    "Ġvial": 10248,
    "ootiful": 17372,
    "Ġunfrequently": 20738,
    "glance": 16587,
    "Ġundertaking": 8573,
    "whalers": 17263,
    "Ġretired": 6070,
    "easy": 9592,
    "Ġrules": 1916,
    "Ġcad": 12565,
    "Ġwound": 4528,
    "Ġlam": 21546,
    "Ġferocious": 17418,
    "stalls": 26473,
    "Ġinhuman": 13928,
    "computer": 1980,
    "Ġvivacious": 19814,
    "splinter": 25210,
    ".*": 7331,
    "Ġoverthrow": 18427,
    "ching": 5156,
    "foundation": 16714,
    "Ġtimbers": 14838,
    "rain": 462,
    "affectionate": 24921,
    "Ġgrecian": 26296,
    "advanced": 19587,
    "Ġrig": 4226,
    "ott": 1870,
    "Ġchann": 15934,
    "mel": 9127,
    "Ġxerxes": 23409,
    "Ġspilled": 10924,
    "stee": 21648,
    "ank": 1362,
    "comprehensive": 20625,
    "Ġcongreg": 8462,
    "dist": 4481,
    "Ġmatrices": 4969,
    "Ġconsulted": 13429,
    "Ġsage": 17752,
    "play": 5099,
    "Ġ]": 15459,
    "Ġmanilla": 15958,
    "Ġimpenitent": 26548,
    "urs": 6989,
    "ercely": 12547,
    "Ġwonder": 2117,
    "cheeked": 19339,
    "Ġunless": 4090,
    "typewritten": 26038,
    "dra": 3413,
    "prob": 7069,
    "Ġmuscles": 12086,
    "Ġstudies": 7955,
    "Ġintercept": 14268,
    "nui": 20999,
    "mountain": 10713,
    "Ġsentinel": 26065,
    "Ġparamet": 608,
    "Ġlub": 15647,
    "Ġaz": 9629,
    "iciency": 9574,
    "Ġjacobian": 2892,
    "uncommon": 11680,
    "ĥ": 230,
    "Ġguardianship": 17419,
    "grey": 14911,
    "apologizing": 26544,
    "puzz": 17640,
    "Ġformal": 2942,
    "D": 40,
    "Ġexisting": 12715,
    "world": 5058,
    "Ġtusk": 25425,
    "itt": 572,
    "huzza": 20912,
    "Ġbuy": 8299,
    "Ġthink": 985,
    "Ġdoorway": 14497,
    "Ġcushion": 17833,
    "Ġflapped": 23003,
    "Ġgovernesses": 25127,
    "Ġphrenolog": 12332,
    "Ġgladstone": 23867,
    "deemed": 18315,
    "antly": 1987,
    "sive": 4146,
    "._": 3219,
    "Ġessays": 19743,
    "board": 3566,
    "ignation": 11128,
    "vid": 915,
    "belated": 24035,
    "Ġcornelius": 13572,
    "village": 25422,
    "Ġflint": 23001,
    "Ġfiner": 13050,
    "Ġcottage": 4734,
    "Ġinestimable": 17441,
    "Ġwinter": 5220,
    "ained": 3065,
    "observation": 17269,
    "Ġdrawers": 12103,
    "âĢĶâĢĻ": 8187,
    "prepare": 20211,
    "gunw": 17220,
    "Ġplainly": 4382,
    "shoulders": 16584,
    "Ġindisp": 18834,
    "Ġwhaleboats": 18478,
    "Ġbeech": 18082,
    "social": 11023,
    "Ġoccurred": 4462,
    "Ġeccentric": 13648,
    "walking": 9981,
    "ence": 393,
    "limbs": 20190,
    "Ġilluminated": 20174,
    "Ġplaces": 5390,
    "Ġmach": 13856,
    "Ġotherwise": 4658,
    "Ġobstetrics": 24678,
    "Ġbefriend": 18081,
    "construction": 19777,
    "Ġindirectly": 8939,
    "Ġtrue": 1338,
    "Ġjaws": 5593,
    "Ġbrutality": 26276,
    "uvian": 12240,
    "Ġconsummate": 25310,
    "Ġventing": 19492,
    "Ġimpertinence": 11366,
    "Ġcorresponding": 13437,
    "bourne": 19102,
    "Ġplied": 22594,
    "Ġetc": 7084,
    "jeroboam": 25619,
    "furnished": 20240,
    "Ġtwig": 11848,
    "Ġfronted": 25854,
    "Ġdemanding": 16805,
    "Ġhid": 1320,
    "Ġtoday": 12640,
    "itarian": 21335,
    "Ġweak": 5098,
    "Ġmonarch": 14412,
    "suffered": 24334,
    "Ġcounting": 13093,
    "Ġfoss": 9850,
    "ocation": 14626,
    "acquired": 24296,
    "Ġfilial": 16620,
    "concent": 19478,
    "Ġinvol": 1064,
    "Ġpsal": 15614,
    "Ġprinces": 23222,
    "Ġthinking": 4031,
    "erect": 20847,
    "Ġherself": 1569,
    "Ġexhibiting": 19837,
    "Ġproceeds": 12075,
    "Ġleisurely": 24746,
    "Ġposterity": 17401,
    "Ġbat": 10795,
    "Ġinconstant": 21493,
    "Ġuninterrupted": 22043,
    "Ġhatches": 12043,
    "Ġarduous": 26529,
    "Ġgenerative": 5644,
    "Ġsuffoc": 18869,
    "Ġcran": 11999,
    "somehow": 12010,
    "rollable": 13944,
    "byter": 16213,
    "Ġunthinkingly": 26220,
    "anum": 17835,
    "Ġbelly": 10369,
    "Ġsling": 21219,
    "ę": 218,
    "grief": 13730,
    "hearing": 8402,
    "Ġshouted": 5347,
    "obser": 11099,
    "idence": 4302,
    "Ġdescription": 7429,
    "asp": 3337,
    "Ġveil": 7933,
    "Ġlist": 2361,
    "Ġterti": 14538,
    "Ġacceded": 22373,
    "ents": 1894,
    "autumn": 23341,
    "mockery": 24378,
    "Ġsultanism": 25888,
    "Ġlewis": 15717,
    "))": 1516,
    "dashed": 12453,
    "iogn": 20920,
    "Ġasks": 5115,
    "inform": 10143,
    "Ġwaylaid": 22869,
    "Ġkink": 22190,
    "Ġcommanders": 23866,
    "Ġconfound": 23301,
    "asters": 8433,
    "seals": 21815,
    "twist": 23699,
    "Ġdismally": 20213,
    "boy": 4738,
    "Ġdebt": 12165,
    "Ġbethinking": 25279,
    "mary": 8748,
    "capitals": 25080,
    "Ġfairly": 6325,
    "delirium": 14783,
    "Ġmurder": 4281,
    "Ġjoyful": 13219,
    "Ġoverjoy": 15965,
    "ular": 715,
    "cob": 10086,
    "Ġincommod": 25307,
    "Ġfav": 1754,
    "ping": 9615,
    "assemblies": 25956,
    "Ġmakest": 25435,
    "unched": 10235,
    "wretch": 17708,
    "Ġmahogany": 20576,
    "Ġgracious": 8846,
    "Ġactive": 7914,
    "extending": 22754,
    "indifference": 15981,
    "domestic": 19824,
    "Ġunresting": 25553,
    "rers": 14717,
    "Ġremonstrance": 20621,
    "sprinkling": 24912,
    "Ġtwitch": 22673,
    "tailed": 17685,
    "Ġlimbs": 5965,
    "reflect": 19864,
    "Ġfacing": 10171,
    "Ġmin": 1026,
    "commend": 19991,
    "Ġnewly": 9337,
    "Ġvapors": 19907,
    "Ġstillness": 12992,
    "mense": 4780,
    "open": 7025,
    "aper": 4999,
    "Ġrotation": 25474,
    "immediate": 20092,
    "Ġmr": 660,
    "Ġweighted": 2089,
    "astic": 1866,
    "Ġvinegar": 20098,
    "formed": 2552,
    "Ġtheme": 16017,
    "Ġkick": 5837,
    "Ġsquires": 16182,
    "Ġsequ": 982,
    "obli": 23092,
    "Ġutterance": 14762,
    "presume": 25670,
    "Ġpiqu": 21475,
    "Ġhumbled": 16195,
    "vicinity": 20478,
    "Ġcomfortably": 16615,
    "Ġpredicted": 2043,
    "weaving": 18666,
    "Ġpaddock": 25037,
    "hideous": 25407,
    "ē": 212,
    "mell": 20963,
    "ouse": 1191,
    "ind": 567,
    "Ġwindlass": 7256,
    "Ġcry": 3497,
    "Ġchurches": 12825,
    "Ġannihilation": 15164,
    "Ġsitt": 21216,
    "Ġtuesday": 9626,
    "Ġunderwent": 23238,
    "Ġwithheld": 18114,
    "Ġconceivable": 16613,
    "Ġmalays": 19676,
    "Ġbalances": 2336,
    "Ġglance": 4234,
    "Ġpavement": 9577,
    "Ġstanders": 19013,
    "Ġuncompromised": 20602,
    "yellow": 9624,
    "Ġconnex": 10665,
    "Ġwriters": 13542,
    "Ġobstin": 14952,
    "surely": 10569,
    "lected": 1638,
    "igger": 21698,
    "Ġplay": 2626,
    "Ġdivision": 19442,
    "Ġlat": 5087,
    "Ġstranger": 3487,
    "Ġflamingo": 15099,
    "Ġthr": 5709,
    "Ġadieu": 10050,
    "Ġswearing": 16465,
    "Ġinfallible": 15069,
    "probable": 17021,
    "Ġterror": 5123,
    "ourselves": 9010,
    "Ġindestructible": 26572,
    "Ġquee": 1978,
    "Ġconsult": 6056,
    "acting": 22627,
    "gen": 6503,
    "Ġshoot": 11161,
    "anxious": 15108,
    "Ġarea": 14185,
    "igning": 12678,
    "bewil": 22495,
    "Ġbenefit": 8293,
    "Ġleave": 2455,
    "Ġcot": 13876,
    "Ġcompassion": 6487,
    "smart": 23904,
    "egypt": 15348,
    "Ġtep": 21160,
    "Ġharriet": 24572,
    "Ġsunrise": 9372,
    "stone": 5089,
    "Ġvineyard": 12328,
    "sust": 15422,
    "joint": 24006,
    "progress": 11986,
    "Ġbowl": 11204,
    "Ġvariety": 8530,
    "aan": 20763,
    "Ġperv": 15989,
    "u": 89,
    "Ġlob": 7627,
    "Ġconsistence": 23354,
    "Ġthee": 2623,
    "Ġreprehensible": 15697,
    "Ġattention": 1167,
    "jected": 22709,
    "Ġdod": 6672,
    "itories": 15547,
    "Ġlect": 9220,
    "acceptance": 25185,
    "Ġsunbeam": 23273,
    "luc": 9751,
    "chapter": 1404,
    "Ġloth": 17965,
    "every": 2810,
    "prof": 7698,
    "Ġhigh": 933,
    "Ġdiscuss": 9473,
    "Ġharmless": 9964,
    "inhabited": 13619,
    "calcul": 12984,
    "incible": 16497,
    "Ġenabled": 9295,
    "Ġ87": 19709,
    "Ġchiselled": 25559,
    "ashing": 4824,
    "Ġreduces": 2339,
    "Ġago": 3136,
    "Ġbeliever": 25845,
    "face": 3678,
    "Ġarchy": 14346,
    "Ġmaelstrom": 19354,
    "gro": 10094,
    "Ġpermanently": 25473,
    "Ġlacey": 10197,
    "tales": 17686,
    "Ġwarehouses": 20416,
    "stood": 4117,
    "empl": 5724,
    "Ġmoles": 22429,
    "ellative": 21942,
    "Ġparm": 15876,
    "infl": 15487,
    "Ġnail": 9195,
    "Ġforce": 5093,
    "Ġcaps": 8414,
    "Ġinspect": 5963,
    "Ġclient": 5556,
    "soldiers": 25911,
    "ude": 7562,
    "Ġfolks": 14424,
    "gered": 9275,
    "oun": 482,
    "inioned": 19286,
    "Ġmasks": 23324,
    "hinting": 17569,
    "Ġjudges": 14685,
    "Ġmocking": 24000,
    "vulgar": 25918,
    "Ġviews": 7290,
    "Ġglo": 1715,
    "Ġconsideration": 5191,
    "cater": 20814,
    "Ġtowing": 9193,
    "itically": 21328,
    "Ġgoodge": 22821,
    "owal": 13992,
    "Ġattained": 14077,
    "Ġconvention": 25546,
    "iv": 429,
    "Ġturns": 4981,
    "Ġgallons": 14816,
    "Ġcatch": 4441,
    "ozy": 17622,
    "Ġscope": 15942,
    "astonished": 15032,
    "Ġannum": 24203,
    "Ġwerter": 15238,
    "Ġviewing": 19263,
    "Ġeyeing": 6460,
    "Ġconquest": 15746,
    "mediate": 16513,
    "ards": 2502,
    "ĠĠĠĠĠĠĠĠĠĠĠĠĠĠĠĠĠĠĠĠĠĠĠĠĠĠĠĠĠĠĠĠĠĠĠĠĠĠĠĠĠĠĠĠĠ": 9951,
    "ondon": 2704,
    "paper": 9136,
    "ugues": 19021,
    "Ġapologized": 25198,
    "Ġcruc": 16534,
    "Ġreckoned": 24744,
    "nable": 13761,
    "Ġscript": 18398,
    "humor": 19450,
    "carried": 16711,
    "pooh": 18799,
    "supplied": 10519,
    "Ġunseason": 22049,
    "Ġcovariate": 2347,
    "rets": 12538,
    "Ġeternity": 12276,
    "inction": 6660,
    "prep": 9758,
    "slowly": 9088,
    "wh": 509,
    "inqu": 6121,
    "Ġane": 9181,
    "Ġdevoutly": 25832,
    "Ġcash": 9652,
    "Ġstops": 3165,
    "Ġparsonage": 7123,
    "Ġslavish": 23171,
    "cest": 12442,
    "tart": 21066,
    "clam": 13052,
    "Ġcircling": 19092,
    "Ġincreases": 3798,
    "Ġemploy": 3616,
    "Ġdocks": 14177,
    "Ġprograms": 7239,
    "ruin": 22177,
    "Ġbreeding": 14522,
    "quid": 18145,
    "Ġgoin": 18469,
    "Ġallured": 14112,
    "century": 20045,
    "Ġflag": 7242,
    "Ġselection": 18202,
    "vul": 15448,
    "Ġconductor": 24004,
    "Ġdictator": 20152,
    "Ġcathedral": 17412,
    "Ġfris": 23254,
    "beards": 22488,
    "Ġblotches": 25314,
    "reated": 10301,
    "Ġjollies": 20368,
    "cent": 8072,
    "Ġfainting": 16897,
    "weigh": 18665,
    "Ġchall": 10944,
    "representativeness": 25272,
    "Ġinsc": 7585,
    "Ġdoubling": 23316,
    "mush": 20976,
    "gunwale": 20662,
    "Ġfreshly": 23984,
    "Ġcredit": 4818,
    "Ġhiding": 9822,
    "Ġillust": 8262,
    "Ġeager": 3572,
    "tps": 11534,
    "gue": 12465,
    "adequ": 11020,
    "Ġam": 659,
    "Ġdeline": 16332,
    "Ġnetherfield": 3933,
    "Ġcaroline": 7255,
    "Ġsoftly": 7947,
    "Ġresponded": 13637,
    "permission": 15902,
    "Ġsenseless": 12076,
    "Ġconsequence": 5542,
    "Ġtrace": 6181,
    "Ġsurveying": 25325,
    "Ġheld": 3587,
    "berish": 22716,
    "Ġbedrooms": 19968,
    "Ġsupers": 18281,
    "Ġhelter": 24022,
    "Ġhapless": 15811,
    "ates": 519,
    "waist": 13417,
    "Ġassailed": 23175,
    "Ġsaturn": 22897,
    "andering": 21864,
    "iliar": 15712,
    "Ġvicious": 24403,
    "Ġhil": 10821,
    "acup": 14277,
    "Ġlingu": 11613,
    "Ġyarns": 15194,
    "Ġspect": 3553,
    "Ġsummers": 23871,
    "Ġdecaying": 2243,
    "unexpected": 15776,
    "Ġvisitors": 7984,
    "Ġcavity": 20486,
    "Ġforbade": 15213,
    "Ġnugent": 26457,
    "Ġwit": 3844,
    "Ġmccauley": 26426,
    "occurred": 13336,
    "Ġenveloped": 12206,
    "melancholy": 12351,
    "poled": 22905,
    "Ġmaterials": 11288,
    "unning": 4494,
    "member": 20974,
    "Ġjoy": 3183,
    "try": 7812,
    "Ġcontains": 2792,
    "Ġcoff": 3508,
    "Ġmade": 1051,
    "lier": 20948,
    "whel": 7664,
    "Ġclosely": 6488,
    "Ġoblig": 3445,
    "Ġbrighter": 16186,
    "Ġcurved": 18865,
    "Ġpurely": 12229,
    "ceiving": 3905,
    "Ġagents": 9765,
    "Ġestimable": 23870,
    "Ġimplore": 24872,
    "histicated": 20900,
    "coward": 13699,
    "Ġdistingu": 2511,
    ",_": 11462,
    "Ġrecip": 16140,
    "perils": 22184,
    "Ġforesight": 13127,
    "pretending": 17041,
    "Ġbrick": 8925,
    "Ġjapanese": 10632,
    "Ġmustard": 12927,
    "Ġdisengaged": 12886,
    "Ġparlor": 13539,
    "Ġcaptain": 1604,
    "uns": 21867,
    "Ġlashed": 9198,
    "Ġindicates": 3193,
    "Ġzodiac": 16175,
    "undant": 14790,
    "Ġratt": 7880,
    "owed": 2266,
    "ingolstadt": 21302,
    "Ġiroquois": 26472,
    "Ġroyals": 19531,
    "disciple": 16778,
    "Ġracket": 22647,
    "Ġcomplement": 23707,
    "dies": 15337,
    "Ġrefused": 6715,
    "Ġmontan": 22973,
    "Ġjustification": 22963,
    "consol": 9761,
    "Ġnecessitated": 23925,
    "Ġfr": 1697,
    "Ġliberated": 19665,
    "Ġbold": 5291,
    "esy": 9182,
    "Ġrevel": 9214,
    "Ġsins": 13836,
    "rudential": 16709,
    "cry": 12443,
    "Ġsensational": 16391,
    "Ġcott": 3709,
    "Ġgrew": 5182,
    "driven": 19770,
    "Ġprop": 1682,
    "Ġstructural": 2797,
    "Ġstarvation": 19790,
    "Ġthreaten": 24374,
    "Ġ6": 5141,
    "Ġhousekeeper": 7456,
    "beam": 16037,
    "Ġgiant": 13967,
    "Ġmaternal": 11059,
    "Ġbedroom": 7277,
    "Ġimpulsive": 19961,
    "urable": 8922,
    "quietly": 10592,
    "umns": 14147,
    "Ġfished": 21408,
    "riet": 18180,
    "rical": 11518,
    "Ġinsular": 19267,
    "ely": 621,
    "ingale": 21298,
    "Ġrinal": 21977,
    "Ġexclaimed": 4683,
    "Ġegg": 8818,
    "Ġaddresses": 3770,
    "Ġreven": 18028,
    "Ġshuddering": 9051,
    "Ġgrammatical": 13538,
    "Ġbachelors": 24860,
    "Ġmeanings": 18607,
    "harpooneers": 8689,
    "Ġallures": 22005,
    "Ġfigures": 8629,
    "Ġflirt": 14421,
    "Ġheinous": 18038,
    "zeal": 16255,
    "Ġpreprocess": 22230,
    "softened": 20408,
    "added": 11658,
    "alk": 1152,
    "Ġsimultaneous": 22585,
    "Ġimpose": 22379,
    "desper": 13067,
    "hauled": 20667,
    "Ġconsiderations": 9409,
    "uzzle": 19582,
    ";--": 8068,
    "otted": 14023,
    "r": 86,
    "apter": 1193,
    "Ġgradually": 3401,
    "Ġwithstand": 10225,
    "omn": 15680,
    "µ": 118,
    "ý": 190,
    "liest": 6294,
    "Ġcollege": 11424,
    "resolved": 9639,
    "rested": 13073,
    "kl": 4865,
    "tram": 19634,
    "Ġdepressed": 10883,
    "oping": 5559,
    "Ġstruct": 2783,
    "Ġsymb": 2589,
    "Ġships": 3714,
    "Ġbethink": 12377,
    "âĢĶ_": 3199,
    "plutarch": 21960,
    "Ġrushing": 7403,
    "unfortunate": 15775,
    "Ġparagra": 15878,
    "precision": 4331,
    "ong": 537,
    "Ġstare": 10864,
    "amouch": 21842,
    "dissatisfied": 26612,
    "Ġbrightly": 13222,
    "Ġeloped": 22640,
    "Ġnecessity": 7296,
    "Ġsoft": 1458,
    "Ġimmut": 13296,
    "Ġtang": 13813,
    "Ġcaw": 13882,
    "Ġdepth": 2437,
    "Ġcommissioned": 19894,
    "Ġhessian": 3549,
    "Ġbeard": 11654,
    "delight": 5344,
    "Ġ50": 24319,
    "Ġexig": 21823,
    "Ġchaldee": 26234,
    "Ġwane": 21287,
    "purp": 8090,
    "b": 70,
    "Ġtorments": 13393,
    "Ġmediocrity": 26608,
    "Ġwarped": 25035,
    "Ġbarely": 16936,
    "Ġimportant": 1084,
    "ernsey": 8904,
    "Ġnurse": 9516,
    "Ġarchly": 22777,
    "haz": 17564,
    "alive": 10827,
    "oso": 12828,
    "Ġdivided": 8631,
    "exc": 5169,
    "riety": 12741,
    "Ġsupple": 22989,
    "Ġimpertin": 6933,
    "Ġneural": 620,
    "Ġadmired": 7981,
    "Ġenvironmental": 24056,
    "Ġpan": 5082,
    "Ġblotting": 25313,
    "maltese": 24795,
    "Ġinvite": 14563,
    "instinct": 19542,
    "safety": 20348,
    "Ġtwelfth": 22675,
    "ads": 5718,
    "stat": 21641,
    "poises": 11887,
    "Ġhath": 12625,
    "Ġpromotion": 23191,
    "Ġhere": 1086,
    "Ġwaist": 6892,
    "Ġunbroken": 18253,
    "Ġwarb": 17787,
    "Ġpitching": 16611,
    "Ġalexander": 17423,
    "Ġdrawled": 23986,
    "thick": 10260,
    "am": 367,
    "Ġstow": 21730,
    "lydon": 13988,
    "Ġnaturalists": 10362,
    "Ġlodged": 11252,
    "asse": 15643,
    "etch": 9204,
    "Ġjobs": 24832,
    "boys": 13358,
    "Ġreaching": 7303,
    "governed": 25405,
    "Ġalleghan": 25795,
    "Ġsworn": 14434,
    "Ġlic": 8435,
    "cell": 10685,
    "Ġappertain": 22218,
    "Ġenchantment": 24869,
    "Ġfilled": 4395,
    "mospheric": 17091,
    "beside": 19876,
    "Ġfestoon": 20293,
    "ww": 10737,
    "eyeing": 14945,
    "Ġcaterpillar": 5864,
    "wonted": 13492,
    "Ġ1671": 25005,
    "leader": 25351,
    "ateness": 15519,
    "rise": 6226,
    "Ġindicated": 10469,
    "Ġhour": 1810,
    "Ġinhabited": 12183,
    "Ġfurs": 18738,
    "ground": 4672,
    "wrong": 13205,
    "Ġdoctors": 12149,
    "Ġembattled": 26288,
    "Ġmuseum": 15270,
    "considerably": 13444,
    "iam": 2506,
    "Ġpersecutor": 26096,
    "were": 2556,
    "alvan": 21501,
    "Ġxxxiv": 24967,
    "had": 1948,
    "Ġwrit": 8241,
    "latter": 15381,
    "conceal": 25114,
    "Ġgallows": 12143,
    "Ġvoice": 2188,
    "Ġhammock": 5768,
    "ones": 2741,
    "exam": 10976,
    "Ġtenth": 13824,
    "Ġcoral": 11920,
    "steelkilt": 10046,
    "Ġinquisitive": 26317,
    "Ġaccumul": 1411,
    "Ġphrenologists": 25608,
    "off": 1883,
    "istrate": 7406,
    "appearance": 5333,
    "tale": 10127,
    "Ġguardians": 14942,
    "Ġecon": 9677,
    "eight": 9591,
    "comparison": 25840,
    "trad": 21075,
    "sham": 9756,
    "Ġacqu": 1416,
    "Ġram": 11013,
    "Ġsteadily": 8051,
    "Ġlaughter": 9027,
    "uneasy": 23684,
    "Ġancient": 5443,
    "Ġdistantly": 18532,
    "they": 1877,
    "Ġpitiful": 13237,
    "Ġfabric": 25947,
    "Ġpatagon": 14502,
    "higher": 20405,
    "ictions": 14225,
    "Ġrestrain": 8964,
    "Î": 143,
    "Ġtranquo": 14842,
    "ues": 2079,
    "lead": 10165,
    "Ġconfident": 11138,
    "Ġcogent": 14272,
    "flying": 13720,
    "Ġnursing": 12212,
    "Ġeluc": 16108,
    "Ġheavenly": 12082,
    "magn": 10610,
    "unavoid": 14061,
    "Ġyears": 1890,
    "aton": 21257,
    "Ġuttermost": 19486,
    "opened": 7912,
    "ill": 447,
    "useless": 14594,
    "Ġtwilight": 16120,
    "Ġgestures": 13535,
    "crow": 9590,
    "inition": 11556,
    "Ġdrenched": 12600,
    "reement": 15511,
    "Ġgoing": 2065,
    "verbally": 25360,
    "Ġembraces": 19871,
    "Ġabject": 18391,
    "Ġstrokes": 16769,
    "Ġjon": 15947,
    "Ġungover": 18258,
    "atious": 10151,
    "fetch": 12462,
    "Ġinternal": 2242,
    "Ġfitted": 6243,
    "Ġang": 2508,
    "balance": 12005,
    "adopt": 25544,
    "Ġchronicle": 20227,
    "Ġunmanner": 22026,
    "glue": 17556,
    "Ġdew": 14044,
    "Ġarising": 10933,
    "Ġduring": 872,
    "Ġmother": 2066,
    "Ġprices": 15610,
    "Ġpiping": 23229,
    "ech": 4390,
    "Ġserene": 8166,
    "âĢ": 294,
    "Ġsprain": 18305,
    "prosper": 19100,
    "Ġmorcar": 13008,
    "Ġclut": 7641,
    "Ġobjective": 3767,
    "Ġmonoton": 3637,
    "Ġju": 10286,
    "Ġchildish": 13136,
    "Ġstab": 10862,
    "war": 6802,
    "pour": 17630,
    "Ġcircles": 7966,
    "Ġassail": 13060,
    "Ġbeginning": 4244,
    "Ġalpine": 18105,
    "pervading": 18977,
    "Ġcurly": 18863,
    "ckles": 22086,
    "ĠĠĠĠĠĠĠĠĠĠĠĠĠĠĠĠĠĠĠĠĠĠĠĠĠĠĠĠĠĠĠĠĠ": 12040,
    "Ġparallelization": 3431,
    "Ġdates": 6693,
    "Ġequatorial": 13508,
    "Ġchamber": 6213,
    "Ġreflected": 2908,
    "Ġhissed": 15787,
    "dest": 4104,
    "enstein": 5799,
    "Ġreappeared": 21662,
    "Ġprocess": 566,
    "absent": 21786,
    "lydia": 6826,
    "utarch": 15660,
    "ram": 13971,
    "Ġnorton": 12646,
    "Ġcage": 17825,
    "lar": 4484,
    "Ġnumberless": 16415,
    "Ġpick": 4257,
    "Ġon": 351,
    "Ġgateway": 24802,
    "Ġadjust": 2155,
    "Ġgrass": 5177,
    "Ġlye": 21548,
    "Ġtarn": 21157,
    "Ġcandidates": 4333,
    "conduct": 11795,
    "Ġredden": 15692,
    "pair": 21011,
    "atters": 18505,
    "twas": 15437,
    "Ġmanaging": 22322,
    "Ġtiller": 8965,
    "Ġlanguages": 1570,
    "Ġvide": 10250,
    "forbearance": 22794,
    "Ġready": 3398,
    "lanterns": 17428,
    "Ġquestioned": 14619,
    "ju": 13740,
    "Ġspouted": 14674,
    "Ġembarr": 7447,
    "Ġconsent": 5372,
    "Ġabstract": 17181,
    "hens": 3939,
    "Ġcondu": 18109,
    "Ġrummaged": 16910,
    "destroy": 19509,
    "l": 80,
    "icions": 21560,
    "cary": 10689,
    "Ġderives": 16307,
    "Ġreproached": 24891,
    "Ġunwonted": 14125,
    "Ġberth": 8679,
    "Ġderivatives": 2366,
    "Ġdaughter": 2869,
    "/": 19,
    "Ġsubdued": 11030,
    "ignorant": 13562,
    "Ġgrego": 18961,
    "flu": 9117,
    "rivial": 9433,
    "suspected": 12370,
    "3": 23,
    "Ġexcellence": 11451,
    "Ġsalutations": 25382,
    "inity": 5693,
    "tempt": 21078,
    "Ġangular": 19205,
    "Ġblocks": 6321,
    "Ġbewildered": 15212,
    "unforeseen": 21885,
    "Ġvalidation": 2353,
    "Ġ102": 24410,
    "Ġplot": 14279,
    "ailing": 7021,
    "Ġbits": 11587,
    "Ġwad": 13850,
    "Ġhomeless": 23385,
    "cable": 20796,
    "Ġsubtlety": 24780,
    "Ġcounteracted": 19861,
    "agonies": 21906,
    "rmsprop": 4522,
    "Ġdedu": 5584,
    "Ġreminds": 13430,
    "clut": 23149,
    "naturedly": 24840,
    "Ġdescends": 14286,
    "olstad": 7612,
    "happiest": 19331,
    "cating": 20801,
    "complexion": 14360,
    "Ġfrigate": 13080,
    "appl": 9325,
    "utting": 17984,
    "bury": 9106,
    "Ġindies": 22948,
    "Ġrotterdam": 25475,
    "istry": 22106,
    "exception": 9975,
    "clerval": 7950,
    "Ġperpendicular": 7209,
    "whew": 22863,
    "Ġbetter": 1174,
    "Ġsaxon": 25468,
    "Ġbreakers": 12053,
    "res": 2757,
    "seven": 8463,
    "staking": 21645,
    "Ġregarding": 13209,
    "boast": 23251,
    "thar": 18217,
    "oars": 9614,
    "Ġwollstonecraft": 26425,
    "Ġcaptioning": 23014,
    "bitts": 26122,
    "gam": 10095,
    "Ġunaccountable": 7886,
    "about": 3588,
    "Ġoccurring": 2791,
    "pt": 387,
    "Ġmis": 916,
    "ĠâĢľâĢĻ": 22251,
    "Ġemma": 20693,
    "historian": 25735,
    "Ġtechni": 1702,
    "buffalo": 20562,
    "Ġchis": 11748,
    "Ġgravely": 7882,
    "pemberley": 9620,
    "Ġraft": 16114,
    "such": 3083,
    "escape": 16006,
    "iny": 4294,
    "Ġmincer": 14365,
    "feels": 22503,
    "Ġmonkey": 8225,
    "Ġcollins": 2179,
    "Ġtraverse": 18892,
    "Ġlengthened": 25958,
    "Ġopening": 5045,
    "Ġvillas": 24051,
    "Ġidentical": 10434,
    "Ġinvolved": 8924,
    "boil": 18999,
    "stopping": 19348,
    "ittle": 811,
    "Ġbecomes": 6396,
    "Ġdeposited": 25484,
    ".âĢĻâĢĿ": 6739,
    "uncomfortable": 18160,
    "Ġintrusted": 21989,
    "abilities": 3235,
    "collinses": 19922,
    "Ġthey": 575,
    "Ġblessed": 6931,
    "Ġstopping": 2748,
    "turned": 7306,
    "Ġwalk": 1823,
    "Ġvow": 10246,
    "ail": 565,
    "Ġimplies": 24873,
    "Ġfruits": 17118,
    "Ġes": 8768,
    "Ġfulfil": 9550,
    "wra": 11541,
    "Ġbaronial": 23792,
    "Ġsallies": 21228,
    "mering": 12488,
    "Ġpeculiarities": 12068,
    "Ġmitigates": 3052,
    "mort": 10710,
    "Ġ22": 8278,
    "Ġhourly": 23299,
    "Ġflushed": 13020,
    "Ġverses": 17063,
    "Ġharm": 5017,
    "arson": 22745,
    "cou": 13694,
    "Ġclearing": 8239,
    "Ġadver": 5641,
    "ilar": 10215,
    "ccas": 15884,
    "Ġanno": 9667,
    "Ġsnugness": 20075,
    "Ġresort": 18563,
    "Ġabhorrence": 9052,
    "ulation": 5458,
    "tre": 8760,
    "Ġapprehended": 26091,
    "assuming": 22307,
    "bold": 17487,
    "Ġobjecting": 18896,
    "Ġjumping": 13340,
    "acute": 22592,
    "Ġsnuffed": 15071,
    "Ġvigour": 24462,
    "Ġunited": 6841,
    "stream": 15685,
    "ically": 850,
    "Ġrh": 9243,
    "antee": 22094,
    "Ġnear": 1718,
    "thy": 2933,
    "splice": 17170,
    "Ġguidance": 9416,
    "Ġsplash": 16548,
    "Ġpatagonia": 25857,
    "Ġtucked": 12390,
    "Ġcelestial": 10066,
    "Ġassert": 7120,
    "Ġdru": 8421,
    "dreaded": 25138,
    "Ġpromontory": 11939,
    "Ġchannels": 26013,
    "Ġuncivilized": 25498,
    "Ġstaying": 8283,
    "Ġhom": 9186,
    "Ġforged": 12702,
    "card": 11475,
    "Ġrustling": 24715,
    "Ġtries": 9150,
    "Ġhor": 1663,
    "Ġowned": 11874,
    "Ġfight": 5366,
    "apidated": 22334,
    "follows": 24528,
    "Ġcritics": 23443,
    "Ġtropics": 17066,
    "anish": 2615,
    "Ġmappings": 2149,
    "Ġlurch": 21552,
    "Ġequinoctial": 20531,
    "resentment": 15184,
    "Ġpret": 3033,
    "rying": 3185,
    "Ġcombination": 22855,
    "ting": 1333,
    "Ġallies": 18234,
    "Ġhangs": 11605,
    "lances": 15382,
    "Ġsilvery": 13092,
    "geons": 15978,
    "Ġsaucer": 20604,
    "jumping": 20244,
    "ibule": 13004,
    "sence": 3303,
    "Ġcreeping": 18684,
    "Ġthinks": 6169,
    "whalemen": 10431,
    "tled": 3458,
    "Ġsleeps": 10446,
    "Ġreverend": 15258,
    "attempts": 17190,
    "Ġsatirical": 26279,
    "Ġweltering": 19584,
    "Ġid": 1907,
    "Ġdamning": 19139,
    "Ġbrew": 23342,
    "nants": 17613,
    "Ġwithdraw": 16964,
    "Ġtransient": 18481,
    "Ġvancou": 22871,
    "Ġdeeper": 2083,
    "eag": 20841,
    "Ġchange": 1994,
    "Ġgregarious": 18963,
    "Ġeducation": 5128,
    "exped": 16525,
    "Ġhomeward": 9391,
    "Ġrepe": 3278,
    "Ġsecretary": 19440,
    "vered": 4829,
    "fitting": 1510,
    "wig": 17704,
    "Ġlent": 21544,
    "Ġrealism": 18984,
    "Ġaccounting": 14572,
    "Ġdynam": 3364,
    "Ġsings": 15505,
    "Ġoriginated": 24122,
    "fs": 17535,
    "pregn": 18498,
    "incl": 8109,
    "inde": 17731,
    "Ġimposs": 16616,
    "venant": 22624,
    "Ġacquiesced": 25493,
    "Ġpassive": 22838,
    "Ġsubmission": 22787,
    "Ġsecondly": 14519,
    "Ġcopies": 24935,
    "hen": 3518,
    "irmed": 9238,
    "Ġcertainly": 2495,
    "Ġcoals": 16072,
    "Ġfinanc": 23124,
    "Ġvul": 10247,
    "Ġdignified": 15596,
    "hero": 21203,
    "Ġbacks": 8528,
    "Ġrequ": 816,
    "Ġdistracted": 11801,
    "15": 12428,
    "cc": 469,
    "================================": 5671,
    "pshire": 21023,
    "Ġprom": 1526,
    "dense": 18715,
    "Ġaccost": 12842,
    "vember": 10855,
    "Ġconver": 804,
    "Ġer": 8104,
    "brought": 7285,
    "Ġespe": 21154,
    "rud": 4192,
    "Ġyojo": 7610,
    "Ġsave": 4051,
    "Ġalteration": 9545,
    "Ġrenders": 13282,
    "forecastle": 10990,
    "branch": 23577,
    "Ġlustre": 15133,
    "Ġmottled": 20677,
    "Ġmadly": 16485,
    "design": 18957,
    "Ġmention": 2985,
    "Ġexterior": 19986,
    "dread": 8728,
    "Ġbusily": 9383,
    "Ġrejoice": 10208,
    "Ġhorrors": 10479,
    "Ġimmens": 9938,
    "untering": 15774,
    "ribed": 7692,
    "Ġdut": 2987,
    "aries": 6244,
    "mou": 10708,
    "silent": 9973,
    "Ġafraid": 3530,
    "Ġberries": 13406,
    "mor": 4216,
    "Ġtwins": 16119,
    "Ġvib": 8164,
    "ashion": 3861,
    "Ġdared": 5440,
    "Ġshoes": 7071,
    "Ġconcent": 8249,
    "Ġassembled": 9235,
    "Ġturner": 7049,
    "outon": 12800,
    "Ġparametric": 2392,
    "tles": 10730,
    "stre": 5451,
    "Ġprone": 18968,
    "stained": 21652,
    "Ġspeakest": 23486,
    "Ġtypewritten": 16421,
    "Ġlogits": 3450,
    "Ġrevived": 11368,
    "Ġfro": 3472,
    "opy": 4458,
    "Ġdiction": 8794,
    "Ġqueequeg": 2012,
    "Ġporing": 21465,
    "Ġwax": 10776,
    "Ġbaw": 15567,
    "spirits": 8054,
    "Ġfordham": 21776,
    "Ġfoundations": 11073,
    "mo": 862,
    "Ġcorruption": 15224,
    "Ġconfederate": 17353,
    "Ġhedgehogs": 25394,
    "Ġfulf": 6772,
    "acknowledge": 18468,
    "Ġsuits": 22085,
    "dressed": 10695,
    "descending": 16284,
    "pits": 15412,
    "Ġsolutions": 1945,
    "isle": 13891,
    "Ġtreacherous": 13553,
    "Ġsay": 934,
    "Ġadapt": 989,
    "frank": 7757,
    "Ġearls": 18903,
    "brance": 7284,
    "Ġghost": 6142,
    "Ġsentry": 19024,
    "Ġsubl": 7235,
    "Ġgur": 21589,
    "Ġrel": 1092,
    "business": 5610,
    "Ġconnivance": 25225,
    "s": 87,
    "precip": 14664,
    "ignity": 4374,
    "pressing": 19012,
    "fitzwilliam": 11352,
    "Ġsufferings": 7513,
    "Ġsoldiers": 8686,
    "Ġfondness": 16780,
    "scar": 9815,
    "Ġthe": 270,
    "Ġingrat": 16840,
    "Ġmarching": 16699,
    "Ġaffords": 16734,
    "Ġwhen": 515,
    "Ġtarts": 10753,
    "Ġswashing": 23053,
    "ez": 5683,
    "Ġcooper": 16074,
    "Ġregularizer": 2335,
    "Ġwhirling": 12246,
    "negro": 18495,
    "worthy": 7732,
    "Ġdoublo": 6078,
    "Ġrecre": 22736,
    "Ġcherub": 23285,
    "Ġphiladel": 23883,
    "Ġdrifting": 19278,
    "presum": 12865,
    "below": 12119,
    "aguy": 21907,
    "Ġmoved": 4839,
    "Ġensure": 23686,
    "almost": 4943,
    "Ġpoised": 22587,
    "Ġbec": 1347,
    "ared": 770,
    "Ġpovelson": 26552,
    "Ġgloss": 11956,
    "Ġeaster": 15673,
    "Ġunacquainted": 12774,
    "observed": 7674,
    "entle": 1738,
    "Ġslid": 7951,
    "serv": 7451,
    "inging": 5906,
    "Ġnasty": 17442,
    "Ġcandelabra": 26602,
    "Ġomniscient": 20084,
    "Ġcontingency": 26244,
    "Ġmakes": 3652,
    "Ġblasphemy": 26115,
    "protest": 24815,
    "aking": 974,
    "Ġchinks": 22248,
    "servants": 15037,
    "Ġdepicting": 22606,
    "Ü": 157,
    "Ġdowry": 20684,
    "ologies": 18771,
    "Ġjealously": 24124,
    "Ġ3": 3986,
    "stache": 15688,
    "bow": 5424,
    "Ġstockings": 19995,
    "farm": 15350,
    "umpled": 15875,
    "Ġdomestic": 6910,
    "Ġ>": 21150,
    "Ġaudience": 24769,
    "Ġnarrative": 6215,
    "correct": 24483,
    "Ġbrook": 13045,
    "abomin": 15740,
    "Ġbeer": 10219,
    "Ġstrictest": 17042,
    "Ġfoes": 11950,
    "Ġexcellent": 4239,
    "Ġdissip": 10992,
    "dening": 22775,
    "Ġax": 7822,
    "Ġthunder": 4823,
    "cils": 20813,
    "lane": 10706,
    "wick": 5362,
    "screwed": 17187,
    "constantinople": 25507,
    "recked": 17762,
    "Ġhumble": 8551,
    "Ġsurrounds": 24231,
    "Ġtempt": 5565,
    "Ġrevolve": 19729,
    "Ġshall": 1142,
    "Ġsentence": 6187,
    "Ġbeyond": 2456,
    "days": 7687,
    "ondency": 15268,
    "gradually": 12912,
    "Ġcompunction": 18585,
    "Ġrascally": 26507,
    "spout": 7922,
    "returning": 12203,
    "attendants": 25495,
    "settled": 10506,
    "ician": 21562,
    "azed": 9398,
    "Ġrealities": 18982,
    "Ġtresses": 21174,
    "Ġshocks": 16458,
    "baby": 25515,
    "Ġmast": 2900,
    "Ġplunged": 8692,
    "Ġmedicine": 15204,
    "pil": 15408,
    "Ġinfinity": 23279,
    "Ġi": 312,
    "Ġgash": 15669,
    "Ġdouble": 4940,
    "Ġparade": 18301,
    "Ġindistinct": 17407,
    "Ġinflicted": 11365,
    "Ġoccupation": 9930,
    "gee": 15976,
    "bted": 7793,
    "Ġnature": 2535,
    "links": 20957,
    "Ġprofess": 3699,
    "Ġringbolts": 24196,
    "backs": 9390,
    "abode": 21788,
    "watch": 6118,
    "Ġgeomet": 3190,
    "howling": 18990,
    "tasted": 17687,
    "rising": 7557,
    "Ġunimpeachable": 26522,
    "Ġentered": 2844,
    "Ġdevilish": 11228,
    "Ġlazily": 11380,
    "Ġrequires": 1041,
    "feed": 9292,
    "bringing": 17166,
    "Ġdelivered": 11116,
    "specimen": 26605,
    "iscuits": 24666,
    "Ġheeded": 13402,
    "practised": 20246,
    "ask": 856,
    "imprisonment": 23760,
    "Ġfarm": 7840,
    "Ġsituation": 4071,
    "Ġfrancisco": 26064,
    "rit": 21034,
    "rating": 7808,
    "act": 785,
    "Ġhomage": 12353,
    "Ġrebounds": 25967,
    "Ġ[\"": 19929,
    "arians": 18529,
    "Ġsuperglue": 23456,
    "Ġtackle": 9512,
    "surgeon": 24214,
    "Ġcleaned": 23180,
    "Ġenvironments": 24032,
    "cen": 17502,
    "Ġsurv": 6081,
    "Ġsubmit": 11868,
    "weekly": 25684,
    "Ġvolition": 14796,
    "Ġstrikes": 13180,
    "zen": 5140,
    "esley": 17902,
    "reas": 990,
    "beef": 18526,
    "Ġinducement": 16843,
    "pretend": 24882,
    "Ġrecurred": 18976,
    "Ġcumbrous": 26432,
    "Ġendeavors": 16545,
    "floated": 24643,
    "Ġtreble": 16503,
    "urned": 9305,
    "ously": 2489,
    "Ġtheirs": 7024,
    "desire": 14474,
    "Ġspectre": 16630,
    "Ġgam": 11623,
    "Ġappetite": 12382,
    "Ġbloodless": 19338,
    "Ġwhipping": 21713,
    "description": 11094,
    "Ġlevers": 18064,
    "Ġriotous": 20543,
    "Ġthem": 639,
    "Ġtoler": 7588,
    "Ġtigris": 25759,
    "Ġdefy": 11895,
    "assure": 9269,
    "likewise": 13103,
    "Ġflaming": 8563,
    "F": 42,
    "umblings": 23927,
    "Ġhardware": 4904,
    "Ġgravel": 14101,
    "Ġpent": 17903,
    "Ġleaf": 15715,
    "fill": 15349,
    "Ġsmoking": 6429,
    "so": 891,
    "Ġdavy": 25951,
    "correspond": 13397,
    "dignity": 15344,
    "Ġlavater": 20494,
    "Ġkilled": 4955,
    "tained": 4406,
    "Ġlima": 10442,
    "Ġdepartments": 24242,
    "Ġnews": 3821,
    "Ġgamesome": 17289,
    "Ġh": 290,
    "mates": 5073,
    "Ġhooks": 14967,
    "mitted": 5213,
    "likes": 18814,
    "Ġro": 599,
    "Ġcro": 4873,
    "tic": 8390,
    "Ġthw": 21512,
    "Ġbritish": 11337,
    "Ġparticularly": 5056,
    "day": 1856,
    "Ġformerly": 7493,
    "Ġfriends": 2654,
    "ĠĠĠĠĠĠĠĠĠĠĠĠĠĠĠĠĠĠĠĠĠĠĠĠĠĠĠĠĠĠĠĠ": 2737,
    "lucases": 20209,
    "dered": 2471,
    "ogn": 2541,
    "Ġmoving": 1679,
    "oss": 10115,
    "lightning": 16551,
    "Ġtrop": 7565,
    "Ġrightly": 13062,
    "Ġobliged": 4286,
    "ged": 1512,
    "spond": 5567,
    "silenced": 24423,
    "ify": 1499,
    "lust": 15378,
    "rugged": 6849,
    "Ġpebbles": 16128,
    "Ġug": 8140,
    "shot": 2095,
    "dec": 3111,
    "Ġairth": 23315,
    "Ġhorrify": 23816,
    "Ġpooh": 18603,
    "Ġwarmer": 19184,
    "Ġcommend": 10334,
    "anite": 17837,
    "Ġrecurrent": 1801,
    "Ġide": 2122,
    "fairly": 17219,
    "Ġpours": 17911,
    "ipper": 13739,
    "Ġdes": 1249,
    "Ġtrans": 640,
    "Ġvaliant": 9799,
    "Ġshadow": 5596,
    "Ġenl": 18188,
    "Ġsphy": 18311,
    "sleeves": 26109,
    "onds": 12993,
    "Ġdey": 11674,
    "Ġsuperlative": 26074,
    "illuminated": 17452,
    "upwards": 18857,
    "obstructed": 15225,
    "Ġgathers": 24743,
    "flask": 12097,
    "subjects": 19875,
    "Ġspoutings": 14675,
    "Ġensuring": 11191,
    "Ġhorizon": 6632,
    "Ġcensus": 15095,
    "Ġsangu": 15504,
    "Ġcurves": 18864,
    "Ġfeedforward": 2323,
    "hyp": 15365,
    "Ġcampa": 17173,
    "lo": 682,
    "adays": 14012,
    "Ġxviii": 23408,
    "Ġprair": 7746,
    "Ġtradesmen": 17105,
    "ra": 314,
    "there": 1424,
    "expl": 9282,
    "deav": 2673,
    "ute": 4643,
    "Ġrude": 7234,
    "Ġpier": 7162,
    "Ġclapham": 17265,
    "Ġclam": 7416,
    "brimming": 23576,
    "kye": 20937,
    "innacle": 7519,
    "Ġrider": 24184,
    "Ġsavannah": 17415,
    "harpoone": 6107,
    "ardy": 22153,
    "Ġabund": 8864,
    "Ġprivate": 5345,
    "resolution": 17766,
    "erest": 10697,
    "Ġtechnical": 17191,
    "Ġrepublican": 17411,
    "Ġpand": 21453,
    "Ġdocumentation": 20553,
    "oam": 8751,
    "Ġanywhere": 8516,
    "scr": 16238,
    "dick": 11479,
    "ioning": 21506,
    "Ġdifferen": 936,
    "redible": 15803,
    "caps": 20806,
    "Ġhunted": 7453,
    "frost": 15105,
    "poured": 17637,
    "Ġscene": 3097,
    "Ġrapidly": 3202,
    "Ġguide": 3214,
    "Ġscotland": 6639,
    "sander": 11526,
    "Ġwintry": 17433,
    "cible": 20805,
    "Ġcome": 1239,
    "Ġelevate": 24502,
    "rically": 15417,
    "Ġdoors": 6418,
    "Ġscale": 1548,
    "Ġconsciousness": 9947,
    "Ġ123": 24468,
    "Ġattempting": 14696,
    "stein": 5505,
    "Ġmarket": 7708,
    "Ġcatching": 9477,
    "undertaking": 23786,
    "Ġterra": 13115,
    "Ġpipes": 9848,
    "Ġmeasured": 9803,
    "Ġsupremacy": 20259,
    "Ġnor": 1550,
    "Ġsized": 11562,
    "Ġdiabolical": 20341,
    "Ġflattered": 10374,
    "Ġphys": 5653,
    "Ġinsp": 2101,
    "experience": 17158,
    "Ġtrail": 16282,
    "estation": 15919,
    "Ġrind": 21969,
    "Ġgroups": 3719,
    "Ġnuptials": 20492,
    "contrivance": 26316,
    "irements": 22212,
    "shipping": 10307,
    "Ġecstasy": 11629,
    "_âĢĶâĢĿ": 20762,
    "Ġpreferment": 19852,
    "Ġwatching": 4854,
    "poling": 12217,
    "listened": 15043,
    "Ġborne": 6351,
    "Ġimmort": 19482,
    "Ġslender": 11938,
    "etian": 13958,
    "Ġreserves": 19669,
    "Ġcapst": 8595,
    "hour": 7340,
    "reliable": 21239,
    "pick": 17634,
    "Ġchannel": 26012,
    "ool": 17618,
    "Ġcrowds": 14738,
    "Ġput": 1796,
    "Ġrelu": 1047,
    "educ": 10828,
    "Ġintelligent": 1422,
    "Ġplump": 14281,
    "log": 18537,
    "Ġmachinery": 20483,
    "Ġhedge": 8363,
    "Ġbrushed": 15569,
    "Ġvillage": 5774,
    "Ġsermons": 20193,
    "Ġey": 8134,
    "sleeping": 13453,
    "Ġcertain": 1558,
    "transform": 8049,
    "fing": 13712,
    "ress": 932,
    "Ġcountenances": 11963,
    "Ġdad": 12597,
    "Ġfocused": 16341,
    "Ġparent": 14645,
    "Ġride": 12755,
    "Ġacquired": 13041,
    "Ġendeared": 26498,
    "Ġdefinition": 14404,
    "Ġpinched": 17035,
    "Ġcanals": 22159,
    "Ġaugust": 10597,
    "spirit": 11313,
    "speaking": 12096,
    "Ġstool": 14461,
    "interests": 19707,
    "Ġhish": 21911,
    "Ġtelescopes": 25690,
    "safie": 20347,
    "granting": 23412,
    "Ġchanc": 18384,
    "Ġawed": 23584,
    "Ġceti": 24773,
    "pents": 11512,
    "Ġast": 2959,
    "Ġade": 22098,
    "Ġlaud": 17967,
    "Ġcorroboration": 26053,
    "veral": 2350,
    "embra": 14075,
    "Ġbehav": 3541,
    "turn": 4292,
    "Ġconcerned": 5331,
    "ots": 3292,
    "Ġglances": 10372,
    "stay": 9680,
    "Ġannounced": 9034,
    "Ġbegg": 16251,
    "ituted": 13872,
    "Ġstyled": 24671,
    "Ġdeficient": 18825,
    "Ġaccuracy": 1055,
    "elements": 25203,
    "Ġunwelcome": 12778,
    "ı": 242,
    "Ġtakings": 20571,
    "volume": 18600,
    "Ġfolios": 23012,
    "raised": 15677,
    "Ġengravings": 15064,
    "Ġwilderness": 14839,
    "Ġspite": 4158,
    "Ġdumplings": 15189,
    "Ġaverse": 11081,
    "Ġhark": 8427,
    "Ġoff": 902,
    "admire": 24943,
    "matter": 5136,
    "Ġadditionally": 1175,
    "Ġbodily": 6106,
    "ferent": 4196,
    "Ġblasp": 14400,
    "county": 25396,
    "broke": 14775,
    "Ġprematurely": 24003,
    "Ġignominy": 15084,
    "Ġsoften": 23120,
    "lp": 898,
    "eskye": 21448,
    "Ġ30": 10511,
    "giana": 7800,
    "Ġreefed": 20301,
    "Ġshows": 8482,
    "shipmates": 11926,
    "fer": 1926,
    "Ġcruising": 6913,
    "cheeks": 23806,
    "Ġaboriginal": 14188,
    "Ġurging": 24505,
    "Ġrhine": 12354,
    "chants": 21689,
    "Ġtim": 4578,
    "trade": 19635,
    "Ġkitchen": 8495,
    "Ġextras": 22726,
    "rations": 10723,
    "Ġclay": 7019,
    "Ġimpul": 7208,
    "gus": 13724,
    "Ġsensibility": 14513,
    "tut": 15434,
    "á": 162,
    "thirty": 12759,
    "Ġquench": 22416,
    "<EOS>": 2,
    "caterpillar": 26383,
    "pleasant": 5874,
    "Ġsofas": 26223,
    "Ġxi": 16429,
    "Ġhandsome": 4906,
    "Ġvarying": 15809,
    "Ġscrape": 14917,
    "âĢĻ,": 14069,
    "Ġluck": 4880,
    "Ġath": 15800,
    "Ġxxxii": 24970,
    "kward": 6958,
    "Ġcasks": 7521,
    "ulled": 14055,
    "Ġachieve": 3674,
    "affected": 10476,
    "Ġexcepting": 14680,
    "Ġmarshal": 20218,
    "Ġdistinguishing": 16496,
    "erative": 21271,
    "Ġsnows": 14725,
    "Ġsystematically": 3793,
    "Ġequival": 4783,
    "Ġstrides": 22614,
    "imitably": 21708,
    "Ġlogs": 16346,
    "Ġgeneralization": 983,
    "Ġbre": 1911,
    "sterns": 23366,
    "Ġderbyshire": 6586,
    "Ġendangered": 16303,
    "Ġwindpipe": 23103,
    "Ġsincere": 11136,
    "umberland": 16837,
    "Ġche": 1763,
    "rigible": 24931,
    "Ġconscience": 6929,
    "intimate": 22934,
    "hush": 20905,
    "asc": 6386,
    "Ġimped": 18443,
    "sme": 17658,
    "akened": 7415,
    "fallen": 19658,
    "Ġappo": 8498,
    "Ġfejee": 18354,
    "mountains": 15179,
    "overed": 2852,
    "Ġwindward": 6885,
    "nantucketer": 24972,
    "reflected": 24733,
    "Ġgretna": 26468,
    "Ġominous": 12422,
    "Ġblanc": 11065,
    "gast": 20870,
    "Ġsacrifice": 9555,
    "chronicle": 26480,
    "women": 15456,
    "alarm": 15625,
    "expressed": 9041,
    "iced": 3903,
    "Ġbrimstone": 25686,
    "Ġwayward": 22868,
    "Ġpitied": 14691,
    "Ġretiring": 16280,
    "Ġextremities": 19194,
    "second": 6543,
    "Ġdriven": 6198,
    "Ġdipping": 15590,
    "ingham": 21299,
    "Ġentranced": 25833,
    "Ġwrap": 24594,
    "enances": 10153,
    "Ġruins": 16157,
    "rock": 15639,
    "Ġshetland": 22156,
    "Ġshrill": 12139,
    "uncontrollable": 20594,
    "rable": 11631,
    "Ġdarkness": 4278,
    "Ġarrival": 4731,
    "Ġmaid": 5285,
    "Ġconsumed": 10349,
    "Ġimposed": 14215,
    "Ġunwaning": 25170,
    "provid": 11149,
    "Ġwithout": 1118,
    "Ġiron": 3234,
    "Ġperceiving": 8875,
    "yingly": 23057,
    "Ġoffence": 12942,
    "reject": 21235,
    "cottagers": 20046,
    "Ġwind": 1434,
    "Ġsheep": 10926,
    "sharp": 10306,
    "Ġbadge": 16683,
    "Ġarmchair": 8270,
    "Ġrapt": 7225,
    "pardonable": 17217,
    "Ġcards": 7580,
    "how": 1647,
    "shore": 10305,
    "Ġlashings": 25097,
    "pleas": 3854,
    "Ġregularity": 22776,
    "Ġinterposed": 20617,
    "Ġworthless": 19564,
    "Ġ75": 19611,
    "Ġsufferable": 16259,
    ").": 1268,
    "Ġcopying": 17068,
    "turtle": 12209,
    "Ġgradu": 15831,
    "Ġthreads": 13116,
    "Ġshiver": 12764,
    "î": 175,
    "Ġberg": 24536,
    "Ġoccupy": 14730,
    "Ġstrategies": 1836,
    "robustness": 26338,
    "Ġsub": 951,
    "Ġwickham": 2204,
    "Ġdial": 10810,
    "Ġradiant": 16809,
    "irregular": 21908,
    "Ġchoked": 9263,
    "ening": 3104,
    "Ġepicures": 25880,
    "Ġfem": 6134,
    "further": 7535,
    "icked": 10332,
    "twill": 21073,
    "trick": 19411,
    "surf": 24212,
    "Ġfacial": 10605,
    "abs": 11666,
    "Ġearnest": 3932,
    "Ġcurds": 23025,
    "quarters": 24946,
    "Ġsashes": 21224,
    "Ġimpersonal": 17395,
    "Ġlowly": 11121,
    "Ġwashed": 15763,
    "Ġbeheaded": 11655,
    "Ġredoubled": 23751,
    "regulated": 23466,
    "Ġdrab": 13069,
    "mat": 2197,
    "Ġresting": 7961,
    "Ġcomprehension": 15085,
    "Ġlaying": 7907,
    "iture": 5696,
    "Ġbale": 7838,
    "Ġworld": 1598,
    ".âĢĶ": 4249,
    "Ġbidirectional": 3757,
    "aced": 2404,
    "Ġmississ": 18838,
    "Ġadmitted": 8986,
    "Ġfedallah": 6108,
    "Ġsuperb": 16445,
    "Ġbern": 17858,
    "ersman": 11700,
    "Ġcapting": 23013,
    "Ġrespect": 1670,
    "Ġweariness": 19793,
    "Ġfrenchman": 11283,
    "Ġaugment": 8691,
    "Ġheap": 12675,
    "astron": 22166,
    "ensical": 18567,
    "Ġcomplet": 4423,
    "girdling": 26389,
    "performed": 18345,
    "Ġofficio": 23813,
    "ium": 4864,
    "Ġloomed": 12299,
    "Ġsource": 6805,
    "dation": 2612,
    "agon": 7870,
    "18": 20750,
    "peddling": 24696,
    "Ġivory": 4477,
    "Ġturning": 3323,
    "Ġtamely": 24977,
    "generative": 4330,
    "Ġdeftly": 26493,
    "Ġtwentieth": 18659,
    "gaining": 20122,
    "cl": 1493,
    "Ġencompassed": 15252,
    "Ġlodges": 19498,
    "Ġintimidated": 24805,
    "err": 1140,
    "Ġpupp": 10820,
    "pipe": 8696,
    "Ġ98": 24593,
    "Ġmarvel": 23032,
    "atum": 21258,
    "inclination": 20056,
    "jet": 13741,
    ";âĢĻ": 15301,
    "obst": 11930,
    "Ġbelf": 21379,
    "Ġconfiding": 19035,
    "Ġmodels": 748,
    "Ġbeads": 18083,
    "Ġbarren": 11206,
    "claims": 25319,
    "Ġsolomon": 11052,
    "nourished": 26398,
    "Ġdr": 2823,
    "Ġhyena": 24519,
    "ste": 3586,
    "wid": 10134,
    "Ġlegs": 4916,
    "ios": 2524,
    "Ġinstigated": 18698,
    "placed": 7879,
    "Ġyoungest": 7953,
    "chari": 21686,
    "Ġbred": 9169,
    "narrative": 17318,
    "Ġple": 1469,
    "Ġwhisky": 23931,
    "Ġoh": 2174,
    "represented": 20194,
    "Ġguest": 7249,
    "murderers": 25728,
    "Ġmorbidness": 20627,
    "Ġmorose": 18842,
    "venge": 4659,
    "uated": 10131,
    "loss": 22505,
    "Ġfaintest": 24569,
    "Ġblank": 5950,
    "Ġunrest": 11712,
    "Ġfallen": 5967,
    "Ġkidn": 20204,
    "aven": 8208,
    "ager": 6546,
    "Ġgrievances": 20647,
    "englishman": 23675,
    "Ġdella": 21437,
    "Ġinstrument": 7118,
    "Ġcucumber": 21354,
    "Ġrele": 2916,
    "Ġextra": 4055,
    "bermaid": 20789,
    "dozen": 23376,
    "Ġcourage": 4634,
    "Ġimpo": 3442,
    "Ġamericans": 14742,
    "Ġfoliage": 18860,
    "Ġimagined": 8606,
    "urities": 18049,
    "leton": 5148,
    "risonment": 17374,
    "Ġstruggling": 12072,
    "Ġplaguy": 22601,
    "augment": 18829,
    "aggoo": 5130,
    "always": 5708,
    "Ġconsented": 11295,
    "irts": 9237,
    "ĠĠĠĠĠĠĠĠĠĠĠĠĠĠĠĠĠĠĠĠĠĠĠĠ": 5321,
    "Ġlow": 1650,
    "Ġprivileged": 20111,
    "rible": 3226,
    "Ġexpedite": 24953,
    "Ġaccumulation": 2691,
    "Ġchemist": 11134,
    "adjust": 21757,
    "iciously": 17973,
    "aciousness": 18606,
    "Ġvisible": 4777,
    "ese": 4444,
    "Ġlatterly": 24084,
    "Ġenveloping": 19733,
    "Ġsuggestions": 24453,
    "Ġpossesses": 19350,
    "Ġmisgiv": 14342,
    "finding": 17013,
    "Ġthither": 6821,
    "Ġoil": 3372,
    "Ġmansfield": 25938,
    "Ġfinest": 10392,
    "Ġfaint": 5811,
    "Ġloops": 8852,
    "Ġcem": 17823,
    "mess": 13752,
    "Ġstar": 6022,
    "Ġexpost": 18625,
    "Ġassoc": 6402,
    "Ġfanc": 6743,
    "Ġenabling": 1077,
    "Ġseparation": 11248,
    "¨": 106,
    "Ġtragedies": 25241,
    "Ġmak": 10778,
    "Ġlapl": 19776,
    "Ġpredefined": 20717,
    "Ġshed": 8180,
    "Ġactionable": 24559,
    "Ġregard": 3067,
    "Ġterminated": 23509,
    "ollion": 19714,
    "Ġtobacc": 7852,
    "Ġmagnifying": 16320,
    "Ġjustine": 4970,
    "ifford": 15782,
    "Ġdeception": 18142,
    "ashions": 16417,
    "Ġcorn": 9349,
    "bab": 11468,
    "human": 7088,
    "Ġfluctu": 5267,
    "scorn": 22981,
    "piteous": 21032,
    "sisters": 13375,
    "brimmed": 14588,
    "surpr": 5996,
    "Ġsensitivity": 3069,
    "Ġoutrageous": 20609,
    "Ġinject": 2710,
    "Ġfrance": 7681,
    ",": 16,
    "Ġstandard": 14496,
    "Ġbulldog": 23857,
    "asht": 4084,
    "Ġsugg": 4500,
    "ciousness": 20816,
    "aps": 1227,
    "Ġint": 409,
    "Ġcomb": 1068,
    "Ġsands": 14947,
    "Ġfonder": 17880,
    "georgiana": 26020,
    "Ġclosing": 11772,
    "object": 6884,
    "Ġcomra": 7183,
    "Ġrome": 12153,
    "Ġtask": 1311,
    "binnacle": 20786,
    "frightened": 17195,
    "anzas": 17840,
    "Ġsustaining": 25333,
    "prehens": 9288,
    "Ġeither": 2602,
    "Ġgratified": 8021,
    "Ġfortresses": 23620,
    "Ġgrotes": 19562,
    "Ġhan": 15616,
    "Ġproc": 5545,
    "Ġlimit": 10443,
    "Ġpurposely": 10444,
    "Ġaudacity": 19881,
    "bowed": 10683,
    "Ġservice": 6471,
    "Ġdespised": 14666,
    "Ġlaure": 16909,
    "Ġbrightness": 16576,
    "Ġfoiled": 23244,
    "Ġwealth": 7620,
    "Ġchiswick": 25560,
    "viii": 12019,
    "expressive": 24305,
    "emberley": 4173,
    "Ġspot": 4157,
    "Ġmeetings": 16532,
    "Ġdisquiet": 18552,
    "Ġcoin": 9770,
    "Ġcock": 10999,
    "ħ": 232,
    "however": 4373,
    "mathemat": 19137,
    "Ġworship": 10366,
    "Ġdeserted": 8636,
    "Ġfang": 21401,
    "Ġauthority": 7748,
    "Ġrelaxed": 12980,
    "Ġprodig": 6027,
    "Ġdiv": 3732,
    "Ġtattoo": 7359,
    "Ġsepar": 4001,
    "ogy": 22704,
    "Ġbro": 1430,
    "Ġchristians": 13307,
    "Ġswash": 23052,
    "Ġtelling": 5747,
    "Ġcustomary": 8669,
    "Ġoutset": 15954,
    "Ġmisunderstand": 18702,
    "Ġbernard": 20683,
    "Ġpropagating": 20632,
    "Ġsymbols": 2795,
    "cook": 8269,
    "gypt": 8260,
    "Ġactions": 6278,
    "eat": 11482,
    "staring": 18020,
    "Ġhearses": 20058,
    "Ġinclination": 6623,
    "Ġkentuckian": 26342,
    "injury": 25213,
    "bethink": 25744,
    "Ġstaving": 21737,
    "recollection": 25348,
    "Ô": 149,
    "adamite": 20591,
    "Ġfortunes": 12176,
    "Ġblaming": 22927,
    "desperate": 17351,
    "Ġdrought": 19277,
    "Ġbanished": 10616,
    "ilty": 6394,
    "Ġselfishness": 12287,
    "pers": 4336,
    "Ġothers": 2580,
    "gems": 20883,
    "Ġdelightfully": 13157,
    "knowing": 10437,
    "Ġcrash": 12000,
    "girl": 12316,
    "Ġwinding": 8235,
    "Ġhabitual": 24790,
    "Ġschools": 9476,
    "guarded": 13293,
    "Ġnormalization": 1241,
    "Ġgreyish": 24208,
    "gloves": 25143,
    "Ġcounted": 12137,
    "education": 20300,
    "Ġapt": 9155,
    "anywhere": 14682,
    "ms": 535,
    "Ġbenefactor": 14697,
    "Ġfilters": 3930,
    "orted": 4603,
    "mown": 20969,
    "several": 5544,
    "Ġjetted": 24431,
    "foolish": 12345,
    "invariably": 26416,
    "Ġcampaign": 20660,
    "Ġimproving": 1210,
    "Ġash": 4832,
    "Ġrecede": 25968,
    "Ġproport": 2293,
    "into": 3681,
    "marrying": 19546,
    "Ġdreams": 7496,
    "°": 113,
    "Ġsmothe": 18573,
    "ional": 1080,
    "upper": 11538,
    "Ġdistrusted": 13541,
    "vapor": 25755,
    "Ġcaved": 21351,
    "Ġquiet": 3259,
    "image": 9685,
    "tstone": 21083,
    "Ġwert": 12553,
    "1": 21,
    "carefully": 13367,
    "ousness": 10274,
    "Ġfir": 17877,
    "Ġclosed": 4605,
    "all": 485,
    "Ġversion": 10629,
    "Ġgriev": 16634,
    "Ġsanguine": 25928,
    "ernation": 8211,
    "Ġintercourse": 10998,
    "feature": 4359,
    "let": 2731,
    "Ġhaught": 10252,
    "Ġconsumm": 15153,
    "tie": 21067,
    "stove": 21649,
    "mouth": 9130,
    "Ġfirmest": 16664,
    "fins": 13718,
    "sies": 21053,
    "burned": 25079,
    "Ġfinery": 23122,
    "Ġconsider": 2566,
    "Ġdepartment": 24241,
    "rosc": 17954,
    "Ġhauled": 11692,
    "Ġstaggering": 20272,
    "Ġflorida": 20658,
    "itous": 13866,
    "Ġmorals": 22967,
    "Ġsorts": 6887,
    "flutter": 23968,
    "Ġuntoward": 19164,
    "Ġhosts": 19937,
    "Ġaust": 4871,
    "bag": 7542,
    "revenge": 13841,
    "Ġimperfectly": 25727,
    "Ġduplicity": 25331,
    "istical": 8489,
    "Ġgospel": 18000,
    "Ġpeg": 22686,
    "iline": 21718,
    "Ġwhip": 8451,
    "Ġunforgiving": 25995,
    "Ġextravagance": 17279,
    "Ġdisinclined": 22526,
    "racts": 14356,
    "Ġimputable": 22170,
    "Ġmankind": 6698,
    "dear": 6555,
    "books": 8663,
    "begins": 18528,
    "Ġbecher": 18878,
    "Ġdiverted": 14592,
    "Ġtattooings": 24900,
    "Ġbellies": 13354,
    "jep": 20925,
    "owder": 8448,
    "Ġaversion": 18859,
    "sne": 10124,
    "happening": 16563,
    "fast": 3071,
    "ulgent": 18149,
    "Ġjourneying": 25565,
    "Ġsickening": 19603,
    "Ġwilling": 7421,
    "oot": 13764,
    "eel": 11483,
    "drown": 13703,
    "I": 45,
    "Ġciv": 3305,
    "Ġhandles": 22692,
    "Ġprevention": 16090,
    "Ġsubtle": 6716,
    "Ġobsolete": 26558,
    "Ġpot": 2989,
    "Ġcor": 1323,
    "Ġguido": 2975,
    "Ġcounsel": 13614,
    "portent": 25412,
    "tically": 3392,
    "ld": 385,
    "Ġsurvive": 9066,
    "Ġpaddle": 20057,
    "ezes": 9990,
    "Ġdiscovering": 13356,
    "Ġmott": 17803,
    "Ġ117": 19696,
    "Ġkills": 15905,
    "Ġunite": 9253,
    "reel": 21232,
    "Ġcaress": 16339,
    "Ġoak": 6128,
    "Ġveracity": 23887,
    "ison": 3075,
    "Ġcultured": 25154,
    "Ġexhausting": 24710,
    "Ġ109": 24416,
    "Ġvariation": 22662,
    "Ġprevail": 13441,
    "felicity": 25140,
    "untary": 9866,
    "Ġreplen": 11115,
    "Ġtwo": 1044,
    "surprise": 9529,
    "Ġexpensive": 12915,
    "Ġcomply": 8890,
    "Ġcoal": 18589,
    "mistake": 24529,
    "itives": 17819,
    "Ġtolerable": 6949,
    "Ġallude": 12768,
    "moored": 22701,
    "Ġleviathanic": 12078,
    "Ġgenus": 24429,
    "Ġmemorand": 23403,
    "Ġbeside": 5192,
    "athies": 22697,
    "Ġslighter": 18939,
    "belais": 24036,
    "Ġdiverse": 19207,
    "Ġther": 17778,
    "Ġjane": 1757,
    "Ġpit": 3420,
    "simply": 20669,
    "ils": 3181,
    "Ġobservation": 6597,
    "Ġconvolutional": 2162,
    "ĠĠĠĠĠĠ": 6414,
    "dwell": 15340,
    "Ġbumpkins": 25281,
    "Ġrecklessly": 16983,
    "pedest": 24695,
    "startled": 24941,
    "igate": 8822,
    "lipped": 16216,
    "quired": 21846,
    "Ġpassers": 18757,
    "Ġaband": 6561,
    "Ġsucking": 12785,
    "Ġloitered": 26525,
    "inaw": 21182,
    "Ġdeliver": 9846,
    "raved": 18012,
    "Ġimaginary": 11186,
    "Ġanchored": 17439,
    "Ġdwell": 5812,
    "Ġsteepest": 3088,
    "Ġtruce": 24115,
    "official": 24914,
    "avings": 12021,
    "Ġcarriages": 11098,
    "repeated": 12337,
    "Ġwarring": 16865,
    "Ġringleader": 26212,
    "Ġpensive": 21473,
    "sub": 4660,
    "Ġdoubloon": 6945,
    "Ġmapple": 11150,
    "Ġfinding": 3263,
    "buff": 15317,
    "Ġalow": 18099,
    "pling": 8474,
    "Ġapproximates": 2415,
    "Ġchagrin": 20606,
    "stave": 21646,
    "Ġhoof": 23351,
    "prior": 21031,
    "Ġfifth": 11257,
    "close": 9985,
    "deal": 12796,
    "Ġblackstone": 23387,
    "Ġhousekeeping": 18943,
    "Ġelsewhere": 7712,
    "Ġleaned": 7604,
    "Ġhieroglyph": 11969,
    "savor": 25024,
    "ntax": 935,
    "servant": 15035,
    "Ġcemeteries": 26375,
    "Ġwears": 10240,
    "acle": 4716,
    "Ġreceiving": 4882,
    "<": 32,
    "Ġpuppy": 12403,
    "Ġmir": 9646,
    "Ġascertain": 9705,
    "Ġinsects": 25646,
    "Ġcrust": 21349,
    "Ġgas": 8132,
    "Ġmasters": 11574,
    "incom": 21180,
    "Ġnaut": 13940,
    "Ġknows": 4162,
    "Ġacquies": 11097,
    "Ġabsent": 7014,
    "Ġmule": 13861,
    "sides": 12505,
    "ner": 1370,
    "glings": 23849,
    "Ġseason": 5238,
    "infallibly": 26417,
    "Ġcontribut": 12856,
    "inked": 12910,
    "iet": 1774,
    "jee": 17579,
    "Ġspecific": 2002,
    "Ġintervened": 25481,
    "ather": 739,
    "Ġaccounted": 10294,
    "hello": 13362,
    "Ġsoles": 22079,
    "Ġmouth": 3179,
    "Ġlain": 17961,
    "unfearing": 21889,
    "Ġgorge": 13565,
    "Ġconjunction": 25100,
    "Ġaquiline": 26159,
    "Ġranks": 21972,
    "Ġapparelled": 20435,
    "Ġauger": 21202,
    "tern": 4225,
    "Ġqu": 605,
    "Ġrelentless": 26277,
    "Ġwickedness": 9525,
    "copper": 19187,
    "Ġconc": 1838,
    "drovand": 24760,
    "Ġbag": 5699,
    "Ġcemet": 20679,
    "Ġintruder": 25991,
    "Ġoverhung": 15968,
    "russian": 22180,
    "admirably": 24944,
    "Ġraven": 16113,
    "Ġverse": 16602,
    "k": 79,
    "8": 28,
    "doesn": 19819,
    "Ġdisposed": 7083,
    "Ġpossible": 2582,
    "instantly": 7506,
    "Ġfootsteps": 16572,
    "allers": 22194,
    "Ġexecuted": 9471,
    "Ó": 148,
    "swelled": 19609,
    "Ġnineveh": 13388,
    "if": 376,
    "mist": 5686,
    "bies": 15311,
    "bered": 4505,
    "tossed": 10996,
    "Ġdripping": 13146,
    "Ġyawn": 7609,
    "Ġroads": 13287,
    "Ġwavering": 23277,
    "sue": 2076,
    "Ġclink": 22355,
    "¥": 103,
    "Ġtube": 15003,
    "Ġservices": 11217,
    "Ġphaet": 16317,
    "Ġgrassy": 24379,
    "Ġlim": 2377,
    "expanded": 23664,
    "Ġgeneral": 1860,
    "stripped": 16945,
    "Ġanvil": 11596,
    "Ġabed": 22262,
    "Ġauthorities": 11264,
    "Ġcommunion": 19007,
    "unders": 13309,
    "bour": 2072,
    "Ġprocedures": 9411,
    "Ġplainpalais": 20736,
    "vable": 10132,
    "Ġanyhow": 14254,
    "Ġ(âĢľ": 15994,
    "master": 5687,
    "paws": 21028,
    "Ġwithdrawn": 10606,
    "Ġdespise": 14665,
    "Ġhiss": 15786,
    "Ġimplement": 3326,
    "Ġruinous": 24633,
    "Ġthen": 665,
    "ase": 1158,
    "Ġhatchways": 24987,
    "Ġtongues": 14862,
    "Ġarrangements": 16515,
    "Ġbohemia": 10649,
    "Ġscarcity": 23824,
    "Ġunceasingly": 20357,
    "Ġcoincidences": 26363,
    "Ġinsince": 23677,
    "Ġpartners": 11851,
    "Ġspades": 12793,
    "yn": 7819,
    "due": 22407,
    "corpse": 24486,
    "pushed": 21022,
    "Ġmaw": 15538,
    "died": 10693,
    "Ġtelegra": 11889,
    "Ġjungfrau": 15247,
    "Ġphotograph": 6302,
    "Ġresolute": 19244,
    "Ġmutable": 23952,
    "Ġdemean": 12720,
    "interesting": 12199,
    "brown": 15316,
    "instinctively": 26327,
    "meryton": 10111,
    "aft": 9583,
    "Ġdisputes": 25825,
    "Ġextremely": 2668,
    "rig": 7556,
    "use": 2532,
    "jonah": 11496,
    "Ġcentral": 7727,
    "Ġfrog": 23918,
    "Ġseen": 1366,
    "make": 5793,
    "possibly": 10543,
    "Ġlighted": 7063,
    "Ġnerve": 16340,
    "Ġepaulets": 24905,
    "thed": 8826,
    "sartain": 25622,
    "aware": 16294,
    "Ġsobbed": 14134,
    "Ġlvi": 21550,
    "Ġsour": 21215,
    "Ġselected": 9709,
    "Ġgrasshopper": 24380,
    "telescope": 26562,
    "Ġgamming": 25542,
    "Ġemployer": 19430,
    "Ġsmoked": 10322,
    "Ġfidgeted": 25889,
    "Ġinto": 648,
    "othic": 16215,
    "expound": 23662,
    "tempted": 26403,
    "fork": 20856,
    "Ġiceland": 15145,
    "Ġensl": 19273,
    "Ġbankrupt": 16796,
    "Ġunlucky": 10049,
    "recollect": 17223,
    "gain": 8736,
    "Ġmarshalled": 25315,
    "unted": 6998,
    "Ġargue": 16783,
    "Ġtour": 9147,
    "Ġernest": 8716,
    "Ġsecurely": 16802,
    "Ġhatchet": 16529,
    "ifts": 12732,
    "Ġcrowder": 19454,
    "ato": 17769,
    "Ġpartake": 18670,
    "american": 11400,
    "Ġsemicircle": 26067,
    "ensation": 22542,
    "Ġfast": 1717,
    "cas": 20793,
    "Ġisland": 4048,
    "Ġsedentary": 25430,
    "ated": 722,
    "Ġspreading": 13377,
    "Ġcollection": 8221,
    "lim": 9606,
    "Ġrouse": 15821,
    "Ġlivery": 15998,
    "declaration": 25175,
    "Ġdiversity": 25284,
    "ă": 196,
    "Ġpostp": 12141,
    "Ġmeant": 3551,
    "Ġwhite": 1537,
    "Ġleviathan": 3286,
    "Ġsky": 3971,
    "Ġspectators": 19405,
    "Ġpass": 1040,
    "Ġflukes": 5266,
    "Ġgame": 3629,
    "excuse": 13380,
    "Ġgenuine": 14884,
    "Ġstark": 7390,
    "Ġhelm": 5275,
    "Ġgloried": 22977,
    "rippling": 24714,
    "Ġethiopian": 26613,
    "Ġtashtego": 4487,
    "Ġimpro": 909,
    "caroline": 24148,
    "Ġphysiognomical": 25611,
    "disguise": 26306,
    "Ġcursed": 6730,
    "Ġcrib": 21346,
    "Ġbenevol": 5961,
    "serpent": 16291,
    "Ġfilm": 23922,
    "ggling": 19096,
    "Ġbehavioral": 11396,
    "orting": 9734,
    "tawny": 26404,
    "chard": 21684,
    "Ġaffliction": 25844,
    "rip": 9240,
    "joined": 13274,
    "Ġbleached": 24396,
    "letter": 6201,
    "Ġnorm": 762,
    "Ġpollard": 20384,
    "joice": 9602,
    "Ġfounder": 17883,
    "lant": 20946,
    "Ġhumour": 7931,
    "ĠâĢĶ_": 3459,
    "rad": 2252,
    "Ġsitu": 3496,
    "Ġmince": 22828,
    "Ġwont": 9851,
    "respond": 12541,
    "handsome": 13175,
    "Ġdraughts": 20220,
    "egyptians": 25898,
    "present": 1135,
    "Ġcheck": 7271,
    "Ġrespond": 11176,
    "ugl": 23287,
    "Ġcrouching": 23442,
    "osite": 4893,
    "believed": 9932,
    "Ġperiodically": 19493,
    "etics": 21578,
    "Ġrejoicing": 13420,
    "Ġne": 389,
    "Ġtrespass": 23599,
    "poison": 14391,
    "Ġwar": 5526,
    "Ġgall": 4351,
    "Ġproceeding": 9905,
    "Ġintroduction": 8970,
    "Ġfacet": 15583,
    "Ġcab": 2634,
    "seventh": 12711,
    "urean": 18123,
    "lonely": 20956,
    "shaven": 18487,
    "edmund": 17945,
    "Ġbounty": 26437,
    "Ġworse": 4719,
    "Ġacquiesce": 20328,
    "Ġunjustifiable": 25109,
    "Ġpenetration": 19916,
    "brave": 19822,
    "eral": 9159,
    "Ġener": 10896,
    "Ġear": 1421,
    "Ġclimes": 12841,
    "Ġslippery": 12164,
    "irth": 5634,
    "ineff": 21963,
    "groom": 8739,
    "Ġ111": 24436,
    "shoulder": 16583,
    "Ġsne": 6372,
    "Ġhig": 755,
    "Ġvariance": 1166,
    "Ġsaw": 1348,
    "Ġgold": 3276,
    "Ġcounsell": 25384,
    "Ġlucifers": 16588,
    "ugging": 23288,
    "Ġmilitary": 11258,
    "Ġloom": 7628,
    "Ġsorely": 17256,
    "Ġclaimed": 14205,
    "puted": 8845,
    "Ġfavour": 3642,
    "Ġdataset": 12816,
    "Ġexponentiating": 3446,
    "Ġbegging": 11080,
    "Ġfrighten": 13277,
    "okes": 9276,
    "ledge": 1329,
    "breaths": 25336,
    "Ġportly": 14678,
    "vering": 15714,
    "Ġshoots": 14568,
    "Ġproducts": 5198,
    "Ġinnovative": 1623,
    "Ġemble": 13970,
    "onstrate": 17768,
    "Ġtunnels": 24620,
    "Ġbible": 9319,
    "boscombe": 26121,
    "Ġsplitting": 4384,
    "Ġfootfalls": 25866,
    "Ġabsolut": 3913,
    "Ġcursory": 18867,
    "Ġenduring": 16302,
    "Ġsus": 18279,
    "Ġdecidedly": 9508,
    "Ġmysteries": 11322,
    "Ġcracks": 12018,
    "collins": 6916,
    "trowsers": 17691,
    "Ġbeast": 7179,
    "Ġpry": 11599,
    "extreme": 11028,
    "ton": 1727,
    "immedi": 8450,
    "singing": 24363,
    "Ġunprotected": 22064,
    "Ġswelled": 11087,
    "reading": 12077,
    "assertion": 22308,
    "ate": 421,
    "franch": 24284,
    "Ġabsorbed": 12329,
    "G": 43,
    "decided": 13214,
    "Ġcharmingly": 24221,
    "requent": 3650,
    "ara": 12603,
    "Ġfidelity": 15240,
    "car": 4213,
    "âĢľâĢĻ": 10221,
    "Ġwashington": 17202,
    "Ġscand": 7203,
    "physiogn": 26264,
    "Ġdifficult": 3573,
    "us": 532,
    "aning": 2249,
    "sense": 11523,
    "sip": 10725,
    "Ġdifferently": 10388,
    "Ġhuggins": 24828,
    "Ġerred": 21155,
    "Ġunwound": 25169,
    "accomplished": 17211,
    "ouncing": 8494,
    "Ġsupported": 9817,
    "Ġced": 10784,
    "Ġterm": 2263,
    "Ġsignature": 16493,
    "Ġprincipal": 6496,
    "Ġfurlong": 18739,
    "clever": 20812,
    "oran": 8788,
    "tem": 6369,
    "afternoon": 13186,
    "Ġvoyager": 16512,
    "rages": 15679,
    "Ġlonging": 14298,
    "year": 11095,
    "Ġsubmerged": 11870,
    "Ġequals": 4727,
    "Ġcounters": 24139,
    "Ġtossed": 5815,
    "attoo": 6807,
    "Ġdisappears": 18560,
    "Ġnorth": 4319,
    "Ġadopted": 15177,
    "Ġseam": 3911,
    "Ġmazes": 25940,
    "Ġslipper": 24265,
    "ian": 1235,
    "Ġburglar": 17354,
    "Ġpremises": 10487,
    "Ġirresistible": 13111,
    "Ġneutral": 12738,
    "Ġrests": 13091,
    "Ġcommunicate": 10577,
    "dashing": 20835,
    "Ġaver": 1285,
    "Ġdistributing": 22676,
    "owers": 12681,
    "Ġemploying": 23975,
    "through": 4024,
    "cloud": 11105,
    "Ġyounger": 5252,
    "Ġmart": 10779,
    "Ò": 147,
    "Ġweather": 3998,
    "Ġtract": 21164,
    "Ġunh": 9252,
    "Ġaffectionate": 5585,
    "Ġdistinction": 8885,
    "Ġamerica": 6763,
    "Ġspeeches": 22660,
    "Ġtesting": 23200,
    "Ġgoethe": 22421,
    "Ġfishers": 19352,
    "bowing": 24454,
    "Ġinexperienced": 26100,
    "ount": 1111,
    "Ġgrop": 12661,
    "Ġconfl": 11137,
    "government": 25406,
    "Ġcalms": 23038,
    "Ġfidget": 15188,
    "Ġcaulking": 20292,
    "Ġowner": 8921,
    "Ġdeduce": 8336,
    "Ġtrifle": 10601,
    "Ġresolutely": 14609,
    "Ġmitig": 1335,
    "cked": 2760,
    "Ġcombined": 8548,
    "Ġdense": 8122,
    "yards": 9623,
    "parted": 21015,
    "shows": 22443,
    "Ġenormousness": 24515,
    "Ġeffusions": 18515,
    "robe": 15640,
    "Ġbleeding": 14879,
    "Ġpointing": 5661,
    "Ġcollinses": 19129,
    "Ġdanish": 21429,
    "Ġconsolation": 6208,
    "Ġmy": 411,
    "Ġlingering": 11379,
    "Ġextinct": 14329,
    "Ġcustom": 5078,
    "Ĩ": 233,
    "Ġlick": 21547,
    "Ġterrific": 6754,
    "rudently": 16710,
    "Ġgravity": 9247,
    "inconsiderable": 21190,
    "pence": 15409,
    "Ġrambles": 17184,
    "Ġslumbers": 18941,
    "Ġfurnace": 19438,
    "nels": 12493,
    "Ġastonishment": 4794,
    "?_âĢĿ": 12314,
    "Ġboarded": 13232,
    "Ġcreativity": 2765,
    "float": 19804,
    "atre": 17770,
    "Ġcostume": 16495,
    "Ġundesired": 12777,
    "Ġelegance": 11332,
    "Ġbingleys": 18995,
    "marks": 7346,
    "bergen": 14326,
    "etime": 12656,
    "Ġproprietors": 20185,
    "Ġanticipated": 13510,
    "mindful": 19598,
    "quin": 21844,
    "Ġforlorn": 14014,
    "trunk": 23945,
    "iac": 6225,
    "Ġwasting": 12725,
    "Ġvaults": 17153,
    "ä": 165,
    "Ġwarrant": 17794,
    "Ġcha": 6853,
    "Ġdepicted": 14283,
    "Ġstation": 5297,
    "erpillar": 5797,
    "Ġattempted": 8000,
    "Ġundulated": 19515,
    "fold": 7546,
    "Ġjan": 11760,
    "Ġshaded": 14104,
    "Ġbandaged": 16842,
    "city": 15326,
    "Ġhearsed": 25039,
    "calmed": 16202,
    "Ġsequences": 1751,
    "alongside": 19788,
    "Ġshoals": 13133,
    "Ġpresto": 22227,
    "oyed": 14363,
    "Ġcapstan": 9098,
    "Ġregards": 16076,
    "Ġprinciples": 10010,
    "skeleton": 17375,
    "Ġpiratical": 24801,
    "Ġnoises": 18374,
    "introduction": 15122,
    "Ġgenerations": 10964,
    "Ġplaster": 16082,
    "failed": 20862,
    "Ġheavier": 13099,
    "bur": 4687,
    "Ġclings": 15971,
    "dropped": 12260,
    "sentimental": 25681,
    "Ġtren": 17721,
    "Ġgoverned": 23570,
    "Ġoverhear": 15969,
    "Ġoughts": 23898,
    "ĠâĢĶâĢľ_": 17718,
    "achalot": 15862,
    "Ġmanner": 2193,
    "Ġvoid": 14085,
    "itudes": 3014,
    "Ġmisery": 3816,
    "Ġcomm": 837,
    "Ġconvincing": 19307,
    "Ġcurls": 23023,
    "Ġdifficulty": 5770,
    "hess": 4747,
    "Ġcoinc": 11001,
    "Ġbelieving": 8224,
    "<MASK>": 4,
    "Ġblush": 14401,
    "Ġhumorously": 18777,
    "Ġescorted": 23506,
    "Ġtapering": 8770,
    "Ġrokovoko": 22403,
    "Ġextremest": 19193,
    "Ġimmovable": 15891,
    "ientious": 11689,
    "snatched": 24850,
    "Ġsell": 7825,
    "knives": 14912,
    "Ġpowdered": 24237,
    "Ġtilted": 20411,
    "Ġafrica": 12343,
    "Ġdisguises": 25055,
    "Ġbottom": 3675,
    "Ġretrogression": 26581,
    "ruct": 690,
    "Ġpoints": 5248,
    "Ġinsert": 19904,
    "Ġ57": 24325,
    "Ġadvancing": 6878,
    "Ġnarrations": 24352,
    "hab": 1075,
    "reckoning": 25270,
    "Ġmerchantmen": 19859,
    "Ġuplifted": 11646,
    "Ġcontrast": 2118,
    "Ġprimary": 25060,
    "resum": 17761,
    "Ġeclips": 20695,
    "india": 22368,
    "Ġhealed": 21680,
    "antled": 18286,
    "Ġcombining": 22856,
    "Ġburst": 4380,
    "Ġum": 10211,
    "Ġattraction": 18619,
    "urrection": 12407,
    "Ġblanche": 18819,
    "Ġchr": 3689,
    "Ġpiling": 17910,
    "thumb": 18218,
    "taining": 7206,
    "cor": 5520,
    "Ġmanif": 8870,
    "Ġhistorical": 3646,
    "Ġalternately": 15031,
    "Ġaustrian": 24300,
    "Ġupstairs": 5836,
    "Ġhers": 7888,
    "Ġindividuality": 14908,
    "insula": 23063,
    "swam": 24254,
    "unsuitable": 21890,
    "verest": 13990,
    "Ġinterlude": 16069,
    "Ġdevotion": 22715,
    "combination": 25486,
    "Ġlove": 2052,
    "ippi": 20243,
    "ece": 17531,
    "reposed": 24492,
    "Ġmercy": 8998,
    "Ġcame": 1301,
    "itely": 5365,
    "adventurous": 25361,
    "Ġwhales": 1825,
    "Ġpredomin": 16035,
    "Ġunworthy": 11713,
    "Ġmachine": 798,
    "Ġrobots": 11079,
    "Ġcharming": 6628,
    "Ġsavi": 18325,
    "Ġalternating": 15030,
    "utely": 8131,
    "mbles": 23086,
    "Ġglued": 20587,
    "Ġkindly": 6077,
    "Ġpresided": 20206,
    "Ġoutward": 7903,
    "Ġcau": 13880,
    "cle": 3957,
    "edy": 2857,
    "Ġhe": 318,
    "agitation": 14067,
    "Ġbloom": 9886,
    "fishers": 24928,
    "||": 4869,
    "Ġpubl": 3942,
    "Ġhardihood": 23109,
    "Ġrunning": 3953,
    "Ġchallenge": 25471,
    "Ġtalking": 3860,
    "Ġmarbank": 23034,
    "rogress": 21533,
    "wharf": 20605,
    "Ġcopse": 17067,
    "ences": 1261,
    "Ġco": 730,
    "Ġunchanged": 22028,
    "Ġhandy": 12933,
    "Ġoutfits": 22318,
    "Ġchin": 4891,
    "Ġvict": 3764,
    "Ġstrive": 23691,
    "Ġwearisome": 19794,
    "Ġaperture": 26160,
    "Ġmethod": 1473,
    ".}": 20744,
    "food": 12461,
    "Ġinferiority": 17115,
    "Ġresurrection": 12891,
    "âĢľâĢĺ": 1483,
    "Ġnooks": 26011,
    "Ġthankful": 14737,
    "aff": 3101,
    "Ġlabors": 23325,
    "Ġpil": 5014,
    "eastward": 15128,
    "Ġit": 339,
    "Ġbravery": 23834,
    "Ġmeeting": 5193,
    "Ġmany": 1102,
    "quer": 11677,
    "gin": 4930,
    "considerable": 10548,
    "Ġideal": 13119,
    "thousands": 16872,
    "Ġwor": 1188,
    "Ġstooped": 14463,
    "Ġadmirable": 8268,
    "ois": 9134,
    "notice": 16146,
    "islands": 21374,
    "Ġfetch": 7769,
    "desp": 6075,
    "Ġtis": 15465,
    "Ġtakes": 5007,
    "Ġross": 2762,
    "Ġpresuming": 16793,
    "Ġprovinces": 24190,
    "Ġwaters": 3597,
    "Ġconfirming": 25321,
    "Ġmariner": 7247,
    "Ġperception": 9749,
    "mason": 17603,
    "Ġnick": 21520,
    "Ġbus": 1901,
    "Ġspotted": 12136,
    "Ġprevious": 2088,
    "distraction": 24200,
    "Ġscents": 22279,
    "damp": 15342,
    "Ġconstantinople": 19836,
    "Ġrandom": 1589,
    "killer": 20474,
    "arising": 17895,
    "Ġclutched": 13518,
    "rified": 15419,
    "Ġbutchers": 18239,
    "Ġsurvivors": 25732,
    "hurried": 11353,
    "Ġret": 1382,
    "Ġtitle": 11408,
    "hval": 20897,
    "Ġreplaced": 13070,
    "directly": 13708,
    "hest": 3368,
    "Ġanybody": 5313,
    "Ġrecesses": 17260,
    "ó": 180,
    "Ġdismasted": 15250,
    "trivial": 21091,
    "Ġrings": 11698,
    "Ġmark": 2327,
    "saying": 8640,
    "ties": 2756,
    "iver": 2047,
    "Ġhither": 4759,
    "aphys": 15200,
    "Ġcomposition": 1689,
    "likeness": 19476,
    "Ġunable": 4951,
    "Ġtables": 9877,
    "Ġuniverse": 14124,
    "ports": 13773,
    "osoever": 17342,
    "convinced": 10622,
    "Ġexcess": 3340,
    "icating": 15653,
    "Ġthanks": 6707,
    "Ġcraggy": 23528,
    "wind": 4253,
    "Ġslighted": 16566,
    "Ġgodly": 19080,
    "Ġiteratively": 3058,
    "Ġowest": 25091,
    "Ġoccasion": 3244,
    "Ġ132": 19895,
    "Ġloite": 22108,
    "Ġinconceivable": 17937,
[...]
