{
  "metadata": {
    "vocab_size": 26615,
    "algorithm": "BPE",
    "created_at": "2026-09-22 07:15:34",
    "special_tokens": [
      "<PAD>",
      "<SOS>",
      "<EOS>",
      "<UNK>",
      "<MASK>"
    ]
  },
  "vocab": {
    "Ġhinge": 25542,
    "ces": 578,
    "Ġjinglers": 26018,
    "Ġvanished": 6874,
    "Ġchained": 16391,
    "ed": 293,
    "Ġchivalry": 25819,
    "Ġagrippa": 11811,
    "ww": 10740,
    "observing": 25495,
    "Ġhate": 5445,
    "Ġvictory": 16655,
    "obstructed": 15229,
    "Ġreverence": 12062,
    "Ġmasoned": 20253,
    "oring": 1861,
    "Ġspouter": 12802,
    "Ġsacrilege": 26229,
    "Ġarmchair": 8271,
    "Ġmarble": 7670,
    "iscuits": 24666,
    "Ġ21": 11202,
    "Ġsweet": 3465,
    "Ġthrone": 12217,
    "daggoo": 13709,
    "Ġheedless": 14904,
    "disposed": 25012,
    "Ġwhitting": 18057,
    "system": 4519,
    "landish": 11945,
    "Ġnom": 21521,
    "Ġded": 2450,
    "Ġscales": 4851,
    "Ġoft": 9198,
    "Ġvesture": 20064,
    "appo": 3914,
    "Ġcrystals": 20229,
    "Ġinconsiderable": 21497,
    "forster": 16160,
    "me": 877,
    "Ġwindigate": 18911,
    "archical": 1927,
    "deser": 10482,
    "executed": 25739,
    "Ġain": 6970,
    "ands": 21869,
    "pe": 1437,
    "Ġtaffrail": 15478,
    "Ġgush": 10206,
    "numer": 15401,
    "Ġsebastian": 11702,
    "Ġcanes": 22167,
    "Ġfollowing": 4058,
    "Ġjealous": 9472,
    "rossed": 11015,
    "Ġcol": 1059,
    "salis": 25150,
    "Ġgathering": 14980,
    "Ġnoticed": 5549,
    "Ġsoda": 25535,
    "Ġvaliantly": 22802,
    "Ġexpressive": 8986,
    "smile": 23908,
    "Ġpaced": 7585,
    "relate": 24013,
    "ivil": 6411,
    "conceal": 25116,
    "Ġintricacies": 15141,
    "Ġhorn": 6187,
    "gans": 11493,
    "Ġnormalizes": 1863,
    "itories": 15552,
    "ou": 287,
    "Ġalan": 10872,
    "Ġcorpusants": 13680,
    "residual": 19263,
    "Ġplatform": 17133,
    "ives": 1412,
    "Ġmund": 21320,
    "Ġunctuousness": 17236,
    "disgu": 19156,
    "Ġlessened": 19088,
    "Ġunfortunate": 5376,
    "kl": 4866,
    "won": 8395,
    "Ġstrengthen": 20702,
    "Ġmarvel": 23037,
    "Ġburst": 4382,
    "Ġide": 2123,
    "Ġthereupon": 18433,
    "Ġvag": 9712,
    "Ġjago": 22302,
    "Ġinasmuch": 10828,
    "building": 17311,
    "hog": 8380,
    "Ġruined": 12958,
    "elab": 21572,
    "Ġdoleful": 18377,
    "Ġdisco": 3428,
    "Ġsoup": 7069,
    "othe": 2613,
    "Ġshaft": 18229,
    "Ġintimidated": 24801,
    "Ġdi": 6525,
    "clump": 23155,
    "Ġsuperl": 16445,
    "Ġdiscomposure": 20381,
    "Ġsphere": 15886,
    "Ġdiligent": 25077,
    "Ġagonies": 14253,
    "Ġdefection": 22944,
    "Ġpam": 21456,
    "Ġuncommonly": 7760,
    "rote": 4594,
    "Ġneurons": 976,
    "topic": 10531,
    "Ġwrought": 11947,
    "Ġburden": 8612,
    "Ġeludes": 26555,
    "Ġoblige": 10492,
    "approve": 19939,
    "Ġfading": 15587,
    "Ġunhinged": 26217,
    "Ġlater": 6018,
    "Ġtruce": 24115,
    "Ġmatrimonial": 25490,
    "100": 11467,
    "Ġcrying": 10789,
    "Ġlistened": 4471,
    "Ġlords": 14641,
    "```": 25893,
    "aimed": 3951,
    "Ġsentimental": 24752,
    "Ġobliv": 16136,
    "Ġinstances": 5568,
    "twig": 23700,
    "Ġbuzz": 23999,
    "Ġcondemn": 13446,
    "iles": 2865,
    "Ġtransparency": 10680,
    "urity": 8143,
    "Ġworlds": 11951,
    "Ġhogshead": 26368,
    "Ġmaggie": 26292,
    "sounding": 24794,
    "Ġlengthened": 25958,
    "droppers": 24757,
    "Ġminiatures": 20323,
    "repid": 11568,
    "ercely": 12554,
    "usoid": 4768,
    "reement": 15513,
    "Ġspoiled": 11366,
    "less": 928,
    "Ġsyntax": 959,
    "Ġinsipid": 26313,
    "Ġmon": 1253,
    "oked": 4309,
    "Ġatone": 15805,
    "sweetly": 25137,
    "Ġnantucketer": 6914,
    "Ġ107": 24414,
    "Ġcanals": 22168,
    "Ġcaulking": 20295,
    "icest": 21566,
    "quietude": 24655,
    "Ġinspired": 2516,
    "mense": 4781,
    "soled": 14335,
    "Ġlifted": 6986,
    "piling": 15417,
    "Ġexpenses": 11838,
    "anned": 17840,
    "ay": 355,
    "Ġdisappointing": 19581,
    "uit": 8393,
    "Ġmem": 2163,
    "estone": 18363,
    "Ġgra": 415,
    "Ġcurrent": 13012,
    "Ġpatagonian": 20535,
    "Ġflooring": 23627,
    "Ġmoccas": 22439,
    "elstrom": 17983,
    "contains": 16033,
    "Ġfitted": 6245,
    "atived": 21264,
    "Ġgiant": 13970,
    "Ġindeed": 1682,
    "Ġsupposed": 4560,
    "Ġwidow": 8667,
    "hercules": 22207,
    "Ġcredit": 4820,
    "Ġstiffly": 15006,
    "Ġperturbation": 20443,
    "Ġrich": 2997,
    "Ġregards": 16071,
    "Ġblacksmiths": 19874,
    "sticks": 25965,
    "Ġmemories": 14555,
    "Ġdepose": 22616,
    "thinking": 9018,
    "involved": 25626,
    "Ġabundance": 17157,
    "earthquakes": 24723,
    "Ġinj": 4761,
    "irable": 5776,
    "Ġslip": 8958,
    "bro": 4031,
    "Ġbearded": 15730,
    "Ġminor": 12971,
    "lost": 8892,
    "Ġsolitary": 5856,
    "Ġcompl": 3759,
    "tranqu": 14707,
    "tap": 17677,
    "filled": 9598,
    "leading": 15565,
    "favour": 9553,
    "Ġcoopers": 20524,
    "Ġsurmise": 12298,
    "Ġprivately": 19525,
    "anc": 6379,
    "reading": 12083,
    "cap": 8373,
    "Ġpear": 11855,
    "Ġweedy": 15796,
    "Ġheadstrong": 14390,
    "bat": 8072,
    "Ġregal": 16070,
    "al": 292,
    ",": 16,
    "Ġinsurgents": 26601,
    "Ġliquid": 22412,
    "Ġenvelope": 7320,
    "Ġsturgeon": 20594,
    "Ġsplendid": 17215,
    "Ġexplaining": 15963,
    "Ġwrest": 11575,
    "conclude": 24068,
    "repeat": 25155,
    "Ġwool": 19435,
    "Ġdrawing": 3917,
    "Ġinfat": 14511,
    "iss": 2177,
    "Ġnoiselessly": 22863,
    "Ġoccurring": 2792,
    "Ġnetherfield": 3930,
    "Ġguitar": 16270,
    "Ġcha": 6853,
    "robber": 21539,
    "Ġbooks": 4677,
    "landlord": 9844,
    "watch": 6120,
    "laid": 10113,
    "Ġtypewritten": 16424,
    "Ġsluggishly": 25891,
    "Ġindia": 10374,
    "airing": 16180,
    "blind": 16703,
    "hospit": 25903,
    "Ġamerica": 6764,
    "Ġsmite": 22560,
    "Ġevents": 4474,
    "Ġbehaviors": 13256,
    "Ġnewcomer": 26040,
    "carb": 20811,
    "itoring": 21334,
    "Ġfidelity": 15244,
    "Ġemma": 20696,
    "ocr": 10471,
    "haz": 17565,
    "Ġerrand": 11088,
    "dropping": 14984,
    "Ġdreaming": 11226,
    "Ġsnorting": 23742,
    "Ġsoot": 14133,
    "prec": 3201,
    "Ġinterposed": 20621,
    "Ġaccept": 4412,
    "carp": 9114,
    "Ġrobbery": 11923,
    "writer": 14648,
    "simultaneously": 19865,
    "months": 9075,
    "Ġdelic": 4131,
    "Ġsheath": 14153,
    "ampled": 18883,
    "Ġrank": 6260,
    "terms": 15754,
    "falgar": 26130,
    "inate": 6235,
    "Ġmince": 22835,
    "ents": 1895,
    "Ġtherein": 11779,
    "opence": 18508,
    "its": 1151,
    "Ġnonsense": 6983,
    "Ġaggregate": 25677,
    "Ġanimating": 23425,
    "Ġineffectual": 17386,
    "orse": 5807,
    "bishop": 13697,
    "rmsprop": 4524,
    "beheaded": 22495,
    "atlantic": 15526,
    "indian": 11782,
    "Ġmalay": 24390,
    "Ġlonely": 6823,
    "ye": 1407,
    "Ġcheering": 11136,
    "Ġwaiting": 4324,
    "Ġlearned": 2023,
    "ologically": 22886,
    "Ġinputs": 844,
    "Ġaccidents": 10299,
    "Ġdownwards": 8533,
    "Ġgrasped": 8034,
    "worse": 14691,
    "ady": 994,
    "Ġgum": 21597,
    "Ġcontinuously": 23207,
    "Ġsemicircle": 26067,
    "ifting": 6547,
    "Ġmien": 17809,
    "Ġexerted": 15757,
    "Ġslide": 10397,
    "cen": 17504,
    "Ġhumble": 8555,
    "ober": 15408,
    "Ġproducts": 5198,
    "ĠĠĠĠĠĠĠĠĠĠĠĠĠĠĠĠĠĠĠĠĠĠĠĠĠĠĠĠĠĠĠĠĠĠĠĠĠĠĠĠĠĠ": 24211,
    "iards": 17575,
    "rise": 6228,
    "dissatisf": 26129,
    "aulets": 18622,
    "Ġfronted": 23259,
    "Ġdestination": 19150,
    "Ġbecalmed": 18088,
    "Ġdiet": 13912,
    "Ġrides": 21974,
    "Ġnewcastle": 16225,
    "Ġwarmed": 12027,
    "Ġallusions": 10909,
    "Ġflattened": 26047,
    "entle": 1739,
    "Ġwhites": 21719,
    "spite": 16141,
    "looking": 4030,
    "Ġupbraided": 26529,
    "ensions": 14260,
    "classes": 12139,
    "shortened": 24746,
    "ĠâĢľâĢĺ": 8506,
    "Ġknotted": 17020,
    "inspector": 13649,
    "Ġintervening": 17269,
    "commanders": 16990,
    "aping": 8194,
    "Ġopt": 773,
    "conce": 8513,
    "tro": 15435,
    "Ġfluffy": 19366,
    "loat": 8891,
    "Ġtwee": 22677,
    "Ġapril": 13665,
    "Ġparameter": 881,
    "om": 315,
    "Ġw": 272,
    "Ġcorrespondent": 19824,
    "Ġimpending": 22387,
    "discovery": 12020,
    "asing": 5913,
    "rushing": 10022,
    "Ġwords": 1324,
    "gently": 13731,
    "drugg": 20839,
    "Ġscrewing": 20210,
    "ibid": 18842,
    "Ġopposite": 5120,
    "Ġfathoms": 9087,
    "Ġbeaufort": 13571,
    "Ġenglishmen": 19432,
    "Ġphysiogn": 12391,
    "ĠĠĠĠĠĠĠĠĠĠĠĠĠĠĠĠĠĠĠĠĠĠĠĠĠĠĠĠĠĠĠĠĠĠ": 14613,
    "Ġpurposely": 10447,
    "Ġcrescentic": 20623,
    "Ġlegs": 4917,
    "Ġoffered": 5817,
    "benevol": 12230,
    "Ġintruding": 21994,
    "Ġdipping": 15595,
    "azz": 8262,
    "cked": 2763,
    "Ġfeelingly": 22999,
    "eral": 9163,
    "Ġverdure": 10616,
    "leaned": 21371,
    "ott": 1872,
    "dishonourable": 26366,
    "Ġconvul": 13203,
    "derer": 4602,
    "Ġpersuasion": 10502,
    "Ġsmiting": 12902,
    "Ġboarders": 16601,
    "Ġreceive": 4705,
    "quake": 11684,
    "Ġcemet": 20682,
    "Ġdisturbing": 19948,
    "Ġreleased": 2981,
    "cook": 8270,
    "Ġaffliction": 25845,
    "Ġprocedure": 2809,
    "Ġapplicable": 19016,
    "Ġoat": 21325,
    "Ġmuteness": 19419,
    "Ġgases": 21604,
    "Ġturban": 23614,
    "Ġrecol": 4026,
    "explain": 1481,
    "Ġwed": 7576,
    "drawers": 19388,
    "Ġtropical": 17065,
    "Ġexp": 780,
    "Ġanne": 1531,
    "Ġbetter": 1174,
    "Ġvibrating": 13539,
    "rolling": 9064,
    "Ġlibraries": 20616,
    "rength": 4097,
    "aphs": 22339,
    "Ġblessing": 11266,
    "involuntarily": 20417,
    "Ġseren": 7402,
    "Ġbub": 8118,
    "Ġinstinct": 6576,
    "Ġwaggish": 25435,
    "Ġsavesoul": 26228,
    "Ġchanced": 8187,
    "Ġthings": 1963,
    "Ġwretchedness": 9030,
    "Ġbreakfast": 3973,
    "Ġdirection": 1791,
    "Ġtierce": 15480,
    "Ġrollicking": 24450,
    "Ġbengal": 18783,
    "Ġtossed": 5816,
    "cription": 20819,
    "wearing": 22689,
    "asked": 8916,
    "thes": 7392,
    "Ġcondescend": 19957,
    "andam": 10891,
    "err": 1141,
    "Ġcrisp": 12006,
    "Ġscreen": 17207,
    "Ġoverhead": 11777,
    "Ġanalogical": 25640,
    "Ġschooner": 16748,
    "stories": 18025,
    "Ġbrushed": 15574,
    "Ġfantastic": 10063,
    "ilted": 21725,
    "Ġfire": 2331,
    "hosmer": 25902,
    "arab": 21443,
    "Ġtechni": 1697,
    "Ġcontradict": 12388,
    "Ġmaiden": 13388,
    "etimes": 1988,
    "Ġwallowed": 24044,
    "Ġbloodless": 19340,
    "pat": 10120,
    "attend": 11105,
    "ace": 716,
    "Ġpossess": 3203,
    "*": 14,
    "Ġfl": 1279,
    "Ġcarving": 14445,
    "Ġrephr": 21681,
    "Ġknowing": 4458,
    "Ġpainfully": 13143,
    "reflections": 24733,
    "Ġunequal": 14843,
    "Ġensue": 18190,
    "Ġrobbed": 23032,
    "Ġcracked": 8598,
    "Ġanticipation": 17057,
    "Ġhunter": 5401,
    "Ġlashing": 11620,
    "obli": 23097,
    "Ġ8": 5433,
    "Ġelemental": 19920,
    "Ġashes": 7618,
    "aples": 20769,
    "Ġconversation": 3331,
    "Ġpinioned": 21485,
    "Ġrecognised": 8999,
    "Ġblasp": 14402,
    "Ġuproar": 22158,
    "thinness": 25810,
    "Ġintelligence": 565,
    "Ġbowsprit": 16562,
    "Ġerred": 21158,
    "neck": 14236,
    "agation": 1219,
    "Ġwhence": 5840,
    "Ġgoblet": 25823,
    "pacific": 17642,
    "anesc": 21362,
    "gments": 12473,
    "Ġshel": 6847,
    "Ġindirectly": 8943,
    "orter": 4256,
    "Ġcrews": 8994,
    "substance": 15234,
    "Ġmonotonically": 3832,
    "Ġaft": 5737,
    "Ġgri": 17989,
    "Ġstruck": 3389,
    "riend": 1185,
    "Ġinfatuated": 20537,
    "gaining": 20126,
    "Ġassociations": 14964,
    "estruct": 22226,
    "yl": 7818,
    "gryphon": 15361,
    "Ġindulging": 16905,
    "surface": 10534,
    "Ġpregnant": 26536,
    "Ġpots": 9432,
    "osen": 6855,
    "grace": 5847,
    "aying": 15753,
    "Ġgenerate": 1519,
    "oes": 4435,
    "orphans": 26441,
    "Ġwicked": 5962,
    "itious": 8785,
    "Ġspare": 5102,
    "pleasure": 5979,
    "Ġaromatic": 25925,
    "rah": 8137,
    "Ġamply": 22485,
    "Ġpress": 5933,
    "Ġcurb": 16234,
    "ut": 308,
    "Ġsoar": 18282,
    "grow": 10102,
    "Ġencl": 16169,
    "Ġbasket": 9576,
    "Ġlye": 21553,
    "Ġmeanwhile": 5736,
    "Ġinclud": 1510,
    "told": 7811,
    "Ġhundred": 2695,
    "Ġviolently": 6456,
    "Ġcolumn": 9332,
    "Ġstow": 21736,
    "Ġuns": 15839,
    "Ġdouble": 4940,
    "Ġhaven": 8476,
    "prairies": 20568,
    "Ġoptimize": 1548,
    "abashed": 21795,
    "Ġhempen": 13552,
    "Ġsolicitude": 10044,
    "theast": 21751,
    "Ġlimb": 9406,
    "Ġkey": 2103,
    "gall": 6361,
    "chorus": 19813,
    "Ġsmallest": 6430,
    "Ġcomes": 3423,
    "tackle": 17323,
    "Ġhappiness": 2948,
    "Ġsculpture": 26016,
    "Ġchronicled": 25329,
    "Ġsince": 1794,
    "Ġpatentee": 25586,
    "Ġcous": 3436,
    "ogy": 22711,
    "?_": 8070,
    "Ġrobes": 16260,
    "remediable": 26295,
    "violently": 23544,
    "Ġcommodore": 12398,
    "Ġcobweb": 22588,
    "midnight": 14903,
    "Ġapproving": 18507,
    "Ġdece": 6997,
    "Ġwheelbarrow": 17206,
    "Ġtucked": 12395,
    "illings": 14144,
    "Ġmanned": 9275,
    "itics": 13874,
    "Ġcompare": 9306,
    "chosen": 21697,
    "Ġhooped": 23357,
    "Ġusage": 9734,
    "goes": 10429,
    "draughts": 20390,
    "nigh": 13765,
    "Ġemblematical": 25788,
    "full": 7421,
    "Ġdates": 6695,
    "Ġdisgust": 6707,
    "Ġmorris": 18851,
    "Ġhercules": 14129,
    "apprehension": 26114,
    "tstone": 21086,
    "adventures": 20258,
    "Ġflights": 24751,
    "Ġpair": 5706,
    "Ġconcil": 23322,
    "crucible": 24842,
    "Ġincommunicable": 26612,
    "ulsive": 10237,
    "Ġventured": 7502,
    "destiny": 16700,
    "Ġlocking": 18298,
    "vast": 10739,
    "ashing": 4826,
    "Ġonset": 12714,
    "Ġterminating": 23511,
    "atural": 934,
    "kindred": 24051,
    "Ġconvert": 11846,
    "Ġwollstonecraft": 26426,
    "Ġgoring": 21606,
    "iminished": 19020,
    "variance": 2654,
    "Ġdisclosed": 15156,
    "Ġcum": 21344,
    "Ġentertained": 10002,
    "oop": 10718,
    "holder": 13285,
    "Ġuncont": 14118,
    "Ġsignification": 19205,
    "Ġancho": 15606,
    "Ġemploying": 23980,
    "Ġgrunt": 18737,
    "Ġromans": 16760,
    "cull": 20810,
    "alongside": 19791,
    "Ġevap": 19625,
    "Ġparasol": 22124,
    "sat": 4811,
    "Ġdetails": 6567,
    "Ġobscurely": 20190,
    "Ġcrocod": 19630,
    "Ġ200": 19296,
    "Ġscriptures": 26236,
    "Ġasia": 11686,
    "Ġheire": 18038,
    "ĠĠĠĠĠĠĠĠĠĠĠĠĠĠĠĠĠĠĠĠĠĠĠĠĠĠĠĠĠĠĠĠĠĠĠĠĠĠĠĠĠĠĠĠĠ": 9956,
    "em": 391,
    "Ġstatements": 7517,
    "Ġsatirical": 26280,
    "Ġwearing": 12743,
    "Ġepicures": 25879,
    "acit": 16083,
    "Ġhateful": 19715,
    "'s": 2465,
    "onom": 9162,
    "Ġmorose": 18850,
    "reshold": 21241,
    "Ġendeav": 2959,
    "gentlemen": 9508,
    "Ġcalmed": 16268,
    "bell": 7333,
    "Ġfunctional": 3052,
    "Ġconflagration": 26365,
    "Ġdivision": 19446,
    "Ġhedgehogs": 25395,
    "Ġprolong": 6833,
    "Ġeaglet": 19305,
    "Ġintellig": 530,
    "ann": 5803,
    "Ġgraces": 18225,
    "Ġwebster": 20163,
    "Ġspoilt": 24803,
    "Ġpleasanter": 19066,
    "gaffman": 26391,
    "Ġfleetness": 20181,
    "Ġfists": 15586,
    "Ġswelled": 11090,
    "Ġco": 731,
    "onian": 17768,
    "Ġspas": 10926,
    "Ġcrowned": 16842,
    "Ġlightness": 23262,
    "Ġbower": 15570,
    "!)": 10073,
    "Ġergo": 25031,
    "Ġclos": 4551,
    "Ġdepends": 1137,
    "Ġmourning": 13480,
    "incidentally": 20541,
    "Ġreefed": 20304,
    "Ġtang": 13816,
    "Ġ38": 24079,
    "Ġprofessors": 14726,
    "esteem": 26008,
    "ô": 181,
    "Ġstud": 1614,
    "ĠĠĠĠĠĠĠĠĠĠĠĠĠĠĠĠĠĠĠĠĠĠĠĠĠĠĠĠĠĠĠĠĠĠĠĠĠĠĠĠĠĠĠĠĠĠĠĠ": 7989,
    "Ġcistern": 17383,
    "Ġlawless": 19437,
    "inked": 12917,
    "Ġstepdaughter": 22615,
    "Ġtrooped": 24899,
    "Ġcomb": 1029,
    "abhorred": 17338,
    "kins": 7346,
    "ilogue": 21727,
    "Ġpistols": 17331,
    "tolerably": 21097,
    "Ġgur": 21594,
    "Ġseason": 5238,
    "Ġobtaining": 16135,
    "shout": 22455,
    "Ġweapons": 10597,
    "oubled": 23649,
    "affections": 17358,
    "Ġcivilized": 8669,
    "grave": 16097,
    "Ġcorpora": 26581,
    "Ġhidden": 1375,
    "stuff": 15691,
    "hall": 8085,
    "constantly": 24606,
    "Ġlinen": 12410,
    "Ġchamois": 16801,
    "Ġcrew": 2492,
    "unwittingly": 25801,
    "pread": 7419,
    "itage": 17817,
    "broke": 14779,
    "drown": 13707,
    "ave": 978,
    "Ġremarkably": 7703,
    "speaks": 19721,
    "Ġdataset": 12824,
    "Ġopp": 2698,
    "Ġgen": 5298,
    "Ġattached": 5392,
    "Ġbringing": 5871,
    "Ġappl": 1755,
    "Ġprecaution": 11200,
    "pening": 2834,
    "Ġtook": 1856,
    "oves": 15405,
    "saddest": 25528,
    "Ġmates": 4873,
    "Ġkinds": 14502,
    "Ġmingled": 12380,
    "term": 3758,
    "itic": 11582,
    "Ġgrammars": 11405,
    "Ġdesirous": 8946,
    "whalers": 17265,
    "throw": 14100,
    "Ġgreatness": 12947,
    "ppings": 18178,
    "Ġquick": 2582,
    "rown": 2192,
    "Ġbob": 22640,
    "Ġpath": 2115,
    "Ġaware": 5756,
    "Ġcomposure": 7218,
    "Ġpleasantly": 14519,
    "eridge": 15528,
    "attest": 23121,
    "Ġcorruption": 15228,
    "desponding": 26342,
    "Ġchance": 3318,
    "Ġreplacing": 3448,
    "Ġascended": 8670,
    "itance": 13870,
    "Ġexcepting": 14680,
    "Ġwo": 3650,
    "Ġcatastrophic": 3540,
    "Ġsubterraneous": 20267,
    "Ġmightiest": 12964,
    "leton": 5148,
    "unity": 4150,
    "Ġindependently": 4247,
    "Ġtempor": 2363,
    "ruct": 685,
    "scales": 22996,
    "doctor": 19096,
    "Ġpinch": 15018,
    "proper": 7472,
    "Ġcruising": 6913,
    "Ġsalary": 13296,
    "tomorrow": 25914,
    "Ġhails": 21953,
    "typewritten": 26038,
    "Ġjustly": 11907,
    "Ġforgery": 25977,
    "Ġrake": 18645,
    "irm": 3110,
    "oping": 5559,
    "Ġdesperately": 24656,
    "melancholy": 12356,
    "Ġupset": 22156,
    "ifer": 11688,
    "weaving": 18666,
    "chet": 13219,
    "9": 29,
    "Ġcling": 11775,
    "devouring": 24952,
    "Ġall": 422,
    "Ġantagon": 19552,
    ";âĢĶ": 3750,
    "Ġcomplexity": 1695,
    "Ġseeming": 8543,
    "snatched": 24850,
    "Ġtechnically": 12369,
    "Ġhappily": 9335,
    "T": 56,
    "gpt": 5356,
    "Ġstalls": 25647,
    "Ġharvest": 13417,
    "fell": 6953,
    "hib": 15370,
    "Ġxxiv": 24476,
    "brary": 5755,
    "Ġsuppl": 11081,
    "Ġengagement": 5397,
    "Ġsquire": 16185,
    "Ġoffensive": 18692,
    "decease": 25558,
    "Ġallusion": 7627,
    "Ġitself": 2519,
    "lic": 17588,
    "Ġheroes": 10580,
    "staff": 21658,
    "province": 26072,
    "Ġaccountability": 10441,
    "Ġgouge": 26189,
    "Ġantagonist": 26329,
    "summon": 23417,
    "bles": 7019,
    "Ġdanish": 21433,
    "physiogn": 26265,
    "card": 11478,
    "odiac": 14030,
    "Ġdestroyed": 5272,
    "Ġstil": 15724,
    "ocean": 12404,
    "anoke": 21363,
    "benevolent": 15236,
    "eyes": 5684,
    "emason": 18188,
    "Ġoverwhelm": 25054,
    "Ġflaming": 8568,
    "Ġpredecessor": 26254,
    "complacency": 19915,
    "Ġestab": 6317,
    "Ġancest": 12618,
    "Ġmadly": 16486,
    "Ġbrew": 23346,
    "Ġlevels": 12700,
    "Ġmournful": 12339,
    "pt": 387,
    "subs": 14299,
    "Ġyarman": 12709,
    "Ġpawn": 12066,
    "Ġstir": 5826,
    "lord": 3862,
    "Ġstirring": 10583,
    "pyramid": 21031,
    "Ġgardiners": 11160,
    "Ġjealously": 24124,
    "inger": 6813,
    "cleanliness": 25871,
    "punctual": 26356,
    "lads": 20956,
    "inery": 17734,
    "Ġadjusting": 3413,
    "natural": 2275,
    "urry": 13995,
    "Ġbathing": 20201,
    "vill": 10738,
    "Ġxavier": 2858,
    "Ġcrucial": 9896,
    "Ġshares": 23246,
    "Ġsmiled": 5942,
    "preserver": 20215,
    "Ġuncles": 23432,
    "Ġblankets": 24611,
    "Ġalluded": 7885,
    "Ġcastaway": 16642,
    "Ġclinging": 10295,
    "Ġshells": 20366,
    "arling": 10817,
    "Ġdestroy": 5772,
    "Ġalong": 1979,
    "Ġwatchman": 23669,
    "Ġparacels": 13670,
    "ering": 1265,
    "Ġships": 3715,
    "Ġcharley": 19006,
    "Ġdying": 2136,
    "Ġinterm": 14270,
    "comed": 8548,
    "¯": 112,
    "ught": 2751,
    "sl": 5794,
    "Ġdiscreet": 16483,
    "smoke": 17224,
    "steak": 14709,
    "Ġsqueaking": 26275,
    "mus": 10114,
    "sim": 6510,
    "Ġproves": 14041,
    "ered": 1685,
    "Ġcrazed": 19176,
    "Ġtemper": 956,
    "Ġbegging": 11082,
    "Ġtand": 21162,
    "Ġforeshad": 23452,
    "cats": 17513,
    "Ġaugmentation": 20118,
    "giving": 8743,
    "Ġplanted": 9778,
    "Ġbred": 9173,
    "2": 22,
    "Ġendeavour": 4679,
    "Ġdesol": 6881,
    "Ġfancy": 3746,
    "Ġre": 317,
    "Ġvillainous": 25134,
    "desired": 9009,
    "Ġspilled": 10928,
    "Ġpaved": 17914,
    "Ġgord": 21602,
    "ousings": 18335,
    "Ġreduces": 2341,
    "merchant": 10470,
    "etian": 13961,
    "Ġsixth": 16561,
    "tic": 8391,
    "Ġinspiring": 19113,
    "does": 6196,
    "Ġ69": 19663,
    "Ġwriting": 4669,
    "Ġtint": 13819,
    "task": 13795,
    "Ġphysiognomical": 25611,
    "Ġrefused": 6717,
    "pressed": 6589,
    "Ġabused": 22282,
    "Ġpitchpoling": 14912,
    "Ġjohnson": 18409,
    "Ġsummary": 19405,
    "sell": 13783,
    "Ġmoist": 9289,
    "Ġswe": 2289,
    "Ġlonged": 6436,
    "Ġcroquet": 9966,
    "Ġwaldman": 11348,
    "Ġepo": 21621,
    "Ġtendency": 11332,
    "establish": 17395,
    "ciousness": 20818,
    "Ġhumour": 7932,
    "ials": 11710,
    "aan": 20765,
    "Ġinjunctions": 24271,
    "Ġspe": 822,
    "Ġstay": 3097,
    "Ġhills": 6527,
    "Ġoutstanding": 22319,
    "Ġ1828": 25719,
    "Ġyoung": 1504,
    "Ġgros": 14824,
    "Ġabominably": 20071,
    "Ġobe": 5801,
    "Ġsmiling": 5474,
    "labour": 23917,
    "Ġsuccess": 3609,
    "Ġsevered": 18205,
    "ama": 11680,
    "Ġpersonal": 7480,
    "fred": 20856,
    "coff": 9113,
    "Ġcruises": 23707,
    "Ġtrade": 2544,
    "Ġvessel": 3798,
    "non": 9615,
    "Ġsig": 867,
    "ceptible": 10960,
    "Ġnephew": 6404,
    "Ġspared": 7893,
    "Ġrespectable": 6738,
    "Ġrubbing": 9326,
    "antically": 22099,
    "keeper": 5597,
    "animation": 16980,
    "Ġunquestionable": 26222,
    "heedful": 20575,
    "Ġhinting": 19651,
    "league": 17845,
    "preced": 10313,
    "Ġheadlands": 22898,
    "Ġfinally": 4668,
    "Ġincl": 4271,
    "Ġf": 283,
    "suspect": 9544,
    "gigantic": 15362,
    "ermaid": 14298,
    "totally": 25418,
    "audible": 17134,
    "Ġcautious": 12257,
    "Ġdeb": 4765,
    "Ġremorselessly": 16968,
    "hearse": 17749,
    "responsible": 25763,
    "Ġpossibly": 4515,
    "Ġrevolving": 9987,
    "mun": 20963,
    "treasures": 26152,
    "cd": 15325,
    "Ġthimble": 15640,
    "Ġwindward": 6885,
    "Ġworst": 7445,
    "Ġlengthen": 15657,
    "Ġsatir": 18792,
    "Ġship": 1090,
    "Ġstubb": 1785,
    "Ġresolving": 9423,
    "inted": 2648,
    "Ġfine": 1315,
    "Ġaccount": 2319,
    "Ġloos": 15874,
    "Ġvariations": 22668,
    "Ġunusual": 6555,
    "Ġstring": 11831,
    "Ġdoublo": 6079,
    "Ġbarbara": 24814,
    "Ġlivel": 11358,
    "ro": 301,
    "Ġbanking": 19632,
    "burnt": 20082,
    "ov": 15402,
    "Ġunerring": 15850,
    "Ġeloquence": 11845,
    "Ġshrink": 14805,
    "Ġtargets": 4203,
    "brink": 23577,
    "kne": 20936,
    "Ġbrilliantly": 25123,
    "pole": 9337,
    "sho": 6425,
    "Ġdisease": 14259,
    "duodecimo": 16004,
    "Ġreigned": 13989,
    "Ġromantic": 8031,
    "iceland": 21568,
    "Ġtransient": 18480,
    "say": 3982,
    "formal": 14169,
    "Ġkindness": 4093,
    "Ġevangelist": 20340,
    "Ġresume": 18565,
    "ipelag": 12848,
    "Ġrespectful": 16347,
    "Ġdiscompose": 25579,
    "Ġrepositories": 23366,
    "Ġherd": 7888,
    "Ġshivering": 10269,
    "Ġdisgu": 8206,
    "generous": 16570,
    "artificial": 1037,
    "context": 3404,
    "Ġrascal": 11704,
    "idation": 5022,
    "member": 20976,
    "Ġbales": 21391,
    "Ġinfrequent": 3823,
    "ators": 7829,
    "obst": 11935,
    "Ġpurse": 12014,
    "Ġprime": 10407,
    "Ġslaugh": 18939,
    "tery": 14039,
    "resembling": 25932,
    "dart": 20827,
    "uction": 15445,
    "Ġtraffic": 23085,
    "find": 6954,
    "goodbye": 12059,
    "Ġshivered": 14110,
    "iverse": 13118,
    "bath": 13692,
    "Ġtea": 5041,
    "ą": 198,
    "Ġdeserts": 10511,
    "Ġsuspicious": 9484,
    "Ġrat": 4355,
    "gathered": 13734,
    "arris": 13211,
    "Ġdegrees": 7295,
    "etics": 21583,
    "Ġextreme": 2511,
    "Ġquitted": 5312,
    "Ġmiser": 18699,
    "Ġterrier": 23401,
    "gies": 13728,
    "Ġawaiting": 11393,
    "Ġreluctant": 20527,
    "ioneer": 15635,
    "duchess": 18463,
    "Ġgle": 7859,
    "Ġhumbly": 16200,
    "unavoid": 14064,
    "Ġexult": 10232,
    "Ġarray": 12815,
    "Ġ33": 16677,
    "ceived": 1965,
    "Ġandes": 12645,
    "Ġtus": 10752,
    "Ġbleeding": 14881,
    "hark": 15368,
    "Ġaccidentally": 9509,
    "Ġmeddle": 20579,
    "Ġaffecting": 2322,
    "accomplished": 17213,
    "elect": 20847,
    "Ġdevouring": 11861,
    "Ġloudly": 7313,
    "commod": 16171,
    "Ġwaving": 8580,
    "Ġomit": 17816,
    "Ġtallow": 14780,
    "Ġdeacon": 18145,
    "Ġbiases": 2395,
    "Ġlucky": 7759,
    "Ġbid": 6133,
    "plexion": 14262,
    "Ġquohog": 10975,
    "dipped": 20838,
    "liter": 11505,
    "ead": 2599,
    "transp": 24511,
    "Ġafghan": 22631,
    "aders": 21761,
    "Ġconception": 10317,
    "trans": 5594,
    "Ġperfections": 23609,
    "ensed": 10998,
    "Ġsprinkled": 19499,
    "Ġlustrous": 20158,
    "int": 1196,
    "Ġintrospect": 15831,
    "Ġunt": 2293,
    "vel": 2382,
    "Ġborrow": 10174,
    "fool": 9051,
    "18": 20752,
    "ca": 20794,
    "Ġlangs": 13956,
    "maritime": 24175,
    "starbuck": 6020,
    "istered": 14146,
    "mr": 1899,
    "christ": 10214,
    "Ġcorp": 5574,
    "Ġpersuade": 5874,
    "Ġaccomplish": 14877,
    "affect": 13214,
    "Ġerecting": 24652,
    "Ġstops": 3166,
    "Ġplot": 14282,
    "suffer": 24328,
    "Ġmiraculous": 13549,
    "inks": 6869,
    "whalemen": 10434,
    "Ġirreparable": 20001,
    "Ġfront": 3450,
    "concerned": 24638,
    "shark": 14240,
    "Ġaffording": 14822,
    "ificant": 22214,
    "zes": 11552,
    "deduction": 23672,
    "Ġtalent": 12300,
    "fow": 20854,
    "Ġrepose": 6743,
    "bag": 7543,
    "helmsman": 24288,
    "Ġtow": 4397,
    "Ġposs": 1620,
    "Ġdelicacy": 6342,
    "scot": 14420,
    "Ġclasped": 17208,
    "Ġencouragement": 13045,
    "merged": 11196,
    "Ġtroubled": 6618,
    "Ġstarry": 16924,
    "Ġbuttons": 12785,
    "Ġcomputer": 1225,
    "dem": 10696,
    "Ġ=": 1074,
    "Ġ26": 10473,
    "sequ": 2398,
    "feel": 3811,
    "Ġliberty": 7762,
    "Ġfoss": 9853,
    "Ġselection": 18204,
    "atig": 13847,
    "Ġunaccountably": 26516,
    "Ġbul": 3293,
    "Ġsuspicion": 6213,
    "vishnoo": 21121,
    "widows": 25345,
    "Ġbedroom": 7278,
    "Ġshattered": 7884,
    "iguous": 18046,
    "educ": 10831,
    "tempest": 16960,
    "Ġcommenting": 25229,
    "Ġplanting": 16088,
    "Ġdiabolism": 25515,
    "Ġcurds": 22972,
    "etween": 776,
    "Ġduc": 4698,
    "Ġringing": 13334,
    "Ġmissionary": 25696,
    "Ġlens": 8439,
    "helping": 23143,
    "abb": 15742,
    "representing": 25272,
    "strangely": 17278,
    "description": 11096,
    "topp": 22568,
    "Ġincorporate": 20456,
    "neurons": 3136,
    "yielded": 25756,
    "Ġbeth": 9661,
    "Ġregulate": 22571,
    "plan": 15817,
    "Ġobtru": 18672,
    "Ġmoby": 3664,
    "ioning": 21511,
    "Ġperched": 10303,
    "degrad": 22146,
    "Ġbriefly": 11370,
    "Ġfirst": 938,
    "Ġboscombe": 8326,
    "oat": 13766,
    "Ġvainly": 9928,
    "Ġdisent": 22526,
    "rants": 13780,
    "Ġdoub": 1835,
    "Ġmidst": 7986,
    "Ġtep": 21163,
    "utored": 15666,
    "Ġchemical": 10412,
    "inforcement": 2835,
    "wins": 21131,
    "arabian": 26447,
    "Ġwithdrawing": 11343,
    "Ġinstructing": 3124,
    "Ġhelper": 24028,
    "Ġpalaces": 24092,
    "proves": 23396,
    "Ġspermaceti": 8970,
    "Ġloveliness": 13611,
    "unks": 15778,
    "Ġhoe": 23353,
    "Ġclubb": 22355,
    "att": 1456,
    "teeth": 10359,
    "Ġpage": 6979,
    "Ġpistol": 7847,
    "Ġsnaky": 23743,
    "Ġquill": 12861,
    "Ġlie": 4408,
    "Ġbonnet": 10659,
    "Ġspears": 12929,
    "oam": 8756,
    "conjectures": 25181,
    "irous": 8844,
    "Ġsheepfold": 25467,
    "cupboards": 25402,
    "Ġgoodness": 6060,
    "arks": 2848,
    "inates": 21182,
    "inities": 21187,
    "Ġstum": 21737,
    "buff": 15321,
    "preservation": 25306,
    "Ġdescending": 8907,
    "Ġattractions": 13553,
    "Ġmissing": 6177,
    "Ġcontrol": 13082,
    "Ġsubmerged": 11875,
    "Ġsyllables": 25299,
    "relation": 19449,
    "Ġexclusion": 19398,
    "bear": 10319,
    "Ġfloating": 6606,
    "Ġenchanting": 17039,
    "Ġsystematically": 3692,
    "sacrifice": 13494,
    "Ġsage": 17753,
    "Ġassu": 21900,
    "Ġfishe": 15589,
    "case": 5206,
    "Ġgoat": 16009,
    "Ġadult": 18291,
    "ogene": 18675,
    "Ġtransform": 744,
    "jac": 8382,
    "razor": 21639,
    "Ġanonym": 17898,
    "Ġtranslates": 12054,
    "verted": 10221,
    "Ġell": 17716,
    "Ġreprehensible": 15702,
    "Ġeducated": 16786,
    "Ġchains": 8251,
    "Ġmantle": 25275,
    "quimaux": 21862,
    "useness": 22295,
    "elfare": 11780,
    "Ġhad": 443,
    "fly": 13716,
    "Ġenjoy": 3760,
    "Ġnights": 7259,
    "Ġcoil": 11822,
    "Ġdishonor": 25601,
    "daugh": 6789,
    "billiard": 25335,
    "Ġpeleg": 3739,
    "Ġdews": 21842,
    "Ġjustine": 4970,
    "bid": 5611,
    "Ġpotent": 12067,
    "uvier": 9072,
    "Ġstabilizing": 3656,
    "anqu": 4106,
    "Ġprodigies": 19795,
    "pro": 2050,
    "Ġdear": 1542,
    "Ġattributed": 11836,
    "Ġmanners": 3790,
    "Ġconfining": 23307,
    "Ġabrupt": 9742,
    "traversed": 19649,
    "Ġsqueeze": 10043,
    "Ġphaet": 16321,
    "Ġnotorious": 18223,
    "Ġobligation": 13246,
    "waited": 24585,
    "Ġsubdivisions": 26037,
    "vit": 13803,
    "iousness": 4900,
    "Ġ67": 19662,
    "Ġportraits": 20144,
    "Ġdol": 9668,
    "salesman": 20673,
    "vision": 5620,
    "highest": 20410,
    "usions": 6161,
    "Ġbrid": 6292,
    "detective": 24382,
    "access": 11183,
    "surf": 24214,
    "Ġdrink": 4788,
    "Ġb": 281,
    "Ġdivide": 12114,
    "Ġnephews": 24711,
    "occasional": 19578,
    "Ġmanagement": 8193,
    "Ġwhittingham": 26198,
    "Ġfirm": 3868,
    "Ġ86": 24460,
    "Ġradney": 6776,
    "Ġdischar": 11812,
    "Ġimperial": 9485,
    "fe": 678,
    "pierced": 26141,
    "yed": 3273,
    "Ġinsists": 23679,
    "fulfil": 16044,
    "mitting": 20974,
    "Ġcont": 620,
    "cial": 2647,
    "Ġundesired": 12783,
    "Ġaudibly": 24769,
    "oriented": 2951,
    "actions": 8911,
    "Ġcumbrous": 26433,
    "Ġsweating": 16464,
    "Ġastr": 15496,
    "Ġxxi": 24475,
    "exc": 5169,
    "Ġirons": 7696,
    "Ġtoad": 21512,
    "Ġharvard": 24573,
    "Ġatlantic": 7001,
    "transom": 19737,
    "perquisites": 26531,
    "overhearing": 19051,
    "interference": 23739,
    "Ġincites": 22554,
    "Ġdrow": 21428,
    "Ġawful": 6201,
    "part": 2574,
    "Ġploughing": 26260,
    "Ġtemples": 18638,
    "Ġcompletion": 12151,
    "Ġdoubled": 19639,
    "®": 111,
    "smiles": 14693,
    "Ġostrich": 26431,
    "Ġquarter": 3974,
    "Ġbeholding": 8673,
    "imper": 13999,
    "Ġpelt": 15613,
    "Ġnautical": 17388,
    "Ġforenoon": 19126,
    "Ġindisc": 16230,
    "visit": 7755,
    "Ġparadise": 11197,
    "Ġintentions": 10611,
    "deacon": 22150,
    "ness": 854,
    "Ġsolace": 16202,
    "negro": 18489,
    "Ġabsorbed": 12334,
    "Ġentropy": 2030,
    "Ġretrogress": 23075,
    "Ġforgetting": 3434,
    "Ġrisks": 9968,
    "Ġvenetian": 14848,
    "Ġazores": 20195,
    "Åĵ": 10747,
    "strained": 21660,
    "oda": 15752,
    "Ġhiss": 15791,
    "Ġalphabetical": 17203,
    "ugn": 9382,
    "Ġmerchant": 6467,
    "Ġpass": 1040,
    "Ġfundament": 2930,
    "offended": 16400,
    "://": 11468,
    "enance": 3371,
    "rating": 7808,
    "Ġanoints": 25539,
    "Ġaltar": 9232,
    "Ġdrawn": 4276,
    "âĢĿ": 354,
    "Ġthan": 737,
    "below": 12125,
    "Ġdiverted": 14592,
    "Ġcister": 13884,
    "dinner": 11409,
    "ü": 189,
    "Ġisolated": 13562,
    "Ġforged": 12708,
    "Ġdragging": 14476,
    "Ġdevoid": 18684,
    "heaven": 8053,
    "gorith": 549,
    "Ġcompanionship": 14921,
    "Ġpeasant": 13554,
    "rie": 2787,
    "Ġtam": 7821,
    "Ġplat": 8523,
    "bringing": 17168,
    "ipl": 20919,
    "Ġceleb": 20227,
    "Ġbapt": 13898,
    "friends": 8306,
    "officer": 17054,
    "Ġpaddock": 25039,
    "Ġpreface": 18367,
    "changed": 7177,
    "Ġdepths": 4327,
    "Ġwane": 21290,
    "Ġpaddled": 20203,
    "Ġfile": 13905,
    "Ġcrazy": 8597,
    "dro": 6647,
    "rically": 15419,
    "Ġcopy": 10167,
    "Ġdropped": 4473,
    "Ġrelated": 3716,
    "sets": 17661,
    "Ġig": 3500,
    "Ġrails": 22660,
    "mons": 17601,
    "Ġreckless": 13460,
    "uck": 1234,
    "Ġsurrender": 16450,
    "osite": 4894,
    "Ġswain": 18880,
    "Ġjoyously": 19349,
    "Ġtongues": 14864,
    "trimmed": 23951,
    "seaman": 25458,
    "Ġdrags": 16942,
    "Ġextant": 18680,
    "Ġauthors": 10419,
    ")(": 2984,
    "hogs": 20084,
    "Ġejaculated": 15172,
    "Ġhebrew": 13990,
    "Ġunreasonably": 17453,
    "Ġgrapp": 14103,
    "Ġstr": 751,
    "immedi": 8452,
    "pent": 3492,
    "Ġsubsisting": 23436,
    "Ġrustling": 24713,
    "Ġdebts": 8036,
    "rann": 21046,
    "Ġcerem": 7079,
    "reigned": 21244,
    "Ġpoisoned": 24886,
    "Ġpillar": 21475,
    "reputation": 15517,
    "Ġpraised": 19555,
    "Ġtenderness": 12219,
    "Ġuntamed": 19165,
    "cul": 1898,
    "Ġsparsity": 4206,
    "Ġstupid": 7608,
    "Ġvagu": 13592,
    "divers": 15345,
    "stud": 8825,
    "sters": 6391,
    "python": 4693,
    "larking": 17595,
    "Ġperpetually": 17070,
    "erve": 12553,
    "Ġoverbearing": 12847,
    "ht": 375,
    "Ġkills": 15909,
    "ascertain": 21545,
    "cu": 10087,
    "composed": 14741,
    "Ġunfathom": 14789,
    "partner": 19223,
    "Ġ550": 19638,
    "Ġdizzy": 21434,
    "Ġconfessed": 8009,
    "Ġwherever": 8527,
    "Ġportcullis": 26604,
    "Ġaside": 5234,
    "Ġcompared": 2227,
    "Ġeffectually": 16170,
    "skill": 24486,
    "fl": 3599,
    "Ġprinces": 23224,
    "Ġtunnel": 14931,
    "Ġcome": 1243,
    "pockets": 16212,
    "covering": 15336,
    "ĠĠĠĠĠĠĠĠĠĠĠĠĠĠĠĠĠĠĠĠĠĠĠĠĠĠĠĠĠĠĠĠ": 2738,
    "legged": 10469,
    "Ġtumult": 7116,
    "Ġorchard": 22097,
    "Ġcoils": 9307,
    "cles": 8730,
    "Ġpresided": 20209,
    "expressing": 16802,
    "Ġcassock": 20489,
    "Ġnorthward": 13324,
    "Ġende": 21935,
    "Ġprevention": 16096,
    "Ġtremendous": 8354,
    "ourney": 3551,
    "Ġstarve": 24625,
    "Ġnotions": 14101,
    "Ġcongregational": 25104,
    "Ġfrancis": 26063,
    "preser": 9764,
    "Ġchristendom": 16695,
    "Ġembod": 14413,
    "Ġconcrete": 20638,
    "Ġjumped": 7098,
    "Ġgash": 15674,
    "Ġexists": 14040,
    "Ġsecured": 6747,
    "unted": 6999,
    "Ġunclad": 22057,
    "Ġimprinted": 22392,
    "Ġbelonged": 6922,
    "Ġimpenet": 14221,
    "render": 10294,
    "sail": 3602,
    "da": 17515,
    "ouement": 21450,
    "cring": 20812,
    "otograph": 5827,
    "ade": 880,
    "Ò": 147,
    "Ġknowingly": 18482,
    "orough": 5700,
    "susceptible": 24661,
    "braces": 24658,
    "Ġlacey": 10201,
    "ousand": 2425,
    "wat": 6233,
    "Ġvisited": 5949,
    "Ġuncomfortable": 8488,
    "Ġnobler": 14177,
    "anely": 17837,
    "rapid": 12674,
    "Ġincessantly": 11414,
    "Ġdotted": 16793,
    "Ġencompassed": 15256,
    "dorff": 15240,
    "Ġobser": 2070,
    "ification": 1020,
    "germans": 20567,
    "Ġsatan": 14392,
    "Ġirrevocably": 15300,
    "Ġresemblance": 7981,
    "Ġowed": 10783,
    "Ġslid": 7952,
    "Ġdejection": 15199,
    "Ġindirect": 18836,
    "Ġdictionary": 15115,
    "Ġvisiting": 10361,
    "Ġfairy": 14627,
    "Ġgurg": 15676,
    "Ġsend": 4103,
    "architect": 22909,
    "bearers": 18521,
    "Ġlack": 17965,
    "umbs": 14690,
    "rested": 13077,
    "finished": 10558,
    "Ġtug": 11554,
    "Ġpermitting": 22401,
    "ove": 1743,
    "apart": 15964,
    "suff": 4961,
    "Ġtiger": 11558,
    "Ġsilence": 3268,
    "walton": 20251,
    "Ġimpulsive": 19965,
    "oment": 920,
    "embarrassed": 20666,
    "kinder": 24845,
    "saving": 21061,
    "Ġle": 332,
    "curious": 10486,
    "Ġsticks": 14932,
    "escript": 18471,
    "Ġluxury": 20134,
    "confirm": 16808,
    "Ġdun": 6676,
    "Ġburning": 5978,
    "Ġflail": 23010,
    "although": 8811,
    "ounts": 4653,
    "Ġtuck": 10144,
    "Ġexec": 19494,
    "Ġloud": 4702,
    "Ġtyp": 1126,
    "uberance": 25916,
    "Ġsweetness": 9450,
    "Ġhighlands": 22778,
    "Ġbl": 1189,
    "worked": 19031,
    "Ġinnocently": 24030,
    "Ġnatur": 17336,
    "ug": 1765,
    "Ġbanker": 8671,
    "Ġgambler": 26191,
    "Ġconveniently": 20081,
    "amid": 12728,
    "Ġdefinition": 14405,
    "flame": 16639,
    "Ġhardy": 8570,
    "Ġtigris": 25759,
    "ester": 11602,
    "aside": 10195,
    "Ġdu": 4586,
    "Ġincomp": 12901,
    "5": 25,
    "Ġcatherine": 2814,
    "Ġmccauley": 26428,
    "lay": 5892,
    "uned": 21874,
    "Ġcottages": 14728,
    "Ġphenomenon": 17918,
    "Ġsc": 527,
    "Ġfumes": 21420,
    "ze": 1366,
    "Ġfearfulness": 23515,
    "Ġmuzzle": 21323,
    "impregnable": 26482,
    "pil": 15410,
    "Ġfling": 9664,
    "poss": 4779,
    "otence": 14025,
    "Ġfilm": 23928,
    "Ġheated": 21684,
    "bler": 11475,
    "Ġimparted": 15991,
    "Ġconjugal": 25103,
    "sufficiently": 14983,
    "Ġspend": 5306,
    "th": 408,
    "Ġsphy": 18311,
    "ieth": 10707,
    "thing": 1480,
    "Ġbeats": 21755,
    "Ġdrinking": 12172,
    "silent": 9978,
    "Ġlabels": 3288,
    "Ġhav": 12758,
    ",*": 17473,
    "confirmation": 26089,
    "Ġelder": 7225,
    "Ġinsulated": 23681,
    "Ġcontest": 18473,
    "Ġacting": 10994,
    "Ġvexatious": 19783,
    "Ġcoronation": 13336,
    "blu": 12443,
    "Ġvoyage": 3058,
    "inian": 21184,
    "ignantly": 23267,
    "Ġpolic": 13163,
    "mention": 7215,
    "solic": 16380,
    "modern": 1180,
    "Ġdreamt": 23941,
    "othic": 16218,
    "inois": 17739,
    "urous": 10216,
    "Ġbingleys": 18995,
    "Ġsmith": 16067,
    "Ġowen": 15097,
    "Ġregent": 18582,
    "Ġep": 7385,
    "comfort": 5647,
    "header": 11936,
    "Ġcertain": 1561,
    "Ġbowled": 23771,
    "Ġindepend": 3667,
    "nowhere": 18418,
    "Ġresources": 2940,
    "egyptians": 25898,
    "Ġrelaps": 18775,
    "lead": 10169,
    "inex": 14098,
    "Ġpartner": 6716,
    "Ġlogical": 14488,
    "Ġmayhap": 18705,
    "Ġreporting": 24657,
    "Ġsubdued": 11036,
    "Ġswelling": 11928,
    "Ġdevices": 2944,
    "Ġhelen": 16657,
    "vedale": 22712,
    "empl": 5724,
    "Ġtight": 8108,
    "susp": 10600,
    "fo": 5279,
    "Ġengrossed": 13000,
    "Ġanchor": 7369,
    "deliber": 17428,
    "Ġvalued": 12186,
    ".]": 15301,
    "Ġdressed": 5081,
    "wear": 22685,
    "Ġfriesland": 26443,
    "uming": 8494,
    "Ġsnugness": 20079,
    "Ġpredictions": 1454,
    "belated": 24039,
    "strongly": 24684,
    "Ġpretext": 22232,
    "urer": 18124,
    "Ġdissect": 16056,
    "Ġunaware": 22062,
    "bl": 4140,
    "minute": 11277,
    "O": 51,
    "Ġpatroness": 13511,
    "hopes": 15372,
    "Ġly": 2268,
    "land": 1533,
    "rison": 13781,
    "Ġeddying": 17118,
    "sailor": 14716,
    "rose": 6015,
    "Ġnon": 1628,
    "ause": 1312,
    "Ġbowels": 9434,
    "Ġupon": 719,
    "Ġrasc": 21977,
    "Ġlosing": 10919,
    "prep": 9763,
    "Ġsuccession": 12105,
    "Ġpepper": 9785,
    "Ġwarmth": 6905,
    "´": 117,
    "Ġunfrequ": 19510,
    "obtained": 23098,
    "Ġsurvey": 13596,
    "Ġrecounted": 22738,
    "ia": 1258,
    "Ġbrigs": 20324,
    "Ġsquat": 14370,
    "Ġsp": 458,
    "van": 7814,
    "Ġvilest": 20103,
    "Ġsurest": 19057,
    "Ġfew": 1216,
    "Ġposter": 14277,
    "Ġsuavely": 26524,
    "Ġnur": 5710,
    "Ġporpoises": 13384,
    "Ġgreenland": 5761,
    "Ġvaliant": 9804,
    "Ġelucidated": 26029,
    "Ġreve": 2936,
    "Ġpossibility": 7459,
    "Ġsaved": 6692,
    "Ġlanding": 11988,
    "asions": 12655,
    "Ġ73": 24262,
    "Ġivory": 4478,
    "Ġcontextually": 11958,
    "Ġmonkey": 8227,
    "colonel": 8285,
    "Ġregarding": 13212,
    "ensive": 6281,
    "beaut": 8515,
    "lie": 12486,
    "Ġnever": 1019,
    "Ġhospital": 15041,
    "rum": 3469,
    "Ġblows": 5974,
    "Ġcham": 4893,
    "enhall": 13852,
    "Ġpipeline": 2514,
    "Ġcelest": 9905,
    "Ġroy": 4228,
    "Ġwrecks": 16819,
    "neural": 3069,
    "Ġdodge": 19887,
    "Ġstairs": 5541,
    "fellow": 6793,
    "athy": 14325,
    "Ġbreeze": 5681,
    "ap": 547,
    "cking": 4266,
    "Ġcontinu": 1166,
    "solute": 16599,
    "discern": 14852,
    "Ġlascar": 9203,
    "lifeless": 24313,
    "Ġpir": 6818,
    "Ġunearthly": 9040,
    "Ġbehave": 23298,
    "invariably": 26417,
    "Ġwhisper": 6207,
    "Ġhval": 21489,
    "Ġunce": 11715,
    "Ġdecap": 16023,
    "despatched": 19803,
    "Ġhither": 4760,
    "Ġcondense": 21811,
    "Ġdiscl": 9801,
    "reast": 17759,
    "jam": 15374,
    "Ġapprised": 18360,
    "Ġminimax": 5859,
    "Ġgrasp": 4665,
    "Ġpuffs": 14977,
    "Ġapt": 9159,
    "rigging": 20008,
    "addressed": 13387,
    "Ġgoodge": 22826,
    "Ġointment": 21328,
    "Ġcant": 17825,
    "ected": 7873,
    "Ġdepressions": 25798,
    "separated": 20161,
    "Ġoppressively": 25710,
    "kles": 17585,
    "ruding": 9728,
    "Ġ500": 24323,
    "Ġmatch": 4531,
    "isl": 21377,
    "coll": 23781,
    "Ġcommis": 22673,
    "wickham": 5885,
    "Ġdescrying": 18619,
    "Ġheadway": 18791,
    "edding": 4369,
    "rossing": 18642,
    "iocr": 20924,
    "Ġcoiled": 11824,
    "Ġvines": 12755,
    "fitted": 17545,
    "enderby": 25216,
    "Ġsparing": 22133,
    "vid": 913,
    "Ġboldly": 9505,
    "Ġretreating": 19801,
    "pens": 17633,
    "Ġbrist": 14380,
    "Ġtraced": 10387,
    "distrust": 19572,
    "Ġlxi": 21563,
    "Ġhairy": 23867,
    "keep": 3849,
    "Ġborn": 5224,
    "Ġwillingly": 8889,
    "Ġstraightened": 12112,
    "umn": 5836,
    "ike": 5000,
    "Ġcreative": 9834,
    "oof": 15407,
    "Ġfranc": 16354,
    "reclining": 20576,
    "belais": 24040,
    "Ġperceiving": 8880,
    "nearest": 16025,
    "grateful": 10431,
    "Ġevalu": 2744,
    "Ġdoubting": 13101,
    "Ġends": 8238,
    "Ġgibberish": 25786,
    "Ġdeclines": 23965,
    "running": 6798,
    "?--": 15306,
    "Ġyesterday": 5333,
    "glimmer": 26322,
    "Ġindic": 2891,
    "Ġarrest": 7410,
    "ĉ": 202,
    "Ġsickle": 24247,
    "ping": 9619,
    "Ġstruct": 2784,
    "Ġbermud": 26440,
    "Ġincidents": 9303,
    "end": 506,
    "practical": 17223,
    "darcy": 5208,
    "Ġchurned": 18385,
    "Ġthrust": 5084,
    "Ĳ": 243,
    "Ġlargely": 14287,
    "Ġdevilish": 11231,
    "Ġcler": 11774,
    "Ġdisappo": 4507,
    "Ġcommander": 8629,
    "Ġambition": 11435,
    "Ġflutter": 16249,
    "Ġalow": 18101,
    "engagement": 14460,
    "Ġpreach": 14174,
    "Ġcurled": 8226,
    "chronicle": 26481,
    "Ġhyster": 16874,
    "nailed": 20997,
    "Ġbeadle": 26485,
    "Ġpropensity": 18996,
    "Ġnorthwards": 19548,
    "Ġshin": 18227,
    "Ġitems": 9696,
    "Ġuntrodden": 23524,
    "Ġchewed": 16370,
    "too": 4509,
    "Ġwakes": 11576,
    "mere": 11858,
    "metal": 24763,
    "Ġmoments": 4847,
    "Ġgoverning": 2795,
    "Ġexpensive": 12921,
    "plexy": 18575,
    "Y": 61,
    "Ġstation": 5299,
    "Ġcher": 6131,
    "mysteries": 26050,
    "<PAD>": 0,
    "Ġilluminate": 17194,
    "cular": 15330,
    "Ġtested": 23218,
    "ishing": 1145,
    "Ġpunch": 9959,
    "hundreds": 25075,
    "Ġconnect": 797,
    "ivility": 12787,
    "ientific": 6549,
    "ph": 929,
    "degree": 12805,
    "Ġcompanions": 5867,
    "charles": 14700,
    "Ġextinguish": 14331,
    "Ġkicked": 10585,
    "Ġuniformity": 23484,
    "unct": 18156,
    "Ġprematurely": 24008,
    "Ġcarbuncle": 14447,
    "Ġinterlude": 16075,
    "Ġbreaching": 23349,
    "gd": 3126,
    "Ġpenalties": 10414,
    "Ġsheeted": 19833,
    "Ġadding": 2400,
    "animate": 12581,
    "Ġevaporate": 26333,
    "Ġfacing": 10175,
    "jub": 20930,
    "Ġmyst": 4047,
    "Ġbold": 5293,
    "tiness": 21073,
    "Ġprogra": 1146,
    "Ġblight": 18818,
    "counters": 25398,
    "txt": 12519,
    "copyright": 5278,
    "Ġske": 4816,
    "calcul": 12990,
    "supper": 12922,
    "often": 6167,
    "cific": 10089,
    "Ġintently": 8169,
    "Ġgladstone": 23871,
    "umber": 5241,
    "we": 849,
    "Ġform": 1025,
    "Į": 239,
    "Ġprovision": 14826,
    "dar": 20825,
    "revol": 12544,
    "Ġerud": 20057,
    "Ġrequested": 14302,
    "Ġminimum": 23042,
    "valued": 2855,
    "insisted": 23067,
    "queer": 10367,
    "Ġsegmentation": 17342,
    "Ġwon": 1667,
    "ried": 926,
    "Ġced": 10787,
    "posture": 16928,
    "courage": 17511,
    "captains": 12131,
    "..": 5783,
    "Ġdreadful": 4921,
    "Ġabide": 14192,
    "ange": 1018,
    "¤": 102,
    "Ġfitness": 24002,
    "wicked": 24448,
    "Ġbraved": 23840,
    "therefore": 5955,
    "ider": 21768,
    "heading": 5487,
    "Ġhapless": 15815,
    "hist": 7132,
    "Ġtrappers": 23083,
    "illating": 22110,
    "Ġadvertising": 25390,
    "Ġremnants": 22794,
    "Ġcourses": 10413,
    "Ġeve": 13972,
    "Ġtranquilly": 12293,
    "Ġcordial": 16836,
    "Ġbegins": 7245,
    "·": 120,
    "ees": 13713,
    "Ġsluggish": 25890,
    "big": 13688,
    "something": 4285,
    "Ġservox": 23872,
    "Ġreb": 15694,
    "Ġforlorn": 14017,
    "Ġstructured": 2976,
    "clifford": 23157,
    "elope": 14469,
    "Ġwarsaw": 26167,
    "right": 2769,
    "Ġstrive": 23694,
    "Ġneighbour": 3807,
    "compliments": 24806,
    "satisfactory": 16894,
    "Ġattitudes": 16099,
    "Ġdiff": 3117,
    "inea": 7625,
    "Ġheel": 9688,
    "of": 768,
    "Ġgenealogies": 25961,
    "Ġmagnanim": 14474,
    "Ġinch": 7850,
    "charm": 13992,
    "Ġimagenet": 19247,
    "Ġcurved": 18847,
    "Ġdisposition": 5409,
    "Ġinterest": 2249,
    "warning": 25532,
    "Ġindustry": 18838,
    "atherley": 7221,
    "Ġphotography": 24683,
    "Ġholidays": 22923,
    "Ġinsect": 12640,
    "alle": 1292,
    "lengthwise": 19952,
    "Ġbenchmarks": 15023,
    "Ġenjoyed": 8008,
    "condemned": 26060,
    "Ġnavigation": 9997,
    "infidel": 24663,
    "transform": 8050,
    "Ġtaken": 2526,
    "sake": 13785,
    "Ġsudden": 1999,
    "vinegar": 25421,
    "Ġwhitt": 18056,
    "nephew": 26398,
    "bitterly": 20339,
    "tremble": 17143,
    "distressed": 24201,
    "Ġtoll": 7852,
    "Ġduplicity": 25332,
    "Ġcontrivances": 12360,
    "situ": 9625,
    "Ġfacility": 19851,
    "Ġhopkins": 23131,
    "Ġfighting": 12201,
    "Ġfals": 15584,
    "Ġwrig": 13071,
    "Ġboard": 3383,
    "Ġinestimable": 17444,
    "indeed": 4489,
    "continued": 8680,
    "Ġnorris": 23203,
    "swear": 16919,
    "Ġspect": 3550,
    "rier": 9246,
    "Ġseizure": 21967,
    "kish": 20935,
    "Ġtobacco": 8367,
    "house": 4073,
    "Ġinscrut": 10038,
    "vo": 11543,
    "Ġadapted": 11043,
    "ficial": 17549,
    "Ġdesperado": 19821,
    "Ġprovinces": 24192,
    "etite": 21581,
    "Ġerr": 1320,
    "baden": 25615,
    "Ġbohem": 8530,
    "Ġcorpse": 6641,
    "Ġoaths": 13525,
    "Ġcurves": 18846,
    "concluding": 19483,
    "Ġbars": 13899,
    "Ġsciences": 15946,
    "ĠĠĠĠĠĠĠĠĠĠĠĠĠĠĠĠĠĠĠĠĠĠĠĠĠĠĠĠ": 9979,
    "ortal": 6267,
    "Ġabounding": 12347,
    "Ġenthr": 22745,
    "Ġunalterable": 15854,
    "agree": 14069,
    "Ġcasc": 15559,
    "Ġjava": 12315,
    "Ġscrew": 8868,
    "Ġcoin": 9775,
    "Ġconsideration": 5191,
    "irons": 10242,
    "silly": 24421,
    "Ġpoised": 22592,
    "Ġcollecting": 12289,
    "blo": 6355,
    "oct": 7555,
    "Ġredoubled": 23754,
    "Ġprof": 2456,
    "Ġwonders": 7501,
    "Ġdocument": 15020,
    "inously": 21188,
    "scept": 21055,
    "Ġdormouse": 4926,
    "Ġgro": 4398,
    "harbor": 13567,
    "party": 8996,
    "Ġvide": 10254,
    "Ġsched": 2335,
    "wandering": 20286,
    "Ġmarvell": 7249,
    "kin": 7133,
    "Ġversion": 10633,
    "Ġraft": 16120,
    "Ġinvention": 19955,
    "Ġpeels": 22693,
    "bonnet": 25742,
    "Ġurgent": 16870,
    "Ġinfer": 6530,
    "Ġen": 392,
    "Ġnathan": 21528,
    "Ġfriend": 1294,
    "Ġbutler": 18270,
    "frankenstein": 11394,
    "ub": 1228,
    "tree": 11537,
    "hast": 5358,
    "Ġemploys": 19433,
    "Ġalpine": 18107,
    "eli": 3871,
    "desper": 13221,
    "apprec": 22850,
    "Ġbaffled": 12406,
    "bearing": 9769,
    "Ġschol": 17379,
    "akeman": 6269,
    "Ġanonymous": 26178,
    "iable": 3335,
    "Ġlim": 2378,
    "Ġrusty": 14965,
    "suited": 22636,
    "Ġoutrageous": 20612,
    "hate": 20893,
    "Ġinexperience": 26099,
    "ac": 741,
    "Ġfasting": 16358,
    "Ġpallet": 21483,
    "Ġcan": 472,
    "Ġacquitted": 18899,
    "offers": 16398,
    "young": 7322,
    "Ġrevolt": 24503,
    "Ġenglishman": 11232,
    "Ġstepmother": 16093,
    "Ġbrightness": 16578,
    "ifiable": 18165,
    "cake": 20805,
    "strom": 15687,
    "romed": 10908,
    "gabriel": 15363,
    "osis": 18389,
    "Ġgrammatical": 13540,
    "Ġcheshire": 13091,
    "Ġdoubts": 8583,
    "Ġtwine": 14313,
    "Ġincess": 8432,
    "oon": 6366,
    "Ġrampart": 20320,
    "Ġfamiliarly": 11306,
    "prophecy": 22831,
    "deepest": 22824,
    "lanter": 15390,
    "brought": 7286,
    "Ġweek": 2829,
    "Ġaimed": 20252,
    "height": 21207,
    "Ġseas": 3081,
    "sombre": 23856,
    "Ġfurnishing": 16647,
    "Ġmanilla": 15962,
    "Ġbrotherly": 16530,
    "arrang": 14652,
    "Ġexercise": 8359,
    "Ġdebated": 9044,
    "erately": 21275,
    "Ġinsince": 23680,
    "insufferable": 21194,
    "Ġnewsp": 9343,
    "Ġcorps": 13036,
    "trained": 4239,
    "Ġinquirers": 24964,
    "air": 1000,
    "Ą": 197,
    "Ġprocure": 9514,
    "speeches": 25240,
    "Ġwond": 3938,
    "Ġamends": 14247,
    "regard": 7973,
    "Ġouter": 6859,
    "glanced": 19368,
    "Ġgrip": 11631,
    "Ġtechnique": 2312,
    "Ġrevived": 11371,
    "mas": 5212,
    "Ġpresum": 4839,
    "Ġprojects": 9515,
    "Ġlig": 21550,
    "Ġboundary": 11225,
    "matical": 13130,
    "Ġchis": 11754,
    "Ġintroduce": 3204,
    "Ġantarctic": 19554,
    "humoured": 11239,
    "Ġlogs": 16349,
    "Ġfluid": 11215,
    "Ġcoaxing": 18600,
    "Ġcastaways": 19430,
    "istrate": 7407,
    "athan": 2961,
    "Ġtahitian": 25428,
    "Ġardu": 22192,
    "Î": 143,
    "Ġcontrivance": 17185,
    "noticed": 14343,
    "Ġrescales": 5068,
    "satisfaction": 9996,
    "Ġbottom": 3674,
    "Ġhanded": 8217,
    "Ġ48": 24081,
    "Ġwidespread": 20677,
    "horses": 17568,
    "Ġdeliberation": 19971,
    "Ġdangling": 17176,
    "Ġenforced": 21941,
    "emotion": 21933,
    "Ġtorrid": 25034,
    "asant": 17960,
    "aet": 15310,
    "telescope": 26563,
    "Ġcobbler": 25830,
    "Ġcharcoal": 19007,
    "Ġtattered": 21173,
    "Ġinterior": 8899,
    "Ġgallows": 12149,
    "rets": 12545,
    "Ġwinding": 8236,
    "Ġthreatened": 8330,
    "Ġaffidavit": 20725,
    "Ġincarnate": 20377,
    "Ġdiffident": 23785,
    "Ġrelapses": 26279,
    "Ġency": 21936,
    "odings": 4401,
    "shri": 14237,
    "Ġcastles": 16641,
    "Ġsch": 13837,
    "mixed": 17606,
    "Ġtwinkling": 12327,
    "Ġbrother": 2749,
    "Ġdiscernment": 15071,
    "confidential": 25876,
    "penetrate": 20326,
    "Ġaverages": 2396,
    "nine": 13763,
    "Ġsteeply": 23725,
    "Ġbench": 7239,
    "Ġthrees": 23403,
    "pulled": 25148,
    "Ġrevolution": 3305,
    "Ġsnatching": 10475,
    "Ġinquis": 19304,
    "Ġbashee": 19850,
    "cold": 9593,
    "traced": 19647,
    "shook": 19857,
    "Ġyoungster": 23181,
    "unw": 14059,
    "girdling": 26390,
    "elson": 16371,
    "Ġstun": 11653,
    "Ġfelicity": 7261,
    "Ġoccupy": 14732,
    "Ġmichaelmas": 26375,
    "Ġmappings": 2146,
    "Ġenables": 725,
    "crimin": 17510,
    "aches": 6572,
    "Ġunex": 11717,
    "whiteness": 18370,
    "Ġperseus": 10607,
    "Ġsemi": 11972,
    "fastened": 19326,
    "Ġtrailing": 23081,
    "bitts": 26122,
    "Ġfully": 6344,
    "unimportant": 18161,
    "lement": 10170,
    "Ġoppressive": 20457,
    "Ġremarking": 13126,
    "Ġderived": 8239,
    "jep": 20927,
    "Ġspots": 11734,
    "christian": 17234,
    "Ġ80": 24455,
    "Ġsay": 933,
    "Ġcove": 22584,
    "miraculous": 26397,
    "Ġcherub": 23286,
    "Ġconcuss": 19045,
    "bushes": 24446,
    "Ġkiller": 19570,
    "bourn": 3302,
    "geons": 15982,
    "Ġreplete": 15701,
    "Ġcapstan": 9103,
    "Ġgates": 10204,
    "Ġexcess": 3343,
    "Ġdong": 17888,
    "incident": 14591,
    "ous": 477,
    "Ġcolonnades": 26276,
    "icted": 5938,
    "ening": 3107,
    "wheeler": 16191,
    "exercise": 17461,
    "Ġremarked": 3697,
    "Ġenv": 2995,
    "drunk": 24659,
    "Ġdeficient": 18825,
    "Ġwalker": 23304,
    "Ġconceal": 5975,
    "Ġenh": 2958,
    "Ġfarmhouse": 24986,
    "Ġmans": 15539,
    "Ġintercepted": 25827,
    "gg": 1996,
    "Ġefforts": 11809,
    "boots": 11129,
    "consp": 18504,
    "Ġclubs": 25180,
    "Ġmostly": 7665,
    "Ġthereby": 7645,
    "oken": 4308,
    "ishness": 22348,
    "Ġinexper": 16981,
    "Ġsoldier": 16921,
    "Ġsymbolize": 24962,
    "pow": 10720,
    "Ġrelinquish": 17349,
    "Ġpride": 3822,
    "Ġendwise": 23137,
    "Ġblade": 11896,
    "Ġs": 265,
    "confl": 22474,
    "Ġloops": 8857,
    "chase": 11648,
    "Ġflor": 8566,
    "afterwards": 7485,
    "p": 84,
    "Ġextravagance": 17281,
    "Ġsetbacks": 11066,
    "Ġscuffle": 20610,
    "è": 169,
    "bol": 8722,
    "Ġbrush": 17865,
    "acet": 5476,
    "Ġconject": 6028,
    "operations": 19977,
    "itud": 2934,
    "Ġcalculated": 4477,
    "accomp": 10458,
    "za": 13812,
    "oug": 431,
    "Ġpanelled": 19656,
    "Ġ221": 25070,
    "emic": 18186,
    "withstand": 23027,
    "precious": 12076,
    "Ġstirs": 14918,
    "lantic": 6365,
    "Ġhaving": 1880,
    "Ġcellars": 24665,
    "Ġtoward": 17948,
    "Ġday": 958,
    "Ġdens": 21426,
    "ribe": 1224,
    "detached": 19676,
    "rop": 539,
    "Ġpersisting": 18897,
    "Ġponder": 6819,
    "Ġmoluccas": 25629,
    "Ġexpedition": 10637,
    "Ġeleventh": 23371,
    "Ġresisted": 22544,
    "Ġmeadows": 11425,
    "reeable": 3611,
    "Ġenabled": 9300,
    "oky": 8198,
    "Ġhumorously": 18778,
    "owing": 7603,
    "Ġinitialization": 1254,
    "Ġtone": 4036,
    "robustness": 26339,
    "Ġinsp": 2102,
    "Ġhonor": 5664,
    "Ġpeterson": 9487,
    "use": 2533,
    "Ġmag": 1430,
    "Ġcandelabra": 26603,
    "prepar": 22469,
    "Ġmarlingspike": 26580,
    "eye": 6226,
    "Ġtravel": 5954,
    "Ġsle": 2013,
    "Ġcomplexion": 8210,
    "Ġsaville": 15892,
    "Ġvacancy": 9048,
    "Ġcanopy": 18322,
    "special": 14706,
    "Ġinteresting": 4326,
    "Ġcheerful": 6624,
    "Ġverd": 6919,
    "Ġtowers": 16739,
    "Ġsleepless": 14581,
    "erness": 6434,
    "Ġpeculiar": 3153,
    "Ġmeasures": 1203,
    "Ġram": 11016,
    "Ġtwos": 18657,
    "Ġstreat": 15727,
    "Ġbamboo": 17439,
    "Ġcats": 8983,
    "Ġsi": 21214,
    "cannon": 22966,
    "Ġduplicate": 17217,
    "Ġundaunted": 24119,
    "prick": 19345,
    "Ġdilig": 8350,
    "Ġbitterest": 12405,
    "Ġhoops": 9393,
    "Ġaisle": 21203,
    "Ġvect": 1226,
    "Ġsaleve": 17393,
    "instinctively": 26328,
    "whole": 6086,
    "Ġferoc": 14898,
    "cl": 1492,
    "Ġpauses": 14816,
    "dman": 10092,
    "Ġnaut": 13943,
    "Ġanom": 12615,
    "Ġspending": 10927,
    "Ġanswerable": 23471,
    "philosophers": 25253,
    "Ġoutside": 5554,
    "Ġbohemian": 17135,
    "seemed": 4305,
    "stout": 21647,
    "Ġgeneral": 1862,
    "mont": 19170,
    "es": 288,
    "alizing": 17941,
    "Ġworship": 10370,
    "Ġpreaching": 15929,
    "Ġhedges": 19987,
    "Ġmonomania": 17085,
    "Ġframe": 1982,
    "recked": 17763,
    "Ġpractically": 13096,
    "Ġendangered": 16306,
    "Ġmetropol": 11148,
    "Ġsinful": 18950,
    "Ġparticulars": 5754,
    "Ġdry": 5624,
    "written": 7995,
    "Ġinfinity": 23325,
    "Ġsurvivors": 25731,
    "liking": 22926,
    "prove": 11150,
    "Ġdanes": 25160,
    "Ġinitials": 11017,
    "Ġmult": 1023,
    "Ġmistress": 8616,
    "Ġhalls": 19527,
    "Ġdisagree": 22535,
    "mblies": 24608,
    "Ġhush": 13213,
    "Ġunfav": 14788,
    "Ġpatted": 16375,
    "Ġmaybe": 12951,
    "Ġvulgar": 13607,
    "94": 4804,
    "Ġscratch": 25565,
    "Ġhint": 5016,
    "Ġincompetent": 25679,
    "Ġcurious": 3361,
    "Ġcritic": 19122,
    "Ġliable": 14230,
    "Ġginger": 9214,
    "Ġpacked": 9984,
    "Ġadler": 8174,
    "Ġjura": 14194,
    "waters": 11336,
    "Ġdecently": 22445,
    "imately": 12692,
    "Ġdragged": 6889,
    "Ġformless": 22832,
    "Ġrotation": 25475,
    "Ġadroop": 26001,
    "unavoidable": 17392,
    "turbaned": 24531,
    "rather": 5430,
    "med": 1914,
    "Ġheeds": 24519,
    "front": 12174,
    "band": 3062,
    "Ġamuse": 5941,
    "Ġstare": 10867,
    "legra": 10792,
    "Ġplane": 11827,
    "Ġprofessor": 11233,
    "Ġconscience": 6929,
    "iamond": 14590,
    "dut": 10091,
    "been": 3345,
    "Ġro": 600,
    "Ġcontracting": 16014,
    "itically": 21332,
    "morland": 24155,
    "build": 12191,
    "Ġsill": 10768,
    "Ġkneel": 14808,
    "insula": 23066,
    "club": 26381,
    "Ġgans": 5822,
    "bble": 17486,
    "represent": 9641,
    "Ġeigenvalues": 4998,
    "sam": 21053,
    "advantage": 8663,
    "Ġmutineer": 19420,
    "uctive": 17697,
    "Ġdz": 4757,
    "peculiarity": 23112,
    "Ġslightest": 6093,
    "Ġconsequ": 6256,
    "ple": 455,
    "Ġadvice": 4902,
    "Ġalacrity": 15740,
    "Ġforger": 15736,
    "asible": 21544,
    "combined": 20322,
    "Ġbox": 5109,
    "Ġsavor": 23877,
    "antage": 3876,
    "Ġsane": 21223,
    "step": 2452,
    "Ġtarquin": 23611,
    "Ġfossils": 20224,
    "Ġtroop": 24897,
    "ot": 346,
    "sor": 7353,
    "Ġveter": 15814,
    "Ġatmosphere": 10900,
    "Ġxlvi": 25590,
    "Ġtail": 3092,
    "Ġsimpl": 1581,
    "21": 10076,
    "Ġcrammed": 16472,
    "Ġclimb": 15082,
    "Ġconvince": 14642,
    "Ġtraces": 7946,
    "mistakable": 20654,
    "Ġtattooed": 11381,
    "onsense": 6431,
    "sway": 15427,
    "Ġglance": 4232,
    "net": 1193,
    "compan": 7302,
    "tranquillity": 20548,
    "Ġwomanly": 23552,
    "Ġlazily": 11383,
    "Ġinnermost": 12164,
    "Ġstooped": 14465,
    "Ġberyls": 25775,
    "Ġmimic": 3144,
    "extremely": 26264,
    "\":": 9585,
    "Ġunappalled": 22068,
    "Ġswings": 11089,
    "Ġalluding": 18236,
    "mouth": 9134,
    "pocket": 9813,
    "Ġplaguy": 22606,
    "Ġroanoke": 22410,
    "so": 892,
    "carte": 25401,
    "quently": 9706,
    "mut": 17596,
    "luc": 9756,
    "Ġcrackling": 24960,
    "Ġeleg": 6194,
    "beside": 19878,
    "Ġfort": 2579,
    "gone": 6504,
    "İ": 241,
    "Ġbal": 1128,
    "Ġundulates": 24118,
    "Ġcirculating": 23375,
    "breast": 11249,
    "Ġunspeakably": 25173,
    "Ġnoteworthy": 24164,
    "Ġbarbarous": 13478,
    "Ġeffemin": 18540,
    "Ġmoon": 4610,
    "Ġstick": 6027,
    "Ġsizes": 1520,
    "phere": 21020,
    "Ġmasked": 3696,
    "Ġunmindful": 22069,
    "Ġbraz": 19360,
    "Ġpockets": 8900,
    "Ġexhaust": 6399,
    "Ġdeeply": 4718,
    "baboon": 25517,
    "Ġuncovered": 23433,
    "Ġease": 5629,
    "Ġcompromised": 22576,
    "Ġrelevance": 5184,
    "Ġmicrosc": 20678,
    "Ġirresolute": 24916,
    "harpoone": 6109,
    "_),": 7127,
    "moved": 9788,
    "raltar": 24235,
    "taking": 5689,
    "Ġcanal": 8182,
    "Ġpassionately": 16765,
    "umpled": 15879,
    "ok": 572,
    "Ġunwarranted": 24830,
    "lessly": 4558,
    "Ġcondescending": 24868,
    "appetite": 22853,
    "Ġexhaustion": 14962,
    "Ġbloodthirsty": 26602,
    "Ġlizard": 12658,
    "discernible": 20552,
    "Ġconstraint": 16515,
    "Ġpostscript": 14809,
    "Ġinequalities": 26454,
    "Ġsuperglue": 23457,
    "Ġdeal": 3607,
    "Ġfootfalls": 25866,
    "Ġgrasshopper": 24379,
    "cater": 20816,
    "Ġpitiful": 13241,
    "Ġembellished": 25849,
    "ager": 6548,
    "Ġresulting": 24200,
    "Ġresign": 18564,
    "prob": 7071,
    "Ġchoke": 22252,
    "after": 2901,
    "Ġpecks": 18669,
    "Ġdealing": 14049,
    "Ġsinging": 7724,
    "Ġwield": 21292,
    "facts": 19844,
    "Ġlevelled": 11287,
    "Ġtangle": 25760,
    "days": 7688,
    "Ġgrowth": 14629,
    "Ġgamy": 18000,
    "Ġcoward": 7157,
    "fier": 9597,
    "Ġactuated": 18545,
    "accessory": 25500,
    "Ġimpetuous": 25571,
    "Ġmilky": 9951,
    "Ġadvers": 4888,
    "Ġpist": 12619,
    "kindly": 14745,
    "ppo": 18177,
    "Ġlory": 12656,
    "Ġencoding": 4776,
    "Ġbats": 13902,
    "places": 7877,
    "Ġargemone": 24276,
    "Ġneedle": 8275,
    "declaration": 25176,
    "considering": 12178,
    "sweep": 24617,
    "sequently": 14582,
    "allingly": 22202,
    "Ġdestiny": 8987,
    "Ġ183": 13240,
    "credit": 12452,
    "Ġperfectly": 3702,
    "Ġpainful": 6462,
    "bottom": 11429,
    "Ġsect": 17752,
    "Ġimpatience": 7510,
    "Ġlug": 15655,
    "Ġoptimal": 1857,
    "Ġcontemporary": 16015,
    "Ġresolutely": 14609,
    "france": 24283,
    "ingu": 2120,
    "Ġmen": 1435,
    "permitted": 18342,
    "Ġannals": 17899,
    "Ġselected": 9715,
    "chers": 11320,
    "tur": 5688,
    "Ġhearsed": 25041,
    "Ġexisting": 12721,
    "olen": 9704,
    "sides": 12511,
    "australian": 20563,
    "Ġaskance": 23150,
    "Ġanatomical": 15079,
    "stool": 23822,
    "Ġjourney": 3877,
    "/(": 2985,
    "ivened": 22974,
    "robotics": 11309,
    "Ġcomprehending": 24444,
    "aration": 12611,
    "Ġdestro": 3723,
    "Ġsteps": 2867,
    "Ġdiamond": 15602,
    "rying": 3186,
    "Ġperch": 10302,
    "Ġbrig": 11050,
    "Ġensuring": 11194,
    "mrs": 3745,
    "Ġbegun": 7244,
    "resist": 8276,
    "Ġexceed": 1343,
    "nesday": 8707,
    "ails": 6162,
    "Ġholding": 4979,
    "Ġfishing": 9666,
    "Ġupright": 8496,
    "room": 2179,
    "ferent": 4192,
    "Ġconfound": 23305,
    "Ġthis": 382,
    "Ġentrance": 7234,
    "utterly": 20014,
    "while": 2938,
    "Ġproportion": 7282,
    "offered": 14518,
    "Ġporpoise": 7108,
    "deliberated": 26118,
    "gs": 7339,
    "alone": 10187,
    "note": 14342,
    "vative": 1534,
    "rigible": 24931,
    "Ġunprotected": 22070,
    "Ġphysi": 9992,
    "Ġfurious": 10358,
    "stooped": 23824,
    "downstairs": 23922,
    "Ġmanaging": 22328,
    "Ġcrept": 11025,
    "Ġdiggings": 24649,
    "Ġsolemn": 4096,
    "insulting": 26055,
    "Ġfortunately": 12183,
    "wail": 21127,
    "Ġgre": 1584,
    "interred": 23738,
    "barrel": 17060,
    "Ġbert": 4584,
    "Ġvineyarder": 25606,
    "Ġsalutation": 12400,
    "Ġacquiring": 2767,
    "consequ": 18506,
    "Ġour": 1008,
    "ipagos": 22369,
    "Ġoarsman": 8642,
    "shut": 10984,
    "Ġdigging": 14939,
    "Ġampl": 22483,
    "Ġscholars": 26112,
    "screw": 9351,
    "Ġbreath": 4792,
    "Ġoutright": 18413,
    "invest": 11563,
    "Ġwisest": 11235,
    "Ġfinest": 10395,
    "stem": 573,
    "Ġrum": 5925,
    "Ġviolent": 5117,
    "Ġmisty": 16542,
    "instant": 8656,
    "Ġintim": 6838,
    "Ġbenignity": 18782,
    "Ġminutely": 14560,
    "Ġimpet": 11783,
    "Ġforget": 2632,
    "Ġpersuaded": 5769,
    "prodig": 16429,
    "Ġcrumpled": 16440,
    "appear": 13198,
    "accursed": 20542,
    "Ġunra": 18237,
    "dle": 3306,
    "Ġunsavory": 20708,
    "Ġfinny": 23128,
    "Ġoily": 13866,
    "Ġdidst": 11852,
    "aswag": 21548,
    "Ġspaniards": 25556,
    "inguish": 9401,
    "Ġlassitude": 20589,
    "Ġpaternal": 16377,
    "Ġ*": 1272,
    "grees": 20887,
    "ived": 1536,
    "scenes": 16246,
    "ggy": 13116,
    "Ġabst": 9270,
    "abama": 12713,
    "Ġpillows": 24988,
    "Ġfishes": 11595,
    "Ġrug": 16161,
    "Ġdecreasing": 2439,
    "angel": 5726,
    "idered": 4555,
    "became": 10518,
    "hind": 20895,
    "always": 5708,
    "Ġimpreg": 15990,
    "ateg": 1318,
    "Ġmrs": 1466,
    "loun": 17589,
    "Ġdisown": 22527,
    "dig": 4930,
    "gal": 15358,
    "Ġhoisted": 5961,
    "Ġcompliment": 5673,
    "inlaid": 21192,
    "Ġobservations": 13556,
    "Ġjapan": 7641,
    "iment": 2817,
    "bare": 12444,
    "Ġvia": 2380,
    "Ġju": 10290,
    "Ġsuspense": 9422,
    "successfully": 14993,
    "Ġelbows": 18635,
    "ichron": 22166,
    "Ġostr": 21327,
    "Ġties": 12531,
    "buckets": 26123,
    "ù": 186,
    "Ġhaw": 10255,
    "½": 126,
    "Ġautoregressive": 3431,
    "Ġpassengers": 13678,
    "Ġconnections": 972,
    "Ġsordid": 26423,
    "Ġscenes": 5730,
    "Ġcalculates": 13267,
    "av": 739,
    "Ġallegor": 25546,
    "cloud": 11109,
    "rates": 21040,
    "Ġho": 1934,
    "sit": 13782,
    "Ġdrawled": 23991,
    "breckinridge": 24075,
    "Ġunivers": 2126,
    "Ġbattalions": 25776,
    "Ġgroans": 14825,
    "field": 3074,
    "Ġsufferable": 16258,
    "hinting": 17570,
    "Ġsources": 10151,
    "Ġplay": 2624,
    "Ġshelter": 17009,
    "despicable": 24637,
    "Ġpulley": 2979,
    "Ġshoved": 23491,
    "Ġremotest": 10056,
    "Ġwithdrawn": 10610,
    "Ġkeeping": 7284,
    "Ġbowl": 11207,
    "Ġexpiring": 16101,
    "Ġlead": 3521,
    "Ġimbec": 14158,
    "Ġintelligences": 12836,
    "Ġlandlord": 5581,
    "Ġdefines": 1742,
    "Ġ66": 24368,
    "only": 3308,
    "Ġtells": 9366,
    "unching": 18160,
    "intentions": 22941,
    "angling": 14141,
    "sc": 1259,
    "Ġinterview": 9774,
    "morrow": 4574,
    "inkers": 22620,
    "anite": 17838,
    "requiem": 24856,
    "Ġprofile": 16489,
    "attended": 8956,
    "fing": 13715,
    "Ġextracting": 11104,
    "Ġarrant": 23297,
    "luxur": 25822,
    "finally": 9503,
    "Ġcarelessly": 11123,
    "Ġguilt": 6181,
    "Ġshocking": 10438,
    "meryton": 10115,
    "Ġmainten": 16117,
    "Ġcushion": 17834,
    "text": 1974,
    "uttering": 12666,
    "tit": 11531,
    "Ġbeauty": 3769,
    "Ġfuneral": 10287,
    "ruff": 15898,
    "bbs": 23693,
    "Ġlanterns": 24577,
    "ificent": 8184,
    "Ġexhib": 6351,
    "Ġpagoda": 19790,
    "Ġfacts": 2288,
    "Ġbouquet": 20685,
    "Ġcyn": 13888,
    "tahit": 17693,
    "Ġchicha": 15939,
    "âĢľ_": 5720,
    "Â·": 21151,
    "Ġslaughtered": 26585,
    "Ġcircumvent": 25066,
    "precipitance": 25867,
    "Ġlegal": 10442,
    "Ġpioneer": 17920,
    "Ġrespectively": 23249,
    "Ġcable": 11584,
    "adamite": 20595,
    "Ġalleghan": 25795,
    "Ġbrings": 11883,
    "Ġchill": 11756,
    "Ġhospit": 7515,
    "Ġpunctilious": 26354,
    "Ġdiverse": 19211,
    "Ġenvironmental": 24128,
    "Ġmisled": 22758,
    "Ġimmured": 24072,
    "Ġaccumulates": 2895,
    "Ġrudeness": 17126,
    "Ġcraven": 16471,
    "Ė": 215,
    "un": 373,
    "Ġsob": 12792,
    "hit": 20890,
    "Ġtestimony": 14478,
    "regarded": 12011,
    "Ġsuffers": 2977,
    "etieth": 21586,
    "cated": 20804,
    "put": 414,
    "Ġma": 3251,
    "named": 9895,
    "ĠĠĠĠĠĠĠĠĠĠĠĠĠĠĠĠĠĠĠĠĠĠĠĠĠĠĠĠĠĠĠĠĠĠĠĠĠĠĠĠĠĠĠĠĠĠĠ": 16756,
    "Ġconsole": 8151,
    "Ġboiling": 8529,
    "antages": 7193,
    "detained": 24381,
    "Ġascendency": 20234,
    "Ġsuite": 18278,
    "Ġtransformers": 1135,
    "coloured": 7292,
    "Ġcapture": 3384,
    "Ġexactly": 2768,
    "Ġseen": 1368,
    "conf": 4957,
    "Ġdiscove": 16158,
    "Ġsimilarly": 24309,
    "suggested": 17301,
    "narwhale": 17320,
    "Ġconqueror": 25796,
    "how": 1646,
    "Ġnasty": 17445,
    "Ġtroops": 24898,
    "`": 68,
    "Ġmiddle": 4135,
    "Ġun": 423,
    "Ġjudge": 5502,
    "Ġdl": 3376,
    ";âĢĿâĢĶ": 20761,
    "entreat": 17977,
    "Ġdinnertime": 16720,
    "Ġslipping": 13363,
    "Ġmaddened": 17245,
    "Ġfringe": 17273,
    "no": 882,
    "emberley": 4169,
    "Ġwomen": 4751,
    "snowy": 20285,
    "Ġintermission": 18593,
    "Ġunhallowed": 17182,
    "Ġunostentatious": 22072,
    "Ġet": 3579,
    "somewhere": 12016,
    "swallow": 24259,
    "Ġbefallen": 12346,
    "dest": 4099,
    "Ġaffidav": 18788,
    "Ġfoot": 3162,
    "declined": 25175,
    "Ġsap": 18323,
    "Ġal": 342,
    "Ġbat": 10798,
    "expressed": 9045,
    "Ġpursued": 6330,
    "Ġcalifornia": 20532,
    "Ġlash": 8440,
    "Ġpar": 456,
    "inav": 15486,
    "empty": 23638,
    "yellow": 9628,
    "Ġconj": 8462,
    "riet": 18182,
    "Ġ177": 13414,
    "a": 69,
    "Ġagonising": 25374,
    "Ġchim": 5934,
    "Ġfalls": 14644,
    "Ġburn": 3683,
    "occurrences": 26332,
    "swept": 19788,
    "beings": 12881,
    "Ġmoodily": 19836,
    "warmly": 25028,
    "Ġseating": 18201,
    "Ġexhilar": 19685,
    "Ġapparent": 5466,
    "Ġeth": 17717,
    "Ġuncontrollable": 25814,
    "Ġ105": 24412,
    "provoke": 26071,
    "nelson": 25620,
    "man": 1054,
    "batt": 20779,
    "Ġflour": 8948,
    "Ġsque": 18757,
    "Ġvap": 6837,
    "Ġsquee": 7929,
    "Ġtheory": 5799,
    "Ġourselves": 5127,
    "reinforcement": 7826,
    "Ġnic": 7377,
    "garnished": 26389,
    "Ġmeryton": 4439,
    "security": 26207,
    ",âĢĿâĢĶ": 14222,
    "Ġunfulfilled": 26510,
    "Ġinvisibly": 24813,
    "Ġpractical": 3164,
    "Ġfeeds": 16436,
    ":âĢĶâĢĺ": 24195,
    "herself": 4891,
    "Ġ1883": 23900,
    "goodness": 19289,
    "displayed": 20737,
    "Ġjealousy": 13579,
    "Ġbrittle": 22864,
    "cannot": 5745,
    "Ġimprecate": 20520,
    "distrustful": 26331,
    "Ġsmothe": 18573,
    "Ġthose": 1173,
    "Ġconfidence": 6592,
    "meadow": 18679,
    "cont": 2924,
    "Ġrapturously": 24888,
    "Ġsoutherly": 23337,
    "Ġcontentment": 14871,
    "Ġhole": 6080,
    "Ġreligion": 11418,
    "Ġboxed": 24359,
    "Ġtrotting": 19978,
    "Ġenter": 4027,
    "Ġsplash": 16551,
    "Ġcosy": 13132,
    "Ġvouch": 15812,
    "ash": 1992,
    "Ġflood": 7716,
    "ries": 3354,
    "Ġreliance": 14387,
    "prehensible": 12363,
    "rubbed": 22183,
    "erranean": 9338,
    "strange": 6087,
    "Ġimage": 3403,
    "Ġrelig": 8554,
    "behold": 12882,
    "oblivious": 26583,
    "Ġtwink": 8216,
    "Ġladyship": 5046,
    "Ġspire": 18306,
    "Ġlambton": 10661,
    "tan": 4743,
    "Ġlikeness": 11182,
    "Ġwherein": 14295,
    "Ġconfluent": 19038,
    "Ġintensified": 17019,
    "Ġhesitated": 10006,
    "Ġrestlessness": 23291,
    "ivered": 7007,
    "Ġknots": 15010,
    "glue": 17557,
    "Ġtime": 689,
    "Ġability": 2764,
    "Ġtrust": 4075,
    "Ġdism": 9771,
    "Ġcorrection": 5062,
    "Ġneck": 4886,
    "Ġabode": 7901,
    "ab": 345,
    "Ġpur": 2215,
    "Ġannual": 14833,
    "repro": 10773,
    "leaving": 10794,
    "Ġwooden": 4731,
    "Ġtacit": 21176,
    "oft": 3590,
    "Ġadieu": 10055,
    "Ġlecture": 13570,
    "amongst": 24672,
    "Ġhart": 17923,
    "dutch": 17220,
    "Ġwhen": 514,
    "Ġlaug": 3626,
    "Ġsnows": 14727,
    "Ġplentiful": 12915,
    "Ġimparts": 18445,
    "thickness": 25368,
    "Ġpanic": 11289,
    "Ġmississ": 18840,
    "Ġhesitation": 13443,
    "Ġsunbeam": 23277,
    "Ġhailing": 11697,
    "directed": 20407,
    "houn": 20894,
    "Ġbanquet": 15243,
    "Ġtaste": 5524,
    "Ġgenerative": 5644,
    "Ġendeavored": 19303,
    "Ġbrown": 6300,
    "uled": 11540,
    "Ġbra": 3253,
    "Ġfainted": 8797,
    "Ġentitled": 8542,
    "Ġpound": 12620,
    "Ġunaccount": 22030,
    "Ġreced": 15695,
    "Ġfif": 4216,
    "Ġaccess": 9751,
    "twelvemonth": 25862,
    "omin": 4704,
    "Ġreflect": 6577,
    "Ġcarter": 18901,
    "Ġsettles": 22921,
    "iteness": 4394,
    "isturbed": 18297,
    "favourable": 12267,
    "whale": 2140,
    "Ġspies": 22132,
    "Ġrumours": 24598,
    "grown": 10103,
    "Ġaffectionately": 13170,
    "Ġpurchas": 19875,
    "Ġburtons": 19254,
    "nest": 10117,
    "Ġcrowder": 19458,
    "Ġge": 1978,
    "do": 1995,
    "aster": 1867,
    "Ġtranque": 14201,
    "Ġbargain": 23794,
    "Ġplacing": 8905,
    "ulgent": 18151,
    "class": 4092,
    "precision": 4332,
    "Ġacres": 14315,
    "Ġdelay": 5748,
    "amples": 1820,
    "Ġcircumference": 13546,
    "Ġprinc": 4198,
    "Ġsweeping": 8989,
    "Ġcontinue": 5398,
    "Ġdecisions": 6704,
    "ashtego": 4098,
    "Ġlion": 9679,
    "crowning": 25748,
    "others": 7671,
    "impl": 21709,
    "ckles": 22092,
    "Ġnam": 17950,
    "Ġsuperst": 7704,
    "Ġdash": 8122,
    "Ġgowns": 25360,
    "Ġreally": 2158,
    "firm": 10701,
    "shop": 14239,
    "Ġfads": 21418,
    "Ġferocious": 17421,
    "Ġcopse": 17067,
    "Ġrepeating": 11216,
    "Ġhearken": 21687,
    "Ġstaid": 21741,
    "Ġlately": 6387,
    "imet": 21708,
    "shipmates": 11931,
    "Ġbreeds": 23350,
    "Ġliterally": 15119,
    "Ġsharp": 2411,
    "dening": 22781,
    "moderate": 22869,
    "Ġregard": 3070,
    "oglyph": 11021,
    "Ġjacob": 1897,
    "Ġprovidence": 18746,
    "Ġface": 1723,
    ",--âĢľ": 19199,
    "Ġpreserve": 7530,
    "Ġkeeps": 8267,
    "Ġshipping": 14106,
    "dripping": 16906,
    "reward": 15511,
    "Ġaccompan": 5513,
    "tains": 10965,
    "Ġmors": 17802,
    "Ġrelease": 19291,
    "inde": 17732,
    "Ġlevers": 18066,
    "Ġvertically": 19382,
    "Ġ181": 23898,
    "swells": 26148,
    "Ġchorus": 10949,
    "Ġwillingness": 24910,
    "Ġdistillation": 16048,
    "miles": 10715,
    "Ġcomparatively": 9494,
    "illar": 5101,
    "Ġcovered": 5171,
    "cely": 3573,
    "Ġcircumnavigation": 20402,
    "itions": 4146,
    "Ġlodged": 11254,
    "Ġbounding": 19402,
    "Ġmentioning": 9903,
    "Ġbriskly": 25312,
    "esc": 618,
    "000": 2559,
    "ilated": 18059,
    "fish": 3514,
    "Ġbrute": 8931,
    "alvan": 21506,
    "Ġpyramid": 8807,
    "Ġliberality": 24376,
    "Ġperplex": 2716,
    "ogany": 18676,
    "Ġradiant": 16810,
    "unwillingly": 21887,
    "Ġbehaviour": 4386,
    "Ġmoving": 1680,
    "Ġhumanity": 6733,
    "wilful": 25152,
    "ascar": 8436,
    "elephant": 12354,
    "Ġtatters": 21179,
    "ve": 322,
    "Ġglasses": 9479,
    "Ġdazz": 11598,
    "Ġunlock": 18243,
    "lucky": 24544,
    "Ġpie": 13917,
    "Ġworth": 4418,
    "Ġviciss": 11295,
    "ieces": 4773,
    "Ġaustralia": 15235,
    "Ġplant": 8904,
    "Ġcontemplative": 19894,
    "Ġartistic": 18611,
    "Ġch": 513,
    "Ġevidently": 6760,
    "Ġsultan": 15187,
    "Ġcontract": 18475,
    "Ġpredomin": 16043,
    "cause": 7796,
    "mit": 4934,
    "Ġdeficiency": 14404,
    "Ġahead": 6665,
    "anders": 18154,
    "mathematics": 26304,
    "Ġavenues": 25430,
    "Ġele": 1964,
    "forks": 26388,
    "Ġcombined": 8550,
    "elve": 4643,
    "Ġdiscretion": 10351,
    "Ġbehav": 3538,
    "Ġthre": 2059,
    "footman": 17164,
    "Ġelevation": 14900,
    "oak": 21004,
    "Ġimmortality": 26326,
    "persuade": 13534,
    "Ġequal": 4132,
    "Ġhappens": 2188,
    "8": 28,
    "Ġinterruption": 9477,
    "Ġmagg": 18906,
    "carries": 19529,
    "Ġpantry": 20297,
    "Ġwhelm": 25998,
    "Ġsentiment": 6590,
    "ana": 15562,
    "Ġclustered": 25234,
    "aned": 5147,
    "isher": 2882,
    "Ġdenying": 14658,
    "M": 49,
    "Ġcompress": 21852,
    "separ": 9234,
    "Ġloosened": 26002,
    "Ġwholly": 4448,
    "descried": 11932,
    "Ġstream": 5186,
    "Ġknob": 24406,
    "Ġextra": 4088,
    "ien": 10105,
    "Ġcordially": 16837,
    "Ġanalysis": 1962,
    "vering": 15719,
    "all": 486,
    "nue": 15399,
    "Ġseems": 2478,
    "Ġplayfulness": 23640,
    "Ġra": 816,
    "Ġcor": 1321,
    "Ġgips": 10844,
    "cod": 12447,
    "ce": 313,
    "swam": 24256,
    "Ġgazes": 24095,
    "Ġemploy": 3614,
    "Ġfollies": 16256,
    "given": 8377,
    "maged": 15396,
    "Ġodious": 12154,
    "Ġcannon": 14155,
    "Ġbel": 1214,
    "Ġuplifted": 11650,
    "bweb": 20792,
    "Ġblend": 14400,
    "afer": 17483,
    "Ġsnoo": 21230,
    "Ġsensitiveness": 23736,
    "elter": 21573,
    "Ġmarvelled": 18874,
    "pointing": 12228,
    "Ġcongealed": 25981,
    "raid": 3280,
    "Ġare": 526,
    "fast": 3073,
    "Ġsincere": 11139,
    "Ġstrength": 4260,
    "Ġ94": 17718,
    "Ġimpious": 15989,
    "Ġblasphemy": 26115,
    "Ġfolds": 12210,
    "Ġarsac": 11746,
    "Ġvolat": 24146,
    "Ġallow": 1123,
    "bit": 3931,
    "ders": 8075,
    "advanced": 19590,
    "everywhere": 23699,
    "Ġuncivilized": 25499,
    "ment": 691,
    "Ġany": 688,
    "ighter": 7968,
    "Ġkindled": 19027,
    "Ġjapanese": 10636,
    "irth": 5634,
    "Ġcrimin": 6901,
    "Ġyellow": 5302,
    "Ġtreating": 4284,
    "Ġcinque": 20488,
    "Ġgroaned": 11269,
    "Ġsqualls": 17021,
    "Ġstrongly": 5657,
    "Ġstump": 7607,
    "fig": 8739,
    "Ġjoke": 8873,
    "first": 3933,
    "Ġsprung": 11251,
    "Ġapoplexy": 25266,
    "Ġoperations": 2298,
    "Ġtogether": 1878,
    "Ġparmacetti": 20606,
    "struck": 7862,
    "Ġposture": 24166,
    "Ġmomentous": 16174,
    "Ġdawned": 14996,
    "Ġobedient": 20107,
    "ger": 1104,
    "Ġlobes": 22118,
    "voices": 21119,
    "Ġcountess": 11965,
    "hur": 6651,
    "Ġlunatic": 24992,
    "Ġtrampled": 20330,
    "understanding": 1133,
    "Ġdetermines": 2365,
    "moral": 14803,
    "Ġfathers": 16298,
    "Ġnecess": 3475,
    "Ġtransported": 11282,
    "pate": 21011,
    "Ġsullen": 9161,
    "marks": 7347,
    "perth": 22184,
    "l": 80,
    "Ġhysterical": 26092,
    "Ġaback": 22279,
    "Ġmagnetic": 17242,
    "blast": 9591,
    "Ġunc": 2125,
    "nay": 7137,
    "inquire": 16933,
    "nour": 20989,
    "Ġ2026": 12338,
    "Ġdispose": 23881,
    "most": 1257,
    "Ġfaire": 13367,
    "Ġbrook": 13051,
    "Ġimprecations": 25820,
    "ane": 1177,
    "Ġlou": 6822,
    "ander": 6401,
    "Ġreceives": 20356,
    "Ġknife": 7310,
    "Ġplutarch": 22605,
    "fordshire": 4678,
    "ario": 14249,
    "Ġdenominated": 15231,
    "Ġtelescopes": 25690,
    "contr": 12060,
    "Ġscrutin": 26014,
    "Ġedges": 3825,
    "Ġedward": 19152,
    "Ġfervour": 19728,
    "Ġchurning": 15940,
    "Ġtransmit": 10308,
    "Ġhadn": 9723,
    "Ġpossessions": 23827,
    "Ġvinegar": 20102,
    "Ġtrace": 6182,
    "Ġconvivial": 16550,
    "ig": 323,
    "Ġdetested": 14176,
    "Ġfowl": 11333,
    "Ġgravesend": 15219,
    "Ġattain": 12751,
    "cil": 8725,
    "obliv": 23099,
    "Ġelegant": 7533,
    "converse": 22478,
    "Ġtobacc": 7853,
    "Ġcompliance": 12118,
    "Ġarrog": 18345,
    "punct": 20194,
    "Ġabilities": 8872,
    "Ġchristians": 13311,
    "Ġhan": 15621,
    "Ġcommonplace": 11099,
    "istle": 15873,
    "Ġreverse": 16983,
    "Ġknighthood": 25298,
    "Ġwire": 13854,
    "Ġcollected": 2610,
    "Ġcarcase": 14446,
    "Ġdevelop": 1671,
    "Ġjerking": 12249,
    "Ġsupplication": 25492,
    "Ġpos": 1009,
    "Ġrucastles": 18721,
    "Ġwag": 10778,
    "Ġcoleman": 22589,
    "snapping": 24849,
    "name": 6796,
    "Ġutilize": 4799,
    "Ġpythag": 26449,
    "Ġjac": 1896,
    "Ġreproof": 24890,
    "dles": 11484,
    "bale": 20775,
    "Ġtrousers": 12418,
    "Ġunhing": 18241,
    "ipt": 12482,
    "trick": 19415,
    "long": 2916,
    "onsensical": 18576,
    "Ġdiving": 12605,
    "Ġveiled": 16203,
    "Ġhist": 2440,
    "Ġcool": 5734,
    "hollow": 24042,
    "ernsey": 8906,
    "Ġfitting": 21410,
    "Ġgall": 4353,
    "Ġswaying": 15048,
    "ascended": 24704,
    "Ġfeatureless": 22611,
    "Ġbur": 2699,
    "Ġveins": 8936,
    "george": 26019,
    "legs": 13184,
    "Ġfurnished": 6475,
    "Ġdummy": 25450,
    "Ġblessed": 6931,
    "ember": 1957,
    "Ġgorge": 13569,
    "Ġyoke": 18097,
    "inconsiderable": 21193,
    "rel": 3754,
    "Ġrequires": 1015,
    "Ġhorizont": 6937,
    "Ġdealer": 23979,
    "Ġshowing": 7732,
    "Ġstrict": 7222,
    "Ġlooking": 2470,
    "Ġvoc": 4452,
    "Ġput": 1796,
    "mates": 5073,
    "Ġhonest": 7288,
    "Ġdefect": 8558,
    "Ġtrains": 10950,
    "Ġincluding": 2854,
    "Ġmaid": 5287,
    "Ġoccupies": 24010,
    "ë": 172,
    "Ġcaptiv": 16257,
    "Ġhideous": 5984,
    "umer": 9262,
    "Ġhoisting": 9866,
    "Ġsepul": 14092,
    "itation": 1778,
    "Ġdimens": 3150,
    "Ġtags": 20573,
    "Ġuniverse": 14126,
    "Ġsuspecting": 14911,
    "Ġhovering": 10182,
    "can": 1233,
    "Ġbreathlessly": 24282,
    "Ġsustain": 10021,
    "Ġqueequeg": 2012,
    "cannibal": 15227,
    "Ġemployment": 8633,
    "Ġphrases": 2797,
    "rogress": 21538,
    "isite": 15566,
    "din": 8374,
    "Ġpolite": 9886,
    "Ġsalisbury": 24065,
    "Ġcheating": 16367,
    "ear": 8735,
    "lled": 10111,
    "Ġavenue": 13624,
    "?âĢĿ": 700,
    "Ġattraction": 18620,
    "excepting": 19708,
    "Ġconce": 3422,
    "odecim": 9836,
    "Ġbenevol": 5963,
    "Ġhandled": 12940,
    "Ġaver": 1285,
    "Ġoozy": 21329,
    "Ĥ": 229,
    "animal": 16979,
    "hig": 12478,
    "milk": 20479,
    "aph": 10957,
    "Ġspeechless": 13356,
    "Ġminimize": 7052,
    "Ġcomple": 2844,
    "Ġemir": 23352,
    "Ġfill": 5701,
    "Ġcoburg": 18599,
    "Ġgigantic": 5916,
    "ĠâĢĶ_": 3457,
    "cho": 2761,
    "Ġluc": 3311,
    "deemed": 18315,
    "Ġconc": 1842,
    "Ġtry": 3135,
    "Ġwra": 5907,
    "utional": 17985,
    "rior": 12746,
    "said": 4100,
    "Ġsuspending": 19245,
    "Ġstalked": 20431,
    "atching": 8202,
    "useless": 14594,
    "Ġfedallah": 6110,
    "Ġtypewriter": 19098,
    "Ġriv": 10749,
    "tin": 6118,
    "Ġengland": 3855,
    "Ġkill": 4455,
    "Ġmuhammad": 26169,
    "ahab": 4291,
    "learned": 8605,
    "Ġvexations": 24609,
    "readily": 19364,
    "Ġcarn": 17822,
    "Ġoverwhel": 8197,
    "aid": 1922,
    "Ġstubborn": 10416,
    "effectually": 25131,
    "nuts": 15400,
    "Ġholiest": 18812,
    "imony": 12694,
    "Ġparr": 22122,
    "Ġpicked": 6343,
    "Ġcared": 8788,
    "frequent": 15356,
    "mber": 5850,
    "apers": 3480,
    "expound": 23664,
    "pattern": 4290,
    "Ġbrougham": 17871,
    "ther": 482,
    "Ġwhipcord": 20097,
    "anse": 12579,
    "admirably": 24946,
    "due": 22413,
    "ishnoo": 10959,
    "Ġflashes": 11919,
    "Ġattentive": 9037,
    "meetings": 20380,
    "Ġlasting": 18790,
    "Ġrelent": 18774,
    "Ġfan": 2034,
    "fishery": 10036,
    "strike": 14950,
    "Ġparticularly": 5056,
    "vanished": 15062,
    "Ġobstacles": 19837,
    "Ġnations": 8815,
    "icious": 7381,
    "Ġ15": 9328,
    "Ġgoin": 18469,
    "Ġoffence": 12948,
    "Ġnature": 2536,
    "inite": 6003,
    "kine": 15378,
    "mb": 884,
    "steam": 23962,
    "Ġmagn": 1558,
    "regularization": 3513,
    "unities": 15774,
    "Ġrept": 13985,
    "loom": 18535,
    "Ġburned": 8635,
    "civilities": 24973,
    "Ġblinding": 14729,
    "cks": 3083,
    "watches": 14948,
    "Ġserene": 8167,
    "sharks": 14241,
    "sec": 6154,
    "icity": 2537,
    "Ġdetermined": 2220,
    "contented": 14634,
    "Ġcoppers": 22587,
    "faces": 13722,
    "Ġamazing": 9981,
    "offer": 19061,
    "Ġventure": 7740,
    "Ġproposition": 23251,
    "onial": 11570,
    "neat": 22451,
    "Ġjourneys": 19477,
    "ides": 2160,
    "Ġspars": 3809,
    "Ġconfident": 11141,
    "dial": 20826,
    "worshipping": 16611,
    "Ġpermission": 9283,
    "inal": 15482,
    "Ġsprout": 24089,
    "Ġmaintenance": 17463,
    "Ġholder": 6726,
    "fra": 8375,
    "Ġsignificant": 8638,
    "bewil": 22500,
    "Ġgunwale": 7326,
    "sequence": 2859,
    "Ġengine": 1920,
    "Ġdegree": 3705,
    "heim": 17747,
    "flatter": 23969,
    "Ġcadiz": 17327,
    "ascertaining": 26461,
    "icip": 6389,
    "Ġmagnitudes": 3821,
    "Ġpropontis": 17467,
    "irectly": 6940,
    "Ġemb": 1227,
    "Ġmanifested": 17159,
    "Ġwreat": 15533,
    "Ġincredulous": 9991,
    "Ġdemanded": 8327,
    "Ġanalogy": 25639,
    "Ġinter": 729,
    "requirements": 24857,
    "Ġdesign": 4129,
    "Ġnovelties": 24776,
    "Ġclothing": 18424,
    "questioning": 16851,
    "bless": 22315,
    "Ġbolivia": 24667,
    "Ġawake": 8272,
    "Ġevenings": 18755,
    "happened": 9437,
    "posted": 24635,
    "Ġslumbering": 25701,
    "Ġpostpone": 17309,
    "Ġmurmur": 14589,
    "feren": 767,
    "msgate": 18410,
    "Ġhurricane": 16434,
    "Ġexpense": 7653,
    "Ġric": 18209,
    "Ġpag": 6012,
    "Ġpeas": 8537,
    "Ġclergyman": 8716,
    "churning": 21699,
    "Ġtake": 1580,
    "ylon": 24977,
    "Ġadie": 8491,
    "prises": 23816,
    "Ġcaval": 25769,
    "Ġpap": 8803,
    "Ġfixing": 13158,
    "reason": 4416,
    "Ġbeloved": 5572,
    "Ġimbued": 17457,
    "Ġsuspend": 14608,
    "Ġhorribly": 16344,
    "Ġbashful": 20422,
    "Ġsurround": 4619,
    "Ġfresher": 23210,
    "gazing": 12475,
    "Ġstatue": 23149,
    "Ġgruff": 21616,
    "strong": 6324,
    "Ġincom": 9773,
    "Ġfish": 2711,
    "Ġsuffering": 8950,
    "espe": 3497,
    "Ġfrankness": 16747,
    "Ġbarque": 23792,
    "Ġfrowning": 13626,
    "Ġburke": 19252,
    "Ġtashtego": 4488,
    "Ġcompanies": 14557,
    "farm": 15354,
    "bulk": 19925,
    "nihil": 9852,
    "Ġdangerous": 6616,
    "Ġramadan": 9579,
    "Ġhumming": 12989,
    "Ġdeadly": 5405,
    "Ġhistories": 14687,
    "fthand": 26387,
    "Ġphysiology": 25333,
    "Ġrailway": 15022,
    "Ġexpeditions": 24956,
    "Ġinducements": 24967,
    "Ġthw": 21517,
    "Ġcombing": 22839,
    "yards": 9627,
    "Ġapproach": 845,
    "isition": 11590,
    "Ġjonah": 3479,
    "Ġwooing": 19436,
    "expl": 9287,
    "Ġwiser": 14731,
    "Ġcav": 13882,
    "Ġfordham": 21779,
    "Ġfuture": 1139,
    "Ġcontrary": 5261,
    "avier": 2833,
    "Ġscenarios": 26540,
    "Ġenglish": 3613,
    "bearded": 18519,
    "Ġke": 1156,
    "Ġtyphoon": 12392,
    "Ġclassifies": 11841,
    "Ġaquiline": 26159,
    "Ġunconsciously": 10009,
    "Ġminded": 23232,
    "scence": 14421,
    "Ġrequisition": 22643,
    "Ġpersonally": 8603,
    "ł": 259,
    "Ġdissipate": 13636,
    "Ġavail": 11229,
    "Ġdampening": 2900,
    "Ġacceler": 1612,
    "Ġconv": 2973,
    "Ġcountenances": 11966,
    "Ġarctic": 12816,
    "Ġknow": 633,
    "Ġrepulsive": 14530,
    "Ġexc": 1830,
    "Ġberry": 19748,
    "tish": 17678,
    "Ġhier": 1893,
    "Ġrequesting": 24632,
    "Ġdecanting": 22446,
    "Ġstony": 21745,
    "Ġdull": 6384,
    "Ġbenevolence": 9531,
    "Ġdirector": 18921,
    "outon": 12807,
    "Ġspin": 7631,
    "omon": 10210,
    "Ġsermon": 12379,
    "Ġplaced": 3443,
    "Ġprovoke": 14827,
    "Ġklux": 22198,
    "Ġdies": 11597,
    "Ġcork": 12573,
    "Ġrouted": 24907,
    "Ġwanderings": 20145,
    "Ġwhirlpool": 20656,
    "remote": 23191,
    "Ġsocietal": 11439,
    "Ġfabric": 25947,
    "Ġassault": 9841,
    "Ġcontext": 1699,
    "contracting": 19294,
    "Ġagents": 9770,
    "Ġsingular": 4425,
    "Ġquadruped": 20617,
    "Ġinit": 819,
    "Ġsnapped": 9901,
    "Ġwalls": 6763,
    "alogue": 25163,
    "pop": 17632,
    "Ġforetold": 23451,
    "Ġsufferings": 7514,
    "Ġlime": 13950,
    "Ġdict": 9179,
    "Ġjoists": 19234,
    "liest": 6296,
    "despond": 19802,
    "Ġeliza": 6437,
    "Ġlabours": 8587,
    "Ġdisobedience": 22538,
    "Ġcostly": 23585,
    "Ġseap": 15820,
    "Ġsolar": 22887,
    "Ġdefile": 18824,
    "Ġrinal": 21980,
    "Ġinexplicable": 12260,
    "paus": 13775,
    "Ġgrant": 11876,
    "Ġdimension": 3240,
    "Ġcardboard": 19981,
    "Ġwater": 1949,
    "tained": 4407,
    "Ġappearance": 3701,
    "Ġhood": 10826,
    "telesc": 22820,
    "bench": 16804,
    "Ġplata": 25119,
    "ė": 216,
    "becoming": 18516,
    "Ġornamented": 20364,
    "chari": 21691,
    "fears": 18528,
    "Ġvigorously": 11302,
    "Ġwearied": 15797,
    "Ġfunny": 7639,
    "Ġexciting": 23312,
    "Ġexist": 9235,
    "Ġsteadily": 8052,
    "Ġconveniences": 19814,
    "Ġobst": 6286,
    "rudence": 7094,
    "Ġtrag": 13042,
    "haps": 1673,
    "Ġfastidious": 14493,
    "Ġshrinking": 14806,
    "Ġconvey": 9985,
    "Ġrejoinder": 24597,
    "Ġromish": 19586,
    "effect": 8608,
    "Ġnormalization": 1244,
    "Ġluggage": 25957,
    "Ġphrenologist": 25607,
    "Ġbeast": 7181,
    "ples": 6845,
    "fourths": 25510,
    "walks": 19723,
    "where": 2093,
    "mered": 8218,
    "Ġjoyfully": 19348,
    "again": 3398,
    "Ġseriously": 7063,
    "Ġputting": 5327,
    "Ġcivility": 4789,
    "came": 4572,
    "jumping": 20247,
    "Ġfavourably": 16365,
    "Ġsamples": 2966,
    "Ġheadache": 22899,
    "Ġreco": 9794,
    "marriage": 7745,
    "collinses": 19924,
    "oh": 1579,
    "tps": 11538,
    "Ġfemin": 13438,
    "akin": 11771,
    "Ġdrawings": 14723,
    "Ġlady": 1587,
    "characteristic": 24685,
    "Ġuntoward": 19166,
    "Ġfortunate": 6216,
    "sincere": 16908,
    "Ġjulia": 22305,
    "Ġconstruct": 23343,
    "Ġmicha": 17812,
    "Ġgate": 6825,
    "Ġgeor": 3387,
    "spl": 9143,
    "brated": 12030,
    "erate": 7151,
    "Ġeasiest": 23539,
    "Ġplunged": 8697,
    "Ġveracity": 23891,
    "Ġrelief": 6061,
    "Ġdedu": 5583,
    "omitted": 18018,
    "Ġoar": 6238,
    "Ġkept": 3347,
    "Ġbarely": 16937,
    "volut": 1564,
    "Ġmerited": 23732,
    "Ġcoincid": 20319,
    "bucket": 17495,
    "Ġdecent": 10981,
    "Ġtemptation": 8682,
    "naturalist": 23512,
    "Ġhandy": 12939,
    "Ġeluc": 16112,
    "clock": 3932,
    "Ġgin": 13963,
    "Ġthemselves": 3250,
    "Ġvib": 8165,
    "Ġpeculiarity": 12936,
    "lour": 15383,
    "Ġapprehensions": 13406,
    "Ġcrystall": 20228,
    "Ġupward": 9725,
    "Ġunbroken": 18250,
    "Ġmasts": 6465,
    "Ġjudgment": 5765,
    "Ġcrowd": 6338,
    "gish": 20874,
    "Ġdisappointment": 6629,
    "Ġhill": 5626,
    "dwelt": 23873,
    "arrange": 23768,
    "ubbub": 23244,
    "Ġfolk": 10379,
    "Ġirre": 7469,
    "Ġwrongfully": 24250,
    "warrior": 24796,
    "them": 3024,
    "Ġdelicately": 24126,
    "bra": 6221,
    "Ġblushed": 13005,
    "Ġdevout": 14334,
    "fugitive": 26131,
    "Ġleak": 2159,
    "ante": 11725,
    "ascal": 10196,
    "Ġbuckets": 17034,
    "Ġcheeks": 5959,
    "medical": 23345,
    "battle": 12445,
    "mmar": 952,
    "Ġdiscussion": 17196,
    "ell": 398,
    "instance": 24170,
    "Ġmedd": 15542,
    "Ġharshly": 25250,
    "Ġborder": 10173,
    "Ġwilfully": 16767,
    "Ġaccorded": 24090,
    "Ġvestibule": 13538,
    "iation": 7344,
    "arboard": 7267,
    "left": 6976,
    "Ġproved": 4885,
    "flaming": 23972,
    "ration": 2004,
    "ara": 12610,
    "Ġprejud": 6851,
    "thr": 12764,
    "Ġprofane": 13154,
    "Ġhouses": 6140,
    "ittarius": 22380,
    "Ġdepartment": 24243,
    "Ġscrut": 15947,
    "Ġconcealment": 16915,
    "excuse": 13383,
    "Ġcouples": 16853,
    "Ġgravely": 7883,
    "Ġspeculations": 23000,
    "iliar": 15717,
    "Ġmere": 2714,
    "azine": 19131,
    "Ġmetaphysical": 26069,
    "Ġbingley": 1678,
    "Ġneural": 619,
    "phren": 22775,
    "Ġmixed": 6975,
    "Ġmerely": 3770,
    "Ġbestir": 13112,
    "Ġstoper": 14464,
    "Ġnation": 12651,
    "Ġcontented": 9760,
    "politeness": 16907,
    "Ġstays": 16563,
    "Ġpurely": 12235,
    "Ġsuddenness": 23384,
    "aract": 17895,
    "Ġcries": 7156,
    "Ġcaucus": 17382,
    "Ġlaugh": 4109,
    "Ġthou": 1807,
    "clerval": 7951,
    "Ġbehavioral": 11399,
    "ated": 727,
    "valuable": 8245,
    "Ġjer": 6268,
    "allic": 12817,
    "covenant": 23562,
    "Ġscorn": 7900,
    "tolerable": 17689,
    "Ġseedy": 21965,
    "ailed": 3246,
    "Ġdais": 24371,
    "Ġpemberley": 4590,
    "Ġeyelashes": 26106,
    "southern": 20411,
    "win": 6802,
    "Ġdeactivates": 20705,
    "teness": 23206,
    "Ġexord": 21830,
    "Ġeuropean": 20048,
    "Ġevince": 24294,
    "Ġcollections": 22859,
    "Ġsisters": 3640,
    "Ġdefend": 9344,
    "shaw": 6864,
    "Ġhorrible": 4906,
    "invisible": 17741,
    "advance": 12160,
    "ateful": 5928,
    "Ġlikelihood": 16501,
    "Ġfritters": 23258,
    "Ġtallest": 15476,
    "obser": 11102,
    "choose": 23674,
    "Ġconsoling": 19459,
    "Ġpredecess": 18525,
    "ensation": 22548,
    "Ġtant": 12529,
    "Ġ1778": 25729,
    "Ġsincer": 13069,
    "Ġfifth": 11260,
    "Ġshirr": 18231,
    "honest": 17004,
    "Ġdoesn": 7439,
    "Ġsubjected": 23573,
    "Ġmacey": 12567,
    "Ġsecret": 3721,
    "Ġropes": 10751,
    "represented": 20197,
    "repugnance": 16865,
    "Ġkilled": 4955,
    "luckily": 19754,
    "Ġfund": 2847,
    "introdu": 8941,
    "hement": 13834,
    "Ġpyth": 21463,
    "Ġswitching": 23057,
    "Ġenabling": 1079,
    "Ġchips": 14183,
    "whom": 8185,
    "Ġbrooks": 25700,
    "blasted": 20191,
    "Ġwintry": 17436,
    "bulkington": 19926,
    "Ġedged": 23488,
    "expectations": 24278,
    "Ġgrudge": 20695,
    "ineer": 11705,
    "Ġmarking": 16470,
    "ĠĠĠĠĠĠĠĠĠĠĠĠĠĠĠĠĠĠĠĠĠĠ": 16229,
    "Ġdived": 9181,
    "Ġloom": 7630,
    "Ġclim": 8196,
    "Ġfob": 21411,
    "hereditary": 26420,
    "Ġhighly": 4846,
    "Ġcelerity": 17438,
    "Ġunfrequently": 20740,
    "ghan": 19457,
    "Ġjoppa": 12039,
    "inuating": 16205,
    "Ġenhance": 3020,
    "Ġhealth": 3903,
    "Ġclanging": 18423,
    "Ġmortification": 12098,
    "iloquent": 21728,
    "Ġforster": 5230,
    "Ġmoran": 9346,
    "Ġgeological": 14533,
    "Ġslung": 23170,
    "Ġclaws": 15973,
    "sav": 8097,
    "177": 20753,
    "Ġspan": 11733,
    "tern": 4223,
    "Ġsigns": 2438,
    "Ġhats": 14618,
    "loath": 22511,
    "Ġauxiliary": 26419,
    "Ġconcentric": 20077,
    "Ġdomineering": 23617,
    "Ġembodiment": 20530,
    "Ġoverlooked": 15977,
    "Ġexcellent": 4238,
    "Ġdecidedly": 9513,
    "Ġevils": 9024,
    "Ġboon": 22641,
    "Ġtumultuous": 10619,
    "urried": 21706,
    "wag": 21125,
    "Ġjacket": 6489,
    "Ġfled": 6673,
    "Ġmalignant": 14879,
    "Ġqueerest": 16417,
    "Ġlaure": 16910,
    "Ġinferred": 14979,
    "twist": 23702,
    "Ġpivot": 13925,
    "Ġbelongs": 8015,
    "using": 5468,
    "Ġcruis": 14623,
    "Ġmagic": 8233,
    "Ġsummons": 13234,
    "mess": 13755,
    "Ġrestrictions": 20636,
    "Ġcharts": 12831,
    "÷": 184,
    "quite": 4648,
    "Ġmassac": 14737,
    "liable": 3817,
    "Ġobstinacy": 17423,
    "Ġmou": 13857,
    "Ġtrucks": 19514,
    "Ġadagrad": 2908,
    "insufficient": 15491,
    "Ġtrivial": 10146,
    "bib": 17493,
    "Ġdiscoloured": 15255,
    "Ġdeposition": 18614,
    "Ġishmael": 7396,
    "bedstead": 23934,
    "ooped": 17624,
    "mentioning": 24885,
    "Ġireland": 17337,
    "Ġemerging": 24612,
    "hard": 4691,
    "cient": 4571,
    "result": 12047,
    "Ġhandling": 8917,
    "Ġhunted": 7454,
    "Ġtraversed": 18891,
    "raged": 9215,
    "Ġdelights": 14596,
    "Ġcasket": 19726,
    "kindled": 16662,
    "comp": 3815,
    "Ġmurky": 19204,
    "tical": 10132,
    "Ġcustody": 13650,
    "Ġring": 4453,
    "flagged": 23974,
    "wives": 15457,
    "Ġblindly": 12113,
    "Ġscreamed": 9528,
    "Ġamours": 22484,
    "clings": 23152,
    "doubt": 6783,
    "Ġparts": 4163,
    "Ġvice": 6550,
    "cher": 5786,
    "Ġclaps": 22353,
    "thankful": 16807,
    "Ġafrica": 12348,
    "twain": 23701,
    "cheeked": 19341,
    "Ġcustom": 5078,
    "drawn": 9917,
    "Ġvan": 1087,
    "Ġminority": 18754,
    "Ġeighty": 19478,
    "battering": 20787,
    "rice": 13779,
    "Ġendurance": 23138,
    "Ġquantity": 6948,
    "Ġcircumspection": 25884,
    "mind": 4628,
    "angu": 569,
    "Ġgor": 9210,
    "Ġpigeon": 9520,
    "Ġcomfits": 21855,
    "Ġspoon": 22138,
    "ental": 7170,
    "ergy": 2358,
    "ellation": 12754,
    "Ġoverfitting": 1546,
    "relics": 24017,
    "rally": 17652,
    "street": 6495,
    "anxiety": 25159,
    "Ġxxxi": 24968,
    "brother": 7093,
    "Ġpython": 1068,
    "Ġcrawled": 17044,
    "Ġdumbly": 24987,
    "Ġattractive": 25121,
    "Ġgenial": 12198,
    "Ġcarpet": 9360,
    "ura": 1049,
    "Ġsensations": 5260,
    "mystical": 25318,
    "ging": 2600,
    "Ġwickham": 2205,
    "Ġmemorand": 23460,
    "inquir": 9540,
    "stay": 9685,
    "Ġicicles": 25265,
    "Ġmurmured": 7481,
    "Ġsupple": 23001,
    "Ġstudying": 9850,
    "Ġfasc": 12602,
    "metallic": 19881,
    "charmed": 21698,
    "?âĢĶ": 3467,
    "Ġguard": 6180,
    "Ġcrab": 13145,
    "Ġpaw": 12624,
    "Ġcanoe": 9727,
    "thank": 4950,
    "Ġbumping": 25281,
    "coronet": 16864,
    "aning": 2254,
    "Ġflanks": 11918,
    "huzza": 20914,
    "Ġwork": 1380,
    "Ġkeen": 4615,
    "Ġbusily": 9388,
    "xology": 21143,
    "hav": 20898,
    "Ġbeautifully": 13270,
    "Ġreadiness": 13053,
    "Ġcompassion": 6487,
    "plied": 10258,
    "decided": 13217,
    "flag": 14712,
    "ond": 1162,
    "Ġsleet": 8979,
    "oury": 22307,
    "leg": 2815,
    "Ġordin": 16652,
    "Ġcomplying": 18588,
    "Ġmediocrity": 26609,
    "baggage": 24926,
    "rosc": 17956,
    "Ġdictionaries": 12343,
    "orph": 21401,
    "Ġnoblest": 13244,
    "Ġsqueezing": 25008,
    "Ġoutlines": 15960,
    "Ġtoilings": 24740,
    "Ġspent": 3962,
    "whispering": 26103,
    "Ġlany": 21556,
    "Ġgreater": 3042,
    "Ġopinion": 3143,
    "direful": 25896,
    "Ġsmoked": 10326,
    "wrong": 13208,
    "br": 2474,
    "Ġ44": 16680,
    "Ġcharge": 5325,
    "aintance": 3568,
    "Ġbills": 17861,
    "Ġflank": 8229,
    "Ġovertaken": 18429,
    "amuse": 14054,
    "Ġrh": 9248,
    "Ġpressed": 6043,
    "Ġreaped": 18031,
    "beholding": 16042,
    "Ġcommunication": 1870,
    "deav": 2675,
    "perch": 18338,
    "ifice": 7200,
    "engine": 18928,
    "waiter": 24586,
    "listened": 15045,
    "Ġrepeatedly": 9025,
    "Ġprevailed": 7778,
    "nantucketer": 24974,
    "Ġshortly": 6198,
    "Ġremembered": 5277,
    "Ġmundane": 26430,
    "earn": 10699,
    "Ġnapole": 15118,
    "Ġsnuffed": 15075,
    "remarks": 23190,
    "cra": 6356,
    "downward": 16620,
    "Ġtrifle": 10605,
    "Ġdisappointed": 7099,
    "Ġinvestment": 24331,
    "Ġcolonies": 14377,
    "Ġsubaltern": 22792,
    "rad": 2152,
    "intolerable": 22940,
    ".âĢĻâĢĿ": 6741,
    "vain": 15449,
    "Ġjet": 5309,
    "igators": 18047,
    "scythes": 26403,
    "Ġfamine": 16330,
    "Ġchosen": 7202,
    "Ġconcl": 5095,
    "Ġalbino": 20505,
    "stubb": 6019,
    "got": 6955,
    "Ġpolished": 11185,
    "H": 44,
    "Ġauthorized": 16736,
    "89": 20760,
    "itably": 10785,
    "cous": 8726,
    "Ġlangu": 574,
    "Ġstrives": 23696,
    "Ġmoral": 6581,
    "Ġhugh": 15005,
    "Ġstolen": 14010,
    "Ġstiggs": 25792,
    "Ġcyp": 21347,
    "begging": 22499,
    "Ġcryst": 9921,
    "adagrad": 9695,
    "Ġdirectors": 18922,
    "'(": 2982,
    "Ġbeef": 6830,
    "onious": 15520,
    "Ġprojected": 16872,
    "æ": 167,
    "zor": 15460,
    "Ġwonderful": 4565,
    "\"],": 26120,
    "Ġbusiness": 2232,
    "wa": 5898,
    "Ġsink": 4342,
    "Ġchar": 1706,
    "orously": 8420,
    "Ġaffirmative": 15225,
    "Ġalbatross": 10874,
    "otle": 21800,
    "Ġgrop": 12668,
    "Ü": 157,
    "aried": 10990,
    "upper": 11542,
    "Ġwhip": 8453,
    "Ġgrope": 17996,
    "dug": 18462,
    "Ġxxxiv": 24969,
    "Ġphysical": 7523,
    "hedge": 22501,
    "ingale": 21301,
    "Ġperadventure": 22400,
    "Ġax": 7822,
    "Ġhorizontally": 17013,
    "oysius": 14367,
    "gration": 9125,
    "Ġclasp": 9748,
    "Ġchinese": 14185,
    "Ġdeclared": 5595,
    "Ġon": 352,
    "Ġcosmopol": 16455,
    "Ġposted": 16725,
    "Ġpertur": 12854,
    "ance": 478,
    "Ġhes": 6252,
    "Ġdistension": 22507,
    "Ġclaw": 22354,
    "war": 6803,
    "Ġpossesses": 19354,
    "Ġexpand": 9311,
    "whel": 7666,
    "Ġhurrying": 11998,
    "Ġvapory": 17007,
    "Ġthoroughfares": 26095,
    "didst": 19351,
    "Ġluxuriant": 20397,
    "Ġsunlight": 13087,
    "ĥ": 230,
    "intu": 22935,
    "violets": 23545,
    "women": 15458,
    "Ġpreserving": 19798,
    "Ġcus": 21345,
    "activation": 3230,
    "n": 82,
    "volutional": 1937,
    "Ġtravelled": 7772,
    "Ġobjecting": 18895,
    "Ġcompos": 22574,
    "Ġinher": 10183,
    "Ġrevenge": 5452,
    "whenever": 11884,
    "Ġeducation": 5128,
    "Ġclattering": 22358,
    "gloves": 25146,
    "raising": 21634,
    "Ġmutters": 23958,
    "Ġbos": 4876,
    "Ġcowards": 12577,
    "Ġschoolmasters": 19722,
    "idav": 18094,
    "Ġoccas": 2704,
    "ishe": 13893,
    "orous": 5294,
    "eaten": 20346,
    "Ġsmokes": 22562,
    "Ġresource": 10996,
    "Ġdusk": 12330,
    "Ġspitzbergen": 15290,
    "brew": 11476,
    "Ġperiodical": 14773,
    "fleet": 15015,
    "ought": 828,
    "sloop": 26145,
    "Ġimproved": 7658,
    "lected": 1639,
    "unquiet": 21884,
    "ske": 13784,
    "aloons": 20013,
    "Ġdelusion": 18974,
    "Ġsubstance": 5510,
    "Ġdinah": 9457,
    "Ġforces": 12706,
    "Ġcou": 5288,
    "Ġinfatuation": 25857,
    "Ġcow": 13878,
    "Ġdrifted": 14624,
    "Ġsinusoidal": 4802,
    "rudent": 6482,
    "Ġleaps": 14004,
    "pense": 10372,
    "Ġfilling": 13410,
    "Ġrows": 10564,
    "Ġconsistence": 23358,
    "Ġpublished": 11245,
    "cture": 15668,
    "Ġ72": 19613,
    "Ġforgiveness": 16658,
    "Ġimpatiently": 8338,
    "Ġven": 4649,
    "Ġexpost": 18625,
    "Ġpassage": 3882,
    "Ġrafters": 22663,
    "Ġafter": 870,
    "Ġdisse": 18548,
    "Ġaccordance": 19500,
    "week": 12934,
    "Ġmischief": 8544,
    "Ġstamped": 13528,
    "Ġcompany": 3722,
    "Ġheart": 1593,
    "Ġdoubloon": 6945,
    "iest": 4033,
    "etent": 10203,
    "Ġripe": 13237,
    "Ġthanking": 18602,
    "qualified": 17098,
    "weight": 2943,
    "Ġspreading": 13380,
    "Ġcouch": 12575,
    "elfth": 22372,
    "circumst": 5349,
    "Ġrepugnance": 19087,
    "achment": 5464,
    "Ġtambourine": 9568,
    "cur": 3271,
    "Ġgathered": 8444,
    "Ġinform": 995,
    "orand": 21399,
    "Ġhovers": 19079,
    "mell": 20965,
    "Ġaims": 15498,
    "Ġlastly": 16207,
    "Ġharbour": 19982,
    "erity": 21269,
    "stra": 4042,
    "abond": 15744,
    "savor": 25026,
    "bergs": 18695,
    "Ġbusks": 23341,
    "Ġanx": 3181,
    "Ġveil": 7934,
    "Ġthundering": 24292,
    "Ġsed": 10764,
    "Ġunjustifiable": 25111,
    "Ġcauldron": 25442,
    "elly": 17981,
    "ishment": 3504,
    "Ġnothing": 1358,
    "gallant": 7781,
    "Ġlydia": 2371,
    "onents": 8782,
    "Ġleadenhall": 16630,
    "Ġclut": 7643,
    "condition": 7060,
    "reader": 23849,
    "side": 2300,
    "Ġhose": 12631,
    "Ġinvaluable": 10186,
    "Ġexclusiveness": 23930,
    "Ġderivative": 3004,
    "historian": 25734,
    "encoura": 15050,
    "Ġspringing": 10522,
    "Ġvesuvius": 26502,
    "lant": 20948,
    "deployment": 26528,
    "generative": 4331,
    "Ġattendance": 12185,
    "sul": 15423,
    "Ġcordon": 24393,
    "Ġoctober": 17228,
    "treated": 21096,
    "meaning": 2912,
    "icle": 10837,
    "Ġcommit": 18655,
    "Ġtortoise": 16909,
    "Ġprone": 18968,
    "Ġsupposition": 9821,
    "infer": 10148,
    "Ġproudly": 19744,
    "justice": 7958,
    "Ġwhither": 10218,
    "Ġapproxim": 1218,
    "Ġdispel": 16597,
    "Ġtol": 6677,
    "Ġfolded": 7768,
    "ize": 762,
    "Ġwhine": 21717,
    "followed": 8339,
    "Ġoutward": 7904,
    "Ġhedgehog": 10648,
    "Ġfloundered": 18863,
    "Ġinconsist": 17937,
    "leaning": 10793,
    "son": 2327,
    "te": 993,
    "Ġnobleman": 19394,
    "Ġseat": 4949,
    "Ġkiss": 8183,
    "Ġaim": 10149,
    "Ġreptile": 15280,
    "Ġpassers": 18758,
    "Ġtools": 11613,
    "Ġreigning": 15704,
    "Ġspear": 9318,
    "Ġpuzzled": 7318,
    "Ġmultipl": 2791,
    "Ġmeth": 1468,
    "fellows": 12277,
    "Ġwould": 651,
    "Ġimitated": 18329,
    "Ġdeposed": 16094,
    "Ġhumiliating": 22884,
    "Ġrode": 16001,
    "beds": 16623,
    "Ġundiscovered": 18252,
    "Ġbite": 10800,
    "Ġours": 4614,
    "Ġreliably": 22880,
    "Ġreckoned": 24742,
    "Ġworrying": 22929,
    "Ġpilgrimage": 17310,
    "colnett": 19331,
    "88": 20759,
    "hered": 5623,
    "Ġburied": 7719,
    "Ġquee": 1980,
    "Ġexcused": 23313,
    "rous": 3752,
    "Ġtormented": 8679,
    "onist": 21252,
    "clam": 13058,
    "progression": 20384,
    "Ġestimates": 3748,
    "í": 174,
    "Ġcountrymen": 23596,
    "erie": 21273,
    "Ġmassachusetts": 24024,
    "Ġunass": 14116,
    "Ġsanctioned": 26351,
    "Ġmutiny": 13261,
    "Ġlighted": 7065,
    "Ġperceived": 4715,
    "five": 6358,
    "Ġunited": 6840,
    "Ġpiteous": 17919,
    "Ġdesignated": 19523,
    "Ġstatement": 5255,
    "Ġtreacher": 8609,
    "Ġmurderer": 4980,
    "Ġinsensible": 12328,
    "oforte": 14288,
    "gument": 20886,
    "towns": 24854,
    "stones": 11639,
    "Ġmaids": 19693,
    "Ġbil": 15568,
    "inese": 12878,
    "inder": 9156,
    "Ġglimpses": 13434,
    "Ġdimmed": 24269,
    "communication": 25880,
    "Ġventil": 8019,
    "Ġlouis": 8358,
    "Ġappre": 5165,
    "Ġreus": 8827,
    "Û": 156,
    "Ġradiating": 24330,
    "beards": 22493,
    "//": 11466,
    "ained": 3068,
    "Ġfemale": 8345,
    "Ġlouisiana": 25078,
    "Ġaffright": 9336,
    "sleeve": 26108,
    "Ġlegend": 14574,
    "ĠĠĠĠĠĠĠĠĠĠĠĠĠĠĠĠĠĠĠ": 22952,
    "sneezes": 11449,
    "readers": 23850,
    "osop": 4406,
    "Ġpurring": 23476,
    "Ġrig": 4224,
    "Ġshri": 5375,
    "Ġtransactions": 18481,
    "Ġanything": 2186,
    "Ġtester": 21174,
    "Ġappertaining": 26534,
    "Ġdra": 1591,
    "Ġrises": 9717,
    "Ġsubsequently": 16164,
    "Ġvest": 8163,
    "Ġbasics": 13450,
    "conscience": 14861,
    "Ġmemoirs": 26206,
    "Ġmuscle": 14689,
    "riers": 18184,
    "Ġstole": 7953,
    "Ġimpression": 5732,
    "Ġbuoyant": 13533,
    "Ġinvincible": 23480,
    "Ġtash": 13822,
    "rees": 5436,
    "Ġbracing": 16582,
    "Ġpatches": 4237,
    "Ġpocket": 4899,
    "Ġmists": 14630,
    "Ġcake": 12574,
    "Ġhaul": 11696,
    "Ġfleeting": 19328,
    "idel": 5301,
    "Ġspecific": 2002,
    "Ġsporty": 19891,
    "ui": 9148,
    "Ġinvolving": 18762,
    "Ġaddressed": 5263,
    "Ġcruelly": 13377,
    "Ġhymn": 24517,
    "fedallah": 25523,
    "Ġringleader": 26213,
    "offensive": 16401,
    "Ġcucumber": 21358,
    "ounder": 11748,
    "Ġfonder": 17881,
    "Ġdances": 10815,
    "oran": 8794,
    "lun": 20947,
    "Ġvor": 15809,
    "Ġbrief": 6977,
    "Ġsombre": 18861,
    "Ġowest": 25093,
    "Ġtougher": 21178,
    "rix": 1576,
    "preference": 22470,
    "Ġspires": 11735,
    "Ġrogue": 22408,
    "Ġrud": 8480,
    "Ġlingo": 24903,
    "Ġworkman": 16281,
    "iah": 14419,
    "reas": 988,
    "Ġ54": 24317,
    "sea": 4764,
    "eled": 2355,
    "Ġintolerably": 15832,
    "painful": 13503,
    "indifferent": 14210,
    "Ġsho": 2245,
    "Ġharbor": 10031,
    "resses": 16156,
    "humor": 19454,
    "enses": 10997,
    "Ġquieted": 23845,
    "agra": 14068,
    "Ġparting": 9787,
    "har": 20891,
    "Ġprows": 19890,
    "treat": 12517,
    "Ġmagazine": 23102,
    "Ġerie": 20056,
    "Ġconfederate": 17355,
    "shot": 2191,
    "invested": 17119,
    "Ġglen": 18853,
    "Ġpunishment": 9960,
    "Ġambiguous": 20166,
    "Ġgodfrey": 15296,
    "Ġm": 274,
    "Ġriot": 14688,
    "frau": 15092,
    "Ġlust": 9201,
    "Ġplough": 18608,
    "lamps": 25261,
    "univers": 15775,
    "Ġwrithing": 11949,
    "Ġwhistled": 24623,
    "Ġtraged": 9356,
    "Ġneg": 1332,
    "unknown": 10893,
    "Ġrights": 10400,
    "Ġcalves": 13038,
    "maj": 18805,
    "harpoons": 24286,
    "orses": 6053,
    "Ġ124": 24468,
    "Ġsubstit": 19542,
    "enborough": 21287,
    "rog": 15643,
    "hopeless": 16918,
    "dually": 3284,
    "Ġhitherto": 5881,
    "further": 7536,
    "Ġdere": 21838,
    "interrupted": 11420,
    "icting": 12857,
    "Ġfasten": 11135,
    "Ġpun": 4589,
    "Ġgamesome": 17291,
    "Ġpatriot": 23292,
    "eringly": 23005,
    "Ġdependent": 14305,
    "Ġ}": 21155,
    "easily": 17535,
    "Ġscrupled": 25051,
    "Ġhydraulic": 10068,
    "ocity": 8278,
    "oried": 10805,
    "illa": 12797,
    "Ġconceals": 23906,
    "hood": 2658,
    "Ġastonishing": 10505,
    "Ġexcellence": 11454,
    "Ġclearly": 6897,
    ";âĢĿ": 7791,
    "stiff": 12679,
    "Ġmethods": 3160,
    "Ġoutrage": 15961,
    "fluke": 25205,
    "Ġelusive": 22649,
    "Ġexecutors": 19535,
    "Ġul": 6828,
    "Ġrepublican": 17414,
    "garden": 15027,
    "Ġunworth": 22039,
    "anous": 21361,
    "shaken": 16028,
    "Ġstigma": 25791,
    "Ġsurrounds": 24233,
    "Ġpron": 6451,
    "Ġpoker": 13924,
    "Ġblew": 9049,
    "Ġcrests": 25685,
    "Ġtheoretic": 23311,
    "Ġcattle": 12576,
    "bod": 12440,
    "Ġstanzas": 21750,
    "Ġdrugged": 12606,
    "Ġrevol": 5537,
    "sheets": 14444,
    "henomena": 20274,
    "ative": 734,
    "ieved": 3229,
    "Ġslay": 16309,
    "sprinkling": 24912,
    "Ġhealthcare": 8016,
    "attendants": 25496,
    "hil": 8379,
    "Ġeh": 6988,
    "vocabulary": 25087,
    "Ġdegenerated": 20508,
    "cible": 20807,
    "abilizing": 2928,
    "Ġcultiv": 13559,
    "neither": 9761,
    "Ġhieroglyph": 11974,
    "mosp": 8089,
    "Ġkindest": 23293,
    "increas": 10457,
    "Ġvalleys": 14920,
    "Ġlungs": 8363,
    "ift": 1610,
    "evil": 11489,
    "Ġhalf": 1672,
    "Ġpirate": 14997,
    "peleg": 16296,
    "Ġtahit": 10757,
    "Ġcrime": 4618,
    "Ġdamn": 11161,
    "Ġcapsizing": 20091,
    "Ġmarines": 16262,
    "Ġocc": 888,
    "Ġskul": 22798,
    "gely": 10703,
    "passed": 8026,
    "Ġ78": 19615,
    "Ġbacking": 16115,
    "Ġbolt": 11337,
    "Ġsnatch": 14639,
    "Ġinclude": 1874,
    "Ġhighway": 14348,
    "orable": 8120,
    "gris": 8260,
    "rade": 9683,
    "Ġreduce": 7943,
    "gay": 11492,
    "Ġstrung": 22614,
    "uting": 15663,
    "Ġlabel": 14516,
    "Ġrapid": 1446,
    "Ġothers": 2583,
    "Ġafric": 8910,
    "Ġdistinguishing": 16497,
    "answered": 10277,
    "wanted": 10746,
    "Ġbrightened": 23831,
    "omely": 21641,
    "ressing": 8923,
    "eskye": 21452,
    "Ġchanging": 11757,
    "willing": 6594,
    "Ġflowery": 16237,
    "arr": 3049,
    "pump": 21018,
    "Ġprodigy": 19794,
    "Ġbank": 4878,
    "acey": 7651,
    "sold": 15428,
    "Ġinsensibly": 20078,
    "Ġsymmetry": 20368,
    "Ġcontinues": 18809,
    "ies": 581,
    "Ġtempered": 12926,
    "greatly": 16625,
    "Ġweeks": 4567,
    "Ġridicule": 13513,
    "ckery": 22093,
    "Ġfinanc": 23129,
    "Ġfac": 6381,
    "Ġgodlike": 23359,
    "Ġsupernatural": 9877,
    "ill": 447,
    "earnest": 12402,
    "increase": 20270,
    "Ġscandal": 9085,
    "Ġproper": 1378,
    "talking": 10011,
    "Ġendeared": 26499,
    "Ġbath": 9662,
    "Ġguest": 7250,
    "Ġarrived": 3747,
    "Ġrandomly": 1921,
    "accordingly": 19215,
    "Ġflying": 5413,
    "abound": 15743,
    "prov": 16425,
    "Ġhold": 2244,
    "Ġstren": 15726,
    "Ġbuffaloes": 25218,
    "Ġprovince": 24191,
    "procure": 23399,
    "south": 8763,
    "alescence": 15925,
    "raved": 18014,
    "Ġlaud": 17969,
    "Ġproperty": 6450,
    "Ġmau": 21312,
    "ju": 13743,
    "Ġman": 544,
    "majesty": 26281,
    "Ġsammy": 24932,
    "Ġsophisticated": 1609,
    "Ġflung": 8567,
    "Ġstriking": 6089,
    "Ġstrategies": 1840,
    "Ġjump": 4505,
    "Ġeffaced": 18538,
    "Ġforever": 14552,
    "Ġhighness": 22777,
    "Ġboots": 5945,
    "Ġcausing": 16360,
    "Ġharmless": 9969,
    "olets": 21009,
    "Ġmitt": 21309,
    "emb": 11693,
    "Ġact": 690,
    "nes": 6961,
    "y": 93,
    "geneva": 13732,
    "Ġunsupp": 22024,
    "icide": 11622,
    "Ġboisterously": 25682,
    "Ġtout": 17720,
    "Ġshipw": 12982,
    "Ġbeggar": 9353,
    "Ġdoors": 6418,
    "Ġmitigates": 3055,
    "ezes": 9995,
    "Ġchallenge": 25472,
    "Ġter": 2051,
    "Ġpersuas": 23949,
    "Ġoverseeing": 22364,
    "ralian": 19602,
    "»": 124,
    "igation": 5919,
    "cele": 21627,
    "ont": 2620,
    "Ġnewspapers": 17188,
    "Ġshrugged": 12773,
    "Ġfourth": 7707,
    "Ġdignified": 15601,
    "half": 4932,
    "Ġinfants": 16393,
    "observation": 17271,
    "ivable": 10913,
    "Ġdisgracing": 26256,
    "Ġwhereupon": 14296,
    "Ġreap": 18028,
    "offices": 19062,
    "Ġ130": 24779,
    "Ġrespective": 16346,
    "Ġunreliable": 3928,
    "Ġcomforter": 20509,
    "glow": 20875,
    "esteemed": 26009,
    "commanding": 24750,
    "Ġwards": 17790,
    "Ġcelebrate": 26358,
    "phil": 7925,
    "pleasures": 24048,
    "Åĵuv": 15185,
    "innocence": 15186,
    "Ġscoresby": 10465,
    "Ġtent": 15469,
    "Ġmonosy": 18852,
    "Ġjunk": 15956,
    "aries": 6246,
    "Ġchamp": 18381,
    "Ġendeavours": 8622,
    "Ġsituated": 9451,
    "renched": 7907,
    "Ġharpoons": 5659,
    "Ġimprudent": 12852,
    "Ġfronts": 19002,
    "Ġchilled": 18382,
    "Ġellenborough": 26154,
    "Ġspeaker": 19149,
    "estations": 22227,
    "compasses": 19460,
    "Ġwithdra": 6398,
    "Ġsobbing": 14137,
    "Ġripp": 11222,
    "Ġregularity": 22771,
    "Ġplumage": 17300,
    "Ġuntidy": 23525,
    "bable": 8723,
    "lording": 24052,
    "Ġeyes": 1334,
    "Ġsuggestions": 24452,
    "itche": 7580,
    "gunw": 17222,
    "orton": 11760,
    "Ġwildness": 14603,
    "Ġinfidel": 13103,
    "Ġunimaginable": 15249,
    "Ġtru": 4102,
    "Ġproverb": 12723,
    "mouthed": 12403,
    "Ġcount": 1814,
    "roused": 16654,
    "strang": 11186,
    "final": 19678,
    "Ġapproximate": 2340,
    "Ġoffing": 16146,
    "surrounded": 26088,
    "dawson": 26128,
    "Ġcure": 21342,
    "Ġlocks": 11728,
    "suitableness": 26261,
    "Ġcorrespondence": 10598,
    "apt": 732,
    "initely": 7569,
    "Ġsecluded": 11996,
    "Ġtumbled": 13408,
    "Ġcheers": 16366,
    "Ġrhine": 12359,
    "Ġfearful": 6199,
    "×": 152,
    "Ġadvancing": 6879,
    "request": 21243,
    "Ġchairs": 12830,
    "Ġsinking": 7308,
    "when": 1590,
    "Ġnick": 21525,
    "Ġscowl": 22274,
    "?": 35,
    "ohn": 4563,
    "useful": 16503,
    "Ġeffected": 14357,
    "Ġcheerfulness": 10520,
    "Ġpairs": 4180,
    "Ġtell": 1467,
    "consequence": 9767,
    "Ġbehold": 5049,
    "Ġtradesmen": 17105,
    "poor": 6062,
    "instinct": 19545,
    "Ġwhere": 783,
    "Ġaloud": 6254,
    "hearth": 15501,
    "dwelling": 20566,
    "genteel": 19951,
    "Ġneither": 3687,
    "bond": 17491,
    "Ġtowering": 16740,
    "aken": 1869,
    "Ġcaved": 21355,
    "thrusting": 20261,
    "ula": 2828,
    "linen": 25258,
    "itz": 6007,
    "pivot": 21032,
    "m": 81,
    "Ġlestrade": 5825,
    "whip": 22240,
    "Ġgritted": 22809,
    "evade": 24816,
    "Ġideal": 13123,
    "Ġdeserted": 8641,
    "Ġblock": 2576,
    "Ġstreaming": 19675,
    "Ġclutching": 24953,
    "taffrail": 15444,
    "Ġbutton": 10271,
    "Ġreminisc": 18725,
    "precaution": 23825,
    "Ġarchitects": 18744,
    "Ġtarn": 21160,
    "allen": 22199,
    "Ġfinancial": 23130,
    "Ġintensity": 10020,
    "Ġalexander": 17426,
    "ÿ": 192,
    "Ġumbrell": 13653,
    "Ġbottled": 23797,
    "Ġstoven": 23177,
    "meal": 22715,
    "Ġart": 747,
    "allest": 5485,
    "Ġbugs": 13651,
    "Ġintervals": 5598,
    "Ġgoing": 2066,
    "Ġskeleton": 5514,
    "Ġscheme": 7066,
    "Ġwarbling": 26168,
    "bul": 6951,
    "Ġskull": 6290,
    "enances": 10157,
    "verd": 21730,
    "Ġundeceive": 25553,
    "market": 16840,
    "Ġprudence": 13922,
    "Ġmainz": 22655,
    "Ġlarger": 1404,
    "Ġpastures": 23421,
    "Ġmant": 9651,
    "westward": 25425,
    "Ġwondered": 11128,
    "relative": 24015,
    "iless": 10285,
    "Ġdocumentation": 20556,
    "Ġmystical": 12136,
    "Ġneur": 813,
    "Ġdifferen": 937,
    "Ġraven": 16119,
    "~": 98,
    "ighb": 10426,
    "Ġviolin": 16430,
    "Ġopposition": 16522,
    "taste": 10133,
    "Ġspectators": 19409,
    "Ġbiological": 1935,
    "Ġmornings": 16240,
    "confined": 24327,
    "urp": 1472,
    "Ġsmacking": 20167,
    "Ġhorns": 11126,
    "Ġtasted": 12533,
    "vell": 3957,
    "Ġmothers": 14540,
    "imagine": 19933,
    "Ġcandidate": 16699,
    "agings": 18167,
    "Ġstreet": 2962,
    "Ġbrahma": 26320,
    "Ġconversed": 13188,
    "Ġsnar": 13200,
    "Ġgenius": 8046,
    "Ġelixir": 26556,
    "elevating": 20408,
    "ications": 4446,
    "Ġwhat": 599,
    "tooth": 18579,
    "Ġredeemed": 25789,
    "Ġfatigued": 13467,
    "Ġjetted": 24430,
    "bruary": 15238,
    "Ġowl": 20086,
    "Ġdischarged": 15223,
    "vict": 11544,
    "Ġgermany": 25785,
    "Ġabstracted": 17184,
    "type": 16179,
    "Ġinstruments": 12227,
    "Ġtuesday": 9630,
    "Ġkne": 4267,
    "considerably": 13447,
    "Ġphyset": 23202,
    "Ġshining": 8172,
    "dist": 4482,
    "iet": 1772,
    "unned": 21881,
    "species": 13258,
    "Ġvexation": 10590,
    "Ġentertaining": 16927,
    "Ġcuff": 17830,
    "Ġconclude": 8584,
    "anging": 3549,
    "six": 7143,
    "appearing": 14637,
    "urable": 8928,
    "Ġpods": 17916,
    "Ġserm": 9637,
    "gence": 875,
    "Ġoverboard": 6046,
    "copy": 5133,
    "Ġsubproblems": 12961,
    "Ġpleasantest": 24139,
    "Ġfootsteps": 16574,
    "Ġeager": 3569,
    "Ġpickle": 16723,
    "Ġjoining": 13166,
    "Ġcounterpane": 11346,
    "Ġrib": 4936,
    "Ġcit": 10786,
    "lightning": 16554,
    "representation": 20198,
    "swe": 5997,
    "Ġmixing": 24936,
    "innocent": 20288,
    "leagued": 26436,
    "advent": 10224,
    "Ġthickly": 12119,
    "rell": 11567,
    "mouthful": 25209,
    "Ġsharper": 17181,
    "iluvian": 18062,
    "Ġapproximation": 2339,
    "originally": 24939,
    "Ġfrig": 13083,
    "Ġshipwrecked": 25687,
    "mmed": 7914,
    "Ġkeenest": 12165,
    "assed": 6421,
    "Ġsneeze": 24697,
    "Ġdistress": 5845,
    "Ġnoting": 18221,
    "eration": 10775,
    "ak": 538,
    "Ġpursue": 6316,
    "Ġworse": 4720,
    "clouded": 20333,
    "Ġsolitude": 6876,
    "Ġquote": 18466,
    "Ġmanufactured": 22333,
    "century": 20049,
    "Ġloved": 4601,
    "kindness": 10509,
    "Ġcents": 17829,
    "Ġconsult": 6058,
    "Ġhoneymoon": 25645,
    "ancing": 1757,
    "nostr": 22718,
    "welcome": 10005,
    "Ġleech": 24157,
    "Ġattend": 5036,
    "Ġcruise": 12052,
    "Ġtheme": 16022,
    "refusal": 24734,
    "Ġbacks": 8531,
    "Ġcontempl": 6703,
    "eteenth": 20159,
    "yden": 21145,
    "igating": 21702,
    "Ġspectrum": 4476,
    "Ġsweep": 8266,
    "jo": 3751,
    "Ġetext": 23952,
    "clopÃ¦": 13059,
    "Ġformed": 3881,
    "Ġpersonality": 16478,
    "Ġfumbling": 21419,
    "Ġinsomuch": 23684,
    "esy": 9186,
    "Ġyourself": 2593,
    "uine": 13801,
    "retrie": 18925,
    "Ġlances": 6985,
    "Ġperformance": 1306,
    "Ġprotecting": 24686,
    "Ġevenly": 4126,
    "Ġreserves": 19672,
    "cig": 17505,
    "ark": 851,
    "leagues": 21375,
    "Ġimbib": 22178,
    "Ġpreparation": 13530,
    "Å": 134,
    "Ġerected": 12237,
    "Ġtops": 14585,
    "ĠâĢľâĢĺ_": 25113,
    "Ġsuperior": 2753,
    "Ġembatt": 18839,
    "byter": 16217,
    "Ġretort": 23072,
    "urons": 3132,
    "Ġbubb": 12588,
    "twinkle": 23704,
    "bingleys": 19636,
    "Ġhasten": 10481,
    "jeroboam": 25619,
    "Ġha": 400,
    "joining": 19448,
    "Ġresounds": 22545,
    "but": 590,
    "Ġinhospit": 25453,
    "Ġrally": 21971,
    "Ġresiding": 16064,
    "Ġcritical": 7475,
    "semic": 21824,
    "cried": 8729,
    "anel": 21359,
    "Ġother": 760,
    "Ġearned": 19407,
    "Ġmoritz": 11909,
    "Ġchasing": 11758,
    "numerous": 17433,
    "Ġclimax": 25053,
    "Ġleg": 2333,
    "Ġhessian": 3546,
    "leader": 25352,
    "completed": 19996,
    "poured": 17638,
    "impenetrable": 26197,
    "measure": 10035,
    "Ġessays": 19746,
    "rapidly": 15246,
    "Ġflew": 5588,
    "Ġprophes": 16351,
    "Ġplayfully": 19240,
    "capt": 3835,
    "ssip": 14081,
    "Ġtired": 9153,
    "Ġunquestion": 18248,
    "Ġunheeded": 18261,
    "Ġabased": 22281,
    "oning": 7573,
    "Ġlucas": 3831,
    "shott": 11798,
    "Ġpin": 7163,
    "Ġmartial": 20293,
    "depend": 9116,
    "ishes": 6523,
    "Ġdial": 10813,
    "cry": 12449,
    "Ġloses": 15876,
    "hammock": 16356,
    "Ġsimplicity": 2927,
    "Ġneighbor": 25803,
    "Ġaccord": 4023,
    "andes": 18153,
    "Ġscornful": 24998,
    "Ġdisclose": 16159,
    "possible": 5743,
    "Ġthird": 4185,
    "Ġcapital": 7979,
    "Ġequivalent": 4803,
    "Ġhoping": 11107,
    "Ġwithdraw": 16965,
    "Ġbeam": 2884,
    "induce": 22377,
    "some": 2235,
    "Ġsouthwards": 19635,
    "!âĢĶ": 2449,
    "vand": 21110,
    "Ġregularization": 1158,
    "Ġbridges": 24682,
    "prints": 23815,
    "Ġpointing": 5661,
    "Ġruskin": 25808,
    "Ġmoderate": 10941,
    "Ġreview": 18032,
    "subjects": 19877,
    "Ġsanguine": 25928,
    "anth": 13889,
    "Ġfancying": 12116,
    "quietly": 10596,
    "snap": 24848,
    "influence": 13581,
    "Ġcentral": 7728,
    "rine": 21039,
    "Ġbones": 4585,
    "gale": 13726,
    "greater": 13253,
    "thrill": 25656,
    "oters": 21802,
    "Ġharb": 7371,
    "ascending": 24705,
    "eling": 6683,
    "doubted": 17527,
    "Ġbedfellows": 23446,
    "Ġfurlong": 18740,
    "Ġfortifications": 23624,
    "gypt": 8261,
    "Ġgerman": 6143,
    "straight": 9944,
    "Ġgemini": 26470,
    "Ġprodig": 6029,
    "Ġbodings": 21393,
    "Ġwidest": 24236,
    "Ġoverl": 18427,
    "oc": 2837,
    "Ġlizz": 21559,
    "apped": 5395,
    "Ġbows": 4079,
    "Ġbroken": 3447,
    "Ļ": 252,
    "Ġwonderfully": 10433,
    "Ġunbending": 25465,
    "Ġcontinual": 6778,
    "Ġlegendary": 20539,
    "apothe": 22338,
    "to": 715,
    "scans": 22991,
    "Ġprinciples": 10015,
    "Ġpacifics": 24372,
    "near": 5843,
    "Ġlimbs": 5967,
    "Ġthreading": 23404,
    "Ġlocker": 16912,
    "bre": 3977,
    "even": 3836,
    "ighbour": 3388,
    "spr": 7436,
    "Ġcooking": 16648,
    "wait": 11323,
    "Ġissues": 9546,
    "Ġpoultry": 17443,
    "Ġovercame": 9750,
    "Ġparallel": 1417,
    "Ġostlers": 25277,
    "Ġcomment": 9236,
    "Ġfright": 3796,
    "shirt": 22461,
    "acute": 22597,
    "cun": 20796,
    "Ġweb": 9244,
    "Ġvehem": 22891,
    "home": 7342,
    "istan": 22111,
    "acquired": 24297,
    "Ġgreatest": 4089,
    "Ġneedlessly": 23633,
    "clear": 9028,
    "Ġchatbots": 11352,
    "sac": 7142,
    "Ġenlivened": 26208,
    "Ġsayest": 22779,
    "itted": 2437,
    "ract": 950,
    "Ġtimely": 19596,
    "irra": 15788,
    "Ġchange": 1994,
    "Ġheightened": 8653,
    "Ġcaliforn": 14433,
    "Ġexecute": 7506,
    "crown": 13701,
    "white": 4604,
    "Ġobsc": 7041,
    "Ġtraining": 528,
    "Ġrescued": 24208,
    "wr": 3033,
    "Ġrio": 23893,
    "user": 5105,
    "pagan": 17287,
    "Ġdebar": 24273,
    "Ġ-": 1946,
    "Ġgeometric": 3217,
    "dri": 5889,
    "Ġdecisive": 18485,
    "bee": 16039,
    "Ġsolomon": 11055,
    "Ġhypocr": 19474,
    "ividually": 22083,
    "Ġnews": 3818,
    "Ġvoices": 7876,
    "inct": 3292,
    "appropri": 22849,
    "========": 2310,
    "wrinkles": 16557,
    "Ġstudy": 1781,
    "longer": 8617,
    "striving": 24669,
    "putting": 14102,
    "Ġunsettled": 14125,
    "trip": 21093,
    "hypothe": 25905,
    "sometimes": 5973,
    "ston": 15686,
    "etah": 12665,
    "Ġnineveh": 13391,
    "hibited": 17429,
    "Ġlaughter": 9031,
    "Ġsooner": 5573,
    "Ġcircumstances": 3925,
    "Ġamounts": 6706,
    "Ġtaller": 16688,
    "Ġrays": 10334,
    "Ġcelestial": 10071,
    "ius": 5789,
    "Ġconvers": 2911,
    "Ġtri": 4814,
    "Ġunrecorded": 17469,
    "Ġscru": 8190,
    "expectant": 24277,
    "Ġrider": 24187,
    "Ġvictim": 6099,
    "Ġvolume": 6770,
    "continu": 5501,
    "Ġpilgrim": 25599,
    "Ġlamentations": 17076,
    "teenth": 11877,
    "Ġbounce": 21395,
    "Ġont": 18120,
    "com": 975,
    "ional": 1083,
    "gates": 20873,
    "Ġpatients": 24809,
    "mistak": 16879,
    "boast": 23254,
    "Ġcirclings": 26432,
    "Ġgloomily": 14802,
    "riv": 3111,
    "transition": 24512,
    "itching": 21337,
    "Ġender": 11694,
    "Ġtrack": 7451,
    "Ġdriver": 16475,
    "Ġchemist": 11137,
    "gods": 13369,
    "burned": 25081,
    "hailed": 17566,
    "Ġheinous": 18040,
    "prise": 7727,
    "Ġsilly": 7686,
    "odes": 18118,
    "arian": 10320,
    "cess": 541,
    "Ġpulverize": 23395,
    "Ġagency": 11810,
    "Ġbend": 9174,
    "dismay": 19155,
    "intense": 22938,
    "Ġrecumbent": 22740,
    "Ġamput": 16036,
    "umphed": 23519,
    "Ġtroubles": 19441,
    "Ġther": 17779,
    "Ġcoat": 4556,
    "irt": 3080,
    "Ġsympathising": 24298,
    "Ġoccurrences": 11053,
    "Ġgreedily": 18965,
    "Ġundressed": 19515,
    "Ġitem": 12705,
    "attentions": 13577,
    "f": 74,
    "Ġsab": 10765,
    "Ġflapp": 23011,
    "Ġenough": 1760,
    "ason": 1274,
    "Ġallowing": 2174,
    "uger": 21105,
    "Ġtestified": 16333,
    "urious": 21705,
    "Ġadvantage": 4317,
    "Ġcorpore": 13403,
    "Ġcaged": 21354,
    "Ġrascally": 26507,
    "accuracy": 9883,
    "cruet": 17027,
    "Ġtor": 8106,
    "Ġwhom": 1829,
    "jected": 22714,
    "Ġexpect": 2304,
    "our": 534,
    "benefit": 24642,
    "Ġ108": 19686,
    "Ġdisreputable": 22537,
    "Ġontario": 26205,
    "Ġamazement": 7765,
    "irst": 878,
    "Ġcorrid": 9828,
    "movable": 14326,
    "Ġmistaking": 23720,
    "comfortable": 7321,
    "algorith": 3582,
    "Ġobli": 9320,
    "Ġserves": 4670,
    "Ġimple": 1837,
    "binder": 17501,
    "necessary": 5883,
    "Ġorder": 1687,
    "riumph": 4920,
    "persuasion": 20046,
    "judging": 24203,
    "Ġcontortions": 18476,
    "Ġdomineer": 23616,
    "power": 7138,
    "niece": 20996,
    "Ġslapped": 23173,
    "Ġinclusive": 24165,
    "Ġadviser": 25313,
    "cream": 15333,
    "Ġunguarded": 15853,
    "Ġfreed": 7268,
    "erxes": 21277,
    "Ġoce": 3035,
    "Ġpolar": 9415,
    "Ġblessings": 24178,
    "Ġfriday": 14489,
    "Ġspinal": 12305,
    "Ġencomp": 12966,
    "swing": 15431,
    "sledge": 21059,
    "Ġhoof": 23355,
    "introduced": 15127,
    "Ġresc": 4508,
    "Ġgrown": 5628,
    "rebellum": 26165,
    "delightful": 12200,
    "sh": 648,
    "without": 4848,
    "Ġservants": 6613,
    "Ġtoilette": 20495,
    "Ġdoor": 1740,
    "Ġsequential": 2132,
    "Ġdistribution": 2018,
    "Ġplace": 1655,
    "Ġunexplored": 26519,
    "ich": 469,
    "Ġstupidity": 15052,
    "Ġcleaving": 23183,
    "Ġporing": 21469,
    "loveliness": 26550,
    "Ġenduring": 16305,
    "zag": 17714,
    "Ġshavings": 14112,
    "Ġassertions": 19949,
    "Ġtermination": 16462,
    "Ġprevailing": 24673,
    "mag": 6508,
    "Ġdepress": 14050,
    "quished": 21857,
    "Ġcaring": 23094,
    "nnight": 20994,
    "Ġunsur": 22025,
    "Ġunrelieved": 20547,
    "ested": 3478,
    "Ġlordly": 23745,
    "Ġadmit": 7711,
    "Ġphant": 7057,
    "oner": 6126,
    "avast": 8901,
    "Ġrepaired": 13110,
    "Ġyounge": 16290,
    "Ġpack": 5444,
    "Ġthrusts": 24349,
    "Ġresort": 18563,
    "Ġtuning": 3075,
    "Ġdistracted": 11807,
    "dis": 2251,
    "Ġdisembow": 22540,
    "ighted": 8479,
    "Ġwarehouses": 20420,
    "prejudice": 25572,
    "entary": 21569,
    "Ġdiddled": 22669,
    "Ġbreaths": 14858,
    "impression": 15714,
    "Ġinner": 9674,
    "Ġdragon": 14945,
    "Ġ57": 24320,
    "Ġadmirable": 8269,
    "urrection": 12412,
    "biting": 20782,
    "Ġactual": 3738,
    "Ġabominable": 12325,
    "Ġholes": 16411,
    "Ġsinew": 25432,
    "Ġhawk": 15176,
    "Ġvehement": 16204,
    "Ġprophesied": 26062,
    "jonah": 11500,
    "slight": 10730,
    "asy": 5296,
    "Ġr": 404,
    "Ġbelt": 13006,
    "inferences": 17740,
    "Ġcharming": 6631,
    "ord": 667,
    "elements": 25204,
    "Ġcharacter": 2794,
    "Ġneutral": 12745,
    "vital": 17701,
    "Ġscimet": 22277,
    "Ġcanv": 7011,
    "Ġmultiplicity": 19276,
    "Ġessentials": 20005,
    "Ġobjects": 5578,
    "one": 614,
    "rec": 6005,
    "ry": 808,
    "Ġsays": 3559,
    "apologizing": 26545,
    "pre": 650,
    "produce": 20284,
    "Ġdelirium": 10408,
    "Ġcrate": 19120,
    "spears": 23944,
    "Ġascertaining": 17205,
    "dislike": 23495,
    "Ġcolonial": 22860,
    "naturedly": 24840,
    "mai": 22915,
    "relig": 15514,
    "establishment": 26113,
    "spending": 18689,
    "Ġdeath": 2043,
    "Ġadvertised": 17249,
    "ville": 6088,
    "Ġpreced": 6041,
    "Ġdistrict": 10322,
    "Ġtuileries": 24823,
    "Ġvarious": 3508,
    "entirely": 7782,
    "Ġstationary": 19696,
    "conception": 22477,
    "Ġeavesdroppers": 25963,
    "Ġinvulnerable": 19147,
    "Ġsaxe": 13631,
    "really": 6972,
    "mockery": 24377,
    "disappeared": 14569,
    "Ġdecember": 15008,
    "secre": 18129,
    "Ġhastening": 19337,
    "Ġeast": 5370,
    "Ġintrodu": 1926,
    "plings": 11699,
    "iastic": 12483,
    "Ġsoul": 2726,
    "Ġstrangely": 5677,
    "Ġunrestingly": 20363,
    "Ġsuddenly": 2645,
    "Ġtrepidation": 19217,
    "omy": 6250,
    "Ġfools": 14483,
    "Ġpeering": 8538,
    "appearance": 5334,
    "Ġtwist": 11854,
    "Ġfeedback": 23434,
    "Ġenters": 11028,
    "Ġcem": 17824,
    "adler": 21765,
    "ricane": 16279,
    "ilar": 10219,
    "reduc": 5459,
    "libra": 22927,
    "Ġlazy": 17050,
    "Ġsummit": 7731,
    "oyed": 14366,
    "Ġlottery": 19889,
    "Ġcircus": 19092,
    "Ġplu": 8804,
    "Ġunmannerly": 26518,
    "saying": 8645,
    "digger": 24311,
    "Ġprove": 5232,
    "Ġattempt": 3485,
    "Ġlink": 8130,
    "ury": 3312,
    "atoes": 17776,
    "Ġconfession": 11238,
    "Ġvisit": 2584,
    "Ġdogs": 7742,
    "Ġlaws": 8003,
    "Ġfrantically": 23260,
    "Ġepisode": 26348,
    "Ġcorrob": 16266,
    "Ġclings": 15970,
    "Ġdre": 1744,
    "Ġexperiments": 23006,
    "Ġcurse": 7668,
    "aisance": 15077,
    "itigated": 23047,
    "Ġrise": 5637,
    "Ġcontemplate": 19893,
    "Ġingenious": 12351,
    "ips": 2592,
    "Ġgems": 9212,
    "ief": 2046,
    "isive": 10796,
    "Ġstandards": 19015,
    "Ġtheirs": 7026,
    "Ġviol": 2071,
    "Ġmemory": 2274,
    "Ġmouths": 7492,
    "ilt": 2972,
    "Ġslave": 7455,
    "@": 36,
    "Ġregarded": 5762,
    "ik": 17572,
    "fortun": 3537,
    "deceiving": 22147,
    "Ġhackluyt": 25655,
    "etency": 21584,
    "Ġkrusenstern": 26378,
    "bull": 13693,
    "Ġregrets": 18585,
    "Ġconven": 6153,
    "Ġhip": 17922,
    "Ġcloset": 19593,
    "mil": 13754,
    "Ġstronger": 8582,
    "Ġcopper": 7426,
    "nel": 11508,
    "purse": 20027,
    "ivers": 1984,
    "evidently": 20347,
    "Ġsweetly": 23921,
    "Ġtalked": 4422,
    "Ġbaggy": 24537,
    "Ġtraditions": 11446,
    "Ġblinds": 8007,
    "Ġzealand": 12353,
    "Ġprevail": 13444,
    "lifted": 15389,
    "Ġlucy": 17971,
    "Ġspray": 7894,
    "get": 1022,
    "omach": 11637,
    "Ġspurred": 22142,
    "twelve": 14621,
    "ception": 6564,
    "Ġinject": 2712,
    "Ġterrify": 19363,
    "Ġbruited": 25773,
    "erns": 8783,
    "Ġpatron": 7463,
    "pse": 21010,
    "Ġmotives": 7487,
    "aspect": 10197,
    "Ġdesolated": 24808,
    "instances": 13322,
    "thought": 3847,
    "Ġepistle": 24904,
    "Ġpiratical": 24797,
    "Ġplain": 2819,
    "harpooneer": 8693,
    "Ġhimmale": 18334,
    "Ġpronounced": 8351,
    "Ġwires": 21297,
    "Ġhereditary": 10668,
    "bourgh": 19104,
    "Ġclutches": 20020,
    "dick": 11482,
    "Ġundoubtedly": 8313,
    "prodigious": 17468,
    "Ġengraved": 17081,
    "Ġwandering": 8658,
    "oard": 4810,
    "especially": 3571,
    "shazz": 14243,
    "furnished": 20243,
    "Ġnavies": 16901,
    "bun": 12441,
    "Ġwoeful": 19621,
    "Ġwoke": 21291,
    "Ġteeth": 4165,
    "Ġwritten": 4166,
    "idually": 21772,
    "Ġmultiplication": 2876,
    "nut": 12498,
    "uted": 7594,
    "Ġiceberg": 14717,
    "gn": 8082,
    "vable": 10136,
    "gor": 546,
    "Ġadvances": 12996,
    "Ġmorality": 22980,
    "Ġspr": 4022,
    "arest": 4002,
    "Ġparagraph": 17456,
    "Ġult": 9078,
    "Ġodd": 6627,
    "Ġactive": 7915,
    "hurst": 19880,
    "Ġsuppressed": 11914,
    "cheap": 23806,
    "car": 4210,
    "mon": 2307,
    "Ġupbra": 22157,
    "Ġmaintained": 12937,
    "Ġmartin": 25437,
    "Ġproperly": 7945,
    "itioned": 22472,
    "Ġoct": 10162,
    "Ġequ": 1735,
    "Ġdispleased": 18555,
    "Ġphrase": 11190,
    "ullen": 8235,
    "Ġtowing": 9197,
    "Ġclinch": 18425,
    "Ġbleak": 10562,
    "threaten": 25462,
    "Ġdescend": 7428,
    "Ġpreprocessing": 26537,
    "library": 13002,
    "Ġtending": 17725,
    "Ġmule": 13864,
    "Ġperem": 12935,
    "avery": 13686,
    "Ġtints": 17728,
    "Ġboxes": 13376,
    "Ġstudies": 7956,
    "Ġroving": 22406,
    "Ġunscrew": 22043,
    "inion": 2880,
    "Ġvestige": 20065,
    "Ġwent": 1540,
    "Ġproposal": 10023,
    "Ġthomas": 17949,
    "Ġcro": 4874,
    "tail": 8766,
    "Ġpuffed": 14978,
    "Ġover": 555,
    "which": 1711,
    "Ġholy": 6593,
    "Ġyears": 1891,
    "Ġcompan": 2173,
    "Ġslacked": 25189,
    "Ġuninterrupted": 22049,
    "Ġremove": 7500,
    "Ġtwitched": 20446,
    "Ġquies": 18464,
    "Ġrendered": 5773,
    "Ġori": 8410,
    "beh": 5472,
    "Ġcharnel": 22255,
    "touching": 15094,
    "remind": 23189,
    "Ġsoftened": 11106,
    "Ġobliged": 4286,
    "bowed": 10688,
    "Ġ/*": 10143,
    "pause": 12504,
    "Ġunlim": 18253,
    "scy": 21057,
    "pleasing": 14743,
    "herald": 22208,
    "eyeing": 14947,
    "flinging": 20869,
    "Ġgathers": 24741,
    "pile": 17630,
    "Ġfurrow": 22817,
    "uy": 21101,
    "Ġposition": 1955,
    "attacked": 23123,
    "Ġabridged": 26542,
    "Ġcopying": 17068,
    "become": 14248,
    "bidden": 19739,
    "Ġenthus": 7233,
    "Ġstomach": 11656,
    "Ġcommanding": 16591,
    "Ġindef": 9193,
    "Ġsecondary": 23335,
    "Ġvile": 8475,
    "liv": 9611,
    "Ġorlop": 22096,
    "Ġpendulous": 25955,
    "Ġlaughing": 5339,
    "Ġoaken": 13867,
    "Ġtranslation": 3090,
    "iably": 13740,
    "echo": 15351,
    "Ġjewelled": 20185,
    "Ġinvestigated": 25387,
    "Ġcripp": 9657,
    "Ġwines": 21289,
    "angles": 18290,
    "Ġgaol": 19569,
    "Ġtranscend": 25667,
    "Ġheaven": 3365,
    "Ġtrusty": 24104,
    "ĠdÃ¦mon": 7844,
    "Ġamelia": 26252,
    "Ġafresh": 18627,
    "tuning": 1583,
    "Ġ92": 24590,
    "Ġperpetual": 12306,
    "Ġglit": 8564,
    "quet": 6835,
    "performances": 26006,
    "Ġwait": 4908,
    "Ġscor": 8189,
    "opotam": 22482,
    "Ġbrides": 22865,
    "Ġmoody": 8201,
    "ics": 3255,
    "Ġneatly": 17017,
    "otherwise": 7672,
    "prof": 7699,
    "Ġmustering": 18662,
    "Ġstoutest": 24628,
    "Ġstoried": 18077,
    "Ġlodge": 5779,
    "Ġreigns": 21673,
    "Ġsubsequent": 7660,
    "butter": 11789,
    "Ġvol": 4187,
    "Ġceaseless": 13490,
    "Ġ110": 24434,
    "Ġspirits": 3699,
    "Ġgratify": 19505,
    "Ġfibres": 12954,
    "creat": 20801,
    "Ġtorture": 9068,
    "Ġfeebly": 24877,
    "Ġcaprice": 14576,
    "Ġexact": 2540,
    "Ġsleeves": 10664,
    "Ġimpropriety": 17397,
    "nyder": 16686,
    "Ġcracks": 12023,
    "gather": 20876,
    "ource": 5244,
    "weeks": 14318,
    "Ġfeed": 2128,
    "crooked": 25746,
    "formed": 2553,
    "Ġconfeder": 25707,
    "Ġhardship": 18914,
    "Ġonly": 787,
    "sou": 12509,
    "Ġugly": 8720,
    "Ġrightly": 13068,
    "Ġnatures": 16506,
    "squall": 13523,
    "Ġrelish": 14386,
    "Ġmoles": 22437,
    "Ġinterrupting": 19559,
    "tot": 10731,
    "Ġglowing": 12286,
    "Ġrequisite": 18632,
    "Ġbelted": 22950,
    "Ġarbit": 4652,
    "Ġplanets": 24058,
    "amore": 21846,
    "ded": 2757,
    "consid": 4925,
    "away": 4627,
    "hero": 21206,
    "odecimoes": 25319,
    "claim": 9839,
    "eu": 17531,
    "maker": 12496,
    "unctuous": 21885,
    "Ġtweezers": 26557,
    "forgotten": 12419,
    "Ġdup": 21429,
    "coward": 13703,
    "Ġreminds": 13433,
    "Ġflora": 11419,
    "island": 10797,
    "waiting": 12224,
    "Ġflaw": 23013,
    "Ġrelatives": 12985,
    "countless": 24152,
    "ript": 4151,
    "fav": 6649,
    "Ġjacobian": 2897,
    "Ġper": 587,
    "Ġtertiary": 15297,
    "prudently": 21036,
    "Ġmysteriously": 24601,
    "inqu": 6123,
    "v": 90,
    "knell": 24554,
    "Ġdiffer": 18677,
    "lect": 1223,
    "Ġark": 10280,
    "Ġconflag": 20337,
    "Ġcasting": 12104,
    "\",": 10682,
    "âĢĶâĢĿ": 3299,
    "Ġtoy": 15637,
    "+": 15,
    "Ġtelegram": 15226,
    "'t": 3145,
    "Ġthom": 21518,
    "Ġbeale": 12703,
    "Ġhorses": 6385,
    "Ġreliability": 22881,
    "Ġdesmarest": 22983,
    "mortal": 10116,
    "Ġprouder": 18972,
    "Ġsor": 4144,
    "Ġsurm": 7477,
    "suffered": 24329,
    "chop": 21690,
    "forced": 11033,
    "Ġvehic": 8937,
    "Ġpostmark": 16726,
    "Ġhardened": 14452,
    "Ġdromedary": 17441,
    "onts": 15521,
    "Ġelect": 10845,
    "jah": 17582,
    "Ġhovered": 12635,
    "Ġjuggling": 20441,
    "Ġpoll": 12033,
    "Ġreal": 1636,
    "Ġsmitten": 12903,
    "owner": 18610,
    "Ġstuck": 9226,
    "Ġobeyed": 12220,
    "Ġque": 4157,
    "Ġthine": 7375,
    "beaten": 20317,
    "Ġsockets": 22091,
    "machine": 957,
    "Ġ16": 7927,
    "Ġpine": 8802,
    "witness": 10039,
    "tured": 13797,
    "false": 15357,
    "Ġadvance": 5484,
    "Ġfeatures": 1433,
    "happiness": 6469,
    "Ġdrily": 23541,
    "Ġgliding": 8565,
    "Ġabreast": 18399,
    "planks": 21957,
    "retion": 9367,
    "msprop": 2623,
    "Ġelephant": 8256,
    "oy": 1016,
    "Ġout": 543,
    "Ġcompiled": 22575,
    "fort": 1748,
    "Ġsleeps": 10449,
    "Ġpractices": 19033,
    "orrow": 2919,
    "Ġcaves": 15557,
    "absolut": 8460,
    "Ġcases": 3959,
    "previous": 9765,
    "Ġcompressed": 21853,
    "Ġsplintered": 11421,
    "ert": 2630,
    "Ġpoured": 8806,
    "fitzwilliam": 11355,
    "pipe": 8701,
    "Ġvirtuous": 14756,
    "Ġmonoton": 3636,
    "sterns": 23370,
    "Ġtelesc": 12994,
    "Ġabstraction": 26541,
    "quick": 6400,
    "Ġrepresentations": 1875,
    "Ġchristmas": 6924,
    "Ġconcisely": 19043,
    "Ġheal": 21683,
    "ientiously": 21944,
    "Ġsky": 3967,
    "Ġhopeless": 7464,
    "Ġsorrow": 4630,
    "ologies": 18780,
    "obviously": 25243,
    "Ġlob": 7629,
    "Ġshades": 9467,
    "Ġcontinually": 5042,
    "_âĢĶâĢĻâĢĿ": 25741,
    "Ġwoodcock": 19164,
    "Ġcust": 11586,
    "Ġresuming": 12897,
    "cabinet": 25079,
    "inating": 9157,
    "Ġru": 948,
    "Ġbutts": 15858,
    "Ġproduce": 4368,
    "Ġcult": 8787,
    "heavens": 19747,
    "Ġwithered": 19467,
    "Ġneeded": 7718,
    "Ġguiltless": 16941,
    "Ġinspirited": 23422,
    "Ġprofounder": 23570,
    "Ġfavourites": 16646,
    "Ġdiscoursing": 26267,
    "irmed": 9243,
    "towing": 17690,
    "Ġsong": 5904,
    "pless": 6262,
    "Ġwre": 5077,
    "Ġbatt": 13901,
    "li": 1187,
    "crossed": 16634,
    "Ġincomplete": 17210,
    "Ġdella": 21441,
    "drab": 23901,
    "Ġsame": 1340,
    "Ġerudite": 26352,
    "Ġcut": 2641,
    "Ġagrees": 22519,
    "ity": 417,
    "Ġkindly": 6078,
    "Ġoccupant": 16653,
    "Ġnominally": 17233,
    "Ġay": 15493,
    "Ġoutbreak": 22320,
    "jur": 17579,
    "Ġdatasets": 2386,
    "Ġathirst": 20600,
    "Ġperman": 10967,
    "âĢĺ": 940,
    "Ġdozing": 22246,
    "scor": 13023,
    "ridge": 9501,
    "gave": 7800,
    "favourite": 15146,
    "Ġfairly": 6327,
    "Ġcle": 1509,
    "Ġsemicircular": 26068,
    "Ġamph": 18511,
    "homage": 25616,
    "Ġdesperation": 19820,
    "||": 4870,
    "assment": 9744,
    "Ġclearer": 16316,
    "Ġhuge": 4701,
    "sheltered": 25585,
    "83": 13683,
    "Ġmagician": 25060,
    "deceptive": 22152,
    "Ġjour": 11768,
    "Ġcargo": 16292,
    "tales": 17687,
    "Ġmerry": 5870,
    "]": 65,
    "ring": 1751,
    "fins": 13721,
    "auley": 22625,
    "Ġlogic": 13080,
    "Ġjurymen": 16848,
    "Ġstru": 2170,
    "Ġadditionally": 1175,
    "illum": 15872,
    "Ġescort": 23506,
    "Ġ1": 1013,
    "Ġimposed": 14216,
    "Ġqualities": 7534,
    "pointed": 9812,
    "Ġunlo": 22015,
    "bouton": 17503,
    "Ġtotally": 9475,
    "dignity": 15348,
    "Ġmathemat": 3202,
    "riors": 18185,
    "ugl": 23288,
    "agonies": 21912,
    "Ġ98": 24593,
    "Ġmysterious": 7528,
    "inn": 5364,
    "tallow": 21087,
    "velling": 14763,
    "german": 11495,
    "mira": 20980,
    "complain": 14358,
    "Ġisrael": 21806,
    "cons": 4310,
    "fortnight": 13089,
    "Ġbottomless": 12110,
    "Ġexplain": 545,
    "ilder": 15716,
    "Ġwol": 15532,
    "ator": 1923,
    "lane": 10709,
    "vious": 1782,
    "Ġcolleague": 17161,
    "approach": 24833,
    "measureless": 20237,
    "robust": 19730,
    "heav": 5694,
    "Ġelijah": 9104,
    "Ġintent": 6409,
    "Ġapprehended": 26090,
    "injury": 25214,
    "Þ": 159,
    "oke": 1860,
    "cork": 20797,
    "hamlet": 23264,
    "Ġflattering": 13033,
    "Ġbrowne": 13304,
    "Ġpovelson": 26553,
    "Ġtouches": 20572,
    "lone": 11503,
    "Ġgrimesby": 11460,
    "shr": 10983,
    "ounted": 5030,
    "third": 8168,
    "Ġhorsey": 24251,
    "Ġsplendidly": 25328,
    "Ġvelv": 10623,
    "Ġdeprec": 15761,
    "Ġhieroglyphic": 25587,
    "Ġspleen": 26422,
    "Ġpretensions": 16560,
    "irited": 15790,
    "Ġrestoration": 19023,
    "Ġmeaning": 1418,
    "Ġpuzz": 5533,
    "improve": 15715,
    "husband": 8042,
    "Ġshock": 6083,
    "acon": 10685,
    "consequential": 26250,
    "Ġdwelt": 12609,
    "Ġroot": 2649,
    "Ġevolve": 3006,
    "mant": 20966,
    "meditated": 19071,
    "Ġcough": 11585,
    "complaisance": 24807,
    "Ġsuffusing": 23031,
    "illes": 12698,
    "profound": 16428,
    "Ġcul": 17823,
    "Ġrecently": 11864,
    "Ġsympathise": 16795,
    "batch": 1983,
    "Ġloc": 10917,
    "Ġmak": 10781,
    "Ġannot": 15605,
    "Ġrealised": 18981,
    "Ġasks": 5115,
    "Ġenveloped": 12212,
    "Ġignor": 4009,
    "Ġpaws": 13923,
    "umst": 2500,
    "claimed": 9840,
    "Ġbored": 16108,
    "Ġheidelburgh": 11646,
    "Ġbitten": 21392,
    "Ġhuman": 1316,
    "ede": 21508,
    "sed": 4174,
    "rrh": 26144,
    "Ġdissembling": 26255,
    "offing": 23336,
    "Ġappropriate": 2250,
    "sideways": 14571,
    "Ġ29": 23731,
    "boscombe": 26121,
    "Ġensl": 19275,
    "many": 5251,
    "Ġroused": 7624,
    "Ġfow": 6135,
    "fes": 20852,
    "Ġswaths": 23058,
    "awed": 10394,
    "Ġsit": 4215,
    "ports": 13776,
    "Ġspine": 7408,
    "into": 3680,
    "walk": 5523,
    "iety": 2820,
    "Ġdefy": 11900,
    "Ġtu": 6969,
    "happily": 14657,
    "aven": 8209,
    "Ġdomain": 3205,
    "gan": 2198,
    "words": 7983,
    "Ġdiabolically": 25514,
    "Ġtar": 2562,
    "list": 7552,
    "abilities": 3236,
    "nobody": 16138,
    "Ġest": 2265,
    "Ġducks": 25161,
    "mate": 5359,
    "Ġschool": 5512,
    "Ġgenteel": 19983,
    "Ġsavoury": 23879,
    "Ġconnectivity": 3666,
    "hither": 11496,
    "driven": 19773,
    "urean": 18125,
    "Ġhelmet": 19689,
    "Ġadvantages": 9815,
    "Ġnurtured": 19751,
    "strikes": 24670,
    "Ġproducing": 11902,
    "Ġnantucketers": 9899,
    "Ġliberated": 19668,
    "Ġcobbling": 20525,
    "Ġparlor": 13541,
    "Ġdiscomp": 11869,
    "Ġage": 3896,
    "Ġaperture": 26160,
    "highly": 24762,
    "Ġtars": 21166,
    "Ġferocity": 16867,
    "arthy": 4824,
    "Ġlet": 1108,
    "ad": 337,
    "Ġwere": 556,
    "Ġgifts": 21614,
    "Ġindians": 14412,
    "Ġpupils": 20423,
    "Ġhyperborean": 26340,
    "Ġbush": 23339,
    "Ġharrow": 17927,
    "é": 170,
    "Ġlads": 8601,
    "Ġpopularly": 12245,
    "Ġreply": 4516,
    "Ġstrangers": 8314,
    "law": 6117,
    "Ġconducting": 16651,
    "shoals": 24715,
    "touch": 8392,
    "Ġcoco": 11003,
    "Ġsignify": 16495,
    "Ġcrav": 19174,
    "Ġdefray": 22943,
    "Ġconceive": 8463,
    "Ġwrote": 5011,
    "chat": 21688,
    "Ġparaph": 22123,
    "Ġver": 3393,
    "Ġpleasure": 2696,
    "Ġunseasonable": 26521,
    "isis": 12583,
    "Ġlanguor": 12851,
    "Ġunallied": 22035,
    "Ġphrenologists": 25608,
    "Ġphantoms": 13488,
    "Ġorphans": 20206,
    "Ġactions": 6280,
    "Ġabomination": 22291,
    "alcul": 15631,
    "Ġblacksmith": 6597,
    "Ġtying": 15475,
    "Ġ40": 14769,
    "Ġgettest": 23234,
    "thesize": 24906,
    "Ġpolitics": 19226,
    "mp": 3728,
    "ugues": 19019,
    "clu": 20800,
    "priv": 9623,
    "Ġembedding": 2105,
    "======": 9837,
    "monster": 8596,
    "augh": 1780,
    "usal": 7640,
    "Ġchord": 22248,
    "idly": 12704,
    "rect": 1598,
    "connect": 1291,
    "securing": 19815,
    "onted": 11571,
    "Ġwaits": 23280,
    "Ġespecial": 26411,
    "Ġinconvenient": 20012,
    "glass": 9913,
    "Ġforwards": 12707,
    "Ġtract": 21167,
    "Ġwillow": 18530,
    "Ġgasfitters": 25040,
    "Ġmic": 17798,
    "Ġuse": 831,
    "Ġpeter": 10539,
    "agrad": 2747,
    "perfectly": 9090,
    "Ġstartling": 14671,
    "Ġimbu": 15894,
    "Ġmexic": 14034,
    "analysis": 26173,
    "Ġbabies": 19694,
    "Ġsolving": 2479,
    "mystery": 15158,
    "ore": 418,
    "Ġsuffocated": 20729,
    "Ġjollies": 20372,
    "Ġfris": 23257,
    "acle": 4717,
    "adjust": 21762,
    "Ġairy": 23318,
    "Ġshops": 22004,
    "Ġfreezing": 23885,
    "pet": 4868,
    "4": 24,
    "Ġdeficiencies": 26571,
    "expedition": 26078,
    "Ġcould": 703,
    "Ġtossing": 8126,
    "Ġprosperity": 20260,
    "mist": 5686,
    "pered": 4196,
    "Ġclimate": 9279,
    "Ġexplored": 23520,
    "Ġoverflowed": 20264,
    "lee": 11589,
    "Ġyouthful": 16724,
    "Ġdecrease": 4199,
    "Ġevil": 3805,
    "Ġwheeled": 14140,
    "dischar": 19154,
    "Ġfolly": 7941,
    "naught": 20995,
    "Ġofficial": 7083,
    "Ġcemeteries": 26376,
    "Ġsixty": 7723,
    "iii": 14777,
    "us": 532,
    "sailors": 9926,
    "Ġtwinkled": 14314,
    "Ġsorrows": 13357,
    "acher": 6868,
    "Ġjavel": 17084,
    "Ġimmut": 13300,
    "Ġunlike": 7006,
    "Ġterribly": 10428,
    "Ġsuppressing": 23003,
    "tural": 21068,
    "Ġshy": 10906,
    "Ġble": 5223,
    "ying": 1365,
    "Ġmarlings": 23038,
    "Ġacceptable": 16745,
    "Ġencaps": 12965,
    "Ġ32": 19491,
    "Ġsomnam": 23008,
    "Ġfed": 5530,
    "iments": 4945,
    "Ġmother": 2067,
    "ending": 1990,
    "Ġenormity": 19697,
    "Ġgraze": 18226,
    "Ġlam": 21551,
    "Ġsnow": 3708,
    "Ġunwarrantable": 26345,
    "Ġsail": 1675,
    "Ġscholar": 26111,
    "pardonable": 17219,
    "Ġwept": 7185,
    "Ġcusack": 26434,
    "Ġbought": 8417,
    "Ġrepugn": 23365,
    "Ġguided": 10464,
    "Ġforward": 1836,
    "Ġsmaller": 1883,
    "Ġdart": 4587,
    "Ġhundreds": 4329,
    "Ġbrut": 18768,
    "remain": 9842,
    "Ġbewildered": 15216,
    "almost": 4943,
    "Ġappropriated": 23485,
    "brilliancy": 26077,
    "gammon": 20245,
    "Ġadmon": 15871,
    "Ġenchantment": 24869,
    "Ġundertaken": 18987,
    "companies": 24894,
    "deserving": 17247,
    "smug": 23910,
    "Ġfossil": 12390,
    "nal": 1900,
    "Ġspoke": 2748,
    "pilot": 25908,
    "Ġframed": 19054,
    "Ġhelping": 3267,
    "rece": 21236,
    "Ġendeavouring": 8035,
    "Ġfive": 2840,
    "understand": 1110,
    "Ġchallenges": 13633,
    "Ġsailed": 4890,
    "fr": 4805,
    "shrouded": 26362,
    "dington": 12069,
    "Ġplaid": 22602,
    "Ġsequentially": 4915,
    "sue": 2076,
    "hel": 4815,
    "cheerfulness": 20182,
    "Ġdears": 18141,
    "Ġsuperb": 16444,
    "Ġtrusting": 24105,
    "Ġvindictiveness": 25738,
    "Ġenable": 686,
    "Ġaccumulating": 2723,
    "Ġautumnal": 19041,
    "Ġgesture": 11402,
    "arman": 11599,
    "Ġrummaged": 16911,
    "Ġlightnings": 16355,
    "sized": 15430,
    "Ġcandle": 8292,
    "crimson": 24087,
    "Ġking": 2303,
    "gee": 15980,
    "ket": 17583,
    "close": 9990,
    "Ġprecious": 5760,
    "Ġedd": 8398,
    "girls": 12322,
    "visitors": 13351,
    "Ġsagacity": 16975,
    "Ġnaval": 16900,
    "Ġlowers": 23242,
    "Ġinstantaneous": 14611,
    "Ġconcentrate": 25065,
    "Ġlifetime": 13605,
    "Ġappropri": 2225,
    "Ġfurnace": 19442,
    "Ġhove": 17924,
    "istically": 14145,
    "agne": 21908,
    "fle": 7130,
    "Ġaverage": 3140,
    "victim": 25531,
    "see": 3051,
    "infl": 15489,
    ".*": 7332,
    "Ġger": 21593,
    "Ġbaby": 6639,
    "barb": 10084,
    "they": 1879,
    "fabulous": 20476,
    "Ġpoisonous": 24887,
    "Ġandromeda": 21510,
    "honey": 20906,
    "Ġbubblingly": 25632,
    "Ġtiresome": 26156,
    "ruit": 22180,
    "Ġbeads": 18085,
    "ignorantly": 25190,
    "Ġprep": 4189,
    "conversations": 24747,
    "ding": 3031,
    "doesn": 19822,
    "<UNK>": 3,
    "middle": 11313,
    "ĠĠĠĠĠĠĠĠĠĠĠĠĠĠĠĠĠĠĠĠĠĠĠĠĠĠĠĠĠĠĠĠĠĠĠĠĠĠ": 16527,
    "teak": 22819,
    "Ġcrony": 23439,
    "strip": 19832,
    "albatross": 15633,
    "Ć": 199,
    "Ġwarrior": 24495,
    "Ġsequences": 1750,
    "ais": 8071,
    "you": 1004,
    "Ġpill": 7846,
    "Ġtranced": 18419,
    "conclusive": 25673,
    "cils": 20815,
    "Ġdetection": 3263,
    "isting": 5551,
    "Ġwrinkles": 8575,
    "Ġprofits": 16490,
    "Ġcounters": 24142,
    "Ġlivelong": 25512,
    "Ġjohn": 5032,
    "Ġpromise": 4197,
    "Ġinflu": 4910,
    "Ġfervent": 14897,
    "Ġforemast": 12009,
    "Ġern": 8397,
    "Ġdef": 1198,
    "Ġol": 17815,
    "Ġkissed": 10049,
    "Ġcompute": 2910,
    "jaws": 20933,
    "Ġanimal": 2494,
    "object": 6884,
    "Ġfruits": 17120,
    "Ġ56": 24319,
    "Ġprogno": 14043,
    "delighted": 10566,
    "independ": 15984,
    "Ġwiping": 25765,
    "Ġintegral": 25010,
    "Ġbeaut": 2390,
    "izings": 14046,
    "Ġlearning": 385,
    "Ġbalmoral": 16209,
    "ek": 1905,
    "pun": 9621,
    "Ġdared": 5440,
    "buck": 17492,
    "Ġformer": 3323,
    "Ġextract": 1455,
    "apprehens": 17408,
    "Ġepoch": 26472,
    "Ġweighty": 16034,
    "Ġbuckle": 17033,
    "Ġcharges": 23270,
    "Ġbarmaid": 19336,
    "Ġaustrian": 24301,
    "Ġmoderation": 12822,
    "melted": 25207,
    "Ġuneasy": 8666,
    "Ġdawn": 6817,
    "Ġbarber": 23791,
    "Ġcountless": 16386,
    "onement": 21258,
    "mason": 17603,
    "sympathy": 20544,
    "Ġquadrant": 11407,
    "Ġentreaties": 9039,
    "manifested": 20528,
    "Ġstagnant": 24654,
    "Ġutterance": 14764,
    "Ġassoc": 6402,
    "Ġsprain": 18305,
    "somerset": 26323,
    "Ġconsequent": 18112,
    "nett": 16223,
    "Ġgangs": 21611,
    "Ġchron": 19440,
    "Ġdependen": 1827,
    "gener": 3127,
    "washed": 13049,
    "Ġbrows": 13303,
    "Ġderiv": 1737,
    "Ġdaugh": 2292,
    "Ġentry": 11029,
    "Ġpatagon": 14501,
    "like": 1885,
    "attain": 21263,
    "uously": 7354,
    "Ġaston": 3703,
    "apply": 18760,
    "ions": 448,
    "Ġoccasional": 7290,
    "mortar": 25409,
    "Ġfacilitate": 26098,
    "het": 5435,
    "Ġsolely": 9914,
    "Ġallen": 5160,
    "Ġquietude": 19362,
    "Ġplaying": 6910,
    "partiality": 13162,
    "))": 1515,
    "Ġthrill": 24540,
    "evinced": 19927,
    "Ġmisery": 3813,
    "Ġork": 18284,
    "Ġcause": 2407,
    "Ġcocoanuts": 26363,
    "pray": 5429,
    "phr": 18710,
    "Ġinconven": 7588,
    "Ġmotioned": 19594,
    "Ġissued": 10603,
    "pshire": 21025,
    "Ġtum": 5692,
    "Ġpalm": 10517,
    "sensible": 20054,
    "iscient": 17852,
    "plague": 21956,
    "Ġadequately": 15201,
    "Ġneared": 14075,
    "Ġfervently": 25877,
    "Ġinfancy": 10420,
    "diligence": 26110,
    "Ġexcursion": 26590,
    "Ġattorney": 18621,
    "sham": 9762,
    "government": 25407,
    "Ġgrowing": 6752,
    "Ġfeeble": 12287,
    "Ġweave": 21924,
    "Ġlothario": 26185,
    "alive": 10830,
    "hies": 17561,
    "Ġdeparture": 6490,
    "Ġrelieved": 7667,
    "Ġpleated": 16300,
    "Ġslumber": 13063,
    "ixed": 4853,
    "Ġgaily": 16749,
    "xible": 13810,
    "Ġsubstantiated": 25875,
    "Ġwa": 1752,
    "Ġincarn": 11818,
    "tube": 20413,
    "Ġadmires": 19687,
    "Ġlate": 3377,
    "Ġrenounce": 19470,
    "Ġdazzling": 15214,
    "hastened": 16846,
    "eck": 20845,
    "Ġantics": 24180,
    "Ġhudson": 15194,
    "Ġneglected": 10381,
    "bolts": 11423,
    "ignomin": 23268,
    "heard": 5009,
    "ution": 4351,
    "Ġcomprehended": 11297,
    "Ġmort": 3458,
    "Ġvulture": 17341,
    "._": 3219,
    "ves": 695,
    "Ġsample": 3178,
    "Ġcomplaints": 12268,
    "persons": 24176,
    "Ġstrand": 11832,
    "faced": 8080,
    "poling": 12223,
    "Ġcrocodile": 20741,
    "Ġadvise": 7936,
    "Ġsavory": 23878,
    "wish": 8100,
    "Ġmountains": 4428,
    "Ġeldest": 6573,
    "Ġdisplay": 6428,
    "Ġusing": 710,
    "rat": 8760,
    "undertaking": 23789,
    "Ġdrugg": 17121,
    "stige": 21663,
    "Ġshooting": 11165,
    "Ġfoolishly": 19784,
    "Ġsmooth": 2779,
    "Ġplaint": 10329,
    "Ġhogarth": 25780,
    "desk": 23811,
    "veral": 2351,
    "les": 1017,
    "Ġcontrast": 2119,
    "Ġcannot": 1668,
    "Ġflavor": 16253,
    "Ġunappe": 22021,
    "Ġalmost": 1658,
    "una": 21872,
    "Ġvariation": 22667,
    "Ġgallons": 14819,
    "Ġocean": 3304,
    "pitching": 24076,
    "Ġverdict": 13477,
    "Ġguards": 16269,
    "ology": 1607,
    "Ġdeaden": 23461,
    "kovoko": 20671,
    "conced": 22473,
    "Ġasp": 15784,
    "Ġregions": 10327,
    "lengths": 24846,
    "tles": 10733,
    "Ġviii": 16416,
    "Ġcoins": 11823,
    "Ġshifted": 14109,
    "Ġcontributed": 16012,
    "ades": 5631,
    "uttermost": 24942,
    "hus": 5072,
    "Ġnorth": 4320,
    "Ġverify": 12091,
    "Ġrnns": 2391,
    "Ġplaymate": 23641,
    "Ġanimation": 11155,
    "Ġvanishing": 1344,
    "impossible": 8829,
    "Ġspecies": 5112,
    "Ġroofs": 16986,
    "blows": 17167,
    "Ġwilderness": 14841,
    "Ġcapricious": 20540,
    "Ġpay": 3961,
    "Ġcolour": 4462,
    "Ġlouder": 13470,
    "Ġdumb": 7843,
    "Ġnum": 1346,
    "Ġranged": 10261,
    "Ġbloss": 19257,
    "mangled": 20982,
    "Ġtransitory": 16021,
    "ier": 1131,
    "bastian": 10677,
    "Ġrehearsed": 25971,
    "Ġscrutiny": 26015,
    "upright": 23019,
    "Ġtis": 15467,
    "Ġgradually": 3400,
    "Ġoysters": 20581,
    "Ġporus": 24397,
    "Ġbig": 5806,
    "Ġgarn": 13965,
    "ortations": 22261,
    "Ġpracticable": 19034,
    "ghost": 20888,
    "hour": 7341,
    "whales": 5187,
    "sugg": 11842,
    "Ġuncompromised": 20605,
    "anch": 15563,
    "Ġfruit": 12329,
    "bird": 9589,
    "Ġobvious": 4964,
    "Ġcorrect": 2427,
    "Ġsymph": 22213,
    "Ġbuttoned": 25369,
    "Ġasiatics": 20433,
    "Ġscuff": 15944,
    "Ġlung": 7169,
    "Ġarduous": 26532,
    "Ġjup": 15955,
    "Ġtransports": 24279,
    "**:": 4738,
    "Ġlobster": 11392,
    "Ġkind": 1784,
    "anguish": 15986,
    "Ġrearing": 12681,
    "Ġperilous": 7769,
    "Ġpet": 4588,
    "believing": 19464,
    "Ġroyalty": 19738,
    "ynolds": 10040,
    "ets": 1161,
    "uses": 11765,
    "ropy": 1100,
    "Ġwerter": 15242,
    "Ġten": 2383,
    "Ġcompression": 18147,
    "Ġhonestly": 19974,
    "entials": 22666,
    "burg": 16774,
    "Ġgasp": 7174,
    "Ġfee": 7199,
    "Ġfragments": 19055,
    "Ġshadow": 5596,
    "Ġhis": 380,
    "Ġeasiness": 23538,
    "urring": 21707,
    "thee": 9694,
    "Ġcrashes": 13127,
    "gue": 12471,
    "pendicular": 6499,
    "Ġrepent": 9867,
    "Ġlighting": 13085,
    "Ġheroines": 19753,
    "Ġ&": 6513,
    "fireside": 24692,
    "Ġhooked": 19080,
    "inridge": 11564,
    "asingly": 17962,
    "laug": 10710,
    "continually": 11305,
    "Ġheaved": 9387,
    "bted": 7794,
    "Ġbeating": 8145,
    "pleasanter": 24049,
    "ourably": 14379,
    "ego": 4032,
    "Ġwan": 15530,
    "'m": 9586,
    "autumn": 23344,
    "Ġbruised": 25772,
    "E": 41,
    "Ġdif": 871,
    "neath": 12870,
    "Ġsettle": 6295,
    "Ġcolony": 18766,
    "Ġhull": 5446,
    "Ġwayward": 22874,
    "Ġhoney": 12636,
    "Ġfingers": 5672,
    "Ġtwin": 12931,
    "ob": 1422,
    "Ġwashing": 9709,
    "Ġchewing": 23284,
    "Ġknives": 14838,
    "shazzar": 15292,
    "Ġgolden": 5337,
    "Ġunwell": 22020,
    "oped": 6048,
    "Ġprivate": 5346,
    "Ġapplies": 11962,
    "Ġdrug": 11413,
    "Ġembarked": 17136,
    "Ġwrapt": 24595,
    "asleep": 21546,
    "Ġerad": 25030,
    "Ġlimit": 10446,
    "hardly": 6491,
    "far": 5787,
    "Ġport": 3310,
    "Ġshaster": 22001,
    "ribut": 817,
    "train": 2033,
    "Ġledgers": 23940,
    "Ġreckoning": 14981,
    "Ġmouth": 3180,
    "rederick": 14082,
    "Ġsalad": 19481,
    "Ġquadrille": 13542,
    "Ġquestioning": 10467,
    "cal": 1117,
    "Ġreg": 722,
    "Ġspectre": 16632,
    "howling": 18990,
    "Ġdemean": 12727,
    "Ġnotes": 7190,
    "Ġdexterously": 25296,
    "ud": 915,
    "Ġskill": 6872,
    "unch": 14060,
    "Ġdependencies": 2313,
    "Ġstain": 18069,
    "Ġnovember": 11753,
    "oll": 5456,
    "clothes": 9061,
    "Ġexpectation": 6904,
    "threat": 10903,
    "Ġsticking": 13429,
    "Ġbeheaded": 11659,
    "recursion": 13331,
    "Ġscruple": 25050,
    "Ġelix": 22647,
    "concerning": 9071,
    "Ġmanip": 8876,
    "Ġbeings": 2486,
    "Ġlive": 2735,
    "Ġstepping": 9358,
    "Ġrecklessly": 16984,
    "ĠĠĠĠĠĠĠĠĠĠĠĠĠĠ": 22566,
    "ignity": 4376,
    "aggra": 21909,
    "Ġoriginally": 7305,
    "Ġobeying": 13416,
    "berg": 11867,
    "Ġprosecution": 12385,
    "Ġintrusion": 12769,
    "Ġassert": 7122,
    "iana": 7050,
    "Ġpours": 17913,
    "rushed": 10588,
    "Ġ123": 24467,
    "Ġbefitting": 15729,
    "Ġqu": 604,
    "Ġcircumspect": 15087,
    "Ġhundredth": 16520,
    "Ġreasonable": 7254,
    "Ġwhiskers": 10496,
    "Ġbroods": 23105,
    "Ġpatch": 4179,
    "whiskers": 12314,
    "Ġcommunicative": 24547,
    "cup": 10695,
    "Ġfor": 340,
    "bones": 8372,
    "Ġinfallible": 15073,
    "character": 6333,
    "whew": 22870,
    "Ġcrush": 9426,
    "Ġnerves": 2625,
    "Ġat": 395,
    "Ġbulldog": 23861,
    "Ġmccarthy": 5145,
    "ample": 1362,
    "Ġdidn": 4364,
    "Ġdejected": 20306,
    "aff": 3104,
    "popular": 26140,
    "stop": 11638,
    "Ġalone": 2566,
    "Ġcherish": 10593,
    "Ġcrisis": 13128,
    "Ġvirginia": 13501,
    "john": 11501,
    "orange": 21402,
    "Ġjoosy": 23635,
    "Ġfarther": 5956,
    "Ġinmost": 17932,
    "Ġdependency": 3486,
    "perform": 15902,
    "Ġjoyous": 14664,
    "explained": 23145,
    "ounds": 4155,
    "prit": 19344,
    "rious": 11692,
    "âĢĶ": 518,
    "Ġmonsie": 11450,
    "Ġcomputing": 2218,
    "Ġ25": 13194,
    "oriously": 17875,
    "Ġremote": 8924,
    "Ġknelt": 12162,
    "axed": 8893,
    "contact": 23729,
    "Ġsin": 1512,
    "recklessly": 25270,
    "Ġstraight": 3704,
    "estab": 14172,
    "angels": 22106,
    "Ġshark": 5550,
    "Ġpresenting": 18988,
    "Ġpleasurable": 23342,
    "Ġpalmed": 24091,
    "Ġmalicious": 10561,
    "Ġo": 275,
    "Ġ58": 24321,
    "Ġblotches": 25315,
    "ige": 12684,
    "Ġdisapprobation": 16061,
    "Ġpull": 5152,
    "Ġbeyond": 2454,
    "Ġrefreshing": 20266,
    "rived": 5373,
    "Ġagreement": 18542,
    "Ġsoftmax": 1690,
    "Ġhook": 6453,
    "Ġnails": 12652,
    "pequod": 7054,
    "Ġwindsor": 16888,
    "malicious": 19903,
    "Ġwildly": 9418,
    "pping": 1426,
    "arking": 16128,
    "conveyed": 20523,
    "Ġjagged": 18407,
    "rences": 9276,
    "Ġweaving": 12744,
    "Ġmaterials": 11291,
    "Ġexplore": 15911,
    "iner": 2672,
    "Ġphilipp": 23886,
    "Ġnarrower": 24353,
    "Ġfle": 3094,
    "Ġflitting": 13030,
    "gives": 15360,
    "steelkilt": 10051,
    "Ġfanning": 23392,
    "sand": 21054,
    "itt": 570,
    "Ġowners": 7664,
    "Ġscarlet": 13226,
    "Ġshield": 22002,
    "Ġpikes": 21480,
    "Ġthrough": 602,
    "around": 12612,
    "conc": 3946,
    "Ġstowing": 18076,
    "amiable": 14055,
    "mo": 863,
    "Ġacutely": 14316,
    "Ġenlist": 21939,
    "truth": 9923,
    "Ġindelicacy": 25695,
    "hear": 10150,
    "Ġmour": 6974,
    "Ġbuttoning": 17237,
    "fearfully": 25118,
    "Ġplanned": 14753,
    "Ġleft": 1759,
    "incom": 21183,
    "Ġn": 300,
    "anxious": 15112,
    "tering": 3806,
    "Ġavowed": 16635,
    "rep": 5525,
    "Ġexig": 21829,
    "avor": 14278,
    "Ġsquad": 22843,
    "viii": 12024,
    "destined": 24114,
    "ctors": 21592,
    "Ġcloak": 9538,
    "Ġalliance": 18235,
    "matlock": 23470,
    "Ġexceptionable": 25504,
    "Ġvideo": 25366,
    "se": 358,
    "Ġremonstrate": 22795,
    "Ġfable": 15580,
    "Ġmabel": 17326,
    "Ġprogeny": 17390,
    "arent": 4250,
    "Ġengineering": 3030,
    "Ġdeceitful": 25732,
    "Ġherring": 14128,
    "Ġapproved": 16035,
    "utes": 5915,
    "gate": 12470,
    "``": 15309,
    "Ġassumpt": 5414,
    "Ġdexterous": 15151,
    "Ġclo": 6044,
    "Ġpremeditated": 22237,
    "riages": 10246,
    "Ġscener": 10952,
    "Ġware": 12558,
    "Ġsuggest": 5417,
    "lizzy": 6654,
    "Ġgilt": 21608,
    "Ġdoubtful": 19142,
    "doubtless": 17003,
    "aded": 3547,
    "satisfied": 10582,
    "Ġordered": 5833,
    "elled": 3990,
    "Ġcringing": 25941,
    "ople": 2318,
    "icions": 21565,
    "Ġmat": 1149,
    "Ġdoctor": 5067,
    "alid": 13937,
    "Ġconveying": 19716,
    "ĠâĢľ": 516,
    "smart": 23909,
    "ushes": 22294,
    "equ": 6791,
    "ĳ": 244,
    "nearer": 22453,
    "Ġtranspointed": 22443,
    "acetti": 13398,
    "reduced": 15808,
    "Ġscotch": 12213,
    "rannical": 26402,
    "rimshander": 20658,
    "Ġespecially": 3935,
    "ley": 1815,
    "Ġmatrices": 4969,
    "include": 23590,
    "Ġdum": 10814,
    "Ġhunt": 6185,
    "warmth": 20055,
    "fights": 20866,
    "regret": 16451,
    "Ġforeb": 12007,
    "Ġzigzag": 26273,
    "Ġsphynx": 20713,
    "Ġinc": 702,
    "app": 1041,
    "ease": 12461,
    "doms": 20836,
    "Ġdanced": 7842,
    "Ġadaptive": 1371,
    "Ġtaking": 3248,
    "Ġbeen": 626,
    "kicked": 20944,
    "ga": 17551,
    "Ġrepro": 7276,
    "sudden": 5316,
    "Ġfellows": 8257,
    "Ġfrenzy": 13625,
    "Ġenlar": 15803,
    "Ġbake": 21384,
    "Ġbon": 8791,
    "particip": 23620,
    "Ġlove": 2054,
    "discrimin": 19610,
    "Ġsimil": 2529,
    "Ġshoulder": 5849,
    "elihood": 4624,
    "Ġlif": 10199,
    "vices": 21118,
    "Ġseldom": 4631,
    "attentive": 17191,
    "Ġglut": 18854,
    "Ġfacil": 16963,
    "Ġexpose": 10331,
    "ġ": 226,
    "Ġinstead": 2790,
    "Ġassembl": 20063,
    "refuge": 24732,
    "thro": 12765,
    "Ġroute": 11384,
    "Ġwhoever": 10978,
    "Ġtheoretically": 3564,
    "Ġrescue": 13345,
    "Ġdisposal": 19378,
    "py": 17625,
    "thread": 15829,
    "signed": 21063,
    "Ġconsummate": 25311,
    "Ġundertaking": 8578,
    "ipotent": 10964,
    "Ġconsider": 2569,
    "Ġbriony": 9333,
    "fiery": 13584,
    "Ġmil": 4255,
    "variety": 23187,
    "uniform": 18159,
    "Ġmishap": 20578,
    "Ġfocused": 16343,
    "direct": 12460,
    "inching": 21191,
    "Ġconcept": 664,
    "Ġtubs": 11373,
    "Ġxi": 16431,
    "forty": 9378,
    "asons": 6016,
    "Ġbradstreet": 9580,
    "ternatural": 12719,
    "pronouncing": 25194,
    "Ġ23": 13192,
    "Ġdisdain": 8361,
    "Ġtreatment": 12075,
    "op": 658,
    "ahit": 9386,
    "Ġreferences": 21676,
    "Ġforbidden": 17078,
    "Ġeyel": 17096,
    "Ġgpus": 3733,
    "Ġheedfulness": 24521,
    "Ġadventurous": 16734,
    "enial": 17781,
    "Ġcreature": 2381,
    "Ġunluckily": 20104,
    "Ġaddu": 22108,
    "Ġpettiness": 24231,
    "Ġdecks": 6900,
    "broad": 8647,
    "Ġchick": 22250,
    "icable": 6388,
    "Ġheav": 1852,
    "known": 3566,
    "Ġsummarization": 3646,
    "nursery": 26400,
    "Ġtorment": 8678,
    "anyone": 16594,
    "Ġcreep": 22722,
    "principal": 20661,
    "Ġquiescent": 26243,
    "Ġtopic": 9410,
    "Ġcarpenters": 16753,
    "Ġdiscredit": 22783,
    "Ġcommitting": 22675,
    "Ġreiter": 21668,
    "Ġpassions": 7930,
    "Ġcondu": 18111,
    "Ġtwit": 12932,
    "Ġadvancement": 24474,
    "orting": 9739,
    "Ġscan": 22268,
    "Ġswallow": 8954,
    "Ġnightmare": 18920,
    "Ġknot": 7013,
    "Ġfuller": 11159,
    "conqu": 14246,
    "itig": 1331,
    "Ġuncouth": 14548,
    "Ġproblem": 1270,
    "Ġsurmis": 23464,
    "clo": 5613,
    "ĠĠĠĠĠĠĠĠĠĠĠĠĠĠĠĠĠĠĠĠĠĠĠĠĠĠĠĠĠĠĠĠĠĠĠĠĠĠĠĠĠĠĠĠĠĠĠĠĠĠĠ": 20041,
    "inctions": 17733,
    "Ġblo": 2734,
    "Ġdeparted": 5564,
    "Ġbreezes": 14870,
    "Ġpenal": 1771,
    "Ġpeddler": 26180,
    "threadbare": 25989,
    "concluded": 11246,
    "Ġapple": 14170,
    "abated": 14022,
    "Ġovercome": 6045,
    "Ġgloves": 8579,
    "travellers": 24338,
    "Ġwid": 4634,
    "yn": 7819,
    "Ġvoids": 25807,
    "Ġbec": 1347,
    "Ġoutsk": 15959,
    "Ġuncl": 22019,
    "def": 1451,
    "Ġai": 3129,
    "Ġadversarial": 5607,
    "ws": 7356,
    "Ġpulled": 5660,
    "Ġacquiesced": 25494,
    "Ġunwe": 15841,
    "Ġhatred": 8613,
    "irious": 15789,
    "union": 15773,
    "ivia": 22079,
    "Ġviciously": 24403,
    "Ġpaid": 5015,
    "Ġresembling": 4094,
    "cable": 20798,
    "Ġ70": 11279,
    "ordinary": 4409,
    "immediate": 20096,
    "called": 6294,
    "nantucket": 7804,
    "Ġmarvellous": 7539,
    "Ġvolumes": 14801,
    "Ġkentuckian": 26343,
    "antarctic": 22102,
    "Ġprev": 6266,
    "Ġsee": 803,
    "Ġnecks": 18181,
    "ethe": 9680,
    "Ġestimable": 23874,
    "Ġdifferences": 18714,
    "Ġepid": 18006,
    "Ġmild": 4145,
    "Ġestablishment": 13582,
    "recl": 15512,
    "Ġgoodly": 22825,
    "Ġdashed": 6011,
    "Ġstacks": 18079,
    "Ġdepicted": 14286,
    "Ġj": 533,
    "Ġwretched": 4077,
    "wart": 17706,
    "unhesitatingly": 26497,
    "supp": 4160,
    "Ġprey": 6415,
    "Ġdistinguish": 2727,
    "Ġcoroner": 7511,
    "Ġstripping": 23697,
    "Ġtemperature": 1002,
    "Ġindispens": 22956,
    "thou": 4710,
    "Ġbased": 3340,
    "cherish": 24551,
    "Ġreturning": 5326,
    "Ġtom": 15636,
    "Ġdome": 15592,
    "Ġpreternatural": 12827,
    "minutely": 19595,
    "Ġwantest": 18789,
    "Ġconverted": 16116,
    "Ġwhal": 5454,
    "Ġadvert": 10575,
    "Ġinclination": 6626,
    "sof": 17658,
    "Ġsketch": 16168,
    "inhabited": 13623,
    "cracy": 24690,
    "Ġhard": 1442,
    "Ġaccomplished": 7106,
    "Ġserving": 14487,
    "Ġbern": 17859,
    "Ġresting": 7961,
    "Ġledger": 19404,
    "Ġquaint": 18465,
    "Ġsupplies": 20328,
    "Ġrear": 6537,
    "Ġstrateg": 1322,
    "Ġed": 2241,
    "Ġ>": 21153,
    "Ġliveliness": 13646,
    "iz": 364,
    "Ġor": 437,
    "Ġemerg": 13426,
    "ved": 869,
    "Ġvomit": 21951,
    "iature": 8746,
    "Ġblanched": 26283,
    "Ġwasted": 9708,
    "Ġgripping": 26187,
    "aze": 10079,
    "vent": 683,
    "Ġdrab": 13073,
    "Ġaccumul": 1414,
    "Ġholiday": 13001,
    "opened": 7913,
    "formity": 10282,
    "pinn": 21027,
    "Ġtortured": 14925,
    "Ġsummoning": 23876,
    "Ġdav": 15593,
    "Ġcrust": 21353,
    "acqu": 4844,
    "Ġessex": 20129,
    "bering": 18694,
    "Ġravines": 25832,
    "Ġquery": 2476,
    "Ġda": 5150,
    "Ġcompanion": 3643,
    "Ġconsequences": 11338,
    "Ġcuvier": 9169,
    "endering": 21286,
    "fight": 17539,
    "Ġparade": 18301,
    "Ġsenses": 8252,
    "Ġparsonage": 7125,
    "Ġimperilled": 19580,
    "title": 17289,
    "drovand": 24758,
    "Ġdiction": 8800,
    "50": 6785,
    "ez": 5683,
    "Ġundivided": 24120,
    "phur": 16154,
    "antingly": 22101,
    "Ġso": 433,
    "Ġdisgusted": 14992,
    "destroy": 19512,
    "oology": 21007,
    "Ġsociable": 19406,
    "Ġdir": 21423,
    "ickering": 22672,
    "Ġconsequently": 8060,
    "determ": 7107,
    "innacle": 7520,
    "supernatural": 19781,
    "ĠĠĠĠĠĠ": 6414,
    "Ġbloodthirst": 23803,
    "Ġtracing": 18888,
    "Ġbackbone": 22650,
    "Ġsling": 21222,
    "Ġminimizing": 3463,
    "bet": 6111,
    "Ġmechanis": 1249,
    "Ġeff": 682,
    "pounds": 21026,
    "Ġobsequious": 17406,
    "Ġspaces": 3113,
    "Ġrevealed": 6753,
    "Ġext": 883,
    "opius": 18509,
    "Ġrules": 1918,
    "professional": 20277,
    "food": 12467,
    "Ġsmart": 11819,
    "Ġclerval": 4655,
    "stript": 21659,
    "Ġfleet": 9436,
    "Ġstrangest": 14797,
    "Ġcruisers": 25863,
    "Ġsurmises": 17055,
    "Ġplainly": 4383,
    "Ġwindlass": 7257,
    "Ġgaieties": 24197,
    "Ġdug": 21432,
    "Ġflip": 11916,
    "ĠĠĠĠĠĠĠĠĠĠĠĠĠĠĠĠĠĠĠĠĠĠĠĠĠĠĠĠĠĠĠĠĠĠĠĠĠĠĠ": 19260,
    "Ġlatest": 16823,
    "Ġwreath": 25936,
    "puzzling": 26143,
    "Ġyork": 11668,
    "hammer": 14490,
    "Ġlowered": 6737,
    "Ġrounding": 16276,
    "Ġpartially": 13125,
    "itaries": 21338,
    "Ġavoid": 5199,
    "Ġpawnbroker": 13661,
    "indifference": 15985,
    "Ġchina": 8040,
    "Ġdolph": 12383,
    "centred": 25019,
    "times": 8099,
    "Ġwhimsical": 20430,
    "treas": 17680,
    "Ġblood": 3168,
    "nns": 1892,
    "Ġparted": 5930,
    "Ġimprovement": 7966,
    "several": 5544,
    "dam": 7798,
    "Ġpathetic": 19026,
    "Ġnames": 4535,
    "Ġtex": 15474,
    "entitled": 21570,
    "Ġstating": 15728,
    "Ġdesert": 6729,
    "ul": 371,
    "$": 8,
    "Ġgovernment": 15179,
    "skeleton": 17378,
    "20": 20754,
    "Ġintrusted": 21995,
    "Ġgentle": 1890,
    "Ġhorizontal": 7783,
    "Ġhat": 2772,
    "Ġmanipulated": 25179,
    "Ġdress": 4018,
    "educated": 17261,
    "ripp": 6405,
    "Ġpitches": 23904,
    "wal": 10137,
    "Ġterra": 13119,
    "desolation": 20461,
    "retrospect": 23141,
    "turner": 19543,
    "Ġwilliam": 3481,
    "Ġwaved": 9648,
    "fashion": 8081,
    "enthusiastic": 20694,
    "desirable": 23812,
    "Ġswims": 12123,
    "Ġexponential": 1058,
    "Ġcomfortable": 6096,
    "uvian": 12246,
    "opp": 6963,
    "Ġtuples": 13479,
    "darkness": 9516,
    "Ġpardon": 5727,
    "Ġindifferent": 6176,
    "Ġcholera": 22256,
    "Ġhereby": 10362,
    "Ġplague": 11828,
    "cruise": 24841,
    "Ġfrayed": 23327,
    "getic": 12969,
    "Ġjovial": 19235,
    "Ġhedge": 8365,
    "Ġincalcul": 16066,
    "probability": 17023,
    "Ġpowder": 11278,
    "Ġwoody": 23521,
    "Ġrate": 1063,
    "Ġhandspikes": 12941,
    "Ġundeserving": 18268,
    "Ġlast": 1119,
    "unwillingness": 25802,
    "cnns": 3620,
    "Ġarguments": 8037,
    "intelligence": 5884,
    "Ġtrout": 22342,
    "Ġquestioned": 14619,
    "Ġread": 1447,
    "Ġdiana": 21438,
    "Ġhere": 1088,
    "Ġbeck": 14011,
    "Ġpaused": 5416,
    "Ġisolation": 17152,
    "Ġ199": 3013,
    "supplied": 10523,
    "Ġreceptive": 1566,
    "Ġdexter": 9705,
    "congenial": 25400,
    "Ġunexpected": 6841,
    "pressing": 19013,
    "ctic": 8443,
    "Ġcalmly": 7734,
    "Ġsequel": 14363,
    "soft": 12513,
    "Ġinexhaustible": 16982,
    "absolutely": 10649,
    "Ġsire": 15503,
    "Ġhappening": 14385,
    "iverer": 11720,
    "Ġcoarsely": 25829,
    "Ġluxurious": 17313,
    "Ġfailed": 6674,
    "eded": 9677,
    "Ġeighteenth": 14755,
    "Ġwig": 9165,
    "Ġwhose": 2008,
    "Ġeagerness": 6610,
    "Ġextend": 18681,
    "Ġfrigate": 13084,
    "Ġsocks": 14135,
    "ters": 1575,
    "Ġmoved": 4841,
    "Ġspices": 22134,
    ",âĢĻ": 2326,
    "Ġwrong": 4725,
    "Ġeyed": 12671,
    "Ġsuperstition": 15056,
    "eag": 20843,
    "rinted": 21045,
    "Ġverily": 16604,
    "Ġdaresay": 14705,
    "infliction": 25924,
    "Ġcandidates": 4335,
    "Ġafterwards": 3529,
    "Ġbakers": 17867,
    "Ġsounds": 5190,
    "altering": 12644,
    "reated": 10306,
    "probable": 17022,
    "owards": 4596,
    "dogs": 25403,
    "Ġidleness": 11146,
    "Ġseeking": 7037,
    "Ġbene": 2031,
    "Ġunravel": 26215,
    "higher": 20409,
    "Ġdraws": 19438,
    "Ġdetached": 10283,
    "Ġhath": 12632,
    "Ġpassion": 4559,
    "Ġtablet": 19207,
    "tied": 21072,
    "Ġcrib": 21350,
    "Ġresults": 7309,
    "Ġpartly": 6715,
    "Ġnowhere": 12890,
    "Ġcanaller": 25468,
    "catherine": 7129,
    "adem": 21760,
    "enterprise": 24994,
    "desire": 14662,
    "oarsman": 25262,
    "Ġstur": 15723,
    "Ġjeroboam": 10604,
    "Ġnois": 4268,
    "Ġtusk": 25426,
    "Ġperusal": 14225,
    "Ġshuddering": 9055,
    "ancholy": 5070,
    "Ġfaculties": 14959,
    "Ġintricate": 15140,
    "Ġbaltic": 18793,
    "bru": 12442,
    "Ġpersecutor": 26096,
    "Ġprec": 2923,
    "Ġplaything": 19239,
    "antled": 18286,
    "oregressive": 3424,
    "Ġfaith": 5351,
    "Ġpol": 2577,
    "gossip": 23406,
    "Ġstiff": 6993,
    "alions": 21503,
    "Ġlucerne": 23866,
    "Ġpew": 9319,
    "bask": 20777,
    "ptic": 21921,
    "Ġclams": 19991,
    "Ġtilted": 20415,
    "Ġhilarity": 20299,
    "date": 17518,
    "Ġconfronted": 23309,
    "Ġinhabit": 5782,
    "Ġproced": 2580,
    "Ġstart": 3257,
    "Ġtool": 21513,
    "flames": 14713,
    "Ġunsuccessful": 18257,
    "planted": 11700,
    "uncommonly": 25550,
    "Ġmuskets": 17056,
    "Ġnotion": 7882,
    "Ġpromontory": 11944,
    "sixty": 24852,
    "Ġperches": 18448,
    "Ġmonument": 16242,
    "philips": 20037,
    "Ġexplained": 5937,
    "Ġdeceiving": 21841,
    "Ġtranquil": 7311,
    "Ġpaintings": 15057,
    "andromeda": 21871,
    "immortal": 21712,
    "oir": 21003,
    "Ġbeat": 4493,
    "Ġintersect": 22580,
    "Ġriotous": 20546,
    "gest": 5426,
    "syntax": 5868,
    "extra": 8219,
    "Ġhummed": 18777,
    "Ġtrustworthy": 24106,
    "Ġbowed": 6244,
    "Ġelimin": 16111,
    "ises": 3653,
    "Ġconceited": 12095,
    "evening": 7091,
    "enched": 10158,
    "finger": 10097,
    "Ġhandwriting": 14321,
    "Ġseventy": 7880,
    "azed": 9403,
    "ar": 285,
    "Ġstrike": 4857,
    "reserved": 13845,
    "haw": 6363,
    "Ġfleece": 10618,
    "page": 13773,
    "mm": 674,
    "Ġungod": 22027,
    "ortion": 11761,
    "Ġembra": 6580,
    "Ġentering": 6287,
    "lesome": 12968,
    "Ġtass": 15472,
    "Ġaffirm": 11890,
    "nearly": 8685,
    "Ġhang": 9191,
    "Ġenergies": 25460,
    "Ġinquest": 16549,
    "Ġflushed": 13031,
    "mile": 17598,
    "Ġsufficiently": 8977,
    "rever": 21237,
    "Ġhanging": 5447,
    "rospect": 11616,
    "source": 11529,
    "Ġintu": 12767,
    "Ġbegat": 18864,
    "_âĢĶâĢĻ": 13685,
    "Ġintentionally": 24522,
    "reception": 15516,
    "Ġcalmer": 23044,
    "Ġconsent": 5372,
    "Ġalert": 18103,
    "Ġfrogs": 23926,
    "Ġbabes": 24424,
    "Ġhorrify": 23821,
    "Ġselfish": 7273,
    "urch": 3991,
    "Ġhemisphere": 26479,
    "Ġfancied": 7327,
    "Ġ[\"": 19932,
    "Ġhurried": 4029,
    "doom": 23379,
    "sheet": 16287,
    "Ġabaft": 22287,
    "Ġpond": 13918,
    "Ġadaptively": 4194,
    "keeping": 8639,
    "contriv": 19293,
    "relu": 17760,
    "ina": 21181,
    "igh": 2028,
    "Ġlandlessness": 23382,
    "abetical": 15746,
    "younger": 11315,
    "Ġgravel": 14104,
    "Ġrugged": 18720,
    "Ġgrated": 22808,
    "stumps": 21661,
    "Ġmerged": 19297,
    "Ġembarr": 7447,
    "Ġcass": 13881,
    "Ġwrites": 23200,
    "Ġamber": 7028,
    "Ġfundamental": 3018,
    "tawny": 26405,
    "Ġscrape": 14919,
    "Ġpriest": 7527,
    "lim": 9610,
    "Ġsign": 2491,
    "musical": 25341,
    "relieved": 13279,
    "Ġunflinching": 26513,
    "aulding": 11342,
    "antucket": 2643,
    "Ġrenewing": 19812,
    "Ġexpression": 4517,
    "Ġgrief": 4622,
    "quadrille": 20597,
    "Ġworn": 6445,
    "Ġwaiter": 16363,
    "Ġfired": 16157,
    "Ġportents": 14679,
    "Ġpers": 1408,
    "Ġroutine": 13509,
    "caterpillar": 26384,
    "Ġwitt": 17784,
    "built": 16826,
    "cannibals": 25584,
    "at": 268,
    "Ġblankness": 24610,
    "Ġharpooned": 13263,
    "Ġcet": 6672,
    "Ġcrash": 12005,
    "fright": 9599,
    "04": 10683,
    "Ġsaucer": 20607,
    "Ġcakes": 13886,
    "71": 20757,
    "Ġillust": 8263,
    "Ġasserted": 16950,
    "Ġmultitudinous": 26274,
    "Ġassid": 18946,
    "Ġtrunk": 7206,
    "Ġbiscuit": 12593,
    "Ġscheduling": 2347,
    "Ġfountain": 7366,
    "Ġwronged": 24249,
    "ail": 564,
    "ouch": 2780,
    "table": 5795,
    "collecting": 26081,
    "tiger": 13799,
    "mes": 1195,
    "Ġcomprising": 16073,
    "marry": 13326,
    "itect": 1001,
    "Ġdodo": 9076,
    "Ġferguson": 17471,
    "Ġincrease": 9374,
    "triumph": 15442,
    "zek": 16274,
    "cst": 10088,
    "Ġoverwhelming": 17102,
    "Ġsublim": 19969,
    "Ġfavours": 23282,
    "Ġweighted": 2091,
    "Ġextent": 7657,
    "Ġscarcely": 4006,
    "Ġrid": 4356,
    "Ġsakes": 18326,
    "ather": 740,
    "Ġfret": 10809,
    "ings": 632,
    "instruct": 19544,
    "Ġstrain": 6025,
    "amplified": 26495,
    "Ġsod": 11565,
    "abounding": 25979,
    "Ġconsist": 1936,
    "Ġgangway": 20160,
    "Ġwriter": 11948,
    "Ġsoon": 1230,
    "condescended": 26249,
    "iers": 5992,
    "Ġhappy": 2461,
    "Ġlionel": 25287,
    "Ġthrows": 14738,
    "Ġspermacetti": 19048,
    "Ġquickly": 4241,
    "welt": 12524,
    "Ġate": 8845,
    "Ġrunning": 3950,
    "Ġinsolence": 20255,
    "Ġmachinations": 25767,
    "Ġmodels": 759,
    "Ġinterruptions": 24188,
    "grand": 7970,
    "inburgh": 15492,
    "Ġwont": 9856,
    "Ġpartaking": 22699,
    "iline": 21723,
    "thanked": 24326,
    "Ġcolouring": 16752,
    "estim": 14171,
    "Ġbedside": 19124,
    "Ġtheir": 643,
    "Ġfluctuating": 24416,
    "Ġdoc": 7201,
    "is": 280,
    "Ġfrock": 10493,
    "Ġclearing": 8240,
    "unk": 4541,
    "rents": 5310,
    "throwing": 11707,
    "Ġmanual": 14199,
    "Ġshould": 864,
    "bu": 5132,
    "Ġroad": 3878,
    "Ġmoderately": 22217,
    "countenance": 6925,
    "Ġaccidental": 16849,
    "Ġflames": 7940,
    "Ġvalu": 5039,
    "scand": 18856,
    "Ġintru": 15830,
    "Ġfam": 1586,
    "Ġsubsisted": 19118,
    "Ġmeridians": 17357,
    "Ġbut": 424,
    "Ġembell": 14414,
    "Ġushered": 18356,
    "Ġstones": 9227,
    "sphere": 22733,
    "Ġboy": 3027,
    "Ġmiracle": 15096,
    "):": 11464,
    "rive": 9711,
    "Ġbrow": 3986,
    "likelihood": 4992,
    "Ġinev": 10185,
    "tiest": 21083,
    "nor": 2741,
    "Ġcounsell": 25385,
    "Ġdat": 497,
    "idays": 21773,
    "Ġrecess": 10850,
    "instantly": 7507,
    "nonsense": 17616,
    "Ġdragg": 23215,
    "Ġparl": 8178,
    "Ġfearlessness": 19162,
    "Ġlid": 6984,
    "Ġii": 7386,
    "Ġhovel": 8254,
    "lynes": 15707,
    "oul": 4700,
    "unken": 10240,
    "Ġlatterly": 24083,
    "anations": 12580,
    "Ġletting": 10365,
    "othed": 16513,
    "Ġmonica": 22987,
    "(": 12,
    "broker": 13307,
    "Ġsuspect": 5758,
    "sorrows": 17322,
    "Ġwash": 9707,
    "Ġconfessor": 24021,
    "tland": 21075,
    "Ġantiquities": 25598,
    "Ġbordeaux": 24564,
    "Ġpike": 12627,
    "Ġlouisa": 13547,
    "Ġfig": 3623,
    "Ġhopelessly": 16379,
    "Ġfrosted": 19805,
    "Ġinconstant": 21498,
    "Ġperf": 12853,
    "Ġrifled": 21979,
    "Ġwanted": 4968,
    "removing": 17765,
    "Ġrevelation": 25223,
    "Ġfiltering": 23929,
    "olic": 14044,
    "largely": 19576,
    "Ġstagger": 10595,
    "Ġmap": 2388,
    "Ġsickbed": 24248,
    "Ġdespond": 14668,
    "Ġwithal": 18115,
    "admitted": 18093,
    "star": 12676,
    "owl": 12688,
    "Ġsporting": 17000,
    "Ġ1825": 25718,
    "electricity": 26386,
    "occasionally": 13522,
    "mastod": 23976,
    "Ġupbraiding": 26227,
    "anation": 5804,
    "Ġethere": 23953,
    "actor": 11840,
    "Ġinstantly": 3591,
    "Ġprofundity": 20454,
    "uss": 8768,
    "Ġdur": 11596,
    "telling": 14441,
    "Ġdissimilar": 22534,
    "rabb": 15683,
    "Ġbully": 23858,
    "cries": 17512,
    "Ġthreads": 13120,
    "Ġhorner": 8962,
    "moving": 11019,
    "Ġfurnish": 9023,
    "pronounced": 12349,
    "Ġallows": 3232,
    "objections": 19917,
    "Ġlisten": 4675,
    "attered": 4016,
    "Ġgunwales": 12244,
    "Ġinscrutable": 10676,
    "active": 16106,
    "Ġfanned": 19100,
    "Ġungracious": 18258,
    "elaborate": 21578,
    "inkled": 5477,
    "ø": 185,
    "Ġpunct": 8665,
    "Ġswiftness": 9931,
    "journey": 8749,
    "Ġextremest": 19197,
    "travel": 24336,
    "Ġqueen": 3212,
    "attoo": 6808,
    "Ġconcern": 2655,
    "lightened": 12068,
    "Ġperverseness": 13657,
    "Ġintellect": 8170,
    "Ġstandard": 14497,
    "Ġhelps": 9371,
    "Ġbilliard": 16689,
    "Ġwrench": 12561,
    "oder": 2455,
    "26": 10077,
    "Ġinexorable": 12259,
    "Ġparticip": 16134,
    "lock": 1470,
    "andish": 18155,
    "Ġhast": 3151,
    "whisper": 17083,
    "Ġnapoleons": 25885,
    "Ġunthink": 18247,
    "Ġreasons": 6021,
    "headers": 23111,
    "Ġchapters": 10476,
    "sip": 10728,
    "tout": 21067,
    "Ġdivers": 9669,
    "Ġoccasioned": 13230,
    "Ġoff": 903,
    "Ġassuming": 16693,
    "bout": 20774,
    "Ġwarrant": 17795,
    "Ġnarrowly": 16821,
    "ctu": 5088,
    "Ġcheery": 16368,
    "gardiner": 12294,
    "Ġrelentless": 26278,
    "Ġblasphe": 17409,
    "Ġcommunicate": 10581,
    "Ġlurks": 11293,
    "Ġjove": 9272,
    "icking": 8915,
    "re": 266,
    "Ġbitterly": 8315,
    "secure": 12239,
    "Ġpuffing": 12258,
    "Ġpictures": 5503,
    "Ġservice": 6471,
    "Ġmyself": 1453,
    "Ġfrosts": 19804,
    "imely": 14000,
    "heart": 4528,
    "inition": 11560,
    "Ġprejudice": 9079,
    "then": 2053,
    "Ġpersuading": 19412,
    "Ġemaciated": 20640,
    "Ġlizzie": 26463,
    "Ġansw": 2204,
    "elt": 4111,
    "begins": 18522,
    "Ġpott": 21470,
    "within": 6732,
    "Ġmann": 18416,
    "inative": 15485,
    "Ġpenetrating": 17012,
    "thrown": 8483,
    "Ġrash": 10901,
    "Ġgroping": 13668,
    "Ġagain": 814,
    "Ġintegrity": 12316,
    "Ġcanst": 8862,
    "Ġrevisit": 21672,
    "Ġcanallers": 13630,
    "Ġ(âĢľ": 15998,
    "icil": 17973,
    "Ġsentences": 2683,
    "Ġtowns": 11176,
    "ostentatious": 20653,
    "akers": 9743,
    "Ġban": 7158,
    "preading": 18497,
    "Ġacknowled": 6352,
    "spirit": 11316,
    "Ġgenerously": 22402,
    "alloyed": 22204,
    "Ġhosts": 19941,
    "ath": 862,
    "Ġoccurred": 4464,
    "sadly": 25527,
    "Ġrepeat": 8000,
    "Ġalabama": 14021,
    "Ł": 258,
    "Ġpoltro": 23623,
    "Ġafraid": 3528,
    "Ġlining": 13953,
    "Ġjustification": 22975,
    "Ġacquiesce": 20331,
    "Ġdominant": 12399,
    "exped": 16526,
    "aurus": 20562,
    "address": 14882,
    "Ġshad": 3848,
    "Ġobscure": 9558,
    "Ġrelationships": 2929,
    "Ġpotency": 14646,
    "Ġdew": 14047,
    "hears": 12537,
    "Ġwheeling": 18288,
    "axing": 18547,
    "cating": 20803,
    "Ġleather": 7605,
    "Ġbor": 5805,
    "am": 367,
    "nial": 20985,
    "Ġheat": 5453,
    "Ġtackles": 8051,
    "ivorous": 22082,
    "Ġwhenever": 5166,
    "importance": 9993,
    "diversity": 25897,
    "Ġpicture": 4858,
    "Ġenjoying": 11237,
    "Ġflirt": 14425,
    "Ġdistended": 16047,
    "Ġexposing": 11837,
    "Ġconvention": 25547,
    "Ġobliter": 14324,
    "ability": 717,
    "Ġmillion": 14989,
    "pect": 1255,
    "treacle": 25151,
    "Ġcoop": 14272,
    "Ġsuch": 793,
    "rod": 10834,
    "Ġunpleasing": 22058,
    "Ġmariners": 6069,
    "Ġwholesome": 16008,
    "Ġresponses": 23652,
    "watson": 12247,
    "Ġterrific": 6756,
    "rocious": 21541,
    "reflect": 19866,
    "protest": 24811,
    "s": 87,
    "Ġmechanical": 7938,
    "Ġreads": 23115,
    "Ġcitadel": 25439,
    "sooner": 14778,
    "Ġmr": 660,
    "Ġlingered": 13506,
    "Ġsequ": 982,
    "Ġmasks": 23330,
    "Ġsigh": 10340,
    "Ġtamer": 24978,
    "erated": 21272,
    "Ġordinary": 6098,
    "Ġcolumbus": 26565,
    "Ġclumsy": 9583,
    "Ġperry": 22398,
    "Ġsomnambul": 26577,
    "lose": 12886,
    "Ġdependence": 18637,
    "Ġcod": 8413,
    "Ġloop": 14148,
    "sprang": 19993,
    "Ġwhisky": 23936,
    "ogr": 18674,
    "Ġhimmalehs": 26231,
    "Ġdeferred": 18826,
    "Ġovertake": 15976,
    "arer": 3966,
    "Ġans": 1647,
    "tastes": 21098,
    "Ġstranger": 3484,
    "bec": 4049,
    "retreat": 23139,
    "pots": 11517,
    "rics": 13040,
    "Ġfet": 5808,
    "Ġpenetrate": 12273,
    "Ġunmolested": 15248,
    "Ġtimidly": 11341,
    "Ġastern": 6091,
    "Ġit": 339,
    "Ġunusually": 15849,
    "Ġstriding": 16092,
    "Ġvir": 7002,
    "Ġstand": 1736,
    "propagation": 1222,
    "Ġunwonted": 15009,
    "Ġshine": 12770,
    "Ġdairy": 20688,
    "Ġunctuous": 10270,
    "lilies": 20962,
    "ament": 2435,
    "Ġsufferer": 16259,
    "Ġmary": 3842,
    "Ġcocked": 12908,
    "Ġsixteen": 8283,
    "Ġsty": 6253,
    "Ġstature": 10866,
    "feed": 9297,
    "Ġcomplete": 4384,
    "Ġach": 2619,
    "Ġdisgusting": 19895,
    "dling": 15342,
    "ps": 4576,
    "Ġsund": 8249,
    "perhaps": 4118,
    "achines": 1724,
    "screaming": 20327,
    "Ġcrabs": 19175,
    "Ġalt": 18100,
    "Ġcourage": 4635,
    "exerc": 16018,
    "mured": 6960,
    "wheeling": 22872,
    "Ġlot": 6680,
    "Ġactivations": 2721,
    "rugg": 15899,
    "Ġuntutored": 19167,
    "Ġlifts": 25359,
    "fil": 12466,
    "Ġmott": 17804,
    "Ġmaintainable": 12938,
    "Ġheadlong": 11891,
    "Ġconsists": 11981,
    "prosperity": 20736,
    "etymology": 14702,
    "Ġfragmentary": 25858,
    "Ġadversity": 24304,
    "Ġmur": 2485,
    "Ġsleepy": 8268,
    "atigable": 15273,
    "Ġdecaying": 2248,
    "Ġarist": 14163,
    "Ġdelivered": 11119,
    "Ġlower": 2661,
    "chooses": 23675,
    "pents": 11516,
    "Ġunfl": 22023,
    "dham": 20831,
    "eastward": 15132,
    "Ġuttermost": 19490,
    "plain": 1357,
    "Ġmacy": 19357,
    "wh": 509,
    "iforn": 14066,
    "bowl": 14892,
    "hideous": 25408,
    "Ġgaiters": 20463,
    "Ġapparently": 6779,
    "Ġmast": 2905,
    "Ġlithe": 24668,
    "?âĢĿâĢĶ": 12899,
    "Ġchag": 15934,
    "bearings": 25372,
    "Ġmetrics": 19076,
    "their": 2538,
    "pour": 17631,
    "etting": 21582,
    "calm": 8938,
    "alice": 3208,
    "mal": 6795,
    "Ġdressing": 7092,
    "Ġanalyze": 1676,
    "ceiling": 21629,
    "Ġcontemptuous": 24676,
    "Ġinstructive": 19286,
    "Ġtarget": 2823,
    "rer": 3621,
    "Ġrecompense": 14839,
    "Ġsickly": 16775,
    "etuous": 21585,
    "Ġarranging": 11177,
    "formation": 22219,
    "gard": 7340,
    "Ġdoubt": 2221,
    "Ġanyways": 22523,
    "blooded": 20025,
    "osures": 22263,
    "wid": 10138,
    "Ġtender": 5753,
    "Ġpal": 4038,
    "convolutional": 4958,
    "Ġleaping": 8341,
    "eds": 6531,
    "Ġunb": 10910,
    "ature": 521,
    "Ġdisdained": 15011,
    "Ġroyal": 5602,
    "Ġgenerator": 3382,
    "Ġpow": 4639,
    "standing": 5558,
    "Ġparagra": 15882,
    "Ġlucifers": 16589,
    "Ġflint": 23012,
    "idirection": 2408,
    "Ġclosest": 16764,
    "Ġprofanely": 23571,
    "Ġspouting": 9443,
    "ornamented": 26596,
    "Ġcaw": 13885,
    "Ġstupendous": 20503,
    "Ġezek": 18011,
    "Ġ": 225,
    "Ġgenus": 24428,
    "Ġwonder": 2118,
    "Ġhish": 21916,
    "stretching": 20501,
    "designated": 26319,
    "Ġloitering": 22119,
    "Ġspacious": 18312,
    "fanning": 20867,
    "Ġhistorical": 3645,
    "enorm": 17782,
    "Ġobserver": 11992,
    "Ġcraggy": 23531,
    "Ġhosmer": 6775,
    "Ġtalents": 15046,
    "Ġtart": 12532,
    "honorable": 19902,
    "Ġsymb": 2591,
    "Ġextremely": 2670,
    "Ġcheck": 7272,
    "fishermen": 17061,
    "abulary": 4801,
    "Ġfrolic": 23927,
    "Ġfear": 2277,
    "figures": 20124,
    "Ġfinished": 5044,
    "Ġbusier": 23340,
    "Ġopenness": 18958,
    "pute": 8850,
    "ĠĠĠĠĠĠĠĠĠĠĠĠĠĠĠĠĠĠĠĠĠĠĠĠĠĠĠĠĠĠĠĠĠĠĠĠ": 23667,
    "Ġswap": 23052,
    "disappo": 8988,
    "Ġphenomena": 21486,
    "Ġcolonel": 3408,
    "Ġjets": 10291,
    "ess": 412,
    "Ġprelimin": 8865,
    "Ġrepute": 18036,
    "Ġoarsmen": 7738,
    "Ġindignity": 18834,
    "Ġprocedures": 9416,
    "Ġber": 5698,
    "acrity": 14281,
    "Ġbewil": 11660,
    "Ġmutual": 8296,
    "cused": 15334,
    "Ġadvoc": 12997,
    "Ġdank": 21430,
    "Ġidiotic": 25588,
    "bed": 3489,
    "ropri": 2180,
    "clopÃ¦dia": 15259,
    "Ġblasphemer": 26116,
    "Ġslaughter": 20731,
    "ouching": 13179,
    "inders": 15983,
    "hun": 5210,
    "Ġang": 2507,
    "Ġincalculable": 17462,
    "Ġquantization": 19855,
    "Ġsyllable": 9732,
    "Ġproxim": 3199,
    "Ġowing": 6006,
    "Ġliveliest": 24773,
    "_": 67,
    "estation": 15923,
    "Ġanticipatingly": 26102,
    "Ġunexpectedly": 19910,
    "¶": 119,
    "Ġhatch": 7848,
    "Ġcourtiers": 24138,
    "Ġinterval": 4050,
    "Ġweakness": 9971,
    "heartedness": 24824,
    "Ġaffect": 1385,
    "appre": 14373,
    "Ġpestilent": 25777,
    "Ġdenote": 19334,
    "Ġthousands": 6750,
    "aker": 3662,
    "harbors": 20150,
    "Ġbill": 4037,
    "Ġcalf": 16267,
    "ordered": 8795,
    "Ġoil": 3373,
    "Č": 205,
    "dimensional": 2346,
    "Ġterminated": 23510,
    "Ġpacific": 5153,
    "Ġterr": 3274,
    "Ġquench": 22422,
    "Ġyes": 2689,
    "Ġjoy": 3184,
    "dreadful": 11424,
    "aiian": 23593,
    "Ġequinox": 25855,
    "remains": 10402,
    "Ġdarker": 13122,
    "mast": 3601,
    "Ġunlocked": 14122,
    "Ġmeditation": 16706,
    "Ġstaggers": 24653,
    "Ġacquaintance": 4130,
    "Ġfergus": 16868,
    "iter": 4393,
    "Ġrosy": 18459,
    "Ġexcavating": 23315,
    "Ġinscriptions": 20011,
    "barn": 17484,
    "Ġcalhoun": 23045,
    "summoned": 26592,
    "mountains": 15183,
    "Ġspy": 22127,
    "Ġexertion": 8054,
    "osoever": 17345,
    ",--": 2473,
    "hval": 20899,
    "Ġfeat": 10940,
    "Ġscream": 5936,
    "affording": 23779,
    "Ġmurdered": 6464,
    "Ġspokes": 18313,
    "Ġtune": 17726,
    "Ġimply": 18443,
    "afraid": 10444,
    "spade": 10344,
    "Ġwreaths": 25937,
    "Ġfairness": 9898,
    "whose": 6852,
    "Ġim": 475,
    "Ġstilly": 25974,
    "Ġlawy": 9459,
    "Ġpry": 11604,
    "}": 97,
    "Ġbre": 1915,
    "Ġpark": 5465,
    "Ġcontribut": 12863,
    "Ġleghorn": 13147,
    "Ġunprecedented": 15857,
    "Ġvicissitudes": 12422,
    "Ġrecalled": 8541,
    "Ġpeople": 2541,
    "Ġsociety": 3975,
    "Ġembodied": 25847,
    "excited": 13382,
    "wer": 8396,
    "Ġintelligible": 15949,
    "Ġretrogression": 26582,
    "Ġthirdly": 24145,
    "Ġmichigan": 26427,
    "Ġponies": 21478,
    "Ġpatterns": 1212,
    "boom": 18998,
    "Ġmoney": 3418,
    "Ġsupreme": 13610,
    "taining": 7207,
    "laden": 14930,
    "Ġjobs": 24832,
    "Ġhelplessly": 20080,
    "Ġanybody": 5314,
    "Ġtho": 21516,
    "Ġtwopence": 18660,
    "toes": 22567,
    "returning": 12209,
    "Ġhalting": 16273,
    "Ġgallied": 19558,
    "ower": 1055,
    "Ġactivity": 7920,
    "crawling": 16959,
    "o": 83,
    "kily": 20938,
    "Ġmoisture": 12362,
    "Ġsoph": 1600,
    "opposing": 24821,
    "Ġknown": 1645,
    "els": 1762,
    "Ġhoarsely": 26302,
    "Ġpropose": 9857,
    "silver": 19692,
    "Ġexploit": 19163,
    "Ġdiabol": 11456,
    "Ġproviding": 1359,
    "Ġgrinning": 9057,
    "Ġhey": 11644,
    "Ġhelp": 1642,
    "Ġdrove": 4984,
    "Ġdoom": 6417,
    "number": 10118,
    "Ġruinous": 24633,
    "Ġforgetfulness": 14606,
    "Ġthee": 2621,
    "Ġtugged": 17290,
    "Ġinquisitive": 26317,
    "Ġleast": 2064,
    "yet": 3753,
    "Ġofficers": 4427,
    "restraint": 18980,
    "wherein": 19108,
    "adru": 15734,
    "msman": 9273,
    "Ġglassy": 19562,
    "Ġforgiven": 24029,
    "ums": 10276,
    "Ġcomfor": 14056,
    "warnings": 20353,
    "Ġdiabolical": 20344,
    "Ġwipe": 25764,
    "ubl": 3594,
    "Ġunfailing": 24111,
    "roqu": 21536,
    "Ġsimulates": 2739,
    "Ġskip": 1845,
    "urmount": 13997,
    "shed": 8095,
    "Ġtormenting": 15107,
    "Ġtransplanted": 22444,
    "_,âĢĻâĢĿ": 20403,
    "Ġstrang": 4159,
    "horse": 8610,
    "Ġtattooings": 24900,
    "Ġcircumnav": 12429,
    "inst": 4296,
    "Ġcompetent": 11820,
    "iary": 15373,
    "castle": 3350,
    "Ġdirecting": 16303,
    "Ġrevelry": 15139,
    "ography": 13365,
    "aged": 2606,
    "yield": 13811,
    "Ġringed": 16751,
    "Ġrecourse": 22739,
    "iard": 9605,
    "ote": 4598,
    "Ġcheerily": 13310,
    "Ġrewarded": 14941,
    "Ġcocaine": 20722,
    "impatience": 25501,
    "Ġcalcul": 3637,
    "Ġendeavors": 16548,
    "Ġunp": 12776,
    "perceived": 8863,
    "Ġconjunction": 25102,
    "Ġforesaw": 19127,
    "drawing": 10490,
    "Ġlaborious": 13106,
    "Ġflea": 23775,
    "Ġthrow": 3783,
    "Ġsagaciously": 24729,
    "Ġsocket": 12793,
    "extent": 22763,
    "Ġredness": 19313,
    "Ġcharmed": 16763,
    "Ġlub": 15652,
    "Ġeffectively": 2635,
    "recollect": 17225,
    "studies": 25170,
    "Ġeating": 8136,
    "doubtful": 24789,
    "Ġcoldly": 14650,
    "Ġcountries": 13098,
    "Ġmob": 16020,
    "Ġdut": 2991,
    "Ġaust": 4872,
    "Ġshirt": 8854,
    "Ġannoyed": 17201,
    "Ġniagara": 26459,
    "Ġlirra": 21562,
    "Ġapparelled": 20439,
    "«": 109,
    "rane": 17654,
    "speech": 10670,
    "vult": 21115,
    "distinguish": 19574,
    "N": 50,
    "stayed": 25291,
    "Ġdevotedly": 24748,
    "Ġnumerical": 4246,
    "lydia": 6826,
    "Ġvary": 15810,
    "Ġembarrassment": 10630,
    "Ġridge": 14820,
    "Ġhoriz": 4727,
    "manif": 14375,
    "Ġnotable": 18222,
    "spin": 22731,
    "Ġoffer": 4845,
    "Ġshipped": 9719,
    "Ġfundamentals": 14635,
    "Ġunbecoming": 22067,
    "Ġdiscriminator": 3391,
    "Ġcongreg": 8464,
    "accounted": 16502,
    "lemag": 21374,
    "Ġpuzzle": 11308,
    "Ġcabinets": 23864,
    "steel": 8299,
    "Ġinvoking": 19146,
    "Ġungrateful": 14123,
    "Ġeas": 2350,
    "Ġby": 383,
    "Ġtomorrow": 21515,
    "stri": 6251,
    "Ġagonizing": 17240,
    "Ġoutput": 930,
    "gers": 8376,
    "Ġserenity": 10032,
    "aits": 20767,
    "Ġinattention": 17933,
    "Ġhesitating": 16948,
    "Ġprodigious": 8057,
    "Ġfrivolous": 26176,
    "Ġdocile": 19961,
    "swallowed": 14854,
    "Ġinflict": 15002,
    "Ġformality": 22833,
    "Ġinv": 2222,
    "ner": 1372,
    "fainting": 20475,
    "Ġrevenue": 26195,
    "Ġnarrations": 24351,
    "entiful": 10839,
    "Ġbits": 11592,
    "Ġindiam": 22955,
    "fowl": 17550,
    "Ġassailants": 20451,
    "Ġdistributions": 1051,
    "waves": 10745,
    "Ġvenge": 5420,
    "Ġbestirred": 20453,
    "Ġpurch": 6601,
    "âĢľ": 344,
    "Ġshovel": 23492,
    "Ġwhistles": 24624,
    "Ġexcell": 10417,
    "Ġrecept": 1524,
    "io": 3801,
    "Ġwidely": 8033,
    "Ġlargest": 6284,
    "Ġprobably": 4315,
    "Ġarabian": 9094,
    "Ġpittance": 15620,
    "produ": 10723,
    "Ġmuslin": 19385,
    "harpoon": 9495,
    "taller": 26150,
    "secut": 7867,
    "ĠĠĠĠĠ": 3525,
    "Ġglo": 1716,
    "Ġmusical": 23895,
    "Ġemployments": 12106,
    "Ġmission": 13009,
    "Ġconfirming": 25322,
    "Ġbrazen": 23842,
    "Ġarchbishop": 18726,
    "Ġentic": 16149,
    "search": 8467,
    "Ġlieuten": 13329,
    "fted": 9122,
    "bold": 17489,
    "Ġarve": 15905,
    "_).": 5888,
    "Đ": 209,
    "urning": 12920,
    "Ġsplin": 8623,
    "aston": 7409,
    "Ġturk": 6605,
    "iogn": 20922,
    "idual": 1563,
    "laws": 19809,
    "Ġtick": 8109,
    "both": 5785,
    "Ġdictated": 25219,
    "shell": 16288,
    "Ġfood": 5080,
    "Ġnightfall": 23132,
    "Ġissu": 6255,
    "Ġperforming": 7928,
    "Ġstruggle": 3675,
    "Ġ135": 24783,
    "Ġinsurmountable": 16533,
    "Ġfusion": 21416,
    "ational": 5716,
    "iam": 2505,
    "Ġxxxvi": 24971,
    "hos": 15366,
    "Ġtides": 13823,
    "Ġconverse": 11847,
    "Ġitaly": 10870,
    "Ġjenny": 20164,
    "Ġindisp": 18835,
    "Ġpantaloons": 20298,
    "Ġwaterloo": 11984,
    "Ġcabinet": 23863,
    "Ġforehead": 5262,
    "dog": 10697,
    "Ġperforms": 11880,
    "Ġtoiled": 12646,
    "limbs": 20193,
    "Ġobstin": 14954,
    "Ġverbal": 19381,
    "Ġenclosure": 20626,
    "Ġice": 3603,
    "Ġtrespass": 23601,
    "admit": 18092,
    "Ġtainted": 21172,
    "Ġankers": 21447,
    "that": 852,
    "Ġdisguises": 25057,
    "fal": 17537,
    "companions": 15025,
    "oniously": 21259,
    "slept": 17171,
    "valu": 1638,
    "grant": 10430,
    "Ġthence": 8886,
    "Ġthrew": 3971,
    "reng": 4000,
    "Ġbraw": 23837,
    "Ġremind": 6059,
    "Ġexploring": 4306,
    "lings": 8750,
    "Ġcalms": 23043,
    "rendering": 22346,
    "Ġbestowed": 6595,
    "vocation": 25086,
    "gallantry": 15060,
    ")âĢĶ": 20743,
    "Ġconfine": 14507,
    "Ġcategor": 4138,
    "Ġpartake": 18670,
    "Ġsports": 18310,
    "Ġline": 1851,
    "admire": 24945,
    "Ġbethink": 12382,
    "Ġconcentration": 25064,
    "avern": 24790,
    "Ġnut": 12650,
    "correct": 24482,
    "Ġarsacides": 17296,
    "Ġremoved": 5275,
    "Ġchildren": 3767,
    "Ġstress": 18071,
    "bey": 10318,
    "Ġacquire": 2724,
    "Ġdirections": 1971,
    "Ġcondemned": 7779,
    "Ġsweetheart": 19397,
    "unvarying": 21890,
    "haut": 20903,
    "throt": 25659,
    "venison": 22630,
    "Ġdoth": 13910,
    "sensations": 20053,
    "Ġfiddle": 25445,
    "shock": 19856,
    "envelope": 17783,
    "Ġcomparable": 24280,
    "Ġpearl": 20379,
    "Ġasking": 5651,
    "Ġaugmented": 15108,
    "verbally": 25361,
    "Ġruff": 14350,
    "unched": 10239,
    "hearted": 6971,
    "Ĺ": 250,
    "Ġparalle": 1413,
    "Ġsiberia": 26161,
    "Ġnote": 4264,
    "Ġinterests": 14568,
    "âĢĿâĢĶ": 5721,
    "obed": 14448,
    "omen": 4082,
    "finds": 19928,
    "ns": 750,
    "Ġinve": 17930,
    "human": 7090,
    "steps": 9409,
    "Ġlivers": 18461,
    "Ġ120": 16859,
    "Ġunfinished": 19511,
    "Ġexploding": 2110,
    "future": 13719,
    "Ġhelmsman": 10508,
    "Ġprogram": 12995,
    "guilty": 19485,
    "aped": 3764,
    "Ġengaging": 9340,
    "Ġreminiscences": 26270,
    "ches": 2147,
    "locks": 14458,
    "Ġstately": 9838,
    "devil": 7895,
    "netherfield": 9817,
    "crazy": 24691,
    "Ġbenefits": 4287,
    "Ġexperiences": 13028,
    "fac": 17542,
    "Ġstair": 8457,
    "necessarily": 19633,
    "Ġlanes": 19767,
    "Ġcirculation": 16419,
    "âĢĶâĢĺ": 7015,
    "ior": 2040,
    "abhor": 12711,
    "Ġcloser": 8664,
    "Ġc": 277,
    "threshold": 21990,
    "Ġyielded": 14873,
    "Ġsoothingly": 25049,
    "Ġindispensable": 11904,
    "rope": 3185,
    "Ġneighbours": 8303,
    "'d": 12430,
    "Ġchimneys": 16973,
    "bacc": 7795,
    "since": 5896,
    "hro": 20892,
    "cloth": 11940,
    "ential": 826,
    "Ġearnestly": 5980,
    "Ġchann": 15938,
    "pleasantness": 19772,
    "Ġschools": 9481,
    "Ġdus": 8424,
    "Ġowned": 11879,
    "Ġdefinitions": 22946,
    "otent": 8837,
    "Ġcomplet": 4424,
    "murderer": 13395,
    "equally": 19900,
    "Ġshan": 9253,
    "Ġlimping": 23547,
    "Ġdilated": 24702,
    "Ġtents": 13820,
    "buffalo": 20565,
    "Ġidly": 16406,
    "real": 10153,
    "Ġmalady": 24391,
    "Ġdri": 2360,
    "Ġtexture": 19161,
    "Ġboundless": 10499,
    "Ġcrouched": 23440,
    "Ġreck": 6539,
    "Ġlane": 5627,
    "Ġsubmission": 22791,
    "Ġdoubted": 7964,
    "Ġwow": 15531,
    "Ġleads": 12100,
    "Ġbirch": 26174,
    "Ġrelaxed": 12987,
    "pid": 1398,
    "Ġcad": 12572,
    "willingness": 24753,
    "Ġhissing": 15793,
    "Ġadvent": 4358,
    "Ġlonging": 14300,
    "enty": 2920,
    "Ġpervading": 20615,
    "Ġadded": 2717,
    "did": 3195,
    "Ġtraverse": 18890,
    "opportunity": 12278,
    "Ġpia": 21466,
    "icked": 10336,
    "Ġforming": 7044,
    ".,": 5989,
    "Ġgraceful": 11299,
    "Ġarrival": 4732,
    "Ġnupt": 13945,
    "Ġencirc": 18731,
    "cet": 15327,
    "Ġinsurance": 23683,
    "Ġcliffs": 15974,
    "Ġtrying": 4840,
    "arnel": 18123,
    "remental": 21249,
    "Ġcrosses": 23062,
    "nep": 20987,
    "Ġinmates": 15626,
    "Ġtrifles": 16952,
    "Ġser": 1674,
    "Ġcouns": 10524,
    "glim": 19367,
    "Ġgardiner": 3238,
    "Ġloite": 22114,
    "Ġjavelin": 26104,
    "igner": 21704,
    "ishop": 9746,
    "Ġwife": 2587,
    "Ġblot": 9816,
    "Ġgills": 17994,
    "Ġwaist": 6892,
    "dashed": 12459,
    "Ġapplied": 6188,
    "Ġbravely": 23841,
    "Ġscraping": 13418,
    "Ġeverybody": 4512,
    "ys": 3958,
    "Ġrec": 897,
    "Ġfootfall": 14661,
    "Ġreplaced": 13074,
    "Ġfriendship": 7247,
    "Ġicebergs": 23977,
    "tell": 1379,
    "Ġjudging": 16596,
    "Ġcorpulence": 24508,
    "hend": 13254,
    "Ġsteered": 11094,
    "Ġbattle": 5909,
    "Ġlabeled": 3719,
    "Ġconsulting": 13431,
    "Ġoutlaws": 22326,
    "speechless": 25396,
    "Ġcave": 10788,
    "cery": 20809,
    "Ġconvenience": 11334,
    "scattered": 22997,
    "Ġphilistines": 26082,
    "Ġbroke": 5323,
    "Ġunheard": 22028,
    "Ġtimid": 6347,
    "Ġlavater": 20498,
    "Ġeul": 21620,
    "Ġhab": 4217,
    "Ġperception": 9754,
    "Ġbracelets": 25503,
    "Ġroughs": 19959,
    "wand": 10741,
    "Ġanother": 1738,
    "distinct": 13338,
    "Ġsentin": 16372,
    "Ġvertical": 16605,
    "enge": 21282,
    "Ġcrevice": 22725,
    "Ġlur": 5226,
    "Ġtask": 1309,
    "Ġoptimizer": 5035,
    "insensibility": 23069,
    "Ġowning": 18745,
    "Ġrefined": 18708,
    "contained": 22475,
    "Ġstrat": 16091,
    "respect": 6375,
    "continuance": 19720,
    "Ġarchy": 14353,
    "Ġstock": 7456,
    "Ġchanged": 5243,
    "Ġforeheads": 23448,
    "Ġshoots": 14567,
    "cadence": 26125,
    "prot": 6899,
    "Ġexile": 12720,
    "isome": 17849,
    "Ġloss": 824,
    "resolution": 17767,
    "Ġrout": 7403,
    "Ġoutlast": 22316,
    "proved": 11990,
    "eenth": 12464,
    "Ġprepare": 8651,
    "Ġstyle": 6946,
    "Ġhellish": 10554,
    "Ġpreposter": 12826,
    "Ġswitzerland": 10383,
    "Ġconfidential": 9092,
    "Ġnook": 15931,
    "agitation": 14070,
    "Ġdollar": 25284,
    "Ġcrest": 12945,
    "Ġportra": 9013,
    "trees": 10734,
    "ver": 331,
    "sockets": 22730,
    "million": 25751,
    "Ġbaked": 21388,
    "Ġado": 7628,
    "soup": 21060,
    "childhood": 16869,
    "myster": 16264,
    "haul": 14766,
    "Ġostens": 25276,
    "Ġhoofs": 14527,
    "Ġarid": 22190,
    "Ġimpenetrable": 17399,
    "Ġclaim": 5106,
    "Ġbr": 1071,
    "Ġmarshy": 20220,
    "Ġhus": 3095,
    "Ġaspects": 4172,
    "Ġirreproachable": 24917,
    "reat": 617,
    "sander": 11530,
    "lung": 17592,
    "Ġvulgarity": 25364,
    "mot": 17597,
    "Ġthinner": 24184,
    "Ġfries": 21417,
    "&": 10,
    "Ġcorresponds": 19823,
    "Ġwit": 3840,
    "Ġassaults": 15159,
    "diminished": 20840,
    "attracted": 13054,
    "warrant": 21139,
    "Ġweld": 8112,
    "Ġcrop": 10166,
    "Ġgrappling": 25812,
    "Ġfastened": 7067,
    "Ġlays": 15992,
    "soldiers": 25911,
    "Ġslit": 13060,
    "Ġdisplaying": 16967,
    "Ġdefer": 18823,
    "Ġalps": 10873,
    "Ġpsal": 15619,
    "Ġunceasing": 20360,
    "overfitting": 13102,
    "consolatory": 25307,
    "vember": 10858,
    "ateness": 15522,
    "Ġ34": 16678,
    "Ġaversion": 18867,
    "Ġanyhow": 14256,
    "Ġceti": 24771,
    "Ġentries": 22743,
    "watery": 19828,
    "Ġmemb": 14032,
    "iliation": 10863,
    "iger": 8448,
    "circumspect": 26086,
    ".âĢĿ": 464,
    "Ġstiffness": 24827,
    "Ġbasin": 19849,
    "Ġscrolled": 22273,
    "Ġmutilated": 23961,
    "Ġallowance": 14391,
    "vi": 2372,
    "rove": 21535,
    "Ġesteemed": 10592,
    "Ġalleviated": 26204,
    "Ġbottle": 7491,
    "Ġinsolent": 13603,
    "Ġcurly": 18845,
    "Ġsolved": 8935,
    "Ġprosper": 10233,
    "Ġmirth": 15548,
    "civil": 7797,
    "Ġmayhew": 12952,
    "lips": 13752,
    "Ġmaking": 1777,
    "impatiently": 20473,
    "Ġgoest": 22426,
    "mount": 9133,
    "ccess": 3183,
    "Ġponderous": 8356,
    "uce": 11539,
    "iem": 20918,
    "Ġton": 15466,
    "Ġwas": 370,
    "ese": 4445,
    "Ġchannels": 26013,
    "pin": 13769,
    "respectable": 19848,
    "cong": 10692,
    "Ġshank": 22000,
    "Ġtwisted": 7229,
    "ime": 625,
    "ors": 856,
    "necess": 4897,
    "Ġlearnedly": 23388,
    "Ġletter": 2197,
[...]
